<unk>	0
<s>	0
</s>	0
▁.	-3.49343
▁،	-3.51488
▁	-3.63634
▁في	-4.01606
▁من	-4.12036
ة	-4.17476
;	-4.25435
▁و	-4.25638
▁&	-4.2625
ot	-4.26553
qu	-4.26632
▁ال	-4.53067
ي	-4.62257
▁أن	-4.64819
ه	-4.81386
ا	-4.90702
▁على	-4.91822
نا	-4.96562
ها	-5.04963
ات	-5.15855
▁هذا	-5.19387
▁ما	-5.2372
ت	-5.25275
ون	-5.25545
ية	-5.34576
▁ب	-5.36712
▁ت	-5.40559
ين	-5.45591
▁م	-5.46295
▁,	-5.4686
▁هذه	-5.47
▁لا	-5.4717
وا	-5.53615
▁ل	-5.56317
ن	-5.56715
▁ي	-5.58151
▁هو	-5.58632
ك	-5.61462
▁إلى	-5.63822
▁التي	-5.6525
▁؟	-5.66903
▁الم	-5.67264
▁ذلك	-5.67621
▁عن	-5.73414
اً	-5.74224
▁كان	-5.76795
▁أ	-5.76867
▁ن	-5.81139
▁كل	-5.84781
▁الذي	-5.84821
(	-5.86158
▁)	-5.86164
▁ان	-5.86933
▁لل	-5.88838
هم	-5.88882
▁ا	-5.91173
م	-5.98765
▁مع	-5.99418
▁لم	-6.01829
▁أو	-6.03823
▁:	-6.0686
▁هي	-6.08474
▁—	-6.12518
▁وال	-6.13134
▁هناك	-6.13583
▁بال	-6.19362
▁..	-6.20449
▁لكن	-6.25631
▁ولكن	-6.32217
ني	-6.4233
▁عندما	-6.47628
▁الآن	-6.47791
▁كانت	-6.48199
▁قد	-6.50912
▁تلك	-6.53026
د	-6.57858
ع	-6.579
▁كنت	-6.60066
▁الناس	-6.61969
▁يمكن	-6.64757
▁أكثر	-6.65596
ب	-6.65995
ى	-6.6631
▁فقط	-6.66832
ًا	-6.67837
▁هنا	-6.69057
▁لي	-6.71129
▁ضحك	-6.71485
ح	-6.71701
▁أنه	-6.71946
▁إذا	-6.7199
▁الى	-6.7254
▁لقد	-6.75272
ان	-6.75836
▁مثل	-6.77453
▁ليس	-6.78808
▁العالم	-6.78942
كم	-6.80545
▁ف	-6.80571
▁نحن	-6.80865
▁أي	-6.80941
▁شيء	-6.8255
ما	-6.8262
و	-6.84774
▁بعض	-6.87821
▁كما	-6.88252
▁بعد	-6.88541
ز	-6.89779
▁إن	-6.91067
▁ك	-6.92333
▁كيف	-6.94924
▁حتى	-6.95367
▁حيث	-6.95592
ص	-6.98282
▁ثم	-6.98507
▁حول	-6.98537
▁الأ	-6.99448
▁قبل	-6.99592
س	-6.99844
ّ	-6.99961
▁هل	-7.00707
ر	-7.02453
▁إ	-7.02724
▁أنا	-7.03116
ُ	-7.03453
▁لذا	-7.04274
▁لن	-7.0475
▁يكون	-7.05027
ل	-7.05545
▁سي	-7.08023
ف	-7.08903
▁وهذا	-7.094
▁الت	-7.09528
▁بين	-7.09934
▁الكثير	-7.1009
▁غير	-7.10364
▁اليوم	-7.13906
▁خلال	-7.14272
▁لأن	-7.14634
▁شخص	-7.14791
اء	-7.15
▁لذلك	-7.15038
▁وت	-7.15093
ج	-7.18577
▁تكون	-7.188
▁به	-7.18836
▁الا	-7.1907
▁لدينا	-7.1986
▁♫	-7.2021
▁وأ	-7.2157
▁يجب	-7.21801
ق	-7.21867
▁بشكل	-7.22869
▁تصفيق	-7.23562
▁الواقع	-7.24367
تي	-7.26351
▁سوف	-7.2702
▁الأمر	-7.28671
ش	-7.28812
▁واحد	-7.28844
خ	-7.29689
ذ	-7.29788
▁جداً	-7.31343
▁تم	-7.31438
▁أخرى	-7.31571
▁بها	-7.33193
ته	-7.33519
▁الوقت	-7.33993
ير	-7.34109
ط	-7.34853
▁جدا	-7.36191
▁وفي	-7.38265
▁وقد	-7.38986
▁أحد	-7.39202
يا	-7.39391
▁بأن	-7.39415
ور	-7.39758
▁ست	-7.40019
▁لو	-7.40034
غ	-7.40072
▁عام	-7.4145
ال	-7.444
▁ماذا	-7.4443
يات	-7.45232
▁وهو	-7.46023
ئ	-7.46315
▁الأشياء	-7.46318
▁آخر	-7.47685
▁لكم	-7.48056
▁الإ	-7.49132
▁ومن	-7.51565
▁مرة	-7.5177
▁-	-7.52666
▁يمكننا	-7.52748
▁ربما	-7.52968
تها	-7.53015
▁العمل	-7.54917
▁أعتقد	-7.55755
▁انه	-7.56041
▁إنها	-7.57056
▁إنه	-7.57211
▁لت	-7.57598
▁عليه	-7.57766
▁نوع	-7.58473
ٍ	-7.59016
▁سن	-7.59436
▁يمكنك	-7.59565
ول	-7.59581
يل	-7.59675
▁مكان	-7.60393
▁والتي	-7.60964
َ	-7.61784
▁الع	-7.62117
أ	-7.62183
▁وا	-7.62305
▁نفس	-7.64362
ث	-7.65044
▁حسنا	-7.65341
ض	-7.65473
▁با	-7.65904
▁الحقيقة	-7.66759
▁وم	-7.67492
تنا	-7.67564
▁وهي	-7.6864
▁ليست	-7.68838
▁أفضل	-7.69074
▁سنة	-7.69286
لي	-7.69914
▁علينا	-7.70676
▁الحياة	-7.71222
▁بالنسب	-7.71668
ً	-7.72508
▁يحدث	-7.72536
▁واحدة	-7.73151
▁منذ	-7.73298
▁فإن	-7.73737
▁...	-7.74337
▁أنها	-7.75071
▁س	-7.75768
▁عمل	-7.76608
▁جميع	-7.76933
ست	-7.77308
فى	-7.77562
▁بل	-7.77663
▁لماذا	-7.78907
▁لنا	-7.79557
▁يتم	-7.79671
▁او	-7.80218
▁كم	-7.80698
بر	-7.81381
▁ولا	-7.81995
▁كذلك	-7.8217
▁عند	-7.8328
▁وكان	-7.83292
▁وقت	-7.83382
▁لأ	-7.83419
▁عبر	-7.8397
▁كنا	-7.8476
ـ	-7.84779
▁اذا	-7.85452
ام	-7.85836
▁أيضا	-7.86055
▁القيام	-7.86137
.	-7.86369
▁بذلك	-7.87406
▁يكن	-7.87637
▁طريق	-7.87665
اب	-7.88992
▁يبدو	-7.89482
▁له	-7.89594
▁لأنه	-7.89829
ود	-7.90308
▁يوجد	-7.90463
▁والذي	-7.90963
▁حسناً	-7.91046
▁يوم	-7.9106
▁لكي	-7.91357
▁سنوات	-7.91754
▁والم	-7.91868
▁أيضاً	-7.92897
مر	-7.93616
▁الان	-7.93724
فر	-7.94133
▁عليها	-7.9419
▁حين	-7.94343
وس	-7.94856
▁ر	-7.94916
▁انها	-7.94937
▁كبير	-7.96103
▁الب	-7.96153
اف	-7.96183
▁لها	-7.96199
▁الأرض	-7.96869
ٌ	-7.96906
▁يقوم	-7.98025
▁مت	-7.98624
▁علي	-7.99101
ِ	-7.99254
▁أريد	-7.99352
▁فعل	-7.99415
▁مختلفة	-7.99581
▁تقوم	-7.99616
▁ع	-8.00576
▁ج	-8.01087
▁بسبب	-8.01635
▁كبيرة	-8.02133
▁أول	-8.02343
تم	-8.02365
▁داخل	-8.02394
▁فقد	-8.02733
-	-8.03064
▁بدأت	-8.03086
يد	-8.04145
▁أكبر	-8.04252
▁المتحدة	-8.04415
اس	-8.04716
اد	-8.04782
▁هؤلاء	-8.04845
▁العديد	-8.05034
▁وب	-8.05105
▁سأ	-8.05313
▁فكرة	-8.05598
▁أجل	-8.06027
يب	-8.06293
▁كانوا	-8.06367
▁يت	-8.0644
▁نعم	-8.06478
▁وما	-8.06481
وم	-8.06838
▁يعني	-8.06977
▁الطريقة	-8.07303
▁ح	-8.07404
▁فيها	-8.07584
▁بم	-8.08143
▁الن	-8.08361
▁سيكون	-8.08842
لا	-8.09044
جر	-8.09299
▁لك	-8.09544
▁الف	-8.0968
يس	-8.0974
▁لدي	-8.09797
▁نقوم	-8.09851
▁قال	-8.0996
تك	-8.10189
▁هم	-8.10447
▁بت	-8.1085
بي	-8.11005
▁للم	-8.11168
▁عدد	-8.11382
▁وهذه	-8.12243
▁طريقة	-8.12569
▁قام	-8.12653
تين	-8.13314
▁جديدة	-8.14321
يف	-8.1439
▁الشيء	-8.14571
▁مما	-8.14753
يم	-8.15039
▁نحو	-8.15297
قل	-8.15464
▁بالفعل	-8.1551
رت	-8.15561
▁جيد	-8.16225
▁الأطفال	-8.16458
▁أم	-8.16522
▁بهذا	-8.16554
▁المعلومات	-8.17227
▁نظام	-8.17373
▁نستطيع	-8.18062
▁تحت	-8.18411
▁دولار	-8.18442
ري	-8.18598
▁فيه	-8.1862
▁قمنا	-8.18705
▁بما	-8.18791
▁ذات	-8.18851
▁الح	-8.19476
▁تعلمون	-8.19596
در	-8.19981
تر	-8.20325
▁بطريقة	-8.20325
عد	-8.20448
▁جزء	-8.20846
▁عالم	-8.21292
▁الأشخاص	-8.21298
اع	-8.21471
سي	-8.21654
▁فهم	-8.21831
▁د	-8.22252
▁لهذا	-8.22532
▁معظم	-8.22648
▁مجموعة	-8.22753
دي	-8.2278
يق	-8.22867
را	-8.23334
1	-8.23443
▁أمر	-8.2348
▁لديهم	-8.23952
قر	-8.24046
▁شئ	-8.24215
ار	-8.24493
تهم	-8.24727
اح	-8.24735
عندما	-8.25019
▁إذن	-8.25681
▁للغاية	-8.25968
▁لهم	-8.25986
يت	-8.26041
▁علم	-8.26061
▁الش	-8.2615
▁حدث	-8.26577
▁وضع	-8.26761
▁صحيح	-8.27302
▁قمت	-8.27386
▁الس	-8.27716
▁جديد	-8.27883
هن	-8.28225
▁أنت	-8.28419
ؤ	-8.28552
▁شكرا	-8.28691
▁الج	-8.293
▁الر	-8.29381
▁ص	-8.29424
▁إذاً	-8.29608
يك	-8.29803
▁مليون	-8.29813
▁ونحن	-8.29871
▁حوالي	-8.29917
▁الصورة	-8.30161
وي	-8.30192
▁وأنا	-8.3066
▁أنني	-8.30749
▁تت	-8.31076
لف	-8.31176
▁تماما	-8.31218
▁اي	-8.31304
▁أقل	-8.31999
ظ	-8.32191
▁العام	-8.32197
▁استخدام	-8.32271
▁صغيرة	-8.32303
اق	-8.32382
▁حقاً	-8.32863
▁الطاقة	-8.33062
▁الولايات	-8.33169
دة	-8.33776
بة	-8.33939
▁10	-8.34167
▁حقا	-8.34474
▁البيانات	-8.3457
▁الك	-8.34703
سم	-8.35215
دو	-8.35371
جل	-8.35658
وب	-8.35684
▁صورة	-8.36241
▁أشياء	-8.36508
▁خ	-8.3697
▁مختلف	-8.37329
وق	-8.37352
وف	-8.37483
▁المثال	-8.37737
الحصول	-8.37778
▁تستطيع	-8.37829
▁أنهم	-8.37843
▁البعض	-8.37997
▁وبعد	-8.3814
على	-8.38725
▁الق	-8.38757
▁يُ	-8.38762
▁بالم	-8.38824
فا	-8.39385
▁كيفية	-8.39436
▁منها	-8.3948
▁وأن	-8.39574
▁الأولى	-8.39614
قول	-8.39635
▁دون	-8.40298
▁جعل	-8.41098
▁عليك	-8.41223
▁مجرد	-8.41371
▁الأخرى	-8.4154
▁حال	-8.41723
▁است	-8.4233
▁هنالك	-8.42419
▁رؤية	-8.42544
▁نحتاج	-8.42569
▁حد	-8.42765
▁ثلاثة	-8.42861
▁الخاصة	-8.42868
آ	-8.42868
▁بأ	-8.43049
▁ولم	-8.43272
سل	-8.43273
▁المت	-8.43311
▁أصبح	-8.43474
▁وجود	-8.43734
▁النوع	-8.43916
▁البشر	-8.44023
▁الدماغ	-8.44243
يين	-8.44472
حت	-8.44577
كون	-8.44716
زي	-8.44839
وه	-8.44894
▁تُ	-8.45032
▁يقول	-8.45193
▁بهذه	-8.45543
رو	-8.45551
▁مر	-8.45968
▁لكل	-8.46089
▁غ	-8.46321
▁الأول	-8.46338
▁20	-8.4658
▁بناء	-8.46602
فق	-8.46707
▁نرى	-8.4705
▁لإ	-8.47144
▁طفل	-8.4723
ذلك	-8.47252
▁المال	-8.47585
▁تكن	-8.47592
▁الخ	-8.47717
نت	-8.48157
▁تعمل	-8.48157
▁حل	-8.48211
▁لديك	-8.48214
▁خارج	-8.48449
▁الفكرة	-8.48572
اج	-8.48614
لو	-8.48623
▁الشخص	-8.4872
▁ترون	-8.48755
▁بإ	-8.48764
إعادة	-8.48978
▁الماضي	-8.49175
▁ش	-8.49677
▁رائع	-8.49823
▁لديه	-8.5008
▁مشكلة	-8.50367
عة	-8.50441
▁هكذا	-8.50522
▁19	-8.50622
▁بالطبع	-8.50743
▁نهاية	-8.51135
▁بصورة	-8.51474
اض	-8.5154
رد	-8.51709
▁المشكلة	-8.51911
▁التكنولوجيا	-8.51925
▁السؤال	-8.52056
▁تبدو	-8.52177
▁تن	-8.52258
▁النظر	-8.52278
▁يمكنكم	-8.52591
▁أعرف	-8.52608
▁انا	-8.52631
▁الجميع	-8.52649
جن	-8.52818
▁وكل	-8.53108
▁بنفس	-8.53183
▁شكراً	-8.53249
▁النساء	-8.53304
▁الخلايا	-8.53628
فت	-8.53739
خر	-8.53739
▁يعمل	-8.53853
▁النظام	-8.53966
▁أقول	-8.54038
e	-8.54685
▁أين	-8.54715
▁مثال	-8.55157
▁بي	-8.55162
▁بكل	-8.55186
رة	-8.55231
▁سبيل	-8.55445
▁بدون	-8.55614
في	-8.56061
صح	-8.56075
▁حقيقة	-8.56115
▁يجعل	-8.56204
قص	-8.56271
▁مجال	-8.56404
▁عدة	-8.56635
صور	-8.56736
مثل	-8.56802
▁الآخر	-8.57419
بل	-8.57745
رغم	-8.57804
▁المجتمع	-8.57932
▁شيئا	-8.58003
▁نريد	-8.5819
▁صوت	-8.58456
▁عشر	-8.58491
جد	-8.59333
لت	-8.59495
خل	-8.59733
▁الأمور	-8.59757
▁السبب	-8.59821
ذا	-8.59845
مت	-8.59889
عت	-8.60197
كر	-8.60429
▁لان	-8.60469
يه	-8.60512
▁اكثر	-8.60606
▁المكان	-8.60766
بت	-8.60814
▁حياة	-8.60845
قة	-8.61122
مان	-8.61286
▁تقول	-8.6137
▁شكل	-8.61407
▁التفكير	-8.61545
▁تغيير	-8.61973
▁الص	-8.62033
▁الصور	-8.62125
▁بينما	-8.6216
▁بحاجة	-8.62177
قت	-8.62258
▁ق	-8.62377
▁المستقبل	-8.6262
هما	-8.62632
▁وهناك	-8.62815
شي	-8.63062
▁بدأ	-8.63111
▁الخاص	-8.63318
فل	-8.63582
▁الهند	-8.63747
▁فال	-8.63895
▁وجه	-8.64057
▁وليس	-8.641
كس	-8.64113
اش	-8.64209
مة	-8.64351
▁نفسه	-8.64434
▁قلت	-8.64642
▁مهم	-8.64865
▁ثلاث	-8.65004
▁نعرف	-8.6521
▁تحدث	-8.65279
▁ط	-8.65285
▁الماء	-8.65766
▁الطريق	-8.65834
صر	-8.6588
▁صغير	-8.65908
حل	-8.65988
▁قصة	-8.66152
▁عملية	-8.66205
▁جيدة	-8.66228
▁الصغيرة	-8.66825
▁كال	-8.67034
a	-8.67672
2	-8.6797
▁الأكثر	-8.68005
▁رجل	-8.68225
▁أحب	-8.68339
▁والآن	-8.68502
▁لديها	-8.68646
▁يستطيع	-8.68678
▁عنه	-8.69123
▁لهذه	-8.6918
نظر	-8.69191
▁ستكون	-8.69276
▁والأ	-8.69353
▁ترى	-8.69694
▁مدى	-8.69713
وت	-8.69943
▁بن	-8.69962
▁ويمكن	-8.70124
▁أصبحت	-8.70252
▁بعمل	-8.70625
▁تعرف	-8.70642
▁المحيط	-8.70682
رق	-8.70862
▁فوق	-8.70969
▁تريد	-8.71044
▁بواسطة	-8.71356
▁نكون	-8.71565
▁أستطيع	-8.71688
▁عرض	-8.71783
▁فان	-8.72031
ّا	-8.72225
▁المزيد	-8.72252
▁تعلم	-8.72523
يّ	-8.72725
▁دعونا	-8.72823
وع	-8.73181
كت	-8.73245
▁شركة	-8.73359
▁فعله	-8.73554
طف	-8.73793
▁القرن	-8.73943
▁الإنترنت	-8.73967
وز	-8.74039
من	-8.74295
8	-8.74324
شار	-8.74433
صل	-8.74446
▁الرجل	-8.74605
▁التعليم	-8.74652
سو	-8.74706
▁منكم	-8.74855
▁نفسي	-8.74924
▁صنع	-8.74976
صف	-8.7521
▁الممكن	-8.75373
▁مستوى	-8.75504
▁تغير	-8.75643
▁قدم	-8.75688
▁حالة	-8.75773
▁بكثير	-8.75984
ئة	-8.76017
حي	-8.76092
▁بحيث	-8.7622
▁وكانت	-8.76474
▁آ	-8.76476
▁ومع	-8.76604
مي	-8.76836
▁تماماً	-8.77147
▁جدًا	-8.77167
▁دي	-8.77391
طل	-8.77541
ياً	-8.77814
▁منهم	-8.78131
ثر	-8.78246
▁المن	-8.78415
ائي	-8.78837
بط	-8.7885
▁يا	-8.7894
▁3	-8.79371
وية	-8.79522
▁الامر	-8.79637
▁أليس	-8.79898
عب	-8.799
▁أود	-8.79921
▁نصف	-8.80227
▁الغ	-8.80354
▁عدم	-8.80744
▁البحث	-8.80885
اني	-8.81117
فكر	-8.81143
▁وهكذا	-8.81205
وك	-8.81436
دا	-8.81446
▁الحيوانات	-8.81532
▁مدينة	-8.81546
▁بسرعة	-8.81593
▁الحرب	-8.81822
▁نعلم	-8.81841
▁وبالتال	-8.81861
صاب	-8.81946
▁بك	-8.82003
▁تفعل	-8.82022
▁الرجال	-8.82036
جز	-8.82162
▁معرفة	-8.82217
▁كي	-8.82258
نس	-8.82293
▁معا	-8.82381
بع	-8.82424
حة	-8.82485
▁أخذ	-8.8249
▁أردت	-8.82509
ضع	-8.82527
▁فعلا	-8.82627
▁فا	-8.82632
سر	-8.82723
▁ينبغي	-8.83392
▁اعتقد	-8.83559
▁تحتاج	-8.84029
▁لمدة	-8.84096
▁أنواع	-8.84099
▁جو	-8.841
مو	-8.84151
ادي	-8.8422
▁100	-8.84303
▁المع	-8.84405
اك	-8.84484
ائل	-8.84496
▁كتاب	-8.84533
▁أنّ	-8.84704
▁بالت	-8.8485
▁أفريقيا	-8.84868
▁القصة	-8.85006
▁الحديث	-8.85174
▁للأ	-8.85287
▁للت	-8.85393
9	-8.85567
▁الإنسان	-8.85581
▁توجد	-8.85653
▁حياتي	-8.85662
قوم	-8.85779
▁الأن	-8.85947
لقد	-8.86049
▁وان	-8.86088
لم	-8.8612
▁مشروع	-8.8616
بد	-8.86491
▁ول	-8.86576
▁جهاز	-8.86607
شر	-8.86672
▁نفعل	-8.86767
ربما	-8.86898
▁بدأنا	-8.86957
▁أمام	-8.87195
كل	-8.87319
قي	-8.87478
▁كون	-8.87538
عي	-8.87631
دم	-8.87657
▁المدينة	-8.87666
وها	-8.87883
▁الدول	-8.87947
اط	-8.87963
▁باستخدام	-8.88089
تعامل	-8.88154
▁تصبح	-8.882
▁لأننا	-8.8823
▁دائما	-8.88259
تحدث	-8.88341
▁الجزء	-8.88361
دعو	-8.88481
▁الماضية	-8.88575
بن	-8.8863
دل	-8.88659
رس	-8.88677
▁رائعة	-8.88777
شارك	-8.88832
لة	-8.88988
أنحاء	-8.89004
▁ذهبت	-8.89005
▁لما	-8.89055
▁كريس	-8.89104
▁الط	-8.89238
▁يعرف	-8.89266
حم	-8.89373
زم	-8.89385
رى	-8.89445
سب	-8.89517
▁الكون	-8.8952
▁دور	-8.89524
▁إليه	-8.89657
▁مُ	-8.89673
يّة	-8.89724
▁والت	-8.89727
▁المياه	-8.89786
▁سو	-8.89802
▁الصين	-8.8986
▁عنها	-8.89961
▁النهاية	-8.90115
وح	-8.90159
ميل	-8.90241
بو	-8.90321
▁يصبح	-8.90384
▁البحر	-8.90385
بني	-8.90396
▁أعني	-8.90554
▁مثير	-8.90585
صب	-8.90676
▁سبب	-8.90769
كما	-8.90877
▁بإمكان	-8.90939
▁وإذا	-8.91166
▁لدى	-8.91291
▁وإ	-8.91343
▁ممكن	-8.91858
جو	-8.91882
▁جي	-8.9192
هر	-8.91953
▁خط	-8.91994
يو	-8.92083
▁أنك	-8.92205
▁تصميم	-8.92228
▁50	-8.92394
جعل	-8.92427
▁شيئاً	-8.92448
▁إلي	-8.92526
▁يمكنني	-8.92625
▁إلا	-8.92721
▁كلما	-8.92778
▁صور	-8.92804
صال	-8.92863
▁جميعا	-8.92896
يز	-8.92931
▁لأنها	-8.93032
▁ضد	-8.93114
7	-8.93192
دع	-8.93322
▁الثانية	-8.93335
ذر	-8.93527
▁تاريخ	-8.93568
▁موقع	-8.93576
بدأ	-8.93631
▁نظر	-8.93736
وض	-8.93751
▁الحال	-8.93851
▁بأنه	-8.93921
▁الآ	-8.93975
▁السنة	-8.94038
اري	-8.94099
طر	-8.94157
رب	-8.94479
▁الطبيعة	-8.94529
▁الفضاء	-8.94744
▁30	-8.94792
0	-8.94821
فضل	-8.9483
▁الحل	-8.94883
▁المنزل	-8.94886
▁أشخاص	-8.95008
▁المدرسة	-8.95289
▁سؤال	-8.95319
درس	-8.95323
ّة	-8.95465
▁مجتمع	-8.9554
▁تعرفون	-8.9556
▁الجديدة	-8.95689
راء	-8.95934
سا	-8.95991
▁مباشرة	-8.96055
▁حينها	-8.9608
بار	-8.96384
▁فهي	-8.96427
▁الثاني	-8.96467
▁تجعل	-8.96821
فض	-8.96912
00	-8.97029
▁وجدت	-8.97178
▁سا	-8.97191
▁مهمة	-8.97356
▁الجانب	-8.97433
جاب	-8.98027
طي	-8.98114
▁الشمس	-8.98146
▁تحصل	-8.98242
با	-8.98273
▁جانب	-8.98454
غا	-8.98455
▁المشاكل	-8.98479
▁الضوء	-8.98509
ائية	-8.98563
▁بدل	-8.98683
▁قليلا	-8.98743
▁التصميم	-8.98781
▁درجة	-8.98783
▁وكنت	-8.98785
▁فترة	-8.99239
4	-8.99311
تش	-8.99372
o	-8.99475
كن	-8.99636
▁تجد	-8.99669
i	-8.9975
▁ميل	-8.99974
▁عبارة	-8.99989
▁نفسها	-9.00022
▁الزمن	-9.00067
حص	-9.00073
لام	-9.00187
▁كلمة	-9.00246
علم	-9.00421
جب	-9.00668
▁15	-9.00731
▁نيويورك	-9.00777
رات	-9.00849
▁نظرت	-9.0089
ارت	-9.00931
▁الوحيد	-9.00936
فع	-9.00964
جا	-9.01094
▁حجم	-9.01115
,000	-9.01231
▁يحصل	-9.01259
▁تستخدم	-9.01305
▁سواء	-9.01497
▁مركز	-9.01758
▁عليهم	-9.01779
قال	-9.01898
▁لكنه	-9.01939
خرج	-9.02007
قم	-9.02013
▁العملية	-9.02098
▁وحتى	-9.02174
▁رو	-9.0234
▁أقوم	-9.02448
▁الحكومة	-9.02467
زل	-9.0255
▁5	-9.02796
▁الوصول	-9.0287
ضم	-9.0294
ْ	-9.02962
لذي	-9.03047
▁تأتي	-9.03077
عر	-9.03083
▁البشرية	-9.031
▁موسيقى	-9.03219
▁التاريخ	-9.0339
▁القدر	-9.03455
▁مست	-9.0351
▁وأعتقد	-9.03637
▁أمريكا	-9.0378
▁طويل	-9.03824
▁البداية	-9.03941
▁الصوت	-9.04002
▁المواد	-9.04023
▁تخيل	-9.04047
▁بداية	-9.04193
▁وقال	-9.04316
▁وإن	-9.044
▁بر	-9.04453
▁تأثير	-9.04516
▁حق	-9.04526
وني	-9.046
▁نوعا	-9.0461
▁الأقل	-9.04619
▁طويلة	-9.04832
بق	-9.04899
دير	-9.04949
طو	-9.04986
▁قوة	-9.05074
▁لست	-9.05124
▁الطعام	-9.05138
▁المشروع	-9.05319
يح	-9.05466
▁الصعب	-9.0548
فة	-9.05518
▁بو	-9.0576
▁فكرت	-9.05795
▁مرض	-9.05862
▁اللحظة	-9.05863
6	-9.05981
مس	-9.06069
▁تقريبا	-9.06147
طلق	-9.06305
▁أُ	-9.06343
عرف	-9.0637
▁كثير	-9.06389
▁رقم	-9.06439
▁نموذج	-9.0675
▁احد	-9.0687
s	-9.06877
▁يأتي	-9.069
اث	-9.07008
▁يتعلق	-9.07074
▁خاص	-9.07218
َّ	-9.07458
تواصل	-9.07464
▁فهو	-9.07486
▁أس	-9.07515
▁دعون	-9.07671
▁شهر	-9.07717
روب	-9.0773
جار	-9.07758
▁قليلاً	-9.07788
▁أعلى	-9.07797
مل	-9.07961
ظهر	-9.08113
▁التغيير	-9.08194
دق	-9.08251
دت	-9.08301
▁الأفكار	-9.08395
▁الموضوع	-9.08502
▁طرق	-9.08548
▁وكيف	-9.08633
▁دقيقة	-9.08897
▁تش	-9.0901
▁يد	-9.09077
▁جد	-9.09175
▁الآخرين	-9.09258
تان	-9.09289
▁تجربة	-9.09385
▁للإ	-9.0952
▁أطفال	-9.09549
تكلم	-9.09583
▁إي	-9.09645
▁رسم	-9.09676
▁إنهم	-9.0968
▁الشركات	-9.09701
نظم	-9.09767
▁كامل	-9.09921
جاز	-9.09986
▁الحقيقي	-9.10042
كتشف	-9.10148
▁الفن	-9.10226
▁اسم	-9.1054
اص	-9.10551
رف	-9.10835
لق	-9.10906
▁وسوف	-9.11081
ركب	-9.11157
قابل	-9.11208
كبر	-9.11216
عم	-9.1124
▁خاصة	-9.11317
اخ	-9.11322
ظل	-9.11378
ذهب	-9.11392
▁جمع	-9.11511
ترك	-9.11592
دفع	-9.1166
▁برنامج	-9.11757
▁فيديو	-9.12037
قارب	-9.12057
▁الأم	-9.12057
▁الكبيرة	-9.12174
نج	-9.12267
▁بالتأكيد	-9.12281
▁العالمية	-9.12331
جمع	-9.12443
عرض	-9.12799
▁انظر	-9.12938
لقي	-9.12944
جين	-9.12984
طب	-9.12995
▁كر	-9.13006
▁القوة	-9.13024
▁أكون	-9.13126
يان	-9.13158
يدي	-9.13181
3	-9.13192
▁سطح	-9.13371
▁السنوات	-9.13605
▁أنتم	-9.13656
تعرف	-9.13936
▁العمر	-9.13967
ركز	-9.14027
فاق	-9.14166
▁منطقة	-9.14366
▁السيارات	-9.14398
▁أعلم	-9.14402
أخذ	-9.14434
▁مش	-9.14614
▁الذهاب	-9.14651
▁انت	-9.14652
▁التقنية	-9.14796
يع	-9.1485
دين	-9.14873
▁موجود	-9.1492
بيع	-9.1497
▁الجنس	-9.15185
▁ألف	-9.15205
كو	-9.15222
▁الحالة	-9.15251
▁المدن	-9.15284
▁واضح	-9.15303
▁أيضًا	-9.15325
فعل	-9.15402
طار	-9.15423
▁إليها	-9.15445
▁أهمية	-9.15467
▁ولدي	-9.15537
تعلم	-9.15549
▁مليار	-9.15617
▁المناطق	-9.15625
▁خلف	-9.1565
▁نعيش	-9.15755
▁رأيت	-9.1577
▁الكمبيوتر	-9.16147
لين	-9.16192
▁والدي	-9.1628
▁وهنا	-9.16288
فتح	-9.16367
▁نتحدث	-9.16412
▁الطرق	-9.16446
▁محاولة	-9.16493
▁كثيرا	-9.16526
دار	-9.16527
▁نجد	-9.16562
حاول	-9.16614
ّر	-9.1669
خبر	-9.16794
▁ز	-9.16845
▁شيئ	-9.1688
▁يدعى	-9.16929
عمل	-9.16954
▁التجربة	-9.17036
▁الحب	-9.17056
صيب	-9.17093
تس	-9.17123
ساعد	-9.17126
▁4	-9.17266
لك	-9.17322
شت	-9.17329
▁والا	-9.17343
▁جميعاً	-9.17367
▁بسيط	-9.17406
رجع	-9.17428
▁القليل	-9.17516
▁الاشياء	-9.17591
ستخدم	-9.17615
عيد	-9.17671
سأل	-9.17683
▁الكوكب	-9.17688
5	-9.17927
▁العامة	-9.17985
▁حب	-9.1803
سام	-9.18066
صمم	-9.18112
▁البشري	-9.18219
جه	-9.18417
▁الشكل	-9.18418
حصل	-9.18424
دى	-9.18426
▁الأعمال	-9.18463
▁المنطقة	-9.18536
▁الاست	-9.18565
مضي	-9.18628
▁أت	-9.18656
قدم	-9.18685
▁فرصة	-9.18686
▁الإن	-9.18748
▁بحث	-9.18769
▁التالي	-9.18827
▁شي	-9.18835
▁يسمى	-9.18933
▁الطفل	-9.18977
بين	-9.19043
▁بلد	-9.19099
▁الغير	-9.1911
▁تعليم	-9.19324
▁بيانات	-9.19329
▁يفعل	-9.19483
عاد	-9.19492
▁2	-9.19562
وافق	-9.19641
▁أربعة	-9.19685
▁نقطة	-9.19701
▁الفيديو	-9.19806
قد	-9.19834
▁رأس	-9.19874
▁مقابل	-9.19968
▁دماغ	-9.20078
▁فنحن	-9.20266
▁عليكم	-9.203
▁تبدأ	-9.20464
▁تصل	-9.20525
▁ننظر	-9.20582
حضر	-9.20872
▁الكربون	-9.2102
▁تقدم	-9.21048
▁والد	-9.21149
▁حصلت	-9.21226
▁تع	-9.21268
▁المح	-9.21272
▁أكن	-9.21302
قا	-9.21332
بير	-9.21373
▁أتحدث	-9.21446
▁ثاني	-9.2145
قاد	-9.21466
لب	-9.21745
▁أنفسنا	-9.21773
▁القصص	-9.21786
▁يريدون	-9.21928
ائر	-9.21938
▁عملي	-9.21943
ريك	-9.21963
عيش	-9.21982
▁يريد	-9.2202
▁شبكة	-9.22047
▁ذو	-9.22096
▁للاهتمام	-9.22168
▁البيئة	-9.22169
▁طول	-9.2219
▁أشهر	-9.22339
حيا	-9.22396
يرة	-9.22538
▁علاقة	-9.22556
▁أل	-9.22717
طن	-9.22733
يج	-9.22752
▁بالضبط	-9.2282
▁كتب	-9.22897
▁9	-9.23011
▁1	-9.23029
▁ساعة	-9.23167
▁فريق	-9.23288
▁ببساطة	-9.23331
▁40	-9.23459
▁حقيقي	-9.23508
▁قطع	-9.23551
تغير	-9.23561
▁نسبة	-9.23755
دعى	-9.23816
▁عظيم	-9.23896
سحب	-9.24014
▁خمسة	-9.24046
▁تر	-9.24069
▁فهذ	-9.24079
ميز	-9.24094
تطور	-9.24149
▁نفكر	-9.24186
قضي	-9.24304
▁تأخذ	-9.24409
مكان	-9.246
تل	-9.24716
▁التطور	-9.24852
▁القادمة	-9.24908
داء	-9.24911
حب	-9.2501
▁الأحيان	-9.25297
زا	-9.2546
راحة	-9.25499
▁فعلاً	-9.25508
كا	-9.25532
▁للقيام	-9.25694
▁حياتنا	-9.25702
يض	-9.25876
▁بلا	-9.25879
اتهم	-9.25888
▁النمو	-9.25932
▁أثناء	-9.25939
▁السرطان	-9.26013
▁حصل	-9.26014
▁عادة	-9.26041
هى	-9.26364
▁تعيش	-9.26367
▁خمس	-9.26392
جيب	-9.26446
متع	-9.26469
صد	-9.2651
روس	-9.26575
▁يمكنه	-9.26581
▁الجمهور	-9.26898
▁بعضها	-9.26912
▁وجدنا	-9.26946
دخل	-9.26958
▁ذهب	-9.26988
▁موجودة	-9.27059
▁أماكن	-9.27087
لات	-9.27116
شك	-9.27139
▁الأخيرة	-9.27282
▁تذكر	-9.27285
▁حي	-9.273
▁النووي	-9.27385
▁اخرى	-9.27411
▁نت	-9.27417
▁لانه	-9.27521
قام	-9.27535
▁عاماً	-9.27579
▁تيد	-9.27622
▁انهم	-9.27658
▁المئة	-9.27707
قف	-9.27797
▁الموسيقى	-9.27808
جتمع	-9.27903
▁ولكنها	-9.28073
▁المر	-9.28075
▁يقولون	-9.28092
▁الأماكن	-9.28155
▁بنا	-9.28195
▁السكان	-9.28217
ظيف	-9.28258
▁الانترنت	-9.28295
▁المختلفة	-9.28322
▁الجديد	-9.28447
رفع	-9.28453
راد	-9.28466
▁قطعة	-9.28477
ائق	-9.28523
▁الز	-9.28559
▁العالمي	-9.28584
▁أفكر	-9.28606
▁كو	-9.28706
▁الهواء	-9.28775
▁بسيطة	-9.2881
فس	-9.28855
ريد	-9.28932
▁دول	-9.28938
قط	-9.28945
▁للا	-9.28965
▁أعمال	-9.28995
▁أيام	-9.29011
نتج	-9.29105
▁ملايين	-9.29124
▁دا	-9.29205
▁نعمل	-9.29227
▁يستخدم	-9.29269
▁قالت	-9.29544
▁مو	-9.29553
▁طوال	-9.29559
توفر	-9.29597
تواجد	-9.29848
نوع	-9.29854
راف	-9.29902
وج	-9.29911
▁الكبير	-9.29917
▁يكونوا	-9.29963
طلب	-9.2997
وش	-9.29975
تمكن	-9.30103
رج	-9.3011
▁تظهر	-9.30329
نق	-9.30536
▁الأيام	-9.30603
▁جميل	-9.30716
▁الخط	-9.30786
▁معلومات	-9.3081
▁أع	-9.30875
▁تفكر	-9.30919
▁دولة	-9.30947
▁نحاول	-9.30949
▁نشر	-9.30989
▁خلايا	-9.31018
ربع	-9.31079
▁جامعة	-9.31125
بس	-9.31175
هو	-9.31176
جلس	-9.31221
▁18	-9.31247
▁جر	-9.31266
▁اللغة	-9.31292
▁العلم	-9.31315
وقع	-9.3137
▁معدل	-9.31407
▁صديق	-9.31411
قرأ	-9.3145
▁بعضهم	-9.31463
▁بد	-9.31467
▁الإطلاق	-9.31488
▁فن	-9.31513
ستر	-9.31628
▁جون	-9.31668
ران	-9.31779
▁الأساسية	-9.31835
▁دراسة	-9.31852
ستعمل	-9.31875
صنع	-9.31885
▁تمكن	-9.32018
▁نظرة	-9.32213
▁غرفة	-9.32239
▁فإنه	-9.3227
▁وراء	-9.32415
▁لحظة	-9.32504
عداد	-9.32612
▁كثيراً	-9.32757
قود	-9.32767
▁ث	-9.32782
وري	-9.32847
▁تذهب	-9.32848
▁الصحية	-9.32863
تا	-9.32897
▁صعب	-9.32918
يوم	-9.32955
رسم	-9.33014
▁المرأة	-9.33128
▁المخ	-9.33294
▁بالأ	-9.33328
▁دائماً	-9.33351
▁مهتم	-9.33376
▁قامت	-9.33417
دّ	-9.33424
▁فكر	-9.3343
لعب	-9.33469
▁الشئ	-9.3349
▁الرسم	-9.33671
به	-9.33686
▁قم	-9.33851
▁عمر	-9.33996
وجب	-9.34026
غير	-9.34134
▁صناعة	-9.34141
لحصول	-9.3421
نشأ	-9.34273
عجب	-9.34427
▁مئات	-9.34456
▁للناس	-9.34467
جي	-9.34489
صدر	-9.3456
▁حسنًا	-9.34717
▁تحقيق	-9.34846
أرى	-9.34867
▁فحسب	-9.34943
▁مستقبل	-9.34978
▁قادرين	-9.35043
غن	-9.35056
▁تملك	-9.35135
زال	-9.35142
عل	-9.35144
▁يصل	-9.35218
▁أعمل	-9.35258
▁منزل	-9.35286
▁الرعاية	-9.35366
▁يمكنهم	-9.35379
▁عالية	-9.35445
▁أر	-9.35458
▁تعني	-9.35542
▁وهم	-9.35569
▁زوج	-9.35763
قتل	-9.35779
رار	-9.35795
قدر	-9.35829
▁بالمئة	-9.35845
يتي	-9.35906
▁تعلمت	-9.35943
▁ضمن	-9.35969
▁العصبية	-9.35985
غو	-9.3603
كتب	-9.36138
▁الموجودة	-9.36146
حدث	-9.36157
نشر	-9.36182
▁&#9	-9.36418
▁الكتاب	-9.36446
نى	-9.36491
ولي	-9.36502
▁مس	-9.36509
▁أشعر	-9.36629
ظر	-9.36683
لاحظ	-9.36793
▁التواصل	-9.36797
▁القلب	-9.36841
▁الصغير	-9.36887
▁خلق	-9.3707
بعد	-9.37075
▁ستة	-9.37156
▁ايضا	-9.37199
▁عين	-9.37211
▁الجسم	-9.37239
▁&#93;	-9.37311
امي	-9.37474
ستمع	-9.37566
▁تقريباً	-9.37596
▁ولكنه	-9.37607
رتفع	-9.37688
▁العلاج	-9.37764
▁قيمة	-9.37788
يكا	-9.37804
▁القول	-9.37895
عود	-9.37943
▁إحد	-9.37944
▁تطبيق	-9.37964
▁جنوب	-9.37986
بك	-9.37998
راس	-9.38046
▁تحديد	-9.38083
شف	-9.38086
▁مرات	-9.38087
طير	-9.38191
/	-9.3821
ربط	-9.38246
▁بان	-9.38265
بلغ	-9.38333
ارات	-9.38358
▁حركة	-9.38379
▁قدر	-9.38409
▁يظهر	-9.3852
▁التى	-9.38609
▁لأنهم	-9.38666
▁سيارة	-9.3875
▁علماء	-9.38802
d	-9.3889
▁يعتبر	-9.38899
▁تطور	-9.39007
دمج	-9.39007
▁النقطة	-9.39385
▁السيارة	-9.39629
▁والإ	-9.39715
▁ولذلك	-9.39847
تابع	-9.39899
▁أفكار	-9.40036
▁12	-9.40139
▁المست	-9.40177
▁الطبيعي	-9.40348
جة	-9.40349
سرع	-9.40509
شرح	-9.4056
لح	-9.40589
رش	-9.40719
▁المرض	-9.40861
▁عما	-9.40935
▁تحمل	-9.41037
▁المهم	-9.41044
مات	-9.41128
قطع	-9.41224
فهم	-9.41275
شاهد	-9.41296
▁دو	-9.41312
تحد	-9.4132
▁معاً	-9.41325
▁الأمريكية	-9.41401
حق	-9.41427
▁الشخصية	-9.4144
ّل	-9.41464
▁بدلا	-9.41536
بقى	-9.4163
▁نستخدم	-9.41868
▁نطاق	-9.41882
فصل	-9.41893
قفز	-9.42127
▁أظن	-9.42131
▁أمي	-9.42168
واجه	-9.42175
عمال	-9.42194
▁عاما	-9.42226
▁مل	-9.42234
▁طلب	-9.42288
حول	-9.4229
▁المس	-9.4232
▁الموت	-9.42364
فقد	-9.4238
▁الفقر	-9.42425
غر	-9.42829
▁قليل	-9.42965
▁الدم	-9.42977
▁مشاكل	-9.43015
▁الاشخاص	-9.43103
سون	-9.43185
رمي	-9.43256
A	-9.43267
▁اس	-9.4342
صدق	-9.43472
قب	-9.43496
▁إست	-9.43538
صم	-9.4354
▁لكنني	-9.43543
▁وسط	-9.43647
▁اريد	-9.43669
زو	-9.43772
جري	-9.43785
قرب	-9.43847
▁إنتاج	-9.43868
▁فت	-9.43938
▁نقل	-9.44055
▁ألا	-9.44061
▁الحظ	-9.44061
▁خطر	-9.44164
طور	-9.44189
▁مكتب	-9.44251
▁كوكب	-9.44258
▁الواضح	-9.44269
يء	-9.4438
عال	-9.44442
رز	-9.44449
طلاق	-9.44483
▁ببعض	-9.44507
غل	-9.44516
زر	-9.44669
سمح	-9.4474
▁المحلي	-9.44852
▁6	-9.44862
▁ض	-9.44922
▁الشباب	-9.45012
صبح	-9.45036
▁البلد	-9.45115
▁الشبكة	-9.45326
سن	-9.45329
▁قليلة	-9.45368
واصل	-9.45439
▁لابد	-9.45507
▁حديث	-9.45531
▁إيجاد	-9.45677
▁مرحلة	-9.45722
عين	-9.45767
▁موضوع	-9.45778
تخلص	-9.45834
رسل	-9.45856
▁قادر	-9.45865
▁ام	-9.45927
▁ثانية	-9.46004
▁قرر	-9.46061
▁ابن	-9.46065
تحكم	-9.46091
قرر	-9.46173
▁القانون	-9.46193
▁نتيجة	-9.46206
▁يشبه	-9.46214
جس	-9.46234
طا	-9.4625
▁اخر	-9.46358
▁الطبيعية	-9.46369
فاء	-9.46387
ولا	-9.46401
أكل	-9.46435
▁نعتقد	-9.46443
▁يكفي	-9.46456
نغ	-9.46482
▁النتائج	-9.46489
راك	-9.46515
▁الجو	-9.46531
▁غريب	-9.46583
وى	-9.46613
لع	-9.46688
▁كا	-9.46737
▁بشدة	-9.46949
ولد	-9.46957
▁بهم	-9.46972
وجه	-9.46984
▁يعملون	-9.47036
▁الض	-9.47095
▁الجليد	-9.472
▁نبدأ	-9.47455
زراع	-9.47457
ارة	-9.47458
▁يأخذ	-9.47484
▁قصص	-9.47518
▁استخدم	-9.47616
▁وبال	-9.47633
▁الخارج	-9.47651
كشف	-9.47696
حقق	-9.47717
▁كثيرة	-9.47776
▁معي	-9.47808
إ	-9.47851
▁سريع	-9.47877
▁علاج	-9.47918
وص	-9.47983
سكن	-9.48023
▁مثيرة	-9.48045
▁يعلم	-9.48054
ةً	-9.48069
قوى	-9.4812
▁معنى	-9.48137
▁الكلمات	-9.48191
تأكد	-9.48263
▁سم	-9.4834
تكم	-9.48352
▁بعدها	-9.48427
خفض	-9.48599
▁جميلة	-9.48603
▁يبدأ	-9.48604
▁المجتمعات	-9.48616
ضخ	-9.48713
طرح	-9.48739
▁السن	-9.48773
▁أحدهم	-9.48786
▁أخذت	-9.48825
سخ	-9.48833
▁العلماء	-9.48893
وصل	-9.48934
▁الأسئلة	-9.48936
▁كنتم	-9.48946
▁أناس	-9.48962
رض	-9.4899
▁امر	-9.49023
▁الطب	-9.49124
▁بالا	-9.49184
▁الغرفة	-9.49192
ند	-9.49209
▁منتصف	-9.49457
ذى	-9.495
▁جزيلا	-9.49648
▁يمثل	-9.49677
▁السوق	-9.49738
ارد	-9.49764
▁تشعر	-9.498
تني	-9.49832
▁الحركة	-9.49894
▁مصدر	-9.49931
▁دفع	-9.50007
▁نملك	-9.5008
▁الطلاب	-9.50202
بور	-9.50332
▁الواحد	-9.50499
ذكر	-9.50518
▁إنسان	-9.50547
▁مفهوم	-9.50555
▁متأكد	-9.50634
▁الدين	-9.50656
تساءل	-9.50768
▁كمية	-9.50792
▁سان	-9.50813
▁التحكم	-9.50913
▁الأساس	-9.50933
▁الكائنات	-9.50942
طابق	-9.5099
▁الخمس	-9.51003
▁تحول	-9.51156
▁بالإ	-9.51201
آلاف	-9.5122
▁الصف	-9.51239
حدد	-9.51253
▁بيت	-9.51282
حافظ	-9.51322
▁فأ	-9.51384
▁نحصل	-9.51389
خص	-9.51637
فو	-9.51727
▁سلسلة	-9.51768
هدف	-9.51784
▁عا	-9.51801
▁حقيقية	-9.51812
▁المرة	-9.51829
▁قررت	-9.51871
▁يح	-9.5198
تطبيق	-9.52028
▁النموذج	-9.52105
فحص	-9.52126
▁رد	-9.52147
▁أجهز	-9.52228
▁الأحياء	-9.5226
▁المريخ	-9.52262
▁يتوج	-9.5232
▁لأي	-9.52361
▁زمن	-9.52441
▁الحاسوب	-9.52543
▁لعمل	-9.52551
بان	-9.52607
توقف	-9.52628
▁شر	-9.52687
شا	-9.52692
▁الجهاز	-9.52707
I	-9.52782
▁الصحة	-9.52868
▁أبدا	-9.5288
▁أما	-9.52929
▁أربع	-9.52948
تُ	-9.52999
▁تمثل	-9.53009
اغ	-9.5301
▁بشيء	-9.53049
▁تنظر	-9.53059
▁يحتاج	-9.53125
دون	-9.53128
▁نفسك	-9.5314
ائم	-9.5317
▁أحاول	-9.53223
▁ترك	-9.53241
▁رئيس	-9.53281
▁الإعلام	-9.53335
▁ساعات	-9.53361
٠	-9.53519
حفظ	-9.53548
▁القديمة	-9.53642
▁ولن	-9.53675
▁وسي	-9.53693
نز	-9.53737
▁الورق	-9.53878
علوم	-9.53879
صرف	-9.53906
ضطر	-9.53999
له	-9.54087
لال	-9.54088
▁TED	-9.54097
▁وصف	-9.54107
مور	-9.54116
▁200	-9.54147
▁المجال	-9.5415
▁كلها	-9.54237
▁اللا	-9.5431
فرد	-9.5438
▁لتلك	-9.54411
نفس	-9.54422
▁هدف	-9.54431
▁نيو	-9.54489
▁تس	-9.5449
▁معهم	-9.54607
▁يتحدث	-9.54623
▁معينة	-9.54624
▁اكتشاف	-9.54787
▁شعور	-9.54896
▁السياسي	-9.54961
ضيف	-9.54997
انية	-9.55072
▁كاملة	-9.55097
تو	-9.551
▁تطوير	-9.55163
▁الكم	-9.55237
▁الاجتماعية	-9.55243
حف	-9.55251
اقة	-9.55321
▁بشأن	-9.55431
ساب	-9.55442
▁العلوم	-9.55459
دية	-9.5548
▁المطاف	-9.55512
▁عصر	-9.55521
▁وجهة	-9.55678
ء	-9.55691
عزف	-9.55765
باع	-9.55896
▁الحيوية	-9.56109
▁لح	-9.56254
▁جسم	-9.563
▁وسائل	-9.56477
▁عم	-9.5648
▁الأبعاد	-9.56517
▁يعد	-9.56532
▁حقوق	-9.5655
▁بتلك	-9.5658
▁حر	-9.56605
▁قط	-9.56716
▁يعيشون	-9.56756
▁حساب	-9.56834
▁تجاه	-9.56854
فن	-9.56921
▁للعمل	-9.56923
▁ذا	-9.56967
▁الاس	-9.57003
قات	-9.57064
ساح	-9.57093
نخفض	-9.57109
▁طاقة	-9.57113
رغب	-9.57118
وط	-9.57141
▁العرض	-9.5718
▁أنفسهم	-9.57333
▁آلاف	-9.57436
مع	-9.57488
شكل	-9.5753
ضرب	-9.57546
جاد	-9.57575
ماذا	-9.57625
▁المستوى	-9.57681
▁حيال	-9.57739
تقدم	-9.57757
▁أولاً	-9.57804
▁يزال	-9.5783
▁النفط	-9.57836
▁المائة	-9.57885
ضحك	-9.57943
تدفق	-9.57949
t	-9.57959
▁أعط	-9.58053
▁سعيد	-9.58054
▁المرضى	-9.58134
▁المرحلة	-9.58156
▁التحدث	-9.5816
▁حمل	-9.5817
▁يعيش	-9.58197
▁هاتف	-9.58229
الي	-9.5826
تعاون	-9.58286
▁25	-9.58375
لاف	-9.58408
▁رسالة	-9.58457
▁جاء	-9.58519
اعي	-9.5857
وفر	-9.58609
▁آمن	-9.58788
باب	-9.58806
▁بعيد	-9.58832
▁ينظر	-9.58854
▁نقول	-9.58871
▁أخبر	-9.58887
▁الوحيدة	-9.58951
زع	-9.59129
▁60	-9.59175
▁شركات	-9.59278
▁أرض	-9.59386
▁الوضع	-9.59398
تصل	-9.59415
جال	-9.59484
▁ذاك	-9.5952
▁تعطي	-9.59537
دعم	-9.59542
▁تسمى	-9.59556
راب	-9.59562
▁أهم	-9.59571
حمل	-9.59684
▁الأفضل	-9.59715
▁يجري	-9.59777
▁مج	-9.59824
▁الرياضيات	-9.59825
▁مختبر	-9.59839
تخيل	-9.59863
▁مخ	-9.59886
كار	-9.59963
حمي	-9.60011
▁السنين	-9.60032
▁11	-9.60168
▁الشر	-9.60318
▁يع	-9.60343
▁المش	-9.60352
دراسات	-9.60389
▁سلوك	-9.60418
▁العنف	-9.6046
▁الجد	-9.60505
▁المناخ	-9.60529
عالم	-9.60664
قدرة	-9.60707
ربح	-9.60731
شو	-9.60832
سير	-9.60842
S	-9.60847
ستهلك	-9.60859
▁بأي	-9.60919
▁مضت	-9.60965
▁ضخمة	-9.60988
▁أوروبا	-9.6114
▁سر	-9.61201
مارس	-9.61283
▁عشرة	-9.61289
▁المحتمل	-9.61299
▁الآلي	-9.61336
▁طالب	-9.61371
▁وأكثر	-9.61386
l	-9.61392
▁عالمي	-9.61395
▁تحدي	-9.61399
▁الحمض	-9.61417
▁يعرفون	-9.61484
خبار	-9.61514
ثير	-9.61529
شئ	-9.61532
تنقل	-9.61606
▁الكتب	-9.61766
▁معه	-9.61793
▁صباح	-9.61828
▁الفرصة	-9.61837
▁غاية	-9.61841
▁بضعة	-9.61961
بال	-9.62002
تف	-9.62007
▁صف	-9.62065
u	-9.62147
مشاركة	-9.62174
▁سمعت	-9.62326
▁المجموعة	-9.62362
عن	-9.62366
▁لدرجة	-9.62384
▁حياتهم	-9.62447
▁الفرق	-9.62558
راقب	-9.6258
شغل	-9.62605
▁تضع	-9.62625
▁لبعض	-9.62667
▁بضع	-9.62672
▁قوية	-9.62684
حار	-9.62688
طة	-9.62772
ترجم	-9.62884
▁الليل	-9.62891
ورة	-9.62929
▁أصل	-9.62929
▁مرور	-9.62973
▁الهدف	-9.63021
▁الإست	-9.63078
▁البلدان	-9.63134
▁الثالث	-9.63155
▁يفعلون	-9.63187
▁التجارب	-9.63281
عامل	-9.63377
قلق	-9.63527
وحد	-9.63559
▁لجعل	-9.63725
▁ظل	-9.63759
ذي	-9.63776
▁القطب	-9.63845
طال	-9.63857
▁ولذا	-9.63879
▁الله	-9.63928
باء	-9.63965
قراءة	-9.64014
▁البر	-9.64043
▁لعبة	-9.64048
خب	-9.64067
▁أخبركم	-9.64122
▁الصحيح	-9.64125
عالج	-9.64134
▁رحلة	-9.64157
▁نفهم	-9.64219
▁7	-9.64256
▁وصلت	-9.64316
سقط	-9.64351
تناول	-9.64483
فيل	-9.64505
▁الث	-9.64539
▁معها	-9.64568
ائع	-9.6461
▁البلاد	-9.64728
▁الأعلى	-9.64814
بوب	-9.64848
نو	-9.64866
▁يملك	-9.64977
E	-9.65002
p	-9.65002
▁الحقيقية	-9.65012
▁جيدا	-9.65049
▁أبداً	-9.65055
▁أد	-9.65069
جمل	-9.65109
ندي	-9.65147
▁مقارنة	-9.65258
▁فيلم	-9.65345
▁فعلت	-9.65356
▁الشعور	-9.65361
▁آل	-9.6545
سة	-9.65478
رتب	-9.65505
▁أب	-9.65531
▁قلب	-9.65587
▁قتل	-9.65594
▁أفعل	-9.65637
ستقبل	-9.65855
تاج	-9.65886
T	-9.65892
▁رجال	-9.65935
▁أغلب	-9.66019
▁طبيعي	-9.66025
جت	-9.66066
▁8	-9.66073
▁المدارس	-9.66191
▁الحالات	-9.66195
▁يفكر	-9.6622
▁حدود	-9.66263
قار	-9.66265
يتها	-9.66339
صار	-9.66351
▁الأمراض	-9.66408
▁يعطي	-9.66449
▁نمو	-9.66465
▁وبعض	-9.66518
▁العقل	-9.66551
▁تعد	-9.66562
جلب	-9.66621
عار	-9.66655
▁خبر	-9.66664
▁نأخذ	-9.66698
▁يعود	-9.66768
▁يجد	-9.66799
▁يست	-9.668
▁قص	-9.66811
▁شعرت	-9.66833
▁الحرارة	-9.66834
▁التعامل	-9.66836
▁زيادة	-9.66839
▁أنكم	-9.66851
ادة	-9.66859
▁الخوف	-9.66868
▁سيحدث	-9.66909
▁بدا	-9.66913
▁التالية	-9.66924
▁المُ	-9.66956
رك	-9.66981
أشعة	-9.67034
شب	-9.67042
ترون	-9.67162
أتي	-9.67162
▁أجزاء	-9.67405
جرب	-9.67414
▁تصنع	-9.67428
▁مناطق	-9.67432
▁الانسان	-9.67432
فك	-9.67511
طبيعة	-9.67549
صير	-9.67553
كذلك	-9.67597
▁لكني	-9.67703
لتقط	-9.67744
ثل	-9.67907
تحرك	-9.67918
▁ري	-9.67982
▁بالكامل	-9.68001
▁اليمين	-9.68031
▁تح	-9.68036
عكس	-9.6812
▁حياتك	-9.68161
دد	-9.68161
▁يذهب	-9.68172
غال	-9.68239
▁قياس	-9.68254
▁القادم	-9.68299
▁شكرًا	-9.68308
▁كلّ	-9.68309
▁اليسار	-9.68318
▁منظمة	-9.68319
▁تصور	-9.68322
تخذ	-9.68348
▁جزيلاً	-9.68359
سيل	-9.68369
▁المو	-9.68373
▁كار	-9.68419
▁أساسي	-9.68585
درج	-9.68773
▁الحديثة	-9.68786
وضع	-9.68788
▁إستخدام	-9.68803
▁ونصف	-9.68967
▁البا	-9.6898
▁الدولة	-9.68993
ذب	-9.69034
ثان	-9.69144
سبب	-9.69297
▁فأنت	-9.69319
يار	-9.69321
▁المادة	-9.69322
▁واقع	-9.69412
▁شعر	-9.69477
▁الحجم	-9.69511
▁تقديم	-9.69535
▁دقائق	-9.69535
▁الهاتف	-9.69583
▁للتو	-9.69649
غز	-9.69825
▁تكنولوجيا	-9.69844
▁يستطيعون	-9.70038
▁جيل	-9.70072
▁السجن	-9.70083
▁أسرع	-9.70098
▁المعرفة	-9.70112
▁الثلاث	-9.70139
ِّ	-9.70163
▁متر	-9.70294
▁وضعت	-9.70464
▁وست	-9.7054
نتقل	-9.70692
منح	-9.70698
مرض	-9.70754
دهش	-9.70754
▁ظهر	-9.70756
▁أسفل	-9.70875
▁كلمات	-9.7093
حضار	-9.70948
▁الحدود	-9.7099
▁حقًا	-9.7103
عادة	-9.71045
▁استطع	-9.71051
تذكر	-9.71063
قسم	-9.71064
سجل	-9.71095
▁طبيب	-9.71095
ستمر	-9.71123
▁الأخير	-9.71207
▁فرق	-9.71223
▁ولاية	-9.71255
▁ماهي	-9.71262
▁الفرد	-9.71286
▁صح	-9.71286
حدى	-9.71334
▁أقصد	-9.71366
▁الأمريكي	-9.71413
▁A	-9.71425
▁فلن	-9.7143
▁هائل	-9.71444
دس	-9.71449
▁إل	-9.71499
عتقد	-9.715
بحث	-9.71517
▁تحاول	-9.71558
▁تساعد	-9.71558
خلق	-9.71635
▁بع	-9.71688
▁افضل	-9.71704
▁أدركت	-9.71731
▁لغة	-9.71782
▁التفاعل	-9.718
صغر	-9.7181
بتكر	-9.71813
▁تحويل	-9.7187
▁الشعب	-9.71925
▁الاطفال	-9.72078
▁محل	-9.72088
▁وانا	-9.72109
▁شاب	-9.72143
جميع	-9.72199
▁الاجتماعي	-9.72257
طاع	-9.72291
▁عقل	-9.72297
حتاج	-9.72307
سد	-9.72435
▁عامل	-9.72467
جيل	-9.72475
▁المج	-9.7251
▁ووضع	-9.72548
▁شديد	-9.72666
فشل	-9.72791
▁امرأة	-9.72837
▁سكان	-9.72843
▁حاليا	-9.72884
▁يقود	-9.72944
▁أصغر	-9.72986
▁فجأة	-9.72994
▁كهذه	-9.72994
▁ويمكنك	-9.73017
فير	-9.73037
▁عملت	-9.73085
▁العامل	-9.73126
لمس	-9.73147
جذب	-9.73153
▁يعتقد	-9.73194
▁كله	-9.73338
▁السابق	-9.73382
▁الإجابة	-9.73404
▁السيد	-9.73418
خدم	-9.73467
مشي	-9.7347
لية	-9.73481
شد	-9.73518
وار	-9.736
حال	-9.73603
▁الغذاء	-9.73606
طاق	-9.73627
▁جيداً	-9.7363
▁أولئك	-9.73685
▁خلية	-9.73708
▁مساحة	-9.7378
▁أدرك	-9.73901
▁بشر	-9.73938
لون	-9.73953
▁بخصوص	-9.73958
▁السلوك	-9.7398
ستطيع	-9.73989
▁اهتمام	-9.74003
تقليد	-9.74092
▁الامور	-9.74116
▁قول	-9.74159
▁وتلك	-9.74204
▁المد	-9.74218
▁رأينا	-9.74224
▁مد	-9.74272
▁نتائج	-9.74282
▁أشكال	-9.74283
▁اثنين	-9.74283
▁الساعة	-9.74285
▁الأسبوع	-9.74302
▁نقص	-9.74427
▁قادرة	-9.7447
▁الرئيسي	-9.7457
▁بعيدا	-9.74579
▁لأول	-9.74607
لهذا	-9.74632
حفر	-9.74695
▁80	-9.7478
▁ذكر	-9.74825
▁١	-9.74828
▁المسرح	-9.74934
▁حاجة	-9.74935
قاتل	-9.75036
▁يهم	-9.7509
▁البيت	-9.75124
خطر	-9.75186
قيم	-9.7524
تبادل	-9.75303
▁يساعد	-9.75314
▁المحلية	-9.75384
▁مذهل	-9.75401
خط	-9.75432
مجلة	-9.75463
▁عديدة	-9.75498
▁النباتات	-9.7556
▁مدرسة	-9.75567
▁العشرين	-9.75574
▁التو	-9.7574
تحقق	-9.75753
شتري	-9.75815
▁تمت	-9.7582
▁مدن	-9.75915
▁ارتفاع	-9.75917
▁مهما	-9.75981
▁اللون	-9.76071
طول	-9.76083
▁تقنية	-9.76087
▁تبين	-9.76118
قاعدة	-9.76137
▁الحر	-9.76193
▁رغم	-9.7621
▁قابل	-9.76229
لاند	-9.76239
ضر	-9.76243
▁مسؤول	-9.7625
▁قيد	-9.76258
▁فتح	-9.76293
▁بامكان	-9.76293
بون	-9.76336
▁تست	-9.76342
قياس	-9.76401
▁فأنا	-9.76405
ولة	-9.76517
▁الكل	-9.76659
▁قالوا	-9.76699
غلق	-9.76702
▁أراد	-9.76825
▁الأنواع	-9.76858
▁احت	-9.76877
▁بالمائة	-9.76911
▁أساس	-9.76915
▁الموارد	-9.76925
ثور	-9.77006
▁مياه	-9.77058
▁أنظر	-9.77117
يال	-9.77133
النسبة	-9.77146
▁الأر	-9.77185
امل	-9.77196
فاع	-9.77228
▁شاهد	-9.77271
▁تعتبر	-9.77306
▁نفعله	-9.77362
▁المهمة	-9.77425
حرك	-9.77519
▁الاقتصاد	-9.77585
▁فور	-9.776
بدو	-9.77645
▁المدى	-9.77669
ندا	-9.77702
▁وعند	-9.77713
▁مصاب	-9.77823
▁الحي	-9.77893
▁ولكننا	-9.77936
▁كن	-9.77943
شعر	-9.78014
رعاية	-9.78071
وبالطبع	-9.78077
▁تعرض	-9.78083
▁قانون	-9.78085
▁نُ	-9.78109
▁الموقع	-9.78135
ورد	-9.78175
▁أولا	-9.78254
▁نجعل	-9.78288
▁وشك	-9.78321
▁تتحدث	-9.78363
▁وجد	-9.78373
▁أوه	-9.78411
لمعرفة	-9.7859
▁البيولوجي	-9.78594
▁برا	-9.78617
▁أخر	-9.78634
دافع	-9.78657
▁فلا	-9.78668
إشارة	-9.78763
▁تسع	-9.78777
قترب	-9.78834
▁تسمح	-9.78882
لسنا	-9.7894
▁عميق	-9.78968
سافر	-9.79066
▁العيش	-9.79148
▁الأشجار	-9.79267
نتظر	-9.79267
▁هائلة	-9.79282
تز	-9.79282
▁الجينات	-9.79291
▁إنشاء	-9.79318
▁السطح	-9.79321
▁الليلة	-9.79379
▁يسمح	-9.79483
▁الأسفل	-9.79517
▁مرت	-9.79611
▁الرائعة	-9.79644
ساهم	-9.79656
▁الشمسية	-9.79687
▁الأخبار	-9.79717
▁نضع	-9.79732
بات	-9.79746
طبخ	-9.79753
▁بقدر	-9.79773
بول	-9.79774
▁العرب	-9.79784
باح	-9.79874
باس	-9.79885
▁التحدي	-9.79994
جان	-9.80003
▁ضوء	-9.80028
▁الأدوات	-9.8024
▁السهل	-9.80266
▁الرئيسية	-9.80288
حارب	-9.80299
▁بنسبة	-9.80303
غت	-9.80319
سان	-9.80333
000	-9.80355
شرب	-9.80357
شير	-9.8038
نشط	-9.80467
▁سيئة	-9.80555
▁تعتقد	-9.80611
▁الكهرباء	-9.80639
▁فما	-9.80715
▁آلة	-9.80733
كسيد	-9.80866
▁الإنسانية	-9.80868
▁كأن	-9.80871
كوم	-9.80912
زوج	-9.80963
عارض	-9.81048
▁متوسط	-9.81098
▁التجارية	-9.81154
مواجهة	-9.81289
قن	-9.81333
▁التأثير	-9.81377
▁الأكبر	-9.81385
▁قوي	-9.8143
▁دم	-9.81463
قاء	-9.81516
▁اللعب	-9.81532
لهم	-9.81648
خطط	-9.81655
▁الحالي	-9.81697
▁الغابات	-9.8171
ليف	-9.81713
جهزة	-9.81772
▁اجل	-9.81782
نسب	-9.81843
▁العين	-9.81949
▁اول	-9.82003
▁للعالم	-9.82013
▁أردنا	-9.82039
غادر	-9.82061
ثار	-9.82098
▁تخرج	-9.82147
سار	-9.8217
▁حسب	-9.82172
جمال	-9.82195
▁التق	-9.82243
▁سألت	-9.82277
▁مسار	-9.8236
صول	-9.82378
▁عاد	-9.82451
كسب	-9.82468
▁مصمم	-9.82492
▁مناسب	-9.82537
بري	-9.82561
▁مستعد	-9.82579
▁بداخل	-9.82689
▁الفا	-9.82735
▁تخ	-9.8278
سوف	-9.8281
هواتف	-9.82852
▁وسأ	-9.82868
▁لديكم	-9.82919
▁والع	-9.8293
▁العظيم	-9.8296
▁كرة	-9.83091
▁القبيل	-9.83101
وصف	-9.83131
موت	-9.83139
▁قائمة	-9.83195
▁تشكل	-9.83201
طبق	-9.83341
▁استطيع	-9.83391
▁سهل	-9.83422
▁القو	-9.83441
تحول	-9.83442
▁معقدة	-9.83459
يته	-9.83484
▁يضع	-9.8349
خير	-9.83492
صانع	-9.83509
جلوس	-9.83611
▁هام	-9.83667
D	-9.83669
خار	-9.83696
▁أطلق	-9.83758
▁تصوير	-9.83797
▁نظرية	-9.8395
ّع	-9.8398
يكي	-9.84127
ائه	-9.84182
▁خطأ	-9.84206
واء	-9.8424
▁الخطو	-9.84244
▁مستمر	-9.84289
▁حرب	-9.84311
▁الحق	-9.8434
▁اختبار	-9.84349
▁القيادة	-9.84356
ؤكد	-9.84361
▁السي	-9.84444
▁الخلف	-9.84471
▁الثلاثة	-9.84503
▁تفكير	-9.84513
▁احتمال	-9.84514
▁كهذا	-9.84516
▁الوقود	-9.84516
▁نسميه	-9.84518
▁نظرنا	-9.84524
ائب	-9.84533
▁الثدي	-9.84562
ّي	-9.84622
طالب	-9.8473
جهد	-9.84838
▁تزال	-9.84904
رين	-9.85015
▁فرد	-9.85052
▁شا	-9.85079
▁التصوير	-9.85141
▁يشعر	-9.85145
ّد	-9.85164
رث	-9.85168
ؤمن	-9.85179
▁أسابيع	-9.85234
▁طرف	-9.85234
قض	-9.8524
▁تشبه	-9.85258
حلق	-9.85264
مسك	-9.85284
▁يقارب	-9.85332
ويل	-9.85359
▁حالياً	-9.85362
▁بجانب	-9.85425
▁يخص	-9.8544
صيد	-9.85453
n	-9.85464
حسب	-9.85549
▁الآلة	-9.85575
لّ	-9.85619
▁الذكاء	-9.85643
▁الشهر	-9.85674
▁الاول	-9.85703
▁كأ	-9.85836
ستثمر	-9.85855
▁وغير	-9.85876
برمج	-9.85911
بدا	-9.85914
سلك	-9.85956
▁وقلت	-9.86021
▁قل	-9.86041
▁توقف	-9.86131
▁فعلنا	-9.86227
قصد	-9.86257
ضاف	-9.86268
▁أثر	-9.8639
▁نراه	-9.86439
ّب	-9.86441
تعرض	-9.86473
طعم	-9.8651
▁الاخر	-9.86529
▁السعادة	-9.86588
▁المريض	-9.86648
▁الأسر	-9.86666
▁ممتع	-9.86736
ثبت	-9.86779
▁سرطان	-9.86789
ربي	-9.86874
▁تتحرك	-9.86903
اكس	-9.86948
▁بير	-9.86972
تشابه	-9.87015
ثي	-9.8703
▁البرنامج	-9.87058
▁الشارع	-9.87063
▁الطائرة	-9.87122
▁تحب	-9.87272
أن	-9.87282
كرر	-9.87286
يتنا	-9.87333
▁نجاح	-9.87352
▁المبنى	-9.87355
▁ناحية	-9.87438
ضغط	-9.87464
▁الثقة	-9.876
درب	-9.87604
▁الاقتصادي	-9.87621
▁16	-9.87694
ّم	-9.87738
جودة	-9.87739
ثمانية	-9.87741
▁صندوق	-9.87756
مثال	-9.87774
pos	-9.87797
خفي	-9.87825
▁عظيمة	-9.87834
▁يتطلب	-9.87859
عض	-9.87884
▁القيم	-9.87911
▁السمك	-9.88124
▁مشاهدة	-9.88136
▁قضيت	-9.88141
▁يعتمد	-9.88144
C	-9.88145
يث	-9.88146
▁اليابان	-9.88171
▁الجوي	-9.88174
تبرع	-9.8819
▁الكلمة	-9.88207
▁عمره	-9.88235
▁السلام	-9.88235
▁نكن	-9.88244
▁تنتج	-9.88255
▁تقل	-9.88266
▁الطبية	-9.8829
▁تحتوي	-9.88313
▁الحيوان	-9.88344
سيطر	-9.88413
▁الحد	-9.88414
خف	-9.88422
▁الرقم	-9.88485
▁حياته	-9.88509
▁صعبة	-9.88513
كتابة	-9.88606
▁السياسة	-9.88614
▁تعود	-9.88633
▁بعيداً	-9.88656
حن	-9.88697
ائها	-9.887
ختار	-9.88705
▁أمل	-9.88796
▁مق	-9.88813
▁والب	-9.88827
عظم	-9.88842
▁لعب	-9.88884
زرع	-9.88897
▁الرائع	-9.88909
▁وصل	-9.88944
h	-9.88975
▁العودة	-9.88985
ضح	-9.89001
▁السماء	-9.89009
حفز	-9.89069
دف	-9.89086
▁اخت	-9.89088
▁القمر	-9.89094
▁بوضع	-9.89145
عمق	-9.89159
▁الشرطة	-9.89204
التالي	-9.89217
▁طلاب	-9.89297
▁المحيطات	-9.89308
▁الإجتماعية	-9.89326
نطلق	-9.89332
▁وسيلة	-9.89343
▁تفعله	-9.89352
▁يدفع	-9.89428
▁نصنع	-9.89454
▁أبعد	-9.89464
▁متى	-9.89469
فيد	-9.89526
▁ضرب	-9.89568
غضب	-9.8959
▁ولو	-9.89606
▁السريع	-9.89687
تار	-9.89715
▁الدي	-9.8972
وقف	-9.89724
▁المساعدة	-9.89725
نزل	-9.89736
▁عضو	-9.89789
▁أست	-9.90007
▁الإقتصادي	-9.90016
▁أخت	-9.90127
رحل	-9.90168
50	-9.90219
مسح	-9.90219
▁أريكم	-9.90288
علي	-9.90313
جول	-9.90339
▁أجد	-9.90339
▁عكس	-9.90357
▁منتج	-9.90403
▁قلق	-9.90416
عتبر	-9.9043
▁والكثير	-9.9043
او	-9.90443
▁جميعنا	-9.90453
روع	-9.90495
شرك	-9.90523
درك	-9.90531
▁برو	-9.90554
▁يحمل	-9.90623
▁لوحة	-9.90656
▁وبدأت	-9.90664
▁بيل	-9.90666
▁يعتقدون	-9.90672
▁طبق	-9.90727
▁الغريب	-9.90819
▁تبع	-9.9082
▁ببناء	-9.90821
ائنا	-9.90824
جير	-9.90877
▁يدي	-9.90892
▁فإنها	-9.90938
لند	-9.91023
▁سير	-9.91026
تصرف	-9.9105
صعد	-9.91112
▁تدخل	-9.91112
▁التح	-9.91127
▁بمجرد	-9.91127
▁تخبر	-9.91164
▁الفيلم	-9.912
▁العلاقات	-9.91242
▁معين	-9.91291
رقص	-9.91424
▁رأي	-9.91469
▁الشاشة	-9.91492
▁تعريف	-9.91579
▁المناسب	-9.91585
▁ولل	-9.91617
▁الخلية	-9.91631
شق	-9.91682
▁ذاته	-9.91791
▁يصدق	-9.9184
لاء	-9.91849
▁بحق	-9.91918
▁تجارب	-9.91976
▁حدوث	-9.91986
▁مريض	-9.92014
روي	-9.92026
▁إذًا	-9.92086
راج	-9.9219
▁مذهلة	-9.92302
▁كاليفورنيا	-9.92352
▁الأرجح	-9.92353
▁شمال	-9.92356
▁المثير	-9.9244
▁البناء	-9.92494
▁آي	-9.92495
▁عمله	-9.92523
▁التقدم	-9.92556
▁المتوسط	-9.92565
▁الأساسي	-9.92636
▁جنس	-9.92694
▁التقليدية	-9.92709
▁النجاح	-9.92733
▁الناتج	-9.92751
▁جين	-9.92783
▁14	-9.92814
ائهم	-9.92854
▁الأمن	-9.9297
▁اختيار	-9.92996
▁لندن	-9.93154
▁المؤسسات	-9.932
▁الارض	-9.93268
▁بالح	-9.93289
▁بالغ	-9.93298
▁أعد	-9.93307
▁إدارة	-9.93342
رياضي	-9.93354
عمر	-9.93368
▁الجيد	-9.93375
▁نماذج	-9.93388
▁تفهم	-9.93415
▁والس	-9.93455
حكم	-9.93481
خطو	-9.93496
عهد	-9.93499
▁ضخم	-9.93538
محطة	-9.93571
▁الرئيس	-9.93576
▁الأدوية	-9.93585
ترا	-9.93655
▁أق	-9.93857
▁فرص	-9.93918
▁عقد	-9.93919
▁الرياح	-9.93921
▁ايضاً	-9.93999
▁لأنك	-9.94129
▁بول	-9.94227
▁كمبيوتر	-9.94252
▁المسؤول	-9.94317
كره	-9.9442
▁نصل	-9.9447
▁المالية	-9.94496
فجر	-9.94498
▁حصلنا	-9.9456
زيل	-9.94661
▁يخبر	-9.94669
▁لفترة	-9.9471
▁الكبرى	-9.94713
▁بطرق	-9.94714
▁نمط	-9.94726
محاولة	-9.94801
ريح	-9.94837
▁فمن	-9.94861
حركة	-9.94916
صديق	-9.94937
▁الإبداع	-9.9505
مار	-9.95051
▁القرار	-9.95099
▁الشخصي	-9.951
توجيه	-9.95121
نتهي	-9.95135
▁يوما	-9.95151
فترض	-9.9519
▁بيئة	-9.95192
ضاء	-9.95197
▁جنب	-9.95207
توجه	-9.95209
▁فريد	-9.95218
▁لأجل	-9.95252
لصق	-9.95255
▁حماية	-9.95282
عام	-9.9529
قع	-9.95385
▁مواد	-9.95458
▁ذي	-9.95503
▁النجوم	-9.9551
▁التّ	-9.95532
قلب	-9.95596
▁الأصلي	-9.95644
▁مكون	-9.95653
▁عمري	-9.95665
▁تراه	-9.95671
▁غض	-9.95697
▁الحكومات	-9.95851
▁يحاول	-9.95851
▁الجيدة	-9.95893
▁الرسوم	-9.95915
▁الفتيات	-9.95918
▁رفع	-9.95929
سكو	-9.95942
ختبر	-9.95948
▁اتصال	-9.95957
▁المنتج	-9.96009
▁التركيز	-9.96018
شجع	-9.9602
▁الباب	-9.96031
▁متعلق	-9.96068
▁طرح	-9.96087
عدد	-9.96109
تجاوز	-9.96152
▁التحول	-9.96155
▁كاف	-9.96271
ستمتع	-9.96279
سعادة	-9.96292
▁النص	-9.9631
▁المشاريع	-9.96313
▁التعبير	-9.96314
▁C	-9.9634
▁يو	-9.96381
▁وحيد	-9.96396
▁تنمو	-9.96429
▁سيارات	-9.9647
▁الام	-9.9657
▁شيئًا	-9.96596
▁تو	-9.96614
باقي	-9.9665
حظ	-9.96651
▁بعضنا	-9.96698
▁تمامًا	-9.96722
▁استعمال	-9.96755
▁حولنا	-9.96795
بث	-9.96807
▁متحمس	-9.96859
▁سيئ	-9.96909
▁الحكم	-9.96956
لل	-9.96966
وبة	-9.97006
مرة	-9.97112
▁أتذكر	-9.97127
ّن	-9.97144
▁الرحلة	-9.97144
▁إليكم	-9.97161
▁الألعاب	-9.97172
▁شخصية	-9.97172
عائلات	-9.97193
▁نظري	-9.97248
طيل	-9.97253
قبل	-9.97285
لتقي	-9.97303
تضمن	-9.97322
▁يستخدمون	-9.97354
▁مطلق	-9.97366
▁بفعل	-9.97376
▁الهو	-9.97417
▁فقال	-9.97425
▁بإمكانك	-9.97507
▁إذ	-9.97531
▁الملايين	-9.97615
▁تجمع	-9.97648
▁النحل	-9.97663
▁ليسوا	-9.97676
▁الشركة	-9.97715
خلال	-9.97722
▁بأنها	-9.97727
ساس	-9.97755
▁أداة	-9.97802
زلنا	-9.97813
▁ضعف	-9.97837
▁الصناعية	-9.97845
▁للحياة	-9.97952
▁ناجح	-9.97953
دور	-9.9796
لس	-9.98003
▁S	-9.98041
▁استخدامها	-9.98045
▁دعم	-9.98074
راز	-9.98075
تفاعل	-9.98132
▁طائرة	-9.98137
تصور	-9.98143
▁وحين	-9.98173
شكر	-9.98189
▁الموجود	-9.98286
▁ولكنني	-9.98292
▁النار	-9.9838
▁المساواة	-9.98388
سرطان	-9.98411
▁مساعدة	-9.98424
▁ففي	-9.98442
▁واسع	-9.98479
▁العشر	-9.98499
فين	-9.98534
▁الاف	-9.98543
تحسن	-9.98559
سلسل	-9.98689
▁النفس	-9.98718
حسن	-9.98766
▁الثانوية	-9.98768
تخصص	-9.98776
▁أش	-9.98839
رام	-9.98864
شخص	-9.98891
▁مؤسسة	-9.98959
▁الجراح	-9.98961
▁ليكون	-9.99024
تلك	-9.99024
▁روح	-9.99056
▁سوق	-9.99111
▁لنفس	-9.99157
فصيل	-9.99206
▁معنا	-9.9922
وث	-9.99233
▁قادم	-9.99251
▁جسد	-9.99368
▁التعاطف	-9.99411
خسر	-9.99424
زعج	-9.99509
وخ	-9.99524
▁اسمه	-9.99538
غيّر	-9.99624
▁بالعمل	-9.99649
▁الروبوتات	-9.99711
▁مدهش	-9.99771
▁متعددة	-9.9978
▁شراء	-9.99791
▁سماع	-9.99856
▁عملنا	-9.99864
شهور	-9.99902
▁السياسية	-9.99919
▁المشاركة	-9.99942
▁الدور	-9.99952
سوء	-9.99979
▁أطول	-9.99999
قيادة	-10.0001
▁للإهتمام	-10.0002
▁فقلت	-10.0002
▁تعقيد	-10.0003
▁500	-10.0013
▁المؤ	-10.0013
▁وأنت	-10.0018
▁قصيرة	-10.0024
▁التعلم	-10.0027
▁ويت	-10.0028
الم	-10.0036
▁التعاون	-10.004
▁المنطق	-10.0041
▁الداخل	-10.0042
▁تبقى	-10.0042
عتمد	-10.0045
▁مجموعات	-10.0047
▁يتغير	-10.005
ترابط	-10.0053
حرف	-10.0055
▁إطلاق	-10.0059
▁الخبر	-10.0061
كوب	-10.0063
▁قريب	-10.0063
▁الأرقام	-10.0069
جهود	-10.0071
▁فلم	-10.0073
▁قيم	-10.0076
▁نذهب	-10.0076
▁كلا	-10.008
▁مضى	-10.0087
▁الثورة	-10.0089
▁المعماري	-10.0091
▁القوانين	-10.0092
ظاهر	-10.0093
▁السيطرة	-10.0095
▁الفور	-10.0097
▁2000	-10.0101
▁جعلت	-10.0106
▁الصحي	-10.0113
▁ماهو	-10.0116
قمنا	-10.0119
▁لكنهم	-10.012
▁يزيد	-10.0121
▁المستخدم	-10.0124
▁لشخص	-10.0125
in	-10.0132
▁فصل	-10.0136
▁أمور	-10.0137
▁الأسباب	-10.0141
▁اللعبة	-10.015
▁أقدم	-10.0155
▁خيار	-10.0156
▁نحب	-10.0158
▁دان	-10.0167
▁تواجه	-10.0168
▁فأن	-10.0171
▁خطوة	-10.0177
▁تتم	-10.0188
كاف	-10.0189
موجات	-10.02
▁المركز	-10.0204
▁يلعب	-10.0209
درسون	-10.0214
▁واضحة	-10.0219
▁طعام	-10.022
▁قضية	-10.0224
▁المق	-10.0225
▁منطقي	-10.0235
▁يفعله	-10.0237
▁النووية	-10.0239
▁إس	-10.0243
▁المختبر	-10.0251
▁حاسوب	-10.0257
▁فتاة	-10.0259
▁توفير	-10.0263
نظار	-10.0267
▁13	-10.0272
طعام	-10.0282
منع	-10.0283
▁العقد	-10.0285
▁النتيجة	-10.0287
▁سبعة	-10.0294
▁الأموال	-10.03
مواطنين	-10.0303
▁ولأن	-10.0303
أنماط	-10.0304
تردد	-10.0323
هندسة	-10.0327
بنى	-10.0327
▁مال	-10.0336
▁روبوت	-10.0337
اعتماد	-10.0344
▁الصباح	-10.0345
روف	-10.0346
زالت	-10.0349
▁الصحف	-10.035
سمى	-10.0352
▁أسبوع	-10.0352
▁أخير	-10.0354
▁الدراسة	-10.0355
شرف	-10.0359
▁القليلة	-10.0361
▁المرور	-10.0365
عترف	-10.0369
▁أبي	-10.0376
▁الرؤية	-10.0382
▁عمليات	-10.0387
▁المحمول	-10.0387
أجزاء	-10.0387
▁أسئلة	-10.0387
▁الجمال	-10.0389
▁قرار	-10.039
▁تسمع	-10.039
حرج	-10.0392
وغ	-10.0399
▁وكأن	-10.0399
▁نواجه	-10.04
▁غريبة	-10.0408
▁السلطة	-10.0412
▁ترونه	-10.0414
سمع	-10.0425
▁خال	-10.0426
▁الضغط	-10.0428
▁أسوأ	-10.043
▁يمتلك	-10.043
▁الفترة	-10.0431
▁توقع	-10.0431
▁الأب	-10.0431
▁أمريكي	-10.0436
▁مليارات	-10.0439
تضح	-10.0443
▁بالمناسبة	-10.0451
▁سيد	-10.0452
▁صنعت	-10.0455
▁الرقمية	-10.0461
▁اذن	-10.0462
▁للمر	-10.0465
سكر	-10.0469
تنفس	-10.0474
▁المباني	-10.0475
▁السر	-10.0475
▁الإنتاج	-10.0476
▁000	-10.0479
▁D	-10.049
▁مساعد	-10.0495
▁حالات	-10.0499
▁يصنع	-10.0502
▁أصوات	-10.0505
حلم	-10.0509
▁وعن	-10.051
▁يفهم	-10.0512
▁الزراعة	-10.0521
قارن	-10.0521
▁ضغط	-10.0524
غط	-10.0526
برمجة	-10.0528
▁البنية	-10.0528
▁الدخل	-10.0529
▁سرعة	-10.053
حافة	-10.0533
▁اقول	-10.0534
▁معالجة	-10.0535
تأثر	-10.0536
تجنب	-10.054
▁قاع	-10.0541
▁تدفع	-10.0545
▁اكبر	-10.0546
▁90	-10.0552
ّق	-10.0557
▁أمن	-10.056
▁صعوبة	-10.0562
▁اللقاح	-10.0562
▁الحراري	-10.0565
▁لفعل	-10.0568
▁راي	-10.0576
▁المتعلق	-10.0576
▁حاولت	-10.0576
بالغ	-10.0577
▁وتم	-10.0587
▁لوس	-10.059
▁للجميع	-10.0601
▁البكتيريا	-10.0604
▁مؤتمر	-10.0616
▁الاساس	-10.0622
▁يخرج	-10.0625
▁لاحظ	-10.0626
ستطع	-10.0639
عطيكم	-10.0645
▁العلاقة	-10.0651
▁الحضور	-10.0658
ارك	-10.0659
▁300	-10.0675
▁طبيعية	-10.0676
▁أستطع	-10.0682
▁صحة	-10.0687
▁غالبا	-10.0691
▁الأنظمة	-10.0692
▁خريطة	-10.0696
▁تدريب	-10.0696
▁الطيران	-10.0696
▁يقدم	-10.0699
تزايد	-10.07
▁التقنيات	-10.0701
دام	-10.0704
▁عالي	-10.0706
لقاء	-10.0706
▁قدرة	-10.0713
▁وقالت	-10.0722
عش	-10.0723
▁سأقو	-10.0734
▁فكروا	-10.0738
باد	-10.0743
صوت	-10.0744
▁تعتمد	-10.0744
▁الطيور	-10.0749
▁متوقع	-10.0749
▁ويجب	-10.0749
▁فيروس	-10.0755
▁العادي	-10.0757
▁24	-10.076
▁الكرة	-10.0761
▁آخرين	-10.0776
▁القدم	-10.0779
▁نشعر	-10.0782
واقع	-10.0785
▁أعوام	-10.0787
▁اليه	-10.079
▁آر	-10.0792
▁نص	-10.0792
▁عامة	-10.0794
▁يش	-10.0795
▁أخبرت	-10.0799
▁الصيف	-10.08
▁الثالثة	-10.0801
▁الأطباء	-10.0802
ذن	-10.0802
▁فشل	-10.0809
▁عيني	-10.0814
▁الأمل	-10.0816
▁تتخيل	-10.0817
▁العدد	-10.0823
لوك	-10.0828
▁إمكانية	-10.0832
▁17	-10.0835
ختيار	-10.0838
تسلق	-10.0839
ثقة	-10.0839
▁وصول	-10.0843
▁مازال	-10.0843
شهد	-10.0846
رسال	-10.0853
▁اختراع	-10.0855
▁التغير	-10.0856
▁الهندسة	-10.0859
▁بالنظر	-10.0869
▁المفترض	-10.0871
عاني	-10.0872
▁مجددا	-10.0873
وكس	-10.0874
تشارك	-10.0877
▁الفتاة	-10.0878
▁لطيف	-10.0879
▁الحمراء	-10.0879
أم	-10.088
▁ويقول	-10.0886
شيء	-10.0888
فارق	-10.0895
▁أساسا	-10.0896
رالي	-10.09
▁الروبوت	-10.09
▁عليّ	-10.0917
▁حرارة	-10.0925
▁العليا	-10.0925
صادف	-10.0927
▁كتبت	-10.0929
▁إسم	-10.0935
▁الحمل	-10.0936
▁الذهب	-10.0939
بناء	-10.0943
▁تخيلوا	-10.0947
▁طائر	-10.0952
▁كتابة	-10.0953
▁عاش	-10.0954
عقد	-10.0956
▁المخدرات	-10.096
c	-10.0971
▁مجدداً	-10.0974
▁العراق	-10.0974
▁70	-10.0984
▁حاول	-10.0985
▁يتعلم	-10.099
▁المصاب	-10.0991
قاط	-10.0993
▁الحشرات	-10.0996
تغذية	-10.0997
وجد	-10.0998
▁وضعنا	-10.0998
▁الطرف	-10.1001
▁يبلغ	-10.1003
حديد	-10.1006
ستيقظ	-10.1018
كذب	-10.1021
عزل	-10.1021
▁محظوظ	-10.1022
قوي	-10.1022
▁السم	-10.1027
ولوج	-10.1034
▁بحجم	-10.1034
▁وبين	-10.1038
سور	-10.104
▁حيوان	-10.1048
▁خطير	-10.105
▁العمليات	-10.1051
فريقي	-10.1052
▁مجتمعات	-10.1052
▁تقدير	-10.1053
▁العلمي	-10.1057
▁البلاستيك	-10.1062
▁الغابة	-10.1063
▁وصلنا	-10.1064
توتر	-10.1067
▁وظيفة	-10.1068
▁بقية	-10.1073
▁الاحت	-10.1075
تروا	-10.1077
▁الاولى	-10.1079
▁البقاء	-10.108
▁بأنني	-10.1083
▁ممن	-10.1084
جماع	-10.1085
▁تنظيم	-10.1086
▁المخاطر	-10.1088
توسع	-10.1089
▁عالمية	-10.1092
كيفية	-10.1095
سئل	-10.1095
▁الغرب	-10.1096
▁التحديات	-10.1097
▁لفهم	-10.1099
▁سمك	-10.1099
▁أذهب	-10.1099
▁الأسماك	-10.1099
▁طور	-10.1106
▁جاءت	-10.1112
▁استمر	-10.1113
حوالي	-10.1114
▁حو	-10.112
فكّر	-10.1125
▁مجموع	-10.1131
ائح	-10.1132
قراء	-10.1134
قيد	-10.1136
زام	-10.1137
▁مثلا	-10.1138
▁لاحقاً	-10.1138
▁الغالب	-10.1139
▁الفعل	-10.1142
▁بدور	-10.1144
▁القديم	-10.1145
لأ	-10.1149
▁ينتج	-10.1153
▁كافية	-10.1157
▁يحب	-10.1157
▁بدء	-10.1157
▁الغلاف	-10.1159
هرب	-10.1161
▁الابتكار	-10.1165
▁النمل	-10.1167
تمام	-10.1168
▁أقرب	-10.1171
▁حيوانات	-10.1174
▁القطع	-10.1183
▁المشهد	-10.1192
▁نتعلم	-10.1193
▁السابقة	-10.1194
▁الحاجة	-10.1203
▁شجرة	-10.1203
▁مبكر	-10.1204
▁الهائل	-10.1206
جسم	-10.1209
▁وكنا	-10.1209
▁مربع	-10.1212
▁دخل	-10.1215
▁الاطلاق	-10.122
▁هار	-10.1223
▁والان	-10.1223
▁وقام	-10.1231
▁السحر	-10.1232
▁ترغب	-10.1234
بمعنى	-10.1237
تأمل	-10.1244
▁مؤ	-10.1245
▁ثقافة	-10.1246
▁أدوات	-10.1254
▁تجاري	-10.1256
▁مشكل	-10.1256
▁أرغب	-10.1257
▁أنظمة	-10.126
▁إنّه	-10.1263
▁الذكر	-10.1265
ماء	-10.1267
أمل	-10.1267
▁تحدثت	-10.1284
▁محددة	-10.1292
عبر	-10.1294
▁خصوص	-10.1298
▁تعلمنا	-10.1305
▁بيع	-10.1309
ختفي	-10.131
▁السود	-10.1312
▁الغاز	-10.1313
▁تستطيعون	-10.1313
▁سبق	-10.1315
▁القطاع	-10.1316
▁وكال	-10.1317
زيارة	-10.1317
▁أرسل	-10.1318
▁تتغير	-10.1318
رجاء	-10.1318
▁مثلي	-10.1321
وء	-10.1329
▁شعب	-10.133
▁سجل	-10.134
▁التلفاز	-10.1346
تالي	-10.1348
قاع	-10.1351
▁الكامل	-10.1351
▁اتجاه	-10.1353
▁ذوي	-10.1353
▁ليلة	-10.1354
دان	-10.1365
▁ساعد	-10.1365
▁الكافي	-10.1367
▁حدثت	-10.1371
وظف	-10.1384
▁وبدأ	-10.139
توضيح	-10.1395
▁الوطنية	-10.1395
▁هيكل	-10.1396
▁الأهم	-10.1404
▁حسن	-10.1406
قصى	-10.1412
كلفة	-10.1412
نش	-10.1423
▁النماذج	-10.1427
▁الأحمر	-10.1429
▁عادي	-10.143
▁الخطر	-10.1439
▁أفغانستان	-10.1442
▁مسألة	-10.1444
فون	-10.1446
▁السرعة	-10.1448
قوس	-10.145
▁تصرف	-10.1451
▁إرسال	-10.1452
▁الثقافة	-10.1452
▁النقاط	-10.1455
عنف	-10.1456
ائك	-10.1456
لماذا	-10.1459
▁الطلب	-10.1459
خبركم	-10.1461
اؤه	-10.1463
▁العصر	-10.1465
▁المكتب	-10.147
M	-10.1471
▁نقاط	-10.149
▁خذ	-10.1493
▁الفيزياء	-10.1495
حكي	-10.15
عطائ	-10.15
▁بليون	-10.15
▁الخيال	-10.1503
▁التن	-10.1506
▁تقع	-10.1507
▁يستحق	-10.1509
سطح	-10.1512
عطاء	-10.1514
▁بحلول	-10.1516
ناقش	-10.1517
اكي	-10.1519
▁إما	-10.152
ساء	-10.1525
عمار	-10.1535
▁أحدث	-10.1536
محاكاة	-10.154
▁المناعة	-10.1541
ادات	-10.155
▁الدخول	-10.1555
▁نادر	-10.1558
سياسة	-10.1561
صلاح	-10.1562
نفذ	-10.1566
▁سابق	-10.1568
▁ار	-10.1571
▁محلي	-10.1572
ُل	-10.1578
▁لصنع	-10.1578
والد	-10.1586
رمز	-10.1587
قتصاد	-10.1587
▁بسهولة	-10.1589
▁التحتية	-10.1589
رائد	-10.159
صاحب	-10.1593
▁المدهش	-10.1593
▁الكا	-10.1595
▁ثورة	-10.1597
▁واعتقد	-10.16
▁البصري	-10.1605
▁شخصا	-10.1614
▁الحاضر	-10.1615
▁أخذنا	-10.1616
وفي	-10.1621
▁لأنّ	-10.1626
▁البل	-10.1627
تقليل	-10.1628
▁لبناء	-10.163
▁متصل	-10.1632
▁تسير	-10.1634
▁الخارجي	-10.1637
▁يحتاجون	-10.1638
▁قوانين	-10.1638
▁يحتوي	-10.164
بوط	-10.164
▁وحدة	-10.1647
شغف	-10.1648
▁أنّه	-10.1655
ريكم	-10.1656
▁الشعر	-10.1658
▁قابلة	-10.166
▁المنتجات	-10.166
خذ	-10.1661
زيد	-10.1663
▁عرفت	-10.1666
▁الوجه	-10.1666
توصل	-10.1667
زح	-10.1668
تطلع	-10.1669
▁عش	-10.1674
▁أعرض	-10.1679
▁السكر	-10.168
▁تشاهد	-10.1681
▁تكلفة	-10.1685
▁مقال	-10.1686
▁تشغيل	-10.1688
▁بري	-10.17
قاف	-10.1701
▁قسم	-10.1702
▁الكلام	-10.1704
▁المشي	-10.1705
▁الأفلام	-10.1711
ريس	-10.1713
راق	-10.1719
أؤمن	-10.1721
▁الأخر	-10.1723
▁قض	-10.1725
▁يغير	-10.1729
▁مستحيل	-10.1737
قيمة	-10.1739
▁علامة	-10.1742
▁جراح	-10.1746
▁البياني	-10.1747
▁رؤيته	-10.1747
▁احب	-10.1749
▁M	-10.1758
▁يشكل	-10.1762
▁اقتصادي	-10.1767
▁دائم	-10.1767
▁هذ	-10.1771
▁والسبب	-10.1772
er	-10.1776
▁يملكون	-10.1776
▁ربط	-10.1777
▁مادة	-10.1777
▁تجري	-10.1777
▁معكم	-10.1778
▁الكواكب	-10.1787
▁للوصول	-10.1787
شاعر	-10.179
▁ولد	-10.179
▁السير	-10.1792
▁بالضرورة	-10.1795
▁تسبب	-10.1799
▁موقف	-10.18
▁الطائرات	-10.1809
▁الدولي	-10.1815
▁برامج	-10.1816
▁المفضلة	-10.1818
▁النصف	-10.1821
▁الجواب	-10.1823
▁دقيق	-10.1824
غري	-10.1824
▁الشرق	-10.1825
▁مميز	-10.183
حقيقة	-10.1831
داد	-10.1837
▁البرازيل	-10.1838
▁للأطفال	-10.1839
جوانب	-10.1841
طباعة	-10.1844
▁الهي	-10.1846
▁يتمكن	-10.1849
▁سمع	-10.185
واحد	-10.1856
20	-10.1859
ستكشف	-10.1868
▁انك	-10.187
سيا	-10.1874
▁الشوارع	-10.1888
▁علاقات	-10.1888
▁الكاميرا	-10.1888
▁الاتجاه	-10.1888
▁دليل	-10.1889
▁بالتحديد	-10.189
▁شديدة	-10.189
مراحل	-10.1894
▁وبشكل	-10.1894
▁البيئية	-10.1895
ستان	-10.1902
فرض	-10.1902
▁سنت	-10.1906
▁الأجهز	-10.1913
▁فنان	-10.1916
▁أحيانا	-10.1919
▁نساء	-10.192
صنف	-10.1922
▁محرك	-10.1928
إلى	-10.1933
علام	-10.1934
▁الخير	-10.1937
▁نبحث	-10.1937
ؤسس	-10.1939
▁للتفكير	-10.1939
▁الأمثلة	-10.194
▁تسجيل	-10.194
تشر	-10.1944
▁القضية	-10.1944
قوة	-10.1947
▁الحساب	-10.1948
▁القاعدة	-10.1954
بيض	-10.1954
جور	-10.1954
▁مستخدم	-10.1956
حرق	-10.1957
▁اعت	-10.1964
حالة	-10.1965
▁نعرفه	-10.197
حج	-10.1972
▁العلمية	-10.1973
▁درس	-10.1974
▁القضايا	-10.1979
▁زال	-10.1986
زيادة	-10.1987
▁البدء	-10.1993
▁الآلات	-10.1993
▁تحسين	-10.1999
▁النهر	-10.2004
قاذ	-10.2008
▁باب	-10.2013
▁تأ	-10.2029
▁الإنجليزية	-10.2029
▁عائلة	-10.203
تنافس	-10.2031
▁الجميلة	-10.2035
▁يجلس	-10.2036
كثافة	-10.2041
▁الكفاية	-10.2041
▁ملابس	-10.2041
▁خائف	-10.2043
▁لتحقيق	-10.2046
▁تناول	-10.2046
تمويل	-10.2046
▁الجيش	-10.2047
▁المنظمات	-10.205
ستمرار	-10.205
قبض	-10.2053
▁يدور	-10.2062
▁نشاط	-10.2063
ضل	-10.2071
▁القواعد	-10.2072
يمي	-10.2073
▁تؤثر	-10.2076
▁الغذائية	-10.2076
▁وسن	-10.2091
▁المفتوح	-10.2093
▁الضخمة	-10.2093
▁الطبيب	-10.2119
▁نسخة	-10.2125
وضح	-10.2127
▁أمكن	-10.2129
▁أعظم	-10.2134
▁أصدقائي	-10.2135
▁هذين	-10.2137
ضيع	-10.2138
▁توفر	-10.2139
▁محيط	-10.214
▁مهندس	-10.214
لقى	-10.2141
حام	-10.2144
▁عشوائي	-10.2145
▁قابلت	-10.2145
▁حان	-10.2147
▁النهائي	-10.2147
تزوج	-10.2148
▁آمل	-10.215
تغيير	-10.2155
▁المذهل	-10.2157
▁الرابعة	-10.2157
▁اكتشفت	-10.2159
▁لتكون	-10.2164
▁الخطأ	-10.2165
حذر	-10.2165
▁إضافة	-10.2171
وهم	-10.2175
▁الديمقراطية	-10.2176
▁بإستخدام	-10.2179
ماس	-10.218
▁إد	-10.2184
فري	-10.2187
▁رأيتم	-10.2187
▁لنقل	-10.219
علن	-10.2191
▁الرسالة	-10.2198
▁النشاط	-10.2199
لان	-10.2201
▁أمرا	-10.2211
حطم	-10.2212
تجول	-10.2216
قاب	-10.2218
▁الجامعة	-10.2221
▁قواعد	-10.2221
▁النوم	-10.2227
عدل	-10.2228
▁يؤدي	-10.2229
▁الشيئ	-10.2232
▁ألم	-10.2234
▁بالس	-10.2236
فاد	-10.2238
▁جلب	-10.2243
▁الاتصال	-10.2246
▁ألعاب	-10.2249
▁الظروف	-10.2249
▁الجينوم	-10.2249
▁سترون	-10.2261
شرع	-10.2268
▁الخروج	-10.2272
▁أساسية	-10.2277
▁اخذ	-10.2278
▁عدت	-10.2287
▁تام	-10.2294
▁تاي	-10.2294
أنفسنا	-10.2294
بيانات	-10.2295
الأمر	-10.2297
اَ	-10.2297
▁مستقل	-10.2301
بدء	-10.2302
▁كاميرا	-10.2304
or	-10.2305
إكتشاف	-10.2305
▁حلول	-10.2305
▁مقدار	-10.231
▁الخدمات	-10.2313
▁يبحث	-10.2316
▁الصحيحة	-10.2317
ستوعب	-10.2319
▁الحس	-10.232
▁تمر	-10.2323
▁الألم	-10.2324
▁الحرية	-10.2325
▁البحرية	-10.233
بذل	-10.2332
حزن	-10.2332
▁اتضح	-10.2339
عى	-10.2341
▁بوجود	-10.2344
▁حرف	-10.2349
▁مؤخرا	-10.235
▁افريقيا	-10.2355
▁ذاهب	-10.2356
▁القاعة	-10.2357
كوين	-10.2362
▁يحبون	-10.2364
▁ملك	-10.2373
▁الفيروس	-10.2373
دراسة	-10.2377
▁أتمنى	-10.2381
▁الأخلاقي	-10.2382
أشخاص	-10.2385
خيل	-10.2388
▁مشاهد	-10.239
نتمكن	-10.2395
شروع	-10.2398
جزء	-10.2401
ستقل	-10.2406
▁المقابل	-10.2407
▁اقتصاد	-10.2407
▁العكس	-10.2407
▁التلفزيون	-10.2408
▁الأزرق	-10.2408
▁الثقافي	-10.2408
اوي	-10.2409
شمل	-10.2415
بينما	-10.2415
▁قائل	-10.2416
لد	-10.2419
▁الفكر	-10.2426
▁دار	-10.2426
▁أعطي	-10.243
▁متن	-10.243
كمل	-10.2438
إيقاف	-10.2442
▁وجعل	-10.2446
▁التعقيد	-10.2461
▁وظائف	-10.2461
▁مشاريع	-10.2461
▁تشكيل	-10.2461
▁الهيكل	-10.2463
▁رسوم	-10.2463
▁إم	-10.2464
▁الوعي	-10.2466
ستفيد	-10.2471
علاج	-10.2477
▁الجميل	-10.2478
▁العظيمة	-10.248
▁وجميع	-10.2484
▁غرب	-10.2489
▁النّ	-10.249
▁سيقوم	-10.2493
▁بالإضاف	-10.25
روم	-10.2507
▁الفصل	-10.2509
تحر	-10.2509
▁الأرضية	-10.2509
▁متحف	-10.2509
▁ريتشارد	-10.2515
▁ممتاز	-10.2515
▁ظاهرة	-10.252
▁العثور	-10.2523
▁صحيحة	-10.2525
لرؤية	-10.2526
▁الإقتصاد	-10.2526
▁البسيطة	-10.2527
تلوث	-10.2527
▁تفاعل	-10.253
▁يوماً	-10.2536
▁التنوع	-10.2539
▁نجم	-10.2542
▁جدي	-10.2543
▁الحلول	-10.2544
قاطع	-10.2544
▁وثم	-10.2544
▁سبع	-10.2545
بقية	-10.2546
ايت	-10.2553
بح	-10.2564
قترح	-10.2565
▁القومي	-10.2565
▁عقلي	-10.2567
▁بمقدور	-10.2569
▁الرسائل	-10.2569
▁يعانون	-10.2569
▁يسأل	-10.2572
▁خدمة	-10.2576
▁الخطوط	-10.2581
▁مارك	-10.2581
▁لاحقا	-10.2582
▁أقوى	-10.2584
▁أفهم	-10.2588
▁رؤيتها	-10.2591
▁ولكنهم	-10.2599
▁وأنه	-10.2599
▁تجرب	-10.2599
▁الشبكات	-10.2605
▁المواقع	-10.261
▁معهد	-10.2617
▁لحل	-10.262
▁الجيل	-10.263
قشرة	-10.2633
▁البيض	-10.2633
▁جوجل	-10.2634
▁عوض	-10.2637
▁معرفت	-10.2642
▁كوني	-10.2643
ضبط	-10.2646
حاكم	-10.2646
نتشر	-10.2646
▁باست	-10.2647
▁زاد	-10.2648
▁الكهربائية	-10.2648
▁فعال	-10.2649
▁فك	-10.266
معرفة	-10.2662
سخر	-10.2664
▁استطعت	-10.2665
ائف	-10.2666
▁وعمل	-10.2672
▁مليئة	-10.2675
تظار	-10.2675
▁الدواء	-10.2679
▁يعنيه	-10.2679
رموز	-10.2682
▁جورج	-10.2683
▁الأفراد	-10.2684
▁الجسد	-10.2685
▁تركيب	-10.2686
▁لاحظت	-10.2687
▁تدور	-10.2687
▁معقد	-10.2688
▁تمتلك	-10.2689
▁مرتبط	-10.2691
▁رمز	-10.2692
▁يحاولون	-10.2695
إيجاد	-10.2698
▁يطلق	-10.27
▁الشمالي	-10.2702
▁مثلاً	-10.2705
▁شك	-10.2707
نجاح	-10.271
▁بأنهم	-10.2713
خارج	-10.2717
▁مقاطع	-10.272
▁ظهرت	-10.272
غرب	-10.2728
▁الصفر	-10.273
▁أخيرا	-10.273
▁البريطاني	-10.2733
▁الجزيئات	-10.2733
▁الخضراء	-10.2733
▁بصدد	-10.2733
▁تحرك	-10.2736
▁صفحة	-10.2736
▁وانت	-10.2737
غرض	-10.2746
▁سياسي	-10.275
كيف	-10.2751
▁الرب	-10.2755
ساو	-10.2757
▁مصادر	-10.276
▁ذاتها	-10.2766
▁الحم	-10.2775
▁صار	-10.2778
تدخل	-10.2785
▁الأسواق	-10.2788
▁ثالث	-10.2788
▁الخيار	-10.2788
▁عالمنا	-10.2792
▁آن	-10.2793
▁المسار	-10.2794
خدع	-10.2804
▁حظ	-10.2811
▁قرأت	-10.2812
▁ذكرت	-10.282
▁الاقتصادية	-10.2823
▁والدتي	-10.2823
ىء	-10.2829
▁دورة	-10.2834
▁بريطانيا	-10.2839
▁بجد	-10.2841
▁خلالها	-10.2843
▁ظهور	-10.2844
▁دائرة	-10.2844
مسئول	-10.2845
▁التاسع	-10.2846
▁رئيسي	-10.2849
▁الإرهاب	-10.2852
▁لايمكن	-10.2856
▁الصناعي	-10.2857
▁ولدت	-10.2858
▁اليومية	-10.2859
رخص	-10.2862
ختراع	-10.2864
قراطي	-10.2864
▁أمراض	-10.2865
▁مستويات	-10.2867
▁سيتم	-10.2868
▁نست	-10.2877
▁400	-10.2878
مدينة	-10.2881
▁المدنية	-10.2882
▁حلم	-10.2885
تراجع	-10.2886
سكا	-10.2888
ــ	-10.2891
▁مرتفع	-10.2895
▁بقوة	-10.2895
▁مبنى	-10.2899
▁المعروف	-10.2902
▁تحليل	-10.2904
▁يؤمن	-10.2904
▁الأهمية	-10.2905
▁الخارجية	-10.2905
▁الأسود	-10.2909
ختبار	-10.2918
▁إخبار	-10.2918
قضاء	-10.292
▁سريعة	-10.2923
فال	-10.2923
خضع	-10.2926
▁كف	-10.2928
▁أجر	-10.2931
▁الدولية	-10.2935
تسبب	-10.2939
فوز	-10.2947
▁كافي	-10.295
▁الحية	-10.2952
مرأة	-10.2955
ضمن	-10.2956
طموح	-10.2957
▁تقود	-10.2961
▁الفريق	-10.2964
حديقة	-10.2973
,	-10.2976
وازن	-10.2977
▁الحين	-10.2978
▁غالباً	-10.2984
▁اشياء	-10.2991
كافح	-10.2996
▁بإن	-10.2998
▁بالقرب	-10.3004
أسعار	-10.3006
▁مواقع	-10.3009
▁مدير	-10.3012
▁يهتم	-10.3016
شتغل	-10.3016
خلاص	-10.3018
▁تتبع	-10.3019
▁خيال	-10.3019
▁وزن	-10.302
▁الأبيض	-10.3024
▁القياس	-10.3026
علق	-10.3029
▁زوجتي	-10.3032
صعود	-10.3034
▁حكم	-10.3042
▁النقل	-10.3042
ملكة	-10.3043
▁المناخي	-10.305
▁محدد	-10.3056
▁البرية	-10.3062
▁واذا	-10.3062
▁أخلاقي	-10.3069
سهل	-10.307
يوجد	-10.3071
فائ	-10.3077
▁البعيد	-10.308
▁توم	-10.3082
ختصار	-10.3086
تحمل	-10.3088
▁البالغ	-10.3092
▁المساحة	-10.3104
▁المجموعات	-10.3109
▁الأصوات	-10.3109
وجود	-10.311
ائز	-10.3111
موس	-10.3122
▁فإذا	-10.3126
▁ثابت	-10.3126
▁الصراع	-10.3128
▁الرياضية	-10.3129
▁أموال	-10.313
▁بور	-10.313
▁منتجات	-10.313
▁الأغلب	-10.3133
▁الروح	-10.3139
▁الإلكتروني	-10.3144
▁الحفاظ	-10.3146
▁الغربية	-10.3146
▁الاخرى	-10.3146
▁ستقوم	-10.3151
▁التجارة	-10.3151
▁معرض	-10.3151
▁الشمالية	-10.3152
▁استغرق	-10.3154
شحن	-10.3154
▁المستشفى	-10.3156
▁يمر	-10.3161
▁كبيرا	-10.3163
ختلف	-10.3167
▁معروف	-10.3179
▁البريد	-10.318
▁جميعها	-10.3181
لتزام	-10.3181
▁ولكي	-10.3183
▁قرب	-10.3185
▁زي	-10.3186
سود	-10.3187
إحتمال	-10.3188
▁الطبقة	-10.3191
▁حامل	-10.3195
طريقة	-10.3198
إزالة	-10.3199
▁الجبل	-10.3201
▁ستيف	-10.3212
وكا	-10.3214
▁وقبل	-10.3215
▁أعيش	-10.3219
▁تقنيات	-10.3222
▁بعين	-10.3222
▁غرف	-10.3223
▁الجنسي	-10.3227
▁اخبر	-10.3229
▁عدا	-10.3231
▁تكوين	-10.3234
▁درجات	-10.3237
▁القائمة	-10.3242
▁الوراء	-10.3243
▁المراهق	-10.3245
داخل	-10.3258
▁الشاب	-10.3265
▁يشعرون	-10.3268
▁قديمة	-10.3273
▁خاطئة	-10.3278
▁طبيعة	-10.328
▁إلينا	-10.3297
▁التدريب	-10.33
▁الثامن	-10.33
▁النمط	-10.33
▁إيجابي	-10.3301
▁يدخل	-10.3302
▁الجلد	-10.3305
تجمع	-10.3305
عثر	-10.3308
▁السوداء	-10.3309
▁الهرم	-10.331
خلف	-10.3311
▁150	-10.3322
مساعدة	-10.3333
▁المصدر	-10.3333
▁الأل	-10.3335
▁الأمم	-10.3335
▁بأخذ	-10.3337
مضادات	-10.3339
▁يواجه	-10.334
▁فرض	-10.334
سوق	-10.3343
▁العائلة	-10.3343
▁مدة	-10.3343
تكون	-10.3346
▁ورق	-10.335
an	-10.3354
▁الملاريا	-10.3358
تقاسم	-10.3359
▁منظور	-10.336
▁ديفيد	-10.3361
▁الجمع	-10.3362
▁مؤخراً	-10.3363
▁أبدأ	-10.3363
▁تكمن	-10.3368
▁النظرية	-10.3368
امين	-10.3373
▁اصبح	-10.3374
ضعف	-10.3374
▁وأريد	-10.3379
▁خاطئ	-10.338
شل	-10.3398
▁ميت	-10.3412
جغرافي	-10.3417
▁المكسيك	-10.3417
▁جاهز	-10.3417
▁جالس	-10.3421
▁تويتر	-10.3424
▁اكتشف	-10.3428
معركة	-10.3433
▁واست	-10.3436
لأشياء	-10.3446
▁سيء	-10.3447
▁مصر	-10.3447
بيت	-10.345
▁ستجد	-10.3454
وسع	-10.346
▁كور	-10.3467
▁يقف	-10.3469
▁شق	-10.3474
دوار	-10.3476
▁مجلس	-10.3477
▁الحقائق	-10.3478
▁أسباب	-10.3479
▁الخيارات	-10.3479
▁الدولارات	-10.348
▁عمرها	-10.348
▁المتوقع	-10.3483
▁القط	-10.3486
▁قطر	-10.349
▁استطاع	-10.3492
▁آلي	-10.3501
▁فإنك	-10.3504
▁أكل	-10.3509
لز	-10.3513
فور	-10.3515
▁تحكم	-10.352
▁موظف	-10.3529
▁مزيد	-10.3529
كسر	-10.3531
أسماك	-10.3533
هندس	-10.3534
▁علمت	-10.3534
▁الذكور	-10.3536
▁الناحية	-10.3536
▁إضافي	-10.3539
الشيء	-10.3539
▁لنرى	-10.3541
توحد	-10.3549
قضايا	-10.355
▁إياه	-10.3556
▁الفقراء	-10.3559
▁ثلاثية	-10.3566
▁لعد	-10.3569
باط	-10.3569
▁وقف	-10.3569
▁الذاتي	-10.357
▁العظم	-10.3573
▁البرامج	-10.3574
بصر	-10.3576
▁بحر	-10.3587
▁الأراضي	-10.3596
▁كيميائي	-10.3596
▁التفاصيل	-10.3598
▁خطة	-10.3598
▁مؤشر	-10.3599
▁إقتصاد	-10.3606
ّف	-10.3616
▁القرد	-10.3619
▁أملك	-10.3628
▁سعيدة	-10.3631
َل	-10.3633
▁المفضل	-10.364
ملك	-10.3643
▁أتعلمون	-10.3643
▁ورقة	-10.3648
▁محاول	-10.3649
▁تنفيذ	-10.3656
▁الأعصاب	-10.3656
▁عاطفي	-10.3656
▁ابدا	-10.3658
▁الرغبة	-10.3659
▁التنبؤ	-10.366
▁الرأس	-10.3662
▁الأشكال	-10.3663
▁الإحساس	-10.3663
قدام	-10.367
شاب	-10.3671
▁إجتماع	-10.3671
حزب	-10.3684
طبع	-10.3692
▁اعط	-10.3697
▁سنتين	-10.3698
▁فعلته	-10.3701
وتو	-10.3708
▁تصدق	-10.3712
▁التصرف	-10.3714
▁المخلوقات	-10.3716
▁الاهتمام	-10.3716
▁محور	-10.3719
▁القصير	-10.3724
▁مفتوحة	-10.3725
▁سوياً	-10.3725
▁التكلفة	-10.3727
نسج	-10.3741
▁أبو	-10.3742
▁الأولية	-10.3743
▁بنية	-10.3756
▁أستخدم	-10.3759
تاب	-10.3763
حقيق	-10.3764
▁ثلث	-10.3767
عقل	-10.3772
▁الأمام	-10.3773
▁الحواسيب	-10.3774
▁مدرس	-10.3777
▁كيلومتر	-10.3777
كيمياء	-10.3778
▁المحادثة	-10.3778
▁الزجاج	-10.3778
▁مايكل	-10.3781
▁يقع	-10.3783
أسماء	-10.379
زهر	-10.379
تقبل	-10.3801
▁يحت	-10.3802
جوب	-10.3804
▁فهنا	-10.3804
▁أحياناً	-10.3805
▁لأحد	-10.3813
▁الوطني	-10.3814
▁نسأل	-10.3814
▁والج	-10.3817
▁اعتقدت	-10.3822
سبان	-10.3828
▁لاحق	-10.3831
▁بمثاب	-10.3839
▁بوضوح	-10.3839
▁رسائل	-10.3839
▁الخبز	-10.3839
▁الداخلية	-10.384
حتفظ	-10.384
▁شبيه	-10.384
▁بمعدل	-10.3843
▁إحساس	-10.3843
▁أخبار	-10.3844
هؤلاء	-10.3845
▁تلو	-10.385
مجموعة	-10.3851
▁قطاع	-10.3851
قرض	-10.3853
▁سعر	-10.3856
▁تسأل	-10.3861
▁جهة	-10.3866
▁تبحث	-10.3866
▁أقدام	-10.387
▁مراقبة	-10.3871
▁يؤثر	-10.3876
صفوف	-10.3879
مدرسة	-10.3884
▁لتغيير	-10.3884
▁الوسط	-10.389
▁مقطع	-10.389
ألف	-10.39
▁الخريطة	-10.39
▁بأشياء	-10.39
▁توزيع	-10.39
وحش	-10.3903
استجابة	-10.3906
▁الوظائف	-10.3907
هبط	-10.3909
رهاب	-10.3914
لازم	-10.392
جاج	-10.392
▁إجراء	-10.3923
▁جزءا	-10.3924
مدن	-10.3931
▁الفرص	-10.3934
خاطر	-10.395
إلهام	-10.3952
▁الخصوص	-10.3956
▁المستحيل	-10.3963
▁الصحراء	-10.3963
▁العنصر	-10.3963
▁جزيرة	-10.3963
▁جزئي	-10.3963
▁شريط	-10.3963
▁البساطة	-10.3964
▁تظن	-10.3964
▁ذراع	-10.3965
▁إدراك	-10.3966
لولايات	-10.3966
▁الاستثمار	-10.3971
▁عقود	-10.3973
▁ملف	-10.3985
تمنى	-10.3988
نطق	-10.3991
▁كوب	-10.3994
▁رحلت	-10.3995
▁الإيدز	-10.3998
▁إنجاز	-10.3999
▁الحيوي	-10.4002
طرد	-10.4014
خوض	-10.4016
ساعات	-10.4019
▁العميق	-10.4025
▁رائعا	-10.4026
▁الوزن	-10.4027
▁السابع	-10.4028
▁انتهى	-10.403
▁بالأمر	-10.403
▁النانو	-10.4032
▁نبني	-10.4032
▁35	-10.4036
لوم	-10.404
شجاعة	-10.404
▁لأكثر	-10.4051
▁الألوان	-10.4054
أسفل	-10.4065
▁يرون	-10.4066
▁وأصبح	-10.4079
▁للبحث	-10.4081
▁إثارة	-10.4081
▁بتغيير	-10.4082
ar	-10.4083
▁الإتصال	-10.4088
▁تفسير	-10.4088
انخفاض	-10.4088
تجمد	-10.4088
▁مسرح	-10.4089
▁جذري	-10.4089
▁الثروة	-10.409
مخاوف	-10.4092
جرى	-10.4092
تغلب	-10.4095
سيم	-10.4097
▁ذاتي	-10.41
▁حما	-10.4101
ستغرق	-10.4103
▁دائمًا	-10.4104
شرطة	-10.4104
▁مفيد	-10.4122
▁أحضر	-10.4122
▁محا	-10.4126
▁جسدي	-10.4132
غامر	-10.414
▁مشاعر	-10.4142
▁تبلغ	-10.4149
▁واشنطن	-10.4151
جسيمات	-10.4153
▁آسيا	-10.4153
▁عنصر	-10.4154
▁المغناطيسي	-10.4158
خليج	-10.416
إحداث	-10.4167
جهاز	-10.417
▁فقر	-10.4171
ستثمار	-10.4173
▁الطاولة	-10.4175
غار	-10.4175
▁قدمت	-10.4175
▁الصيد	-10.4176
▁عل	-10.4178
▁عمق	-10.4187
فوق	-10.4188
تكيف	-10.4188
▁منازل	-10.4195
30	-10.42
قريب	-10.42
▁اليد	-10.4211
▁الدقيقة	-10.4212
▁أبحث	-10.4214
استثناء	-10.4215
▁ضروري	-10.4215
▁ينتهي	-10.4215
▁الأوقات	-10.4215
.5	-10.4215
فسر	-10.4216
▁المهارات	-10.4217
▁أشبه	-10.4217
▁كينيا	-10.4218
▁أذن	-10.4219
▁قائد	-10.4221
هيئة	-10.4222
▁الاختبار	-10.4224
▁السياق	-10.4226
▁الافتراضي	-10.4228
بيل	-10.4232
▁تجاوز	-10.4241
جوع	-10.4246
▁السفر	-10.4247
▁كأنه	-10.4252
▁الطويل	-10.4256
▁الرقمي	-10.4256
▁مرتبطة	-10.4267
▁شرح	-10.4269
▁بغض	-10.4271
▁أجسام	-10.4279
ضحايا	-10.4279
▁الدراسي	-10.4279
▁أوقات	-10.428
.000	-10.4287
▁منخفضة	-10.4287
تدرب	-10.4288
فقر	-10.4292
▁أصدقاء	-10.4292
▁ذكية	-10.4304
▁يتحرك	-10.4306
الطريقة	-10.4306
▁مجاني	-10.4307
احترام	-10.4313
▁عامين	-10.4319
▁تشير	-10.433
سق	-10.433
▁قصير	-10.4331
▁سهلة	-10.4336
▁استخدمت	-10.4337
▁العدالة	-10.4338
▁مشهد	-10.434
▁تمكنت	-10.4341
▁استثنائي	-10.4343
▁سار	-10.4345
مبادئ	-10.4345
▁نراها	-10.4347
▁نبات	-10.4347
▁حفل	-10.4352
▁اكتشفنا	-10.4357
▁سمعتم	-10.4358
معاناة	-10.436
برد	-10.4361
▁مميزة	-10.4362
▁غني	-10.4366
▁أعضاء	-10.4366
كنيسة	-10.437
▁شاهدت	-10.437
▁مدار	-10.4378
▁سحر	-10.4378
▁ويتم	-10.4382
رخ	-10.4387
▁المشاعر	-10.4388
اقوم	-10.4392
بتعد	-10.4393
▁رأسي	-10.4401
سعة	-10.4402
السؤال	-10.4405
▁مصنع	-10.4407
▁يتحدثون	-10.4407
▁بعيدة	-10.4408
▁بالتفكير	-10.4408
▁إلكتروني	-10.4409
▁حرفيا	-10.4413
▁بأكملها	-10.4415
▁حس	-10.4418
نجح	-10.4422
مثيل	-10.4433
▁نسخ	-10.4435
متابعة	-10.4441
▁ماء	-10.4447
▁نخ	-10.445
▁القراءة	-10.4458
▁اعرف	-10.4458
شيئ	-10.446
▁صفر	-10.4461
▁الكتابة	-10.4462
▁دعن	-10.4467
▁الثلج	-10.4471
▁المفهوم	-10.4473
▁أفراد	-10.4474
▁العناصر	-10.4474
▁المطلوب	-10.4474
توسيع	-10.4476
▁جيم	-10.4485
ليس	-10.4491
▁التغيرات	-10.4494
اهية	-10.4497
▁مألوف	-10.4497
▁لنفسي	-10.4498
▁نعود	-10.4499
▁يموت	-10.45
▁الحديد	-10.4503
▁سمعنا	-10.4503
ضيق	-10.4503
▁الكيميائية	-10.4505
▁سنقو	-10.4506
▁المؤتمر	-10.4507
عوب	-10.4512
أثير	-10.452
منهج	-10.4521
▁جرا	-10.4521
▁صناعي	-10.4524
▁نستخدمها	-10.4525
▁فم	-10.4528
▁سبتمبر	-10.454
▁ضعيف	-10.454
نسى	-10.4545
تجربة	-10.4546
▁وكأنه	-10.4547
▁مخيف	-10.4548
نحدر	-10.4548
▁بدقة	-10.4549
▁بديل	-10.4562
أهداف	-10.4565
▁يثير	-10.4567
تسع	-10.457
▁القرارات	-10.457
نقوم	-10.4575
▁مفيدة	-10.458
لحسن	-10.4583
▁جني	-10.4583
▁دوما	-10.4584
نهاية	-10.459
▁الطبي	-10.4597
▁الأسلحة	-10.4599
▁الشرقي	-10.46
نهار	-10.4603
▁أحتاج	-10.4604
تقاعد	-10.4605
▁نجح	-10.4605
يتهم	-10.4605
▁المناسبة	-10.4606
▁أدنى	-10.4608
ريق	-10.4609
▁الخشب	-10.461
ثرو	-10.4612
سكي	-10.462
▁نشأت	-10.4621
▁المرات	-10.4623
▁نحل	-10.4629
اخذ	-10.4629
▁الجنسية	-10.4632
▁سوء	-10.4633
▁وأيضا	-10.4637
طفال	-10.4637
روتين	-10.4638
▁إطار	-10.4639
▁منزلي	-10.4639
▁عيد	-10.4644
▁معروفة	-10.4652
▁زملائي	-10.4659
▁كشف	-10.4659
▁كوكبنا	-10.4669
▁أصحاب	-10.4673
▁إفريقيا	-10.4673
▁المسألة	-10.4674
▁أضعاف	-10.4676
▁خدمات	-10.4676
فلسف	-10.4677
▁زرع	-10.4678
▁اقل	-10.4679
▁باستمرار	-10.4679
▁للأسف	-10.468
▁ثوان	-10.4683
سال	-10.4685
كاد	-10.4687
▁يسبب	-10.469
تواضع	-10.4692
▁الذاكرة	-10.4693
▁ممل	-10.47
▁تجميع	-10.47
▁نغير	-10.4701
▁الجنوبي	-10.4703
▁21	-10.4708
▁شرق	-10.4709
شن	-10.4726
▁ندرك	-10.4727
ريو	-10.473
▁اللوحة	-10.4731
▁بأكمله	-10.4733
▁الغربي	-10.4733
▁ملاحظة	-10.4736
▁يفترض	-10.4739
▁جمهور	-10.474
▁الزرقاء	-10.474
▁تقييم	-10.474
اثناء	-10.474
▁تلاحظ	-10.474
▁أتعلم	-10.4741
▁خطوط	-10.4743
on	-10.4745
تلاعب	-10.4746
▁آه	-10.475
▁الأربع	-10.4753
صميم	-10.4754
قبع	-10.4754
صرخ	-10.4756
▁طبقة	-10.4758
▁اثنان	-10.4764
▁العمال	-10.477
غناء	-10.4776
▁الكلية	-10.478
▁الدب	-10.4784
▁باسم	-10.4786
قس	-10.4787
▁الناج	-10.4787
▁عنوان	-10.4792
▁يكتب	-10.4793
تفوق	-10.4794
▁التقاط	-10.4803
▁موت	-10.4806
سبح	-10.4807
▁الالكتروني	-10.4807
▁الاعتبار	-10.4807
▁الزواج	-10.4807
▁آثار	-10.481
▁المئات	-10.4811
▁تعبر	-10.4823
▁اتخاذ	-10.4824
▁الصندوق	-10.4832
▁إخ	-10.4833
تطوع	-10.4838
▁بأس	-10.4842
كوك	-10.4843
حاسب	-10.4843
▁الأعضاء	-10.4844
▁إليهم	-10.4844
عنى	-10.4847
تناسب	-10.4848
▁مسبق	-10.4849
دعاء	-10.485
▁بطل	-10.485
▁مشابه	-10.4852
▁المشتركة	-10.4856
▁بقليل	-10.4857
▁أسود	-10.4859
▁عائلتي	-10.4875
▁سعداء	-10.4875
▁المعقدة	-10.4876
▁يظن	-10.4876
ِر	-10.4877
▁المطر	-10.4877
▁الصغار	-10.4877
قليل	-10.4878
▁بتصميم	-10.4878
▁الرقص	-10.4882
▁البحار	-10.4884
ؤدي	-10.4886
▁إمرأة	-10.4886
▁إصلاح	-10.4887
ؤثر	-10.489
كهرب	-10.489
▁رفض	-10.4893
نضم	-10.4895
▁والعديد	-10.4897
▁يومياً	-10.4903
تسائل	-10.4904
بحاث	-10.4905
شعاع	-10.4907
▁النامية	-10.4917
▁مرارا	-10.4917
▁ذكي	-10.4918
ثبات	-10.492
▁مراكز	-10.4921
▁قوا	-10.4921
▁الرابع	-10.4927
▁بإمكاني	-10.4928
▁مشترك	-10.4931
شاء	-10.4933
شراك	-10.4934
مبا	-10.4934
▁الجنوبية	-10.4938
▁الملك	-10.4941
▁الضروري	-10.4944
▁بالكثير	-10.4944
▁جائزة	-10.4945
▁أزمة	-10.4946
رأى	-10.4947
▁فإنهم	-10.4949
▁ويقوم	-10.4951
مشكلة	-10.4953
▁النسخ	-10.4954
▁أيّ	-10.4956
▁إنقاذ	-10.4957
▁تتمكن	-10.4957
▁الفطر	-10.4958
▁لسبب	-10.496
ديم	-10.4962
▁شبه	-10.4963
▁فضاء	-10.4964
▁قديم	-10.4969
٠٠	-10.4969
▁بريد	-10.4981
▁صحية	-10.4988
حدود	-10.4991
▁الامريكية	-10.4994
▁بعرض	-10.4996
▁الحالية	-10.4999
طرف	-10.5
▁الجاذبية	-10.5
▁فعالية	-10.5006
▁يشارك	-10.5008
▁بتطوير	-10.5013
▁الفراغ	-10.5013
▁مشهور	-10.5014
▁تحريك	-10.5015
▁السيئة	-10.5016
▁إلهي	-10.5016
▁سلبي	-10.5021
لاحق	-10.5027
زداد	-10.5028
▁مقياس	-10.5031
َر	-10.5032
▁أوضح	-10.5036
زود	-10.5036
▁يستمر	-10.5041
▁تحديداً	-10.5042
كولا	-10.5043
▁رائعاً	-10.5049
▁المقبلة	-10.5053
▁تتعلم	-10.5062
لتف	-10.5066
▁45	-10.507
غطي	-10.507
نقي	-10.5071
▁الإدراك	-10.5071
▁التحرك	-10.5071
ضار	-10.5075
حرر	-10.5075
▁يعاني	-10.5081
▁مزارع	-10.5082
▁فرانك	-10.5083
▁النفسية	-10.5085
▁سأريكم	-10.5087
▁أراه	-10.5087
▁أحسن	-10.509
▁الأبحاث	-10.5091
▁الأربعة	-10.5092
▁أحببت	-10.5096
▁ينمو	-10.5098
▁أذكر	-10.5098
▁قرارات	-10.5098
▁الجهة	-10.51
▁وهل	-10.5106
▁فست	-10.5111
▁تجاهل	-10.5113
عجز	-10.5119
▁قاس	-10.5121
▁محب	-10.5121
جيران	-10.5123
سلطة	-10.5128
▁صديقي	-10.5134
▁معلم	-10.5137
تعاطف	-10.5141
عمد	-10.5148
حوادث	-10.5152
▁ترتيب	-10.5152
معادلة	-10.5156
▁تشاهدون	-10.5158
كتسب	-10.5162
▁بإمكانكم	-10.5164
▁الذاتية	-10.5166
▁قلنا	-10.5166
▁وكلما	-10.5168
▁مخطط	-10.5168
نبض	-10.5169
▁خطاب	-10.5174
أحد	-10.5175
▁القطعة	-10.5179
▁اطفال	-10.5182
قلوب	-10.5183
▁يسير	-10.5186
▁امام	-10.5189
▁والق	-10.5196
▁العرق	-10.52
▁لوضع	-10.5202
▁خوف	-10.5203
عضلة	-10.5209
لخروج	-10.5215
▁قدرات	-10.5217
▁مدهشة	-10.5218
▁غوغل	-10.5222
▁كتلة	-10.5224
▁المقدس	-10.5224
أعماق	-10.5226
▁المسلم	-10.5229
▁باحث	-10.5229
r	-10.5231
▁بيئي	-10.5232
▁تبني	-10.5233
▁فكان	-10.5242
▁نشاهد	-10.5245
▁كائن	-10.5252
مستشفى	-10.5257
▁ألمانيا	-10.5266
علينا	-10.5266
▁نأمل	-10.5268
حاضر	-10.5269
ائط	-10.5273
▁يوضح	-10.5278
▁جميعًا	-10.528
▁يسمع	-10.5288
▁قريبة	-10.5289
▁رؤيت	-10.5292
▁وفجأة	-10.5293
▁فعالة	-10.5294
▁للطاقة	-10.5294
صادم	-10.53
زارة	-10.5301
▁يعلمون	-10.5302
▁الخامسة	-10.5305
▁زراعة	-10.5305
▁الفلك	-10.531
▁اجتماعية	-10.531
▁سياق	-10.5311
▁نعطي	-10.5315
▁جبل	-10.5324
أسلوب	-10.5334
رافق	-10.5335
بيان	-10.5335
▁دخلت	-10.5336
▁كلياً	-10.5352
▁انتظر	-10.5357
▁صنعنا	-10.5362
رعا	-10.5363
▁اسمحو	-10.5364
▁المخطط	-10.5364
▁الأوروبي	-10.5365
▁دخول	-10.5365
▁الشريحة	-10.5365
▁يعادل	-10.5365
▁مسافة	-10.5365
▁تقف	-10.5367
▁أسم	-10.5371
▁الحدث	-10.5374
تسارع	-10.5375
قرون	-10.5383
▁الإمكان	-10.5385
تصفح	-10.5386
▁الفحم	-10.5386
بوت	-10.539
▁الإعلان	-10.5394
▁اليها	-10.5397
ميكروبات	-10.54
صعب	-10.5422
▁بمرض	-10.5422
▁شو	-10.5425
▁مفتوح	-10.5427
▁البيئي	-10.5427
لبس	-10.5428
▁مصنوعة	-10.5433
سلط	-10.5434
▁أسمع	-10.5435
إسرائيل	-10.5437
تصاميم	-10.5437
▁الفرنسي	-10.5437
▁السباحة	-10.5437
▁ذهني	-10.5437
▁مباشر	-10.5438
فيسبوك	-10.5438
▁قدما	-10.5439
▁الساحل	-10.544
▁بقي	-10.5441
▁الحقوق	-10.5442
▁أرجو	-10.5445
▁تتطلب	-10.5446
▁كندا	-10.5452
▁سلام	-10.5459
فاجئ	-10.5467
▁اردت	-10.5471
▁أسهل	-10.5476
▁بيد	-10.5477
▁قُ	-10.5486
▁مجتمعنا	-10.5493
▁بلدان	-10.5495
▁واسعة	-10.5498
مواطن	-10.55
موسيقى	-10.5501
تراكم	-10.5505
▁مقاومة	-10.5506
▁فرانسيسكو	-10.5509
▁الأحداث	-10.5509
▁يأتون	-10.5509
▁المظلمة	-10.5509
▁أحلام	-10.551
▁محادثة	-10.551
▁شأنه	-10.5513
▁النسبة	-10.5513
▁البنك	-10.5513
▁الجبال	-10.5516
إدارة	-10.5519
▁نووي	-10.552
▁خرجت	-10.5521
▁المملك	-10.5521
شور	-10.5522
▁الاختيار	-10.5522
▁بفضل	-10.5524
▁بالكاد	-10.5533
غلب	-10.5534
▁سيصبح	-10.5535
▁واقعي	-10.5541
▁العالية	-10.5552
▁ينجح	-10.5554
▁لاعب	-10.5556
▁يولد	-10.5558
▁مخاطر	-10.5559
حمض	-10.556
▁أسلوب	-10.556
▁نسمع	-10.5561
▁كثيرًا	-10.5565
▁يخبرنا	-10.5565
▁اعلم	-10.557
▁....	-10.5573
▁مواطن	-10.5578
▁المثيرة	-10.5582
▁الضوئي	-10.5582
▁الملابس	-10.5582
▁تقريبًا	-10.5582
▁تقرير	-10.5582
▁مجنون	-10.5585
▁2008	-10.5587
▁قلبي	-10.5591
▁قرية	-10.5596
▁حساس	-10.5596
▁السّ	-10.5596
▁للفن	-10.5597
▁وأخير	-10.5607
▁محدود	-10.5607
▁المرجانية	-10.5611
▁مور	-10.5611
▁الجذعية	-10.5614
ركي	-10.5614
▁حقيقةً	-10.5615
▁تصف	-10.5622
لرجال	-10.563
▁رؤوس	-10.5631
▁فقدان	-10.5634
شاط	-10.5636
تنمية	-10.5639
▁القلق	-10.5641
▁عصبية	-10.5642
▁أعمق	-10.5642
▁كسر	-10.5642
▁لشيء	-10.5644
▁الإجتماعي	-10.5651
جامعة	-10.5653
▁بحد	-10.5655
▁القطار	-10.5655
▁الفقيرة	-10.5656
▁أغنية	-10.5656
▁الحركات	-10.5658
▁إيران	-10.5661
▁دوماً	-10.5661
▁التوازن	-10.5667
▁عقب	-10.5667
▁تري	-10.5668
▁القادة	-10.5669
قدّم	-10.5669
إقناع	-10.5672
▁كهربائية	-10.5673
▁جيني	-10.5675
أداة	-10.5681
▁تستحق	-10.5687
▁اللاتي	-10.5694
جراء	-10.5699
تشكل	-10.5701
عمى	-10.5703
▁عادية	-10.5706
▁الأخضر	-10.5707
قاوم	-10.5709
▁قانوني	-10.5713
ينشتاين	-10.5715
نزع	-10.5719
علماء	-10.5719
معالجة	-10.5725
▁فائدة	-10.573
▁غامض	-10.573
▁الفساد	-10.573
إرتفاع	-10.573
▁الدفاع	-10.573
مثّل	-10.5731
▁مهارات	-10.5732
تغطية	-10.5734
رصد	-10.5735
▁تحوي	-10.5736
▁زميل	-10.5738
▁الاتصالات	-10.5738
اكل	-10.5739
▁حرية	-10.5743
▁مختلفين	-10.5746
▁لخلق	-10.5747
زور	-10.5752
▁بصري	-10.5758
ألوان	-10.5759
▁إليك	-10.576
▁للنظر	-10.5763
▁أضع	-10.5764
شفافية	-10.5765
▁أسأل	-10.5775
▁أظهرت	-10.5777
▁مرتين	-10.5779
غان	-10.5779
▁تؤدي	-10.5779
جرائم	-10.5779
▁يشاهد	-10.5782
▁المحرك	-10.5782
▁وعي	-10.5783
▁قدماً	-10.5792
▁يطلب	-10.5799
▁الآباء	-10.5802
▁ظروف	-10.5805
▁ثنائي	-10.5805
مزرعة	-10.5805
▁ملائم	-10.5807
تنظيم	-10.5807
▁سليم	-10.5807
▁بساطة	-10.5808
لسوء	-10.5815
▁ممارسة	-10.582
▁تدرك	-10.5822
▁ثمّ	-10.5827
▁75	-10.5831
▁أخبرن	-10.5833
▁يؤ	-10.5839
▁الجينية	-10.5843
▁الستين	-10.5846
▁فضلك	-10.5849
لشركة	-10.5855
▁جماعي	-10.5857
▁سابقاً	-10.5858
▁الدعم	-10.5862
▁يموتون	-10.5865
▁تأكل	-10.587
إضافة	-10.5872
▁العصبي	-10.5879
▁استهلاك	-10.588
▁فظيع	-10.588
▁للذهاب	-10.588
▁العظام	-10.588
▁نمتلك	-10.588
▁التركيب	-10.588
▁الطقس	-10.5881
▁قبيل	-10.5883
طوّر	-10.5885
▁القرية	-10.5886
▁انتشار	-10.5887
▁الشمال	-10.5887
▁وفكرت	-10.589
▁الاختراع	-10.5891
سرد	-10.5892
▁أظهر	-10.5896
خلل	-10.5897
▁البروتين	-10.5899
حث	-10.5907
▁الخلفية	-10.5907
▁المصادر	-10.5909
قناع	-10.591
▁الجدار	-10.5913
إستخدام	-10.5918
▁الحاسب	-10.5925
▁التل	-10.5928
▁باللون	-10.5929
▁المميز	-10.5934
شىء	-10.5936
قاض	-10.5938
شعب	-10.5939
▁سابقا	-10.5943
▁تموت	-10.5952
▁الفنية	-10.5953
▁كبيراً	-10.5954
انتخاب	-10.5955
▁رخيص	-10.5955
▁ذكاء	-10.5955
▁وهلم	-10.5955
▁أحياء	-10.5956
ثقافات	-10.5956
▁لحظات	-10.5956
تكاثر	-10.5956
▁التربة	-10.5956
▁متاحة	-10.5957
▁المرئي	-10.5959
▁قادرا	-10.5962
▁تهتم	-10.5963
▁النطاق	-10.5964
▁تتوقع	-10.5965
▁تلعب	-10.5966
▁هات	-10.5967
▁الوسطى	-10.5971
▁يدرك	-10.5972
▁وأحد	-10.5973
▁تود	-10.5973
▁أتى	-10.5975
▁أداء	-10.5979
▁حادث	-10.5986
عزز	-10.5986
▁بأمر	-10.5987
▁الدكتور	-10.5996
▁أفعله	-10.5998
▁تستمر	-10.6
غوص	-10.6008
▁القريب	-10.601
غش	-10.6017
متر	-10.6026
▁متزايد	-10.6027
▁كام	-10.6029
▁فرنسا	-10.6032
▁الأوسط	-10.6032
▁الشديد	-10.6032
▁المركبات	-10.6033
▁نتوقع	-10.6036
▁انتاج	-10.604
▁مدارس	-10.6043
▁عموم	-10.6044
ساق	-10.605
منحنى	-10.6051
▁الكائن	-10.6053
▁آلية	-10.6056
▁الصناعة	-10.6057
سكان	-10.6068
▁تتذكر	-10.6071
▁ليصبح	-10.6072
▁فكل	-10.6077
▁وتقوم	-10.6077
▁يستغرق	-10.6081
ضاع	-10.6085
▁العادة	-10.6086
▁المشاهد	-10.6091
▁نهر	-10.6091
▁خيارات	-10.6095
▁تشارك	-10.6098
▁ضئيل	-10.6109
زدهر	-10.6109
عولمة	-10.611
ديناميك	-10.611
▁صغار	-10.6112
▁شامل	-10.6117
▁القرش	-10.6117
▁القارة	-10.6121
▁إعطاء	-10.6123
بسط	-10.6123
نموذج	-10.6124
▁جراء	-10.6126
▁والعمل	-10.6127
محمية	-10.6135
▁سوية	-10.6136
لاس	-10.6139
at	-10.614
▁العادية	-10.6144
ّى	-10.6144
مواد	-10.6147
▁لكون	-10.6149
▁تعتقدون	-10.6149
▁يتوقف	-10.6151
▁وحدها	-10.6161
▁لأمر	-10.6166
ومبي	-10.6169
▁كائنات	-10.6172
تمدد	-10.6175
▁معدلات	-10.6177
تقن	-10.6182
▁البحوث	-10.6186
تجارة	-10.6186
▁الاصطناعي	-10.6186
ميزانية	-10.619
تمكّن	-10.6192
▁أطفالنا	-10.6198
إلقاء	-10.62
▁فعليا	-10.6202
شبكة	-10.6206
▁اختلاف	-10.6213
خترق	-10.6217
ركض	-10.6218
▁الشمبانزي	-10.6219
▁تهديد	-10.622
▁بعضكم	-10.6229
▁دقة	-10.6229
▁كبار	-10.6244
▁تدريجي	-10.6264
▁ببطء	-10.6264
▁أصدق	-10.6264
▁باستطاعت	-10.6264
▁السادس	-10.6264
▁المنازل	-10.6266
▁زجاج	-10.6266
▁آخذ	-10.6267
▁مرئي	-10.6271
ائن	-10.6271
▁تعاني	-10.6273
▁انتقل	-10.6275
▁كول	-10.6277
▁الجسر	-10.628
▁الدفع	-10.628
▁جينات	-10.6283
▁الإتجاه	-10.6289
حادث	-10.629
فجوة	-10.6291
▁النبات	-10.6294
▁جامع	-10.6296
ديس	-10.6297
▁مقر	-10.6302
▁أمرٌ	-10.6303
▁الذات	-10.6305
▁الريف	-10.6307
بادر	-10.6308
تجار	-10.6308
▁حتي	-10.6312
▁المؤسسة	-10.6312
▁الجنوب	-10.6313
▁قيل	-10.6314
▁اذهب	-10.6315
▁عظم	-10.6324
▁المعلم	-10.6325
راي	-10.6327
لخص	-10.633
▁غالب	-10.6331
تباه	-10.6333
▁ومرة	-10.6333
▁بنيت	-10.634
▁تشخيص	-10.6343
تعزيز	-10.6343
▁السويد	-10.6345
▁مستدام	-10.6345
▁الحيتان	-10.6346
▁مصنوع	-10.6347
لإنشاء	-10.6348
▁المتعدد	-10.6348
▁الأداء	-10.6348
كوّن	-10.635
▁مشتركة	-10.6363
▁الصّ	-10.6365
▁السلم	-10.6365
خلط	-10.6366
▁كمثال	-10.6367
▁فعلياً	-10.6374
▁تركت	-10.638
▁كوننا	-10.6381
راجع	-10.6383
▁للأشخاص	-10.6384
▁وظيفت	-10.6388
▁الصل	-10.6394
▁ارتد	-10.6395
طاولة	-10.6396
رؤية	-10.64
مناقشة	-10.6407
▁حديثي	-10.6409
▁شاشة	-10.6413
▁جوهر	-10.6414
▁وعليه	-10.6415
▁اللحظات	-10.6422
▁الاكثر	-10.6423
▁تلقائي	-10.6423
▁باستعمال	-10.6424
سقوط	-10.6424
▁بطاقة	-10.6424
إخراج	-10.6425
أبطال	-10.6425
▁الدرجة	-10.6427
▁وقمت	-10.6431
▁التحليل	-10.6435
▁المدني	-10.6439
▁متأخر	-10.6444
▁الاخير	-10.6444
جهل	-10.6447
تضاعف	-10.6451
▁22	-10.6457
▁الأصدقاء	-10.6459
▁لاستخدام	-10.6459
▁مضحك	-10.6462
▁الصينية	-10.6464
▁يذهبون	-10.6481
▁المعدل	-10.6487
مغناطيس	-10.6494
تداخل	-10.65
امتلاك	-10.6502
▁العوامل	-10.6502
▁حكومة	-10.6502
▁الكتلة	-10.6503
إعتبار	-10.6503
▁فخور	-10.6503
▁الذهن	-10.6504
راع	-10.6507
▁شائع	-10.6509
غرام	-10.651
▁وسيكون	-10.651
أستاذ	-10.6516
▁طلبت	-10.6517
▁باللغ	-10.6517
تسرب	-10.6518
▁تطلب	-10.6519
فان	-10.6524
مخلفات	-10.6525
▁يشير	-10.6529
▁والناس	-10.653
▁صناع	-10.6531
ُّ	-10.6536
أنشطة	-10.6536
▁صحي	-10.6538
▁أرقام	-10.6539
▁داف	-10.6545
▁يصعب	-10.6547
▁الموسيقية	-10.6547
▁مفاجئ	-10.655
بلايين	-10.656
أطباء	-10.656
▁الفضائية	-10.6561
▁لانني	-10.6568
▁تحل	-10.6569
ثني	-10.6576
▁حجر	-10.6577
▁الجريمة	-10.6583
تأقلم	-10.6583
▁يعبر	-10.6585
▁إر	-10.6585
▁أمثلة	-10.6587
▁نجحت	-10.6591
▁النقاش	-10.6593
▁للنساء	-10.6594
▁اللوح	-10.6596
وير	-10.6596
▁التقليدي	-10.6603
▁السمع	-10.6604
▁قادة	-10.6606
بتسم	-10.661
أيضاً	-10.6614
▁ستحصل	-10.6615
▁لحم	-10.6619
اند	-10.6621
أنثى	-10.6627
▁رغبت	-10.6629
▁يختلف	-10.6639
▁تنتشر	-10.6649
▁أثبت	-10.6652
▁قريبا	-10.6657
▁بلاد	-10.6658
▁سيقول	-10.6664
▁تصنيف	-10.6664
▁الخاطئ	-10.6664
تشجيع	-10.6665
أضواء	-10.6665
استغلال	-10.6665
▁صحيفة	-10.6666
رحم	-10.6667
▁الثمن	-10.6669
▁تركيز	-10.667
▁التكنلوجيا	-10.667
▁يكمن	-10.6673
▁التخطيط	-10.6674
▁ممثل	-10.668
▁المجالات	-10.6681
▁عادةً	-10.6685
▁مرضى	-10.6686
▁مشابهة	-10.67
ثلاث	-10.6701
al	-10.6707
▁بطول	-10.6707
▁تريدون	-10.671
نرى	-10.671
▁كنوع	-10.6711
ضوء	-10.6711
لحفاظ	-10.6718
▁حيوية	-10.6718
لاجئ	-10.6719
▁1000	-10.6723
وائد	-10.6736
▁اصبحت	-10.6739
مكننا	-10.6742
▁رائحة	-10.6746
▁مماثلة	-10.6746
▁شريحة	-10.6746
▁اخترع	-10.6746
▁أبدًا	-10.6747
▁مؤسسات	-10.6747
▁الإجمالي	-10.6747
مليون	-10.6748
▁تغيرت	-10.6753
▁أفلام	-10.6758
▁خبير	-10.6759
▁بصنع	-10.6762
▁كجزء	-10.6763
▁لتصبح	-10.6764
▁جنون	-10.6769
▁تتعلق	-10.6779
▁التنظيم	-10.6783
بدل	-10.6785
أساس	-10.6789
▁افعل	-10.6796
رواد	-10.6796
تغذ	-10.6802
▁الإلكترونية	-10.6803
إتجاه	-10.6805
▁الحكومية	-10.6808
▁وأخيرا	-10.6819
▁ومنذ	-10.6823
▁المحتوى	-10.6825
▁إعلان	-10.6827
▁نيجيريا	-10.6829
▁تكاليف	-10.6829
▁تايمز	-10.6829
▁عائد	-10.6829
لر	-10.6829
▁يسبق	-10.683
▁شارع	-10.6833
▁صراع	-10.6833
▁انتم	-10.6833
▁نسمة	-10.6834
▁الحجر	-10.684
سى	-10.6845
▁لسنوات	-10.6845
أنابيب	-10.6846
خطاء	-10.6848
▁نهائي	-10.6848
▁الحروب	-10.6849
▁محدودة	-10.6852
en	-10.6852
▁وجوه	-10.6856
▁التكنولوجي	-10.6857
▁الطويلة	-10.6863
ذاكرة	-10.6866
ريز	-10.6867
رشد	-10.6874
▁كاب	-10.6877
▁شبكات	-10.6881
تجاهل	-10.6893
▁سياسية	-10.6896
▁الداخلي	-10.6904
▁موجه	-10.6907
▁مرحبا	-10.6908
جنس	-10.691
▁الفيزيائي	-10.6912
▁إبداع	-10.6912
▁الظلام	-10.6913
▁يسع	-10.6913
▁تعليق	-10.6913
▁الأزمة	-10.6913
▁الميلاد	-10.6914
▁السفلي	-10.6914
▁اعتبار	-10.6914
▁السلبي	-10.6915
▁سرير	-10.6915
زيف	-10.6916
▁الصحافة	-10.6916
▁حرفياً	-10.6921
إضاءة	-10.6927
▁توفي	-10.6928
it	-10.6932
▁أدري	-10.6933
▁قوت	-10.6934
بريد	-10.6948
▁أبحاث	-10.695
▁منطق	-10.695
مبادرة	-10.695
▁النفسي	-10.695
فرق	-10.6951
ملأ	-10.6959
▁معالج	-10.6964
▁تنجح	-10.6971
▁بمن	-10.6979
▁الكلب	-10.6981
غرق	-10.6986
رأس	-10.6987
قرار	-10.6992
▁مرئية	-10.6994
▁سفينة	-10.6996
▁سخيف	-10.6997
▁الشجرة	-10.6997
استبدال	-10.6997
▁تكرار	-10.6997
▁والنساء	-10.6999
▁السلسلة	-10.7
نبتة	-10.7002
▁المسيح	-10.7003
▁شباب	-10.7003
▁الانتقال	-10.7006
▁الفنون	-10.7006
▁فقير	-10.7008
▁السرير	-10.701
رمون	-10.7011
▁عُ	-10.7011
▁يجمع	-10.7012
▁نصبح	-10.7019
▁محتمل	-10.702
بذلك	-10.7021
حمد	-10.7023
▁الأصل	-10.703
▁اقت	-10.7034
▁الأبد	-10.7045
▁أتت	-10.7059
▁أعلن	-10.7063
قائد	-10.7073
زار	-10.7074
لاحتمال	-10.708
▁اشخاص	-10.7081
▁ابتكار	-10.7081
▁المبكر	-10.7083
▁عناصر	-10.7083
▁الجدران	-10.7084
خداع	-10.7085
▁نهتم	-10.7085
▁فول	-10.7086
▁ويبدو	-10.7087
▁المتحركة	-10.7088
▁الاستخدام	-10.7089
▁الحوار	-10.7092
▁الاستماع	-10.7095
▁السعر	-10.7096
العودة	-10.7102
▁أسس	-10.7102
▁بشرية	-10.7103
▁الحادي	-10.7103
رونو	-10.7104
▁يعرض	-10.7109
▁الاسم	-10.7111
▁انتباه	-10.7112
▁الباحث	-10.7124
برز	-10.7128
لوب	-10.7132
▁الجماعية	-10.7132
متص	-10.7135
خيط	-10.714
تكامل	-10.714
ذاب	-10.7144
استيعاب	-10.7167
▁الفوضى	-10.7167
▁بإنشاء	-10.7167
▁2010	-10.7168
▁المجرات	-10.7173
▁اتحدث	-10.7174
بحيرة	-10.7177
▁شمس	-10.7179
محطات	-10.718
▁ستصبح	-10.7189
▁المعتاد	-10.7196
▁الزمان	-10.7198
▁الأمريكيين	-10.7198
▁جاك	-10.721
ختلاف	-10.7218
▁بالبحث	-10.7223
مستوى	-10.723
▁تتوقف	-10.723
ستغل	-10.7233
▁غاز	-10.7233
▁نكتشف	-10.7234
▁اجتماعي	-10.7237
▁البعوض	-10.7253
▁غاضب	-10.7253
▁حياتها	-10.7255
▁تنظرون	-10.7255
▁المنظمة	-10.7255
▁يكلف	-10.7256
▁قيام	-10.7256
co	-10.7256
▁موارد	-10.7258
▁يناير	-10.7261
▁اساسي	-10.7263
مقاعد	-10.7264
رفق	-10.727
▁لجميع	-10.727
▁أهل	-10.7272
بهذا	-10.7273
▁يخلق	-10.7276
سطر	-10.7277
▁يتبع	-10.7278
لاستكشاف	-10.7278
بشر	-10.7289
▁التنمية	-10.7294
▁المقطع	-10.7295
▁بثلاث	-10.7303
▁الأهداف	-10.7306
حتياجات	-10.7311
قطاع	-10.7324
مياه	-10.7325
▁وغيرها	-10.7325
تقاطع	-10.7326
▁يوميا	-10.733
غدو	-10.733
▁الفئران	-10.734
صياغة	-10.734
▁العاطفي	-10.734
▁اللاجئين	-10.734
جائزة	-10.734
لظهور	-10.7341
بعبارة	-10.7342
▁بالذات	-10.7344
تمسك	-10.7345
جاه	-10.7346
▁طبية	-10.7347
▁انواع	-10.7347
▁خلاف	-10.7349
▁الدقة	-10.735
▁خطوات	-10.735
▁تعديل	-10.7356
▁العظمى	-10.7359
▁وبدل	-10.736
▁أريدكم	-10.736
▁موسيقية	-10.7368
ركن	-10.737
▁تتحول	-10.7376
صادر	-10.7376
مؤشر	-10.7382
تقنية	-10.7382
▁أسميه	-10.7385
▁اشتر	-10.7393
▁نعيد	-10.7396
▁اكون	-10.7397
▁المحور	-10.7398
▁تختلف	-10.7409
▁نؤمن	-10.7411
تحصل	-10.7416
▁توضح	-10.7418
غام	-10.742
▁الحديقة	-10.7421
▁أسمي	-10.7422
▁ملحوظ	-10.7427
▁المباشر	-10.7427
▁خرائط	-10.7427
▁قرابة	-10.7428
▁وضوح	-10.7428
▁غذائ	-10.7429
جوز	-10.743
▁النجم	-10.743
▁غدا	-10.7432
▁اعاد	-10.7436
▁الورم	-10.7436
▁يترك	-10.7438
▁مسير	-10.744
▁تنتهي	-10.744
▁للمجتمع	-10.7441
ستند	-10.7452
▁ينطبق	-10.7457
▁الاقل	-10.7459
▁الحادث	-10.7461
▁مخلوقات	-10.7469
▁تنتقل	-10.7469
ممارسات	-10.7473
▁فسي	-10.7475
برج	-10.7481
▁لهؤلاء	-10.7483
ؤلئ	-10.7483
معادن	-10.7486
تظاهر	-10.749
لتزم	-10.749
▁بتجربة	-10.7491
خراج	-10.7494
▁يرغب	-10.7502
▁خصائص	-10.7516
تحدّث	-10.7516
زبائن	-10.7516
▁باتجاه	-10.7516
▁سأقول	-10.7517
▁المساعدات	-10.7517
▁المتقدمة	-10.7518
▁المعرض	-10.752
▁2009	-10.7521
▁يرام	-10.7522
روج	-10.7525
▁اعني	-10.7526
▁الذكية	-10.7528
▁البيضاء	-10.7529
وّل	-10.7529
أولئك	-10.7531
ؤول	-10.7542
▁الامريكي	-10.7547
▁المهام	-10.7547
جرام	-10.7549
لجنة	-10.755
▁دواء	-10.7555
▁العقار	-10.7561
▁تربي	-10.7563
فرح	-10.7563
▁أعداد	-10.7565
▁تعال	-10.7569
مقاومة	-10.7571
لدخول	-10.7578
▁صورت	-10.7588
▁يقتل	-10.7589
▁العسكرية	-10.7601
▁الضرائب	-10.7605
▁كارثة	-10.7605
▁مكتوب	-10.7606
▁وتقول	-10.7606
▁القضاء	-10.7606
▁تمّ	-10.7606
▁ثقب	-10.7609
قنوات	-10.7609
▁العملاق	-10.7609
▁المراقبة	-10.761
▁الإبتكار	-10.7611
▁الصوتية	-10.7611
▁الصفحة	-10.7611
▁صالح	-10.7615
▁باريس	-10.7616
تزلج	-10.7616
▁المعدن	-10.7625
▁سأتحدث	-10.7626
▁المشترك	-10.7634
▁القمة	-10.7638
غرف	-10.7649
صيغ	-10.7651
▁اعمل	-10.7656
▁أعود	-10.7656
▁دعا	-10.7658
▁بجمع	-10.7659
▁بشري	-10.7663
▁أحصل	-10.7664
▁ميلاد	-10.7664
▁مؤثر	-10.7664
خزن	-10.7672
▁اختار	-10.7678
جهاد	-10.7682
ثقافة	-10.7685
▁اشعر	-10.7688
▁تصنيع	-10.7695
▁لإنتاج	-10.7695
▁مهووس	-10.7695
▁اليسرى	-10.7695
محيط	-10.7696
ملايين	-10.7696
▁إجابة	-10.7696
▁أصابع	-10.7696
▁حكومي	-10.7697
▁سنوياً	-10.7699
▁كلاهما	-10.7702
جانب	-10.7704
فد	-10.7705
▁والعشرين	-10.7712
▁الخبراء	-10.7712
▁السائل	-10.7713
كوكب	-10.7714
ستخدام	-10.7716
إستكشاف	-10.772
▁حلقة	-10.7727
ملاحظة	-10.774
▁اقترح	-10.7743
▁وكأنها	-10.7751
▁بيولوجي	-10.7763
▁600	-10.777
▁تغطي	-10.778
أماكن	-10.7784
▁أسبوعين	-10.7786
▁العشوائي	-10.7786
▁الولادة	-10.7786
تتبع	-10.7787
▁توليد	-10.7788
عرق	-10.7788
استدامة	-10.7789
▁حقل	-10.7791
▁2007	-10.7791
▁بصوت	-10.7791
▁الأحوال	-10.7792
▁توماس	-10.7793
أحفاد	-10.7795
١	-10.7797
▁السلع	-10.78
▁توقعات	-10.7805
▁النقال	-10.7807
ستخرج	-10.7809
لحماية	-10.781
▁يتحول	-10.7811
▁بقيت	-10.7812
▁الغذائي	-10.7815
▁مريح	-10.7815
إثارة	-10.7815
▁جلد	-10.782
اليوم	-10.7824
حلول	-10.783
▁وأود	-10.7834
▁أوسع	-10.7837
▁للبشر	-10.7838
▁احدى	-10.7842
تعقب	-10.7854
▁أترك	-10.7861
▁23	-10.7866
▁تزيد	-10.7873
الاكتئاب	-10.7878
إعتماد	-10.7878
▁أشكركم	-10.7878
▁مفتاح	-10.7878
▁النسيج	-10.7878
▁إشارات	-10.7878
رضى	-10.7881
▁التقطت	-10.7881
▁العلوي	-10.7883
▁أساساً	-10.7885
▁التصويت	-10.7888
▁اتصل	-10.7894
ِل	-10.7894
▁ناسا	-10.7895
درجات	-10.7898
▁بحرية	-10.79
بطارية	-10.7901
▁السبع	-10.7904
▁استمع	-10.7912
أكثر	-10.7917
▁لطال	-10.7925
▁تفتح	-10.7925
▁مرّ	-10.7931
▁أخي	-10.7934
▁عقول	-10.794
▁مادي	-10.7942
مقارنة	-10.7948
▁عدو	-10.7951
▁الوجود	-10.7955
▁متجر	-10.7955
▁زاوية	-10.7971
▁متنوعة	-10.7971
▁فارغ	-10.7972
▁علامات	-10.7974
▁الآثار	-10.7974
▁الحائط	-10.7974
▁مقعد	-10.7979
▁تترك	-10.7979
▁عرفنا	-10.7981
▁تجلس	-10.7985
قراص	-10.7987
فورد	-10.7988
▁يعيد	-10.7996
▁صلب	-10.8004
▁الثلاثين	-10.8008
▁الفنانين	-10.8009
تاجر	-10.8014
تكنولوجيا	-10.8017
دعنا	-10.8018
▁معتاد	-10.802
اضافة	-10.8022
▁واجب	-10.8026
أبناء	-10.803
▁العقلية	-10.8031
▁متاح	-10.8036
لأسباب	-10.8037
▁تحدد	-10.8044
حرم	-10.8046
▁للحديث	-10.8064
▁آنذاك	-10.8064
▁التعريف	-10.8064
▁القهوة	-10.8064
ضغوط	-10.8064
▁تدمير	-10.8064
▁تدوير	-10.8064
▁الجنود	-10.8065
▁مجهول	-10.8065
▁الحضرية	-10.8067
▁المهاجر	-10.8068
طارد	-10.8072
▁الاعلام	-10.808
دال	-10.808
إجابات	-10.8081
▁تفاصيل	-10.8081
خطأ	-10.8082
▁أنظروا	-10.8085
ثلث	-10.8097
أوائل	-10.81
▁تأكيد	-10.8102
▁الاختلافات	-10.8104
▁الهام	-10.8105
▁حاد	-10.8118
▁المتحف	-10.8119
▁النهار	-10.8125
▁المزارع	-10.8129
▁فإنّ	-10.813
▁الملكية	-10.8134
خمن	-10.8143
▁مكلف	-10.8158
▁المنتصف	-10.8158
أساليب	-10.8159
▁للحظة	-10.8159
▁نظن	-10.816
▁المهنية	-10.8161
▁مبدع	-10.8161
نهض	-10.8161
▁التمويل	-10.8164
▁تلقيت	-10.8164
▁ردود	-10.8173
▁اسبوع	-10.8176
خالف	-10.8185
▁المائية	-10.8187
▁المبدأ	-10.8188
▁منصة	-10.8189
مشاهدة	-10.8191
وقوع	-10.8191
▁تطورت	-10.8198
▁ككل	-10.8203
▁التنفيذي	-10.8204
▁تخلق	-10.8204
▁مستقر	-10.8207
▁النحو	-10.821
▁قليلًا	-10.821
▁يذكر	-10.8213
▁حاولنا	-10.8219
▁الفعلي	-10.8221
▁المحكمة	-10.8221
le	-10.8226
▁لعلاج	-10.8227
حشد	-10.8227
▁شخصيات	-10.8234
▁شريك	-10.8235
▁قصتي	-10.8237
▁لكيفية	-10.824
▁الموقف	-10.8254
▁تريليون	-10.8254
▁العمود	-10.8254
▁المنصة	-10.8255
▁ملموس	-10.8255
▁متخصص	-10.8256
▁روسيا	-10.8257
▁لوحات	-10.8257
فوض	-10.8259
لتوزيع	-10.8259
▁الدموية	-10.826
سيس	-10.8261
▁تسلسل	-10.8263
▁250	-10.8263
▁استعداد	-10.8263
مشاكل	-10.8269
كتمل	-10.8272
أنفسكم	-10.8272
▁الراديو	-10.828
مفاجأة	-10.8283
تعلّم	-10.8289
غرابة	-10.8289
▁بإمكانهم	-10.8292
▁المزارعين	-10.8297
▁جدار	-10.8306
صدار	-10.8309
▁سيدات	-10.8309
▁قرن	-10.8309
▁النامي	-10.8314
قصر	-10.8315
▁بالطريق	-10.8318
▁يقدر	-10.8326
▁الوسائل	-10.8328
▁حوار	-10.8328
▁الملح	-10.8329
غسل	-10.8332
لأعلى	-10.8343
▁الدائرة	-10.835
▁ضوئي	-10.835
▁الروابط	-10.835
▁آسف	-10.835
▁محمول	-10.835
حافلة	-10.835
نتبه	-10.8351
▁اضطر	-10.8354
▁مظلم	-10.8355
▁تعبير	-10.8356
وثوق	-10.8356
جزيء	-10.8356
▁تصدر	-10.8357
▁متساو	-10.8357
▁والمزيد	-10.8357
صناعة	-10.8359
▁فضائي	-10.836
▁جبال	-10.8362
▁صحفي	-10.8364
▁ساعدت	-10.8364
▁الرمل	-10.8367
▁جزر	-10.8367
▁عيون	-10.8371
▁وجدوا	-10.8374
نظف	-10.8376
▁سيبدو	-10.8376
▁للتكنولوجيا	-10.8379
لاعب	-10.8381
▁بالقيام	-10.8381
▁بخير	-10.8384
▁الوطن	-10.839
▁مونت	-10.8391
▁الجماعي	-10.8398
▁التقيت	-10.8405
▁لنبدأ	-10.8408
▁65	-10.8411
▁روز	-10.8412
▁الميكرو	-10.8413
بحر	-10.8414
▁أخرج	-10.8415
جادل	-10.8442
▁التسجيل	-10.8447
▁الصعوبة	-10.8447
▁البرمجيات	-10.8447
▁المسافة	-10.8447
▁اشهر	-10.8447
▁الراهن	-10.8447
عاصمة	-10.8448
▁كفاءة	-10.8448
▁اليونان	-10.845
▁رابط	-10.8451
▁وحدات	-10.8453
▁الإصابة	-10.846
الحقيقة	-10.8463
▁وقعت	-10.8464
▁انتشر	-10.8469
رتكب	-10.8469
لرجل	-10.8472
▁يتذكر	-10.8483
▁للعيش	-10.8491
▁واجهت	-10.8493
تصاعد	-10.8497
▁لمساعدت	-10.8501
▁صلة	-10.8502
▁شركت	-10.8517
▁الأدلة	-10.8528
▁أولاد	-10.8536
▁لديّ	-10.8542
لمحاولة	-10.8544
▁طفولت	-10.8545
▁بأنفسهم	-10.8545
▁الفأر	-10.8545
▁الدليل	-10.8545
شرق	-10.8545
▁استكشاف	-10.8547
بساط	-10.855
▁حركات	-10.8552
▁العشاء	-10.8552
▁سباق	-10.8555
تخطي	-10.8555
▁وبسبب	-10.8556
يطالي	-10.8561
▁عشت	-10.8566
▁أدعو	-10.8569
▁لحد	-10.857
▁رطل	-10.8576
▁المقبل	-10.8577
سامح	-10.858
▁أصعب	-10.8587
▁كيلو	-10.8588
▁الموسيقي	-10.8588
▁الخام	-10.8591
▁ستيفن	-10.8601
قائي	-10.8612
▁العالي	-10.8613
▁استراتيجي	-10.8618
لأفكار	-10.862
es	-10.8621
▁متقدم	-10.8621
▁نعتبر	-10.8624
تتاح	-10.8632
انظمة	-10.8633
▁يستطع	-10.8633
▁البذور	-10.8644
▁الأوراق	-10.8644
▁وآخر	-10.8644
▁الحماية	-10.8645
▁انسان	-10.8647
▁اللازمة	-10.8647
▁المركبة	-10.8647
▁مازلت	-10.8651
▁الديموقراطية	-10.8654
▁يصنعون	-10.8664
ستفاد	-10.8666
▁جيمس	-10.8666
▁الفلم	-10.8672
▁كنّ	-10.8675
تعد	-10.8679
▁زلت	-10.8687
▁يزداد	-10.8701
▁المعنى	-10.8702
أسف	-10.8716
بلد	-10.8716
▁لوحده	-10.8717
دفن	-10.8726
▁مبدأ	-10.8729
تفهم	-10.8733
مساواة	-10.8737
▁سنويا	-10.874
▁الأعراض	-10.8744
▁لآخر	-10.8744
▁حتما	-10.8744
▁الدجاج	-10.8744
▁علاقت	-10.8744
▁لصالح	-10.8744
▁للكثير	-10.8744
▁الذباب	-10.8744
▁المصممين	-10.8745
▁وتكرارا	-10.8745
▁مقبول	-10.8746
▁توصلت	-10.8751
▁شعار	-10.8752
▁خشب	-10.8753
▁الحمام	-10.8753
▁مساء	-10.8755
لأجيال	-10.8756
▁بمفرد	-10.8757
جموع	-10.8758
▁المركزية	-10.876
▁السينما	-10.876
▁بمقدار	-10.8764
▁النقد	-10.8769
فار	-10.8774
▁توقفت	-10.8779
▁أطلب	-10.8794
▁الإحت	-10.8801
يمكن	-10.8815
▁المستمر	-10.8821
▁عقولنا	-10.8821
▁قريباً	-10.8828
تحيز	-10.8832
تكنلوجيا	-10.8837
▁أثار	-10.8838
▁احتاج	-10.8842
خوارزمي	-10.8843
▁الديناصورات	-10.8845
▁المحاصيل	-10.8845
▁الوظيفة	-10.8845
▁القمامة	-10.8845
▁باكستان	-10.8845
صطدم	-10.8845
▁اليمنى	-10.8845
▁لشراء	-10.8845
▁الافكار	-10.8847
▁الوفيات	-10.8847
تزويد	-10.8847
▁النّاس	-10.8851
▁التحقيق	-10.8859
مزج	-10.8861
▁لأخذ	-10.8866
اختراق	-10.8868
▁عملاق	-10.8871
▁ينتقل	-10.8874
ولوجيا	-10.8875
▁جزيئات	-10.8879
أسلاف	-10.8883
▁أحداث	-10.8884
▁الباحثين	-10.8896
فخر	-10.8901
▁نقدم	-10.8904
الرنين	-10.8909
▁يرسل	-10.8913
▁الأفق	-10.8918
ترى	-10.8929
▁حتّ	-10.8932
▁إبن	-10.8935
إبتكار	-10.8941
▁انتقلت	-10.8944
الرجوع	-10.8947
▁دراجة	-10.8947
▁متفائل	-10.8947
▁الزاوية	-10.8947
شهاد	-10.8947
▁الفضول	-10.8948
▁الشتاء	-10.8948
▁شأن	-10.8949
▁المليار	-10.8952
▁شلل	-10.8953
▁27	-10.8954
▁الذرة	-10.896
▁قناة	-10.896
اعتقادي	-10.8964
▁الخدمة	-10.8966
▁المشكل	-10.897
▁كاتب	-10.8977
▁مدينت	-10.8979
علبة	-10.8981
وارث	-10.8982
▁المتعة	-10.8985
إيقاع	-10.8995
▁لثلاث	-10.8995
▁لنأخذ	-10.8997
▁تقني	-10.9005
فتقد	-10.9009
تزامن	-10.9013
▁عرضت	-10.9014
▁أنتج	-10.9031
▁بوسع	-10.9034
ch	-10.9045
▁ديمقراطي	-10.905
▁وخاصة	-10.905
▁السياسات	-10.905
▁الابداع	-10.905
تحضير	-10.905
ذروة	-10.9052
ستوديو	-10.9053
▁أواخر	-10.9053
▁العمارة	-10.9054
جيد	-10.9056
▁وعدم	-10.9057
▁سوداء	-10.9058
▁كبشر	-10.9063
▁ينتظر	-10.9067
▁مخطئ	-10.9082
تباين	-10.9083
▁المهندسين	-10.9093
افتراض	-10.9099
▁سمحت	-10.9099
▁الكيميائي	-10.9104
▁التجاري	-10.9106
▁واثق	-10.9117
ؤذي	-10.9117
▁تمثيل	-10.9123
هنالك	-10.913
▁استطاعت	-10.9133
لمعالجة	-10.9136
▁للمساعدة	-10.9137
حتياط	-10.9145
▁العنكبوت	-10.9154
▁لتطوير	-10.9154
▁العضلات	-10.9154
▁الأرواح	-10.9154
▁داروين	-10.9154
▁المواضيع	-10.9154
▁الأفارقة	-10.9154
▁الوقوف	-10.9155
▁اصبع	-10.9155
▁بدرجة	-10.9157
▁اللحم	-10.9157
▁الهوائية	-10.9157
▁الشهير	-10.9158
▁سأخبركم	-10.9161
▁اليهود	-10.9164
أوعية	-10.9165
نهي	-10.9165
▁السقف	-10.9167
ركوب	-10.9169
▁الاكتشاف	-10.917
لجفاف	-10.9171
▁يتوقع	-10.9171
النسوة	-10.9172
اعتراف	-10.9177
▁درست	-10.9178
▁ميزة	-10.9181
▁الفنان	-10.9191
▁الجامعات	-10.9193
لإجابة	-10.9194
▁بيوت	-10.9199
جهز	-10.92
▁الأنسجة	-10.9201
▁لعدم	-10.9203
ليوم	-10.9207
▁بنينا	-10.9207
حصر	-10.9211
حدائق	-10.9219
عتاد	-10.9222
▁لوقت	-10.9227
مراقبة	-10.9232
▁فأر	-10.9244
الفيروسات	-10.9247
ظهار	-10.9252
ضاعف	-10.9258
▁شيكاغو	-10.9259
▁المنافسة	-10.9259
▁النفايات	-10.9259
▁الطفولة	-10.9259
▁أطراف	-10.926
خنزير	-10.926
صارع	-10.9262
▁ووجدت	-10.9264
▁حتماً	-10.9264
▁الميدان	-10.9264
▁تتفاعل	-10.9271
▁الجيني	-10.9283
▁جوهري	-10.9283
▁المهندس	-10.9294
▁أجريت	-10.9295
▁ستفعل	-10.9297
▁مضاد	-10.9299
▁أصنع	-10.9306
بالمناسبة	-10.9315
▁الكهربائي	-10.9318
▁حيوي	-10.9323
▁تزداد	-10.9329
▁بالعالم	-10.9334
▁فرع	-10.9337
▁سُ	-10.9348
التساؤل	-10.9366
▁الأقمار	-10.9366
▁عوامل	-10.9366
▁أوباما	-10.9366
▁وراثي	-10.9366
▁تخطيط	-10.9366
لتركيز	-10.9367
▁الوباء	-10.9367
نصوص	-10.9377
▁الجزر	-10.9379
▁النقود	-10.9383
شكّل	-10.9384
وثق	-10.9387
▁قدرتنا	-10.9392
مرجح	-10.9394
▁أقف	-10.9397
▁تشتري	-10.9406
▁أكتب	-10.9407
▁العضوية	-10.9412
كرو	-10.9419
الذهاب	-10.9427
▁يرغبون	-10.943
الدروس	-10.9434
▁متعدد	-10.9437
شعل	-10.9442
يمكنكم	-10.946
عاطفة	-10.9464
أجساد	-10.9473
▁التصنيع	-10.9473
▁المستشفيات	-10.9473
▁الهيدروجين	-10.9473
▁النرويج	-10.9473
▁امتداد	-10.9473
▁وأشياء	-10.9473
لاستهلاك	-10.9473
▁طابع	-10.9474
ستطلاع	-10.9475
تنسيق	-10.9477
▁الظاهرة	-10.9478
أفريقيا	-10.9478
▁الاجتماع	-10.9479
▁المجهر	-10.948
▁مصطلح	-10.948
▁قبول	-10.9482
▁الشامل	-10.9482
10	-10.9488
▁مطعم	-10.949
▁الخفا	-10.9492
ريش	-10.9497
▁الحبوب	-10.9497
▁معماري	-10.9498
حط	-10.9507
▁زيت	-10.9508
لتعديل	-10.9513
تهديد	-10.9514
العديد	-10.952
▁محاط	-10.9523
خلص	-10.9524
▁أوراق	-10.9529
▁رياضية	-10.9534
عشرين	-10.9535
▁المشكلات	-10.9536
تحرر	-10.9541
مستويات	-10.9542
▁ديني	-10.955
▁وأخبر	-10.9554
ؤس	-10.9559
▁محترف	-10.9573
▁أفريقي	-10.9577
نبؤ	-10.9579
دبلوماسي	-10.9582
▁الأجسام	-10.9582
▁للبيئة	-10.9582
▁السفينة	-10.9582
▁البيانو	-10.9582
▁ذهاب	-10.9583
▁الانتخابات	-10.9583
لمعايير	-10.9583
ترفيه	-10.9585
▁المكونات	-10.9585
▁أبعاد	-10.9586
▁الإضافي	-10.9587
بحوث	-10.9587
▁يختار	-10.9587
▁مارتن	-10.9589
▁الأمطار	-10.9589
▁فيزيائي	-10.9589
مدرسين	-10.9591
▁اجتماع	-10.9593
▁الكلاب	-10.9595
شاشات	-10.9595
فوت	-10.9599
كلمة	-10.9604
لجأ	-10.9605
▁سائق	-10.9605
ستير	-10.9606
لمساعدة	-10.9609
▁صممت	-10.9611
بيّن	-10.9611
عظ	-10.9611
▁استثمار	-10.9631
▁متكامل	-10.9637
مفهوم	-10.9651
ستنتج	-10.9653
▁جاي	-10.9654
▁للشخص	-10.9656
التهاب	-10.9663
لإنترنت	-10.9663
▁نختار	-10.9672
▁ظننت	-10.9692
▁اللغات	-10.9692
▁كواكب	-10.9692
▁الإهتمام	-10.9692
▁توصيل	-10.9692
▁الرياضة	-10.9692
▁المحادثات	-10.9692
تدهور	-10.9693
▁روبرت	-10.9693
▁نسيج	-10.9693
▁بالحياة	-10.9694
نصهار	-10.9695
▁المرء	-10.9696
▁بفكرة	-10.9698
▁لتحديد	-10.9703
▁جليد	-10.9705
▁حصول	-10.9705
▁إختبار	-10.9709
▁الكبار	-10.9712
▁يراه	-10.9717
لقطة	-10.9719
ندم	-10.972
▁وأنتم	-10.9725
▁اضطراب	-10.9725
خيار	-10.9726
▁عقار	-10.9728
أجداد	-10.9729
▁سيحصل	-10.9743
▁سترى	-10.9747
▁عادل	-10.9748
▁كاس	-10.9763
لزمان	-10.977
▁تستغرق	-10.9773
مسدس	-10.9774
ساند	-10.9779
روث	-10.9782
أكيد	-10.9787
جمجمة	-10.9803
▁الجزيئي	-10.9803
▁الاعتقاد	-10.9803
▁شوارع	-10.9803
مقاييس	-10.9803
▁الملائم	-10.9803
لتجريب	-10.9803
▁الإشارات	-10.9803
▁الثمانينات	-10.9804
▁نقاش	-10.9804
▁لقاح	-10.9804
▁العلامات	-10.9805
▁أشجار	-10.9806
تخفيف	-10.9807
▁وذهبت	-10.981
▁الانتظار	-10.9811
▁بيضاء	-10.9811
▁التشخيص	-10.9812
▁الصدمة	-10.9813
▁فلو	-10.9813
▁الأخطاء	-10.9815
فقاعة	-10.9818
▁سلم	-10.982
▁التشغيل	-10.9822
▁رغبة	-10.9824
رانس	-10.9828
▁بالمقارنة	-10.9828
ثاث	-10.9834
▁إكس	-10.9838
▁الإطار	-10.9839
فتى	-10.9846
▁يُمكن	-10.986
▁إحت	-10.9872
▁فيمكن	-10.988
حرية	-10.9884
سوب	-10.9891
سفر	-10.9892
▁بيتر	-10.9906
▁الخال	-10.9908
▁بتصوير	-10.9915
▁فعّال	-10.9915
مكافأة	-10.9915
▁الأطراف	-10.9915
▁مشغول	-10.9916
▁الأفريقية	-10.9916
▁عظام	-10.9916
▁الضرر	-10.9916
تزاوج	-10.9916
▁المرتبط	-10.9916
إحباط	-10.9917
تجاوب	-10.9918
▁العلامة	-10.992
نتخب	-10.992
▁بإرسال	-10.9921
▁طيار	-10.9925
▁الدراجات	-10.9926
▁جلست	-10.9932
▁يتعين	-10.9933
▁معدات	-10.9935
تحوّل	-10.9939
تسمية	-10.9951
سماع	-10.9955
▁أبسط	-10.9961
▁استعمل	-10.9966
▁يدعم	-10.9968
▁الصلب	-10.9968
سرقة	-10.9976
▁وبكل	-10.998
▁العضو	-10.9986
▁نشهد	-10.9992
▁وطني	-10.9994
▁قمر	-11.0008
▁أصول	-11.0016
▁تشمل	-11.0019
سعد	-11.0023
▁الدلافين	-11.0029
▁2011	-11.0029
▁التسعينات	-11.0029
▁بتقديم	-11.0029
▁الوثائق	-11.0029
▁الفائدة	-11.0029
▁الشاطئ	-11.0029
▁للعديد	-11.0029
▁الرأسمالية	-11.003
▁المتاحة	-11.003
▁المناظر	-11.003
▁وحيث	-11.003
▁الأيمن	-11.003
▁الايام	-11.0032
▁والفكرة	-11.0032
▁تمنع	-11.0033
▁جذاب	-11.0034
▁امريكا	-11.0035
شعاب	-11.0035
نصيحة	-11.0035
محتوى	-11.0036
▁الاستفاد	-11.0041
▁عالق	-11.0043
ألياف	-11.0046
دماج	-11.005
▁١٠	-11.0052
▁الصمت	-11.0053
إلكترو	-11.0057
▁لتحسين	-11.0066
تخاذ	-11.0085
▁واقف	-11.0089
خجل	-11.0103
▁المتبقي	-11.0103
▁العصا	-11.0104
براءات	-11.0104
أسرع	-11.011
ثلج	-11.0114
قانون	-11.0134
دخال	-11.0136
الانجليزية	-11.0144
▁الأكاديمي	-11.0144
▁بوسطن	-11.0144
▁الدوائر	-11.0144
▁الموظفين	-11.0144
▁محادثات	-11.0144
▁الباردة	-11.0145
▁الثقب	-11.0147
▁مؤلم	-11.0148
سائد	-11.0148
▁الويب	-11.0148
تحديث	-11.0149
▁تحميل	-11.015
عربة	-11.0151
بكتيريا	-11.0151
حواسيب	-11.0151
▁انتقال	-11.0153
▁والثاني	-11.0156
رسو	-11.0169
▁سنفعل	-11.0176
▁سائل	-11.0183
توهج	-11.0191
فيش	-11.0191
مئة	-11.0196
كشاف	-11.0197
ستحق	-11.0198
▁ابنتي	-11.0215
et	-11.0216
إنما	-11.0225
▁أبيض	-11.0232
شرط	-11.0232
موضوع	-11.0241
▁الإسلامي	-11.0251
▁الشيخوخة	-11.026
▁تلفزيون	-11.026
▁غابات	-11.0261
الأسلاك	-11.0261
▁عائلته	-11.0261
▁مصلح	-11.0264
▁المبدع	-11.0264
إعدام	-11.0265
▁2005	-11.0265
▁أحيان	-11.0265
▁توصلنا	-11.0266
لتحفيز	-11.0266
▁اخترت	-11.027
مغادرة	-11.0271
▁عديم	-11.0271
▁سكوت	-11.0276
▁رياض	-11.0278
انهيار	-11.0282
▁طبعا	-11.0286
تضخم	-11.0291
▁ويكون	-11.0293
نحو	-11.0299
لحق	-11.0299
▁الأمامي	-11.0307
مستهلكين	-11.031
▁وسألت	-11.0313
الأطفال	-11.0313
▁يونيو	-11.0314
لفظ	-11.0319
▁أقترح	-11.0327
المحافظة	-11.0333
نخرط	-11.0341
مشاة	-11.0344
ألوف	-11.0347
▁قائم	-11.0351
أثناء	-11.0351
أنهار	-11.0359
ic	-11.0365
ختام	-11.0365
يلسون	-11.0373
▁التكاليف	-11.0378
▁الطوارئ	-11.0378
▁المفاهيم	-11.0378
▁الخرائط	-11.0378
▁الأميركي	-11.0378
▁الناشئة	-11.0378
▁الإيجابي	-11.0378
▁التشريح	-11.0378
▁سهولة	-11.0378
▁إهتمام	-11.0378
▁مخصص	-11.0378
▁الأغنية	-11.0378
استقبال	-11.0378
▁العبارة	-11.0379
▁بالطاقة	-11.0379
▁منظمات	-11.038
▁اربعة	-11.038
▁هرم	-11.0382
▁بالإمكان	-11.0382
كثف	-11.0384
▁الوحدة	-11.0385
حجم	-11.0388
▁فأكثر	-11.0392
لزمن	-11.0401
طاف	-11.0411
آباء	-11.0423
بدؤو	-11.0428
ستشعر	-11.0432
▁خاصتي	-11.0432
رأسمال	-11.0435
سلو	-11.0457
تخرج	-11.0463
فاجأ	-11.0463
▁نعتمد	-11.0463
ستعد	-11.0465
كتور	-11.0477
فاعلية	-11.0484
▁ندعوه	-11.0493
▁هارفارد	-11.0497
▁الكفاءة	-11.0497
▁الذراع	-11.0497
▁بطاقات	-11.0498
غنياء	-11.0498
سلاسل	-11.0498
أذهان	-11.0498
▁انفسنا	-11.0499
متلئ	-11.0499
رفاهية	-11.0499
▁تسميته	-11.0501
▁جيّد	-11.0503
أصل	-11.0506
▁الغداء	-11.0507
ألواح	-11.0509
40	-11.0522
▁كرسي	-11.0523
▁وحده	-11.0524
الأرض	-11.054
▁الأولاد	-11.054
الناس	-11.0543
▁جواب	-11.0544
تعاط	-11.0561
حظى	-11.0562
تحسين	-11.0563
▁بطريق	-11.0584
تحلل	-11.0585
بروتينات	-11.0599
▁أحس	-11.0612
▁الزائد	-11.0617
▁بتحويل	-11.0617
▁الغموض	-11.0617
▁المفتاح	-11.0618
▁تخزين	-11.0618
▁الكهوف	-11.0618
شاحنة	-11.0618
▁فلدي	-11.0619
▁نجوم	-11.0621
ro	-11.0621
▁أبنائ	-11.0622
▁وثيق	-11.0624
▁صريح	-11.0626
▁الإسلام	-11.0627
▁الكونغو	-11.0627
ترتبط	-11.0628
▁آدم	-11.0633
أسلحة	-11.0635
▁الأمهات	-11.0637
▁اقتراح	-11.0642
▁جملة	-11.0643
▁وبدون	-11.0644
▁العقود	-11.0645
معجزة	-11.0646
▁والتكنولوجيا	-11.0646
▁السماح	-11.0646
مهد	-11.0648
▁أعطيت	-11.0656
حفلات	-11.0659
ممارسة	-11.0661
▁محامي	-11.0663
نستطيع	-11.0665
▁جدتي	-11.0673
أنظمة	-11.0679
▁السلاح	-11.0681
▁كوريا	-11.0718
▁فئة	-11.0731
▁النافذة	-11.0739
▁بتشغيل	-11.0739
▁2012	-11.0739
▁الإنفجار	-11.0739
▁تشارلز	-11.0739
▁خضراء	-11.0739
▁لتقديم	-11.0739
▁الاتحاد	-11.0739
▁الجامعي	-11.0739
▁أفعال	-11.074
▁ثقافي	-11.074
شاحنات	-11.074
▁عزيز	-11.074
▁المتجددة	-11.074
▁الرمادي	-11.074
▁شفرة	-11.074
▁سياسات	-11.0741
▁كفاية	-11.0741
▁الخارق	-11.0743
ستبدل	-11.0743
▁خفيف	-11.0744
رؤساء	-11.0748
▁الإنتقال	-11.0748
▁موجة	-11.0749
فقط	-11.0749
▁الشائع	-11.075
▁الشاي	-11.0757
▁للإنسان	-11.0762
▁ونظرت	-11.0763
صفقة	-11.0764
تمحور	-11.0769
▁وزير	-11.0771
▁كشخص	-11.0772
▁وفاة	-11.0772
سحابة	-11.0777
▁مستقيم	-11.0786
حكام	-11.0787
▁غرا	-11.0799
▁مخلوق	-11.0805
▁يدوي	-11.0811
▁طاقت	-11.0827
قذف	-11.0831
معلمين	-11.084
▁السعي	-11.0844
تحمس	-11.0848
▁لأطفال	-11.0854
▁وبالتأكيد	-11.0863
▁ورأيت	-11.0863
▁ستانفورد	-11.0863
▁غذاء	-11.0863
▁خسارة	-11.0863
▁عروض	-11.0863
▁تمييز	-11.0864
▁رهيب	-11.0864
أغراض	-11.0864
استنتاج	-11.0864
▁يرتدي	-11.0865
انفتاح	-11.0865
مناطق	-11.0865
▁أمضيت	-11.0866
إبقاء	-11.0867
▁2006	-11.0868
▁الحضارة	-11.087
▁للأرض	-11.087
▁أتوقع	-11.087
▁بارع	-11.0874
▁للأبد	-11.0876
نضال	-11.0878
▁المخيم	-11.0883
▁العشب	-11.0883
▁الربيع	-11.0884
▁العيون	-11.0885
▁الإله	-11.0898
▁ساحة	-11.09
▁احتياجات	-11.0904
▁مسبقاً	-11.0922
▁طيب	-11.0926
▁بياني	-11.0932
▁الثماني	-11.0954
تحضر	-11.0954
٠٠٠	-11.0956
▁البسيط	-11.0959
15	-11.0969
نيويورك	-11.0976
حلل	-11.0984
▁اعتيادي	-11.0988
▁الهادئ	-11.0988
الزهايمر	-11.0988
تعايش	-11.0988
▁وثائق	-11.0988
▁إنتشار	-11.0988
▁نوبل	-11.0989
▁طيور	-11.099
ذكى	-11.099
التدريس	-11.0991
▁تساوي	-11.0991
▁دراسي	-11.0992
▁احيانا	-11.0992
▁أدوية	-11.0998
▁إظهار	-11.0998
لئك	-11.0999
▁الجنون	-11.1
▁للمستقبل	-11.1001
حزمة	-11.1005
▁الاستمرار	-11.1008
▁الخطاب	-11.1013
▁غور	-11.1023
▁اعتاد	-11.1032
لدراسة	-11.1047
▁قرد	-11.1053
دولار	-11.1065
▁رؤ	-11.1065
▁المرجان	-11.107
▁موسيقي	-11.1074
رحب	-11.1096
▁ينقل	-11.1096
▁بالحديث	-11.1114
▁التطوير	-11.1114
▁زرقاء	-11.1114
▁المفقود	-11.1115
▁بجوار	-11.1115
▁كبرى	-11.1117
▁يسمون	-11.1118
▁لطفل	-11.1118
▁2004	-11.112
▁خطورة	-11.1122
st	-11.1122
▁بصفة	-11.1122
تناغم	-11.1123
لفيروس	-11.1124
▁الخلوي	-11.1124
▁الفصول	-11.1126
▁هدية	-11.1126
▁العدوى	-11.1127
▁يحوي	-11.1128
إحصائيات	-11.113
▁موعد	-11.1134
▁شهدت	-11.1134
▁القرى	-11.1138
ضارب	-11.1141
▁غانا	-11.1143
▁حبيب	-11.1146
▁سري	-11.1159
كأس	-11.1163
▁أسرت	-11.1164
أربعة	-11.118
تماسك	-11.1181
▁العقول	-11.1189
▁غبي	-11.1191
▁ايام	-11.1192
▁متعة	-11.1199
▁تجربتي	-11.1218
ضرورة	-11.1225
▁والآخر	-11.123
إنتخاب	-11.1242
▁الإتحاد	-11.1243
▁الشريط	-11.1243
▁تحرير	-11.1243
▁تأمين	-11.1244
تخيّل	-11.1244
▁مواقف	-11.1244
▁طبيعت	-11.1244
▁بطيئ	-11.1245
▁توظيف	-11.1246
نفوذ	-11.1254
▁القطط	-11.1257
▁الحواف	-11.1257
إدراك	-11.1263
▁واجهة	-11.1266
امكانية	-11.1268
أثنين	-11.127
اوراق	-11.1271
آلة	-11.1283
▁الاعمال	-11.1287
▁وجبة	-11.1288
▁بإجراء	-11.1293
فاضل	-11.1312
أدوات	-11.1317
أنواع	-11.1318
ادارة	-11.132
الأمان	-11.1359
ستقر	-11.1361
▁مختص	-11.1366
قتصر	-11.1369
▁الأمازون	-11.1372
▁لتحويل	-11.1372
▁لنظام	-11.1373
يكروسوفت	-11.1373
▁العروض	-11.1373
▁للأمام	-11.1373
▁السباق	-11.1373
▁الثنائي	-11.1373
▁الإيمان	-11.1373
▁الدوام	-11.1373
▁تكساس	-11.1373
▁الأيسر	-11.1374
▁المجهول	-11.1374
▁البديل	-11.1374
▁الأسهم	-11.1374
▁مساحات	-11.1374
▁غابة	-11.1374
▁عسكري	-11.1374
أخصائي	-11.1375
▁استخراج	-11.1376
▁أنقذ	-11.1376
▁الاسبوع	-11.138
▁خارق	-11.138
▁أضف	-11.1384
▁التمييز	-11.1384
تشابك	-11.1385
خاطب	-11.1385
الخصوصية	-11.1386
▁التمثيل	-11.139
▁ومعظم	-11.139
فزع	-11.1395
▁إعلام	-11.1395
▁فليس	-11.14
دفئ	-11.1402
مضاعفة	-11.1415
▁الطائر	-11.1433
ضباط	-11.1435
صاعد	-11.1454
ir	-11.1455
مريض	-11.146
ختصر	-11.1462
▁تجريب	-11.1476
▁وأحيانا	-11.1484
▁اعتقاد	-11.1484
th	-11.1489
▁الخصائص	-11.1504
▁الطحالب	-11.1504
▁الوجوه	-11.1504
▁الهجرة	-11.1504
▁الاسئلة	-11.1504
▁وأظن	-11.1504
▁الطابع	-11.1505
الحوسبة	-11.1505
▁العموم	-11.1505
▁الكونغرس	-11.1505
إيبولا	-11.1505
▁السمنة	-11.1506
▁المستدام	-11.1507
▁المعلومة	-11.1507
▁مؤقت	-11.151
▁وبطريقة	-11.1512
▁إدخال	-11.1514
▁الغرباء	-11.1526
▁سأفعل	-11.1528
جاذبية	-11.1528
▁سأعرض	-11.1529
محاضرات	-11.153
▁عذر	-11.1545
تنشئ	-11.1548
▁محبط	-11.1548
▁الزيت	-11.1558
حساسية	-11.1566
47	-11.1576
▁32	-11.1593
نعدام	-11.16
▁سلاح	-11.1604
▁كهربائي	-11.1605
لشعور	-11.161
▁120	-11.1618
سفار	-11.1625
تمثل	-11.1627
▁الخامس	-11.1629
تخطى	-11.1635
▁الليبرالي	-11.1637
▁بنظام	-11.1637
▁البرلمان	-11.1637
▁إثنين	-11.1637
تخصيص	-11.1637
أغذية	-11.1638
▁الجزيرة	-11.1638
▁حوالى	-11.1638
▁فراغ	-11.1638
▁قرص	-11.1639
▁للوراء	-11.1639
▁أنشأنا	-11.1639
تعابير	-11.1639
▁المشاركين	-11.1639
▁انحاء	-11.1639
تعلق	-11.1639
يكولوجي	-11.1639
▁كنتيجة	-11.164
▁جئت	-11.164
تجدد	-11.1643
▁رحلات	-11.1644
▁واستخدام	-11.1648
▁بالأشياء	-11.1649
▁إثبات	-11.1655
محو	-11.1658
أدلة	-11.1663
مقولة	-11.1681
▁افتراضي	-11.1684
نصب	-11.1705
نطبق	-11.1719
▁اليدوي	-11.1752
▁الذكي	-11.1755
▁باعتبار	-11.1773
▁مقتنع	-11.1773
إستهلاك	-11.1773
▁الكوميدي	-11.1773
▁السبعينات	-11.1773
▁هادئ	-11.1774
توثيق	-11.1774
تنبأ	-11.1774
مرحاض	-11.1774
▁شهادة	-11.1779
▁36	-11.1779
▁الغنية	-11.1781
▁المسائل	-11.1781
ينبغي	-11.1782
▁حزين	-11.1783
تداول	-11.1786
▁بلوغ	-11.1787
▁رواند	-11.1789
▁ذكريات	-11.1801
عفن	-11.1804
إفتراض	-11.181
تنزه	-11.1814
▁جسر	-11.1816
▁حوض	-11.1817
▁روعة	-11.1818
▁26	-11.1832
▁بدائي	-11.1841
▁أتيت	-11.1844
13	-11.1846
▁الاختلاف	-11.1865
مزق	-11.1866
▁خام	-11.1866
مصابيح	-11.187
▁ورم	-11.1882
علّم	-11.1899
لاكتشاف	-11.1903
▁أذكياء	-11.1909
▁اصطناعي	-11.1909
▁الأوكسجين	-11.1909
▁والتراحم	-11.191
▁الساخن	-11.191
▁قوقل	-11.191
▁للمعلومات	-11.191
▁التأمين	-11.191
تذكير	-11.191
▁مئوية	-11.191
▁صفحات	-11.191
▁الرأي	-11.191
▁أحمر	-11.1911
▁وأردت	-11.1911
▁الكتروني	-11.1911
غازات	-11.1912
ختلط	-11.1913
▁ضرر	-11.1916
تراوح	-11.1918
▁لتصميم	-11.1921
▁الجوهر	-11.1922
▁إصدار	-11.1922
▁حراري	-11.1923
▁الإصلاح	-11.1925
▁أرجل	-11.1927
الوقت	-11.1927
▁التسلسل	-11.1938
▁موطن	-11.1942
▁وفقا	-11.1949
لسيارة	-11.1954
▁كارل	-11.1957
▁الحقول	-11.1975
▁3000	-11.1983
ra	-11.1984
فتراضات	-11.1995
وغراف	-11.2003
▁700	-11.2012
لصناعة	-11.2029
▁الاثنين	-11.2048
▁ثقيل	-11.2048
صوّر	-11.2049
▁المخصص	-11.2049
▁الشوكي	-11.2049
▁تحيط	-11.2049
▁الاحيان	-11.2049
▁المواقف	-11.2049
التقاليد	-11.205
▁السليم	-11.205
تفاوض	-11.205
▁1960	-11.205
تفاوت	-11.2051
▁المجنون	-11.2052
▁مباني	-11.2053
▁ميدان	-11.2055
▁طبعاً	-11.2056
▁رياضيات	-11.2062
ol	-11.2065
▁ماضي	-11.2068
كرامة	-11.2072
▁وبطبيع	-11.2084
▁الأصغر	-11.2089
بدائل	-11.2089
شاشة	-11.2101
▁أهتم	-11.2102
▁قدرته	-11.2118
▁فسن	-11.2157
ذهل	-11.2169
طهي	-11.2179
▁الأحذية	-11.2189
▁للآخرين	-11.2189
▁مفاتيح	-11.2189
▁الأسنان	-11.2189
▁جذور	-11.2189
▁وأخرى	-11.2189
▁هجوم	-11.2189
▁نسبياً	-11.2189
تعويض	-11.219
▁فوضى	-11.219
▁والطاقة	-11.2191
صعوبات	-11.2191
▁بديهي	-11.2193
▁شهدنا	-11.2195
▁وبالفعل	-11.2195
▁الذرات	-11.2196
▁الطبقات	-11.2196
العواطف	-11.2196
تفجير	-11.2197
▁ساخن	-11.2198
▁القادر	-11.2198
أستطيع	-11.2199
ac	-11.2201
▁الإفتراضي	-11.2202
تطرق	-11.2203
تذوق	-11.2204
▁مسلم	-11.2205
عقلانية	-11.2212
أشهر	-11.2216
▁إختيار	-11.2217
▁الصخر	-11.2217
وسائل	-11.2221
إنجليزية	-11.2223
▁الطيف	-11.2227
عبارات	-11.2228
واسط	-11.2238
خطئ	-11.2238
كمبيوتر	-11.2245
▁يتلق	-11.2253
كتفي	-11.2256
عقاب	-11.2261
▁جدير	-11.2273
روبوت	-11.2278
▁جدول	-11.2287
▁مهل	-11.2298
قتراح	-11.2304
لابتكار	-11.2305
أسطح	-11.2307
ويكيبيديا	-11.2332
▁أدمغتنا	-11.2332
▁ميكانيكي	-11.2332
▁زائد	-11.2332
▁فلوريدا	-11.2332
▁التوقعات	-11.2332
▁أشارككم	-11.2332
▁النظيفة	-11.2332
▁تعادل	-11.2332
إلتقاط	-11.2333
▁السجون	-11.2333
مبيدات	-11.2333
▁التفاح	-11.2333
▁المكتسبة	-11.2333
▁الكهف	-11.2334
▁وايضا	-11.2339
أخوات	-11.2343
▁الإناث	-11.2343
▁الإشعاع	-11.2344
▁الإستثمار	-11.2345
▁حماس	-11.2353
▁المجرة	-11.2354
غالبية	-11.2356
بمجرد	-11.2357
▁مجرة	-11.2358
▁ساحل	-11.2358
▁إيمان	-11.2358
▁موسم	-11.2359
▁مرعب	-11.2359
▁عودة	-11.2369
▁يتيح	-11.2369
المعلومات	-11.2369
▁95	-11.238
إجازة	-11.2382
مراجعة	-11.2393
▁رسالت	-11.2402
25	-11.2424
عبث	-11.2431
القيام	-11.2474
▁أكتوبر	-11.2477
▁استشعار	-11.2477
▁المنظور	-11.2477
▁بلاستيك	-11.2477
▁الجذور	-11.2477
▁عطلة	-11.2478
▁الدائم	-11.2478
▁اللاتينية	-11.2478
▁ووجدنا	-11.248
▁سميث	-11.2481
▁سيارتك	-11.2482
إطفاء	-11.2483
تسليم	-11.2487
▁الاسفل	-11.2488
▁شرائح	-11.2488
▁الإختبار	-11.2492
▁تتجه	-11.25
رتكز	-11.2512
جريدة	-11.2523
▁الجوار	-11.2525
تمرير	-11.2527
غرس	-11.2548
عائلة	-11.256
مدونات	-11.2572
انشاء	-11.2609
▁الكري	-11.2614
حتمل	-11.2621
▁التصنيف	-11.2624
▁بعنوان	-11.2624
▁ديسمبر	-11.2624
▁ونتيجة	-11.2624
▁الارتفاع	-11.2624
▁التفسير	-11.2624
▁الجزئي	-11.2624
▁النزاع	-11.2624
▁الليزر	-11.2624
▁كهرباء	-11.2625
▁المرشح	-11.2625
▁الكرسي	-11.2625
▁تخمين	-11.2625
▁القيود	-11.2625
▁يساوي	-11.2626
▁حاليًا	-11.2626
▁الهبوط	-11.2627
▁وأعط	-11.2628
▁المقدمة	-11.2628
▁القتال	-11.2629
▁البدائي	-11.2631
▁الواقي	-11.2631
حافز	-11.2631
il	-11.2637
▁أسنان	-11.2637
▁اسفل	-11.2638
فصام	-11.2638
▁الفائق	-11.2648
محاولات	-11.2648
قظ	-11.265
▁والمجتمع	-11.2651
▁ناتج	-11.2657
تعصب	-11.2665
مستثمرين	-11.2671
ستسلم	-11.2678
إذن	-11.269
دكتوراه	-11.2699
تتكون	-11.2716
▁السحاب	-11.2728
▁تكنولوجي	-11.275
▁ماساتشوس	-11.2773
أحاسيس	-11.2773
ميكانيكا	-11.2773
▁الفيدرالي	-11.2773
▁للدماغ	-11.2773
▁بتسجيل	-11.2773
▁النخاع	-11.2773
▁مراهق	-11.2773
▁الوظيفي	-11.2773
▁ساعتين	-11.2773
▁بقايا	-11.2774
▁بحساب	-11.2774
▁الكرتون	-11.2774
▁أزرق	-11.2774
▁الاجابة	-11.2775
▁السلطات	-11.2775
أفغان	-11.2775
▁الرحلات	-11.2776
▁طيران	-11.2776
▁للتصميم	-11.2777
▁فسيكون	-11.2777
احداث	-11.2778
▁2003	-11.2779
تفعيل	-11.278
▁الروعة	-11.2781
▁تمكين	-11.2782
▁للمنزل	-11.2786
▁إيصال	-11.2787
▁2001	-11.2788
▁جماعة	-11.2789
لجدل	-11.2794
▁مخيم	-11.2794
دراية	-11.2798
▁ممتن	-11.2807
▁تثق	-11.2822
▁زملائ	-11.2826
▁جولة	-11.2826
أزمات	-11.2832
مسبار	-11.2862
حوال	-11.2864
ri	-11.2868
نبعث	-11.2869
▁يمين	-11.2888
سبوع	-11.292
▁هوليوود	-11.2925
بروفيسور	-11.2925
▁والتعليم	-11.2925
▁أخضر	-11.2925
إنبعاث	-11.2925
▁أرتدي	-11.2925
▁الملوث	-11.2925
▁الفراش	-11.2925
▁أيديكم	-11.2926
▁افكار	-11.2926
▁دراسته	-11.2926
▁أغاني	-11.2927
مباراة	-11.2928
▁امتلك	-11.2928
ضابط	-11.2931
إرشاد	-11.2934
▁الإختلاف	-11.2935
▁السفن	-11.2941
▁نسيت	-11.2945
▁ذاكرت	-11.2945
▁فوائد	-11.2946
▁33	-11.2949
▁السلال	-11.2955
▁اهمية	-11.2956
▁الرئة	-11.2957
حشرة	-11.2958
▁ميكرو	-11.2958
أعمدة	-11.2961
▁حقيقت	-11.2967
النتيجة	-11.2968
الدوران	-11.2981
احتجاج	-11.2983
60	-11.2984
أورام	-11.2994
▁الأخلاق	-11.3
▁استعاد	-11.3001
▁شفاف	-11.3006
أصوات	-11.3019
▁بعناي	-11.3051
اضطرابات	-11.3061
▁قنبلة	-11.3079
▁مفاهيم	-11.3079
▁نافذة	-11.3079
▁لإنقاذ	-11.3079
▁الانفجار	-11.3079
▁البرتقال	-11.3079
▁النبيذ	-11.3079
▁المفترس	-11.3079
تطعيم	-11.3079
▁أجيال	-11.3079
▁المعاصر	-11.3079
▁الانتشار	-11.3079
▁البنوك	-11.3079
إغلاق	-11.3079
بتسامة	-11.3079
▁الهياكل	-11.308
حتفاظ	-11.308
لنفترض	-11.3082
قرصنة	-11.3083
▁مليء	-11.3084
▁جناح	-11.3084
▁وجاء	-11.3087
▁السنوي	-11.3089
أغنى	-11.3094
▁ساحر	-11.3094
▁منفصلة	-11.3095
▁فاعل	-11.3096
ضريب	-11.3121
بهذه	-11.3128
▁وثاني	-11.3131
▁السلة	-11.314
▁زواج	-11.314
▁وبإمكان	-11.316
ستعارة	-11.3161
إنهاء	-11.3162
خوة	-11.3162
براعة	-11.3176
▁حركت	-11.32
مفارقة	-11.3203
كعك	-11.3204
مجموعات	-11.3206
تروجين	-11.3208
▁البنفسجية	-11.3235
جراثيم	-11.3235
▁بتعليم	-11.3235
▁السهولة	-11.3235
▁لتعليم	-11.3235
▁وأدركت	-11.3235
▁تأسيس	-11.3236
عرّف	-11.3239
▁الانتباه	-11.3242
ترويج	-11.3243
▁2050	-11.3244
توقيت	-11.3247
الأصفر	-11.3247
أطنان	-11.3269
▁نهج	-11.3279
أوروبا	-11.3288
حماية	-11.3299
▁الامام	-11.3304
تأخر	-11.3306
مراكز	-11.3307
▁800	-11.3308
نبثق	-11.3322
نماذج	-11.334
▁للدول	-11.3361
لنباتات	-11.3368
لمجموعة	-11.3374
مصطلحات	-11.3384
▁صناديق	-11.3394
▁فبراير	-11.3394
▁البيئات	-11.3394
▁عندئذ	-11.3394
▁عبقري	-11.3394
▁الوضوح	-11.3394
▁القصيدة	-11.3394
▁خليط	-11.3394
▁البارحة	-11.3394
▁اللحوم	-11.3394
▁النقيض	-11.3394
▁بكثرة	-11.3394
▁للبقاء	-11.3394
▁الضعيف	-11.3394
▁تدريس	-11.3394
اليأس	-11.3395
▁ترتدي	-11.3396
▁النهج	-11.3396
▁حاسم	-11.3397
▁مقنع	-11.3397
▁الوكال	-11.3398
▁الجذري	-11.3399
▁الفيديوهات	-11.3401
▁مرحباً	-11.3402
▁مؤلف	-11.3403
▁جدران	-11.3403
▁خروج	-11.3405
▁انتهت	-11.3406
▁وطبعا	-11.3408
مواهب	-11.3409
صدمات	-11.341
SA	-11.3413
▁النادر	-11.3413
▁اتبع	-11.3416
▁فهل	-11.3417
▁راو	-11.3437
تناسق	-11.3438
خادع	-11.3441
عصابات	-11.3451
رؤوس	-11.3453
الاستقرار	-11.3456
▁المعرفي	-11.346
أعمار	-11.3477
شبكات	-11.3508
ur	-11.3523
اشياء	-11.3525
▁منهجي	-11.3539
▁اليوتيوب	-11.3555
▁الكونجرس	-11.3555
▁الإثنين	-11.3555
▁القنابل	-11.3555
▁وبسرعة	-11.3555
تشويش	-11.3556
صطاد	-11.3556
▁ناشط	-11.3557
الأعشاب	-11.3557
▁صامت	-11.3557
▁اصدقائ	-11.3558
▁تبقي	-11.3564
▁الدقيق	-11.3564
▁العسكري	-11.3564
▁الفائز	-11.3564
▁الخفية	-11.3566
▁الصعيد	-11.3571
ثيوبيا	-11.3574
▁فريدم	-11.3622
نفخ	-11.3639
إجراءات	-11.3651
حرص	-11.3671
▁شجاع	-11.368
▁الحرفي	-11.3685
بعثة	-11.3699
▁الاعتيادي	-11.3719
▁المفاتيح	-11.3719
▁انبعاثات	-11.3719
▁الأحفوري	-11.3719
▁إمكانيات	-11.3719
▁تحفيز	-11.3719
التدخين	-11.3719
▁الأفعال	-11.3719
▁تقسيم	-11.3719
▁الخيوط	-11.3719
▁حكومات	-11.3719
▁انفجار	-11.3719
▁الصفحات	-11.3719
▁اماكن	-11.3719
▁الرمال	-11.3719
▁إتصال	-11.3719
▁غطاء	-11.372
▁معايير	-11.372
▁جريمة	-11.372
▁الراقص	-11.372
▁عازف	-11.372
▁انتهاء	-11.3721
▁مليئ	-11.3723
▁أحسست	-11.3725
▁المتطرف	-11.3725
▁جونسون	-11.3726
▁فندق	-11.3729
تلقيح	-11.3731
▁بأعمال	-11.3734
▁الواسع	-11.3748
خادم	-11.3749
قوارب	-11.3766
نواحي	-11.3768
آمال	-11.3772
عدسات	-11.378
▁مدمن	-11.3785
برامج	-11.3849
الدمار	-11.3862
▁هندسي	-11.3868
سهال	-11.3874
▁فيليب	-11.3884
▁الإصطناعي	-11.3886
▁الهجمات	-11.3886
▁بتحليل	-11.3886
▁مدفوع	-11.3886
▁عواقب	-11.3886
▁منتظم	-11.3886
ذكّر	-11.3886
▁الغولف	-11.3886
▁التعليق	-11.3886
▁الأمواج	-11.3886
▁أسواق	-11.3886
▁مذنب	-11.3886
▁البيوت	-11.3887
▁محاضرة	-11.3887
▁الرابط	-11.3887
▁ننفق	-11.3888
▁خوارزميات	-11.3888
▁فيزياء	-11.3888
أقطاب	-11.3889
▁الرحمة	-11.389
▁تفاح	-11.3893
▁بالأمس	-11.3895
▁حقائق	-11.3895
▁اتباع	-11.3896
▁الديمقراطي	-11.39
▁يوليو	-11.3904
إحترام	-11.3917
هيمنة	-11.3921
لمؤسسات	-11.3929
إبرة	-11.3941
▁المصري	-11.3948
دخن	-11.395
الجواب	-11.3978
المشكلة	-11.3983
متلازم	-11.4006
لسماح	-11.4008
فرصة	-11.4029
▁اهتم	-11.404
▁85	-11.4053
▁البروستات	-11.4055
▁أكاديمي	-11.4055
▁الأعوام	-11.4055
▁للتعليم	-11.4055
▁الأطلسي	-11.4055
▁بأخرى	-11.4055
▁الأوتار	-11.4055
▁التناقض	-11.4056
▁النجاة	-11.4056
▁يخاف	-11.4056
▁غياب	-11.4056
▁المذنب	-11.4056
إمساك	-11.4057
▁الإنتباه	-11.4057
▁الشرائح	-11.4058
▁مغلقة	-11.4059
▁مبهر	-11.4059
نسولين	-11.406
▁بتاتاً	-11.4061
مؤخرة	-11.4062
محكمة	-11.4063
▁رقاق	-11.4071
▁ويبدأ	-11.4072
▁برمته	-11.4073
نظير	-11.4075
فلسطيني	-11.4101
▁اشتريت	-11.4106
الخلايا	-11.4137
لطيور	-11.4138
عابد	-11.4139
الشلل	-11.4146
فيديو	-11.4169
▁جزيئ	-11.4169
لتشغيل	-11.4199
▁لإجراء	-11.4203
▁دكتور	-11.4227
إكتئاب	-11.4227
▁مزدوج	-11.4227
▁الضوضاء	-11.4227
▁إنترنت	-11.4228
▁المستعمرة	-11.4228
▁الكامنة	-11.4228
▁المضادة	-11.4228
▁المصنوع	-11.4228
▁اجزاء	-11.4228
▁قميص	-11.4228
أكياس	-11.4229
▁للنمو	-11.4229
▁صدمة	-11.4229
▁قيود	-11.4229
▁يمتد	-11.423
▁2015	-11.423
▁وكثير	-11.4231
لنقطة	-11.4232
▁هاواي	-11.4234
أساتذ	-11.4237
▁غادرت	-11.4238
▁فترات	-11.424
▁حتمي	-11.4253
تجانس	-11.426
استراتيجيات	-11.4273
أولويات	-11.4273
▁إحصائي	-11.436
لتحليل	-11.4383
▁الحركي	-11.4384
▁النسبي	-11.4393
لضمان	-11.4397
امتحان	-11.4403
▁وتحويل	-11.4403
▁البطريق	-11.4403
▁الرائحة	-11.4403
▁تخفيض	-11.4403
▁التحرير	-11.4403
▁مصباح	-11.4403
▁سادتي	-11.4403
تنشيط	-11.4404
▁ادركت	-11.4404
علاوة	-11.4404
▁ستريت	-11.4405
التحليق	-11.4405
▁أجسادنا	-11.4406
▁البكتريا	-11.4406
▁للعودة	-11.4406
أوبئة	-11.4408
▁معزول	-11.4413
تلائم	-11.4417
▁سيارتي	-11.4418
▁صيني	-11.4445
إستقرار	-11.4486
ter	-11.449
انتقاء	-11.4496
سكك	-11.4501
طىء	-11.4529
مساعدتهم	-11.4532
توافر	-11.4539
لنتائج	-11.4553
لاستماع	-11.4553
▁نانو	-11.4555
أسس	-11.4565
لمنظمات	-11.4578
أصبحت	-11.4581
▁اثنتين	-11.4581
▁الصناديق	-11.4581
▁مانهاتن	-11.4581
▁الفصائل	-11.4582
▁أميركا	-11.4582
▁الأدنى	-11.4582
▁سيناريو	-11.4582
▁الثابت	-11.4582
▁تسويق	-11.4582
مشاهير	-11.4582
▁الارقام	-11.4582
▁الدهون	-11.4582
▁الغواص	-11.4582
▁المحاضرة	-11.4583
أحجام	-11.4583
درّس	-11.4583
▁الشفرة	-11.4583
▁تأليف	-11.4584
▁الميثان	-11.4584
▁الحقيقه	-11.4584
▁فراش	-11.4584
إحياء	-11.4586
▁البدني	-11.4586
▁عاتق	-11.4588
▁ضحية	-11.4589
معدّل	-11.4612
▁لاسلكي	-11.4612
إصابات	-11.4613
لسيطرة	-11.4646
الحروف	-11.472
مؤسسة	-11.473
قواعد	-11.4761
▁1980	-11.4763
▁الكلاسيكي	-11.4763
▁الدراجة	-11.4763
▁الوسيلة	-11.4763
▁تحذير	-11.4763
▁ارتباط	-11.4763
▁زملاء	-11.4763
▁حمراء	-11.4764
▁للشركات	-11.4764
▁المحاربين	-11.4764
▁برمجيات	-11.4764
▁الخوارزميات	-11.4764
▁الملاحظات	-11.4765
▁صواب	-11.4767
طمح	-11.4768
▁أرباح	-11.4768
▁الموافقة	-11.4769
▁الواجب	-11.4769
▁حاجت	-11.4769
▁المظلة	-11.4769
الخسارة	-11.477
صداقة	-11.4771
▁جاهد	-11.4773
▁ملاحظته	-11.4777
أتى	-11.4778
▁القاسي	-11.4781
النصف	-11.4794
قتراع	-11.4797
جتماعي	-11.4818
روائح	-11.4819
لمشاهدة	-11.4846
الوصول	-11.49
مساحة	-11.4916
ونالد	-11.4917
توزع	-11.4918
لحضور	-11.4924
أوكسيتوسين	-11.4948
▁مأخوذ	-11.4948
▁أحذية	-11.4948
▁الثقوب	-11.4948
▁السيناريو	-11.4948
▁ونظام	-11.4949
▁الاطباء	-11.4949
▁الاماكن	-11.4949
▁إيطاليا	-11.4949
▁ديزني	-11.4949
▁القدامى	-11.4949
▁الأغاني	-11.4949
▁حاصل	-11.4949
▁بسعر	-11.4949
▁أصدقائك	-11.4949
▁راديو	-11.495
▁اقتباس	-11.495
▁سوريا	-11.495
▁نيكولا	-11.4951
فتتح	-11.4953
▁مقدس	-11.4953
▁أجبر	-11.4956
نغمات	-11.496
رشوة	-11.4976
▁متواز	-11.498
أرقام	-11.4983
الأكثر	-11.499
إتخاذ	-11.4998
لمنطقة	-11.5017
لخيال	-11.5029
حشرات	-11.5035
لتجديد	-11.5059
أحكام	-11.5079
▁اشع	-11.5084
▁مبيعا	-11.5097
نفلوانزا	-11.5137
▁للنظام	-11.5137
ازدياد	-11.5137
▁اليابسة	-11.5137
▁والتفكير	-11.5137
▁الأكسجين	-11.5137
▁مبدئي	-11.5137
▁العنوان	-11.5137
▁الشبكية	-11.5137
▁الانتحار	-11.5137
▁العواقب	-11.5137
▁لتوفير	-11.5137
▁القبائل	-11.5137
▁تقارير	-11.5137
▁الوزراء	-11.5137
▁العقبات	-11.5137
▁نورمان	-11.5137
▁اعتدنا	-11.5138
▁وآمل	-11.5138
▁كثيف	-11.5138
▁والشركات	-11.5138
حافلات	-11.5138
مواصفات	-11.5138
▁يقضون	-11.5138
▁القرود	-11.5138
▁الادوات	-11.5138
▁انفسهم	-11.5139
▁تغريد	-11.5139
كتريا	-11.5139
▁الجيولوجي	-11.514
▁الحدوث	-11.514
▁يفضلون	-11.514
▁القمح	-11.514
إبهام	-11.5144
▁وشعرت	-11.5145
▁القاضي	-11.5157
▁عصبي	-11.518
معارك	-11.518
أقوم	-11.52
أديان	-11.5202
▁الاحساس	-11.5212
إيدز	-11.5233
أطعم	-11.5235
سجناء	-11.5235
كتشافات	-11.5245
اثنان	-11.5263
ذوبان	-11.5264
▁خزان	-11.5265
لأدوية	-11.5273
لسؤال	-11.5304
▁اسرائيل	-11.5329
▁الجماهير	-11.5329
▁القرآن	-11.5329
▁ديترويت	-11.5329
▁للحيوانات	-11.5329
▁البيسبول	-11.5329
▁الاصوات	-11.533
▁بروكلين	-11.533
▁السبعينيات	-11.533
▁الزملاء	-11.533
▁اسابيع	-11.533
▁التشفير	-11.533
▁فرنسي	-11.533
▁أراضي	-11.533
مراحيض	-11.533
▁التقييم	-11.533
▁موسيقا	-11.533
▁الأهلية	-11.533
▁كطفل	-11.533
▁باهظ	-11.533
خربش	-11.5332
▁مرشح	-11.5332
▁الوحدات	-11.5334
▁بقعة	-11.5335
▁شهير	-11.5336
▁مهدد	-11.5338
سحاق	-11.5341
لمزارع	-11.5343
▁باوند	-11.5346
مناهج	-11.5361
مايكروبات	-11.5363
أداء	-11.5373
مناجم	-11.5431
إستعداد	-11.5475
الإدارة	-11.548
لكائنات	-11.55
إستراتيجية	-11.5526
▁مكالمة	-11.5526
▁التماثل	-11.5526
▁الغامض	-11.5526
▁عائلتك	-11.5526
▁لحقوق	-11.5526
▁قيادت	-11.5526
▁اللغوي	-11.5526
▁القروض	-11.5526
▁الابعاد	-11.5526
▁كولومبي	-11.5526
▁مواضيع	-11.5526
إلغاء	-11.5526
▁يحيط	-11.5527
▁الإنتخابات	-11.5527
رطوبة	-11.5527
▁بيئات	-11.5527
ختبئ	-11.5527
▁إصابة	-11.5528
▁رقيق	-11.5528
تجزئة	-11.5528
▁جنود	-11.5528
▁نقيس	-11.5528
مجرّد	-11.5529
▁يبنون	-11.5529
أجنحة	-11.5529
▁معتقدات	-11.5529
سنوات	-11.5532
▁ايجابي	-11.5533
▁ـــ	-11.5538
مساكن	-11.5539
خيانة	-11.555
متوسط	-11.5551
وستن	-11.5553
وجّه	-11.5555
أعضاء	-11.5557
▁لعشر	-11.5562
تفرقة	-11.5565
أكبر	-11.5572
▁لدول	-11.5581
إخفاء	-11.5582
▁تنقذ	-11.5585
▁بصفت	-11.5587
تألق	-11.5591
▁سأعطيك	-11.5603
لتوليد	-11.5627
لاستعمال	-11.5646
▁وبالرغ	-11.5646
لإزدهار	-11.5726
▁الميكانيكي	-11.5726
▁بسؤال	-11.5726
▁مقطوعة	-11.5726
▁2014	-11.5726
▁التلسكوب	-11.5726
▁الرخيص	-11.5726
▁للتعبير	-11.5726
▁آلالاف	-11.5726
▁وخصوص	-11.5726
▁الأزياء	-11.5726
▁ديناصور	-11.5726
▁المقصود	-11.5726
مكالمات	-11.5726
▁حاجز	-11.5726
تعذيب	-11.5727
صيادين	-11.5727
▁المغامرة	-11.5727
▁أعمارهم	-11.5727
الإعاقة	-11.5728
تكييف	-11.5728
إستغلال	-11.5729
▁مؤهل	-11.573
q	-14.5517
♪	-16.0261
؛	-16.0262
#	-16.0264
%	-16.0264
!	-16.0265
♫	-16.0266
—	-16.0267
:	-16.0268
)	-16.0269
؟	-16.0271
&	-16.0271
،	-16.0271
