<unk>	0
<s>	0
</s>	0
▁.	-3.04119
▁,	-3.30267
;	-4.08677
▁	-4.10225
▁&	-4.10831
qu	-4.15983
ot	-4.16203
▁bir	-4.20819
n	-4.23329
▁və	-4.35004
a	-4.55656
▁bu	-4.58803
i	-4.63581
ə	-4.65782
m	-4.94715
▁Bu	-5.07571
▁ki	-5.14923
▁də	-5.24133
də	-5.33553
▁çox	-5.36198
▁üçün	-5.36999
da	-5.38502
-	-5.4047
▁?	-5.40917
▁da	-5.48883
dir	-5.49345
lər	-5.50055
dən	-5.55235
k	-5.56955
▁)	-5.57923
(	-5.58129
lar	-5.64142
in	-5.65346
q	-5.69602
dan	-5.73409
r	-5.74411
▁Və	-5.74759
▁idi	-5.80978
▁kimi	-5.84475
▁var	-5.85585
▁daha	-5.88538
ı	-5.91641
▁-	-5.92282
▁o	-5.92951
▁:	-5.94581
na	-5.99624
▁nə	-6.02398
dır	-6.07453
b	-6.08767
▁biz	-6.12937
cə	-6.12999
la	-6.13142
▁mən	-6.13798
▁olan	-6.14413
▁bilər	-6.16079
▁görə	-6.17831
ma	-6.18137
▁hər	-6.1817
▁şey	-6.20596
lə	-6.21379
li	-6.23198
▁ilə	-6.23379
▁qədər	-6.24496
▁belə	-6.27757
ya	-6.28535
z	-6.29661
ın	-6.32443
▁deyil	-6.32526
yə	-6.33413
▁isə	-6.33807
ni	-6.3426
▁sonra	-6.34995
əm	-6.36114
▁bütün	-6.36417
▁il	-6.37051
▁Mən	-6.40113
siniz	-6.41268
▁O	-6.43473
▁edir	-6.456
▁böyük	-6.46359
ik	-6.46517
▁A	-6.50905
▁ən	-6.51672
▁ya	-6.52863
▁yaxşı	-6.54663
▁necə	-6.5577
▁Gülüş	-6.56315
▁olaraq	-6.5689
▁edə	-6.611
▁heç	-6.61984
nın	-6.62858
lik	-6.63037
▁Am	-6.63504
sə	-6.63625
ları	-6.63806
▁etmək	-6.64219
u	-6.70642
ən	-6.72234
▁B	-6.72544
ində	-6.75858
▁olduğunu	-6.76221
▁az	-6.76363
▁bunu	-6.77086
s	-6.78669
di	-6.80878
▁Bir	-6.81245
y	-6.81309
▁mənim	-6.81774
am	-6.82549
▁b	-6.8347
▁bizim	-6.84844
▁onlar	-6.85502
dur	-6.87599
an	-6.87874
▁Biz	-6.88642
▁zaman	-6.90065
nin	-6.90162
▁başqa	-6.908
kin	-6.91186
▁həm	-6.91259
▁gün	-6.91373
t	-6.91407
▁olduğu	-6.9156
▁haqda	-6.91723
▁öz	-6.93186
▁s	-6.94727
▁istifadə	-6.94751
▁əvvəl	-6.94891
pos	-6.97277
ki	-6.97648
▁ilk	-6.98662
▁vaxt	-7.01012
▁insanlar	-7.01088
▁M	-7.0117
ləri	-7.05408
▁yalnız	-7.05941
▁amma	-7.06853
▁oldu	-7.07457
dı	-7.07819
▁yox	-7.07956
lı	-7.08136
e	-7.09539
▁etdi	-7.09883
dakı	-7.10012
ci	-7.10104
▁iş	-7.10112
▁çünk	-7.10592
▁elə	-7.11438
▁kiçik	-7.12486
▁yeni	-7.1284
▁H	-7.13061
▁neçə	-7.13095
si	-7.13421
kı	-7.13615
▁olur	-7.13919
dim	-7.14886
l	-7.1559
▁iki	-7.17172
▁İndi	-7.18036
▁mənə	-7.18735
▁yer	-7.19099
▁S	-7.19906
nı	-7.20871
.	-7.20883
▁burada	-7.21817
sa	-7.22545
▁baş	-7.22991
nə	-7.23316
▁Y	-7.23572
▁Onlar	-7.24098
▁eyni	-7.24807
▁ancaq	-7.24824
▁onun	-7.25047
▁biri	-7.25905
ir	-7.26335
▁insan	-7.2903
▁Ə	-7.29531
▁La	-7.29541
▁siz	-7.3021
▁istəyirəm	-7.30458
▁Çox	-7.31487
▁digər	-7.31661
▁deyə	-7.31831
▁sadə	-7.3283
—	-7.33955
ncaq	-7.34069
▁ola	-7.34303
kən	-7.3441
▁tək	-7.35279
▁edirəm	-7.36827
▁edən	-7.36933
un	-7.37227
▁ildə	-7.37933
larını	-7.38127
niz	-7.38693
sı	-7.39172
ndan	-7.39798
sən	-7.41197
▁sizə	-7.41215
▁olacaq	-7.41612
▁onu	-7.42747
▁həqiqətən	-7.44046
▁T	-7.44892
▁dəfə	-7.45406
▁Alqışlar	-7.45666
▁olar	-7.45796
▁haqqında	-7.46718
▁Yə	-7.47255
lərin	-7.4739
o	-7.48298
ş	-7.48434
▁olmaq	-7.48455
▁indi	-7.49329
▁hiss	-7.49353
▁tərəfində	-7.50104
▁başladı	-7.50271
▁əsas	-7.50587
▁demək	-7.50881
▁şəkildə	-7.52789
▁kəs	-7.53606
▁dünya	-7.53773
ların	-7.53872
gər	-7.54316
▁onları	-7.54327
▁səbəb	-7.54731
ıq	-7.54995
d	-7.55
▁əla	-7.55613
inə	-7.55641
▁hə	-7.56209
maq	-7.56378
▁hal	-7.56387
ib	-7.5751
▁orta	-7.58395
lıq	-7.58474
▁içində	-7.58913
əgər	-7.59237
▁Beləliklə	-7.59783
▁bunun	-7.60332
▁qarşı	-7.60539
tta	-7.60732
▁Alqış	-7.60978
▁G	-7.61008
araq	-7.61033
▁insanların	-7.61188
▁Belə	-7.61342
▁bəzi	-7.62361
ü	-7.6265
mi	-7.62878
ca	-7.6304
▁həyat	-7.63866
▁K	-7.64138
▁davam	-7.64482
siz	-7.65913
▁gözəl	-7.66159
▁meydan	-7.66186
▁etməyə	-7.66301
▁Siz	-7.66839
dəki	-7.66889
▁şeylər	-7.66889
▁hansı	-7.67842
▁Mənim	-7.67855
▁kosmos	-7.67898
▁fərqli	-7.67985
▁Bunu	-7.68262
▁onların	-7.68423
▁fikir	-7.68591
▁Ç	-7.68599
▁sizin	-7.68932
▁son	-7.69301
▁üzərində	-7.69704
ıb	-7.70191
və	-7.7025
▁artıq	-7.7127
▁hələ	-7.71496
▁gəlir	-7.71681
mağa	-7.71756
▁məni	-7.71885
▁hekayə	-7.72225
▁Əsl	-7.73016
likdə	-7.73326
lərlə	-7.73616
▁dedi	-7.73915
▁verdi	-7.74177
▁bilmir	-7.74377
▁milyard	-7.748
▁yol	-7.75423
▁yaxın	-7.76474
ar	-7.7659
▁qaranlıq	-7.76619
▁olub	-7.76693
▁əslin	-7.77796
▁geri	-7.78289
▁cavab	-7.78381
▁lazım	-7.7963
f	-7.79752
▁deyir	-7.79835
▁doğru	-7.79883
ır	-7.80292
axşı	-7.80349
inin	-7.80588
▁yoxdur	-7.80632
▁hərəkət	-7.80867
▁Nə	-7.82279
▁gələn	-7.82942
▁2	-7.83005
▁bunlar	-7.83119
▁bilərik	-7.83134
▁Hər	-7.83199
▁maddə	-7.83706
▁olun	-7.83752
ütün	-7.84132
er	-7.84929
▁kömək	-7.85523
ını	-7.86227
▁sahib	-7.86316
▁la	-7.86339
mək	-7.86427
▁Afrika	-7.87546
ər	-7.87707
▁milyon	-7.87743
▁Burada	-7.87816
▁D	-7.88049
ylə	-7.88192
▁üç	-7.88317
▁tam	-7.88388
▁olsa	-7.89337
▁şeyi	-7.89786
▁müddət	-7.90409
▁şəkil	-7.90702
▁təhsil	-7.91382
▁enerji	-7.9149
▁olardı	-7.91704
▁görür	-7.91762
miz	-7.91826
▁çətin	-7.91944
▁başa	-7.92018
▁etdiyi	-7.92147
dür	-7.92691
▁işıq	-7.93665
ünk	-7.93667
▁bax	-7.94182
sınız	-7.94367
▁verir	-7.94577
▁sağ	-7.94668
san	-7.94801
v	-7.94937
▁musiqi	-7.9639
ur	-7.96482
▁günəş	-7.96649
▁vacib	-7.96871
▁mövcud	-7.96881
▁!	-7.9689
▁qəbul	-7.9689
▁hava	-7.96892
sini	-7.96917
▁qərar	-7.97001
▁dünyanın	-7.98015
▁İ	-7.98216
▁ay	-7.98437
x	-7.99148
▁qeyri	-7.99164
▁...	-7.9917
el	-7.9936
▁Bizi	-7.99673
▁arasında	-8.00271
▁qadın	-8.00646
▁inkişaf	-8.01178
▁kainatın	-8.02112
ımız	-8.02612
dım	-8.02903
▁uzun	-8.03993
lərini	-8.04236
▁olma	-8.04521
eç	-8.04754
▁kim	-8.05043
miş	-8.05132
▁bilir	-8.0568
dik	-8.05988
▁olmayan	-8.0635
▁ətrafında	-8.06456
▁pul	-8.06629
▁xüsusi	-8.06741
im	-8.06942
▁kəşf	-8.0755
▁söz	-8.0763
▁Q	-8.08021
▁Dah	-8.08825
▁bağlı	-8.08881
▁elmi	-8.08948
▁C	-8.09022
▁sual	-8.10951
cı	-8.11138
▁maraqlı	-8.11161
▁dollar	-8.11373
▁lazımdır	-8.11693
lərdən	-8.1215
▁özüm	-8.12166
▁10	-8.12236
ti	-8.1243
▁t	-8.12508
▁məktəb	-8.1278
ğa	-8.12807
▁deyildi	-8.1306
tə	-8.13253
▁həmişə	-8.13423
▁uşaq	-8.13467
▁uyğun	-8.13517
▁gəldi	-8.1365
▁Təşəkkür	-8.14003
▁təxmin	-8.14004
larla	-8.14017
▁edib	-8.14032
▁əhəmiyyətli	-8.14058
▁göstərir	-8.1435
▁i	-8.14852
il	-8.15182
▁edirlər	-8.16273
▁dərəcə	-8.16706
▁problem	-8.16966
▁idim	-8.18035
▁ölçülər	-8.18674
c	-8.19178
▁məşğul	-8.19366
▁görünür	-8.19471
▁təsir	-8.19477
▁Bunun	-8.19504
adlı	-8.19525
▁yerdə	-8.19572
mə	-8.19667
ük	-8.19769
▁Dünya	-8.19917
əs	-8.20227
▁Ən	-8.20247
▁olması	-8.206
ğı	-8.21301
▁hamısı	-8.21523
ndə	-8.22098
▁edəcək	-8.22225
▁həll	-8.22296
▁görmək	-8.22449
▁yəni	-8.22462
▁barə	-8.22674
▁cü	-8.22727
▁etdiyimiz	-8.22732
▁m	-8.22837
▁min	-8.22943
al	-8.23046
▁yolu	-8.24062
mış	-8.24661
▁20	-8.24701
▁al	-8.25176
▁bizi	-8.25254
▁izah	-8.25284
▁təsəvvür	-8.25286
▁bilirik	-8.25482
▁təbi	-8.25513
▁ifadə	-8.25902
▁orada	-8.26276
oyunca	-8.26544
▁adam	-8.27041
ilə	-8.27479
▁E	-8.27796
əlkə	-8.28191
▁rəqəm	-8.28234
▁burda	-8.28406
▁de	-8.28495
p	-8.29086
g	-8.29815
▁3	-8.30028
▁müəyyən	-8.30138
ına	-8.3041
ması	-8.3077
▁hesab	-8.31396
▁təmin	-8.31439
▁qlobal	-8.31439
▁görürsünüz	-8.31454
▁qısa	-8.31492
▁yaratmaq	-8.31504
▁öncə	-8.31507
▁tamam	-8.31593
▁bilməz	-8.31617
▁su	-8.31629
▁edin	-8.31646
ri	-8.31666
▁sözü	-8.31702
id	-8.32106
▁ol	-8.32241
▁səbəbdən	-8.3231
▁dedim	-8.32811
▁etdik	-8.33183
at	-8.3386
▁1	-8.34093
▁mövzu	-8.34318
▁qalaktika	-8.34507
ç	-8.34515
▁anda	-8.34583
▁ABŞ	-8.34663
▁yüz	-8.34665
▁güclü	-8.34669
▁qəribə	-8.34695
▁zamanda	-8.34875
▁yaz	-8.35182
ərək	-8.3531
▁məsələ	-8.35481
▁əldə	-8.35506
du	-8.35926
▁5	-8.35934
▁etmə	-8.35995
sını	-8.36207
▁məncə	-8.36708
ında	-8.36923
▁uzaq	-8.37439
▁yüksək	-8.37999
▁Sonra	-8.38013
▁niyə	-8.38022
▁nədir	-8.39059
lərə	-8.39314
▁bilmə	-8.3951
dığı	-8.3974
L	-8.39809
▁P	-8.39925
▁aşağı	-8.40046
▁kütlə	-8.40069
or	-8.40157
▁fərq	-8.40458
▁kainat	-8.40458
əcək	-8.40476
larında	-8.40673
sız	-8.4092
▁Ni	-8.41336
▁Amerika	-8.41336
▁təşkil	-8.41434
▁incəsənət	-8.41445
▁Bunlar	-8.41718
▁kişi	-8.42223
▁dilində	-8.42342
▁k	-8.42393
▁bunları	-8.42471
▁vasitəsi	-8.42627
▁Hə	-8.42694
▁nəzər	-8.42932
▁istərdi	-8.43111
▁Ya	-8.43529
qin	-8.43579
▁əsl	-8.43591
▁dünyanı	-8.43755
▁bilmirdi	-8.44296
▁əlaqə	-8.44666
▁üzərin	-8.4467
▁ingilis	-8.44785
lərindən	-8.44809
▁Titan	-8.44816
▁ev	-8.4485
▁Bibliya	-8.44973
▁asan	-8.45118
▁edərək	-8.45122
▁vermək	-8.45123
lardan	-8.45657
▁etməli	-8.46115
▁Bəl	-8.46216
h	-8.46219
▁nəticə	-8.46494
▁dili	-8.46614
imiz	-8.46625
▁bilərəm	-8.46831
▁etmiş	-8.46882
sanız	-8.47116
sində	-8.47256
▁R	-8.47319
▁özü	-8.47511
▁müxtəlif	-8.47531
cü	-8.47869
▁açıq	-8.48315
▁xəbər	-8.48564
▁cənub	-8.4872
▁gülüş	-8.4872
▁Məsələn	-8.48729
▁göstərmək	-8.4874
yəm	-8.49028
dıq	-8.49038
▁Hindistan	-8.49117
▁bilmək	-8.49186
▁hazır	-8.49319
malıyıq	-8.49342
▁dəqiqə	-8.49599
ini	-8.49659
▁biləcək	-8.49675
▁12	-8.50005
sına	-8.50442
▁yazı	-8.50464
imi	-8.50584
ndən	-8.50612
▁onda	-8.50733
▁qız	-8.50799
S	-8.50833
▁daxil	-8.51362
▁məlumat	-8.51658
▁Hindistanda	-8.51754
▁İş	-8.52079
qca	-8.52168
▁idarə	-8.52392
▁səbəbi	-8.52502
▁mümkün	-8.52507
▁kifayət	-8.52562
▁məh	-8.52571
▁danışmaq	-8.52707
▁deyilmi	-8.53015
▁şəkillər	-8.53264
▁an	-8.53642
acaq	-8.53814
▁növ	-8.53828
sında	-8.54788
▁sözlər	-8.54821
▁in	-8.54961
▁san	-8.55148
▁elm	-8.55213
larda	-8.55529
▁planet	-8.56192
lara	-8.56282
indən	-8.56418
▁sən	-8.56443
▁Birinci	-8.56568
▁əmin	-8.56631
▁aydın	-8.56676
▁olduğumuz	-8.56688
▁çıxır	-8.56785
▁almaq	-8.56872
▁deyi	-8.57266
nız	-8.58943
▁dəqiq	-8.59237
▁qala	-8.59237
▁at	-8.59412
▁dünyada	-8.59424
mu	-8.5979
▁geniş	-8.60301
▁ətraf	-8.60308
▁sistemi	-8.60333
▁4	-8.60463
lu	-8.60472
▁özünü	-8.6066
▁təsvir	-8.60733
▁tərk	-8.60734
▁ərz	-8.6074
▁qolf	-8.60741
▁saat	-8.6075
▁bənzər	-8.60805
▁uçuş	-8.60889
▁Bəlkə	-8.60909
▁kitab	-8.61071
le	-8.61091
▁İnsanlar	-8.61153
▁g	-8.6135
▁ana	-8.61812
▁başlayır	-8.61864
▁F	-8.62165
▁şəkli	-8.62346
▁üz	-8.62461
▁gökada	-8.62716
▁altında	-8.62838
▁İl	-8.63085
ün	-8.63249
st	-8.63288
sal	-8.63636
▁oğlan	-8.63715
▁Onları	-8.63899
▁inanır	-8.64101
▁insanları	-8.64221
cu	-8.64299
▁dəyişdi	-8.64347
▁200	-8.64355
▁olduğum	-8.64704
▁təşəkkür	-8.65081
▁inanılmaz	-8.65081
▁Günəş	-8.65081
▁video	-8.65081
▁saniyə	-8.65083
▁gördüyünüz	-8.6511
▁maşın	-8.65144
▁pis	-8.65187
uq	-8.6533
▁bər	-8.65431
▁edirdi	-8.6557
▁bilirsiniz	-8.65584
▁keçən	-8.65974
mışdı	-8.66178
▁Demə	-8.66735
▁hadisə	-8.66785
▁tələb	-8.66867
▁bura	-8.67442
dığımız	-8.67488
▁V	-8.67611
▁müsahibə	-8.67718
▁insanı	-8.68181
ından	-8.68489
▁illərdə	-8.68502
▁verən	-8.6855
▁yen	-8.68641
▁nöqtə	-8.6883
ey	-8.68834
▁səhv	-8.69259
▁texnologiya	-8.69265
▁baxma	-8.69374
▁ulduzlar	-8.69471
▁fikri	-8.69482
▁kasıb	-8.69613
▁zəif	-8.69627
▁olsun	-8.69627
▁məşhur	-8.69627
▁əməl	-8.69637
▁özümüz	-8.69642
▁sala	-8.70189
▁özün	-8.70357
▁əsr	-8.70453
▁ulduz	-8.7055
▁çəkir	-8.70559
ra	-8.70591
▁ölkə	-8.70838
▁na	-8.71077
▁adı	-8.7148
▁yerin	-8.7197
▁edər	-8.72002
▁getmə	-8.72046
dilər	-8.72175
▁sizi	-8.72205
dü	-8.72272
▁oldum	-8.72274
zi	-8.72533
▁isti	-8.7275
▁X	-8.73022
▁bil	-8.7311
yla	-8.73168
nun	-8.73257
çini	-8.73455
xud	-8.73456
▁hekayələr	-8.7356
▁keçir	-8.73766
sinə	-8.73869
yi	-8.74202
▁yaradıcı	-8.74235
▁edildi	-8.7427
▁İngilis	-8.74347
▁kosm	-8.74387
▁dövlət	-8.74388
▁mütləq	-8.74388
▁hörmət	-8.74388
▁narahat	-8.74391
▁balaca	-8.74413
▁təcrübə	-8.74488
iya	-8.74691
▁Elə	-8.74715
▁şeyin	-8.74813
▁gedir	-8.75416
▁düşünür	-8.7621
▁əl	-8.76303
▁qal	-8.76458
▁yenidən	-8.76461
▁qeyd	-8.76534
▁alan	-8.77209
▁nəyə	-8.77218
mələr	-8.77295
lərdə	-8.77315
▁hissəsi	-8.77391
▁çalış	-8.77481
▁çalışır	-8.77542
birin	-8.77591
▁zamanı	-8.77604
▁çoxu	-8.7767
ler	-8.77917
ırıq	-8.78164
▁c	-8.78271
rək	-8.78354
▁illər	-8.78373
adi	-8.78626
lərində	-8.78697
on	-8.78988
▁özləri	-8.79371
▁ibarət	-8.79388
▁mübarizə	-8.79389
▁müasir	-8.79395
▁Sadə	-8.79414
▁normal	-8.79425
▁asılı	-8.79444
▁təqdim	-8.79455
▁Necə	-8.79459
▁dolu	-8.79469
▁Cas	-8.79519
▁olmasa	-8.79567
▁düşür	-8.79578
acağı	-8.7964
▁etdiyim	-8.79925
▁Yer	-8.79941
▁Son	-8.80196
▁səs	-8.80832
məyə	-8.80874
▁ifa	-8.8115
▁ölkədə	-8.81273
▁ölçü	-8.81369
▁əvvəlki	-8.8158
▁yarı	-8.81644
▁birini	-8.81701
▁N	-8.82151
▁qoyma	-8.82175
▁əks	-8.82193
▁baxa	-8.82478
▁maşını	-8.8253
▁imkan	-8.82599
▁uşaqlar	-8.8319
▁ala	-8.83224
▁film	-8.83296
▁yağış	-8.83495
▁çıxar	-8.84189
luq	-8.84326
▁Kim	-8.84338
▁Başqa	-8.84552
▁yuxarı	-8.84651
▁Böyü	-8.84682
əhs	-8.84688
▁gedib	-8.84752
▁Görə	-8.84984
▁vardı	-8.85021
▁Mənə	-8.85113
▁qadınlar	-8.85251
▁mənası	-8.85322
▁diqqət	-8.85373
▁olmadığını	-8.85454
▁üstün	-8.85533
▁hamımız	-8.85608
▁dövr	-8.85903
▁varsa	-8.86163
sonunda	-8.86271
vi	-8.86288
▁məna	-8.86359
▁De	-8.86621
▁sevir	-8.86684
▁yoldaşım	-8.86714
▁atam	-8.86746
▁nəzəriyyəsi	-8.8689
liyi	-8.86959
ona	-8.87051
5	-8.87059
iz	-8.87334
▁Bura	-8.8749
▁qaydalar	-8.87601
▁gökadalar	-8.87605
▁işlər	-8.87778
se	-8.88169
su	-8.88326
▁təyyarə	-8.88471
D	-8.88525
▁fizik	-8.88584
▁için	-8.88834
malı	-8.88879
kinci	-8.89129
▁səliqə	-8.89198
▁50	-8.89283
▁xarici	-8.89329
▁f	-8.89338
▁Allahı	-8.89452
▁dərs	-8.89467
▁təkrar	-8.89517
▁dörd	-8.89546
▁kənar	-8.8967
▁yə	-8.89716
000	-8.90133
▁Maldiv	-8.90207
▁ümumi	-8.90207
▁cəlb	-8.90207
▁mərhəmət	-8.90208
▁gücü	-8.90211
▁ağıllı	-8.90213
▁Sağ	-8.90358
▁hamı	-8.90413
▁biləcəyimiz	-8.90466
▁oyunun	-8.90495
▁ağ	-8.90569
▁nəyi	-8.90572
▁gələcək	-8.90604
▁məqsədi	-8.90786
it	-8.90903
▁şeyləri	-8.91148
▁müəllimlər	-8.9155
▁Onun	-8.91575
▁Əla	-8.91719
▁km	-8.91739
▁bitki	-8.91858
▁bilərdi	-8.92317
▁kənd	-8.92492
▁ilin	-8.92642
▁I	-8.9278
ğ	-8.9284
diyi	-8.92935
▁əvəzin	-8.93233
▁Sən	-8.93244
aq	-8.93507
▁ehtiyac	-8.93644
▁L	-8.93714
▁ehtimal	-8.93905
▁problemi	-8.9401
▁rəqs	-8.94062
ür	-8.94115
▁qorxu	-8.94246
▁işin	-8.94337
▁sistem	-8.94925
▁parçası	-8.95118
▁misal	-8.9514
▁dair	-8.95218
▁baxsa	-8.95345
▁qalaktikalar	-8.95718
▁bəzə	-8.95781
mız	-8.96001
▁bərabər	-8.96033
▁həftə	-8.9606
▁həqiq	-8.96075
▁Musiqi	-8.96089
▁StoriKorps	-8.96089
▁Təbii	-8.96089
▁həbsxana	-8.96089
▁Nəticə	-8.9609
▁təklif	-8.9609
▁Saturn	-8.96091
▁Məktəb	-8.96091
▁düzgün	-8.96093
▁qulaq	-8.96094
ım	-8.96109
▁Gəli	-8.9611
rhal	-8.96111
təşə	-8.96118
▁gördüyümüz	-8.96126
▁Tamam	-8.96129
▁olmur	-8.96173
▁olunur	-8.96505
▁istədiyim	-8.96569
▁daim	-8.96605
va	-8.96749
▁Allah	-8.9691
▁baxım	-8.97004
▁bilən	-8.97017
raq	-8.9712
▁təsiri	-8.97247
▁tez	-8.97345
▁olurdu	-8.97623
▁nəticəsi	-8.97756
▁dərin	-8.9783
▁edilən	-8.97991
▁din	-8.97992
▁en	-8.98017
▁ç	-8.98197
▁gördü	-8.98207
▁W	-8.98361
▁iynəcələr	-8.98392
▁düşünmə	-8.98486
ımızı	-8.98493
▁otaq	-8.98573
▁qrup	-8.98648
▁çıxan	-8.98762
▁bilirdi	-8.99453
▁başlaya	-8.99455
▁40	-8.99511
▁düşünü	-8.99537
mı	-8.99585
▁d	-8.9962
mışam	-8.99684
▁maraq	-8.99737
sin	-8.99857
▁sürətlə	-9.0001
▁müşahidə	-9.00047
əl	-9.00328
▁suallar	-9.00342
rət	-9.0079
▁proqram	-9.00828
ed	-9.01036
▁düz	-9.0115
▁Hi	-9.01184
▁model	-9.0127
▁Dünyanı	-9.01354
▁et	-9.01417
lan	-9.01494
▁səth	-9.01639
mizi	-9.01644
▁itir	-9.01681
▁etməsi	-9.01728
▁15	-9.01844
▁100	-9.01887
ırdı	-9.02045
▁xəstəlik	-9.02119
▁çoxlu	-9.02267
▁məsafə	-9.02298
izin	-9.02339
▁kompleks	-9.02339
▁mavi	-9.02344
▁şimal	-9.02348
▁icazə	-9.0235
▁olsaydı	-9.02363
▁Dav	-9.02365
▁beş	-9.0238
▁növbə	-9.02412
▁dil	-9.02453
▁edilməsi	-9.02467
▁gəlmə	-9.02479
▁Tək	-9.02485
▁təq	-9.02489
▁istəyirik	-9.02501
▁görünə	-9.0254
▁çalışan	-9.02831
▁olduğundan	-9.02898
den	-9.02993
▁11	-9.0309
▁orbit	-9.03176
kü	-9.03276
▁yarım	-9.03307
ıram	-9.03377
▁işdə	-9.03451
arı	-9.03493
▁təhlükəsiz	-9.03698
ası	-9.03741
▁deyirlər	-9.03792
▁maddəni	-9.04092
▁deyərdi	-9.0417
▁Xey	-9.04171
▁yeri	-9.04328
▁olmağ	-9.04391
▁fikrim	-9.04493
▁günü	-9.04698
▁8	-9.04849
▁qət	-9.0504
▁tərəfdə	-9.05212
▁tərəf	-9.05387
▁istəyir	-9.05387
▁adi	-9.05496
▁alır	-9.0556
▁ora	-9.05613
liyin	-9.05886
▁edərdi	-9.05922
▁həyatda	-9.06184
▁sevgi	-9.06439
▁üst	-9.06711
▁problemlər	-9.06846
▁kamera	-9.069
ayəsində	-9.07027
▁olanda	-9.07157
birimiz	-9.07242
en	-9.07394
▁parça	-9.07444
diyimiz	-9.07506
▁gözlə	-9.0758
▁sal	-9.07997
▁sol	-9.08071
▁ölüm	-9.08215
asiya	-9.08374
▁addım	-9.0857
▁sıx	-9.08752
▁xilas	-9.08862
▁Appl	-9.08892
▁arxa	-9.08982
▁çıxdı	-9.09005
▁ünsiyyət	-9.09006
▁nəfər	-9.09006
▁tərcümə	-9.09012
▁möh	-9.0902
▁önəmli	-9.09045
▁İkinci	-9.09051
alnız	-9.09087
▁hərfi	-9.09116
▁elektron	-9.09165
▁sürətli	-9.09174
▁tapmaq	-9.09241
▁soruşdu	-9.0925
▁dayan	-9.09278
▁düşündü	-9.09292
tik	-9.09367
▁soruşur	-9.09577
▁6	-9.09601
tan	-9.09615
▁geriyə	-9.0969
ol	-9.09809
dirlər	-9.09845
▁nümunə	-9.09864
▁sim	-9.09963
gg	-9.10095
▁sayı	-9.10101
▁rol	-9.10294
▁gətirən	-9.10351
▁etsə	-9.10449
lub	-9.10507
▁plan	-9.10876
▁nəyin	-9.10954
▁istiqamətdə	-9.10988
▁Afrikada	-9.11265
▁toz	-9.11855
▁təbiətin	-9.11902
▁bas	-9.11989
▁qarşısında	-9.12054
mü	-9.12175
anda	-9.12184
▁desə	-9.12405
▁harada	-9.12455
▁gəlirdi	-9.1246
▁olmuşdu	-9.12508
▁güc	-9.12733
▁çəkilişi	-9.12781
larının	-9.12791
▁fikrin	-9.12808
▁ruh	-9.12808
ent	-9.12838
▁düşünə	-9.1291
yın	-9.1304
lığı	-9.13208
▁atom	-9.13334
▁qaç	-9.13511
▁fakt	-9.13626
▁baxı	-9.13668
ərf	-9.138
7	-9.14005
▁dəniz	-9.14364
▁etməyi	-9.14403
,	-9.14423
▁di	-9.14426
▁gündə	-9.14429
▁müəllim	-9.14432
▁qan	-9.14735
▁Onu	-9.15024
▁ədalət	-9.15032
▁görün	-9.15032
▁qat	-9.15039
▁üstündə	-9.15042
▁araşdırma	-9.15494
cəksiniz	-9.15621
▁xoş	-9.15706
sinin	-9.15983
▁irəli	-9.16043
▁fikirləşir	-9.16063
▁NASA	-9.16149
▁TED	-9.16149
▁korrupsiya	-9.16149
▁tətbiq	-9.16149
▁ədəd	-9.16149
▁xoşbəxt	-9.16149
▁qaya	-9.1615
▁zərər	-9.16154
▁sualtı	-9.16154
▁istənil	-9.16155
▁möcüzə	-9.16156
▁gənc	-9.16159
▁içərisində	-9.16161
oloji	-9.16163
▁çəkmək	-9.16178
▁bank	-9.16181
▁Andro	-9.16203
me	-9.16235
▁parçacıqları	-9.16263
▁qüvvət	-9.16277
▁problemləri	-9.16307
▁Big	-9.16331
▁ye	-9.16376
▁olmalıdır	-9.16377
▁davamlı	-9.16546
▁qayda	-9.16572
▁sərhəd	-9.16586
ram	-9.16662
▁mümkündür	-9.16712
▁zəngin	-9.16804
▁Digər	-9.16805
umuz	-9.1681
▁olduq	-9.16811
sünüz	-9.17041
▁mil	-9.17046
▁istədi	-9.17295
sın	-9.17305
▁p	-9.17397
▁gör	-9.174
yam	-9.17428
▁arasın	-9.17473
▁edilə	-9.17522
▁alın	-9.17554
▁həyatın	-9.17734
▁ulduzların	-9.1803
▁qüvvə	-9.18053
mişdi	-9.18096
▁telefon	-9.18186
▁orda	-9.18261
P	-9.18421
▁Yeni	-9.18515
▁uşaqları	-9.18585
▁mə	-9.18856
▁keç	-9.18928
▁kütləsi	-9.19117
▁cümlə	-9.19141
ək	-9.19225
▁imkanlar	-9.19239
▁ehtiyacımı	-9.19586
▁göstərəcəy	-9.19617
gə	-9.19617
▁vasitə	-9.19672
▁onlardan	-9.19688
▁işim	-9.19737
ının	-9.19751
▁olmuş	-9.19961
larımız	-9.19968
nu	-9.19969
▁ehtimalla	-9.20063
ırlar	-9.20072
▁olduqları	-9.20219
▁rəng	-9.20517
▁yaşı	-9.21112
▁okean	-9.21353
▁universitet	-9.21395
ınız	-9.21401
▁göz	-9.21408
▁deyirdi	-9.21897
▁rəsm	-9.21988
▁sahə	-9.22172
▁edilir	-9.2219
▁olmağı	-9.2233
▁gətirdi	-9.22436
rəm	-9.22465
▁ş	-9.22657
▁çat	-9.227
▁işi	-9.22808
▁xey	-9.2298
▁işarə	-9.23145
▁ara	-9.23206
▁paylaşma	-9.23456
▁ayaq	-9.23563
▁gördük	-9.23587
▁Əvvəl	-9.23606
yimiz	-9.23768
▁şəxsi	-9.23776
qərb	-9.23783
▁nələr	-9.23787
həng	-9.23821
əqiqətən	-9.23838
▁asteroid	-9.23841
▁hədiyyə	-9.23841
▁xidmət	-9.23841
▁Eyni	-9.23842
▁ölçüsü	-9.23846
▁səhnə	-9.23864
▁test	-9.23865
▁mühüm	-9.23874
te	-9.23881
▁aid	-9.23887
▁birinci	-9.23901
▁salmaq	-9.23909
▁yaşlı	-9.23911
▁ciddi	-9.23919
▁gizli	-9.2392
▁mövzusunda	-9.23945
▁danış	-9.24036
▁minlərlə	-9.24084
▁anlamaq	-9.24126
▁Ev	-9.2418
çi	-9.24181
▁görünüş	-9.24205
▁üzünü	-9.24221
ch	-9.24234
▁İki	-9.24265
▁sıra	-9.24279
▁öyrənmək	-9.24308
▁özümüzü	-9.24325
▁hissəciklər	-9.24389
▁bitkilər	-9.24405
▁hekayəni	-9.24461
▁səni	-9.24473
inizi	-9.24553
▁keçmiş	-9.24608
▁bilmədi	-9.24853
gan	-9.24928
▁istəyirdim	-9.24965
▁məsələn	-9.25022
▁göstər	-9.25048
▁çöl	-9.25237
▁düşdü	-9.25659
ğın	-9.25745
▁olduğunuz	-9.26132
▁sənin	-9.26186
▁insanlarla	-9.26192
tar	-9.26268
▁Ad	-9.26375
raya	-9.26401
▁vaxtı	-9.2642
▁etməklə	-9.26499
▁as	-9.26584
▁nənə	-9.26593
▁edirsiniz	-9.2664
▁gecə	-9.26644
▁canlı	-9.26725
▁dəyər	-9.2679
▁ideya	-9.27081
▁səviyyə	-9.27091
▁ad	-9.27166
▁yay	-9.27197
▁kağız	-9.27216
▁mı	-9.27233
▁düşüncə	-9.27259
son	-9.27273
ye	-9.27454
▁bəziləri	-9.27523
▁bazar	-9.27706
▁tap	-9.27771
▁e	-9.27942
▁görünüşü	-9.28035
▁cəmiyyət	-9.28068
es	-9.2811
▁Ba	-9.28112
▁16	-9.28382
lərimiz	-9.28484
▁həşərat	-9.28534
▁7	-9.28675
▁kompüter	-9.28685
ilmiş	-9.28726
▁x	-9.2879
▁ko	-9.28926
▁mühəndis	-9.28996
▁nüvə	-9.29002
▁anam	-9.29081
▁sürət	-9.29376
A	-9.29537
▁gedə	-9.29582
▁işığı	-9.29624
cəm	-9.29632
▁razı	-9.29877
▁etmir	-9.29908
▁çoxunu	-9.29985
▁şirkət	-9.30033
▁fizika	-9.30079
lü	-9.30099
▁Kainat	-9.3015
▁tarix	-9.30213
gi	-9.30213
▁yolla	-9.30276
▁get	-9.30376
H	-9.30385
I	-9.30461
hazır	-9.30482
▁sev	-9.30525
tez	-9.30649
▁yaratdığı	-9.30715
as	-9.30825
▁qalma	-9.30838
▁vaxtlar	-9.30849
▁tanı	-9.30987
▁səyahət	-9.31074
▁quruluş	-9.31083
▁Bəz	-9.31193
əb	-9.31389
▁bilmədiyimi	-9.31488
▁müharibə	-9.31489
▁tələbələr	-9.31501
▁dünyay	-9.3172
▁adaları	-9.31723
▁boyu	-9.31767
▁zəng	-9.31845
▁əyləncə	-9.32055
uditoriya	-9.32154
▁Qəhqəhə	-9.32174
▁Einstein	-9.32174
▁eniş	-9.32175
▁Əlbət	-9.32175
▁Qaranlıq	-9.32176
▁ictimai	-9.32177
▁əlbət	-9.32178
▁səhər	-9.32184
▁əlaqədar	-9.32191
▁olmayacaq	-9.32199
▁parlaq	-9.32218
▁Əsas	-9.32236
▁deməli	-9.32258
▁yaradıcılıq	-9.32281
▁istədiyimiz	-9.32321
▁Bang	-9.32414
▁həyatımı	-9.32418
▁hazırladı	-9.32465
▁cihaz	-9.32563
▁Anam	-9.32603
▁vəziyyətdə	-9.32608
▁oyun	-9.32684
sunuz	-9.32749
▁köməyi	-9.32831
▁Həmi	-9.32987
▁etdiyiniz	-9.32995
▁gətirir	-9.33
▁San	-9.33186
▁dizayn	-9.33267
▁ölçülü	-9.33357
▁ayır	-9.33581
▁gələcəyi	-9.33624
▁edil	-9.33653
▁hekayələri	-9.33727
▁istəyirdi	-9.33844
▁Bilir	-9.33867
▁çətindir	-9.33935
us	-9.34032
▁Va	-9.34092
▁xatırlayır	-9.3414
▁Həm	-9.34322
▁sonu	-9.34366
▁bölgə	-9.34376
mizə	-9.34436
▁əsər	-9.34509
dığım	-9.34537
▁hissi	-9.34619
▁növü	-9.34816
▁19	-9.34822
çı	-9.34916
▁deyilən	-9.35173
▁tarixi	-9.35287
aram	-9.3533
▁yaradıl	-9.35467
▁getdi	-9.35468
▁say	-9.35477
diyim	-9.35697
▁maraqlan	-9.35751
▁olmalı	-9.35755
ta	-9.35815
▁metr	-9.35831
▁kişilər	-9.36038
▁Avropa	-9.3645
▁başlayan	-9.36467
▁riyaziyyat	-9.36527
▁enerjisi	-9.36584
▁yara	-9.3659
▁söhbət	-9.36855
▁məqsəd	-9.37223
▁bəs	-9.37257
▁iynəcə	-9.37753
▁qalan	-9.3791
ydi	-9.38069
▁biləcəyi	-9.38083
2	-9.38145
▁daş	-9.38147
mızı	-9.38211
▁başlama	-9.38233
ğımız	-9.38591
▁gətiri	-9.38685
unu	-9.38755
▁gəz	-9.38834
▁nəzarət	-9.38926
▁alt	-9.38928
▁məktəbdə	-9.3915
rtıq	-9.3917
▁nəzərdə	-9.39452
▁atmosfer	-9.39484
əsi	-9.39498
hi	-9.3953
▁uç	-9.39752
yorlar	-9.3976
▁malik	-9.39831
▁axı	-9.39844
▁ümid	-9.39973
▁etdirə	-9.39974
4	-9.40151
yıq	-9.40167
▁məlumatı	-9.40442
▁nisbət	-9.4053
gen	-9.40638
▁gəldiyin	-9.40718
6	-9.40743
▁yığ	-9.40758
▁ayrı	-9.40879
çün	-9.41137
▁müqayisə	-9.41265
▁Charlie	-9.41265
▁Risen	-9.41265
▁mükəmməl	-9.41265
▁məcburiyyətində	-9.41265
▁İynəcələr	-9.41265
▁neft	-9.41267
▁informasiya	-9.41268
▁dəvət	-9.41268
▁üzrə	-9.41272
▁təkamül	-9.41276
▁iştirak	-9.41289
▁çəkisi	-9.41305
▁ərəb	-9.41309
▁biləcəyini	-9.41348
▁şir	-9.41373
▁qarışıq	-9.41411
▁riyazi	-9.41411
▁tə	-9.41423
▁həyatı	-9.41487
▁is	-9.41517
nızı	-9.4172
▁yerlərdə	-9.4185
▁ver	-9.41923
▁adlanır	-9.41948
lim	-9.41963
▁Bilmir	-9.42037
yan	-9.42095
▁mür	-9.42186
▁Nəyə	-9.42188
▁baxmaq	-9.42234
▁günəşi	-9.42306
▁yaxınlaş	-9.4242
▁özümü	-9.42487
şərq	-9.42527
▁danışmağ	-9.42656
▁gələ	-9.42775
ap	-9.42903
▁gördüyüm	-9.42976
▁sözləri	-9.43138
sək	-9.43285
▁çoxluq	-9.43315
yn	-9.43583
▁öyrəndi	-9.43662
ul	-9.43701
▁çəkili	-9.43702
rik	-9.43707
▁əsəri	-9.43747
▁iyi	-9.43799
rum	-9.43943
▁Bəziləri	-9.43947
▁yaşımda	-9.44023
▁olmaz	-9.44039
lərimizi	-9.44096
▁şahid	-9.44336
▁robot	-9.44426
▁cəmi	-9.44501
▁xaricində	-9.44543
mısınız	-9.44733
▁olmağın	-9.4475
▁işığın	-9.44793
▁bar	-9.44802
▁fərqi	-9.44864
▁əhəmiyyət	-9.44928
▁evdə	-9.45015
▁adət	-9.45128
▁sahəsin	-9.45177
▁imkanı	-9.45397
sel	-9.45416
nizi	-9.45432
up	-9.45437
8	-9.45469
ine	-9.45567
▁tədqiqat	-9.45569
▁internet	-9.45831
dərk	-9.46149
za	-9.4625
▁yaşayır	-9.4637
iyyət	-9.46381
▁tərəfi	-9.46493
▁kainatda	-9.4673
▁adamlar	-9.46903
▁vəziyyət	-9.46908
▁arası	-9.47048
de	-9.47118
▁dənə	-9.47291
ğu	-9.47376
irlər	-9.47517
▁uça	-9.47618
▁göstərə	-9.47717
▁Çin	-9.4776
▁anlayış	-9.47817
▁ön	-9.47878
▁təbiət	-9.48041
▁demişdi	-9.48136
▁gəli	-9.48163
▁sinif	-9.48335
ah	-9.48364
▁divar	-9.48465
malıdır	-9.48624
ing	-9.48647
afi	-9.48781
▁veril	-9.48811
▁dəyişiklik	-9.48816
▁yazın	-9.48944
məsi	-9.48975
▁proses	-9.49081
▁Li	-9.49122
▁xəritə	-9.49185
▁başlanğıc	-9.49283
▁oluna	-9.49495
▁Bəzi	-9.49594
▁bənzəyir	-9.49858
▁hissəsin	-9.49895
▁30	-9.50031
▁parçacıq	-9.50159
▁mussonu	-9.50189
▁dost	-9.50217
lanır	-9.50223
▁xətt	-9.50263
▁görüş	-9.50436
▁obyekt	-9.50446
▁cəhət	-9.50722
▁500	-9.50761
▁çıxıb	-9.50807
landı	-9.50983
▁kimliyim	-9.51034
▁qaz	-9.51124
▁həqiqət	-9.51142
üəllif	-9.51157
▁yoxdu	-9.51216
ördüyünüz	-9.5125
▁azad	-9.51256
▁Google	-9.51265
▁investisiya	-9.51265
▁kilometr	-9.51265
▁qırmızı	-9.51265
▁müvəffəqiyyət	-9.51265
▁nektar	-9.51265
▁rəssam	-9.51265
▁saxlaya	-9.51265
itrəmə	-9.51266
▁zövq	-9.51267
▁genetik	-9.51267
▁külək	-9.51267
▁inşa	-9.51267
▁ürək	-9.51267
▁Kosmos	-9.51268
▁maye	-9.5127
▁miras	-9.51271
▁təyin	-9.51273
▁çəkilmiş	-9.51275
▁yaradılış	-9.51279
▁risk	-9.5128
▁tənlik	-9.5128
▁İncəsənət	-9.51281
▁bilsəydi	-9.51285
▁Keçə	-9.51285
▁nəsil	-9.51294
▁Baş	-9.51303
▁Geri	-9.51303
▁gerçək	-9.51332
▁etdirmək	-9.51355
▁qurmaq	-9.51364
▁səma	-9.51386
▁siyas	-9.51404
▁yaşında	-9.51453
▁Bilirsiniz	-9.5147
▁Yen	-9.51553
▁cinsi	-9.51557
gah	-9.51634
▁tanış	-9.51667
yik	-9.51855
▁çiçək	-9.51856
▁sonda	-9.51873
▁Hələ	-9.51913
▁string	-9.5192
▁aldım	-9.51923
zə	-9.51948
▁etdir	-9.52072
▁dünyadakı	-9.52113
▁Ru	-9.52179
▁yaradır	-9.52193
▁Afrikaya	-9.52287
▁çoxluğu	-9.52341
özün	-9.52383
▁uşaqların	-9.52404
▁altı	-9.52629
▁quş	-9.52632
lobal	-9.52702
▁yanında	-9.52803
▁tapa	-9.52874
▁ata	-9.52921
▁öyrənmə	-9.52935
▁bildiyi	-9.53155
▁olacağı	-9.53223
▁sənə	-9.5325
▁çal	-9.53301
▁ailə	-9.53334
▁dəyişmə	-9.53351
ləşmiş	-9.53501
▁forma	-9.53615
tor	-9.53724
▁layihə	-9.53861
▁edəcəy	-9.53949
▁qızlar	-9.54007
ımın	-9.5403
▁danışan	-9.54077
▁gəldiyi	-9.542
▁h	-9.54275
ist	-9.5436
məyi	-9.54435
▁tutur	-9.54544
▁hökümət	-9.54674
▁vəzifə	-9.54718
liklə	-9.54745
dığınız	-9.54937
sidir	-9.54992
▁yaradan	-9.54992
məyən	-9.55075
▁mühit	-9.55211
▁polis	-9.55212
irəm	-9.5528
▁qar	-9.55364
▁təsirləri	-9.5543
um	-9.55464
▁dəyişən	-9.55476
▁kəsi	-9.55541
▁tələbə	-9.55621
▁olmadığı	-9.55657
▁şəxs	-9.55787
mp	-9.55818
▁statistika	-9.55947
C	-9.56098
▁Səni	-9.56199
▁işlərin	-9.56369
tiv	-9.56453
ton	-9.56511
nızda	-9.56557
▁çəkdiyi	-9.56664
▁etmişdi	-9.56681
▁qarşıl	-9.56745
mağı	-9.56994
lay	-9.57267
suz	-9.57348
ıqlı	-9.57419
▁üzə	-9.57602
▁soruş	-9.57602
▁yerində	-9.57715
▁bacara	-9.57808
▁qutusu	-9.58033
▁anlama	-9.58054
▁9	-9.58095
ənəvi	-9.5827
▁yarada	-9.58284
ətən	-9.58488
▁kon	-9.58667
dığını	-9.58916
▁verə	-9.59028
bil	-9.59119
▁hazırlama	-9.59126
muş	-9.592
▁dediyi	-9.59244
3	-9.59336
▁özlərini	-9.59376
▁mükafatı	-9.59396
madı	-9.59445
▁qoya	-9.59685
▁25	-9.59796
▁gey	-9.59799
ha	-9.59805
▁çək	-9.59869
▁tanıma	-9.59871
▁mərkəzi	-9.5991
▁Al	-9.59956
aş	-9.60065
ıl	-9.60067
▁Öz	-9.6013
▁veri	-9.6014
bu	-9.60381
▁yaş	-9.60391
▁götürə	-9.60404
▁qoru	-9.60558
▁olundu	-9.60681
Ç	-9.60699
▁gedən	-9.60729
▁real	-9.60752
▁gəlmiş	-9.60797
▁gəl	-9.6086
unda	-9.60907
▁istəyən	-9.60912
▁nəzəriyyə	-9.60918
▁y	-9.60938
▁ehtiyacı	-9.61111
▁miqdar	-9.61117
▁sözün	-9.61183
et	-9.61293
▁qura	-9.61347
▁danışa	-9.6139
▁olanlar	-9.61441
▁birləş	-9.61539
məz	-9.61561
▁işləmə	-9.61588
.000	-9.61599
▁yerlər	-9.61666
iyyə	-9.61732
▁məlumatlar	-9.61923
▁ağrı	-9.61936
▁edilmiş	-9.61964
▁qoyu	-9.62035
▁nöqtələr	-9.62056
əkk	-9.62156
▁şəkillərin	-9.62177
▁bağ	-9.62217
▁Uşaqlar	-9.62267
▁bi	-9.62291
▁cazibə	-9.62369
▁iqtisadi	-9.62375
▁Təxmin	-9.62376
▁hökm	-9.62376
▁Cavab	-9.62376
▁Prezident	-9.62376
▁köhnə	-9.62376
▁xahiş	-9.62376
▁çiçəy	-9.62376
▁ticarət	-9.62377
▁ucuz	-9.62377
▁iclas	-9.62377
▁yaranır	-9.62378
▁Chris	-9.62379
saydı	-9.62379
▁Yalınayak	-9.62382
▁sosial	-9.62383
▁Maraqlı	-9.62384
▁Nyu	-9.62388
▁görünməz	-9.62388
▁içimizdə	-9.62391
▁13	-9.62402
ötəri	-9.62412
▁45	-9.62419
▁sizlər	-9.62428
▁Məni	-9.62454
dərili	-9.62463
▁bildiyimiz	-9.62468
▁Enceladus	-9.62494
▁çıxarmaq	-9.62498
▁məhsulu	-9.625
▁çalışmaq	-9.62502
▁yaşıl	-9.62503
▁olmaması	-9.62513
▁dəyişə	-9.62519
▁milyonlarla	-9.62558
▁ortasında	-9.62563
▁hekayəsi	-9.62568
▁gətirmək	-9.62592
▁əyləncəli	-9.62659
▁Kimsə	-9.62683
▁aşkar	-9.62702
▁milli	-9.62705
rdim	-9.62743
asında	-9.62795
▁araya	-9.62799
▁ilah	-9.62814
▁olduğumu	-9.62844
▁İsa	-9.62868
▁cavabı	-9.62932
▁21	-9.62972
▁dahi	-9.63031
▁gözləyir	-9.63032
▁xatırla	-9.63108
▁ingiliscə	-9.6313
▁başqası	-9.63196
▁bacar	-9.63345
▁etməyin	-9.63371
▁mövsüm	-9.63376
th	-9.63413
▁ta	-9.63552
▁aç	-9.63569
▁baxan	-9.63597
▁götürü	-9.63759
▁biləcəyiniz	-9.63819
▁müəllimləri	-9.63929
▁yazıçı	-9.63947
▁Ştatlar	-9.6395
▁yarana	-9.63993
▁sahəsi	-9.63998
▁araşdır	-9.64082
▁ədalətsiz	-9.64176
▁gəldik	-9.64223
▁alma	-9.64291
▁suyun	-9.64304
▁böyümüş	-9.64325
▁it	-9.64328
əcəyi	-9.64373
qları	-9.64485
▁baxış	-9.64522
▁əvvəllər	-9.6457
▁hökumət	-9.64663
▁mü	-9.64714
▁göstərən	-9.65018
▁gəlin	-9.65202
▁qitə	-9.65569
▁sənət	-9.65717
nif	-9.65723
T	-9.65994
▁harda	-9.66014
▁sualı	-9.66044
▁sa	-9.66364
▁ölkələrdə	-9.66385
▁aş	-9.66407
▁çəkə	-9.66644
▁Ha	-9.66677
▁planetlərin	-9.66766
▁peyk	-9.66839
▁ənənə	-9.66999
▁aya	-9.67103
▁qara	-9.67221
rey	-9.67222
▁dövrü	-9.67399
sizlik	-9.67449
imə	-9.67492
▁yarısı	-9.67557
ek	-9.67623
▁çıxarır	-9.67697
tmaq	-9.67698
məli	-9.67738
▁adamı	-9.67832
▁çıxara	-9.67953
▁olanları	-9.67989
▁sına	-9.68027
izə	-9.68074
▁hazırlan	-9.68651
ardı	-9.68655
▁l	-9.69009
▁anlamağ	-9.69111
▁mi	-9.69151
dınız	-9.6918
▁əs	-9.69391
▁istədiyi	-9.69419
▁kənddə	-9.69464
▁gələcəkdə	-9.69546
▁qanun	-9.69718
▁iqtisadiyyat	-9.69745
▁qalır	-9.69928
▁dini	-9.69955
▁Eynşteyn	-9.70015
▁sürəti	-9.70111
ilib	-9.70175
▁tərz	-9.7029
▁hara	-9.70291
▁məkan	-9.70644
kar	-9.70666
▁etdiyini	-9.70682
▁təməl	-9.70731
▁orqan	-9.7081
▁gətirə	-9.70879
▁işləyir	-9.70954
▁teleskop	-9.71303
diyini	-9.71365
▁qoy	-9.71481
▁edəndə	-9.71517
▁yeməyi	-9.71561
▁qadını	-9.71826
▁yalan	-9.71847
özüm	-9.72065
▁gedi	-9.7208
▁gül	-9.72089
mır	-9.72161
məliyik	-9.72194
▁həşəratlar	-9.72229
▁proqramı	-9.72413
▁bilmədiyi	-9.7267
▁varlıq	-9.72717
▁danışır	-9.72849
rand	-9.72941
▁əsası	-9.72971
▁yavaş	-9.73002
▁yaxınlar	-9.73012
xalq	-9.73037
ölçülü	-9.73142
▁un	-9.73156
icad	-9.73218
lük	-9.73279
▁istifadəçi	-9.73414
▁məsuliyyət	-9.73419
başa	-9.7355
▁dön	-9.73694
if	-9.7389
▁Mario	-9.73924
ber	-9.73979
▁radio	-9.74143
▁gəmi	-9.74158
▁muzey	-9.74171
w	-9.74177
▁topla	-9.74201
▁dolan	-9.74251
▁valideyn	-9.74313
▁etibar	-9.74495
▁danışar	-9.74514
▁ört	-9.74613
▁ayrıl	-9.74669
▁Rəq	-9.74729
▁yaratdı	-9.74814
▁götür	-9.74816
▁istiqamət	-9.74845
▁rast	-9.74869
▁mesaj	-9.7487
▁filmi	-9.74872
▁məhdud	-9.74874
▁Qolf	-9.74876
▁QİÇS	-9.74876
▁düzəltdi	-9.74876
▁hakim	-9.74876
▁potensial	-9.74876
▁xəstəxana	-9.74876
▁Əfqanıstan	-9.74876
▁Cənub	-9.74876
▁Məhkəmə	-9.74876
▁Təsəvvür	-9.74876
▁avtomobil	-9.74876
▁elektrik	-9.74876
▁klassik	-9.74876
▁meteorit	-9.74876
▁müraciət	-9.74876
▁şübhə	-9.74876
▁əxlaq	-9.74876
▁metal	-9.74877
▁simvol	-9.74877
▁ultrabənövşəyi	-9.74877
▁həddin	-9.74877
▁dərman	-9.74878
▁simulyasiya	-9.74879
▁mikrofon	-9.7488
▁İsveç	-9.74881
▁onsuz	-9.74882
▁komanda	-9.74882
▁analiz	-9.74883
▁həssas	-9.74888
▁Hava	-9.74892
▁super	-9.74898
▁öyrənmiş	-9.74902
▁18	-9.74906
▁bilet	-9.74907
▁Polis	-9.74908
▁ağır	-9.74908
▁The	-9.74917
▁dəhşətli	-9.74919
▁həkim	-9.74922
içik	-9.7495
▁mübahisə	-9.74956
ursuz	-9.74965
▁döyüş	-9.74973
▁verməli	-9.75007
▁mikroskop	-9.7501
▁əhatə	-9.7501
▁nəticəsində	-9.75038
▁oynaya	-9.75061
▁olmayıb	-9.75074
▁alıb	-9.75079
▁kat	-9.75105
▁ziya	-9.75138
▁onla	-9.75138
▁qü	-9.7519
▁yaşamaq	-9.7522
▁istəyirsiniz	-9.75227
▁verib	-9.75229
▁90-	-9.75235
▁rəngli	-9.75239
▁yaratdıq	-9.75247
▁aldıq	-9.753
yım	-9.75353
▁Hal	-9.75363
▁Əks	-9.75416
ard	-9.75447
▁düşünürdü	-9.75494
▁Hindistanın	-9.75574
▁burax	-9.7559
▁dəyişmək	-9.75613
▁quşlar	-9.75644
▁saç	-9.75647
▁proqramlaşdırma	-9.75707
yin	-9.75725
▁qalın	-9.75735
▁dəyişir	-9.75794
▁Ap	-9.75805
▁vad	-9.75816
▁iti	-9.75875
▁özünüz	-9.75903
▁işlədir	-9.75911
▁içəri	-9.75938
▁Titanik	-9.75966
dadır	-9.76021
▁hissəsidir	-9.76054
ndəki	-9.76056
▁can	-9.76104
▁maraqlıdır	-9.76158
▁işləri	-9.7617
▁Kənd	-9.76172
▁qiymət	-9.76196
▁Bo	-9.7621
▁yaşayan	-9.76259
ro	-9.7632
▁öt	-9.76424
▁getdik	-9.76498
▁qutu	-9.76518
▁reallaş	-9.76537
▁yolda	-9.76555
9-	-9.76726
ö	-9.76729
aret	-9.76798
▁Hamı	-9.76819
ran	-9.76826
mek	-9.76827
▁quru	-9.76834
atın	-9.76882
▁istəyirsən	-9.76885
▁axtar	-9.76973
▁vizual	-9.76973
▁zamanlar	-9.76998
▁Düz	-9.77006
▁tərəfin	-9.77044
▁du	-9.77157
▁Sənə	-9.77233
▁yük	-9.77299
▁etməyim	-9.77316
▁qoşul	-9.77375
▁Nigeriyada	-9.77466
ert	-9.77476
diniz	-9.77481
saq	-9.77557
▁bildiyim	-9.77574
umuzu	-9.77599
▁yerli	-9.77613
▁düşən	-9.77687
▁ölkələr	-9.77734
diyiniz	-9.77802
▁sistemini	-9.77847
▁Hey	-9.77895
,5	-9.7794
▁qalmış	-9.7821
▁anası	-9.78287
▁re	-9.78311
▁lazımlı	-9.78398
▁yəhudi	-9.78399
alı	-9.7849
▁qalaktikaları	-9.7854
▁səthi	-9.78615
▁yed	-9.78689
ğunu	-9.78772
▁birində	-9.78791
▁etiketi	-9.78831
▁tanın	-9.78834
▁Sizin	-9.78876
▁götürür	-9.78925
▁v	-9.78986
▁verdiyi	-9.79084
▁dəyərlər	-9.79145
▁demiş	-9.79186
müşdü	-9.79313
▁gəlirsə	-9.79417
bir	-9.79553
▁tozlar	-9.79586
war	-9.79595
▁Burda	-9.799
caq	-9.7994
▁otur	-9.79955
▁Həyat	-9.79983
irləşmiş	-9.80094
▁forması	-9.80261
▁işimiz	-9.80468
▁varlıqlar	-9.80535
▁çevrildi	-9.80593
▁məktəblər	-9.80644
▁quruluşu	-9.80793
▁bizlər	-9.80903
▁fikirlər	-9.80955
▁qoyur	-9.81117
▁dilini	-9.81197
▁keçi	-9.81231
▁şans	-9.81317
▁əvəz	-9.81455
üb	-9.8146
▁yaşa	-9.81652
▁fleyta	-9.81674
abl	-9.81757
▁Ro	-9.81878
▁öyrəndiyim	-9.81999
▁sahədə	-9.8202
▁arada	-9.82078
dey	-9.82179
▁siyasət	-9.82224
▁çatan	-9.82494
pa	-9.82561
▁düşün	-9.82574
▁Amerikada	-9.82755
j	-9.82759
ut	-9.83297
▁axtarır	-9.83376
▁otaqda	-9.83377
ış	-9.8351
ğımızı	-9.83633
ımıza	-9.83758
▁qapı	-9.83779
dum	-9.84114
▁uğurl	-9.84134
▁70	-9.84272
M	-9.84396
▁bilərsən	-9.84449
ge	-9.8458
▁vaxtda	-9.84727
▁bolt	-9.84735
▁açı	-9.84785
▁varlı	-9.84786
▁aldı	-9.84825
▁baxır	-9.84826
imizi	-9.8499
▁planetlər	-9.85055
▁yaşda	-9.85055
anlar	-9.85071
▁hüquqları	-9.85099
▁tutdu	-9.851
▁He	-9.85123
▁bildiri	-9.85227
ck	-9.85244
▁düş	-9.85252
▁başın	-9.85299
▁material	-9.85327
siya	-9.85372
▁görməyə	-9.85411
▁olanı	-9.85493
▁problemin	-9.8553
▁Bil	-9.85733
uza	-9.85832
əmsal	-9.85899
çilər	-9.86145
▁yayıl	-9.8615
▁ruhu	-9.86154
▁27	-9.86251
▁dostum	-9.86278
▁şagird	-9.86466
▁olacağın	-9.86488
▁okeanı	-9.86505
▁yaşaya	-9.86629
▁qalaktikanı	-9.86721
▁müzakirə	-9.86761
▁ehtimalı	-9.86839
▁oynayır	-9.86925
▁soba	-9.8701
be	-9.87036
▁detal	-9.87109
▁keçə	-9.87123
▁yerləri	-9.87164
▁biznes	-9.87216
▁dəyişikliyi	-9.8723
əvi	-9.87258
▁Əl	-9.87652
acam	-9.87665
kcə	-9.87744
▁Kişi	-9.87768
▁hey	-9.87813
▁yaşadığı	-9.87903
bo	-9.87969
uş	-9.88038
▁Afrikanı	-9.88088
▁öldü	-9.88276
▁musson	-9.88325
▁danışdı	-9.88455
▁üzün	-9.88477
▁198	-9.88607
▁orbitin	-9.887
▁texnologiyanı	-9.88727
▁texnik	-9.8878
▁rəngi	-9.88802
▁196	-9.88816
▁istehsal	-9.88853
▁səyahəti	-9.8887
ene	-9.88883
▁qaldırı	-9.88893
▁apar	-9.88962
▁hərəkəti	-9.88987
▁John	-9.89046
▁Özüm	-9.89065
▁tədqiq	-9.89122
▁İstə	-9.89147
▁Problem	-9.89162
▁Warren	-9.89162
▁cədvəl	-9.89162
▁demokrati	-9.89162
▁etiraz	-9.89162
▁fövqəl	-9.89162
▁nigeriyalı	-9.89162
▁yeniyetmə	-9.89162
▁Çətin	-9.89162
▁üfüq	-9.89162
▁İnanılmaz	-9.89162
▁Şimal	-9.89162
▁axmaq	-9.89162
▁əyri	-9.89162
▁hidro	-9.89162
▁kabel	-9.89162
▁idman	-9.89163
▁məhkəmə	-9.89163
▁cavan	-9.89163
▁inanc	-9.89163
▁eşidəndə	-9.89163
▁qonşu	-9.89164
▁professional	-9.89165
▁genişliyində	-9.89166
▁mətbuat	-9.89172
▁zəka	-9.89176
▁təzə	-9.89178
▁bölüşmək	-9.89179
▁turizm	-9.89181
▁maliyyə	-9.89187
▁tanıyır	-9.89192
▁alış	-9.89194
▁bilməyəcəyi	-9.89194
▁düşünürsünüz	-9.89197
▁etsin	-9.892
▁planetimizi	-9.89202
▁çap	-9.89205
▁həyatımda	-9.89212
▁aparmaq	-9.89218
▁w	-9.89227
▁Dəri	-9.89229
▁alçal	-9.89233
▁ip	-9.89247
▁ölkəsində	-9.89251
▁qızdırma	-9.89251
▁Mary	-9.89256
▁qızıl	-9.89259
▁yaşadı	-9.89263
▁neylə	-9.89269
▁buruq	-9.89273
▁foto	-9.89279
▁fotoşəkil	-9.89288
lerle	-9.893
▁ölür	-9.89363
▁çıxmaq	-9.8937
▁verilən	-9.89386
▁elektromaqneti	-9.89387
▁səslər	-9.89417
▁heyrət	-9.89419
▁mahnı	-9.89453
▁Orada	-9.89455
▁olmay	-9.89464
▁aldığım	-9.89604
▁acı	-9.89606
▁duya	-9.89609
dar	-9.8961
▁Hamımız	-9.89613
▁Əvvəlcə	-9.89615
▁Gün	-9.89632
▁New	-9.89636
▁sarı	-9.8964
▁şeytan	-9.89673
▁gözləyə	-9.89675
IP	-9.89678
▁keçib	-9.8968
▁çoxalma	-9.89701
▁erkə	-9.89712
▁yazmaq	-9.8974
▁gəlirlər	-9.89745
▁sinifdə	-9.89748
▁art	-9.89782
▁eqo	-9.89787
▁çevirə	-9.89797
▁ayın	-9.89818
nt	-9.89842
▁istədik	-9.89917
▁üsul	-9.89937
▁sınaq	-9.89944
▁axır	-9.89957
▁düşündük	-9.90082
▁tuta	-9.90089
▁etməz	-9.90097
▁gücünü	-9.90129
▁sahələri	-9.90164
▁halında	-9.90194
▁başqalarını	-9.90203
▁düşünmək	-9.90217
▁qarşılaş	-9.90239
▁yaşım	-9.90277
▁nəticələri	-9.90338
▁adalarında	-9.90368
▁içindəki	-9.90371
▁şəkilləri	-9.90394
lənmişdi	-9.90646
ilir	-9.90653
ənc	-9.90702
uy	-9.9073
▁bilə	-9.90734
▁gözü	-9.90753
▁yaşadığım	-9.90777
▁faizi	-9.90783
▁Özümü	-9.90783
▁qayıdan	-9.90824
▁keçdik	-9.90826
▁miqdarı	-9.90831
dırılmış	-9.90871
▁şe	-9.90907
▁edənlər	-9.9099
▁gəlmək	-9.9099
əcəksiniz	-9.91065
▁qum	-9.91341
▁gəlmişdi	-9.91349
▁əlaqədə	-9.91354
ırsınız	-9.91422
▁qəf	-9.91488
▁ağcaqanadlar	-9.91523
▁bilməyə	-9.91562
pe	-9.91595
▁verirdi	-9.91683
hu	-9.91756
▁səfər	-9.91803
▁çıxaca	-9.91809
▁əlimiz	-9.91875
▁qə	-9.91965
▁məsafəni	-9.91979
▁vasitələrin	-9.9203
▁dövrə	-9.92084
əmişə	-9.92085
▁doğrudan	-9.92111
▁Atam	-9.92132
▁danışırdı	-9.92343
▁insanlıq	-9.92379
▁otağın	-9.92413
▁prosesi	-9.92438
▁öyrənir	-9.92476
▁dalğalanmalar	-9.92611
▁Kral	-9.92654
▁deyəndə	-9.92659
iniz	-9.92751
▁vasitələri	-9.92794
▁peyklər	-9.928
səydi	-9.92814
▁mədəniyyət	-9.92872
▁düşə	-9.93018
▁anlayışı	-9.93158
ümüzü	-9.9316
ken	-9.93405
▁olunma	-9.93502
▁yanaşma	-9.93574
ilməsi	-9.93662
▁cümləni	-9.93771
▁boltu	-9.93794
▁dilə	-9.93874
▁adlandırır	-9.9395
▁inanırdı	-9.94003
çılıq	-9.94056
▁dayanır	-9.94081
▁Nigeriya	-9.94099
▁saldı	-9.94135
▁qazan	-9.94147
▁riyaziyyatı	-9.94168
▁satı	-9.94269
▁dünyamız	-9.94284
▁etmirdi	-9.94331
▁qanunları	-9.94374
▁tapdı	-9.94416
▁kainatı	-9.94451
▁çevril	-9.94516
▁gedəndə	-9.9456
▁kimlik	-9.94605
▁cihazlar	-9.94617
▁ixtira	-9.94622
▁itki	-9.94674
▁anlayışını	-9.94684
lərim	-9.94751
klər	-9.94768
▁öyrəndik	-9.94777
▁almış	-9.94931
▁danışdığı	-9.95012
▁həyatını	-9.95134
▁hamısını	-9.95251
op	-9.95281
▁iz	-9.95551
▁fəaliyyətin	-9.95596
▁alət	-9.95596
▁təc	-9.95666
▁şa	-9.95672
▁dəyişikliklər	-9.95721
▁qızların	-9.95731
▁olunmuşdu	-9.95771
▁vermiş	-9.95849
▁dostlarım	-9.95989
▁ka	-9.96161
▁Lo	-9.96267
▁Ne	-9.96353
▁hərbi	-9.96371
▁Rus	-9.96524
▁ton	-9.96605
▁hissələri	-9.96614
bəli	-9.96682
▁yaşama	-9.96704
▁dildə	-9.96881
▁olmasını	-9.96972
aman	-9.97045
eme	-9.97146
▁baxırdı	-9.97189
mayacaq	-9.97198
▁irəliləyiş	-9.97242
▁həftədə	-9.97341
▁hissə	-9.97453
▁birimizi	-9.97542
▁başla	-9.97555
rsınız	-9.97644
▁cəsarət	-9.97716
▁mərhələ	-9.97758
▁Ko	-9.97888
maqla	-9.98017
▁enerjini	-9.98192
▁yağ	-9.98195
▁fizikası	-9.98316
▁ayı	-9.98318
▁dövrün	-9.98336
▁şüası	-9.98371
B	-9.98393
▁düymə	-9.9845
una	-9.98629
▁peyki	-9.9871
▁dəstək	-9.98836
▁səsi	-9.98933
▁nöqtədə	-9.98941
▁hadisələr	-9.99043
uşu	-9.99049
▁kvadrat	-9.99075
est	-9.99107
▁utan	-9.99135
▁robotlar	-9.9916
▁nümunələri	-9.99255
mızın	-9.99293
▁fəaliyyətdə	-9.99318
▁kitabın	-9.99367
▁məktəbi	-9.9947
ark	-9.99691
mayıb	-9.9971
ınızı	-9.99718
▁arzu	-9.9974
▁Qızlar	-9.99784
▁maşınlar	-9.99895
eh	-9.99913
sənmi	-9.99989
deki	-10.0014
ləyir	-10.0029
▁hamını	-10.0035
sının	-10.0036
▁oxu	-10.0047
▁kürə	-10.006
▁150	-10.006
▁əlləri	-10.0061
▁təbəqə	-10.0063
▁etiket	-10.0069
▁do	-10.0078
ləşdirmək	-10.0079
▁dəyiş	-10.0083
▁davran	-10.0086
▁Kollec	-10.0102
▁etdikləri	-10.0105
▁Mill	-10.0112
basın	-10.0116
▁verili	-10.0119
▁10-	-10.0134
▁əsərləri	-10.0154
▁açar	-10.0162
▁şəhər	-10.0179
▁rənglər	-10.0188
yu	-10.0192
▁tutu	-10.0206
▁hərəkat	-10.0229
ünü	-10.023
anı	-10.025
▁göstəri	-10.0256
▁halın	-10.0258
birləri	-10.0259
▁fa	-10.0262
▁dəyişiklikləri	-10.027
▁səfəri	-10.028
O	-10.0294
▁yolun	-10.0295
üz	-10.0301
▁seçil	-10.0301
od	-10.0304
▁yemək	-10.031
▁verəcək	-10.0324
▁Sual	-10.0326
▁silah	-10.0327
▁yanaşı	-10.0332
▁ədəbiyyat	-10.0342
▁layiq	-10.0365
eyr	-10.037
▁qoyul	-10.0372
▁öl	-10.0375
▁elementlər	-10.0382
▁Se	-10.0387
▁Mars	-10.0395
▁bəzilərini	-10.0403
irik	-10.0409
▁qoruma	-10.041
▁CA	-10.041
İ	-10.0414
K	-10.0415
▁mövsümü	-10.0431
məyəcək	-10.0435
▁600	-10.0435
fantastik	-10.0461
▁yazma	-10.0469
▁afrikalı	-10.0471
▁incə	-10.0478
▁madd	-10.0484
▁qayna	-10.0489
▁görmə	-10.0489
4-	-10.049
▁seçim	-10.0495
▁aşı	-10.0507
▁sonsuz	-10.0517
▁varmı	-10.0519
▁artır	-10.0524
▁buludu	-10.0525
▁anlaya	-10.0531
▁90	-10.0536
ləşmə	-10.054
▁olunu	-10.0545
▁keçirə	-10.0546
lamaq	-10.0549
ecek	-10.0549
▁danışma	-10.0553
▁uçur	-10.0554
▁fikirləşi	-10.0561
▁Rea	-10.0569
▁mühitin	-10.0573
▁Yox	-10.0578
▁məsləhət	-10.0579
üxtəlif	-10.0579
▁radi	-10.0579
iyyat	-10.058
▁Uz	-10.058
91	-10.058
▁ehti	-10.0581
▁Düşün	-10.0582
munikasiya	-10.0583
▁Növbə	-10.0583
▁televizor	-10.0583
itboks	-10.0583
▁Jay	-10.0583
▁MİNV	-10.0583
▁Səliqə	-10.0583
▁axşam	-10.0583
▁eğrileri	-10.0583
▁gözəgörünməz	-10.0583
▁intervyu	-10.0583
▁məcbur	-10.0583
▁məqalə	-10.0583
▁siçan	-10.0583
▁sorğu	-10.0583
▁təmsil	-10.0583
▁yuxu	-10.0583
▁səhləb	-10.0583
▁məxsus	-10.0583
▁şüur	-10.0583
▁bayır	-10.0583
▁maksim	-10.0583
▁gəzinti	-10.0583
▁səkkiz	-10.0583
▁vətəndaş	-10.0583
▁olunurdu	-10.0583
▁beynə	-10.0583
▁kommunikasiya	-10.0583
▁proqnoz	-10.0583
▁Quran	-10.0583
▁hədəf	-10.0583
▁qrammatika	-10.0583
▁Male	-10.0583
▁proton	-10.0583
▁sirr	-10.0584
▁qurtar	-10.0584
▁qardaşım	-10.0584
▁Newton	-10.0584
▁meyvə	-10.0584
▁Coş	-10.0585
▁cisim	-10.0585
▁kaluza	-10.0585
▁And	-10.0585
▁Təəssüf	-10.0585
▁dövranı	-10.0586
▁75	-10.0586
▁ehtiyacım	-10.0586
▁müstə	-10.0586
▁xəbərdar	-10.0587
▁məğ	-10.0587
▁məzun	-10.0587
▁tutmaq	-10.0588
▁bilmərik	-10.0588
▁gözlənil	-10.0588
▁yetkin	-10.0588
▁həvəs	-10.0588
▁boyutlar	-10.0589
▁zidd	-10.0589
▁etməliyik	-10.0589
▁buyuru	-10.0589
▁She	-10.059
▁boy	-10.059
▁İran	-10.059
▁amerikalı	-10.059
▁dibin	-10.059
▁ətrafımızda	-10.0592
▁yardım	-10.0592
▁eşitmi	-10.0592
▁cinsli	-10.0593
▁maneə	-10.0594
▁şok	-10.0595
▁razılaşma	-10.0595
▁ilham	-10.0595
▁Johny	-10.0597
▁krater	-10.0598
▁baxdığımız	-10.0599
93;	-10.06
▁dağını	-10.0601
▁çalışdıq	-10.0602
▁siq	-10.0602
▁mədəni	-10.0603
▁göndəril	-10.0606
ətli	-10.0606
▁uzunluğunda	-10.0606
▁müşahidəçi	-10.0609
▁oxşayır	-10.061
▁toqquşma	-10.0612
çinizdə	-10.0614
▁çevrilib	-10.0614
▁Qər	-10.0615
▁həllər	-10.0615
▁197	-10.0617
▁bənzədiyin	-10.0619
▁hüceyrələr	-10.0623
▁hüququ	-10.0627
oj	-10.0629
▁hazırlaya	-10.0629
▁cəhd	-10.0634
▁etibarlı	-10.0635
▁göy	-10.0639
▁Et	-10.064
▁Bugün	-10.0641
tion	-10.0641
▁oxumaq	-10.0643
▁Ali	-10.0645
▁xüsusiyyəti	-10.0647
▁mənəvi	-10.0647
▁Deyə	-10.0649
ub	-10.0651
▁dövrdə	-10.0659
▁Sev	-10.066
▁ayıran	-10.0664
unun	-10.0666
▁geyin	-10.067
▁Universitetində	-10.0672
məklə	-10.0672
▁işləyən	-10.0673
▁bugün	-10.0679
▁xoşum	-10.068
▁oxuyur	-10.0687
▁ikisi	-10.0689
▁olmadığın	-10.0692
▁təs	-10.0692
▁girmə	-10.0693
▁nömrələr	-10.0694
▁funksiyası	-10.0697
put	-10.0698
▁gəlmir	-10.07
▁fürsəti	-10.0703
▁yazdı	-10.0709
▁uca	-10.0711
▁quruluşunu	-10.0722
▁aləm	-10.0723
▁Mərkəzi	-10.0724
qlu	-10.0729
▁qapıl	-10.0729
▁edəcəksiniz	-10.0731
▁oxuyan	-10.0732
▁qazana	-10.0735
▁sözünü	-10.0749
▁Nəyi	-10.0749
▁kitablar	-10.0752
mid	-10.0766
▁xeyr	-10.0766
▁xətti	-10.077
▁heyran	-10.0771
▁fizikaçı	-10.0772
ho	-10.0774
▁birləşdirmək	-10.0774
lanmış	-10.0778
▁Uşaqların	-10.0782
ləşdir	-10.0786
▁məlumatları	-10.0787
▁eşitdiyi	-10.0793
▁kurs	-10.0802
▁fəaliyyət	-10.0804
duğunu	-10.0805
▁qarşısın	-10.0814
dunuz	-10.082
▁sistemimiz	-10.0824
▁quran	-10.0834
▁görürdü	-10.0842
qil	-10.0844
▁yenilik	-10.0858
▁bilməyi	-10.0859
▁görmür	-10.0868
nc	-10.087
▁apara	-10.0879
▁naziri	-10.0884
▁hərəkətləri	-10.0884
▁biləcəyim	-10.0889
▁telefonu	-10.0894
50	-10.0902
▁hazırlaş	-10.0903
▁dönür	-10.0912
▁tədqiqatlar	-10.0916
▁yaratdığım	-10.0921
▁dördün	-10.0922
▁vermədi	-10.0925
▁tutum	-10.0937
▁ayaqları	-10.0939
▁te	-10.0945
kanın	-10.0945
▁digərləri	-10.0947
▁mədəniyyəti	-10.0954
▁Du	-10.0954
▁aparıl	-10.0954
onu	-10.0956
▁istəmə	-10.0969
▁əlində	-10.0975
▁Tam	-10.0983
▁bal	-10.0988
yini	-10.0992
▁adlan	-10.0996
▁para	-10.0998
▁edilirdi	-10.1003
▁Həyatın	-10.1007
▁toxun	-10.1016
▁müəllimi	-10.1017
▁çiçəklərin	-10.1022
▁təhlükə	-10.1027
eyin	-10.1045
▁milyonda	-10.105
▁evliliyi	-10.1051
▁parçasını	-10.1053
▁açıqlama	-10.1059
▁mükafat	-10.1061
asının	-10.1066
▁versiyası	-10.1069
▁uyğunlaşma	-10.1069
▁gö	-10.1071
2-	-10.1071
▁telek	-10.1079
▁yaratmağ	-10.1096
▁adım	-10.1099
▁xəstəliyin	-10.1101
▁oxuya	-10.1105
▁qızı	-10.1109
lerini	-10.111
▁alətləri	-10.1128
qo	-10.1134
▁üzündə	-10.1134
▁kar	-10.1138
▁tanınır	-10.1142
▁strukturları	-10.1149
▁yanı	-10.1151
▁atası	-10.1158
▁həbs	-10.1164
▁uğur	-10.1165
▁Qa	-10.1183
▁açdı	-10.1193
▁çatmış	-10.1198
▁əlaqəni	-10.1208
▁ve	-10.1228
▁rəsmi	-10.1239
yır	-10.1243
▁uşaqlıqda	-10.1246
▁Bunları	-10.1251
▁gəlməsini	-10.1255
▁çəkiliş	-10.1255
▁mərasimdə	-10.1261
▁bilin	-10.1264
▁nizam	-10.1265
▁bilsə	-10.1283
0-	-10.1286
fi	-10.1289
▁cib	-10.1298
▁yanaş	-10.1298
▁Az	-10.13
yara	-10.1305
▁Mar	-10.1307
▁Yorkda	-10.1312
▁Asiya	-10.1315
▁sualını	-10.1315
▁deşi	-10.1326
▁istədiyini	-10.1331
▁bitirmə	-10.1345
▁enerjisini	-10.1355
▁qaydaları	-10.1357
▁edilmə	-10.136
öv	-10.1365
▁Na	-10.1371
▁yerimə	-10.1378
acak	-10.1382
▁halqa	-10.1393
▁aldığı	-10.14
▁bit	-10.1405
▁xanım	-10.1411
▁öyrənməy	-10.1416
▁astronom	-10.1418
mamış	-10.1418
yiniz	-10.143
▁şəklində	-10.1436
diklərini	-10.1445
▁xəyal	-10.1459
lanan	-10.1465
mizdə	-10.1475
yle	-10.1483
lilik	-10.1494
▁öyrətmə	-10.1501
▁başını	-10.1501
▁400	-10.1505
▁Ay	-10.1506
ırdım	-10.1507
▁xərclə	-10.1515
rdi	-10.1517
▁fikirləş	-10.1522
▁Meri	-10.1526
yyətlə	-10.1533
▁sənayesin	-10.1533
ola	-10.1543
▁zal	-10.155
▁fotoşəkili	-10.1567
▁yazır	-10.1573
▁uşağ	-10.1576
▁anla	-10.1584
▁ölç	-10.1589
▁Londonda	-10.1597
▁sualları	-10.1613
▁xəbərləri	-10.1634
▁verdik	-10.1643
▁Müəllim	-10.1645
▁Biri	-10.1653
▁məndə	-10.1666
ıldığı	-10.1673
uruq	-10.1676
likləri	-10.1682
▁apardı	-10.17
▁vermişdi	-10.1702
▁Özü	-10.1705
▁olunmuş	-10.1709
▁ideyası	-10.1719
▁olanların	-10.1721
▁Ke	-10.1739
▁kürəsin	-10.1742
▁rahat	-10.1752
▁şəhərdə	-10.1766
he	-10.1775
▁sahil	-10.1788
▁xət	-10.1796
▁əməliyyat	-10.1811
▁rəngləri	-10.1817
▁Dr	-10.1819
iliklə	-10.1819
▁tapmağ	-10.1824
ko	-10.1826
▁tanınma	-10.1828
▁Ana	-10.1853
▁ça	-10.1859
▁işlə	-10.186
cəyiniz	-10.186
lıdır	-10.1863
▁anlayır	-10.1882
▁yağışı	-10.1887
▁etdiril	-10.1899
▁şahidi	-10.1904
loq	-10.1914
▁aləti	-10.1916
▁ölümü	-10.1934
▁ailədə	-10.1936
▁getməli	-10.1937
▁qüvvəsi	-10.1937
▁tutar	-10.1959
▁nəzəriyyəsini	-10.1976
ley	-10.1979
▁kəsə	-10.198
▁şahin	-10.1984
▁gözlərin	-10.1991
▁günün	-10.2003
▁insana	-10.2011
▁Bankı	-10.2013
▁istə	-10.2013
▁tik	-10.2018
mədən	-10.202
▁yaradı	-10.2025
▁danışı	-10.2026
▁Emi	-10.2037
▁iç	-10.2043
▁digərin	-10.2043
şi	-10.205
▁böyü	-10.2052
▁80	-10.2055
▁hissələrin	-10.2061
ster	-10.2066
▁sevdiyim	-10.2087
▁öyrən	-10.2102
▁verilməsi	-10.2128
▁şəkl	-10.2131
▁dilin	-10.2154
▁məhsul	-10.2166
▁toplama	-10.2173
lərimi	-10.218
▁fotoşəkillər	-10.2182
▁Me	-10.2182
gün	-10.2184
ion	-10.2187
siylə	-10.2193
▁fond	-10.2199
▁vur	-10.22
liyə	-10.2212
▁alimlər	-10.2218
▁Hekayə	-10.2227
▁otağı	-10.2227
po	-10.2229
▁artım	-10.223
▁edirsə	-10.223
▁suyu	-10.2235
▁olunması	-10.2237
▁Ge	-10.2237
▁Hamısı	-10.2244
▁diş	-10.2249
▁hesablama	-10.2255
▁otağ	-10.2264
▁lider	-10.2267
isi	-10.2279
▁şəklin	-10.229
şərqi	-10.2296
▁ağlını	-10.2306
▁Kitab	-10.2306
▁olduqda	-10.2313
▁dərsi	-10.2315
▁görmü	-10.2316
▁alətlər	-10.2349
▁qurdu	-10.2355
▁anlaşıl	-10.2359
▁Uşaq	-10.2365
▁Aristotel	-10.2367
▁səhifə	-10.2368
00	-10.2379
▁çalışar	-10.2382
▁başlamış	-10.239
▁xalq	-10.2399
V	-10.2403
N	-10.2408
▁Ata	-10.241
orbit	-10.2413
E	-10.2414
şü	-10.243
ülmüş	-10.2435
▁səthin	-10.2436
▁bü	-10.2443
0	-10.2457
▁keçdi	-10.2459
▁ifşa	-10.246
▁atı	-10.2464
▁60	-10.2465
▁yerləş	-10.2467
▁dəlil	-10.2467
▁Su	-10.2468
▁Si	-10.2473
▁yetiş	-10.2477
▁sistemimizdə	-10.2487
▁çata	-10.2489
ung	-10.2491
▁dəli	-10.2492
imizdə	-10.2497
▁qorx	-10.2503
▁etmi	-10.2504
lis	-10.2504
▁kosmosu	-10.251
▁həyəcan	-10.2512
▁istədikləri	-10.2512
▁gətir	-10.2519
▁ulduzları	-10.2522
▁başı	-10.2524
▁proyekt	-10.2524
rs	-10.2527
öyü	-10.2536
▁maraqlanır	-10.2544
▁Je	-10.2544
▁döndü	-10.2545
▁qayıda	-10.2546
▁müddətdə	-10.2549
▁Di	-10.2552
▁gözləmə	-10.2553
▁qisimi	-10.256
▁əylən	-10.256
▁diplom	-10.2568
▁inandır	-10.2573
▁amerika	-10.2574
▁qəd	-10.2575
▁boş	-10.2575
▁ələ	-10.2575
▁çəkirdi	-10.2576
▁Qısa	-10.2577
▁Məh	-10.2578
▁xeyir	-10.2578
öh	-10.2581
▁jurnal	-10.2582
▁qida	-10.2583
▁Jo	-10.2583
▁püskür	-10.2583
▁təkmilləşdir	-10.2583
pesifik	-10.2583
qnostik	-10.2583
▁Apophis	-10.2583
▁Meksika	-10.2583
▁Qırmızı	-10.2583
▁Richard	-10.2583
▁Uçu	-10.2583
▁avtomat	-10.2583
▁fundamental	-10.2583
▁futbol	-10.2583
▁könüllü	-10.2583
▁nümayiş	-10.2583
▁oktyabr	-10.2583
▁oğurluq	-10.2583
▁oğurluğu	-10.2583
▁prezident	-10.2583
▁vahid	-10.2583
▁yüngül	-10.2583
▁zinakar	-10.2583
▁çərçivə	-10.2583
▁İngiltərə	-10.2583
▁İnkişaf	-10.2583
▁əlverişli	-10.2583
▁Hasbro	-10.2583
▁Hökumət	-10.2583
▁Ju	-10.2583
▁Keçmiş	-10.2583
▁Müsahibə	-10.2583
▁Okean	-10.2583
▁Telefon	-10.2583
▁diametr	-10.2583
▁müalicə	-10.2583
▁mərkəzdə	-10.2583
▁qənaət	-10.2583
▁yamsılay	-10.2583
▁Ədalət	-10.2583
▁aclıq	-10.2583
▁karbon	-10.2583
▁Həşərat	-10.2583
▁stabil	-10.2583
▁Mandela	-10.2583
▁görünmür	-10.2583
▁qolfçu	-10.2583
zavr	-10.2583
▁filosof	-10.2583
▁Qəribə	-10.2583
▁unutma	-10.2583
▁övlad	-10.2583
▁sərt	-10.2583
▁qarışqa	-10.2583
▁Aydın	-10.2583
▁Fide	-10.2583
▁öyrədil	-10.2583
▁valehedici	-10.2583
▁ehtiras	-10.2583
əhdid	-10.2583
▁əqli	-10.2583
▁Kenya	-10.2583
▁Məlumat	-10.2583
▁master	-10.2583
leksi	-10.2583
▁mühazirə	-10.2583
▁mühərrik	-10.2583
▁tip	-10.2584
▁narko	-10.2584
▁Tom	-10.2584
▁qabağında	-10.2584
▁qovuş	-10.2584
▁doğur	-10.2584
▁artist	-10.2584
▁Qət	-10.2584
▁təkərləri	-10.2584
▁skan	-10.2584
▁rastlaş	-10.2584
▁danışacam	-10.2585
▁göndərdiyi	-10.2585
▁Britaniya	-10.2585
▁genişləmə	-10.2585
▁ekran	-10.2585
▁prim	-10.2585
▁üstünlük	-10.2586
▁Space	-10.2586
▁oxşar	-10.2586
▁cənab	-10.2586
▁bacarığı	-10.2586
▁dəyişəcək	-10.2586
▁disk	-10.2586
▁reallaşdırmaq	-10.2587
▁istəyər	-10.2587
▁partlad	-10.2587
▁üzləş	-10.2587
▁çatdırmaq	-10.2587
▁Rusiya	-10.2587
▁qarşımızda	-10.2587
▁palçıq	-10.2588
▁Martin	-10.2588
nvol	-10.2588
▁Getdi	-10.2588
▁müxbir	-10.2589
▁ediləcək	-10.2589
▁meyl	-10.2589
▁inana	-10.259
▁yoldaşı	-10.259
▁kənarında	-10.2593
erson	-10.2593
▁tapşırığı	-10.2593
▁reallıq	-10.2594
▁əlimdə	-10.2595
▁söyləmə	-10.2595
▁yatır	-10.2596
▁nəfəs	-10.2597
▁görünürdü	-10.2597
▁müd	-10.2597
▁həddə	-10.2597
▁iP	-10.2598
▁tərs	-10.2598
▁ayrılmış	-10.2598
▁qatar	-10.2599
▁yaşamış	-10.2599
▁düşməyə	-10.26
▁istəsə	-10.26
▁milyardda	-10.2601
▁bacardıq	-10.2601
▁yenilən	-10.2601
oral	-10.2602
▁qarlı	-10.2602
▁saxlayır	-10.2604
▁bayram	-10.2605
▁media	-10.2606
▁teatr	-10.2606
▁xatırlamır	-10.2606
▁geyim	-10.2608
▁əksinə	-10.2609
▁əsir	-10.2609
▁sayt	-10.261
▁dəyişdirmək	-10.2611
▁yadda	-10.2613
▁irəliləy	-10.2614
▁dediyim	-10.2614
▁ortalama	-10.2614
▁soyuq	-10.2617
▁Hind	-10.2617
▁atmaq	-10.2618
▁beynimiz	-10.2621
▁görüntü	-10.2624
▁çəkdik	-10.2624
▁cəs	-10.2625
▁qəsd	-10.2625
▁mağara	-10.2626
landiya	-10.2626
▁istehsalı	-10.2627
▁çalışırdım	-10.2627
▁çalışdım	-10.2628
oğr	-10.2629
mən	-10.263
▁istək	-10.2632
▁öyrənməli	-10.2634
▁əşyaları	-10.2641
▁kap	-10.2642
meliy	-10.2644
▁müzakirələr	-10.2651
▁deməkdi	-10.2653
▁vəziyyəti	-10.2655
▁dönən	-10.2656
▁poz	-10.2656
▁sistemində	-10.2661
▁Fələstin	-10.2664
▁səhra	-10.2665
ash	-10.2665
▁daxilində	-10.2666
şları	-10.2667
▁1980	-10.2667
▁pop	-10.2669
▁sü	-10.2669
alırlar	-10.267
ore	-10.267
▁düzəldə	-10.2671
▁qol	-10.2671
▁məktub	-10.2675
▁başlayın	-10.2676
▁istəmir	-10.2676
▁inam	-10.2679
▁xəbəri	-10.2688
▁oxuyu	-10.2689
▁düyü	-10.2689
rəb	-10.2693
▁adlandırdı	-10.2693
iylə	-10.2695
▁eşitmə	-10.2699
▁məhsulunu	-10.2699
▁Meta	-10.27
▁həşəratı	-10.2705
▁Dan	-10.2706
▁fə	-10.2707
▁getməyə	-10.2707
▁izləyir	-10.2714
▁bilməyəcək	-10.2715
▁əlaqəli	-10.2716
▁doğrudur	-10.2718
▁bizdə	-10.2718
▁uşaqlarımızı	-10.2718
▁uşağın	-10.2718
uncu	-10.2718
▁Ailə	-10.2726
▁bilməli	-10.2729
▁bildiklərini	-10.2731
▁ke	-10.2732
▁dünyasını	-10.2732
fantastika	-10.2734
▁edici	-10.2739
▁sözlə	-10.2746
▁fil	-10.275
laşdırma	-10.2755
▁obyektlər	-10.2758
▁yönəld	-10.2765
▁bucaq	-10.2776
▁sahələr	-10.2779
▁ötürü	-10.278
▁qabiliyyəti	-10.2782
alaca	-10.2782
▁deyirsiniz	-10.2798
▁baxar	-10.2799
▁atamı	-10.2801
▁Aristoteli	-10.2804
▁çəki	-10.2805
▁ek	-10.2805
uz	-10.2812
▁tut	-10.2817
▁etik	-10.2824
▁edildiyin	-10.2828
▁usta	-10.2832
▁Qadınlar	-10.2837
▁qazanır	-10.2841
▁öyrəndiyimi	-10.2842
mamaq	-10.2843
ms	-10.2844
▁mu	-10.2845
▁genişləndir	-10.2848
ron	-10.2848
▁üsulu	-10.2851
▁düşdük	-10.2857
▁kimya	-10.2859
▁kainatımız	-10.2861
▁Tarixi	-10.2861
plar	-10.2862
▁çevirdi	-10.2863
▁kök	-10.2865
▁düyməsini	-10.2875
▁deməyi	-10.2894
▁həsr	-10.2896
▁sonrası	-10.2902
▁çəkin	-10.2914
▁əliniz	-10.2919
▁olduqların	-10.2921
▁vura	-10.2926
ləndirir	-10.2934
bl	-10.2938
▁yeməklər	-10.2939
▁Özünüz	-10.2948
▁Hekayələr	-10.2952
▁birləşdir	-10.296
▁Do	-10.2966
len	-10.297
▁edi	-10.2972
urdu	-10.2976
▁haqq	-10.2977
▁qoruya	-10.2979
▁əsaslana	-10.298
nətə	-10.2983
▁satıl	-10.299
▁2000	-10.2996
▁olursa	-10.3
▁alırdı	-10.3001
▁so	-10.3001
▁İnan	-10.3006
▁yetirmə	-10.3008
▁atmosferi	-10.301
▁tozları	-10.3022
▁dəstəklə	-10.3025
▁göstərəcə	-10.3027
▁ağaclar	-10.3028
▁itirir	-10.3029
▁dey	-10.304
▁yaxınlaşdı	-10.304
▁Səs	-10.3045
▁öyrənə	-10.3059
ranı	-10.3061
▁başlanğıcında	-10.3063
▁sür	-10.3063
▁yazırdı	-10.3065
▁yarat	-10.3078
▁yarışı	-10.3084
▁4-	-10.3085
▁demir	-10.3095
▁Roma	-10.3099
▁iq	-10.3099
▁maddələr	-10.3101
▁alim	-10.3102
▁mərkəzində	-10.3105
▁salsa	-10.3108
isal	-10.3142
▁kitabxanalar	-10.3154
▁kəndin	-10.3176
verici	-10.3178
▁çəkdiyimi	-10.3179
▁dura	-10.3189
▁şəkilini	-10.319
▁hini	-10.319
▁bağlan	-10.3202
▁Is	-10.3204
▁fleytanı	-10.3208
▁qapını	-10.3221
▁sağlam	-10.3225
▁gətirdiyi	-10.3226
▁ölümün	-10.3246
enler	-10.3254
▁uşağı	-10.3255
▁okeanda	-10.3263
▁əvvəlcə	-10.327
▁bizimlə	-10.328
▁oğlanlar	-10.3293
▁detalları	-10.3298
▁oxumağ	-10.3311
han	-10.3318
▁gəzir	-10.3321
acağ	-10.3324
ayət	-10.3342
sek	-10.3347
▁paltarlar	-10.3348
▁ulduzlarda	-10.3349
▁telefonları	-10.3353
▁ulduzun	-10.3359
▁ailəm	-10.3363
ləmək	-10.3364
▁rəqsi	-10.3369
▁gizlə	-10.3372
▁istilik	-10.3372
inməyən	-10.3374
▁yolunu	-10.3377
▁gətirmə	-10.338
masını	-10.3387
▁çarpma	-10.3395
the	-10.3408
▁ayaqqabı	-10.3413
▁dərslər	-10.3415
and	-10.3436
▁pi	-10.3438
▁Ondan	-10.3439
▁nüvəsi	-10.3439
▁varlığ	-10.3441
ft	-10.3447
▁Eynşteyni	-10.3447
üstə	-10.3456
▁təşkilatın	-10.3461
▁formada	-10.3472
▁nədən	-10.3476
▁paylaş	-10.349
▁verməyə	-10.35
▁kitabları	-10.3508
▁təsirini	-10.3509
▁140	-10.3511
dığımı	-10.3512
▁qaldı	-10.3522
▁kişilərin	-10.3523
▁görmədiyi	-10.3529
▁Amerikanı	-10.3535
▁şəxsə	-10.3539
▁İndiki	-10.3547
mıza	-10.3555
▁giri	-10.3558
▁Gör	-10.3572
▁verənlər	-10.3574
▁günlərdə	-10.3581
▁suda	-10.3587
▁gen	-10.3593
▁bölgələrdə	-10.3593
▁ailəsin	-10.3629
▁əsərini	-10.3631
▁göstəril	-10.3633
▁yolunda	-10.3636
▁xaric	-10.3641
mazdı	-10.3662
irdilər	-10.3663
▁yaşayırdı	-10.3668
▁not	-10.3679
▁boşluq	-10.368
▁genişlən	-10.3681
▁müəyyənləşdir	-10.3686
ıza	-10.3691
▁yanaşır	-10.3706
▁Min	-10.3708
▁yanın	-10.3711
▁evi	-10.3713
▁qalxı	-10.3725
▁söyl	-10.3732
▁şərt	-10.3739
▁tan	-10.3753
▁kitabı	-10.3754
▁salmağ	-10.3773
▁vermə	-10.3804
▁miqyasl	-10.3805
▁sənayesi	-10.3818
▁şəklini	-10.3818
▁düzəltmə	-10.3823
▁zi	-10.3826
▁atdı	-10.3832
▁analar	-10.3837
6-	-10.3844
▁qaynaq	-10.3845
▁siyahı	-10.3854
▁beyni	-10.3892
öl	-10.39
▁dairə	-10.3901
yat	-10.3906
▁heyvanları	-10.3928
ənətkar	-10.3929
yıb	-10.3931
▁Bi	-10.3931
▁həşəratları	-10.3939
▁getdiyini	-10.3947
iyor	-10.3966
luğun	-10.3971
▁kağızı	-10.3973
▁1.	-10.3977
▁temperaturu	-10.3984
▁yolları	-10.3985
▁sənəd	-10.3994
▁istər	-10.3996
▁işini	-10.401
▁bitir	-10.4011
▁əhəmiyyəti	-10.4012
▁gəlməsi	-10.4015
▁müəllimə	-10.4017
▁vermir	-10.4021
usk	-10.4034
▁Ki	-10.4043
biri	-10.4045
ünüz	-10.4062
▁deş	-10.4075
andırıcı	-10.4086
▁insanlığ	-10.4087
▁1000	-10.4087
▁çıxarıl	-10.4092
▁Qalaktikalar	-10.4094
▁Fleyta	-10.4102
▁mərasim	-10.4106
▁axtarış	-10.412
▁iqtisadiyyatın	-10.4121
▁konflikt	-10.4131
▁hissəsində	-10.4137
▁gəlsə	-10.4143
▁əsrin	-10.4147
▁baba	-10.4154
Ar	-10.4158
3-	-10.4168
▁işçilər	-10.4178
əcəyimiz	-10.4179
▁Ye	-10.418
▁İllər	-10.4191
▁oyna	-10.4197
andığınız	-10.4206
▁hökümətin	-10.4217
rədd	-10.4217
ker	-10.4234
▁rəqəmlər	-10.4243
▁ölkələrin	-10.4256
▁azında	-10.426
üt	-10.428
▁heyvanlar	-10.4293
▁xərçəng	-10.4305
raf	-10.4307
▁başlanğıcı	-10.4311
▁şəxslər	-10.4313
▁heyvan	-10.432
▁söyləyə	-10.4325
▁dəyişməyi	-10.4331
▁robotları	-10.4331
▁sağlamlı	-10.4331
▁Cəmiyyət	-10.4332
▁güvən	-10.4333
eri	-10.4339
▁Adam	-10.4341
▁olardım	-10.4342
▁tele	-10.4355
▁fəaliyyəti	-10.4358
▁ifaçılar	-10.4359
▁Pe	-10.4362
etik	-10.4368
▁kompyuter	-10.4375
▁bədən	-10.439
▁co	-10.4404
use	-10.441
▁Amerikalı	-10.441
▁xəstə	-10.4412
▁Wall	-10.442
▁dizayner	-10.4425
▁yollarda	-10.4425
▁materiallar	-10.4433
▁adlandır	-10.4443
▁pro	-10.4446
metri	-10.4455
▁riyaziyyatçı	-10.4456
▁fərqin	-10.4456
▁baha	-10.4462
▁po	-10.4464
▁daki	-10.4475
▁jurnalist	-10.448
olu	-10.4487
▁çiçəklə	-10.4487
▁vasitələr	-10.4519
ham	-10.4522
▁nəzəri	-10.4527
eti	-10.4527
ınca	-10.4531
▁sonların	-10.4539
▁gücləri	-10.4541
süz	-10.4548
▁evlərin	-10.4561
mışdır	-10.4562
▁gördüyü	-10.4566
▁haqqı	-10.4573
▁ölçə	-10.4575
▁olanın	-10.458
▁çəkilə	-10.4587
▁ne	-10.4593
▁detallar	-10.4596
yirəm	-10.4597
▁xüsus	-10.4597
yı	-10.4598
▁təsirlən	-10.4599
▁evlən	-10.461
▁azalma	-10.4625
▁yerləşdir	-10.4625
▁bölgüsü	-10.4629
▁bazarın	-10.4639
▁çevrili	-10.4641
▁Bax	-10.4655
▁oyunlar	-10.467
▁görmüş	-10.4674
əndə	-10.4677
▁Po	-10.4679
▁çıxa	-10.4679
▁qrafik	-10.4691
▁be	-10.4691
üzgü	-10.4697
yoruz	-10.47
▁pulu	-10.4711
▁diqqətini	-10.4714
▁məhbus	-10.4717
ger	-10.4729
imle	-10.473
▁Mer	-10.4733
▁yaratma	-10.4735
düm	-10.4737
▁sənədl	-10.4737
▁filmlər	-10.4741
▁gördükləri	-10.4744
mamız	-10.4761
▁oturan	-10.4763
▁debat	-10.4767
▁Qadın	-10.4768
▁bənzə	-10.4774
▁dedikləri	-10.4775
▁xoşlayır	-10.4781
yız	-10.4813
sey	-10.4815
▁səviyyəsin	-10.4816
mirdi	-10.4818
ülü	-10.4822
▁faiz	-10.4824
ısı	-10.4825
▁memar	-10.4828
üzə	-10.4837
▁ərazilər	-10.4844
edici	-10.4848
▁dayandır	-10.4852
▁sübut	-10.4866
▁romanı	-10.4878
▁ortada	-10.4879
▁çəkər	-10.4883
▁dinlə	-10.4885
▁prinsip	-10.4889
lti	-10.4895
▁filmin	-10.4903
string	-10.4908
mümkündür	-10.4911
F	-10.4914
fet	-10.4915
təbi	-10.4917
▁böyüklüyü	-10.4922
orta	-10.4924
müəyyən	-10.4927
luğu	-10.4932
▁parçaları	-10.4934
▁maddələri	-10.4939
▁elmlə	-10.4953
▁hissini	-10.4962
rol	-10.4965
▁naxışlar	-10.4973
gens	-10.4975
▁büdcə	-10.4977
▁ölü	-10.4978
▁sahibi	-10.4978
▁pey	-10.498
▁mövzusu	-10.4981
lak	-10.4983
▁tutul	-10.4986
▁uşaqlarını	-10.4987
xmay	-10.4989
att	-10.4993
▁Sab	-10.4998
▁edəcəyini	-10.5002
▁daşıdığı	-10.5004
▁300	-10.5015
▁qazandı	-10.5018
▁kimliyi	-10.5021
▁itirdi	-10.5022
vatar	-10.5028
▁kino	-10.5029
▁mahnılar	-10.5029
mağımız	-10.5031
▁mərkəzin	-10.5034
▁yarandı	-10.5035
▁göndərdi	-10.5036
uyru	-10.5037
▁azaldı	-10.5041
▁dağıdı	-10.5043
▁açma	-10.5056
▁hissələr	-10.5057
▁Cüm	-10.5059
larımı	-10.5061
lıqla	-10.5066
▁texnologiyaları	-10.5067
qal	-10.5067
▁qazandır	-10.5068
əhray	-10.5071
▁Ch	-10.5072
▁standart	-10.5072
▁olmu	-10.5075
▁ətrafda	-10.5076
▁evlilik	-10.5076
▁təpədə	-10.5077
ologiya	-10.5078
üasir	-10.5079
▁Kepl	-10.5079
▁oturdu	-10.5079
▁qütb	-10.508
exnologiya	-10.5081
▁Alman	-10.5082
▁keyfiyyətl	-10.5082
▁köç	-10.5083
▁rəğ	-10.5083
▁gənişləmə	-10.5083
əssüm	-10.5083
▁Avstraliya	-10.5083
▁Başlanğıc	-10.5083
▁Dickens	-10.5083
▁Fransisko	-10.5083
▁Kendal	-10.5083
▁Konqres	-10.5083
▁Məhəmməd	-10.5083
▁Məqsəd	-10.5083
▁Sierra	-10.5083
▁Street	-10.5083
▁Təbiət	-10.5083
▁Təyyarə	-10.5083
▁Venera	-10.5083
▁Vyetnam	-10.5083
▁Xüsus	-10.5083
▁alışqanlıq	-10.5083
▁cəld	-10.5083
▁hobbi	-10.5083
▁immiqra	-10.5083
▁ismarıc	-10.5083
▁ləzzət	-10.5083
▁qabaq	-10.5083
▁qaytar	-10.5083
▁smartfonlar	-10.5083
▁süpür	-10.5083
▁uğra	-10.5083
▁çuxur	-10.5083
▁Şəxs	-10.5083
▁şərəf	-10.5083
▁əsrarəngiz	-10.5083
▁Dövlət	-10.5083
▁Kompüter	-10.5083
▁Palme	-10.5083
▁Sakit	-10.5083
▁doğulmuş	-10.5083
▁ideal	-10.5083
▁istedad	-10.5083
▁lüğət	-10.5083
▁meditasiya	-10.5083
▁mono	-10.5083
▁müsbət	-10.5083
▁məhşur	-10.5083
▁nəqliyyat	-10.5083
▁oksigen	-10.5083
▁peyğəmbər	-10.5083
▁xarakter	-10.5083
▁çaşdırıcı	-10.5083
▁əziyyət	-10.5083
▁fikirləşməyin	-10.5083
▁səslənir	-10.5083
▁yapışqan	-10.5083
▁döndərə	-10.5083
▁qürur	-10.5083
▁tayf	-10.5083
▁çatlaqlar	-10.5083
▁sakit	-10.5083
▁tikinti	-10.5083
▁eşq	-10.5083
▁mayalanma	-10.5083
▁partlama	-10.5083
▁redakt	-10.5083
▁sevinc	-10.5083
▁vurğula	-10.5083
▁spir	-10.5083
▁Məhsul	-10.5083
▁heykəl	-10.5083
▁məşq	-10.5083
▁inanmır	-10.5083
▁reaksiya	-10.5083
▁metan	-10.5083
▁yıx	-10.5083
▁mümkünlüyün	-10.5083
▁qoca	-10.5083
▁Oldu	-10.5083
▁Sufi	-10.5083
▁Kosm	-10.5083
▁Salam	-10.5083
▁Sto	-10.5083
▁bələdçi	-10.5083
▁səmimi	-10.5083
▁şüşə	-10.5083
▁namizəd	-10.5083
▁elçi	-10.5083
▁Elektron	-10.5083
▁Darvin	-10.5083
▁Paris	-10.5083
▁Facebook	-10.5083
rüf	-10.5083
▁Təhsil	-10.5083
▁pilot	-10.5083
▁Tez	-10.5083
▁antropologiya	-10.5083
▁Arzu	-10.5083
▁Haring	-10.5083
▁heyranedici	-10.5083
▁hazırlayır	-10.5083
▁təşəbbüs	-10.5083
▁Gülmə	-10.5083
▁romantik	-10.5083
▁Steve	-10.5084
▁Əvəzi	-10.5084
▁1908	-10.5084
▁əlamət	-10.5084
▁taleyi	-10.5084
▁təsdiq	-10.5084
▁zənc	-10.5084
▁gələcəyə	-10.5084
▁keyfiyyətləri	-10.5084
▁yaşayış	-10.5084
▁maqnit	-10.5084
▁sabah	-10.5084
▁Leon	-10.5084
▁uydurma	-10.5084
mobil	-10.5084
▁öyrənilməsi	-10.5084
▁qadir	-10.5084
▁Peter	-10.5084
▁tutmuş	-10.5084
▁qidalanır	-10.5084
▁qələm	-10.5084
▁Hollivud	-10.5084
urizm	-10.5084
port	-10.5084
▁Özümüzü	-10.5084
▁tabe	-10.5084
proqramlaşdırıla	-10.5084
▁yüksəl	-10.5085
▁qaradərili	-10.5085
▁sərbəst	-10.5085
▁sentyabr	-10.5085
▁cazibədar	-10.5085
▁balina	-10.5085
▁tənb	-10.5085
▁tibb	-10.5085
▁görüb	-10.5085
▁günahkar	-10.5085
▁mümkünsüz	-10.5085
▁qaldırmaq	-10.5085
▁keçməli	-10.5086
▁aramızda	-10.5086
aluza	-10.5086
▁fəsil	-10.5086
▁Görünü	-10.5086
▁reallığı	-10.5086
▁toplayır	-10.5086
▁tapdığım	-10.5086
aliyyə	-10.5086
▁təşkilatlar	-10.5086
▁səmərəli	-10.5086
▁dördüncü	-10.5086
▁adlandırdığımız	-10.5087
▁öhdəsind	-10.5087
▁Qara	-10.5087
▁yaratmış	-10.5087
yararlı	-10.5087
▁şiş	-10.5087
▁oxuduğum	-10.5088
▁100.000	-10.5088
▁yum	-10.5089
off	-10.5089
▁boru	-10.509
▁qalıqları	-10.509
▁torpaq	-10.509
iki	-10.509
▁məsləhətim	-10.509
cəbr	-10.509
▁ağlım	-10.509
▁sürücü	-10.5091
▁vurmaq	-10.5091
▁vaq	-10.5091
▁haqlı	-10.5091
▁Qısaca	-10.5091
▁gülür	-10.5091
▁quldur	-10.5091
▁yağır	-10.5092
▁TV	-10.5092
▁hündürlükdə	-10.5092
▁Axır	-10.5092
▁ərazidə	-10.5092
▁rəhmli	-10.5093
▁arxasında	-10.5093
▁bilsin	-10.5093
▁2005	-10.5093
▁çiz	-10.5093
▁sis	-10.5093
▁etdirdik	-10.5094
▁baxdığınız	-10.5094
▁Erik	-10.5094
▁müdrikliyi	-10.5094
▁qib	-10.5095
▁Öyrəndi	-10.5095
▁ağırlıq	-10.5096
▁işlətdi	-10.5096
▁gülün	-10.5096
iyalı	-10.5096
cazə	-10.5096
▁pulun	-10.5097
▁gəzi	-10.5097
ğına	-10.5097
▁Əllərini	-10.5098
▁dəyişəcəyi	-10.5098
▁Had	-10.5099
əruz	-10.5099
▁yataq	-10.51
▁Nigeriyalı	-10.51
▁yazılıb	-10.51
▁əyləşən	-10.51
▁Təsadüfi	-10.5101
▁uçmaq	-10.5101
▁Red	-10.5101
▁başlamışam	-10.5103
ifi	-10.5103
▁şair	-10.5103
▁göründüyü	-10.5103
▁tamamladı	-10.5103
▁9.	-10.5104
▁aralarında	-10.5104
▁virus	-10.5105
▁Oba	-10.5106
düyüm	-10.5107
▁faydalı	-10.5108
başın	-10.5109
▁formalaşması	-10.5109
boy	-10.511
▁ərin	-10.511
▁görünüşünü	-10.5111
▁günah	-10.5111
▁Yara	-10.5112
ənab	-10.5112
▁notları	-10.5112
▁öldür	-10.5112
▁sektor	-10.5113
▁aktiv	-10.5113
▁sifət	-10.5113
alıcı	-10.5114
▁seçmək	-10.5114
▁izləmə	-10.5114
▁yaratmağın	-10.5115
▁Gecə	-10.5116
▁Ste	-10.5116
▁Fərqli	-10.5116
▁təhlükəli	-10.5117
▁itirdiyimiz	-10.5117
▁Yadım	-10.5118
▁park	-10.5118
▁and	-10.5119
▁oğlum	-10.5119
▁düşünmür	-10.5119
▁edildikdə	-10.512
▁Səh	-10.5121
▁böyüklük	-10.5122
▁Plan	-10.5122
uca	-10.5122
▁axırın	-10.5122
▁Bibliyada	-10.5123
▁mənfi	-10.5123
▁anladıq	-10.5123
▁beyninizdə	-10.5124
▁hesablay	-10.5124
▁yaradıcısı	-10.5125
▁getməyi	-10.5126
▁çaylar	-10.5126
▁Ant	-10.5127
▁Dostlar	-10.5129
▁ölçək	-10.513
▁ic	-10.513
▁dövrünü	-10.5132
▁sarsı	-10.5133
▁getdiyimiz	-10.5133
övq	-10.5137
▁götürdü	-10.5138
▁qorunma	-10.5139
▁qatil	-10.5139
▁Deyil	-10.514
▁mexanizm	-10.514
▁Dil	-10.5141
▁Həyatımı	-10.5141
▁Qo	-10.5142
▁dağıntıları	-10.5147
▁gözünüz	-10.5147
pat	-10.5147
▁pian	-10.5149
▁keçirmək	-10.515
ital	-10.515
▁çıxdığım	-10.5151
▁çölü	-10.5153
▁çoxalırlar	-10.5154
▁canlandırma	-10.5156
▁hayat	-10.5156
▁yayılmış	-10.5156
▁ətrafı	-10.5156
▁salırdı	-10.5156
▁opti	-10.5157
▁istəyi	-10.5158
▁tapdıq	-10.5158
yrı	-10.5158
▁istəməz	-10.5162
▁qəhramanları	-10.5162
▁təhsili	-10.5164
rdım	-10.5165
▁hesablamaq	-10.5168
▁vardır	-10.5171
karlar	-10.5171
bad	-10.5171
▁ez	-10.5172
▁soyu	-10.5172
▁1960	-10.5176
▁nitqim	-10.5176
led	-10.5176
▁bilinir	-10.5178
▁artırmaq	-10.5184
▁faydalan	-10.5184
▁maşının	-10.5186
▁bina	-10.5186
▁Olan	-10.5186
▁şirkəti	-10.5187
mos	-10.5187
▁sıxlaş	-10.519
▁varlığını	-10.519
▁naxış	-10.5194
▁çəkməy	-10.5196
▁Xəbərlər	-10.5197
yur	-10.5197
▁nümunələr	-10.5197
▁texnikalar	-10.5197
▁məlum	-10.5197
▁dəstəkləyə	-10.5197
▁edilmişdir	-10.5197
▁Laqosda	-10.52
▁məşğuldur	-10.5202
▁biraz	-10.5203
▁şlyapanı	-10.5204
▁yerləşdirir	-10.5204
▁Ara	-10.5205
lluq	-10.5209
▁nömrəsi	-10.521
▁çıxışım	-10.5218
▁sabit	-10.5221
▁oyan	-10.5223
▁axtarmaq	-10.523
ters	-10.5231
▁yersiz	-10.5232
▁anladı	-10.5233
▁çətinliklər	-10.5236
▁düşmə	-10.5239
ığın	-10.524
▁ünvan	-10.5241
ləşdirir	-10.5242
▁Hara	-10.5242
▁xüsusiyyətlər	-10.5244
▁dərinliklərin	-10.5245
ges	-10.5245
ürük	-10.525
▁işıqlandır	-10.5252
▁açılı	-10.5254
narın	-10.5257
-2	-10.5259
▁fikirləri	-10.5259
▁böyüklüyündə	-10.5259
▁planlaşdır	-10.5262
▁Qey	-10.5263
▁fərqində	-10.5266
sün	-10.5274
▁Mah	-10.5283
▁suallardan	-10.5284
▁filterlər	-10.5289
▁çevirir	-10.529
pan	-10.5294
▁dolaş	-10.5296
▁uzaqlıq	-10.5299
taq	-10.53
▁edilmir	-10.5303
▁sübutu	-10.5304
rsız	-10.5308
▁bəd	-10.5311
▁tapıla	-10.5316
▁100-	-10.5318
elin	-10.532
58	-10.5322
▁gir	-10.5323
▁kom	-10.5331
▁pan	-10.5331
▁bölgəsi	-10.5332
▁enən	-10.5336
▁formasında	-10.5337
▁Per	-10.534
mail	-10.5345
▁dillərdə	-10.5347
▁kor	-10.535
mirəm	-10.5354
▁verdiyim	-10.5357
eşi	-10.5359
ock	-10.536
▁dolandır	-10.5361
▁yaxınlaşdır	-10.5362
▁işlədi	-10.5362
▁itkisi	-10.5364
▁Sir	-10.5364
▁olmamış	-10.5369
▁güm	-10.5371
AR	-10.5371
▁mövzunu	-10.5371
▁düşünsə	-10.5374
▁Deyi	-10.5375
▁filmdə	-10.5381
▁daşınma	-10.5382
thin	-10.5382
▁ət	-10.5382
▁deyilmiş	-10.5383
▁fikirlə	-10.539
▁aparırdı	-10.5393
▁buludların	-10.5393
▁çatdı	-10.5397
əsih	-10.5397
abba	-10.5397
▁dənəsi	-10.5399
elli	-10.54
avaş	-10.5402
▁çıxmağ	-10.541
▁toxunu	-10.542
erik	-10.5421
liyim	-10.5421
▁uy	-10.5424
▁fi	-10.5428
onun	-10.5434
▁keçməsi	-10.5441
▁şam	-10.5442
▁çağır	-10.5447
▁yazıları	-10.545
▁İq	-10.5456
▁tərif	-10.5458
▁sehr	-10.5464
məmiş	-10.5466
çıları	-10.5478
▁biznesi	-10.5479
▁ümidsiz	-10.5479
▁yaxınlaşan	-10.5479
▁sayıla	-10.5485
topu	-10.5485
▁etdiklərini	-10.5486
▁başqaları	-10.5489
▁əksəriyyəti	-10.5501
▁məqsədim	-10.5503
▁görməmişdi	-10.5506
▁indiyə	-10.5507
▁nəslin	-10.5512
nes	-10.5515
▁oturu	-10.5519
▁Pa	-10.5523
▁yeyir	-10.5525
▁saya	-10.5525
▁Atası	-10.5533
▁qadına	-10.5534
▁za	-10.5535
▁düşmən	-10.5535
▁gətirəcək	-10.5536
▁kəndlərin	-10.5538
▁Şəkli	-10.5549
26	-10.5549
▁ağla	-10.5552
ılır	-10.5553
▁ölümləri	-10.556
▁Cey	-10.5568
▁səy	-10.557
▁özlərin	-10.5574
▁anlamır	-10.5574
▁artımı	-10.5584
▁qanunların	-10.5589
▁akse	-10.5594
phe	-10.56
▁ixtiraçı	-10.5629
▁personajlar	-10.5634
▁gü	-10.5635
şaf	-10.5636
tən	-10.5637
ızdır	-10.5646
▁molekullar	-10.5647
tura	-10.5659
▁səsimi	-10.5666
tir	-10.5671
▁alman	-10.5673
▁oteldə	-10.5673
▁məc	-10.5677
▁təsirlərini	-10.5678
▁bədənin	-10.5679
▁20-	-10.5684
▁əsrlər	-10.5685
▁şəhərində	-10.5689
şün	-10.5691
çox	-10.5694
▁kaf	-10.5703
▁yazan	-10.5707
▁həyatında	-10.5709
▁əllərində	-10.5719
▁mənbə	-10.5721
▁xəstələr	-10.5723
▁düzəldir	-10.5725
▁həmişəki	-10.5725
▁öyrənən	-10.573
məyiniz	-10.5735
▁önəmi	-10.5737
▁araşdırmaların	-10.5739
▁olmamaq	-10.576
▁gönd	-10.5773
▁sualım	-10.5778
▁keçirmə	-10.5779
▁3-	-10.5785
▁kolleclər	-10.5787
▁dillərində	-10.5793
tır	-10.5798
▁işlədiyin	-10.5801
iyoruz	-10.5803
▁Wal	-10.5808
▁keçirilə	-10.5811
▁baxdıq	-10.5831
▁etmələri	-10.5838
▁xəritələşdir	-10.5839
izm	-10.5842
ızın	-10.5843
▁adında	-10.5847
▁Mil	-10.5849
▁im	-10.5856
▁verərdi	-10.5858
Bu	-10.586
abil	-10.5863
▁bişir	-10.5864
▁görüşü	-10.5865
▁danışacağı	-10.5869
▁görməyi	-10.5871
▁Əmi	-10.5877
▁divarlar	-10.5881
▁Kollecin	-10.5885
▁Amerikalılar	-10.5887
▁teleskoplar	-10.5891
arılar	-10.5893
lıqlar	-10.5894
ğini	-10.591
mıyor	-10.5911
▁əyil	-10.5914
▁daxili	-10.5921
▁Həd	-10.5923
▁hekayəsini	-10.5928
▁Onda	-10.5929
▁dəyişdiyini	-10.5933
▁söyləy	-10.5936
▁dəyişməsin	-10.5938
▁dəf	-10.5949
▁Ronal	-10.5956
▁dəyərin	-10.5976
▁müxtəliflik	-10.5981
▁Lon	-10.5994
ansız	-10.5995
▁zamanla	-10.5995
▁sürə	-10.5996
▁birliyi	-10.6
▁tapma	-10.6004
▁toxu	-10.6006
▁həyatınızda	-10.6006
▁fikirlərimiz	-10.6012
▁qüvvələrin	-10.6014
▁eti	-10.6016
▁düyməsi	-10.6028
▁şərtlər	-10.603
▁əsasını	-10.6049
▁lin	-10.6049
▁qadınları	-10.6053
▁aparır	-10.6057
indeki	-10.6061
▁robotu	-10.6061
▁çəkdi	-10.6067
▁elmləri	-10.6072
▁qorxusu	-10.61
▁faktlar	-10.6102
▁vəziyyətini	-10.6104
▁eşidilmə	-10.6108
babaları	-10.611
tal	-10.612
▁dizaynı	-10.6122
▁Soyu	-10.6126
▁şəhərlər	-10.6135
▁hüquqlarını	-10.6139
layan	-10.6145
▁yumurtalar	-10.615
▁layihəsi	-10.6154
▁Marsa	-10.6158
▁qanunu	-10.6164
▁uçdu	-10.6164
dığında	-10.6166
▁edəcə	-10.6172
▁keçər	-10.6185
▁fotoşəkilləri	-10.6186
▁neçəsi	-10.6186
▁qaldıq	-10.6195
▁Həyatda	-10.6195
▁effekti	-10.6197
▁mərhələdə	-10.6204
▁qırıl	-10.6213
▁se	-10.6217
▁təhsilin	-10.6225
▁hərəkatlar	-10.6233
ilyon	-10.6233
▁dəyişikliyin	-10.6238
▁genişlənməsi	-10.6238
▁tədqiqatı	-10.6251
mum	-10.6258
▁filmləri	-10.6266
▁şagirdləri	-10.6267
▁tr	-10.6269
▁qaldığını	-10.6275
laşdıra	-10.6279
▁aşağıda	-10.6294
▁qəza	-10.6302
ağıl	-10.6303
1	-10.6316
▁he	-10.6322
▁olmağını	-10.6336
▁yerimiz	-10.634
▁vəzifəsi	-10.6342
▁çatma	-10.6353
▁olaca	-10.6363
▁adını	-10.6364
▁məsələlər	-10.6364
▁vaxtında	-10.6366
asmaq	-10.6369
▁aparaca	-10.6373
▁liderlər	-10.6379
▁quyru	-10.6383
▁dayandığı	-10.6399
ig	-10.6402
ılmış	-10.6402
▁danışdığım	-10.6406
▁effekt	-10.6407
▁sayə	-10.642
▁xəbərlər	-10.6421
▁mis	-10.6427
acağım	-10.6432
▁tük	-10.6443
▁qoyun	-10.6444
▁qalx	-10.6463
lmayıb	-10.6464
irdi	-10.6471
rəy	-10.6472
▁olunmasın	-10.6492
▁oğlu	-10.6493
▁fr	-10.6498
▁cəsarəti	-10.6502
▁ixtiralar	-10.6503
▁London	-10.6508
▁Yaş	-10.6512
▁sil	-10.6516
uzun	-10.6518
▁dostların	-10.6536
land	-10.654
lerimiz	-10.6543
▁müşahidələr	-10.6543
▁ölkəni	-10.6556
ont	-10.657
▁Vo	-10.6578
buk	-10.6592
▁Nigeriyanı	-10.6596
minin	-10.6597
▁işçiləri	-10.6606
▁məhsulların	-10.661
▁kəşfləri	-10.6614
▁bölgələr	-10.662
ris	-10.6621
▁qızın	-10.6626
▁başım	-10.6645
▁öküz	-10.6651
aqlı	-10.6657
▁xəritəsi	-10.6663
▁anlay	-10.6665
▁olmağım	-10.667
▁bilmirsə	-10.6681
▁gözləri	-10.6686
▁danışmağı	-10.6688
▁yanım	-10.6691
▁fotoşəkildə	-10.671
▁musiqiçi	-10.6711
▁boşluqlar	-10.6716
▁internetdə	-10.6718
ızla	-10.6724
▁zirvə	-10.6735
▁şüa	-10.6735
▁Gökada	-10.6738
▁tapşırıq	-10.6741
▁ölçmə	-10.6748
▁inanma	-10.6754
▁künc	-10.6765
▁formalar	-10.6776
ev	-10.6782
out	-10.6787
▁İsveçrə	-10.6792
▁öyrənməyi	-10.6806
▁bomba	-10.6832
▁yağa	-10.6834
▁yaratmalı	-10.6839
▁Con	-10.6842
nimc	-10.6843
▁verməy	-10.6844
çılar	-10.6848
landığı	-10.6859
mayacağı	-10.6881
▁ayağ	-10.6897
▁yaşamağ	-10.691
▁şeylə	-10.6911
▁cəmiyyətin	-10.6913
fat	-10.6918
nən	-10.693
▁məhsullarında	-10.694
▁qəti	-10.6942
▁göster	-10.6943
▁Maşın	-10.6947
▁verər	-10.6959
▁dönər	-10.6961
▁cihazların	-10.6981
alları	-10.699
▁14	-10.7004
▁Sizi	-10.7004
yonlar	-10.7006
▁dəyişməli	-10.7016
ativ	-10.7016
ələk	-10.7023
▁təşkilatı	-10.7023
▁texnologiyalar	-10.7043
▁toxunma	-10.7043
▁götürən	-10.7049
▁öldürül	-10.7054
▁çıxardı	-10.7056
▁aylar	-10.7063
▁dəyişdirmə	-10.7072
▁mühitdə	-10.7077
▁qaranlığı	-10.7086
▁planları	-10.709
madığını	-10.7105
▁istifadəçilər	-10.7107
▁ölkələri	-10.7109
ondu	-10.711
▁dərinlik	-10.7112
▁çıxanda	-10.7112
▁buraxma	-10.7113
▁bitkini	-10.7117
çısı	-10.7126
▁Yuxarıda	-10.7131
▁birləşdirə	-10.7132
▁deyəcək	-10.7137
▁səsin	-10.7142
▁eşidil	-10.7144
▁ruha	-10.7156
▁Avropada	-10.7157
▁York	-10.716
▁tapır	-10.7176
▁uşaqlıq	-10.7185
▁ikisini	-10.7188
▁dalğaların	-10.7191
▁getdiyi	-10.7194
▁şüaları	-10.7198
Mart	-10.7203
▁problemlərin	-10.721
▁Bill	-10.7218
▁paltar	-10.7219
ce	-10.7237
ver	-10.7243
▁verdikdə	-10.725
▁dövrlərin	-10.725
▁tax	-10.7261
▁gətirməy	-10.727
tiş	-10.7271
▁dalğa	-10.7272
▁bitdi	-10.7273
▁səviyyəsi	-10.7279
▁qarışdır	-10.7302
çe	-10.7302
▁həbsdə	-10.7302
▁paylaşmağ	-10.7303
▁təpə	-10.732
llik	-10.7327
▁göstəriciləri	-10.7336
▁anlamı	-10.7339
ekt	-10.734
▁qüvvələri	-10.7352
▁istiqamətl	-10.7358
▁uz	-10.7358
▁Söz	-10.7363
ağım	-10.7365
▁altın	-10.7368
▁dəlili	-10.7372
▁növlərin	-10.7375
▁qoydu	-10.7378
▁anlam	-10.7378
ans	-10.7385
▁təcrübəm	-10.7402
▁üzü	-10.7414
▁65	-10.7415
▁170	-10.7416
▁mətn	-10.7417
inki	-10.7421
▁Etdiyim	-10.7431
▁otel	-10.7448
▁lideri	-10.7456
▁imtahan	-10.746
▁çıxış	-10.7467
məyib	-10.7467
▁çatdır	-10.7469
▁reallaşdıra	-10.7472
▁məktəbin	-10.7476
▁alimi	-10.7477
▁yanımız	-10.7484
▁olmasında	-10.7486
▁strukturlar	-10.7501
▁sürü	-10.7503
▁etməlidir	-10.7511
▁kollec	-10.7512
▁nəzərə	-10.7519
▁yoldaş	-10.7522
▁təzyiq	-10.7522
▁dağ	-10.7527
rimin	-10.7531
▁səsini	-10.7535
rc	-10.7537
udur	-10.7557
mürdü	-10.7562
▁qurula	-10.7574
▁oğul	-10.7579
▁oyunca	-10.7591
▁görsə	-10.7592
▁alətin	-10.7594
▁önəm	-10.7626
▁işlədiyi	-10.7631
▁müharibəsi	-10.7637
▁alqışla	-10.764
▁şəbəkə	-10.7646
▁keçid	-10.7648
▁sevdiyi	-10.765
▁yönəl	-10.7651
▁özəl	-10.7658
▁olmağımız	-10.7672
▁əli	-10.7672
▁alına	-10.7676
▁çağırır	-10.7684
▁təyyarələr	-10.769
▁Kitablar	-10.7691
▁əşya	-10.7706
metr	-10.7711
rcan	-10.7713
▁ruhun	-10.7718
▁Hamını	-10.772
▁çəkmiş	-10.7727
▁aldığını	-10.773
▁başladığı	-10.7735
▁peykin	-10.7748
▁yetir	-10.7748
▁har	-10.775
▁fər	-10.7755
zamanın	-10.7775
▁xəstəliyi	-10.7779
▁den	-10.7785
▁gələcəyin	-10.7791
▁Şəkil	-10.78
▁inkişafı	-10.7808
▁xərc	-10.7824
▁islahat	-10.7825
▁haq	-10.784
▁qurma	-10.784
▁hissədə	-10.7842
eyh	-10.7843
▁Agentliyi	-10.7849
əfil	-10.7853
▁kva	-10.7857
R	-10.7859
bilirsiniz	-10.7861
▁modeli	-10.7868
▁Avropanı	-10.787
▁demə	-10.7874
▁keçirmiş	-10.7885
gis	-10.7888
▁oturma	-10.789
▁Glob	-10.7892
usu	-10.7904
▁qurumlar	-10.7907
▁Ban	-10.7929
şan	-10.7933
rami	-10.7934
▁sənaye	-10.7938
▁bük	-10.7939
ord	-10.7942
▁çevir	-10.795
▁maddəsi	-10.7953
laşdır	-10.7961
▁yazar	-10.7964
ləş	-10.7965
▁qeydlər	-10.7968
▁seçki	-10.7968
ren	-10.7975
▁Beyn	-10.7994
▁cəmiyyəti	-10.7996
▁nöqtəsi	-10.7996
▁basmağ	-10.7998
paz	-10.7999
▁hüquq	-10.8001
▁kur	-10.8018
dırıcı	-10.8019
▁çıxaran	-10.8022
▁nisbəti	-10.8022
▁sistemləri	-10.8025
▁önün	-10.8029
▁seçə	-10.8032
▁səthini	-10.8034
▁tül	-10.8037
▁etməmiş	-10.804
yaranan	-10.8052
▁xəstəliy	-10.8056
9	-10.8057
▁çağ	-10.8068
cısı	-10.8068
düyü	-10.807
ranlıq	-10.8075
▁Göz	-10.8085
▁Digəri	-10.8086
lanmaq	-10.8087
▁sistemin	-10.8088
xas	-10.8091
▁təbiəti	-10.8101
▁kədər	-10.8104
▁içəridə	-10.8105
▁düşündüyü	-10.8105
bit	-10.8105
▁ifaçı	-10.8105
mist	-10.812
▁kökü	-10.8123
irsən	-10.8124
▁iplik	-10.8124
▁sürfə	-10.8126
▁oxuma	-10.8132
▁maşınların	-10.8137
▁par	-10.8143
▁sirl	-10.8146
▁qarşılaşdı	-10.8153
▁şifrələ	-10.818
▁birimiz	-10.8181
▁düşərgə	-10.8183
its	-10.8183
ünüzü	-10.8192
ird	-10.8193
▁qayıt	-10.8195
50.000	-10.8196
▁ünvanla	-10.82
▁kitabım	-10.8202
▁böyüdü	-10.8204
▁şad	-10.8206
▁çatışm	-10.8207
yirsən	-10.8207
▁işində	-10.821
▁kimlər	-10.8213
▁işçi	-10.8214
▁sürdü	-10.8214
▁zənglər	-10.822
▁velosiped	-10.8224
York	-10.8224
▁çağı	-10.8225
məlum	-10.8228
mo	-10.823
▁ışı	-10.8236
sabit	-10.8236
olunma	-10.8237
▁tərəfləri	-10.8244
▁köməy	-10.8247
▁Angel	-10.8248
qərar	-10.8249
lmaz	-10.8253
▁edəcəyim	-10.8253
dırmaq	-10.826
▁səh	-10.8271
arası	-10.8271
▁qalmalı	-10.8276
ravi	-10.8279
▁Fizik	-10.8282
malarını	-10.8285
▁duman	-10.8286
▁Oğl	-10.8287
▁nitq	-10.8288
▁göndəri	-10.8292
▁səsim	-10.8294
▁bəşər	-10.8296
▁Şərq	-10.8301
of	-10.8303
▁Orta	-10.8304
▁daşı	-10.8311
▁gedirdi	-10.8311
▁konu	-10.8312
pp	-10.8313
▁izləyi	-10.8317
▁düymələri	-10.8317
▁part	-10.8319
▁etdiyimizdə	-10.8321
ebilir	-10.8327
▁cins	-10.833
▁gəlmi	-10.8334
▁gözünü	-10.8337
sidi	-10.8341
▁cəm	-10.8342
▁araşdırdı	-10.8342
lg	-10.8344
▁190	-10.8348
go	-10.8348
▁göl	-10.8349
ret	-10.8357
▁texn	-10.8357
▁qəlb	-10.8357
▁izlər	-10.8358
▁vasitəsini	-10.8359
▁güzgü	-10.836
▁elektromaqn	-10.8361
▁qap	-10.8361
▁vi	-10.8362
▁Uzaq	-10.8362
▁Öl	-10.8362
▁daşın	-10.8363
▁öyrətdi	-10.8369
▁termin	-10.8372
▁qər	-10.8378
▁saxlayı	-10.8379
▁tezliklə	-10.838
▁qığılcım	-10.8381
▁oxş	-10.8381
hone	-10.8382
▁siyahısın	-10.8384
▁tərəfdar	-10.8385
▁beyniniz	-10.8389
▁uzaqlaşdı	-10.8389
düyünü	-10.8391
▁Mövcud	-10.8391
mmer	-10.8393
▁toqquş	-10.8393
▁insanlı	-10.8395
zərində	-10.8395
müddətli	-10.8397
▁çe	-10.8397
▁məzmu	-10.8399
▁sülh	-10.8399
▁gördüyünü	-10.8399
▁zorl	-10.8399
▁Öyrə	-10.8399
▁alça	-10.84
üyü	-10.84
▁təlim	-10.8401
▁Doğru	-10.8403
▁düşmüş	-10.8403
▁şəf	-10.8405
lüyü	-10.8406
▁bölüş	-10.8407
▁pillə	-10.8408
ntı	-10.8408
amaz	-10.841
▁buraxdı	-10.841
▁üfür	-10.8411
əyir	-10.8411
öcüzə	-10.8412
▁quyu	-10.8413
▁psix	-10.8414
üclü	-10.8414
▁qardaş	-10.8414
arahat	-10.8415
▁Ancel	-10.8415
▁mütə	-10.8415
acılarım	-10.8415
▁mülk	-10.8415
▁İqtisadi	-10.8415
bənövşəyi	-10.8416
▁ultra	-10.8416
iyaziyyat	-10.8416
▁uğursuz	-10.8416
▁Mükafat	-10.8416
▁agentlikləri	-10.8416
▁bütöv	-10.8416
▁ixtisas	-10.8416
▁mikro	-10.8416
pərəstişkarı	-10.8416
uşdurucu	-10.8416
▁Araşdırma	-10.8416
▁Avtomobil	-10.8416
▁BMT	-10.8416
▁Cazibə	-10.8416
▁Challenge	-10.8416
▁Dizayn	-10.8416
▁Flober	-10.8416
▁Gözəgörünməz	-10.8416
▁Jack	-10.8416
▁Kaliforniya	-10.8416
▁Qarşı	-10.8416
▁Qiymət	-10.8416
▁Robert	-10.8416
▁Scalia	-10.8416
▁Statisti	-10.8416
▁Sürfə	-10.8416
▁Uqanda	-10.8416
▁Xoşbəxt	-10.8416
▁Xristian	-10.8416
▁YouTube	-10.8416
▁antropoloq	-10.8416
▁avadanlığı	-10.8416
▁ağlasığmaz	-10.8416
▁brauzer	-10.8416
▁bıçaq	-10.8416
▁danaayağı	-10.8416
▁doğuşdan	-10.8416
▁düzəltmişdi	-10.8416
▁eject	-10.8416
▁elastik	-10.8416
▁fotoqraf	-10.8416
▁fəlsəfə	-10.8416
▁görülməmiş	-10.8416
▁hesaplayabil	-10.8416
▁homoseksuall	-10.8416
▁ictimaiyyət	-10.8416
▁interfeys	-10.8416
▁isveç	-10.8416
▁kampaniya	-10.8416
▁kariyeram	-10.8416
▁karyera	-10.8416
▁kolibri	-10.8416
▁kolleksiyası	-10.8416
▁kontaminasiya	-10.8416
▁körpə	-10.8416
▁meksikalı	-10.8416
▁minnətdar	-10.8416
▁miqrasiya	-10.8416
▁münaqişə	-10.8416
▁məfhum	-10.8416
▁mərkəzlərində	-10.8416
▁məyus	-10.8416
▁perspektiv	-10.8416
▁platforma	-10.8416
▁praktik	-10.8416
▁profili	-10.8416
▁qabığı	-10.8416
▁qadağa	-10.8416
▁santimetr	-10.8416
▁saptayıcı	-10.8416
▁sayborq	-10.8416
▁stansiyası	-10.8416
▁sünnət	-10.8416
▁süratlerini	-10.8416
▁sıcaklıklar	-10.8416
▁təchizat	-10.8416
▁təsadüfi	-10.8416
▁təəssüratı	-10.8416
▁uçurttu	-10.8416
▁uğrun	-10.8416
▁yekunlaşdır	-10.8416
▁zəlzələ	-10.8416
▁Çikaqo	-10.8416
▁İsrailli	-10.8416
▁İstifadə	-10.8416
▁Şəhər	-10.8416
▁əcnəbi	-10.8416
▁əsəbləş	-10.8416
missiyasını	-10.8416
tolerantlı	-10.8416
▁Bronx	-10.8416
▁Mumbai	-10.8416
▁Mərasim	-10.8416
▁hirsl	-10.8416
▁instinkt	-10.8416
▁kozmoz	-10.8416
▁kəlmə	-10.8416
▁mövqe	-10.8416
▁nötrino	-10.8416
▁rejissor	-10.8416
▁terror	-10.8416
▁xatirə	-10.8416
▁xətkeş	-10.8416
▁yanlış	-10.8416
▁şərəfləndir	-10.8416
imbabve	-10.8416
kommunist	-10.8416
rasional	-10.8416
▁Brizban	-10.8416
▁Kunst	-10.8416
▁Köhnə	-10.8416
▁Siyahı	-10.8416
▁Virgin	-10.8416
▁ardıcıl	-10.8416
▁doğulan	-10.8416
▁ekspedisiyalar	-10.8416
▁elementi	-10.8416
▁etkileşmiyor	-10.8416
▁masaüstü	-10.8416
▁mənzərə	-10.8416
▁region	-10.8416
▁yağıntı	-10.8416
▁çarpıştırı	-10.8416
▁İslam	-10.8416
▁Konqo	-10.8416
▁Monte	-10.8416
▁Oxuma	-10.8416
▁başlayacağı	-10.8416
▁kozmolo	-10.8416
▁ləkələr	-10.8416
▁mercekleme	-10.8416
▁sarmal	-10.8416
▁səbirsizl	-10.8416
▁şalvar	-10.8416
▁əlçat	-10.8416
▁Dörd	-10.8416
▁Martinez	-10.8416
▁bəxşiş	-10.8416
▁istintaq	-10.8416
▁məhkum	-10.8416
▁oturmuşdu	-10.8416
ahiyyəti	-10.8416
▁2007-	-10.8416
▁ağılsız	-10.8416
▁büroları	-10.8416
▁doğulur	-10.8416
▁şou	-10.8416
dekabr	-10.8416
▁Yağış	-10.8416
▁göndərmək	-10.8416
▁çirkin	-10.8416
▁Ciddi	-10.8416
▁Partlama	-10.8416
▁razılaşa	-10.8416
▁sıçra	-10.8416
▁Fakt	-10.8416
▁Koreya	-10.8416
▁görülə	-10.8416
▁istiqamətləndir	-10.8416
▁klavesin	-10.8416
▁qucaqlama	-10.8416
▁quraqlıq	-10.8416
recht	-10.8416
▁Diqqəti	-10.8416
▁hamilə	-10.8416
▁quracağı	-10.8416
ovsun	-10.8416
▁Ağlı	-10.8416
▁peşmançılıq	-10.8416
▁istiqamətlənir	-10.8416
▁məramı	-10.8416
▁rəqabət	-10.8416
▁dinamik	-10.8416
▁Lesli	-10.8416
▁qurulması	-10.8416
▁çəp	-10.8416
▁50-60	-10.8416
▁sürüşmə	-10.8416
▁tapıntı	-10.8416
▁vərdiş	-10.8416
▁yararlan	-10.8416
▁artmaqda	-10.8416
▁görüm	-10.8416
▁Nəsil	-10.8416
▁WMAP	-10.8416
▁faciə	-10.8416
▁izləyən	-10.8416
▁Film	-10.8416
▁Rəsm	-10.8416
▁kabin	-10.8416
sper	-10.8417
▁irəliləmə	-10.8417
▁pəncərə	-10.8417
▁rəğbət	-10.8417
▁kollek	-10.8417
▁cinayət	-10.8417
▁oğurla	-10.8417
▁Divar	-10.8417
▁daşqın	-10.8417
▁Hadisə	-10.8417
▁şəra	-10.8417
▁limanı	-10.8417
▁trans	-10.8417
▁yaxınlığın	-10.8417
▁əməkdaşlı	-10.8417
▁Ardın	-10.8417
▁Qayğı	-10.8417
▁Tamaşaçılar	-10.8417
▁Mich	-10.8417
▁səslənə	-10.8417
▁keçməyin	-10.8417
öycəqarğa	-10.8417
▁galaksi	-10.8417
▁telepat	-10.8417
▁atıldı	-10.8417
▁helium	-10.8417
▁ekzot	-10.8417
▁ədəb	-10.8417
▁ətrafımda	-10.8417
▁süper	-10.8417
▁lisey	-10.8417
▁elit	-10.8417
▁Peak	-10.8417
▁Hansı	-10.8417
▁Nitqimi	-10.8417
▁körfəz	-10.8417
▁Kino	-10.8417
▁bügün	-10.8417
▁duyduğunu	-10.8417
▁rifləri	-10.8417
▁zola	-10.8417
▁Brit	-10.8417
▁tövsiyə	-10.8417
▁Charle	-10.8417
▁Burton	-10.8417
▁bəyəndi	-10.8417
▁rəhmət	-10.8417
▁yatağ	-10.8417
▁Planet	-10.8417
umullar	-10.8417
▁orqanizm	-10.8417
▁yumru	-10.8417
▁ehtiyat	-10.8417
▁qəzəb	-10.8417
▁mübadilə	-10.8417
▁həzz	-10.8417
▁Meteorit	-10.8417
▁ürəyi	-10.8417
▁davranışlar	-10.8417
▁idrak	-10.8417
▁işgəncə	-10.8417
▁gediləcə	-10.8418
▁Dağ	-10.8418
ollo	-10.8418
▁piyada	-10.8418
▁həcm	-10.8418
▁kölgə	-10.8418
▁daşıyan	-10.8418
şəng	-10.8418
▁Doğu	-10.8418
▁cild	-10.8418
▁tanımırdı	-10.8418
▁kapital	-10.8418
▁deməmişdi	-10.8418
▁uğursuzluq	-10.8418
▁ağlayır	-10.8418
ribən	-10.8418
▁Otur	-10.8418
▁bağlamaq	-10.8418
▁oxumuş	-10.8418
▁fikirləşdiyiniz	-10.8418
▁institutlar	-10.8418
▁fikirləşmir	-10.8418
▁ordu	-10.8418
▁1600	-10.8418
▁təsəvvürüm	-10.8418
▁hüz	-10.8418
▁feil	-10.8418
▁dostunuz	-10.8419
arici	-10.8419
▁qayıtdıq	-10.8419
▁seçir	-10.8419
ropik	-10.8419
▁eşitdikləri	-10.8419
▁konsert	-10.8419
▁sərmayə	-10.8419
▁sevimli	-10.8419
▁millətlər	-10.8419
▁tökül	-10.8419
▁Almaniya	-10.8419
▁gözümüzü	-10.8419
▁Sara	-10.8419
əviyyat	-10.842
▁atlet	-10.842
▁nəvələrim	-10.842
▁əkinçi	-10.842
▁Düşünür	-10.842
▁Pis	-10.842
▁verilməli	-10.842
▁Sabah	-10.842
▁müdirin	-10.842
▁müqəddəs	-10.842
▁Part	-10.842
▁istiləşmə	-10.842
▁əziz	-10.8421
▁investorlar	-10.8421
hədsiz	-10.8421
▁başlayacaq	-10.8421
▁yarayır	-10.8421
▁uzanı	-10.8421
▁Ruanda	-10.8421
▁yadınızda	-10.8421
ebilirler	-10.8421
▁ianə	-10.8421
pmalar	-10.8422
▁sürətləndirici	-10.8422
▁insalar	-10.8422
▁çəkildiyi	-10.8422
▁hərarət	-10.8422
▁İyun	-10.8422
▁Səbəb	-10.8422
eceğimi	-10.8423
▁milyarderlər	-10.8423
▁tələsi	-10.8423
▁axtarışında	-10.8423
▁kameranızı	-10.8423
▁Bağışla	-10.8423
▁azadlığı	-10.8423
▁sığınaca	-10.8423
▁köçürülməsi	-10.8423
▁bölüşdürülməsi	-10.8423
▁sevinir	-10.8423
▁imti	-10.8423
▁Sudanda	-10.8424
▁191	-10.8424
etten	-10.8424
▁Kris	-10.8424
▁getmişdi	-10.8424
▁artması	-10.8424
▁DV	-10.8424
▁qoyulur	-10.8425
▁seçmə	-10.8425
▁pivə	-10.8425
▁nəşr	-10.8425
▁çıxartdı	-10.8425
▁iylən	-10.8425
▁ölçümləri	-10.8425
▁boşal	-10.8426
▁auditoriya	-10.8426
▁mate	-10.8426
▁eşidir	-10.8426
▁sonuncu	-10.8426
▁bağışlayar	-10.8426
▁köynək	-10.8426
▁mütəxəssisləri	-10.8427
▁yaşandı	-10.8427
▁Uşaqlıq	-10.8427
▁kasıblığı	-10.8427
▁etsəydi	-10.8428
▁Klee	-10.8428
▁dəyişdiril	-10.8428
▁val	-10.8428
▁çatacaq	-10.8429
▁esin	-10.8429
▁gətirmir	-10.843
▁texnologiyamız	-10.843
▁reklamlarda	-10.843
▁işləyə	-10.8431
▁evliliklərin	-10.8431
▁arzusu	-10.8431
▁standartların	-10.8431
▁dillərin	-10.8432
▁aldınız	-10.8432
▁Test	-10.8432
▁yayındır	-10.8433
▁qasırğası	-10.8433
▁danışırsınız	-10.8433
▁No	-10.8433
▁Yüz	-10.8433
▁faktor	-10.8434
▁məzmunu	-10.8434
▁dəyişdirdi	-10.8434
▁çatdırıl	-10.8435
ığır	-10.8435
▁həyəcanlı	-10.8435
▁çevrilmiş	-10.8435
▁xatırlayırsınız	-10.8436
▁bilgi	-10.8436
▁təlimat	-10.8436
▁Mag	-10.8436
▁düşmüşdü	-10.8436
▁tapmalı	-10.8436
▁daral	-10.8438
▁Kimliyimiz	-10.8438
memiz	-10.8438
▁sevmək	-10.8438
▁ayaqlarımı	-10.8438
▁öyrədir	-10.8438
▁içki	-10.8438
tman	-10.8439
▁vurdu	-10.8439
▁1990	-10.844
▁eks	-10.844
▁isim	-10.844
▁yet	-10.844
talyan	-10.8441
▁adlandırıb	-10.8441
▁ney	-10.8441
lendi	-10.8441
▁gedəcək	-10.8442
▁İraq	-10.8443
▁Xal	-10.8443
▁sintez	-10.8444
▁işlətmə	-10.8444
▁gərək	-10.8444
▁kaş	-10.8445
▁Ərin	-10.8445
▁sərhədsiz	-10.8446
▁olmamız	-10.8446
▁səbət	-10.8447
▁böyüyən	-10.8447
▁Fran	-10.8449
▁İngiliscədə	-10.845
▁təbəqəsində	-10.845
▁oynamaq	-10.845
ridi	-10.8451
▁ideyaların	-10.8451
▁barmağı	-10.8452
▁dəmir	-10.8453
▁astronavtları	-10.8454
rafik	-10.8454
▁ağlamaq	-10.8454
▁inanırsınız	-10.8454
▁sarayın	-10.8455
hat	-10.8455
▁anlayışımızı	-10.8455
▁əf	-10.8456
▁quraşdırılm	-10.8456
▁Kle	-10.8457
▁silik	-10.8457
▁Müəllif	-10.8457
ommersi	-10.8457
▁xro	-10.8457
▁AB	-10.8458
▁artığın	-10.8458
▁qazanmış	-10.8459
▁bədbəxtlik	-10.846
▁tamaşa	-10.846
igh	-10.846
▁söndür	-10.8462
▁yad	-10.8462
▁inək	-10.8462
▁ətraflarında	-10.8463
▁öyrətdik	-10.8463
▁Beş	-10.8464
müsəlman	-10.8465
▁götürürdü	-10.8466
▁düzdür	-10.8466
▁baxırıq	-10.8467
▁dinləyi	-10.8467
▁qulum	-10.8467
▁almışdı	-10.8468
miyib	-10.8469
▁bənzərsiz	-10.8469
▁tezliklər	-10.8469
▁şansım	-10.8469
▁özünüzü	-10.8469
▁sürdüyü	-10.847
▁gözləməli	-10.8471
▁istiliyi	-10.8472
▁yazdığım	-10.8472
▁anti	-10.8472
▁göstərmiş	-10.8473
▁beli	-10.8473
▁önümüzd	-10.8473
▁veb	-10.8473
▁sürər	-10.8473
▁qış	-10.8474
durub	-10.8475
▁dəyərli	-10.8475
nağı	-10.8475
▁qul	-10.8476
▁gedirsən	-10.8476
▁bütünlük	-10.8479
▁Il	-10.8479
ander	-10.8479
▁göndərdik	-10.8479
ispan	-10.8479
▁gəminin	-10.8481
məhsuldar	-10.8482
▁yarandığı	-10.8484
▁zehni	-10.8485
▁hu	-10.8485
▁Jer	-10.8486
▁Hamınız	-10.8486
plikasiya	-10.8487
▁1900	-10.8488
▁açıqca	-10.8489
▁qurduq	-10.849
▁ömrüm	-10.849
▁Başqaların	-10.849
▁məsuliyyətimiz	-10.8491
▁yadplanetliləri	-10.8492
cımız	-10.8493
ərcümə	-10.8493
▁Kamera	-10.8494
▁şifrələmə	-10.8495
▁səpələ	-10.8495
▁başlayı	-10.8496
▁nöqtələri	-10.8498
▁qurub	-10.85
▁danışmır	-10.85
▁axtarışda	-10.8501
eşid	-10.8501
▁atomların	-10.8501
▁bağları	-10.8502
▁itirdik	-10.8505
▁şən	-10.8506
▁üzüm	-10.8506
▁tullan	-10.8509
▁uçurlar	-10.8509
▁şifrələy	-10.851
▁ayağını	-10.8511
▁ölən	-10.8511
▁Ayk	-10.8512
▁Yaradıcılığ	-10.8512
now	-10.8514
▁ölümünü	-10.8515
▁dedikdə	-10.8515
▁istəmədiyi	-10.8516
malay	-10.8517
▁biliyi	-10.8518
▁spek	-10.8519
▁çoxunuz	-10.8519
▁nənəyə	-10.8522
▁Əliniz	-10.8522
▁olmadı	-10.8523
▁böhranı	-10.8525
▁keçirir	-10.8525
▁düşüncəli	-10.8529
▁bağlar	-10.853
▁düzləşdir	-10.8531
▁axınlar	-10.8532
▁Şərqi	-10.8532
▁mərhələlər	-10.8533
▁edəcəyimiz	-10.8534
▁düşündüyümü	-10.8534
▁sahillərində	-10.8535
▁ardın	-10.8537
ith	-10.8539
▁qaldırır	-10.8542
▁Tel	-10.8546
nümüzdə	-10.8546
▁yerlərində	-10.8549
▁izləmək	-10.8549
▁ağsaqqallar	-10.8549
▁çıxacağı	-10.8551
▁salın	-10.8552
▁pay	-10.8552
▁Fizika	-10.8552
▁vaxtıdır	-10.8553
▁qalxan	-10.8554
▁qutular	-10.8555
▁burdakı	-10.8556
▁201	-10.856
▁Yay	-10.8562
▁Oğlum	-10.8563
▁diliniz	-10.8566
▁göstərilir	-10.8567
laşdırmaq	-10.8568
qtisadiyyat	-10.8569
▁qurur	-10.8569
▁çıxmalı	-10.857
▁istədiklərim	-10.8571
▁həyəcanlan	-10.8572
▁uzadı	-10.8573
çası	-10.8573
▁stress	-10.8575
▁ştatı	-10.8577
▁cərəyanın	-10.8578
▁paylaşdığı	-10.8582
ləğ	-10.8582
▁qurğuların	-10.8585
▁Görü	-10.859
▁çıxdığın	-10.859
▁təcrübənin	-10.8591
▁qarşılaya	-10.8591
▁yerləşir	-10.8594
yəndə	-10.8597
▁şəxsiyyəti	-10.8599
baş	-10.8599
▁İşığı	-10.8601
▁notu	-10.8601
▁gözündə	-10.8602
▁motivi	-10.8603
▁yolumuz	-10.8604
▁dava	-10.8607
▁bənzəyə	-10.8609
▁arzum	-10.8609
tıl	-10.8609
tmış	-10.8611
▁sənətçi	-10.8611
▁seçimim	-10.8612
eler	-10.8612
lerin	-10.8613
▁tapdığımız	-10.8614
▁maşınla	-10.8615
▁ailəsini	-10.8615
▁əmr	-10.8615
məyəcəy	-10.8619
▁Hindistandakı	-10.8619
amın	-10.8622
▁ənənəsini	-10.8623
▁şəhərin	-10.8625
▁dəlilikdi	-10.8631
29	-10.8631
▁Von	-10.8633
▁fikirləşə	-10.8634
▁Təşkilatı	-10.8634
▁imzala	-10.8635
▁keçdiyi	-10.8637
▁Kas	-10.8639
▁çəkmir	-10.8639
▁qayıtma	-10.8639
▁silindr	-10.8641
▁illərin	-10.8644
▁Tanzaniyada	-10.8646
acısı	-10.8648
▁Car	-10.8649
▁axını	-10.8651
▁yadım	-10.8654
imatlar	-10.8655
▁dalğası	-10.8655
▁qoyduq	-10.8657
▁mənbələrin	-10.8658
▁başlıq	-10.8658
▁təcrübələrim	-10.866
▁Orda	-10.8661
▁raketlər	-10.8663
▁afrikalılar	-10.8663
▁çatışmazlı	-10.8665
▁qurğusu	-10.8671
▁hərflər	-10.8673
▁30-	-10.8674
▁Qız	-10.8674
▁utanma	-10.8675
▁tamaşaçıları	-10.8675
▁yaxınların	-10.8675
▁peşə	-10.8676
▁qızdır	-10.8678
▁görünər	-10.8679
▁çevrilmə	-10.8681
▁Mir	-10.8682
▁riyaziyyatın	-10.8687
▁anlarında	-10.8691
▁gəliş	-10.8695
▁istəmirdi	-10.8701
▁ləyaqəti	-10.8702
▁dolduru	-10.8702
aron	-10.8702
▁İşim	-10.8704
▁Marionu	-10.8705
▁ritualları	-10.8706
▁verim	-10.8712
▁edəcəyiniz	-10.8714
▁nik	-10.8717
▁pal	-10.872
▁yoxsullar	-10.8721
▁göndərirdi	-10.8729
▁temperatur	-10.8735
▁səbəblə	-10.8737
▁səhvləri	-10.8739
▁nəh	-10.8741
▁yey	-10.8742
▁Kimliyi	-10.8749
▁rejimi	-10.8749
▁boyda	-10.875
▁May	-10.8751
▁Sibir	-10.8757
▁başlamışdı	-10.8759
▁iplikləri	-10.876
▁vətən	-10.8768
▁mar	-10.8775
▁değiştirebil	-10.8781
▁qrupu	-10.8782
idge	-10.8783
▁məsuliyyətini	-10.8784
▁Kişilər	-10.8785
▁parçacıqlarını	-10.8788
hon	-10.8791
▁çəksə	-10.8795
bra	-10.8801
ğımda	-10.8804
▁ten	-10.8806
▁olmamalı	-10.8806
▁tutardı	-10.8806
▁50-	-10.8806
▁səhifəsin	-10.8812
▁fəaliyyətim	-10.8813
usson	-10.8816
altı	-10.8822
▁çarp	-10.8824
▁Kam	-10.8825
▁dörddə	-10.8826
▁xatırlay	-10.8827
▁çıxması	-10.8832
ps	-10.8839
▁götürməy	-10.884
▁təzyiqlər	-10.8841
▁əraziləri	-10.8844
▁yaradaca	-10.8845
▁qona	-10.8849
▁əhvalatın	-10.8852
▁metod	-10.8857
▁çıxarı	-10.8857
▁girdi	-10.8862
▁təhsilli	-10.8864
arın	-10.8868
örürsünüz	-10.887
▁dediklərini	-10.8872
▁debatları	-10.8876
▁arxivi	-10.8877
▁etməmişdi	-10.8877
▁dönü	-10.888
▁otağım	-10.8882
▁gəlməz	-10.8884
şək	-10.8889
▁göstəricilər	-10.8892
▁Çoxu	-10.8895
lacaq	-10.8902
▁müzakirələri	-10.8908
▁yaşadığımız	-10.8914
▁Tanrını	-10.8919
▁uşağım	-10.8919
▁baxdı	-10.892
▁topladı	-10.8922
▁seçkilər	-10.8927
▁təmizləy	-10.8933
esiy	-10.8939
▁ağlın	-10.8942
▁birləşdirən	-10.8946
▁sistemlərin	-10.8949
▁təzyiqi	-10.8949
▁məhbusu	-10.8949
▁j	-10.8952
▁yerləşdirə	-10.8954
▁eləmi	-10.8955
▁şirkətlərin	-10.8957
▁durma	-10.8963
çt	-10.8965
kanı	-10.8975
art	-10.8979
▁həyatımızı	-10.8982
▁iztirab	-10.8985
dəcək	-10.8987
▁Kan	-10.9004
che	-10.9007
▁bənzəyirdi	-10.9013
▁saxlama	-10.9013
▁qurumların	-10.9015
▁düzü	-10.9017
▁Agentliyini	-10.9017
▁dəqiqlikl	-10.9021
▁müv	-10.9022
▁dönüş	-10.9023
▁oynayırdı	-10.9023
▁edirdilər	-10.9025
▁düşü	-10.9026
▁tanınması	-10.903
▁görmüşdü	-10.903
▁sərhəddin	-10.903
▁Far	-10.9033
▁siyahını	-10.904
▁etməmi	-10.9047
▁dəst	-10.9049
ığa	-10.9058
▁kompyuteri	-10.906
▁mussonunda	-10.9063
▁keçərdi	-10.9063
▁dişi	-10.9071
▁yaşan	-10.9074
▁girə	-10.9077
▁malikdir	-10.9078
▁girir	-10.908
▁axtarışı	-10.908
▁bölgüsün	-10.9085
▁cin	-10.9087
nasında	-10.9094
▁Evli	-10.9095
▁günümüz	-10.9107
▁evlənmə	-10.9117
▁xortumu	-10.9117
▁Hamısını	-10.9118
▁Naziri	-10.9119
▁dilimiz	-10.912
▁onillikdə	-10.9133
▁Cin	-10.9134
ədd	-10.9146
▁baka	-10.9148
partlayış	-10.915
zacağımı	-10.9156
▁məsələsin	-10.9158
▁yerləşdirdi	-10.9164
rasiya	-10.9166
▁tü	-10.9171
▁qalanın	-10.9173
ece	-10.9175
▁qanad	-10.9175
eylan	-10.9178
rada	-10.9179
70	-10.918
▁dəyişmiş	-10.9181
▁durur	-10.9181
▁şərti	-10.9188
▁nisbətini	-10.9198
▁başladığını	-10.9201
▁effektlər	-10.9201
▁okeanları	-10.921
low	-10.9215
▁xatırlatma	-10.9224
▁sizlə	-10.9232
▁gəlməsin	-10.9233
▁şəbəkələr	-10.9239
paq	-10.9241
▁yanğınlar	-10.9242
▁gəlməyə	-10.9254
▁başımız	-10.9267
yl	-10.9269
tiqam	-10.9282
▁aparmağ	-10.9284
▁nümunəsi	-10.9285
ando	-10.9287
▁genom	-10.9292
▁deməsi	-10.9293
▁nömrəl	-10.9296
▁birləşdirmə	-10.9296
▁uzaqlaşa	-10.9297
▁alimlərin	-10.93
▁anı	-10.93
▁dostlar	-10.9301
▁musiqidən	-10.9303
▁fəlakətlər	-10.9303
▁bilik	-10.9306
▁Bitkilər	-10.9306
fəs	-10.9318
eqo	-10.9319
▁gördüklərim	-10.9329
▁Art	-10.9335
▁telefonlar	-10.9337
▁nəzərin	-10.9342
▁dizaynları	-10.9352
▁bahal	-10.9354
▁xalqın	-10.9365
▁Lu	-10.9368
eye	-10.9379
▁Kainatı	-10.9391
▁dəyişdirə	-10.9403
ston	-10.9404
▁genlərin	-10.9416
▁həyatımız	-10.9418
sk	-10.9424
▁qalmadı	-10.9439
▁məktəblərində	-10.9439
▁təhlükələr	-10.9441
▁ədəbiyyatın	-10.9442
▁etdiyimi	-10.9444
▁təva	-10.9445
▁nəzarətin	-10.9449
els	-10.9451
▁performans	-10.9454
▁Go	-10.9467
▁məlumatın	-10.9476
▁fikirləşdi	-10.9493
▁otura	-10.9494
iyatl	-10.9505
men	-10.9514
▁verməsi	-10.9517
▁dəstəyin	-10.952
▁mətni	-10.9528
▁bildik	-10.9531
▁nələrə	-10.9532
ləşdirmə	-10.9534
▁reallaşdır	-10.9545
▁canlıları	-10.9545
▁parçam	-10.9546
udu	-10.9546
masam	-10.9547
▁dizaynerlər	-10.9561
▁tələbələrin	-10.9564
muz	-10.9577
▁bildirir	-10.9585
▁davranır	-10.959
yanmış	-10.9603
▁xərçəngi	-10.961
ew	-10.9613
▁işləyirdi	-10.9619
▁inkişafın	-10.9636
▁aktyorlu	-10.9655
edi	-10.9665
98	-10.9681
▁kayd	-10.9686
▁Rol	-10.9686
▁genləri	-10.9696
▁kimy	-10.9703
▁soruşu	-10.9708
▁Cha	-10.9721
▁yayım	-10.9729
bət	-10.9734
iblər	-10.9744
▁siyahısı	-10.9746
▁oturmu	-10.9754
▁təməli	-10.976
▁olmağımızı	-10.9762
▁kompüteri	-10.9768
▁şahinlər	-10.977
▁mal	-10.9794
▁modellər	-10.9796
▁təyyarələri	-10.9804
övrə	-10.9809
▁qiymətlər	-10.9811
▁limitləri	-10.9818
▁danışmama	-10.9819
ilmek	-10.9821
üst	-10.9841
▁hallarda	-10.9842
dünüz	-10.9864
▁sahilin	-10.9873
▁Tər	-10.9873
▁funksiyalar	-10.9874
şin	-10.9917
▁formalaş	-10.9918
rek	-10.9918
▁Özün	-10.9929
▁əlaqəsi	-10.993
▁xaricdə	-10.9961
▁Fleytalar	-10.9962
▁önündə	-10.9968
▁atomları	-10.9968
▁Qalaktika	-10.9976
▁qutuda	-10.9988
▁top	-10.9991
▁mövcudluğun	-10.9996
Mac	-11.0016
▁1000-	-11.0023
▁yapışı	-11.0023
let	-11.0024
MC	-11.003
▁sevgim	-11.0037
▁qutusunda	-11.004
▁canlılar	-11.0043
▁Etmə	-11.0056
lməsi	-11.0058
▁gəlmədi	-11.0059
▁Pr	-11.0093
▁yazıçıları	-11.0102
azı	-11.0102
▁Universitet	-11.0119
▁Qızları	-11.0136
▁ailələr	-11.0146
▁yazılmışdı	-11.0147
ışını	-11.0147
əssüf	-11.0165
▁evin	-11.017
▁keçirdi	-11.0175
▁fikirlərini	-11.0177
▁müştəriləri	-11.0179
▁seçdiyi	-11.0214
60	-11.0219
▁Tu	-11.0224
▁Bar	-11.0224
▁bacarma	-11.0233
▁yığdı	-11.0245
▁qalmı	-11.0251
▁Qan	-11.0256
apa	-11.0256
▁qaydasın	-11.0292
▁şəxsləri	-11.0302
▁şüasını	-11.0311
▁Ed	-11.0321
▁öyrəni	-11.034
▁işlədə	-11.0349
▁izlədiyi	-11.0351
▁adamlarını	-11.0351
▁gəlməy	-11.0375
ova	-11.0376
▁anlat	-11.0394
▁oğlun	-11.0398
▁qucaqlaya	-11.0401
▁kanal	-11.0421
▁zirvəsi	-11.0434
▁Həbsxana	-11.0438
▁insanlığı	-11.0444
▁endi	-11.0471
▁qutuları	-11.0486
▁çıx	-11.0498
▁musiqiçilər	-11.0507
▁texnologiyası	-11.0524
▁qarşısı	-11.0532
▁söhbətlər	-11.0534
▁32	-11.0538
▁görünüşün	-11.0545
▁növlər	-11.0562
▁versiyasın	-11.0566
▁qrupun	-11.0573
▁söylədi	-11.0575
duğu	-11.0579
▁həftələr	-11.0581
atır	-11.0595
▁qoyaca	-11.0624
▁görmədi	-11.0635
nüz	-11.0639
▁kanallar	-11.066
▁hazırlamağ	-11.0664
ntiy	-11.0687
▁qaynaqlar	-11.0692
▁Ve	-11.0722
▁istəmi	-11.0733
ione	-11.0737
atında	-11.0754
▁qarış	-11.0759
▁fon	-11.0761
▁dəyişdik	-11.0764
▁yazılan	-11.0776
▁qışqır	-11.0787
▁Həbsxanada	-11.079
▁uzaqlaş	-11.0794
▁yazıl	-11.0796
▁edərsə	-11.081
▁tərzimi	-11.0812
ild	-11.0812
▁Dar	-11.0819
▁Fərqi	-11.0824
▁yağışın	-11.083
məyimizi	-11.0843
hum	-11.085
vanda	-11.085
▁Gözə	-11.0852
▁Ruslar	-11.0864
▁ruhlandır	-11.0879
▁xəritəni	-11.088
▁Universiteti	-11.0881
üşü	-11.0881
▁nöqtəsin	-11.0887
▁ifası	-11.0887
▁şansı	-11.0899
fik	-11.09
▁iflic	-11.0901
▁törə	-11.091
AT	-11.0911
▁halqalar	-11.0912
▁qaydalarını	-11.0914
▁xanımı	-11.0918
are	-11.0932
▁mədəniyyətləri	-11.0956
▁düşüncələri	-11.0959
0.000	-11.0961
▁qiymətlərin	-11.097
▁iqtisadiyyatı	-11.0987
▁itkin	-11.0997
▁sət	-11.1015
▁hərəkətlərini	-11.1019
cs	-11.1044
▁izlə	-11.1052
əəssüf	-11.1074
▁astronomlar	-11.1079
▁baxışı	-11.1108
kad	-11.1109
osu	-11.1109
▁qalaca	-11.1111
▁bilməmiş	-11.112
ətir	-11.1133
▁yazılmış	-11.1138
▁müştərilər	-11.1175
▁rəqəmin	-11.1183
▁yapış	-11.1199
▁quruluşun	-11.1209
umu	-11.1236
▁yığır	-11.1253
▁səslərin	-11.1258
▁çalışmış	-11.1261
▁məktəblərdə	-11.1274
▁ciblər	-11.1275
▁masa	-11.1283
▁Win	-11.1283
▁yazılı	-11.1305
▁nizaml	-11.1314
▁qəz	-11.1323
▁ayaqqabıları	-11.1324
▁yumurta	-11.134
▁yoxlayır	-11.1363
▁xəritələn	-11.1367
▁dağıl	-11.138
lmaq	-11.1385
oyuq	-11.139
▁düzəld	-11.1403
▁gecəni	-11.1409
əciyi	-11.1409
▁genişlənməsin	-11.1426
məsini	-11.1428
▁etmədik	-11.1447
20	-11.1456
anında	-11.146
▁yayımla	-11.1466
▁dəyişdiyi	-11.147
▁oxuyar	-11.1473
▁limit	-11.1475
ayaq	-11.1498
▁bildikləri	-11.1513
▁Yazı	-11.1534
▁görəcəyi	-11.1544
atlar	-11.1548
▁zərur	-11.1559
oyd	-11.1566
▁bazarı	-11.1571
▁öyrəndikləri	-11.1576
▁Muzeyi	-11.1579
ov	-11.1592
▁təcrübəsi	-11.1595
▁qey	-11.1597
▁kürəsi	-11.1605
nde	-11.1613
▁güd	-11.1614
oley	-11.1629
tonlu	-11.1662
▁aktyor	-11.167
▁Del	-11.168
▁bulud	-11.1682
▁qabiliyyətiniz	-11.1711
▁araşdırması	-11.1721
▁qabiliyyətlər	-11.1723
▁rəq	-11.1741
▁növün	-11.1745
▁əyildi	-11.1774
▁miqyas	-11.1774
▁oxumağı	-11.1775
▁göstərdiyi	-11.18
izim	-11.1803
▁sürfələr	-11.1817
▁dəstəyi	-11.1837
▁yaxınlaşma	-11.1843
liydi	-11.1853
▁arzulama	-11.1857
dd	-11.1867
▁bağlay	-11.1894
▁Normal	-11.1904
▁evliliy	-11.1908
▁danışacağ	-11.1914
▁sektorun	-11.1915
▁performansl	-11.192
▁yaratdığımız	-11.192
▁dəyişikliy	-11.1921
axa	-11.193
mağım	-11.1937
▁dalğaları	-11.1946
laşmaq	-11.1956
▁seçdiyim	-11.197
▁edili	-11.1974
1-	-11.1987
▁fotoşəkilin	-11.1988
▁Co	-11.199
▁biləcəkləri	-11.2
ünd	-11.2002
▁miqyası	-11.2011
▁ailəsi	-11.2016
əvaz	-11.2021
▁Ölkələr	-11.2035
▁Krallı	-11.2044
▁sərhəddi	-11.2056
▁görünüşləri	-11.2067
▁şüalar	-11.2096
▁2,	-11.2098
▁Bitki	-11.2112
▁Har	-11.2113
▁şagirdlər	-11.2113
▁fəlakət	-11.2116
▁başqaların	-11.2148
▁öldürü	-11.216
▁yarış	-11.2172
▁xəritələr	-11.2173
▁bacardı	-11.2188
▁yanğın	-11.2199
şey	-11.2209
▁Le	-11.2214
▁uğuru	-11.2214
▁alacaq	-11.2221
▁çö	-11.223
▁maşınları	-11.224
▁gəzər	-11.2244
▁ağac	-11.225
▁tərzini	-11.2273
▁qoşuldu	-11.2275
ışlar	-11.2296
laşması	-11.2297
ümüz	-11.232
▁Es	-11.2322
▁saxlan	-11.2324
▁çıxarmağ	-11.2324
üklü	-11.2332
▁hin	-11.2332
▁kö	-11.2338
▁onillik	-11.2344
▁açıql	-11.2349
▁Nazir	-11.2364
▁dördü	-11.2372
uldu	-11.2376
▁təşkilatlan	-11.2389
▁seçm	-11.2398
▁seçdi	-11.2398
▁250	-11.2404
▁nazir	-11.2413
▁kullan	-11.2422
uark	-11.2423
▁soy	-11.2428
▁aks	-11.2437
lent	-11.245
▁dilləri	-11.2459
▁rəsmlər	-11.2468
▁dövrlər	-11.2477
▁ağcaqanad	-11.248
▁mağaza	-11.2485
▁versiya	-11.2488
▁böyüd	-11.2495
▁imtahanları	-11.2497
▁ağlama	-11.2498
▁hökumətin	-11.2502
▁çalışdı	-11.2504
▁nəsli	-11.2509
▁çay	-11.2511
▁kukla	-11.2517
▁görməmiş	-11.2537
▁fizi	-11.2538
quşu	-11.2544
▁mövcudluğu	-11.2549
ehrli	-11.2554
▁aparılı	-11.2564
▁təəccüblən	-11.2566
▁müşahidəsi	-11.2589
▁kart	-11.2591
eden	-11.2592
▁Ştat	-11.2593
▁lo	-11.2598
▁təriflə	-11.2612
▁adları	-11.2615
ülür	-11.2616
▁təmizlə	-11.2626
lanması	-11.264
▁tarixini	-11.2642
▁Tanrı	-11.2647
▁rolu	-11.2648
▁kana	-11.2652
▁partlay	-11.2663
▁çevirmə	-11.2685
lacaqdı	-11.269
▁anladığı	-11.2702
var	-11.2705
▁arxiv	-11.2707
▁ədəbiyyatı	-11.2715
▁ustad	-11.2725
▁şirkətləri	-11.2732
▁qon	-11.2733
▁metodu	-11.2735
məzdi	-11.2736
▁araşdırmanı	-11.2736
▁əhvalat	-11.2743
ebilirdi	-11.2744
▁əhali	-11.2744
miyoru	-11.2751
▁dalğalar	-11.2753
▁qurğu	-11.2754
lığını	-11.276
▁Görürs	-11.2762
rəsində	-11.278
ifadəsi	-11.2781
larımızı	-11.2784
▁tapı	-11.2795
▁fokus	-11.281
etini	-11.2819
▁göstərdiyim	-11.2821
ləşdirməy	-11.2822
ımdır	-11.2832
▁işçilərin	-11.2833
▁değiştir	-11.2848
▁qayıd	-11.2848
gar	-11.2851
ürücü	-11.2852
▁bağça	-11.2877
▁rejim	-11.2894
siyanı	-11.2897
▁parçamı	-11.2902
▁bəy	-11.2911
▁xatırlatm	-11.2924
▁çiçəkləri	-11.2933
▁döy	-11.2933
landır	-11.2936
▁növləri	-11.2938
laşmış	-11.2946
▁qızları	-11.2946
▁izlədi	-11.2963
▁uyğunlaş	-11.2967
▁misiya	-11.2968
uld	-11.2969
▁yorul	-11.298
▁rituallar	-11.2985
▁hissəcik	-11.2985
▁doldur	-11.2986
▁çalışdığı	-11.2988
▁doğum	-11.2989
▁gözlənti	-11.2996
▁fürsət	-11.2998
12	-11.3002
▁raket	-11.3025
yəcəksə	-11.3025
▁bacarsa	-11.3026
▁keçdiyim	-11.3027
▁struktur	-11.3029
▁məsafələr	-11.3037
▁çatması	-11.3038
▁ulduzu	-11.3043
▁marağı	-11.3044
laşdı	-11.3044
▁roman	-11.3045
▁çıxma	-11.3045
▁rica	-11.3046
▁işıqlandırma	-11.3047
▁göndərir	-11.305
▁göndərə	-11.3061
▁topl	-11.3062
▁almağ	-11.3063
▁Təşkilat	-11.307
▁imza	-11.3073
sunu	-11.3073
alo	-11.3075
ega	-11.3088
▁oynadı	-11.309
▁Sav	-11.3091
▁istəy	-11.3094
muzda	-11.3098
▁dillə	-11.3099
▁gəlməklə	-11.3101
palm	-11.3102
evin	-11.3106
ço	-11.3108
▁həmkar	-11.3115
▁avtobus	-11.3116
▁professor	-11.3116
▁enər	-11.3118
▁motiv	-11.3119
ümüzdə	-11.3121
iyim	-11.3121
▁sualın	-11.3124
▁payla	-11.3125
▁inanı	-11.3125
▁fayda	-11.3134
▁hökumətlər	-11.3136
iyyətini	-11.3142
▁şlyapa	-11.3147
ləyici	-11.3155
stre	-11.3158
▁resurs	-11.316
leştiri	-11.3167
▁ifşaçı	-11.3168
dükcə	-11.3169
▁korlama	-11.3175
işləri	-11.3178
▁içir	-11.3187
▁xəritəsin	-11.319
▁adamların	-11.3194
com	-11.3197
▁dayanar	-11.3206
▁uşaqlarımız	-11.3212
▁surə	-11.3215
hər	-11.3216
▁cəh	-11.3217
oğlu	-11.322
intili	-11.3222
▁çatdırı	-11.3222
lider	-11.3235
Bang	-11.3245
W	-11.3246
▁daşıyıcı	-11.3246
təkrar	-11.3248
aşkar	-11.3248
Sağ	-11.3248
40	-11.3248
aydın	-11.3249
dünyanı	-11.3249
dəqiq	-11.325
Titan	-11.325
biləcək	-11.325
hesab	-11.3251
Q	-11.3251
Burada	-11.3251
Ə	-11.3251
gələn	-11.3252
vaxt	-11.3252
yerdə	-11.3254
▁kayb	-11.3254
▁slayd	-11.3256
▁hay	-11.3258
ews	-11.3259
işlə	-11.326
▁Yaradıcı	-11.3262
▁uçuşu	-11.3263
▁buraxıl	-11.3264
▁elektro	-11.3266
oko	-11.3267
▁qalmağ	-11.3268
▁Sp	-11.327
ətlə	-11.3273
▁daşıyı	-11.3279
▁bədənimi	-11.3289
miydi	-11.3291
20-	-11.3294
▁pisdi	-11.3294
▁qayğı	-11.3295
▁qəhraman	-11.3295
▁ömrü	-11.3295
▁dalğ	-11.3298
▁etməyəcəy	-11.3298
ğunluq	-11.33
▁Kamer	-11.3301
acağımı	-11.3302
▁qaçar	-11.3306
▁adlandırı	-11.3311
Ya	-11.3313
▁riyaz	-11.3316
▁yazdığı	-11.3317
▁gec	-11.3318
▁Dost	-11.3318
▁geç	-11.3326
▁Valideyinlər	-11.3327
▁uzaqlaşdığı	-11.3328
Bey	-11.333
çiliyin	-11.3335
strat	-11.3336
əyəcanla	-11.3341
▁qoyar	-11.3342
▁uzunluğu	-11.3343
ləyəcəklər	-11.3344
▁üzvü	-11.3345
iyib	-11.3345
ilişlərində	-11.3348
▁öyrədə	-11.335
astro	-11.335
▁daşla	-11.3351
▁Özünü	-11.3358
ktoru	-11.3359
▁Bru	-11.336
hramanlarım	-11.336
pressi	-11.336
ilmək	-11.3361
rateri	-11.3362
▁deməyə	-11.3366
▁inandı	-11.3366
▁küləy	-11.3369
▁zorakılı	-11.337
ndrom	-11.3371
gele	-11.3371
▁küç	-11.3374
▁böyüyü	-11.3375
üç	-11.3375
▁Arx	-11.3378
üzyıl	-11.3379
▁düşmü	-11.3379
▁tapşır	-11.3379
▁ağzı	-11.3386
▁götürmüş	-11.3388
ebilme	-11.3389
gəlirl	-11.3389
▁qasırğa	-11.3389
▁akt	-11.3392
▁rəhm	-11.3393
▁idarəçili	-11.3393
▁qis	-11.3393
▁müdrik	-11.3393
olland	-11.3394
ördüklərimiz	-11.3394
▁blog	-11.3395
azası	-11.3395
▁qırıq	-11.3395
▁dəhşət	-11.3396
▁fe	-11.3396
▁zər	-11.3398
▁Uşaqları	-11.3398
▁düzdü	-11.34
▁bağışlay	-11.34
▁tanıdığım	-11.34
işti	-11.3402
llah	-11.3403
ədbəxtlik	-11.3403
▁Məsəl	-11.3403
hall	-11.3406
▁Dəyiş	-11.3406
axışı	-11.3407
istem	-11.3407
▁çəkildi	-11.3407
ibliya	-11.3407
▁əlimi	-11.3408
▁xal	-11.3409
pace	-11.341
nternet	-11.3411
ördü	-11.3411
▁üstünlüy	-11.3411
çəridə	-11.3411
▁şekillendir	-11.3412
▁İçin	-11.3412
ermostat	-11.3412
ətbuat	-11.3412
üzakirə	-11.3412
▁münasib	-11.3412
ümkün	-11.3412
yyatı	-11.3412
tıcı	-11.3413
ələbə	-11.3413
yordu	-11.3413
nstitut	-11.3413
əkamül	-11.3413
▁telesko	-11.3413
▁Televiz	-11.3413
▁qabağ	-11.3413
▁düşdüyü	-11.3414
pələn	-11.3414
▁yön	-11.3414
ssas	-11.3414
lövh	-11.3414
itab	-11.3414
▁qrammat	-11.3414
▁Meteor	-11.3414
yaqlarımı	-11.3415
otoşəkillər	-11.3415
agirdləri	-11.3415
rinsip	-11.3415
▁Univ	-11.3415
htimalla	-11.3415
▁Ölçü	-11.3415
rofessional	-11.3415
▁doğuldu	-11.3415
etropoli	-11.3415
ulyasiya	-11.3415
alehedici	-11.3416
əşf	-11.3416
▁değiş	-11.3416
əsarət	-11.3416
▁Fikir	-11.3416
ideo	-11.3416
illətlər	-11.3416
9.99	-11.3416
enişliyi	-11.3416
rımkürəsi	-11.3416
▁DNT	-11.3416
▁Kitabxana	-11.3416
▁Qardaş	-11.3416
▁Teatr	-11.3416
▁Teleskobu	-11.3416
▁animasiyası	-11.3416
▁dözülməz	-11.3416
▁dəhliz	-11.3416
▁fırlatma	-11.3416
▁göyərtə	-11.3416
▁inandığım	-11.3416
▁irqçi	-11.3416
▁leksikoqraf	-11.3416
▁modifi	-11.3416
▁məftun	-11.3416
▁nükleusları	-11.3416
▁nümayəndələri	-11.3416
▁populyar	-11.3416
▁skripka	-11.3416
▁tragediya	-11.3416
▁turşu	-11.3416
▁tədbirlər	-11.3416
▁təmkinli	-11.3416
▁veteran	-11.3416
▁violonçel	-11.3416
▁öğretmenler	-11.3416
▁Şükr	-11.3416
isenziya	-11.3416
ldoz	-11.3416
nstruksiya	-11.3416
ülasyon	-11.3416
əbiristanlı	-11.3416
▁Adenike	-11.3416
▁Antarkti	-11.3416
▁Arizona	-11.3416
▁Assosiasiyası	-11.3416
▁Atomlar	-11.3416
▁Beatris	-11.3416
▁Cihaz	-11.3416
▁Concord	-11.3416
▁Demokrat	-11.3416
▁Direktor	-11.3416
▁Dəhşət	-11.3416
▁Enerji	-11.3416
▁Federasiyasın	-11.3416
▁Guardian	-11.3416
▁Jacqu	-11.3416
▁Kembric	-11.3416
▁Kerala	-11.3416
▁Klaviatura	-11.3416
▁Kolumbiya	-11.3416
▁Kompleks	-11.3416
▁Lüğət	-11.3416
▁Mapmaker	-11.3416
▁Mağaza	-11.3416
▁Mesaj	-11.3416
▁Müharibə	-11.3416
▁Müvəffəqiyyət	-11.3416
▁Nepal	-11.3416
▁Norveç	-11.3416
▁Nömrə	-11.3416
▁Peyğəmbər	-11.3416
▁Pikasso	-11.3416
▁Qrupun	-11.3416
▁Qəbul	-11.3416
▁Razılaşdı	-11.3416
▁Saqqal	-11.3416
▁Sayborq	-11.3416
▁SecureDrop	-11.3416
▁Stanford	-11.3416
▁Sərdabələri	-11.3416
▁Teleskop	-11.3416
▁Terminalında	-11.3416
▁Thatcher	-11.3416
▁Unut	-11.3416
▁Valideynlərimi	-11.3416
▁Velosipedi	-11.3416
▁William	-11.3416
▁Yavaşlay	-11.3416
▁Yeməkxana	-11.3416
▁Yumurta	-11.3416
▁Yunanıstan	-11.3416
▁alqoritm	-11.3416
▁apartayd	-11.3416
▁arvadı	-11.3416
▁avropa	-11.3416
▁basitleşti	-11.3416
▁blok	-11.3416
▁bölünmə	-11.3416
▁bəhanə	-11.3416
▁drift	-11.3416
▁dözə	-11.3416
▁döş	-11.3416
▁dırnaqlarım	-11.3416
▁ekosisteml	-11.3416
▁eksperiment	-11.3416
▁epidemi	-11.3416
▁geliştir	-11.3416
▁gluon	-11.3416
▁görelilik	-11.3416
▁havzalar	-11.3416
▁hidrotermal	-11.3416
▁hündürdaban	-11.3416
▁hündürlüyü	-11.3416
▁idarəetmə	-11.3416
▁impotent	-11.3416
▁irtifa	-11.3416
▁ixrac	-11.3416
▁karmaşıkl	-11.3416
▁klaviatura	-11.3416
▁konsept	-11.3416
▁kredit	-11.3416
▁metafor	-11.3416
▁mikrodalğa	-11.3416
▁mühakimə	-11.3416
▁müstəmləkə	-11.3416
▁məntəqələri	-11.3416
▁mənşəyi	-11.3416
▁naşirim	-11.3416
▁nəsihətlər	-11.3416
▁odaklan	-11.3416
▁operator	-11.3416
▁ovucu	-11.3416
▁paradoks	-11.3416
▁partikülleri	-11.3416
▁partlatma	-11.3416
▁patlama	-11.3416
▁prestij	-11.3416
▁printeriniz	-11.3416
▁prosses	-11.3416
▁pıçılday	-11.3416
▁qamışlarda	-11.3416
▁qarşısıalınmaz	-11.3416
▁qayığ	-11.3416
▁qohumların	-11.3416
▁qorilla	-11.3416
▁qravitasiya	-11.3416
▁rifah	-11.3416
▁rütubət	-11.3416
▁rəqqas	-11.3416
▁santigra	-11.3416
▁sevdiklərim	-11.3416
▁sivil	-11.3416
▁sivilizasiya	-11.3416
▁statitika	-11.3416
▁sıfır	-11.3416
▁sızıntı	-11.3416
▁səsyazma	-11.3416
▁tempraturu	-11.3416
▁tendensiya	-11.3416
▁təntənə	-11.3416
▁tərəfadarı	-11.3416
▁təxribat	-11.3416
▁valideyinləri	-11.3416
▁yaddaşımızda	-11.3416
▁yaddaşımızı	-11.3416
▁yarımdairə	-11.3416
▁yeməkxana	-11.3416
▁Ömrünü	-11.3416
▁çarmıx	-11.3416
▁çoban	-11.3416
▁ödəniş	-11.3416
▁ömür	-11.3416
▁öngörü	-11.3416
▁ördək	-11.3416
▁İdarəsi	-11.3416
▁şiddət	-11.3416
▁şifrəsi	-11.3416
▁Əyləncə	-11.3416
▁Jeff	-11.3416
▁döyüşçü	-11.3416
▁mimarlar	-11.3416
▁narazı	-11.3416
▁qırx	-11.3416
▁tarazlıq	-11.3416
Sahara	-11.3416
diğimiz	-11.3416
ikipediya	-11.3416
oriyası	-11.3416
tereotiplər	-11.3416
▁Doug	-11.3416
▁Fevral	-11.3416
▁Nebula	-11.3416
▁Oktyabr	-11.3416
▁Proqramı	-11.3416
▁bürüyür	-11.3416
▁büyüklü	-11.3416
▁döyüntü	-11.3416
▁ekvator	-11.3416
▁gender	-11.3416
▁gerçəy	-11.3416
▁heyecanl	-11.3416
▁həvəsləndir	-11.3416
▁infilyasiya	-11.3416
▁izlete	-11.3416
▁körpü	-11.3416
▁magistra	-11.3416
▁missiyalar	-11.3416
▁münasibətin	-11.3416
▁müğən	-11.3416
▁nkali	-11.3416
▁nüsxə	-11.3416
▁prioritet	-11.3416
▁seçici	-11.3416
▁sığış	-11.3416
▁səlahiyyət	-11.3416
▁verilməməsi	-11.3416
▁yamsılan	-11.3416
▁yenidənqurma	-11.3416
▁yoğunluk	-11.3416
▁Şika	-11.3416
▁Şirkəti	-11.3416
▁Ərazi	-11.3416
abilitasiya	-11.3416
atareya	-11.3416
ratoriya	-11.3416
▁2.4	-11.3416
▁Kahka	-11.3416
▁Russell	-11.3416
▁Sterlin	-11.3416
▁Times	-11.3416
▁afalla	-11.3416
▁bacım	-11.3416
▁durdurur	-11.3416
▁etkilen	-11.3416
▁inqilab	-11.3416
▁müqavi	-11.3416
▁qoxu	-11.3416
▁qəhrəman	-11.3416
▁studiya	-11.3416
▁sürtü	-11.3416
▁təşvi	-11.3416
▁Çalış	-11.3416
▁aparıcı	-11.3416
▁değil	-11.3416
▁fırlad	-11.3416
▁qovlu	-11.3416
▁ödüllendir	-11.3416
rect	-11.3416
rokuror	-11.3416
▁Kusto	-11.3416
▁Qaydalar	-11.3416
▁Risk	-11.3416
▁White	-11.3416
▁ayağındakı	-11.3416
▁benze	-11.3416
▁fayllar	-11.3416
▁konuşma	-11.3416
▁meyilli	-11.3416
▁paketi	-11.3416
▁sehir	-11.3416
▁terap	-11.3416
▁çarx	-11.3416
trakt	-11.3416
ölməçə	-11.3416
▁tunel	-11.3416
▁variant	-11.3416
▁yamsılama	-11.3416
lamaktı	-11.3416
parta	-11.3416
▁Aerona	-11.3416
▁bölmə	-11.3416
▁dırmaş	-11.3416
▁naqilin	-11.3416
▁ölçerse	-11.3416
▁önümd	-11.3416
▁əsəbi	-11.3416
▁müdrük	-11.3416
▁ödəyə	-11.3416
▁Cohen	-11.3416
▁fərqlənir	-11.3416
▁təhl	-11.3416
▁uçtu	-11.3416
▁yaranmasını	-11.3416
▁Elmi	-11.3416
▁Stand	-11.3416
▁dördbuca	-11.3416
▁keşfetmemiz	-11.3416
▁pendir	-11.3416
▁pişikd	-11.3416
▁Taksini	-11.3416
▁təbliğ	-11.3416
▁əngəllə	-11.3416
məkhaq	-11.3416
veriş	-11.3416
▁dolayı	-11.3416
▁tarazlığın	-11.3416
▁Vaxt	-11.3416
▁Yapon	-11.3416
▁macəra	-11.3416
▁vəhşi	-11.3416
▁Romanımda	-11.3416
▁Tort	-11.3416
▁menus	-11.3416
▁ticar	-11.3416
egel	-11.3416
▁Black	-11.3416
▁cəzalandır	-11.3416
▁ulaş	-11.3416
▁zəhmət	-11.3416
▁zəmanət	-11.3416
▁yığımlar	-11.3416
▁interval	-11.3416
▁qurbanları	-11.3416
▁tortu	-11.3416
▁neyronlar	-11.3416
▁endirdik	-11.3416
▁törədilənlər	-11.3416
▁sövdə	-11.3416
▁klav	-11.3416
▁Düşmən	-11.3416
▁Təhlükə	-11.3416
▁şərh	-11.3416
▁hünülər	-11.3416
▁taksi	-11.3416
▁çıxardırıq	-11.3416
▁işğal	-11.3416
▁köpük	-11.3416
▁Alams	-11.3416
aştırma	-11.3416
tual	-11.3416
▁Yaradılış	-11.3416
▁öp	-11.3416
▁Təkrar	-11.3417
▁zərbə	-11.3417
▁eşidər	-11.3417
▁fokuslanmaq	-11.3417
▁avadanlıqları	-11.3417
▁əyləşi	-11.3417
▁geo	-11.3417
▁uyduları	-11.3417
▁izlənmə	-11.3417
üzyon	-11.3417
▁Harold	-11.3417
▁serial	-11.3417
tumun	-11.3417
▁buferləri	-11.3417
▁izləyiciləri	-11.3417
alanmalar	-11.3417
▁böyütmək	-11.3417
▁Komputeri	-11.3417
▁kəpənəklər	-11.3417
▁gerçek	-11.3417
▁peyğımbər	-11.3417
▁Ətrafınız	-11.3417
▁razılaşır	-11.3417
▁Səth	-11.3417
▁Tikal	-11.3417
▁Kənar	-11.3417
▁tasar	-11.3417
▁hip	-11.3417
▁İmkan	-11.3417
trino	-11.3417
ahət	-11.3417
▁uzanan	-11.3417
▁çevrə	-11.3417
▁İnternetdə	-11.3417
▁Dərk	-11.3417
▁Dehli	-11.3417
▁Cinayət	-11.3417
▁Texnik	-11.3417
▁olmayacağını	-11.3417
▁qələbə	-11.3417
▁təəccüb	-11.3417
▁Tibetd	-11.3417
değer	-11.3417
▁Albert	-11.3417
▁çalışqan	-11.3417
▁firma	-11.3417
▁toxunduğu	-11.3417
▁Əşya	-11.3417
▁bezdir	-11.3417
▁qoymuşdu	-11.3417
▁Gələcə	-11.3417
▁hiylə	-11.3417
▁Maaş	-11.3417
▁İspaniya	-11.3417
▁getdiyimdə	-11.3417
▁arzuladığım	-11.3417
▁görkəm	-11.3417
▁Masailər	-11.3417
▁tozlandırıcılar	-11.3417
▁əzmi	-11.3417
ruslar	-11.3417
▁gücləndirmək	-11.3417
▁prosessor	-11.3417
▁təhk	-11.3417
▁aclığ	-11.3417
▁doğulduğu	-11.3417
oyabr	-11.3417
ıydı	-11.3417
▁lütf	-11.3417
▁Ölçüsün	-11.3417
əmmət	-11.3417
▁təmir	-11.3417
▁türk	-11.3417
▁humanist	-11.3417
▁öldüyü	-11.3417
▁Sufizm	-11.3417
▁Live	-11.3417
▁Yaratdığ	-11.3417
▁koloni	-11.3417
▁illüm	-11.3417
▁qurulmuş	-11.3417
▁nəfs	-11.3417
▁razılaşdı	-11.3417
osfer	-11.3417
▁yorucu	-11.3417
▁Tayl	-11.3418
▁ömrünü	-11.3418
▁məhdudlaş	-11.3418
▁olunmur	-11.3418
▁komputer	-11.3418
▁konstitusiya	-11.3418
▁Gəlmə	-11.3418
▁keyfiyyəti	-11.3418
▁arzusunda	-11.3418
▁mənzili	-11.3418
▁məskunlaşm	-11.3418
▁Ceff	-11.3418
aşqınl	-11.3418
▁eqoizm	-11.3418
▁geriləmə	-11.3418
▁yaxşılaşma	-11.3418
teknoloji	-11.3418
pertlər	-11.3418
əngində	-11.3418
▁tənqid	-11.3418
▁təqaüd	-11.3418
▁motor	-11.3418
▁parıl	-11.3418
▁heçkəs	-11.3418
▁sevindir	-11.3418
▁qıra	-11.3418
▁çağırış	-11.3418
▁kapitalist	-11.3418
inasiyalar	-11.3418
▁pyes	-11.3418
▁fiqur	-11.3418
atçısın	-11.3418
▁mülkiyyət	-11.3418
▁arzumuz	-11.3418
▁yörüngemiz	-11.3418
▁bucağı	-11.3418
▁leş	-11.3418
▁mümkündü	-11.3418
▁döyür	-11.3418
▁doldurmalı	-11.3418
▁mehriban	-11.3418
▁materik	-11.3418
▁gösteriyor	-11.3418
▁hör	-11.3418
▁oyunçu	-11.3418
▁öyə	-11.3418
▁lövhə	-11.3418
▁fars	-11.3418
▁barbar	-11.3418
▁Audi	-11.3418
▁kaset	-11.3418
▁küçələrin	-11.3418
▁tutulmuş	-11.3418
▁çillər	-11.3418
tirebil	-11.3418
olej	-11.3418
▁1982-	-11.3418
▁çəkilmə	-11.3418
xem	-11.3418
▁taxta	-11.3419
▁Conson	-11.3419
▁məntiq	-11.3419
▁cibimdə	-11.3419
▁yapıl	-11.3419
▁bəxş	-11.3419
▁Avia	-11.3419
▁Bacılarımı	-11.3419
▁füs	-11.3419
▁ofis	-11.3419
▁Terminator	-11.3419
▁Ağıll	-11.3419
iliği	-11.3419
ərəkət	-11.3419
▁zədələr	-11.3419
▁Televizor	-11.3419
▁Matter	-11.3419
▁Göy	-11.3419
▁vəsait	-11.3419
▁hiyləgərli	-11.3419
▁Yazıçılıq	-11.3419
▁Anceles	-11.3419
tılıyor	-11.3419
▁mesajlaşm	-11.3419
▁boşluğu	-11.3419
▁Varlı	-11.342
▁hesabatlarını	-11.342
▁torna	-11.342
▁istiləndi	-11.342
▁dəyişmir	-11.342
▁Samanyolu	-11.342
etmedi	-11.342
▁cəza	-11.342
▁Səmada	-11.342
beklen	-11.342
▁münasibətim	-11.342
▁köçür	-11.342
▁görüntüsün	-11.342
▁açılma	-11.342
▁qaraj	-11.342
▁etkileşme	-11.342
▁İrq	-11.342
▁Nuh	-11.342
▁yardımçı	-11.342
▁gətirmişdi	-11.342
▁Kəndimizdə	-11.342
▁rənglən	-11.342
▁patentlə	-11.342
▁yaratsın	-11.342
▁pozul	-11.342
▁Buddalar	-11.342
ediyor	-11.342
▁termostat	-11.342
▁adlandırılmış	-11.342
▁yanınızda	-11.3421
ləcəkdi	-11.3421
▁tətil	-11.3421
▁iyun	-11.3421
▁mətbəx	-11.3421
▁tarla	-11.3421
try	-11.3421
▁impl	-11.3421
▁qatlayı	-11.3421
▁Turn	-11.3421
▁öğret	-11.3421
▁şekillendiril	-11.3421
▁gücləndi	-11.3421
▁bəxti	-11.3421
▁mənbəyi	-11.3421
əzakətl	-11.3421
▁188	-11.3421
▁Sheph	-11.3421
▁Yunan	-11.3421
▁valideynlərim	-11.3421
▁müx	-11.3421
▁öyrəş	-11.3421
▁roke	-11.3421
▁soruşmuş	-11.3422
▁verildiyini	-11.3422
▁istehsalçı	-11.3422
▁evrim	-11.3422
▁getməyimizi	-11.3422
▁Post	-11.3422
▁göstərsəydi	-11.3422
▁ağırlaş	-11.3422
▁görsənir	-11.3422
▁sevilir	-11.3422
▁bənzətmə	-11.3422
▁Səhra	-11.3422
▁Kimliyimi	-11.3422
▁Hərşey	-11.3422
▁alıcılar	-11.3422
▁hazırlaşırdı	-11.3422
▁irqin	-11.3422
atçıları	-11.3422
▁gərgin	-11.3422
▁cinsiyyət	-11.3422
▁Fikirləşir	-11.3422
▁Harv	-11.3423
▁xalaları	-11.3423
▁qarışığı	-11.3423
▁varlığından	-11.3423
▁yönlendirilm	-11.3423
▁cavablandır	-11.3423
▁formalaşdırı	-11.3423
▁törəyi	-11.3423
▁səfehlik	-11.3423
▁telefonumuzu	-11.3423
▁qütbün	-11.3423
▁təxəyyülü	-11.3423
▁Qızıl	-11.3423
eologiyanı	-11.3424
ememe	-11.3424
▁inamım	-11.3424
ndaşla	-11.3424
▁bölüşdür	-11.3424
▁eğitti	-11.3424
lly	-11.3424
▁kəsilmə	-11.3424
▁qaçırma	-11.3424
▁fark	-11.3424
▁genlərimizi	-11.3424
▁İstəyir	-11.3424
▁çalıcı	-11.3424
yariya	-11.3424
▁cızma	-11.3425
▁Masa	-11.3425
▁yüksəy	-11.3425
▁üfürmək	-11.3425
▁West	-11.3425
▁Gilləm	-11.3425
▁yavaşlat	-11.3425
▁yetər	-11.3425
çülü	-11.3425
▁Braun	-11.3425
▁emosiya	-11.3425
▁itirdiyiniz	-11.3425
▁örtür	-11.3425
▁üstünlüyü	-11.3425
gulam	-11.3426
arter	-11.3426
▁itirməyi	-11.3426
▁satmaq	-11.3426
▁makina	-11.3426
▁rota	-11.3426
▁sayılır	-11.3426
▁umursama	-11.3426
▁dağıtma	-11.3426
aplanmışlar	-11.3426
▁durum	-11.3426
▁Kumullar	-11.3426
▁Səhv	-11.3427
▁inanıl	-11.3427
▁tutulur	-11.3427
▁mələk	-11.3427
şağı	-11.3427
▁bişe	-11.3427
▁soruşduğu	-11.3427
▁çətinləşdirir	-11.3427
▁qəh	-11.3427
▁çabala	-11.3427
▁kifayətlənmə	-11.3427
▁çıl	-11.3427
əsvermə	-11.3427
▁vak	-11.3427
▁Qazı	-11.3427
▁köşkü	-11.3427
▁ağlayardı	-11.3427
tter	-11.3428
▁Bip	-11.3428
qışlayırlar	-11.3428
▁Dəyişikliyi	-11.3428
▁Gələcəkdə	-11.3428
▁cəmiyyətimizdə	-11.3428
▁Sahi	-11.3428
▁maili	-11.3428
üds	-11.3428
▁yükləy	-11.3428
▁dostluq	-11.3428
▁iliş	-11.3428
▁CN	-11.3428
▁uzaqlaşdırmaq	-11.3428
▁buraxacaq	-11.3428
kulumu	-11.3428
▁qoşulacaq	-11.3428
ogh	-11.3428
▁tutmasını	-11.3428
iymiş	-11.3428
▁uçurum	-11.3429
▁bitəndə	-11.3429
▁güldü	-11.3429
▁göstərmir	-11.3429
▁oditoryum	-11.3429
rfo	-11.3429
▁pas	-11.3429
ütf	-11.3429
▁oturacağı	-11.3429
▁sezi	-11.343
▁Keplər	-11.343
▁Slo	-11.343
llo	-11.343
eziyada	-11.343
▁karşılaştırı	-11.343
▁vurur	-11.343
▁pilləkən	-11.343
▁fut	-11.343
▁təəccüblənmiş	-11.343
▁dəyişik	-11.343
▁eqonuz	-11.3431
dlarımızı	-11.3431
▁psixo	-11.3431
▁psixologiyası	-11.3431
▁sürmək	-11.3431
▁asanlaşdır	-11.3431
▁yoxlanı	-11.3431
▁Qurduğu	-11.3431
▁2008	-11.3431
menti	-11.3431
▁tapacağı	-11.3431
▁yansım	-11.3431
▁yönləndir	-11.3432
▁Aralarında	-11.3432
▁Qorxu	-11.3432
▁dilimində	-11.3432
▁dayaz	-11.3432
▁böyümək	-11.3432
▁normaların	-11.3432
▁48	-11.3432
▁kum	-11.3432
▁İtir	-11.3432
▁adlandırdığı	-11.3432
▁Carl	-11.3432
▁qorxmay	-11.3432
▁Manh	-11.3433
▁törət	-11.3433
▁şəbəkəmiz	-11.3433
▁araştırma	-11.3433
▁ağıllar	-11.3433
▁qaldırmağ	-11.3433
▁düşündürü	-11.3433
▁quyusu	-11.3433
əzləri	-11.3433
▁mexanik	-11.3433
▁şax	-11.3434
▁tozluq	-11.3434
▁edəbiləcək	-11.3434
▁kraliça	-11.3434
▁damarları	-11.3434
▁yelpik	-11.3434
▁uzaklık	-11.3434
▁qanunvericilik	-11.3434
▁alabil	-11.3434
ketin	-11.3435
▁ahəng	-11.3435
ffaf	-11.3435
▁Tok	-11.3435
▁aşılay	-11.3435
▁qurmalı	-11.3435
▁oyad	-11.3435
▁dəyişim	-11.3435
▁Açıq	-11.3435
▁caz	-11.3435
dendr	-11.3436
▁quruldu	-11.3436
▁predmetdir	-11.3436
▁Planetarisini	-11.3436
▁birləşdirib	-11.3436
layabilir	-11.3436
zaları	-11.3436
▁Hern	-11.3436
▁Pul	-11.3436
▁mö	-11.3436
AS	-11.3436
▁Dig	-11.3436
▁tamamlama	-11.3436
▁bəsləyə	-11.3436
▁Nənəsi	-11.3436
▁Saç	-11.3437
▁mey	-11.3437
▁Smo	-11.3437
▁tənliy	-11.3437
▁Xahi	-11.3437
▁hissəciy	-11.3438
▁blogçu	-11.3438
xara	-11.3438
▁Doğrudur	-11.3438
▁Inanı	-11.3438
▁Xatırlayı	-11.3438
hop	-11.3439
▁yığıl	-11.3439
▁danışıqların	-11.3439
▁gördüyümü	-11.3439
arçacıq	-11.3439
ikay	-11.344
▁ərazisində	-11.344
▁dəstəsi	-11.344
▁asdıq	-11.344
iten	-11.344
çəsi	-11.344
▁gəzdirmə	-11.3441
▁çıxmaz	-11.3441
üksək	-11.3441
▁zəh	-11.3441
▁dönmək	-11.3441
▁Qut	-11.3441
▁yoxluğu	-11.3441
▁dəriniz	-11.3441
▁Sənətkar	-11.3441
ağız	-11.3442
▁nişa	-11.3442
▁baxmağımız	-11.3442
▁sens	-11.3442
▁cəhdlərini	-11.3442
çular	-11.3443
▁Ciy	-11.3443
▁olmasaydı	-11.3443
təşəkk	-11.3444
▁Həbs	-11.3444
▁oxşam	-11.3444
mbiya	-11.3444
▁Coz	-11.3444
▁satış	-11.3444
▁cibinli	-11.3445
▁qabiliyyətimiz	-11.3445
▁olunduqda	-11.3445
yalın	-11.3445
▁zorlama	-11.3445
▁Kö	-11.3445
▁DC	-11.3445
uto	-11.3446
hiş	-11.3446
oncu	-11.3447
▁azalıb	-11.3447
▁balıq	-11.3447
▁qırıqlığın	-11.3447
inja	-11.3447
▁dükan	-11.3447
▁Kara	-11.3447
▁hərşey	-11.3448
▁eşitmiş	-11.3448
▁oynama	-11.3448
▁götürmüşdü	-11.3448
▁yazdıqların	-11.3448
eyim	-11.3448
▁bildirdi	-11.3449
▁sülhü	-11.3449
inatord	-11.3449
mişlerdi	-11.3449
▁cəmlə	-11.3449
▁katib	-11.3449
▁aralıd	-11.345
▁başlatdığı	-11.345
▁dırnağı	-11.345
▁endiyi	-11.345
▁ağard	-11.345
▁sağlamlığı	-11.345
dekileri	-11.3451
▁Boş	-11.3451
tinq	-11.3451
▁tara	-11.3451
icero	-11.3451
siyyət	-11.3451
uper	-11.3452
▁Cent	-11.3452
▁xatırlamaq	-11.3452
▁Qre	-11.3453
etimiz	-11.3453
▁bacarıqlar	-11.3454
▁dərisin	-11.3454
▁donu	-11.3454
▁əsgər	-11.3454
▁neu	-11.3455
obotu	-11.3455
▁yaradıcılığ	-11.3455
yıcı	-11.3455
▁Mak	-11.3456
▁Azadlığı	-11.3456
▁məx	-11.3456
▁ex	-11.3456
▁zillə	-11.3456
▁sevər	-11.3456
▁müştərisi	-11.3457
▁durduğu	-11.3458
yüzyıl	-11.3458
▁böyüyür	-11.3458
andel	-11.3458
▁İsland	-11.3458
ineral	-11.3458
▁Həyatınızı	-11.3459
▁xoşlam	-11.346
▁həmkarımız	-11.346
▁sağol	-11.346
▁müzakirəmiz	-11.3461
▁küçəsi	-11.3461
▁ərə	-11.3461
▁Indi	-11.3461
▁fikirləşmiş	-11.3461
▁dəstəkləmi	-11.3461
▁hadisəsində	-11.3462
▁avia	-11.3462
▁Ovçul	-11.3462
▁zorakılığı	-11.3462
▁etməyəcək	-11.3463
▁diplomu	-11.3463
▁görünmək	-11.3463
stat	-11.3463
▁gözlemle	-11.3463
▁mühəndisliyi	-11.3463
▁gor	-11.3464
▁küncün	-11.3464
▁küləyin	-11.3464
▁komik	-11.3464
▁göstərməy	-11.3465
apını	-11.3466
▁şanslı	-11.3466
▁yapışdırma	-11.3466
▁Bədən	-11.3466
▁həndəsə	-11.3466
▁sehrl	-11.3467
abrik	-11.3467
▁azaltma	-11.3467
▁gəzdiri	-11.3467
▁seçməyi	-11.3467
▁Kai	-11.3469
▁21.	-11.3469
▁Afrikalılar	-11.3469
▁heli	-11.347
▁dinləyər	-11.347
▁vacibliyin	-11.347
▁ayırmır	-11.347
çimizdə	-11.347
axlamış	-11.3471
ofe	-11.3471
▁hazırlamağımız	-11.3471
▁sevildiyi	-11.3471
şarc	-11.3471
▁sərhədlərini	-11.3472
▁deney	-11.3474
▁depres	-11.3474
▁yolumu	-11.3474
▁yandır	-11.3474
▁qığılcımı	-11.3475
▁tərəfdarı	-11.3475
▁getməmiş	-11.3475
▁Kent	-11.3475
bbi	-11.3476
▁qoymur	-11.3476
▁Cümlə	-11.3476
▁Çoxunuz	-11.3477
maqneti	-11.3477
ğim	-11.3478
▁sevinə	-11.3478
▁məsk	-11.3479
ediya	-11.3479
▁əksər	-11.348
▁dağları	-11.348
▁bərabərliyi	-11.348
▁bacarığımız	-11.3481
▁faza	-11.3481
▁olmazsa	-11.3481
hini	-11.3482
▁yaramır	-11.3483
▁söylədik	-11.3483
▁tozu	-11.3483
finiz	-11.3483
▁ölçülə	-11.3484
▁pozğunlu	-11.3484
wei	-11.3484
▁CS	-11.3484
▁əlil	-11.3485
▁Eg	-11.3485
▁Duy	-11.3486
ışda	-11.3486
▁qonaq	-11.3487
▁kes	-11.3488
▁siyasətçi	-11.3488
▁sürür	-11.3488
▁fəaliyyətlərin	-11.3488
▁izləyəcək	-11.3489
▁üzvünü	-11.3489
▁qisimini	-11.3489
▁gözəlliyi	-11.3489
▁qalmışdı	-11.349
▁Gedi	-11.349
▁oğlumuz	-11.349
▁qaldırdı	-11.349
▁öldürməyə	-11.349
atur	-11.3491
▁Alt	-11.3491
tten	-11.3492
phone	-11.3492
ces	-11.3493
▁vir	-11.3493
rial	-11.3494
▁devi	-11.3497
loni	-11.3497
rmada	-11.3498
▁birləşməsi	-11.3498
yabileceğimiz	-11.35
▁çalışırdı	-11.35
▁xeyirli	-11.3501
mağınız	-11.3501
uck	-11.3502
▁inanmaq	-11.3502
ech	-11.3503
▁Tab	-11.3503
▁anları	-11.3503
gedə	-11.3504
▁dəyərlidir	-11.3505
▁Valideyinlərim	-11.3506
▁gecələri	-11.3508
▁davası	-11.3509
çıxmışdı	-11.3509
▁axtarma	-11.3509
▁dağıdıl	-11.351
▁OM	-11.351
▁rahatla	-11.351
▁azalı	-11.3511
▁təb	-11.3513
▁qəlbini	-11.3513
▁azaldır	-11.3513
▁çalışdığım	-11.3514
▁güzgüsü	-11.3514
▁böcəklər	-11.3515
▁duyğuları	-11.3515
▁Əsgərl	-11.3515
▁elan	-11.3516
▁yaşayıram	-11.3516
▁Uzaqlaş	-11.3516
ahren	-11.3517
rub	-11.3518
▁yapm	-11.3518
▁qalması	-11.3519
▁ağzım	-11.352
▁uzaqlaşdır	-11.3521
serve	-11.3522
▁başlamağın	-11.3524
ərd	-11.3524
▁müxtəlifliyi	-11.3525
▁sürətləndirmə	-11.3526
▁şifrələni	-11.3526
▁tapdi	-11.3526
erlərdə	-11.3526
lerimizde	-11.3526
▁Ortada	-11.3527
eyvənd	-11.3527
▁We	-11.3527
▁qapısını	-11.3528
Henr	-11.3528
▁öyrədəcə	-11.353
▁AC	-11.3531
▁oturur	-11.3532
▁məhsullarımız	-11.3532
tmək	-11.3534
ğe	-11.3534
▁yoxsullu	-11.3536
oxusun	-11.3536
▁işləyirəm	-11.3537
▁düşməsini	-11.3537
▁sağald	-11.3537
▁idarəçiliyi	-11.3537
▁təəccüblənm	-11.3538
▁inandığımız	-11.3539
▁yaradacağı	-11.3539
▁Hol	-11.354
▁işlədik	-11.354
▁nötr	-11.3541
▁örtülü	-11.3542
▁nəsillərin	-11.3543
▁yaşlarında	-11.3544
materialist	-11.3545
▁anlatama	-11.3545
▁yerləşdiri	-11.3548
atlarını	-11.3551
ilasediciləri	-11.3552
▁qayğısın	-11.3552
▁gözlərimi	-11.3553
▁Pl	-11.3553
▁sok	-11.3553
▁Ölümlərin	-11.3554
olarında	-11.3554
▁qazanırlar	-11.3555
▁çalışmır	-11.3556
▁açmaq	-11.3556
▁çarpmayaca	-11.3558
duğunuz	-11.3559
▁olmadıq	-11.3559
▁girdiyin	-11.356
▁Mit	-11.3561
▁edəcəyimi	-11.3561
▁Mək	-11.3562
▁bioloq	-11.3565
fımız	-11.3565
▁uşaqlığını	-11.3566
ugw	-11.3567
▁gölü	-11.3568
▁döndük	-11.3569
▁görünsə	-11.357
▁geçir	-11.3571
▁ağlayar	-11.3572
▁Amerikanları	-11.3574
▁keçsə	-11.3575
tic	-11.3576
▁mak	-11.3578
▁Lanka	-11.358
▁xatırladır	-11.358
▁atdıq	-11.3581
▁kaybol	-11.3581
▁addımları	-11.3584
iyyətli	-11.3584
▁Tri	-11.3584
▁slaydlar	-11.3584
▁etkileşi	-11.3584
▁toplaşı	-11.3584
▁av	-11.3585
▁xao	-11.3586
▁buraxılan	-11.3587
▁proyektini	-11.3589
▁Bina	-11.359
▁bükü	-11.3591
▁Metropolit	-11.3591
▁planla	-11.3593
▁Alb	-11.3595
atarların	-11.3596
etində	-11.3597
▁60-	-11.3598
anali	-11.3599
ecekti	-11.36
▁yaxşılaşdır	-11.36
▁qəb	-11.3601
▁mövzusunu	-11.3601
▁oxuyurdu	-11.3602
▁gerçəkləşdi	-11.3602
▁şah	-11.3603
▁dərslərdən	-11.3605
▁almaları	-11.3606
▁serpiştir	-11.3607
cont	-11.3608
▁idarəsi	-11.3608
▁Lok	-11.3611
▁yoluxm	-11.3612
▁qalxması	-11.3612
▁azlığın	-11.3614
▁tapılm	-11.3615
▁gözləmək	-11.3616
▁axtardığı	-11.3617
▁etməyəcəyini	-11.3617
▁müəllimlə	-11.3619
▁3.	-11.362
▁yaşın	-11.3622
▁Tal	-11.3623
▁bəşəri	-11.3626
▁Key	-11.3626
▁parla	-11.3627
kop	-11.3628
▁doyu	-11.3629
sor	-11.3635
əcəkləri	-11.3638
▁maraqlandır	-11.3639
▁stu	-11.364
▁itirən	-11.3641
▁öldük	-11.3644
▁güclə	-11.3648
▁tanıyar	-11.365
ilanq	-11.3651
▁bədənimiz	-11.3651
▁yazmağ	-11.3653
yok	-11.3654
giya	-11.3654
minist	-11.3654
▁qərbi	-11.3656
▁parçacığını	-11.3658
▁yerleş	-11.366
▁sonlandırm	-11.366
▁büdcəsi	-11.3661
cıl	-11.3661
▁Ter	-11.3663
▁ağrısı	-11.3663
▁rəsmin	-11.3664
▁surət	-11.3668
▁yayımlanma	-11.367
▁mülahizəsi	-11.367
▁səyləri	-11.3673
▁birleştir	-11.3674
▁tozunu	-11.3674
leyebilir	-11.3677
▁ekstr	-11.3682
lock	-11.3683
▁tiki	-11.3683
▁halqalarını	-11.3683
▁xəstəliklə	-11.3683
▁Gündə	-11.3683
▁dərslə	-11.3684
▁resursları	-11.3685
▁valideynlərimiz	-11.3689
▁addımla	-11.3689
atacağı	-11.3689
▁təminatını	-11.3689
▁gəmiləri	-11.3693
▁eşitdi	-11.3695
tutması	-11.3695
gilə	-11.3696
▁haqqım	-11.37
Kenn	-11.3701
ığını	-11.3701
▁protestan	-11.3703
▁kinonu	-11.3704
alətin	-11.3708
▁çıxıblar	-11.3708
▁tədqiqatçıları	-11.371
▁qazandığım	-11.371
▁açıqlaya	-11.3711
▁toplana	-11.3711
▁barmaqlarımı	-11.3713
▁tanınmışdı	-11.3719
▁qiyamın	-11.3719
▁hisslərini	-11.3721
▁buludunu	-11.3722
▁asırdı	-11.3722
▁bədənlər	-11.3725
▁avtobusu	-11.3726
▁professoru	-11.3726
tünd	-11.3726
▁bişirməy	-11.3732
▁Manc	-11.3733
▁yetişməy	-11.3734
▁ailələrini	-11.3735
eros	-11.3735
▁çeki	-11.3738
▁oxunu	-11.3739
▁velosipedim	-11.3739
▁hazırlanmışdı	-11.374
ceğim	-11.3741
▁qazandırmaq	-11.3743
▁ayrılma	-11.3746
▁dərinliy	-11.3748
▁göstereme	-11.3752
▁bəzəyi	-11.3753
▁Angelin	-11.3754
törəmələr	-11.3755
▁cəhətlərimiz	-11.3757
▁kimliyimizi	-11.3761
▁işləni	-11.3762
▁muzeyləri	-11.3765
▁sav	-11.3765
▁yayın	-11.3766
▁qurmağı	-11.3771
▁izlərini	-11.3773
▁yadımda	-11.3779
▁oynadıq	-11.3782
▁həmkarlarımı	-11.3783
▁dinləməy	-11.3784
latın	-11.3785
▁göndərərə	-11.3785
▁saxlamağı	-11.3786
96	-11.3788
▁tikili	-11.379
▁ailəniz	-11.3791
▁qoruy	-11.3792
ids	-11.3794
▁dəstəkləyi	-11.3798
larınızda	-11.3801
▁ricam	-11.3803
▁ehtiyacları	-11.3803
▁marağım	-11.3803
▁qurulaca	-11.3807
▁düşərgələrin	-11.3808
ıştı	-11.3809
▁log	-11.3825
▁uzaqlaşdığımız	-11.3826
▁hekayələrini	-11.3828
▁mağazalar	-11.383
▁çoxala	-11.3834
▁içirdi	-11.3842
▁Qanad	-11.3842
▁baxmır	-11.3845
▁radionu	-11.3847
erim	-11.3849
▁gözləntiləri	-11.3855
imimiz	-11.3855
NA	-11.3857
CO	-11.3862
▁kuy	-11.3863
▁doğumun	-11.3863
etdə	-11.3864
çıq	-11.3865
▁sürdük	-11.3868
▁böyüdük	-11.3869
abet	-11.3869
▁qrafikası	-11.3871
▁döyülmü	-11.3872
▁prinsipini	-11.3873
▁yavaşlama	-11.3879
▁yorulm	-11.3879
▁mərhələsin	-11.3881
kümele	-11.3882
▁yavaşlay	-11.3884
incan	-11.3885
▁maç	-11.3889
▁Adəm	-11.389
▁qrafikini	-11.3891
▁Aqua	-11.3894
▁otellər	-11.3898
▁öldürür	-11.39
▁misiyasın	-11.3905
▁sayırdı	-11.3909
rukl	-11.3913
▁kartlar	-11.3917
▁ərim	-11.3927
fş	-11.3928
ləşir	-11.3933
▁düşünərə	-11.3935
timiz	-11.3942
▁özəllik	-11.3944
▁fikirləşsə	-11.3947
▁kədərlənm	-11.3947
yut	-11.3954
▁karto	-11.3961
▁yaşayaca	-11.3962
▁fikirləşməmişdi	-11.3966
▁bəyənm	-11.3969
▁birləşdiyi	-11.3972
▁bağçasın	-11.3986
▁düzəldil	-11.3987
▁qışqırmağ	-11.3987
dırmadı	-11.3988
▁ekv	-11.399
çəkmə	-11.3991
anmış	-11.3992
▁Xoşum	-11.3992
▁oğlunu	-11.3992
▁bakteriyalar	-11.3994
▁işarələri	-11.4
▁kompüteriniz	-11.4001
▁uzaqlığın	-11.4001
ende	-11.4002
▁mağazası	-11.4002
▁Qul	-11.4005
▁daşıyıcıları	-11.4014
▁memarlar	-11.402
▁buraxdıq	-11.4023
▁dərəsi	-11.4024
▁toxunul	-11.4032
▁kənarını	-11.4041
▁özəlləşdir	-11.4043
▁ifşaçını	-11.4048
ləyicilər	-11.4049
▁fokuslandı	-11.406
▁biləcəklərin	-11.4063
▁arzular	-11.4066
▁sənayesini	-11.4075
tabilir	-11.4075
▁edilmədiyi	-11.4076
▁İnsanl	-11.4078
▁dəstəklədi	-11.4078
▁kompyuterləri	-11.4086
tamay	-11.4089
▁seçəcək	-11.4096
▁43	-11.4097
▁anlaşılma	-11.41
▁vuruş	-11.4103
▁çalışı	-11.4115
▁görməni	-11.4119
▁çıxardıq	-11.4126
əvv	-11.4129
▁əhalisi	-11.4135
▁xoşlayırdı	-11.4137
ford	-11.4146
▁qaçmış	-11.4153
▁ölmə	-11.416
▁elementlərin	-11.4168
▁problemlərimiz	-11.4171
itmiş	-11.4176
▁gəzdi	-11.4181
▁seqmenti	-11.4182
▁döngülerini	-11.4182
▁sərnişinləri	-11.4182
▁tozlandırı	-11.4184
▁gezegenleri	-11.4185
▁İnsan	-11.4193
▁təəccübləndi	-11.4199
qara	-11.4202
▁qazanma	-11.4205
▁yönəldir	-11.422
aşdırılmış	-11.4225
▁Küveytdə	-11.4227
▁etmədiyimi	-11.4227
▁köşkdə	-11.423
ühafizəçi	-11.4232
qalın	-11.4232
▁layiqli	-11.4232
yğun	-11.4234
▁etməyimiz	-11.4235
▁üzür	-11.4236
ətbəx	-11.4245
▁gedəcə	-11.4248
məməyim	-11.4248
▁çəkilişlərin	-11.4259
eyle	-11.4265
▁çalışsa	-11.428
▁Ulduzlar	-11.4286
▁partnyorlar	-11.4286
▁Qit	-11.4295
▁nöqtələrində	-11.43
▁romanım	-11.43
▁uçu	-11.4309
▁Miras	-11.431
▁axtarı	-11.4316
▁bacarıql	-11.4318
layırsınız	-11.4322
▁parlam	-11.4323
▁araşdırmağ	-11.4323
ladık	-11.4327
sus	-11.4333
▁incəlik	-11.4338
azon	-11.4371
▁istəyənlər	-11.4378
rələrin	-11.4381
▁silahları	-11.4383
rive	-11.4394
▁hesablamalar	-11.4395
▁səyahətimiz	-11.4407
▁kuklalar	-11.4415
▁təkrarla	-11.4415
▁verəcəkləri	-11.4416
▁dəyişər	-11.4423
▁bak	-11.4428
▁solun	-11.4434
tıların	-11.4455
lvarı	-11.4456
▁Neda	-11.4459
▁proqramlarda	-11.4459
▁islahatlar	-11.4463
ebileceğini	-11.4464
▁getmədiyi	-11.4489
▁seçilir	-11.4495
▁əşyanı	-11.4504
▁Şəkillər	-11.4509
▁çayı	-11.4513
▁kullanı	-11.4518
▁oturanlar	-11.4522
vark	-11.4523
▁misallarda	-11.4527
▁qışqırır	-11.4531
▁anlamanız	-11.4536
▁bükül	-11.4538
▁sürətləndiri	-11.454
gülü	-11.4549
ow	-11.4552
▁sobaları	-11.4554
▁rəhbərli	-11.4556
▁təşkilatlanma	-11.4558
▁görünüşlərdə	-11.4564
suzluğ	-11.4565
▁apardıq	-11.4566
▁təyyarələrini	-11.4567
▁yaşamağımız	-11.4571
məyimin	-11.4581
uludlu	-11.4581
▁axtarışlar	-11.4588
▁göstəricilərini	-11.4592
▁yazıçılar	-11.4594
▁kanalı	-11.46
özümlülük	-11.4603
▁sənətimi	-11.4605
▁edilməsində	-11.4609
▁geylər	-11.4619
▁qumlu	-11.4624
iqtisadiyyatımız	-11.4629
dinan	-11.4635
▁saxlanıl	-11.4643
ezdi	-11.465
▁qatmaq	-11.4652
▁bölgəsində	-11.4659
eter	-11.4664
▁versə	-11.4664
▁səliqəsizli	-11.4671
▁polislər	-11.4677
▁çəkmişdi	-11.4688
öka	-11.4696
▁azalmasın	-11.4698
▁fikrimiz	-11.4701
▁məqsədimiz	-11.4702
▁molla	-11.4711
▁şirkətim	-11.4712
SM	-11.4723
▁dostumu	-11.4733
▁uzaqlaşı	-11.4739
▁böyüdür	-11.4754
▁oynadığı	-11.4764
▁yaşları	-11.4776
▁fərd	-11.48
▁sapdır	-11.4805
▁alqış	-11.4814
entləri	-11.4829
▁çağırırdı	-11.4848
alacaqlar	-11.4848
tülü	-11.4853
▁Xəstəli	-11.4855
▁çıxışı	-11.4861
▁23	-11.4865
▁topa	-11.4867
▁verilməsini	-11.4885
▁buraxı	-11.4892
▁qışqırı	-11.4908
▁doğ	-11.491
▁düşünürsü	-11.4924
▁Insanlar	-11.4925
▁rəsədxanalar	-11.4925
▁danışdıq	-11.4932
▁jurnalistlər	-11.4936
▁oğullar	-11.495
▁uğurum	-11.495
▁görmürü	-11.4953
▁genlər	-11.4958
iklerimiz	-11.4988
▁sondası	-11.4995
▁həşaratlar	-11.501
dıqların	-11.5014
▁rafi	-11.5015
▁fleytay	-11.5036
prov	-11.5036
ahzadə	-11.5042
opti	-11.5044
▁nəticələrin	-11.5062
▁göstərməyi	-11.5074
▁post	-11.509
▁kafe	-11.5092
ildiyiniz	-11.5109
▁işığ	-11.511
▁Nic	-11.5136
▁proqramın	-11.5136
▁siniflər	-11.5142
ssis	-11.5163
▁baxışların	-11.5169
▁Normalda	-11.5194
▁yaratdığımızda	-11.5195
▁sektorunda	-11.52
▁yaxınlaşırı	-11.523
elen	-11.5234
▁vəzifələr	-11.5248
▁başlanğıcını	-11.5255
▁yayılı	-11.5262
▁yalanın	-11.5272
jo	-11.528
ens	-11.5294
▁dizaynlar	-11.5295
▁razılığ	-11.5303
▁Bankını	-11.531
▁dəbdə	-11.5338
▁əsərlərini	-11.5345
▁inf	-11.5349
▁güvənin	-11.5359
▁Cəmiyyətin	-11.5359
▁vaxtımı	-11.538
▁tapıl	-11.538
700-	-11.5401
▁həyatınız	-11.5409
▁müharibələri	-11.5435
mesin	-11.5443
▁təbəqəsin	-11.5447
tze	-11.5449
uşaqlığım	-11.5467
AP	-11.549
▁qabiliyyətinizi	-11.5495
▁oxumağım	-11.5503
▁sevməy	-11.5518
▁təpələr	-11.5524
▁Ölkələrdə	-11.5548
aşınlarımız	-11.5554
▁təhlükəsi	-11.5578
▁Adamı	-11.5595
▁qabiliyyətləri	-11.5599
▁Emini	-11.5629
▁universitetləri	-11.5635
▁orqanlar	-11.565
▁Muzey	-11.5653
▁çevrilməsi	-11.5669
▁cümlələri	-11.5677
aritala	-11.5688
▁gəlmələrin	-11.5691
ibra	-11.5691
▁kamerası	-11.5693
▁Kitabları	-11.5702
əşər	-11.5715
Tür	-11.5722
ərurət	-11.5723
▁Yazıl	-11.5734
▁com	-11.5757
▁verdiyini	-11.5789
▁temperaturda	-11.5797
arlıq	-11.5856
▁çatdırır	-11.5885
▁sürfələri	-11.5904
▁məkanlar	-11.5906
▁gələcəklərin	-11.5914
▁gösterim	-11.5938
▁Yuxarı	-11.5939
▁ifaçıları	-11.5944
▁fikirləşirsə	-11.5965
lənməmiş	-11.5967
▁dağıla	-11.5976
▁konfliktlər	-11.5978
▁bağlayı	-11.598
riyaziyyatçıları	-11.5986
▁kitabımda	-11.5989
▁qarışı	-11.5994
əlcə	-11.6018
▁dəyişdirməy	-11.6027
▁köməkçi	-11.6028
▁Mus	-11.6042
▁qaranlığ	-11.6047
ılmadığı	-11.6069
▁əməliyyatın	-11.6076
iliyor	-11.6076
▁mühəndislərin	-11.6082
▁hərəkatları	-11.6107
▁Ira	-11.611
▁yanımızda	-11.614
ləndirmək	-11.6151
▁utandı	-11.6158
▁rahatlı	-11.6188
▁xətlər	-11.6211
rakə	-11.6233
oqram	-11.6235
▁toplamış	-11.6243
▁masamı	-11.6245
▁kvadratı	-11.6258
ötü	-11.6262
▁həv	-11.6332
▁mənbələr	-11.6351
▁vermirdi	-11.6351
▁alması	-11.6366
komp	-11.6366
▁layihəni	-11.6368
▁versiyasında	-11.6378
▁piy	-11.6388
axıl	-11.6389
▁Pol	-11.6398
rməkdən	-11.6402
rilmiş	-11.6403
▁imtahanı	-11.6409
▁Göt	-11.6458
▁qarışdırı	-11.6461
▁kağ	-11.6467
▁müsahibələrin	-11.6508
Yaxınl	-11.6515
oyunu	-11.657
▁beynini	-11.6576
▁törədil	-11.6577
▁tini	-11.6615
▁möhkəml	-11.664
▁anl	-11.6674
▁bombası	-11.6682
▁10-1	-11.6736
▁iflici	-11.6754
▁keçidin	-11.6755
▁Müəllimləri	-11.6769
▁inanmay	-11.6779
▁Fərq	-11.6783
ləşmişdi	-11.6783
▁İsveçrədə	-11.6794
▁etdirmə	-11.6796
▁küncdə	-11.6801
▁polislik	-11.6805
▁xatırlatdı	-11.6808
▁hərəkatlarda	-11.681
▁yeniliyi	-11.682
əksini	-11.6824
▁deyəcəyim	-11.6833
▁təcrübəmi	-11.6856
▁ataları	-11.6864
Y	-12.3101
G	-12.3257
X	-12.3259
!	-13.6197
J	-13.6198
U	-13.6199
Ö	-13.62
Ş	-13.6201
:	-13.6202
)	-13.6203
?	-13.6204
&	-13.6205
