<unk>	0
<s>	0
</s>	0
▁,	-2.87466
▁.	-3.25136
▁	-3.34494
ць	-3.94784
і	-3.95557
я	-4.13476
ы	-4.19051
;	-4.20514
е	-4.21846
▁&	-4.23397
у	-4.24572
▁і	-4.29713
ot	-4.44155
qu	-4.4445
▁што	-4.59626
х	-4.65193
▁з	-4.65515
▁ў	-4.69018
▁не	-4.73044
й	-4.76334
ў	-4.79422
▁я	-4.83298
м	-4.83639
▁на	-4.83834
а	-4.85227
▁гэта	-4.97048
цца	-5.04738
▁у	-5.21745
▁Я	-5.2698
ся	-5.40839
▁мы	-5.42471
▁да	-5.44565
ла	-5.48227
▁:	-5.48602
▁як	-5.50071
ю	-5.52599
лі	-5.55061
га	-5.57997
▁?	-5.58062
▁за	-5.59753
це	-5.68565
▁то	-5.69521
▁—	-5.69992
▁І	-5.71771
▁калі	-5.77763
на	-5.81565
▁вы	-5.83126
аў	-5.84405
▁па	-5.8696
ap	-5.89702
os	-5.89998
▁М	-5.92044
ь	-5.97931
ам	-5.98508
-	-5.99888
▁бы	-6.00898
(	-6.01574
▁)	-6.01574
▁пра	-6.08603
ую	-6.10341
▁каб	-6.13119
▁Гэта	-6.13163
▁больш	-6.14264
▁людз	-6.15409
для	-6.16311
мі	-6.17253
▁ад	-6.17531
▁У	-6.18681
ай	-6.20366
лькі	-6.26652
▁А	-6.27642
▁там	-6.2831
▁так	-6.29654
▁іх	-6.29965
сць	-6.31301
▁а	-6.32214
▁б	-6.35456
▁Але	-6.36754
▁мяне	-6.37267
▁было	-6.38716
▁але	-6.39731
▁гэты	-6.47583
ны	-6.49869
▁можа	-6.51101
▁ці	-6.53315
▁якія	-6.54229
яны	-6.55215
▁ве	-6.55267
кі	-6.55965
▁ё	-6.57948
ей	-6.58688
чы	-6.59409
▁час	-6.59943
▁яго	-6.60918
льмі	-6.62098
ён	-6.62384
▁нас	-6.63337
▁Сме	-6.67168
ага	-6.69409
▁Калі	-6.76024
ыя	-6.77083
▁На	-6.78533
к	-6.8013
▁ты	-6.81014
таго	-6.81337
мне	-6.81604
му	-6.82185
▁які	-6.83381
▁ўсё	-6.83557
▁ж	-6.84883
ем	-6.85019
▁К	-6.86726
юць	-6.87236
▁З	-6.88852
▁праз	-6.89623
гадоў	-6.92106
▁раз	-6.92404
раз	-6.96013
▁П	-6.96904
▁тым	-6.99598
трэба	-7.0002
ці	-7.01067
оў	-7.03186
▁Ён	-7.04843
не	-7.04907
▁-	-7.06211
цы	-7.06313
▁Як	-7.09833
ак	-7.10294
▁аб	-7.10405
▁вас	-7.10744
▁ім	-7.10979
амі	-7.11178
▁вам	-7.11211
яшчэ	-7.1171
▁сказа	-7.13735
▁пад	-7.1433
▁мае	-7.14526
▁Вы	-7.15602
▁С	-7.16556
▁дзе	-7.16703
сці	-7.16797
▁будзе	-7.17067
▁нашы	-7.17271
былі	-7.17517
▁жанчын	-7.18184
ая	-7.18296
▁проста	-7.19248
▁бо	-7.21114
▁ўсе	-7.21676
▁яе	-7.23493
▁Так	-7.24706
ых	-7.24715
зе	-7.25592
▁са	-7.25649
▁саб	-7.26889
ўся	-7.28095
▁нават	-7.28656
ш	-7.28801
▁Там	-7.29689
▁сябе	-7.29707
▁хто	-7.30044
ася	-7.33593
А	-7.33771
▁адзін	-7.34894
▁свет	-7.35083
▁павінн	-7.3526
была	-7.36135
▁нам	-7.37143
сама	-7.37654
▁іншы	-7.37674
▁мож	-7.38391
▁наша	-7.39344
го	-7.39629
▁шмат	-7.41423
ды	-7.41932
▁якая	-7.42113
ах	-7.42993
▁Не	-7.44072
▁пры	-7.46345
▁год	-7.46587
▁с	-7.47679
▁За	-7.4884
▁сама	-7.492
▁жыццё	-7.49288
▁гэтым	-7.50148
▁зрабі	-7.51034
жо	-7.51312
▁Д	-7.52007
М	-7.54201
быў	-7.55557
ва	-7.56035
чынам	-7.56307
шта	-7.56933
▁Дзякуй	-7.57857
▁Па	-7.57905
айго	-7.58615
▁пасля	-7.59501
▁Ян	-7.59858
▁чым	-7.59992
ой	-7.59996
ючы	-7.60097
▁Што	-7.61167
▁зразуме	-7.6121
дзень	-7.61759
рэч	-7.64027
та	-7.64217
ца	-7.643
▁ні	-7.65337
▁ніко	-7.65477
▁лепш	-7.6605
▁бачы	-7.66211
▁све	-7.66965
▁чалавек	-7.68786
▁Во	-7.68937
ку	-7.69048
▁Ці	-7.69932
▁сваё	-7.69942
прыклад	-7.70091
.	-7.70228
▁буду	-7.70524
асць	-7.71551
▁некалькі	-7.71794
плес	-7.71967
▁якую	-7.72219
▁працы	-7.72304
ка	-7.72891
▁голас	-7.74216
▁Т	-7.74419
▁змен	-7.74426
тым	-7.75237
▁Э	-7.75572
▁В	-7.75961
▁такі	-7.75989
▁рабі	-7.76806
▁момант	-7.77571
▁школ	-7.77709
▁яко	-7.77956
▁пчол	-7.79304
іся	-7.79637
▁наш	-7.79747
▁по	-7.79853
▁якім	-7.80915
▁дума	-7.81261
▁вос	-7.81446
▁Вось	-7.81617
▁кніг	-7.82244
ным	-7.82322
▁маё	-7.83703
тут	-7.8404
ля	-7.84244
асці	-7.84413
▁маю	-7.84866
могу	-7.85229
▁мужчын	-7.85385
▁м	-7.85483
▁ведаю	-7.85882
ымі	-7.86122
▁мо	-7.86732
▁новы	-7.8721
▁10	-7.88572
▁сапраўд	-7.88632
▁То	-7.90007
▁ян	-7.9006
▁кажа	-7.90222
▁свае	-7.90286
▁важна	-7.90977
▁частк	-7.91739
▁ва	-7.92016
н	-7.92674
▁добра	-7.9273
▁машын	-7.92802
▁справ	-7.92967
▁розны	-7.93663
йце	-7.93909
▁Ча	-7.9418
еце	-7.94411
▁жыцця	-7.94797
▁...	-7.97192
▁Такі	-7.97943
▁адна	-7.9836
кам	-7.98467
сіх	-7.98592
най	-7.99344
▁кожна	-7.9974
▁ме	-7.99911
▁усё	-8.00002
▁будучын	-8.00061
▁або	-8.00368
ведаем	-8.00432
▁якой	-8.01321
маль	-8.0156
▁сваім	-8.02307
ым	-8.02467
▁ням	-8.02995
▁кожны	-8.03158
▁цяжка	-8.04357
пладысмент	-8.04694
ры	-8.04725
дзе	-8.04804
▁веда	-8.04865
▁сам	-8.04881
авіта	-8.05027
▁ста	-8.0536
▁св	-8.05486
▁самы	-8.06215
▁робі	-8.07213
▁здароў	-8.07325
▁тако	-8.07876
▁хоча	-8.08546
▁вынік	-8.08818
▁шлях	-8.09005
▁ма	-8.09097
яў	-8.09143
іх	-8.09631
куль	-8.09829
▁сваі	-8.09908
▁працэс	-8.10089
▁дзяце	-8.10456
▁атрыма	-8.10465
▁месца	-8.11014
▁гэт	-8.11581
▁рэчы	-8.11742
▁ды	-8.12019
▁азнача	-8.12478
ае	-8.12846
▁адбыва	-8.12892
▁менш	-8.1302
сваю	-8.13439
▁ня	-8.13679
▁к	-8.14149
▁працу	-8.14246
▁думаю	-8.15038
%	-8.15662
▁патрэбна	-8.1586
ння	-8.1591
▁магчыма	-8.16669
▁інша	-8.17014
▁першы	-8.17133
▁пера	-8.175
▁Да	-8.17636
▁змяні	-8.17815
▁над	-8.18213
▁чалавека	-8.18257
▁некаторы	-8.18605
▁ўсім	-8.18623
▁усе	-8.18661
▁рук	-8.1887
▁працава	-8.19657
▁сям	-8.19688
▁часта	-8.20441
т	-8.208
▁адно	-8.20883
чу	-8.21595
▁неверагодна	-8.21651
▁праблем	-8.21781
ыць	-8.22393
▁працяг	-8.22795
▁гад	-8.23742
ль	-8.23888
▁ўбачы	-8.24514
▁гадзін	-8.24684
▁без	-8.24762
▁чаму	-8.24773
▁значы	-8.24846
▁20	-8.24887
ню	-8.24904
▁само	-8.24974
с	-8.25251
▁кажу	-8.25308
▁нова	-8.25313
ачу	-8.25363
нне	-8.25435
но	-8.2572
▁п	-8.25752
▁такім	-8.25912
▁дапамаг	-8.25968
▁ідэя	-8.26093
о	-8.26501
▁прыклад	-8.26589
ен	-8.26602
усім	-8.26697
за	-8.26763
ога	-8.26878
▁праца	-8.27495
ўшы	-8.27626
будзь	-8.2763
маглі	-8.27764
▁адказ	-8.27969
▁жыцц	-8.28053
свой	-8.2841
ведаеце	-8.28626
▁зрабілі	-8.28972
нні	-8.29081
▁размаўля	-8.30044
▁адной	-8.30311
▁вырашы	-8.30933
між	-8.30974
шмат	-8.31249
▁знайсц	-8.31379
▁тэхналогі	-8.32069
▁тры	-8.32127
▁магл	-8.3247
▁пытанне	-8.32858
▁ваша	-8.33636
▁асабліва	-8.33857
▁гэтак	-8.34599
▁сёння	-8.34761
«	-8.34766
▁Ця	-8.34766
▁грош	-8.34767
▁магу	-8.34791
▁хутчэй	-8.34837
▁стала	-8.35484
аб	-8.35536
▁мен	-8.35894
бе	-8.36087
▁хутка	-8.36294
▁культур	-8.36346
▁кампані	-8.36621
▁яўляе	-8.37163
▁перад	-8.37189
кай	-8.37364
сьц	-8.38171
▁стрэс	-8.38342
▁два	-8.38375
▁лес	-8.38397
▁маім	-8.38403
лю	-8.38499
▁Ды	-8.38507
▁дык	-8.38523
тады	-8.3864
▁нічо	-8.38665
000	-8.38794
ўсё	-8.39032
д	-8.39051
р	-8.4018
▁зноў	-8.40211
e	-8.40241
▁ха	-8.40549
мест	-8.40722
▁мая	-8.40917
▁каледж	-8.41787
1	-8.41849
▁альбо	-8.42044
▁многі	-8.42055
▁цяпер	-8.42058
▁Пра	-8.4244
▁нейкі	-8.42473
даволі	-8.42639
▁вялікі	-8.42798
▁працуе	-8.43923
ты	-8.44078
сё	-8.4488
ьмі	-8.44903
▁кар	-8.4544
▁найбольш	-8.4589
▁пачалі	-8.46138
ячы	-8.46452
▁3	-8.46663
▁гэту	-8.47346
i	-8.4771
▁гісторы	-8.47982
▁слова	-8.48501
▁хаце	-8.4858
гледз	-8.49451
▁зрабіў	-8.4946
▁30	-8.49668
▁праблема	-8.49693
пер	-8.49849
▁сіл	-8.4987
−	-8.49888
▁існуе	-8.49888
▁навучанн	-8.5
▁каля	-8.5012
▁пачала	-8.5017
▁апошні	-8.5024
▁трох	-8.50295
▁Гэты	-8.50506
першы	-8.5053
▁назва	-8.50677
▁патрэбны	-8.50772
▁хацела	-8.51425
насам	-8.51581
▁ваш	-8.51937
▁жа	-8.52332
▁лічы	-8.52524
▁ідэ	-8.5259
ле	-8.52606
ну	-8.52793
▁ўся	-8.53089
ч	-8.53291
▁раней	-8.53401
▁поспех	-8.54054
▁мільён	-8.5406
▁робя	-8.54177
▁звычайна	-8.54194
цтва	-8.54562
▁вяліка	-8.54587
▁жыву	-8.55072
▁любо	-8.55506
▁месяц	-8.55531
▁Пасл	-8.56123
▁бок	-8.56568
▁наступны	-8.56706
▁Бо	-8.5723
▁&#9	-8.58402
▁&#93;	-8.58402
▁дасягну	-8.58402
▁частка	-8.58529
▁аднаго	-8.58577
▁ўяві	-8.58771
▁рэч	-8.58799
▁2	-8.59088
▁грамадства	-8.59158
▁мэта	-8.59797
зі	-8.59937
▁сістэм	-8.60312
▁дадзены	-8.60421
▁чыта	-8.61108
ра	-8.61159
▁карыста	-8.61885
валі	-8.62183
▁думк	-8.62505
▁чаго	-8.62557
▁ш	-8.62557
▁мог	-8.6281
▁праект	-8.62835
▁свабод	-8.6295
▁дзяку	-8.63048
▁ця	-8.63366
▁штось	-8.63883
пачатк	-8.64007
Ш	-8.64054
▁вярну	-8.64833
ча	-8.65144
гу	-8.65177
п	-8.65543
▁мов	-8.66534
▁перша	-8.66577
▁сэнс	-8.6665
▁хвілін	-8.6771
▁дзве	-8.6771
▁цал	-8.67715
▁лёгка	-8.67719
ні	-8.67813
▁веры	-8.67926
▁выкарыстоўва	-8.68367
▁змяніла	-8.68397
▁сусвет	-8.68731
▁мала	-8.68876
▁Бог	-8.68877
▁Ш	-8.69713
▁Нам	-8.70436
▁хо	-8.70506
▁слуха	-8.7051
дому	-8.70962
▁люб	-8.71132
▁5	-8.71748
▁Ну	-8.72165
▁падума	-8.72197
▁паказа	-8.72225
▁вядома	-8.7271
▁анлайн	-8.72716
▁дрэва	-8.72753
▁супраць	-8.72886
▁досвед	-8.7294
ства	-8.72997
▁магчымасць	-8.7318
▁кім	-8.73394
▁сталі	-8.73782
▁гук	-8.73903
час	-8.73973
▁мусі	-8.74391
▁напіса	-8.74504
насці	-8.74515
▁адн	-8.74872
ную	-8.75093
▁жанчына	-8.75294
▁быцц	-8.75419
▁павін	-8.75823
з	-8.75894
▁Ведае	-8.76175
бач	-8.76308
▁адчу	-8.76385
▁навучы	-8.7659
▁сэрца	-8.76599
2	-8.76776
так	-8.7678
ё	-8.76835
▁якасц	-8.76922
▁прамов	-8.77102
ёў	-8.77181
▁ко	-8.77504
▁каго	-8.77699
▁ведае	-8.77948
▁дрэвы	-8.78057
5	-8.78112
▁тысяч	-8.78115
▁энергіі	-8.78253
▁тэст	-8.78434
▁Г	-8.7875
г	-8.79043
▁цікава	-8.79057
▁мно	-8.79284
▁размов	-8.7967
▁рабілі	-8.7968
рэш	-8.79809
▁галоўна	-8.79809
▁Ты	-8.7986
нь	-8.79994
▁добры	-8.80046
▁важны	-8.8017
▁галав	-8.81261
хто	-8.81343
▁група	-8.81999
▁пратэз	-8.82103
▁адсотка	-8.82864
▁каза	-8.82921
▁аўтызм	-8.83212
▁спосаб	-8.83528
▁маленька	-8.83528
▁шматлікі	-8.83531
▁далей	-8.83718
▁Кожны	-8.8372
▁Пры	-8.83917
▁разумее	-8.84166
▁стварыць	-8.84322
▁заве	-8.84356
▁праўд	-8.84641
▁пайшл	-8.84696
▁дома	-8.85395
▁асабіста	-8.85474
▁называе	-8.85609
▁Мая	-8.85661
▁Дзе	-8.85862
▁гісторыя	-8.86259
▁сацыяльны	-8.86285
▁Б	-8.86802
са	-8.86836
▁жы	-8.87309
ло	-8.87486
▁інфармацы	-8.87739
▁сто	-8.87754
▁т	-8.88122
▁мозг	-8.88241
▁нашым	-8.88426
нага	-8.88446
зад	-8.88454
яць	-8.88528
ж	-8.88626
s	-8.88869
▁вер	-8.8915
▁паглядзе	-8.89295
▁спачуванн	-8.89377
–	-8.89411
▁Сёння	-8.89412
▁Добра	-8.89412
▁колькас	-8.8942
▁вакол	-8.89421
▁сутнасц	-8.89422
▁кошт	-8.8943
ная	-8.89443
▁бяроз	-8.89479
▁абсалютна	-8.89486
▁чатыр	-8.89536
▁пача	-8.8954
▁доўга	-8.89756
▁пачу	-8.89904
▁маці	-8.89972
▁твар	-8.90051
ут	-8.90315
▁адрозненн	-8.90355
▁знаходзі	-8.90664
рэба	-8.909
▁кампутар	-8.91095
▁шука	-8.91439
▁пэўны	-8.9156
▁даведа	-8.91818
▁Р	-8.91983
▁прадукт	-8.92134
▁песн	-8.92218
▁самі	-8.92618
▁наступна	-8.92787
▁Тад	-8.93065
▁месц	-8.93395
той	-8.93557
▁пачаў	-8.9378
▁4	-8.93892
ас	-8.93978
ец	-8.94185
▁стане	-8.94337
▁груп	-8.94345
▁справа	-8.94372
▁крыніц	-8.94559
дні	-8.94711
▁клас	-8.94763
▁Бога	-8.94803
▁рэ	-8.94825
аму	-8.94955
эння	-8.95078
▁прызна	-8.95363
▁раслін	-8.95645
▁гвалт	-8.95656
▁адзнак	-8.95661
▁дзіўна	-8.95661
▁Некатор	-8.95664
▁Дзякую	-8.95666
▁смерц	-8.95667
▁18	-8.95672
ляска	-8.95742
▁выйш	-8.95776
выя	-8.95936
▁яўляю	-8.9607
лучаны	-8.96078
эй	-8.96086
▁дзец	-8.96216
▁Мен	-8.96231
▁людзя	-8.96296
ват	-8.96315
▁Сол	-8.96324
▁нако	-8.96429
▁выглядае	-8.9646
▁кольк	-8.96525
▁цяг	-8.96649
8	-8.97519
▁бацьк	-8.97526
▁адчуваю	-8.97939
▁6	-8.97988
б	-8.98407
▁кніжк	-8.98434
дарыла	-8.98828
▁матэрыял	-8.99062
аць	-8.9919
ба	-8.99261
▁сістэма	-8.99578
▁дапамога	-9.00035
▁выраб	-9.0024
▁вывуча	-9.00314
▁чалаве	-9.00424
▁сцэн	-9.00595
ім	-9.00597
▁арганізацы	-9.00761
▁Ха	-9.01257
a	-9.0133
▁баланс	-9.01914
ві	-9.01974
▁закон	-9.02024
ту	-9.02086
вайце	-9.02251
▁Нью	-9.02328
▁падаба	-9.02334
▁сур	-9.02444
▁Вядома	-9.02456
▁інтэрнэт	-9.0246
▁T	-9.02466
▁звязаны	-9.02511
▁працую	-9.02905
▁развіцц	-9.02976
▁S	-9.0306
▁пабудава	-9.03099
▁вырашылі	-9.03116
пэўна	-9.03147
▁вырас	-9.03326
вен	-9.03331
▁дазволі	-9.03333
▁усім	-9.03356
▁вывучы	-9.03683
▁піса	-9.03735
▁дада	-9.04086
▁старонк	-9.0421
шы	-9.0422
▁адчуванн	-9.04471
▁краін	-9.0456
o	-9.04656
лічу	-9.05003
▁стагоддз	-9.05044
конт	-9.05379
▁рух	-9.05421
тую	-9.05481
D	-9.05485
▁пя	-9.0556
▁адукацы	-9.05585
▁жанчынам	-9.05635
▁пако	-9.05648
▁сапраўдны	-9.05807
жы	-9.05826
зноў	-9.05855
С	-9.0591
▁ка	-9.05988
перша	-9.06077
ова	-9.06604
ожна	-9.06635
▁Ад	-9.07103
▁падыход	-9.07772
ву	-9.08007
▁100	-9.08087
▁Ні	-9.08416
стварылі	-9.08436
▁зада	-9.0851
▁прылад	-9.08597
▁мажліва	-9.08672
▁дзіця	-9.08879
▁жыве	-9.09144
▁пытанн	-9.09177
▁патрабу	-9.0947
▁Людзі	-9.09471
▁зможа	-9.09472
▁розум	-9.09472
▁роўна	-9.09473
▁погляд	-9.09485
▁убачы	-9.09497
▁Адзін	-9.09501
▁відэа	-9.09509
▁эга	-9.09568
▁ноч	-9.09627
▁вызваленн	-9.0963
▁здара	-9.097
▁неабходна	-9.09726
віце	-9.09863
ямі	-9.09877
▁дом	-9.09921
▁моцна	-9.09932
класці	-9.10091
▁крок	-9.10235
▁памята	-9.10268
▁значна	-9.10283
▁дакладна	-9.10348
▁гэткі	-9.10383
▁змянілі	-9.10457
▁навін	-9.10483
▁кіламетра	-9.10595
▁дапамог	-9.10915
▁даляра	-9.11088
▁г	-9.11218
00	-9.11373
▁асоб	-9.11683
лас	-9.11955
▁Наса	-9.12143
▁выбар	-9.12206
▁дастаткова	-9.12332
▁душ	-9.12476
▁глядзе	-9.13022
мелі	-9.13167
▁атрымала	-9.13272
да	-9.13492
▁стварэнн	-9.14086
▁Ва	-9.14161
▁колькасц	-9.14426
▁су	-9.14459
▁Ві	-9.14675
ма	-9.14948
▁Ве	-9.15017
▁дазваля	-9.15057
▁сітуацы	-9.15494
▁гра	-9.15526
▁тэхналогія	-9.15574
ру	-9.15682
нае	-9.15736
ведала	-9.15918
▁50	-9.16026
▁даведал	-9.1618
▁Адно	-9.16418
▁Больш	-9.16542
▁д	-9.16691
▁праводзі	-9.16797
▁года	-9.16829
▁сяброў	-9.16961
▁галас	-9.17106
гі	-9.17118
▁дзяўчат	-9.17162
▁Можа	-9.17163
▁прынцып	-9.17163
▁горад	-9.17169
▁жаноча	-9.17172
▁спыта	-9.17189
▁хочу	-9.17205
▁змяняе	-9.17384
▁пазык	-9.17422
▁Усе	-9.17454
▁дасла	-9.17458
▁лічба	-9.17572
▁думае	-9.17681
▁прыйш	-9.1774
▁цудоўна	-9.17759
▁адчува	-9.17819
▁дзеля	-9.17873
разу	-9.18012
▁адносін	-9.18014
▁дзяцінства	-9.18142
▁разуменн	-9.18535
▁ядна	-9.18736
вала	-9.18868
▁патрэб	-9.18972
▁стан	-9.19256
▁робім	-9.19329
крамя	-9.19674
▁1	-9.19888
каў	-9.20535
▁варта	-9.20982
▁знайшл	-9.21387
вае	-9.21574
▁кожн	-9.21711
мог	-9.21799
▁Адна	-9.21832
▁план	-9.21849
паў	-9.2187
сі	-9.2191
І	-9.21925
▁пара	-9.22198
ар	-9.22327
▁каштоўнасц	-9.2245
то	-9.22476
▁каленк	-9.2254
▁месяца	-9.22579
▁сябрам	-9.22989
скі	-9.23042
▁хлопца	-9.23267
▁краіна	-9.23343
▁кра	-9.23796
▁насто	-9.24075
▁паспрабава	-9.24327
дзён	-9.24513
▁Е	-9.24642
ер	-9.24849
▁факт	-9.25387
p	-9.25397
осту	-9.25403
кшталт	-9.25496
▁сувяз	-9.25499
▁форм	-9.25502
▁крам	-9.25511
▁нібы	-9.25511
▁тэоры	-9.25513
▁шэ	-9.2554
ц	-9.25635
▁вуліц	-9.25649
▁дослед	-9.25681
▁15	-9.25682
▁скажу	-9.25684
▁ступен	-9.25691
▁хадзі	-9.25876
▁заўважы	-9.25898
▁апынул	-9.25902
▁вайн	-9.25932
▁куды	-9.26069
▁пол	-9.26126
▁бачу	-9.2615
▁інш	-9.26258
t	-9.2627
▁расказа	-9.26279
вы	-9.26348
▁Штата	-9.26451
льга	-9.26468
год	-9.26518
▁сярэдзін	-9.26656
▁выдатны	-9.26775
лу	-9.26971
ткі	-9.2717
▁пацыента	-9.27217
▁самым	-9.2727
▁Друго	-9.27557
▁еж	-9.27698
▁спіс	-9.27719
▁тая	-9.27888
▁хат	-9.28004
▁По	-9.28306
▁ідзе	-9.28377
▁творчы	-9.28447
▁стаў	-9.28661
▁зямл	-9.28674
▁ўпэўнены	-9.28694
▁сцежк	-9.28739
▁газ	-9.2886
▁эксперымент	-9.29052
ска	-9.29124
лы	-9.29357
гадовы	-9.29716
▁рэча	-9.2991
л	-9.30428
▁магчымасц	-9.30512
▁спыні	-9.30654
яно	-9.30669
ведалі	-9.30836
▁Н	-9.30878
К	-9.30897
У	-9.31009
яне	-9.31072
▁вар	-9.31253
▁спа	-9.3156
▁бал	-9.3165
▁здольнасц	-9.31795
▁агульна	-9.32693
ванне	-9.32759
▁тва	-9.32826
▁здары	-9.33046
▁рас	-9.33126
боку	-9.33303
▁пабачы	-9.33643
▁карыстаю	-9.33879
▁студэнт	-9.3398
▁прычына	-9.34031
▁адносіна	-9.34058
▁ўзро	-9.34114
▁большасц	-9.34156
▁прыходзі	-9.34302
нак	-9.34554
▁характар	-9.34585
▁Чы	-9.34587
▁звязана	-9.34587
▁немагчыма	-9.34587
▁пункт	-9.34587
▁самастойна	-9.34587
▁зроблена	-9.34587
▁пазбаві	-9.34587
▁доступ	-9.34587
▁апыленн	-9.34587
▁TED	-9.34587
▁трансфармацы	-9.34589
▁спрабуе	-9.34605
▁супер	-9.34611
▁пакіда	-9.34623
▁нагадва	-9.34626
▁увес	-9.34663
▁Пера	-9.34719
▁уваг	-9.3476
▁паўсю	-9.34764
▁энергія	-9.34832
▁падзялі	-9.3489
▁від	-9.34917
▁хац	-9.34981
▁апошня	-9.35007
▁атрымліваю	-9.35077
▁дзеянн	-9.35257
зразумела	-9.35266
сь	-9.35352
▁перш	-9.35465
кава	-9.35548
▁ёзна	-9.35567
▁C	-9.35665
▁трыма	-9.35868
▁пытаю	-9.36028
▁рэшт	-9.36138
▁гэтка	-9.36139
▁О	-9.36229
▁9	-9.36529
▁Перша	-9.36568
▁ч	-9.36801
▁прыма	-9.36817
▁сетк	-9.36862
▁цела	-9.3694
▁сем	-9.36971
▁40	-9.36999
▁тып	-9.37013
▁займа	-9.37015
пісаў	-9.37108
▁зрабіла	-9.37267
▁памер	-9.37397
▁іншым	-9.37753
▁турм	-9.37862
дзь	-9.38165
▁шляхам	-9.38232
ок	-9.38409
▁піхта	-9.38448
▁існую	-9.38772
▁зда	-9.38811
▁вярта	-9.38886
▁чу	-9.38922
▁пакаленн	-9.39309
казала	-9.39783
▁пазн	-9.40085
▁чул	-9.40281
ня	-9.40466
▁паставі	-9.40609
▁пытання	-9.40736
дастаткова	-9.40765
▁звычайны	-9.40826
▁еха	-9.41018
▁жывёл	-9.41325
▁адказа	-9.41412
▁асяроддз	-9.41425
▁працаўнік	-9.41437
▁каманд	-9.41592
▁жыв	-9.41611
ое	-9.41698
▁друго	-9.41911
▁імі	-9.42029
▁се	-9.42073
▁пачатк	-9.42803
▁разумею	-9.42866
▁свай	-9.42946
▁самім	-9.43269
э	-9.43305
▁кры	-9.43357
часова	-9.43652
▁сабо	-9.43974
▁жаданн	-9.44002
дае	-9.44038
▁тэлефон	-9.44274
▁80	-9.44312
▁прачыта	-9.44342
▁199	-9.4441
▁вядзе	-9.44439
▁тыдн	-9.44524
▁папр	-9.44582
▁Джэймс	-9.44587
▁Райзэн	-9.44587
▁неабходны	-9.44587
▁сярэдні	-9.44587
кольве	-9.44587
▁калоні	-9.44589
▁прастор	-9.44591
▁падобна	-9.44604
▁планет	-9.44609
туды	-9.44619
▁розніц	-9.44624
▁Цікава	-9.44638
▁мяркую	-9.44661
словы	-9.44662
▁музык	-9.44685
▁усю	-9.44735
▁спадзяю	-9.4479
▁адкры	-9.44887
▁спачуванне	-9.44929
▁каран	-9.45116
▁далёк	-9.45147
▁захворвання	-9.45331
▁ракеты	-9.45404
▁камп	-9.45599
дня	-9.45677
▁Пад	-9.45679
жаль	-9.45934
▁другі	-9.45963
▁шчасц	-9.45983
▁бачыц	-9.46095
лісь	-9.46106
▁метад	-9.46605
жа	-9.46651
чна	-9.46677
ося	-9.46785
▁ляс	-9.46883
йчы	-9.46916
▁дапамагае	-9.47026
▁муж	-9.47048
▁явіл	-9.47121
▁выдатна	-9.47126
▁мужчынам	-9.47181
▁дзеця	-9.47771
▁настаўнік	-9.47838
▁выкліка	-9.47904
▁даследвання	-9.47947
▁Бы	-9.48057
▁спрабава	-9.48214
▁хтось	-9.48381
▁Кольк	-9.48432
▁рэальнасц	-9.48447
▁выкарыста	-9.48531
▁выпадк	-9.48824
▁Вялік	-9.49075
ваем	-9.49244
вер	-9.49386
сты	-9.49626
▁мадэл	-9.49682
▁вучы	-9.49798
▁пакіну	-9.49954
▁разуме	-9.50022
▁сачы	-9.50029
ужо	-9.50115
▁пачына	-9.5025
▁запытаў	-9.50538
▁набы	-9.50572
хта	-9.50573
▁публічна	-9.50581
▁скончы	-9.50778
мела	-9.51338
▁сябра	-9.51523
аўж	-9.51678
4	-9.51791
▁высокі	-9.51856
▁гарод	-9.51881
▁кірава	-9.51981
Р	-9.52042
▁звярну	-9.52098
▁выраша	-9.52108
▁нарадж	-9.52209
▁заста	-9.5234
▁прыня	-9.52427
▁ўваг	-9.52532
олы	-9.53045
ан	-9.53078
m	-9.53214
▁нов	-9.53269
▁цудоўны	-9.53604
▁паведамленн	-9.53607
нку	-9.53623
▁рэвалюцы	-9.5364
эт	-9.53912
▁малады	-9.54578
▁навык	-9.54631
▁ўзрос	-9.54851
▁тро	-9.55222
▁Ло	-9.5523
▁дызайн	-9.55384
▁надрукава	-9.55392
▁бак	-9.55401
▁Сама	-9.55571
камі	-9.5567
▁амерыканц	-9.55698
▁пастаянна	-9.55698
▁патэнцыял	-9.55698
▁Мандэл	-9.55698
▁тканін	-9.55698
▁Чалаве	-9.55698
▁датчык	-9.55699
▁дэпрэсі	-9.55699
▁літаральна	-9.557
▁17	-9.55706
▁прамыслов	-9.55712
▁рэальны	-9.55714
er	-9.55716
▁Та	-9.55717
▁будава	-9.55747
▁нядаўна	-9.55779
▁параўнанн	-9.55802
▁ўвес	-9.55802
▁харчаванн	-9.55824
раў	-9.56009
▁наперад	-9.56066
▁праходзі	-9.56096
▁думка	-9.56115
▁навучэнн	-9.56162
▁пачул	-9.56209
вазе	-9.56215
▁мастак	-9.56306
▁асноўны	-9.56444
▁ўзя	-9.56446
▁запіс	-9.56489
▁ўяўляю	-9.56494
▁парад	-9.56499
▁зразумел	-9.56616
▁кагось	-9.56646
▁правільны	-9.56752
▁Эл	-9.56774
▁прычын	-9.56937
▁таб	-9.57066
дзіце	-9.57148
▁падтрымліва	-9.57173
▁даследванне	-9.57194
▁нарадзіл	-9.57339
▁распача	-9.57361
▁нашу	-9.57406
▁збіраю	-9.57435
▁ўрок	-9.57466
▁Ням	-9.57491
ф	-9.57722
▁метр	-9.57741
▁тэм	-9.57907
▁крыніца	-9.5794
▁сцян	-9.57945
▁во	-9.58028
▁працягвае	-9.58279
▁бабуля	-9.58333
▁Наша	-9.58371
▁дарог	-9.58387
▁стара	-9.58508
▁ніводна	-9.58645
▁сэрц	-9.5879
▁вашы	-9.5882
ведаў	-9.58846
▁звярта	-9.58937
▁гуча	-9.58958
▁вера	-9.59112
▁мясцов	-9.59208
дымак	-9.59486
▁сонц	-9.59972
or	-9.60333
▁рак	-9.60463
▁верагодна	-9.60491
▁цікавы	-9.60661
▁раён	-9.60724
▁Гі	-9.60845
▁чытанн	-9.60971
нік	-9.61051
казаў	-9.61125
▁воч	-9.61331
▁новым	-9.61569
▁знайш	-9.61789
бі	-9.61801
▁адзіны	-9.61844
▁Ала	-9.61874
▁пераклад	-9.61893
льны	-9.62033
▁каленка	-9.62091
▁навук	-9.62368
▁станові	-9.62382
▁любы	-9.62448
▁цяжкі	-9.62671
▁назіра	-9.62764
▁даследванн	-9.63002
▁хваля	-9.63105
▁стагоддзя	-9.63151
▁асоба	-9.63428
▁мара	-9.63542
▁Ня	-9.63855
▁ютар	-9.63975
бо	-9.6406
друго	-9.64303
ом	-9.64341
▁свят	-9.64515
▁лічб	-9.64569
П	-9.64577
▁добрым	-9.64667
▁мэт	-9.64901
▁кніга	-9.65095
on	-9.65211
▁мова	-9.65295
▁версі	-9.65627
▁ліст	-9.65976
▁сонечна	-9.66046
▁вед	-9.66202
▁існава	-9.6649
род	-9.66782
▁прав	-9.66813
▁мудрасц	-9.66817
пі	-9.66916
▁сеціва	-9.66978
▁галоўны	-9.67225
▁узрос	-9.67295
рот	-9.67325
▁выяві	-9.67403
▁сотн	-9.67554
▁ствары	-9.67653
▁Рэ	-9.67662
шчэ	-9.67689
▁прапанава	-9.67789
▁падлетк	-9.68084
▁бізнэс	-9.68198
▁дзвяр	-9.68198
Ёрк	-9.68198
▁Паўночна	-9.68198
▁ТЭД	-9.68198
▁вызначэнн	-9.68198
▁паляпшэнн	-9.68198
▁секунд	-9.68198
▁сігнал	-9.68198
▁эмпаты	-9.68198
▁інавацы	-9.68198
▁ўпэўнена	-9.68198
▁гаворы	-9.68198
▁падтрыма	-9.68199
▁Керр	-9.68199
▁глеб	-9.682
▁капітал	-9.682
▁мяса	-9.68201
▁падобны	-9.68202
▁прыгажосц	-9.68203
адварот	-9.68203
▁след	-9.68208
▁блізкі	-9.6821
▁панэл	-9.68217
чэння	-9.68219
▁бацькоў	-9.68229
▁мноства	-9.68242
▁значэнн	-9.68247
▁галін	-9.68255
▁Справ	-9.68259
▁Многі	-9.68277
▁вопыт	-9.68282
▁прывяло	-9.68309
▁стварае	-9.68341
▁Інды	-9.68378
рок	-9.68392
▁прымусі	-9.6842
▁аж	-9.68511
▁Пч	-9.68619
▁меркаванне	-9.68644
▁ціск	-9.68765
▁надзвычайна	-9.68848
▁12	-9.68876
анне	-9.68966
▁складана	-9.69011
▁ліні	-9.69045
зя	-9.69074
▁пакет	-9.69094
▁Каран	-9.6918
▁многа	-9.69288
▁Гар	-9.69497
▁трэця	-9.69507
▁іерогліфа	-9.69511
▁шчыра	-9.69519
▁выйсц	-9.69576
▁кветкі	-9.696
▁квет	-9.69614
▁бая	-9.69639
бар	-9.69677
▁зняваг	-9.69713
▁меданосны	-9.6976
тры	-9.69804
▁Джон	-9.69886
ава	-9.69926
▁Кніг	-9.70099
расце	-9.70129
▁пас	-9.70168
▁жада	-9.70207
▁M	-9.70316
льна	-9.7043
▁пойд	-9.70458
▁фізік	-9.70527
▁сітуацыя	-9.71039
сы	-9.71155
▁папрасі	-9.7116
▁адсутнасц	-9.71221
▁сапраўдна	-9.71221
адта	-9.71225
▁меж	-9.71391
ніка	-9.71597
▁пары	-9.71714
вой	-9.71732
▁пачынае	-9.71938
▁сустрэ	-9.7203
▁наг	-9.72106
▁прыгожа	-9.72486
▁сацыяльна	-9.72605
▁словам	-9.72896
▁карыстае	-9.73089
▁пошук	-9.73111
▁вада	-9.73263
▁ганьб	-9.73279
▁вядомы	-9.73283
▁кан	-9.73291
▁адзіным	-9.73324
▁праграм	-9.73418
▁дапамага	-9.73566
нула	-9.73732
▁татуіроўк	-9.73932
▁абра	-9.74006
аны	-9.74009
вак	-9.74048
▁фізічна	-9.74095
▁11	-9.7415
▁Афры	-9.74269
▁стары	-9.74451
▁электрычнасц	-9.74624
▁любі	-9.74701
▁сцен	-9.74722
▁сучасны	-9.74803
▁лёгкі	-9.74883
▁хвароба	-9.74884
▁паспяховы	-9.74889
▁паверы	-9.74969
тку	-9.7505
сц	-9.75176
▁лічбавы	-9.7528
▁жонка	-9.75364
▁рост	-9.75371
▁чакаю	-9.75397
уем	-9.75792
Н	-9.75905
ця	-9.7593
▁кніж	-9.76213
▁Ка	-9.76244
▁валода	-9.76327
▁твор	-9.76363
там	-9.76661
ar	-9.76914
ко	-9.77058
▁сусветна	-9.77133
▁сказал	-9.7727
▁пераста	-9.77378
▁чалавеч	-9.77531
▁19	-9.77557
нем	-9.77842
▁выпадка	-9.77849
▁карыстальніка	-9.77858
▁кліка	-9.77929
ўсю	-9.78511
▁пачынаю	-9.78562
▁рашэнн	-9.7865
6	-9.78773
▁бабул	-9.79144
▁Ім	-9.79198
дзя	-9.79276
▁Уя	-9.79381
▁інструмент	-9.79389
пе	-9.79471
нё	-9.79717
▁чака	-9.79736
мовы	-9.8004
чым	-9.80308
ro	-9.80576
▁рэакцы	-9.8078
▁даляр	-9.80928
▁ўз	-9.80995
▁камен	-9.811
▁i	-9.81225
▁ген	-9.81427
▁кні	-9.81464
▁яві	-9.81558
▁распрацава	-9.81618
▁падзе	-9.81725
▁кур	-9.81799
▁дарослы	-9.81995
жу	-9.82208
▁розна	-9.82229
сярод	-9.8228
▁транспарт	-9.82284
вогу	-9.82306
▁размаўляе	-9.8239
h	-9.82391
коў	-9.82411
▁размова	-9.82425
▁боска	-9.82467
▁Электронны	-9.82483
▁забеспячэнн	-9.82483
▁запаведнік	-9.82483
▁канферэнцы	-9.82483
▁кіраўніцтва	-9.82483
▁майстэрства	-9.82483
▁прадстаўнік	-9.82483
▁індывідуальны	-9.82483
▁батарэ	-9.82484
▁выключн	-9.82484
▁дзядул	-9.82484
▁паветра	-9.82484
сельскагаспадарч	-9.82484
▁Тэхналогі	-9.82484
▁Японі	-9.82484
▁спроб	-9.82484
▁вызвалі	-9.82484
▁спрыя	-9.82484
▁Памята	-9.82486
▁гатовы	-9.82486
▁спатрэб	-9.8249
▁даўжэй	-9.8249
▁паслядоўн	-9.8249
▁жыхар	-9.82495
he	-9.82495
▁адкрыццё	-9.825
▁дзейнасц	-9.82506
▁пачало	-9.82518
▁200	-9.82518
▁пачуццё	-9.82525
▁прадуктыўнасц	-9.8253
▁лёс	-9.82534
▁камян	-9.82538
▁вынайшл	-9.8254
▁вымушаны	-9.82549
▁адкрыта	-9.82582
▁пераваг	-9.82585
▁дзевяц	-9.82609
▁пчал	-9.82651
▁прэс	-9.82655
▁каму	-9.82672
▁ставяц	-9.82682
▁22	-9.82704
▁Інтэрнэт	-9.82729
▁Ідэ	-9.82758
▁вызначае	-9.82802
▁шанц	-9.82806
▁A	-9.82821
▁Песн	-9.82846
▁імпульс	-9.82851
▁канца	-9.82857
▁Майк	-9.82882
▁дызайнер	-9.82896
▁развіва	-9.82903
▁кіда	-9.82918
ходзі	-9.82977
▁вад	-9.8306
казвае	-9.8307
▁вышэйш	-9.8308
▁мары	-9.83101
▁Самант	-9.83169
▁хапа	-9.83227
намс	-9.83295
▁СМ	-9.83309
▁правял	-9.83323
▁трапі	-9.83344
▁ба	-9.83395
▁раблю	-9.83402
▁маб	-9.8343
▁асабісты	-9.83506
▁выгляд	-9.83516
▁выснов	-9.83533
▁невялікі	-9.83615
▁аднолькава	-9.83751
▁вытворчасц	-9.83834
▁энэргі	-9.8386
▁полавы	-9.84085
▁ўзрост	-9.84128
▁машынна	-9.84153
▁дазвол	-9.84213
ніцы	-9.84371
▁ку	-9.84407
▁двух	-9.8443
at	-9.84453
▁глыбока	-9.8449
▁найлепшы	-9.84572
▁называю	-9.84601
▁аналіз	-9.84703
▁распаўсюджана	-9.84723
▁правіла	-9.84891
n	-9.84975
▁залеж	-9.85048
y	-9.85141
▁вобраз	-9.85148
▁аго	-9.85224
▁каханн	-9.8528
сак	-9.85323
▁вялізны	-9.85355
лон	-9.85365
▁шы	-9.85448
▁хацел	-9.85512
▁распавяда	-9.8569
▁машына	-9.85746
▁пакалення	-9.85754
абарані	-9.85771
▁Ба	-9.86028
▁дапамогу	-9.86134
▁адукацыя	-9.86143
▁вашым	-9.86199
▁Ру	-9.86396
авы	-9.86537
авалі	-9.86587
▁ўласна	-9.86596
ал	-9.86599
▁збіра	-9.86656
▁эра	-9.86735
▁інфармацыя	-9.86892
▁размаўляю	-9.87042
еры	-9.87109
▁та	-9.8713
▁невядома	-9.87143
▁горш	-9.87217
▁най	-9.87352
▁мага	-9.87413
▁невяліка	-9.87422
▁зорк	-9.8757
▁падыма	-9.87669
▁Бра	-9.87702
▁мужчынска	-9.87743
енне	-9.87997
цер	-9.88049
▁матэматык	-9.88049
▁здольны	-9.88165
жылі	-9.88403
▁смартфон	-9.88426
ўно	-9.88465
рабіў	-9.8874
▁ўспрыма	-9.89041
▁карысны	-9.89115
▁стварэнне	-9.89263
▁жадае	-9.89717
▁сю	-9.89746
▁плаціц	-9.89892
▁казал	-9.89993
эр	-9.90028
▁уся	-9.905
▁мажлівасц	-9.9052
ран	-9.90988
▁праграмна	-9.91061
▁вуглярод	-9.91213
▁атрымае	-9.91259
▁бацька	-9.91317
акол	-9.91384
▁эксперымента	-9.91553
▁боле	-9.91602
3	-9.91856
▁хуткасц	-9.91937
сам	-9.91948
▁цяжкасц	-9.92179
анец	-9.92243
▁рэш	-9.92445
▁піхт	-9.92561
▁наза	-9.9265
▁Нашы	-9.92889
▁захава	-9.92903
онца	-9.92919
нэр	-9.9301
▁памя	-9.93044
▁пражы	-9.93141
тра	-9.93177
льнік	-9.93264
аваў	-9.93272
▁пыл	-9.93393
шча	-9.93519
▁аднолькавы	-9.93666
рэчы	-9.9369
мо	-9.93835
▁ангельск	-9.93881
лады	-9.93915
▁жыццёвы	-9.93976
▁пяц	-9.94034
▁палепшы	-9.94071
оле	-9.94344
▁кіраўнік	-9.94551
▁дзесяцігоддз	-9.94605
▁ставі	-9.94671
▁скан	-9.94796
▁зарабля	-9.95024
7	-9.95055
▁Аб	-9.95184
▁прытрымліва	-9.95421
▁дзеда	-9.9554
чны	-9.95541
зямлі	-9.95575
▁неверагодны	-9.95612
▁Тры	-9.9578
Г	-9.95809
▁моц	-9.95866
▁карысна	-9.96045
▁трэ	-9.96084
▁памылк	-9.96245
нія	-9.96319
▁залі	-9.96459
дэ	-9.96548
▁стра	-9.96667
нкі	-9.96718
іце	-9.96802
рамі	-9.96926
овы	-9.97005
▁гуля	-9.97057
▁аўдыторы	-9.97062
▁індустры	-9.97077
▁60	-9.97111
▁навіна	-9.97214
▁прыйшл	-9.97319
▁традыцы	-9.97376
▁бача	-9.97449
▁іерогліф	-9.97534
▁жонк	-9.97567
▁цэнтр	-9.9785
▁паліцы	-9.97889
▁прапану	-9.98075
▁ўс	-9.98367
рат	-9.98425
еру	-9.98664
▁кампутара	-9.987
што	-9.98793
▁натхня	-9.98905
▁рэклам	-9.98952
▁заяв	-9.99069
рацэс	-9.99096
▁бліжэй	-9.99127
ur	-9.99139
Fac	-9.99149
▁Каліфорні	-9.9915
▁Лінд	-9.9915
▁Фэйсбук	-9.9915
▁Хто	-9.9915
▁астатні	-9.9915
▁вулля	-9.9915
▁дзвю	-9.9915
▁зроблены	-9.9915
▁канцэнтрацы	-9.9915
▁кібербулінг	-9.9915
▁недахоп	-9.9915
▁падарожжа	-9.9915
▁паўплыва	-9.9915
▁рэстаран	-9.9915
▁узнагарод	-9.9915
▁хлопец	-9.9915
▁Бразілі	-9.9915
▁механізм	-9.9915
▁раўнапраў	-9.9915
▁рэсурс	-9.9915
▁спадаба	-9.9915
▁Паўднёва	-9.9915
▁Рапт	-9.99151
▁нумар	-9.99151
▁рэпутацы	-9.99151
▁багацц	-9.99151
▁касмічн	-9.99151
▁далучы	-9.99151
Анджалес	-9.99152
▁звыш	-9.99152
▁вынаходніцтва	-9.99153
▁гледжанн	-9.99153
▁вывучэнн	-9.99154
▁пару	-9.99154
▁кліент	-9.99157
▁Дзве	-9.99157
▁трапля	-9.99157
▁прайгра	-9.99159
▁адлюстроўва	-9.99161
▁дыягназ	-9.99161
▁падарожніча	-9.99161
▁памылкова	-9.99164
▁праеха	-9.99165
▁першасна	-9.99165
▁прыводзі	-9.99167
▁сімптом	-9.99169
▁сыходзі	-9.99173
▁акуліст	-9.99176
▁памёр	-9.99181
▁незалежна	-9.99182
▁Божа	-9.99183
▁адшука	-9.99183
▁вырубк	-9.99183
▁спрабую	-9.99186
▁тэрмін	-9.99192
▁задача	-9.99193
it	-9.99193
▁працоўны	-9.99195
ключаючы	-9.99197
лівым	-9.99214
▁вымаўленне	-9.9922
▁дрэнна	-9.99238
▁выбух	-9.99238
▁спорт	-9.99244
▁ахов	-9.99255
▁друкава	-9.99258
▁вадзі	-9.99269
▁асабовасц	-9.99288
▁Бостан	-9.99305
▁інвестыцы	-9.99312
грыз	-9.99315
глас	-9.99322
▁раніц	-9.99322
ідэа	-9.9933
▁валас	-9.99339
лева	-9.99364
▁кавала	-9.99374
▁арабск	-9.99409
▁дапамож	-9.9941
▁прырод	-9.99421
▁работ	-9.99447
▁прадстаўля	-9.99448
▁шкада	-9.99452
▁сённяшні	-9.99474
▁складае	-9.9955
▁псіхолаг	-9.99553
▁застане	-9.99568
▁каментар	-9.99575
▁чарад	-9.99595
▁ложк	-9.9967
▁страці	-9.99688
▁дачка	-9.99751
шоў	-9.99767
▁ствараю	-9.99789
▁натуральна	-9.99798
▁дасягненн	-9.99815
▁імгненн	-9.99817
▁кампутарны	-9.99824
▁уявіц	-9.99837
▁застаю	-9.9987
▁заўважа	-9.99932
▁ўзд	-9.99943
▁выжы	-9.99973
▁сукенк	-10.0002
▁засяродзіл	-10.0004
▁віда	-10.0005
▁страт	-10.0007
▁працэнт	-10.001
ндан	-10.001
унту	-10.0011
▁здаровым	-10.0013
▁адукацыю	-10.0023
▁вырабляе	-10.0027
▁нечакана	-10.003
▁падлік	-10.003
▁Тэ	-10.0035
▁прарока	-10.0046
▁маладо	-10.0046
▁кіну	-10.0051
эка	-10.0058
▁паўтара	-10.0059
l	-10.006
▁гадзіннік	-10.0061
▁ля	-10.0062
▁ўяўленн	-10.0068
гадов	-10.008
▁Ду	-10.0093
▁лета	-10.0102
▁дасылае	-10.0107
▁ані	-10.0116
▁першым	-10.0116
▁тамат	-10.012
▁рэакцыя	-10.012
▁пішу	-10.0125
▁заяві	-10.0131
▁бясплатна	-10.0133
▁падтрымлівае	-10.016
▁атрымоўвае	-10.0169
▁назіранн	-10.0175
▁узя	-10.0202
▁згубіл	-10.021
▁абмежавання	-10.0216
▁адсотк	-10.0218
▁Был	-10.0221
▁дактар	-10.0225
▁сын	-10.023
▁просіц	-10.0236
▁асабістым	-10.0237
▁14	-10.0239
дзі	-10.0266
▁электронны	-10.0266
▁меды	-10.0278
,5	-10.0285
глядзе	-10.0291
▁магчымым	-10.0295
дар	-10.0297
▁сусветны	-10.0304
▁межа	-10.0314
▁Мае	-10.0316
▁ра	-10.0321
▁Ра	-10.0324
▁Амерык	-10.0336
▁мян	-10.0345
▁выхад	-10.0361
▁дзяўчынк	-10.0366
▁арганізацыя	-10.0379
▁баі	-10.0381
цэ	-10.0385
▁зан	-10.0386
▁дапасава	-10.039
▁дзесяцігоддзя	-10.0391
▁баз	-10.0393
віс	-10.0401
▁далі	-10.0408
во	-10.042
раку	-10.0422
▁любімы	-10.0432
▁навукоўц	-10.0439
▁прайшл	-10.0449
моў	-10.0461
авала	-10.0463
▁ап	-10.0466
цыю	-10.0473
еш	-10.0499
▁дабра	-10.0501
▁адбыл	-10.051
▁выгляда	-10.0515
▁каманда	-10.0523
ін	-10.0531
▁жах	-10.0539
▁пестыцыд	-10.054
▁задума	-10.0546
▁чорны	-10.0546
▁вялік	-10.055
ьце	-10.0556
рэза	-10.0566
нулі	-10.0582
▁асаблівасц	-10.0593
ках	-10.0594
▁надзе	-10.0616
в	-10.0625
іс	-10.0657
▁чалавеча	-10.0661
▁нязменна	-10.0661
▁вынікам	-10.0662
▁шчаслівым	-10.0689
чыце	-10.0717
▁поле	-10.0719
▁завода	-10.0739
▁скажа	-10.0743
▁нейка	-10.0745
▁публічн	-10.0761
▁павер	-10.0761
oo	-10.0762
▁вялізна	-10.0763
бра	-10.0769
ста	-10.0769
▁дзяўчына	-10.0776
▁дрэ	-10.0806
▁поўн	-10.0813
▁моцны	-10.084
▁пі	-10.0845
▁сад	-10.0846
▁ша	-10.0863
▁здзіві	-10.087
ваў	-10.0891
▁хвароб	-10.0894
▁моцным	-10.0914
▁бег	-10.0918
▁літаратур	-10.0927
▁электрычна	-10.093
▁хочац	-10.0962
▁Кан	-10.098
▁чалавечы	-10.0982
▁пе	-10.1005
▁кампанія	-10.102
▁Вяліка	-10.1032
▁музыка	-10.1048
іла	-10.1053
▁электрон	-10.106
▁вярнул	-10.1065
▁маштаб	-10.1095
▁паст	-10.1105
чыма	-10.1116
▁кавалк	-10.112
▁адчувал	-10.1136
▁паводзі	-10.1159
▁заня	-10.1164
▁сябр	-10.1172
▁Ганн	-10.1176
тар	-10.118
▁пайш	-10.1188
▁стаі	-10.119
вых	-10.1211
▁загад	-10.1213
▁тыдня	-10.1243
ве	-10.1244
▁матэматы	-10.1254
▁эксперт	-10.1259
▁жадаю	-10.1267
▁мясцовы	-10.1287
вую	-10.1294
▁вол	-10.1296
▁пасад	-10.1297
▁ліч	-10.1302
▁аку	-10.1313
▁P	-10.1351
▁ракет	-10.1402
▁пакаж	-10.1404
▁склад	-10.1408
▁наву	-10.1415
▁хі	-10.1419
▁палов	-10.1422
ваеце	-10.1432
▁маленькі	-10.1442
▁мужчына	-10.1442
▁вуча	-10.1445
гэту	-10.1448
▁любім	-10.1456
▁магчымы	-10.1471
ўні	-10.1486
▁лічбав	-10.1493
▁донар	-10.1501
ява	-10.1506
14	-10.1515
▁кветк	-10.1527
P	-10.1528
▁ўплы	-10.1538
О	-10.1543
▁тлумачэнн	-10.1544
▁ўдзельніча	-10.1545
,	-10.1546
▁паводзін	-10.1576
▁сцежка	-10.1579
▁успамін	-10.1609
арабску	-10.1611
альны	-10.1615
▁заўс	-10.1617
▁выкарыстоўваю	-10.1622
▁поўна	-10.1623
▁нарадзі	-10.1625
▁офіс	-10.1637
▁даро	-10.1638
▁творча	-10.164
разумела	-10.1652
руз	-10.1664
▁перамаг	-10.167
еч	-10.1676
еся	-10.1677
рока	-10.1678
▁Го	-10.1683
аю	-10.1692
цей	-10.1693
адзіл	-10.1702
годна	-10.1722
інш	-10.1732
ліку	-10.1734
сабліва	-10.1736
▁лабараторы	-10.1748
▁лепшы	-10.1756
▁малюн	-10.1763
▁распрацавал	-10.1781
▁памятае	-10.1784
▁спыня	-10.1788
далі	-10.1791
▁графі	-10.1797
▁нага	-10.1834
▁прарок	-10.1849
олат	-10.1849
пэўнены	-10.1855
▁500	-10.1862
▁страціл	-10.1865
▁спраўля	-10.1867
▁Мар	-10.1869
▁Ро	-10.1876
ейшы	-10.1879
▁узро	-10.188
шкі	-10.188
▁павод	-10.1893
цэнтры	-10.1895
▁перажыва	-10.1895
▁зарад	-10.1899
▁Кэ	-10.1902
▁будучы	-10.1908
падзяю	-10.1909
▁Хо	-10.1912
▁рапт	-10.1913
расла	-10.1915
ace	-10.1915
▁валанцёр	-10.1915
▁цывілізацы	-10.1915
Цан	-10.1915
збярэжж	-10.1915
▁Аўстралі	-10.1915
▁Хі	-10.1915
▁адпавяда	-10.1915
▁безумоўна	-10.1915
▁вадаспад	-10.1915
▁вячэр	-10.1915
▁мінарэт	-10.1915
▁незвычайна	-10.1915
▁павелічэнн	-10.1915
▁устойлівы	-10.1915
▁шакалад	-10.1915
▁шкарпэтк	-10.1915
▁гіганцкі	-10.1915
▁паразмаўля	-10.1915
▁пераломны	-10.1915
▁прадпрымальнік	-10.1915
▁гармон	-10.1915
▁крызіс	-10.1915
▁сярэдня	-10.1915
▁талент	-10.1915
▁яблы	-10.1915
▁Твітар	-10.1915
▁Ху	-10.1915
▁варыянт	-10.1915
▁падтрымк	-10.1915
▁Вашынгтон	-10.1915
▁шлюб	-10.1915
▁распазна	-10.1915
▁мысленн	-10.1915
▁грамадскі	-10.1915
▁увасабл	-10.1915
▁рэдка	-10.1915
▁ўспамін	-10.1915
▁вугл	-10.1915
▁гароднін	-10.1915
▁мазг	-10.1915
▁небяспечна	-10.1915
▁вымавіц	-10.1915
▁выпускнік	-10.1915
▁семнацца	-10.1915
▁пасланні	-10.1916
▁адасла	-10.1916
▁iP	-10.1916
▁знаходзяц	-10.1916
▁нуля	-10.1916
▁статус	-10.1916
▁сфер	-10.1916
▁мікарыз	-10.1916
▁прывіле	-10.1916
▁цэдал	-10.1916
▁злучы	-10.1916
▁даследчык	-10.1917
▁мінула	-10.1917
▁дзяржаўны	-10.1917
ch	-10.1917
▁артыкул	-10.1918
▁небяспечны	-10.1918
▁здымк	-10.1918
▁прагрэс	-10.1918
▁паступленн	-10.1919
▁разлічва	-10.1919
▁прыемны	-10.1919
▁гарадск	-10.192
▁смелы	-10.192
▁ўразіла	-10.1921
▁сустракаю	-10.1921
▁геро	-10.1922
▁Марс	-10.1922
▁Бабул	-10.1922
▁абарон	-10.1922
ho	-10.1923
▁дрэнны	-10.1923
▁паспяхова	-10.1924
▁апрану	-10.1925
▁блізка	-10.1925
▁удзел	-10.1926
▁клаўд	-10.1927
▁дэтал	-10.1927
▁забабон	-10.1928
▁парк	-10.1929
▁полым	-10.193
▁прагал	-10.1933
▁заклад	-10.1934
▁збалансавана	-10.1934
▁прадмет	-10.1935
▁балюча	-10.1935
▁пустын	-10.1935
▁45	-10.1937
▁інтэрв	-10.1938
лет	-10.194
▁адлегласц	-10.1941
▁каліграфі	-10.1942
ядро	-10.1944
▁шпіталь	-10.1944
▁прыносі	-10.1945
▁запытала	-10.1946
▁запыталі	-10.1952
▁ўзроўн	-10.1952
ол	-10.1952
▁друг	-10.1952
ждж	-10.1956
▁Канад	-10.1961
▁разважанн	-10.1971
▁сястр	-10.1971
еды	-10.1972
▁мацярынскі	-10.1972
▁80-	-10.1973
▁мадэль	-10.1974
▁васьмі	-10.1974
▁адзенне	-10.1974
▁цяперашні	-10.1977
іянін	-10.198
▁дыханн	-10.1986
▁лепшае	-10.1988
▁пераўтварэння	-10.199
▁Нека	-10.1991
▁рахунк	-10.1992
▁смяротнасц	-10.1994
▁глыбокі	-10.1995
ваю	-10.2001
▁распрацоўк	-10.2001
▁падзелена	-10.2001
▁займаю	-10.2011
▁адчуваем	-10.2012
▁прымуша	-10.2012
▁доказ	-10.2012
▁камер	-10.2014
▁станцы	-10.2014
▁вырашэння	-10.2014
▁ахвярава	-10.2019
▁мастацтва	-10.2028
▁Каля	-10.203
лен	-10.2038
an	-10.2039
▁300	-10.2041
▁боль	-10.2044
▁Верн	-10.2045
ручн	-10.2047
▁спадары	-10.2048
алан	-10.2049
ямлі	-10.2051
▁дзейніча	-10.2051
▁крыв	-10.2054
▁выпадкова	-10.2055
▁восем	-10.2056
▁скрын	-10.2056
▁студэнта	-10.2058
▁прасуну	-10.2059
вяло	-10.206
▁паказвае	-10.2062
▁цэлы	-10.2063
▁дадатковы	-10.2064
▁каледжа	-10.2065
▁прадказа	-10.2077
апу	-10.2078
▁папер	-10.2084
▁Больша	-10.209
▁выглядаю	-10.2091
▁цэнтра	-10.2098
▁До	-10.2114
▁працавал	-10.212
▁13	-10.212
▁адказваю	-10.2124
▁заробк	-10.2147
ыялог	-10.2147
▁апавядання	-10.215
кажу	-10.2154
▁зрок	-10.2157
▁штодзённа	-10.2157
▁гульня	-10.2165
тэ	-10.2171
▁доктара	-10.2183
дставі	-10.2188
▁купля	-10.2194
▁размаўляла	-10.2202
▁пчолам	-10.2203
▁набыва	-10.2213
▁знаходзім	-10.2215
оты	-10.2217
▁творчасц	-10.2218
▁праве	-10.2223
▁вёск	-10.2231
жывання	-10.2235
▁дагляда	-10.2236
давала	-10.2236
колі	-10.2245
▁існаванн	-10.2255
▁давер	-10.2257
фар	-10.2262
▁рацы	-10.2275
▁рухае	-10.2277
▁сказ	-10.2278
▁сонечн	-10.2283
▁назбіра	-10.2286
▁тлумачэння	-10.23
▁Най	-10.2315
кое	-10.2318
▁харчов	-10.2322
▁мас	-10.2325
▁атрымал	-10.2326
кавы	-10.2339
▁дос	-10.2355
▁гена	-10.2358
▁ёзны	-10.2362
▁сяброўка	-10.2369
▁стану	-10.237
▁здавал	-10.2375
▁аль	-10.2379
▁в	-10.238
▁Біл	-10.2383
▁разумеюць	-10.2402
▁амерыканскі	-10.2407
▁забы	-10.241
цё	-10.2411
▁Дэ	-10.2434
▁інфарматара	-10.2436
гульні	-10.2447
▁прылада	-10.2452
▁р	-10.2454
рашэнне	-10.2462
▁версія	-10.247
▁цудоўным	-10.2484
▁апо	-10.2484
ваду	-10.2488
▁прада	-10.2494
▁навучылі	-10.2509
▁раман	-10.253
▁ягоны	-10.2535
чана	-10.2539
▁падыходз	-10.2552
як	-10.2573
▁ганар	-10.2586
▁Ко	-10.2588
▁зробі	-10.2591
▁навукова	-10.2595
▁дзяўчын	-10.2607
вацца	-10.2617
▁палова	-10.2622
шла	-10.2624
лена	-10.2627
глі	-10.2629
чэй	-10.263
▁нараджа	-10.2631
▁таямніц	-10.2631
▁любым	-10.2632
інакш	-10.2648
▁Ран	-10.2652
▁суполк	-10.2663
▁ютара	-10.2683
▁стыл	-10.2698
▁7	-10.2706
цыя	-10.2711
авання	-10.2713
анні	-10.2733
▁распачал	-10.2738
гляд	-10.2767
▁галоўным	-10.2825
▁сабак	-10.2827
in	-10.2849
▁Зрабі	-10.2867
▁праграма	-10.2877
▁Нік	-10.2881
▁лідар	-10.2889
▁глядзіц	-10.289
0	-10.29
▁адчыні	-10.291
ары	-10.2912
▁адда	-10.2914
кага	-10.2981
ваючы	-10.2987
▁цёмна	-10.2997
летк	-10.3005
чае	-10.302
кепска	-10.302
ду	-10.3035
ісла	-10.3036
▁Іх	-10.3038
▁называ	-10.3059
▁Адны	-10.3068
▁размоў	-10.3084
фразу	-10.3087
▁яднан	-10.312
▁лёгкім	-10.3126
▁паспяховым	-10.3129
▁ед	-10.3136
▁голаса	-10.314
▁сеців	-10.3146
▁заданн	-10.3148
▁пэўн	-10.3168
▁літар	-10.3186
▁бераг	-10.3203
▁D	-10.3208
ро	-10.3227
▁змаг	-10.3231
▁ежа	-10.3232
▁Афрык	-10.324
▁спадзя	-10.3243
▁цвёрдасц	-10.3264
▁прагляда	-10.3278
▁іду	-10.329
▁Веда	-10.3291
▁назаў	-10.3298
▁срод	-10.3307
▁нейра	-10.3322
▁зацікаві	-10.3331
▁цвёрда	-10.3337
▁заклік	-10.3343
вання	-10.335
вар	-10.336
▁ўрад	-10.3362
▁кру	-10.3365
▁ска	-10.3379
▁дадзен	-10.338
▁выпада	-10.3388
рыл	-10.339
▁называл	-10.3404
ода	-10.3405
▁апублікава	-10.3419
▁Альб	-10.3427
▁суд	-10.3435
нка	-10.3442
▁раскры	-10.345
кал	-10.3455
нды	-10.3467
йду	-10.3474
▁ўяўлял	-10.3479
▁атрымлівае	-10.3511
▁аніяк	-10.3513
▁прэзідэнт	-10.3521
▁прыдума	-10.3521
бер	-10.3536
▁карыстал	-10.3539
джэ	-10.354
ення	-10.3553
▁руха	-10.3564
ніцтва	-10.3584
ыма	-10.361
няе	-10.3634
▁ісці	-10.3634
рава	-10.3654
g	-10.3663
зволь	-10.367
▁шчаслівы	-10.367
роста	-10.368
эн	-10.3688
▁адоле	-10.3696
вага	-10.3722
▁адкрыты	-10.3746
▁вынаход	-10.3752
▁гуч	-10.376
▁перажыл	-10.3762
▁апарат	-10.3769
▁Друг	-10.377
▁прымян	-10.3771
▁падыйш	-10.3775
▁падумал	-10.3792
▁робіц	-10.3796
▁прыбыт	-10.3796
▁прыбытк	-10.3802
▁дух	-10.3805
▁папрасіл	-10.3815
▁амерыканск	-10.3817
▁перада	-10.3833
▁сетка	-10.3854
▁назірае	-10.386
рабілі	-10.3868
▁станов	-10.3906
▁назв	-10.3913
▁пажада	-10.3917
▁настойлів	-10.3922
▁натуральны	-10.3926
помні	-10.3927
шка	-10.3931
перад	-10.3931
E	-10.3934
працава	-10.3949
▁просты	-10.3949
▁распав	-10.395
▁знік	-10.3952
9	-10.3962
су	-10.3963
па	-10.3978
ычны	-10.3985
▁кален	-10.399
▁дарагі	-10.3993
▁старон	-10.4006
▁калег	-10.4006
▁верыл	-10.4007
▁гука	-10.4011
▁радасц	-10.4022
▁выйгра	-10.4025
▁ўбачыл	-10.4027
▁ганстар	-10.4031
el	-10.4032
тна	-10.4041
асоб	-10.4041
сярэдзін	-10.4045
▁ішл	-10.4054
ала	-10.4056
▁прыродны	-10.4068
▁дзяцінств	-10.4075
▁ўплыв	-10.4084
▁знявага	-10.4099
d	-10.4108
▁імкну	-10.4116
дзяце	-10.4122
▁разм	-10.413
▁Джэ	-10.4141
майстра	-10.4147
▁скр	-10.4149
▁спазна	-10.4151
▁кіраванн	-10.4154
йшло	-10.416
▁кахан	-10.4164
▁ўлад	-10.4168
▁пакут	-10.4182
▁спажыва	-10.4187
нацыянальны	-10.4197
раю	-10.42
парадк	-10.4201
▁прыеха	-10.4207
маверна	-10.4225
▁тэма	-10.4229
▁кантэкст	-10.4235
сна	-10.4235
▁сучасна	-10.4243
▁спадар	-10.4249
анцы	-10.4251
▁вопратк	-10.4261
стры	-10.4272
лайн	-10.4277
▁здоле	-10.4278
▁ўклад	-10.4285
▁павяліч	-10.4289
вор	-10.4304
▁схава	-10.4312
▁карыс	-10.4313
▁Кіта	-10.4316
▁абставін	-10.4321
▁фізіка	-10.4323
▁дву	-10.4324
▁далуча	-10.4345
▁эфектыўна	-10.4348
▁даход	-10.4352
ге	-10.4353
▁піш	-10.4355
кіне	-10.4356
дказ	-10.4358
слухала	-10.4359
▁інтэрнэ	-10.4361
огул	-10.4362
авым	-10.4368
▁гара	-10.4368
▁цыліндр	-10.4377
▁дасяга	-10.4382
сэнса	-10.4384
▁75	-10.4388
▁збор	-10.4388
▁дапамо	-10.4388
▁леса	-10.4388
▁шпітал	-10.439
▁Шэ	-10.4395
айт	-10.4399
▁праекта	-10.4401
▁знішч	-10.4401
▁вышэй	-10.4403
дагна	-10.4406
▁разбур	-10.4406
▁медыцын	-10.4409
▁знойд	-10.4409
▁Ле	-10.4411
▁до	-10.4411
падоб	-10.4412
апрасіл	-10.4412
вез	-10.4413
▁перакла	-10.4413
ідавочна	-10.4413
зяўчынк	-10.4414
▁пагража	-10.4414
▁Лю	-10.4415
▁Fo	-10.4415
▁абараня	-10.4415
▁збудава	-10.4415
матывава	-10.4415
▁Accentur	-10.4415
▁Галоўн	-10.4415
▁Гляньце	-10.4415
▁Дапамажы	-10.4415
▁Еўроп	-10.4415
▁Жы	-10.4415
▁Мухамад	-10.4415
▁Паглядзі	-10.4415
▁Праблем	-10.4415
▁Саламон	-10.4415
▁Філадэльфі	-10.4415
▁Чацвёрта	-10.4415
▁абавязк	-10.4415
▁вызваляе	-10.4415
▁запраграмава	-10.4415
▁канкурэнцы	-10.4415
▁монакультур	-10.4415
▁міцэлі	-10.4415
▁найважнейша	-10.4415
▁наступств	-10.4415
▁незвычайны	-10.4415
▁пагроз	-10.4415
▁пастаянны	-10.4415
▁перспектыв	-10.4415
▁пратаптан	-10.4415
▁пропаліс	-10.4415
▁радыкальна	-10.4415
▁разнастайнасц	-10.4415
▁разнастайны	-10.4415
▁снядан	-10.4415
▁сцвярджа	-10.4415
▁тэндэнцы	-10.4415
▁чэмпіён	-10.4415
▁электрамабіл	-10.4415
▁электрастанцы	-10.4415
▁эфір	-10.4415
▁ўзнагарод	-10.4415
▁ўніверсітэт	-10.4415
▁ўніверсітэц	-10.4415
заемаадносін	-10.4415
▁палёт	-10.4415
▁патэлефанава	-10.4415
▁спрошчан	-10.4415
▁уражанн	-10.4415
▁хлопчык	-10.4415
▁інтэнсіўн	-10.4415
▁рыхтую	-10.4415
▁малекул	-10.4415
▁паглядзі	-10.4415
▁ўсталява	-10.4415
▁ўстойлівы	-10.4415
▁кірую	-10.4415
▁матыву	-10.4415
▁місія	-10.4415
▁непатрэбны	-10.4415
▁Выдатн	-10.4415
▁звычк	-10.4415
▁смачна	-10.4415
▁перашкод	-10.4415
▁прысутнасц	-10.4415
мяшанн	-10.4415
▁Без	-10.4415
▁спецыяліст	-10.4415
▁супраців	-10.4415
▁фірм	-10.4415
▁электрычны	-10.4415
▁гутарк	-10.4415
▁Шмат	-10.4415
▁паварочвае	-10.4415
▁здабыва	-10.4415
▁мясцін	-10.4415
▁ровар	-10.4415
▁кампуса	-10.4415
▁распланава	-10.4415
гарэт	-10.4415
▁дзіўны	-10.4415
▁мульты	-10.4415
▁сінтэз	-10.4416
▁першасны	-10.4416
▁ферм	-10.4416
▁функцыян	-10.4416
▁дачыненн	-10.4416
▁здарэнн	-10.4416
▁плюс	-10.4416
▁знаходжанн	-10.4416
▁медыцынскі	-10.4416
▁забаўля	-10.4416
▁выказвання	-10.4416
al	-10.4416
▁катэ	-10.4417
▁Хокін	-10.4417
▁датычы	-10.4417
▁жоўты	-10.4417
ri	-10.4417
▁вірус	-10.4417
▁умова	-10.4417
▁турбін	-10.4417
eg	-10.4417
▁заслугоўва	-10.4419
▁бліжэйшы	-10.4419
▁бес	-10.4419
▁ідэальна	-10.4419
▁пачыта	-10.4419
▁паўз	-10.442
▁прагн	-10.4421
▁турбавац	-10.4421
▁напало	-10.4422
▁Рыа	-10.4422
▁прыемна	-10.4422
▁апранута	-10.4422
▁выбітны	-10.4422
▁аўто	-10.4422
▁цішын	-10.4423
▁камунікацы	-10.4423
▁Дума	-10.4423
▁бегаю	-10.4424
▁роля	-10.4424
▁пятніц	-10.4424
вечары	-10.4426
▁разабрац	-10.4426
▁бра	-10.4426
▁Тэсл	-10.4428
▁пераве	-10.4429
▁карысн	-10.443
▁Існу	-10.443
▁саджа	-10.443
▁рэп	-10.443
▁знойдзе	-10.443
▁кабінет	-10.443
▁сабралі	-10.4431
▁трэці	-10.4432
▁зараджа	-10.4432
▁вышын	-10.4433
▁магі	-10.4433
▁Энд	-10.4433
забав	-10.4434
▁надзвычайны	-10.4435
▁робатаў	-10.4435
▁спява	-10.4435
асе	-10.4436
▁Грэцы	-10.4436
▁цягнік	-10.4436
▁мама	-10.4437
шчасц	-10.4437
▁паліва	-10.4437
▁пашырэнн	-10.4438
▁падліч	-10.444
▁працягну	-10.4441
▁адзінокі	-10.4441
▁абсалютны	-10.4442
▁тэксты	-10.4443
▁паеха	-10.4444
гра	-10.4444
▁рыс	-10.4445
▁Сан	-10.4446
▁расказва	-10.4446
▁мяж	-10.4448
▁вольны	-10.445
▁хатні	-10.4451
▁выйду	-10.4451
▁фільм	-10.4453
▁паўста	-10.4455
▁пераклада	-10.4455
▁нязручна	-10.4456
▁нябачна	-10.4456
▁дыс	-10.4456
▁аф	-10.4457
▁ўніз	-10.4461
▁гума	-10.4462
▁Стар	-10.4464
▁2015	-10.4464
▁выбра	-10.4465
▁зав	-10.4466
▁сядзе	-10.4468
▁ск	-10.4474
жвае	-10.4474
▁Наступна	-10.4476
▁гульц	-10.4478
▁вечар	-10.4478
▁інжынера	-10.4479
▁кірунк	-10.448
▁тлумачы	-10.4481
▁перапын	-10.4481
ay	-10.4484
▁магутна	-10.4484
▁ясна	-10.4485
▁фа	-10.4485
▁розным	-10.4486
ток	-10.4487
пты	-10.4487
▁гвалтавання	-10.4487
▁прыцягну	-10.4487
▁Камал	-10.4493
r	-10.4496
▁бытавы	-10.4499
▁вучыце	-10.4506
▁Памер	-10.4508
▁эксперыментава	-10.451
▁Злучэнне	-10.451
▁лекаванн	-10.4513
▁забой	-10.4514
▁грудз	-10.4516
▁павышэнне	-10.4517
▁ал	-10.4517
▁выходзі	-10.4519
▁50-	-10.4519
▁Неверагодн	-10.4519
▁вынаходка	-10.4521
▁падзяля	-10.4522
▁трывог	-10.4522
▁пыталі	-10.4523
ейшым	-10.4527
▁пачака	-10.4527
▁пісьменнік	-10.4528
▁самалёт	-10.4529
▁рызыку	-10.4532
сцей	-10.4532
▁адрознівае	-10.4532
▁аўтыстам	-10.4534
▁паглядзеў	-10.4534
шчык	-10.4536
▁скончыла	-10.4537
▁Адам	-10.454
▁гарад	-10.4541
▁інваліднасц	-10.4547
▁створаны	-10.4549
▁пачуцця	-10.455
▁даследавання	-10.455
▁прыходзіла	-10.455
▁найвялікшы	-10.4551
тральны	-10.4552
▁пак	-10.4554
▁графік	-10.4555
▁паловай	-10.4559
▁сорам	-10.456
кс	-10.4562
▁ванн	-10.4563
▁падземны	-10.4563
▁Ар	-10.4565
орк	-10.4566
▁праводзілі	-10.4567
▁Га	-10.4573
▁паходжанн	-10.4575
ранна	-10.4576
▁прапаноўваю	-10.4579
▁спраект	-10.4582
▁ан	-10.4583
лаві	-10.4587
▁распаве	-10.459
▁сум	-10.459
▁залат	-10.4591
▁асобны	-10.4595
▁тэхнік	-10.4596
▁лідарств	-10.4602
▁намалява	-10.4602
меры	-10.4606
▁намагання	-10.4607
▁бессмяротнасц	-10.4609
▁падсвядомасц	-10.4613
спакойн	-10.4617
▁гені	-10.4619
▁кароткі	-10.462
▁дасведчанасц	-10.4624
▁рухавік	-10.4626
азу	-10.4629
▁носьбіта	-10.463
▁створана	-10.4631
▁вучым	-10.4632
авай	-10.4645
▁ператварыл	-10.4645
тава	-10.4649
чвае	-10.4654
▁чагось	-10.4658
▁крана	-10.466
▁даўг	-10.4666
▁цэла	-10.4668
▁мільярд	-10.4668
▁Ваша	-10.4673
▁зале	-10.4675
▁дрэвам	-10.4675
▁аддзе	-10.4681
▁прадукцыйнасц	-10.4683
▁пакуту	-10.4695
думайце	-10.47
▁паліцыя	-10.47
▁рэг	-10.4701
▁вя	-10.4706
ера	-10.4707
▁шрыфт	-10.4709
скага	-10.471
▁майстр	-10.4717
▁вырашэнне	-10.4724
▁праграму	-10.4729
будзьце	-10.4732
▁пераканання	-10.4737
ваны	-10.4743
▁Наш	-10.4744
▁э	-10.4747
▁хімі	-10.4748
▁30-	-10.475
▁Маў	-10.4757
▁гары	-10.4766
▁распрацавана	-10.4768
▁дрэвамі	-10.4774
▁стасунк	-10.4782
рыў	-10.4785
▁атамна	-10.4788
▁індывідуальнасц	-10.4791
▁дачк	-10.4791
▁няс	-10.4808
▁прыродным	-10.4809
▁лясны	-10.4816
▁со	-10.4823
le	-10.483
▁выгн	-10.4834
▁дэ	-10.4839
сця	-10.4846
▁Два	-10.4846
цягвае	-10.4852
▁пакупніка	-10.4852
▁банк	-10.4858
▁азначала	-10.4861
▁ўзгада	-10.4862
▁спадчына	-10.4872
▁бяс	-10.4876
▁любя	-10.4884
▁паўднёва	-10.4887
▁карцін	-10.4903
ip	-10.4906
▁стар	-10.4912
▁сядзелк	-10.4914
▁бяз	-10.492
▁будынк	-10.4921
▁уласны	-10.4928
▁стаял	-10.4928
▁духоўны	-10.4934
▁часці	-10.4944
дак	-10.495
чным	-10.4952
бу	-10.4962
гор	-10.4968
пакоі	-10.4974
▁знікл	-10.4985
ut	-10.4987
▁пачне	-10.4987
▁складалі	-10.4993
▁неверагодным	-10.4995
▁вуза	-10.5004
▁дво	-10.5004
▁сацыяльн	-10.5004
▁вяртае	-10.5004
▁хаба	-10.5011
▁зва	-10.5041
▁Трыццац	-10.5051
▁рэлігійны	-10.5078
▁стылі	-10.5083
▁ера	-10.5091
▁збіралі	-10.5102
▁сэксуальна	-10.511
▁нагод	-10.5118
▁каротк	-10.5122
▁малюнк	-10.5138
▁шка	-10.515
▁сцэны	-10.5162
▁фінансавы	-10.5167
▁Тай	-10.5171
рна	-10.5171
▁адкрытым	-10.5173
▁хлопц	-10.5179
▁фізічны	-10.5179
эры	-10.5181
▁квітнею	-10.5189
▁пылк	-10.5191
▁адказва	-10.5196
рыемна	-10.5208
вольн	-10.5218
ысці	-10.5226
▁намага	-10.5238
▁слан	-10.5239
▁узрост	-10.5243
ель	-10.5262
▁паднял	-10.5262
▁перайшл	-10.5271
▁істота	-10.5278
пы	-10.5283
▁ўцяміл	-10.5284
▁спе	-10.5288
▁парада	-10.5291
гей	-10.5296
▁здольна	-10.5297
▁важн	-10.5304
альн	-10.5313
▁прыватны	-10.5317
▁спажыўца	-10.5322
▁ўпарта	-10.5327
▁пасадк	-10.5331
▁сажанц	-10.5336
▁працягласц	-10.5343
▁асяроддзя	-10.5347
▁спыніў	-10.5354
▁верне	-10.5354
▁жывёла	-10.5355
нд	-10.5374
▁Нас	-10.5384
аль	-10.5388
▁іхня	-10.5392
▁прайш	-10.5393
▁прэзідэнта	-10.5397
▁галасавы	-10.5404
тамі	-10.5407
▁пай	-10.5419
▁сляпы	-10.5421
▁карыстальнік	-10.5428
▁слано	-10.5444
утры	-10.5447
гада	-10.5454
ad	-10.5472
кую	-10.5473
▁Час	-10.5505
▁сумес	-10.5506
▁духоўн	-10.5518
▁зацікаўленасц	-10.5522
▁аснова	-10.5533
ступіў	-10.554
▁пазна	-10.5551
жд	-10.5553
вяз	-10.5566
▁музычна	-10.557
▁скончыў	-10.5578
мера	-10.5583
нты	-10.5591
▁жыццёва	-10.5591
so	-10.5612
пала	-10.5624
сп	-10.5644
0-	-10.5645
▁друга	-10.5649
▁агрэсіўны	-10.5652
▁сурагатн	-10.5661
▁прыкладам	-10.5662
▁часова	-10.5663
▁Зан	-10.5664
▁фактар	-10.5664
▁ахвяр	-10.5676
▁правы	-10.5679
▁прадаю	-10.5682
▁атрымліваец	-10.5684
▁асабіст	-10.569
суну	-10.5694
таю	-10.5698
▁спадніц	-10.5699
▁сл	-10.5699
▁паміраю	-10.5701
▁жарт	-10.5709
▁вырасл	-10.5725
гадова	-10.573
▁паказвал	-10.5735
▁чырвона	-10.5744
▁сэрвіс	-10.5745
▁Аль	-10.5751
▁данес	-10.5771
▁бой	-10.5775
▁запыта	-10.5813
ген	-10.5821
ень	-10.5847
ян	-10.5848
пакой	-10.586
▁люба	-10.5865
▁паслуг	-10.5866
▁вуглярода	-10.5875
альна	-10.588
▁групу	-10.5883
▁уз	-10.5888
▁запуск	-10.5902
▁іхні	-10.5906
▁міл	-10.5906
▁цяжкім	-10.5916
лях	-10.5917
шчаны	-10.5921
▁аўтамабіл	-10.5941
▁захапляльна	-10.5942
▁дакумент	-10.5976
▁паказал	-10.5979
йную	-10.5981
▁прамова	-10.5989
▁хад	-10.5994
оўнасц	-10.6003
▁пагор	-10.601
▁супольн	-10.6013
▁яўля	-10.6016
▁ледз	-10.6034
▁спадзява	-10.6042
▁паводзіна	-10.6055
тавалі	-10.6065
юю	-10.6072
енца	-10.6104
цаў	-10.6113
og	-10.6126
▁склал	-10.6137
нач	-10.6155
▁сецівам	-10.6189
▁паміра	-10.6197
▁конт	-10.6203
▁вуз	-10.6215
эраў	-10.6219
▁цікав	-10.6243
▁знак	-10.6248
▁правярал	-10.6264
▁павялічва	-10.6277
ne	-10.6294
▁адчувае	-10.6306
нат	-10.6312
▁дзік	-10.6315
▁пазнаёмі	-10.6316
▁будуе	-10.6318
душы	-10.6334
▁музычн	-10.6337
▁вач	-10.6347
таў	-10.6362
▁верагодн	-10.6365
▁істот	-10.638
жна	-10.6382
▁выс	-10.6397
▁нейк	-10.6401
▁пыта	-10.6405
нг	-10.6408
лаг	-10.6412
▁ўмов	-10.6419
▁наступным	-10.6423
▁звязва	-10.6431
▁адказал	-10.6432
асц	-10.6441
▁падар	-10.6453
▁даста	-10.6453
▁ўспрымае	-10.6454
▁аўтар	-10.646
шні	-10.6466
▁глядзі	-10.6471
▁жадал	-10.649
▁адбы	-10.6495
аваны	-10.6497
▁слане	-10.6501
▁змага	-10.6503
▁пестыцыда	-10.6509
▁сажанца	-10.6511
▁падмур	-10.6515
трыманн	-10.6528
▁Нацыянальна	-10.6536
▁рэз	-10.6541
▁творчым	-10.6543
▁роста	-10.6545
пусці	-10.6582
▁здыма	-10.6585
ўлена	-10.6592
▁сме	-10.6605
▁выклік	-10.6609
ком	-10.6611
▁прыватн	-10.6622
гну	-10.6633
▁пер	-10.6648
уль	-10.6653
▁галасав	-10.6684
вя	-10.6688
▁ісцін	-10.6716
▁чорн	-10.6719
авін	-10.6719
больш	-10.6745
▁турма	-10.6745
дж	-10.6786
▁пальца	-10.6787
▁комплексна	-10.6791
▁сядз	-10.6794
▁выказа	-10.6808
▁рыт	-10.6808
▁гар	-10.6811
ццё	-10.6813
▁імча	-10.6814
▁ніводн	-10.6817
пры	-10.6836
▁пату	-10.6855
▁перас	-10.6859
цісну	-10.6868
▁боскасц	-10.6881
▁мусульман	-10.6892
▁пазнаёміл	-10.6904
ізуе	-10.6905
▁плац	-10.6906
▁супрацоўні	-10.6914
▁Амеры	-10.6916
▁кантр	-10.6917
▁пят	-10.6938
▁сцеж	-10.6941
▁пам	-10.6952
▁каштоўн	-10.6966
▁ўнутраны	-10.6968
бы	-10.6971
▁Перш	-10.6982
лог	-10.6986
▁рада	-10.7003
ty	-10.7006
▁эканамі	-10.7009
▁агн	-10.7009
▁вучн	-10.7011
▁дасыла	-10.7021
▁201	-10.7043
▁грузавік	-10.7049
▁90	-10.7069
▁эр	-10.7069
▁будын	-10.7089
▁Рас	-10.711
яўляе	-10.7119
▁абмежаванн	-10.7122
▁разумны	-10.7133
▁Кал	-10.7134
▁дзіва	-10.7138
▁харчова	-10.7141
▁музы	-10.7142
▁дараг	-10.7157
▁часопіс	-10.7158
рак	-10.7159
▁мэйл	-10.7159
▁сэкса	-10.7172
▁ствар	-10.7175
▁грамадств	-10.7178
▁Раза	-10.7194
▁злачынца	-10.7196
▁прыстасаванн	-10.7204
▁вёс	-10.7207
кая	-10.7212
ключае	-10.722
вод	-10.7237
▁захапленн	-10.7241
лушна	-10.7242
▁апошн	-10.7247
▁гатэл	-10.725
▁працягва	-10.7251
▁Ірак	-10.7255
▁стасунка	-10.7262
▁чароўны	-10.7314
c	-10.732
▁чар	-10.7342
се	-10.7344
to	-10.7353
кер	-10.7354
▁ветр	-10.7358
кампанія	-10.7363
трэця	-10.7371
льнікам	-10.7381
▁атам	-10.7385
▁істотн	-10.7386
▁злучэнн	-10.7387
la	-10.7394
буду	-10.7396
▁зацікаўлены	-10.7398
▁фінанса	-10.74
▁шла	-10.7401
Там	-10.7405
камп	-10.7409
сусвет	-10.7416
пуска	-10.7419
куры	-10.7424
ваг	-10.7434
▁ператвары	-10.7437
кладзе	-10.7437
ічным	-10.7443
▁эк	-10.7443
▁паэт	-10.7445
друк	-10.7446
▁ляж	-10.7448
бр	-10.745
▁перакананн	-10.7463
эл	-10.7465
пкі	-10.7469
жыву	-10.7473
вяду	-10.748
чына	-10.748
▁поў	-10.7489
▁паспрабу	-10.7489
сачы	-10.7495
ычар	-10.75
ат	-10.7505
▁кантрал	-10.7506
▁мэ	-10.751
▁колер	-10.7517
▁падзяк	-10.7524
гукаў	-10.7525
▁надзвычай	-10.7531
▁Гр	-10.7532
Ci	-10.7536
нальна	-10.7539
▁злуча	-10.7545
▁аперацы	-10.7555
▁ядноўва	-10.7556
▁Кале	-10.7562
▁калекцы	-10.7562
лых	-10.7564
▁навы	-10.7574
▁дзь	-10.758
▁Са	-10.7582
▁гру	-10.7585
дарма	-10.7587
ычна	-10.759
▁выкід	-10.7591
энні	-10.7593
▁перакана	-10.7598
▁падзелен	-10.7599
▁апавяда	-10.7604
ншым	-10.7608
▁даследва	-10.7613
▁дасягне	-10.7615
бегл	-10.7617
▁супольнасц	-10.7623
▁грыб	-10.7624
▁цел	-10.7629
хімі	-10.763
ўнік	-10.7634
▁бера	-10.7643
▁разважа	-10.765
▁выхава	-10.7654
▁забяспеч	-10.7663
цтв	-10.7664
шукаў	-10.7674
▁разбі	-10.7674
▁інтэр	-10.7678
▁дыха	-10.7679
▁зніж	-10.7686
▁сар	-10.7689
▁сусве	-10.7692
▁загада	-10.7693
ёвы	-10.7704
галоў	-10.7705
▁хвалю	-10.7707
▁арыент	-10.7709
мала	-10.7712
▁вучня	-10.7716
станоўк	-10.7725
▁япон	-10.7735
▁пакін	-10.7738
брытан	-10.7739
узыка	-10.7739
агічна	-10.7739
▁вегетарыян	-10.774
▁спрэ	-10.7741
джу	-10.7742
▁астра	-10.7743
▁Сур	-10.7744
ic	-10.7747
▁ратава	-10.7747
▁цуд	-10.7748
▁бюракраты	-10.7748
▁Студэнт	-10.7748
▁чэмпіяна	-10.7748
вызначана	-10.7748
затэрычны	-10.7748
снэйлэнд	-10.7748
іртуальн	-10.7748
▁Астатні	-10.7748
▁Брытані	-10.7748
▁Джордж	-10.7748
▁Джыгз	-10.7748
▁Нэльсан	-10.7748
▁Свят	-10.7748
▁Фл	-10.7748
▁Фонд	-10.7748
▁адповед	-10.7748
▁акадэмі	-10.7748
▁асалод	-10.7748
▁астатня	-10.7748
▁атмасфер	-10.7748
▁велізарн	-10.7748
▁галактык	-10.7748
▁галосны	-10.7748
▁гербіцыд	-10.7748
▁гнязд	-10.7748
▁жорстка	-10.7748
▁заахвочва	-10.7748
▁запавольва	-10.7748
▁захоча	-10.7748
▁камбінаторна	-10.7748
▁кансультанта	-10.7748
▁клавіятур	-10.7748
▁крытэры	-10.7748
▁кітайскі	-10.7748
▁люстэрк	-10.7748
▁люцэрн	-10.7748
▁лягчэй	-10.7748
▁марафон	-10.7748
▁навакольна	-10.7748
▁найвышэйшы	-10.7748
▁найпрыгажэйшы	-10.7748
▁незразумелы	-10.7748
▁непаўнавартасц	-10.7748
▁несвядомы	-10.7748
▁неспадзявана	-10.7748
▁няздольна	-10.7748
▁падвергну	-10.7748
▁паляпша	-10.7748
▁партнёра	-10.7748
▁паступова	-10.7748
▁пашкоджан	-10.7748
▁пенсі	-10.7748
▁платформ	-10.7748
▁радыёактыўны	-10.7748
▁рэспіратар	-10.7748
▁сардэчны	-10.7748
▁таленавіты	-10.7748
▁тэхнічна	-10.7748
▁электрасетк	-10.7748
▁элемент	-10.7748
▁эпоха	-10.7748
▁ілюзія	-10.7748
▁ўгнаенн	-10.7748
▁Мужчын	-10.7748
▁Туніс	-10.7748
▁Францы	-10.7748
▁адміністрацы	-10.7748
▁бяздротав	-10.7748
▁выйгрыш	-10.7748
▁драўнін	-10.7748
▁заўзяты	-10.7748
▁знясільва	-10.7748
▁канкурэнт	-10.7748
▁клавесін	-10.7748
▁крэдыт	-10.7748
▁падрыхтоў	-10.7748
▁пазбяга	-10.7748
▁праходзя	-10.7748
▁продаж	-10.7748
▁успрыма	-10.7748
▁шахмат	-10.7748
▁штурхаю	-10.7748
▁энергеты	-10.7748
▁Альбэрт	-10.7748
▁Морган	-10.7748
▁апантан	-10.7748
▁бітва	-10.7748
▁высветліл	-10.7748
▁глузд	-10.7748
▁дабрабыт	-10.7748
▁даступны	-10.7748
▁знаёмы	-10.7748
▁кедр	-10.7748
▁кіёч	-10.7748
▁мастацкі	-10.7748
▁невялічк	-10.7748
▁нешматлікі	-10.7748
▁паведамі	-10.7748
▁павярхоўн	-10.7748
▁папулярн	-10.7748
▁прысутны	-10.7748
▁суадносін	-10.7748
▁установ	-10.7748
▁Настаўнік	-10.7748
▁Эпох	-10.7748
▁ашаламля	-10.7748
▁вымаўля	-10.7748
▁дурн	-10.7748
▁памнажа	-10.7748
▁стандарт	-10.7748
▁Магчыма	-10.7748
▁выруба	-10.7748
▁гавора	-10.7748
▁паезд	-10.7748
▁паслання	-10.7748
▁ілюзіі	-10.7748
▁персанальны	-10.7748
▁перыяд	-10.7748
▁пляцоўк	-10.7748
▁дыяграм	-10.7748
▁схільны	-10.7748
▁танцор	-10.7748
▁найгорша	-10.7748
▁артэры	-10.7748
▁новаўвядзенн	-10.7748
▁гатунк	-10.7748
▁сведчы	-10.7748
▁аўтаавары	-10.7748
▁водгук	-10.7748
▁ураджа	-10.7748
▁выдаўцам	-10.7748
▁натоўп	-10.7748
▁шпрыц	-10.7748
▁паскорыц	-10.7748
▁мацней	-10.7748
▁уладальнік	-10.7748
▁двухбаков	-10.7748
▁пераўзы	-10.7748
▁надыход	-10.7749
▁цыкл	-10.7749
▁зачарава	-10.7749
▁1980-	-10.7749
▁Саджа	-10.7749
▁дачака	-10.7749
▁пашанц	-10.7749
▁трэнер	-10.7749
▁этап	-10.7749
▁сціскае	-10.7749
дзесят	-10.7749
▁актыўны	-10.7749
▁ўражан	-10.7749
ome	-10.7749
lue	-10.7749
▁адчынены	-10.7749
▁чорт	-10.7749
▁Бес	-10.7749
▁доўгі	-10.7749
▁спаборніча	-10.7749
▁суседзя	-10.7749
▁Нязручна	-10.7749
▁змяненн	-10.7749
▁пірамід	-10.7749
▁Вызвал	-10.7749
▁магазін	-10.7749
▁меньш	-10.7749
▁англамоўн	-10.7749
▁зачынены	-10.7749
файл	-10.7749
▁выратава	-10.7749
▁фундаментальны	-10.7749
ing	-10.7749
ёрта	-10.7749
co	-10.7749
▁мінулы	-10.7749
рэдн	-10.7749
▁гонар	-10.7749
ien	-10.7749
▁экран	-10.7749
▁праслухоўвання	-10.7749
▁аднаўля	-10.7749
▁няслушны	-10.7749
▁прыйдзе	-10.7749
▁памідор	-10.7749
▁няслушна	-10.7749
com	-10.7749
▁пафарбава	-10.7749
ect	-10.7749
▁выдаўцо	-10.7749
▁цётк	-10.7749
▁згадзіл	-10.7749
▁паваро	-10.775
▁спальва	-10.775
факус	-10.775
▁Прыклад	-10.775
▁памылковы	-10.775
▁наладзі	-10.775
▁Разуме	-10.775
▁Зноў	-10.775
▁дэман	-10.775
▁вымаўлення	-10.775
▁вугал	-10.775
амада	-10.775
▁практыкава	-10.775
▁197	-10.775
▁Pro	-10.775
▁Малай	-10.775
▁забіва	-10.775
▁абцаса	-10.775
▁набор	-10.775
▁валакн	-10.775
▁гляну	-10.775
▁непас	-10.775
▁інструкцы	-10.7751
▁захоўва	-10.7751
▁Месі	-10.7751
▁турызм	-10.7751
▁194	-10.7751
▁праводзяц	-10.7751
▁жукоў	-10.7751
разовы	-10.7751
▁ўзаемадапамог	-10.7751
мігрант	-10.7751
▁раптоўн	-10.7751
▁Маск	-10.7751
▁справядлів	-10.7751
ацыкл	-10.7751
орыя	-10.7751
▁вэб	-10.7751
▁пройдзе	-10.7752
▁удзельнік	-10.7752
▁1,5	-10.7752
▁Вільям	-10.7752
▁67	-10.7752
▁ужыва	-10.7752
▁Маё	-10.7752
ункам	-10.7752
▁запраша	-10.7752
▁Санд	-10.7752
▁пояс	-10.7752
▁Убачы	-10.7753
▁ўключаны	-10.7753
▁вучэнн	-10.7753
▁чыё	-10.7753
▁ўнутр	-10.7753
▁ўзня	-10.7753
▁штата	-10.7753
▁ўсходні	-10.7753
▁Калікуп	-10.7754
▁здагадал	-10.7754
▁ездзі	-10.7754
▁запісаны	-10.7754
▁паразіт	-10.7755
ктыцы	-10.7755
▁ініцыя	-10.7755
▁кропк	-10.7755
▁стваральніка	-10.7755
кторы	-10.7756
▁служб	-10.7756
▁Лан	-10.7756
крыміна	-10.7756
азам	-10.7756
▁іслам	-10.7756
▁канчатков	-10.7757
▁орган	-10.7757
▁ключ	-10.7757
▁збег	-10.7757
▁множанн	-10.7757
▁палітычны	-10.7758
▁дора	-10.7758
▁разгледзе	-10.7758
▁Аўтар	-10.7759
акладна	-10.7759
▁азірну	-10.7759
▁міжнародн	-10.7759
▁пазычы	-10.7759
▁намерам	-10.776
хоўвае	-10.776
▁Мэта	-10.7761
замуж	-10.7761
▁стэ	-10.7761
▁дроб	-10.7761
▁наяўнасц	-10.7762
▁28	-10.7762
▁падштурхну	-10.7763
варыць	-10.7764
▁фантастычн	-10.7764
▁Гэтка	-10.7765
озь	-10.7766
▁злачынств	-10.7767
▁Бяр	-10.7767
▁2000-	-10.7767
▁трансп	-10.7767
▁абяца	-10.7767
▁клё	-10.7767
▁Будзь	-10.7768
▁персанал	-10.7768
▁ператвара	-10.7768
▁фе	-10.7768
▁інжынерны	-10.7768
тымі	-10.7769
▁маўча	-10.7769
▁шпі	-10.7769
▁родны	-10.7769
▁накіраваны	-10.777
▁жахлів	-10.777
▁адчувальн	-10.7772
▁уплы	-10.7773
▁схаваны	-10.7774
▁чмял	-10.7774
▁няўдач	-10.7774
▁спыненне	-10.7775
▁мір	-10.7775
▁змяшчалі	-10.7775
▁уніз	-10.7776
▁падкрэслі	-10.7777
▁пабудов	-10.7777
▁заплаці	-10.7777
рош	-10.7778
▁Шэсць	-10.7778
▁партугаль	-10.7778
▁садзі	-10.7779
▁марнава	-10.7779
▁фанатка	-10.7779
▁плям	-10.7779
▁падарава	-10.778
▁выпрабаванн	-10.778
▁дакрану	-10.778
▁хвалі	-10.7781
▁90-	-10.7782
▁хітр	-10.7784
▁Нова	-10.7784
сня	-10.7784
▁доз	-10.7785
▁пакутава	-10.7785
▁зірну	-10.7786
▁зборнік	-10.7788
пам	-10.7788
▁апытанне	-10.7789
▁анг	-10.7789
▁75-	-10.779
▁прыгод	-10.779
▁музыкант	-10.779
▁вяршыня	-10.779
▁зменіц	-10.7791
▁змяша	-10.7791
▁прыкмет	-10.7791
рфей	-10.7792
зручны	-10.7793
▁Дзі	-10.7793
▁ейны	-10.7793
▁высяканн	-10.7793
▁сведкам	-10.7794
▁сухо	-10.7797
▁вібры	-10.7797
▁ваджэнн	-10.7798
▁чал	-10.7799
▁дзіркі	-10.7801
▁Наступны	-10.7801
▁адданы	-10.7802
▁выяўля	-10.7803
вадарод	-10.7803
▁падлеткав	-10.7804
▁захад	-10.7806
▁перанос	-10.7809
▁жаданы	-10.781
▁піц	-10.781
▁трапя	-10.7813
▁1999	-10.7813
будзі	-10.7813
▁малым	-10.7815
▁апранац	-10.7815
▁файна	-10.7819
льёна	-10.782
▁Дзіўна	-10.782
▁страху	-10.7821
мпу	-10.7821
▁мару	-10.7825
▁нектар	-10.7825
▁інжынер	-10.7826
▁занятк	-10.7826
▁памножы	-10.7826
▁Самы	-10.7828
▁падвоі	-10.7829
▁варты	-10.783
груз	-10.783
тары	-10.7832
▁будоўл	-10.7832
▁адзіно	-10.7833
▁расці	-10.7833
▁Касп	-10.7836
▁танней	-10.7837
▁12-	-10.7837
▁выгад	-10.7841
▁трасе	-10.7843
▁эфект	-10.7844
▁траці	-10.7844
▁даводзі	-10.7845
▁камерцыйна	-10.7845
▁Анг	-10.7845
▁Давай	-10.7846
▁відавочна	-10.7846
▁збіраем	-10.7847
▁паваг	-10.7848
беж	-10.7849
▁Рабі	-10.7849
▁27	-10.7851
▁пытае	-10.7851
▁заяўля	-10.7852
▁Бру	-10.7852
▁надрукаваны	-10.7854
▁дзесяці	-10.7855
▁прыняцц	-10.7857
мнейшы	-10.7857
▁міра	-10.7858
▁пасадзі	-10.7861
▁курэнн	-10.7863
▁падлог	-10.7865
▁тэлефонны	-10.7867
▁Трэц	-10.7869
міласці	-10.787
▁прапанавал	-10.787
▁нанял	-10.7872
▁сумна	-10.7879
▁Старажытны	-10.7879
▁абставіна	-10.7881
▁засяроджва	-10.7882
▁падзякава	-10.7882
▁зняволенн	-10.7882
▁вымушана	-10.7883
▁прато	-10.7885
стаўлю	-10.7885
▁вырошчваю	-10.7885
▁чужым	-10.7886
▁знізі	-10.7887
▁ідзі	-10.7888
▁прачытал	-10.789
▁падрыхтаваны	-10.7893
джы	-10.7894
▁Гей	-10.7894
фаль	-10.7895
▁Гала	-10.7897
▁маўчанн	-10.7899
▁асіл	-10.79
▁віна	-10.7903
▁належа	-10.7904
▁праграмуемы	-10.7905
▁брытанскі	-10.7905
▁сусвета	-10.7905
▁Лор	-10.7907
▁кажы	-10.7909
▁танна	-10.7912
▁Джа	-10.7913
▁злосц	-10.7916
▁ўперад	-10.7917
▁парушэння	-10.7921
▁стрымліваюч	-10.7921
▁Рэн	-10.7921
▁пустэч	-10.7922
▁эмі	-10.7924
нікам	-10.7925
▁Трэця	-10.7926
▁пачынала	-10.7926
▁змагл	-10.793
▁фатаздымк	-10.7931
▁зво	-10.7932
▁трапіў	-10.7933
▁выбіра	-10.7933
▁прынес	-10.7937
▁прыхільн	-10.7938
▁калекцыя	-10.7939
▁забава	-10.7939
▁Аса	-10.794
▁спынілі	-10.794
▁студы	-10.7941
▁сотням	-10.7942
▁здаравейшы	-10.7943
▁гнуткі	-10.7944
▁мабільны	-10.7944
50	-10.7944
▁адсе	-10.7946
▁стады	-10.7948
▁задаволена	-10.7957
▁сутыкнул	-10.7958
▁выразн	-10.7964
▁прыві	-10.7968
▁прыйшло	-10.7969
▁залежнасц	-10.7969
▁эканомік	-10.7973
▁9-	-10.7977
is	-10.7984
▁інстытута	-10.7988
▁знаходзіце	-10.7988
▁йшл	-10.7988
▁старым	-10.7989
▁арэнду	-10.799
▁збірал	-10.799
▁распаўсюдз	-10.7991
▁вінаваты	-10.7991
▁інтэлектуальны	-10.7992
▁акт	-10.7996
▁прызначан	-10.7998
▁рамк	-10.8003
▁бол	-10.8003
стойлівасць	-10.8006
▁старэйш	-10.8009
▁павярнула	-10.8014
▁разгляда	-10.8017
ашчад	-10.8021
утнасц	-10.8021
▁паспрабую	-10.8022
▁дапасоўва	-10.8027
адзі	-10.803
▁пазнанн	-10.803
▁рынк	-10.8031
▁распаўсюджаным	-10.8037
▁вокн	-10.804
▁банкі	-10.8048
▁гадаванн	-10.8049
▁збіраец	-10.805
гер	-10.8053
▁заходня	-10.8054
▁чаканн	-10.8058
▁глядзел	-10.8059
▁эканамічна	-10.806
алява	-10.8061
▁Запыт	-10.8063
▁спыняе	-10.8067
▁пере	-10.807
▁Бар	-10.8072
▁багаты	-10.8075
▁вопраткі	-10.8078
лучна	-10.8079
▁выканаўчы	-10.808
▁эфектыўнасц	-10.809
▁арх	-10.8094
▁лабараторыя	-10.8096
▁адзінкавы	-10.8096
▁згодна	-10.8101
▁набліжаец	-10.8103
тычна	-10.8113
▁сланіха	-10.8114
больша	-10.8115
▁паўторна	-10.8115
▁злучэння	-10.8123
▁кал	-10.8127
▁эмоцыя	-10.8128
▁адпачынк	-10.813
▁ствараем	-10.8132
нічо	-10.8133
▁атрымлівал	-10.8136
туб	-10.8137
шчэп	-10.8139
▁пост	-10.8142
ові	-10.815
▁рады	-10.8151
▁ваенны	-10.8164
льнае	-10.8167
думалі	-10.8168
▁мура	-10.8173
▁ліха	-10.8174
▁вяду	-10.8175
▁Дрэва	-10.8176
▁модн	-10.8178
▁адкрыцця	-10.8178
▁аказал	-10.8181
▁плёт	-10.8183
▁c	-10.8185
▁скар	-10.8185
гледзел	-10.8187
13	-10.8195
▁Гол	-10.8202
▁буйны	-10.8204
▁плоц	-10.8205
▁напісана	-10.8207
энне	-10.8207
▁ветра	-10.8214
▁вялікш	-10.8215
▁ўме	-10.8216
двух	-10.822
▁сім	-10.823
▁выпуск	-10.8235
лаву	-10.8237
▁квадратны	-10.8244
▁адукацыйн	-10.8245
▁Нав	-10.8246
▁дзя	-10.8247
▁прафесіяналам	-10.8249
▁пачатков	-10.8251
▁адольвае	-10.8256
▁патрэба	-10.8258
▁ролік	-10.8261
▁арабскі	-10.8262
▁сустракал	-10.8262
▁поз	-10.8263
▁негатыўна	-10.8267
поўні	-10.828
▁павольна	-10.828
▁тэ	-10.8286
▁чысты	-10.8296
ктар	-10.8297
▁перай	-10.8303
кодам	-10.8307
▁ганстарам	-10.8308
наў	-10.831
рэнд	-10.8314
▁Маб	-10.8324
▁лічыльнік	-10.8329
▁адрозніваюц	-10.8344
▁насякомы	-10.8345
▁жудасным	-10.8352
меран	-10.8361
▁заснавана	-10.8362
▁сваяко	-10.8362
▁між	-10.8365
▁уб	-10.8393
▁экспертам	-10.8393
▁ніякі	-10.8393
▁тэхналагічны	-10.8396
пал	-10.8399
рупа	-10.8403
▁кашту	-10.8407
▁Раз	-10.8417
▁Марка	-10.8418
тоў	-10.8423
▁вынай	-10.843
▁бацькам	-10.843
▁перамага	-10.8438
▁простым	-10.8442
тычны	-10.8446
мень	-10.8447
▁ўвайш	-10.8449
▁злачынц	-10.8451
нтацы	-10.8457
▁істотна	-10.8457
▁дайшл	-10.846
▁натуральным	-10.8471
▁згод	-10.8473
▁лісто	-10.8483
▁танчы	-10.8487
▁мудра	-10.8489
тара	-10.8495
▁канц	-10.8499
▁грузавіка	-10.85
сю	-10.8503
▁нар	-10.8507
по	-10.8517
▁тэста	-10.8526
▁масава	-10.8526
▁меркаван	-10.8535
▁уладарна	-10.854
ежы	-10.854
▁бедны	-10.8549
▁шк	-10.855
аеце	-10.8555
▁вынаходц	-10.8556
▁размоўц	-10.856
▁шчасліва	-10.8567
▁акуп	-10.8569
▁про	-10.8576
эстра	-10.8579
▁н	-10.8581
▁памылка	-10.859
біё	-10.8593
вана	-10.8598
▁ідэнтычны	-10.8604
▁улічваю	-10.8614
гулялі	-10.8618
кан	-10.8622
кусі	-10.8626
кас	-10.863
ёны	-10.8639
▁ментара	-10.8646
▁Пач	-10.8649
▁маленькім	-10.8652
▁лек	-10.8661
агні	-10.8664
▁ўбачыў	-10.8669
▁Тайлера	-10.87
▁адчыняе	-10.8703
ойд	-10.8708
▁неба	-10.8711
▁бяздомны	-10.8713
▁падзея	-10.8714
▁Но	-10.8716
яўляла	-10.8718
▁рабіла	-10.8723
алела	-10.8723
▁упэўн	-10.8726
▁бала	-10.8727
▁куры	-10.8731
▁бел	-10.8731
▁прызнанн	-10.8732
▁дзед	-10.8736
дава	-10.8751
▁сер	-10.8754
дзей	-10.8758
▁рэзк	-10.8759
▁кантрольн	-10.8759
▁складаю	-10.8767
▁карпара	-10.877
▁кіраванне	-10.8772
▁нацыянальны	-10.8773
крывае	-10.8779
▁Пар	-10.8788
▁распрацоўвае	-10.8794
ікам	-10.8802
▁выніка	-10.8802
оўна	-10.8805
▁адмовіў	-10.8809
▁фота	-10.8813
▁займае	-10.8816
▁пальцам	-10.8816
танцы	-10.8817
▁кара	-10.8818
мз	-10.8818
▁абіра	-10.8826
бара	-10.8835
▁сустрэў	-10.884
▁ўласны	-10.8855
ніку	-10.8855
▁азо	-10.8855
тала	-10.8857
▁перажы	-10.8861
рэшт	-10.8863
ікі	-10.8866
▁Мін	-10.8866
▁падый	-10.8868
▁сту	-10.8875
нях	-10.8881
▁захацел	-10.8885
згубіла	-10.8895
гутары	-10.8909
▁заканчваюц	-10.8924
▁застава	-10.8926
года	-10.8926
▁баял	-10.8934
шна	-10.8934
▁прадукцыйны	-10.8937
▁іспанск	-10.8947
▁вырашаю	-10.895
▁Які	-10.8964
▁ізатопа	-10.8973
▁накіроўваю	-10.8976
верх	-10.8983
▁ела	-10.8983
▁ўплыва	-10.8995
▁ваз	-10.8995
▁права	-10.9
▁хвалява	-10.9022
▁святл	-10.9025
асця	-10.9025
▁працаўніка	-10.9033
▁няве	-10.9035
▁пакаленням	-10.9035
рас	-10.9054
▁здаров	-10.9058
▁шматразов	-10.9065
▁фізічн	-10.9065
зы	-10.9075
▁пазнаёмілі	-10.908
▁ро	-10.9089
▁карды	-10.9093
данне	-10.9112
▁дарагім	-10.9118
▁ўважліва	-10.9119
▁навуков	-10.9135
▁арганізм	-10.9146
▁змяняюц	-10.9168
▁галов	-10.9174
▁калектыўн	-10.9181
▁прынтар	-10.9185
▁прат	-10.9186
печы	-10.9187
▁традыцыйн	-10.9192
▁лік	-10.9194
ставаў	-10.9196
чык	-10.9205
▁разумн	-10.9214
раг	-10.9241
▁збірае	-10.9242
▁натхніл	-10.9246
▁лін	-10.9248
▁канал	-10.9256
re	-10.926
▁пераа	-10.9269
▁пада	-10.9276
▁адказвае	-10.9277
гары	-10.9279
▁ангельска	-10.9281
▁адчувала	-10.9285
▁збі	-10.9291
▁захаван	-10.9292
4-	-10.9296
▁вялізн	-10.9313
▁вашу	-10.9314
▁апублікаван	-10.9328
▁выступ	-10.933
▁галоўн	-10.9338
▁ракетн	-10.934
▁папярова	-10.9342
▁кавалка	-10.9343
▁Гук	-10.9349
▁навуковы	-10.9357
▁сталы	-10.9359
жыў	-10.9365
▁вывучаю	-10.937
пло	-10.9371
▁высокім	-10.9381
▁карт	-10.9387
▁зон	-10.9399
▁Ган	-10.94
▁камандз	-10.9409
▁няў	-10.9409
цам	-10.9413
▁палі	-10.9414
▁выдаю	-10.9446
▁дзіка	-10.9459
асудзі	-10.946
▁слаба	-10.9462
▁ас	-10.9462
▁памыляе	-10.9472
▁аўтара	-10.9482
▁правяра	-10.949
▁л	-10.9509
▁навукоўца	-10.9521
▁ехал	-10.953
▁каляров	-10.9536
▁кава	-10.9544
танне	-10.9545
▁звычайным	-10.9548
12	-10.9553
град	-10.9563
стрыя	-10.958
▁слухаю	-10.9581
▁крут	-10.9584
▁яднанн	-10.96
▁клік	-10.9605
▁слоў	-10.9619
▁англійск	-10.9622
▁мяч	-10.9625
▁бяд	-10.963
▁валодае	-10.9634
▁разы	-10.9646
заў	-10.9672
▁склала	-10.9679
▁офісн	-10.9681
▁малад	-10.9688
▁част	-10.9688
тацы	-10.9692
▁прыбытка	-10.9693
лета	-10.9724
агі	-10.9729
▁тае	-10.9741
ацыю	-10.9746
▁назіраў	-10.9768
нешн	-10.977
▁ўрада	-10.9775
▁асцярожн	-10.9793
▁вузк	-10.9807
▁Эй	-10.9812
▁літара	-10.9813
▁заў	-10.9824
▁экалагічн	-10.9829
▁незнаёмы	-10.9843
▁накіроўва	-10.9866
фэ	-10.9873
▁Зда	-10.9874
▁разумна	-10.9876
▁культурны	-10.989
▁Ма	-10.9896
▁дакумента	-10.9897
▁ўласн	-10.9898
▁выдал	-10.9902
▁тр	-10.9911
саў	-10.9933
▁здзівіц	-10.9935
▁пчаліна	-10.9936
дало	-10.9938
▁хава	-10.995
▁яцку	-10.9953
▁фраз	-10.9963
вэ	-10.9963
айце	-10.9969
▁дырэктар	-10.9975
▁мадэля	-10.9976
стаў	-10.9977
▁суразмоўц	-10.9979
шчы	-11.0002
▁віс	-11.0011
▁дзеся	-11.0011
юча	-11.0017
чаны	-11.0038
▁незнаём	-11.0047
носі	-11.0053
падае	-11.0064
▁кепск	-11.0079
▁запуска	-11.0088
▁паслуга	-11.0095
гл	-11.0105
▁выда	-11.011
нту	-11.0114
▁расцяг	-11.0117
▁цёмн	-11.0127
▁сродк	-11.0139
▁пераход	-11.0147
▁адказнасц	-11.0154
▁памочнік	-11.0165
эль	-11.0166
▁надзейн	-11.0205
▁свядом	-11.0209
кладання	-11.0242
▁ніяка	-11.0254
▁хлапчук	-11.0255
эст	-11.0275
таты	-11.0277
піла	-11.0283
стамі	-11.03
▁бела	-11.0304
кор	-11.0306
отны	-11.0307
▁даросла	-11.0313
▁завод	-11.0322
чынілі	-11.0324
▁нос	-11.0327
▁сучасн	-11.0351
▁сурагатны	-11.038
▁віз	-11.0386
▁агрэсіўн	-11.04
аўленне	-11.0405
▁раёна	-11.0417
▁прапанов	-11.0443
▁сварк	-11.045
сасуд	-11.0454
ёз	-11.0464
▁нязменн	-11.0498
чнікам	-11.0499
кры	-11.051
вымі	-11.051
▁невялік	-11.0514
▁памыля	-11.0515
▁прывял	-11.052
▁палітык	-11.0548
▁начальнік	-11.0554
▁правал	-11.0558
аючы	-11.0563
▁песня	-11.0566
▁смартфона	-11.0573
старон	-11.0584
ногі	-11.0584
▁папяров	-11.0585
▁ганьба	-11.0593
▁аснов	-11.0598
▁наступі	-11.062
▁мажлівасця	-11.0631
▁сп	-11.0631
▁Том	-11.0652
ўным	-11.0654
▁падым	-11.0662
▁змяня	-11.0687
▁слаб	-11.0699
▁апіса	-11.0701
амоўн	-11.0707
▁заходзі	-11.0726
▁лічыл	-11.0736
▁тэстам	-11.0765
▁калектыўна	-11.0773
▁спрабавал	-11.0774
▁Ан	-11.0781
вым	-11.0786
оўваю	-11.0801
▁кон	-11.0801
▁дадат	-11.0813
▁здарова	-11.0835
▁распрацоўва	-11.0842
▁Ней	-11.0849
▁прытулк	-11.085
▁канала	-11.0853
▁пляч	-11.0854
▁газе	-11.0856
▁гульн	-11.0861
▁Бэ	-11.0864
глядзеў	-11.0869
▁адкрыцц	-11.0873
ань	-11.0875
▁офіса	-11.0877
▁сляп	-11.0886
▁выбы	-11.0889
лікам	-11.09
▁ун	-11.091
▁прад	-11.091
▁адмові	-11.092
▁вып	-11.0939
▁шматразова	-11.0939
▁атрымаец	-11.0943
▁філ	-11.0945
▁падтрымліваю	-11.0958
цыд	-11.0962
латы	-11.0963
ваўся	-11.0963
▁арганізма	-11.0978
▁адмыслов	-11.099
▁невядом	-11.0995
ша	-11.0997
▁арганізава	-11.1019
▁меркава	-11.103
цэпт	-11.1058
▁адмов	-11.1063
▁сконча	-11.1111
халі	-11.1115
раць	-11.112
антава	-11.1124
▁расп	-11.1125
▁апавяданн	-11.1135
▁прадбач	-11.1136
▁шчыр	-11.1139
▁настаўніка	-11.1142
▁прыгож	-11.1156
▁пага	-11.1171
лівае	-11.1182
▁вучыл	-11.119
чай	-11.1197
▁кавалач	-11.1207
▁узмацн	-11.1211
біральн	-11.1232
▁страчан	-11.1247
▁згубі	-11.1261
алі	-11.1266
▁прынтара	-11.1272
плаці	-11.1282
▁паслуха	-11.1292
клад	-11.1297
▁кантроль	-11.1325
▁навука	-11.1327
▁адсутн	-11.1328
▁падарыл	-11.1337
▁змена	-11.1339
▁цікавым	-11.1346
▁бяздомн	-11.1346
глядае	-11.1357
▁найлепш	-11.1358
▁адчыня	-11.136
▁Тайлер	-11.1374
▁мядзведз	-11.1379
▁рэлігійн	-11.1389
▁мужа	-11.1398
▁навучыў	-11.1402
энта	-11.141
шан	-11.1418
дзеш	-11.1418
▁кро	-11.142
кае	-11.1429
▁вод	-11.1438
▁см	-11.1444
інг	-11.1459
ені	-11.146
бралі	-11.1472
слуга	-11.1478
заве	-11.1482
▁пасава	-11.15
арон	-11.1542
u	-11.1549
▁цяжк	-11.155
▁узроста	-11.1557
▁прац	-11.1559
▁стат	-11.1562
малі	-11.1565
тан	-11.1572
▁спі	-11.1583
▁патрэбным	-11.1588
▁рад	-11.1589
нцы	-11.1611
ледзя	-11.1616
▁ацэньва	-11.1621
▁бедн	-11.1623
▁Кар	-11.1624
ялёны	-11.1633
ставі	-11.1656
▁ўзгадва	-11.1675
▁мат	-11.1682
▁пачн	-11.1682
оз	-11.1685
▁знакаміт	-11.1692
▁пашыра	-11.1693
▁сяброўк	-11.17
дзець	-11.1714
▁ментар	-11.1716
саф	-11.1724
▁фінансав	-11.1732
▁нацы	-11.1736
▁пераку	-11.1741
▁выключа	-11.1756
▁прыс	-11.177
адзілі	-11.1772
▁тэхналагічн	-11.1772
▁паста	-11.1775
▁спадчын	-11.1779
▁банка	-11.1786
▁малю	-11.179
нта	-11.1794
▁трымаец	-11.1797
▁адрозненне	-11.1797
▁мед	-11.1799
▁цэл	-11.1802
▁складал	-11.1806
▁лют	-11.1814
▁кіламетр	-11.1817
▁сямі	-11.1826
канад	-11.1851
▁жудасны	-11.1855
▁вак	-11.1855
▁спрэч	-11.1859
▁ўвайшл	-11.1871
▁Шчыр	-11.1876
▁атрымоўва	-11.1892
es	-11.1895
▁вырашэнн	-11.1902
▁інвест	-11.1907
▁бяспе	-11.1908
▁чыст	-11.1918
▁свая	-11.1933
▁Сапраўд	-11.1937
▁карці	-11.1944
▁навуч	-11.195
перш	-11.1952
▁фарб	-11.1952
▁пазітыўны	-11.1952
▁паро	-11.1955
▁Гу	-11.1955
▁рэдкі	-11.1956
рыпаміна	-11.1958
▁правядзе	-11.1967
▁70	-11.197
▁выжыва	-11.1976
рэ	-11.1979
ктары	-11.1981
▁адмоўн	-11.1985
▁сродка	-11.1995
▁сядзел	-11.1996
▁цем	-11.1997
▁фізі	-11.1999
▁уласн	-11.2007
пачаткова	-11.2024
▁ролі	-11.2033
▁супрацоўніка	-11.2037
▁спіса	-11.2041
▁зор	-11.2045
▁даве	-11.2046
ван	-11.205
піса	-11.2051
раду	-11.2053
лан	-11.2069
залежн	-11.208
▁прытул	-11.208
▁чароўн	-11.2084
оджання	-11.2087
▁тур	-11.2093
▁прыв	-11.2103
▁шрыфта	-11.211
▁уладар	-11.2128
▁апісва	-11.213
▁пакры	-11.2136
▁глядз	-11.2136
▁выкры	-11.2138
фры	-11.2142
бірала	-11.215
▁разві	-11.2152
▁эмоцы	-11.2157
цягва	-11.2162
▁актыв	-11.2162
▁характэрыстык	-11.2165
▁глабальн	-11.2169
▁здзіўлен	-11.217
сто	-11.2174
▁трапіл	-11.219
▁зван	-11.2191
▁мільярда	-11.2195
волі	-11.2218
▁калега	-11.2222
паці	-11.2239
каштоўна	-11.2245
▁хоб	-11.2248
▁прабачэнн	-11.2249
ятка	-11.2252
▁арэ	-11.2257
оза	-11.2263
▁паўтар	-11.2269
навука	-11.2272
рыт	-11.2274
англійску	-11.2276
▁код	-11.2277
▁натур	-11.2279
▁асаблів	-11.2281
▁парав	-11.2282
бліск	-11.2283
тэрапі	-11.2283
▁пераўтвары	-11.2288
чку	-11.2288
любя	-11.2298
▁аўта	-11.23
бярэ	-11.2301
воз	-11.2301
▁статысты	-11.2301
▁захворванн	-11.2303
клік	-11.2305
▁блуканн	-11.2308
▁імперы	-11.2311
▁цікаві	-11.2313
▁бар	-11.2314
заходня	-11.2328
▁інсектыцыда	-11.2328
▁дыягнаст	-11.2335
▁старэйша	-11.2343
прынтар	-11.2345
менш	-11.2346
тэхнік	-11.2349
нясе	-11.235
чорны	-11.235
▁падзял	-11.2351
▁мус	-11.2352
апарат	-11.2353
ўрад	-11.2353
дзейніча	-11.2354
азі	-11.2356
дапамога	-11.2358
выпадкова	-11.2359
30	-11.236
лічыў	-11.236
шана	-11.2362
твор	-11.2363
глыбока	-11.2364
прыс	-11.2366
пішу	-11.2367
Т	-11.2372
йка	-11.2374
раблю	-11.2375
C	-11.2378
ляры	-11.2378
▁дазна	-11.2379
▁інстытут	-11.238
зеля	-11.2381
▁лічыў	-11.2385
▁раўна	-11.2385
S	-11.2386
▁энергі	-11.2389
прадукцыйн	-11.2391
Э	-11.2391
▁эканомі	-11.2392
фікава	-11.2395
далей	-11.24
краін	-11.2401
гуля	-11.2403
заўваж	-11.2404
▁арэнд	-11.2409
гадзін	-11.241
ірн	-11.2411
В	-11.2412
зме	-11.2415
сэ	-11.2417
пад	-11.2417
вучы	-11.2418
доўга	-11.242
▁сутыкну	-11.2422
▁Кара	-11.2422
школ	-11.2426
▁журналіст	-11.2429
▁крыч	-11.2435
▁структур	-11.2437
▁гнутк	-11.2437
▁засяродзі	-11.2438
▁выкр	-11.2446
▁пачуцц	-11.2447
▁даследаванн	-11.2448
▁ствара	-11.2453
▁прапаноўва	-11.2454
нова	-11.2459
цікава	-11.2462
▁размеркава	-11.2463
▁прэ	-11.2465
▁тан	-11.2466
▁ўцягну	-11.2468
▁паменш	-11.2468
▁падземн	-11.2469
▁піра	-11.2469
▁пр	-11.2469
▁прымуш	-11.2472
ман	-11.2476
часта	-11.2479
▁дазваляю	-11.248
▁настро	-11.2489
даль	-11.2496
▁належ	-11.2504
варылі	-11.2507
сход	-11.251
▁вымуша	-11.2518
алогі	-11.2524
▁апыну	-11.2528
шэйша	-11.2529
▁неабходнасц	-11.2529
вед	-11.253
пасавалі	-11.253
▁зніз	-11.2531
▁каз	-11.2534
нейшы	-11.2534
прад	-11.2538
▁сця	-11.2546
▁лекава	-11.2551
▁флейт	-11.2552
ангельску	-11.2552
маці	-11.2553
▁тавар	-11.2556
▁плы	-11.2557
мініст	-11.2563
▁кантакт	-11.2564
хілення	-11.2572
рэс	-11.2576
▁спачува	-11.2577
▁пашыр	-11.2578
▁заўваж	-11.2579
▁здагад	-11.2588
▁прыцягн	-11.2589
працоў	-11.2593
▁імкн	-11.2593
мпульс	-11.2596
▁скончан	-11.2601
▁спра	-11.261
дзеянн	-11.2611
туральна	-11.2616
мэ	-11.2618
пійск	-11.2619
важлівасц	-11.2621
▁Вядом	-11.2629
▁фу	-11.2632
біта	-11.2637
істы	-11.2638
нстыту	-11.2638
роны	-11.2641
▁адпачын	-11.2642
▁Інтэрнэ	-11.2646
▁паўночн	-11.2648
▁экс	-11.265
▁Гор	-11.2651
▁крыўд	-11.2651
ленне	-11.2651
вярн	-11.2652
раша	-11.2652
абок	-11.2653
фік	-11.2655
лёта	-11.2662
▁прадукцы	-11.2664
▁раб	-11.2665
▁вандр	-11.2668
▁дзярж	-11.2671
ём	-11.2673
▁прачытаў	-11.2675
язджа	-11.2679
▁намаганн	-11.2682
трэс	-11.2686
адра	-11.2687
чванне	-11.2689
▁імен	-11.269
▁Жа	-11.269
апісанн	-11.2692
▁люд	-11.2692
сель	-11.2693
водзі	-11.2694
▁Грэ	-11.2705
▁ўявіц	-11.2706
▁рос	-11.2707
аўляў	-11.2707
цыйны	-11.2708
▁ўжыва	-11.2709
▁спынен	-11.2709
▁гало	-11.2709
▁змяшча	-11.2711
аджае	-11.2712
прабава	-11.2712
энэдж	-11.2713
знаёмі	-11.2716
▁папярэд	-11.2717
вярхо	-11.2717
дэлл	-11.2719
▁фо	-11.2721
здр	-11.2721
гародніцтва	-11.2722
▁стамля	-11.2722
філ	-11.2722
гун	-11.2723
авары	-11.2723
▁транс	-11.2723
▁падло	-11.2726
свядомасц	-11.2726
▁моман	-11.2727
цігоддзя	-11.2729
рсі	-11.273
▁пласт	-11.2732
ацыйны	-11.2732
▁агарод	-11.2734
▁настаўніц	-11.2735
ёрк	-11.2736
▁турб	-11.2736
▁дыягн	-11.2736
лерам	-11.2737
гол	-11.2737
ажліва	-11.2738
▁небяспе	-11.2739
энс	-11.274
ацыяльны	-11.2741
▁напрык	-11.2741
аўлялі	-11.2742
ардына	-11.2742
▁татуіро	-11.2743
ільям	-11.2744
антро	-11.2744
▁сутык	-11.2744
астаткова	-11.2745
ублічна	-11.2745
атуіроўк	-11.2745
▁дэт	-11.2745
ахіс	-11.2745
dia	-11.2746
▁кв	-11.2746
▁сацыял	-11.2746
▁усведам	-11.2746
рф	-11.2746
урызм	-11.2747
джэл	-11.2747
▁функцы	-11.2747
▁практык	-11.2748
эвалюцыя	-11.2748
Анджал	-11.2748
▁сусед	-11.2748
ампутар	-11.2748
прыемства	-11.2748
эспублі	-11.2748
▁Адкрой	-11.2748
▁Слухай	-11.2748
▁Устойлів	-11.2748
▁Цэнтр	-11.2748
▁Чарнобыл	-11.2748
▁здабыт	-11.2748
▁здзіўля	-11.2748
▁кляштар	-11.2748
▁недаацэньва	-11.2748
▁пераслед	-11.2748
▁спатканн	-11.2748
▁стабільны	-11.2748
▁суперзор	-11.2748
▁трохбор	-11.2748
▁тэрапеўт	-11.2748
Cradle	-11.2748
orld	-11.2748
адміністратыўна	-11.2748
амерыканка	-11.2748
атлусценн	-11.2748
бянтэж	-11.2748
воблачны	-11.2748
даражэйшы	-11.2748
карэянка	-11.2748
ключэнне	-11.2748
перакусачны	-11.2748
тэнзі	-11.2748
ўзаемаабумоўлены	-11.2748
ўночнаамерыканск	-11.2748
▁America	-11.2748
▁Fre	-11.2748
▁Supercharg	-11.2748
▁Абавязк	-11.2748
▁Айнштайн	-11.2748
▁Акадэмі	-11.2748
▁Аспергер	-11.2748
▁Багдад	-11.2748
▁Брытанска	-11.2748
▁Глабальн	-11.2748
▁Дзіцячы	-11.2748
▁Жэлацінав	-11.2748
▁Крыстафер	-11.2748
▁Кэвітт	-11.2748
▁Ліні	-11.2748
▁Меданосны	-11.2748
▁Мітч	-11.2748
▁Нарцыс	-11.2748
▁Паларойд	-11.2748
▁Прэзідэнт	-11.2748
▁Рызык	-11.2748
▁Сноўдэн	-11.2748
▁Сіднэ	-11.2748
▁Тадхоўп	-11.2748
▁Чэ	-11.2748
▁Шакаладна	-11.2748
▁Шаттл	-11.2748
▁Эдвард	-11.2748
▁Эдынбург	-11.2748
▁абгрунтаваны	-11.2748
▁абмежаваны	-11.2748
▁абсерваторы	-11.2748
▁абслугоўванн	-11.2748
▁адважны	-11.2748
▁адукаваны	-11.2748
▁аксытацын	-11.2748
▁ампутавана	-11.2748
▁ананімн	-11.2748
▁апыляльнік	-11.2748
▁аргумент	-11.2748
▁аэрадынамі	-11.2748
▁бесплатн	-11.2748
▁беспрэцэдэнтным	-11.2748
▁брудна	-11.2748
▁будаўніцтва	-11.2748
▁біблейск	-11.2748
▁вайсков	-11.2748
▁выкарастац	-11.2748
▁вялізарн	-11.2748
▁віктарыянска	-11.2748
▁гасцёўн	-11.2748
▁гіпотэз	-11.2748
▁гіпсакардон	-11.2748
▁дабрачынн	-11.2748
▁дзесятковы	-11.2748
▁дрэсіроўшчыц	-11.2748
▁замежніка	-11.2748
▁згвалтаваны	-11.2748
▁змрочн	-11.2748
▁канфліктны	-11.2748
▁катастроф	-11.2748
▁каэфіцыент	-11.2748
▁клапоці	-11.2748
▁крывасмактальны	-11.2748
▁кірмаш	-11.2748
▁леапарда	-11.2748
▁маршрут	-11.2748
▁матывацы	-11.2748
▁мёртва	-11.2748
▁мільянерам	-11.2748
▁мімалётна	-11.2748
▁найвышэйша	-11.2748
▁напоўнен	-11.2748
▁неадкладна	-11.2748
▁нядобры	-11.2748
▁няправільна	-11.2748
▁няправільны	-11.2748
▁няспынна	-11.2748
▁нізкаэнергетычн	-11.2748
▁пакалечан	-11.2748
▁паліцэнтрычн	-11.2748
▁парыжск	-11.2748
▁пацверджанне	-11.2748
▁пацярпелы	-11.2748
▁педагагічны	-11.2748
▁пейзаж	-11.2748
▁перамяшчэнне	-11.2748
▁перапоўнен	-11.2748
▁пустазелл	-11.2748
▁расшыфр	-11.2748
▁рыдлёўк	-11.2748
▁рэдактар	-11.2748
▁рэйтынг	-11.2748
▁самаўпэўненасц	-11.2748
▁сардэчна	-11.2748
▁спазня	-11.2748
▁справаздач	-11.2748
▁старажытна	-11.2748
▁старамодна	-11.2748
▁стратэгі	-11.2748
▁студэнцк	-11.2748
▁супадзенн	-11.2748
▁суфізм	-11.2748
▁суфійск	-11.2748
▁сцвярджэнн	-11.2748
▁сыравіна	-11.2748
▁трагеды	-11.2748
▁трушчоба	-11.2748
▁тэлефан	-11.2748
▁тэлэ	-11.2748
▁тэрыторы	-11.2748
▁тэхнічны	-11.2748
▁фавэла	-11.2748
▁федэральн	-11.2748
▁цёплы	-11.2748
▁чацвёрт	-11.2748
▁экзэмпляр	-11.2748
▁элітны	-11.2748
▁эпідэмі	-11.2748
▁яскравы	-11.2748
▁ізраільскі	-11.2748
▁інгрэдыент	-11.2748
▁інтарэса	-11.2748
▁інтэрактыўн	-11.2748
▁ўласцівасц	-11.2748
▁ўмудрыл	-11.2748
▁ўсталёўк	-11.2748
▁Прыгожа	-11.2748
▁вуглевадарод	-11.2748
▁вуглявод	-11.2748
▁гатова	-11.2748
▁дэманстрава	-11.2748
▁заяўлены	-11.2748
▁кампанент	-11.2748
▁марудны	-11.2748
▁несправядліва	-11.2748
▁падпіхва	-11.2748
▁пацвердзі	-11.2748
▁пераадольва	-11.2748
▁прадэманстрава	-11.2748
▁пужаюч	-11.2748
▁ўпрыгожваю	-11.2748
атэнцыйн	-11.2748
багацейшы	-11.2748
равасуддз	-11.2748
▁Гішпані	-11.2748
▁Мейлер	-11.2748
▁Факт	-11.2748
▁Хр	-11.2748
▁Цё	-11.2748
▁аўтаматызацы	-11.2748
▁баскетбол	-11.2748
▁бензін	-11.2748
▁бібліятэ	-11.2748
▁габрэйск	-11.2748
▁гараскоп	-11.2748
▁грунтоўн	-11.2748
▁дамашн	-11.2748
▁дысфункцыянальн	-11.2748
▁зарплат	-11.2748
▁згвалчва	-11.2748
▁калаген	-11.2748
▁кантынент	-11.2748
▁клуба	-11.2748
▁малодш	-11.2748
▁манітор	-11.2748
▁наваколл	-11.2748
▁нейратаксін	-11.2748
▁непакараны	-11.2748
▁нестабільн	-11.2748
▁паразуменн	-11.2748
▁паўдаро	-11.2748
▁перамяшча	-11.2748
▁пульса	-11.2748
▁распачынал	-11.2748
▁роздум	-11.2748
▁самаарганізава	-11.2748
▁сканцэнтрава	-11.2748
▁скептычн	-11.2748
▁скончва	-11.2748
▁спасыла	-11.2748
▁тангенс	-11.2748
▁універсітэт	-11.2748
▁усвядомі	-11.2748
▁усталяван	-11.2748
▁фатограф	-11.2748
▁фрукт	-11.2748
▁штучна	-11.2748
▁інфекцый	-11.2748
адаксальн	-11.2748
зграбн	-11.2748
саматрансфармацы	-11.2748
▁Маленьк	-11.2748
▁Універсітэт	-11.2748
▁бязглуздзіц	-11.2748
▁геніяльнасц	-11.2748
▁глыбін	-11.2748
▁дэфі	-11.2748
▁замаруд	-11.2748
▁клімата	-11.2748
▁кітайска	-11.2748
▁лагарыфм	-11.2748
▁падбадзёрва	-11.2748
▁распачн	-11.2748
▁сельска	-11.2748
▁талер	-11.2748
▁удаўнен	-11.2748
▁уласціва	-11.2748
▁чапля	-11.2748
▁ўхваленн	-11.2748
канструкта	-11.2748
рэгістра	-11.2748
▁Банк	-11.2748
▁абвінавачва	-11.2748
▁акцёр	-11.2748
▁бортнік	-11.2748
▁міндал	-11.2748
▁неабыякав	-11.2748
▁норм	-11.2748
▁патрабава	-11.2748
▁процілегла	-11.2748
▁шматпланетн	-11.2748
▁энэргетычн	-11.2748
▁ўсталёўвае	-11.2748
▁прасцейшы	-11.2748
▁прыдумля	-11.2748
кардыяхірурга	-11.2748
мацоўва	-11.2748
чора	-11.2748
▁Агульна	-11.2748
▁Гатов	-11.2748
▁Электр	-11.2748
▁генатыпа	-11.2748
▁грэчаск	-11.2748
▁звест	-11.2748
▁кліматычн	-11.2748
▁міндальны	-11.2748
▁нарцыс	-11.2748
▁перашк	-11.2748
▁практычны	-11.2748
▁Хутка	-11.2748
▁вылучаец	-11.2748
▁відавочны	-11.2748
▁наблізіц	-11.2748
▁непадалёк	-11.2748
▁спатыка	-11.2748
▁супраціўл	-11.2748
▁сярэдне	-11.2748
арганізатар	-11.2748
▁апанава	-11.2748
▁апыляюц	-11.2748
▁пасланне	-11.2748
▁прачну	-11.2748
▁ўзаемазалежн	-11.2748
▁Праграм	-11.2748
▁Сцівен	-11.2748
▁Сістэм	-11.2748
▁збліж	-11.2748
▁максім	-11.2748
цярп	-11.2748
▁Нікалас	-11.2748
▁вылекава	-11.2748
брэйк	-11.2748
▁вазелін	-11.2748
▁ектыўн	-11.2748
▁ўсміха	-11.2748
▁актыўна	-11.2748
▁працадаўц	-11.2748
▁рыхтава	-11.2748
▁Джун	-11.2748
дакранал	-11.2748
▁біялагічн	-11.2748
▁няроўна	-11.2748
▁выпраўля	-11.2748
▁метафар	-11.2748
▁куміра	-11.2749
▁паўсюдна	-11.2749
▁прыступк	-11.2749
▁Падобн	-11.2749
▁бізн	-11.2749
▁гаворк	-11.2749
▁перапіс	-11.2749
▁акруж	-11.2749
▁закадава	-11.2749
▁асудж	-11.2749
▁замяшча	-11.2749
▁штучны	-11.2749
▁мёд	-11.2749
▁насалод	-11.2749
рэаты	-11.2749
схвалявана	-11.2749
▁кваліфіка	-11.2749
▁педыят	-11.2749
▁фотаздым	-11.2749
▁горда	-11.2749
▁занятка	-11.2749
▁фундаментальна	-11.2749
інтрыг	-11.2749
▁ацэнк	-11.2749
▁знаходжу	-11.2749
▁няўпэўнена	-11.2749
плочаны	-11.2749
свяці	-11.2749
эйтс	-11.2749
▁аўтаматычны	-11.2749
▁выбачаю	-11.2749
▁ігнар	-11.2749
▁Савет	-11.2749
▁кітайц	-11.2749
▁твіт	-11.2749
вёрдасц	-11.2749
▁Мадэл	-11.2749
▁Дзірк	-11.2749
▁пераважа	-11.2749
▁плакал	-11.2749
▁псіхалагічн	-11.2749
▁Хлопчык	-11.2749
▁ахоўны	-11.2749
▁ветэрана	-11.2749
▁патэнт	-11.2749
▁праясні	-11.2749
▁стымул	-11.2749
▁атачэнн	-11.2749
▁апрацавана	-11.2749
дарожн	-11.2749
▁Шанда	-11.2749
▁гандл	-11.2749
ocal	-11.2749
андыдат	-11.2749
ёгка	-11.2749
▁лакальн	-11.2749
афоб	-11.2749
фіцыр	-11.2749
▁хуткі	-11.2749
▁камерцыйны	-11.2749
агічным	-11.2749
▁бамбук	-11.2749
▁дэбат	-11.2749
▁спагад	-11.2749
▁ўзруш	-11.2749
▁задавальненн	-11.2749
палохана	-11.2749
▁падатков	-11.2749
▁ідэнты	-11.2749
▁карпаратыўн	-11.2749
▁Вітор	-11.2749
▁пазіцы	-11.2749
▁спажывецк	-11.2749
▁паслаблены	-11.2749
▁прататып	-11.2749
▁легальн	-11.2749
▁настаўля	-11.2749
▁даступна	-11.2749
▁рамантычны	-11.2749
▁размясці	-11.2749
пілот	-11.2749
▁жалез	-11.2749
▁рацыянальн	-11.2749
▁глушы	-11.2749
▁захрас	-11.2749
▁слепа	-11.2749
турыстычн	-11.2749
▁эфектыўней	-11.2749
▁доўгатэрмінов	-11.2749
▁ўзор	-11.2749
▁навуча	-11.2749
▁заняпад	-11.2749
ынств	-11.2749
▁падазр	-11.2749
▁магутны	-11.2749
улярна	-11.2749
▁злез	-11.2749
▁замов	-11.2749
▁інтымн	-11.2749
▁зачапі	-11.2749
▁разарва	-11.2749
▁сэксапіл	-11.2749
▁гаспадар	-11.2749
▁тоўста	-11.2749
▁Тайван	-11.275
▁кпін	-11.275
▁пухлін	-11.275
лэйс	-11.275
▁канцавін	-11.275
▁эгаізм	-11.275
▁найглыбейша	-11.275
▁Добры	-11.275
кскурсі	-11.275
▁пераабсталява	-11.275
▁панамска	-11.275
▁сурагата	-11.275
▁сумнява	-11.275
up	-11.275
ran	-11.275
▁Паўд	-11.275
▁станоўч	-11.275
▁прафесар	-11.275
▁лаціна	-11.275
урпа	-11.275
марка	-11.275
Анджэлес	-11.275
авіка	-11.275
▁Панамск	-11.275
▁пагражальна	-11.275
▁характарыз	-11.275
▁джын	-11.275
▁ўладарн	-11.275
▁захопл	-11.275
▁найменш	-11.275
▁усведамленн	-11.275
аплочвае	-11.275
▁1990-	-11.275
▁націск	-11.275
▁кватэр	-11.275
▁дакументальны	-11.275
тызм	-11.275
▁спраўдж	-11.275
▁перакладзены	-11.275
▁эпі	-11.275
▁лыж	-11.275
збро	-11.275
▁перакладзена	-11.2751
▁грамадска	-11.2751
▁гід	-11.2751
▁кнігарн	-11.2751
паказчык	-11.2751
▁мікр	-11.2751
oc	-11.2751
▁Найбольш	-11.2751
рбавалі	-11.2751
▁стрыж	-11.2751
▁Карэ	-11.2751
▁несум	-11.2751
▁натхняльна	-11.2751
▁прысвяча	-11.2751
▁кволы	-11.2751
▁сёмы	-11.2751
▁Трымай	-11.2751
▁вёсач	-11.2751
▁псіхі	-11.2751
ізацы	-11.2751
ue	-11.2751
▁ўспомні	-11.2751
▁шкаду	-11.2751
▁Папр	-11.2751
▁трэніроўк	-11.2751
▁Нібы	-11.2752
лаўд	-11.2752
рэаль	-11.2752
▁196	-11.2752
панікава	-11.2752
▁нявыдадзены	-11.2752
▁плаванне	-11.2752
эктар	-11.2752
▁скарыста	-11.2752
▁кантэнт	-11.2752
▁пагоршы	-11.2752
▁пахудзе	-11.2752
▁Скар	-11.2752
▁ўсяляк	-11.2752
▁авія	-11.2752
▁Крыс	-11.2752
▁французск	-11.2752
ec	-11.2752
▁вандравання	-11.2752
▁1993	-11.2752
▁механі	-11.2752
▁самароб	-11.2752
▁хмар	-11.2752
▁схапі	-11.2753
▁даследуемы	-11.2753
▁індустрыяльны	-11.2753
▁рэаліза	-11.2753
▁члена	-11.2753
адазваў	-11.2753
▁другасн	-11.2753
▁адапт	-11.2753
ргер	-11.2753
ітыўным	-11.2753
▁шэраг	-11.2753
▁скарац	-11.2753
▁крэ	-11.2753
стойны	-11.2753
▁продк	-11.2753
▁рамантава	-11.2753
▁станаві	-11.2753
▁крэсл	-11.2753
▁мядзведзянё	-11.2753
рукава	-11.2753
▁ядр	-11.2754
the	-11.2754
складанейшы	-11.2754
▁распаўсюджва	-11.2754
▁ступае	-11.2754
упярэчнасц	-11.2754
▁Клуб	-11.2754
▁хінд	-11.2754
▁схіл	-11.2754
▁Баннел	-11.2754
▁кадра	-11.2754
▁гасцініц	-11.2754
▁72	-11.2754
▁выпраста	-11.2754
▁фонд	-11.2754
▁Тур	-11.2754
льтрагук	-11.2754
▁ўнутрана	-11.2754
▁Хоча	-11.2754
індыйска	-11.2754
▁гасця	-11.2754
▁зняважан	-11.2754
▁цяжэйш	-11.2754
ламаны	-11.2755
ge	-11.2755
▁рассад	-11.2755
леўска	-11.2755
▁яркім	-11.2755
▁ўплывов	-11.2755
▁Будучы	-11.2755
▁зям	-11.2755
▁возьм	-11.2755
▁абагульн	-11.2755
▁квэст	-11.2755
▁атру	-11.2755
булінг	-11.2755
згублен	-11.2755
▁пабл	-11.2755
▁2008	-11.2755
nti	-11.2755
▁падняты	-11.2755
▁банд	-11.2755
▁198	-11.2755
▁Жанчын	-11.2755
▁вучоны	-11.2755
▁ратавальны	-11.2755
▁ажыцяўленн	-11.2756
зачыня	-11.2756
▁сціха	-11.2756
тланд	-11.2756
▁трапны	-11.2756
▁еўрапейскі	-11.2756
▁Ma	-11.2756
▁абедзе	-11.2756
▁выража	-11.2756
▁хуткасна	-11.2756
▁ідэал	-11.2757
▁арганічн	-11.2757
SA	-11.2757
▁бязлітасна	-11.2757
▁САН	-11.2757
▁Ms	-11.2757
флейтыста	-11.2757
▁натхненн	-11.2757
▁канадскі	-11.2757
▁нашчад	-11.2757
▁Спад	-11.2757
▁адчувальнасці	-11.2757
▁Леп	-11.2758
▁крытычн	-11.2758
▁памеркава	-11.2758
тарыза	-11.2758
▁няздольны	-11.2758
▁выплат	-11.2758
▁радзім	-11.2758
▁гатава	-11.2758
▁прымацаваны	-11.2758
▁клаві	-11.2758
▁ектам	-11.2758
▁учынк	-11.2758
▁увас	-11.2758
▁уцямі	-11.2758
▁цэнта	-11.2758
Анджэл	-11.2759
▁матч	-11.2759
пампоўва	-11.2759
▁незалежны	-11.2759
падлетак	-11.2759
ure	-11.2759
▁21	-11.2759
▁ачунял	-11.2759
▁касм	-11.2759
▁Месяц	-11.2759
▁26	-11.2759
▁адправі	-11.2759
▁асо	-11.276
▁падман	-11.276
▁Шве	-11.276
▁абавяза	-11.276
▁пчаляр	-11.276
▁агр	-11.276
▁выдаткоўва	-11.276
▁тус	-11.2761
▁крытык	-11.2761
▁Вада	-11.2761
уалізацы	-11.2761
чоўка	-11.2761
▁копі	-11.2761
▁кожнадзённ	-11.2761
▁Паўтар	-11.2761
▁імун	-11.2761
гурт	-11.2761
▁шыр	-11.2761
ршч	-11.2762
▁вегетарыянца	-11.2762
ніжэнн	-11.2762
▁аптыміст	-11.2762
▁навучэнца	-11.2762
▁параўноўва	-11.2762
▁патраці	-11.2762
▁падоры	-11.2762
▁мяняе	-11.2762
▁выконва	-11.2762
▁адносна	-11.2762
стройваю	-11.2763
▁скур	-11.2763
st	-11.2763
▁маладзейшы	-11.2763
▁медыцынска	-11.2763
▁пераязджа	-11.2763
▁працоўна	-11.2763
are	-11.2763
▁Прынім	-11.2764
▁Кітайск	-11.2764
▁цэментны	-11.2764
▁вызначы	-11.2764
▁спампава	-11.2764
двакат	-11.2764
▁пераможца	-11.2764
▁прывез	-11.2764
▁неад	-11.2765
▁папярэдня	-11.2765
дзю	-11.2765
▁дабр	-11.2765
▁корм	-11.2765
рланд	-11.2765
▁актывіз	-11.2765
▁Жак	-11.2765
▁міма	-11.2765
▁напр	-11.2765
▁іранічн	-11.2765
▁папраўк	-11.2766
анюшын	-11.2766
▁адрадж	-11.2766
раба	-11.2766
▁паскараец	-11.2766
▁эфектыўнейшы	-11.2766
▁паглыбілі	-11.2766
▁рання	-11.2766
▁зацверд	-11.2766
▁сутар	-11.2766
ll	-11.2766
▁палос	-11.2766
паш	-11.2767
▁абыяк	-11.2767
дурацк	-11.2767
ear	-11.2768
коўваю	-11.2768
▁магічна	-11.2768
▁Жадае	-11.2769
▁дапаможнік	-11.2769
▁дапушча	-11.2769
▁разбуральн	-11.2769
высіл	-11.2769
▁спрацава	-11.277
▁шкоднік	-11.277
▁прышла	-11.277
▁вызначаны	-11.277
эзі	-11.277
ep	-11.277
смешк	-11.277
огу	-11.277
кты	-11.277
▁бачна	-11.277
тывы	-11.2771
▁пастаўлен	-11.2771
▁прасоўва	-11.2771
▁папярэдні	-11.2771
▁захапі	-11.2772
▁дзяржав	-11.2772
▁вуш	-11.2772
▁Вінш	-11.2772
▁Заста	-11.2772
▁вымярэнн	-11.2772
▁наладжва	-11.2772
▁пералёт	-11.2772
▁запас	-11.2772
рлы	-11.2772
аматар	-11.2773
▁даказа	-11.2773
яцоўк	-11.2773
▁едліва	-11.2773
▁Ti	-11.2774
▁палестынск	-11.2774
▁Міль	-11.2775
эарэты	-11.2775
▁апрацоў	-11.2776
▁дацягну	-11.2776
▁стамляюч	-11.2776
выдумля	-11.2776
▁араба	-11.2776
▁жудасна	-11.2776
▁агародніцтва	-11.2776
▁засму	-11.2776
▁усходня	-11.2777
▁узаемадзейніча	-11.2777
▁плот	-11.2777
овен	-11.2777
▁адбіра	-11.2777
рсан	-11.2778
▁адыходзі	-11.2778
осты	-11.2779
▁чара	-11.2779
▁сухі	-11.2779
▁ліней	-11.2779
▁Змен	-11.2779
▁шкодз	-11.2779
▁брака	-11.278
павярхов	-11.278
водным	-11.278
антын	-11.278
▁японск	-11.278
▁Тып	-11.278
▁шоўк	-11.2781
▁пластык	-11.2781
▁знішчае	-11.2781
паным	-11.2781
пазбе	-11.2781
▁праграміст	-11.2783
▁21-	-11.2783
маўляў	-11.2783
▁наведва	-11.2783
▁Мэнэдж	-11.2783
▁перайма	-11.2784
▁акаля	-11.2784
▁пес	-11.2784
▁70-	-11.2785
▁асін	-11.2785
▁хмы	-11.2785
▁неспакойны	-11.2786
▁найма	-11.2786
▁выканаўцаў	-11.2786
▁клопат	-11.2786
▁грашов	-11.2787
аньба	-11.2787
ацінска	-11.2787
араў	-11.2788
▁экстра	-11.2788
▁дзірка	-11.2789
▁абмеркаванн	-11.2789
надзей	-11.2789
шчэнт	-11.2789
▁вібра	-11.279
▁давядзе	-11.279
▁складзена	-11.279
▁ключавы	-11.279
▁выміранн	-11.2791
▁Значыц	-11.2792
напол	-11.2792
▁непаспяхов	-11.2792
вінавачаны	-11.2792
іц	-11.2792
▁фарма	-11.2794
▁малпа	-11.2794
▁2000	-11.2794
▁ўпотай	-11.2794
▁заснавальнік	-11.2794
гарэла	-11.2795
▁сумнев	-11.2796
аўчанн	-11.2796
▁вынаходз	-11.2796
▁падве	-11.2797
▁баві	-11.2797
▁пазначы	-11.2797
▁пекл	-11.2798
▁прапо	-11.2798
▁інтэ	-11.2798
▁хро	-11.2799
▁бяру	-11.2799
▁таемн	-11.2799
▁Стры	-11.2799
▁аркестр	-11.28
▁1.	-11.28
парату	-11.2801
рэлі	-11.2801
рыджы	-11.2801
▁матор	-11.2801
скардзі	-11.2802
▁ўзыходз	-11.2802
ланова	-11.2802
▁бавіла	-11.2802
тоўнасц	-11.2803
▁здрад	-11.2804
▁Вынік	-11.2804
▁ўпэўні	-11.2805
▁вечарын	-11.2806
▁няз	-11.2806
▁прагледзе	-11.2806
▁жыццязмяняльным	-11.2806
▁сустрэне	-11.2808
▁меркавала	-11.2808
▁дастаўлен	-11.2809
анірава	-11.281
▁аз	-11.281
▁давя	-11.2811
фа	-11.2811
агнала	-11.2813
▁пабег	-11.2813
▁суб	-11.2816
▁аўтамабіль	-11.2816
▁хвалююч	-11.2817
▁Дос	-11.2817
ізав	-11.2818
ментальн	-11.2819
▁рэкламны	-11.2819
лумб	-11.282
стэро	-11.282
▁Рым	-11.282
▁павышае	-11.2821
▁Уол	-11.2821
▁памянша	-11.2822
рыўкам	-11.2822
▁Вар	-11.2822
▁коле	-11.2823
▁тэмпе	-11.2823
99	-11.2823
▁неіснуючы	-11.2823
▁паведамля	-11.2824
▁Тэстава	-11.2824
дзячн	-11.2825
▁ліпк	-11.2825
ізу	-11.2825
▁вандрава	-11.2826
▁бацькоўск	-11.2826
▁расчаравання	-11.2827
▁арыентацы	-11.2829
▁англа	-11.2829
сутніча	-11.283
▁англі	-11.283
▁выеха	-11.2831
рэмна	-11.2832
▁транспартны	-11.2832
▁самадастатков	-11.2833
▁падказ	-11.2833
▁Сын	-11.2833
▁ле	-11.2833
горы	-11.2833
▁авалод	-11.2833
▁цыліндра	-11.2834
▁Мішк	-11.2834
▁крочанн	-11.2835
ясны	-11.2836
▁папрацава	-11.2836
▁няўдачні	-11.2837
▁насціл	-11.2838
гадала	-11.2839
▁выпрацава	-11.2839
церп	-11.2842
▁агуч	-11.2842
містычн	-11.2843
▁набыццё	-11.2844
злую	-11.2844
▁спраў	-11.2845
▁Апошні	-11.2845
зручна	-11.2846
▁скалан	-11.2846
▁перакладалі	-11.2846
▁дзялі	-11.2847
▁караб	-11.2848
▁танцу	-11.285
▁дзеўка	-11.2852
▁абыходзі	-11.2853
алом	-11.2856
▁нізка	-11.2856
▁паўночна	-11.2856
▁мякка	-11.2857
▁Прын	-11.2858
▁Кры	-11.286
▁уск	-11.286
▁узніка	-11.2861
▁узн	-11.2862
▁Буды	-11.2863
▁плава	-11.2863
▁Гора	-11.2864
▁далучаю	-11.2865
▁хатня	-11.2866
▁інс	-11.2867
▁камунікава	-11.2867
несены	-11.287
тыкаў	-11.2871
строіў	-11.2871
▁працягвала	-11.2871
асвойва	-11.2872
▁растлумачы	-11.2872
жэт	-11.2873
▁даросл	-11.2874
▁устаноўк	-11.2874
▁Звяр	-11.2876
▁філь	-11.2876
▁ката	-11.2876
▁2010	-11.2879
▁падышл	-11.2882
▁лаўр	-11.2882
▁працягвалі	-11.2882
▁выхвал	-11.2882
▁атакую	-11.2882
▁дасягальн	-11.2883
▁прадухілі	-11.2883
лін	-11.2883
▁пашто	-11.2885
рымл	-11.2888
▁перс	-11.2889
▁закахал	-11.2889
▁пераме	-11.289
▁дашл	-11.289
інт	-11.2891
▁смела	-11.2892
▁Сакрат	-11.2894
▁берэ	-11.2894
▁праграмаванн	-11.2896
▁перанес	-11.2897
▁сажанцав	-11.2898
злама	-11.2898
▁спраўляю	-11.2899
▁11-	-11.2899
траў	-11.2899
▁знешні	-11.2902
азмова	-11.2902
▁прасл	-11.2903
▁выхаванн	-11.2907
▁прадказваю	-11.2907
▁ўздыма	-11.2908
▁адмаўляю	-11.2908
▁шкодна	-11.2909
▁пражываю	-11.2911
▁здагадваю	-11.2911
▁памылі	-11.2912
▁ўключаю	-11.2913
ічна	-11.2913
крыўдз	-11.2914
▁Сум	-11.2915
▁спякот	-11.2917
▁мышка	-11.292
образ	-11.292
▁ставілі	-11.2922
▁ўсвядомі	-11.2923
яляе	-11.2923
▁касет	-11.2923
▁будаўнік	-11.2923
▁цукр	-11.2923
▁абвестк	-11.2923
▁тка	-11.2924
▁ўладальнікам	-11.2924
сен	-11.2925
▁далейш	-11.2925
▁даставі	-11.2925
▁даміну	-11.2926
▁слых	-11.2926
▁інстыту	-11.2927
асткі	-11.2927
▁дасканал	-11.2927
▁дастаўля	-11.2929
▁агульны	-11.2929
▁Пакла	-11.293
▁значн	-11.293
▁афрыканска	-11.2931
▁велічын	-11.2932
▁натхняю	-11.2932
▁дзясят	-11.2933
▁нуд	-11.2934
▁Сты	-11.2934
таючы	-11.2935
▁кантакту	-11.2936
▁ламал	-11.2936
▁валіз	-11.2938
▁судзі	-11.2938
▁пытаем	-11.2939
▁флейты	-11.294
▁плат	-11.2941
▁адхіленн	-11.2941
▁эм	-11.2942
▁настойлівасць	-11.2942
▁адклада	-11.2942
▁Роз	-11.2946
▁схавана	-11.2947
▁вырашана	-11.2949
▁напружанн	-11.2949
▁павышэння	-11.2951
▁трывала	-11.2952
▁апісвае	-11.2953
▁тавары	-11.2954
берг	-11.2954
▁калісь	-11.2954
▁аддалі	-11.2955
▁існуюча	-11.2959
арны	-11.2959
▁29	-11.296
▁закла	-11.2961
▁актывы	-11.2961
▁канструкцыя	-11.2962
▁прафесійны	-11.2966
олаг	-11.2966
кнуў	-11.2968
▁разбіт	-11.2969
▁зніжэнн	-11.2973
▁зялёна	-11.2974
▁грыба	-11.2975
▁сваяк	-11.2976
лагічна	-11.2976
▁скіну	-11.2979
▁паруш	-11.2981
▁заця	-11.2982
ўдыё	-11.2983
▁напісаны	-11.2984
▁дастаў	-11.2984
атэрміновы	-11.2985
▁усялякі	-11.2988
аззлава	-11.2988
▁забяспечанн	-11.2991
▁атак	-11.2991
▁бяспечны	-11.2993
шын	-11.2994
шаны	-11.2995
бух	-11.2997
нскім	-11.2999
▁сустрэла	-11.2999
▁праектаванн	-11.2999
▁зарадзіц	-11.3
▁Пен	-11.3002
▁ляце	-11.3003
лішні	-11.3006
▁Пара	-11.3007
▁парт	-11.3008
ыходзі	-11.3008
▁прывабна	-11.3009
▁пляжна	-11.3011
ненне	-11.3011
▁налічва	-11.3012
ытанне	-11.3013
▁сямейна	-11.3014
упіў	-11.3014
▁запалі	-11.3015
▁садзе	-11.3016
▁прафесіянал	-11.3017
▁стужк	-11.3019
▁леп	-11.302
▁камун	-11.302
тык	-11.3021
▁турка	-11.3025
▁ўключае	-11.3026
корд	-11.3027
▁абры	-11.3027
▁Іран	-11.3032
▁зароб	-11.3033
▁абдымк	-11.3035
▁муск	-11.3035
▁спецыял	-11.3038
▁напрамк	-11.304
▁Джо	-11.304
▁тыпов	-11.304
▁Ман	-11.3042
зьме	-11.3043
▁падтрымлівала	-11.3043
▁смя	-11.3044
зіраем	-11.3046
налогі	-11.3051
▁100-	-11.3052
амбу	-11.3055
адзёр	-11.3055
▁ўвойд	-11.3056
▁рыда	-11.3057
▁экалагічным	-11.3059
дзяля	-11.3061
цікаўл	-11.3063
▁ядноўвае	-11.3071
▁Ура	-11.3071
▁структурам	-11.3075
▁сціпл	-11.3075
▁журналістам	-11.3078
▁спалі	-11.3078
▁утрыманн	-11.3085
▁ўніверсальны	-11.3086
▁клінічны	-11.3086
▁непа	-11.3088
▁дэфарм	-11.309
▁часавы	-11.309
▁паменшы	-11.309
▁аперацыя	-11.3093
▁катал	-11.3096
цягнута	-11.3099
чоў	-11.3102
▁ненавідзец	-11.3107
▁праверк	-11.3108
крыўн	-11.3108
ням	-11.311
▁павялічвае	-11.3111
▁начны	-11.3112
ti	-11.3113
▁спачувальным	-11.3115
ьнае	-11.3116
▁Уб	-11.3117
▁выкідва	-11.3125
сэр	-11.3128
▁спыніла	-11.3128
▁якасн	-11.3128
▁пусто	-11.313
рла	-11.3134
▁дазнал	-11.3135
▁падалі	-11.3135
раўнава	-11.3135
▁ўменн	-11.3139
95	-11.3141
▁засароме	-11.3142
▁піх	-11.3148
ўніч	-11.3149
▁падра	-11.3149
▁перакладае	-11.3151
▁сыш	-11.3157
▁пераўтварылі	-11.3158
▁ствараючы	-11.3159
▁бас	-11.3161
▁ц	-11.3168
мялі	-11.3169
▁15-	-11.3169
▁кантэксту	-11.317
▁Каму	-11.3172
▁імчанн	-11.3176
ання	-11.3182
▁масавы	-11.3184
▁канкрэтны	-11.3186
▁інсектыцыд	-11.3186
▁падабра	-11.3188
▁прадае	-11.3188
▁5-	-11.319
аты	-11.3191
▁пакрыт	-11.3192
▁плын	-11.3193
▁імаверна	-11.3195
▁апісваю	-11.3196
▁ўлічвае	-11.3197
▁дыягнасту	-11.3198
ятае	-11.3199
▁забыт	-11.32
▁спалучэнне	-11.3208
зны	-11.3209
▁губляе	-11.3209
▁перадузятасц	-11.3211
▁бярэ	-11.3218
▁захапляе	-11.322
▁выжываю	-11.322
асны	-11.3222
▁задні	-11.3225
трапіўшы	-11.3225
▁вырабля	-11.3227
▁выявіл	-11.3228
правіў	-11.3229
▁генія	-11.3233
ажна	-11.3235
▁юна	-11.3235
▁тэрапі	-11.3236
▁бліск	-11.3238
сумоў	-11.324
▁выказва	-11.3241
▁Пяць	-11.3242
▁адбітк	-11.3243
▁ге	-11.3243
чайце	-11.3248
авана	-11.3249
▁здолел	-11.3256
▁парушэнне	-11.3257
▁рызыка	-11.3258
▁змаганн	-11.3258
▁вырошчвае	-11.326
▁распл	-11.3261
▁паказальн	-11.3261
▁прыехал	-11.3264
▁распрацоўваю	-11.3272
▁блукання	-11.3272
куды	-11.3272
хвор	-11.3278
веры	-11.3283
▁выхоўвае	-11.3283
▁адмовіла	-11.3284
▁прабачэння	-11.3286
▁руч	-11.3287
уды	-11.3294
шылі	-11.3294
▁Ус	-11.3295
▁залу	-11.3295
▁лап	-11.3298
▁колерам	-11.3301
обі	-11.3304
▁нелагічн	-11.3307
▁шэры	-11.3313
▁захапляльн	-11.3317
1-	-11.3321
▁дакладны	-11.3326
▁прадказанн	-11.3326
енты	-11.3332
скочы	-11.3333
▁гавары	-11.3335
▁загінул	-11.3335
▁скарг	-11.3337
▁зварот	-11.3337
▁прос	-11.3338
▁прыходзя	-11.334
▁дзіцячы	-11.3342
абілі	-11.3344
▁бія	-11.3346
▁культурна	-11.3347
арам	-11.3353
▁прыкры	-11.3354
▁палепшыла	-11.3354
▁прызвычае	-11.3355
▁імперыя	-11.3356
▁адмыслова	-11.3357
шаю	-11.3358
есу	-11.3358
▁навучальны	-11.3358
сана	-11.3364
▁глабальны	-11.3364
▁Іс	-11.3364
▁прарыва	-11.3365
▁характэрыстыка	-11.3367
мінае	-11.3369
▁стале	-11.3374
▁стварыл	-11.3388
▁найлепша	-11.339
▁выдаля	-11.3392
▁сты	-11.3392
▁статыстык	-11.3394
▁Джэф	-11.3399
▁крэатыўны	-11.3404
ud	-11.3406
уцінн	-11.3408
▁даўні	-11.341
▁здзіўлены	-11.3412
▁плануе	-11.3413
▁чарні	-11.3422
▁брат	-11.3428
▁ляжа	-11.343
▁павярнуў	-11.343
▁ўваход	-11.3431
▁запісаў	-11.3432
будаваны	-11.3435
▁20-	-11.3437
▁спадзявал	-11.3439
блага	-11.3441
▁спажыванн	-11.3443
▁вызвалены	-11.3444
любён	-11.3446
▁апісанн	-11.3466
яўляю	-11.3469
▁ліш	-11.347
▁бетонн	-11.3475
▁бачанн	-11.3489
▁ўдзел	-11.3497
▁Абам	-11.35
аленка	-11.3506
▁Кост	-11.3508
▁каці	-11.3511
▁знаходзілі	-11.3515
▁індустрыя	-11.3517
вальва	-11.352
▁хвалявал	-11.3526
▁аўдыторыя	-11.3528
▁трас	-11.3531
▁горы	-11.3537
атр	-11.3538
▁прыўн	-11.3542
▁далучаны	-11.3543
▁пагарш	-11.3546
выдадзены	-11.3549
выканальн	-11.3552
▁Ей	-11.3552
▁Пек	-11.3558
▁найбуйнейшы	-11.3575
мені	-11.3575
▁рознічн	-11.3586
▁незразумела	-11.3595
▁заяўленн	-11.3598
алогія	-11.3598
▁кліні	-11.36
ул	-11.3601
▁ўб	-11.3604
графічны	-11.3606
▁рэдкім	-11.3608
▁пазітыўным	-11.3612
▁фарбава	-11.3614
▁сне	-11.3617
▁расх	-11.3625
даяце	-11.3625
▁слабо	-11.3625
▁Сапраўдн	-11.3629
▁пажы	-11.3631
▁захаплення	-11.3634
▁бяспек	-11.3635
▁гатэля	-11.3638
▁абня	-11.3639
▁Аднос	-11.3644
▁пачана	-11.3648
▁выкарыстанн	-11.3653
▁імкнул	-11.3654
кветка	-11.3655
▁інвесту	-11.3664
▁адмоўны	-11.3665
▁творц	-11.3665
пле	-11.3675
эту	-11.3677
▁аэрапор	-11.3678
▁піс	-11.368
▁успамінам	-11.3697
▁адказны	-11.3701
абран	-11.3703
шэн	-11.3706
▁Шчыры	-11.3706
оўлена	-11.3707
магаючы	-11.373
▁перажыванн	-11.3742
▁геа	-11.3744
хан	-11.3746
▁спрэчк	-11.3748
▁Навучы	-11.375
▁эксперта	-11.3753
▁прыстасавання	-11.3763
▁сэкс	-11.3765
све	-11.3782
сні	-11.3783
▁суразмоўцам	-11.3785
донна	-11.3786
▁часопіса	-11.3791
▁Хай	-11.3807
▁грунтую	-11.3811
быццё	-11.3815
скае	-11.3818
▁стрым	-11.3826
▁параіл	-11.3826
▁замацава	-11.3828
ранейша	-11.383
▁дзівак	-11.3831
касць	-11.384
угл	-11.3847
агу	-11.385
▁пагорка	-11.3855
▁акун	-11.3857
олі	-11.3876
▁Імама	-11.3881
▁класна	-11.3881
ўн	-11.3884
▁Сп	-11.3885
▁ўзялі	-11.3892
очае	-11.3898
▁наго	-11.3901
ніч	-11.3902
▁вынес	-11.3903
Mo	-11.3907
со	-11.3909
▁выключае	-11.3913
▁аўтамабіля	-11.3916
▁Сусветн	-11.3916
анэ	-11.3921
▁шчырасц	-11.3922
▁кіроўца	-11.3922
▁пасе	-11.3922
▁Стывена	-11.3923
ўра	-11.3923
▁адс	-11.3924
▁крон	-11.3925
▁E	-11.3927
▁Частк	-11.3934
ярн	-11.3939
аўлення	-11.3955
▁патр	-11.3962
▁прадава	-11.3963
▁канцо	-11.3964
▁лекара	-11.3966
▁эне	-11.397
рашу	-11.3972
▁мэйла	-11.3988
▁паведамлення	-11.3989
▁дырэктарам	-11.399
▁рэвалюцыя	-11.3994
▁амбіцы	-11.3995
▁знакамітасц	-11.3995
▁ўзгадвае	-11.3997
▁ту	-11.3998
▁пажадан	-11.4
судны	-11.4012
▁празмерна	-11.4018
▁Рафіда	-11.4021
▁гляд	-11.4023
▁сакрэтна	-11.4025
зіла	-11.4027
лоні	-11.4034
▁здзека	-11.4037
ошта	-11.4047
▁казанн	-11.4058
▁донара	-11.4062
▁марке	-11.4062
▁Буда	-11.4066
▁ўдзельнічаю	-11.4077
▁пашыран	-11.4078
вядзення	-11.408
▁камента	-11.4082
ладкі	-11.409
ур	-11.409
▁паля	-11.4093
▁наступн	-11.4096
▁верн	-11.4112
▁нагавіца	-11.4112
▁пятл	-11.4114
▁голасна	-11.4114
▁Мур	-11.4115
▁Выходз	-11.4118
аліза	-11.412
пія	-11.4123
▁жадання	-11.4132
▁агульнае	-11.4133
▁экспаненцыяльна	-11.414
▁вучням	-11.414
▁абвя	-11.4141
▁сфармавал	-11.4142
дамам	-11.4153
бат	-11.4154
▁зацікаўленым	-11.4155
▁апавяданне	-11.4155
рыні	-11.4156
▁інструментам	-11.4161
▁ўнутраным	-11.4169
▁адмысловы	-11.4169
▁крычы	-11.418
▁парод	-11.4183
▁тэлевізара	-11.4183
▁ўяўляе	-11.4185
пач	-11.4185
▁ажы	-11.4187
іцтва	-11.4193
▁прытрымлівал	-11.4197
▁ўсведамляю	-11.4197
лячы	-11.4204
нс	-11.4207
алё	-11.4211
паміна	-11.4215
▁ацэньвае	-11.4226
імчала	-11.4227
mes	-11.4227
оўным	-11.4229
▁кіраўнікам	-11.4239
авая	-11.4246
яр	-11.4252
тровым	-11.4253
▁задання	-11.4273
▁чароўным	-11.428
ціна	-11.4289
▁накіроўваец	-11.4299
▁бял	-11.4299
кла	-11.4302
мач	-11.4324
АН	-11.4326
▁перадач	-11.4331
▁помні	-11.4337
аваным	-11.4337
талі	-11.4353
дзілі	-11.4355
▁калегам	-11.436
▁ура	-11.4361
▁тонка	-11.4364
сэнсоўн	-11.4366
▁зарабляю	-11.4367
▁запал	-11.4368
▁званы	-11.4373
руе	-11.4395
уючы	-11.4425
▁вучан	-11.4425
▁лепшым	-11.443
енні	-11.443
аддзя	-11.4431
▁белы	-11.4459
ады	-11.4459
▁куб	-11.4459
▁выдатн	-11.4464
▁Бі	-11.4469
асіўна	-11.4471
▁высока	-11.4478
арэнне	-11.4493
▁мусульманк	-11.4503
▁Мама	-11.4505
ўшыс	-11.451
▁ёмн	-11.4524
агчы	-11.4531
▁комплексн	-11.4533
▁страчаны	-11.4534
▁зато	-11.4548
▁чырвоны	-11.4553
ьё	-11.4573
▁навыкам	-11.4578
▁кавалачк	-11.4582
▁узмацне	-11.4589
сус	-11.4603
▁ўяўля	-11.4614
іл	-11.4617
▁нармальна	-11.4625
▁старэ	-11.4638
французк	-11.4644
▁кахае	-11.4652
зіл	-11.4656
▁рухавіко	-11.4664
▁прадбачыц	-11.4665
▁мет	-11.4696
рам	-11.4701
▁забра	-11.4705
від	-11.4705
▁сво	-11.4729
▁ейна	-11.473
▁спіц	-11.4735
▁заб	-11.4738
віта	-11.4739
рты	-11.4751
▁гравітацыйны	-11.4759
▁забруджва	-11.4759
▁татуіроўка	-11.4762
▁праверыл	-11.4764
▁лацінска	-11.478
▁бясконца	-11.478
оўва	-11.478
шанаван	-11.4783
▁Част	-11.4797
▁прамы	-11.4801
▁пераходн	-11.4803
вальваюц	-11.4811
▁гры	-11.4824
мантава	-11.4835
ной	-11.4845
▁думкам	-11.485
▁арганізаван	-11.4853
▁мера	-11.4856
▁паслухал	-11.4857
▁закладзен	-11.4863
▁навучыл	-11.4868
тальны	-11.487
▁дум	-11.4871
скончана	-11.4876
▁выклада	-11.4879
▁гон	-11.4883
▁татуіроўкам	-11.4883
заду	-11.4884
ode	-11.4897
▁аргана	-11.4907
туе	-11.4908
▁змагаец	-11.4911
▁прынят	-11.492
▁чырвон	-11.4928
▁стал	-11.493
▁навукоўцам	-11.4945
▁дазваляюч	-11.4955
кантралю	-11.496
▁асноўна	-11.4968
рыг	-11.4989
▁звярнул	-11.499
▁пазнаёміў	-11.5005
▁размоўн	-11.5007
▁аўтамабіле	-11.5047
▁сядзіц	-11.5053
▁ніяк	-11.506
чэнне	-11.5064
▁гене	-11.5067
злівае	-11.507
▁Нацыянальн	-11.51
чэйшы	-11.512
разумным	-11.5137
▁гародз	-11.5147
▁Кожн	-11.5156
ікаў	-11.5158
ўленне	-11.5164
сумленнасц	-11.5168
▁супрацоўнік	-11.5169
▁падмурк	-11.5173
▁др	-11.5178
нуем	-11.5187
▁аніякі	-11.5191
зыкамі	-11.5197
▁ўсход	-11.5212
▁дырэктара	-11.5214
▁стом	-11.5215
▁суразмоўца	-11.5217
▁жарта	-11.522
▁Вучн	-11.5243
▁адзнача	-11.5252
▁Пал	-11.5255
▁творца	-11.5262
▁захварэл	-11.5276
▁прапусціл	-11.5278
▁паступіл	-11.5301
▁змест	-11.5331
▁цягнуц	-11.5339
▁зно	-11.5347
ілет	-11.5352
шэнн	-11.5409
▁сла	-11.5448
наві	-11.5449
трыманне	-11.5458
▁ног	-11.546
▁дас	-11.5471
лінг	-11.5471
эста	-11.5503
▁забыла	-11.551
▁Пла	-11.5558
▁чэр	-11.5579
▁негатыў	-11.5611
вядзе	-11.5625
▁розн	-11.5637
▁павялічвал	-11.564
▁называла	-11.5666
▁нацыянальн	-11.5667
▁склада	-11.5701
▁накіравал	-11.5709
▁сварка	-11.5719
▁прапанова	-11.5722
ыйшло	-11.5737
▁зацікавіў	-11.5753
▁закліка	-11.5764
▁начальніка	-11.5766
▁чытач	-11.5787
ядаўна	-11.5788
шэ	-11.5795
▁аднолькавым	-11.5795
▁Пас	-11.5801
ралагічн	-11.5806
▁сустрэч	-11.5809
▁Вер	-11.5809
▁адпаведна	-11.5834
▁палітыка	-11.5847
▁паставіл	-11.5848
▁захапляльны	-11.5856
▁ўстаў	-11.5868
▁выпад	-11.5883
▁радас	-11.5887
рух	-11.5893
▁пабудаваны	-11.5911
вярталі	-11.5924
▁чалавечым	-11.5925
▁пачынаец	-11.5941
▁хай	-11.5942
мас	-11.5943
об	-11.5946
▁Сям	-11.5948
мент	-11.5973
крыва	-11.5977
▁прытулка	-11.598
ішэн	-11.5987
▁перакладам	-11.6011
▁жыццёвым	-11.6011
▁лекцы	-11.6026
орну	-11.604
дай	-11.6045
▁Pa	-11.6059
▁дарослым	-11.6067
▁хлапчука	-11.607
▁канцэп	-11.6078
рыла	-11.608
▁Чар	-11.6088
▁Згодн	-11.61
раект	-11.6101
▁электронна	-11.6118
лом	-11.614
льв	-11.615
ніц	-11.6168
▁арган	-11.6174
жні	-11.618
одпіс	-11.6197
▁памочніка	-11.6204
▁забылі	-11.6207
ены	-11.6213
пла	-11.6218
▁замяніл	-11.6222
зіт	-11.6224
кім	-11.6264
жан	-11.6272
▁вывад	-11.6277
▁вока	-11.6292
▁свядома	-11.6293
▁право	-11.631
ац	-11.6311
яшка	-11.6324
▁літаратурн	-11.6325
▁пасую	-11.6332
плоц	-11.6334
▁193	-11.6348
▁жартаў	-11.6357
▁пабудавана	-11.6364
▁шпацыр	-11.6367
ліцы	-11.6385
▁паку	-11.6386
▁Спачува	-11.6435
▁гавар	-11.6442
ланд	-11.6448
ект	-11.6458
цця	-11.6482
30-	-11.6502
прыгож	-11.6537
▁апла	-11.6546
▁абга	-11.6551
▁сабра	-11.6555
▁матэрыя	-11.6567
кіну	-11.6573
▁звязваю	-11.6577
дучы	-11.6594
▁заняў	-11.6596
джа	-11.6616
▁Элі	-11.6624
▁распачала	-11.665
нцам	-11.6651
▁прывя	-11.6656
едарэчн	-11.6686
▁пчалін	-11.6702
▁завіта	-11.6711
ент	-11.6711
▁супольна	-11.6721
даў	-11.6756
▁дачу	-11.676
пачуванне	-11.6786
▁выдат	-11.6795
ляў	-11.6802
▁боск	-11.6817
▁бл	-11.6827
озьме	-11.6831
▁філа	-11.6839
▁надзейна	-11.6841
▁яцк	-11.6852
джэн	-11.6858
▁праграмн	-11.6858
▁шпацыра	-11.6863
▁змеш	-11.6868
▁асцярожна	-11.6906
леп	-11.6906
▁рын	-11.6907
зіі	-11.6916
▁нацыянальна	-11.6924
неры	-11.6927
вет	-11.6932
▁паказва	-11.6939
▁Гэ	-11.6944
▁Неб	-11.6946
трас	-11.6949
▁ахвяра	-11.695
▁маладым	-11.6959
▁Бр	-11.6963
▁зас	-11.6975
ытайце	-11.6989
жам	-11.7005
▁прызнаю	-11.7019
кажы	-11.7023
▁сцена	-11.7026
▁каф	-11.7037
куп	-11.7048
▁маштабн	-11.7051
▁вартас	-11.7057
ор	-11.7092
іст	-11.7096
кус	-11.7097
яздольным	-11.712
▁прас	-11.7132
існуючы	-11.7136
еду	-11.7154
▁прадукта	-11.7157
ст	-11.7161
він	-11.7184
▁жава	-11.7199
▁сэрвіса	-11.7199
▁цікавіл	-11.7217
ач	-11.7247
▁мане	-11.7265
лекцыя	-11.728
кручаны	-11.7289
эла	-11.7302
▁музыкам	-11.7304
▁спадніца	-11.734
▁камандн	-11.7345
барон	-11.735
абы	-11.7351
▁жонкам	-11.7351
робя	-11.7358
рну	-11.7359
▁Пр	-11.7373
ыжы	-11.7394
▁замяні	-11.7414
чнік	-11.7425
▁Трэ	-11.7435
цыйн	-11.7436
▁чакае	-11.744
▁зме	-11.7446
▁адпаведн	-11.745
ніжэй	-11.7457
▁праглядаю	-11.749
берага	-11.7524
шко	-11.7554
▁ят	-11.7579
віна	-11.759
▁фактара	-11.7592
▁накірава	-11.7607
опі	-11.7623
лік	-11.7649
уючым	-11.7655
згадава	-11.7666
▁Палестын	-11.7678
тас	-11.7692
сунул	-11.7697
вядомым	-11.7707
▁даходз	-11.7707
▁павярну	-11.7747
▁рабіц	-11.7767
дадзена	-11.7785
▁чытан	-11.7791
▁абран	-11.7799
▁падвя	-11.7816
▁жан	-11.7817
▁дажыл	-11.7831
▁пакінул	-11.7843
▁запа	-11.7857
аглядаю	-11.7882
ізі	-11.7886
▁каляровы	-11.7889
▁сло	-11.7898
самавіт	-11.7903
▁памрэ	-11.7903
▁выступа	-11.7914
▁ўлада	-11.7932
ляючы	-11.7935
аўнік	-11.7935
ох	-11.7949
▁ўста	-11.7955
▁паці	-11.797
▁сумесн	-11.7976
▁знака	-11.7983
роні	-11.8014
растаюц	-11.8025
▁рэальна	-11.8027
▁каштоўнасця	-11.8028
▁англійска	-11.8028
ячэнн	-11.8053
▁рына	-11.8062
энт	-11.8069
ead	-11.8072
▁здал	-11.8075
шука	-11.8078
галас	-11.8085
▁паступі	-11.8109
▁поўны	-11.8117
▁каха	-11.8131
значалі	-11.8135
абе	-11.8139
▁захварэ	-11.8141
роб	-11.8147
жоў	-11.8169
▁рухавіка	-11.8176
▁мар	-11.8178
стка	-11.8191
▁цяжкасця	-11.823
▁языка	-11.8232
▁прапусці	-11.8234
▁абш	-11.8236
▁давай	-11.8245
▁шчаслів	-11.8252
▁лясні	-11.8279
▁выбара	-11.8281
▁вывучан	-11.8281
сумленна	-11.8285
цягну	-11.8293
▁натхні	-11.8336
сельн	-11.8356
зон	-11.8378
▁суполка	-11.8381
рчэй	-11.8385
вяртаеце	-11.8387
даўна	-11.8409
▁планава	-11.8415
▁падрыхтава	-11.8417
мяня	-11.8423
▁галова	-11.8429
інфармава	-11.8432
дыё	-11.8436
▁духа	-11.8438
лад	-11.8459
▁пошука	-11.8473
▁ўпэўненым	-11.8474
2-	-11.8532
▁таямніца	-11.8533
▁каротка	-11.8535
накш	-11.8574
оны	-11.8578
▁прадукцыйн	-11.858
▁абследва	-11.8587
▁ўпартасц	-11.8593
▁спажыўц	-11.8604
метров	-11.8607
▁бегл	-11.8628
следванне	-11.863
цкі	-11.8636
▁ўважлівасц	-11.8642
▁вымер	-11.8646
▁выклад	-11.8739
▁8	-11.8748
▁адначас	-11.8751
▁ізатоп	-11.8758
рып	-11.876
кол	-11.8762
▁ўцямі	-11.8765
od	-11.8765
нарылі	-11.8778
▁плана	-11.8795
▁сабака	-11.88
▁кампутарам	-11.8813
▁іспанска	-11.8826
▁бясконц	-11.883
▁лацінск	-11.8831
▁танц	-11.8841
▁забрудж	-11.8859
▁гравітацыйн	-11.8871
ільны	-11.8873
ньвання	-11.8876
rg	-11.8884
▁заканчва	-11.8884
даволены	-11.8887
▁бало	-11.8893
▁горшы	-11.8906
▁Бал	-11.8915
▁ёзн	-11.8921
▁высок	-11.8973
▁Яйк	-11.8979
жкі	-11.8983
▁зацікаўлена	-11.899
▁захаце	-11.899
тук	-11.9016
▁рамана	-11.9016
▁кол	-11.9029
▁адказна	-11.9035
▁пакун	-11.905
▁мін	-11.9057
▁ру	-11.9058
▁нармальн	-11.9061
▁квітне	-11.9103
▁традыцыйна	-11.9114
перадузяты	-11.9124
пэўні	-11.9205
▁вузка	-11.9208
▁падымаю	-11.9215
▁фот	-11.9219
кіт	-11.9223
тальн	-11.923
арцё	-11.9237
▁самаг	-11.924
▁хак	-11.926
▁Гэт	-11.9266
крыў	-11.928
▁памерл	-11.9287
арк	-11.9292
парацы	-11.9299
▁Глед	-11.9328
▁выхада	-11.9362
▁вок	-11.938
наем	-11.9384
туга	-11.9411
▁сэксуальн	-11.9412
▁жарту	-11.9416
▁Буд	-11.9422
▁коў	-11.9432
▁атрымліва	-11.9438
рала	-11.944
ляну	-11.9452
▁электронн	-11.946
рухал	-11.9466
огляд	-11.9497
мех	-11.9503
▁праверы	-11.9507
▁інфарматар	-11.9509
тыль	-11.9529
тр	-11.9537
▁падня	-11.9541
▁масав	-11.9556
трымаў	-11.9558
ксам	-11.9561
зкі	-11.9574
▁каш	-11.963
▁ган	-11.964
збіраў	-11.9646
▁выгод	-11.9651
▁См	-11.9657
▁добр	-11.9658
абочна	-11.9667
▁забр	-11.9679
ess	-11.9701
будоў	-11.9701
▁Зап	-11.9703
▁ракета	-11.9725
▁забаран	-11.9734
▁ўсведамля	-11.9746
дал	-11.9747
▁ажыцц	-11.9751
▁разд	-11.976
▁тэлевізар	-11.977
▁абодв	-11.9779
▁ідэнтычн	-11.9783
▁апыта	-11.9789
▁пуст	-11.9793
▁спадзяван	-11.9795
M	-11.9797
▁спец	-11.9809
▁дакладн	-11.9811
даем	-11.9817
вамі	-11.9825
рэз	-11.9832
▁адсо	-11.9837
▁сфармава	-11.984
▁экспаненцыяльн	-11.9844
▁улічва	-11.9865
▁2,	-11.9879
кольк	-11.9883
ечнік	-11.989
▁зап	-11.9892
▁нагавіц	-11.9893
▁лям	-11.9912
▁пацыент	-11.9913
▁распавядал	-11.9938
жаны	-11.995
▁старо	-11.9987
доў	-12.0002
нэ	-12.0025
шанава	-12.0029
▁адрозніва	-12.0029
дзіна	-12.0041
▁сакрэтн	-12.0043
▁згубіў	-12.0048
▁зацікаўлен	-12.0049
▁Рафід	-12.005
▁прагу	-12.0062
аганн	-12.0078
▁распаўсюджан	-12.0086
▁дрэв	-12.0091
▁Він	-12.0105
асядзе	-12.0116
хапі	-12.012
▁аднолькав	-12.0135
▁танчыл	-12.015
▁амб	-12.0157
▁Пэ	-12.0172
етычн	-12.0184
▁празмерн	-12.0185
▁слабасц	-12.02
▁кіроўц	-12.0227
▁Стывен	-12.0228
▁Сусвет	-12.0238
▁вобраза	-12.0238
ому	-12.0249
прынт	-12.0254
ходзе	-12.0257
▁лекар	-12.0258
▁цвёрд	-12.0263
эрам	-12.0269
анты	-12.0312
кладзена	-12.0317
віла	-12.0332
▁яднанасц	-12.0338
pe	-12.0351
▁паўднёв	-12.0351
твала	-12.0359
▁хаб	-12.0364
▁фі	-12.0374
мае	-12.0382
маштабны	-12.0384
▁прафесіянала	-12.0385
▁слуг	-12.0392
▁бяск	-12.0412
▁варо	-12.0424
▁грунту	-12.0434
анцэпт	-12.0435
▁піцц	-12.045
▁адбі	-12.0454
тыўн	-12.048
▁мужчынск	-12.0491
▁мал	-12.0509
▁заснаван	-12.051
▁пакупнік	-12.051
▁правіл	-12.0511
лела	-12.0549
▁зорка	-12.0552
руем	-12.0555
▁насяком	-12.0568
осны	-12.0576
апе	-12.058
▁195	-12.0589
облены	-12.0618
скажы	-12.0623
▁здзек	-12.0648
рыз	-12.0656
вязвае	-12.067
энец	-12.0679
▁зру	-12.0681
▁падава	-12.0683
эрапорт	-12.0685
орт	-12.0718
яўленне	-12.0735
крут	-12.0748
неб	-12.0758
▁замацаван	-12.0768
асад	-12.0768
▁сустрака	-12.0798
днае	-12.08
пч	-12.0819
▁даўн	-12.0824
лову	-12.0835
іцыйны	-12.0846
конна	-12.0867
▁Me	-12.087
▁адольва	-12.0875
▁чула	-12.0882
▁Імам	-12.0885
▁вызвален	-12.0885
▁найбуйнейш	-12.0887
▁квадратн	-12.0895
▁створан	-12.091
аграфічн	-12.0913
▁прадказальн	-12.0916
▁індывідуальна	-12.093
▁цудоўн	-12.0938
▁доктар	-12.0939
▁паказ	-12.0946
ораны	-12.0946
▁пагар	-12.096
▁павольн	-12.0965
▁парушэнн	-12.0966
▁аналіза	-12.0977
▁меданосн	-12.0981
▁тэа	-12.0985
▁няп	-12.0992
▁выпус	-12.0999
лістаў	-12.1013
▁звал	-12.1025
▁Джона	-12.1047
біў	-12.1051
▁вырошчва	-12.1053
▁Гру	-12.1071
рака	-12.1075
ланта	-12.1077
▁Штат	-12.108
▁бетон	-12.1089
▁клі	-12.1091
▁убудава	-12.1093
лучан	-12.1115
кладзены	-12.1126
каза	-12.1128
▁залежн	-12.1145
▁улюб	-12.1149
▁глыбок	-12.115
▁буйн	-12.1179
роз	-12.1198
▁складан	-12.1207
▁плё	-12.1218
▁перайш	-12.1226
▁Дрэв	-12.1228
ou	-12.1237
▁ваенн	-12.1241
▁Кні	-12.1257
озна	-12.1264
нацыянальн	-12.1265
▁бясплатн	-12.1273
пр	-12.1297
▁рызык	-12.1304
▁уладарн	-12.131
Б	-12.1319
каціў	-12.1319
▁полав	-12.1321
▁хірург	-12.1323
чан	-12.1323
▁паз	-12.1326
ант	-12.1336
▁прызвыча	-12.1339
▁паўторн	-12.134
▁задава	-12.136
▁ўстойліва	-12.1368
▁энэрг	-12.1374
▁Патрэб	-12.1375
▁правільн	-12.1378
ірава	-12.138
зваротн	-12.1381
▁набліжа	-12.1382
▁загіну	-12.1382
▁навучальн	-12.1383
аскочы	-12.1389
▁сланіх	-12.1391
▁крэатыўн	-12.14
шэнне	-12.1425
▁прагляд	-12.1433
▁ураз	-12.1437
▁вытворча	-12.1437
думц	-12.1452
ейша	-12.1453
ральны	-12.1471
▁адзінкав	-12.1476
жыцц	-12.1477
▁памыл	-12.1481
▁маса	-12.1483
лічбава	-12.149
▁багат	-12.15
▁звычайн	-12.15
логія	-12.1503
▁адпачы	-12.1533
▁адв	-12.1535
▁Марк	-12.155
руч	-12.1555
▁супра	-12.1557
▁мудр	-12.1559
значы	-12.1563
▁Ваш	-12.1563
▁носьбіт	-12.1579
▁прыходз	-12.1581
▁разда	-12.1591
іцыд	-12.1605
▁дасведчан	-12.1612
▁захапля	-12.1612
запісва	-12.1615
▁Кро	-12.1617
▁Анд	-12.1622
▁Кве	-12.1623
шым	-12.1625
▁Арг	-12.1629
оста	-12.1638
▁спалучэнн	-12.1656
▁губля	-12.1661
▁выхоўва	-12.1666
надзейны	-12.1669
нус	-12.1674
пасоўвае	-12.1683
▁бессмяротн	-12.1685
▁падсвядом	-12.1685
▁павышэнн	-12.1699
снова	-12.1701
▁дадатков	-12.1703
▁канкрэтн	-12.1707
зу	-12.1708
др	-12.1717
0.	-12.1718
немка	-12.1719
няты	-12.172
▁выкана	-12.1734
верагодна	-12.1734
люс	-12.1736
▁эфектыўн	-12.174
▁ўспрымаец	-12.1747
▁намаляваў	-12.1752
▁нечакан	-12.1758
▁правер	-12.1762
кл	-12.1764
кеты	-12.1765
▁Атрыма	-12.177
▁распаўсюд	-12.178
▁інтэлектуальн	-12.1791
▁вінават	-12.1798
▁мер	-12.1804
9-	-12.1809
праектава	-12.1825
апісан	-12.1857
язна	-12.1862
рыцця	-12.1871
▁ненавідз	-12.1886
ракты	-12.1891
каг	-12.192
працэнтн	-12.1921
керам	-12.1923
▁выканаўч	-12.1931
▁ўніверсальн	-12.1932
кармі	-12.194
▁клінічн	-12.1941
рхе	-12.1945
▁мастацтв	-12.1947
пака	-12.1948
▁Sa	-12.1955
▁спако	-12.1955
тор	-12.1972
▁здаравейш	-12.1974
дку	-12.1976
▁налад	-12.1976
▁паўс	-12.1979
саромел	-12.1979
сціпла	-12.1986
▁сукен	-12.1988
спарт	-12.1991
▁трап	-12.1991
▁мабільн	-12.1993
▁найвялікш	-12.1993
ходзь	-12.2001
дзёр	-12.2003
бірае	-12.2004
тае	-12.2007
▁наведа	-12.2007
▁ствараюч	-12.201
ступ	-12.2016
▁фатаздым	-12.202
казы	-12.2022
аванне	-12.2031
▁маста	-12.2035
▁шэр	-12.2037
▁завуц	-12.2039
каляровы	-12.205
▁досве	-12.2051
▁стрымліваю	-12.2058
▁распрацоў	-12.2059
▁пустэ	-12.206
арганіз	-12.207
зды	-12.2076
▁грэ	-12.208
рацы	-12.2083
сце	-12.2084
▁аўтыста	-12.2085
стужка	-12.2086
далёк	-12.2092
▁матэмат	-12.2097
▁прывабн	-12.2111
▁Гул	-12.2111
этык	-12.2111
жэнне	-12.2112
▁пісьменні	-12.2114
сон	-12.2116
фармуе	-12.2116
грама	-12.2118
▁пац	-12.2118
▁натхн	-12.2119
лучн	-12.2127
пра	-12.2128
▁сямейн	-12.2129
планава	-12.2132
праві	-12.2133
▁расчарава	-12.2134
набыцц	-12.2135
▁ўключа	-12.2142
даследч	-12.2142
адыход	-12.2143
камбіна	-12.2144
▁напрам	-12.2145
інвалід	-12.2146
лепша	-12.2151
спачувальн	-12.2153
фран	-12.2157
нгу	-12.2157
канструкцы	-12.2158
▁брытанск	-12.2159
неда	-12.2159
гненна	-12.2162
радзі	-12.2165
пабачыў	-12.2165
метр	-12.2165
тэрмінов	-12.2165
▁усяляк	-12.2169
даўні	-12.2171
трапіл	-12.2171
абдым	-12.2173
дала	-12.2175
▁адносі	-12.2177
сорамн	-12.2178
▁смяротн	-12.2178
▁150	-12.2183
валода	-12.2185
версі	-12.2186
рыхільнік	-12.2192
афе	-12.2196
▁дав	-12.2198
▁паліты	-12.22
▁рахун	-12.2205
▁зняволен	-12.2207
▁пераўтварэнн	-12.2208
▁Наступ	-12.2208
▁пляж	-12.2209
▁выпра	-12.2209
вечар	-12.221
▁раск	-12.2211
▁распаўсюджаны	-12.2212
▁прафесійн	-12.2213
▁Злучэнн	-12.2213
значаны	-12.2214
▁бяспечн	-12.2214
эксп	-12.2215
▁Старажытн	-12.222
▁злачын	-12.2222
ог	-12.2223
▁спачувальны	-12.2225
▁шкод	-12.2225
еным	-12.2228
▁займал	-12.2229
чка	-12.2233
▁праграмуем	-12.2243
▁пакла	-12.2243
ангельск	-12.2249
▁пакор	-12.2249
карыста	-12.2252
выканаўч	-12.2256
прадказальн	-12.2262
інжынер	-12.2262
▁гуль	-12.2267
працуе	-12.2268
▁засяродж	-12.2269
▁кос	-12.227
▁Ідзі	-12.2279
▁змагаю	-12.2285
▁напружан	-12.2289
▁інвалідн	-12.229
▁лож	-12.2291
прынтара	-12.2291
▁ўлічва	-12.2292
▁здолее	-12.2293
▁невыкана	-12.2295
нда	-12.2296
▁цяперашн	-12.2297
творца	-12.23
дырэктарам	-12.23
агульны	-12.2303
▁вопрат	-12.2306
рост	-12.2308
плыв	-12.2314
ўладальнікам	-12.2314
абвестк	-12.2314
цукр	-12.2314
дасканал	-12.2314
дастаўля	-12.2315
будаўнік	-12.2315
дзясят	-12.2315
хвалявал	-12.2318
▁велічы	-12.2318
сную	-12.2318
аналіз	-12.2321
страў	-12.2322
▁начальні	-12.2323
дапамо	-12.2325
Аф	-12.2326
канала	-12.2328
радавалі	-12.2328
▁настаўні	-12.233
▁спяко	-12.2331
статысты	-12.2331
касет	-12.2331
▁запыт	-12.2332
▁мацярынск	-12.2332
вол	-12.2332
культурны	-12.2333
ie	-12.2333
трывала	-12.2335
белы	-12.2336
мажлівасця	-12.2341
зацікаўлены	-12.2341
▁кл	-12.2344
▁параўн	-12.2345
▁адмаўля	-12.235
арганізма	-12.2351
сілк	-12.2351
камерцыйна	-12.2354
зну	-12.2354
йдзем	-12.2354
▁прадказва	-12.2354
ствараем	-12.2354
прыняцц	-12.2355
эфект	-12.2356
цудоўн	-12.2357
дзесяці	-12.2359
▁рызыкуе	-12.2359
ёмны	-12.2361
відавочна	-12.2362
важна	-12.2363
скар	-12.2365
паэт	-12.2367
слуха	-12.2368
тлумачы	-12.2371
маўча	-12.2372
A	-12.2372
перапын	-12.2373
вуглярода	-12.2374
забой	-12.2377
27	-12.2377
мацаваны	-12.2377
ард	-12.2379
▁Саман	-12.2379
песня	-12.2379
адсотка	-12.238
▁кант	-12.238
магутна	-12.2381
носін	-12.2382
▁дастатков	-12.2383
перажыва	-12.2385
ўдзельніча	-12.2388
занят	-12.239
псіхолаг	-12.239
адс	-12.239
▁Сакра	-12.2391
залу	-12.2391
▁апын	-12.2392
прырод	-12.2394
карыстальніка	-12.2394
▁вызнача	-12.2395
высокі	-12.24
бясплатна	-12.2402
сістэма	-12.2402
▁ўвай	-12.2403
▁закаха	-12.2403
веч	-12.2403
працую	-12.2403
Е	-12.2405
T	-12.2406
назіра	-12.2406
патрэб	-12.2407
значна	-12.2408
▁лё	-12.2408
яднан	-12.2409
дослед	-12.2409
ступен	-12.2409
дрэва	-12.2409
энергіі	-12.241
турм	-12.2411
ацэньвае	-12.2411
звязаны	-12.2411
грамадства	-12.2411
▁прадухіл	-12.2412
супраць	-12.2412
музык	-12.2412
▁харчо	-12.2412
▁абсалют	-12.2413
працяг	-12.2413
трох	-12.2413
тэхналогі	-12.2414
сляп	-12.2414
арганізацы	-12.2415
учыце	-12.2418
З	-12.2418
чалавек	-12.2419
▁камуніка	-12.2419
▁Намі	-12.242
губ	-12.2421
хутка	-12.2422
жанчын	-12.2424
Д	-12.2426
ўсвядом	-12.2427
▁пражыва	-12.243
▁памнож	-12.243
свет	-12.2431
мэйла	-12.2432
многа	-12.2432
фізік	-12.2433
▁дзірк	-12.2433
філь	-12.2434
шыр	-12.2434
▁патрапі	-12.2437
▁растлумач	-12.2439
працэс	-12.2442
▁адзенн	-12.2446
афрыканска	-12.2448
будзе	-12.245
горш	-12.2453
джэння	-12.2454
тварэння	-12.2456
траці	-12.2456
прычын	-12.2458
ашына	-12.2458
ытаво	-12.2463
▁чуж	-12.2464
вуча	-12.2466
стане	-12.247
▁рэчам	-12.2471
▁апра	-12.2472
▁дамін	-12.2473
інжынера	-12.2474
рог	-12.2475
15	-12.2477
▁вібр	-12.2477
▁узнік	-12.2477
▁мякк	-12.2481
святл	-12.2482
▁прадстаўл	-12.2482
▁нізк	-12.2483
▁даводз	-12.2483
▁дыял	-12.2484
▁адрэ	-12.2485
мусульман	-12.2487
▁сённяшн	-12.2488
▁прымус	-12.2489
▁зрабіл	-12.249
▁мярк	-12.249
▁прыстас	-12.2491
даровы	-12.2491
непако	-12.2493
галоўны	-12.2495
далучаны	-12.2496
адчуваю	-12.2497
каран	-12.2502
▁Кіт	-12.2502
▁выходз	-12.2502
▁забяспечан	-12.2503
▁Апошн	-12.2505
натуральна	-12.2508
▁інтэлект	-12.2511
▁публіка	-12.2512
чаты	-12.2512
▁Габ	-12.2513
▁абыходз	-12.2514
▁Дзіўн	-12.2516
памята	-12.2519
кірунк	-12.2519
бс	-12.252
стычны	-12.252
▁рабо	-12.2521
змага	-12.2524
аўтара	-12.2524
паспяхов	-12.2529
▁метро	-12.253
▁кап	-12.2533
▁паведамл	-12.2534
пес	-12.2535
▁вяртал	-12.2536
часц	-12.2537
пуск	-12.2537
▁пазнаём	-12.2539
▁кроча	-12.254
▁няўда	-12.2541
▁выяўл	-12.2544
▁матэры	-12.2544
назаў	-12.2544
прызна	-12.2545
▁бав	-12.2546
тайц	-12.2549
▁каліграф	-12.2551
▁разгляд	-12.2551
самым	-12.2551
▁чужы	-12.2553
баял	-12.2556
▁гвалтаванн	-12.2557
▁адлегл	-12.256
▁паход	-12.256
сапраўдн	-12.2561
▁трыв	-12.2561
хільнасц	-12.2561
▁крэатыў	-12.2562
апаможа	-12.2562
▁ўздым	-12.2563
▁прыкр	-12.2564
▁самалё	-12.2567
дзел	-12.2567
▁прапаноў	-12.257
ядзення	-12.257
▁павыша	-12.257
стэр	-12.2572
▁прыкме	-12.2572
▁буд	-12.2572
▁гвалтава	-12.2573
▁прынос	-12.2573
▁адкла	-12.2573
▁харчава	-12.2573
хутчэй	-12.2574
матычн	-12.2575
▁вяршын	-12.2576
▁лабаратор	-12.2577
▁закруч	-12.2577
▁робат	-12.2581
▁адклад	-12.2583
▁насел	-12.2585
▁закл	-12.2586
▁змяш	-12.2588
Кат	-12.2591
▁бытав	-12.2592
▁тэкст	-12.2592
фрыканска	-12.2592
мерны	-12.2593
▁дзіцяч	-12.2595
накаміта	-12.2595
▁заме	-12.2597
лічваю	-12.2597
ндывідуальнасц	-12.2599
мперыя	-12.26
▁жыццязмяняльн	-12.2602
▁блука	-12.2602
нвестыцы	-12.2603
▁дагляд	-12.2604
▁Тэст	-12.2605
далёкі	-12.2608
утчэй	-12.2609
▁запэ	-12.2609
▁зус	-12.2609
мяні	-12.2611
▁тэмп	-12.2612
▁міг	-12.2614
▁майст	-12.2615
ерогліф	-12.2615
зірае	-12.2616
усульман	-12.2618
▁аркест	-12.2619
боль	-12.2619
жудасн	-12.262
нядзел	-12.2622
асабова	-12.2624
ышлі	-12.2625
▁партугал	-12.2626
▁гадава	-12.2626
▁фанат	-12.2626
дзіўлены	-12.2627
рэб	-12.2628
▁засаром	-12.2628
вязаны	-12.263
аснавальнік	-12.2632
існава	-12.2633
потай	-12.2633
ўсвядомі	-12.2633
згадва	-12.2635
▁мігр	-12.2637
вівал	-12.2638
▁нябачн	-12.2639
▁абдым	-12.2641
▁пабуд	-12.2642
крэсліваю	-12.2642
гарэл	-12.2645
▁мерк	-12.2646
версія	-12.2646
▁абмеркаван	-12.2646
менным	-12.2647
цінска	-12.2647
ылка	-12.2649
дольны	-12.265
▁паспр	-12.2651
▁паскар	-12.2652
віда	-12.2652
▁выканаўца	-12.2653
спрабу	-12.2654
▁вопы	-12.2655
▁выміра	-12.2655
▁клопа	-12.2656
вычайна	-12.2658
▁куд	-12.2659
▁Дрэ	-12.266
▁распавяд	-12.2661
▁закран	-12.2662
мацава	-12.2664
▁спор	-12.2664
марнаван	-12.2665
віц	-12.2665
▁спажы	-12.2667
ератварае	-12.2667
▁кантрол	-12.2668
▁ўзыход	-12.2668
▁францу	-12.2668
валюцыйн	-12.2668
▁абвіна	-12.2669
▁прафесія	-12.2672
змацн	-12.268
ыўны	-12.2681
саром	-12.2682
▁фантасты	-12.2683
▁бліз	-12.2684
давай	-12.2684
▁Напрык	-12.2685
▁фін	-12.2687
▁падштурх	-12.2688
страш	-12.2689
▁прадме	-12.2689
▁бяро	-12.269
▁чын	-12.2693
правод	-12.2697
лёгк	-12.2697
▁вымяр	-12.2697
▁відэ	-12.2697
▁немажліва	-12.2698
▁канст	-12.2698
заемадзейніча	-12.2699
ізм	-12.27
▁хлапч	-12.27
прадуктыўн	-12.2702
вытворч	-12.2702
спыт	-12.2703
іжнародны	-12.2703
цверд	-12.2704
▁паглыбі	-12.2705
▁уключ	-12.2706
следвання	-12.2706
выбітн	-12.2706
накіраван	-12.2707
▁спецы	-12.2707
сягненн	-12.2707
▁трэнір	-12.2707
▁знешн	-12.2707
▁перамож	-12.2708
▁спампа	-12.2708
фіз	-12.2709
▁вымаўлен	-12.2709
▁цэмент	-12.271
рмлен	-12.271
▁палестын	-12.2711
стрэлі	-12.2711
доры	-12.2711
маладзейш	-12.2711
зыва	-12.2712
анчатковы	-12.2713
конва	-12.2713
▁дура	-12.2714
ўважлів	-12.2714
▁гвал	-12.2714
▁ўзаема	-12.2714
раўноўва	-12.2715
Ta	-12.2716
▁напруж	-12.2716
адца	-12.2717
▁нязручн	-12.2718
пушча	-12.2718
▁тэрм	-12.2719
тэарыт	-12.2719
рун	-12.272
брыцы	-12.272
▁служ	-12.272
▁орг	-12.272
▁выдум	-12.272
▁глед	-12.2721
▁нахіл	-12.2721
▁запамп	-12.2722
анеслі	-12.2722
глыб	-12.2722
▁забясп	-12.2723
рыентацы	-12.2724
палітычн	-12.2724
▁езд	-12.2724
існут	-12.2724
фічны	-12.2724
слухоўва	-12.2724
дольвае	-12.2725
рабаванн	-12.2725
павяданн	-12.2725
▁пахо	-12.2726
язлітасна	-12.2727
ртыкул	-12.2727
есні	-12.2727
рабскі	-12.2728
магаю	-12.2729
бсалютна	-12.2729
Дж	-12.2729
аведваю	-12.2729
акранула	-12.273
эўна	-12.273
акета	-12.273
▁неспакой	-12.273
еўрапейск	-12.273
▁вучо	-12.273
звалены	-12.273
стр	-12.273
эд	-12.273
▁заслуг	-12.2731
днолькава	-12.2732
памен	-12.2732
▁гравітацы	-12.2733
▁цяжэй	-12.2733
грэс	-12.2733
Tu	-12.2733
▁агародні	-12.2733
▁ўльтра	-12.2734
▁Заход	-12.2734
інаю	-12.2734
▁ажыцяўл	-12.2734
▁праграмаван	-12.2734
ступленн	-12.2734
збагац	-12.2735
▁Камп	-12.2735
▁зняваж	-12.2735
сылае	-12.2735
труктура	-12.2735
▁супярэч	-12.2735
▁індывідуал	-12.2735
▁агрэсі	-12.2736
рыенту	-12.2736
атэры	-12.2737
пыта	-12.2737
▁рэлігі	-12.2737
правядліва	-12.2737
▁акрэсл	-12.2737
рубк	-12.2737
▁даследуе	-12.2738
эчны	-12.2738
мптомам	-12.2738
▁цэн	-12.2738
▁расчар	-12.2738
▁адлюстр	-12.2739
▁знаход	-12.2739
▁інструк	-12.2739
▁кніжка	-12.2739
▁прымацава	-12.274
▁віру	-12.274
ясцовы	-12.274
рыстальніка	-12.274
▁матэ	-12.274
▁абвінава	-12.274
ікарыз	-12.2741
оцна	-12.2741
уразмоўц	-12.2741
упольнасц	-12.2741
рыстай	-12.2741
аказваюц	-12.2741
джваем	-12.2741
імптом	-12.2742
свяча	-12.2742
▁калекты	-12.2742
устрэ	-12.2742
стытут	-12.2742
далё	-12.2742
машын	-12.2742
азма	-12.2742
ампанія	-12.2743
прыяз	-12.2743
абабон	-12.2743
тварэнне	-12.2743
айчын	-12.2744
▁Прадукт	-12.2744
▁засво	-12.2744
▁глабал	-12.2744
лопат	-12.2744
рамыслова	-12.2744
рафесар	-12.2744
апярэд	-12.2745
афарбава	-12.2745
▁бяспл	-12.2745
▁падарожні	-12.2745
▁Падарож	-12.2745
▁фундамента	-12.2745
рансфармацы	-12.2745
элефон	-12.2745
вароба	-12.2745
арысны	-12.2745
абсталява	-12.2745
▁гаспад	-12.2745
тваральнік	-12.2745
▁індый	-12.2746
▁збалансава	-12.2746
эрмін	-12.2746
15-	-12.2746
▁пахуд	-12.2746
▁электры	-12.2746
авяліч	-12.2747
▁спаборні	-12.2747
▁саск	-12.2747
▁паслабл	-12.2747
аследчык	-12.2747
ослед	-12.2747
эпрэсі	-12.2747
шатл	-12.2747
▁еўрапей	-12.2747
▁ажыця	-12.2747
▁найглыбей	-12.2747
▁Хлоп	-12.2747
углярод	-12.2747
ерагодн	-12.2748
бходна	-12.2748
яўпэўнена	-12.2748
крэтны	-12.2748
адзвычай	-12.2748
еджання	-12.2748
кантра	-12.2748
ратварыл	-12.2748
▁аўтамат	-12.2748
ограф	-12.2748
пухл	-12.2748
▁Вашынгт	-12.2748
▁ўсхвал	-12.2748
квіт	-12.2748
праход	-12.2748
ектыўна	-12.2748
равітацыйн	-12.2748
зідэнт	-12.2748
ыліндр	-12.2748
▁індывід	-12.2748
лёўвае	-12.2748
▁экспаненцы	-12.2748
▁Інтэр	-12.2748
▁бязглузд	-12.2748
фонны	-12.2748
▁Тэхнал	-12.2748
экт	-12.2748
▁Універс	-12.2748
▁габрэ	-12.2748
ntu	-12.2748
амабіль	-12.2748
зёрванн	-12.2748
лацінавы	-12.2748
эндз	-12.2748
▁гіпс	-12.2748
▁характэры	-12.2748
▁электра	-12.2748
ааааааааааа	-12.2748
шшшшш	-12.2748
▁пераадол	-12.2748
авейша	-12.2748
анфлікт	-12.2748
історыя	-12.2748
легла	-12.2748
▁эфе	-12.2748
ржава	-12.2748
айдэра	-12.2748
▁Філ	-12.2748
серват	-12.2748
ішпан	-12.2748
сільва	-12.2748
ызайн	-12.2748
▁фанта	-12.2748
агоддзя	-12.2748
стэм	-12.2748
ымярэнн	-12.2748
арож	-12.2749
▁катастр	-12.2749
фона	-12.2749
▁штур	-12.2749
ліцэн	-12.2749
▁вегета	-12.2749
▁гіпо	-12.2749
азнан	-12.2749
елічэ	-12.2749
афічн	-12.2749
атограф	-12.2749
дчыка	-12.2749
аможні	-12.2749
смактал	-12.2749
▁віктары	-12.2749
ыбітны	-12.2749
фікацы	-12.2749
юбіл	-12.2749
менніц	-12.2749
тыфіка	-12.2749
афт	-12.2749
зыч	-12.2749
візара	-12.275
удоўна	-12.275
▁паглы	-12.275
лавес	-12.275
орвання	-12.275
▁заслу	-12.275
▁вынаходніц	-12.275
ўдэн	-12.275
▁інтар	-12.275
адарожніча	-12.275
лемен	-12.275
радуктыўнасц	-12.275
кепты	-12.275
▁выпрабава	-12.275
парда	-12.275
ьніца	-12.275
ялізны	-12.275
анцуг	-12.275
▁псіха	-12.2751
ітэт	-12.2751
ргія	-12.2751
баков	-12.2751
▁абед	-12.2751
стэрства	-12.2751
▁пісьм	-12.2751
лядоўн	-12.2751
▁Pr	-12.2752
din	-12.2752
рывас	-12.2752
товым	-12.2752
утарка	-12.2752
ратур	-12.2752
пыненне	-12.2752
энду	-12.2753
▁арт	-12.2753
ric	-12.2753
▁недас	-12.2753
рымліваючы	-12.2753
азмаўля	-12.2754
▁паводз	-12.2754
▁сінтэ	-12.2754
ецкім	-12.2754
▁інсты	-12.2754
налог	-12.2755
зіўна	-12.2755
▁аналі	-12.2755
канскі	-12.2755
рыфм	-12.2755
апамога	-12.2755
▁паляр	-12.2755
яшчальн	-12.2756
антроль	-12.2756
ноўвае	-12.2756
авышае	-12.2757
▁ўпэ	-12.2757
манда	-12.2757
лівасць	-12.2757
вальненн	-12.2757
▁Пазн	-12.2757
вецкі	-12.2757
слушны	-12.2758
ra	-12.2759
ED	-12.276
актэры	-12.276
▁нядаўн	-12.276
▁смяр	-12.276
ds	-12.276
акумент	-12.2761
дыкт	-12.2762
▁фут	-12.2762
ізіка	-12.2762
▁1,	-12.2762
▁гіган	-12.2762
фер	-12.2762
▁чат	-12.2763
▁рэцэ	-12.2763
▁ўдзельні	-12.2763
стату	-12.2764
часлівы	-12.2764
смент	-12.2764
арыста	-12.2764
▁лабара	-12.2764
▁бязл	-12.2765
▁цудо	-12.2766
▁незна	-12.2766
дкі	-12.2766
тынг	-12.2767
▁дзяр	-12.2767
існую	-12.2768
▁дэп	-12.2768
етэра	-12.2769
вінавач	-12.2769
▁створ	-12.2769
карыстай	-12.2769
еціва	-12.2769
чатыр	-12.277
мелым	-12.277
багаце	-12.277
еркава	-12.2771
аўжэ	-12.2771
тэр	-12.2772
глыбей	-12.2772
▁дасле	-12.2773
айграю	-12.2773
савана	-12.2773
▁паспя	-12.2773
рытычн	-12.2773
▁прыгаж	-12.2774
▁магчы	-12.2774
лівай	-12.2774
▁Кол	-12.2774
adi	-12.2775
асланнік	-12.2776
кара	-12.2777
▁Між	-12.2777
▁адрозн	-12.2777
мацыя	-12.2778
адальнік	-12.2778
нтычна	-12.2779
зацыя	-12.2779
намічны	-12.2779
▁ветэр	-12.278
▁стасу	-12.278
ускаў	-12.2782
вард	-12.2782
ерса	-12.2783
▁трэніро	-12.2783
ажае	-12.2783
▁грун	-12.2783
▁працягла	-12.2783
▁праслухоўва	-12.2783
мушаны	-12.2783
сфар	-12.2784
крэс	-12.2785
▁Жан	-12.2785
▁ашал	-12.2786
вёр	-12.2786
▁рэалі	-12.2786
сходня	-12.2787
▁стру	-12.2787
▁шпа	-12.2789
вабод	-12.279
▁Віда	-12.2791
опыт	-12.2791
нізм	-12.2792
урагат	-12.2793
▁стол	-12.2794
омні	-12.2794
▁апера	-12.2794
вернец	-12.2795
фле	-12.2795
en	-12.2796
зесяцігоддзя	-12.2796
онік	-12.2797
адмет	-12.2797
▁праек	-12.2797
рызава	-12.2797
ешч	-12.2797
▁фата	-12.2798
▁ўстой	-12.2798
▁ўзб	-12.2798
F	-13.6446
Ж	-13.6447
Ф	-13.6448
»	-13.6449
!	-13.645
#	-13.6451
Х	-13.6452
Л	-13.6453
Ч	-13.6454
Ц	-13.6455
Ё	-13.6456
)	-13.6457
—	-13.6458
?	-13.6459
:	-13.646
Я	-13.6461
q	-13.6462
&	-13.6463
