<unk>	0
<s>	0
</s>	0
▁	-1.97384
্	-2.20485
▁।	-3.65918
▁,	-3.66056
র	-4.29788
▁প	-4.4931
▁য	-4.74329
▁এ	-4.82017
;	-4.96292
▁&	-5.01646
ই	-5.03869
বং	-5.04069
▁যে	-5.0471
▁ব	-5.05338
ের	-5.06892
▁স	-5.09511
u	-5.16607
▁আমি	-5.17025
ot	-5.17162
q	-5.17255
▁়	-5.29889
▁আর	-5.30958
▁এই	-5.31568
ন	-5.32589
▁আমরা	-5.40531
▁ত	-5.42288
▁যা	-5.49622
ে	-5.5364
▁করে	-5.57888
▁না	-5.58591
কে	-5.62536
▁ক	-5.6701
তে	-5.69198
▁আমাদের	-5.70938
▁এটা	-5.71362
ও	-5.78846
▁জন	-5.80138
▁তা	-5.80624
▁করতে	-5.87956
▁একটা	-5.91675
▁র	-5.94224
▁তু	-5.94926
-	-5.94944
▁আমার	-5.96357
▁দ	-5.9816
▁কিন	-6.00818
ক	-6.03784
া	-6.04064
▁ট	-6.04733
▁একটি	-6.04818
▁থেকে	-6.07863
স	-6.08799
▁ছিল	-6.11951
▁এক	-6.12027
ত	-6.17091
▁কি	-6.21063
▁তার	-6.24886
▁কিছু	-6.25791
▁এর	-6.26615
▁সম	-6.29413
ঙ	-6.30224
ভাবে	-6.31587
▁?	-6.31906
▁আছে	-6.3393
▁আপনি	-6.3479
▁পর	-6.35899
ার	-6.36893
▁হয়	-6.37982
▁তারা	-6.38082
দের	-6.38295
(	-6.40796
▁করা	-6.41001
▁)	-6.41099
▁ন	-6.42945
▁সে	-6.43349
টা	-6.44117
▁যদি	-6.44862
▁অন	-6.46392
▁ছে	-6.48141
▁তাদের	-6.48759
▁এখন	-6.50892
▁হবে	-6.51358
‍	-6.53806
▁কোন	-6.5404
▁যখন	-6.55836
▁কাজ	-6.55884
▁এটি	-6.55929
▁ও	-6.56889
▁নিয়ে	-6.56918
▁সাথে	-6.57017
▁হল	-6.60476
▁অনেক	-6.61257
▁তি	-6.61352
▁কথা	-6.63939
▁আপনার	-6.64744
▁গ	-6.64883
▁তাই	-6.65415
▁খুব	-6.66341
▁ম	-6.66354
ি	-6.66646
য়	-6.67928
▁সেই	-6.68269
▁এমন	-6.69666
▁মধ	-6.70352
হচ	-6.72879
▁বিশ	-6.72885
▁করি	-6.74712
▁অর	-6.75716
▁অ	-6.75812
▁বা	-6.76316
▁কারণ	-6.77861
▁কর	-6.78858
ষ	-6.79507
▁পারে	-6.80921
▁বাস	-6.82992
▁আ	-6.83458
▁থ	-6.8398
a	-6.85133
িত	-6.85283
ুক	-6.85312
▁একজন	-6.85932
o	-6.86769
s	-6.88922
টি	-6.90074
▁করার	-6.90966
▁তিনি	-6.92338
রা	-6.9243
p	-6.9251
▁ধ	-6.92906
প	-6.93112
▁শিক	-6.93585
▁সব	-6.95468
▁মনে	-6.96437
▁যায়	-6.96573
ো	-6.97117
▁জ	-6.97755
ঞ	-6.98216
▁ণ	-6.99925
▁সেটা	-7.01001
▁বর	-7.01246
ছিলাম	-7.01553
▁হতে	-7.01667
▁ড	-7.01818
▁যান	-7.03112
▁—	-7.03121
▁তো	-7.03523
ল	-7.03561
▁হয়ে	-7.04988
▁কার	-7.04993
▁এখানে	-7.06538
ব	-7.06884
▁শুধু	-7.0821
▁দিয়ে	-7.08678
▁বছর	-7.09377
▁নয়	-7.09611
▁চ	-7.09918
▁পারি	-7.10493
▁শ	-7.13733
▁গে	-7.13946
▁শুরু	-7.15352
ী	-7.15403
▁সত	-7.16069
▁বল	-7.18755
▁হাসি	-7.18932
▁হ	-7.19036
▁রে	-7.19265
চ	-7.1961
▁আসলে	-7.20283
▁তখন	-7.21007
▁ষ	-7.21088
▁বন	-7.21261
লাম	-7.23173
▁নির	-7.2376
▁মানুষ	-7.25836
▁যবহার	-7.2603
শ	-7.26143
▁তাহলে	-7.26788
গুলো	-7.28115
▁ষা	-7.28847
▁কেন	-7.29141
পূর	-7.29169
▁মত	-7.30306
ং	-7.31721
▁যার	-7.32147
▁দেখতে	-7.32348
▁কে	-7.32871
▁যেখানে	-7.33053
ৃষ	-7.33132
ভিন	-7.35118
▁করছে	-7.35988
▁আমাকে	-7.36315
▁আপনাদের	-7.37348
▁সময়	-7.37595
▁বলতে	-7.37665
▁নেই	-7.38079
▁বড়	-7.38148
▁কাছে	-7.38442
▁চাই	-7.38549
ম	-7.39113
▁উদ	-7.39503
▁তর	-7.41359
ণ	-7.41753
▁আগে	-7.42234
▁যন	-7.42685
▁থা	-7.43038
▁হয়েছে	-7.43369
▁যেটা	-7.43392
▁বের	-7.44784
▁তৈরি	-7.44897
মাত	-7.46152
▁মস	-7.46364
▁দেখা	-7.47066
▁হয	-7.47525
দ	-7.47532
▁তুমি	-7.47713
▁ষেত	-7.47829
▁বলে	-7.47993
জ	-7.48515
▁যারা	-7.48838
▁বি	-7.48909
▁হিসেবে	-7.506
েন	-7.51196
▁বেশি	-7.51258
▁নতুন	-7.51439
▁চিন	-7.51486
ঃ	-7.51507
▁রায়	-7.51806
▁ধরে	-7.52055
▁পরিব	-7.52233
▁সমস	-7.52285
▁ধন	-7.52963
▁ঠিক	-7.53953
▁কম	-7.54845
না	-7.55749
:	-7.56951
বা	-7.57897
েই	-7.58673
▁পৃথিবী	-7.59078
▁গল	-7.59458
▁রশ	-7.59855
▁ছি	-7.61275
▁পার	-7.61333
▁থাকে	-7.61559
▁করেছে	-7.61708
▁যক	-7.6189
▁যেমন	-7.63078
▁দিকে	-7.63217
▁টা	-7.63806
▁রতি	-7.64088
▁ষণ	-7.64584
▁যবাদ	-7.65035
গ	-7.67353
▁ভ	-7.67768
▁গুরুত	-7.68012
▁পারেন	-7.68984
▁কী	-7.69082
লো	-7.70279
▁সবাই	-7.7085
▁আরও	-7.70972
▁অস	-7.71313
▁তাঁর	-7.71556
▁তন	-7.72356
বার	-7.72602
কি	-7.73484
ছে	-7.73538
হলো	-7.73652
▁করলাম	-7.74438
▁করেছি	-7.7455
▁করেন	-7.74646
▁ফ	-7.74859
নের	-7.75092
▁যবস	-7.75979
তিষ	-7.762
▁টি	-7.76426
▁ঞান	-7.77024
▁শক	-7.7712
▁ভাল	-7.77289
▁বাচ	-7.77503
িয়ে	-7.77585
▁তারপর	-7.77676
িক	-7.7784
▁উপর	-7.77916
▁বিষয়	-7.79127
▁ধি	-7.79246
▁বস	-7.80277
▁উত	-7.80387
▁উন	-7.80475
িষ	-7.80673
▁হয়েছিল	-7.80906
▁যাচ	-7.82144
েষ	-7.82684
▁রয	-7.82688
▁এরকম	-7.83267
▁হাততালি	-7.84338
▁মানুষের	-7.84561
▁নি	-7.84652
লেন	-7.84765
▁নিয	-7.84782
▁সাহায	-7.85869
তো	-7.86393
▁অবস	-7.86398
▁জীবন	-7.86629
▁রস	-7.86644
▁অংশ	-7.86751
▁রথম	-7.86938
ান	-7.87265
▁বলা	-7.87344
নি	-7.87814
▁আন	-7.88391
▁নিজেদের	-7.88903
▁নিউরন	-7.89236
াম	-7.89462
▁মান	-7.8949
▁ল	-7.89668
▁রান	-7.897
▁এব	-7.89727
▁নিজের	-7.89736
▁নাম	-7.8978
▁আফ	-7.89784
▁বিজ	-7.90339
▁ভালো	-7.90399
▁দিতে	-7.91743
▁করবে	-7.93386
▁দেশ	-7.93679
▁রা	-7.93811
▁রক	-7.94677
ায়	-7.9469
▁মূল	-7.94773
কার	-7.94937
▁মাধ	-7.95296
▁দুর	-7.95582
▁বুঝতে	-7.9577
▁ভিডিও	-7.96357
তা	-7.96529
▁করছি	-7.97051
▁আপনাকে	-7.9735
▁দরকার	-7.98383
মান	-7.99573
▁টাম	-7.99763
▁বার	-8.00074
ুন	-8.00093
য়ে	-8.0032
▁বেশী	-8.00549
▁সংখ	-8.00576
▁দর	-8.0066
▁জিনিস	-8.00669
▁রের	-8.00924
▁বে	-8.01138
▁থাক	-8.01169
▁দুই	-8.01451
▁ছোট	-8.01803
▁অথ	-8.01817
▁রয়েছে	-8.01894
▁তবে	-8.02037
ট	-8.02234
▁ভাব	-8.02279
▁আবার	-8.02286
চিত	-8.0249
▁ছাত	-8.02902
▁কারন	-8.0306
▁যমে	-8.0334
▁বেশ	-8.03686
▁একই	-8.03785
কর	-8.03844
▁চলে	-8.04008
▁মতো	-8.04101
▁যি	-8.05055
▁সন	-8.0513
▁ষক	-8.05687
▁যেন	-8.05884
▁রাস	-8.06093
▁ওই	-8.06496
▁জানেন	-8.07028
▁কেউ	-8.07238
▁সকল	-8.07264
য	-8.07337
▁চেয়ে	-8.07501
▁পূর	-8.0791
▁!	-8.08246
ীয়	-8.08449
▁শেষ	-8.08579
▁চিত	-8.08754
▁লক	-8.09151
▁অবশ	-8.0993
তার	-8.10153
গুলোর	-8.1057
▁মানে	-8.11234
▁ধর	-8.11472
▁যাক	-8.1148
▁সংস	-8.11628
▁সেখানে	-8.12479
▁মাঝে	-8.12604
▁তাঁরা	-8.12751
ৃত	-8.13034
▁সক	-8.13803
▁কুলে	-8.13861
▁ওরা	-8.14048
▁সুত	-8.14165
▁রত	-8.14178
▁হওয়া	-8.14551
▁মা	-8.14787
▁সালে	-8.14936
▁যের	-8.15198
▁কাজে	-8.1572
▁চা	-8.15792
▁ইন	-8.15937
রাং	-8.16087
বিষ	-8.16092
▁ভব	-8.16154
▁ধু	-8.16758
▁ে	-8.17101
়	-8.17537
নিশ	-8.17778
▁পদ	-8.17996
▁দেয়	-8.18869
▁সঠিক	-8.19323
▁আস	-8.19515
গুলোকে	-8.19602
▁এগুলো	-8.19637
▁সুযোগ	-8.19643
▁যত	-8.19689
▁করুন	-8.20491
▁ডলার	-8.20569
▁করেছিল	-8.21722
রীক	-8.22194
▁তির	-8.22251
▁শিশু	-8.22389
ছন	-8.22458
সংখ	-8.23279
▁ধে	-8.2382
▁রি	-8.24071
▁কোনো	-8.24372
▁বলল	-8.24379
▁যাবে	-8.25165
▁ধরণের	-8.25465
▁থান	-8.25545
▁জীবনে	-8.25781
▁বিশেষ	-8.26261
▁আসে	-8.2657
▁ঘটনা	-8.26781
▁যুদ	-8.26814
▁ভাগ	-8.27035
▁কিনা	-8.27356
▁চার	-8.27405
▁হয়তো	-8.27482
▁বিক	-8.28191
▁সময়ে	-8.28667
▁পথ	-8.28756
▁নিউ	-8.29143
▁থাকা	-8.29282
▁রিয়া	-8.30162
শব	-8.30737
▁বিলিয়ন	-8.31031
▁একটু	-8.31383
▁গত	-8.31463
▁তোমার	-8.31547
▁সামনে	-8.31791
সব	-8.3183
▁জি	-8.31834
▁দি	-8.31972
▁রিকা	-8.32141
▁কের	-8.32177
▁পাচ	-8.33671
▁তিন	-8.33854
▁ষার	-8.34018
ছেন	-8.34625
▁যাপার	-8.35307
▁রহ	-8.35565
▁কখন	-8.35741
.	-8.36163
▁জানা	-8.3645
▁ছ	-8.36454
▁জানি	-8.36491
▁ধারণা	-8.36599
▁ফলে	-8.36631
▁হত	-8.36683
▁মাত	-8.36716
▁কারণে	-8.36759
▁পারবেন	-8.36798
জন	-8.37622
▁পড়ে	-8.37812
▁গেল	-8.37822
▁করব	-8.38132
▁কোম	-8.38344
▁কুল	-8.39012
▁বলি	-8.39062
▁হাত	-8.3912
▁মানব	-8.39256
▁বসে	-8.39441
▁আগ	-8.39768
▁যাতে	-8.39959
▁পরি	-8.40058
▁দেখে	-8.40085
ূর	-8.40096
▁টাকা	-8.4036
▁ফিরে	-8.4052
▁বদলে	-8.41235
ীদের	-8.41441
▁কল	-8.41857
▁ঘটে	-8.42146
বে	-8.42275
▁চল	-8.42372
▁বাইরে	-8.42878
▁বারা	-8.42926
িনি	-8.43149
▁পনা	-8.4319
▁জায়গা	-8.43235
▁রিক	-8.43293
▁বোঝা	-8.43307
▁যাই	-8.43719
▁আরো	-8.4407
খ	-8.44318
▁দেওয়া	-8.44421
▁ছিলেন	-8.44603
▁ভুল	-8.4476
▁হয়ত	-8.4477
▁চে	-8.44781
ৃদ	-8.44919
▁হাজার	-8.45189
▁পরে	-8.45326
▁করল	-8.45335
▁উপ	-8.45538
▁শতাংশ	-8.46501
▁ঘ	-8.47101
▁রাজ	-8.47412
▁সা	-8.47832
▁ঘট	-8.47851
▁সময	-8.48133
▁রুত	-8.48148
▁ভাবে	-8.48526
▁দক	-8.48592
▁পুরো	-8.48616
বো	-8.48728
▁গেছে	-8.48763
▁শিল	-8.48798
কল	-8.48803
▁ধরনের	-8.48927
▁রিয়	-8.4935
▁সর	-8.49978
▁সেগুলো	-8.50026
▁কয়েক	-8.50078
▁সি	-8.50096
▁এটাকে	-8.50128
▁গড়ে	-8.50615
▁রকাশ	-8.50975
▁এসব	-8.51112
▁রম	-8.51114
▁যালে	-8.51687
▁ষম	-8.51933
▁সাধারণ	-8.52048
▁গবেষণা	-8.52063
▁ভর	-8.52091
▁নিতে	-8.5232
▁ওদের	-8.52724
▁কেবল	-8.52896
▁সূ	-8.53215
▁দেখ	-8.53413
▁সবচে	-8.5362
ু	-8.53668
▁থনীতি	-8.53785
▁পরিমাণ	-8.53834
▁২	-8.53963
▁পাওয়া	-8.54104
▁রাণী	-8.54286
দিন	-8.54853
▁’	-8.55363
▁উচ	-8.55426
▁কখনো	-8.55738
▁করবেন	-8.55908
▁রী	-8.5599
▁যাস	-8.56212
▁তিত	-8.56302
▁জানতে	-8.56394
▁লোক	-8.56501
াঙ	-8.56517
,	-8.56698
▁সাম	-8.5679
ড	-8.56822
থার	-8.57182
▁বিস	-8.57935
▁ছবি	-8.57944
▁নামে	-8.58138
▁বিশাল	-8.58177
▁কোয়া	-8.58233
▁যাম	-8.58379
▁১০	-8.58491
▁-	-8.58575
▁তাঁদের	-8.58583
▁এরপর	-8.58639
▁যেগুলো	-8.59129
▁বিষয়ে	-8.5963
▁টার	-8.59636
▁মুহ	-8.59909
▁রাম	-8.59963
▁যোগ	-8.60073
‘	-8.60837
▁বিদ	-8.61034
▁চায়	-8.61162
▁উদাহরণ	-8.61209
▁হার	-8.61249
▁রয়োজন	-8.61265
▁গো	-8.6134
▁উপায়	-8.61428
▁এভাবে	-8.61788
▁রভাব	-8.61843
বিজ	-8.62367
▁২০	-8.62714
ড়িয়ে	-8.6277
▁থে	-8.6278
হ	-8.63038
▁হোক	-8.63135
▁খ	-8.63355
▁দু	-8.63391
▁তথ	-8.63434
াই	-8.63489
▁বুদ	-8.63895
▁থনৈতিক	-8.6416
▁উচিত	-8.6435
▁খাবার	-8.64403
▁ঐ	-8.64451
▁আক	-8.6454
হীন	-8.64706
টির	-8.65007
▁মানুষদের	-8.65368
▁কোর	-8.65493
▁যাঁ	-8.65925
▁দেখি	-8.66231
▁ফেলে	-8.66407
▁আমেরিকা	-8.66716
▁২০০	-8.66832
▁বই	-8.66886
িদ	-8.67004
েও	-8.67173
▁রধান	-8.67268
়ে	-8.67481
▁ঠান	-8.67516
▁খুঁজে	-8.6791
▁১	-8.68607
▁রতিষ	-8.68682
▁ঘন	-8.68897
▁দিন	-8.69139
রে	-8.69252
ছিলেন	-8.69305
▁পারবে	-8.69596
▁নিজে	-8.69685
িন	-8.6988
▁পাবে	-8.70291
▁বিবর	-8.70633
িজ	-8.70643
▁ষমতা	-8.70654
▁তব	-8.70701
▁মজা	-8.70733
▁তত	-8.70841
▁বরফ	-8.71138
▁বলছি	-8.71371
▁ছা	-8.71589
চেয়ে	-8.71611
মিক	-8.71808
ৎ	-8.72557
▁কঠিন	-8.73481
▁হিসাবে	-8.73986
▁বছরের	-8.74029
▁ছেন	-8.74214
▁রায	-8.74228
▁মৃত	-8.74351
▁উপরে	-8.7508
▁সুন	-8.75166
োয়ান	-8.75169
▁আজ	-8.75202
▁রহণ	-8.75222
▁পানির	-8.75536
াতে	-8.75664
▁সার	-8.75861
শিক	-8.76603
▁আমাদেরকে	-8.76702
▁পা	-8.76724
▁যথ	-8.76745
▁অনুভব	-8.7682
▁এত	-8.77081
▁উপস	-8.77326
▁ভিত	-8.77363
▁সবার	-8.77431
▁দেশে	-8.77506
▁করেছিলেন	-8.77605
▁বক	-8.77634
▁দেশের	-8.77728
▁পরিণত	-8.77744
▁কোথা	-8.77825
বর	-8.7811
▁যাত	-8.78147
▁লাগে	-8.78189
▁সারা	-8.78228
▁মডেল	-8.78234
▁ষে	-8.78278
▁আজকে	-8.78395
▁ধান	-8.78589
▁যবসা	-8.78798
▁কত	-8.78953
▁যায	-8.79021
▁যাওয়া	-8.79075
▁ই	-8.79093
▁এরা	-8.79532
▁পানি	-8.79658
▁পারব	-8.80025
▁ভুত	-8.80172
▁মুখ	-8.80316
▁সবসময়	-8.80339
▁বললে	-8.80788
লে	-8.80946
বিক	-8.81194
▁পেতে	-8.81471
▁পাই	-8.81531
▁গিয়ে	-8.81845
▁সবকিছু	-8.82273
▁তিক	-8.82966
▁ডার	-8.83176
▁অদ	-8.8332
▁থাকেন	-8.83603
▁এইটা	-8.83663
টার	-8.83689
▁একেবারে	-8.83857
▁দেখুন	-8.8405
▁হাতে	-8.84078
বস	-8.8411
▁ঈ	-8.84154
▁করলে	-8.84246
▁দিয	-8.84421
▁পরিবার	-8.84427
▁মহিলা	-8.84587
▁টে	-8.84745
কারী	-8.8475
▁সমাধান	-8.85157
▁সহজ	-8.85254
▁একবার	-8.85465
াত	-8.85478
গুলি	-8.85798
▁আলো	-8.8616
▁ঠ	-8.86194
▁ঞতা	-8.86262
ুদ	-8.86628
▁যাদের	-8.86759
নো	-8.8733
▁যাপারে	-8.87374
▁তোমরা	-8.87569
▁সু	-8.87586
▁এবার	-8.87634
▁পরিস	-8.87687
▁থিত	-8.87691
▁ডি	-8.87768
▁গীত	-8.87928
▁থাকবে	-8.88114
▁যিকার	-8.88147
েছিলাম	-8.88229
▁হলে	-8.88256
নিক	-8.88598
০০০	-8.88624
রকম	-8.88752
▁কৃতি	-8.88912
তি	-8.88982
▁অব	-8.89066
বেন	-8.89503
▁রদ	-8.89643
রুদ	-8.89696
▁দিল	-8.89818
▁রণ	-8.89893
▁এসে	-8.9022
▁দুটি	-8.90224
▁উল	-8.90664
▁চর	-8.90746
▁রতিক	-8.9116
▁আই	-8.91244
▁রতিদিন	-8.91433
▁তেল	-8.91717
▁পুর	-8.91736
▁দিয়েছে	-8.91744
▁লেখা	-8.92083
▁এসেছে	-8.92131
▁ধারণ	-8.92289
ীর	-8.92428
▁মাথা	-8.93357
▁৩০	-8.93373
▁রাখ	-8.93579
▁তুলে	-8.93667
▁অনেকটা	-8.93831
e	-8.94167
▁মার	-8.9439
▁যাট	-8.9449
▁মে	-8.94817
াচ	-8.94823
▁ডের	-8.9487
1	-8.95062
▁পরিমান	-8.95142
মা	-8.95288
▁আলাদা	-8.95361
▁চাকরি	-8.95368
▁দিনে	-8.95492
তটা	-8.95638
ির	-8.96009
▁পেছনে	-8.96058
▁চাচ	-8.96191
▁তে	-8.96265
▁ভাবনা	-8.96309
▁অতি	-8.96658
▁ধার	-8.96784
▁ডা	-8.96788
▁বাবা	-8.96975
মন	-8.97136
▁তরা	-8.974
নির	-8.97537
পত	-8.97617
যোগ	-8.97932
▁শেখা	-8.98052
▁ছেলে	-8.98124
▁ভালুক	-8.98429
▁দুনিয়া	-8.98663
▁ঞানী	-8.98893
০	-8.99033
▁করত	-8.99274
▁দল	-8.99313
৫	-8.99325
▁দিক	-8.99459
▁নীতি	-8.99484
▁কোষ	-8.99738
▁পন	-8.99821
▁তমান	-8.99903
টাকে	-8.9992
▁আশা	-8.99936
▁থাপন	-8.99987
ইচ	-9.001
▁গতি	-9.00238
▁পরিচিত	-9.00246
▁মক	-9.00269
▁এতে	-9.00304
▁রদের	-9.00407
▁সবচেয	-9.00458
▁কা	-9.00562
▁খা	-9.00846
▁ভাবতে	-9.00869
▁আইন	-9.00929
ডেন	-9.01013
▁কোটি	-9.01016
▁যতা	-9.01054
▁ইয়	-9.01101
▁দূরে	-9.01296
নিয়ন	-9.01899
▁আকার	-9.02196
মত	-9.02258
▁ডে	-9.02312
টাই	-9.02429
সাধারণ	-9.02433
▁চারা	-9.02845
▁দেবে	-9.02868
▁দূর	-9.03424
▁আসা	-9.03471
▁থাকত	-9.03711
▁...	-9.03813
▁বিতীয়	-9.03859
▁যোগাযোগ	-9.03878
▁বেশিরভাগ	-9.03903
▁তোমাকে	-9.03926
▁রকম	-9.04134
▁তান	-9.04343
▁রেসি	-9.04468
▁বছরে	-9.04534
▁একে	-9.04563
▁অত	-9.04986
রের	-9.05106
▁শুক	-9.05118
▁করছিল	-9.05169
▁চোখ	-9.05235
▁অভ	-9.05537
▁তিস	-9.0588
দেরকে	-9.05936
▁অনু	-9.06371
▁ডলারের	-9.06611
▁পড	-9.06743
▁বাড়ি	-9.06758
▁চান	-9.06781
াল	-9.06897
▁ধতি	-9.06993
▁তরে	-9.07257
▁এদের	-9.07402
▁যেত	-9.07593
▁তুলনা	-9.07714
▁শুন	-9.0779
▁থায়	-9.0794
▁লাস	-9.08016
▁আচ	-9.0815
▁ওপর	-9.08186
▁রেখে	-9.08255
▁অণু	-9.08352
▁চমৎক	-9.08371
▁দেয	-9.08399
▁খরচ	-9.0841
▁খেলনা	-9.08483
▁একসাথে	-9.08516
▁গাড়ি	-9.08528
▁অপ	-9.08574
ভ	-9.08579
▁জগতে	-9.08639
▁জায়গায়	-9.08685
▁তেমন	-9.08753
▁নিজেকে	-9.08947
▁রো	-9.09035
▁শত	-9.09351
▁ওজন	-9.09437
▁আল	-9.09449
▁পরিষ	-9.09451
▁হে	-9.09595
▁পৃথিবীতে	-9.09602
ফ	-9.09696
তম	-9.09706
দার	-9.09738
▁রাখা	-9.10022
▁অভিজ	-9.10139
▁যাল	-9.10263
▁বিভ	-9.10607
▁কাছ	-9.1061
▁ভিতরে	-9.1067
▁শান	-9.11053
৮	-9.11203
▁যস	-9.11361
▁চি	-9.11717
▁থী	-9.11729
▁কোরআন	-9.11792
▁শোনা	-9.11897
▁যাপারটা	-9.12343
▁নতি	-9.12437
লার	-9.12787
হেতু	-9.12891
ববিদ	-9.13061
সম	-9.13094
▁তী	-9.13097
▁ওটা	-9.1312
নীয়	-9.13135
▁কয়লা	-9.13159
▁জলবায়ু	-9.13188
▁টারনেট	-9.13261
দিকে	-9.13357
▁করতাম	-9.13366
▁মন	-9.13757
▁১৯	-9.13813
▁বৈশ	-9.13891
▁সপ	-9.14003
এ	-9.14059
মেন	-9.14163
▁দী	-9.14498
▁দেহ	-9.14768
▁যাপ	-9.1502
▁মাস	-9.15095
▁অপরাধী	-9.15115
▁বান	-9.15268
▁টিক	-9.15278
▁তোলা	-9.15508
ডি	-9.15735
▁দায়	-9.15949
▁জাল	-9.16069
▁যাগ	-9.16154
▁থক	-9.16368
টিকে	-9.16412
▁রকৃতি	-9.16415
▁তাঁ	-9.16527
▁টিভ	-9.16585
▁দেয়া	-9.17281
▁আসল	-9.17479
▁মেয়ে	-9.17632
▁ছাড়া	-9.17638
▁গলিয়াথ	-9.17812
▁উনি	-9.17827
রণ	-9.17867
“	-9.17884
▁”	-9.17884
▁বপ	-9.17891
▁যয়	-9.17939
▁ভারতীয়	-9.18166
▁সংযোগ	-9.18186
▁ভূমিকা	-9.1824
▁রতিটি	-9.18604
▁ষিত	-9.18646
▁ঠী	-9.18836
ছিল	-9.18942
৬	-9.19029
োর	-9.19165
▁আলোচনা	-9.19402
▁নে	-9.19486
▁নারী	-9.19553
▁বোধ	-9.19632
▁পরিক	-9.19844
▁ইতিহাস	-9.19876
▁তাপ	-9.20029
▁মির	-9.2018
▁আয়	-9.20255
▁পাঁচ	-9.20284
তাম	-9.20412
▁রজন	-9.20498
▁পাল	-9.20624
ঁচে	-9.21323
িশ	-9.21588
▁আম	-9.21672
েরা	-9.22509
▁সদ	-9.22563
▁মের	-9.22612
▁ডেভিড	-9.22685
িং	-9.22725
▁বলেন	-9.22823
▁ধারনা	-9.22891
▁বাক	-9.22975
নে	-9.23085
▁রিস	-9.23162
▁নিজেরা	-9.23339
৩	-9.23343
▁যাকটেরিয়া	-9.23424
▁সমবেদনা	-9.2343
াক	-9.2345
▁গাছ	-9.23505
▁যাব	-9.23572
▁বলেছিলেন	-9.23654
সের	-9.23865
▁যেটি	-9.23873
▁বহু	-9.23997
▁শহরে	-9.24101
ঠিত	-9.24144
▁পিউটার	-9.24234
▁রাখে	-9.24445
▁ঞাস	-9.24505
▁দুইটা	-9.2459
▁শরীর	-9.24863
▁কিং	-9.25159
▁জটিল	-9.25252
▁পে	-9.25268
▁বত	-9.25329
▁উৎস	-9.25552
▁দেখার	-9.25821
লম	-9.25901
বাদ	-9.26126
▁এটার	-9.26129
▁নিয়ম	-9.26189
বিশ	-9.26319
▁পড়া	-9.26327
তালি	-9.26462
▁মেয়েদের	-9.26486
এর	-9.26598
▁টের	-9.26609
▁পের	-9.26735
থেকে	-9.268
▁উঠ	-9.27085
▁গেলে	-9.27123
নশীল	-9.2718
▁যেভাবে	-9.27409
▁আট	-9.27588
▁নিজ	-9.28054
ছি	-9.28179
▁নিচে	-9.28231
/	-9.28703
▁হাই	-9.28757
▁পথে	-9.28932
▁রাইফাস	-9.28939
▁পুরোপুরি	-9.28955
▁ওখানে	-9.28962
▁উৎসাহ	-9.2897
▁মেরী	-9.29086
▁শিখতে	-9.29174
টে	-9.29299
নুষ	-9.29468
▁রুপ	-9.29646
▁আসছে	-9.29863
▁রদান	-9.29901
▁মনোযোগ	-9.29922
▁সমান	-9.30104
▁যু	-9.30142
▁লি	-9.30217
▁পেয়েছি	-9.30255
▁বলব	-9.3032
লি	-9.30369
▁বাধ	-9.30417
▁মিল	-9.30568
▁বাকি	-9.30726
▁রিকান	-9.31033
▁রিত	-9.31044
▁সং	-9.31177
▁ভু	-9.31192
নার	-9.31215
▁তালি	-9.3142
▁বিবেচনা	-9.31516
▁রজাতি	-9.31654
বান	-9.3169
▁ফেল	-9.31697
▁শিখ	-9.32
▁ওহ	-9.32135
▁নত	-9.32174
▁রথমে	-9.32245
▁দৃ	-9.32291
▁ডাক	-9.32563
▁অসম	-9.32576
▁অল	-9.32942
▁বাধা	-9.32984
▁মী	-9.33195
ঁটে	-9.33429
▁ষতি	-9.33538
▁বিচার	-9.33543
টিতে	-9.33749
শিল	-9.34211
▁জগত	-9.34434
২	-9.34497
▁উপল	-9.34799
▁হব	-9.34804
▁দাঁড়িয়ে	-9.34904
▁ভেবে	-9.34905
▁৭	-9.34966
▁ভূত	-9.35038
েল	-9.35144
▁মিলিয়ন	-9.35203
▁কন	-9.35507
▁মানসিকতা	-9.35514
যে	-9.35674
▁রেড	-9.35827
▁পাশে	-9.36058
▁বানা	-9.36065
ভাগ	-9.36093
▁মারা	-9.36162
▁নেওয়া	-9.36353
▁বিষয়টি	-9.36366
বন	-9.36625
▁উ	-9.36838
হার	-9.37121
▁আসবে	-9.37327
ারের	-9.37353
▁মুখী	-9.37356
শন	-9.37425
কৃত	-9.3753
▁পায়	-9.37699
গত	-9.37752
▁ষত	-9.37806
▁জান	-9.38041
রি	-9.38084
▁আচরণ	-9.38326
▁রকৃত	-9.38395
▁ধিত	-9.3841
▁নম	-9.38429
▁আশ	-9.38548
▁ঞে	-9.38581
ধরণের	-9.38901
মধ	-9.39179
▁সংক	-9.39183
াদের	-9.39199
▁কাজটা	-9.39228
▁সেখান	-9.39268
▁দেই	-9.39302
▁বৈ	-9.39423
গিয়ে	-9.39587
▁মেক	-9.39621
শীল	-9.39705
েক	-9.39841
▁রমাণ	-9.39876
▁তাক	-9.4058
▁দুটো	-9.4066
▁বাজার	-9.4077
2	-9.40835
▁রামে	-9.409
▁দেওয	-9.40944
▁তৈরী	-9.41012
▁ভয	-9.41025
▁শহর	-9.41037
▁রাইমেট	-9.41043
▁উপাদান	-9.41044
▁রয়োগ	-9.41052
▁সামাজিক	-9.41053
▁মোকাবিলা	-9.41059
▁জৈব	-9.41213
▁খুশি	-9.41239
▁তিগত	-9.4132
▁রন	-9.41343
▁বিপ	-9.41556
▁তিতে	-9.4172
▁দেখেছে	-9.41792
▁পরমাণু	-9.41999
▁কাউকে	-9.42008
থ	-9.42034
িতে	-9.42159
▁বরূপ	-9.42203
▁ষতা	-9.42287
ধ	-9.42289
সা	-9.4229
।	-9.4243
▁রিয	-9.42712
▁গঠন	-9.42845
▁মীয়	-9.42881
▁বিয	-9.42963
▁আবি	-9.43034
▁গুন	-9.43354
▁জু	-9.43642
িই	-9.43671
▁নিল	-9.43847
▁পড়	-9.43927
▁ভয়	-9.43979
▁জল	-9.44005
দৃ	-9.44118
▁করিয়ে	-9.44151
▁ভারতে	-9.44159
▁পরিবেশ	-9.44306
▁এস	-9.44427
▁ঘুরে	-9.44679
▁নয	-9.44773
▁রবার	-9.45279
▁পাওয়ার	-9.45392
▁চোখে	-9.45494
▁সংগ	-9.4557
▁অনুস	-9.45616
▁অপর	-9.45766
▁সমাজ	-9.45768
পক	-9.45813
▁চক	-9.45923
মি	-9.46125
▁কৃত	-9.46156
মার	-9.46495
▁লেখ	-9.46562
▁মু	-9.46619
▁যেকোন	-9.46877
▁ইউ	-9.47419
▁TED	-9.47502
▁নদী	-9.47657
▁আঘাত	-9.47669
▁অধিকাংশ	-9.47705
▁মোটামুটি	-9.4771
▁জীব	-9.47738
▁মাইল	-9.47785
▁পরিচয়	-9.47803
▁রচার	-9.47968
▁ছেড়ে	-9.48061
▁পড়তে	-9.48333
▁ছয়	-9.48495
▁দিলাম	-9.48567
▁রচ	-9.48668
ভার	-9.48975
শক	-9.49003
▁হাস	-9.49007
▁রদায়	-9.49316
▁১০০	-9.49332
▁যদের	-9.49346
▁আকারে	-9.49367
▁পেরেছি	-9.49459
লা	-9.49517
▁নিত	-9.49596
▁পশ	-9.50172
৪	-9.50178
িয	-9.5024
রিত	-9.50333
▁বাদ	-9.50504
▁রাণ	-9.50537
▁যামেরা	-9.50695
▁ভাবি	-9.50871
▁বিচ	-9.50894
▁দীপ	-9.50902
▁গিয়েছিল	-9.51018
▁মানুষকে	-9.51254
পাশ	-9.52279
▁পৌঁছে	-9.52284
েমন	-9.52519
▁পাশ	-9.5254
▁অভাব	-9.52649
োদ	-9.52776
েছে	-9.52976
▁ধারন	-9.5317
▁রোগ	-9.53199
▁এলাকা	-9.53393
ানো	-9.53544
▁থের	-9.53867
▁বলেছি	-9.53968
▁দে	-9.54359
▁দেহে	-9.54464
▁নড়াচড়া	-9.54539
▁ময়কর	-9.54662
▁কাউট	-9.54669
▁উপহার	-9.54728
▁মেকা	-9.54744
▁&#93;	-9.5481
▁ফলাফল	-9.54811
▁খারাপ	-9.54815
▁অনুধাব	-9.54821
▁নাগরিক	-9.54822
▁জাতীয়	-9.54823
▁বামী	-9.54883
▁সহায়তা	-9.5495
▁ইংরেজি	-9.54978
▁রাথ	-9.55002
▁পসাম	-9.55014
▁শেষে	-9.55154
▁েছিল	-9.55167
▁খাওয়া	-9.55198
▁ঘৃণা	-9.55211
▁পক	-9.55257
▁দশ	-9.55329
▁বলছেন	-9.55448
▁একদিন	-9.55459
▁লড়াই	-9.55463
▁দেব	-9.55477
ীক	-9.55495
▁শিখেছি	-9.55609
▁সহজে	-9.55647
▁এগুলি	-9.55696
▁লাভ	-9.55775
▁পরের	-9.55781
াকে	-9.55795
▁৪০	-9.55805
▁হয়নি	-9.55858
▁সরকার	-9.55995
▁গের	-9.56026
▁কৃষ	-9.56034
জনক	-9.56134
▁ঞা	-9.56255
▁পিছনে	-9.5626
ারিদ	-9.56403
▁বাড়	-9.56517
রাপ	-9.56603
▁মাংস	-9.5689
▁নিরাপ	-9.56949
▁উঠে	-9.56971
▁পরিমাপ	-9.57078
▁ভাই	-9.57086
▁লাগ	-9.57108
▁বড	-9.57239
▁পদা	-9.57247
▁দেখেছি	-9.57337
▁সহ	-9.57505
বিদ	-9.57523
মূলক	-9.57598
▁নেয়	-9.5778
▁৫০	-9.57815
▁ঘটেছ	-9.57888
েছেন	-9.58085
রিক	-9.58387
▁নিচ	-9.58444
▁গর	-9.58492
▁সমাজে	-9.58606
▁এসেছি	-9.5865
মুখী	-9.58688
▁আবর	-9.58821
▁ইউটিউব	-9.58914
সে	-9.58964
লের	-9.59109
হিত	-9.59141
▁যালয়	-9.59248
▁টায়	-9.59402
▁ভিডিওটি	-9.59564
বেক	-9.59729
কেন	-9.59876
াব	-9.5995
▁পরব	-9.60088
▁৫	-9.60647
▁রঙ	-9.60758
রং	-9.60822
াউন	-9.60823
বিত	-9.60872
▁সান	-9.61213
▁সফল	-9.61242
▁থিতি	-9.61515
তির	-9.61548
▁চাল	-9.61601
রোল	-9.61675
▁দিয়েছি	-9.61954
▁রোগী	-9.61966
হত	-9.61974
▁টারনেটে	-9.62167
▁নৈতিক	-9.62177
▁হওয	-9.62248
▁সৌ	-9.62288
▁ঋণ	-9.62288
ংবা	-9.62314
পার	-9.62335
▁&#9	-9.62337
▁বাভাবিক	-9.62338
▁তুত	-9.6234
▁ভীষণ	-9.6234
▁যালেটস	-9.62341
▁রাজনৈতিক	-9.62344
▁যাইহোক	-9.62347
▁লেষণ	-9.62372
▁নেমে	-9.62373
▁গোপন	-9.62424
▁টেডি	-9.62448
▁একস	-9.62543
▁বিন	-9.62551
▁রবেশ	-9.62561
▁রেণী	-9.62575
▁চলছে	-9.62588
▁ছিলো	-9.62593
পর	-9.62598
▁দাবি	-9.62601
▁বেড়ে	-9.62699
▁তবু	-9.62716
▁ভোট	-9.62792
▁বলেছেন	-9.62838
রক	-9.62913
কা	-9.62938
▁সচেতনতা	-9.63191
▁ওঠে	-9.63195
▁রীতি	-9.63225
▁চিতভাবে	-9.63247
▁মোট	-9.63422
▁যাড	-9.63429
তনের	-9.6373
▁বিয়া	-9.63753
▁গণত	-9.63952
ভেল	-9.64068
▁সুবিধা	-9.64157
▁সেরা	-9.64669
▁রেক	-9.64718
▁অধ	-9.64778
▁ভবত	-9.64801
▁উৎপাদন	-9.64805
▁বিল	-9.64827
▁সফলতা	-9.65155
▁পাচার	-9.65431
▁বয়সে	-9.65516
▁ভুলে	-9.65608
▁আঁম	-9.6573
▁মাণ	-9.65788
ড়া	-9.66184
ীন	-9.6625
▁মেরু	-9.6628
▁রমণ	-9.66338
▁যাকে	-9.66567
▁মিনিট	-9.66833
▁এসেছিল	-9.66877
▁সংয	-9.66946
ালের	-9.67151
▁টেক	-9.67162
▁ফোন	-9.67471
ভি	-9.6773
▁টান	-9.67766
য়ের	-9.67805
▁অপরাধ	-9.67978
▁ভেতরে	-9.68119
▁দিত	-9.68316
▁শরীরে	-9.68325
▁মূলত	-9.68469
▁গণিত	-9.68757
ূক	-9.69156
চুর	-9.69174
▁দেখবে	-9.69245
ালী	-9.69384
▁পুরুষ	-9.69566
▁দশকে	-9.69728
রো	-9.69743
▁বয়স	-9.69878
▁ভেবেছিল	-9.69906
▁রমিক	-9.70228
▁রহী	-9.70276
▁বুঝ	-9.70647
▁নাথানিয়েল	-9.7067
▁আধুনিক	-9.70671
▁ডারউইন	-9.70673
▁চাপ	-9.70695
▁বসবাস	-9.70719
▁জানতাম	-9.70722
▁আলেক	-9.70725
▁একদম	-9.70725
▁গুহা	-9.70731
▁অনুম	-9.70734
▁গু	-9.70804
▁আশাবাদ	-9.70886
▁মকানুন	-9.70933
▁জাদু	-9.7106
▁রকৌশলে	-9.71066
▁বলছে	-9.71087
▁ভাঙ	-9.71257
▁আদর	-9.71293
ুর	-9.71306
▁সেটি	-9.71374
▁বিনিয়োগ	-9.71377
▁জানে	-9.71387
▁নীল	-9.71536
▁ভি	-9.71548
▁গি	-9.7173
▁জেনে	-9.71764
বি	-9.71788
▁দারুণ	-9.71931
▁সৈনিক	-9.7209
▁পাশা	-9.72174
▁জাতিক	-9.7225
▁যম	-9.72395
জার	-9.72481
ওয়াজ	-9.72892
দন	-9.73181
▁বয়সী	-9.73208
▁দরজা	-9.73258
▁কাহিনী	-9.73435
▁ভাবন	-9.73508
▁সুপার	-9.73583
▁আপনা	-9.73835
▁জজ	-9.73837
▁লা	-9.74012
▁লোকেরা	-9.74048
▁পাস	-9.74448
▁ঘটা	-9.74698
▁ঘরে	-9.74715
▁শন	-9.74722
রিদ	-9.74953
▁অংশে	-9.74974
▁পরম	-9.75115
োষ	-9.75386
দর	-9.75431
বদ	-9.75566
▁বাড়ির	-9.75806
▁সাল	-9.75831
▁চয়	-9.75949
▁আনা	-9.76041
ভূত	-9.7613
য়েন	-9.76141
▁তোলে	-9.76273
▁জেলে	-9.76352
▁.	-9.76363
আর	-9.76628
▁পুনর	-9.7663
▁টু	-9.76714
▁পাঠ	-9.76911
▁যুত	-9.77349
▁সাইকেল	-9.7744
▁থতা	-9.77493
▁দেয়ালে	-9.77586
▁থানে	-9.77634
▁হই	-9.77641
▁পরিবারে	-9.77693
▁৬	-9.7828
▁তাহ	-9.7839
▁তাকা	-9.78636
▁ওনার	-9.78814
▁থাকলে	-9.78827
রিয়ে	-9.78892
▁২৫	-9.79011
▁কয	-9.79084
▁আবেগ	-9.79134
▁লোকের	-9.7921
▁জিন	-9.79229
▁সের	-9.79234
▁আমেরিকান	-9.79347
▁তাহে	-9.79521
▁খুঁজ	-9.79522
টুকু	-9.79682
▁কো	-9.79717
▁কাছাকাছি	-9.79761
▁রিগেডস	-9.79761
▁চামড়া	-9.79761
▁ডিজিটাল	-9.79761
▁ঐতিহ	-9.79762
ানিক	-9.79795
▁&#	-9.79798
▁মাইকেল	-9.79799
▁লাখ	-9.79864
▁রাসবাদ	-9.79882
▁ভাষায়	-9.79887
▁গেছি	-9.79893
▁সাত	-9.79927
▁ডল	-9.79928
োমুখ	-9.79935
▁মনো	-9.80079
▁থন	-9.80083
োগ	-9.80125
পেক	-9.80159
▁দেশগুলি	-9.80176
▁বিখ	-9.80246
▁গড	-9.80318
▁ভিতর	-9.80394
ণের	-9.80412
▁ধা	-9.80515
▁রু	-9.80636
শেষে	-9.80698
▁আছি	-9.80752
▁ঞ	-9.80793
▁গড়	-9.809
▁গেলাম	-9.81025
▁যজনক	-9.81065
▁চমক	-9.81222
▁তুর	-9.81258
িচ	-9.81442
▁হা	-9.81605
▁অনুপ	-9.81894
▁চুল	-9.81927
▁পাহাড়	-9.81975
▁ষিণ	-9.82167
▁দশকের	-9.82184
▁একা	-9.82212
▁জীববিদ	-9.8258
▁মি	-9.82618
▁সেক	-9.82628
▁তাকান	-9.82697
▁৯০	-9.8271
▁জিনিসটা	-9.82741
▁চলেছে	-9.82822
▁সীমানা	-9.83038
▁হয়েছি	-9.83082
▁বদল	-9.83238
▁হবেন	-9.83424
▁ণনা	-9.83497
▁যাপক	-9.83515
▁পানিগুলো	-9.83864
▁েছে	-9.83887
কাল	-9.8393
▁ভালবাসা	-9.84021
াও	-9.84217
ভাবনা	-9.84489
▁ঘুর	-9.84538
▁থাপনা	-9.84806
▁রপ	-9.85023
▁ঞানে	-9.85033
▁তরুণ	-9.85109
▁অভি	-9.85255
▁যাসী	-9.85362
সোল	-9.85455
▁বলবে	-9.85556
কম	-9.85687
▁ঠা	-9.85723
াবেন	-9.85761
িল	-9.8577
ড়ে	-9.8581
▁আহ	-9.86044
তন	-9.86143
▁মুখে	-9.86471
▁মিশ	-9.87072
▁চাইছি	-9.87086
▁ফল	-9.87146
▁দেখেন	-9.87217
বোধ	-9.87234
▁অনুসর	-9.87411
▁সীমা	-9.87748
▁দেশগুলো	-9.87772
ষুধ	-9.87826
তায়	-9.87942
▁ইস	-9.87952
গান	-9.88029
▁মানসিক	-9.88579
▁কোথায	-9.88658
৯	-9.88662
▁ওগুলো	-9.88763
▁গা	-9.88806
▁পাথর	-9.89002
▁নাইজেরিয়া	-9.89164
▁দশক	-9.89519
▁দুনিয	-9.89651
▁তৃতীয়	-9.89745
▁অজ	-9.89754
▁উশাহিদি	-9.89761
▁ইঁদুর	-9.89761
▁ডিজাইন	-9.89762
▁হঠাৎ	-9.89762
▁অহংকার	-9.89764
▁অসীম	-9.89764
▁নকশা	-9.89765
▁সংগীত	-9.89774
▁রলেপ	-9.89775
▁সুযোগসুবিধা	-9.89779
▁মেঘ	-9.8978
▁রমাগত	-9.8978
▁কুকুর	-9.89784
▁১৫	-9.8979
▁পারতাম	-9.89885
▁ভেঙ	-9.89903
▁শেখানো	-9.89968
তীতে	-9.90012
▁গরম	-9.90026
▁আধ	-9.9003
▁দিয়েছিল	-9.90063
▁জিনি	-9.90085
▁হৃদ	-9.90194
▁অপে	-9.902
▁সাড়া	-9.90233
▁দেখব	-9.90248
▁উষ	-9.90288
▁থবিদ	-9.90304
▁তুল	-9.90315
▁ভাবছেন	-9.90478
▁কারো	-9.90569
▁লিট	-9.9067
▁নীচে	-9.90685
▁চলা	-9.90805
▁গার	-9.90892
আই	-9.90933
▁ভালোভাবে	-9.90949
▁যবহ	-9.90976
▁চিম	-9.90997
▁বলেছিল	-9.91016
াদ	-9.91076
▁ওপরে	-9.91085
বল	-9.91095
▁কালো	-9.91179
▁চাও	-9.9119
▁অগ	-9.91218
াধিক	-9.91269
▁ইহুদি	-9.91316
িশাল	-9.91329
▁আরেক	-9.91479
জি	-9.91535
▁লুক	-9.91571
▁রাখাল	-9.91673
▁আপ	-9.9192
▁মূ	-9.92077
▁জা	-9.92227
▁১৯৬	-9.92298
▁দাম	-9.92377
▁বাজা	-9.92502
▁ইহা	-9.9257
▁লাঠি	-9.92581
▁ভাষা	-9.9277
▁চিকিৎসা	-9.92883
▁পারছি	-9.92933
▁ছেলেটি	-9.92966
▁শূন	-9.93047
▁বেতন	-9.93172
সময়	-9.93584
▁বিপরীত	-9.93659
রুজ	-9.93734
▁যেক	-9.9374
▁এইভাবে	-9.93742
▁সবগুলো	-9.93816
▁আরেকট	-9.93919
▁এন	-9.93997
ওয়ার	-9.94152
▁দো	-9.94277
▁দেখায়	-9.94348
▁কোনভাবে	-9.9435
▁ফি	-9.94517
▁চারপাশে	-9.94568
▁কষ	-9.94568
▁নবী	-9.94595
▁মিনিটে	-9.94622
▁গান	-9.94825
▁নিয়	-9.94828
▁মো	-9.94952
▁সবকিছুর	-9.95123
▁থলে	-9.95175
▁মদ	-9.95219
িয়ান	-9.95747
▁সুস	-9.95769
াইড	-9.9583
▁করেনি	-9.95928
▁যবসায়	-9.95974
▁শুনত	-9.96256
▁মতে	-9.96332
▁লোকে	-9.9642
▁যর	-9.96524
▁বৃহ	-9.96534
দলের	-9.96677
▁রমে	-9.96741
▁োগ	-9.96755
▁বাহ	-9.96772
▁কাঠামো	-9.96824
▁৪	-9.96884
াষ	-9.96942
কের	-9.97114
▁রাহ	-9.97293
▁রোতা	-9.97295
ঘ	-9.97317
▁মিলিয়	-9.97474
▁ছিন	-9.97647
▁রোমা	-9.97653
নোর	-9.98187
▁ইউরোপ	-9.98256
▁দেখলে	-9.98486
▁গিত	-9.98536
▁রবাহ	-9.9879
▁শুনে	-9.98871
▁আব	-9.98884
বীক	-9.99051
ারী	-9.99112
সন	-9.99242
▁হাতি	-9.99283
▁কু	-9.99718
▁সুর	-9.99728
▁কুলগুলো	-9.99755
▁কাটা	-10.0004
▁এম	-10.0022
▁তাব	-10.0052
▁রাকৃতিক	-10.0072
▁তাড়াতাড়ি	-10.0087
▁রোমেগালি	-10.0087
▁অপচয়	-10.0087
▁শীতল	-10.0088
▁অনুকরণ	-10.0088
▁দুঃখ	-10.0088
িকার	-10.0088
▁গিয	-10.0088
▁টোটল	-10.0089
▁শাখা	-10.009
▁বিষয	-10.009
▁রশংস	-10.0095
▁সোজা	-10.0095
▁পাঠানো	-10.01
▁জিনিষ	-10.0108
▁তবতা	-10.0115
▁লাগানো	-10.0122
▁জানিনা	-10.0122
▁পেয়েছিলাম	-10.0126
▁রথমবার	-10.0128
▁করাতে	-10.0132
▁অনলাইনে	-10.0144
▁মকান	-10.0152
▁ধারণাটা	-10.016
খানি	-10.0165
▁উজ	-10.0168
ভল	-10.0173
▁আয়তনের	-10.018
▁যাদি	-10.0199
▁পারিনি	-10.021
▁গবেষক	-10.0212
▁জিত	-10.0213
ধন	-10.0223
▁ষকেরা	-10.0237
▁জমা	-10.0244
▁আবেদন	-10.0274
▁বায়ুম	-10.0276
▁তারপরে	-10.0306
▁গনত	-10.0316
▁পতন	-10.0316
▁খু	-10.0324
করণ	-10.0325
বছর	-10.0327
▁ভাবা	-10.0339
▁সংগঠন	-10.0361
▁শাস	-10.0367
▁গন	-10.041
▁পেয়েছে	-10.0417
▁আরেকটা	-10.0427
▁গুণ	-10.0428
দান	-10.0431
▁দা	-10.0449
▁বাজারে	-10.0454
ুখী	-10.0467
লু	-10.0468
ণা	-10.0477
▁৩	-10.0487
▁করানো	-10.0504
ারে	-10.0504
▁পরিবেশে	-10.0512
বজায়	-10.0516
▁এটাও	-10.0518
েলাম	-10.0528
▁আয	-10.0531
গোত	-10.0532
সাধারন	-10.0536
কেই	-10.0537
▁রূপা	-10.0551
যোজ	-10.0564
গণ	-10.058
▁যুগে	-10.0581
িও	-10.0587
▁োজন	-10.0593
▁বিভাগে	-10.0599
▁লব	-10.0604
▁মকা	-10.0607
▁জার	-10.0612
▁ঘর	-10.0631
▁জড়	-10.0655
েট	-10.0675
▁হি	-10.0678
চে	-10.0679
▁দেয়াল	-10.0683
▁পেয়ে	-10.0689
▁যালয়ে	-10.0709
৭	-10.071
▁বাল	-10.0751
▁মহাদেশ	-10.0751
▁১১	-10.0761
▁শতা	-10.0764
টো	-10.0781
▁লাগা	-10.0797
▁ধরা	-10.0811
য়ো	-10.0823
▁হন	-10.0854
▁বোঝ	-10.0856
▁দেখছে	-10.0859
▁লাসে	-10.0877
▁ভালবাস	-10.088
▁৭০	-10.0881
▁নৈতিকতা	-10.0891
ুপ	-10.09
▁বালক	-10.0903
▁লিখ	-10.0907
াফল	-10.0937
▁নেয়া	-10.0951
▁শিশুর	-10.0956
টাতে	-10.0964
▁ঘোষ	-10.0973
▁পারত	-10.0986
োচ	-10.0995
▁গবেষণার	-10.1014
▁সকলে	-10.102
▁উঠেছ	-10.1031
▁রপাত	-10.1037
▁শে	-10.1039
i	-10.1041
▁এখান	-10.1052
নটা	-10.1052
▁রং	-10.1061
▁বংস	-10.1081
▁অধিক	-10.1084
▁সাজা	-10.11
▁বাধীন	-10.1121
▁একক	-10.1121
▁লাইড	-10.1129
সুন	-10.1135
▁৪০০	-10.1135
▁হিসাব	-10.1145
োড়া	-10.1151
দল	-10.1166
▁রেস	-10.1176
▁এলো	-10.1223
মূল	-10.1237
▁আয়তন	-10.1241
বিস	-10.1255
▁রূপ	-10.1263
কাঠি	-10.1271
▁দাঁড	-10.1326
▁বিতীয	-10.1327
▁অবৈধ	-10.1337
▁চাহিদা	-10.1337
▁রতিনিয়ত	-10.1337
▁লেনদেন	-10.1337
▁মাঝখানে	-10.1337
▁রতিযোগিতা	-10.1338
▁বরাবর	-10.1338
▁মিডিয়া	-10.1339
▁চূড়া	-10.1339
▁মৌলিক	-10.134
▁আরেকজন	-10.1342
▁যাবহার	-10.1343
▁থির	-10.1343
▁জরুর	-10.1343
▁রাচীন	-10.1343
▁নজর	-10.1347
▁নতা	-10.1348
▁জায	-10.1354
▁লোকজন	-10.1355
▁চেয	-10.136
▁অংক	-10.1365
▁ওয়াং	-10.1367
▁অক	-10.137
▁মেয	-10.1372
মেডিক	-10.1373
াবে	-10.1374
িলেন	-10.1375
▁রেফ	-10.1378
▁বাজে	-10.1382
তু	-10.1388
▁গুলি	-10.1389
▁নড়াচড়াকে	-10.1391
▁চিমা	-10.1393
▁নিকট	-10.1396
▁বলবো	-10.1399
▁আপাত	-10.1403
▁থাকতো	-10.1408
▁অতিক	-10.1408
মের	-10.141
▁হিগ	-10.1411
▁বাড	-10.1411
পরিনত	-10.1419
লাইট	-10.1423
▁টেলি	-10.1435
▁নানা	-10.144
▁পরিশ	-10.1452
▁তুলতে	-10.1472
জুড	-10.1472
▁বোঝানো	-10.1477
দি	-10.1488
▁রাক	-10.1488
▁যটন	-10.1497
▁তম	-10.15
▁দেখানো	-10.151
▁৮০	-10.1517
▁ফার	-10.1521
▁অভিভাবক	-10.1526
চল	-10.1526
▁নেশা	-10.1534
লেট	-10.1535
▁বহন	-10.1541
▁ফুট	-10.1556
▁থিতির	-10.1571
▁তবিক	-10.1573
োল	-10.1585
▁ঞাপন	-10.1604
▁বতন	-10.1625
▁১২	-10.1631
▁ধেক	-10.1642
তিক	-10.1656
▁লেগে	-10.1681
▁চলতে	-10.1683
ময়	-10.1691
▁যারি	-10.1692
▁রাখত	-10.1703
ীত	-10.1703
▁অবি	-10.1731
▁আগুন	-10.1738
▁ভেতর	-10.1742
ায	-10.1747
▁ইত	-10.1754
▁৮	-10.1761
▁রজাতির	-10.1762
▁মাপ	-10.1781
▁যাংক	-10.1781
▁মানুষগুলো	-10.1783
▁পৌঁছ	-10.1784
▁বিধি	-10.1808
▁পিত	-10.1818
পোস	-10.1823
এই	-10.1828
িলাম	-10.1828
▁কেনিয়া	-10.1829
▁আকা	-10.1837
▁পী	-10.1858
এম	-10.1864
▁শী	-10.192
▁জানত	-10.1926
িটিশ	-10.1928
▁১৬	-10.1936
ূত	-10.1937
▁পাত	-10.194
l	-10.1946
াস	-10.1964
▁গোর	-10.1969
▁যুর	-10.1983
▁বিপর	-10.1987
▁পত	-10.1999
▁চালা	-10.2014
হে	-10.2015
ংশ	-10.204
T	-10.2044
লস	-10.2056
al	-10.2065
▁জনা	-10.211
▁হও	-10.2112
রিস	-10.2131
▁ছুঁড়ে	-10.2132
▁পৌছা	-10.2145
ঘন	-10.2152
বহ	-10.2156
াওয়া	-10.2157
জে	-10.2169
▁অনুভূতি	-10.2175
▁চেয়েছিল	-10.2184
▁এতটা	-10.2186
▁মেয়েটা	-10.2186
▁জীববি	-10.2197
াজ	-10.2239
তাদের	-10.2248
▁দয়া	-10.2249
▁ভারত	-10.2259
▁দাঁড়া	-10.2281
▁রোধ	-10.2287
▁লিন	-10.2294
▁পুনরু	-10.2321
থায়	-10.2324
▁রুমে	-10.2329
▁বুঝি	-10.2347
ঁ	-10.2351
কিয়ে	-10.2354
▁গণ	-10.2403
▁নাড়	-10.2431
▁সেটাকে	-10.2438
▁যাটার	-10.2466
▁ডন	-10.2467
ভাল	-10.2467
▁বুঝে	-10.2493
▁মহা	-10.25
▁দোকানে	-10.2522
রভাগ	-10.2531
▁রাফ	-10.2536
▁১৩	-10.2555
মেয়েরা	-10.2569
▁অবা	-10.2573
▁বায়ু	-10.2586
ারা	-10.2595
ৌক	-10.2604
যোগী	-10.2604
▁এজ	-10.2607
▁উঠত	-10.2618
ছাড়া	-10.2625
েলিং	-10.2628
▁সাহস	-10.2632
▁হাল	-10.2632
▁বীক	-10.2661
ানস	-10.2662
▁সচেতন	-10.2664
িস	-10.2689
নঃ	-10.2698
▁পানী	-10.2703
▁রজ	-10.2718
েকট	-10.2723
পন	-10.2731
t	-10.2742
▁রথা	-10.2747
▁যকে	-10.2747
▁খাল	-10.2751
▁সফটওয	-10.2752
▁গৃহ	-10.2764
▁ডিএনএ	-10.2766
▁শেফেলাহ	-10.2766
▁গুহামাছ	-10.2766
▁কমিউনিটি	-10.2766
▁কৌতুক	-10.2766
▁যথাযথ	-10.2766
▁ভয়াবহ	-10.2766
▁এভরি	-10.2766
▁ভারসাম	-10.2766
▁পাগলামি	-10.2767
▁যালকুলাস	-10.2767
▁গুগল	-10.2767
▁যৌথ	-10.2767
▁রসায়ন	-10.277
▁ইতিবাচক	-10.277
▁ভেট	-10.2771
▁ঝুঁকি	-10.2771
▁আটক	-10.2772
▁শিখবে	-10.2774
▁থেমে	-10.2775
ইন	-10.2776
▁ভালোবাসি	-10.2777
▁ইসলাম	-10.278
সুবিধা	-10.2784
▁পরিবেশগত	-10.2785
▁ভারী	-10.279
▁খোঁজে	-10.2791
▁যুবক	-10.2796
▁তিনজন	-10.2796
▁গুলতি	-10.2799
▁চুরি	-10.2804
▁মাদক	-10.2806
▁পুরাণ	-10.2814
▁দূষণ	-10.2814
▁দৌড়	-10.2817
য়া	-10.2818
▁ইউনি	-10.2818
▁চরম	-10.2819
▁বযুদ	-10.2821
▁রোটন	-10.2823
▁৯	-10.2827
▁থিতিতে	-10.2828
▁শো	-10.2829
দেশ	-10.2834
▁দাঁড়ায়	-10.2843
▁ঝল	-10.2844
▁থিতিশীল	-10.2846
▁চালিয়ে	-10.2846
▁অনুযায	-10.2847
▁মানুষজন	-10.285
▁যায়ে	-10.2858
▁গভীর	-10.2863
▁মেলা	-10.287
▁ঞায়	-10.2871
চার	-10.2871
▁গায়ে	-10.2872
▁যটা	-10.2874
▁পান	-10.2878
মুদ	-10.2887
▁লড়	-10.2888
▁নাই	-10.29
▁ফেলতে	-10.2906
▁তিকর	-10.2907
▁দুষ	-10.2919
সহ	-10.2924
▁বৃ	-10.2941
ড়াতে	-10.2944
▁নিম	-10.2951
রাই	-10.2958
▁জলের	-10.297
মর	-10.2976
▁বোকা	-10.2981
▁রমন	-10.2982
▁লিয়াস	-10.2982
▁নো	-10.2983
পাত	-10.2993
▁একশ	-10.3006
▁খেলা	-10.3011
রেও	-10.3015
▁জামা	-10.3015
▁ঘটল	-10.3041
▁মাতা	-10.3042
▁টো	-10.3046
য়ান	-10.3063
▁ঘুম	-10.3071
▁যরা	-10.3088
▁বানিয়েছে	-10.309
▁উৎপ	-10.3094
▁মাথার	-10.3099
▁ঘটনাটি	-10.3108
▁ছেলেটা	-10.3112
সমূহ	-10.3112
▁যটি	-10.313
▁গোলা	-10.3137
▁মাসে	-10.3141
▁লাহ	-10.3142
▁ঞানীদের	-10.3142
▁৬০	-10.3145
▁বিষয়গুলো	-10.316
▁ষকের	-10.3166
▁রুপে	-10.3171
▁টিকের	-10.3172
▁ানক	-10.3181
▁বায়ন	-10.3196
▁অধিকার	-10.3196
▁ষিন	-10.3201
▁কোরআনে	-10.3204
▁মোটর	-10.3208
▁মোচ	-10.3208
টিং	-10.3217
▁কণা	-10.3234
▁রহে	-10.3237
ডাই	-10.3237
৮৬	-10.3238
সি	-10.3249
▁নন	-10.3266
েলের	-10.3272
▁রাচ	-10.3274
▁পালন	-10.3282
▁করছ	-10.3284
াখ	-10.3293
▁পরিচ	-10.3308
▁নক	-10.3311
য়ার	-10.3311
▁থাকল	-10.332
▁পেরে	-10.3337
াঁরা	-10.334
▁শতক	-10.3346
▁বেল	-10.336
রকারী	-10.3364
▁অসু	-10.3368
▁গেট	-10.3377
তিমধ	-10.3384
▁পেল	-10.3419
▁সভ	-10.3434
উ	-10.3443
▁দেয়ার	-10.3455
লেও	-10.3456
জেন	-10.3468
▁নিউরনগুলো	-10.348
▁টিন	-10.349
রিপ	-10.351
▁খেল	-10.3518
েছিল	-10.3523
গে	-10.3537
▁বির	-10.3551
▁ইয়া	-10.3552
▁ওঠা	-10.3557
োট	-10.3578
▁বদা	-10.3601
লিক	-10.3631
তঃ	-10.3634
রেজে	-10.3669
বাসী	-10.3698
▁মহাদেশে	-10.3701
▁নাচ	-10.3706
▁তাহার	-10.3714
▁ভাববে	-10.3721
কটা	-10.3728
ঁরা	-10.3735
রবর	-10.3738
▁ইসরাইল	-10.3745
েছিলেন	-10.3753
▁হাসব	-10.3781
▁পাব	-10.3786
ভোগ	-10.3816
▁পরিমাণে	-10.382
েস	-10.3823
কালে	-10.3825
▁ভার	-10.3826
▁বিত	-10.3832
▁লাসরুমে	-10.3843
▁নিষ	-10.3851
আমি	-10.3865
▁কলা	-10.3882
▁ভাবত	-10.3917
▁ঝ	-10.3924
▁বিদেশ	-10.3924
কো	-10.3933
▁তৃত	-10.3937
▁আমা	-10.3939
▁চীন	-10.3952
রূপ	-10.396
▁পারছে	-10.3962
রকে	-10.3971
▁তের	-10.3998
ণতা	-10.4004
▁কাঠ	-10.4012
▁জে	-10.4013
িএইচ	-10.4014
তই	-10.4018
▁ার	-10.4029
থিত	-10.403
▁মিত	-10.4043
▁বিজয়	-10.4044
কিন	-10.4048
▁রব	-10.4057
▁মতন	-10.406
▁ধাক	-10.4071
ওয়া	-10.4086
লভ	-10.4092
▁পুরান	-10.411
▁কৌশল	-10.4118
▁যাটি	-10.4126
১১	-10.4136
ডগ	-10.4142
▁মাছ	-10.4148
▁জী	-10.416
▁ইতালি	-10.4163
▁অসাধার	-10.4173
▁কমে	-10.4182
▁জোড়	-10.4209
▁রাণীর	-10.4217
▁নাগা	-10.4236
▁;	-10.4248
নাক	-10.4264
▁বিষ	-10.427
▁পড়েন	-10.4289
▁কাজগুলো	-10.4296
▁জড়ি	-10.4298
ানের	-10.4314
ুল	-10.4322
রিয়ার	-10.4327
▁বেহালা	-10.4336
▁দেখাব	-10.4338
▁রকৌশল	-10.4342
▁রতিফলি	-10.4355
নীতি	-10.4365
▁১৯৯	-10.4376
▁উচি	-10.4384
়ী	-10.4388
▁বিধ	-10.4389
তুর	-10.4391
▁কেস	-10.4396
ংঘাত	-10.4408
জিত	-10.4414
▁সবসময	-10.4425
▁কৌতুহল	-10.4432
▁বাঁধা	-10.4432
▁মিসিসিপি	-10.4432
▁মুসলিম	-10.4432
▁ফেসবুক	-10.4432
▁হোয়াইট	-10.4432
▁এনজাইম	-10.4432
▁কৌতূহল	-10.4432
▁এমোনিয়া	-10.4433
▁কিলোমিটার	-10.4433
▁লাউড	-10.4433
▁হতাশা	-10.4433
▁চিঠি	-10.4433
▁ফোটন	-10.4433
▁ছোঁড়া	-10.4433
▁বোঝাপড়া	-10.4433
▁পেশাগত	-10.4436
▁রেলিয়া	-10.4436
▁রেডিও	-10.4437
▁অভিনব	-10.4437
▁ফিরিয়ে	-10.4438
▁শুনেছিলেন	-10.444
▁মচারী	-10.4441
▁বিশৃ	-10.4443
▁ইংরেজী	-10.4447
▁রতীক	-10.4447
▁বিমূ	-10.4447
▁নজরদারি	-10.4451
▁ঘাট	-10.4454
▁রুতগতি	-10.4457
▁দোলন	-10.446
▁অফ	-10.4461
▁যপারটা	-10.4466
▁জীবিত	-10.4468
▁ভালবাসি	-10.4476
▁১৮	-10.4483
▁যবহারকারী	-10.4484
▁সৃজনশীলতা	-10.4484
▁টিকে	-10.449
▁কয়েকশ	-10.4493
▁জেইন	-10.4494
▁বেড	-10.4497
▁কেনা	-10.4501
হের	-10.4506
▁ভূ	-10.4514
▁আটকা	-10.4514
▁বানানো	-10.4518
▁একারণে	-10.4519
▁টাইনি	-10.452
▁অফিসারের	-10.4527
কুলাস	-10.4528
▁পৃথক	-10.4531
▁ডাকি	-10.4533
োষণ	-10.454
ষায়	-10.4541
▁চায	-10.4543
▁ছেড	-10.4544
▁দান	-10.4549
▁টেনে	-10.455
▁অতিপ	-10.4558
▁শিকার	-10.456
▁রকমে	-10.4569
▁মরণ	-10.4577
▁মাথারে	-10.4584
ধান	-10.4609
▁দানবের	-10.461
▁সেবা	-10.461
▁ষণে	-10.461
▁গীয়	-10.4613
াদী	-10.4614
ায়ী	-10.4618
কী	-10.4623
াদেরকে	-10.4629
▁চাইছে	-10.463
▁পাঠা	-10.4631
▁ভা	-10.4632
সংস	-10.4646
▁কঠ	-10.4652
▁টন	-10.4652
মাণ	-10.4652
▁রবণ	-10.4657
▁করাটা	-10.4668
▁যাটা	-10.467
▁পাখিদের	-10.4672
▁পদাতিক	-10.4675
▁বয়ে	-10.4679
▁বিতর	-10.4679
ড়ানো	-10.4687
▁বিপদ	-10.4696
▁আরবী	-10.4696
▁কেল	-10.47
ধর	-10.4717
▁যোগান	-10.4723
▁দোকান	-10.4728
▁মিস	-10.4732
▁মিলিত	-10.4734
▁গঠ	-10.4735
▁সকালে	-10.4739
▁সৌর	-10.4745
▁গেছিলাম	-10.476
▁ফটো	-10.4764
▁রাসেল	-10.4765
বুদ	-10.4765
▁বলত	-10.4766
রী	-10.4768
▁দুনিয়াটা	-10.4769
▁রেখেছে	-10.4776
▁লান	-10.4776
▁এল	-10.4791
দুর	-10.4825
▁জানো	-10.484
▁সংশ	-10.4844
সংর	-10.4847
আমেরিকান	-10.4866
▁চির	-10.487
▁জিনিসগুলো	-10.4875
▁সরল	-10.4876
লন	-10.4876
ধি	-10.4878
▁ঘোরা	-10.4889
▁চাকা	-10.4892
বুজ	-10.4897
▁মহিলার	-10.4916
রায়	-10.4952
▁অনুবাদ	-10.4965
▁টানে	-10.4968
▁রোস	-10.4971
▁মহান	-10.4974
কোন	-10.4974
▁পড়ব	-10.498
▁ঢাল	-10.4985
▁দায	-10.4986
▁যাপারটি	-10.499
▁অনেকে	-10.5027
ুত	-10.5027
▁ডায়	-10.5051
গু	-10.5052
কুল	-10.506
ুটি	-10.5078
েয়াল	-10.5083
▁আঁকা	-10.5089
সকল	-10.5094
▁বেচ	-10.5108
▁ভালুকটা	-10.5129
রূপে	-10.5138
▁রচল	-10.5143
উন	-10.5158
▁পতিত	-10.5159
৭০	-10.5161
▁লো	-10.5161
▁ডিউ	-10.5163
▁নামক	-10.5172
▁শিখেছ	-10.5184
▁বাণী	-10.5194
▁চীনে	-10.5197
▁ষপাত	-10.5205
▁গিয়েছি	-10.5209
▁মাদ	-10.5217
তারা	-10.5235
৫০০	-10.5245
রোধ	-10.5248
রুন	-10.5258
ীতে	-10.5261
মে	-10.5262
▁পায়ে	-10.527
▁ষু	-10.527
▁রাল	-10.5276
▁সংর	-10.5297
▁সাং	-10.53
▁বব	-10.5317
▁ভাগের	-10.5317
বাস	-10.532
▁ততটা	-10.5337
লোগ	-10.5341
▁সংযো	-10.5343
▁যপ	-10.5345
▁হারে	-10.5363
▁বীর	-10.5382
▁সুখ	-10.5397
▁সুনি	-10.5411
▁বাঁচ	-10.5434
▁হাতটা	-10.5444
▁করেছ	-10.546
করা	-10.5466
▁রবাহি	-10.5486
▁রতা	-10.549
▁ষন	-10.5497
▁কলেজ	-10.5516
▁রমান	-10.5516
পাশে	-10.5521
▁কৃতিত	-10.5522
▁ষিক	-10.5525
খানা	-10.5531
েনড	-10.5536
পি	-10.554
▁রোজ	-10.555
▁রিম	-10.5552
▁রেষ	-10.5562
▁ধীর	-10.5571
সোর	-10.5579
▁লেজ	-10.558
▁দুজন	-10.5585
▁খেত	-10.5599
▁১৯০	-10.5625
এস	-10.5628
▁নয়ন	-10.5637
▁হারিয	-10.5648
াধান	-10.5655
ফল	-10.5658
কূল	-10.5663
▁দেখাবে	-10.5665
▁খোদ	-10.5667
১	-10.5694
বাক	-10.5699
▁ইতিহাসে	-10.5708
▁জেল	-10.5712
১২	-10.5714
▁যকর	-10.5716
▁লাগল	-10.5723
▁থানীয	-10.5731
▁চারণ	-10.5731
বী	-10.5737
ড়	-10.5754
▁মতই	-10.5754
▁কাঁচ	-10.5786
▁বাসী	-10.5788
▁এনেছি	-10.5793
▁শি	-10.5794
োফ	-10.5827
ওয়াল	-10.5835
ফার	-10.5836
▁মানবতা	-10.5852
রত	-10.5859
টিক	-10.5863
▁এমনটা	-10.5869
▁যপার	-10.5878
তৃত	-10.59
ইনি	-10.5908
▁পেত	-10.5924
▁থিক	-10.5932
▁বইয়ে	-10.5936
▁রিয়তা	-10.5949
▁কোল	-10.5961
▁ধাপ	-10.5969
কটি	-10.5975
▁ফা	-10.5976
▁বিলি	-10.5978
কণার	-10.6012
▁লেখক	-10.6015
পশ	-10.6024
▁তুতি	-10.6047
▁লগ	-10.605
েতে	-10.6064
▁মতা	-10.6112
▁রথমত	-10.6119
▁দানব	-10.612
িকভাবে	-10.6122
▁খল	-10.6124
▁রেখেছিল	-10.6137
▁ওর	-10.6141
▁রিট	-10.6142
মেগ	-10.6142
▁ফেলা	-10.6143
▁বী	-10.6169
শিম	-10.6192
▁ভালবাসত	-10.6203
▁হিসেব	-10.6219
▁থনা	-10.622
▁রাসী	-10.6238
▁পিক	-10.6241
▁ষী	-10.6244
েছি	-10.6248
▁গাড	-10.627
▁নিয়েছি	-10.627
কেটে	-10.6282
থে	-10.6284
তুল	-10.6289
▁যেমনট	-10.6292
▁হেরফের	-10.63
▁দলে	-10.6301
▁সাফা	-10.6309
▁বাঁচা	-10.6318
▁লাই	-10.6337
▁ডারে	-10.6343
▁সহক	-10.6349
▁ঠানগুলো	-10.6351
মাধ	-10.6364
▁সৃজনশীল	-10.637
▁মুল	-10.6377
▁রীর	-10.6378
▁রাত	-10.6379
করে	-10.6388
ুইড	-10.6388
▁নিয়েছিল	-10.6407
▁আসত	-10.6421
▁তৃতীয	-10.6423
পাতা	-10.6432
▁পরশুরাম	-10.6432
▁মিউটেশন	-10.6432
▁নাইরোবি	-10.6432
▁সহযোগিতা	-10.6432
▁ওয়েবসাইট	-10.6432
▁ভয়ংকর	-10.6432
▁যীশু	-10.6433
▁যালঘু	-10.6433
দৌ	-10.6433
▁কাগজ	-10.6433
▁যকলাপ	-10.6433
▁১৪০	-10.6433
▁সহিংসতা	-10.6434
▁চেতনা	-10.6434
▁উঁচু	-10.6434
▁বাহিরে	-10.6434
▁সৈন	-10.6434
▁ছাগল	-10.6435
▁রাজনীতি	-10.6435
▁রিলিয়ন	-10.6435
▁৩২	-10.6435
▁সহানুভূতি	-10.6435
▁শীতকাল	-10.6435
▁রোবট	-10.6435
▁নৌকা	-10.6435
▁জীবনযাপন	-10.6435
▁রাশিয়া	-10.6436
▁সমালোচনা	-10.6436
▁দুনীতি	-10.6436
▁১৫০	-10.6437
▁ইতিহাসবিদ	-10.6438
▁যাওয	-10.6438
▁সংবাদ	-10.6439
▁পালোয়ান	-10.6439
▁সিংহ	-10.6439
▁দখল	-10.644
▁সমভূমি	-10.644
▁তলদেশে	-10.644
▁থপতি	-10.6444
▁রুচি	-10.6444
▁ছাড়িয়ে	-10.6445
▁রানী	-10.6447
▁মাইক	-10.645
▁রাখুন	-10.645
▁পুরোনো	-10.645
▁এশিয়া	-10.6451
▁আগামী	-10.6452
▁তাধারা	-10.6452
▁নেতা	-10.6452
▁কতজন	-10.6453
▁সফটওয়	-10.6454
▁লাগবে	-10.6454
▁বিভাগ	-10.6455
▁রুলার	-10.6455
▁রোজেন	-10.6456
▁বীকৃতি	-10.6457
▁গভীরভাবে	-10.6459
▁পশুদের	-10.646
▁ফোরের	-10.6461
▁টেশন	-10.6464
▁রাকৃত	-10.6465
রও	-10.6467
▁চালানো	-10.6467
▁পরিচালনা	-10.6469
▁তেজনা	-10.6476
▁বাজিয়ে	-10.6478
▁বাড়ানো	-10.6478
▁টিশীল	-10.6479
হোয়া	-10.6491
▁শোনেন	-10.65
সরি	-10.6504
নিয়োগ	-10.6511
োমিটার	-10.6513
▁খোলা	-10.6518
▁বিতরণ	-10.6521
▁রূপক	-10.6525
▁চড়ে	-10.6528
▁দুধ	-10.6529
▁পাঠক	-10.6531
▁গায	-10.6535
▁খনিজ	-10.6542
▁ছেলেমেয়ে	-10.6545
▁লাফ	-10.6546
▁এছাড়া	-10.6557
▁কোনকিছু	-10.6563
কট	-10.6577
▁আবাস	-10.658
দা	-10.6585
▁কারাদ	-10.6589
▁চালাতে	-10.6597
▁হিমায়	-10.6602
▁থায	-10.6611
হুজ	-10.6613
▁ছুটি	-10.6614
জুক	-10.6614
▁ধক	-10.6618
▁া	-10.6624
▁টুকর	-10.6625
▁ইংল	-10.6626
▁কারাগারে	-10.6626
পাল	-10.6636
▁তপাত	-10.6644
▁নিয়ো	-10.6646
▁রাঁধ	-10.6653
মালা	-10.6658
▁খায়	-10.6658
▁দাঁড়	-10.6659
গামী	-10.666
▁তায	-10.6674
▁তিনট	-10.6676
▁ছবিটা	-10.6676
াড়ি	-10.6679
▁পরিচাল	-10.6686
রিয়া	-10.6688
▁বিপন	-10.669
▁চেহারা	-10.6691
▁কৌ	-10.6699
▁জুন	-10.6703
▁কয়েকটি	-10.6704
▁শৈল	-10.6706
▁আয়ার	-10.6706
ণালী	-10.6709
▁তলোয়ার	-10.6719
তের	-10.6738
য়ন	-10.674
লব	-10.6745
পের	-10.6755
▁ডাটা	-10.676
বানিজ	-10.6779
▁খুলে	-10.6785
▁লুকের	-10.6787
▁ররা	-10.679
▁টেট	-10.6795
▁আসলো	-10.6812
তর	-10.682
িকে	-10.6828
▁ঐক	-10.6833
▁ধকার	-10.6848
াবো	-10.6853
▁যালিফ	-10.6855
▁তালিকা	-10.6855
▁বিগু	-10.6858
▁ছবিটি	-10.6868
▁ডিয়ান	-10.6879
১০	-10.6883
▁লড়ব	-10.6885
▁দেখিয়েছে	-10.6888
▁জুড	-10.689
▁বইগুলো	-10.6892
▁গুরুতর	-10.6896
▁টেম	-10.6909
▁বদ	-10.6916
▁ডাস	-10.692
▁ইল	-10.6921
ভুত	-10.6923
লোড	-10.6929
▁পাতা	-10.693
▁ফিন	-10.6932
▁গভীরে	-10.6941
▁পগুলো	-10.6946
▁হু	-10.6958
▁কথাটি	-10.696
গুন	-10.6967
▁বিচারক	-10.6967
▁দূষ	-10.6976
▁চয	-10.6977
▁কলম	-10.6978
▁জনগন	-10.6983
হোক	-10.6986
▁মগজে	-10.7001
াইপো	-10.7007
▁রেই	-10.7016
▁ঠটি	-10.7018
রবার	-10.7034
▁দাগ	-10.7045
▁উর	-10.7056
ভে	-10.7066
▁পেরেছে	-10.7072
▁সমূ	-10.708
যাপন	-10.7101
▁ঞানিক	-10.7101
▁ধারক	-10.7113
ংগ	-10.7122
ালি	-10.7137
▁ডান	-10.7157
রমাণ	-10.7161
ধাপে	-10.7164
টন	-10.7173
▁বো	-10.7175
মিকা	-10.7184
ড়ি	-10.7191
পা	-10.7196
▁ষেপে	-10.7213
▁সাড়	-10.7218
▁গবেষণাগার	-10.723
গো	-10.7249
▁তোমা	-10.7255
▁দিবে	-10.7257
▁সিটি	-10.7273
▁বেড়া	-10.7275
▁ভে	-10.7309
▁বারো	-10.7312
দুটি	-10.7313
লেখক	-10.7328
ৎকা	-10.7346
মাস	-10.7348
অনুভূতি	-10.735
দূর	-10.7362
▁উদার	-10.7368
য়ী	-10.737
বেছে	-10.7383
▁বানিয়ে	-10.7383
▁রমশ	-10.7387
খা	-10.7394
▁বহির	-10.7405
গাড়	-10.7408
িম	-10.7422
▁মহ	-10.7424
at	-10.7432
▁পেট	-10.7445
▁সূচি	-10.7445
একটি	-10.7454
▁লী	-10.7454
▁ওয	-10.7461
▁দেওয়াল	-10.7464
ভিত	-10.7467
▁পারলে	-10.7472
D	-10.7491
▁জোর	-10.75
সার	-10.7503
▁আলোক	-10.7517
▁মিক	-10.753
নিবেশ	-10.7568
▁রুতি	-10.759
▁টত	-10.7593
ংরা	-10.7599
ুনিয়	-10.7599
ছ	-10.7608
▁ষাগার	-10.761
টওয়ার	-10.7613
াপ	-10.7637
▁এরিক	-10.7637
শো	-10.7661
▁হাঁট	-10.7664
শিত	-10.7677
▁চাটা	-10.7678
রঙ	-10.77
▁শেষমে	-10.7703
▁লোকটা	-10.7703
▁আদল	-10.7711
বিন	-10.7714
ইসি	-10.7732
▁ভগ	-10.7754
▁উড়	-10.7772
ামের	-10.7775
▁এনে	-10.7777
▁অফিস	-10.7787
▁যো	-10.7796
শীর	-10.7796
▁থাপ	-10.7819
▁গাল	-10.7821
লোক	-10.7825
ঁধে	-10.7826
টাও	-10.7837
াণ	-10.7839
িয়ার	-10.7843
িদের	-10.7846
ষণ	-10.7847
▁আরব	-10.7875
▁পারছিল	-10.7876
▁সেল	-10.788
▁বভাব	-10.7895
▁বাইবেল	-10.7904
পী	-10.7908
▁অবধ	-10.791
▁আপত	-10.7912
▁যকার	-10.7915
সল	-10.7921
খুঁ	-10.7921
▁বাতাস	-10.793
▁অভিয	-10.7944
▁ধনী	-10.795
িয়াল	-10.7952
নেস	-10.7965
▁শতকে	-10.7972
▁সমাধানে	-10.7981
▁ষিতে	-10.7984
আমরা	-10.7996
▁রতম	-10.8024
▁ষেপ	-10.8048
াধিকার	-10.8049
▁চাপে	-10.8049
রণের	-10.805
গণিত	-10.8065
কদিন	-10.8075
▁অনুসার	-10.8103
মিত	-10.8133
ায়নি	-10.814
▁আসেন	-10.8143
▁মাটি	-10.8144
রাট	-10.815
▁নিখু	-10.8164
▁পরিণতি	-10.8198
য়েরা	-10.8198
▁নেতার	-10.821
▁যখ	-10.8212
পরিব	-10.8217
ুড়	-10.8252
▁থায়ন	-10.8254
▁খে	-10.8261
▁গলে	-10.8265
নৈতিক	-10.8272
রাও	-10.8273
▁তরল	-10.8281
মোর	-10.8284
▁রচন	-10.8285
ারি	-10.8285
▁ধারা	-10.8288
▁জো	-10.8295
▁নায	-10.8298
মানে	-10.83
▁বেগ	-10.8305
মোট	-10.8315
লায়	-10.832
রাম	-10.8323
চক	-10.8334
লক	-10.8335
▁শু	-10.8343
▁বাড়া	-10.835
িপ	-10.8356
▁হিল	-10.836
ড়িত	-10.8369
তাব	-10.8385
াজানো	-10.8409
▁পুরা	-10.8433
▁বশেষ	-10.8437
▁পারা	-10.8438
সূচি	-10.8442
▁ছু	-10.8442
▁অনন	-10.8444
▁রোফো	-10.8447
▁গণিতে	-10.8468
নায়	-10.8468
ভো	-10.8475
বক	-10.8483
▁ফাউ	-10.8495
াসক	-10.8501
se	-10.8511
▁পাগল	-10.8513
▁নারীর	-10.8532
▁জেলস	-10.8542
মুখি	-10.8542
▁ষের	-10.8561
▁জালে	-10.8575
▁সংগঠনে	-10.8589
▁ঝর	-10.8598
▁ণা	-10.8605
▁পাখি	-10.8614
▁ভালোবাস	-10.8647
গুণ	-10.8647
জা	-10.8661
▁বিড়াল	-10.8662
▁ওয়ে	-10.8663
চর	-10.8682
েটের	-10.8682
টের	-10.8693
▁ওয়া	-10.8697
▁চু	-10.8721
▁গুল	-10.8726
নিরোধ	-10.8755
▁কাটিয	-10.8757
▁যিক	-10.8793
পারে	-10.8814
▁জায়	-10.8825
▁অফিসার	-10.8831
▁চলেছি	-10.8833
রিড	-10.8835
▁গোল	-10.8837
▁দাস	-10.8848
▁মহামা	-10.8873
▁কফি	-10.8876
ভা	-10.8886
মস	-10.8892
এক	-10.8903
▁শোনে	-10.8904
▁ওঁর	-10.8925
&	-10.8926
▁খেয	-10.893
▁সরবরাহ	-10.893
▁শানুভূতি	-10.8932
▁অবচেতন	-10.8932
▁কপিরাইট	-10.8932
▁মুসলমান	-10.8932
▁ঠপোষক	-10.8932
▁সকালবেলা	-10.8932
▁অনুভুতি	-10.8933
▁মুনাফা	-10.8933
▁একঘেয়ে	-10.8933
▁পিতামহ	-10.8933
▁জামাকাপড	-10.8933
▁ভৌগ	-10.8933
▁রতিনিধি	-10.8933
▁মসজিদ	-10.8933
▁মোডেম	-10.8933
▁ঢোকা	-10.8933
▁রোজগার	-10.8933
▁বাইসাইকেল	-10.8933
▁বেসরকারি	-10.8933
▁পুঁজিবাদ	-10.8933
▁হাজির	-10.8933
▁পরিষেবা	-10.8933
▁জীবকোষ	-10.8933
▁বোডিয়া	-10.8933
▁ষোভ	-10.8933
▁নমুনা	-10.8933
▁আঁ	-10.8933
▁পরিণাম	-10.8934
▁গুলতিবাজেরা	-10.8934
▁বিটোফেন	-10.8934
▁মালিকানা	-10.8934
▁গণেশ	-10.8935
▁দৃঢ়	-10.8935
▁ফুটবল	-10.8935
▁টুপি	-10.8935
▁সংবেদনশীলতা	-10.8935
▁তুলনামূলক	-10.8936
▁গণিতবিদ	-10.8936
হিংস	-10.8936
▁মুরগ	-10.8936
▁নায়ু	-10.8937
▁পুলিশ	-10.8937
▁বাঁকাতে	-10.8937
▁ছাদন	-10.8938
▁রোটিন	-10.8938
▁ইয়েলো	-10.8938
▁মাণকারী	-10.8938
▁যানবাহন	-10.8938
▁দেবতাদের	-10.8939
▁জেমস	-10.8939
▁সায়মা	-10.8939
▁কাঁদ	-10.894
▁বিচরণ	-10.894
▁হুমকি	-10.894
▁নিরাময়	-10.8941
▁মালিক	-10.8942
▁আলাপ	-10.8944
▁ণরূপে	-10.8944
▁টাফট	-10.8944
▁লীগ	-10.8945
▁টুইটার	-10.8946
▁বজয়	-10.8947
▁বেষ	-10.8947
নতে	-10.8949
৬০	-10.8949
▁ডেশন	-10.8949
▁রকৌশলী	-10.895
▁যাগুলো	-10.8951
▁বিনিয	-10.8951
▁আকৃতি	-10.8954
▁হুম	-10.8956
▁ষণীয	-10.8957
▁ঢুক	-10.8958
লির	-10.8959
▁ইদান	-10.8959
▁বদলানো	-10.896
▁চলছিল	-10.8961
▁সহকারী	-10.8961
▁যকরী	-10.8965
▁চাবি	-10.8967
▁দীপনা	-10.8967
▁কোড	-10.8969
▁বুশ	-10.897
▁বয়ং	-10.8973
▁দিদা	-10.8975
▁নেকড	-10.8975
▁বায়ো	-10.8978
▁অতীতে	-10.898
▁বৈদ	-10.8983
▁ধব	-10.8983
▁চলবে	-10.8985
▁আয়াত	-10.8988
এটা	-10.8995
▁হোম	-10.8997
ীকরণ	-10.9004
ইলিয়া	-10.9006
▁রেরণা	-10.9007
▁নেয	-10.9009
কদের	-10.9011
▁নথি	-10.9013
▁শেষবার	-10.9014
▁দলগত	-10.9023
▁বপুর	-10.9027
▁টুকরা	-10.9028
▁ধরণ	-10.9054
▁লিক	-10.9057
▁পরিমা	-10.9062
▁ফেরার	-10.9065
▁তুপ	-10.9067
▁কারা	-10.9067
▁ফাঁক	-10.9069
লিস	-10.9073
▁ঠানে	-10.9075
▁ষাদানে	-10.9079
টেড	-10.908
▁বজুড	-10.9088
▁নাইজেরিয়ান	-10.9096
▁সূচ	-10.9098
▁সেদিন	-10.9098
▁ঝাল	-10.9113
▁জনগণ	-10.9117
▁নরম	-10.9126
▁ভাড	-10.913
করো	-10.9133
▁বলেছে	-10.9136
▁রুমি	-10.9138
▁এইচ	-10.9138
িওর	-10.9139
▁এটুকু	-10.9148
▁যাসেল	-10.9152
▁ফাঁ	-10.9157
▁মেন	-10.9175
▁উম	-10.9175
▁রেণি	-10.9176
▁আদি	-10.9177
য়োজন	-10.918
তিগতভাবে	-10.9186
▁জানানো	-10.9187
▁ধাঁচ	-10.9201
▁আচার	-10.9203
▁পি	-10.9207
▁যবোধ	-10.9209
▁টাইপ	-10.921
▁ইসরাইলিদের	-10.9211
▁পৃথিবীটা	-10.9212
▁জগ	-10.9229
▁নেওয	-10.9233
▁শীতে	-10.9237
▁রতিশ	-10.9238
▁সাগর	-10.9248
▁রার	-10.9249
▁চাইলে	-10.9249
▁দাঁড়ান	-10.925
মলে	-10.9261
▁পরিবহ	-10.9263
▁ডায়া	-10.9271
▁ছাড়াই	-10.9273
খন	-10.9278
▁থনীতিকে	-10.9278
▁দাও	-10.9278
▁তাল	-10.9278
লকে	-10.9288
▁যাশন	-10.9293
য়েট	-10.9296
▁শতাংশে	-10.93
▁মেয়েরা	-10.9304
▁বাঁকানো	-10.9308
▁ডেভিডকে	-10.931
▁লিখে	-10.9317
▁মুদ	-10.9323
▁রবিন	-10.9333
▁বিকাশ	-10.9335
দুরে	-10.9341
▁ভালভাবে	-10.9344
দী	-10.9349
▁বকে	-10.9351
কায়	-10.9352
োয়া	-10.9357
জিক	-10.9359
লাস	-10.9371
▁যাকেট	-10.9383
▁শনী	-10.9385
৭৭	-10.9385
▁আমেন	-10.9386
যা	-10.9399
▁বয	-10.9399
▁পাকি	-10.9406
গন	-10.9409
মেয়াদ	-10.9413
▁যবশ	-10.9421
ভাস	-10.9425
নিত	-10.9428
▁উপকরণ	-10.9432
▁পেইন	-10.9436
হিল	-10.9443
▁তাকালে	-10.9444
▁নোব	-10.946
▁কেম	-10.9465
▁শুষ	-10.9467
▁পেয়েছিল	-10.9473
▁যেকটা	-10.9484
▁বেপারে	-10.9505
▁সপের	-10.9506
▁হোল	-10.9517
▁কলাম	-10.9519
▁তেজ	-10.9525
▁বিলিয়নে	-10.9536
▁কাঁধে	-10.9552
িঃ	-10.9555
▁টেবিলে	-10.9556
জের	-10.9558
হল	-10.9567
রিব	-10.9572
▁ভূপ	-10.9588
▁সৎ	-10.9594
তগুলো	-10.9601
▁খনি	-10.9629
▁রঙে	-10.964
▁থাপত	-10.9641
▁লাল	-10.9643
▁যামেরন	-10.9653
▁পায	-10.9666
লী	-10.9685
হাই	-10.9697
▁গোড়া	-10.9697
▁টিকো	-10.9707
ধা	-10.9711
▁জিনিসে	-10.9729
াদা	-10.973
▁দালা	-10.9755
▁বেষণ	-10.9763
ছাত	-10.9775
াময়	-10.9791
যুদ	-10.9798
▁তল	-10.9802
▁একজ	-10.9811
ইয়ের	-10.9815
▁কুলটা	-10.9828
▁পরিপ	-10.9828
▁মিংহামে	-10.9831
▁মুলত	-10.9846
▁যব	-10.9856
েশন	-10.9856
▁ভরত	-10.9858
▁ধৃত	-10.9869
▁পৌঁছা	-10.9881
▁সেট	-10.9889
▁রতিভা	-10.9891
▁ফির	-10.9895
কারণে	-10.9897
ূ	-10.9899
▁সিস	-10.9902
▁২০১	-10.9909
▁যদ	-10.991
▁যানেল	-10.9924
▁সিং	-10.9925
রুপ	-10.9929
▁৩৫	-10.9944
সিএ	-10.9952
▁তরুণী	-10.9954
▁শতাংশের	-10.9955
বিশেষ	-10.9956
▁শোষ	-10.9993
লোম	-10.9993
▁পাদনা	-11.001
তিবিদ	-11.003
▁ছেদ	-11.0038
▁ছেলেদের	-11.0038
▁নেত	-11.004
▁সুদ	-11.0049
▁বাতাসে	-11.0052
রতে	-11.0069
য়ানক	-11.0078
▁বাইবেলে	-11.0078
▁থাম	-11.0083
কথা	-11.0091
▁আনবে	-11.0099
▁অনেকের	-11.011
▁জয	-11.0113
▁রদেশে	-11.0121
▁নেবে	-11.0123
▁হাঁটা	-11.0131
▁ভূমি	-11.0135
▁চৌ	-11.0147
▁জুতা	-11.0148
জগতে	-11.0162
সারিত	-11.0166
▁অফিসে	-11.0191
াসিক	-11.0197
ধরনের	-11.0198
চা	-11.0201
▁ইউএ	-11.0204
জীব	-11.0221
▁বদলা	-11.0222
▁ইউটিউবে	-11.0252
▁মহাসাগর	-11.0259
▁রগ	-11.0261
াড়া	-11.0263
▁কলেজে	-11.0267
▁অট	-11.0268
▁মগ	-11.0277
ড়ালে	-11.0282
▁গজ	-11.0284
মহিলা	-11.0288
▁ছেলের	-11.0292
মাদের	-11.0292
▁মতবাদ	-11.0301
কীয়	-11.0305
বকাল	-11.0306
াৎ	-11.0307
▁যাদা	-11.0308
▁ছাশ	-11.0315
েলে	-11.0316
▁রিজে	-11.0323
▁একদ	-11.0328
▁চারজন	-11.0336
▁গুর	-11.0344
▁পনাশ	-11.0346
হা	-11.0379
▁মকানুনগুলো	-11.0402
▁রুপা	-11.0404
▁নিন	-11.0405
াংশ	-11.0405
▁বাকী	-11.0407
▁উঠছে	-11.0418
▁তানি	-11.0423
▁পেরেছিল	-11.0424
মাপ	-11.0431
▁সমব	-11.0432
দু	-11.0452
ভিড	-11.0454
▁উঠল	-11.0465
▁বীপে	-11.0466
▁এইড	-11.047
▁ওনা	-11.0485
ীষ	-11.0486
ুখ	-11.0494
▁ভালোমত	-11.0496
▁ফে	-11.0505
ধিব	-11.0509
বিবেচনা	-11.051
চিপ	-11.0517
হী	-11.052
ওয়ান	-11.055
▁পড়েছে	-11.0558
বাহন	-11.0559
▁রূ	-11.0564
▁সহযোগী	-11.0568
▁যাশা	-11.0568
চেনা	-11.0569
পরি	-11.0573
লিং	-11.0577
▁দৈন	-11.0607
▁বাড়ত	-11.0607
ুনী	-11.064
▁চাইনি	-11.0641
▁যাশ	-11.0644
বির	-11.0646
▁যবসায়ী	-11.0648
▁টুন	-11.0649
সমুহ	-11.0669
▁রোতার	-11.0671
রু	-11.0679
মিল	-11.068
লিশ	-11.0684
▁জেনেছি	-11.0685
▁সুপ	-11.0692
▁যাথ	-11.07
▁এমড	-11.0715
নী	-11.0716
▁যেকার	-11.0716
আমাদের	-11.0724
▁সো	-11.0726
▁জেন	-11.0739
▁খেয়	-11.0742
▁নমনীয	-11.0748
কান	-11.0749
ধারণা	-11.0755
বহির	-11.0761
বয়স	-11.0762
▁উইল	-11.0764
▁পিঠে	-11.0803
▁ময়	-11.0804
িগ	-11.0807
মেশা	-11.0821
▁টাইমস	-11.0832
এব	-11.0834
তিতে	-11.0842
▁রুতত	-11.0858
▁লিপ	-11.0861
▁ফের	-11.0875
▁সটি	-11.0878
াডে	-11.0889
ষম	-11.089
▁দৈ	-11.0893
▁বিরা	-11.0897
▁খর	-11.0901
▁তূ	-11.0907
▁খাত	-11.0928
▁মেয়ের	-11.0934
▁দূ	-11.0949
েয়ার	-11.0957
তক	-11.0961
▁মানুষরা	-11.097
হারে	-11.0975
▁শুনেছি	-11.0988
শীলতা	-11.0995
▁জোরে	-11.1011
▁টিভি	-11.102
িবর	-11.1033
▁জানিয়ে	-11.1035
শি	-11.1049
▁এমনি	-11.1051
▁যপারে	-11.106
▁মর	-11.107
পিত	-11.1075
িড	-11.1076
বেকা	-11.1081
▁ধত	-11.1084
▁ওবা	-11.1096
▁ভাস	-11.1106
জাত	-11.1112
হাস	-11.1179
▁ঝুল	-11.119
▁কবি	-11.1197
▁রহগুলো	-11.1218
ইসব	-11.1225
▁ধিম	-11.1229
রীণ	-11.1234
তিশ	-11.1237
কিছু	-11.125
▁অভাবে	-11.1258
▁একবারে	-11.1259
▁তক	-11.1266
▁৩০০	-11.1274
▁আঁক	-11.1275
▁লে	-11.128
▁উই	-11.1291
রন	-11.1296
ীব	-11.13
াগাস	-11.1315
▁পটি	-11.1322
▁টিত	-11.1329
মুল	-11.135
▁পাউ	-11.1352
▁করুনা	-11.1363
গল	-11.1364
▁দেখেছ	-11.1368
নাদের	-11.1373
▁ছুঁড়	-11.1381
▁পাহাড়ে	-11.1396
▁হিম	-11.1397
খাপ	-11.1428
▁রাণি	-11.1429
থাক	-11.1443
নুমান	-11.1444
মানব	-11.1459
▁পেশ	-11.1464
▁ভাবেন	-11.1472
▁নিদ	-11.1482
▁১৭	-11.1497
▁ফুল	-11.1517
▁পিছন	-11.152
▁২৫০	-11.1524
ঁত	-11.1529
ফেরা	-11.1539
ূল	-11.1547
▁ভাবছি	-11.1562
▁যোগে	-11.1569
ie	-11.1605
অর	-11.1624
▁৩৬	-11.1632
▁উৎ	-11.1636
দায	-11.1636
োন	-11.1639
▁রসব	-11.1669
▁পিউটারে	-11.1671
▁দেখল	-11.1674
নোপ	-11.1681
বাই	-11.1682
৯৯	-11.1682
▁পুরাণকথা	-11.1693
▁একসময	-11.1701
জীবন	-11.1701
াইট	-11.1707
▁বানর	-11.1743
▁থীর	-11.1748
▁ফেলেছি	-11.1756
লফ	-11.1775
▁নেটও	-11.178
▁চালক	-11.1795
▁দারু	-11.1803
বাব	-11.1809
থী	-11.1812
▁গুলো	-11.1817
াবস	-11.1824
▁টিম	-11.183
▁মাথায	-11.1832
তিল	-11.1839
▁রেট	-11.184
▁যাবত	-11.1854
বৃ	-11.1874
▁উঠেছি	-11.1876
শান	-11.1902
▁ধানে	-11.1911
▁রেন	-11.1921
পনা	-11.1921
▁যামি	-11.1922
সান	-11.1929
▁বিনিয়োগে	-11.1952
▁থাকব	-11.1955
পড়	-11.1967
▁কমান	-11.1975
রিচার	-11.1978
▁ঘুড়	-11.198
▁পাদন	-11.1993
খান	-11.1999
▁শার	-11.2003
▁কারিগর	-11.2012
▁কুম	-11.2019
▁অপরি	-11.2023
▁সরিয	-11.2026
ভর	-11.2029
▁সরা	-11.2033
ভাগে	-11.2034
নাতে	-11.2078
▁ষাদান	-11.2087
নট	-11.2097
রাজ	-11.2101
▁পৃ	-11.2101
েজে	-11.2105
তিশীল	-11.2106
াশ	-11.2121
▁ভীত	-11.2144
ুৎসাহ	-11.2157
▁শারীর	-11.2172
ামর	-11.2184
েকটা	-11.2201
▁বিলিয	-11.2205
▁সারি	-11.2209
মায়ে	-11.2209
▁রিজ	-11.2212
নু	-11.222
▁চালিয	-11.2222
দেশের	-11.2242
▁পাওয	-11.2246
▁শিলা	-11.2247
▁বোঝায	-11.2249
▁জলবায়	-11.2249
▁গুরু	-11.2249
▁ভাবছে	-11.225
তিবাচক	-11.2254
পরাধ	-11.2255
▁খাওয	-11.2256
▁ময	-11.2258
▁যেখান	-11.2262
নিষেধ	-11.2265
▁উদাহারণ	-11.2266
▁কারিকুলাম	-11.2266
▁কুঁড়েঘর	-11.2266
▁গতানুগতিক	-11.2266
▁ঝামেলা	-11.2266
▁টেনগিল	-11.2266
▁দঁাড়িয়ে	-11.2266
▁দারফুর	-11.2266
▁নাড়াচাড়া	-11.2266
▁বায়োটেকনলজ	-11.2266
▁যাগাজিন	-11.2266
▁রডিংগার	-11.2266
▁রিসেপটর	-11.2266
▁শোরঘাম	-11.2266
▁অনুমোদন	-11.2266
▁পোশাক	-11.2266
▁বিআরসিকে	-11.2266
▁রিংটোন	-11.2266
▁শিরোনাম	-11.2266
▁আশেপাশে	-11.2266
▁ধারাবাহিক	-11.2266
▁ভোজবাজ	-11.2266
▁যাকনেলি	-11.2266
E	-11.2266
▁ঠিকঠাক	-11.2266
▁অটিজম	-11.2266
▁মাইরেড	-11.2266
▁হোটেল	-11.2266
▁এলোমেলো	-11.2266
▁অনুরাগ	-11.2266
▁সংলাপ	-11.2266
▁ইমেজ	-11.2266
▁পাইরেসি	-11.2266
▁টিউমার	-11.2266
▁গানিতিক	-11.2266
▁কুঁড	-11.2266
▁কালচার	-11.2267
▁বিনিময়	-11.2267
▁মণোন	-11.2267
▁গালোরে	-11.2267
▁অবকাশ	-11.2267
▁রেফারি	-11.2267
▁রবিনগুলি	-11.2267
োজনীয	-11.2267
▁জাপান	-11.2267
▁েঘর	-11.2267
নিরাপদবোধ	-11.2268
▁ফাইবার	-11.2268
▁ছোটবেলা	-11.2268
▁ওপেন	-11.2268
▁লটারি	-11.2268
▁ঘাড়ে	-11.2268
▁ইমেইল	-11.2268
▁পশুপা	-11.2268
▁তুতকারক	-11.2268
▁গরীব	-11.2269
▁করুনাময়	-11.2269
▁সংকেত	-11.2269
▁বিপণন	-11.2269
▁রিসাইকেল	-11.2269
▁টেলিভি	-11.2269
▁পাথরগুলি	-11.227
▁সরবরাহকারী	-11.227
▁একবচন	-11.227
▁অশুভ	-11.227
▁শূকর	-11.2271
▁হিরো	-11.2271
▁বোসন	-11.2272
▁মখম	-11.2272
▁অভিনেত	-11.2272
▁মালিশ	-11.2272
▁মডেলিংয়ে	-11.2273
▁একাকী	-11.2273
▁ওইখানে	-11.2273
▁যানোকণা	-11.2273
▁সুদূর	-11.2273
▁উভয়	-11.2274
▁রতিকূল	-11.2275
▁সিগন	-11.2275
▁হাতিয়ার	-11.2275
▁বিনীত	-11.2275
▁ডাবল	-11.2276
▁ছাকৃত	-11.2276
▁উলটো	-11.2277
▁অসুখ	-11.2277
▁জিনিয়ার	-11.2277
৮৯	-11.2278
▁ফিউ	-11.2278
▁আপিল	-11.2278
▁রশাসন	-11.228
▁অধীন	-11.228
▁পড়েছি	-11.2282
▁রাখালছেলে	-11.2283
▁দিনগুলি	-11.2283
▁চিকিৎসক	-11.2284
▁বেড়িয়েছি	-11.2285
▁আঁকিয়ে	-11.2287
▁ষাট	-11.2288
▁কিমেল	-11.229
▁ঋণগ	-11.229
ৎক	-11.229
▁যতে	-11.2291
▁সহেড	-11.2293
▁হারানো	-11.2293
োলজি	-11.2296
▁তামাক	-11.2296
▁তঁা	-11.2296
তৃতীয়াংশ	-11.2298
▁গীয়রূপ	-11.2299
▁বালানী	-11.23
▁জিউ	-11.2302
▁যুৎ	-11.2304
▁অসুবিধা	-11.2304
▁আওতা	-11.2305
▁ডাকাতি	-11.2305
▁রথমদিকে	-11.2306
▁একপাশ	-11.2306
রসায়নবিদ	-11.2307
▁কাটানো	-11.2307
▁যালরি	-11.2312
▁গবেষনা	-11.2312
▁আঠা	-11.2313
▁আয়তনে	-11.2314
োপ	-11.2314
▁মিথ	-11.2317
▁বাঁচানো	-11.2321
▁রিজার	-11.2324
▁পড়েছিল	-11.2326
▁নায়কের	-11.2327
▁কেনিয	-11.2328
▁নায়ক	-11.2328
▁জেতা	-11.2328
▁রাকৃতিকভাবে	-11.233
▁থনীতিবিদ	-11.2334
▁ইরান	-11.2336
▁উপকারে	-11.2336
▁পৌঁছাতে	-11.2343
▁চুপ	-11.2343
▁সিকো	-11.2349
িৎ	-11.2352
▁রাবাই	-11.2353
▁পোন	-11.2353
োদিন	-11.2356
▁কাদা	-11.2357
▁সফলভাবে	-11.2358
▁পুনঃ	-11.236
▁শেষপ	-11.2361
▁জোস	-11.2361
▁তৃপ	-11.2363
▁শারীরিক	-11.2366
▁সনদট	-11.2367
▁জাগ	-11.2375
▁সুবিধাভোগ	-11.2375
▁বেড়ানো	-11.2376
▁যুতায়	-11.238
▁বিবাহ	-11.2383
বিভাগে	-11.2385
▁আয়ত	-11.2393
▁শিখি	-11.2393
▁পতাকা	-11.2395
▁লাগান	-11.2401
িতা	-11.2409
▁পেয	-11.2414
▁উদাহরন	-11.2414
▁কাঁপ	-11.2418
▁ছুট	-11.2423
▁ভীতি	-11.2424
নিযুত	-11.2429
▁ঢ	-11.2431
▁করুণ	-11.2436
▁গকারী	-11.2448
▁মাদনা	-11.2449
েফ	-11.2449
নামা	-11.245
▁রতিফল	-11.2452
ৎস	-11.2453
▁সাদর	-11.2456
▁লুই	-11.2462
▁গুহাটি	-11.2472
ায়দা	-11.2479
পতি	-11.2483
তায	-11.2483
▁জড	-11.2491
লান	-11.2501
ৃণ	-11.2511
▁আসলাম	-11.2514
▁ভরসা	-11.2527
▁যৌ	-11.2527
তুলে	-11.2532
▁গলিয়াথকে	-11.2534
▁সুখব	-11.2534
▁ফেরি	-11.2551
রগতি	-11.2557
▁খতি	-11.2561
▁রীন	-11.2568
▁বানান	-11.2571
বাল	-11.2574
▁দাঁড়াব	-11.2576
▁গেছিল	-11.2589
কক	-11.2597
▁নিবেদ	-11.2602
▁গম	-11.2603
িউ	-11.2608
▁তপ	-11.2611
▁লাগছিল	-11.2613
▁ওসব	-11.2615
শৃ	-11.2619
▁নোট	-11.2622
শুভ	-11.2623
সিয়াস	-11.2625
লাইনে	-11.2628
▁লেগেছ	-11.2636
▁মাঝ	-11.2641
পথ	-11.2646
োক	-11.2646
▁দেবো	-11.2647
▁রবী	-11.265
▁বিড়ালের	-11.2659
নেন	-11.2667
০০	-11.2667
েখা	-11.2668
▁লিখেছেন	-11.2669
▁মেরি	-11.2669
▁রয়	-11.2692
▁হো	-11.2694
▁মৃতি	-11.2704
▁কণ	-11.2708
▁টিস	-11.2716
▁ঞাত	-11.2718
▁ডট	-11.2719
রার	-11.272
▁হাসিখুশ	-11.2721
▁ডিস	-11.2723
▁নিউরনগুলোর	-11.2724
▁ডিজ	-11.2728
গোচ	-11.2733
▁বাহিনী	-11.2737
▁টুল	-11.2744
ৈ	-11.2747
হিক	-11.2748
▁আয়না	-11.2764
▁গরু	-11.2777
ালাল	-11.2798
▁নিয়মগুলো	-11.2811
েকটি	-11.2813
▁ফুলের	-11.2817
দেন	-11.2819
▁বৃহৎ	-11.2823
▁চড়	-11.2826
▁মকাল	-11.2826
পুরুষদের	-11.2833
▁রতিযোগ	-11.2839
ভাব	-11.2841
▁পরপর	-11.2848
▁বিট	-11.2858
িহ	-11.2863
▁বাবার	-11.2874
▁জারি	-11.2885
জান	-11.2889
▁মগুলোকে	-11.2891
হাসি	-11.2903
কাতর	-11.2911
▁জিতেছি	-11.2914
▁কারোর	-11.2927
▁লোভ	-11.2947
▁নামকর	-11.2948
▁মোটা	-11.2963
ফাস	-11.2973
▁রোফোন	-11.2991
ুধু	-11.3001
উইন	-11.3004
▁নব	-11.3005
▁ফিল	-11.3006
▁চড়া	-11.3011
▁নিউরণ	-11.3022
ুষ	-11.3023
▁বাচিত	-11.3025
▁জেলসে	-11.3053
▁খেলত	-11.3061
▁কান	-11.3064
▁ইতাল	-11.3081
▁ছেলেমেয়ের	-11.3085
▁জের	-11.3118
েজিত	-11.3126
ঁজা	-11.3152
▁সাহ	-11.3166
▁মল	-11.3168
ুড়ি	-11.3171
▁তাড	-11.3181
গাস	-11.3188
▁থাকাটা	-11.3205
▁ইউরোপে	-11.3206
মরা	-11.3226
▁শিখিয়েছি	-11.3226
৫০	-11.3229
▁করিয	-11.324
▁৪৫০০	-11.3261
ীতার	-11.3263
পস	-11.3268
বাহ	-11.3269
▁যতায়	-11.328
▁আজক	-11.3288
▁টর	-11.3296
▁রমিকদের	-11.3298
▁যালি	-11.3302
▁চালনা	-11.3303
নিয়	-11.3308
মেশ	-11.3309
ডেল	-11.3334
▁পনার	-11.336
উদ	-11.3363
▁দাড়ি	-11.3374
▁রপাতি	-11.3388
ডাক	-11.339
▁মিটার	-11.3395
কত	-11.3398
রাচর	-11.3401
ডা	-11.341
▁পেজ	-11.3411
▁গেম	-11.3415
ুম	-11.3425
▁যাঁর	-11.3441
▁ইতি	-11.3444
▁জাতি	-11.3455
▁ভরশীল	-11.3455
ভেদ	-11.3463
▁দুক	-11.3474
▁বাজ	-11.3507
▁কারবার	-11.3511
ালে	-11.3511
▁ষয়	-11.3528
▁অশ	-11.3541
▁লাগাবে	-11.3542
▁ভেদ	-11.3543
রেব	-11.3543
ছানা	-11.3552
▁সিন	-11.3554
▁বহুল	-11.3554
▁মীর	-11.3558
▁বেঁ	-11.3575
▁ফেলব	-11.3588
কুলে	-11.3592
▁বুঝেছি	-11.3594
সাথে	-11.3596
রাতে	-11.3615
করতে	-11.3625
▁সোনা	-11.3632
▁তেমনটা	-11.3636
▁ওভ	-11.3645
▁সাফ	-11.3666
▁ঝুলি	-11.3673
▁জিম	-11.3675
▁ডিত	-11.3676
▁১৪	-11.3698
▁ধরন	-11.371
বাইক	-11.3729
▁ছাপ	-11.3731
মনে	-11.3734
▁মজ	-11.3735
▁শেখে	-11.3739
▁বাণ	-11.3741
▁যাতি	-11.3744
আন	-11.3764
াহ	-11.377
▁ঠে	-11.3783
▁কোরান	-11.3787
▁ষাপ	-11.3788
▁কুই	-11.3794
▁আপন	-11.3808
হয়	-11.3811
বই	-11.3825
▁বোর	-11.3829
িয়ায়	-11.3832
নবিদ	-11.384
▁দন	-11.3842
▁টাইন	-11.3847
৩৭	-11.385
▁চলিক	-11.3856
▁পলি	-11.3864
▁তাৎ	-11.387
পুরে	-11.3878
হলে	-11.3878
▁কিলো	-11.3899
▁দেড	-11.3904
দিক	-11.3911
▁বাঘ	-11.3911
আরও	-11.3912
▁ভেবেছে	-11.3917
▁জম	-11.392
মারী	-11.3924
▁ঘু	-11.3936
▁টাইমসে	-11.3941
গির	-11.3942
▁সেরি	-11.3943
▁ঘাত	-11.3953
রোগ	-11.3962
▁অপার	-11.3979
▁ইওরোপে	-11.399
▁খোঁজ	-11.3991
বলী	-11.3997
▁কণাগুলো	-11.4023
▁সংগঠ	-11.4023
টোক	-11.4028
▁সামা	-11.4058
রস	-11.4062
লিপি	-11.4076
রাস	-11.408
▁ষর	-11.4091
একটা	-11.4091
▁সমক	-11.4094
ামী	-11.4101
বের	-11.4104
ফোর	-11.4111
▁লাগলে	-11.4111
▁সেন	-11.4116
▁রীণ	-11.4126
েবার	-11.415
▁ইউন	-11.4156
▁খেয়ে	-11.4167
সুস	-11.4187
হু	-11.4189
▁কনস	-11.4193
▁তুলেছে	-11.421
▁রচনা	-11.4216
▁ওয়ার	-11.4233
ুয়ার	-11.4242
যদি	-11.4253
ণিক	-11.4266
▁বেরিয়	-11.4269
▁আচরণে	-11.4273
চলা	-11.4286
▁সমুহ	-11.4302
জু	-11.4323
গোল	-11.4335
যান	-11.4338
▁খুল	-11.4341
▁পূরণ	-11.4354
▁পুরোটা	-11.4355
▁উপা	-11.436
▁গিক	-11.4363
▁চো	-11.437
চালক	-11.4373
য়েড	-11.4398
▁সাধ	-11.4401
▁উঠলে	-11.4415
▁যুতি	-11.4415
পুর	-11.4423
▁এনেছ	-11.4436
▁কাল	-11.4441
ধার	-11.4447
▁গমন	-11.4463
▁সস	-11.4466
মেয়েদের	-11.4471
▁গোলম	-11.4476
▁আনে	-11.448
▁ঘুমা	-11.45
েইন	-11.4507
▁পেশা	-11.4512
িয়েছি	-11.4531
েনের	-11.4537
মিশ	-11.4545
▁ধারনাটা	-11.4559
▁নাস	-11.4567
▁অসামা	-11.4568
▁পিঠ	-11.4569
কেউ	-11.458
▁বীপ	-11.4592
ুলের	-11.4616
▁চলন	-11.4627
গম	-11.4649
▁নিব	-11.4654
▁যানো	-11.4659
কাজ	-11.4659
▁ফর	-11.4659
▁ভূতা	-11.4666
আমার	-11.4687
গর	-11.4692
▁নেট	-11.4692
▁যাপন	-11.4703
▁ভোগে	-11.4706
জায়গা	-11.4728
সময়ে	-11.4728
ারবার	-11.4746
বেগে	-11.4756
▁ওঠ	-11.4763
▁কারদের	-11.4765
▁লাগত	-11.4766
▁দার	-11.4776
ফর	-11.4781
▁রথমটি	-11.4794
ংকার	-11.4796
▁জাহাজ	-11.4804
যাওয়া	-11.4805
রেই	-11.4806
▁খলা	-11.4807
গুল	-11.481
▁ডিট	-11.4815
▁নগ	-11.4816
▁দেখিয়ে	-11.482
▁বোতল	-11.4824
উল	-11.4845
▁বাজেট	-11.4847
বেল	-11.4848
আপনার	-11.4851
েয়ে	-11.4856
লজ	-11.4863
▁লিয়	-11.4879
ণী	-11.4891
▁পাসে	-11.4894
▁সুসম	-11.4896
টল	-11.4904
▁রেজ	-11.4906
িলে	-11.4913
▁যংক	-11.4916
উরু	-11.492
ময	-11.4926
▁েছি	-11.4932
ারীদের	-11.4934
▁পদে	-11.4935
▁দেখান	-11.494
সাধন	-11.4961
▁নেচ	-11.4968
▁কৃষি	-11.4972
াগারে	-11.4975
বচ	-11.4982
ইল	-11.4984
িকতা	-11.4991
▁নাও	-11.4991
ষণা	-11.4994
▁অনে	-11.5017
▁তিরা	-11.5033
▁মাইন	-11.5034
▁আবা	-11.5036
ডিং	-11.5061
থা	-11.5068
▁লিখেছিল	-11.5075
▁টোর	-11.5095
লেখা	-11.51
▁করণ	-11.5109
সাইকেল	-11.5109
গের	-11.511
▁খুলল	-11.5111
▁যুবর	-11.5117
ুতে	-11.5123
▁ষাগ	-11.5147
▁মিশে	-11.5149
বাধা	-11.5153
সত	-11.5156
শুদ	-11.5167
মাইন	-11.5168
▁গরিলা	-11.517
কোটি	-11.5183
▁রণে	-11.5187
▁মোড়ক	-11.5187
▁ঃ	-11.5189
ডলারের	-11.5191
ুতিক	-11.5193
তিত	-11.5197
ধারণে	-11.5203
▁কোপ	-11.5215
বিরোধ	-11.5216
▁আলোকব	-11.5222
মুখে	-11.5227
▁চালি	-11.5228
▁ফোর	-11.5244
▁টটা	-11.5273
▁দেশটা	-11.528
আইভ	-11.5285
ংখ	-11.5287
▁দেখছ	-11.5299
হাত	-11.5317
মৃত	-11.5338
▁আইনস	-11.5344
▁খোঁজা	-11.535
▁লিয়া	-11.5383
▁থি	-11.5397
কোনো	-11.5405
▁আকাশ	-11.5407
▁আদ	-11.5408
▁কোষে	-11.541
▁সীমান	-11.5418
কাহিনী	-11.5418
▁দাঁড়াল	-11.5428
কাঠামো	-11.5434
সমাবেশ	-11.5449
▁অংশটা	-11.5462
যেন	-11.5467
▁টাইল	-11.5482
▁দেখাত	-11.5488
মিলি	-11.5496
১৪	-11.5499
▁আভ	-11.55
শূন	-11.5513
মানুষের	-11.5517
ডের	-11.5519
▁রবাহে	-11.552
মাংস	-11.5525
তশ	-11.5535
জগত	-11.554
▁তুষ	-11.5544
পাদন	-11.5549
▁বলছিল	-11.5552
▁২৭	-11.5555
▁পারমা	-11.5559
▁পরা	-11.5565
ভূমি	-11.5571
জীববিদ	-11.5586
য়াং	-11.5586
সংগঠনগুলো	-11.5589
▁যাকা	-11.5607
বাড়ির	-11.5608
বহুল	-11.561
▁শিকারে	-11.5613
কারণ	-11.5616
রান	-11.5618
হুর	-11.562
গভীর	-11.5626
পাঠ	-11.5632
ালো	-11.5634
ধাঁ	-11.5638
গোড	-11.564
▁ফেলেছ	-11.5646
বালক	-11.5648
▁নীর	-11.5648
বিপর	-11.5661
▁আগুনে	-11.5662
▁বিগ	-11.5664
▁রয়ে	-11.5667
▁পেস	-11.5671
▁গাদ	-11.5693
ুজ	-11.5701
কিং	-11.5702
▁টেড	-11.5713
উৎপাদন	-11.5715
▁জাম	-11.572
▁থল	-11.5733
োডি	-11.5734
▁ডিয়া	-11.5745
▁ফেলছ	-11.5749
▁বিনয়	-11.5753
▁গবেষণায	-11.5757
▁সামর	-11.5758
াধার	-11.5764
নিয	-11.5774
কারবারে	-11.578
▁মেশ	-11.5782
▁যাথা	-11.5795
ফুল	-11.581
বাড়ি	-11.5811
▁ষিণে	-11.5811
▁দেখিয়েছিল	-11.5839
িটা	-11.585
▁চতা	-11.5872
▁মধু	-11.5913
▁আসব	-11.5916
ামূলক	-11.5916
হীনতা	-11.5929
সভ	-11.593
এমন	-11.5938
মেরু	-11.5939
থাগুলো	-11.594
▁আলোচ	-11.5947
েদের	-11.596
ৌম	-11.5967
▁যাকার	-11.5969
ঁচ	-11.597
▁বজ	-11.5975
▁টেবিল	-11.5978
▁ধী	-11.5986
▁কাঁধ	-11.5991
▁রমা	-11.5999
ঢ	-11.6007
▁সির	-11.601
াগান	-11.6025
▁ভিড	-11.6028
▁তীর	-11.6034
▁বাসা	-11.6038
নিয়ে	-11.6046
▁রতিদ	-11.6047
▁সুবিধ	-11.6064
▁কোরানে	-11.6076
কাশ	-11.6078
শোধন	-11.608
▁তুলনায	-11.6089
▁ফোনে	-11.6093
ঘেঁ	-11.6122
লিয়ে	-11.6156
ুয়া	-11.6165
▁ঢে	-11.6168
▁আধা	-11.6176
মী	-11.6185
নসার	-11.6211
আপ	-11.6211
▁নিয়েছে	-11.6217
মেট	-11.6226
▁হারি	-11.6232
▁পেছন	-11.6236
▁লেগ	-11.6248
▁শা	-11.6251
▁টেল	-11.626
টিভ	-11.6277
▁দেখছি	-11.6304
▁রোগীর	-11.6313
বিশাল	-11.6321
▁চিক	-11.6334
▁এসেছ	-11.6336
ধরা	-11.6338
এফ	-11.6384
▁টিভে	-11.6389
হাম	-11.6398
▁ষাতে	-11.64
ওনা	-11.6403
▁লেনে	-11.6418
ফাউ	-11.6418
▁মোড়	-11.642
▁রদায়ে	-11.6425
▁গড়া	-11.6439
▁বু	-11.6444
ধে	-11.645
▁শুনি	-11.6469
▁আসছিল	-11.6469
▁বাত	-11.6488
▁ডেকে	-11.6496
▁কুচ	-11.6517
দুশ	-11.6524
▁বেপার	-11.6539
▁আরবে	-11.6545
▁এঁ	-11.6545
▁সাপ	-11.6551
ফিস	-11.6553
জীবী	-11.6553
গমন	-11.6557
াইল	-11.6587
বামা	-11.6587
বিধি	-11.659
লেক	-11.6593
▁সাগরে	-11.6602
▁হায়	-11.6603
▁ঘা	-11.6629
▁মিলিয	-11.6656
▁শিখে	-11.6664
▁লিখেছে	-11.6677
ডিয়া	-11.6678
াথে	-11.6699
▁অসহ	-11.6701
পড়া	-11.6703
▁মনোব	-11.6716
▁মূলধ	-11.6735
পিএ	-11.6766
▁পু	-11.6776
খম	-11.68
▁নিয়মে	-11.6824
▁রুক	-11.6825
▁পো	-11.6827
▁বপুরুষ	-11.6846
▁নেহ	-11.6851
▁সাধন	-11.6859
োড	-11.6866
য়ারে	-11.6873
▁ডাকে	-11.6887
ফুস	-11.6892
ানীর	-11.6903
▁ইসরাইলি	-11.6936
যুগে	-11.6938
োলা	-11.6942
রীয	-11.6949
▁নীচ	-11.695
▁ষাগুলো	-11.695
টিয়ে	-11.6954
▁সাড	-11.6973
লাহ	-11.6974
▁ফেলেছিল	-11.6975
▁ববৃহ	-11.6997
▁বেরিয	-11.6998
▁কৃতিক	-11.7009
▁উঠেছিল	-11.7026
▁নাটকীয়	-11.7032
▁ধতা	-11.7035
ou	-11.7054
হাতি	-11.7058
▁অতিপা	-11.7071
▁বেপারট	-11.7079
▁সগুলো	-11.7084
▁পাঠিয়ে	-11.7105
ঘুরি	-11.7119
হাটা	-11.7121
▁তাকাত	-11.7131
▁গলা	-11.7135
তুড়	-11.7135
জীবি	-11.7136
াটা	-11.7144
ঝ	-11.7165
▁বানিয	-11.7173
▁খোল	-11.7174
▁রাউ	-11.7184
▁উপায	-11.7185
▁পিছ	-11.7189
▁বসেছি	-11.7195
▁বীকৃত	-11.7216
▁অভিব	-11.7217
ুহু	-11.7226
▁মেল	-11.7241
▁ঝুঁক	-11.7244
▁ধরণে	-11.7253
নুগ	-11.7254
▁চূড	-11.7257
▁শূ	-11.7257
▁পৌরানিক	-11.7258
▁সংবেদনশীল	-11.726
▁ছেলেমেয	-11.7262
▁গোঁড়া	-11.7263
▁গুলতিবাজ	-11.7263
দেয়	-11.7264
▁তড়িৎচ	-11.7266
গীতানুরাগী	-11.7266
রেগুলেশন	-11.7266
▁অননুমেয়	-11.7266
▁আহমেদাবাদ	-11.7266
▁উড়োজাহাজ	-11.7266
▁খেলাধূলা	-11.7266
▁গিনিপিগ	-11.7266
▁জেরুসালেম	-11.7266
▁দৈবযোগে	-11.7266
▁ধোঁয়া	-11.7266
▁পিটুইটারি	-11.7266
▁পিতামাতা	-11.7266
▁পেনসিলভানিয	-11.7266
▁পেনিসিলিন	-11.7266
▁বাহুবলি	-11.7266
▁বেথলহেম	-11.7266
▁মরুভুমি	-11.7266
▁মরুভূমি	-11.7266
▁মাহবুবা	-11.7266
▁যাকগুইর	-11.7266
▁সোভিয়েত	-11.7266
▁হৃদচিকিৎসক	-11.7266
▁আইসোটোপ	-11.7266
▁ইহুদী	-11.7266
▁এতিমখানা	-11.7266
▁কানেকটিকাট	-11.7266
▁নিবিড়	-11.7266
▁বায়োডাটা	-11.7266
▁মিউজিসিয	-11.7266
▁ইজরায়েল	-11.7266
▁এনওয়াই	-11.7266
▁রীতদাস	-11.7266
▁লোপেজ	-11.7266
▁কবুতর	-11.7266
▁ফেরেশতা	-11.7266
▁অলৌকিক	-11.7266
▁সাবসেট	-11.7266
ধৌত	-11.7266
▁আলকাতরা	-11.7266
▁ফুটপাথ	-11.7266
▁রতিশোধ	-11.7266
▁বিলাসিতা	-11.7266
ঁাধা	-11.7266
▁ঘেঁষে	-11.7266
▁পঁাচ	-11.7266
▁শয়তান	-11.7266
▁ঘাঁট	-11.7266
▁বুড়ো	-11.7266
▁যসাগর	-11.7266
▁গৌর	-11.7266
▁বায়োলজি	-11.7266
▁দাদিমা	-11.7266
▁নায়ুকোষ	-11.7266
▁বহিরাগত	-11.7266
▁অবহেল	-11.7266
▁বিনোদন	-11.7266
▁শূধু	-11.7266
▁ইথানল	-11.7266
▁এনজিও	-11.7266
▁এগারো	-11.7266
▁বসবাসকারীদের	-11.7266
▁বিনিয়গ	-11.7266
▁শিকাগো	-11.7266
▁ছোটখাট	-11.7266
▁চাঁদোয়া	-11.7266
▁মহাকাশ	-11.7266
▁এডিসন	-11.7266
▁বিধিনিষেধ	-11.7266
▁মরিচা	-11.7267
মনিটর	-11.7267
▁লেবানন	-11.7267
▁সিনেমা	-11.7267
▁গাঢ	-11.7267
▁মেঝে	-11.7267
▁ণগঠনে	-11.7267
▁ভূগর	-11.7267
▁জানাশোনা	-11.7267
▁তৈল	-11.7267
▁চিরজীবন	-11.7267
▁অবয়ব	-11.7267
▁ডানপাশে	-11.7267
▁মনোরোগ	-11.7267
▁পেশাদার	-11.7267
পিয়ার	-11.7267
▁লিংকন	-11.7267
▁পারফরম	-11.7267
▁মানবজাতি	-11.7268
▁দলপতি	-11.7268
▁গগনচ	-11.7268
▁গোঁড	-11.7268
টিফিকে	-11.7268
▁একজায	-11.7269
▁ঘামাবো	-11.7269
▁রাজনীতিবিদ	-11.7269
▁ছিনতাই	-11.7269
▁পানিনিরোধ	-11.7269
▁কৌশলগুলি	-11.7269
▁উপকরন	-11.727
▁হায়েনা	-11.727
▁নিঃস	-11.727
▁কিশোর	-11.727
▁মতামত	-11.7271
▁যিশু	-11.7271
▁শিবির	-11.7271
▁গোঁড়ামি	-11.7272
▁মিটিং	-11.7272
▁কাছিম	-11.7272
▁বেড়ালের	-11.7272
▁কুভার	-11.7272
▁৮৪	-11.7272
▁সুইডিস	-11.7273
▁ঝাঁপ	-11.7273
▁সুষম	-11.7273
▁পৌরানিকতা	-11.7273
▁জগৎ	-11.7274
▁ভুগছি	-11.7274
▁৯৫	-11.7274
▁গৃহহীন	-11.7274
▁উঠোন	-11.7275
▁ঘোলা	-11.7275
▁সুফি	-11.7275
▁নাঘর	-11.7276
▁পালটানো	-11.7276
টোরিয়া	-11.7276
▁অনুদান	-11.7276
▁অবদমন	-11.7277
▁পরমানু	-11.7277
▁৮০০	-11.7277
▁একিরকম	-11.7277
▁সিসকো	-11.7278
বেটিস	-11.7279
▁ঠাসা	-11.7279
▁সুনীতি	-11.7279
ভিযান	-11.728
▁কানেক	-11.728
▁৬৬	-11.728
▁বিনিয়োগকারী	-11.7282
▁পরিনাম	-11.7282
▁সিরিজ	-11.7282
▁ঘোড়া	-11.7282
▁সহায়	-11.7283
▁দাবী	-11.7284
▁টোয়েন	-11.7284
▁মনঃক	-11.7285
▁শহুর	-11.7285
▁যাকআপ	-11.7286
▁বালানি	-11.7287
▁ষরিকভাবে	-11.7287
▁সালোক	-11.729
▁সমালোচক	-11.7291
▁আঠাশ	-11.7292
৯৮	-11.7293
▁২২	-11.7293
▁সংরখ	-11.7293
▁লিউ	-11.7294
▁ফিয়ার	-11.7296
▁নেহায়েত	-11.7297
▁পোঁ	-11.7299
তিহা	-11.73
▁কাজকারবার	-11.7301
▁আলোকিত	-11.7302
▁পেপার	-11.7302
ভোজন	-11.7302
▁বেড়ান	-11.7302
▁..	-11.7303
▁যাংকিংটা	-11.7303
▁সীসা	-11.7304
িউম	-11.7304
▁বিরাজ	-11.7306
▁....	-11.7307
▁মংস	-11.7307
যৌবন	-11.7307
শিয়াল	-11.7309
ধীন	-11.7309
পেশাজীবি	-11.7311
▁ওয়েব	-11.7313
▁ভিডিওগুলি	-11.7316
চাতুর	-11.7317
▁খোজা	-11.7317
ারিত	-11.732
▁যসূচী	-11.7321
▁যাডাম	-11.7324
▁আদম	-11.7324
▁মামলার	-11.7326
▁ছাড	-11.7328
▁যুগিয়েছ	-11.733
▁ডাউন	-11.733
▁অপমান	-11.7335
▁বনাশ	-11.7336
▁বিড়	-11.7338
▁থূল	-11.7339
▁কোডার	-11.734
▁সিয়েরা	-11.7342
▁হাঁ	-11.7346
▁বিতীয়বার	-11.7347
▁নৈব	-11.7347
▁নবজাতক	-11.7348
▁সপিয়ার	-11.7348
▁রেইপ	-11.7348
▁ভাষণ	-11.7349
ানীয়	-11.7351
▁দালান	-11.7352
▁তুষার	-11.7352
▁ভাঁজ	-11.7355
নামূল	-11.7355
ঁইয়ে	-11.7355
▁সেনেট	-11.7357
▁নিরাপদ	-11.7358
বেগের	-11.7365
বিরোধিতা	-11.7366
▁রাকে	-11.7368
▁পরিবেশনা	-11.7371
▁ইজি	-11.7371
▁চলত	-11.7372
▁ণবাস	-11.7375
মালায়	-11.7376
▁চীনদেশ	-11.7379
▁রিটেন	-11.7383
▁ওপাশে	-11.7386
▁উচু	-11.7387
▁সিসি	-11.7388
▁ণালি	-11.7388
▁তিটি	-11.7389
▁ছড	-11.739
▁অটো	-11.7392
▁বেবি	-11.7393
▁তাড়িত	-11.7393
▁গোলমাল	-11.7393
▁ফাইন	-11.7393
▁কমনীয়	-11.7394
▁ফাইল	-11.7396
উইথ	-11.7399
▁ণায	-11.7399
িংটন	-11.74
▁নিউরনগুলি	-11.74
▁সাথেসাথে	-11.7401
▁অনুগ	-11.7404
▁তূপ	-11.7408
ংকিং	-11.7409
ায়েন	-11.7411
▁আলগ	-11.7413
▁বোঝো	-11.7414
▁মগজটি	-11.7415
▁ষরিক	-11.7418
▁সবখান	-11.7418
জম	-11.743
▁রজাত	-11.743
▁দড়ি	-11.7432
▁রুকল	-11.7432
▁ঝাঁক	-11.7433
দে	-11.7435
জিএস	-11.7436
ালগ	-11.7436
টেইল	-11.7436
▁ছবিগুলো	-11.7436
▁কটিকা	-11.7437
▁পাকা	-11.7442
▁যুৎসাহ	-11.7447
▁চালাক	-11.7452
▁ঘটানো	-11.7454
le	-11.7454
▁আদান	-11.7455
▁গণনা	-11.7456
▁মনোজগ	-11.7458
▁দুইজন	-11.7459
▁রসেস	-11.7459
▁সীম	-11.746
▁আমিরাতে	-11.747
▁কথাটা	-11.7472
▁ডুব	-11.7476
▁পাদনে	-11.7478
▁ষণশীল	-11.7479
▁মগু	-11.748
▁নিবে	-11.7484
▁ময়লা	-11.7486
▁থানগুলো	-11.7492
াৎক	-11.7493
▁রুবি	-11.7493
▁লাইন	-11.7494
▁যাবর	-11.7494
▁ঐদিন	-11.7497
▁ফীতি	-11.7501
▁সড়ক	-11.7504
▁নাটকীয়তা	-11.7506
েব	-11.7508
▁গঠনে	-11.7511
▁যসেবা	-11.7516
▁বইয	-11.7516
▁নিক	-11.7517
▁হিপ	-11.7518
▁যারিয়ার	-11.7519
▁অবয	-11.7525
▁থিয	-11.7525
▁রহন	-11.7527
▁রসমূহ	-11.753
▁জায়গাগুলি	-11.754
বেশি	-11.7543
▁খন	-11.7544
▁দুনিয়ায়	-11.7552
▁অতিসচেতন	-11.7554
তলা	-11.7556
▁ভাইয়ের	-11.7558
▁ণয়	-11.7559
▁পুনরা	-11.7559
▁যাংকার	-11.756
োটা	-11.7561
খানেক	-11.7562
গুলোও	-11.7563
▁যালিব	-11.7566
▁পড়েছিলাম	-11.7566
▁সংঘাত	-11.7569
▁লামা	-11.7571
▁গায়ক	-11.7573
▁বাজানো	-11.7578
▁নড়	-11.7582
৭৮০	-11.7584
▁টেকস	-11.7588
াগোরা	-11.7592
ংক	-11.7611
▁বেহালাটা	-11.7618
▁সচ	-11.7621
▁যগুলো	-11.7624
▁ধারণাটি	-11.7624
েপে	-11.7625
দক	-11.763
▁সেরকম	-11.763
▁রণা	-11.7653
▁অনুশীলন	-11.7658
খিক	-11.7658
▁দেশগুলোকে	-11.7662
▁হেরফেরকে	-11.7663
িরে	-11.7673
▁শেড	-11.7673
▁পৃথিবীটাকে	-11.7674
▁একাধ	-11.7675
▁রগুলো	-11.7676
ালু	-11.7678
▁নাতক	-11.7681
ঁদের	-11.7686
▁রমী	-11.769
▁মানীয়	-11.7693
▁কারিগরি	-11.7695
▁উপয	-11.7697
দাতা	-11.77
▁পরাজয	-11.7708
▁আলা	-11.7716
▁মালয়	-11.7717
দিয়ে	-11.772
▁সমকাম	-11.773
নাম	-11.7731
াগু	-11.7733
জুয়	-11.7742
▁শুনিয়েছে	-11.7743
▁পাথরটি	-11.7745
▁মপ	-11.775
▁গোরে	-11.7756
▁বাট	-11.7763
▁আবেগের	-11.7763
ঠিক	-11.7765
▁আগা	-11.7767
▁হিস	-11.7768
▁যাকেটটি	-11.7775
ছুর	-11.7778
▁ডাকা	-11.7784
▁এমনিতে	-11.779
▁টেইন	-11.7791
▁যাটে	-11.7794
▁পাড	-11.7804
ঘুষ	-11.7807
▁লেষ	-11.7812
▁কসাই	-11.7816
মেলে	-11.7819
▁শেক	-11.7831
▁রেডিটে	-11.7847
▁বাবল	-11.7854
▁বপুরুষদের	-11.7857
▁সহসা	-11.7859
▁তাবনা	-11.786
হিন	-11.7862
▁থপর	-11.7864
▁ষেপক	-11.7872
▁পৌ	-11.7875
▁যাপারেও	-11.7878
▁শিরা	-11.7881
▁শাসন	-11.7884
আউট	-11.7884
▁আইনজীব	-11.7892
কারবার	-11.7896
▁দেখায	-11.7908
লিয়ামে	-11.7913
▁রহীতা	-11.7914
গার	-11.792
▁হাঁটছিল	-11.7921
খিত	-11.7924
▁যটক	-11.7924
োজ	-11.7926
▁পড়ান	-11.7929
▁পারাটা	-11.7938
▁ডেস	-11.7939
হেড	-11.7945
▁জানিয়েছে	-11.7947
ti	-11.7949
▁সবকিছুতে	-11.7954
াদি	-11.7974
ঠ	-11.7976
▁শিকারী	-11.7976
▁টোমা	-11.7979
যু	-11.7994
িহীন	-11.7997
▁ঘামান	-11.8
সাইটে	-11.8008
▁টোদিক	-11.8033
ুলার	-11.8047
াফের	-11.805
▁তরুণরা	-11.8051
িরাম	-11.8059
ঁট	-11.8061
োম	-11.8065
it	-11.8084
▁লাভজনক	-11.8109
▁শকেরা	-11.8114
ুগ	-11.8115
জস	-11.8125
▁ছোঁ	-11.8128
▁গোলক	-11.813
▁ঘটেও	-11.8132
েড	-11.8145
▁জনসম	-11.8149
▁সংকট	-11.8149
▁ইথ	-11.8151
▁হাউজ	-11.8163
▁লামার	-11.8184
লতে	-11.8186
▁পানীয়	-11.8189
▁অবিচ	-11.8192
খাটে	-11.8196
দায়	-11.8201
▁নেহা	-11.8205
▁থাংশ	-11.821
▁পুষ	-11.8211
সংগঠনগুলোর	-11.8212
মায়	-11.822
▁ঠো	-11.8221
▁জনগ	-11.823
▁চাশা	-11.8239
▁পথচ	-11.8248
▁বিভেদ	-11.8249
▁জীবনধারা	-11.8257
▁সরব	-11.8259
সহায	-11.827
▁রাফটা	-11.8272
ণু	-11.8275
▁পুরাণকথাগুলো	-11.8278
নীত	-11.828
ণবৈ	-11.8286
▁গরজ	-11.829
▁ডসে	-11.8292
▁নিউরো	-11.8292
ানোপ	-11.8294
▁থিরতা	-11.8312
▁পাগলা	-11.8312
▁রাংতা	-11.833
▁সংগঠনগুলো	-11.8334
▁যাহা	-11.8348
▁মাথাই	-11.8362
▁অবক	-11.8371
▁রেনে	-11.8375
▁লেখকের	-11.8378
▁ঘো	-11.8379
৮৫	-11.8383
আইনি	-11.8385
▁ফিরত	-11.8386
▁পরেরটা	-11.8395
▁ফুলি	-11.8402
▁অভিযান	-11.8402
▁বাধীনতা	-11.8404
নাট	-11.8426
▁লাইডগুল	-11.8427
▁টেলর	-11.8447
▁Di	-11.8454
▁বাড়ী	-11.8465
রুণ	-11.847
োনেন	-11.8471
এন	-11.849
▁ওয়ারে	-11.8496
ইলিস	-11.8497
▁গিটা	-11.8504
▁বিহ	-11.8504
▁পচন	-11.8513
▁লাগছ	-11.8544
▁ভোগ	-11.8551
▁ততো	-11.8553
▁টায	-11.8555
▁শির	-11.8563
▁জয়	-11.8575
▁ণয	-11.858
▁অনির	-11.8588
▁ইরাক	-11.8594
চুড	-11.8608
ুণর	-11.8613
▁মিকতা	-11.8616
▁ষুধা	-11.8617
ওড	-11.8638
▁শিখছ	-11.8645
▁ফরাস	-11.8652
▁দুটোকে	-11.8663
িয়েরা	-11.8679
াহত	-11.869
▁একমা	-11.8702
সাম	-11.8713
ুরুত	-11.8721
▁পূ	-11.8725
▁সফর	-11.8731
▁সমবে	-11.8735
▁এইচএ	-11.8748
▁ছাকে	-11.875
▁জানান	-11.8768
▁পুন	-11.8769
▁ডেকেছিল	-11.8772
▁রোত	-11.8777
ডে	-11.878
▁জমি	-11.8798
▁সাব	-11.8817
▁সাহসে	-11.882
ারও	-11.8822
▁তাতপ	-11.8822
▁রজাতিগুলো	-11.8826
▁শোধন	-11.8827
op	-11.8831
▁রোটে	-11.8839
▁কেক	-11.8844
▁টেরিয়া	-11.8854
▁চারি	-11.8879
েলোস	-11.8883
▁ডলারে	-11.8887
সতে	-11.8907
▁ঠেক	-11.891
▁তোর	-11.8915
সু	-11.8917
িয়া	-11.8921
ফারেন	-11.8926
▁তাত	-11.8943
▁যবা	-11.8947
▁দেবী	-11.8954
য়ামে	-11.8961
▁মারতে	-11.8964
থগ	-11.8967
▁কথোপকথনে	-11.8967
ঠার	-11.8968
▁নেটওয	-11.8968
▁যুগ	-11.8974
▁থিয়েটারে	-11.8975
▁গায়	-11.8978
▁থতাক	-11.899
▁পুরোন	-11.9009
চি	-11.9013
ুঃ	-11.9029
▁নীত	-11.903
গতভাবে	-11.9037
▁ভল	-11.9058
েসব	-11.9062
আকারে	-11.9066
▁ইয়ো	-11.9073
খী	-11.9081
▁গুটি	-11.9097
টিন	-11.9106
▁কেট	-11.9113
গতি	-11.9114
▁এট	-11.9117
▁দরকারি	-11.912
▁ঝো	-11.9122
ফিল	-11.9132
▁করেছিলে	-11.9133
▁মিং	-11.9138
কুমে	-11.916
▁মায	-11.9163
লীক	-11.9168
▁বিকেল	-11.9169
▁ধাঁ	-11.919
▁যাপারটাকে	-11.9195
▁যাভ	-11.92
রতীয়	-11.9204
▁১৯৮	-11.9207
▁যাহত	-11.9214
োও	-11.9222
মিলিয়	-11.9228
▁ডস	-11.925
▁দিনটি	-11.9261
লাই	-11.9267
▁কাপ	-11.9271
▁ইউর	-11.9323
ীড	-11.9345
▁দূত	-11.9355
▁নাইজ	-11.9367
▁দটি	-11.937
▁সেইস	-11.9382
াটে	-11.9386
▁ধরত	-11.939
জানিয়	-11.9393
▁বোন	-11.9423
▁খাট	-11.9435
▁অবির	-11.9437
াথ	-11.9438
▁ধারনাটি	-11.9453
▁সুগ	-11.9456
▁মাছি	-11.947
▁রসূ	-11.9476
▁সমাবেশ	-11.9485
টিস	-11.9485
▁যমকে	-11.9487
িয়েছিল	-11.9491
তখন	-11.9502
▁অবদ	-11.9513
বতা	-11.9514
▁ঝড়ে	-11.9515
াণিত	-11.9522
পালি	-11.9534
▁রীজ	-11.9537
▁বিষয়ট	-11.9539
২০	-11.9548
▁বরে	-11.9548
▁চালাত	-11.9552
▁পকলা	-11.956
▁যুপে	-11.9565
▁সীমার	-11.9591
ইনফ	-11.962
▁জায়গাটা	-11.9624
বাচ	-11.9627
▁কোণ	-11.963
ইয়	-11.9635
ানব	-11.9636
চিন	-11.9637
নটি	-11.9656
▁যাও	-11.9658
ালিয়ে	-11.9665
▁কানা	-11.9668
▁থাটা	-11.9682
▁যপায়	-11.9682
ফোন	-11.9683
লগুলি	-11.9685
▁যাংকগুলো	-11.9686
▁লাসরুম	-11.9687
ইলিসি	-11.9691
েটস	-11.9705
▁ছড়	-11.9715
▁ছল	-11.9747
▁রমনে	-11.9751
▁রোফ	-11.9753
সংশ	-11.9753
়ার	-11.9754
▁লিশ	-11.9754
উর	-11.976
▁অনুগুলো	-11.9763
▁কতগুল	-11.977
বলে	-11.9771
▁পাঠাত	-11.9772
রিসমা	-11.9775
▁রমজ	-11.978
▁ষি	-11.978
ারো	-11.9786
▁ইসরাইলে	-11.9792
▁রোম	-11.9794
য়েছিলাম	-11.9797
▁দের	-11.9806
শিয়া	-11.9807
আপনি	-11.981
▁চম	-11.9835
িউড	-11.9846
ুব	-11.9862
▁তৃতা	-11.9862
▁১৯২	-11.9876
▁সজ	-11.9893
▁গরিলার	-11.9901
দিনে	-11.9915
▁খোদা	-11.9923
াড	-11.9926
সিন	-11.995
▁রিভু	-11.9958
▁পিএ	-11.9963
▁শকের	-11.9973
▁বেকার	-11.9977
▁বাদু	-11.9986
কৃতি	-11.9988
▁D	-11.999
▁জর	-12.0031
▁কতট	-12.0057
োনিয়া	-12.0065
০২	-12.0088
িবার	-12.0093
যারা	-12.0102
▁কেপ	-12.0103
সাঁ	-12.0107
▁ছাটা	-12.0115
▁অয	-12.0121
াখি	-12.0153
▁যুতে	-12.0172
▁সারাদ	-12.0179
▁দাঁড়াবে	-12.0187
ড়ায়	-12.0196
▁ধারণে	-12.0197
বয়	-12.0201
ইলে	-12.0224
▁ছাদে	-12.0225
▁টাই	-12.0243
▁কাটিয়ে	-12.0251
▁তেলে	-12.0277
▁অটি	-12.0296
নকে	-12.0301
রীর	-12.0329
াপী	-12.0332
মিটি	-12.0333
করার	-12.0337
পালক	-12.034
ারদ	-12.0357
▁ঘুমান	-12.0365
▁টফো	-12.0368
▁দুজনে	-12.037
▁পৌছ	-12.0382
বিধানে	-12.0391
▁বিশালা	-12.0393
▁ধকা	-12.0395
▁আকাশে	-12.0397
▁মেশা	-12.0415
সাত	-12.0416
▁কিউ	-12.0418
যাত	-12.0419
▁বিনি	-12.0426
াপি	-12.0432
দিত	-12.0439
▁সভা	-12.0442
ঁু	-12.0447
▁ধাম	-12.0483
▁যেকে	-12.0483
▁মোড	-12.0496
▁চট	-12.0507
▁জাহাজে	-12.0507
াকার	-12.0515
▁বোতলে	-12.0527
▁সেকে	-12.0537
াকানো	-12.0546
▁পৌঁছাত	-12.0548
রাধিকার	-12.055
▁অনেকভাবে	-12.0559
▁ভো	-12.0583
তাই	-12.0583
ইয়ো	-12.0594
ুলি	-12.0596
ধরে	-12.0599
▁দায়ব	-12.0602
▁রখ	-12.0607
▁রিল	-12.0609
খনো	-12.0609
সী	-12.0631
▁বাজেটে	-12.0632
আছে	-12.0634
বলি	-12.0642
ড়াই	-12.0645
▁ঝু	-12.0657
▁যাংকে	-12.0667
▁দিনগুলো	-12.0699
▁নামটি	-12.0725
ষিত	-12.0766
মেলো	-12.0769
টোম	-12.0769
▁দিনটা	-12.0805
োজন	-12.0814
▁রেম	-12.084
▁সহযোগীর	-12.0845
▁মোড়া	-12.0857
রিন	-12.0884
▁দেখাবেন	-12.0885
▁নেব	-12.0898
▁টারলি	-12.0904
ুরে	-12.0904
▁ঠীক	-12.0905
ছো	-12.0923
ানে	-12.0939
▁অভিন	-12.0951
হস	-12.0957
▁ওয়	-12.0983
▁টাল	-12.0988
Ta	-12.1003
ণায়	-12.1015
▁আচর	-12.1019
▁রুম	-12.1034
কেশন	-12.1039
▁রিবা	-12.1042
▁যয	-12.1065
▁গবেষণাত	-12.108
মজ	-12.1081
শী	-12.11
াড়ে	-12.1126
িকা	-12.1137
রীস	-12.1147
চারিত	-12.1159
▁তানে	-12.1164
▁রেতা	-12.1178
োজা	-12.1186
নিয়ার	-12.1191
▁দুঃস	-12.1192
▁যট	-12.1215
মাটি	-12.1276
▁চাত	-12.1277
ারকের	-12.1281
▁অতী	-12.1285
সাহায	-12.1287
▁মিলি	-12.1292
ভিয়া	-12.1296
▁সেশন	-12.13
মিনিস	-12.1303
▁পকেট	-12.1329
সেল	-12.1329
▁লু	-12.1331
াটোস	-12.1332
▁থাপনে	-12.1344
▁বাব	-12.1347
▁একাজে	-12.1349
শির	-12.1353
মবি	-12.1353
▁লেয়	-12.1371
▁বয়	-12.1379
▁দেখেছিলে	-12.1386
নয়না	-12.1424
▁জির	-12.1428
▁রতিকার	-12.1463
মনটি	-12.1483
▁উঁচ	-12.1524
▁সরান	-12.1537
লতা	-12.1541
▁চাইবে	-12.1548
▁সহজত	-12.1548
▁চেক	-12.1553
▁রোড	-12.156
▁বজন	-12.1562
▁মহামার	-12.1594
▁কালে	-12.1621
রবো	-12.1672
▁চারপাশ	-12.1675
রানয	-12.1681
▁চারজনে	-12.169
ষকরা	-12.1702
টোস	-12.1704
▁টেকো	-12.1708
▁মহাসাগরে	-12.1726
▁অতটা	-12.1742
▁মতবাদে	-12.1755
▁ডির	-12.1768
▁শুনেছ	-12.1779
▁তুলত	-12.1784
ধানী	-12.179
কস	-12.1798
▁ঠীগুলো	-12.1817
▁শর	-12.1832
▁সাজান	-12.1845
▁ওঁ	-12.1853
▁সাস	-12.186
▁রহণে	-12.1864
▁এলি	-12.1864
কু	-12.1867
রাহ	-12.1868
▁চালন	-12.1872
▁মডেলে	-12.1872
▁সাইজ	-12.1879
▁ঘুরেছ	-12.1881
▁রড	-12.1887
দারু	-12.191
▁কাটিয়েছি	-12.1927
তিকভাবে	-12.1931
নান	-12.1938
কাজে	-12.1946
▁কাউ	-12.1946
অন	-12.1977
ৈর	-12.1978
য়াত	-12.1992
ীয়তা	-12.2015
▁সমবেদন	-12.2025
সোটা	-12.2027
রণী	-12.2032
ড়াচ	-12.2032
টটি	-12.2037
▁বানাল	-12.2043
মো	-12.2052
পে	-12.2056
▁ইকো	-12.2074
▁ইওরোপ	-12.2092
▁ষপাতি	-12.2096
লানো	-12.2126
মনীয়	-12.213
বলম	-12.2154
▁ষয	-12.2158
▁ভাবনে	-12.216
▁মনোক	-12.2169
সেই	-12.2188
▁রশি	-12.2191
ফেল	-12.2215
▁খো	-12.2215
তিদান	-12.2251
▁শুর	-12.2273
ূষ	-12.2288
▁বইটা	-12.2295
মাঝে	-12.2321
ারাও	-12.2328
ামে	-12.2338
কারদের	-12.2339
সালে	-12.2344
▁বানিয়েছি	-12.2351
▁বসন	-12.2354
জাগ	-12.2361
িউট	-12.2363
▁ঠু	-12.2364
ুলে	-12.2373
▁রসার	-12.2397
ডলার	-12.2403
▁পৌঁছাল	-12.2408
▁নিয়া	-12.2436
▁বিপদে	-12.244
▁আরাম	-12.2481
াতলা	-12.2497
ুড	-12.2515
াকৃতি	-12.2547
▁কোষগুলো	-12.2558
রাত	-12.2574
▁নিদারু	-12.2575
▁কাপড	-12.2586
াণু	-12.259
▁টেডে	-12.263
মিং	-12.2655
▁লোকটি	-12.2656
▁কলে	-12.2667
▁জটিলতা	-12.2672
▁গবেষণাগারে	-12.2679
▁পরিসম	-12.2687
বিদের	-12.269
থি	-12.2701
▁সাহা	-12.2703
▁রমণে	-12.2706
বেদনা	-12.2708
▁কথ	-12.2727
▁বালান	-12.2739
▁ডলে	-12.2778
মুহ	-12.2789
িটিএ	-12.2796
▁শিশুটি	-12.2796
বরে	-12.2809
▁লিখল	-12.2815
নগুলি	-12.2827
▁উৎসে	-12.2828
▁রিগ	-12.2832
লিচ	-12.2834
তী	-12.285
▁তিমানুষ	-12.2862
▁উপক	-12.2873
▁যানে	-12.2884
▁দিকটা	-12.289
▁খুঁ	-12.2917
▁মাল	-12.292
ডুর	-12.2953
তিগত	-12.2958
ারণা	-12.2973
▁কাচ	-12.2979
▁এলাকাটা	-12.2984
াঁ	-12.3005
▁বিপরী	-12.3009
▁পড়ল	-12.3035
▁বালা	-12.3049
▁পরিমাপে	-12.3055
▁পারতে	-12.3078
▁বাসে	-12.3078
ভাষ	-12.3132
▁শিখিয়ে	-12.3144
এখন	-12.317
শাস	-12.3182
াতায়	-12.3206
▁হাসবে	-12.3214
হবে	-12.3226
এইচ	-12.3226
খালে	-12.3242
▁অধি	-12.3248
েয়	-12.3253
মুখ	-12.3298
▁তুলেছিল	-12.3305
▁রিং	-12.3306
▁একঘ	-12.3343
▁ঢালে	-12.3351
▁তাকাতা	-12.3353
ভুল	-12.3368
▁দিলে	-12.3368
ইস	-12.3369
ৃতি	-12.3384
াট	-12.3392
▁বিলিয়	-12.3402
▁অনুবাদে	-12.3412
খোর	-12.3412
▁বেটি	-12.3422
চিনি	-12.3428
▁থকে	-12.3447
মনভাবে	-12.3451
▁টতা	-12.3453
ালিকা	-12.3475
ুলভ	-12.3486
কভাবে	-12.3493
▁বুকে	-12.3506
সোফ	-12.3511
মিটার	-12.3529
▁বুঝেছিল	-12.3553
বিতা	-12.356
ষিকা	-12.3578
▁মাঝা	-12.3581
৭০০০	-12.3582
▁মগজ	-12.3596
▁লাঠিগুল	-12.3599
ধারা	-12.3607
উড	-12.3609
থান	-12.363
বৈ	-12.3671
পনিবেশ	-12.3678
▁রকাশে	-12.3679
ছবি	-12.3689
কিনা	-12.3698
▁দেবদ	-12.37
▁চাক	-12.3711
▁ডিপ	-12.3716
হৎ	-12.3721
▁রেরা	-12.3733
িয়াত	-12.3746
▁এলে	-12.3747
ুয়ে	-12.3752
▁চেয়েছি	-12.3764
োচন	-12.3768
াকা	-12.377
অনেক	-12.3773
রশ	-12.3776
পতন	-12.3799
▁খেলে	-12.3813
সমূহে	-12.3818
কোয়া	-12.3819
ঘট	-12.3832
ফির	-12.3838
▁থিয়েটার	-12.3838
▁কথোপকথন	-12.385
▁সুইড	-12.3857
▁কোনদি	-12.3861
টস	-12.3884
▁রিকতা	-12.3885
▁রুপক	-12.3885
৩০	-12.3891
▁রেজি	-12.3896
ৌদ	-12.39
▁যানি	-12.3903
উনি	-12.3909
মাসে	-12.3921
▁আলোচনার	-12.3922
জিও	-12.3925
যখন	-12.3925
করন	-12.3959
▁কেই	-12.3962
ধু	-12.3966
েশী	-12.3967
এটি	-12.3974
▁েক	-12.3984
কোষ	-12.4002
▁যায়ন	-12.4014
▁বসলে	-12.4017
বিষয়ে	-12.4035
োগান	-12.4036
▁আনছে	-12.4039
রটা	-12.4051
রীদের	-12.4052
▁থায়নে	-12.4057
▁ঝড়	-12.4063
▁অপরাধে	-12.4064
▁জমাট	-12.4076
▁বুঝত	-12.408
লিটার	-12.4091
ধী	-12.41
অ	-12.4107
বেশী	-12.4121
▁পাও	-12.4128
ছিলো	-12.4142
▁হেয়	-12.4167
লাইন	-12.4173
▁আইনে	-12.4191
তাবৃ	-12.42
▁তিকতা	-12.4208
খখ	-12.421
▁ডিউক	-12.4212
▁সমী	-12.4213
ুশীল	-12.4233
আসা	-12.4242
▁যাং	-12.4243
ফেট	-12.4247
পরিচিত	-12.4252
ভুমি	-12.4256
সর	-12.4262
পান	-12.4283
ুহাম	-12.4299
▁দশম	-12.4306
▁ঘাম	-12.4316
বাবা	-12.4316
অভিজ	-12.4328
▁অতিকায	-12.4339
বিধান	-12.434
▁যালেন	-12.4344
াসী	-12.4344
অতি	-12.4346
েগে	-12.4355
▁রাখব	-12.4356
▁ণয়ে	-12.4361
ারনে	-12.4369
▁গোঁ	-12.4376
পূ	-12.4386
াশি	-12.4389
▁মিংহাম	-12.4398
▁বোত	-12.4401
▁তাগি	-12.4405
▁টাকাগুলো	-12.4407
োলে	-12.4421
রিনা	-12.4429
মির	-12.4444
▁মহিমা	-12.4449
▁ঞাপনে	-12.4452
▁সুযোগে	-12.4452
এসএ	-12.446
তকাল	-12.4466
শা	-12.4476
চারণ	-12.4493
ধারনা	-12.4496
মনীতি	-12.4515
মতে	-12.4516
কোর	-12.452
মনোযোগ	-12.4524
বৈশ	-12.4536
জাতি	-12.4536
লীল	-12.454
▁শপ	-12.4575
িয়	-12.4583
নস	-12.4584
▁মুছ	-12.4585
ারল	-12.4617
পুণ	-12.4622
▁সফলত	-12.4642
বাদক	-12.4647
পরমাণু	-12.4652
▁তাকিয	-12.466
▁ফু	-12.4661
ষাক	-12.4685
কাউকে	-12.4692
ঈ	-12.4695
মাদ	-12.4718
▁সাই	-12.4719
দুটো	-12.473
দিয	-12.4739
▁৩৭	-12.4739
▁ঐশ	-12.4741
দেশী	-12.4762
ওয়	-12.4765
সংঘ	-12.4772
াপত	-12.4774
▁মানি	-12.4778
▁গিতে	-12.4779
রম	-12.4779
উট	-12.4783
▁তণ	-12.4791
আচ	-12.4798
তাতপ	-12.4811
সাইজ	-12.4823
▁রতিট	-12.4824
▁পেরেছ	-12.4829
চিকিৎসা	-12.4865
কোম	-12.4871
▁পেও	-12.4885
▁মায়ে	-12.4887
▁নার	-12.4888
▁থাকু	-12.4893
▁ফুটে	-12.4894
▁ঞানতা	-12.4894
▁হুব	-12.4919
▁জানুয	-12.4928
বেথ	-12.4929
োলি	-12.4935
বিভ	-12.4939
কলা	-12.4948
খি	-12.495
▁আবেদনে	-12.4955
সৈনিক	-12.4962
ুরাত	-12.4975
▁থগুলো	-12.4985
▁দুশ	-12.4988
হতে	-12.5001
কারে	-12.5003
টেক	-12.5011
দীপ	-12.5019
বছরে	-12.5021
রেন	-12.5022
য়েছি	-12.5026
পড	-12.5037
জাতিক	-12.5038
▁শিখা	-12.5042
▁যাজ	-12.5049
াইক	-12.5061
শহর	-12.5066
সংক	-12.5069
অনুপ	-12.507
ইহুদি	-12.5082
▁দাড়	-12.5082
▁আসনে	-12.5091
যায়	-12.5102
বয়সী	-12.511
জেলে	-12.5122
▁কমি	-12.5123
দূতে	-12.5129
পাদ	-12.513
বরূপ	-12.5131
▁কিম	-12.5138
▁জনসাধার	-12.5148
ীণ	-12.5158
নেই	-12.5159
অভিভাবক	-12.5167
৪৫	-12.5168
লাভ	-12.5189
সং	-12.5201
যত	-12.5235
২৫	-12.5257
অভিযান	-12.5259
আঁকি	-12.5259
যুত	-12.5263
▁যালী	-12.5264
▁লোব	-12.5271
চাপ	-12.528
▁পীর	-12.5281
▁উপদে	-12.5282
মেয়ের	-12.5285
াবি	-12.529
পদাতিক	-12.5303
হাউজ	-12.531
▁রকৃ	-12.5313
করি	-12.5313
ধক	-12.5314
দৃঢ	-12.5327
িচক	-12.5329
গাল	-12.533
▁সাধার	-12.5331
▁ছোঁয	-12.5337
▁৬০০	-12.5345
তলোয়ার	-12.5345
বিকাশ	-12.5346
বাকি	-12.535
লটি	-12.5354
▁চলছি	-12.5359
ূপ	-12.5379
মিলিত	-12.5381
নয়	-12.5384
লাভজনক	-12.5387
বাঁকানো	-12.54
পিঠে	-12.5406
ুতি	-12.5407
টু	-12.5409
বহন	-12.5415
শৈল	-12.5425
ভাষা	-12.5429
পড়ত	-12.5431
▁তরলে	-12.5433
সবকিছুর	-12.5434
কাজগুলো	-12.5446
▁জিতে	-12.5446
▁১২০	-12.5453
োকাস	-12.546
দূষ	-12.5491
তিহীন	-12.5493
বাহিনী	-12.5497
কালো	-12.5503
লেজ	-12.5506
▁বাচন	-12.5507
উৎপ	-12.5508
▁কিসে	-12.5508
ুরো	-12.5512
ঃপ	-12.552
লোভন	-12.553
সীমার	-12.5547
রেজ	-12.5551
▁হইত	-12.5555
চারী	-12.5556
রমোন	-12.5556
▁চেহার	-12.5557
রেডিট	-12.5558
গড়া	-12.5567
েকে	-12.5593
আবি	-12.5594
নেওয	-12.5603
তিন	-12.5612
▁সাইকেলটা	-12.5615
টেছিল	-12.5616
লিটারি	-12.5631
দামে	-12.5631
▁ঘমেয	-12.5634
ভেন	-12.5635
▁তৃ	-12.5647
খুব	-12.5653
ডিয়ান	-12.5669
▁রমগুলো	-12.5674
মিংহাম	-12.5675
লিয়াস	-12.5678
সবস	-12.5678
চাচ	-12.5694
তিগ	-12.5702
াঁস	-12.5703
▁ভাবো	-12.5706
িময়	-12.5711
ইউ	-12.5728
▁পরিনি	-12.5753
গতিক	-12.5783
খানে	-12.5802
▁৪৫	-12.5804
নাইজ	-12.582
▁ঘটিয়ে	-12.5832
লিও	-12.5842
খোঁজ	-12.5851
াবহ	-12.5854
ুমি	-12.5856
নন	-12.5856
মুস	-12.5873
িআই	-12.5873
ভেস	-12.5893
ডিউক	-12.5896
▁ধরলে	-12.5902
পালন	-12.5931
ঝড়ে	-12.5936
ডাস	-12.5948
নাই	-12.5952
৯৪	-12.5958
▁কারাগার	-12.596
▁চুলে	-12.5972
▁দামে	-12.598
▁বুঝল	-12.5985
▁সেনা	-12.5998
তিকে	-12.6035
রণাম	-12.6037
তিকতা	-12.6047
▁কনফ	-12.6054
▁যাথল	-12.6058
▁শুনেছিল	-12.6063
▁ভিডিওগুলো	-12.6065
ভারত	-12.607
ফিন	-12.6071
নোবল	-12.6075
▁নয়নে	-12.6078
দূ	-12.6082
বৃহৎ	-12.6087
গায়	-12.6116
ধাক	-12.6119
▁যথা	-12.6126
গোড়া	-12.6126
িয়াস	-12.613
মেল	-12.6134
▁ঘৃণ	-12.6141
▁হারায	-12.6144
পাড়	-12.6151
ঘু	-12.6165
▁এড	-12.6168
▁থব	-12.6185
়ের	-12.6187
নিস	-12.6191
▁আশি	-12.6217
োসিন	-12.6232
▁বাঁচি	-12.6264
▁এখ	-12.6287
মাঝ	-12.63
ুরি	-12.6308
লিট	-12.6311
বোধে	-12.632
▁কেপি	-12.632
▁আদা	-12.6331
▁ভাষ	-12.6333
▁চিমে	-12.6339
েমনটি	-12.6349
সিক	-12.6376
লোচনা	-12.6381
াহা	-12.6395
গলা	-12.6397
▁অনুশীল	-12.6404
▁দুকে	-12.6407
▁রেইন	-12.6408
▁ভাবলে	-12.6414
▁নিউর	-12.6418
▁খুঁজছি	-12.6429
▁ইংরেজ	-12.6429
▁সুব	-12.6431
অক	-12.6434
▁চেনা	-12.6437
এল	-12.644
রতি	-12.6458
▁তুতে	-12.6458
শের	-12.6473
▁চাশ	-12.6479
জায়	-12.6482
াইপ	-12.6504
▁তুটি	-12.6505
▁ভক	-12.6507
ভাই	-12.6509
োরিন	-12.6514
বাঘ	-12.6538
উৎপাদ	-12.6548
রকার	-12.6561
▁অনলাইন	-12.6563
কাশক	-12.657
কোট	-12.6574
ঁক	-12.6597
▁চুর	-12.6599
গুণে	-12.6613
াকাটি	-12.6616
সিডে	-12.6628
করাতে	-12.6634
▁চাইল	-12.6636
তাহীন	-12.6644
▁তোল	-12.665
সোন	-12.6658
ঁটি	-12.6661
?	-12.6673
কাওয়	-12.6677
ীয	-12.669
রিয়াটা	-12.6692
▁নামিয	-12.6695
তত	-12.6701
▁শুনিয়েছ	-12.6701
রবিন	-12.6711
▁অনেকসময	-12.6765
▁নিয়েছ	-12.6765
▁জৈ	-12.6766
েত	-12.6788
▁ছাড়	-12.6811
▁ফীত	-12.6812
মাছি	-12.683
▁যরস	-12.683
▁দানবে	-12.6835
▁ঝাঁ	-12.6837
▁পড়েছ	-12.6841
রগুলো	-12.6843
িধান	-12.6849
▁পালিয	-12.6856
▁দৌড	-12.686
ভু	-12.6865
সীমানায	-12.6873
নিচ	-12.6891
বায়ন	-12.6897
▁গভী	-12.6901
▁উঠছিল	-12.6921
বীর	-12.6952
সাহা	-12.6954
▁সেসময	-12.6955
দাস	-12.6956
▁যুপ	-12.6977
▁রহটি	-12.6987
বেচ	-12.6995
▁তদ	-12.7002
বেশ	-12.7004
▁চেয়	-12.7006
▁বাজিয	-12.701
▁ভাবছ	-12.7013
▁সিরি	-12.7017
আ	-12.7018
▁চাগুলো	-12.7019
▁লাগিয	-12.7027
▁খেলছ	-12.703
▁সকাল	-12.7032
াদুর	-12.7038
েশ	-12.7045
ধারে	-12.7054
▁ধরেছে	-12.7058
▁নবজাত	-12.7061
োস	-12.7067
▁তলিয	-12.707
ুবা	-12.7103
▁বজায	-12.711
▁নজরদার	-12.7123
▁মামলা	-12.7128
▁গুলিয	-12.7141
▁গোপনীয	-12.715
ুটে	-12.7155
বিরোধি	-12.7155
ুনিক	-12.7158
নত	-12.7164
ূহ	-12.7169
াঁকানো	-12.7172
লেখি	-12.7172
▁আবেগপ	-12.7178
ভূমিকায	-12.7179
▁খাড	-12.7197
▁নেহায়ে	-12.72
#	-12.7202
ঁজে	-12.7209
▁হাওয	-12.7212
▁সহস	-12.7213
▁নৈ	-12.7217
▁টুইট	-12.7227
▁ঘৃ	-12.723
▁রতীয	-12.7231
▁উভয	-12.7234
বিল	-12.7235
মূ	-12.724
াফ	-12.7245
▁বাঁকা	-12.7245
▁মৌল	-12.7247
▁সহানুভূ	-12.7247
▁নিরাময	-12.725
▁ছুঁ	-12.7251
হাদেশ	-12.7254
▁জলবায	-12.7256
খালছেলে	-12.7259
▁হাউ	-12.726
মেরিকান	-12.7261
োঁড়া	-12.7262
টোফেন	-12.7263
▁পুঁজি	-12.7264
▁এছাড	-12.7265
▁সহানুভ	-12.7266
3	-12.7266
▁অহং	-12.7268
▁কমিউন	-12.7269
তূহল	-12.727
▁কাঠি	-12.7271
টিউব	-12.7272
মাপযো	-12.7272
▁চাঁদ	-12.7274
ঁড়ি	-12.7275
াজিক	-12.7276
ুলেশন	-12.7277
ডেভি	-12.7279
DT	-12.7281
▁ধরিয	-12.7283
াজিয়েছি	-12.7284
সাধা	-12.7285
পু	-12.7292
▁কুঁ	-12.7295
মালয়	-12.7296
পেরি	-12.7301
শুয	-12.7302
শাবাদ	-12.7303
োধিত	-12.7308
হহহ	-12.7308
ছানো	-12.7309
সেট	-12.7309
▁ওহহ	-12.7311
জুয	-12.7311
▁মডেলিং	-12.7312
জিনিয়া	-12.7315
▁৭৮	-12.7316
াশোনা	-12.7317
খেপ	-12.7318
উফ	-12.7318
▁ইউরো	-12.7321
পনার	-12.7323
অহ	-12.7323
বেদনায	-12.7331
▁হঠা	-12.7333
▁লড়া	-12.7334
▁রতিনিয	-12.7334
জেনের	-12.7335
▁তবায	-12.7337
থিবী	-12.7338
মিস	-12.7339
▁মৌ	-12.7341
িবেশিক	-12.7342
▁শেখ	-12.7342
▁শুনিয	-12.7348
▁বীত	-12.7352
ৈতি	-12.7355
▁নাটক	-12.736
▁যাংকিং	-12.7361
টিকাট	-12.7361
▁গীয	-12.7362
▁আমর	-12.7364
▁বিলাস	-12.7368
▁মেডি	-12.7372
▁ভোজ	-12.7379
▁সুবি	-12.7386
▁কট	-12.7389
▁হোয	-12.7394
ৈশ	-12.7397
কানুন	-12.7402
িরোন	-12.7404
িটাল	-12.7407
▁পাওয়	-12.7422
▁মোকাব	-12.7425
▁অনুজ	-12.7427
▁দেবতা	-12.7428
়ান	-12.7432
▁ঘোর	-12.7434
▁মারত	-12.7439
নিসটা	-12.7449
বিয	-12.7449
▁শেখায	-12.7455
▁ঘি	-12.7456
োগকারী	-12.7462
োগি	-12.7465
▁আলোড	-12.7467
ূম	-12.747
াতিক	-12.7474
▁বাঁক	-12.7495
োটেকন	-12.7504
ানুগ	-12.7506
ফেস	-12.7507
সাথ	-12.7512
বিদে	-12.752
ধব	-12.7521
কুচি	-12.7525
▁ফুটপ	-12.7533
দায়ক	-12.7548
▁হাতিয	-12.7548
হরণ	-12.7558
▁ঞায	-12.7561
সিস	-12.757
মেইল	-12.7578
▁অফি	-12.7599
▁রদা	-12.7599
▁ষাব	-12.7606
রল	-12.7617
়া	-12.7617
▁পুড	-12.762
▁সোয	-12.7627
▁রুল	-12.7627
চির	-12.7631
সিকতা	-12.7634
▁রাইফ	-12.7634
য়েলী	-12.7637
▁জেম	-12.7645
বাণ	-12.7648
▁আশাব	-12.7648
▁পাইরে	-12.7656
▁মীয	-12.766
▁পেশাজীব	-12.7661
ফবি	-12.7662
াচারে	-12.7665
সংবেদ	-12.7666
ণার	-12.7671
▁রীড	-12.7673
ডাব	-12.7674
▁হর	-12.7675
▁রেডিট	-12.768
নুশীলন	-12.7682
▁রাশি	-12.7694
ণিত	-12.7701
▁নীয়	-12.7704
▁সৈ	-12.7706
োডো	-12.7707
রেড	-12.7709
▁দাড	-12.7718
▁পুলি	-12.7742
▁চারট	-12.7746
▁টিফ	-12.7749
সুর	-12.7756
ঁকি	-12.7758
▁গী	-12.776
পোক	-12.7772
ীতি	-12.7776
ঠক	-12.7786
ঁই	-12.7797
বেদী	-12.7797
বু	-12.7803
▁ধরেছি	-12.7804
▁সমীক	-12.782
▁রতার	-12.7823
াসনে	-12.7828
বারিক	-12.7829
▁ডাল	-12.7829
▁চাইছিল	-12.7835
নীতিকে	-12.7836
ষজনক	-12.784
াংস	-12.7846
লাদা	-12.7849
▁রিকায	-12.7853
তিনি	-12.7855
বচন	-12.7855
ইট	-12.7863
ুহ	-12.7864
য়েদের	-12.7872
▁এদিক	-12.7872
▁ধমন	-12.7874
ুরুদ	-12.7875
▁বিচারে	-12.7877
▁কাটান	-12.7884
কিল	-12.7888
▁জীবনধার	-12.7895
নুগত	-12.7896
একজন	-12.7908
রয	-12.7908
▁বছ	-12.7909
াংশে	-12.7909
বহু	-12.791
▁টাফ	-12.792
▁পৌর	-12.7924
▁পরিভ	-12.7924
িলিয়া	-12.7925
▁যবসায	-12.7926
▁ভাবল	-12.7934
িডিয়া	-12.7937
নিয়া	-12.7944
▁তিগুলো	-12.7958
য়েছে	-12.7971
▁দেখিয	-12.7978
ফো	-12.7982
লিজ	-12.799
▁পালটা	-12.8002
জোয	-12.8006
ূনত	-12.8007
ফেরে	-12.8032
াভি	-12.8033
▁মিড	-12.8035
▁পাঠান	-12.8036
▁আগাম	-12.8061
▁কোনট	-12.8061
▁হারা	-12.8061
▁বিব	-12.807
কোয়	-12.8118
সায়ন	-12.8125
সারণ	-12.8138
▁যারিয	-12.8145
কৃতিকভাবে	-12.8145
ডার	-12.8153
দাঁড়া	-12.8164
চাই	-12.8165
বেশে	-12.8166
▁নিখ	-12.8169
▁পাঠিয়েছ	-12.8169
ওগুলো	-12.8171
▁লড	-12.8175
সোস	-12.8176
টফ	-12.8178
চীন	-12.818
▁রমহ	-12.8184
ালোচনা	-12.8194
হগ	-12.8195
হব	-12.8234
োরা	-12.8243
ণশীল	-12.825
নাল	-12.8257
িচালক	-12.8266
▁চালান	-12.8278
▁রেরণ	-12.8283
বধার	-12.8292
▁ধুয	-12.83
)	-12.8301
▁রাচী	-12.8312
▁মোক	-12.8317
েমনটা	-12.8346
▁বহি	-12.8353
মেয়	-12.8355
▁উপন	-12.837
সাপ	-12.8386
টাইম	-12.8424
বাধ	-12.8427
▁রাজি	-12.8431
ছা	-12.8434
▁খুশ	-12.8452
ুৎস	-12.8461
ফেলে	-12.8463
িমান	-12.8467
বতী	-12.8474
▁কিছুক	-12.8485
কারাগ	-12.8489
রায	-12.85
থাই	-12.8501
মাই	-12.8513
সজ	-12.8524
৮০	-12.854
▁অনুর	-12.8542
▁উপশ	-12.8552
ডাম	-12.8556
নক	-12.8559
▁যদল	-12.8577
ানিরোধ	-12.8579
ীচ	-12.858
ডিও	-12.8584
▁থম	-12.8594
▁কুস	-12.8602
বারগ	-12.8611
পটে	-12.8611
দো	-12.8617
িবেশ	-12.8628
▁তুলন	-12.8636
েটার	-12.865
কতা	-12.8651
ুঁটি	-12.8652
য়াগ	-12.8663
ঁজ	-12.8665
▁জানাল	-12.8666
▁পাড়া	-12.8676
▁জিরা	-12.8679
▁লিও	-12.8686
▁বৈর	-12.8693
▁দরজ	-12.8696
ছুক	-12.8698
ামান	-12.8711
হাব	-12.8714
▁কাটিয়েছ	-12.8717
▁তাড়	-12.8727
সিং	-12.8737
োয়েন	-12.874
সাক	-12.874
▁বিবা	-12.8743
য়েটার	-12.8754
▁সাইট	-12.8754
খিন	-12.8774
ংগে	-12.8809
রুত	-12.8842
ফি	-12.8849
ালা	-12.8857
াচার	-12.886
বেষ	-12.8861
▁যাবল	-12.8867
▁নান	-12.8883
বিহ	-12.8926
লেছিলেন	-12.8927
ারকে	-12.8939
▁রমগুল	-12.8942
টাইপ	-12.896
াপড়	-12.9023
েশনে	-12.9023
▁পরেছিল	-12.9033
সেব	-12.9073
▁ইংর	-12.9074
▁রোব	-12.9077
বীজ	-12.9078
রথি	-12.908
রাফের	-12.9082
সলে	-12.9085
িখ	-12.9087
জিন	-12.9121
সীমাট	-12.9131
োকা	-12.9131
ভিডি	-12.9132
গারে	-12.9135
▁টাট	-12.9135
▁গবে	-12.9147
▁গিয়েছ	-12.9158
▁বিভা	-12.9163
▁উড	-12.9181
োনা	-12.9189
াজী	-12.9192
মু	-12.9215
▁ডনে	-12.9218
▁সমকা	-12.9218
▁মম	-12.9226
ইনভ	-12.9259
▁সগুল	-12.9268
য়াল	-12.9268
সীমানা	-12.928
▁ছতা	-12.9288
রদের	-12.9309
▁যভাগ	-12.9315
থিব	-12.9315
▁রতিবেশ	-12.9331
▁কূ	-12.9333
লাকার	-12.9347
▁শিখিয়েছ	-12.9367
▁রাণে	-12.9368
েদ	-12.9368
▁পেলে	-12.9381
ষে	-12.9414
মহাদেশে	-12.9433
রগো	-12.9436
কেরা	-12.9442
ফস	-12.9501
ওটা	-12.9512
▁বিড	-12.9535
রদ	-12.9567
পাতিক	-12.9578
▁ভীষ	-12.9591
▁দৃঢ	-12.9605
▁সুফ	-12.9609
▁পরিবেশন	-12.9623
নভাবে	-12.9637
বুক	-12.9644
কানি	-12.9652
থানিয়	-12.9654
পারম	-12.9654
▁ঘামা	-12.9677
▁ছয	-12.9689
নীর	-12.9702
গতম	-12.9707
নারী	-12.9735
▁লোগ	-12.9736
▁বলতা	-12.974
লীয়	-12.9753
োমা	-12.9764
হাড়	-12.9771
▁পরিহা	-12.9787
ঁয়	-12.9804
থাও	-12.9806
ুলাম	-12.9806
▁পরিমানে	-12.9817
ীকা	-12.984
নডা	-12.9854
▁নাড়া	-12.986
ুধ	-12.9871
▁বাইস	-12.9872
▁পড়ি	-12.9876
োনম	-12.989
▁অপরাধীর	-12.9902
রিমান	-12.9927
▁আঁকি	-12.9936
যৌ	-12.9942
▁ভালোবাসত	-12.9947
ুইট	-12.9962
াবিত	-12.9964
▁হাতও	-12.9966
িফ	-12.997
▁পড়ত	-12.9984
জাল	-12.9991
ুইটার	-12.9998
ইলি	-13.0008
▁দিব	-13.0024
▁দায়ে	-13.0028
খার	-13.003
▁নর	-13.0056
▁সমা	-13.0066
মতো	-13.0091
খাবেন	-13.0116
▁ষায	-13.0117
▁মাই	-13.0136
রাক	-13.0165
দলে	-13.0167
নপ	-13.0171
▁ওরক	-13.0178
ায়ন	-13.0193
তীয়	-13.0194
▁কোট	-13.0196
▁পরিবা	-13.0202
লাপ	-13.0234
াগার	-13.0251
মগ	-13.0254
সাল	-13.0257
কাত	-13.0275
es	-13.0292
াওয়ার	-13.0318
▁জবা	-13.0325
সরু	-13.0335
ঠা	-13.0342
াবিদ	-13.0345
▁টরে	-13.0347
▁অং	-13.0362
▁টক	-13.0377
ুকের	-13.0378
টিই	-13.0395
রঃ	-13.0419
িণ	-13.0476
িরা	-13.0486
নিম	-13.0494
বড়	-13.0498
▁বশীল	-13.052
বীট	-13.0542
মিন	-13.0546
▁রীত	-13.059
▁মাতার	-13.0594
ুখে	-13.0603
াটাকে	-13.0604
▁রাই	-13.0625
াইনে	-13.0656
সংসা	-13.0671
▁সংঘ	-13.0687
কানো	-13.0689
▁বাড়িটা	-13.0701
▁যাসন	-13.0719
▁ঘটনাক	-13.0751
েনে	-13.0753
▁সহায	-13.0764
েষে	-13.0783
উরন	-13.0795
▁যাসে	-13.0815
সেটা	-13.0829
িব	-13.0842
▁জুল	-13.0858
তিমূল	-13.0864
▁ষনি	-13.0865
লিশে	-13.0875
শাল	-13.0915
▁রীয	-13.0944
টারি	-13.0957
ামুল	-13.0968
ডিউ	-13.0988
বোন	-13.0995
াইনি	-13.0997
▁ডিক	-13.1026
কারীর	-13.1027
ানু	-13.1032
ংকটা	-13.1051
▁পিটি	-13.1055
এখানে	-13.1066
ভাবনী	-13.1068
াসায়	-13.1072
লোর	-13.1085
ড়ী	-13.109
ণো	-13.1125
বৎ	-13.1145
▁ফাই	-13.1148
ষা	-13.1173
ভিনেত	-13.1197
▁গেছ	-13.1242
ফী	-13.1272
নিজ	-13.1272
▁ডী	-13.129
ডল	-13.1293
লাতে	-13.13
▁শণ	-13.1379
▁ছো	-13.1398
ীবন	-13.1403
▁বেস	-13.1404
▁কানে	-13.1434
▁বলছ	-13.1434
িদার	-13.1455
লিম	-13.1458
▁ইয	-13.1495
▁ফারা	-13.1511
দারুণ	-13.1522
গিত	-13.1529
ডারে	-13.1552
েম	-13.1557
▁জলে	-13.1562
হয়ে	-13.1567
▁নাড	-13.1585
▁চত	-13.1593
নীতিগ	-13.1601
িলি	-13.1606
কথাগুলো	-13.1626
নাশ	-13.1631
য়েছিল	-13.1637
▁চিব	-13.1638
▁রভ	-13.1655
করণগুলো	-13.1673
পট	-13.1713
রায়েল	-13.1742
▁বিম	-13.1755
▁কৌশলগ	-13.1756
জীবনে	-13.1789
নেওয়া	-13.1798
▁অতিস	-13.1801
▁শনে	-13.185
▁সুম	-13.1901
▁সদা	-13.1939
ানী	-13.196
▁াল	-13.1991
ানি	-13.1997
▁পয়	-13.2011
▁এনএ	-13.2027
াজের	-13.203
তভাবে	-13.2075
লেটিক	-13.2082
সূচী	-13.2091
াসা	-13.2121
মহী	-13.2131
নগুলো	-13.2171
শুধু	-13.2172
োচক	-13.2177
▁যগত	-13.2206
রেছি	-13.2209
নবি	-13.2235
▁ফুলে	-13.2236
▁এলা	-13.2252
▁কোরা	-13.2265
োয	-13.2294
ণীর	-13.2295
ধারণ	-13.232
▁মুস	-13.2336
▁কাক	-13.2342
ণবি	-13.2348
▁নী	-13.2353
বাসা	-13.237
▁যেস	-13.237
▁লট	-13.2422
ালেন	-13.2431
ামলা	-13.2514
পাক	-13.2524
াপতি	-13.2526
োয়	-13.2554
ারগো	-13.2581
াভাষ	-13.2584
কৌ	-13.2608
াড়িয়ে	-13.2693
নাকে	-13.2724
▁রাইম	-13.2728
পারি	-13.2742
ুনি	-13.2752
▁পাক	-13.2758
▁চলি	-13.2792
ভীষ	-13.2793
সরক	-13.2823
রিশ	-13.2837
বিয়া	-13.2838
▁নভ	-13.2861
▁ইজ	-13.2879
▁ডু	-13.294
▁জিতেছ	-13.2947
▁কয়া	-13.2964
াগুলো	-13.2978
ধির	-13.3073
েজ	-13.3137
ওর	-13.3151
রশাস	-13.3168
াগানো	-13.318
▁রতিস	-13.3202
রতা	-13.3204
▁নেপ	-13.3214
বকোষ	-13.3227
খেলা	-13.3272
েটাকে	-13.3299
▁বালি	-13.3303
▁টারন	-13.331
য়াতে	-13.3327
াসকে	-13.3332
দেব	-13.3337
▁ডও	-13.3351
হিম	-13.3377
সো	-13.3406
কাছে	-13.3412
▁আমারা	-13.3434
বারে	-13.3437
মোনি	-13.3438
ইয়ে	-13.3458
োনো	-13.346
▁নিহ	-13.3465
ুয	-13.3474
রনের	-13.3481
▁সারস	-13.3487
তোই	-13.3497
▁গোড	-13.353
নিও	-13.3539
শে	-13.3608
ানীদের	-13.3612
▁রোপ	-13.3615
াশক	-13.3647
রোটা	-13.3649
শুরু	-13.3694
রকমভাবে	-13.3698
হিমায়	-13.371
সস	-13.374
▁তঃ	-13.3755
▁জীবনক	-13.3775
ঁদ	-13.3777
▁পদক	-13.3822
▁কাম	-13.3835
মানুষ	-13.3866
জোড়	-13.3927
▁বাই	-13.3952
ছনে	-13.3959
াঁচা	-13.3974
গীর	-13.399
ণি	-13.3992
াড়	-13.4048
হো	-13.4064
শু	-13.4072
▁গবেষণাক	-13.4073
জী	-13.4074
▁ধরি	-13.4079
▁সুইডি	-13.4092
ংগার	-13.4093
▁রোট	-13.4116
াগ	-13.4153
▁রেরি	-13.4163
▁রাব	-13.4198
▁ইয়েল	-13.4228
▁ঘটব	-13.4253
িচা	-13.4308
▁সেলে	-13.4353
গনা	-13.4389
লড়া	-13.4398
জক	-13.4416
▁কতো	-13.4417
▁ঢা	-13.4435
ায়না	-13.4485
িনটি	-13.4487
▁যোগা	-13.4509
▁কিল	-13.4583
পুনি	-13.4583
চু	-13.4585
▁গলি	-13.4631
েখেন	-13.4676
▁রভাবে	-13.4759
ায়ক	-13.4833
ষণাক	-13.4849
মনী	-13.489
আসলে	-13.4914
িভ	-13.4923
মকে	-13.5017
ডিন	-13.504
ুভ	-13.508
কাঠিগুল	-13.5106
▁তনে	-13.5108
ইড	-13.5146
যবহার	-13.5174
▁ওড	-13.5192
কজন	-13.5199
নাদ	-13.5203
▁বিরোধ	-13.5206
▁তোরা	-13.522
▁ওদ	-13.5233
নজা	-13.527
েনি	-13.5301
▁দুইট	-13.5304
লাট	-13.5312
▁দড	-13.5321
▁মুখম	-13.5331
te	-13.5337
তাহলে	-13.5338
▁গনে	-13.5341
▁সুরে	-13.5347
▁রতিব	-13.5419
কগুলো	-13.5429
পো	-13.5486
▁সিধ	-13.5495
২০০	-13.5519
▁তিপ	-13.5538
সারি	-13.5539
খের	-13.5549
▁মনোজ	-13.5551
তগুল	-13.5551
▁যাকি	-13.5598
সেবা	-13.5605
রেস	-13.5614
পকে	-13.5615
▁তোম	-13.5652
▁তিম	-13.5654
▁ডম	-13.5679
সক	-13.5685
▁এগো	-13.5718
▁ধারে	-13.5721
এইচএ	-13.5759
ালিক	-13.5808
▁গগ	-13.5809
তিকর	-13.5813
▁ইং	-13.586
হারি	-13.5896
ধিক	-13.5897
জটা	-13.5917
▁বেকা	-13.5957
▁অনব	-13.5985
নাচ	-13.5987
▁যকা	-13.6034
▁নড	-13.6051
তিবাদ	-13.6076
▁তনক	-13.6096
▁যামের	-13.6118
▁দলট	-13.6153
যেখানে	-13.6178
ষতা	-13.6184
াঁদের	-13.6318
▁দুপ	-13.634
শেষ	-13.6343
ড়তে	-13.6359
াগুলি	-13.6374
▁মবি	-13.6391
আকার	-13.64
েটে	-13.6406
পির	-13.6523
নুন	-13.6555
▁বেদনা	-13.6562
▁সিয	-13.663
দেখতে	-13.6686
বেদনশীল	-13.6735
আপনাদের	-13.6757
▁যাপা	-13.6787
▁কয়	-13.6798
ুলো	-13.69
পায়	-13.6907
কটের	-13.693
টক	-13.6964
াপিত	-13.6985
▁টগ	-13.7009
থের	-13.7011
ককে	-13.703
▁গাড়	-13.7056
বোনা	-13.7072
ইডি	-13.7094
▁জীবনযা	-13.7138
াছে	-13.7166
▁উপহা	-13.7244
াদার	-13.7254
▁সরি	-13.7293
রহ	-13.7305
কিত	-13.7359
চান	-13.7377
নও	-13.7414
▁যুব	-13.7426
ুস	-13.7485
েহে	-13.7524
অনু	-13.7536
▁ওজ	-13.7542
ুদে	-13.7555
আমাকে	-13.7675
▁আমাদেরটা	-13.7833
▁সুই	-13.7834
▁দানবট	-13.7849
▁সবু	-13.7851
ইছ	-13.7862
কোণ	-13.7884
▁একি	-13.789
রিণ	-13.7912
▁রিসে	-13.793
লোও	-13.794
▁শকদ	-13.7965
▁ভূম	-13.7997
ষট	-13.8068
▁যজন	-13.8103
কৃষ	-13.8104
ওনার	-13.8112
ফা	-13.8176
গা	-13.8207
▁টস	-13.8224
েটা	-13.8265
▁ঘেঁ	-13.827
ণদ	-13.8311
▁টিই	-13.8352
▁অচ	-13.8386
তান	-13.8491
▁বারে	-13.8497
িয়েছে	-13.853
▁ভাগে	-13.8548
ইলিয	-13.856
▁রীক	-13.8737
হয়েছে	-13.8746
ংস	-13.8781
ভিশ	-13.8781
▁মায়	-13.8808
▁রোক	-13.8848
করছে	-13.8898
যার	-13.8902
▁মানুষগুল	-13.8911
▁আরে	-13.9027
াসত	-13.9051
▁গুণে	-13.9056
বলতে	-13.9079
▁বনি	-13.9133
▁নিরা	-13.9166
ষের	-13.9167
▁বলেত	-13.9185
ঁচানো	-13.9193
মনো	-13.9242
লীলা	-13.9247
ৈরি	-13.9263
জনা	-13.9308
লিত	-13.9309
▁অনেককে	-13.932
ণীদের	-13.9331
▁পালট	-13.9349
ৃ	-13.9475
▁দপ	-13.9506
▁রেনি	-13.9547
ষয়	-13.9547
▁জনস	-13.9549
ূচি	-13.9583
▁জীবব	-13.9622
াবৃ	-13.9642
িটি	-13.9666
িনিয়	-13.9707
যন	-13.9745
▁যারে	-13.9845
রটার	-13.9945
▁১৯৩	-13.9959
থাকে	-13.9966
সুত	-13.9978
▁তট	-13.9992
ইটি	-14.0006
▁একদি	-14.0024
ীরে	-14.007
ীমা	-14.015
▁মণ	-14.0192
রপ	-14.0207
▁সময়কা	-14.0212
▁সৃ	-14.0324
▁যহ	-14.0425
সবার	-14.0435
টায়	-14.0437
▁দেখত	-14.0521
▁সফ	-14.0632
ফের	-14.0656
হিসেবে	-14.066
▁ডব	-14.0691
▁মকানুনে	-14.071
যেটা	-14.0762
রতাম	-14.0768
▁রথ	-14.0801
ংশের	-14.0958
তৈরি	-14.0969
িয়ামে	-14.0971
কেট	-14.1013
ঋ	-14.1066
”	-14.1067
9	-14.1068
’	-14.1069
ঐ	-14.107
!	-14.1071
—	-14.1072
বায়	-14.1073
ৌ	-14.1073
