<unk>	0
<s>	0
</s>	0
a	-3.20954
▁.	-3.22542
▁,	-3.28131
e	-3.36004
▁	-3.44311
o	-3.72856
u	-3.75823
i	-3.85072
▁je	-3.92321
▁i	-4.03416
▁da	-4.16553
▁u	-4.28832
;	-4.55317
▁&	-4.573
ot	-4.66448
▁se	-4.66586
qu	-4.6988
mo	-4.7419
▁na	-4.77719
ti	-4.90248
m	-4.99936
▁za	-5.01868
li	-5.04918
▁su	-5.05866
▁to	-5.21089
▁ne	-5.32017
te	-5.35567
▁I	-5.39521
▁sam	-5.41666
om	-5.42266
▁od	-5.49333
ih	-5.50144
▁bi	-5.52427
h	-5.55468
što	-5.58633
▁?	-5.64136
▁koji	-5.69009
▁sa	-5.74924
ma	-5.76314
r	-5.87893
▁o	-5.96418
smo	-5.98126
▁ov	-6.01483
im	-6.01903
▁kao	-6.04212
og	-6.04976
▁koje	-6.06852
▁s	-6.07877
▁iz	-6.10401
▁)	-6.11156
(	-6.1178
ako	-6.14818
ju	-6.1533
▁ljudi	-6.17277
▁će	-6.20216
▁ima	-6.20885
▁:	-6.20951
la	-6.21117
▁To	-6.23034
oj	-6.23375
▁koj	-6.23481
▁kak	-6.26113
g	-6.28195
▁Ali	-6.28953
je	-6.34372
▁može	-6.3725
▁nije	-6.37375
▁po	-6.37811
▁U	-6.37872
ima	-6.38822
▁mi	-6.39804
ći	-6.42447
▁ovo	-6.4469
▁kada	-6.45365
an	-6.48189
j	-6.48319
▁samo	-6.50667
ali	-6.52402
▁—	-6.52561
▁vam	-6.54025
▁A	-6.59625
▁do	-6.61631
ak	-6.6187
▁tako	-6.62175
▁sve	-6.65057
-	-6.6763
▁više	-6.69947
▁godina	-6.72041
▁nis	-6.74436
▁Da	-6.74472
▁Ovo	-6.7742
▁svijet	-6.77912
▁biti	-6.79648
▁li	-6.80151
▁On	-6.82154
▁šta	-6.83179
▁radi	-6.84443
ci	-6.84602
▁moj	-6.85538
▁ste	-6.86045
▁nam	-6.89725
▁nas	-6.91157
▁djec	-6.92851
▁ve	-6.93064
▁svoj	-6.93625
ne	-6.94018
apos	-6.96085
▁Ne	-6.96364
▁mnogo	-6.96579
▁Smije	-6.97558
▁k	-6.98297
▁nešto	-6.98744
▁Na	-7.00563
▁nego	-7.01342
▁mora	-7.02081
▁bilo	-7.02861
▁ja	-7.03103
t	-7.03507
▁način	-7.03758
▁oni	-7.06161
.	-7.06458
▁naš	-7.07243
▁stvari	-7.08058
pravo	-7.0844
▁svi	-7.09448
▁D	-7.10694
▁vas	-7.10967
▁treba	-7.12705
▁mogu	-7.12978
▁Za	-7.13429
▁Ak	-7.15374
▁Tako	-7.15498
▁bio	-7.15591
▁oko	-7.164
▁ono	-7.17032
▁život	-7.187
nje	-7.22026
oma	-7.22363
ću	-7.2242
▁godin	-7.22975
ama	-7.24793
▁P	-7.24877
s	-7.25368
ni	-7.25496
▁možete	-7.26608
▁gdje	-7.26896
▁ga	-7.27679
▁postoji	-7.28458
▁S	-7.28471
▁koju	-7.28995
▁Aplauz	-7.29451
▁tom	-7.29644
▁jedan	-7.29647
▁mogl	-7.29735
no	-7.30661
▁stvarnost	-7.32051
▁drug	-7.32799
lo	-7.34055
na	-7.34059
▁Pa	-7.34576
onda	-7.3563
da	-7.35871
ka	-7.35966
me	-7.3642
š	-7.37525
ili	-7.38173
▁možda	-7.38631
▁jedn	-7.39564
▁sada	-7.41363
roz	-7.42075
▁tu	-7.42282
▁stvar	-7.43554
▁ovd	-7.44053
▁problem	-7.44354
▁prije	-7.46132
▁naše	-7.46322
▁me	-7.46848
▁zemlj	-7.47103
▁taj	-7.47299
▁tog	-7.47682
▁već	-7.48125
▁te	-7.48291
▁njihov	-7.48773
▁Hvala	-7.5088
▁kraj	-7.50899
▁Kad	-7.51792
▁kad	-7.52226
▁milijard	-7.53427
još	-7.53516
▁on	-7.55198
koliko	-7.57025
▁pre	-7.57226
▁broj	-7.57526
▁bil	-7.57836
ga	-7.57986
vijek	-7.58175
▁bez	-7.58726
▁vidjet	-7.61521
nja	-7.61798
▁društv	-7.62714
▁koristi	-7.62753
▁O	-7.63471
ista	-7.63649
dje	-7.64211
▁dvije	-7.64324
▁danas	-7.64773
▁nema	-7.65045
ravno	-7.65192
▁vrije	-7.65765
▁dio	-7.67616
▁vi	-7.69513
▁imam	-7.7014
▁ova	-7.70889
kon	-7.70983
▁vidi	-7.71476
ke	-7.71482
▁tri	-7.71614
kom	-7.71794
▁milion	-7.71796
n	-7.71867
▁dva	-7.71953
▁znam	-7.72643
▁K	-7.72655
▁jedna	-7.72799
▁-	-7.73072
▁vaš	-7.73904
▁vrst	-7.74424
▁želi	-7.7537
▁rek	-7.75419
imaju	-7.76177
▁ljudsk	-7.76326
put	-7.77078
▁Šta	-7.77194
▁ljud	-7.79161
sto	-7.79407
iti	-7.79589
▁vremen	-7.80143
▁Može	-7.80347
▁ta	-7.80713
▁govori	-7.80949
▁isto	-7.81368
▁pod	-7.81457
sti	-7.82343
k	-7.82676
▁ona	-7.82679
▁pitanje	-7.82933
▁pri	-7.82942
▁Mi	-7.83446
▁Kak	-7.83678
▁malo	-7.83998
▁Sad	-7.84137
▁crn	-7.85122
▁ni	-7.86702
▁Ja	-7.86802
nom	-7.86973
▁dolara	-7.87155
▁primjer	-7.87695
▁ovom	-7.88435
▁svoje	-7.88506
ja	-7.88938
▁uradi	-7.8894
▁ovog	-7.89204
kle	-7.8957
▁njih	-7.89598
jući	-7.89656
▁tim	-7.90829
▁zna	-7.91424
ost	-7.91511
▁one	-7.91691
▁št	-7.92527
▁dobro	-7.9263
▁ko	-7.92693
▁bist	-7.92977
▁put	-7.9331
▁koriste	-7.9332
▁bili	-7.93755
▁velik	-7.93757
čak	-7.93792
ste	-7.93844
▁dok	-7.94164
l	-7.94191
će	-7.95256
reći	-7.96075
▁razvoj	-7.96257
▁Mislim	-7.96447
među	-7.9704
▁jedno	-7.97792
▁religij	-7.98383
▁neki	-7.9916
▁mozg	-7.99211
▁moz	-7.99615
▁nek	-8.0001
▁potpuno	-8.00309
nu	-8.00404
▁većin	-8.00807
▁men	-8.00946
ce	-8.01364
nog	-8.01576
tim	-8.02218
▁energij	-8.0238
▁Postoj	-8.02411
▁pomoć	-8.0251
ko	-8.02572
▁slučaj	-8.02724
▁svak	-8.02928
▁rup	-8.03029
▁takođe	-8.03489
▁jezik	-8.04528
▁zb	-8.04543
▁odgovor	-8.0455
▁pet	-8.0506
▁drugi	-8.05557
▁mislim	-8.05615
▁prirod	-8.06277
▁sto	-8.063
▁znači	-8.0669
▁nikad	-8.06692
▁mjest	-8.06704
le	-8.06714
▁posto	-8.06745
▁če	-8.06793
▁naj	-8.06909
▁jednostavno	-8.07321
akle	-8.07623
▁puta	-8.07698
nih	-8.08299
▁pro	-8.0859
▁trebal	-8.08845
▁E	-8.09256
▁svijeta	-8.1001
▁pa	-8.1021
▁jest	-8.10641
▁stran	-8.10746
▁im	-8.11495
▁kaže	-8.11741
▁moram	-8.12882
▁različit	-8.13064
ove	-8.13132
▁škol	-8.13804
▁ponov	-8.13888
▁ce	-8.14278
▁pitanj	-8.15018
▁želim	-8.15244
▁ništa	-8.15939
▁kuć	-8.16313
▁manje	-8.16387
▁neće	-8.16488
y	-8.16724
zato	-8.1735
▁puno	-8.17613
to	-8.17756
▁vidimo	-8.17894
ava	-8.1838
▁držav	-8.18614
▁dešava	-8.18779
▁žen	-8.19036
▁sistem	-8.19069
ca	-8.19125
▁sta	-8.1924
▁Ka	-8.1952
▁njen	-8.19734
▁njegov	-8.19776
▁jak	-8.20757
▁laž	-8.20797
▁postoje	-8.21528
▁Ima	-8.2162
▁shvati	-8.22481
ski	-8.22829
▁bude	-8.23027
▁vrl	-8.23441
▁sm	-8.23824
▁Jer	-8.2383
▁čini	-8.24327
▁riječi	-8.24553
▁20	-8.24643
am	-8.25019
stvari	-8.2511
▁svaki	-8.25439
▁Pogledaj	-8.26018
▁uz	-8.26342
prema	-8.26353
▁napravi	-8.26623
▁N	-8.26869
▁dijet	-8.27501
▁tamo	-8.27734
▁mali	-8.28199
▁hran	-8.28245
ra	-8.28584
▁Po	-8.28818
▁Zato	-8.28837
▁dobr	-8.28925
▁sebe	-8.29164
A	-8.30322
▁Mož	-8.30686
▁počel	-8.31342
▁četiri	-8.31499
▁informacij	-8.31503
pak	-8.31691
▁rade	-8.31715
▁10	-8.32242
lično	-8.32574
em	-8.32926
▁bism	-8.32958
va	-8.33895
▁Mora	-8.33898
▁dana	-8.3453
▁potrebn	-8.3453
000	-8.34623
ata	-8.34705
▁toliko	-8.34759
▁ruk	-8.34841
st	-8.34957
▁Nis	-8.3501
▁tehnologij	-8.35461
▁Bil	-8.35599
▁bolje	-8.35692
p	-8.35814
▁kod	-8.3601
▁pita	-8.36361
▁posta	-8.3661
▁vaše	-8.36629
▁Ova	-8.36635
ku	-8.36696
▁prv	-8.36758
▁d	-8.37135
▁pred	-8.37169
▁razlog	-8.37325
▁prostor	-8.37329
▁kompjuter	-8.38329
▁tih	-8.38496
▁misli	-8.3853
▁stariji	-8.38837
▁ideja	-8.39787
▁dan	-8.3993
▁teorij	-8.40449
▁Rek	-8.40555
▁M	-8.40629
▁porodic	-8.4064
▁promjen	-8.42514
▁dijel	-8.42769
▁preko	-8.4361
▁prič	-8.43812
▁moguć	-8.44335
▁koliko	-8.44623
▁zakon	-8.44708
▁njim	-8.4487
▁osob	-8.45389
▁kultur	-8.46076
▁ćelij	-8.46115
▁tijel	-8.46158
▁isti	-8.46519
▁god	-8.46864
▁30	-8.47185
▁kaž	-8.47259
▁iskustvo	-8.4753
▁jednog	-8.47852
▁Nije	-8.47937
▁40	-8.47956
▁prvi	-8.48414
▁neko	-8.4903
▁idej	-8.49372
▁G	-8.49403
▁moga	-8.49855
▁pristup	-8.50013
spod	-8.50118
▁Zna	-8.50551
▁T	-8.51203
▁osoba	-8.51927
▁desi	-8.52837
c	-8.53139
▁Sjedinjen	-8.5346
▁dovoljn	-8.53468
▁umje	-8.53538
▁vidjel	-8.53586
▁priča	-8.54274
▁Ovd	-8.54508
▁vode	-8.54593
▁takv	-8.54674
aj	-8.55107
▁mu	-8.55898
▁imal	-8.55948
ve	-8.56008
osti	-8.56294
▁istin	-8.56352
▁si	-8.56538
▁Ov	-8.56737
▁izgleda	-8.56802
▁otkri	-8.57025
▁matematik	-8.57034
▁procenat	-8.57041
▁osjećaj	-8.5752
▁žena	-8.57882
▁univerzum	-8.58199
▁zvuk	-8.58222
▁15	-8.58299
▁veliki	-8.58484
▁mnog	-8.58712
▁površin	-8.58965
▁Zašt	-8.58976
▁sob	-8.59073
▁kakv	-8.59364
▁uradit	-8.59621
▁odnos	-8.59645
▁popu	-8.59888
▁kažem	-8.6004
▁moze	-8.60172
▁mrež	-8.60527
▁zajedn	-8.60578
▁Bog	-8.60666
▁...	-8.60751
▁unutar	-8.60767
▁sedmic	-8.60772
▁par	-8.60879
▁osam	-8.60882
▁svog	-8.60886
zi	-8.61195
▁dobi	-8.61331
▁Vidi	-8.61514
▁Moj	-8.61589
jako	-8.61781
▁vez	-8.62062
▁Sa	-8.62111
▁ide	-8.62658
▁prijatelj	-8.62693
▁drugo	-8.62989
0	-8.62993
▁5	-8.63072
▁z	-8.63109
ija	-8.6314
▁čest	-8.63143
▁svemir	-8.6353
▁dogodil	-8.63631
▁C	-8.63684
nim	-8.63885
▁vjerovatno	-8.63888
▁cip	-8.6419
▁čovjek	-8.64606
▁celij	-8.64635
dalje	-8.64715
▁redu	-8.6474
če	-8.64744
▁nalazi	-8.65052
lu	-8.6537
▁znate	-8.65604
▁b	-8.66107
▁2	-8.66245
▁kreira	-8.66351
▁poče	-8.66523
▁naši	-8.66673
▁Od	-8.66769
▁brzo	-8.66816
▁skor	-8.66827
▁stanj	-8.67127
▁stvarno	-8.67719
mu	-8.67794
▁glas	-8.68158
nju	-8.68434
ske	-8.68465
▁rezultat	-8.68581
▁svim	-8.68915
▁svom	-8.68925
bog	-8.69201
▁is	-8.69251
b	-8.69328
▁Sve	-8.69517
▁životinj	-8.70657
ovim	-8.7111
▁rad	-8.71153
▁iskustv	-8.71854
zad	-8.71909
▁gleda	-8.72068
▁učinit	-8.72085
▁H	-8.72185
▁60	-8.72209
▁Mog	-8.72543
▁populacij	-8.72748
▁itd	-8.7275
▁Vi	-8.72951
lje	-8.73032
▁tad	-8.73128
▁ikad	-8.73261
vaj	-8.73789
▁zamislit	-8.7384
▁tradicionaln	-8.74012
z	-8.74708
▁važn	-8.74729
▁Zemlj	-8.74795
▁drugim	-8.75238
en	-8.75904
▁moć	-8.76263
▁R	-8.76311
▁Takođe	-8.76487
▁pokaza	-8.7671
▁rast	-8.76861
▁cilj	-8.76924
nas	-8.77043
▁Afganistan	-8.77096
▁projekat	-8.77098
▁tačk	-8.77128
▁Prije	-8.77453
▁govor	-8.77463
▁drugačije	-8.77587
d	-8.77739
▁posmatra	-8.78257
▁naziva	-8.78257
▁dobil	-8.78342
▁ka	-8.78375
šć	-8.78813
▁prav	-8.79181
▁mjeseci	-8.79592
ite	-8.8045
▁Drug	-8.80735
ta	-8.80788
▁grad	-8.80966
▁Evrop	-8.8128
ća	-8.81307
▁p	-8.81421
▁naša	-8.8151
▁svrh	-8.81642
▁izvor	-8.81643
▁Indij	-8.81692
▁ovakv	-8.81711
oš	-8.82177
▁baš	-8.82219
▁vrijednosti	-8.82495
▁modern	-8.82545
▁loše	-8.82571
▁B	-8.82807
▁poruk	-8.83158
▁Ta	-8.83339
▁3	-8.83501
▁proces	-8.83704
▁posa	-8.83736
▁postal	-8.8378
joj	-8.83798
▁zove	-8.84027
nije	-8.84045
▁mal	-8.84085
▁životinja	-8.84182
▁tehnologija	-8.84572
ska	-8.84774
▁prvo	-8.8499
▁nauči	-8.85068
▁Afri	-8.85187
91	-8.85848
▁dug	-8.86064
▁tržišt	-8.86403
▁električn	-8.86404
▁izbor	-8.86447
▁re	-8.86609
▁zemljišt	-8.86652
▁50	-8.86743
▁prošl	-8.871
▁stvori	-8.87117
▁kr	-8.87411
▁zemlja	-8.87467
▁slik	-8.875
▁govore	-8.87512
jedno	-8.87582
▁dogodi	-8.87599
▁najbolje	-8.87766
▁kriminal	-8.88084
▁Dok	-8.88177
▁mog	-8.88308
▁žive	-8.88803
▁morat	-8.88846
▁životu	-8.89235
▁nove	-8.89679
▁zid	-8.8975
▁bolesti	-8.90013
▁prava	-8.90263
▁upravo	-8.90371
in	-8.90462
▁evolucij	-8.90748
▁znaju	-8.90964
više	-8.90984
▁pomisli	-8.91206
▁čitav	-8.91445
▁sekund	-8.91535
▁zajednic	-8.91617
▁predstavlja	-8.91889
▁Zamis	-8.92032
ira	-8.9255
▁knjig	-8.92804
▁kvadrat	-8.92846
de	-8.93015
▁smisl	-8.93034
▁promjena	-8.93055
av	-8.93337
▁snag	-8.93779
▁V	-8.93804
▁Sto	-8.94006
▁pokuša	-8.94203
▁boj	-8.94213
▁prirodn	-8.94591
ije	-8.94832
▁25	-8.94881
▁historij	-8.95148
▁polj	-8.95711
▁vijek	-8.95962
pet	-8.96166
ac	-8.9652
▁podat	-8.96604
93;	-8.96666
▁krevet	-8.96666
▁resurs	-8.96666
▁okean	-8.96669
▁budućnost	-8.96736
▁reci	-8.96803
▁podatak	-8.96942
▁zar	-8.97076
▁besplatn	-8.97118
▁učini	-8.97141
▁nov	-8.97259
▁Velik	-8.975
▁velika	-8.97507
▁svjetsk	-8.97826
▁plav	-8.97916
bila	-8.9835
▁otkril	-8.98696
▁Svi	-8.98762
▁glav	-8.98767
▁sad	-8.98777
▁znati	-8.99049
▁vlada	-8.9915
ng	-8.99151
▁ime	-8.99332
▁voden	-8.99702
▁promjeni	-9.00589
▁cijel	-9.00666
▁rat	-9.00686
▁hiljada	-9.008
vati	-9.00803
▁Imam	-9.00954
▁He	-9.0096
▁ostal	-9.01199
▁zdrav	-9.014
▁smrt	-9.01465
▁hiljad	-9.01639
▁živim	-9.01651
▁došl	-9.01797
▁eksperiment	-9.01911
▁područj	-9.02222
▁napredova	-9.02222
▁Nikad	-9.02224
▁šest	-9.02228
▁Jedna	-9.02237
▁mlad	-9.02255
▁Adam	-9.02278
▁misterij	-9.02328
▁Kin	-9.02409
▁auto	-9.02417
▁bolji	-9.02498
▁napravil	-9.02534
▁sposobnost	-9.02648
▁ekonomij	-9.02687
▁njeg	-9.02716
▁umjetnost	-9.02782
▁riješi	-9.02802
▁najveć	-9.02822
▁vlastit	-9.02882
▁svjetlost	-9.02929
▁dolazi	-9.0319
▁postojanj	-9.03212
▁teško	-9.03385
▁prošlost	-9.03439
▁Iz	-9.03974
žal	-9.04151
▁koristit	-9.04358
glavn	-9.0469
▁država	-9.0476
▁kojim	-9.05178
L	-9.05249
▁među	-9.05848
njem	-9.06363
▁knjiga	-9.0651
▁potreb	-9.06851
▁uređaj	-9.07055
▁desil	-9.07253
▁nivo	-9.07556
vo	-9.07582
▁muškarac	-9.08104
▁SAD	-9.08104
▁internet	-9.08104
▁mjeri	-9.08127
For	-9.08137
▁zgrad	-9.08138
▁dobar	-9.08171
▁lijep	-9.08222
▁englesk	-9.08282
She	-9.08439
▁dec	-9.08459
vanja	-9.08464
▁Boga	-9.08617
▁gotov	-9.08619
▁pustinj	-9.08713
▁sebi	-9.08773
▁mnogi	-9.0891
▁nekada	-9.09079
▁društven	-9.09109
▁najbolji	-9.09135
▁pokušava	-9.09271
▁Te	-9.09446
▁pogledaj	-9.09744
be	-9.09825
▁noć	-9.0993
▁budem	-9.10171
▁tl	-9.10239
▁globaln	-9.10312
▁doš	-9.10967
ina	-9.11092
prilik	-9.11131
iji	-9.11155
▁važno	-9.11191
▁širo	-9.11191
vesti	-9.11239
ro	-9.11483
▁razmišlja	-9.11521
▁posebno	-9.1157
▁200	-9.11783
▁dosta	-9.11793
▁jedin	-9.11913
▁dijelov	-9.11927
▁Je	-9.12091
▁religija	-9.12465
▁vid	-9.12885
▁zemlji	-9.13016
▁vrijednost	-9.13251
▁morali	-9.13269
▁slika	-9.13389
▁novi	-9.13746
▁jednostavn	-9.13794
▁Einstein	-9.13819
anja	-9.13929
▁Wal	-9.14354
▁studij	-9.14354
▁mišljenj	-9.14369
▁podaci	-9.14387
▁obzir	-9.14389
▁ugljik	-9.14415
▁ču	-9.14451
▁novac	-9.14477
▁pored	-9.14548
▁izvan	-9.14561
▁Evo	-9.14625
▁funkcioniše	-9.14718
▁100	-9.14738
▁majk	-9.14802
▁vlad	-9.14934
▁otpad	-9.14937
▁13	-9.15093
▁brojev	-9.15197
▁prihod	-9.15534
▁poznat	-9.15551
I	-9.15582
jemo	-9.15728
▁dokaz	-9.16025
sa	-9.1626
▁onoga	-9.16272
▁bić	-9.16336
▁materijal	-9.16468
▁Jedan	-9.16501
▁čine	-9.16591
▁Koj	-9.16623
▁Pre	-9.16717
▁Želim	-9.17094
▁krv	-9.17237
▁nekog	-9.17303
▁n	-9.17305
▁minuta	-9.1754
▁mijenja	-9.1755
▁cu	-9.17605
2	-9.17611
▁svako	-9.17762
primjer	-9.17791
▁Naš	-9.17816
▁svaka	-9.17842
▁govorim	-9.17881
▁tačno	-9.1795
id	-9.17965
acija	-9.17987
▁slobod	-9.1822
čni	-9.18225
▁vide	-9.18269
▁Ona	-9.18723
▁vodi	-9.18946
nosti	-9.18958
▁vrati	-9.19036
▁stvara	-9.19225
▁jednak	-9.19656
▁Nek	-9.19817
osim	-9.19878
lite	-9.20125
▁test	-9.20193
▁dugo	-9.2061
▁Ljud	-9.2065
▁granic	-9.2099
▁iskoristi	-9.21021
▁klimatsk	-9.21021
▁poslije	-9.21023
▁TED	-9.21025
▁beb	-9.21049
oslovno	-9.21091
▁jednačin	-9.21106
▁ranije	-9.21205
▁ucenj	-9.21237
▁istočn	-9.21279
▁Prv	-9.21413
▁lijekov	-9.21533
▁kiš	-9.21566
▁male	-9.21688
▁bak	-9.21763
▁oči	-9.21826
▁hoda	-9.21916
▁novc	-9.21934
▁trenutno	-9.21995
▁stranic	-9.22151
▁Ond	-9.22201
▁sigurno	-9.22307
▁vis	-9.22329
▁van	-9.2239
▁sva	-9.22622
▁nad	-9.22733
▁ogromn	-9.2274
▁visok	-9.22748
▁pogleda	-9.22842
▁F	-9.22996
▁pun	-9.23145
▁iste	-9.23148
▁tijelo	-9.23329
▁ozbiljn	-9.23386
▁drugog	-9.23494
▁traži	-9.23668
▁nivou	-9.23781
▁pogledat	-9.24066
▁mjesec	-9.24143
▁obrazovanj	-9.24264
▁rizik	-9.24372
▁vozil	-9.24434
S	-9.24515
▁pola	-9.24737
▁riječ	-9.24928
▁početk	-9.2501
▁mogućnosti	-9.25449
▁odgovori	-9.25518
gdje	-9.25712
▁vjeruje	-9.25877
▁odlučil	-9.25946
▁smatra	-9.2621
▁dizajnira	-9.26215
ova	-9.26229
▁niz	-9.2698
cije	-9.27222
▁radim	-9.27321
▁engleski	-9.27436
▁bliz	-9.28061
▁Google	-9.28164
▁London	-9.28164
▁Švedsk	-9.28164
▁matematičk	-9.28164
▁univerzitet	-9.28164
▁strah	-9.28168
▁ljubav	-9.28173
▁nečem	-9.28176
▁definicij	-9.28193
▁goriv	-9.28219
▁brž	-9.28232
▁počinje	-9.28234
▁upotreb	-9.28303
▁zemalj	-9.28305
▁pravi	-9.28327
▁Pita	-9.28379
▁Dobr	-9.28429
▁nacin	-9.28467
▁pokaže	-9.2849
▁nalaze	-9.28514
▁situacij	-9.28609
▁bogat	-9.28616
▁povećava	-9.28627
▁povezan	-9.28691
▁mreža	-9.28723
▁vještin	-9.2877
▁Vam	-9.28928
▁slijep	-9.2897
▁htjel	-9.29053
▁deset	-9.29125
▁lak	-9.29315
▁roditelj	-9.29377
▁multipotencijal	-9.29386
▁nastavi	-9.29413
w	-9.2972
vi	-9.29958
▁izlaz	-9.29988
▁fokusira	-9.30032
▁događaj	-9.30038
er	-9.30171
nost	-9.30408
▁čuli	-9.30635
še	-9.31036
▁mogućnost	-9.31064
▁živi	-9.31221
▁Tad	-9.31223
▁Kini	-9.3125
ica	-9.31383
skog	-9.31492
▁muškarci	-9.31513
▁Tu	-9.31531
▁rekla	-9.31532
▁pr	-9.3174
▁pokazat	-9.3175
▁umr	-9.32113
▁sreć	-9.32116
4	-9.32284
▁interes	-9.32478
M	-9.32559
▁uspjel	-9.3257
K	-9.32654
▁starij	-9.32689
stvo	-9.32751
▁novo	-9.33014
▁kasni	-9.33224
▁krvn	-9.33274
▁organ	-9.33559
▁ekonomsk	-9.33945
▁željel	-9.34095
ba	-9.34143
vali	-9.34145
▁počet	-9.34149
v	-9.3417
ice	-9.34176
stva	-9.34239
▁stop	-9.34303
su	-9.34702
▁algoritam	-9.35183
▁primjen	-9.35664
or	-9.35732
lja	-9.35761
▁rekl	-9.35804
hvala	-9.3582
ega	-9.35825
▁algoritm	-9.35856
▁Street	-9.35856
▁žele	-9.35856
▁tečnost	-9.35859
▁korupcij	-9.35868
▁odluk	-9.35885
▁pokret	-9.35887
▁zaustavi	-9.3589
▁Mnog	-9.35958
▁staln	-9.35968
▁nagrad	-9.3612
▁veličin	-9.36129
▁razne	-9.36196
▁protiv	-9.3628
▁Zakon	-9.36286
▁ob	-9.36365
▁promijenit	-9.36384
▁nauk	-9.36455
▁Već	-9.36543
▁gore	-9.37107
▁razlika	-9.37122
▁t	-9.37145
▁izgledal	-9.37432
▁osnov	-9.37717
▁dobije	-9.37794
▁napravit	-9.37932
▁gol	-9.38061
za	-9.38185
▁Samo	-9.38223
▁brzin	-9.38344
▁stvaranj	-9.38671
tra	-9.38984
E	-9.39003
cu	-9.39022
▁Nema	-9.39061
▁promijeni	-9.39308
▁sudov	-9.39343
jte	-9.39749
▁One	-9.39875
▁razlik	-9.40199
ila	-9.40345
▁obrazovanje	-9.40418
▁koristim	-9.40589
▁grupa	-9.40718
ž	-9.40863
svim	-9.40865
▁pokazal	-9.40868
ča	-9.40909
č	-9.41026
ld	-9.4105
▁Ve	-9.41115
▁nj	-9.41153
▁Sta	-9.41202
▁crven	-9.41288
▁emisij	-9.41305
▁nazva	-9.41406
▁minut	-9.41503
▁program	-9.4153
▁rupa	-9.41657
▁jedini	-9.41735
zak	-9.41825
▁Znam	-9.42097
▁proizvod	-9.42169
▁ured	-9.42312
▁upravlja	-9.42628
▁podučava	-9.4269
du	-9.42722
▁prizna	-9.42794
▁neka	-9.42992
▁prijav	-9.42997
ile	-9.43043
▁postavi	-9.4316
▁policij	-9.43378
▁osnovn	-9.43548
ara	-9.43817
▁Mjesec	-9.44189
▁posljedic	-9.44189
▁Među	-9.4419
▁laboratorij	-9.4419
▁faktor	-9.4419
▁period	-9.44194
▁troškov	-9.44196
▁ugljen	-9.44239
▁pašnjak	-9.44246
▁lic	-9.44252
▁borb	-9.44259
▁okruženj	-9.44275
▁super	-9.44277
nače	-9.44306
▁istu	-9.4433
▁politik	-9.4433
▁kamer	-9.44342
▁izgubil	-9.4436
nik	-9.44391
▁nauci	-9.44468
▁Taj	-9.44568
▁stotin	-9.446
▁izazov	-9.44613
▁aut	-9.44641
jeca	-9.44778
▁pras	-9.44834
▁daje	-9.44912
▁Znač	-9.44926
▁čuje	-9.44964
▁slično	-9.45087
acije	-9.45268
▁alat	-9.45324
▁veće	-9.45419
▁čudn	-9.45495
▁nju	-9.45536
▁živ	-9.45609
▁No	-9.45675
▁dobija	-9.458
▁izuzetn	-9.45883
▁doda	-9.4589
▁uradil	-9.45924
▁vodu	-9.45977
tan	-9.45983
▁opisuje	-9.46067
▁in	-9.46109
stanju	-9.46141
▁važ	-9.46156
▁metafora	-9.46225
▁nadam	-9.46229
▁planeti	-9.46344
▁pogrešno	-9.46391
▁razmišljanj	-9.46504
▁ćelija	-9.46564
▁gas	-9.46695
▁oblika	-9.46744
▁kćerk	-9.46796
▁proizvodi	-9.46953
smijeh	-9.46997
▁voli	-9.47014
▁postavlja	-9.47021
▁korist	-9.47228
▁cijena	-9.47249
▁ulazi	-9.47262
▁svjesn	-9.47287
▁problema	-9.47371
▁80	-9.47376
▁vrat	-9.47507
▁skol	-9.48007
▁vijesti	-9.4818
▁znanje	-9.48608
red	-9.48628
▁kompanija	-9.48788
▁š	-9.48884
uje	-9.48926
▁starije	-9.49037
▁prilika	-9.4929
▁svu	-9.49593
aciju	-9.49603
▁duš	-9.49611
▁18	-9.49749
bi	-9.50061
▁postaje	-9.50073
D	-9.50121
▁prona	-9.50325
▁4	-9.50654
ki	-9.50699
▁tež	-9.50709
▁mom	-9.50878
▁njem	-9.50898
▁druga	-9.50904
vanje	-9.50916
▁nič	-9.51076
▁rođen	-9.51108
▁planet	-9.51254
▁nekim	-9.516
1	-9.51681
▁polje	-9.51682
▁kontrol	-9.51825
▁ovi	-9.5196
▁biće	-9.52068
▁vaši	-9.52169
▁otpada	-9.52452
▁sedam	-9.52536
▁tešk	-9.52623
▁volim	-9.5266
▁jeftin	-9.52694
▁putu	-9.52768
čk	-9.52869
▁Prvo	-9.52981
▁bub	-9.53245
jos	-9.53276
▁advokat	-9.5328
▁autobus	-9.5328
▁preprek	-9.5328
▁buducnost	-9.5328
▁pročita	-9.5328
▁funkcij	-9.53281
▁14	-9.53284
▁ishran	-9.53284
▁dohotk	-9.53285
▁1950	-9.53286
▁kilaž	-9.53288
▁kutij	-9.53291
▁model	-9.53291
▁sektor	-9.53295
▁pomaž	-9.5333
▁samostaln	-9.53337
▁nog	-9.53342
▁naučnici	-9.5335
▁živjet	-9.53351
▁the	-9.53357
▁korak	-9.53359
▁uključuju	-9.53362
▁uopšte	-9.53363
▁uspjeh	-9.5337
▁imunizacij	-9.53384
▁konstantn	-9.53435
▁daleko	-9.53467
▁pluc	-9.53494
▁pisa	-9.53626
▁Pokaza	-9.53653
▁ispriča	-9.537
▁Azij	-9.53712
eći	-9.5375
▁struktur	-9.5377
▁posla	-9.538
▁fosiln	-9.53845
▁radn	-9.53934
▁zdravlj	-9.53952
▁sjajn	-9.53956
▁des	-9.53983
▁profesor	-9.54013
▁zaštit	-9.54029
▁Fibonačijev	-9.54228
▁vratit	-9.54244
▁tek	-9.54292
▁najveći	-9.54393
▁snov	-9.54423
▁Gal	-9.54523
zu	-9.54537
▁metafore	-9.54642
▁slav	-9.54869
▁shvatit	-9.54989
▁grup	-9.55102
▁postane	-9.55277
▁l	-9.55289
▁Radi	-9.55452
▁rješenje	-9.55506
▁razliku	-9.55632
▁rečen	-9.55707
▁osjeća	-9.5574
▁korištenje	-9.55759
do	-9.56141
▁djevojčic	-9.56235
▁ras	-9.56347
▁Drugi	-9.56357
nova	-9.56363
▁prepozna	-9.56693
▁siromašn	-9.56732
▁kolačić	-9.56995
▁nosi	-9.57028
▁vjerujem	-9.57386
▁voz	-9.57449
▁srednj	-9.57862
▁neku	-9.57881
▁odluči	-9.57978
▁američk	-9.58176
▁mislit	-9.58221
pred	-9.5837
obično	-9.58534
▁Ovi	-9.59011
▁Št	-9.59216
▁znal	-9.59255
▁razumje	-9.59363
▁lud	-9.59483
▁stok	-9.59515
kav	-9.59551
dan	-9.59645
▁projekt	-9.59665
N	-9.59785
▁osta	-9.59839
irati	-9.59955
▁djel	-9.60003
▁igra	-9.60039
predak	-9.60558
▁zovem	-9.60678
▁bolj	-9.60774
tac	-9.61039
▁putovanj	-9.61155
▁otiš	-9.61371
▁roditelji	-9.61598
▁spava	-9.61599
▁plan	-9.61718
▁zatvor	-9.61907
▁niko	-9.61918
▁6	-9.62033
▁vrijedn	-9.62104
stati	-9.62315
▁mala	-9.62537
▁lijek	-9.62551
▁sin	-9.62565
▁Majk	-9.62785
▁c	-9.62985
▁prilik	-9.63066
▁Jednostavn	-9.6328
▁Meksik	-9.6328
▁atmosfer	-9.6328
▁karijer	-9.6328
▁komunicira	-9.6328
▁signal	-9.6328
▁HIV	-9.6328
▁džirg	-9.6328
▁web	-9.63281
▁Sunc	-9.63281
▁djetet	-9.63281
▁smanji	-9.63282
▁ništavil	-9.63283
▁trenutk	-9.63283
▁šans	-9.63285
▁ponašanj	-9.63288
▁Vaš	-9.63289
▁ponekad	-9.63292
▁skriven	-9.63296
▁brig	-9.63296
▁pronašl	-9.63297
▁Kong	-9.63311
▁sredin	-9.63312
▁ateist	-9.63319
▁drveć	-9.63321
▁duh	-9.6333
▁nedać	-9.63343
▁testira	-9.63363
▁predmet	-9.63366
▁Kolik	-9.63392
▁2000	-9.63399
▁evo	-9.63448
▁leć	-9.63473
▁navoj	-9.63489
▁sposobn	-9.63519
▁opažanj	-9.63534
▁dobit	-9.63536
▁koncept	-9.6355
▁klik	-9.63578
▁sličn	-9.63587
▁emocij	-9.6359
▁percepcij	-9.63728
▁kož	-9.63939
▁pripada	-9.63988
▁povezanost	-9.6402
▁englesko	-9.64027
▁stavi	-9.64028
▁smrtnost	-9.64195
▁glavni	-9.6427
mjeh	-9.64296
ov	-9.64408
▁tvoj	-9.64467
▁devet	-9.64556
▁pravd	-9.64576
▁organizm	-9.64871
▁precizn	-9.64884
▁kome	-9.6494
▁uče	-9.6504
▁rib	-9.65145
▁istraživanje	-9.65173
▁sljedeće	-9.65215
▁težin	-9.65288
▁svemirsk	-9.65368
▁bolnic	-9.65499
▁sigurni	-9.65705
ad	-9.65733
▁različiti	-9.65825
▁ulic	-9.6583
▁vidim	-9.65893
▁Ti	-9.6624
▁fizičar	-9.66372
▁Dr	-9.66413
▁veći	-9.66479
▁Ok	-9.66572
▁kompjutersk	-9.6663
▁sretni	-9.66772
▁usko	-9.66878
či	-9.66884
▁vjer	-9.66941
▁plati	-9.67073
▁majmun	-9.67105
datak	-9.67112
▁stresa	-9.67217
nd	-9.67543
▁sljedeći	-9.676
▁razni	-9.67615
▁slobodn	-9.6771
stalo	-9.67816
log	-9.68023
šta	-9.68051
si	-9.68285
▁f	-9.68359
▁osobi	-9.685
▁prijatelji	-9.68531
▁kompanij	-9.68586
▁dobijem	-9.6872
▁starijim	-9.68769
se	-9.69186
gram	-9.69217
▁presta	-9.69224
▁gradi	-9.69232
▁pričam	-9.69276
ljiv	-9.69478
▁uzima	-9.69782
▁Ku	-9.69915
čen	-9.69984
▁apsolutn	-9.69998
cija	-9.70484
dnu	-9.70568
ša	-9.70774
▁jedni	-9.70782
▁postoja	-9.71145
▁pada	-9.71146
▁reče	-9.71218
čiti	-9.71653
rati	-9.71659
▁stavit	-9.71701
▁uzrokuj	-9.7182
7	-9.72104
▁sastoj	-9.72517
▁zelen	-9.72614
▁raste	-9.72743
▁razumijem	-9.732
▁uze	-9.73381
▁zaštiti	-9.73477
▁500	-9.73636
▁90	-9.73689
▁L	-9.73736
▁Pri	-9.73908
ovima	-9.73949
▁neuron	-9.73987
▁Re	-9.74004
▁odgovara	-9.74123
▁Živ	-9.7431
▁telefon	-9.74354
▁Treba	-9.7436
▁Metafor	-9.74389
▁desktop	-9.74391
▁fabrik	-9.74391
▁finansija	-9.74391
▁institucij	-9.74391
▁okruzenj	-9.74391
▁okvir	-9.74391
▁platform	-9.74391
▁temperatur	-9.74391
▁vježb	-9.74391
▁zvijezd	-9.74391
▁generacij	-9.74391
▁statistik	-9.74391
▁kontekst	-9.74392
▁dezertifikacij	-9.74393
▁princip	-9.74394
▁bliž	-9.74394
▁zrak	-9.74395
▁lift	-9.74397
▁stoljeć	-9.74397
▁međunarodn	-9.74399
▁kilomet	-9.74406
▁lokacij	-9.74407
▁napravljen	-9.74408
▁sviđa	-9.74465
amilo	-9.74476
▁pažnj	-9.74486
▁opisa	-9.74502
▁novinar	-9.74509
▁istorij	-9.74547
▁okolin	-9.74583
ok	-9.74585
▁Mo	-9.74626
▁nečeg	-9.74679
▁dron	-9.74705
▁najviše	-9.74723
▁brinu	-9.74776
▁pacijenti	-9.74822
▁most	-9.74869
▁trav	-9.74906
▁bavi	-9.74973
▁čeka	-9.75002
▁privatn	-9.75084
▁uslov	-9.751
▁stres	-9.75115
▁zon	-9.7513
▁fizički	-9.75229
▁vjeruju	-9.75271
▁Britaniji	-9.75333
▁zapadn	-9.75368
▁kretanje	-9.75448
▁zvuč	-9.75493
▁Ch	-9.75562
▁budu	-9.75571
ljes	-9.75602
▁značajn	-9.75662
▁svjesno	-9.75667
▁kilograma	-9.75692
▁istovremeno	-9.75737
ivo	-9.75858
▁Svak	-9.75961
▁otvoren	-9.75972
stara	-9.75973
▁ostvari	-9.76008
▁dođe	-9.76093
▁interesantn	-9.76131
▁uspješn	-9.76222
▁Moram	-9.76404
▁drugačiji	-9.76418
▁Stvar	-9.76446
▁fotografij	-9.76507
▁pronađe	-9.76713
▁studenti	-9.76767
▁otkrić	-9.76824
▁najvažnij	-9.76993
▁naučil	-9.76994
▁javn	-9.77127
▁Ma	-9.77462
▁pruža	-9.77547
sk	-9.77573
▁pjesm	-9.77681
▁bolest	-9.77773
▁nevjerovatn	-9.77866
▁mit	-9.77919
▁os	-9.78092
tići	-9.78328
▁posljednje	-9.78443
▁uči	-9.78575
▁san	-9.78687
▁umir	-9.78718
▁dostupn	-9.78878
▁di	-9.7893
▁glad	-9.79099
▁gladn	-9.79259
od	-9.79295
▁lijevo	-9.79302
▁set	-9.79605
▁pokazuje	-9.79742
▁vod	-9.798
▁upozna	-9.79905
▁svjetlo	-9.8
f	-9.8022
▁posebn	-9.80336
▁sjedi	-9.80341
▁al	-9.80419
▁raz	-9.80473
▁treć	-9.80515
▁razmislit	-9.80526
▁njegova	-9.80678
▁određen	-9.80819
▁iza	-9.8085
▁potencijal	-9.81065
▁račun	-9.81208
▁posljednji	-9.81217
▁moji	-9.81217
▁studen	-9.81277
isao	-9.81315
▁nemoguć	-9.81329
čan	-9.81345
man	-9.81387
▁finansijsk	-9.81571
▁pretvara	-9.81768
▁planira	-9.81779
tor	-9.81857
▁porast	-9.81962
▁sla	-9.82633
▁pravim	-9.82973
▁sistema	-9.83012
▁tradicionalni	-9.83036
pri	-9.83152
▁voda	-9.83288
▁svakodnevno	-9.83451
▁poziva	-9.83506
▁događa	-9.83606
iran	-9.83608
C	-9.83618
▁ogrom	-9.83681
▁bar	-9.83713
▁sloj	-9.83717
▁Afrik	-9.83723
▁linij	-9.83727
▁tra	-9.83764
▁organizovan	-9.83812
▁Mar	-9.83815
▁viš	-9.83919
bu	-9.84045
▁rod	-9.84046
▁Ko	-9.84178
▁krug	-9.84371
▁ran	-9.84415
▁kapital	-9.84463
▁ličn	-9.84513
▁završi	-9.84661
▁desno	-9.84718
ena	-9.84728
▁pute	-9.84834
tak	-9.84876
▁Veliki	-9.84912
▁ostat	-9.85032
sati	-9.85046
▁Ni	-9.8514
▁veliko	-9.85205
▁Do	-9.85446
tko	-9.85514
▁količin	-9.85573
▁una	-9.85666
ir	-9.85708
istin	-9.85766
▁pacov	-9.85827
▁medicin	-9.85958
▁dr	-9.85964
▁sposobnosti	-9.8598
▁ostavi	-9.86045
▁Svako	-9.86102
▁postaj	-9.8612
telj	-9.8638
▁društ	-9.86383
▁Umje	-9.8655
▁pobje	-9.86678
▁tjelesn	-9.86891
▁Južn	-9.86891
▁TBC	-9.86891
▁Wo	-9.86891
▁infekcij	-9.86891
▁mobitel	-9.86891
▁paradajz	-9.86891
▁paradigm	-9.86891
▁prototip	-9.86891
▁tradicij	-9.86891
▁centar	-9.86891
▁propovijed	-9.86891
▁obavlja	-9.86892
▁dječj	-9.86892
▁Brazil	-9.86892
▁reakcij	-9.86892
▁CST	-9.86893
▁podobnost	-9.86893
▁porijekl	-9.86893
▁predsjednik	-9.86893
▁Islam	-9.86893
▁protok	-9.86893
▁dnevn	-9.86894
▁revolucij	-9.86895
▁odabir	-9.86899
▁Univerzum	-9.86905
▁zamjen	-9.86912
▁gubitak	-9.8692
▁Stavi	-9.86924
▁živjel	-9.86925
▁djelić	-9.86926
▁ikonic	-9.86945
▁posud	-9.86947
▁teren	-9.86949
▁predavanj	-9.86949
▁snimak	-9.86951
▁muzik	-9.86989
▁naft	-9.86993
▁Britansk	-9.86999
žu	-9.87021
▁miris	-9.87031
▁brat	-9.87034
▁analiz	-9.87044
▁New	-9.87061
▁vizij	-9.87082
▁scenarij	-9.87086
▁map	-9.87112
▁direktn	-9.87152
▁Nemoj	-9.87202
▁zabavn	-9.87204
▁unutra	-9.8721
▁Vrati	-9.87211
▁Zove	-9.87218
▁Pet	-9.87246
▁Bio	-9.87325
▁gubitk	-9.87329
▁12	-9.8737
▁udaljenost	-9.87386
▁ulogu	-9.87408
▁dalj	-9.87452
▁seksualn	-9.87457
▁tekst	-9.87583
▁medicinsk	-9.87833
▁svemira	-9.87875
▁zlo	-9.87969
▁prednost	-9.88067
▁istraživač	-9.88137
▁cini	-9.8817
▁bitn	-9.88177
▁zakoni	-9.88236
▁posljednj	-9.88239
▁odrast	-9.88253
▁prob	-9.88374
▁krivu	-9.8842
men	-9.88491
it	-9.885
enju	-9.88514
▁glasov	-9.88718
▁odrasli	-9.88918
▁otvori	-9.88953
▁svakoj	-9.88963
▁nekom	-9.89034
▁proizvodnj	-9.89159
▁prostorij	-9.89189
▁teži	-9.89272
▁kvantn	-9.89356
▁mas	-9.89373
nica	-9.89594
▁udara	-9.89741
▁masivn	-9.89864
▁ključn	-9.89997
▁student	-9.90055
▁dis	-9.90067
▁napisa	-9.90232
mena	-9.90312
AB	-9.9033
▁osobin	-9.90352
▁pom	-9.90414
▁shvatil	-9.90539
nici	-9.90689
▁baca	-9.91057
sput	-9.91086
▁pacova	-9.91299
can	-9.91306
dete	-9.91432
tiče	-9.91465
▁alternativ	-9.91606
▁realn	-9.91624
▁znanj	-9.91627
▁kupi	-9.91786
▁per	-9.91813
▁gledat	-9.91873
▁zadnji	-9.9191
▁razmišljaju	-9.92063
▁urad	-9.92142
▁duhovn	-9.92248
sta	-9.92398
▁Lo	-9.92438
▁apsolutno	-9.92506
▁zapanjujući	-9.92561
op	-9.92799
▁pogledam	-9.92922
dne	-9.93002
▁nje	-9.93068
▁oblik	-9.93087
tu	-9.9312
▁razvijen	-9.93121
troje	-9.93124
▁cipov	-9.93395
▁naprav	-9.93586
▁lice	-9.9362
▁Dobi	-9.93706
ze	-9.93954
demo	-9.94069
B	-9.94292
▁sud	-9.94336
00	-9.94384
ično	-9.94438
▁ru	-9.94606
tar	-9.94608
stan	-9.94678
▁vol	-9.94962
▁omoguć	-9.95034
▁običn	-9.9512
tona	-9.9527
▁vrh	-9.95273
▁korisn	-9.95322
▁pogled	-9.9554
▁kvalitet	-9.95809
sko	-9.95893
is	-9.95903
▁slavi	-9.96205
▁životni	-9.96383
iše	-9.96585
▁objasnit	-9.96794
▁prirodno	-9.96835
▁linija	-9.96836
▁poziv	-9.96837
▁normalno	-9.96883
▁kćerka	-9.96992
vaju	-9.97012
▁ljudsko	-9.97038
▁19	-9.97071
trazi	-9.97178
▁opcij	-9.97204
▁Al	-9.97258
▁man	-9.97308
▁7	-9.97363
▁poznati	-9.9746
▁prenos	-9.97471
▁zov	-9.97575
▁Le	-9.97613
aln	-9.97787
G	-9.97833
▁najvažniji	-9.97878
▁tvrdi	-9.98
▁kuc	-9.98304
▁Naghm	-9.98352
▁moral	-9.98391
▁jednostav	-9.98394
▁sre	-9.98421
▁izuzet	-9.98603
▁mno	-9.98612
biti	-9.98643
▁kriz	-9.9873
tički	-9.98887
▁nastavlja	-9.98956
▁mlađ	-9.99013
▁pogrešn	-9.99072
▁fizik	-9.99157
▁strani	-9.9923
▁pozva	-9.99329
▁brojevi	-9.99455
▁utič	-9.99658
▁ponavlja	-9.99665
▁čast	-9.99974
zuje	-10.0002
▁fizičk	-10.0009
▁centr	-10.0011
▁podijelit	-10.0023
sku	-10.0031
▁uključi	-10.004
tno	-10.0057
▁sv	-10.008
▁naučni	-10.0083
niji	-10.0083
▁izložen	-10.0084
▁iskust	-10.0085
čne	-10.0088
vši	-10.0094
▁troš	-10.0096
▁zanima	-10.0098
▁sadrž	-10.0108
▁otkrije	-10.0114
aca	-10.0117
▁Henr	-10.0117
▁nedostat	-10.0118
▁Amazon	-10.0118
▁Indonezij	-10.0118
▁Thomas	-10.0118
▁direktor	-10.0118
▁finansijisk	-10.0118
▁frekvencij	-10.0118
▁grafikon	-10.0118
▁mikroskop	-10.0118
▁pretvori	-10.0118
▁publici	-10.0118
▁uključuje	-10.0118
▁Englesk	-10.0118
▁Ujedinjen	-10.0118
▁galaksij	-10.0118
▁komunikacij	-10.0118
▁papir	-10.0118
▁mikrosekund	-10.0118
▁vidjeće	-10.0118
▁Japan	-10.0118
▁praks	-10.0118
▁trenutak	-10.0118
▁poboljša	-10.0118
▁crijev	-10.0118
▁trodimenzionaln	-10.0118
▁distribucij	-10.0118
▁automobil	-10.0118
▁matičn	-10.0118
▁Napravi	-10.0118
▁prekidač	-10.0118
▁ubaci	-10.0118
▁1960	-10.0119
▁vozač	-10.0119
▁izraz	-10.0119
▁prozor	-10.0119
▁tenk	-10.012
▁učitelj	-10.012
▁predvidje	-10.0121
▁doživljava	-10.0121
▁imovin	-10.0121
▁haos	-10.0122
▁praznin	-10.0122
▁Trebal	-10.0122
▁uzorak	-10.0122
▁Voli	-10.0123
▁vanjsk	-10.0124
▁uživa	-10.0124
▁dodir	-10.0124
▁koleg	-10.0125
▁Ministarstv	-10.0125
▁Poslanik	-10.0126
▁300	-10.0128
▁svijest	-10.0128
▁razin	-10.0129
▁prikazuj	-10.0131
▁dozvolit	-10.0131
▁građan	-10.0132
▁mladi	-10.0133
▁udaljen	-10.0134
▁And	-10.0138
▁boc	-10.0139
▁pretpostavk	-10.014
▁stvaraoc	-10.014
▁masin	-10.014
▁Bu	-10.0142
▁poglavlj	-10.0143
▁molim	-10.0147
▁sjenk	-10.0149
▁stručnjak	-10.0151
▁stepen	-10.0151
▁robot	-10.0151
▁očekuje	-10.0151
▁aktivn	-10.0152
▁pojavljuj	-10.0153
▁ekosistema	-10.0156
▁ostaje	-10.0158
▁doktor	-10.0162
▁pomogne	-10.0164
▁donosi	-10.0166
▁pauk	-10.0168
▁rečenic	-10.0171
▁sjeća	-10.0175
▁milostivost	-10.0177
ovati	-10.018
▁pojel	-10.0183
▁značenje	-10.0186
▁razgovara	-10.0188
▁izgovor	-10.0191
▁posmatrat	-10.0191
▁nul	-10.0192
▁pomoc	-10.02
▁piše	-10.0202
▁Malala	-10.0205
▁Kair	-10.0205
▁testiranje	-10.0208
▁ograničenj	-10.0208
▁poveže	-10.0211
▁industriji	-10.0213
▁Han	-10.0221
▁pozadin	-10.0225
▁korisno	-10.0228
5	-10.0233
▁pravilno	-10.0244
▁spremn	-10.0245
▁prihvatit	-10.0252
▁nedavno	-10.0252
▁prolazi	-10.0256
▁podijeli	-10.0265
▁nova	-10.0269
▁cijelo	-10.0272
on	-10.0277
▁laganje	-10.0293
▁odrasl	-10.0297
pit	-10.0301
▁boja	-10.0307
▁takmiče	-10.0307
▁dopustit	-10.0314
▁kriminala	-10.0321
ozvolit	-10.0333
retan	-10.0341
▁srce	-10.0342
▁upali	-10.0347
▁suoči	-10.0347
čim	-10.036
▁Mogl	-10.0363
že	-10.0366
▁pogodi	-10.0369
▁tužn	-10.0379
▁ispravn	-10.038
▁vjerovatnoć	-10.0402
▁park	-10.041
lj	-10.0411
▁Prem	-10.0414
▁vratim	-10.0417
pe	-10.042
▁ilegalno	-10.0424
▁magnetno	-10.0427
▁zadnje	-10.0437
▁ra	-10.0454
▁samilost	-10.0456
▁Držav	-10.046
▁21	-10.0469
san	-10.047
▁La	-10.0475
▁svakog	-10.05
▁čiji	-10.0501
nice	-10.0504
ork	-10.051
tima	-10.0513
▁slaže	-10.0534
▁čim	-10.054
▁odjed	-10.054
▁snažn	-10.0546
▁religijsk	-10.0548
▁planiranje	-10.0563
50	-10.0569
▁tvor	-10.057
▁metara	-10.057
▁dodatn	-10.0575
▁treće	-10.058
▁stav	-10.0596
▁tražim	-10.0602
▁šir	-10.0604
niti	-10.0604
▁prave	-10.0608
▁iznad	-10.0617
▁efikasno	-10.0618
▁radil	-10.063
▁učenici	-10.0635
▁siromaštv	-10.0638
▁nazvan	-10.0644
izira	-10.0652
▁djevojka	-10.0654
▁duž	-10.0655
▁štet	-10.0672
▁45	-10.0677
▁crveni	-10.0686
▁red	-10.0689
▁čist	-10.0691
▁kon	-10.0691
▁mir	-10.0693
▁poslovi	-10.0705
nstrukcij	-10.0733
▁kock	-10.0759
avaju	-10.0771
▁počnem	-10.0777
val	-10.0779
▁omogući	-10.0788
jeve	-10.079
▁uslug	-10.0808
▁govorio	-10.0808
ow	-10.0809
čin	-10.0841
di	-10.0848
▁pot	-10.0855
▁moguc	-10.0866
▁radio	-10.0879
▁oblasti	-10.0882
▁povr	-10.0886
▁razvil	-10.0911
▁pojavi	-10.0927
▁razvi	-10.0934
▁oblast	-10.0951
cno	-10.0951
▁objasni	-10.0952
▁cijen	-10.0953
čno	-10.0958
▁sk	-10.0959
▁uhvati	-10.0975
▁tačn	-10.0982
stala	-10.0986
▁struj	-10.0987
8.	-10.0989
▁duboko	-10.0997
▁činjenic	-10.1
▁najbolj	-10.1007
▁vrijedno	-10.1008
▁pametn	-10.1009
ram	-10.101
▁snaga	-10.101
ari	-10.1026
enja	-10.1028
enta	-10.1052
eno	-10.1066
▁sluša	-10.1067
▁osigura	-10.1069
▁Želi	-10.1077
▁stvarn	-10.1081
▁gubi	-10.1091
▁voljel	-10.1109
▁muž	-10.1156
▁pitaju	-10.1161
ljen	-10.1163
▁Ra	-10.1172
▁gledam	-10.1175
▁gr	-10.1191
▁pošto	-10.1215
▁malen	-10.1234
▁dobij	-10.1238
▁djevojčica	-10.1245
▁Razl	-10.1253
▁podign	-10.1277
▁daju	-10.1329
▁napad	-10.1345
▁nada	-10.1355
▁pusti	-10.1357
▁dijelovi	-10.136
▁sna	-10.136
▁central	-10.1376
▁najveće	-10.1392
▁javno	-10.1408
▁rješenj	-10.141
▁mnogim	-10.1413
ator	-10.1419
▁de	-10.1425
oro	-10.1431
▁loš	-10.1439
,	-10.1446
3	-10.1454
▁ljudski	-10.1459
U	-10.1459
▁gradovi	-10.1468
izam	-10.1486
▁prostoru	-10.1494
▁nevjerovat	-10.1502
▁metod	-10.1503
▁sazna	-10.1512
▁prijavi	-10.1539
▁prirodni	-10.1541
▁navik	-10.1549
lika	-10.1552
▁spasi	-10.1556
▁pamet	-10.1573
▁spasit	-10.1589
▁kanal	-10.1591
▁isp	-10.1601
▁film	-10.1602
đi	-10.1627
▁rob	-10.164
▁Če	-10.1645
der	-10.1647
▁rije	-10.1653
▁vraća	-10.1676
▁procjen	-10.1681
mjetnost	-10.1687
tr	-10.1697
▁poređ	-10.1698
▁trud	-10.1701
ciju	-10.1707
ujem	-10.1729
▁uzrok	-10.1738
▁dijeli	-10.175
▁susjed	-10.1756
▁uvid	-10.1764
▁socijaln	-10.1777
▁kriv	-10.1779
▁pjeva	-10.1781
▁suštin	-10.1781
▁Poče	-10.1782
▁Darwin	-10.1784
▁Latinsk	-10.1784
▁Mozambik	-10.1784
▁Svjetsk	-10.1784
▁fakultet	-10.1784
▁generičk	-10.1784
▁katedral	-10.1784
▁kosmičk	-10.1784
▁najbrž	-10.1784
▁približava	-10.1784
▁sopstven	-10.1784
▁studira	-10.1784
▁tretman	-10.1784
▁uključen	-10.1784
▁zahtijeva	-10.1784
▁Kalifornij	-10.1784
▁doprinos	-10.1784
▁dubin	-10.1784
▁dugoročn	-10.1784
▁pohađa	-10.1784
▁nedostaj	-10.1784
▁neurohirurg	-10.1784
▁npr	-10.1784
▁ocjen	-10.1784
▁podsjeti	-10.1784
▁tkiv	-10.1784
▁počinitelj	-10.1784
▁analogij	-10.1784
▁zrač	-10.1784
▁božanstv	-10.1784
▁crkv	-10.1784
▁polovin	-10.1784
▁međućelijsk	-10.1784
▁grešk	-10.1785
▁prelijep	-10.1785
▁Istočn	-10.1785
▁bakterij	-10.1785
▁savršen	-10.1785
▁ikakv	-10.1785
▁oblak	-10.1785
▁verzij	-10.1785
▁talas	-10.1785
▁kalkulacij	-10.1785
▁Izgleda	-10.1785
▁njemačk	-10.1786
▁ružn	-10.1786
▁povezivanj	-10.1786
▁virus	-10.1786
▁Priča	-10.1786
▁dohod	-10.1787
▁spoji	-10.1788
▁vazn	-10.1788
▁Amerikanc	-10.1789
▁komad	-10.1789
▁24	-10.1789
▁narod	-10.1789
▁ispaš	-10.1789
▁konstruiše	-10.1789
▁drvet	-10.1789
▁bogatiji	-10.179
▁ekran	-10.179
▁postigl	-10.179
▁misle	-10.179
▁najmanj	-10.179
eligij	-10.1792
▁košta	-10.1792
▁suprotno	-10.1792
▁Drag	-10.1793
▁prešl	-10.1796
▁uzbudljiv	-10.1801
▁Jedin	-10.1804
▁zabrinut	-10.1804
ley	-10.1805
▁indeks	-10.1805
▁visin	-10.1805
▁umjetnik	-10.1809
▁sunc	-10.1809
▁Katar	-10.1809
▁izgubit	-10.181
▁epidemij	-10.1812
▁sredstv	-10.1812
▁kor	-10.1814
▁nastavnik	-10.1814
▁žic	-10.1814
▁akcij	-10.1814
▁Sahar	-10.1821
▁zahvaljuju	-10.1827
▁nezavisnost	-10.1827
▁uvjeren	-10.1829
▁milja	-10.183
▁Dije	-10.1831
▁uspije	-10.1831
▁narednih	-10.1834
▁radar	-10.1835
▁objašnjenj	-10.1836
▁desetin	-10.1837
▁Os	-10.1839
▁2009	-10.1842
pur	-10.1843
▁pojm	-10.1848
▁aspekt	-10.1852
▁stari	-10.1855
▁potom	-10.1859
zila	-10.186
▁Pro	-10.1862
▁ego	-10.1862
kad	-10.1862
▁uđe	-10.1863
▁slonov	-10.1869
▁zanemarit	-10.1872
▁sestr	-10.1874
▁zdraviji	-10.1884
laze	-10.1891
▁održava	-10.1892
▁Tri	-10.1901
▁sp	-10.1904
▁odre	-10.1904
▁razlikuje	-10.1909
▁pomjera	-10.1912
▁Rekla	-10.1913
▁Sva	-10.1917
▁naučnik	-10.1922
▁vjerovanj	-10.1925
▁konačni	-10.1936
▁slo	-10.1938
▁testov	-10.1939
▁poce	-10.1942
▁zanimanj	-10.1942
▁nacija	-10.1948
▁osi	-10.195
▁cijelog	-10.1952
wan	-10.1953
▁baz	-10.1956
▁rak	-10.1961
▁autor	-10.1962
▁neuroni	-10.1966
nima	-10.1966
▁vodo	-10.1979
▁staros	-10.199
▁Koristi	-10.1991
▁niž	-10.1995
▁organsk	-10.2006
▁izvu	-10.2007
▁dos	-10.2016
▁logika	-10.2027
etu	-10.2033
▁zajedničk	-10.2034
com	-10.2034
češć	-10.2052
▁provjeri	-10.2053
▁vrijedi	-10.2057
▁stvorenj	-10.2061
▁cijelom	-10.2077
▁ć	-10.2083
▁odjel	-10.2087
▁ponudi	-10.2087
▁St	-10.2091
▁Moze	-10.2093
▁postup	-10.2097
▁br	-10.2106
▁širenje	-10.2107
▁upravljanj	-10.2118
ijeti	-10.2121
▁mlađi	-10.2145
▁putova	-10.2159
▁poent	-10.2161
▁ub	-10.2169
▁spavanj	-10.217
▁Naj	-10.218
▁prodaj	-10.218
isan	-10.2184
▁stresu	-10.2191
bete	-10.2196
▁Pla	-10.2203
es	-10.2209
ris	-10.221
▁golo	-10.2211
▁rođenj	-10.2212
▁klim	-10.2213
▁vozi	-10.222
▁grupi	-10.2222
▁manj	-10.223
išta	-10.2245
▁napada	-10.2266
▁uzgaja	-10.2266
▁rasta	-10.2269
ren	-10.227
▁drv	-10.228
ron	-10.228
▁savjet	-10.2288
▁nisk	-10.23
▁rodi	-10.2305
lju	-10.2305
▁disk	-10.2306
▁historijsk	-10.2312
▁pacove	-10.232
▁poslovn	-10.2326
oni	-10.2331
▁slijepi	-10.2334
dvoje	-10.2341
ovi	-10.2344
▁istraži	-10.2345
▁Tur	-10.2346
▁Br	-10.2348
▁70	-10.2351
kcij	-10.2356
lik	-10.238
▁plemensk	-10.238
▁zaključ	-10.2387
▁odnosi	-10.239
▁Isto	-10.2393
iki	-10.2394
▁brzi	-10.2396
▁Afrika	-10.2399
▁zidov	-10.2407
▁bud	-10.2411
▁pali	-10.2423
▁želj	-10.2424
▁Ho	-10.2426
▁Kakv	-10.2444
▁nose	-10.2445
▁glavn	-10.2475
▁natjera	-10.2476
vij	-10.2477
▁divn	-10.2487
▁praktičn	-10.2503
▁pokušaj	-10.2515
▁onog	-10.2522
▁riješit	-10.2553
▁mentaln	-10.2559
▁svjetl	-10.2569
▁Ga	-10.2577
▁krenul	-10.2588
ijim	-10.2592
nt	-10.2593
▁gradov	-10.2621
▁proizvode	-10.2622
▁činjenica	-10.2639
▁Neko	-10.2645
▁dozvoli	-10.2649
▁aktivnosti	-10.265
▁jednako	-10.2652
▁posti	-10.2656
▁tro	-10.2669
tlo	-10.2684
▁učim	-10.2685
▁vezan	-10.2686
▁jasno	-10.2732
▁pol	-10.2743
▁državni	-10.2747
▁2011	-10.2751
▁fi	-10.2752
▁čij	-10.2755
▁normaln	-10.2779
▁trgovin	-10.2786
▁volje	-10.2793
▁postavim	-10.2796
▁dozvol	-10.2811
▁aktivnost	-10.2828
▁određeni	-10.2833
▁muškarc	-10.2845
▁ho	-10.2847
▁mjere	-10.289
▁pogađa	-10.2892
▁razvije	-10.2901
▁zaboravit	-10.2939
▁zaboravi	-10.2947
▁tip	-10.2986
▁sekularn	-10.2992
▁pećina	-10.3023
▁Govorim	-10.3025
đu	-10.3039
▁lagan	-10.3039
▁održiv	-10.3041
▁Naša	-10.305
▁199	-10.3055
▁takvo	-10.3065
▁globalni	-10.307
▁vratil	-10.3082
▁hladn	-10.3082
▁univerzumu	-10.3119
▁dolaz	-10.312
▁odred	-10.313
▁divno	-10.3134
▁skup	-10.315
▁mete	-10.3151
▁sat	-10.3151
▁nivoa	-10.3152
▁čin	-10.3162
▁fizičari	-10.3163
▁zajedničko	-10.3164
jen	-10.3181
▁potroši	-10.3185
čeg	-10.3187
uka	-10.32
30	-10.3205
▁djeluj	-10.3214
and	-10.3216
▁ostali	-10.3228
▁učin	-10.3234
▁korištenj	-10.3235
ol	-10.3237
▁snažno	-10.3255
deset	-10.3257
▁manja	-10.3274
▁djevojk	-10.3291
▁implantira	-10.3293
▁nasilj	-10.3308
▁plavi	-10.3308
F	-10.3343
▁pacijen	-10.3362
▁užas	-10.3366
alni	-10.3368
O	-10.3371
gleda	-10.3375
▁ključni	-10.3395
▁dolar	-10.34
kratko	-10.3403
mah	-10.3403
▁pronađ	-10.3406
▁doma	-10.3419
▁svjetski	-10.3422
đa	-10.3427
R	-10.3438
V	-10.3463
▁greben	-10.3478
▁metar	-10.3482
icu	-10.3485
▁dosad	-10.3502
▁inspir	-10.3508
▁planiranj	-10.3508
▁pad	-10.351
uju	-10.3512
▁vec	-10.3515
▁izda	-10.3521
ill	-10.3521
▁nevjerovatno	-10.3525
▁Drugo	-10.3527
▁nuklearn	-10.3528
▁moment	-10.3538
▁brz	-10.3539
▁pogreš	-10.3548
▁Ništa	-10.3557
▁porodica	-10.3563
▁tije	-10.3579
▁nervoz	-10.358
voz	-10.3591
▁naučit	-10.3595
▁pravo	-10.36
acij	-10.3609
isti	-10.3612
▁čita	-10.3617
▁Su	-10.362
▁vještina	-10.3641
▁situacija	-10.3653
▁manji	-10.3661
gore	-10.3676
ilo	-10.3709
▁pokusa	-10.3713
▁razmišljam	-10.3717
▁poveza	-10.3718
▁Be	-10.3719
▁nosit	-10.3719
▁zavis	-10.3721
ale	-10.3721
▁reag	-10.3725
▁emocija	-10.3728
▁obje	-10.3731
▁održa	-10.3739
ezije	-10.3753
rađen	-10.3764
▁onim	-10.3764
▁sučelj	-10.3767
▁Muzi	-10.3775
▁spor	-10.3777
▁zadovolj	-10.378
▁dokument	-10.3781
▁Bro	-10.3781
▁196	-10.3783
▁Razmišlja	-10.3784
▁pogorša	-10.3784
▁ubrzan	-10.3784
▁Alchajmerov	-10.3784
▁Elvis	-10.3784
▁Julij	-10.3784
▁Richard	-10.3784
▁Zdrav	-10.3784
▁afganistansk	-10.3784
▁astronaut	-10.3784
▁celuloz	-10.3784
▁deforestacij	-10.3784
▁dimenzij	-10.3784
▁favori	-10.3784
▁godišnje	-10.3784
▁iznenađenj	-10.3784
▁kompleksn	-10.3784
▁konzistentn	-10.3784
▁nepokretni	-10.3784
▁nepoznat	-10.3784
▁performans	-10.3784
▁piramid	-10.3784
▁razgovor	-10.3784
▁stanovništv	-10.3784
▁televizor	-10.3784
▁vakcin	-10.3784
▁zrnc	-10.3784
▁Čini	-10.3784
▁šablon	-10.3784
▁multi	-10.3784
▁projekcij	-10.3784
▁termin	-10.3784
▁vožnj	-10.3784
▁Njihov	-10.3784
▁Pragmati	-10.3784
▁Voljel	-10.3784
▁spontano	-10.3784
▁šećer	-10.3784
▁Amerikanac	-10.3784
▁Razmisli	-10.3784
▁doktrin	-10.3784
▁globalizacij	-10.3784
▁kuhanj	-10.3784
▁postizanj	-10.3784
▁objašnjava	-10.3784
▁smrša	-10.3784
▁berz	-10.3784
▁čovječanstv	-10.3784
▁Americ	-10.3784
▁MIT	-10.3784
▁kavez	-10.3784
▁objavljen	-10.3784
▁nevolj	-10.3784
▁pokreće	-10.3784
▁lekcij	-10.3785
▁orbiti	-10.3785
▁netačn	-10.3785
▁sprat	-10.3785
▁prijedlog	-10.3785
▁hranjiv	-10.3785
▁pojedinc	-10.3785
▁1,	-10.3785
▁Posljednj	-10.3785
▁regij	-10.3785
erson	-10.3785
▁razumiju	-10.3785
▁Željel	-10.3785
▁Kanad	-10.3785
▁drži	-10.3785
▁brine	-10.3785
▁17	-10.3785
▁propagand	-10.3785
▁stanovnik	-10.3785
▁postavljen	-10.3785
▁lamp	-10.3785
▁konflikt	-10.3786
▁krasnik	-10.3786
▁drag	-10.3786
▁Chad	-10.3786
▁bave	-10.3786
▁pravougaonik	-10.3786
▁okoliš	-10.3786
▁status	-10.3786
▁Pomisli	-10.3787
▁prikupi	-10.3787
▁jedinstven	-10.3787
▁ogoljen	-10.3787
onekad	-10.3787
▁Uradi	-10.3788
▁blisk	-10.3788
vijet	-10.3788
▁uticaj	-10.3789
▁mišić	-10.3789
▁razumljiv	-10.3789
▁decenij	-10.3789
▁pomogl	-10.3789
▁dvadeset	-10.3789
▁ubrzava	-10.3789
▁nasumičn	-10.379
▁ravnopravnost	-10.379
▁političar	-10.379
▁uvje	-10.3792
▁zelj	-10.3792
▁slijedeć	-10.3793
▁socijalni	-10.3793
▁rijetk	-10.3794
▁učenik	-10.3794
▁malarij	-10.3795
embra	-10.3796
▁koljen	-10.3796
▁svjetov	-10.3797
▁Proš	-10.3797
▁izračuna	-10.3797
▁velikodušnost	-10.3797
▁očigledn	-10.3797
▁sluz	-10.3797
▁naglasak	-10.3798
▁slatk	-10.3798
▁utjeh	-10.3798
▁sadržaj	-10.3799
▁propis	-10.3801
▁Njen	-10.3803
▁postojanje	-10.3803
▁definira	-10.3803
▁slučajev	-10.3804
▁stolic	-10.3804
▁pjevač	-10.3804
▁nevidljivost	-10.3808
▁sjemenj	-10.381
dnji	-10.381
menat	-10.381
▁trgovanj	-10.3811
▁Reci	-10.3811
▁napolj	-10.3812
▁Bub	-10.3813
▁podjel	-10.3813
▁ptic	-10.3814
▁zabran	-10.3819
▁radoznal	-10.382
▁članov	-10.3821
▁napusti	-10.3821
nesposobnost	-10.3821
▁komercijaln	-10.3822
▁kamen	-10.3822
▁unutrašnjost	-10.3822
▁zahvalnost	-10.3822
▁počinj	-10.3823
▁perspektiv	-10.383
▁učinkovit	-10.3831
▁DH	-10.3833
▁morsk	-10.3833
▁reaguje	-10.3834
▁Ured	-10.3834
▁stopi	-10.3835
CO	-10.3837
▁gd	-10.3846
▁uzork	-10.3846
▁posveti	-10.3851
▁nađe	-10.3855
▁predloži	-10.3858
▁nikak	-10.3859
▁zalih	-10.3859
▁biologij	-10.3861
▁položit	-10.3864
▁instrument	-10.3865
▁najgore	-10.3866
▁shvatanje	-10.3868
▁neophodn	-10.3868
▁trem	-10.3868
▁donije	-10.3874
▁slab	-10.3874
▁računanj	-10.3874
▁cijeniti	-10.3875
▁pism	-10.3879
▁ulaz	-10.388
▁Sigurn	-10.3881
▁Mes	-10.3883
▁Moz	-10.3885
▁fenomenalno	-10.3887
▁ukloni	-10.389
▁posle	-10.3895
▁poštovanj	-10.3899
▁zapamti	-10.3904
▁podijelim	-10.3909
▁savan	-10.3912
▁Uz	-10.3919
▁mikro	-10.3933
▁cur	-10.394
▁industriju	-10.3942
▁čitanj	-10.3944
▁pret	-10.3948
▁tamn	-10.3952
▁klijent	-10.3953
▁smiješn	-10.3959
išl	-10.3967
stavljaju	-10.3967
▁zapanjujuće	-10.3967
▁Hoć	-10.3975
▁Pu	-10.3978
▁čas	-10.398
▁javnost	-10.3984
ch	-10.3985
▁izdanj	-10.3988
▁strana	-10.3991
▁misij	-10.3993
▁lav	-10.3994
▁pretil	-10.4001
▁All	-10.4001
▁pojača	-10.4002
▁odbaci	-10.4006
▁izađe	-10.4006
▁Nemam	-10.4008
atle	-10.4011
▁objekti	-10.4012
▁trak	-10.4013
▁cijeni	-10.4014
▁San	-10.4015
▁sjeverno	-10.4031
▁usput	-10.4034
▁završe	-10.4038
▁neugodn	-10.4042
▁nuklearnu	-10.4047
▁momentu	-10.4051
▁viri	-10.4053
▁dodat	-10.4053
▁bežičn	-10.4055
ita	-10.4061
▁pomislit	-10.4066
vije	-10.4068
nija	-10.4072
▁gigavat	-10.4083
▁baterije	-10.4097
▁hoće	-10.4098
▁kreće	-10.4099
▁mašine	-10.4099
▁ubijaju	-10.4104
itet	-10.4109
vezi	-10.4114
▁šalju	-10.412
▁nasta	-10.4121
▁Net	-10.4126
▁doni	-10.413
rije	-10.4138
▁pacijent	-10.4141
▁počinjem	-10.4142
▁spriječi	-10.4143
▁kud	-10.4145
▁baci	-10.4155
▁poljoprivredn	-10.4155
▁otkrijem	-10.4156
▁Nastavit	-10.4161
nos	-10.4169
▁Misli	-10.4171
▁zaradi	-10.4176
▁goli	-10.418
▁napisan	-10.4188
▁crveno	-10.4196
▁složi	-10.4208
▁pisanj	-10.4213
ničk	-10.4217
▁užasn	-10.4222
▁otišl	-10.4223
anci	-10.4236
▁Doh	-10.4249
tom	-10.4251
▁hrani	-10.4278
▁svet	-10.429
▁pomagal	-10.4299
▁dvo	-10.4301
▁seosk	-10.4304
▁nasilje	-10.4307
▁čud	-10.4308
▁vjerovat	-10.4309
▁skupa	-10.4318
▁kultura	-10.432
▁oponaša	-10.4325
▁izgradit	-10.4351
▁pronalazi	-10.4351
▁realno	-10.4378
dolje	-10.438
▁zanimljivo	-10.4386
▁prenosi	-10.4388
už	-10.4394
▁njihovo	-10.4397
raf	-10.44
▁prove	-10.4401
rija	-10.4411
sija	-10.4435
suši	-10.4439
uzeti	-10.4443
▁9	-10.4451
laga	-10.446
▁materija	-10.4465
▁nit	-10.4471
▁Wi	-10.4479
▁postan	-10.4489
▁pričat	-10.4489
▁tvrd	-10.4501
▁čisto	-10.4503
djel	-10.4505
▁va	-10.451
▁pećin	-10.4516
▁izazva	-10.4523
▁reklam	-10.4523
▁strašno	-10.4545
▁zeli	-10.4552
▁faz	-10.4553
▁poveća	-10.4554
▁fl	-10.456
▁prim	-10.4571
▁radov	-10.4574
građen	-10.4582
▁otkriva	-10.4596
▁poslov	-10.4605
▁nikom	-10.4606
▁ucitelj	-10.4609
▁muzej	-10.4609
▁potič	-10.461
▁moždan	-10.4611
zor	-10.4617
▁održivo	-10.4627
▁kamp	-10.4628
▁izgradi	-10.4633
▁ostavit	-10.4642
▁plu	-10.4663
▁moćn	-10.4675
▁16	-10.4677
▁čul	-10.4684
koro	-10.4694
sam	-10.4694
▁bijel	-10.4718
▁upoznal	-10.4731
▁oporav	-10.4756
▁tehnički	-10.4757
▁primijeni	-10.4761
▁Man	-10.4761
▁zapitat	-10.4762
▁redovn	-10.4762
bal	-10.4768
▁potrebni	-10.4772
▁ekstrem	-10.4777
▁digitalno	-10.4785
ži	-10.4802
▁razumjel	-10.4813
▁sigurn	-10.4819
▁pritis	-10.4821
▁metafor	-10.4827
▁vrijed	-10.4835
▁dubok	-10.4837
rez	-10.484
ks	-10.4844
▁dugm	-10.4853
▁stigl	-10.4854
▁uhvatit	-10.4872
▁zadnj	-10.4873
▁čaj	-10.4883
▁180	-10.4883
▁Posta	-10.4886
▁igr	-10.4907
iral	-10.4925
▁nos	-10.4948
irani	-10.4954
▁porodično	-10.5014
▁bit	-10.502
kolo	-10.5023
tiču	-10.5037
▁proizve	-10.5039
▁otrov	-10.5055
▁jasn	-10.5058
▁vijeku	-10.506
jim	-10.5065
▁Dob	-10.5084
tsk	-10.5099
▁očekiva	-10.5124
▁budući	-10.5156
nika	-10.5157
▁Bo	-10.5167
▁neurolo	-10.5168
▁vr	-10.517
▁sjetit	-10.5176
kos	-10.5188
▁v	-10.5188
▁takozvan	-10.5204
▁unaprijed	-10.5231
▁naredn	-10.5232
▁mentalno	-10.5234
cin	-10.5254
rne	-10.5262
▁pojavil	-10.5265
▁odličn	-10.5269
đer	-10.5277
▁izum	-10.5279
▁učinil	-10.5286
skom	-10.5303
rima	-10.531
▁co	-10.5314
▁prošlo	-10.5333
bom	-10.5338
lazi	-10.5344
▁zeleno	-10.5364
▁fe	-10.5371
▁smatram	-10.5373
▁odlično	-10.5379
▁siromaštvo	-10.5388
at	-10.5412
▁src	-10.5415
▁bol	-10.5421
dna	-10.5444
učili	-10.5447
ijev	-10.5477
▁zapad	-10.5478
ona	-10.5495
▁gledaju	-10.5498
▁nastav	-10.5501
rani	-10.5503
▁vodim	-10.5506
▁1	-10.5512
reć	-10.5531
▁potreba	-10.5531
ranju	-10.5531
bet	-10.5536
tica	-10.5537
ovanje	-10.5553
spi	-10.5555
▁pruž	-10.5563
600	-10.5564
zovan	-10.5566
jedna	-10.5567
▁proučavam	-10.5571
▁vjerova	-10.5576
cic	-10.5584
▁kas	-10.5585
▁lež	-10.5587
bre	-10.5597
ivno	-10.5606
šnja	-10.561
▁visoko	-10.5612
iznenađujuć	-10.5614
▁filozof	-10.5631
▁slaž	-10.5643
▁mislio	-10.5653
▁poznajem	-10.566
▁naziv	-10.5668
tičk	-10.5674
▁vezano	-10.5681
mil	-10.5688
▁Država	-10.5691
sjećam	-10.5696
slov	-10.5701
▁pisal	-10.5713
▁opisuj	-10.5717
jerovatno	-10.5723
mjer	-10.5725
skren	-10.5725
▁2.0	-10.5728
zan	-10.5729
hoda	-10.5731
ler	-10.5734
▁Pod	-10.5745
ji	-10.5749
▁obavez	-10.5758
▁prati	-10.5759
▁prolaz	-10.5761
▁uzbuđen	-10.5762
vremenu	-10.5776
▁element	-10.5783
▁vatr	-10.5792
tivno	-10.5796
▁funkcionis	-10.5804
▁medij	-10.5805
▁učenj	-10.5806
▁lokaln	-10.5807
▁star	-10.5831
▁zahval	-10.5831
vodi	-10.5843
▁unutrašnj	-10.5843
T	-10.5857
▁naučno	-10.5859
▁Kar	-10.5862
ding	-10.5873
▁pe	-10.5877
▁stvoril	-10.5879
van	-10.5885
9	-10.5892
▁širenj	-10.5894
40-	-10.5896
▁baterij	-10.5897
▁mašin	-10.5899
nacionaln	-10.5899
▁Zemlji	-10.5903
▁veza	-10.5915
▁Sk	-10.5928
▁dol	-10.594
jednako	-10.5948
▁deve	-10.5952
teško	-10.5957
▁ponovi	-10.5959
▁nekad	-10.5966
veliko	-10.5966
▁odlik	-10.5967
▁djevoj	-10.5973
▁bana	-10.5976
▁kreć	-10.598
▁zatvori	-10.5982
▁značaj	-10.5985
▁razumije	-10.5988
▁crve	-10.599
▁istraživanj	-10.6
▁fascinantn	-10.6003
tih	-10.6005
▁osjećat	-10.6007
▁javni	-10.6015
stava	-10.6023
▁ostalo	-10.6031
▁tumači	-10.6033
▁prihvati	-10.604
▁tražil	-10.6048
▁stvoren	-10.6053
▁konačn	-10.6054
ovan	-10.6063
dugo	-10.6067
▁zdravstv	-10.6072
▁ostavim	-10.6074
▁Britanij	-10.6083
▁mikrob	-10.6086
▁uspješni	-10.6087
▁rješava	-10.6096
▁prelaz	-10.6106
ški	-10.6115
retpostavi	-10.6127
▁efekt	-10.6132
▁preživ	-10.6133
pamtit	-10.6137
izm	-10.6143
ck	-10.6147
anj	-10.6151
▁razgovaraju	-10.6158
▁ravn	-10.6158
▁sezon	-10.616
pa	-10.6179
▁praz	-10.6188
▁slajd	-10.6195
ier	-10.6203
▁razvija	-10.621
▁sagradi	-10.6217
▁genom	-10.622
▁lijepo	-10.623
telje	-10.6232
era	-10.6233
▁član	-10.6238
bilnost	-10.6238
▁Jevrej	-10.6262
▁znak	-10.6264
vni	-10.6271
štvo	-10.6274
Fran	-10.6275
▁uspješno	-10.6276
▁napo	-10.6278
▁inter	-10.628
dublje	-10.628
hrabri	-10.6282
▁biolog	-10.6282
siguran	-10.6283
▁ekstern	-10.6284
dimenzionaln	-10.6284
▁kontinen	-10.6284
▁randomiz	-10.6284
▁preporuč	-10.6284
▁2010	-10.6284
▁Bangladeš	-10.6284
▁Cloud	-10.6284
▁Eisenhower	-10.6284
▁Jug	-10.6284
▁Kultur	-10.6284
▁Otvara	-10.6284
▁Profesor	-10.6284
▁Univerzitet	-10.6284
▁Washington	-10.6284
▁anksioznost	-10.6284
▁biznis	-10.6284
▁efekat	-10.6284
▁hendikep	-10.6284
▁hormon	-10.6284
▁identicn	-10.6284
▁infrastruktur	-10.6284
▁institut	-10.6284
▁inteligencij	-10.6284
▁intuitivn	-10.6284
▁inzinjer	-10.6284
▁inženjer	-10.6284
▁kapacitet	-10.6284
▁komuniz	-10.6284
▁najbogatij	-10.6284
▁najopasnij	-10.6284
▁neočekivan	-10.6284
▁opsjednut	-10.6284
▁patrijarhalni	-10.6284
▁podršk	-10.6284
▁prejedanj	-10.6284
▁prljav	-10.6284
▁produkcij	-10.6284
▁razdoblj	-10.6284
▁razdvaja	-10.6284
▁recesij	-10.6284
▁rječnik	-10.6284
▁sapiens	-10.6284
▁sekretar	-10.6284
▁septembr	-10.6284
▁sponzor	-10.6284
▁sprečava	-10.6284
▁teleskop	-10.6284
▁termostat	-10.6284
▁transakcij	-10.6284
▁ugradi	-10.6284
▁utvrdi	-10.6284
▁zamišlja	-10.6284
▁Šekspir	-10.6284
▁švedsk	-10.6284
▁Božj	-10.6284
▁Iznenad	-10.6284
▁Pokušaj	-10.6284
▁Trenut	-10.6284
▁afričk	-10.6284
▁britansk	-10.6284
▁cjelokupn	-10.6284
▁grijeh	-10.6284
▁implementira	-10.6284
▁najelegantnij	-10.6284
▁okružuj	-10.6284
▁operativn	-10.6284
▁oružj	-10.6284
▁potpisal	-10.6284
▁potrošen	-10.6284
▁prilagodi	-10.6284
▁razlicit	-10.6284
▁zagonetk	-10.6284
▁Traži	-10.6284
▁islamsk	-10.6284
▁neviđen	-10.6284
▁solarn	-10.6284
▁središt	-10.6284
▁virtualn	-10.6284
▁aparat	-10.6284
▁oprost	-10.6284
▁terapij	-10.6284
▁Knjig	-10.6284
▁Zanimljiv	-10.6284
▁samoorganiz	-10.6284
▁sunđer	-10.6284
▁kršćansk	-10.6284
▁mehanick	-10.6284
▁Matemati	-10.6284
▁transformator	-10.6284
▁David	-10.6284
▁napuni	-10.6284
ncial	-10.6284
▁rizici	-10.6284
▁kontinu	-10.6284
▁Mužja	-10.6284
▁Smatra	-10.6284
▁poduhvat	-10.6284
▁podvodn	-10.6284
▁gledišt	-10.6284
▁posvećen	-10.6284
▁balon	-10.6284
▁neverovatn	-10.6285
▁plaši	-10.6285
▁rasprostranjen	-10.6285
▁božansk	-10.6285
▁predlaže	-10.6285
▁Bijel	-10.6285
▁usamljen	-10.6285
▁raspolaga	-10.6285
▁nožni	-10.6285
▁neizbježn	-10.6285
▁vođa	-10.6285
▁Rumi	-10.6285
▁sumnji	-10.6285
▁Tanzanij	-10.6285
▁Steve	-10.6285
▁parazit	-10.6285
▁otkloni	-10.6285
▁primarn	-10.6285
▁odgodit	-10.6285
▁odstranjivanj	-10.6285
▁kirnj	-10.6285
▁mnoštvo	-10.6285
▁Stvoritelj	-10.6285
▁laser	-10.6285
▁sudbin	-10.6285
▁dizajner	-10.6285
▁probudi	-10.6285
▁juzn	-10.6285
▁citat	-10.6286
▁napretk	-10.6286
▁posjeduje	-10.6286
▁depresij	-10.6286
▁zabranjen	-10.6286
▁sintez	-10.6286
agazin	-10.6286
▁Osjeća	-10.6286
▁Postavi	-10.6286
▁potres	-10.6286
▁predstavljen	-10.6286
▁prepun	-10.6286
▁čvrst	-10.6286
▁pokazuju	-10.6286
▁kalendar	-10.6286
▁ispitivanj	-10.6286
▁smanjenj	-10.6287
▁Rup	-10.6287
▁savremen	-10.6287
▁multiverzum	-10.6287
▁Zahval	-10.6287
▁ljepot	-10.6287
▁ekološk	-10.6287
▁investicij	-10.6287
▁intervencij	-10.6287
▁održi	-10.6287
▁preci	-10.6288
▁Vas	-10.6288
▁hotel	-10.6288
▁LI	-10.6288
▁ironij	-10.6288
▁organizacij	-10.6288
▁izložb	-10.6288
▁optičk	-10.6288
▁stavljen	-10.6289
▁protekl	-10.6289
▁prijetnj	-10.6289
▁tehnološk	-10.6289
▁Uzmi	-10.6289
▁1989	-10.6289
▁Platon	-10.629
▁prenesem	-10.629
▁poslušnost	-10.629
▁slomljen	-10.629
▁provodi	-10.6291
▁amonijak	-10.6291
▁proiz	-10.6291
▁elektronsk	-10.6291
▁zatvoren	-10.6291
▁kaf	-10.6291
▁trideset	-10.6291
▁življenj	-10.6291
▁poštuj	-10.6291
▁Starij	-10.6292
▁TE	-10.6292
▁prevoz	-10.6292
▁agencij	-10.6293
nesem	-10.6293
▁nebo	-10.6293
▁foto	-10.6293
▁učionic	-10.6293
▁otkriven	-10.6293
▁sumnja	-10.6294
▁onakv	-10.6295
▁Pored	-10.6295
▁upita	-10.6296
▁smanjuje	-10.6297
▁zbir	-10.6299
▁međusobn	-10.63
▁Trg	-10.63
▁sakuplja	-10.6301
▁kinesk	-10.6301
▁simulacij	-10.6301
▁Niko	-10.6301
▁predivn	-10.6302
▁odgovarajući	-10.6303
▁kampanj	-10.6303
▁antropologij	-10.6303
66	-10.6303
▁najpoznatij	-10.6303
▁organizam	-10.6304
biln	-10.6304
▁rashlađivanj	-10.6306
▁zaključit	-10.6307
▁preživje	-10.6307
▁pomnož	-10.6308
▁arapskom	-10.6309
▁Počet	-10.6309
▁snimanj	-10.6309
▁rov	-10.6311
▁očito	-10.6312
wor	-10.6312
jemačko	-10.6312
▁SM	-10.6313
ljuje	-10.6314
▁izgrađen	-10.6314
▁dlak	-10.6314
▁ustanov	-10.6317
▁saznal	-10.6318
▁zadržava	-10.6319
ika	-10.632
▁unuk	-10.632
▁pokrenul	-10.6321
▁šum	-10.6322
▁opada	-10.6322
▁Prirod	-10.6323
▁strast	-10.6323
▁imenu	-10.6324
▁hrabro	-10.6324
▁sadašnjost	-10.6324
▁odlič	-10.6327
▁naglas	-10.6329
▁puk	-10.6331
▁odmor	-10.6332
▁beskrajn	-10.6333
▁liči	-10.6334
▁ispad	-10.6335
▁presjek	-10.6335
▁metak	-10.6337
▁zamr	-10.6339
▁obolje	-10.6341
▁kiborg	-10.6343
▁hvata	-10.6344
▁gitar	-10.6344
▁Jednog	-10.6344
▁Gran	-10.6346
▁izašl	-10.6346
smatraju	-10.6346
ologij	-10.6346
▁kljuc	-10.6347
▁ukupn	-10.6347
▁neovisnost	-10.6347
▁političk	-10.6347
▁klinick	-10.6347
▁pisac	-10.635
▁umrl	-10.6351
▁sitn	-10.6351
▁čovječ	-10.6352
▁lut	-10.6353
▁djedov	-10.6354
▁prosjek	-10.6354
▁stid	-10.6355
▁individualn	-10.6355
▁krivulj	-10.6355
▁fasciniran	-10.6359
▁of	-10.636
▁vje	-10.6363
▁Oči	-10.6364
▁alg	-10.6365
▁funkcionaln	-10.6366
tvoro	-10.6367
▁hoć	-10.6372
▁djelova	-10.6372
▁ličnost	-10.6372
▁crta	-10.6374
▁složenost	-10.6374
▁preživljavanj	-10.6375
▁plo	-10.6375
▁Doš	-10.638
▁pokusava	-10.6381
▁Sho	-10.6381
▁izliječit	-10.6387
▁stil	-10.6388
▁skupi	-10.6391
▁vrhun	-10.6395
data	-10.6396
▁UN	-10.6397
▁snimk	-10.6404
▁zastupa	-10.6404
▁konkretn	-10.6409
rete	-10.6409
▁prilic	-10.6411
▁prate	-10.6415
▁Vla	-10.6415
▁kopn	-10.6418
▁cig	-10.6419
▁Fina	-10.6423
▁detaljn	-10.6423
▁Haitij	-10.6427
▁objektivn	-10.6429
fli	-10.6434
gara	-10.6435
ostran	-10.6436
atar	-10.644
▁predviđanj	-10.644
▁Neće	-10.6442
ser	-10.6446
▁čestica	-10.6448
▁pouzdan	-10.6453
▁stanic	-10.6455
▁popravi	-10.6455
▁hakov	-10.6455
▁susret	-10.6456
▁Kolumbiji	-10.6461
▁jeftinij	-10.6461
▁smeđe	-10.6463
▁Ateiz	-10.6465
▁volj	-10.6465
▁med	-10.6466
▁email	-10.6469
▁mega	-10.6471
▁formiraju	-10.6475
▁1.	-10.648
▁mr	-10.648
▁rješavanj	-10.6487
▁pažljivi	-10.649
▁prestane	-10.6492
▁iskren	-10.6494
▁mafija	-10.6494
▁novog	-10.6502
▁nestaj	-10.6502
▁Jedno	-10.6508
▁Evropsk	-10.6508
▁upisa	-10.6509
▁otk	-10.6512
▁mehanizmi	-10.6517
▁Govori	-10.6524
▁opasno	-10.6527
▁pišu	-10.6538
otekl	-10.6538
▁ispari	-10.6541
▁korisni	-10.6544
cinjen	-10.6545
▁zahvalni	-10.6546
▁eksperimenti	-10.655
▁razumijevanje	-10.655
orija	-10.6556
▁slon	-10.6559
gor	-10.6564
▁Gleda	-10.657
▁jur	-10.6573
che	-10.6574
▁igri	-10.6586
▁vla	-10.659
▁štiti	-10.6592
▁dija	-10.6592
tna	-10.66
učeni	-10.6602
bes	-10.6605
▁tumačim	-10.6605
15	-10.6607
▁pritiska	-10.6618
▁industrija	-10.6622
▁usmjeri	-10.6622
▁ostatk	-10.6623
off	-10.6624
▁krat	-10.6625
amen	-10.6626
▁profita	-10.6627
▁stare	-10.6629
▁ukazuj	-10.6636
▁žrtva	-10.6637
▁more	-10.6638
▁dođ	-10.666
▁digitaliz	-10.6665
▁kreta	-10.6665
gre	-10.6666
▁suđenj	-10.6672
ble	-10.6676
▁koraljn	-10.6682
▁prisustvo	-10.6686
▁Treć	-10.6692
▁unutrašnje	-10.6696
▁elegantn	-10.6697
deri	-10.6697
▁mašt	-10.6699
▁spominje	-10.6701
▁štit	-10.6705
▁vrhu	-10.6705
▁potraži	-10.671
▁izabra	-10.6721
▁spaja	-10.6727
▁postojal	-10.6728
▁posjeti	-10.6728
▁zajednički	-10.673
▁adapta	-10.6733
▁postavil	-10.6737
▁siromašni	-10.6739
▁očekivanj	-10.6751
▁osobn	-10.6752
▁Bri	-10.6767
▁Gre	-10.6767
▁bubnjaju	-10.6773
▁suosjeća	-10.6776
jedi	-10.6782
OE	-10.6782
▁lokalni	-10.6785
▁uzme	-10.6788
▁podučavanj	-10.679
▁topl	-10.6793
▁doba	-10.6798
▁odgovornost	-10.6802
prosto	-10.6804
▁sigurnost	-10.681
▁funkcionisa	-10.681
▁stoji	-10.6812
▁vrt	-10.6813
▁srca	-10.6817
misao	-10.6818
▁plat	-10.682
sak	-10.6823
▁jadn	-10.6836
jski	-10.6843
▁pripremi	-10.6854
▁polu	-10.6854
▁arapski	-10.6857
▁gledali	-10.6877
▁dovod	-10.6885
▁čuva	-10.6886
▁Odličn	-10.69
▁pojednostavi	-10.6901
▁običaji	-10.6902
▁kri	-10.6905
jenja	-10.691
▁rez	-10.6911
▁skren	-10.692
▁uzm	-10.6929
▁svira	-10.6944
▁većinsk	-10.6945
▁cest	-10.6945
rno	-10.6949
jan	-10.6952
mjese	-10.6958
▁doživje	-10.6959
▁3,5	-10.6971
▁ostane	-10.699
▁ekonomski	-10.6994
▁mina	-10.6998
▁razum	-10.7008
▁prethodno	-10.7017
oslav	-10.7032
▁današnj	-10.7035
hemikalija	-10.7039
▁uzrokuju	-10.7052
▁proučava	-10.7054
▁formiral	-10.7055
▁biljk	-10.7069
▁želje	-10.7071
▁maj	-10.7072
▁sretn	-10.7077
▁napredujem	-10.7077
▁imunizira	-10.7089
▁očekivan	-10.7089
▁počn	-10.7091
▁tabl	-10.7091
eće	-10.7094
▁pric	-10.7107
▁zapa	-10.7109
▁potrošit	-10.711
▁etički	-10.7111
▁stajali	-10.7116
▁plaćen	-10.7125
▁fraz	-10.713
jak	-10.7143
▁mar	-10.7144
▁današnje	-10.7151
▁mine	-10.7154
▁č	-10.7156
▁Oh	-10.7165
▁razvit	-10.7176
iranj	-10.7179
▁rada	-10.7181
tori	-10.7184
rug	-10.7189
8	-10.7189
▁poznavanje	-10.7233
▁2.	-10.7246
▁grozn	-10.7247
▁prašum	-10.7251
viz	-10.7261
ly	-10.7265
tara	-10.7265
vica	-10.7274
▁programira	-10.728
▁pliva	-10.7287
▁troši	-10.7289
▁centraln	-10.7296
▁pitam	-10.7298
▁pi	-10.7299
min	-10.7309
star	-10.7316
dolaze	-10.7317
▁prosl	-10.7322
vr	-10.7328
▁stresn	-10.7336
▁hladno	-10.7339
▁odvojen	-10.7345
▁zdravstven	-10.7347
rska	-10.7356
▁lje	-10.736
ver	-10.7374
▁neuro	-10.7384
▁sekularno	-10.7406
▁2008	-10.7412
ans	-10.7418
▁nervn	-10.7441
cili	-10.7442
▁dije	-10.7445
▁naselj	-10.7481
▁pretvaraju	-10.7497
▁takozvani	-10.7498
▁korpora	-10.75
duše	-10.75
▁oka	-10.7517
▁bra	-10.7518
▁mirn	-10.7519
tne	-10.7522
▁finansijski	-10.7522
ć	-10.7534
▁kakvo	-10.7536
▁preuze	-10.7538
▁sljedeć	-10.754
▁dostav	-10.755
▁hr	-10.7552
▁kreativni	-10.7562
▁zapadni	-10.7563
▁izgradil	-10.7566
▁unaprijedi	-10.7583
▁materij	-10.7586
jena	-10.7588
▁stopa	-10.76
▁buduć	-10.7605
▁siromašnim	-10.7607
▁izazvan	-10.7609
lov	-10.7631
▁zaraz	-10.7633
▁povećal	-10.7637
80	-10.7648
▁nist	-10.7649
vod	-10.7661
ois	-10.7661
stado	-10.7671
▁mest	-10.7671
otpuno	-10.7674
▁braćo	-10.7674
▁bogati	-10.7692
▁sino	-10.7703
radu	-10.7711
▁pacovi	-10.7712
,5	-10.7716
▁Ab	-10.7716
▁trgovina	-10.773
prav	-10.773
ivanje	-10.7734
▁išl	-10.7741
eš	-10.7748
▁kontroliran	-10.7774
▁dobrim	-10.7778
▁razmisli	-10.7794
▁nade	-10.7801
▁uvidje	-10.7826
▁skuplja	-10.7827
▁8	-10.7834
▁desn	-10.7836
▁Učinil	-10.7837
▁ugleda	-10.7857
izacij	-10.7863
▁putuju	-10.7871
▁riziku	-10.7886
▁ograničen	-10.789
miju	-10.79
▁primjetit	-10.7901
▁stati	-10.7907
ns	-10.7911
▁započel	-10.7928
ijeva	-10.7934
▁Sličn	-10.7952
▁ana	-10.7957
▁tipično	-10.7958
čn	-10.7971
▁nestal	-10.7974
▁promijenil	-10.7977
▁srednji	-10.798
▁izdat	-10.7981
▁američki	-10.7985
▁shvata	-10.7986
ranj	-10.7992
▁procesu	-10.7993
▁pozivam	-10.7999
▁pokazujem	-10.8003
šem	-10.8006
▁vodeć	-10.8009
eže	-10.802
▁Uze	-10.8023
▁Ovak	-10.8027
liko	-10.8035
▁procent	-10.8038
dni	-10.8047
▁Imal	-10.8059
▁brać	-10.8059
▁usluga	-10.8066
▁pozicij	-10.8077
▁oporavi	-10.8085
▁uhap	-10.8098
▁kog	-10.8103
ribe	-10.8103
▁Ot	-10.8117
▁skola	-10.813
▁kocka	-10.8148
▁vijest	-10.8153
djece	-10.8167
▁duhovni	-10.8178
▁kos	-10.8193
▁nacionaln	-10.8194
uši	-10.8195
▁stig	-10.8198
▁redov	-10.8205
▁mili	-10.8205
▁dob	-10.8206
tog	-10.8211
▁primjetil	-10.8232
▁mobiln	-10.8238
▁potencijaln	-10.824
kampa	-10.826
▁Ob	-10.8261
▁kup	-10.8266
▁zivot	-10.8266
ić	-10.827
▁pati	-10.8279
nito	-10.828
▁sudovi	-10.8287
uda	-10.8288
▁no	-10.8289
▁osv	-10.8302
th	-10.8305
rediti	-10.8311
▁odvojeno	-10.8314
▁avantur	-10.8321
▁Osta	-10.8322
▁Hu	-10.8324
scen	-10.8325
kupam	-10.8329
dina	-10.8331
▁zdravstveni	-10.8332
ljem	-10.8333
▁ilustr	-10.8333
cirat	-10.8335
▁alternativa	-10.8336
▁ljut	-10.8357
▁objavi	-10.8372
▁efikas	-10.8375
▁plivaju	-10.8375
▁oprem	-10.8379
▁krenu	-10.8391
▁stavlja	-10.8405
500	-10.8406
▁materijala	-10.8408
sao	-10.8413
naest	-10.8419
rin	-10.8429
▁plemenski	-10.8431
▁tam	-10.8437
▁postajem	-10.8438
▁Kine	-10.8442
vno	-10.8473
nal	-10.8479
▁smije	-10.8481
▁zelim	-10.8481
our	-10.849
▁sred	-10.8518
▁sav	-10.8523
anjaju	-10.854
šen	-10.854
▁zeleni	-10.855
▁ek	-10.8559
▁otvara	-10.8561
▁drugačij	-10.8566
▁ubija	-10.8568
ong	-10.8584
▁Nov	-10.8586
nic	-10.8591
njom	-10.86
ts	-10.8609
▁uporedit	-10.8614
ističko	-10.8625
▁biljka	-10.8625
▁industrij	-10.863
▁pjesma	-10.8633
▁ri	-10.8649
▁govoril	-10.8653
▁hemikalij	-10.8654
mp	-10.8666
ps	-10.8672
▁defini	-10.8674
izova	-10.8693
krije	-10.8715
▁predstavi	-10.8716
▁vo	-10.8719
▁nastavit	-10.8728
▁skladišt	-10.8733
▁3,	-10.874
▁dostupni	-10.8749
▁poznavanj	-10.8772
▁geni	-10.8774
▁zele	-10.8776
rir	-10.88
usta	-10.8815
▁Rad	-10.8818
▁ovis	-10.8835
onim	-10.8839
▁unosa	-10.8846
▁raspa	-10.8863
▁mislil	-10.8872
alno	-10.8872
▁Li	-10.8878
đe	-10.8895
▁davanj	-10.8903
▁slučajno	-10.8909
▁bolnica	-10.892
kovan	-10.893
iv	-10.894
▁up	-10.8953
▁osjeti	-10.8955
izovan	-10.8956
▁vjeruj	-10.896
▁zva	-10.8961
ažu	-10.8975
bit	-10.8977
▁mod	-10.8994
▁prihodi	-10.8997
▁bubnja	-10.8997
▁oštećen	-10.8998
▁mjehurić	-10.9005
govori	-10.9006
▁prosje	-10.9009
▁zl	-10.9024
mislim	-10.9032
jem	-10.9034
▁izabral	-10.904
▁dostup	-10.9049
▁osjećal	-10.9054
▁složen	-10.9062
▁met	-10.9065
▁staja	-10.9067
▁pripremil	-10.908
nil	-10.908
▁spominj	-10.9082
pati	-10.9083
▁šalj	-10.9087
ravna	-10.9088
tur	-10.9089
▁nacrta	-10.909
▁koralj	-10.9093
▁opas	-10.9095
▁organizmi	-10.9105
ološk	-10.9107
đuje	-10.9122
đenje	-10.9123
▁lov	-10.9129
ženi	-10.9136
nji	-10.9137
▁važni	-10.9139
tinj	-10.914
▁Imaju	-10.9146
▁pruz	-10.9148
▁pojav	-10.9151
vala	-10.9152
▁Sv	-10.9153
▁obr	-10.9165
vođenje	-10.9183
toj	-10.919
▁kilogram	-10.9192
tivan	-10.9193
▁prevodi	-10.9195
▁Vid	-10.9208
▁Jed	-10.9211
▁Uče	-10.9229
dno	-10.9229
▁Gledaj	-10.9234
▁istraživa	-10.9234
▁profit	-10.9242
bolje	-10.9254
▁zvučn	-10.9256
Doh	-10.9261
iraju	-10.9261
▁utjeca	-10.9261
▁rano	-10.9266
▁crv	-10.9266
▁izgled	-10.9267
vrši	-10.9269
ljep	-10.9269
stariji	-10.9275
▁tvo	-10.9279
▁istražim	-10.9279
nteresantn	-10.9279
ijen	-10.9286
sigurno	-10.9287
gotov	-10.9291
brzo	-10.9293
▁besplat	-10.9293
broj	-10.9299
vina	-10.9301
kog	-10.9309
2.	-10.9311
grali	-10.9312
koj	-10.9312
▁profesori	-10.9319
▁smiješ	-10.9322
▁klijen	-10.9324
▁snaž	-10.9325
▁individu	-10.9331
poznavanje	-10.9332
uss	-10.9334
▁11	-10.9339
▁trč	-10.9339
čuju	-10.9339
▁upotrijeb	-10.9339
probat	-10.9341
▁kren	-10.9343
▁standardn	-10.9344
god	-10.9347
▁pos	-10.9348
▁komand	-10.9352
▁stvore	-10.9352
▁sjaj	-10.9354
pustil	-10.9357
▁tretira	-10.9359
▁egzistencij	-10.9362
▁spomen	-10.9364
dija	-10.9371
tin	-10.9371
▁upr	-10.9372
▁Kolumbij	-10.9378
▁izađ	-10.938
▁snim	-10.9381
▁boga	-10.9384
bran	-10.9386
▁psih	-10.9388
vođe	-10.9394
▁činil	-10.9396
▁predviđa	-10.9406
pitali	-10.9417
▁Up	-10.9426
zazov	-10.9427
Pi	-10.9431
▁Nap	-10.9433
▁izbaci	-10.9433
▁opstan	-10.9439
▁spremno	-10.9448
▁podrž	-10.945
▁otklanja	-10.9457
aliziran	-10.9462
ostavlja	-10.9466
naprijed	-10.9468
ravan	-10.9472
tro	-10.9475
vjerovatn	-10.9483
▁znače	-10.9486
SA	-10.9499
▁uništava	-10.9501
▁stotina	-10.9503
▁let	-10.951
▁fascinira	-10.9515
▁biva	-10.9519
▁neovisn	-10.9531
dovolj	-10.9533
▁nared	-10.9536
živ	-10.9537
▁stručnja	-10.954
netko	-10.9542
▁pokren	-10.9549
▁osrednj	-10.955
▁str	-10.955
laganj	-10.9553
▁uzrokova	-10.9556
meta	-10.9557
▁Mal	-10.956
ličina	-10.9563
nalazi	-10.9566
▁umjetno	-10.9567
▁Kris	-10.9569
▁elektr	-10.9571
▁Ev	-10.9577
snije	-10.9579
rova	-10.9586
▁geneti	-10.9586
večer	-10.9586
oslanja	-10.9588
▁zaobi	-10.959
▁psi	-10.9592
rađiva	-10.9594
juće	-10.9594
▁sapun	-10.9597
▁drža	-10.9598
▁izbje	-10.9599
▁razbi	-10.96
▁gospod	-10.96
▁knji	-10.9603
▁1900	-10.9603
▁nezavisn	-10.9603
nuta	-10.9606
ziva	-10.9607
▁poznaj	-10.9607
onstruiše	-10.9607
▁norm	-10.9608
dimo	-10.961
zbilja	-10.9612
pušten	-10.9612
▁sedm	-10.9613
▁pravougaon	-10.9614
gove	-10.9615
ogrešno	-10.9616
rojekat	-10.9616
▁giga	-10.9616
▁ozna	-10.9617
▁depresiv	-10.9618
epartme	-10.9618
sorpcij	-10.9618
spostavil	-10.9618
zoterični	-10.9618
▁Besmislic	-10.9618
▁Delhij	-10.9618
▁Harvard	-10.9618
▁Izgradi	-10.9618
▁John	-10.9618
▁Jon	-10.9618
▁Jun	-10.9618
▁Leibniz	-10.9618
▁Milostiv	-10.9618
▁PUM	-10.9618
▁Palestin	-10.9618
▁Poznajem	-10.9618
▁Približava	-10.9618
▁Rezultat	-10.9618
▁Uobičajen	-10.9618
▁We	-10.9618
▁argument	-10.9618
▁avgust	-10.9618
▁bezbjednost	-10.9618
▁cenzur	-10.9618
▁dijagnosticira	-10.9618
▁distribuiran	-10.9618
▁egzotičn	-10.9618
▁ekvivalent	-10.9618
▁fudbal	-10.9618
▁grijanje	-10.9618
▁hodočašć	-10.9618
▁hvalospjev	-10.9618
▁identitet	-10.9618
▁informisa	-10.9618
▁interfejs	-10.9618
▁kanadsk	-10.9618
▁metafizi	-10.9618
▁molekul	-10.9618
▁najosnovnij	-10.9618
▁neuspjeh	-10.9618
▁nezamisliv	-10.9618
▁ophođenj	-10.9618
▁optuž	-10.9618
▁oslobađa	-10.9618
▁oslobodi	-10.9618
▁perceptivn	-10.9618
▁pobornik	-10.9618
▁podsticanj	-10.9618
▁poduzetnik	-10.9618
▁poremećaj	-10.9618
▁približi	-10.9618
▁proračun	-10.9618
▁prostitucij	-10.9618
▁proživljava	-10.9618
▁pubertet	-10.9618
▁reguliše	-10.9618
▁reketbol	-10.9618
▁replikacij	-10.9618
▁samokontrol	-10.9618
▁sintetičk	-10.9618
▁svjedo	-10.9618
▁svojevrsn	-10.9618
▁televizij	-10.9618
▁teoretski	-10.9618
▁termodinamik	-10.9618
▁tržišn	-10.9618
▁tuberkuloz	-10.9618
▁vegetacij	-10.9618
▁vrednovan	-10.9618
▁zadivljen	-10.9618
▁zainteresira	-10.9618
▁zatvaranj	-10.9618
▁znanstvenik	-10.9618
▁Čita	-10.9618
▁Žen	-10.9618
▁Žut	-10.9618
▁Američk	-10.9618
▁CNN	-10.9618
▁Hawking	-10.9618
▁Joc	-10.9618
▁Nigerij	-10.9618
▁budžet	-10.9618
▁dostignu	-10.9618
▁grabežljiv	-10.9618
▁inžinjeri	-10.9618
▁nepraviln	-10.9618
▁obvezni	-10.9618
▁osvjetljava	-10.9618
▁pokvaren	-10.9618
▁prašnjav	-10.9618
▁profil	-10.9618
▁region	-10.9618
▁saradnj	-10.9618
▁sprječava	-10.9618
▁staništ	-10.9618
▁usvoji	-10.9618
▁uzdizanj	-10.9618
▁Član	-10.9618
▁Sjevern	-10.9618
▁Urbani	-10.9618
▁aplikacij	-10.9618
▁beskoris	-10.9618
▁cloud	-10.9618
▁gliser	-10.9618
▁instinkt	-10.9618
▁logičk	-10.9618
▁milenijumsk	-10.9618
▁promišlja	-10.9618
▁prostitutk	-10.9618
▁sjemenk	-10.9618
▁Ža	-10.9618
▁Europ	-10.9618
▁identičn	-10.9618
▁komentar	-10.9618
▁naknad	-10.9618
▁priušti	-10.9618
▁proporcij	-10.9618
▁trener	-10.9618
▁šiljat	-10.9618
▁dosljedn	-10.9618
▁hipotez	-10.9618
▁interakcij	-10.9618
▁izvještaj	-10.9618
▁matematičar	-10.9618
▁partner	-10.9618
▁upućuj	-10.9618
▁neravnoprav	-10.9618
▁poplav	-10.9618
▁zemljotres	-10.9618
▁Planet	-10.9618
▁božj	-10.9618
▁namijenjen	-10.9618
▁obrazovn	-10.9618
▁odzvanja	-10.9618
▁nastojanj	-10.9618
▁tišin	-10.9618
▁Izvin	-10.9618
▁Madoff	-10.9618
▁Vjeruje	-10.9618
▁biolozi	-10.9618
▁emocionaln	-10.9618
▁ispunjava	-10.9618
▁ritual	-10.9618
▁Stanford	-10.9618
▁otkucaj	-10.9618
▁strpljenj	-10.9618
▁covje	-10.9618
▁izjednačava	-10.9618
▁dvojic	-10.9618
▁lovačk	-10.9618
▁najteži	-10.9618
▁ponizn	-10.9618
▁trojic	-10.9618
▁leptir	-10.9618
▁tvari	-10.9618
▁Matt	-10.9618
▁izvanredno	-10.9618
▁nelagod	-10.9618
▁sniženj	-10.9618
▁analogno	-10.9618
▁membran	-10.9618
▁pilot	-10.9618
▁surfa	-10.9618
▁distrikt	-10.9618
▁zainteresovan	-10.9618
▁Island	-10.9618
▁dinosaurus	-10.9618
▁dvjestot	-10.9618
▁podzemn	-10.9618
▁izdvoji	-10.9618
▁spaljivanj	-10.9618
▁miješa	-10.9618
▁relativi	-10.9618
▁Centraln	-10.9618
▁asoci	-10.9618
▁integritet	-10.9618
▁kondenz	-10.9618
▁odustane	-10.9618
▁plijen	-10.9618
▁Zaljev	-10.9618
▁zaobiđe	-10.9618
▁debat	-10.9618
kljucuju	-10.9618
▁srčan	-10.9618
▁oštri	-10.9618
▁šutl	-10.9618
▁Salaam	-10.9618
▁luksuz	-10.9618
▁prilagođavanj	-10.9618
▁zadivi	-10.9618
▁prenošen	-10.9618
▁tecnost	-10.9618
▁izučava	-10.9618
▁glavobolj	-10.9618
▁južn	-10.9618
▁Scho	-10.9618
▁hitno	-10.9618
▁zadatk	-10.9618
bilježi	-10.9618
▁januar	-10.9618
▁aktivira	-10.9618
▁zbunjen	-10.9618
▁objavljiva	-10.9618
▁pčel	-10.9618
▁99	-10.9618
▁transdermaln	-10.9618
▁transport	-10.9618
▁bonov	-10.9618
▁GDP	-10.9618
▁leden	-10.9618
▁doživi	-10.9618
▁ocekiva	-10.9618
▁locira	-10.9618
▁dozvoljava	-10.9618
ročit	-10.9618
▁kreditor	-10.9618
▁sastav	-10.9618
▁okrugl	-10.9618
▁transparentn	-10.9618
▁supersil	-10.9618
▁istražujem	-10.9618
▁ispušta	-10.9618
▁eksternalij	-10.9618
▁Henrijev	-10.9619
▁označen	-10.9619
▁problematično	-10.9619
▁95	-10.9619
▁nasmija	-10.9619
▁brini	-10.9619
▁centi	-10.9619
▁kokain	-10.9619
▁detekcij	-10.9619
▁trese	-10.9619
▁Svemir	-10.9619
▁dijagram	-10.9619
▁prihvata	-10.9619
▁sporazum	-10.9619
▁1980	-10.9619
▁grip	-10.9619
▁kosmos	-10.9619
▁grub	-10.9619
▁protein	-10.9619
▁razgleda	-10.9619
▁kampus	-10.9619
▁Dolazi	-10.9619
▁prezentira	-10.9619
▁izvanredni	-10.9619
raspolož	-10.9619
▁Denn	-10.9619
▁Ostavi	-10.9619
▁1.7	-10.9619
▁educirat	-10.9619
▁prostir	-10.9619
ubistv	-10.9619
▁stanovišt	-10.9619
▁pogon	-10.9619
▁App	-10.9619
▁drže	-10.962
▁vakuum	-10.962
▁Isus	-10.962
▁rađa	-10.962
▁Darvin	-10.962
▁proglas	-10.962
▁puza	-10.962
ptil	-10.962
▁mješavin	-10.962
▁poreski	-10.962
▁kupovin	-10.962
▁uzbuden	-10.962
▁klasičn	-10.962
▁prastar	-10.962
▁energetsk	-10.9621
▁rezerv	-10.9621
doks	-10.9621
▁Internet	-10.9621
▁sukob	-10.9621
▁Kraj	-10.9621
▁plaća	-10.9621
▁apsurd	-10.9621
▁Pacov	-10.9621
▁skriva	-10.9621
▁vjernik	-10.9621
▁posudica	-10.9621
▁kontra	-10.9621
▁povred	-10.9621
▁dopušta	-10.9621
▁utrk	-10.9621
▁najsiromašniji	-10.9622
roblem	-10.9622
▁frustr	-10.9622
▁odgaja	-10.9622
▁pomijera	-10.9622
▁postepen	-10.9622
▁2007	-10.9622
▁hektar	-10.9622
▁priveden	-10.9622
▁Balkan	-10.9622
▁adaptira	-10.9622
▁raspon	-10.9622
▁plovil	-10.9623
▁Odluči	-10.9623
zijski	-10.9623
▁mineral	-10.9623
▁stijen	-10.9623
▁konkurencij	-10.9623
▁opšt	-10.9623
▁Nedać	-10.9624
▁razbija	-10.9624
▁popunjava	-10.9624
▁uskladi	-10.9624
▁predator	-10.9624
▁dječak	-10.9624
▁suočavam	-10.9624
▁Fil	-10.9624
▁skloni	-10.9624
▁nebesk	-10.9625
▁ronila	-10.9625
▁dokaže	-10.9625
▁cjelin	-10.9625
▁dodiruje	-10.9625
▁pregovor	-10.9625
▁dostigl	-10.9626
nberg	-10.9626
▁preziv	-10.9626
▁vizualiz	-10.9626
▁natečen	-10.9626
▁napas	-10.9626
▁pokriva	-10.9626
▁oblici	-10.9626
▁osvijetli	-10.9627
▁dostiž	-10.9627
▁višestruk	-10.9627
▁doziv	-10.9627
istaknuti	-10.9628
▁produžet	-10.9628
▁mješač	-10.9628
leksi	-10.9629
ubima	-10.963
▁divlj	-10.963
AR	-10.963
▁telefonski	-10.963
▁obrad	-10.963
itelj	-10.963
▁različito	-10.963
tjeran	-10.9631
skazan	-10.9631
▁zasluž	-10.9631
luc	-10.9631
▁point	-10.9631
▁konzumira	-10.9632
▁pojednostavljen	-10.9632
▁zaostaj	-10.9632
▁demokratsk	-10.9632
▁blog	-10.9632
▁dolask	-10.9633
optere	-10.9633
▁Skol	-10.9633
▁Zelen	-10.9633
▁zap	-10.9635
▁Nalazi	-10.9635
▁Leon	-10.9635
galj	-10.9635
▁The	-10.9636
sley	-10.9636
▁gospodin	-10.9636
▁plin	-10.9636
▁Carr	-10.9637
▁Vod	-10.9637
▁Roboti	-10.9637
▁nekakv	-10.9638
▁razmjer	-10.9638
▁ciljev	-10.9638
valno	-10.9638
▁zahvalno	-10.9638
▁podsmijeh	-10.9639
▁zastari	-10.9639
▁trendov	-10.9639
▁zaple	-10.964
▁obraz	-10.9641
▁uništil	-10.9641
▁sleti	-10.9641
▁buk	-10.9641
▁daljnje	-10.9641
▁krecem	-10.9641
▁Gor	-10.9642
▁pritisci	-10.9642
▁izumir	-10.9644
▁Prav	-10.9644
▁integrira	-10.9644
▁sfer	-10.9645
▁elektran	-10.9646
▁savlada	-10.9646
▁skolovanj	-10.9647
▁smeta	-10.9647
lona	-10.9647
▁očisti	-10.9647
ješam	-10.9647
▁rukopis	-10.9648
▁oslanjaju	-10.9648
▁pokrenut	-10.965
▁posjetila	-10.9651
▁pretpostavlj	-10.9651
▁gene	-10.9651
▁jedač	-10.9651
▁Rusij	-10.9652
▁maha	-10.9653
▁Dodava	-10.9653
▁pišem	-10.9656
▁uslika	-10.9657
▁farmer	-10.9657
▁Fizič	-10.9657
▁tjera	-10.9658
▁porez	-10.9659
▁izvodi	-10.9659
▁prijavljuj	-10.966
▁zatvoreno	-10.966
čili	-10.9661
▁Arapsk	-10.9661
▁čuvar	-10.9663
▁sjedišt	-10.9664
▁metaboliz	-10.9664
▁večera	-10.9665
▁mudrost	-10.9667
▁odustal	-10.9668
▁prenije	-10.9668
▁Kenij	-10.9668
▁italijansk	-10.9668
kran	-10.9669
▁smijal	-10.9669
▁omogucava	-10.967
▁vibracijsk	-10.967
▁arhitektur	-10.967
▁vidljiv	-10.9671
▁kolapsira	-10.9671
▁vodič	-10.9672
pada	-10.9673
▁ops	-10.9674
ftver	-10.9677
▁Zapadn	-10.9678
▁Feder	-10.9678
▁radnik	-10.9679
▁iskusim	-10.9679
▁kred	-10.968
ispunjen	-10.968
▁funkcionalnost	-10.9681
nudi	-10.9681
▁dostupno	-10.9685
▁volan	-10.9686
icni	-10.9687
▁brod	-10.9687
▁spusti	-10.9687
▁panik	-10.9688
▁džepov	-10.9689
▁pamu	-10.9689
▁Berk	-10.969
arsko	-10.969
▁primitiv	-10.9693
žnje	-10.9694
▁kompa	-10.9694
rgen	-10.9694
▁Vidje	-10.9695
▁Cin	-10.9695
▁Naghmin	-10.9696
▁Potrebn	-10.9696
▁tražit	-10.9697
▁Rije	-10.9697
▁sebično	-10.9698
▁motor	-10.9698
▁naviknu	-10.9699
▁Gene	-10.9699
ford	-10.9702
▁čelik	-10.9702
kladim	-10.9702
▁osjecaj	-10.9703
▁Bostonsk	-10.9705
▁regulacij	-10.9705
▁religiozni	-10.9705
▁recept	-10.9705
▁putev	-10.9706
▁moralnost	-10.9708
bili	-10.9708
▁100-	-10.9709
▁sagradim	-10.9712
▁Marc	-10.9713
▁neprikladn	-10.9713
▁kontroliše	-10.9714
▁ateiz	-10.9715
▁disanj	-10.9716
▁drz	-10.9718
▁stab	-10.9719
▁istrazivanj	-10.972
▁sumira	-10.9721
▁nagovori	-10.9721
▁bivš	-10.9721
▁uglj	-10.9722
raln	-10.9722
▁pismen	-10.9723
▁kriminalci	-10.9723
▁prisutn	-10.9725
▁spojen	-10.9725
▁pije	-10.9726
korijen	-10.9728
▁odbija	-10.9728
▁okrene	-10.9729
▁metaforičk	-10.9731
▁naveden	-10.9734
▁ab	-10.9735
▁nikakv	-10.9736
▁70-	-10.9736
▁Ant	-10.9736
▁tornj	-10.9739
▁inflacij	-10.9741
aljin	-10.9743
gura	-10.9743
▁zagađenj	-10.9744
▁četvrtin	-10.9745
▁Spa	-10.9745
▁lažov	-10.9746
▁mršavi	-10.9747
stičk	-10.9747
▁NAS	-10.9748
▁djelimičn	-10.9749
čanstv	-10.9749
▁kant	-10.9749
▁znakov	-10.9758
▁cvijeće	-10.9759
▁najnovije	-10.9759
▁60-	-10.9759
▁filmov	-10.9762
kruženj	-10.9765
▁pašnjac	-10.9766
modulacij	-10.9768
▁mijenjaju	-10.9768
▁metan	-10.9769
▁sačinjen	-10.9771
▁20.	-10.9773
▁goril	-10.9773
▁stipendij	-10.9773
▁kart	-10.9774
▁uniformi	-10.9774
▁igrač	-10.9774
ingu	-10.9775
▁umjetnic	-10.9776
▁Prove	-10.9778
▁konkretno	-10.9781
▁otklanjanj	-10.9782
▁ang	-10.9783
eđenj	-10.9784
▁štap	-10.9785
opis	-10.9787
▁jutro	-10.9787
▁promen	-10.9793
▁odabran	-10.9793
eed	-10.9797
▁uzrokovan	-10.9798
▁Cel	-10.98
▁Pos	-10.9802
▁podržava	-10.9802
nemo	-10.9803
▁udov	-10.981
▁pridruži	-10.9811
▁mis	-10.9812
siromašniji	-10.9814
▁izvrše	-10.9815
▁razvijanj	-10.9816
▁trećin	-10.9817
▁Gr	-10.9818
▁iskusit	-10.9821
▁Majkov	-10.9823
ljava	-10.9825
▁starenj	-10.9826
▁imun	-10.9828
ljud	-10.9828
▁obrati	-10.9829
▁10-	-10.983
renc	-10.9833
▁Bak	-10.9833
adb	-10.9835
▁snos	-10.9838
ška	-10.9838
▁ugla	-10.9838
nijim	-10.9839
▁29	-10.9839
▁Mada	-10.9847
▁moraće	-10.9849
▁napuštaju	-10.9852
ogodišnje	-10.9854
ološki	-10.9854
▁danasnje	-10.9855
▁povez	-10.9857
▁konc	-10.986
hlad	-10.9867
▁cilja	-10.9871
▁zamoli	-10.9872
ll	-10.9876
▁for	-10.9877
▁Sljedeće	-10.9881
opad	-10.9884
▁obuče	-10.9884
▁tretiran	-10.9888
▁ovisni	-10.9889
▁stane	-10.9889
land	-10.9894
▁Tr	-10.99
▁Tru	-10.9901
▁opasn	-10.9901
▁trči	-10.9905
▁necem	-10.9905
▁dolin	-10.9909
▁pritisk	-10.991
▁opće	-10.9919
sipa	-10.9921
wi	-10.9925
▁naučim	-10.9925
▁osiguranj	-10.9926
vao	-10.9928
redni	-10.9929
▁skupin	-10.9929
▁nečije	-10.9933
▁Čest	-10.9934
jedin	-10.9934
▁jasnij	-10.9935
▁dužin	-10.994
▁djelovanj	-10.994
piju	-10.9941
▁obavezal	-10.9951
▁vjersk	-10.9951
▁Einsteinov	-10.9952
▁slom	-10.9957
▁popust	-10.9967
▁fina	-10.9967
rasta	-10.9969
▁zaključk	-10.9976
▁obrija	-10.9977
▁osm	-10.9978
▁divi	-10.9978
▁karte	-10.9989
▁utjecaj	-10.999
▁slic	-10.9992
▁krajnj	-10.9994
▁Uda	-10.9999
▁popis	-10.9999
▁nadom	-11.0001
▁planov	-11.0003
▁policijski	-11.0008
▁usmjerenje	-11.0022
▁liječenje	-11.0024
▁količina	-11.0024
▁postavk	-11.0026
▁Nor	-11.0028
struje	-11.003
▁kupuj	-11.0032
▁Sen	-11.0034
▁Odrasl	-11.0034
▁dobijat	-11.0037
heroj	-11.0039
▁razmišljal	-11.005
▁nemoj	-11.0052
▁vrlin	-11.0058
▁egzistencija	-11.006
ijat	-11.0064
▁oblikoval	-11.0065
▁radnj	-11.0071
▁ispuni	-11.008
▁potr	-11.009
rni	-11.0092
olija	-11.0095
viti	-11.0117
▁inspirisa	-11.0131
▁stopal	-11.0134
▁povećanje	-11.0136
eni	-11.0138
▁pruza	-11.0139
nikom	-11.0145
kim	-11.0149
evolucijsk	-11.0149
sito	-11.0151
▁mjerenj	-11.0152
▁naučn	-11.0157
▁četverogodišnje	-11.0157
ndij	-11.0164
▁Posl	-11.0166
▁kontrolisan	-11.0166
▁igrali	-11.0171
▁Treće	-11.0172
fer	-11.0172
▁domov	-11.0188
▁trikov	-11.019
ašu	-11.0191
evina	-11.0199
lič	-11.0202
metara	-11.0206
opustit	-11.0208
davno	-11.0224
▁oba	-11.0231
kinj	-11.0234
▁poja	-11.0235
▁fizika	-11.0241
▁Pad	-11.0242
▁Uzrok	-11.0245
▁korisnost	-11.0254
obuhvat	-11.0259
šalje	-11.026
▁metodu	-11.0261
oprez	-11.0265
rive	-11.0266
▁mjehuriće	-11.0271
▁suviš	-11.0274
▁zval	-11.0279
gerb	-11.0281
▁sastojk	-11.0282
▁detektori	-11.0286
▁ostan	-11.0293
▁izraž	-11.0294
▁saznat	-11.0299
▁obliku	-11.0307
▁slučajnosti	-11.0312
▁obeća	-11.0327
▁bavit	-11.0327
▁nastavni	-11.0336
sud	-11.0337
sp	-11.0345
▁sretno	-11.0352
▁idem	-11.0353
▁elementa	-11.0359
lk	-11.0367
▁uklanja	-11.0369
▁uređaji	-11.0372
▁traže	-11.0372
▁40-	-11.0376
▁trag	-11.0384
▁priznanj	-11.0384
gent	-11.0388
▁prikaza	-11.0398
▁her	-11.0413
št	-11.0423
war	-11.0425
▁kratko	-11.0426
Colu	-11.0427
tiram	-11.0428
▁pazit	-11.043
mart	-11.0431
▁odgovorn	-11.0435
ijski	-11.0436
lina	-11.0439
▁Vjerova	-11.0442
topi	-11.0442
▁služi	-11.0444
▁filozofi	-11.045
hen	-11.0458
▁misao	-11.0465
▁osnova	-11.0468
daju	-11.047
▁agent	-11.0473
▁padn	-11.048
kuca	-11.0483
▁standardiz	-11.0489
▁slijedi	-11.0493
ek	-11.0496
▁mrzi	-11.0508
▁ponavljaj	-11.0512
▁Mr	-11.0529
lom	-11.0538
▁medija	-11.054
▁genij	-11.0554
određen	-11.0566
▁obim	-11.0575
▁rijec	-11.0582
▁Pozivam	-11.0583
▁love	-11.0589
▁poslu	-11.0589
▁ekspert	-11.0593
▁zaključi	-11.0605
▁vlažn	-11.062
▁organizovani	-11.0622
iri	-11.0633
▁tipk	-11.0634
plit	-11.0638
▁sinov	-11.0644
25-	-11.0648
inja	-11.0652
▁svo	-11.0653
▁skupljaju	-11.0663
djev	-11.0675
▁bore	-11.0692
rala	-11.0695
irajuć	-11.0698
▁svakodnevn	-11.0713
▁širok	-11.0713
▁strašn	-11.072
▁prednje	-11.0731
▁uporedi	-11.0732
▁poz	-11.0737
ster	-11.0742
rton	-11.0742
▁skupljanj	-11.0748
▁rasp	-11.0749
▁bori	-11.0766
▁tača	-11.0766
▁smatral	-11.0767
puls	-11.0793
▁disciplina	-11.0795
▁zauzet	-11.0801
pu	-11.0812
▁leže	-11.0816
▁nagl	-11.0822
▁sretnij	-11.0824
kul	-11.0837
▁sredst	-11.0838
biva	-11.0853
▁zvano	-11.0861
▁pregleda	-11.0861
▁algoritamsko	-11.0862
▁pronas	-11.0869
▁ovisno	-11.0884
▁smatran	-11.089
rele	-11.0891
▁Nag	-11.0894
▁miš	-11.09
avio	-11.0901
znut	-11.0904
▁unos	-11.0904
▁miru	-11.0905
▁hidro	-11.0916
▁Zapita	-11.092
▁brak	-11.0933
▁uzgoji	-11.094
▁uspje	-11.0963
▁ušl	-11.0965
▁uočit	-11.0966
▁85	-11.0979
▁spreman	-11.0983
▁Lu	-11.0996
▁riba	-11.1007
▁djeluje	-11.1008
▁otvaraju	-11.1009
ment	-11.1014
ćet	-11.1015
▁motivi	-11.1018
▁dom	-11.1023
▁Boj	-11.1025
▁koristenje	-11.1036
▁golu	-11.104
▁bro	-11.1057
▁izvadi	-11.1061
▁kompjuterim	-11.1078
▁novost	-11.1087
▁popularn	-11.1104
▁poznaje	-11.1104
▁avantura	-11.1105
ziran	-11.1107
vizueln	-11.1108
▁proda	-11.1108
▁limfn	-11.1112
▁kodov	-11.1123
▁laganj	-11.1125
dak	-11.1125
▁predstav	-11.1136
suprot	-11.1137
▁spomenu	-11.114
luz	-11.1157
▁standardni	-11.1163
rage	-11.1172
▁peti	-11.1174
▁propa	-11.1179
▁pat	-11.1202
nc	-11.1209
▁prevazila	-11.1244
▁Oke	-11.1246
▁porasta	-11.1258
▁primi	-11.1261
▁muže	-11.1261
▁spa	-11.127
tle	-11.127
▁primjeti	-11.1271
logij	-11.1291
6.	-11.1299
▁Nas	-11.1301
▁kuca	-11.1302
▁cesti	-11.1311
▁svjesni	-11.1316
▁potje	-11.1318
▁omiljeni	-11.1322
▁tražio	-11.1324
▁genetsk	-11.133
▁Ostal	-11.1335
▁imeno	-11.136
▁Gl	-11.137
stop	-11.1379
ljenje	-11.1414
▁sjeti	-11.1425
▁gledaj	-11.1431
▁Godina	-11.1436
▁ograničeni	-11.1453
ick	-11.146
cena	-11.1476
strašni	-11.1478
anda	-11.1486
▁pozitivn	-11.1492
apsi	-11.15
▁proizvel	-11.152
▁es	-11.1522
poru	-11.1528
▁Razli	-11.154
▁glasno	-11.1546
▁podl	-11.1555
stvu	-11.1595
vučen	-11.1601
znu	-11.1603
▁zaključil	-11.1605
▁tj	-11.162
▁optimiz	-11.1621
▁bor	-11.1623
▁započe	-11.1646
jeća	-11.1651
▁današnji	-11.1657
alci	-11.1658
stici	-11.1663
▁Kali	-11.1665
bru	-11.167
nazi	-11.167
▁površinsk	-11.1688
▁w	-11.1704
išu	-11.1706
▁bank	-11.1726
▁šire	-11.1762
▁farm	-11.1779
▁Otkril	-11.1782
▁pravil	-11.1785
▁Učini	-11.1791
▁ravni	-11.1795
▁tolik	-11.1797
▁pogod	-11.1801
▁standard	-11.1801
▁prst	-11.1813
tualn	-11.1815
šil	-11.1817
▁kriminalni	-11.1817
▁dobri	-11.182
▁Ca	-11.1826
▁Dar	-11.1834
▁tipovi	-11.1846
▁boji	-11.1846
▁Otkri	-11.1847
res	-11.1871
▁zapanjujuć	-11.1876
zda	-11.1905
▁ispit	-11.1909
▁mobil	-11.1933
▁pronalaz	-11.1937
čaja	-11.1942
▁pit	-11.1946
mislio	-11.1947
▁naredni	-11.1961
▁Postaj	-11.1996
▁umre	-11.2006
▁optim	-11.2015
zen	-11.2032
▁kreiraju	-11.2084
▁prodat	-11.2096
ložil	-11.2109
▁uradim	-11.211
tana	-11.2114
▁konj	-11.2115
▁uzimaju	-11.2123
▁privremen	-11.2125
sluša	-11.2133
11.	-11.2142
▁osjetil	-11.2166
tn	-11.2168
ervacij	-11.217
▁sina	-11.2175
▁ekstremn	-11.2178
▁konz	-11.2178
▁uzgoj	-11.2184
▁kok	-11.2197
▁list	-11.2199
▁moraln	-11.2204
▁Godin	-11.221
▁tehničk	-11.2221
▁ispita	-11.2238
▁zaposl	-11.2245
PA	-11.2264
▁kakvi	-11.2267
icno	-11.2278
▁odluci	-11.2289
▁posmatran	-11.2295
▁prodava	-11.2319
▁genetski	-11.2322
▁bašt	-11.2324
▁postigne	-11.2349
▁okreće	-11.2355
▁dose	-11.2368
▁izumi	-11.2378
▁kaze	-11.2379
▁duži	-11.2388
▁ap	-11.2394
▁nez	-11.2397
▁kolačiće	-11.2403
raća	-11.2411
ljivo	-11.2412
▁prevazi	-11.2419
▁dv	-11.2419
udi	-11.2427
žem	-11.2457
vizuelno	-11.2478
lus	-11.2482
ostavljaju	-11.2483
▁natjeral	-11.2491
kri	-11.2495
paljen	-11.2502
▁sl	-11.2508
▁svojstv	-11.252
stiti	-11.252
▁napisal	-11.2528
▁žal	-11.2533
▁muzeji	-11.2537
▁ucitelji	-11.2539
▁majmuni	-11.2541
▁pozitivni	-11.2555
▁limfni	-11.2568
ivotinja	-11.2572
▁protez	-11.2586
jev	-11.2597
▁građe	-11.2598
▁prognoz	-11.2612
▁Str	-11.2646
▁Vije	-11.2646
reb	-11.2659
pele	-11.2661
▁nagi	-11.2677
▁sjedin	-11.27
ogodišnjak	-11.2705
▁plato	-11.2707
rzava	-11.2708
▁zvukov	-11.271
▁prašuma	-11.2712
stupci	-11.2712
▁ucini	-11.2732
▁Vr	-11.2744
nadprosje	-11.2752
▁diplom	-11.2762
ašnji	-11.2763
boj	-11.2768
▁Uci	-11.2769
▁fal	-11.2776
del	-11.2778
▁učenic	-11.2782
▁Will	-11.2814
▁Co	-11.2832
▁Krv	-11.2843
▁posje	-11.2852
▁bijela	-11.286
ljeni	-11.2865
▁osnovni	-11.2886
kovi	-11.2893
▁kise	-11.2894
▁bac	-11.2938
▁sigurnosni	-11.2952
▁spomenut	-11.2954
1.	-11.2957
krat	-11.2977
sno	-11.2978
veo	-11.299
▁imuniziran	-11.2997
▁računa	-11.2999
▁grozno	-11.2999
▁nasp	-11.3005
iježe	-11.3012
ban	-11.303
▁glave	-11.3035
▁zanimljiv	-11.3043
▁odraslim	-11.3043
zno	-11.305
▁nacionalni	-11.3073
▁prikaz	-11.3094
▁počne	-11.3117
▁stvaraju	-11.3125
jenje	-11.3128
vuk	-11.3133
▁Mislil	-11.3135
reba	-11.3138
▁jedem	-11.3144
▁uspi	-11.3149
▁procijen	-11.3165
▁vlažno	-11.3167
▁silovan	-11.3168
▁prisil	-11.3169
ruš	-11.3173
šenje	-11.3205
▁popular	-11.3209
grade	-11.321
naut	-11.3211
▁Poziva	-11.322
▁oponašaju	-11.3228
▁doživjel	-11.3232
▁objasn	-11.3247
▁nisko	-11.3251
▁mehaniz	-11.326
▁ključ	-11.3278
tanje	-11.3283
▁disciplin	-11.3284
dom	-11.3287
▁Pari	-11.3291
▁dramatičn	-11.3293
daje	-11.3314
▁leti	-11.3317
▁mater	-11.3327
▁normal	-11.3327
▁35	-11.3335
▁dugu	-11.3339
▁slijed	-11.3362
▁agen	-11.3363
▁praktično	-11.3364
▁čudo	-11.3366
▁arapsk	-11.3375
▁zaborav	-11.3386
▁materijalno	-11.3387
▁ostavil	-11.3391
klima	-11.3394
ečeno	-11.3394
▁kretal	-11.3395
▁efikasni	-11.3414
▁bavil	-11.3418
ziv	-11.3451
▁zauze	-11.3455
▁postojeć	-11.3479
▁ilegaln	-11.35
P	-11.3504
plov	-11.3508
gled	-11.3508
▁magnetn	-11.3509
dešavaju	-11.3515
vuče	-11.3515
▁kvant	-11.3522
▁Fe	-11.3537
▁potencijalno	-11.3543
▁odluč	-11.3581
▁priz	-11.3585
▁osjet	-11.3586
▁Nastavi	-11.3593
▁istraž	-11.3595
premanje	-11.3613
ljuju	-11.362
▁upal	-11.3625
▁ponud	-11.3635
▁pla	-11.3637
▁tipič	-11.3647
▁istražil	-11.3658
▁postav	-11.3667
▁še	-11.3668
▁otvoril	-11.3674
metar	-11.3676
▁stojim	-11.3677
vajući	-11.3682
▁sanja	-11.3692
govaran	-11.3698
pustit	-11.37
gubljen	-11.3708
viram	-11.3715
pamet	-11.3716
▁potražim	-11.3718
▁ivic	-11.3733
▁danu	-11.3747
▁mračno	-11.3751
▁fotografija	-11.376
▁praktič	-11.3763
▁ostanem	-11.3772
▁spas	-11.3784
▁otvore	-11.3791
▁kontrolisa	-11.3796
gigavatn	-11.3798
▁četverogodišnj	-11.3801
▁logik	-11.3802
liza	-11.3806
▁Raz	-11.3821
zvolit	-11.3826
indi	-11.3837
▁ozbilj	-11.3848
gađanje	-11.385
▁mor	-11.3854
▁2,	-11.3855
jala	-11.3856
▁oboje	-11.3857
bri	-11.3864
▁bežično	-11.3867
lađi	-11.3869
dije	-11.3869
▁štetn	-11.387
▁predstavit	-11.3878
▁dinamic	-11.3879
▁pokušal	-11.3881
ivni	-11.3883
▁ponavljal	-11.3887
▁rani	-11.3892
popularni	-11.3897
▁beskonač	-11.3912
▁Korist	-11.3916
▁zavje	-11.3926
stup	-11.3927
▁moderniz	-11.3928
▁sjever	-11.3933
▁počin	-11.3941
mogući	-11.3946
ometar	-11.3956
▁piš	-11.3969
▁školsk	-11.3974
▁tvrdo	-11.3979
▁stajal	-11.3988
tičn	-11.3991
▁či	-11.3995
▁krivi	-11.3995
▁ispar	-11.4
▁Fibonačijevi	-11.4001
bl	-11.4002
▁mini	-11.4021
varajući	-11.4023
sretn	-11.4042
▁ponos	-11.4053
▁šal	-11.4053
▁vlasti	-11.4057
▁liječenj	-11.4058
zdravi	-11.4064
▁baza	-11.407
sanja	-11.4074
grama	-11.4075
▁Amerik	-11.4077
▁eksplodira	-11.4086
▁konkret	-11.4087
▁elektronik	-11.4093
baj	-11.4099
▁pust	-11.4099
▁privlač	-11.4102
ćni	-11.4103
▁nevidljiv	-11.4106
▁ekonomi	-11.4107
vački	-11.4112
▁sadašnj	-11.4113
▁prep	-11.4113
▁Pis	-11.4124
erman	-11.4126
▁elegant	-11.4127
▁pozitiv	-11.4128
▁svjet	-11.413
▁ubijan	-11.4135
važni	-11.4145
▁sarađuj	-11.4149
▁dječij	-11.4152
blj	-11.4155
▁mafij	-11.4158
▁Jes	-11.4166
▁prepoznal	-11.4167
▁pažljiv	-11.4168
struk	-11.4168
▁posv	-11.417
rus	-11.4171
▁razumijevanj	-11.4178
▁iskus	-11.4179
ogodišnj	-11.418
država	-11.4181
▁usmjerenj	-11.4183
▁pozadi	-11.4184
▁leg	-11.419
glas	-11.419
ric	-11.4192
industrijsk	-11.4195
▁pripad	-11.42
▁Sljedeć	-11.4202
▁Sp	-11.4208
▁primje	-11.421
ard	-11.4213
▁sjed	-11.4214
▁jo	-11.4221
▁nečij	-11.4221
▁obuč	-11.4222
osnova	-11.4226
▁pomjer	-11.4226
okret	-11.4233
disciplina	-11.4233
▁simul	-11.4234
uzima	-11.4238
▁miše	-11.4239
▁povež	-11.4239
pozicij	-11.4241
▁preuz	-11.4241
pouzdan	-11.4244
cne	-11.4249
▁smeđ	-11.4251
▁lijev	-11.4252
kapi	-11.4253
ifikacij	-11.4263
opće	-11.4265
▁funkcioniš	-11.4269
vlada	-11.4269
▁omoguc	-11.4271
raženo	-11.4273
priča	-11.4274
američk	-11.4275
jasno	-11.4277
▁Is	-11.4278
25	-11.4282
H	-11.4284
uspješn	-11.4287
protiv	-11.4288
18	-11.429
▁umjetni	-11.4291
▁poništ	-11.4293
struktur	-11.4293
kultur	-11.4293
▁Prij	-11.4294
▁dodava	-11.4294
▁pija	-11.4295
svaki	-11.4295
▁hla	-11.4297
zakoni	-11.4307
▁detalj	-11.4309
▁koncep	-11.4309
▁zanemar	-11.4312
▁šetnj	-11.4312
▁arhitekt	-11.4313
štaj	-11.4315
▁ratn	-11.4318
otporn	-11.4323
▁minu	-11.4328
▁izra	-11.4329
▁biomas	-11.4335
▁ces	-11.4339
▁Sigur	-11.4341
rip	-11.4342
▁poseb	-11.4344
▁simbol	-11.4347
per	-11.4348
spričat	-11.4353
▁propada	-11.436
▁blag	-11.4363
▁uniform	-11.4367
▁prouzrokova	-11.437
▁potrošač	-11.4371
▁Fin	-11.4375
▁grč	-11.4377
skup	-11.439
želj	-11.4393
pret	-11.4397
▁vreme	-11.4399
▁vojn	-11.4406
odav	-11.4406
▁uzro	-11.4406
▁uništ	-11.4417
▁odgađa	-11.4417
ivim	-11.442
▁pov	-11.4423
▁ostavlja	-11.443
▁nauče	-11.443
▁prod	-11.4431
pen	-11.4438
rvni	-11.4438
moderni	-11.444
tvaraju	-11.4445
loženo	-11.4445
▁Mala	-11.4462
▁specijali	-11.4464
▁ogran	-11.4467
▁gori	-11.4469
ženj	-11.4469
eksualno	-11.4474
▁opaža	-11.4476
▁politički	-11.4478
sat	-11.4479
cionaln	-11.448
▁izliječ	-11.4482
▁kibor	-11.4486
ičk	-11.4488
▁tego	-11.4488
riv	-11.4489
zam	-11.4491
vlači	-11.4493
▁kretanj	-11.4493
▁milostivo	-11.4499
▁preživlj	-11.4504
▁presje	-11.4504
▁kćer	-11.4505
ificira	-11.4508
▁fizi	-11.4513
kuplja	-11.4515
deja	-11.4516
▁Britan	-11.4516
▁četvrti	-11.4517
▁stvarni	-11.4522
▁otkrivam	-11.4527
▁žur	-11.4527
čenja	-11.453
▁kolaps	-11.4531
šten	-11.4537
▁racuna	-11.4538
▁mudr	-11.4541
roug	-11.4543
▁carst	-11.4547
▁Arap	-11.4548
nutra	-11.455
▁psiholog	-11.455
dnosti	-11.4551
▁osjetljiv	-11.4551
vana	-11.4555
▁edukacij	-11.4555
azni	-11.4555
▁dresira	-11.4557
▁dizajn	-11.4557
▁istraziva	-11.4558
▁pokriven	-11.4558
▁daljin	-11.4558
▁demonstr	-11.4558
fon	-11.4563
▁funkcioni	-11.4563
▁zapanjuju	-11.4565
▁3.	-11.4571
▁pojedina	-11.4571
▁zabrin	-11.4572
▁Djevoj	-11.4572
▁integr	-11.4574
dašnje	-11.4575
stakne	-11.4575
▁antropolog	-11.4576
▁kabl	-11.4581
brazovanje	-11.4583
rganizovani	-11.4584
▁Ministar	-11.4586
ponašaju	-11.4587
eather	-11.4587
vla	-11.4588
vrše	-11.4589
zaustav	-11.4591
nem	-11.4591
▁Zel	-11.4592
žanj	-11.4593
tos	-11.4594
recen	-11.4595
▁istru	-11.4595
Str	-11.4596
rovatno	-11.4596
▁mješa	-11.4597
soft	-11.4599
▁usmjeren	-11.4599
▁sačinj	-11.46
litičar	-11.46
čigledn	-11.46
opov	-11.46
▁ogranič	-11.4602
plauz	-11.4604
monijak	-11.4604
dbacit	-11.4604
psolutno	-11.4604
dukacij	-11.4605
tenb	-11.4605
▁Obje	-11.4607
▁Budist	-11.4607
bzir	-11.4608
orištenje	-11.4608
orupcij	-11.4608
▁engl	-11.4608
ompjuter	-11.4608
▁koncentr	-11.4608
cjeli	-11.4609
▁ukra	-11.4609
▁izved	-11.461
▁šap	-11.4611
ažno	-11.4611
▁fenomen	-11.4612
▁razlo	-11.4614
poslušno	-11.4614
▁Fibonači	-11.4614
epresij	-11.4615
▁Hardy	-11.4615
načajn	-11.4615
▁matemat	-11.4616
osjeduje	-11.4616
▁Stvori	-11.4616
ehnologija	-11.4616
▁trenu	-11.4616
▁Egip	-11.4616
fiz	-11.4616
ršćan	-11.4617
ergo	-11.4617
godisnjak	-11.4617
nosaur	-11.4617
iktorijan	-11.4617
obiljež	-11.4618
degrad	-11.4618
▁karakter	-11.4618
▁googol	-11.4618
dalekosežn	-11.4618
džbenici	-11.4618
▁Bahami	-11.4618
▁Fascin	-11.4618
▁Gravit	-11.4618
▁Jenkins	-11.4618
▁Kambođ	-11.4618
▁besmrtn	-11.4618
▁bespomoć	-11.4618
▁božićn	-11.4618
▁hidroizolira	-11.4618
▁komunaln	-11.4618
▁nezaborav	-11.4618
▁penzion	-11.4618
▁pobijedi	-11.4618
▁pobožn	-11.4618
▁pogriješi	-11.4618
▁policajci	-11.4618
▁potvrdi	-11.4618
▁profesionaln	-11.4618
▁razglednica	-11.4618
▁regulira	-11.4618
▁transplanta	-11.4618
▁uposli	-11.4618
babve	-11.4618
iverzitet	-11.4618
klimatolozi	-11.4618
ozbiljit	-11.4618
ozlijeđen	-11.4618
piksel	-11.4618
plegic	-11.4618
redsjedavajuć	-11.4618
rginalni	-11.4618
rižider	-11.4618
sakupljačk	-11.4618
simetrij	-11.4618
terapeut	-11.4618
univerzaln	-11.4618
znanstvenic	-11.4618
zvjezdan	-11.4618
▁Božanskog	-11.4618
▁Chagall	-11.4618
▁Charles	-11.4618
▁Demokratsk	-11.4618
▁Dhabij	-11.4618
▁Florid	-11.4618
▁Gapminder	-11.4618
▁Gvinej	-11.4618
▁Hudson	-11.4618
▁Institut	-11.4618
▁Izrael	-11.4618
▁JC	-11.4618
▁Jadransk	-11.4618
▁Kraljevstv	-11.4618
▁Kventin	-11.4618
▁Manhattan	-11.4618
▁Mayflower	-11.4618
▁Mendel	-11.4618
▁Muhamed	-11.4618
▁Muhammed	-11.4618
▁Musliman	-11.4618
▁Nastavni	-11.4618
▁Ograničen	-11.4618
▁Otvori	-11.4618
▁Parkinsonov	-11.4618
▁Pokreće	-11.4618
▁Pokušava	-11.4618
▁Prihvatanje	-11.4618
▁Promijenil	-11.4618
▁Propovijed	-11.4618
▁Rajasthan	-11.4618
▁Republik	-11.4618
▁Routemaster	-11.4618
▁SOLE	-11.4618
▁Schwarzchild	-11.4618
▁Shakespeare	-11.4618
▁Slobod	-11.4618
▁Soljačić	-11.4618
▁Stephen	-11.4618
▁Stvoren	-11.4618
▁Sufij	-11.4618
▁Uspješn	-11.4618
▁Vakcin	-11.4618
▁Vrhovni	-11.4618
▁Wikipedij	-11.4618
▁Zibab	-11.4618
▁Zvu	-11.4618
▁administrativn	-11.4618
▁adolescent	-11.4618
▁ambasador	-11.4618
▁americko	-11.4618
▁astrofizičk	-11.4618
▁australsko	-11.4618
▁benzin	-11.4618
▁biografij	-11.4618
▁biotehnologij	-11.4618
▁birokratsk	-11.4618
▁civil	-11.4618
▁cjelovit	-11.4618
▁crvotočin	-11.4618
▁deminer	-11.4618
▁depozit	-11.4618
▁desalinizacij	-11.4618
▁detektuj	-11.4618
▁diferencijaln	-11.4618
▁disonanc	-11.4618
▁dopunsk	-11.4618
▁drustven	-11.4618
▁familij	-11.4618
▁fermentacij	-11.4618
▁finansira	-11.4618
▁francusk	-11.4618
▁garantovan	-11.4618
▁gimnazij	-11.4618
▁glagol	-11.4618
▁griješim	-11.4618
▁hemijski	-11.4618
▁institucionaln	-11.4618
▁intenzitet	-11.4618
▁intuicija	-11.4618
▁iskorjen	-11.4618
▁istrebljenj	-11.4618
▁izbrisan	-11.4618
▁katastrofalno	-11.4618
▁kilovat	-11.4618
▁kognitivn	-11.4618
▁koledž	-11.4618
▁kompresova	-11.4618
▁kozmetic	-11.4618
▁kvadriplegicar	-11.4618
▁laptop	-11.4618
▁lokalitet	-11.4618
▁maltretira	-11.4618
▁marihuan	-11.4618
▁mentalitet	-11.4618
▁najjednostavnij	-11.4618
▁najjeftinij	-11.4618
▁najsigurnij	-11.4618
▁neposredno	-11.4618
▁nepredvidivo	-11.4618
▁nepregledn	-11.4618
▁neprimjetn	-11.4618
▁novorođen	-11.4618
▁objelodan	-11.4618
▁paviljon	-11.4618
▁percepira	-11.4618
▁pljačk	-11.4618
▁podsjetnik	-11.4618
▁poduzetnici	-11.4618
▁pogođeni	-11.4618
▁pogrdn	-11.4618
▁poistovijetit	-11.4618
▁povjerova	-11.4618
▁preispita	-11.4618
▁prekrasn	-11.4618
▁prekretnic	-11.4618
▁premjesti	-11.4618
▁prenesen	-11.4618
▁preoblikova	-11.4618
▁prilagodljivo	-11.4618
▁priručnik	-11.4618
▁progres	-11.4618
▁proizvoljn	-11.4618
▁prošetat	-11.4618
▁proširil	-11.4618
▁publik	-11.4618
▁pumpa	-11.4618
▁racunovod	-11.4618
▁raznolik	-11.4618
▁računovodstv	-11.4618
▁revolucion	-11.4618
▁rezultira	-11.4618
▁rođak	-11.4618
▁samosvjetleć	-11.4618
▁sirotinj	-11.4618
▁sljedec	-11.4618
▁snajper	-11.4618
▁spiritualn	-11.4618
▁stagniraju	-11.4618
▁starješin	-11.4618
▁strahopoštovanj	-11.4618
▁subvencij	-11.4618
▁supstanc	-11.4618
▁svjetonazor	-11.4618
▁tinejdžer	-11.4618
▁tkanin	-11.4618
▁tragedij	-11.4618
▁trening	-11.4618
▁treperav	-11.4618
▁udžbenik	-11.4618
▁usisivač	-11.4618
▁uspori	-11.4618
▁vjenčan	-11.4618
▁zadivljujuć	-11.4618
▁zadržan	-11.4618
▁zadrži	-11.4618
▁zahtjev	-11.4618
▁zapljusn	-11.4618
▁zapošljava	-11.4618
▁Čar	-11.4618
▁Čovje	-11.4618
▁čarolij	-11.4618
▁čimpanz	-11.4618
▁čokolad	-11.4618
rašire	-11.4618
▁bicikl	-11.4618
▁kolekcij	-11.4618
▁neotrovn	-11.4618
▁operater	-11.4618
▁petrolej	-11.4618
▁prašin	-11.4618
▁prevelik	-11.4618
▁sluzbenic	-11.4618
djelotvor	-11.4618
invazivn	-11.4618
ografija	-11.4618
straktn	-11.4618
▁Charlie	-11.4618
▁Cousins	-11.4618
▁Htjel	-11.4618
▁Liber	-11.4618
▁Pojednostavi	-11.4618
▁Posmatra	-11.4618
▁Promatra	-11.4618
▁biljojed	-11.4618
▁doživotni	-11.4618
▁evolucioni	-11.4618
▁glamur	-11.4618
▁glomazni	-11.4618
▁glup	-11.4618
▁horizontaln	-11.4618
▁identificira	-11.4618
▁identifik	-11.4618
▁iscrta	-11.4618
▁ismijava	-11.4618
▁istočnjačk	-11.4618
▁izložim	-11.4618
▁iznenad	-11.4618
▁karipsk	-11.4618
▁kratkotrajn	-11.4618
▁kuhinj	-11.4618
▁manifest	-11.4618
▁ozljed	-11.4618
▁pamćenj	-11.4618
▁plantaž	-11.4618
▁podzemlj	-11.4618
▁potkre	-11.4618
▁prekrši	-11.4618
▁prestrav	-11.4618
▁pretvore	-11.4618
▁pseudo	-11.4618
▁razočar	-11.4618
▁saobraćaj	-11.4618
▁siromasn	-11.4618
▁stopostotn	-11.4618
▁tranzi	-11.4618
▁ubrzal	-11.4618
▁urbani	-11.4618
▁uspanič	-11.4618
▁verbalno	-11.4618
▁vještačk	-11.4618
▁zaduzen	-11.4618
▁zapremin	-11.4618
▁žestok	-11.4618
hrišćan	-11.4618
milosr	-11.4618
razriješ	-11.4618
▁Kuwajt	-11.4618
▁akredit	-11.4618
▁hipotetičk	-11.4618
▁izmijeni	-11.4618
▁komponent	-11.4618
▁nosorog	-11.4618
▁opraš	-11.4618
▁prodavnic	-11.4618
▁razmotri	-11.4618
▁sklop	-11.4618
▁stambeno	-11.4618
▁sveštenstv	-11.4618
▁vibrira	-11.4618
▁zastraš	-11.4618
▁Čud	-11.4618
lbert	-11.4618
riginaln	-11.4618
rtikaln	-11.4618
▁Fosil	-11.4618
▁Promjen	-11.4618
▁angažuj	-11.4618
▁bujic	-11.4618
▁cudesn	-11.4618
▁intenziv	-11.4618
▁najraniji	-11.4618
▁oklijeva	-11.4618
▁promatrat	-11.4618
▁suradnj	-11.4618
▁sveučiliš	-11.4618
▁uzdigne	-11.4618
▁milenij	-11.4618
▁nezeljen	-11.4618
▁opterećen	-11.4618
▁penzij	-11.4618
▁zaustavlja	-11.4618
▁Počinje	-11.4618
▁biodegradira	-11.4618
▁izlocen	-11.4618
▁kategori	-11.4618
▁kisik	-11.4618
▁podsvje	-11.4618
▁pretrp	-11.4618
▁vazdusni	-11.4618
▁Džirg	-11.4618
▁Njegov	-11.4618
▁Savršen	-11.4618
▁sabiranj	-11.4618
▁skenira	-11.4618
▁Georg	-11.4618
▁Talibani	-11.4618
▁etničk	-11.4618
▁faktur	-11.4618
▁istrazuj	-11.4618
▁liberal	-11.4618
▁mjerljiv	-11.4618
▁mršanj	-11.4618
▁nakupin	-11.4618
▁potvrđ	-11.4618
▁pravosudn	-11.4618
▁robotiziran	-11.4618
▁Somalij	-11.4618
▁osnaž	-11.4618
▁opskrb	-11.4618
▁ukljucen	-11.4618
▁utemeljen	-11.4618
▁Astro	-11.4618
▁motivaci	-11.4618
▁pokrece	-11.4618
▁zvaničnici	-11.4618
enesans	-11.4618
olidarn	-11.4618
▁narkoti	-11.4618
▁Planira	-11.4618
▁Vrline	-11.4618
▁zamijeni	-11.4618
▁brend	-11.4618
▁carini	-11.4618
▁napiše	-11.4618
▁nečuveno	-11.4618
▁senzor	-11.4618
▁đavo	-11.4618
komplikovan	-11.4618
▁Michael	-11.4618
▁turističk	-11.4618
▁stočar	-11.4618
▁1,6	-11.4618
▁Plemen	-11.4618
▁hiper	-11.4618
▁sačuva	-11.4618
▁Saznal	-11.4618
▁lopt	-11.4618
▁podložn	-11.4618
▁skromn	-11.4618
▁formul	-11.4618
▁paravoj	-11.4618
▁podvrgnut	-11.4618
▁Najjar	-11.4618
▁citav	-11.4618
▁radikaln	-11.4618
▁odvede	-11.4618
atoličk	-11.4618
▁plemeniti	-11.4618
▁Times	-11.4618
▁staračk	-11.4618
▁BBC	-11.4618
▁teret	-11.4618
vjerojatn	-11.4618
▁nestaš	-11.4618
▁postignu	-11.4618
▁Korej	-11.4618
▁kazivanj	-11.4618
▁kompozicij	-11.4618
▁obećavajuć	-11.4618
▁plakal	-11.4618
▁prevaziđe	-11.4618
▁Ahmed	-11.4618
▁stražnj	-11.4618
▁usavrš	-11.4618
▁Pogriješi	-11.4618
▁jednoglasn	-11.4618
▁ontološk	-11.4618
front	-11.4618
▁bubreg	-11.4618
▁facijaln	-11.4618
▁gornj	-11.4618
▁osvjež	-11.4618
▁Bernie	-11.4618
▁neurološk	-11.4618
▁empati	-11.4618
▁mikrofon	-11.4618
▁Grado	-11.4618
▁sprovede	-11.4618
▁zlatn	-11.4618
▁začaran	-11.4618
▁obrađuje	-11.4618
▁potrošn	-11.4618
▁ugrožen	-11.4618
▁uloži	-11.4618
lektivn	-11.4618
▁sugeri	-11.4618
kajpa	-11.4618
▁kliničk	-11.4618
▁Stern	-11.4618
▁buradi	-11.4618
▁kazne	-11.4618
▁uplitanj	-11.4618
▁viktorijan	-11.4618
▁množenj	-11.4618
injenica	-11.4618
▁Pomjera	-11.4618
inspirativn	-11.4618
ijalni	-11.4618
▁objavljuje	-11.4618
▁podobni	-11.4618
▁zagrl	-11.4618
▁zabavlja	-11.4618
▁format	-11.4618
▁krcat	-11.4618
▁Sufiz	-11.4618
▁jučer	-11.4618
▁klasifik	-11.4618
plicitn	-11.4618
▁željezn	-11.4618
▁sabije	-11.4618
▁server	-11.4618
▁snabd	-11.4618
▁okupljanj	-11.4618
▁ranjivi	-11.4618
▁sineste	-11.4618
▁smrtonosn	-11.4618
▁motivisal	-11.4618
▁shvaća	-11.4618
▁Viewer	-11.4618
▁pobed	-11.4618
namjern	-11.4619
▁isprintat	-11.4619
▁Ekonom	-11.4619
▁Hipo	-11.4619
▁iskorišten	-11.4619
▁imagina	-11.4619
▁najpotpunij	-11.4619
▁parlament	-11.4619
▁jevrej	-11.4619
▁umjetničk	-11.4619
▁šiba	-11.4619
▁vođu	-11.4619
▁Anđeles	-11.4619
▁Metaforičk	-11.4619
▁prečnik	-11.4619
▁Ucitelj	-11.4619
▁1.6	-11.4619
▁195	-11.4619
▁plastičn	-11.4619
▁devetogodisnja	-11.4619
▁usred	-11.4619
stracij	-11.4619
▁izdrža	-11.4619
▁debel	-11.4619
▁snimljen	-11.4619
▁inhal	-11.4619
▁izabere	-11.4619
gandi	-11.4619
▁pedeset	-11.4619
tisnut	-11.4619
▁aritmeti	-11.4619
▁ospic	-11.4619
▁ruraln	-11.4619
▁vrjeme	-11.4619
▁ugasi	-11.4619
▁Studi	-11.4619
▁Gospod	-11.4619
▁Francusk	-11.4619
▁Provodi	-11.4619
▁zgnječen	-11.4619
▁Prosječ	-11.4619
▁odmakne	-11.4619
▁plemeski	-11.4619
▁razbolje	-11.4619
▁obnovljiv	-11.4619
▁market	-11.4619
▁operski	-11.4619
ađarsko	-11.4619
▁Povremeno	-11.4619
▁zavrsava	-11.4619
ticajn	-11.4619
▁Lord	-11.4619
▁Egipat	-11.4619
▁proizvođač	-11.4619
▁ispražnjuje	-11.4619
▁tehnik	-11.4619
▁zapostavlja	-11.4619
▁obraća	-11.4619
▁znatiželj	-11.4619
tenzi	-11.4619
▁arheolo	-11.4619
minator	-11.4619
▁grob	-11.4619
▁promjenjivi	-11.4619
▁prezira	-11.462
▁Bakteri	-11.462
▁sisar	-11.462
▁kršćani	-11.462
▁paleontolozi	-11.462
rukčij	-11.462
▁Spre	-11.462
▁promišljeno	-11.462
▁doprines	-11.462
▁nadaren	-11.462
▁rjes	-11.462
▁očev	-11.462
▁ekstra	-11.462
▁193	-11.462
▁Spor	-11.462
▁Vraća	-11.462
▁svjetlosn	-11.462
▁antičk	-11.462
▁preslika	-11.462
▁arghov	-11.462
▁zagrijavanj	-11.462
▁novčani	-11.462
▁otpa	-11.462
▁imitira	-11.462
▁praćen	-11.462
▁zarobljen	-11.462
▁fluor	-11.462
▁osvoji	-11.462
▁Histo	-11.4621
▁cvijet	-11.4621
▁Hardyev	-11.4621
▁knjiž	-11.4621
liječ	-11.4621
▁mrtv	-11.4621
▁zapis	-11.4621
▁izrek	-11.4621
orteks	-11.4621
redivno	-11.4621
▁ušutka	-11.4621
▁UNI	-11.4621
arijo	-11.4621
▁valut	-11.4621
uzeći	-11.4621
▁Zaboravi	-11.4621
▁Subsaharsk	-11.4621
▁oporavlja	-11.4621
▁podigl	-11.4621
▁nedovoljn	-11.4621
▁1.2	-11.4621
▁mušk	-11.4621
raćen	-11.4621
▁punjenje	-11.4621
▁Tesl	-11.4622
čić	-11.4622
grud	-11.4622
▁nadgleda	-11.4622
fur	-11.4622
sonalizovan	-11.4622
▁izaziva	-11.4622
▁Srednj	-11.4622
▁Tech	-11.4622
▁glumac	-11.4622
ađiva	-11.4622
▁dekad	-11.4622
▁obilježava	-11.4622
▁bab	-11.4622
▁proizvede	-11.4622
▁bazičn	-11.4622
▁Dic	-11.4622
▁prijavljeni	-11.4622
▁stiže	-11.4622
▁Teži	-11.4622
▁ribarenj	-11.4622
privredni	-11.4622
▁izjav	-11.4622
▁izbjegnem	-11.4622
▁okruzi	-11.4622
▁zabrinjava	-11.4622
▁razaraju	-11.4622
▁dodijel	-11.4622
▁dijalog	-11.4623
tumačen	-11.4623
▁esej	-11.4623
▁hrono	-11.4623
patološki	-11.4623
▁operiš	-11.4623
▁letjelic	-11.4623
▁ameb	-11.4623
▁sljedbenici	-11.4623
▁ebol	-11.4623
▁statističk	-11.4623
ED	-11.4623
entec	-11.4623
atinoameričk	-11.4623
▁komadić	-11.4623
▁ponašal	-11.4623
faun	-11.4624
▁zgod	-11.4624
▁FB	-11.4624
▁vrel	-11.4624
▁razred	-11.4624
▁Pronaš	-11.4624
▁regulat	-11.4624
▁vodstvo	-11.4624
▁upija	-11.4624
štva	-11.4624
▁srž	-11.4624
▁odsje	-11.4624
▁nahrani	-11.4624
▁obrok	-11.4624
▁Akademij	-11.4625
▁Argentin	-11.4625
▁zagrij	-11.4625
▁usjev	-11.4625
▁41	-11.4625
▁prođe	-11.4625
▁parada	-11.4625
▁Acc	-11.4625
▁unuci	-11.4625
▁osamdeset	-11.4625
kinu	-11.4625
▁Deve	-11.4625
▁astm	-11.4625
▁organizira	-11.4625
▁Columbi	-11.4625
▁prikovani	-11.4625
▁Sviđa	-11.4625
▁ubijen	-11.4625
eft	-11.4625
▁194	-11.4625
▁polomljen	-11.4626
▁Otiš	-11.4626
▁rukavic	-11.4626
▁Ros	-11.4626
▁ugodn	-11.4626
▁Proba	-11.4626
▁skladištenje	-11.4626
▁prevencij	-11.4626
▁kontak	-11.4626
▁Izaš	-11.4626
▁naređen	-11.4626
▁Mikro	-11.4626
▁utje	-11.4626
▁tabel	-11.4626
▁Doktori	-11.4627
▁odvija	-11.4627
▁Malezij	-11.4627
▁komar	-11.4627
▁stimul	-11.4627
▁lakše	-11.4627
▁koncentriran	-11.4627
▁savjetovanj	-11.4627
▁izmislila	-11.4627
▁prihvaćen	-11.4627
▁intrig	-11.4627
▁tekstur	-11.4628
▁bas	-11.4628
▁napredn	-11.4628
▁elektron	-11.4628
▁umjeren	-11.4628
▁odstupanj	-11.4628
▁izmjeri	-11.4628
▁najiznenađujuć	-11.4628
▁rezonancij	-11.4629
▁intel	-11.4629
grož	-11.4629
▁prepušten	-11.4629
▁novin	-11.4629
▁dokumentova	-11.4629
▁Posad	-11.4629
▁Ops	-11.4629
▁slabosti	-11.4629
▁početn	-11.4629
▁10,	-11.463
▁šapnu	-11.463
▁sjeveroistočn	-11.463
▁pređe	-11.463
▁neču	-11.463
▁rušenj	-11.463
▁geografij	-11.463
▁kućansk	-11.463
▁fondacij	-11.463
larij	-11.463
▁priključ	-11.463
▁spušta	-11.463
▁suštinski	-11.463
▁dvonožnost	-11.463
▁igrica	-11.463
▁invalidnost	-11.463
▁produž	-11.4631
učer	-11.4631
▁sinestezij	-11.4631
▁usporedb	-11.4631
▁Sjeća	-11.4631
▁spolj	-11.4631
▁Malarij	-11.4631
▁jezer	-11.4631
▁operacij	-11.4631
▁šok	-11.4632
▁vjesti	-11.4632
drhtav	-11.4632
▁transformacij	-11.4632
▁adre	-11.4632
▁opušteni	-11.4632
▁pokupi	-11.4633
▁ratovanj	-11.4633
▁zatvorenik	-11.4633
▁prikupljen	-11.4634
▁određuj	-11.4634
▁osakaćen	-11.4634
▁oduševljen	-11.4634
▁oglašava	-11.4634
▁kombin	-11.4634
▁Had	-11.4634
▁saosjećanj	-11.4634
▁istupi	-11.4635
▁diza	-11.4635
▁povećanj	-11.4635
▁stupanj	-11.4635
▁odijel	-11.4636
▁dovel	-11.4636
▁spriječava	-11.4636
▁Gub	-11.4636
▁isprav	-11.4636
▁služb	-11.4636
▁hrp	-11.4636
▁zadovoljavaju	-11.4637
▁kop	-11.4637
▁bijedn	-11.4637
▁idealn	-11.4637
▁skoči	-11.4637
▁poezij	-11.4637
▁usisa	-11.4638
▁Zastar	-11.4638
plašeni	-11.4638
uzvišen	-11.4638
▁demonstran	-11.4638
rativn	-11.4638
▁ispisan	-11.4638
▁pokida	-11.4639
▁kupol	-11.4639
▁hram	-11.4639
▁Bar	-11.4639
▁izveden	-11.4639
▁kombinacij	-11.4639
▁kreacij	-11.464
▁šar	-11.464
▁pritisnut	-11.464
▁pomaz	-11.464
▁Unutra	-11.464
▁panič	-11.464
▁šuti	-11.464
▁racional	-11.464
▁fun	-11.4641
▁Pomoc	-11.4641
▁negativ	-11.4641
▁nekolicin	-11.4641
▁peda	-11.4641
▁pravljenj	-11.4642
▁botani	-11.4642
▁neispravn	-11.4642
kance	-11.4642
▁Franc	-11.4642
misl	-11.4642
ferencij	-11.4642
▁reklamira	-11.4643
manjuje	-11.4643
▁Izlož	-11.4643
ještaj	-11.4643
▁savija	-11.4643
▁dinamit	-11.4644
▁ponek	-11.4644
▁putnici	-11.4645
▁poslje	-11.4645
▁1900-	-11.4645
▁krijumčare	-11.4645
antni	-11.4645
▁krah	-11.4646
▁prekinut	-11.4646
▁kub	-11.4646
▁hladi	-11.4647
ičast	-11.4647
▁sprovo	-11.4647
▁MI	-11.4647
ift	-11.4648
▁Brun	-11.4648
thers	-11.4648
▁Dokaz	-11.4649
montira	-11.4649
utuje	-11.4649
▁primjenjuj	-11.465
▁penje	-11.465
▁vjetrov	-11.465
▁iscrpljujuć	-11.465
▁zatraži	-11.4651
▁Abac	-11.4651
▁uobičajeni	-11.4651
▁uvjeri	-11.4651
gment	-11.4652
▁insekti	-11.4652
▁robotik	-11.4652
▁definisa	-11.4653
▁obogati	-11.4653
▁isključuj	-11.4653
▁Završil	-11.4654
▁lup	-11.4654
▁nastaviće	-11.4654
bjega	-11.4654
▁haj	-11.4654
▁odvaja	-11.4654
▁romanti	-11.4654
▁izložil	-11.4654
▁bulj	-11.4654
▁zaroni	-11.4654
▁Car	-11.4654
▁sruš	-11.4654
▁Blisk	-11.4654
taln	-11.4655
lansiran	-11.4655
▁zapanj	-11.4655
▁Duba	-11.4655
▁nesposobn	-11.4655
▁Ber	-11.4656
▁prepar	-11.4656
▁povjeren	-11.4656
▁počast	-11.4657
▁demonstracij	-11.4657
▁Fac	-11.4657
▁nasumi	-11.4657
▁Ear	-11.4658
▁izvučem	-11.4658
▁kablo	-11.4658
▁poslanik	-11.4658
▁godišnjic	-11.4659
▁naglašava	-11.4659
▁anđeli	-11.466
▁skinu	-11.466
▁Des	-11.4661
▁rekoh	-11.4661
▁izgradnj	-11.4662
▁dugogodišnj	-11.4662
▁sramot	-11.4662
▁istaknem	-11.4662
▁Životi	-11.4663
plaše	-11.4663
▁Dobija	-11.4663
▁tigr	-11.4663
▁spašavanje	-11.4664
▁procesuira	-11.4664
▁Način	-11.4664
▁tank	-11.4664
▁odvažnost	-11.4665
▁sastavlja	-11.4665
▁muslimansk	-11.4665
valjaju	-11.4666
▁šokiran	-11.4666
▁pojedinac	-11.4666
▁izlaganj	-11.4667
▁ljubim	-11.4667
▁preosta	-11.4667
▁strog	-11.4667
▁Javi	-11.4667
▁kartic	-11.4668
▁produktivn	-11.4668
antsk	-11.4668
▁jedenj	-11.4669
izostav	-11.4669
guši	-11.4669
▁aero	-11.4669
▁reži	-11.467
braz	-11.467
ažljiv	-11.467
▁Budi	-11.467
rib	-11.467
▁ovlast	-11.4672
njujuć	-11.4672
sučeljavanj	-11.4673
bezbjedi	-11.4673
▁12.	-11.4673
upni	-11.4673
▁oduzima	-11.4673
▁sljep	-11.4673
ajz	-11.4674
▁zapr	-11.4675
▁Aust	-11.4675
▁Objek	-11.4676
▁štampa	-11.4676
▁polen	-11.4677
▁Tek	-11.4677
▁pore	-11.4677
etni	-11.4678
▁simulira	-11.4678
▁biljn	-11.4679
▁krava	-11.4679
▁smjest	-11.468
▁izvršava	-11.468
▁udahn	-11.4681
▁olakšava	-11.4681
▁čudesn	-11.4681
taloži	-11.4682
▁vojsk	-11.4683
njavi	-11.4683
▁Istin	-11.4684
dy	-11.4684
▁pauz	-11.4684
▁Udar	-11.4685
▁pokrivenost	-11.4685
▁osjetljivost	-11.4686
▁pomaganje	-11.4686
▁minimali	-11.4686
▁negiranj	-11.4686
▁obor	-11.4687
▁Uoči	-11.4687
▁psihologij	-11.4688
cy	-11.4688
▁isparava	-11.4688
▁sarađiva	-11.4688
▁uzdiže	-11.4689
▁proveden	-11.4689
impresivn	-11.4689
▁pjesni	-11.4689
▁urednic	-11.4689
▁popravk	-11.469
▁gug	-11.469
▁napadač	-11.4691
kida	-11.4691
▁očaja	-11.4692
▁kliknu	-11.4692
▁zasnovan	-11.4692
▁carstv	-11.4692
▁zrel	-11.4694
verz	-11.4695
▁edukacijsk	-11.4695
▁soci	-11.4696
▁pojavljiva	-11.4696
▁usprav	-11.4697
▁zakonski	-11.4697
▁racunar	-11.4698
▁kišnic	-11.4698
vijest	-11.4698
▁start	-11.4699
čine	-11.47
porno	-11.47
▁petogodišnjak	-11.47
▁nastup	-11.4701
▁Kona	-11.4702
▁Uron	-11.4703
sarkas	-11.4704
▁bilogij	-11.4704
75	-11.4705
▁smjer	-11.4705
▁inicijativ	-11.4707
▁Bić	-11.4707
oniran	-11.471
▁Staln	-11.471
▁daljinsk	-11.4711
▁indi	-11.4711
▁oksid	-11.4711
▁blizin	-11.4711
▁glasnik	-11.4712
▁Zanima	-11.4714
▁žurk	-11.4715
▁izvozn	-11.4717
▁stol	-11.4719
▁susjedstv	-11.4719
▁ohrabri	-11.472
▁digitalizuj	-11.472
▁apli	-11.4721
▁istica	-11.4722
mis	-11.4723
pont	-11.4723
▁svari	-11.4723
▁ljub	-11.4723
▁magi	-11.4724
▁omjer	-11.4724
▁puš	-11.4725
▁Krist	-11.4726
▁karakterističn	-11.4727
▁musliman	-11.4727
▁sportsk	-11.4728
ceta	-11.4729
▁1999	-11.4729
▁Pritisn	-11.4729
▁osrednjost	-11.473
▁Red	-11.4731
ngle	-11.4732
▁zadovoljstv	-11.4732
▁Cr	-11.4733
▁grebenima	-11.4734
▁pošti	-11.4734
▁vizuelni	-11.4734
▁eksplozi	-11.4736
▁Kreni	-11.4737
▁označi	-11.4737
▁Hal	-11.4737
▁cikl	-11.4738
▁iznosim	-11.474
▁Uči	-11.474
▁Samilost	-11.4741
▁rotira	-11.4741
braham	-11.4741
▁zdr	-11.4742
▁savjetuju	-11.4742
▁Sha	-11.4742
▁zadać	-11.4742
▁atom	-11.4743
▁zal	-11.4746
▁namjer	-11.4747
cijenit	-11.4747
klonjen	-11.4748
▁sjen	-11.4748
▁Shvatil	-11.4748
▁novinsk	-11.4751
▁torbic	-11.4751
čad	-11.4754
▁odlazi	-11.4754
▁namjerava	-11.4755
▁primat	-11.4756
klep	-11.4756
▁kolon	-11.4759
▁istraživali	-11.4759
▁odgovaraju	-11.476
▁glumc	-11.4761
nose	-11.4761
▁Isproba	-11.4762
▁svađ	-11.4762
▁dodatno	-11.4762
rktik	-11.4764
▁sisavc	-11.4766
▁genomij	-11.4766
onceptualn	-11.4766
▁sklad	-11.4767
▁srednjoškolc	-11.4767
ET	-11.4768
lavi	-11.4769
volucij	-11.4771
▁intim	-11.4772
▁viđenj	-11.4772
▁praktic	-11.4773
▁Bit	-11.4773
▁podijeljen	-11.4773
akva	-11.4774
▁odigra	-11.4774
▁objek	-11.4774
▁udarit	-11.4775
▁nevjer	-11.4775
▁oporez	-11.4776
▁tropsk	-11.4776
▁raspodjel	-11.4776
▁banka	-11.4777
▁Ključn	-11.4779
▁drog	-11.4781
▁pušta	-11.4781
▁izvrši	-11.4782
▁naslika	-11.4783
ražu	-11.4784
pominje	-11.4784
▁Savjet	-11.4784
▁razbije	-11.4785
▁svjetlij	-11.4786
granice	-11.4788
▁najk	-11.479
▁Tak	-11.479
▁povećan	-11.479
▁ulaže	-11.4791
▁ostvaruje	-11.4791
▁Izuze	-11.4792
▁izbacivanj	-11.4793
▁oblikuje	-11.4794
▁povremen	-11.4795
▁ignoriše	-11.4797
brid	-11.4797
▁predvod	-11.4797
▁oblikovan	-11.4797
▁lagal	-11.4798
▁strategij	-11.4798
▁učestvuj	-11.4798
▁tablic	-11.4798
▁spoznaj	-11.4798
▁heroji	-11.4799
ucava	-11.48
▁Her	-11.48
tri	-11.4801
▁najdublje	-11.4802
▁odav	-11.4802
▁Ponovi	-11.4803
▁nedjelj	-11.4804
čupa	-11.4808
▁izumrl	-11.4809
▁stabilnost	-11.4809
ousa	-11.481
▁Spaja	-11.4811
lova	-11.4811
▁parkov	-11.4813
▁pjesnik	-11.4813
▁smješt	-11.4815
▁sjećanj	-11.4816
▁izbacuje	-11.482
.6	-11.4821
amp	-11.4821
▁razg	-11.4822
▁porasl	-11.4823
▁slajdov	-11.4823
▁metaln	-11.4834
▁preživljava	-11.4834
▁mučenj	-11.4834
▁dresiranj	-11.4837
▁9.	-11.4837
▁Nadam	-11.4839
▁bač	-11.484
▁kombi	-11.4841
▁50-	-11.4841
▁jezici	-11.4843
▁arhitektu	-11.4844
ajno	-11.4845
bušit	-11.4846
▁fr	-11.4847
▁Nji	-11.4849
lub	-11.485
▁filozofsk	-11.485
opisi	-11.4853
▁op	-11.4861
▁plesa	-11.4862
▁fotografis	-11.4864
▁smislen	-11.4866
▁tal	-11.4868
gira	-11.4868
▁potrošačk	-11.487
▁Gla	-11.4871
▁prouzrokoval	-11.4871
Pa	-11.4873
lowe	-11.4873
▁pećinsk	-11.4873
vata	-11.488
▁rusk	-11.4881
▁zakrivljen	-11.4881
istem	-11.4882
▁uved	-11.4885
tovi	-11.4885
▁žrtvu	-11.4885
▁Obam	-11.4886
▁omogucit	-11.4889
▁riješenj	-11.489
bul	-11.4892
antno	-11.4893
▁dogovori	-11.4894
ivne	-11.4896
▁posve	-11.4896
lan	-11.49
▁div	-11.4901
▁simboli	-11.4902
▁inteligentn	-11.4903
▁djed	-11.4904
▁Paul	-11.4905
▁prazn	-11.4905
▁izloženost	-11.4906
▁sezonsk	-11.4908
pisuje	-11.491
▁apsorb	-11.4912
▁uzor	-11.4915
▁ambiciozn	-11.4915
▁opstank	-11.4919
▁trudim	-11.492
▁seks	-11.492
▁lepo	-11.4921
EF	-11.4922
▁sigurniji	-11.4923
▁razumijeva	-11.4924
tisci	-11.4925
limp	-11.4925
▁Australij	-11.4929
argh	-11.4931
▁biomasu	-11.4933
▁šetnju	-11.4933
▁intr	-11.4937
▁sliva	-11.4938
▁kva	-11.494
▁blago	-11.4942
▁uziva	-11.4943
matic	-11.4943
rge	-11.4945
▁pocn	-11.4946
▁ispal	-11.4947
ficira	-11.4948
cjenjuje	-11.4953
trostru	-11.4954
▁zamah	-11.4956
▁učite	-11.4957
▁poništil	-11.4957
▁biološk	-11.4958
▁nabav	-11.4959
▁sind	-11.496
▁bogatstv	-11.4962
uriti	-11.4964
▁ekolog	-11.4966
▁vojni	-11.497
▁Ljudsk	-11.4971
▁Napo	-11.4978
▁Sum	-11.4978
▁okt	-11.4979
krijumčar	-11.4982
▁uništavanj	-11.4982
poređuje	-11.4983
difikacij	-11.4985
onično	-11.4985
ozno	-11.4989
▁zivi	-11.499
▁hao	-11.4993
▁Završ	-11.5
▁propal	-11.5001
▁prikazan	-11.5001
▁Don	-11.5002
ocara	-11.5006
▁nesreć	-11.5006
▁pijac	-11.5007
▁dž	-11.5012
▁vraćal	-11.5013
▁Pret	-11.5016
▁otpor	-11.5017
ricu	-11.5018
▁Para	-11.502
▁otvaranj	-11.502
▁darova	-11.502
▁kugla	-11.5029
▁odraz	-11.5031
ljavaju	-11.5032
for	-11.5033
▁podno	-11.5034
▁filmsk	-11.5045
▁Nist	-11.505
pisival	-11.5051
TO	-11.5054
▁provjera	-11.5054
▁kapi	-11.5055
▁farme	-11.5062
kaz	-11.5062
▁anti	-11.5063
▁Ram	-11.5063
▁ham	-11.5064
▁neobično	-11.5066
bacuje	-11.5074
cisti	-11.5075
▁psiho	-11.5082
lističko	-11.5084
čic	-11.5085
▁mnoz	-11.5087
▁upotrijebit	-11.5089
▁promjenit	-11.5091
▁noga	-11.5091
▁stranac	-11.5094
▁nevidljivo	-11.5094
▁slušanje	-11.5097
▁grče	-11.51
▁Rim	-11.51
▁dječije	-11.5106
▁snažnij	-11.5114
▁sušni	-11.5115
▁korisnik	-11.5116
efektivn	-11.5116
▁ud	-11.5118
▁zabavi	-11.5118
▁robotsk	-11.5118
▁tabli	-11.512
▁protič	-11.5121
▁sarađuje	-11.5126
▁Proto	-11.5127
▁manjin	-11.5127
▁zaposlenj	-11.5131
zem	-11.5138
▁ustan	-11.5141
sina	-11.5141
▁sadašnje	-11.5145
▁anim	-11.5145
▁Mu	-11.5146
poznatiji	-11.5148
▁industrijsk	-11.5149
hrvan	-11.515
▁izb	-11.5153
dinamič	-11.5154
▁paral	-11.5159
▁umanj	-11.516
▁Rus	-11.5163
mlađi	-11.5164
▁bankars	-11.5172
▁Amerika	-11.5173
▁elektronika	-11.5174
▁eksplodiral	-11.5178
▁neutraln	-11.5179
ilski	-11.518
edamdeset	-11.5183
▁iznim	-11.5189
čav	-11.5202
java	-11.5207
toč	-11.5207
noš	-11.5208
▁kreativn	-11.5211
▁snimi	-11.5223
▁Odgovori	-11.5224
sis	-11.5237
▁nervozni	-11.5239
agazil	-11.5242
▁propadanj	-11.5247
ućn	-11.5248
▁Emi	-11.5256
nsk	-11.5256
ionar	-11.5264
▁Desi	-11.5265
▁lege	-11.5266
▁podne	-11.5268
deks	-11.5269
▁onesposoblj	-11.5275
▁takodje	-11.5278
▁Upis	-11.5279
▁ponosni	-11.528
▁fascinantni	-11.5288
▁cin	-11.5296
ostigl	-11.5298
procjenjiv	-11.5299
▁priš	-11.5301
▁protest	-11.5304
oduče	-11.5305
▁učešć	-11.531
▁bla	-11.5312
▁dek	-11.5318
▁primam	-11.5319
▁obnovlj	-11.5325
▁Proc	-11.5329
▁obaveza	-11.5336
ostali	-11.5345
luč	-11.535
čaš	-11.5352
fi	-11.5354
▁zdravstvu	-11.5358
▁fen	-11.5362
▁misa	-11.5367
▁širina	-11.5368
rostor	-11.5369
ducira	-11.5371
▁beskonačn	-11.5376
dio	-11.5377
▁obris	-11.5381
▁mitov	-11.5393
▁složeno	-11.5411
▁prelazi	-11.5414
▁kanali	-11.5414
onsk	-11.5415
▁uzgoje	-11.5435
troš	-11.5435
▁saznanj	-11.544
▁grebeni	-11.5441
▁prestan	-11.5442
▁uzas	-11.5449
▁genijalno	-11.545
▁teme	-11.545
▁obojen	-11.5453
▁banan	-11.5462
▁zadir	-11.5467
▁toplo	-11.5468
▁ulog	-11.5471
žni	-11.5473
vito	-11.5475
jujući	-11.5478
▁dinamick	-11.5495
▁preokre	-11.5497
▁muci	-11.5503
▁barijera	-11.5504
▁dosada	-11.5518
▁surov	-11.5518
bično	-11.5524
▁svijetl	-11.5524
nskog	-11.5541
▁nacrtan	-11.5542
zici	-11.5543
▁Art	-11.5552
▁izmiri	-11.5555
▁prolazni	-11.5556
▁podizanj	-11.5561
▁mračn	-11.5568
▁prevođen	-11.5569
▁trajan	-11.5574
▁doprinijel	-11.5575
ente	-11.5579
▁privlačn	-11.5582
▁pods	-11.5587
▁sabra	-11.5601
▁postavljanj	-11.562
▁oku	-11.5622
zite	-11.5622
▁puca	-11.5626
snu	-11.5628
▁metaforič	-11.5632
izmjer	-11.5648
libar	-11.5655
zgubljen	-11.5662
▁željen	-11.5662
▁bolov	-11.5663
tično	-11.5664
▁Usp	-11.5664
▁uop	-11.5664
▁gravitaci	-11.5666
vna	-11.5684
▁odgađanj	-11.5687
▁primijetil	-11.5688
▁flu	-11.572
▁postupi	-11.5722
▁diktat	-11.5726
rat	-11.5735
gati	-11.5736
evni	-11.5736
▁oštećenj	-11.5749
▁razumijet	-11.575
zama	-11.5755
▁Naghmi	-11.5759
▁javljam	-11.576
ženje	-11.5761
▁Sin	-11.5777
▁krizn	-11.5784
▁ojačal	-11.5789
tova	-11.5801
▁zarad	-11.5809
ziti	-11.5811
▁ži	-11.582
ington	-11.5832
▁dje	-11.5836
okružen	-11.584
ton	-11.5851
▁istinit	-11.5856
▁vatre	-11.5858
▁kori	-11.5864
grijava	-11.5864
ever	-11.5865
▁mislioc	-11.5875
▁stena	-11.5875
▁Afrikan	-11.59
▁želja	-11.5901
▁muc	-11.5901
pišu	-11.5902
▁sub	-11.5914
▁selekcijski	-11.5919
▁rashladni	-11.5925
▁uzbuđenj	-11.5928
rka	-11.5934
voditelj	-11.5938
▁uvjerljivi	-11.5939
▁promjenom	-11.595
▁najv	-11.5956
▁treći	-11.5957
zom	-11.5957
▁krugov	-11.5976
▁Hol	-11.599
▁Lan	-11.6003
4.	-11.6014
▁72	-11.6021
▁gladova	-11.6028
▁zvonj	-11.6032
jaju	-11.6036
olik	-11.6042
njih	-11.6069
▁vlasni	-11.6077
čeni	-11.6095
dramatičnij	-11.6138
sil	-11.6155
▁nuž	-11.6158
▁bilion	-11.6158
vne	-11.6161
▁zatvoril	-11.6176
▁povu	-11.6185
▁meta	-11.6191
▁provi	-11.6204
▁implantiran	-11.6205
▁strujni	-11.6206
vrije	-11.6212
▁vrhov	-11.6215
▁maternj	-11.6216
▁poga	-11.6228
▁definit	-11.6242
hranjeni	-11.6243
▁skladišti	-11.6252
▁slavni	-11.6255
lum	-11.6257
▁momk	-11.6279
▁prikri	-11.6293
▁ubijanj	-11.6297
▁izazval	-11.6304
itljiv	-11.6307
znenađujuć	-11.6313
▁procijeni	-11.6315
▁prisili	-11.6318
▁Pisa	-11.6334
izabe	-11.6338
▁nij	-11.6342
▁inova	-11.6346
idne	-11.6352
▁silova	-11.6355
fa	-11.6369
▁zbr	-11.637
▁uspjesi	-11.6371
udističko	-11.6383
▁svjesnom	-11.6392
yl	-11.6399
kraj	-11.6405
▁poklonit	-11.6414
▁dodavanj	-11.6417
▁efikasnij	-11.6419
kasno	-11.6432
stavljam	-11.6433
ćan	-11.6445
čije	-11.6473
▁El	-11.6486
teče	-11.6487
ndu	-11.6492
llow	-11.651
▁tre	-11.6514
▁opcija	-11.6517
▁Or	-11.6534
▁fenomenalni	-11.6541
javljiva	-11.6544
▁početni	-11.6545
▁učio	-11.6548
▁Govorit	-11.655
▁dizajniranj	-11.6564
▁bašti	-11.6571
▁spo	-11.658
▁pronalaze	-11.6581
▁top	-11.659
▁sigurnosn	-11.6611
▁podigne	-11.6659
▁padali	-11.6663
▁gala	-11.6668
▁planirat	-11.6686
▁sakri	-11.6691
▁kisel	-11.6695
▁pose	-11.67
▁deblj	-11.6703
▁Novo	-11.6716
ignorisa	-11.6722
▁putovanjim	-11.6733
▁potp	-11.6734
ovac	-11.6742
▁At	-11.6754
▁Bl	-11.6764
▁Em	-11.6783
▁Malal	-11.6786
▁pomi	-11.6788
▁raspad	-11.6788
stali	-11.6804
▁umor	-11.6808
▁udu	-11.6818
▁kol	-11.6828
likova	-11.6829
▁proizvodn	-11.6836
▁rasu	-11.6839
▁opasnosti	-11.6851
▁zapita	-11.6871
VI	-11.6875
▁diploma	-11.6883
▁nadi	-11.6885
movi	-11.6898
▁trazi	-11.69
▁fo	-11.6906
lekti	-11.6911
stori	-11.6916
nasilni	-11.6934
▁padal	-11.6941
▁uključil	-11.695
▁željn	-11.6951
▁podru	-11.6963
▁breg	-11.6992
dole	-11.6996
premljen	-11.7003
▁zagovara	-11.701
▁ene	-11.7019
▁Stok	-11.7024
▁osigural	-11.7025
▁usporava	-11.7052
▁emisiji	-11.7055
▁dete	-11.7076
▁Nad	-11.7086
▁ljuti	-11.7103
▁prognoza	-11.711
▁fu	-11.7123
▁zaposlen	-11.714
▁pogodno	-11.7142
▁ilustrat	-11.7148
dav	-11.7152
ilenk	-11.7152
▁proteza	-11.7157
▁projektil	-11.7165
▁hiljadit	-11.7187
▁specifičn	-11.719
▁okup	-11.7198
poljašnj	-11.7214
▁perl	-11.7217
▁čisti	-11.7221
din	-11.7228
▁peri	-11.7235
▁kvalitetn	-11.724
▁Svjetl	-11.7242
▁gubit	-11.7257
▁ucinim	-11.7276
▁odv	-11.7289
rljiv	-11.7293
Atlanti	-11.7315
▁prija	-11.7331
▁letim	-11.7355
▁učenja	-11.7356
▁širi	-11.7375
▁fosil	-11.7401
obilazi	-11.7405
▁formalno	-11.7434
▁spasil	-11.7435
▁polož	-11.7442
pomenut	-11.7468
▁nastaj	-11.7473
▁uha	-11.7521
▁okrećem	-11.7522
▁kazem	-11.7525
▁postignem	-11.7531
▁prop	-11.7551
vrsta	-11.7561
▁nastal	-11.7577
▁bag	-11.7596
▁izme	-11.7613
zgovara	-11.7616
valo	-11.7618
▁odlucil	-11.7638
aršu	-11.7646
▁slušat	-11.7659
razumjeva	-11.766
▁urod	-11.7661
▁prodaval	-11.7667
zv	-11.7674
lijeva	-11.7678
▁banko	-11.7689
▁isplati	-11.7694
▁ratovi	-11.7695
▁cigl	-11.7695
zauzeti	-11.7696
▁govorni	-11.7715
pakovan	-11.7752
▁več	-11.7769
▁Stan	-11.777
▁daha	-11.7772
ruci	-11.7772
čit	-11.7783
sobno	-11.7831
▁ženk	-11.7835
▁farmac	-11.7844
rvi	-11.7856
▁domaći	-11.7883
kve	-11.7903
njenje	-11.791
zalo	-11.792
godišnjak	-11.7942
▁privremeni	-11.7958
tavim	-11.7979
▁trenira	-11.7992
▁post	-11.8003
lijana	-11.8046
▁shvatam	-11.8054
▁Jevrejsk	-11.8057
prosječn	-11.807
▁objavit	-11.8082
▁Eg	-11.8083
lokve	-11.8091
▁Dem	-11.8098
ruk	-11.8116
nuti	-11.8127
tku	-11.8166
▁otrovn	-11.8171
rtin	-11.8201
ređivan	-11.8228
▁hi	-11.8245
▁ludi	-11.8253
▁porodičn	-11.8269
▁primjetim	-11.8276
▁predvid	-11.8287
▁mijenjal	-11.8307
hum	-11.8337
▁kreativno	-11.8367
▁gra	-11.8371
▁zlostavljan	-11.8371
▁riješil	-11.8398
▁Grupi	-11.8409
▁vremensk	-11.8456
▁novina	-11.8459
inga	-11.8463
▁mač	-11.8464
▁nastavil	-11.8502
▁zlostavlja	-11.8592
▁pozicija	-11.8594
ziju	-11.8607
loga	-11.8612
▁Uprav	-11.8702
▁Nauč	-11.8705
▁vladaju	-11.8708
▁Grup	-11.8708
▁uređ	-11.8732
▁prsti	-11.8744
▁realni	-11.8752
▁uvidjel	-11.8758
užila	-11.8766
▁gradsko	-11.8806
▁podrazumje	-11.8827
mogucnost	-11.8828
▁bogatim	-11.8832
tpuno	-11.8882
▁dosti	-11.891
malo	-11.8933
▁lokv	-11.895
▁vremensko	-11.8974
▁treniran	-11.8993
▁Jevrejsko	-11.9
riti	-11.9005
▁pok	-11.9021
▁fosili	-11.9081
glasan	-11.9094
▁Mis	-11.9105
cilija	-11.9127
▁digitaln	-11.9152
rodi	-11.9204
gledali	-11.922
▁primijenil	-11.9253
▁minist	-11.928
stri	-11.9282
uđen	-11.9282
nela	-11.9312
▁Pros	-11.9313
▁isplat	-11.9332
nski	-11.9379
razne	-11.9388
kli	-11.942
orporacij	-11.9429
rite	-11.946
▁omiljen	-11.9489
▁postavit	-11.9548
moralno	-11.9564
▁Bur	-11.9567
▁Otk	-11.957
opomenuto	-11.9571
rava	-11.9583
▁slijepim	-11.9604
▁tipičn	-11.9657
mačk	-11.9663
▁konstruk	-11.9681
zija	-11.9699
baga	-11.9707
▁dobijen	-11.9718
▁obilaz	-11.9785
▁domać	-11.9817
njak	-11.985
vjetlost	-11.9855
rira	-11.986
▁supro	-11.9861
▁formaln	-11.9915
▁spoljašn	-11.9921
▁specifič	-11.9951
▁preuzel	-11.9954
▁posl	-11.9983
table	-11.999
▁pokr	-12.0004
▁kontrolira	-12.0013
▁Uzel	-12.0022
▁Lak	-12.0044
moguć	-12.0049
▁tipov	-12.0052
ječ	-12.0057
▁Zemljin	-12.0102
sporavanj	-12.0134
računal	-12.0158
cki	-12.0192
▁faza	-12.0195
mbo	-12.0219
▁kritič	-12.0226
▁formira	-12.0239
▁nastavn	-12.0294
▁fenomenal	-12.0343
▁nedostup	-12.0375
trag	-12.0403
▁izvadit	-12.0411
▁Sam	-12.0419
staje	-12.0427
poruka	-12.0439
▁hidr	-12.0441
dređeni	-12.0445
▁tuž	-12.0447
dva	-12.0448
▁gađa	-12.0454
lekt	-12.049
▁poduče	-12.0493
▁prov	-12.0506
▁opasnost	-12.0508
▁4,	-12.0574
rce	-12.0579
gnorisa	-12.0594
deblja	-12.0621
▁savjetni	-12.0637
ert	-12.0638
cigle	-12.0653
▁završ	-12.0654
pametni	-12.069
plaćeni	-12.0719
▁mol	-12.0757
ivotinj	-12.0762
eroin	-12.0772
mpul	-12.0775
▁kvadratni	-12.0786
▁kal	-12.0788
frazi	-12.0805
upu	-12.084
▁Atlant	-12.088
▁napreduje	-12.0901
govara	-12.0935
▁etičk	-12.0941
▁uključiva	-12.0957
▁priv	-12.0967
▁fle	-12.0997
zgajam	-12.1017
20	-12.1044
▁Min	-12.105
AV	-12.1051
▁pokloni	-12.1071
razumi	-12.1072
▁prethodn	-12.1131
enici	-12.1133
▁fokusiran	-12.1149
voj	-12.1172
vjere	-12.1192
▁mjes	-12.1248
▁biz	-12.128
icira	-12.1293
▁eksper	-12.1296
▁dil	-12.1305
▁pomaga	-12.1317
▁drven	-12.1338
▁nasiln	-12.1377
▁ispu	-12.138
hranjen	-12.1393
osjetila	-12.1409
▁doz	-12.1436
užno	-12.1476
žil	-12.1484
▁navode	-12.1499
▁pregled	-12.1504
▁vlas	-12.1529
▁samilos	-12.1547
▁pojednostav	-12.1556
egova	-12.1556
terij	-12.1574
ozbiljnij	-12.1585
▁algoritamsk	-12.1585
▁običaj	-12.1621
▁zamisli	-12.1647
▁provjer	-12.1691
▁služ	-12.1692
▁zvon	-12.1694
Ng	-12.1708
▁nacional	-12.1748
ark	-12.1758
znati	-12.1779
▁udar	-12.1789
rva	-12.1831
▁uvjerljiv	-12.1835
vat	-12.1863
▁pros	-12.1867
▁Col	-12.1874
▁Agen	-12.1886
fik	-12.1934
▁selekcijsk	-12.1935
krenul	-12.1943
dba	-12.1945
klanjanj	-12.1946
▁Zagrij	-12.1968
▁mrz	-12.1972
▁tražen	-12.1974
▁složil	-12.1989
svijetle	-12.2006
uzne	-12.2051
▁zakriv	-12.2071
▁obećan	-12.2079
▁Stvarno	-12.2083
▁ojača	-12.2101
činio	-12.2106
▁opre	-12.2112
rež	-12.2119
▁javlja	-12.2154
▁pazi	-12.2171
masivnij	-12.2178
▁poljoprivred	-12.2195
ltipotencijalist	-12.2201
pajanje	-12.2207
▁uspjes	-12.2212
▁dikta	-12.2216
▁žrtv	-12.2216
▁upoznava	-12.224
▁detektor	-12.2257
▁odbac	-12.2282
▁primijeti	-12.2292
▁obuhva	-12.2301
veza	-12.231
gravitacij	-12.2328
▁spriječ	-12.2328
▁slučajnost	-12.2328
▁zaokru	-12.2331
▁rashladn	-12.2337
osjećanj	-12.2347
▁kalib	-12.2356
▁Uzro	-12.2358
▁puc	-12.241
arkiran	-12.244
▁Duž	-12.2466
▁podiza	-12.2477
kusa	-12.2499
▁doprinije	-12.2499
avna	-12.252
▁prisustv	-12.2543
▁izmir	-12.2545
stal	-12.2549
9.	-12.2573
tužni	-12.2599
▁traja	-12.2604
▁barijer	-12.2638
dila	-12.2639
diru	-12.265
▁maš	-12.2671
bacanj	-12.2683
▁rel	-12.2698
pisiva	-12.2701
rtal	-12.2703
žavaju	-12.2741
▁dopusti	-12.2749
etero	-12.2763
▁genijal	-12.2765
▁takmič	-12.277
▁digit	-12.2773
▁usmjer	-12.2776
▁mobilni	-12.2777
▁trenutn	-12.2783
▁svem	-12.2786
▁pozna	-12.2797
▁htje	-12.2806
▁Poku	-12.2806
▁objav	-12.2823
vjera	-12.2827
6	-12.2863
▁neugod	-12.288
ff	-12.2883
togodišnjak	-12.289
▁ugledal	-12.2892
zb	-12.2905
▁shvat	-12.2947
kovima	-12.299
90	-12.2995
▁obnov	-12.2997
pisuj	-12.3025
▁real	-12.3035
tnost	-12.3036
razi	-12.3037
sit	-12.3041
▁istovremen	-12.3045
kro	-12.3076
savaju	-12.3077
▁onesposob	-12.3101
▁svjes	-12.3107
▁sond	-12.3115
zapadno	-12.3126
sreće	-12.3136
ojačava	-12.3137
▁dinami	-12.3138
cjenjiva	-12.3139
itko	-12.3142
▁ispun	-12.3174
▁zabav	-12.3196
▁repu	-12.3196
▁Odgovor	-12.3217
snik	-12.3224
silni	-12.3227
97	-12.3232
▁podijel	-12.3242
▁viril	-12.3251
▁Izb	-12.3277
slu	-12.3282
ludo	-12.3294
▁neutral	-12.3304
▁prat	-12.3319
▁Jez	-12.3367
▁sjećat	-12.3378
sava	-12.3379
▁objekt	-12.3394
▁obrij	-12.34
▁Atlan	-12.3411
▁fotografi	-12.3414
▁nedavn	-12.3416
bavi	-12.342
▁susre	-12.3423
automat	-12.3429
veni	-12.3432
sjeća	-12.3458
▁upis	-12.347
novo	-12.3473
▁oblikova	-12.3481
▁55	-12.3486
▁izvrš	-12.3508
paš	-12.3555
alizacij	-12.3556
zdrav	-12.3562
▁instan	-12.3565
▁hirur	-12.3573
love	-12.358
▁sprem	-12.3602
▁shva	-12.3614
mailov	-12.3617
podv	-12.3617
▁otkr	-12.3626
▁kugl	-12.3646
▁preciz	-12.3656
▁poprav	-12.3663
▁napis	-12.3663
rijumčari	-12.3676
▁uklon	-12.3703
selim	-12.3733
interesantni	-12.3739
▁priprem	-12.3745
▁različi	-12.3752
vrat	-12.3754
▁pjes	-12.3763
stigl	-12.3763
▁prevod	-12.3764
▁nerv	-12.3769
kljuc	-12.3775
▁napušta	-12.3824
▁hrv	-12.384
▁širin	-12.3841
▁Haiti	-12.3841
▁dir	-12.3848
▁pridruž	-12.3848
▁Australi	-12.3862
vidje	-12.3864
▁5,	-12.3865
▁moder	-12.3867
▁masiv	-12.3871
zvan	-12.3875
▁arg	-12.3876
bjektivno	-12.3877
snosti	-12.3889
tvo	-12.3889
▁lep	-12.3891
▁prož	-12.3891
▁ambicioz	-12.3899
psorbira	-12.39
▁održ	-12.3902
▁funkcional	-12.3904
led	-12.3913
▁egzistenci	-12.3914
vremeno	-12.392
▁groz	-12.3925
iljak	-12.393
▁Mad	-12.3932
▁percepci	-12.3939
▁privat	-12.394
utros	-12.3944
▁previ	-12.3951
ruženj	-12.3952
đenj	-12.3954
▁izgrad	-12.3955
▁pašnja	-12.3955
▁pokaž	-12.3958
▁religi	-12.3965
nanos	-12.397
▁Sm	-12.398
vest	-12.3983
▁stipendi	-12.3992
jasnit	-12.4006
▁Pokaz	-12.4008
▁odstran	-12.4008
rasli	-12.4012
▁eksperimen	-12.4013
▁dogovor	-12.4016
▁neophod	-12.4018
▁prost	-12.402
▁ples	-12.4023
▁obrat	-12.4026
▁aspek	-12.4026
▁instrumen	-12.4033
▁rashlad	-12.4035
▁modul	-12.4039
pušta	-12.4044
činjeni	-12.4045
▁odabra	-12.4048
brinut	-12.4049
▁najnovij	-12.405
▁cvijeć	-12.405
▁prok	-12.405
gažen	-12.4066
▁elegan	-12.4069
▁sudar	-12.4073
lošk	-12.4075
▁najgor	-12.4083
▁djelimič	-12.4089
▁izgub	-12.4095
tnu	-12.4096
▁mršav	-12.4097
▁inf	-12.4111
▁prakti	-12.4118
▁inflaci	-12.4119
▁predlož	-12.4121
naravn	-12.4124
▁metal	-12.4127
▁čovje	-12.4132
vjetov	-12.4141
▁pomogn	-12.4142
▁zastup	-12.4146
▁navede	-12.4147
▁utic	-12.4148
▁izvad	-12.4156
▁zagađen	-12.4157
radil	-12.4159
▁sposob	-12.4162
vje	-12.4162
▁objašnjen	-12.4166
kup	-12.4169
▁spozna	-12.417
▁strategi	-12.4172
▁Sre	-12.4174
efikasnij	-12.4176
▁riješen	-12.4179
slika	-12.4183
▁izbacuj	-12.4183
▁pozici	-12.4183
▁ignoriš	-12.4185
▁najdublj	-12.4185
▁ostvaruj	-12.4187
▁Izuz	-12.4189
sip	-12.4191
▁prisut	-12.4191
nesla	-12.4193
▁okru	-12.4193
poznajem	-12.4193
▁uspješ	-12.4194
▁promijen	-12.4196
▁global	-12.4196
sušni	-12.4199
▁apsolut	-12.4199
sklad	-12.4199
▁straš	-12.4202
gašen	-12.4203
formalno	-12.4205
igitalizira	-12.4206
privlačn	-12.4206
duži	-12.4207
snažnij	-12.4211
▁ekosistem	-12.4216
▁Ključ	-12.4216
▁mučen	-12.4219
razumijeva	-12.422
inteligentn	-12.4221
▁Zov	-12.4222
raspodjel	-12.4224
tropsk	-12.4225
nevjer	-12.4225
musliman	-12.4226
oporez	-12.4226
javljuje	-12.4228
▁otpr	-12.423
usmjeren	-12.423
▁okren	-12.423
zna	-12.4231
školsk	-12.4231
ispravn	-12.4231
podijeljen	-12.4232
dresira	-12.4232
stabilnost	-12.4232
Art	-12.4233
tipovi	-12.4235
praktično	-12.4237
traži	-12.4239
▁velikoduš	-12.424
efikas	-12.4241
▁srednjoškol	-12.4246
▁izuze	-12.4249
▁glum	-12.4253
lege	-12.4253
▁odbij	-12.4253
▁nesposob	-12.4254
opasn	-12.4254
stojim	-12.4255
ljub	-12.4257
▁uoči	-12.4259
70-	-12.4261
religiozni	-12.4261
recept	-12.4261
regulacij	-12.4261
profit	-12.4262
▁Boston	-12.4263
▁propadan	-12.4263
▁cr	-12.4265
izgled	-12.4266
▁spoje	-12.4266
elegantn	-12.4267
rob	-12.4268
▁očekuj	-12.427
▁sisav	-12.4272
žava	-12.4272
efekt	-12.4273
odgovornost	-12.4274
▁Antar	-12.4274
▁najviš	-12.4275
programira	-12.4277
alizira	-12.4277
tumači	-12.4278
ladim	-12.4278
ukupn	-12.4278
učinkovit	-12.4279
djedov	-12.4281
▁nepriklad	-12.4281
postojanje	-12.4285
propa	-12.4286
mentalno	-12.4286
kupil	-12.4286
86	-12.4286
gitar	-12.4287
perspektiv	-12.4287
ekolog	-12.4289
UN	-12.4289
▁torbi	-12.429
počinj	-12.429
▁osjeca	-12.429
DH	-12.429
realn	-12.4291
▁Shvat	-12.4292
alističk	-12.4293
seksualn	-12.4294
rješenj	-12.4294
tlantsko	-12.4295
naučni	-12.4295
centr	-12.4296
milostivost	-12.4297
▁Sis	-12.4297
izgovor	-12.4298
ntno	-12.4299
▁Potreb	-12.4299
direktn	-12.43
Sahar	-12.4301
kasni	-12.4301
tekst	-12.4302
bolnic	-12.4303
normalno	-12.4303
bol	-12.4303
skuplja	-12.4305
▁inteligent	-12.4307
zahval	-12.4308
početk	-12.4308
grupa	-12.4309
zemalj	-12.4309
trenutno	-12.431
veličin	-12.431
central	-12.4311
daleko	-12.4311
stepen	-12.4311
podat	-12.4312
▁Samilos	-12.4312
upotreb	-12.4312
sekund	-12.4313
jepljen	-12.4314
jednostavno	-12.4317
▁misteri	-12.4319
ciklo	-12.4322
osob	-12.4323
vidimo	-12.4324
dobij	-12.4325
udara	-12.4325
crn	-12.4326
▁džep	-12.4329
▁vrs	-12.4331
▁eksplo	-12.4333
▁prednj	-12.4334
▁nezavis	-12.4338
12	-12.4339
▁magnet	-12.434
djeluje	-12.4343
▁karakteristič	-12.4344
glavlje	-12.4346
treba	-12.4348
▁mehani	-12.4349
ziraju	-12.4349
▁komercijal	-12.4351
▁četvrt	-12.4351
▁radozna	-12.4354
▁vješti	-12.4354
▁beskraj	-12.4357
lf	-12.4359
hrabr	-12.436
ključi	-12.4362
▁konstant	-12.4363
▁pohran	-12.4364
▁komp	-12.4368
prilic	-12.437
▁Zapad	-12.4371
▁NA	-12.4372
ucini	-12.4373
▁epidemi	-12.4373
kombi	-12.4376
▁obrazovan	-12.4376
▁Žel	-12.4377
ederaln	-12.4378
▁planiran	-12.438
▁scenari	-12.438
▁fini	-12.4381
ompan	-12.4382
▁klinic	-12.4382
hvata	-12.4385
alistič	-12.4387
▁Kren	-12.4389
▁Pritis	-12.4392
nicijativ	-12.4394
dnici	-12.4396
▁vlast	-12.4396
q	-12.44
legaln	-12.4401
ičar	-12.4402
tolog	-12.4403
▁ranij	-12.4408
jevam	-12.441
▁Afr	-12.4413
slab	-12.4414
mreža	-12.4415
urs	-12.4415
oksida	-12.4418
zbacivanj	-12.4419
rodni	-12.442
▁trgova	-12.4422
▁riješe	-12.4423
▁kontroliš	-12.4424
▁petogodišnja	-12.4426
čudo	-12.4428
▁metaboli	-12.4428
▁Ponov	-12.4428
▁pronala	-12.4428
▁vibracij	-12.4429
▁promije	-12.4429
ziram	-12.4429
▁nemoguc	-12.443
▁zasnova	-12.4438
talijansk	-12.4439
▁impresi	-12.4439
munizacij	-12.444
▁izumr	-12.4441
zdiže	-12.4441
▁ispo	-12.4445
frikanc	-12.4449
ndeks	-12.4454
▁trans	-12.4455
▁olakša	-12.4459
▁sjeme	-12.4459
čudesni	-12.446
raham	-12.446
dard	-12.4461
niverzum	-12.4463
▁ugl	-12.4465
ampanj	-12.4465
▁građa	-12.4466
▁sport	-12.447
zbudljiv	-12.447
▁provede	-12.4473
▁boles	-12.4473
glašava	-12.4474
trazivac	-12.4474
legantni	-12.4476
opšte	-12.4477
stalni	-12.4478
▁ulaž	-12.4478
gljik	-12.4478
ređaj	-12.448
skustvo	-12.4481
brah	-12.4482
▁liječe	-12.4483
čeka	-12.4484
množit	-12.4484
kloni	-12.4485
produktivno	-12.4491
▁rashlađiva	-12.4491
▁začu	-12.4492
ahnem	-12.4495
pisan	-12.4496
pomeni	-12.4497
▁odvažno	-12.4498
▁spašava	-12.4501
snovno	-12.4501
▁smješ	-12.4504
cc	-12.4505
dolari	-12.4505
ndarni	-12.4506
▁odoz	-12.4511
▁vojs	-12.4512
▁godišnji	-12.4514
▁crt	-12.4517
gub	-12.4519
orijen	-12.452
▁lansira	-12.4524
▁Mul	-12.4525
▁istrazi	-12.4528
zičari	-12.4529
▁insek	-12.453
▁trend	-12.453
▁roman	-12.4531
▁naslije	-12.4533
autor	-12.4533
▁selekcij	-12.4533
▁sof	-12.4535
▁Poslani	-12.4536
krivljen	-12.4537
▁iscrpljuju	-12.4537
manjka	-12.4537
▁obezbje	-12.4538
▁Robo	-12.4538
▁vjetr	-12.4539
uobičajen	-12.454
▁šokira	-12.4542
sluga	-12.4544
▁rješ	-12.4544
▁sprije	-12.4544
saharsk	-12.4547
▁Odb	-12.4552
▁detekto	-12.4553
▁Drža	-12.4555
ontira	-12.4556
Tr	-12.4558
▁Njem	-12.4558
▁demokrat	-12.4558
▁ponaš	-12.456
lijedit	-12.4562
▁prekin	-12.4563
uvjeren	-12.4563
prikladn	-12.4564
etov	-12.4565
▁obez	-12.4565
▁poštovan	-12.4565
▁izgra	-12.4566
ajanje	-12.4566
ovjereni	-12.4567
▁komb	-12.4568
potpun	-12.4569
▁ošte	-12.4569
W	-13.7623
Č	-13.7624
Ž	-13.7625
♫	-13.7626
Š	-13.7627
—	-13.7628
J	-13.7629
:	-13.763
)	-13.7631
Z	-13.7632
?	-13.7633
đ	-13.7634
&	-13.7635
