<unk>	0
<s>	0
</s>	0
▁,	-2.83993
▁.	-3.24252
▁да	-3.78854
▁	-3.96031
▁на	-3.98223
▁и	-4.11368
▁е	-4.21584
те	-4.22486
▁в	-4.30857
та	-4.32014
▁за	-4.40645
;	-4.43705
▁се	-4.45023
▁&	-4.46926
ot	-4.48477
qu	-4.48583
то	-4.48764
▁от	-4.49087
а	-4.49427
т	-4.64849
▁че	-4.77762
и	-4.81657
м	-4.89812
▁това	-4.90592
▁с	-4.94638
▁по	-4.98425
▁не	-5.0263
-	-5.17807
ме	-5.20663
▁И	-5.28721
▁си	-5.39893
▁са	-5.44418
ли	-5.47776
ни	-5.66494
▁които	-5.68803
▁много	-5.69563
на	-5.6959
о	-5.69865
▁ще	-5.71808
▁?	-5.74306
▁което	-5.77529
▁като	-5.78593
▁Това	-5.86087
▁:	-5.89346
л	-5.92228
ш	-5.93695
▁има	-5.96104
не	-5.97907
я	-5.98424
ен	-5.98437
е	-5.99115
но	-6.07726
с	-6.07832
▁ми	-6.08045
▁)	-6.1018
(	-6.10276
▁тези	-6.1258
х	-6.12748
▁може	-6.13465
▁го	-6.13943
н	-6.16648
▁така	-6.19682
▁който	-6.20227
ше	-6.20309
ът	-6.20635
▁до	-6.2102
ла	-6.2116
▁Но	-6.22937
▁но	-6.2654
▁ни	-6.29091
▁-	-6.2945
▁ви	-6.30227
ите	-6.30694
тази	-6.3186
▁или	-6.35168
й	-6.35392
▁един	-6.36332
▁коя	-6.37413
▁трябва	-6.3832
▁този	-6.39367
▁нещо	-6.41257
ка	-6.42869
▁беше	-6.43148
▁когато	-6.47292
▁ако	-6.47634
▁А	-6.4832
▁те	-6.51081
▁а	-6.52542
ха	-6.52809
▁В	-6.5628
▁всички	-6.57287
▁най	-6.57344
ло	-6.58016
▁Не	-6.58406
▁само	-6.63906
▁хора	-6.64654
хме	-6.64685
▁—	-6.64883
▁какво	-6.64969
▁една	-6.65021
к	-6.66549
▁би	-6.66757
▁ли	-6.668
▁през	-6.67485
същност	-6.69123
▁години	-6.69727
▁сме	-6.70172
р	-6.70206
▁защото	-6.70553
▁как	-6.74176
▁към	-6.75019
▁повече	-6.78088
▁ги	-6.78306
ва	-6.78673
▁съм	-6.78884
▁из	-6.8121
▁при	-6.82349
▁...	-6.82727
▁хората	-6.84329
ната	-6.85922
▁Така	-6.85984
▁Смях	-6.86949
ят	-6.87217
▁аз	-6.87561
▁няко	-6.88445
▁ние	-6.9025
д	-6.91817
▁неща	-6.92443
▁няма	-6.93511
▁бях	-6.94924
▁време	-6.96207
▁след	-6.96991
з	-6.97949
▁тук	-6.9985
▁Е	-7.00459
нето	-7.00541
▁наистина	-7.02737
▁За	-7.03995
ния	-7.04963
ти	-7.05312
ните	-7.059
▁С	-7.06656
той	-7.08623
▁толкова	-7.09297
▁Те	-7.09848
▁я	-7.1205
ра	-7.12499
▁бъде	-7.12679
▁ме	-7.13363
▁едно	-7.13394
▁тях	-7.14071
г	-7.15354
▁начин	-7.15551
в	-7.15631
▁просто	-7.16315
▁можем	-7.17914
▁Има	-7.22072
▁преди	-7.22781
▁част	-7.23194
▁още	-7.23545
▁сега	-7.24804
▁също	-7.25214
▁със	-7.26045
▁използва	-7.27061
▁Ако	-7.27279
йки	-7.27871
▁му	-7.2797
▁малко	-7.28045
зи	-7.28388
▁във	-7.29084
▁им	-7.29175
▁света	-7.29312
▁всичко	-7.29466
ви	-7.30621
ри	-7.31118
ия	-7.32063
▁Може	-7.32237
▁всеки	-7.32438
▁около	-7.32466
▁♫	-7.32686
п	-7.32999
▁там	-7.33862
▁мен	-7.33875
▁както	-7.36608
ата	-7.37566
▁тя	-7.38206
.	-7.39834
▁могат	-7.40108
▁където	-7.40547
▁Да	-7.40549
▁имаме	-7.40728
▁други	-7.43409
▁мисля	-7.44196
▁сте	-7.44818
▁нас	-7.44913
ци	-7.45237
ст	-7.45479
ф	-7.45602
▁две	-7.45724
▁без	-7.46659
га	-7.48451
▁все	-7.49425
▁под	-7.50856
▁няколко	-7.50973
▁дори	-7.51583
▁прави	-7.52102
▁вид	-7.52109
▁Защо	-7.52229
▁раз	-7.52245
▁Той	-7.52268
да	-7.54902
▁живот	-7.55558
▁г	-7.56329
▁пре	-7.56563
щи	-7.56883
▁По	-7.57533
ки	-7.57713
за	-7.58845
върху	-7.59317
у	-7.60616
▁казва	-7.61701
▁Сега	-7.6175
чи	-7.62001
ре	-7.62044
▁имат	-7.62081
▁На	-7.6209
ле	-7.62898
▁свят	-7.63016
▁Аплодисменти	-7.63227
ди	-7.64362
▁човек	-7.64841
б	-7.64844
▁три	-7.65001
▁Ни	-7.65238
▁бил	-7.65849
▁път	-7.66904
▁иска	-7.67147
▁година	-7.67596
▁О	-7.67907
▁ден	-7.6808
ща	-7.68857
▁Аз	-7.68931
▁живота	-7.69007
▁вижда	-7.69201
▁различни	-7.70245
▁Ще	-7.70487
▁него	-7.70661
ми	-7.70849
▁между	-7.71048
▁вас	-7.71576
ър	-7.72861
▁пред	-7.73354
че	-7.74483
щ	-7.74672
▁доста	-7.75074
ното	-7.75172
▁кажа	-7.75455
▁точно	-7.76105
▁ти	-7.76686
▁бих	-7.77061
▁докато	-7.7812
▁Кога	-7.7824
▁у	-7.78354
си	-7.79281
▁случва	-7.79346
a	-7.79497
▁искам	-7.8012
▁направи	-7.80976
▁бъда	-7.81173
▁направим	-7.81203
▁можете	-7.81758
би	-7.83198
во	-7.83618
ро	-7.84101
▁съ	-7.84524
▁разбира	-7.84579
▁работа	-7.8468
▁каза	-7.84992
▁правят	-7.85172
▁става	-7.85333
▁про	-7.87186
▁тогава	-7.87471
ове	-7.87763
▁днес	-7.88331
ча	-7.88371
▁Благодаря	-7.88563
пи	-7.90138
▁изглежда	-7.90353
▁въпрос	-7.90417
▁място	-7.90469
▁То	-7.90483
▁отново	-7.90564
▁Как	-7.90734
ски	-7.90932
ради	-7.93139
▁Тя	-7.93436
▁над	-7.93524
▁вече	-7.9425
▁види	-7.94401
▁добре	-7.9452
▁промени	-7.94702
▁Б	-7.94799
ем	-7.94938
мо	-7.95261
▁От	-7.95877
ко	-7.96832
▁проблем	-7.97489
▁колко	-7.97498
▁после	-7.98168
▁Какво	-7.99244
▁защо	-7.99859
▁мога	-8.00205
▁направя	-8.00488
▁два	-8.00609
▁били	-8.00836
▁нашите	-8.00871
ват	-8.0099
ч	-8.01131
▁данни	-8.01564
▁бе	-8.01829
▁информация	-8.01887
▁Трябва	-8.01952
▁работи	-8.02008
▁друг	-8.02043
чрез	-8.02151
▁система	-8.02166
ба	-8.02235
▁страна	-8.02567
▁било	-8.02977
▁правим	-8.03214
▁моя	-8.03962
▁Н	-8.04391
▁10	-8.04828
▁процента	-8.05291
жи	-8.05929
ска	-8.0711
▁деца	-8.07112
ж	-8.0726
▁нещата	-8.07516
▁история	-8.08142
▁У	-8.08759
едно	-8.08808
▁никог	-8.08809
по	-8.08873
▁означава	-8.09076
▁всяка	-8.09696
де	-8.09719
▁наша	-8.11372
ве	-8.11526
▁каже	-8.11666
това	-8.12599
па	-8.13087
▁Д	-8.1405
ля	-8.14399
▁някак	-8.15584
▁ко	-8.15664
що	-8.16569
ъж	-8.16762
▁себе	-8.16847
▁Много	-8.16897
▁говоря	-8.17201
ъ	-8.18898
онова	-8.1965
го	-8.19796
▁знаете	-8.19813
▁нея	-8.20282
▁об	-8.20516
▁П	-8.21204
▁нищо	-8.21411
▁друго	-8.22158
▁нови	-8.22184
▁случи	-8.22291
сти	-8.22619
▁започнах	-8.22756
пълно	-8.2304
e	-8.23832
▁малки	-8.24459
жа	-8.24741
▁Няма	-8.24892
▁пет	-8.24943
ан	-8.25495
бра	-8.25549
▁винаги	-8.25784
▁нужда	-8.26791
▁цяла	-8.26918
вър	-8.2716
малко	-8.27319
▁20	-8.274
▁вие	-8.27875
до	-8.28098
▁времето	-8.28228
▁момент	-8.28327
▁идея	-8.28479
колкото	-8.28557
▁знаем	-8.29075
ъде	-8.29263
ката	-8.29272
▁децата	-8.29627
▁000	-8.30171
ване	-8.3104
▁голяма	-8.31254
▁Искам	-8.32333
▁то	-8.32345
ю	-8.32499
▁друга	-8.32609
ие	-8.32647
же	-8.32763
▁получи	-8.33319
▁де	-8.33494
▁места	-8.33867
ност	-8.34292
▁четири	-8.3475
йте	-8.35032
1	-8.35456
▁Мисля	-8.35654
▁енергия	-8.35833
▁работя	-8.37023
ция	-8.37217
ък	-8.37407
ото	-8.37622
место	-8.37855
▁започва	-8.38116
ън	-8.38472
▁гледа	-8.38644
▁големи	-8.38945
▁възможност	-8.39374
▁ка	-8.39408
▁почти	-8.39637
▁вероятно	-8.39694
▁проблеми	-8.40038
▁целия	-8.40241
ъл	-8.4091
▁знам	-8.40978
ени	-8.40995
▁видим	-8.41278
▁Африка	-8.41353
ете	-8.41383
кс	-8.41482
▁първи	-8.41765
▁Бе	-8.42799
▁Ф	-8.42971
▁дума	-8.431
▁милиона	-8.43554
▁пари	-8.43661
▁долара	-8.43927
▁вода	-8.44018
▁процес	-8.44728
▁направих	-8.44918
лу	-8.44946
▁Из	-8.45205
ява	-8.45338
ник	-8.45911
лен	-8.46646
▁пъти	-8.46713
▁Г	-8.46801
▁опитва	-8.46914
▁страни	-8.46926
▁Ма	-8.47201
▁получава	-8.47209
▁пример	-8.47265
▁идва	-8.47271
ня	-8.47327
▁К	-8.47365
▁отговор	-8.47416
▁достатъчно	-8.47733
▁ре	-8.4774
▁първо	-8.47913
▁покажа	-8.4812
▁й	-8.48815
▁храна	-8.48939
▁знае	-8.48959
▁промяна	-8.49049
▁До	-8.49266
чен	-8.49376
▁След	-8.49519
▁момента	-8.49694
▁често	-8.49695
ря	-8.49909
▁форма	-8.50445
преки	-8.51081
▁показва	-8.51402
▁Ами	-8.51426
▁казах	-8.51526
▁нарича	-8.51561
ден	-8.51723
▁Добре	-8.51788
▁Ко	-8.51873
ру	-8.52095
▁стана	-8.52185
кри	-8.52229
▁мозъка	-8.52303
▁създава	-8.52714
▁снимка	-8.52862
▁клетки	-8.52969
▁начало	-8.53189
ер	-8.5359
▁историята	-8.5378
▁ф	-8.5413
вен	-8.54254
▁последни	-8.54396
▁Т	-8.54583
▁цяло	-8.54702
▁начина	-8.54763
▁цел	-8.55104
▁думи	-8.55265
добре	-8.55408
▁колкото	-8.55435
▁идеи	-8.5557
▁планета	-8.556
▁започна	-8.55876
▁създаде	-8.55886
▁имам	-8.56711
▁започне	-8.57162
ов	-8.57322
▁важно	-8.57528
пе	-8.57586
▁пак	-8.58009
▁къде	-8.58027
късно	-8.58105
▁к	-8.58368
ор	-8.58535
▁сила	-8.58629
▁техни	-8.58952
▁училище	-8.59096
pos	-8.59096
▁причина	-8.59374
▁модел	-8.59395
▁През	-8.59505
▁например	-8.59558
▁група	-8.59877
ран	-8.60301
ще	-8.60322
кой	-8.60358
рен	-8.60561
▁общество	-8.60951
▁жена	-8.60996
▁ма	-8.61191
▁основа	-8.61267
▁даде	-8.61354
▁правя	-8.61468
ният	-8.62076
▁трудно	-8.62264
ства	-8.62355
овете	-8.62985
▁връзка	-8.63542
▁голям	-8.63978
▁въ	-8.64018
▁бързо	-8.64157
▁дни	-8.64237
▁век	-8.64398
▁Всички	-8.64525
▁такива	-8.64768
им	-8.65255
▁предвид	-8.65392
▁нали	-8.65507
▁точка	-8.65535
▁виждаме	-8.66054
▁сред	-8.66082
▁използват	-8.66527
▁град	-8.66695
ку	-8.66836
▁значение	-8.67105
▁стане	-8.67257
▁среда	-8.67261
▁края	-8.67265
▁проект	-8.67434
▁хиляди	-8.67604
изира	-8.67998
ел	-8.68159
▁същото	-8.68314
▁вътре	-8.68449
голяма	-8.68466
▁намери	-8.68585
▁говори	-8.68727
▁души	-8.68866
▁Земята	-8.68892
▁па	-8.69028
ца	-8.69205
ира	-8.69268
ваме	-8.6938
▁обратно	-8.69582
▁малка	-8.69889
ъв	-8.70161
▁Един	-8.7025
▁казват	-8.70574
▁жени	-8.70586
▁дете	-8.70806
▁сигурност	-8.70836
▁Като	-8.70848
ндия	-8.70862
▁език	-8.71487
три	-8.71672
▁въз	-8.72174
▁мислим	-8.72216
▁Ню	-8.72259
▁случай	-8.72268
▁рак	-8.72335
добър	-8.72601
он	-8.72794
ум	-8.7292
▁видове	-8.72963
▁оп	-8.73124
▁пространство	-8.73267
▁При	-8.73642
▁книга	-8.73663
▁М	-8.73796
▁възможно	-8.73808
▁шест	-8.741
▁Няко	-8.74196
▁Бях	-8.74354
▁Ка	-8.74391
▁ниво	-8.74544
ско	-8.74557
o	-8.7464
▁мъже	-8.7504
ар	-8.75196
ство	-8.7537
▁Таз	-8.75419
▁100	-8.75585
чни	-8.75643
▁Вижда	-8.75716
ние	-8.75746
▁пе	-8.75838
ин	-8.76142
▁въпроси	-8.76224
▁нова	-8.76232
▁нов	-8.76353
2	-8.76544
▁накара	-8.76556
▁части	-8.7696
▁видео	-8.77058
стра	-8.77229
▁смисъл	-8.77238
▁променя	-8.77256
▁3	-8.7737
▁зад	-8.77606
тър	-8.7764
▁срещу	-8.77731
▁Знае	-8.77922
▁месеца	-8.78049
чно	-8.78165
▁другите	-8.78376
▁технология	-8.78408
▁особено	-8.78759
▁искал	-8.78845
▁съществува	-8.78895
▁сами	-8.79551
▁ведн	-8.79887
▁САЩ	-8.7997
▁резултат	-8.80394
▁Разбира	-8.80396
▁първа	-8.80541
ост	-8.80563
▁30	-8.80651
ността	-8.80675
▁помощ	-8.80773
▁семейство	-8.80824
▁идеята	-8.81093
гра	-8.81216
▁нека	-8.81219
▁мрежа	-8.81252
▁бизнес	-8.81273
▁мозък	-8.81566
ият	-8.82088
▁живея	-8.82125
ус	-8.82277
ията	-8.82479
▁кон	-8.82646
▁работата	-8.83079
ман	-8.832
▁50	-8.83509
▁майка	-8.8352
▁искат	-8.83531
ците	-8.84057
▁казал	-8.84127
▁живее	-8.84168
▁възраст	-8.84452
ал	-8.84475
▁истории	-8.84903
▁затова	-8.85014
▁първия	-8.85161
▁сметка	-8.85369
▁дава	-8.85456
ги	-8.85514
▁Тук	-8.85537
▁кара	-8.85646
нг	-8.85789
▁твърде	-8.86029
▁вярва	-8.86088
▁кой	-8.86143
▁война	-8.86412
▁половина	-8.86482
▁Хора	-8.86925
▁снимки	-8.87007
щата	-8.87024
▁исках	-8.87048
▁жените	-8.87083
▁отиде	-8.87095
▁Преди	-8.87258
▁нашия	-8.87335
▁невероятно	-8.87346
онези	-8.87744
ту	-8.8811
ската	-8.88279
ц	-8.88388
▁Мо	-8.88388
▁добри	-8.88593
▁он	-8.88703
i	-8.88719
▁човешки	-8.89369
▁15	-8.89539
тро	-8.89735
▁научи	-8.89737
▁приятели	-8.899
▁всяко	-8.90562
ници	-8.90666
▁ос	-8.90811
▁дойде	-8.91194
▁далеч	-8.91215
чка	-8.91371
къв	-8.91384
▁телефон	-8.91613
▁открих	-8.91715
▁технологии	-8.91748
▁4	-8.9193
▁бу	-8.92084
▁Америка	-8.92126
▁бъдещето	-8.92263
▁разберем	-8.9264
▁19	-8.92764
▁благодаря	-8.92789
▁имах	-8.92839
8	-8.93302
ови	-8.93423
▁игра	-8.93472
ул	-8.93542
▁продължава	-8.93636
чна	-8.9366
▁могли	-8.93865
▁ба	-8.93996
▁можеш	-8.94208
ец	-8.94213
ъм	-8.94224
0	-8.94474
▁ди	-8.94487
▁чувства	-8.94621
▁достъп	-8.94659
▁говорим	-8.94724
ките	-8.94784
▁милиарда	-8.94842
▁факт	-8.94845
ос	-8.94988
▁значи	-8.95015
▁компютър	-8.95169
▁крайна	-8.95895
ува	-8.9598
▁движение	-8.95982
▁минути	-8.96227
▁начини	-8.96236
▁видя	-8.96484
телни	-8.96542
някога	-8.96624
▁малък	-8.96682
бо	-8.96708
▁състояние	-8.96727
▁светлина	-8.96741
рас	-8.96791
▁тялото	-8.96871
▁същия	-8.96899
▁компания	-8.974
▁часа	-8.97744
▁мислите	-8.97884
▁Просто	-8.98078
▁лесно	-8.98539
бу	-8.98664
дж	-8.98742
▁внимание	-8.98758
всем	-8.98852
▁Про	-8.98873
▁очаква	-8.99046
▁Имам	-8.99311
▁ново	-8.99418
▁Най	-8.99435
▁направите	-8.99665
▁Ми	-8.99799
▁погледне	-9.00226
▁продължи	-9.00347
▁мои	-9.00381
▁ред	-9.00419
▁наше	-9.00481
▁среща	-9.00634
ур	-9.00645
▁моят	-9.0066
щите	-9.00721
▁икономика	-9.00762
▁център	-9.0084
▁води	-9.00858
▁Китай	-9.01179
▁взема	-9.01207
▁изключително	-9.01228
▁тъй	-9.01351
▁представя	-9.01361
бър	-9.01926
▁мое	-9.0197
s	-9.02261
▁каква	-9.02474
▁повърхност	-9.02586
пре	-9.02718
▁решения	-9.02783
▁свои	-9.03022
▁40	-9.03045
▁какви	-9.03065
ей	-9.03074
▁опита	-9.03187
А	-9.0335
▁смърт	-9.03812
кра	-9.03842
▁решение	-9.03853
ход	-9.03878
прав	-9.03893
▁приятел	-9.03965
▁познава	-9.04016
▁открие	-9.04252
▁ръка	-9.04295
▁TED	-9.04377
ред	-9.04497
▁някога	-9.04556
▁дизайн	-9.04671
▁дълго	-9.04782
▁учени	-9.04861
▁Тез	-9.05085
▁напред	-9.05257
зо	-9.05401
▁опит	-9.05411
▁що	-9.05606
▁образование	-9.05732
▁някакв	-9.05732
▁развитие	-9.05759
ването	-9.05804
▁позволява	-9.05902
бе	-9.06095
▁Също	-9.06105
неже	-9.06137
▁земята	-9.06288
▁възможности	-9.0633
▁Нико	-9.06517
▁кра	-9.06534
▁добра	-9.07117
▁споделя	-9.07289
лог	-9.07394
▁поведение	-9.07496
са	-9.07638
▁системи	-9.07683
▁Йорк	-9.0787
▁животни	-9.07966
▁реших	-9.08199
▁слуша	-9.08244
▁знаят	-9.08362
▁мисли	-9.08451
▁върне	-9.08458
▁Х	-9.08565
лю	-9.08602
▁нощ	-9.0871
▁край	-9.08899
ова	-9.09216
ун	-9.09588
лет	-9.09595
▁Или	-9.09623
▁водата	-9.09682
▁смята	-9.09922
телно	-9.09981
цията	-9.10023
▁степен	-9.10156
▁5	-9.10231
▁Раз	-9.10233
вам	-9.10406
▁Би	-9.10477
▁кола	-9.10484
▁коли	-9.1051
▁Всичко	-9.10524
▁струва	-9.10536
жда	-9.10582
▁компании	-9.10716
▁бяхме	-9.10881
татък	-9.10889
С	-9.10926
▁същи	-9.1093
телна	-9.11055
стро	-9.11068
▁област	-9.11093
▁навсяк	-9.11161
нес	-9.11245
▁глас	-9.11413
▁Си	-9.1151
поред	-9.1157
▁интернет	-9.11686
▁цял	-9.11766
це	-9.11777
▁Едно	-9.11882
▁18	-9.11891
▁въпроса	-9.11965
големи	-9.12762
▁Ха	-9.12882
7	-9.13106
▁накрая	-9.13184
▁отива	-9.13275
▁бо	-9.13309
аистина	-9.13422
▁филм	-9.1356
▁Тогава	-9.13646
▁стойност	-9.13661
▁общо	-9.14076
според	-9.14084
▁обича	-9.14222
▁избор	-9.14252
освен	-9.14421
▁машина	-9.14434
▁какъв	-9.14502
▁поне	-9.14581
▁свързани	-9.14627
▁действителност	-9.14702
▁д	-9.14801
▁голямо	-9.14952
▁линия	-9.15134
яване	-9.152
▁сложи	-9.15228
▁управлява	-9.15244
▁природата	-9.15306
▁размер	-9.15356
▁Ро	-9.15404
ово	-9.15616
▁отговори	-9.15707
▁разлика	-9.15867
▁музика	-9.16175
▁собствени	-9.16201
▁реалност	-9.16293
▁проектира	-9.16372
▁можех	-9.16436
▁баща	-9.16436
▁добро	-9.16582
▁програма	-9.16675
▁интересно	-9.17067
▁помогне	-9.17074
▁риба	-9.17085
▁мащаб	-9.17289
▁вземе	-9.17361
t	-9.17427
▁Само	-9.17427
чки	-9.17651
▁извън	-9.17932
▁родители	-9.18196
4	-9.18239
▁п	-9.18578
▁своя	-9.1886
▁Та	-9.18878
▁предизвикателст	-9.19016
▁същество	-9.19356
▁1	-9.19381
стта	-9.19415
00	-9.19483
▁мо	-9.19647
▁Ш	-9.19677
▁мъж	-9.19689
▁крака	-9.19851
▁После	-9.19952
▁попита	-9.20001
▁седем	-9.20019
▁казвам	-9.20117
при	-9.20176
▁контрол	-9.20522
▁Ме	-9.20841
▁намира	-9.21172
▁скорост	-9.21248
▁2	-9.21255
▁Значи	-9.21263
▁такова	-9.21271
▁Ти	-9.21391
▁Ви	-9.21455
▁Всеки	-9.21517
▁12	-9.22072
▁цен	-9.22149
▁истински	-9.22262
▁цена	-9.22342
▁Пре	-9.22487
▁учи	-9.22557
▁различен	-9.22752
▁Ле	-9.22761
▁материал	-9.2286
▁науката	-9.22983
▁дома	-9.22984
ил	-9.23038
ския	-9.23141
▁Хо	-9.23143
▁включва	-9.23207
чат	-9.23228
нд	-9.2337
▁способност	-9.2366
▁власт	-9.23688
пад	-9.23728
▁модели	-9.2375
▁здраве	-9.23759
▁мястото	-9.23769
▁пътя	-9.23874
▁нужно	-9.23911
▁карта	-9.24051
▁социални	-9.24094
▁Една	-9.24095
▁КА	-9.24109
▁спре	-9.24395
▁връща	-9.24524
▁къща	-9.24524
▁мили	-9.2454
▁Ли	-9.2454
▁реши	-9.2456
изъм	-9.24611
▁Бих	-9.24832
дел	-9.2485
▁различно	-9.2486
▁занимава	-9.24982
тра	-9.25033
5	-9.25132
▁&#9	-9.25189
▁&#93;	-9.25189
▁лед	-9.25222
▁Първо	-9.25393
ството	-9.2564
▁технологията	-9.25782
▁поставя	-9.25813
▁седмица	-9.25859
▁движи	-9.25859
▁нагоре	-9.25915
▁представа	-9.26083
▁затвор	-9.26106
▁тип	-9.26112
▁мислех	-9.26192
апример	-9.26305
мен	-9.26362
▁план	-9.26396
▁средата	-9.26402
хо	-9.26426
ров	-9.26431
сен	-9.2644
цен	-9.26543
вя	-9.2656
▁Вие	-9.26592
▁екип	-9.26592
ис	-9.2675
▁Колко	-9.26985
▁разкажа	-9.26985
▁структура	-9.27252
ети	-9.2737
▁разказва	-9.27471
К	-9.27594
▁основни	-9.27636
ация	-9.27774
▁държави	-9.27777
▁разбирате	-9.27805
▁щастие	-9.27895
▁Музика	-9.27895
▁праве	-9.27897
▁страх	-9.27901
тъп	-9.28093
нията	-9.28199
нова	-9.28278
▁седмици	-9.28353
▁вземем	-9.28435
3	-9.28484
общо	-9.28677
▁Дж	-9.28793
ага	-9.28879
▁Пи	-9.28986
▁създаване	-9.29138
йн	-9.29156
П	-9.29239
▁останали	-9.29272
▁стотици	-9.29276
▁видях	-9.29307
▁главата	-9.29503
▁сърце	-9.29508
▁разбера	-9.29509
▁обикновено	-9.29513
▁изследване	-9.2953
▁помисли	-9.29754
▁лице	-9.2992
▁болест	-9.29975
рав	-9.29987
▁Съ	-9.30063
▁вярвам	-9.30091
▁Дори	-9.3017
▁съзнание	-9.30216
ското	-9.30303
▁разговор	-9.30431
▁интересува	-9.30451
▁пита	-9.30484
ъс	-9.30513
▁отнася	-9.30628
▁действа	-9.30647
▁ДНК	-9.30676
▁същата	-9.30775
▁правите	-9.30831
▁Бо	-9.30837
▁ум	-9.30867
▁лекарства	-9.30924
▁поддържа	-9.30928
▁цели	-9.30988
▁пръ	-9.31107
▁Ла	-9.31207
▁маса	-9.31276
▁знаех	-9.31384
▁период	-9.31384
▁чу	-9.31403
▁лаборатория	-9.31444
ето	-9.31727
▁закон	-9.31782
ица	-9.31909
▁групи	-9.3194
иране	-9.32008
▁открива	-9.32038
▁околна	-9.32108
пус	-9.32328
▁отидох	-9.32337
▁право	-9.32365
▁инструменти	-9.32515
▁превръща	-9.32574
▁оставя	-9.3261
▁спира	-9.32654
▁правила	-9.32792
▁бъдеще	-9.32807
▁разглежда	-9.32838
▁звук	-9.32927
▁следващ	-9.32935
▁назад	-9.32968
▁случаи	-9.33087
▁чака	-9.33149
▁милиони	-9.33302
▁горе	-9.33432
▁изследвания	-9.33468
6	-9.33526
нието	-9.33535
▁превърна	-9.33539
▁човека	-9.3357
▁стигне	-9.33779
▁книги	-9.33779
▁надолу	-9.33899
▁ресурси	-9.33938
▁очевидно	-9.33946
ието	-9.33961
▁Съединени	-9.34022
рано	-9.34122
▁правилно	-9.34137
▁идват	-9.34159
▁политика	-9.34312
▁пише	-9.34566
▁пътува	-9.34571
▁представи	-9.34588
▁компютри	-9.34754
▁университет	-9.34754
ъд	-9.34818
▁Европа	-9.34999
тори	-9.35085
▁експеримент	-9.35311
гу	-9.3544
нали	-9.35446
▁11	-9.3552
9	-9.35534
▁млади	-9.35743
ази	-9.35745
▁C	-9.35815
▁проучване	-9.35881
▁картина	-9.35979
▁обаче	-9.36236
▁върна	-9.36283
▁осем	-9.36293
▁ефект	-9.36376
p	-9.36495
▁постоянно	-9.36594
▁пазар	-9.36683
▁поле	-9.36684
вор	-9.36825
▁страхотно	-9.36982
▁работим	-9.37014
▁града	-9.37018
скоро	-9.37031
▁подход	-9.37055
тън	-9.3711
▁изисква	-9.37232
долу	-9.37261
бързо	-9.37366
▁представите	-9.3739
▁Ре	-9.37481
▁океан	-9.37506
▁права	-9.37685
▁щати	-9.37829
▁Ке	-9.37898
▁Бог	-9.37901
▁чувство	-9.37988
▁харесва	-9.38224
▁човешко	-9.38241
▁няк	-9.38243
▁влиза	-9.38275
D	-9.38388
чета	-9.38388
вата	-9.38436
▁човешка	-9.38495
▁Интернет	-9.38497
▁кръв	-9.38505
▁живеем	-9.38511
▁помага	-9.38649
▁Ра	-9.38749
▁очите	-9.38879
стен	-9.38938
▁общност	-9.38947
ду	-9.38948
▁Де	-9.38969
▁наречена	-9.38976
▁продукт	-9.39025
▁силно	-9.39239
▁смях	-9.39261
важно	-9.39281
▁ра	-9.39393
вер	-9.39435
▁двама	-9.39599
мин	-9.39682
▁имаш	-9.39742
▁теория	-9.39776
▁кого	-9.39874
ашите	-9.39911
▁б	-9.40156
▁наблюдава	-9.40252
▁отношение	-9.40647
▁Р	-9.40708
▁направили	-9.41027
▁минало	-9.41126
тира	-9.41302
ол	-9.41348
▁бъдем	-9.41613
▁позволи	-9.41628
▁Дне	-9.41634
▁брой	-9.41663
▁подобно	-9.41746
нс	-9.4182
▁буквално	-9.41856
▁важни	-9.41883
дра	-9.4197
▁стая	-9.42122
▁200	-9.42123
▁6	-9.42136
▁хи	-9.42141
оп	-9.42192
уч	-9.42241
▁момиче	-9.42354
▁гледна	-9.42394
▁построи	-9.42406
▁З	-9.42502
жен	-9.42511
▁код	-9.42724
▁пи	-9.4284
▁Се	-9.42847
▁излиза	-9.42851
▁стигна	-9.42907
▁погледнем	-9.42996
▁страната	-9.43078
▁играе	-9.43207
▁Дока	-9.43207
▁усещане	-9.43275
▁фу	-9.43344
лата	-9.43392
▁нуждае	-9.4344
▁проблема	-9.43476
еми	-9.43608
▁правителството	-9.43657
▁теб	-9.43688
▁надежда	-9.4398
▁взима	-9.43982
рам	-9.44107
▁Ри	-9.44108
▁поколение	-9.44517
вали	-9.44644
▁оказва	-9.44788
▁връзки	-9.44912
▁ясно	-9.44939
▁25	-9.45066
▁свет	-9.45215
стан	-9.45249
▁количество	-9.45334
▁продукти	-9.45369
М	-9.45425
нах	-9.4554
▁тест	-9.45541
▁високо	-9.45623
▁следва	-9.45785
▁60	-9.45831
▁причини	-9.45871
▁огромна	-9.45876
▁въглерод	-9.45877
▁дърво	-9.45877
▁риск	-9.46127
бер	-9.4616
c	-9.46216
▁Мога	-9.4625
▁навън	-9.46326
▁прес	-9.4636
▁щях	-9.46427
▁култура	-9.46459
▁пациент	-9.4653
около	-9.46663
вна	-9.46784
▁носи	-9.46827
▁нито	-9.46903
▁успех	-9.46976
ест	-9.47161
▁близо	-9.47272
▁вашия	-9.47534
▁час	-9.47565
▁Повече	-9.47571
▁научих	-9.47606
▁появи	-9.47827
▁изследва	-9.47864
▁другата	-9.47936
лек	-9.48114
▁Кар	-9.48117
er	-9.48152
▁казаха	-9.48168
▁извест	-9.48266
дър	-9.48557
добри	-9.48638
▁продължение	-9.4865
▁решава	-9.48707
▁Все	-9.48894
▁публикува	-9.48932
▁държава	-9.48937
▁сцена	-9.4894
лно	-9.48952
▁организация	-9.48966
▁нямат	-9.49001
▁мас	-9.49023
▁еволюция	-9.49214
▁ситуация	-9.49214
▁ваша	-9.49255
▁скоро	-9.49267
исти	-9.49301
▁Нали	-9.49414
▁робот	-9.49415
ик	-9.49431
еше	-9.4964
d	-9.49691
фер	-9.49819
▁плаща	-9.49827
нал	-9.49827
▁Че	-9.49835
▁мислене	-9.49911
▁тема	-9.49987
▁растеж	-9.50093
▁чува	-9.50128
▁точки	-9.5013
▁куп	-9.50132
▁произвежда	-9.50148
▁направил	-9.50186
телен	-9.5035
▁свързва	-9.50416
▁материали	-9.50522
▁игри	-9.5063
каш	-9.50701
инг	-9.50719
пер	-9.50775
клю	-9.50935
▁стават	-9.50991
▁клетка	-9.51215
▁остави	-9.51293
▁променят	-9.51342
кар	-9.51367
▁самолет	-9.51398
мар	-9.51438
▁използвам	-9.51474
▁постигне	-9.51503
зва	-9.51518
▁вечер	-9.51868
▁вярно	-9.52088
▁Бил	-9.52176
▁океана	-9.52238
ици	-9.52283
▁Ал	-9.52302
▁лечение	-9.52376
▁мрежи	-9.52376
носно	-9.52447
▁парче	-9.52518
▁устройство	-9.52668
▁Ръкопляскания	-9.52722
▁пла	-9.52751
ери	-9.52761
▁събира	-9.52837
кон	-9.52899
▁върви	-9.52979
▁прости	-9.52996
▁Казах	-9.53071
▁Тъ	-9.53077
▁гени	-9.53114
ограф	-9.5323
▁надявам	-9.53313
▁труд	-9.53341
рите	-9.53396
▁условия	-9.5355
▁щастлив	-9.54074
▁собствена	-9.54225
леп	-9.54328
О	-9.54337
▁лицето	-9.54399
▁излезе	-9.54442
▁отида	-9.54507
▁любов	-9.54584
Р	-9.5465
▁пу	-9.54697
ение	-9.54753
зира	-9.54762
▁намеря	-9.54779
ъп	-9.54916
▁усеща	-9.54928
▁огромно	-9.55038
дъл	-9.55043
▁инструмент	-9.55113
▁постави	-9.5515
▁изп	-9.55187
▁същества	-9.55339
▁изпраща	-9.55339
рия	-9.5536
добрите	-9.554
▁форми	-9.55518
▁Дали	-9.55653
Г	-9.5585
▁S	-9.55863
I	-9.55873
▁справи	-9.55931
h	-9.56187
▁могъ	-9.56213
▁революция	-9.56245
бро	-9.56318
ист	-9.56372
остта	-9.5645
▁образ	-9.5647
сън	-9.56532
▁помислих	-9.56567
▁показа	-9.56663
▁своята	-9.56684
вите	-9.56704
▁доведе	-9.56756
▁приема	-9.56811
оби	-9.56857
▁броя	-9.56933
▁Марс	-9.57025
▁минава	-9.5711
▁абсолютно	-9.57268
▁управление	-9.57466
▁действие	-9.57467
▁огромни	-9.57467
▁пътуване	-9.57495
▁Представе	-9.57581
▁9	-9.57611
▁свобода	-9.57774
▁контролира	-9.5789
▁сграда	-9.58292
▁държа	-9.58342
▁петрол	-9.58403
▁създават	-9.58469
кът	-9.58477
▁тяло	-9.58514
▁милион	-9.58533
▁програми	-9.58723
▁Са	-9.58762
▁климат	-9.59007
▁яде	-9.59172
▁осъзнава	-9.59228
▁Джо	-9.59283
ващи	-9.5929
▁избира	-9.59333
m	-9.59386
▁Иска	-9.59387
▁съд	-9.5956
▁потенциал	-9.59828
▁кутия	-9.59955
▁Вселената	-9.60007
▁Ку	-9.60035
▁следващия	-9.60109
ница	-9.60146
▁растения	-9.60157
▁изглеждат	-9.60202
▁разбрах	-9.60352
▁подобни	-9.60489
▁предлага	-9.60499
▁7	-9.60558
яват	-9.60582
▁16	-9.60601
▁актив	-9.60652
ех	-9.60721
▁преживяване	-9.60869
▁куче	-9.60928
▁имал	-9.60999
▁случило	-9.60999
ек	-9.6103
▁известно	-9.61063
▁осъзнах	-9.6109
▁взе	-9.61155
▁A	-9.61396
▁системата	-9.61445
▁обучение	-9.61614
голямо	-9.61645
тък	-9.61718
ген	-9.61738
▁з	-9.61806
▁загуби	-9.61863
дава	-9.62224
▁роботи	-9.6227
▁сама	-9.62305
▁линии	-9.62332
▁кораб	-9.62341
рно	-9.62417
▁8	-9.62422
▁разбиране	-9.62456
▁Започнах	-9.62524
▁обичам	-9.62758
▁екран	-9.62782
нди	-9.62808
пис	-9.62808
▁изцяло	-9.62831
▁практика	-9.62831
▁английски	-9.62831
▁средства	-9.62878
атор	-9.62987
кор	-9.63022
добрия	-9.63247
их	-9.63476
▁къщи	-9.63481
▁дълбоко	-9.63486
▁стига	-9.63491
чу	-9.63505
далеч	-9.63744
▁Виж	-9.63796
леж	-9.63933
ално	-9.63946
▁задава	-9.6409
▁поглед	-9.64091
▁физически	-9.64136
▁училища	-9.64138
▁истинска	-9.6414
▁покаже	-9.6414
рани	-9.64264
▁Кой	-9.64337
▁спор	-9.64529
▁населението	-9.64536
ъб	-9.6464
пр	-9.64752
▁демокрация	-9.64795
▁оказа	-9.64795
▁прилича	-9.64811
▁песен	-9.64819
▁стар	-9.64936
▁искаш	-9.64969
▁огромен	-9.65126
▁притежава	-9.65126
▁икономически	-9.65127
▁роля	-9.65129
▁колата	-9.65179
▁математика	-9.65237
▁следваща	-9.65353
▁номер	-9.65382
▁супер	-9.65458
▁мечта	-9.65464
▁организира	-9.65478
тични	-9.65497
▁започват	-9.65524
ална	-9.65598
▁метра	-9.65605
▁никакв	-9.65893
▁индустрия	-9.66126
менно	-9.66159
▁всякакв	-9.66176
голям	-9.66219
▁Об	-9.66408
▁кръг	-9.66525
ак	-9.66572
▁публиката	-9.66621
ника	-9.66719
▁храни	-9.6672
▁политически	-9.66798
дите	-9.66834
▁онлай	-9.66945
▁мисле	-9.66963
▁изучава	-9.66999
▁лидери	-9.67104
▁глад	-9.67166
▁бедни	-9.67174
▁местни	-9.67193
▁медии	-9.67203
▁кои	-9.67254
▁наречен	-9.67262
▁негова	-9.67464
▁здравеопазване	-9.67475
▁купува	-9.67533
▁проучвания	-9.67565
▁градове	-9.6781
▁спечели	-9.67815
▁посока	-9.67816
A	-9.6784
▁обект	-9.67859
▁лошо	-9.67872
▁80	-9.67885
▁месец	-9.67935
▁купи	-9.6798
форм	-9.68299
▁Крис	-9.68334
добра	-9.68388
гри	-9.68427
▁употреба	-9.68499
▁стари	-9.68609
▁наука	-9.68612
ъг	-9.68631
▁звезди	-9.68681
ически	-9.68749
▁грижа	-9.68843
▁лекар	-9.68856
▁сгради	-9.68878
ланд	-9.68888
▁изкуството	-9.68935
▁море	-9.68935
▁P	-9.69085
ели	-9.69117
▁Ло	-9.69135
▁болести	-9.69185
ск	-9.69187
▁десет	-9.69226
▁ръцете	-9.69256
▁Там	-9.69293
▁изкуство	-9.6944
▁Ди	-9.69509
▁стандарт	-9.69533
▁държи	-9.69534
▁реч	-9.69536
▁развива	-9.69567
▁последна	-9.6964
▁помогна	-9.69668
годишна	-9.69685
▁Джон	-9.69736
лни	-9.69862
▁Използва	-9.6988
▁граждани	-9.6988
▁състрадание	-9.6988
▁девет	-9.69897
бор	-9.69964
▁проекти	-9.70147
▁едва	-9.70202
▁парите	-9.70236
▁независимо	-9.70265
▁измисли	-9.70292
▁Ч	-9.70302
▁миналат	-9.70371
▁ръце	-9.70508
уд	-9.70571
▁криза	-9.70582
▁представлява	-9.7069
мър	-9.70781
десет	-9.70834
пос	-9.71193
▁продава	-9.71275
▁изпрати	-9.71282
▁Нарича	-9.71282
▁умения	-9.71297
▁отговаря	-9.7132
▁току	-9.71412
▁сили	-9.71457
▁филми	-9.71487
▁съвет	-9.71591
▁момче	-9.71699
▁новини	-9.7182
▁показват	-9.71855
И	-9.71871
▁въздуха	-9.72074
▁ключ	-9.72213
▁важна	-9.72258
▁различна	-9.72268
▁преминава	-9.7227
вече	-9.72312
▁ХИВ	-9.72345
▁семейства	-9.72345
▁съжаление	-9.72345
▁прекарва	-9.72347
▁пък	-9.7239
▁получават	-9.72405
▁страница	-9.72406
му	-9.72429
▁интерес	-9.72674
добро	-9.72694
▁задача	-9.72708
пу	-9.72753
пар	-9.72807
ални	-9.72807
▁разбере	-9.73001
▁сп	-9.73002
▁офис	-9.73066
▁получих	-9.73081
▁виждам	-9.73148
▁ок	-9.73173
▁единствено	-9.73178
▁остава	-9.73257
▁самия	-9.73343
▁новина	-9.73372
▁постигна	-9.73422
▁14	-9.73439
▁Ж	-9.73498
▁премина	-9.73503
ствен	-9.73539
чески	-9.73654
зен	-9.73692
велик	-9.7375
▁софтуер	-9.73782
бри	-9.73834
▁смятам	-9.73879
▁пер	-9.73944
▁наречено	-9.73998
сет	-9.74068
▁стъпка	-9.74146
▁възрастни	-9.74161
обикновен	-9.74302
▁разгледа	-9.74319
ираме	-9.74328
град	-9.74374
ръч	-9.74483
▁Кое	-9.74495
кти	-9.74652
▁деня	-9.74737
Б	-9.74803
сел	-9.74941
▁виждат	-9.74949
ома	-9.74977
▁гори	-9.75062
n	-9.75149
▁магазин	-9.75239
стру	-9.75258
▁увеличава	-9.75344
учат	-9.75438
▁жив	-9.75466
▁биология	-9.75486
чист	-9.7556
▁обръща	-9.75606
▁страст	-9.75654
▁машини	-9.75742
лото	-9.75793
▁реално	-9.76035
▁отворен	-9.7604
▁технологиите	-9.76067
▁Точно	-9.76074
рява	-9.76131
▁опитаме	-9.76253
▁странно	-9.76347
▁граници	-9.76356
▁слага	-9.7641
▁Ки	-9.76412
▁случая	-9.76436
▁единствения	-9.76632
▁американски	-9.76635
▁спаси	-9.76688
▁клас	-9.76696
▁вкъщи	-9.76718
▁измерва	-9.76718
ново	-9.76915
▁студенти	-9.7692
▁вземат	-9.77039
▁увеличи	-9.77091
▁Видео	-9.77091
▁свърши	-9.77091
мент	-9.77106
▁цвет	-9.77369
▁Ръкопляскан	-9.77397
▁момчета	-9.77404
▁Въ	-9.7742
лин	-9.77421
▁говоре	-9.77464
▁организации	-9.77465
▁източник	-9.77465
▁спря	-9.77512
▁върха	-9.7772
род	-9.7773
▁ражда	-9.77861
▁последно	-9.7788
▁съдържа	-9.77888
▁мощ	-9.77911
▁ужасно	-9.77949
ирани	-9.78063
▁уби	-9.78172
u	-9.78193
▁пациенти	-9.78228
▁макар	-9.78247
▁вирус	-9.78584
▁качество	-9.7861
▁отвори	-9.78668
ират	-9.7869
▁работе	-9.78705
▁ръката	-9.7877
▁моля	-9.78824
▁влияние	-9.78978
ична	-9.78983
▁прекара	-9.79062
▁избори	-9.79088
▁M	-9.79198
▁прекалено	-9.79359
▁регион	-9.79359
▁сравнение	-9.79368
рат	-9.79408
▁кора	-9.79415
Т	-9.79508
▁Сан	-9.79517
▁запад	-9.79663
лез	-9.79697
▁чуе	-9.79724
▁общности	-9.79724
▁представе	-9.79743
▁тъкан	-9.79835
пъл	-9.79956
големия	-9.80036
▁погледна	-9.80123
овата	-9.80133
вни	-9.80143
▁едни	-9.8024
▁техния	-9.80242
▁земя	-9.80329
евтин	-9.80384
▁секунда	-9.80522
▁вятър	-9.80535
▁рамки	-9.80547
ключително	-9.80648
рма	-9.80692
r	-9.80694
▁Ю	-9.80732
коп	-9.80752
▁Моят	-9.80782
▁електричество	-9.80901
▁пада	-9.81119
пал	-9.81267
бол	-9.81281
▁основно	-9.8129
▁звучи	-9.81295
▁Знам	-9.81302
▁влезе	-9.81311
▁сутрин	-9.81506
▁услуги	-9.8168
▁създадох	-9.81684
▁болница	-9.81687
вид	-9.81693
▁пъл	-9.81709
▁син	-9.8176
▁стои	-9.81765
чните	-9.81833
ващо	-9.81835
▁био	-9.81851
▁нося	-9.81875
▁производство	-9.81938
▁90	-9.81943
g	-9.82065
ar	-9.82088
▁идеал	-9.82184
▁общи	-9.82551
▁секс	-9.82586
▁втора	-9.8272
ниците	-9.8274
бел	-9.828
ну	-9.82879
▁полза	-9.8288
▁светлината	-9.82909
▁живи	-9.83095
▁съществуват	-9.83126
▁хартия	-9.83258
▁обърна	-9.83263
▁проекта	-9.83274
▁пра	-9.83308
дни	-9.83309
сигурен	-9.83419
рон	-9.83429
▁против	-9.83433
▁справя	-9.8344
▁Исках	-9.83509
▁шанс	-9.83657
▁опитам	-9.83894
▁фокусира	-9.83958
▁ходи	-9.83993
▁Къде	-9.84156
рни	-9.84188
▁гора	-9.84343
▁казано	-9.84435
▁отговорност	-9.8448
▁направ	-9.84496
S	-9.84544
▁Ц	-9.84591
▁личност	-9.84638
▁правех	-9.84783
▁око	-9.84799
жени	-9.84811
▁необходимо	-9.84856
▁инвестира	-9.84862
▁институции	-9.84862
▁секунди	-9.84866
▁създа	-9.84872
▁правителство	-9.84943
▁Я	-9.84958
▁търси	-9.85026
лните	-9.85049
вън	-9.8507
рес	-9.85074
▁текст	-9.85155
уп	-9.8517
▁участва	-9.85258
▁предизвика	-9.85272
▁17	-9.85288
▁късмет	-9.85313
ично	-9.8538
▁Ар	-9.8542
▁разстояние	-9.85673
▁Без	-9.85735
▁човешкия	-9.85928
▁замисли	-9.86077
▁ангажира	-9.86081
▁изненада	-9.86081
▁колеги	-9.86081
▁президент	-9.86083
▁бедност	-9.86098
▁Понякога	-9.86207
▁лоши	-9.86212
много	-9.86248
▁бактерии	-9.86334
▁топ	-9.86405
▁намалява	-9.86406
▁покри	-9.86451
M	-9.86664
▁музиката	-9.86746
тично	-9.86774
лят	-9.86865
▁намали	-9.86917
▁наред	-9.8702
пол	-9.87023
▁учители	-9.87041
▁търсене	-9.87145
▁принцип	-9.87179
нима	-9.87184
▁сериозно	-9.8721
▁T	-9.87239
▁числа	-9.87316
▁снима	-9.87348
вин	-9.8756
рис	-9.87613
▁природа	-9.87636
▁изгражда	-9.87663
▁медицина	-9.87731
▁пълна	-9.87877
▁район	-9.87886
▁открил	-9.87887
▁социална	-9.88136
▁чак	-9.88142
▁обясни	-9.88147
▁грижи	-9.88148
▁отвъд	-9.88149
▁Вече	-9.8815
▁капитал	-9.8828
▁геном	-9.88339
ук	-9.88453
▁камера	-9.88568
▁откъде	-9.88576
▁формира	-9.88788
▁частици	-9.88896
▁истина	-9.88954
▁съдържание	-9.88955
олози	-9.88984
▁ъгъл	-9.88986
▁доверие	-9.88987
▁орган	-9.89009
▁извед	-9.89057
мор	-9.89141
▁зависи	-9.89246
▁отглежда	-9.89394
▁иновации	-9.89408
▁списък	-9.89408
▁мисъл	-9.89469
бот	-9.89518
▁температура	-9.89555
▁опитвам	-9.89601
▁животно	-9.89707
▁трета	-9.89836
бед	-9.89848
▁резултати	-9.89912
уз	-9.89955
гър	-9.89971
▁сложни	-9.89978
▁видят	-9.89993
▁определени	-9.90075
▁прилага	-9.90126
пра	-9.90152
▁неврони	-9.90235
E	-9.90246
▁извършва	-9.90257
▁ген	-9.90417
▁Южн	-9.90463
▁милиард	-9.90574
▁пара	-9.90575
▁500	-9.90733
▁слънчева	-9.90773
▁хе	-9.90778
ология	-9.90825
▁Казва	-9.90866
тер	-9.90897
▁гледат	-9.90997
▁налага	-9.91004
▁религия	-9.91114
▁материя	-9.91114
▁процент	-9.91136
▁причинява	-9.91151
▁Направих	-9.91199
▁Хи	-9.91217
▁очи	-9.9134
▁морал	-9.91531
▁десетилетия	-9.91545
▁движа	-9.91545
▁рисува	-9.91547
глед	-9.91633
▁мир	-9.91713
▁наскоро	-9.91714
▁направени	-9.91752
Е	-9.91812
▁радио	-9.91879
▁учител	-9.91912
▁годишно	-9.91974
▁получат	-9.92033
▁поема	-9.92052
▁запис	-9.92085
▁определен	-9.92096
▁ся	-9.92136
▁включи	-9.92137
▁прост	-9.92148
▁карти	-9.92169
роб	-9.92277
▁момичета	-9.92382
▁четвърт	-9.92435
▁другия	-9.92469
▁награда	-9.9247
▁нива	-9.92527
▁опитват	-9.92531
▁нашият	-9.92616
▁интересни	-9.92652
озна	-9.92707
ари	-9.92761
наче	-9.92849
▁атмосфера	-9.92849
▁действия	-9.92849
▁правителства	-9.92849
▁научни	-9.93059
▁лично	-9.93093
▁невероятни	-9.93108
C	-9.9315
▁парк	-9.93174
▁директор	-9.93288
▁фи	-9.93295
▁24	-9.93309
▁дизайна	-9.93381
▁убива	-9.93418
▁разви	-9.9348
▁квартал	-9.93561
▁Първия	-9.93561
▁органи	-9.93711
▁хубаво	-9.93712
▁разполага	-9.93728
▁превърне	-9.93729
нски	-9.93764
▁лекува	-9.93772
▁закони	-9.93897
▁13	-9.9407
▁дървета	-9.94152
▁ру	-9.94168
▁Афганистан	-9.94171
▁ползва	-9.94175
▁изгради	-9.94176
▁памет	-9.9419
▁успях	-9.9421
ган	-9.94347
▁пазара	-9.94383
Д	-9.94463
▁кр	-9.9449
Н	-9.94496
▁мой	-9.94572
▁Оказва	-9.94615
▁предполага	-9.94622
▁предава	-9.94631
вах	-9.94806
ъх	-9.94825
▁слънце	-9.95062
▁дават	-9.95167
▁автор	-9.95228
▁никакви	-9.95374
близо	-9.95413
▁дейност	-9.95451
▁красота	-9.9551
▁прогрес	-9.9551
▁области	-9.95535
▁градовете	-9.9572
Л	-9.95824
▁възприема	-9.9596
▁пчели	-9.95961
▁разходи	-9.95968
▁глава	-9.95973
▁Нещо	-9.96015
къс	-9.96279
нер	-9.96287
▁общества	-9.96413
▁Всяка	-9.96425
▁научава	-9.96538
▁база	-9.96566
лон	-9.96603
▁медицински	-9.96867
▁Първа	-9.96869
вайки	-9.96919
▁21	-9.96919
▁второ	-9.96997
▁преподава	-9.97027
▁Ос	-9.97029
вал	-9.97085
▁тра	-9.97223
▁невъзможно	-9.97324
ван	-9.97331
тична	-9.97337
▁мост	-9.97367
ърс	-9.97375
▁кога	-9.97458
▁физика	-9.97483
▁основна	-9.97783
▁организми	-9.97784
▁графика	-9.97785
▁планети	-9.97803
▁стена	-9.97816
▁разберете	-9.97828
▁дъно	-9.97836
▁половин	-9.97996
▁Имах	-9.98074
▁остана	-9.98206
▁знаеш	-9.98223
▁работни	-9.98226
▁Лондон	-9.98244
▁кафе	-9.98245
▁плат	-9.98254
овите	-9.98283
ков	-9.98295
▁шум	-9.98349
ъзмож	-9.98483
под	-9.98696
▁борба	-9.98708
▁отваря	-9.98713
▁Под	-9.98729
▁Мак	-9.98755
еш	-9.98819
▁телефони	-9.98869
▁свое	-9.98888
▁човечество	-9.98899
бле	-9.98949
▁сигурно	-9.98977
▁удар	-9.98984
рак	-9.99074
▁Му	-9.99129
▁2000	-9.99147
▁Второ	-9.99186
пор	-9.99199
щото	-9.99224
изма	-9.99241
▁глобална	-9.99247
▁70	-9.99267
▁играта	-9.99383
▁род	-9.99464
▁висока	-9.9959
▁версия	-9.99639
▁дупка	-9.99639
▁заболявания	-9.99639
прост	-9.9967
▁американци	-9.99691
▁видяхме	-9.99721
инаги	-9.9984
▁наричам	-9.99876
▁набор	-9.99889
▁хубав	-9.99937
▁защита	-9.99966
▁мнение	-10.0011
▁истинско	-10.0011
пс	-10.0014
годиш	-10.0014
▁единствена	-10.0017
▁досега	-10.0019
вероятно	-10.0024
▁ами	-10.0028
▁обекти	-10.0036
дро	-10.0046
▁бори	-10.005
▁свързано	-10.0056
▁квадрат	-10.0058
▁молекули	-10.0058
▁пусна	-10.0063
▁станах	-10.0067
▁гледам	-10.0076
▁определено	-10.0096
ьо	-10.0101
▁D	-10.0125
▁чудесно	-10.0132
▁ваше	-10.0137
▁примери	-10.014
▁играя	-10.0142
in	-10.0142
▁детето	-10.0152
▁Гугъл	-10.0153
▁започнали	-10.0156
▁воде	-10.0166
стър	-10.0175
▁моменти	-10.0175
▁средно	-10.0189
ление	-10.02
▁достигне	-10.0201
▁чувствам	-10.0204
Х	-10.0209
рез	-10.0211
▁ефекти	-10.0234
олкова	-10.0237
нати	-10.0248
▁Става	-10.026
тив	-10.026
ален	-10.0271
лния	-10.0273
▁етап	-10.0274
куп	-10.0283
▁Л	-10.0284
тура	-10.0293
▁300	-10.0297
▁газ	-10.0306
въз	-10.0337
▁анализ	-10.0339
▁неговия	-10.0343
▁фотограф	-10.0346
▁подкрепя	-10.0346
▁обществено	-10.0352
▁разум	-10.0354
▁Знаем	-10.0359
▁направено	-10.0368
▁стр	-10.0376
▁невероятна	-10.0386
▁въображение	-10.0395
▁устройства	-10.0395
▁вървя	-10.0399
▁лекари	-10.0403
▁последния	-10.0407
▁герои	-10.0412
▁леко	-10.0424
стите	-10.0425
▁насилие	-10.0428
▁вкус	-10.043
▁проста	-10.0438
▁микро	-10.0443
▁доказателства	-10.0444
▁търся	-10.0444
▁забравя	-10.0444
▁нараства	-10.0445
▁позиция	-10.0447
▁напусна	-10.045
между	-10.0451
▁Помисл	-10.0455
лес	-10.0456
▁Су	-10.0471
▁разгледаме	-10.0472
▁осигурява	-10.0482
▁оста	-10.0491
▁число	-10.0493
▁описва	-10.0493
▁влак	-10.0497
▁улици	-10.0498
▁градус	-10.0499
▁Цел	-10.0505
▁открия	-10.0515
▁могл	-10.0523
▁успява	-10.0541
▁множество	-10.0542
▁добавя	-10.0542
▁премести	-10.0543
ствени	-10.0549
▁чух	-10.055
▁стоя	-10.0553
▁Лу	-10.0564
▁учен	-10.057
al	-10.0587
▁Вероятно	-10.0592
▁зе	-10.0594
▁страхува	-10.0595
▁пиша	-10.0599
▁любими	-10.0603
▁състав	-10.0606
реп	-10.0626
▁появява	-10.0633
▁статия	-10.0643
▁Япон	-10.0647
▁дом	-10.0656
▁улицата	-10.0663
▁метод	-10.0687
▁магнит	-10.0692
▁изкуствен	-10.0692
▁разпространява	-10.0693
▁почва	-10.0707
▁партньор	-10.071
▁служители	-10.0729
▁прав	-10.0735
▁генерира	-10.0743
▁свърже	-10.0743
▁птици	-10.0743
▁структури	-10.0743
▁стаята	-10.0749
▁Пар	-10.0758
▁лети	-10.076
▁черни	-10.0767
▁желание	-10.0782
▁поток	-10.0785
▁честно	-10.0788
▁Слънцето	-10.0794
▁мозъци	-10.0794
▁повярва	-10.0794
▁усилия	-10.0794
▁сфера	-10.0797
▁попитах	-10.0799
▁разнообразие	-10.0802
P	-10.0808
▁страда	-10.0814
ческа	-10.0817
▁население	-10.0834
▁лекарство	-10.0834
▁уче	-10.084
▁Между	-10.0845
▁събере	-10.0845
▁минута	-10.0845
▁Изглежда	-10.0847
изация	-10.0855
▁чувстват	-10.0855
Ф	-10.0859
▁отиват	-10.0861
▁чували	-10.0868
ктор	-10.0871
▁вероятност	-10.0876
▁обясня	-10.0881
▁луд	-10.0887
▁достигна	-10.0896
▁световна	-10.0896
▁образува	-10.0904
▁истината	-10.0908
▁Запад	-10.0909
▁общността	-10.091
малки	-10.0913
▁наричат	-10.0929
ичен	-10.093
▁Сп	-10.0932
▁защитава	-10.0932
▁пръст	-10.0932
▁известна	-10.0933
▁цвят	-10.0948
▁липса	-10.0948
▁Идея	-10.0949
доброто	-10.0956
▁I	-10.0958
▁умират	-10.0966
▁бели	-10.0968
▁вярват	-10.0977
▁определя	-10.098
общ	-10.0981
▁филма	-10.0983
▁дъщеря	-10.0999
▁достига	-10.0999
кси	-10.101
стар	-10.1011
▁космоса	-10.1018
накрая	-10.1018
▁въздух	-10.1039
▁двигател	-10.1051
▁реагира	-10.1051
▁тръгна	-10.1051
творен	-10.1053
▁животните	-10.1056
▁роди	-10.1061
▁Бу	-10.1062
▁спра	-10.1064
▁войни	-10.1067
ес	-10.1074
▁образи	-10.1079
▁Обичам	-10.1083
зад	-10.1087
▁чудес	-10.109
▁собствен	-10.1095
▁притеснява	-10.1104
▁морски	-10.1105
▁лек	-10.1108
▁надява	-10.1109
▁отделя	-10.1112
▁средство	-10.1112
▁лято	-10.1123
▁кое	-10.1126
ветът	-10.113
силен	-10.1134
ьор	-10.1136
▁движе	-10.114
▁знание	-10.1145
▁грешки	-10.1156
▁разговори	-10.1162
▁негови	-10.1166
▁обяснява	-10.1172
▁отгоре	-10.1207
▁пейзаж	-10.1209
▁Надявам	-10.1209
▁отнема	-10.121
▁Първото	-10.1214
▁ценности	-10.1218
▁елементи	-10.1223
▁сектор	-10.123
здрав	-10.1233
▁континент	-10.1262
▁върши	-10.1263
▁черна	-10.127
▁важен	-10.1273
зия	-10.1281
богат	-10.1285
кол	-10.1289
▁характер	-10.1292
▁стара	-10.1296
▁Гор	-10.1301
▁щастливи	-10.1301
ясно	-10.1311
▁Проблем	-10.1316
▁повтаря	-10.1316
▁граница	-10.1316
▁съобщение	-10.1316
▁стартира	-10.1318
▁събират	-10.1318
▁нейна	-10.132
▁оценява	-10.1324
on	-10.1337
виж	-10.1337
▁сигнал	-10.1338
▁нужни	-10.1359
▁действително	-10.1365
▁сътрудничество	-10.137
▁инфраструктура	-10.137
вия	-10.1372
▁времена	-10.1377
▁виж	-10.1377
▁студент	-10.1386
▁взех	-10.1401
▁свързан	-10.1408
▁проби	-10.1413
▁компютъра	-10.1414
▁Осв	-10.1416
▁зло	-10.1417
▁липсва	-10.1424
▁нерв	-10.1424
падне	-10.1431
▁Со	-10.145
▁публика	-10.1452
▁лични	-10.1462
джи	-10.1468
рд	-10.1477
▁Калифорния	-10.1478
▁СПИН	-10.1478
▁твоя	-10.1479
▁избере	-10.1479
▁вяра	-10.1486
▁доктор	-10.1488
глежда	-10.1492
▁запозна	-10.1498
▁анти	-10.1498
▁направена	-10.15
▁дълбок	-10.1504
▁предложи	-10.1504
▁тества	-10.1505
жив	-10.151
▁обез	-10.1514
▁елемент	-10.1519
▁полет	-10.1522
T	-10.1526
ивно	-10.1531
▁успее	-10.1533
▁подкрепа	-10.1533
▁расте	-10.1533
▁световни	-10.1533
временно	-10.154
▁собствено	-10.1551
кро	-10.1554
▁резултатите	-10.1578
▁тяхно	-10.1578
умен	-10.1585
▁разчита	-10.1589
▁поиска	-10.1593
дер	-10.161
▁река	-10.1613
▁метал	-10.1619
▁Кон	-10.1638
креп	-10.1641
▁дух	-10.1643
oogle	-10.1643
▁термин	-10.1643
▁убеди	-10.1643
▁противо	-10.1643
▁фирма	-10.1644
▁бавно	-10.1649
▁лица	-10.165
▁E	-10.1666
▁сутринта	-10.1668
▁пациентите	-10.1676
▁следващо	-10.1695
режда	-10.1696
▁експерименти	-10.1697
▁оръжия	-10.1699
▁събитие	-10.1699
▁курс	-10.1699
▁военни	-10.17
▁ску	-10.1702
▁разделя	-10.1703
▁умре	-10.1711
къде	-10.1716
▁тор	-10.1719
▁Мисли	-10.1722
▁дадох	-10.1725
печат	-10.1727
▁широко	-10.1729
щия	-10.173
▁търсим	-10.1732
▁райони	-10.1734
▁ума	-10.1734
ваща	-10.1736
су	-10.1738
▁произвеждат	-10.1738
слаб	-10.1744
важни	-10.1744
▁Започва	-10.1754
▁Публика	-10.1754
▁верига	-10.1755
▁лагер	-10.1755
▁тела	-10.1758
▁напредък	-10.1762
▁правил	-10.1765
▁др	-10.1778
▁удари	-10.1779
▁150	-10.1788
▁работници	-10.1794
▁улов	-10.181
▁отношения	-10.1811
▁дългосроч	-10.1811
▁запази	-10.1811
▁Втора	-10.1814
▁показах	-10.1818
▁разпространение	-10.1837
ъчн	-10.184
▁красиви	-10.1853
▁създал	-10.1853
▁Ге	-10.1866
▁конференция	-10.1867
▁разпознава	-10.1867
▁изпитва	-10.1867
▁готов	-10.1881
▁заема	-10.1881
▁пътища	-10.1892
▁пик	-10.1905
▁вселената	-10.1906
▁кислород	-10.1924
▁полу	-10.1924
▁ходя	-10.1924
▁създадат	-10.1924
▁кал	-10.1925
чва	-10.1931
▁нужди	-10.1931
▁зле	-10.1934
рус	-10.1935
▁покрива	-10.1941
▁Северна	-10.1942
▁помагат	-10.1948
▁мобилни	-10.1952
вр	-10.1958
▁помогнат	-10.1959
▁часове	-10.196
▁готови	-10.1961
en	-10.1961
▁красива	-10.1966
▁разбират	-10.1974
▁механиз	-10.1975
▁благодарен	-10.1981
▁електрически	-10.1981
▁положение	-10.1981
▁приблизителн	-10.1981
▁повлия	-10.1981
▁говорих	-10.1984
горе	-10.1987
▁диша	-10.1989
▁бебета	-10.199
▁опити	-10.2
▁технологич	-10.2003
▁велики	-10.2013
▁Пол	-10.2038
▁общува	-10.2039
тичен	-10.2041
▁Три	-10.2044
▁Ирак	-10.2047
кет	-10.2052
▁Живот	-10.2053
зов	-10.2066
▁Тре	-10.2068
▁прекрасно	-10.2069
кал	-10.2083
▁север	-10.2086
▁лов	-10.2092
▁Опитва	-10.2096
▁невидим	-10.2096
▁тъмна	-10.2097
▁радва	-10.2097
▁парти	-10.2098
има	-10.2101
▁едновременно	-10.2105
▁градина	-10.2106
▁високи	-10.2118
▁електро	-10.2126
▁дизайнери	-10.2128
▁400	-10.2129
▁намират	-10.2134
▁свой	-10.2142
▁откритие	-10.2143
▁глобални	-10.2145
▁грешка	-10.2154
▁навлиза	-10.2154
▁загуба	-10.2155
▁построен	-10.2157
▁срещнах	-10.2158
▁виждал	-10.2161
раб	-10.2161
▁Хе	-10.2161
▁професионал	-10.2173
▁комп	-10.2186
▁движения	-10.2188
▁нормално	-10.2188
вес	-10.219
ствено	-10.2196
▁обща	-10.2197
▁Въпрос	-10.2213
▁напомня	-10.2213
▁шоу	-10.2213
▁списание	-10.2213
▁стрес	-10.2215
рей	-10.2215
▁хранителни	-10.2215
▁юж	-10.2223
▁научна	-10.2228
вик	-10.2229
какъв	-10.2248
ори	-10.2258
чния	-10.2262
▁Пред	-10.2265
▁култури	-10.2274
▁контекст	-10.2277
▁операция	-10.2278
▁споделят	-10.2281
лън	-10.2293
анти	-10.2294
▁носе	-10.2296
ука	-10.2303
ведох	-10.2303
▁милиарди	-10.231
▁пазари	-10.2314
▁Наш	-10.2318
▁предмет	-10.2319
▁културата	-10.2325
▁кост	-10.2325
▁нула	-10.2332
▁експерти	-10.2343
▁Джи	-10.2347
▁продължа	-10.2352
ком	-10.2357
▁роден	-10.2357
▁прие	-10.2358
У	-10.2359
▁човекът	-10.2362
▁Със	-10.2373
▁плува	-10.2375
▁ученици	-10.2375
▁Последн	-10.2376
▁бизнеса	-10.2382
▁работех	-10.2384
▁специално	-10.2385
сък	-10.2385
▁Каква	-10.2388
▁открития	-10.2389
▁десетилетие	-10.239
▁еволюира	-10.239
▁Говори	-10.239
▁малария	-10.239
▁Гледа	-10.239
▁радост	-10.239
▁добави	-10.2391
▁жълт	-10.2391
▁смъртност	-10.2399
▁внимателно	-10.2401
▁Други	-10.2408
▁бог	-10.2413
▁разширява	-10.2414
▁транспорт	-10.2415
▁народ	-10.2425
▁Бра	-10.2427
an	-10.2428
след	-10.2431
къл	-10.2437
могло	-10.244
стин	-10.2446
шки	-10.2448
▁хвърля	-10.245
▁изпита	-10.2454
▁разп	-10.2455
▁балон	-10.246
▁млад	-10.2463
рай	-10.2468
▁приеме	-10.2468
▁известни	-10.2469
▁колони	-10.2473
кос	-10.2474
▁социално	-10.2479
▁разказа	-10.2492
▁сложност	-10.2493
▁мравки	-10.2511
▁небето	-10.2513
▁километра	-10.2514
▁зона	-10.2525
дей	-10.253
▁сестра	-10.2532
мисли	-10.2537
пон	-10.254
▁остане	-10.2543
лност	-10.2544
▁сложна	-10.2547
▁пусне	-10.2548
интерес	-10.2565
▁цветове	-10.2566
▁Мар	-10.2566
▁риби	-10.2567
▁спорт	-10.2567
кър	-10.2567
▁изображение	-10.2571
▁емоции	-10.2571
▁разбирам	-10.2583
▁правило	-10.259
▁пълно	-10.2594
▁подоб	-10.2595
нове	-10.2597
▁Ча	-10.26
▁дълга	-10.2624
често	-10.2628
▁катастрофа	-10.2632
▁страхотна	-10.2632
▁Ор	-10.2636
▁вълни	-10.2641
▁стори	-10.2647
▁забележите	-10.2651
▁Какъв	-10.2656
▁разкри	-10.2657
▁цени	-10.2657
▁произведе	-10.2661
▁кожата	-10.2662
писва	-10.2668
▁класа	-10.2668
ещи	-10.2684
ческо	-10.2687
▁Щати	-10.2693
▁погрешно	-10.2693
▁предоставя	-10.2693
▁тенденция	-10.2693
вет	-10.2697
ура	-10.27
▁Хей	-10.2715
▁естествено	-10.272
▁изчезва	-10.2742
▁Във	-10.2752
▁доказателство	-10.2755
▁Взем	-10.2756
▁микроби	-10.2763
▁справят	-10.2769
▁остров	-10.2772
▁красиво	-10.2785
▁Ган	-10.2785
вява	-10.2794
▁гласува	-10.2798
▁спомена	-10.2804
▁тон	-10.2808
▁негово	-10.281
▁откриване	-10.2811
▁ТЕД	-10.2817
▁предизвиква	-10.2817
▁отпадъци	-10.2817
▁тумор	-10.2817
▁танцува	-10.2822
кции	-10.2822
▁майки	-10.2832
▁сградата	-10.2839
▁мол	-10.284
▁Сам	-10.2842
▁сигнали	-10.2855
▁доклад	-10.2858
▁колеж	-10.286
▁богати	-10.2861
▁Сред	-10.2864
▁тр	-10.2867
▁ход	-10.2876
,000	-10.288
▁герой	-10.288
▁провежда	-10.288
▁проследява	-10.288
▁течение	-10.288
▁моли	-10.2883
▁Бар	-10.2889
▁страници	-10.2891
▁силни	-10.2893
▁Мъж	-10.2894
▁обществени	-10.2908
▁умира	-10.2912
▁останала	-10.2915
▁танц	-10.2916
▁обичат	-10.2933
▁Друго	-10.2941
▁конкрет	-10.2942
▁наблюдение	-10.2943
▁Ху	-10.2943
▁Причина	-10.2945
лер	-10.2945
▁сестри	-10.2949
▁изпълнява	-10.295
както	-10.295
▁невероят	-10.2953
▁бебе	-10.2956
▁скъп	-10.2967
▁започнал	-10.297
▁дъжд	-10.2974
▁свързана	-10.298
▁качи	-10.2981
год	-10.2993
▁умни	-10.2997
▁Ей	-10.2998
▁Ай	-10.2998
пър	-10.3006
▁събития	-10.3006
▁реакция	-10.3006
▁обърне	-10.3006
▁трилион	-10.3007
▁транс	-10.3007
▁урок	-10.3008
▁действат	-10.3014
▁имейл	-10.3017
гер	-10.3028
▁обикновени	-10.3041
▁Ан	-10.305
▁алтернатив	-10.307
▁перспектива	-10.307
▁ресторант	-10.307
▁наркотици	-10.307
▁стъпки	-10.307
▁можах	-10.307
▁докосва	-10.3071
▁завърша	-10.3071
нови	-10.3099
▁нямам	-10.3103
▁базиран	-10.3117
▁преживява	-10.3117
▁Кра	-10.3118
▁съществуване	-10.3123
устойчив	-10.3123
дис	-10.3126
▁дълги	-10.3129
вана	-10.3129
▁удоволствие	-10.3134
▁дойдох	-10.3134
▁банка	-10.3134
▁страхотни	-10.3135
▁клип	-10.3135
▁35	-10.3136
▁патент	-10.3136
▁изразява	-10.3155
▁десетки	-10.3155
▁клиенти	-10.3166
▁тегло	-10.3171
▁инженери	-10.3178
ръст	-10.3182
▁болка	-10.3193
цел	-10.3194
▁подобри	-10.3197
▁измисля	-10.3198
▁комуникация	-10.3198
▁дълъг	-10.3198
▁дву	-10.3199
▁водя	-10.32
▁месо	-10.3202
,5	-10.3203
▁км	-10.3206
вания	-10.3209
ора	-10.3218
▁скала	-10.3224
▁май	-10.3228
▁останало	-10.3233
▁национал	-10.3246
▁засне	-10.3251
▁програмира	-10.3261
кан	-10.3262
▁приключи	-10.3263
▁свидетел	-10.3263
▁септември	-10.3263
▁Отидох	-10.3263
▁отразява	-10.3263
▁заболяване	-10.3263
▁стълб	-10.3263
▁цикъл	-10.3263
▁Човек	-10.3263
▁директно	-10.3263
▁брег	-10.3264
▁контакт	-10.3264
▁иновация	-10.3264
▁знак	-10.3265
▁идентичност	-10.3267
▁Дейви	-10.327
▁тича	-10.328
▁брат	-10.3283
l	-10.3299
▁сигурни	-10.3303
▁планира	-10.3318
▁изгуби	-10.3329
▁предпочита	-10.3329
▁Каза	-10.333
▁градски	-10.3337
ления	-10.3366
▁легло	-10.3367
▁открито	-10.3368
▁вратата	-10.3371
▁ограничен	-10.3378
дин	-10.3384
▁видял	-10.3387
▁политическа	-10.3394
▁заслужава	-10.3394
▁хареса	-10.3394
▁премине	-10.3395
▁кръст	-10.3397
▁серия	-10.3402
▁Свет	-10.3409
▁преживявания	-10.3419
▁Пет	-10.3445
▁строител	-10.3445
▁инженер	-10.3445
▁глобално	-10.3451
▁домове	-10.3458
▁мед	-10.3459
▁височина	-10.3461
▁определи	-10.3461
▁цивилизация	-10.3461
ционни	-10.3463
▁израз	-10.3463
▁седя	-10.3474
▁студентите	-10.3481
▁започнат	-10.3491
▁случайно	-10.3494
▁звезда	-10.3503
▁уста	-10.3508
▁трев	-10.3513
▁модер	-10.3518
вели	-10.3519
овод	-10.3522
▁върнах	-10.3522
▁обучава	-10.3527
▁прототип	-10.3527
▁съюз	-10.3527
▁установи	-10.3528
ела	-10.3528
▁сканира	-10.3529
▁чиста	-10.3533
▁предмети	-10.3534
▁приложение	-10.3534
ядат	-10.354
дълго	-10.3545
▁забавно	-10.3575
▁стил	-10.3577
▁електрон	-10.358
▁кит	-10.3582
▁функция	-10.3594
▁интелектуал	-10.3594
▁слайд	-10.3594
▁1000	-10.3599
▁Лос	-10.36
▁гориво	-10.3602
▁феномен	-10.3604
рън	-10.3605
тогава	-10.361
▁втори	-10.3631
▁станал	-10.3643
▁трудни	-10.3652
▁конфликт	-10.3653
кова	-10.3654
▁отделни	-10.3656
▁опасност	-10.3659
вят	-10.3661
▁жизнен	-10.3661
▁Айнщайн	-10.3662
▁повишава	-10.3662
▁придвижва	-10.3662
▁сподели	-10.3662
▁обажда	-10.3662
опасни	-10.3662
▁богатство	-10.3663
▁Чарл	-10.3664
▁сайт	-10.3676
▁мишка	-10.368
▁зелени	-10.3682
▁живо	-10.3692
▁втория	-10.3694
▁Следващ	-10.3697
▁трети	-10.3705
▁Хар	-10.3718
▁пле	-10.3719
▁символ	-10.3721
▁съсед	-10.3727
▁Великобритания	-10.373
▁мисия	-10.3738
▁синтез	-10.3742
▁сателит	-10.3742
вежд	-10.3749
▁позволя	-10.3761
лоши	-10.3762
▁определена	-10.378
▁използвани	-10.3782
вис	-10.3794
ранен	-10.3795
▁разработи	-10.3798
▁свободно	-10.3798
▁икономическа	-10.3799
▁вълнуващо	-10.3802
▁мод	-10.3819
or	-10.3821
▁Иран	-10.3833
▁автомобил	-10.3839
▁кажеш	-10.3839
▁дизайнер	-10.3861
▁насекоми	-10.3867
▁хляб	-10.3867
▁губи	-10.3868
▁синьо	-10.3868
▁оглед	-10.3872
овия	-10.3876
▁блок	-10.388
▁почувства	-10.3885
▁Погледнет	-10.3886
▁лоша	-10.3886
▁гео	-10.3893
▁средна	-10.3903
▁правене	-10.3913
▁чужд	-10.3924
▁тестове	-10.3932
душ	-10.3932
ствие	-10.3934
▁Вашингтон	-10.3937
▁галактики	-10.3937
▁прозорец	-10.3937
▁универсал	-10.3937
▁взрив	-10.3937
▁сложен	-10.3939
▁топка	-10.3943
▁зъби	-10.3945
лесно	-10.3946
▁атом	-10.3953
▁изчезна	-10.3962
▁съгласи	-10.3967
лей	-10.3978
▁водо	-10.398
▁20-	-10.3989
▁предполагам	-10.4006
▁Очевидно	-10.4007
▁институт	-10.4007
▁перфект	-10.4007
▁хиляда	-10.4007
▁послание	-10.4007
▁съобщения	-10.4007
▁Мексик	-10.4007
▁странни	-10.4007
роден	-10.4008
▁твърди	-10.401
▁последва	-10.4016
it	-10.4021
▁клон	-10.4032
50	-10.4039
▁нации	-10.4042
▁открит	-10.4043
▁намираме	-10.4051
▁горд	-10.4073
▁депресия	-10.4077
▁кампания	-10.4077
▁Видях	-10.4077
▁Интересно	-10.4077
▁срещне	-10.4077
▁глави	-10.4078
▁необходими	-10.4078
▁епоха	-10.408
▁писа	-10.408
▁проучва	-10.4089
▁хвана	-10.4092
▁баба	-10.4092
▁Прави	-10.41
▁мам	-10.4102
▁пуска	-10.4102
▁способни	-10.4103
даде	-10.4106
▁образова	-10.4118
ваха	-10.4119
▁летя	-10.4123
▁разрешава	-10.4141
▁професор	-10.4148
▁емисии	-10.4148
▁гърба	-10.4148
▁радикал	-10.4148
▁гледах	-10.4157
▁диск	-10.4176
▁Чи	-10.4185
▁лекция	-10.4189
▁кратко	-10.4189
уб	-10.419
▁пие	-10.4192
шъл	-10.4204
▁затвори	-10.4207
▁способности	-10.4211
▁фонд	-10.4215
▁Господ	-10.422
▁обикаля	-10.422
▁привлича	-10.422
▁политици	-10.422
▁уеб	-10.422
▁дебат	-10.4226
▁съвременни	-10.4227
следствие	-10.4228
▁Сед	-10.4232
▁изчисления	-10.4233
▁записва	-10.4234
▁Отговор	-10.4243
▁картини	-10.4243
тих	-10.4251
▁процеси	-10.4256
▁силна	-10.4258
▁членове	-10.4263
изацията	-10.4263
▁парчета	-10.4265
▁лидер	-10.427
▁Уол	-10.4275
вани	-10.4278
▁Тай	-10.4286
ряд	-10.4288
▁дупки	-10.4292
▁преследва	-10.4292
▁извади	-10.4292
▁чисто	-10.4293
▁детска	-10.4296
мир	-10.4298
▁зададе	-10.4303
пиша	-10.4303
▁лист	-10.4326
▁дроб	-10.4336
▁Пра	-10.4337
цеп	-10.4337
▁естествена	-10.4337
правителствен	-10.4355
▁призна	-10.4355
▁смятат	-10.4356
▁описа	-10.4356
▁здрав	-10.4362
▁изображения	-10.4364
▁произход	-10.4365
▁магия	-10.4366
▁грип	-10.4367
▁традиционни	-10.4368
▁значително	-10.4369
▁бар	-10.437
▁посети	-10.4373
▁мислиш	-10.4377
▁безопасност	-10.4379
▁Моля	-10.438
▁отвърна	-10.4381
▁собствения	-10.4383
▁отдел	-10.4392
▁активира	-10.4403
▁насам	-10.442
▁преглед	-10.4424
▁изкуства	-10.4437
▁скелет	-10.4437
▁камион	-10.4437
▁работна	-10.4437
▁изложен	-10.4438
▁рамка	-10.4442
годишни	-10.4442
▁глобал	-10.4445
▁сума	-10.4449
▁интересна	-10.4451
▁причините	-10.4472
ическа	-10.4477
дадох	-10.448
кратко	-10.4483
▁пълни	-10.4485
▁провал	-10.4486
▁типич	-10.4488
▁изумител	-10.4497
▁социал	-10.4509
▁триизмер	-10.4511
▁боклук	-10.4511
▁гимназия	-10.4511
▁звуци	-10.4511
▁компонент	-10.4511
▁фирми	-10.4511
▁дрехи	-10.4511
▁червено	-10.4511
▁трето	-10.4512
ляво	-10.452
▁позволяват	-10.4523
▁пръсти	-10.4529
▁преход	-10.4532
▁събиране	-10.4534
▁сблъсква	-10.4537
▁проведе	-10.4545
▁уред	-10.4548
es	-10.4549
▁излъчва	-10.4554
ou	-10.4555
▁канал	-10.4555
лошо	-10.4557
гар	-10.4558
▁бива	-10.457
▁разби	-10.4583
▁жертви	-10.4585
▁извлича	-10.4585
▁концепция	-10.4585
▁страхотен	-10.4585
▁осигури	-10.4585
трудно	-10.4586
ийски	-10.4594
▁зони	-10.4594
▁имена	-10.4595
▁заключение	-10.4598
▁сол	-10.4599
▁гей	-10.4607
▁спасява	-10.461
▁реал	-10.4617
▁срещна	-10.4627
▁нефт	-10.4631
хими	-10.4631
ирана	-10.4639
жни	-10.464
▁карат	-10.4651
▁Мислех	-10.4651
▁финансира	-10.4658
▁резерв	-10.4659
▁Германия	-10.4659
▁епидемия	-10.4659
▁изхвърля	-10.4659
▁колектив	-10.4659
▁стволови	-10.4659
▁ислям	-10.4659
▁зависимост	-10.466
▁раздели	-10.466
ъобще	-10.4665
▁функционира	-10.4666
▁вдъхновява	-10.4673
познат	-10.4675
греб	-10.468
▁Джордж	-10.4684
▁задържа	-10.47
▁индивиди	-10.4701
▁строи	-10.4707
▁търсе	-10.4711
нда	-10.4711
▁полиция	-10.4727
▁ниско	-10.4732
▁Ричард	-10.4734
▁забелязва	-10.4734
▁измерения	-10.4734
▁комуникира	-10.4734
▁търговия	-10.4734
здравослов	-10.4734
▁армия	-10.4735
▁Работ	-10.4735
▁седна	-10.4735
▁песни	-10.4736
▁кадър	-10.4741
▁равно	-10.4743
▁раста	-10.4747
▁захар	-10.4748
удобно	-10.4755
▁Фор	-10.4764
оми	-10.4765
▁ръковод	-10.4769
▁откъс	-10.477
▁въведе	-10.4773
▁активност	-10.4792
ърд	-10.48
▁плати	-10.4804
▁фермери	-10.4807
▁Обикновен	-10.481
▁последствия	-10.481
▁Ведн	-10.481
▁зрение	-10.481
▁събера	-10.481
▁младеж	-10.4811
▁задачи	-10.4812
▁Открих	-10.4814
▁мотор	-10.4815
▁душа	-10.4818
работва	-10.4824
▁подред	-10.4825
▁компютърна	-10.4835
▁ядрена	-10.484
▁факти	-10.4842
йски	-10.4855
ефективни	-10.4856
▁получа	-10.4861
▁глобалното	-10.4869
▁войници	-10.4874
▁тък	-10.4874
▁ограничения	-10.4875
▁възстанови	-10.4887
▁молекула	-10.4887
евр	-10.4889
порт	-10.489
▁изключение	-10.489
▁тайна	-10.4892
▁Деца	-10.4892
▁здрави	-10.4893
▁разкрива	-10.4895
▁ранни	-10.49
▁мъжки	-10.491
▁оцеляване	-10.4913
▁45	-10.4914
▁битка	-10.4917
▁дъ	-10.4936
▁спомня	-10.4937
▁прекарах	-10.4949
▁галактика	-10.4963
▁кандидат	-10.4963
▁фабрика	-10.4963
▁заплаха	-10.4963
▁пристигна	-10.4963
▁платформа	-10.4963
▁поставен	-10.4963
гия	-10.4964
▁режим	-10.4964
▁камери	-10.4964
виц	-10.4967
ведн	-10.4978
▁накъде	-10.4993
ейки	-10.4995
▁настроен	-10.5004
бай	-10.5014
▁невро	-10.5017
▁уча	-10.5024
▁станало	-10.504
▁шофьор	-10.5041
▁еволюцион	-10.5041
▁жертва	-10.5041
▁присъства	-10.5041
▁автобус	-10.5041
▁засяга	-10.5041
▁интелигентност	-10.5041
▁нарисува	-10.5041
▁забрави	-10.5042
▁обяд	-10.5043
▁сложно	-10.5047
▁обяснение	-10.5048
▁цитат	-10.5049
▁спомени	-10.5051
▁празни	-10.5052
▁анализира	-10.5052
▁Какви	-10.5053
▁решим	-10.5054
▁специални	-10.5065
▁Бен	-10.5075
▁хирург	-10.5078
▁древ	-10.5083
▁75	-10.5087
шат	-10.5092
▁посред	-10.5095
▁океаните	-10.5101
▁търсенето	-10.5109
сон	-10.5115
▁бюджет	-10.5119
▁взаимодействие	-10.5119
▁корупция	-10.5119
▁опашка	-10.5119
▁издига	-10.5119
▁космически	-10.5119
▁загрижен	-10.512
▁стигнах	-10.5122
▁пас	-10.5123
▁Ес	-10.5124
▁Боже	-10.5127
личен	-10.5129
▁изграждане	-10.5132
дясно	-10.5138
▁гласове	-10.5146
зависим	-10.515
▁виждаш	-10.515
▁питат	-10.5157
▁акт	-10.5165
▁Стр	-10.5173
▁представят	-10.5176
бес	-10.519
▁годишни	-10.5192
▁реклами	-10.5198
▁предположи	-10.5198
▁Световна	-10.5198
▁мечти	-10.5198
▁прекрасни	-10.5198
▁Що	-10.5199
▁копира	-10.5202
▁0	-10.5203
ху	-10.5216
▁излизат	-10.5217
▁залата	-10.5218
▁документи	-10.522
▁баланс	-10.5224
▁принципи	-10.5224
▁безплатно	-10.5225
▁кар	-10.5228
▁растение	-10.5237
▁долари	-10.5243
В	-10.5243
ващ	-10.5244
държа	-10.5259
▁лична	-10.527
▁Бразилия	-10.5277
▁идентифицира	-10.5277
▁математически	-10.5277
▁площ	-10.5277
▁стратегия	-10.5277
▁оригинал	-10.5277
▁участие	-10.5277
▁бяга	-10.5277
▁отдавна	-10.5277
▁60-	-10.5284
▁Гу	-10.5289
▁Канад	-10.529
▁фокус	-10.5297
▁Джей	-10.5301
▁построя	-10.5304
▁изправи	-10.5306
бъл	-10.5309
▁Ру	-10.5316
ански	-10.5317
▁ляво	-10.5324
▁Ок	-10.5331
▁техника	-10.5332
▁написах	-10.5334
▁настоящ	-10.5343
▁благо	-10.5345
▁вселена	-10.5349
▁адвокат	-10.5357
▁капацитет	-10.5357
▁противоречи	-10.5357
▁пътешествие	-10.5357
▁Израел	-10.5357
▁рядко	-10.5357
▁Друг	-10.5358
▁допълнител	-10.536
кус	-10.536
▁изследователи	-10.5366
▁Почт	-10.5366
несох	-10.5367
▁долар	-10.5378
▁вълна	-10.538
▁науки	-10.5384
▁специал	-10.5388
игур	-10.5397
▁архитектурата	-10.5402
▁обратна	-10.5403
▁изпълнен	-10.5408
▁пораз	-10.5408
ъци	-10.5411
▁опитвах	-10.5412
▁интересен	-10.5416
нце	-10.5428
▁избяга	-10.5438
▁интегрира	-10.5438
▁пустиня	-10.5438
▁трафик	-10.5438
▁знания	-10.5438
▁сложа	-10.5439
▁виртуал	-10.5439
▁двор	-10.5442
▁Накра	-10.5444
▁пространства	-10.5445
▁наречени	-10.5452
▁Гре	-10.5453
▁поставим	-10.5454
▁представяне	-10.5456
▁третира	-10.5457
▁блог	-10.548
▁праз	-10.5483
▁познание	-10.549
▁прекрасна	-10.5494
▁вечеря	-10.5496
▁арт	-10.5498
▁индивидуал	-10.5512
▁възстановяване	-10.5512
▁интерфейс	-10.5519
▁обсъжда	-10.5519
▁цифри	-10.5519
▁хакер	-10.5519
деля	-10.5522
▁Доста	-10.5522
▁червени	-10.5529
▁реалния	-10.5534
ch	-10.5534
▁Тайм	-10.5536
▁помни	-10.554
▁пренася	-10.5544
верен	-10.5547
▁наши	-10.5554
▁собственост	-10.5565
▁Май	-10.5576
▁прекрас	-10.5584
▁непознати	-10.559
▁съвършен	-10.5597
▁Ту	-10.5599
▁Спомня	-10.5601
▁адаптира	-10.5601
▁източници	-10.5601
▁инвестиции	-10.5601
▁лаптоп	-10.5601
▁трансформира	-10.5601
▁изолира	-10.5602
▁команд	-10.5602
▁мулти	-10.5602
▁обади	-10.5602
▁шок	-10.5602
▁непознат	-10.5603
▁женски	-10.5605
високо	-10.5605
▁кър	-10.5607
▁твърдя	-10.561
▁облак	-10.5612
▁врата	-10.5613
▁изпълнител	-10.5613
чество	-10.5615
▁Работи	-10.5619
▁широк	-10.5625
два	-10.5629
▁направен	-10.5634
▁юг	-10.5637
▁помоли	-10.5638
▁чувствах	-10.5639
▁ефективно	-10.5644
▁Рей	-10.5651
▁постига	-10.567
▁международни	-10.5673
▁Стар	-10.5678
▁журналисти	-10.5684
▁аплодисменти	-10.5684
▁поколения	-10.5684
▁насочва	-10.5684
▁тръгва	-10.5684
▁окаже	-10.5684
▁Реших	-10.5684
ционна	-10.5684
▁99	-10.5686
▁технически	-10.5688
▁качва	-10.5688
▁възможни	-10.5689
▁лош	-10.5689
▁събрах	-10.5689
▁различия	-10.5695
▁момичетата	-10.5698
▁постоян	-10.5709
▁Майка	-10.5721
▁аспект	-10.5732
▁изправени	-10.5739
единствен	-10.5739
бързи	-10.5741
дън	-10.5742
▁приближава	-10.5742
▁детайли	-10.5743
време	-10.5744
актив	-10.5754
изненадващо	-10.5758
▁крал	-10.576
▁ООН	-10.5767
▁комбинира	-10.5767
▁консумира	-10.5767
▁обувки	-10.5767
▁утре	-10.5768
▁прочете	-10.5768
▁Нигери	-10.5769
▁разговаря	-10.5772
▁създадени	-10.5776
▁планини	-10.5778
▁прасе	-10.5778
▁дейности	-10.5779
тиката	-10.5786
популяр	-10.579
▁природни	-10.5794
▁Пер	-10.58
▁развълнуван	-10.5802
▁развиващи	-10.5805
▁Вярвам	-10.5806
служ	-10.5815
звикателството	-10.582
▁написал	-10.5838
▁приложим	-10.5846
▁допълнителни	-10.5849
▁присъедини	-10.5851
▁вещества	-10.5851
▁маймуни	-10.5851
▁Малко	-10.5851
▁мъдрост	-10.5851
▁Франциско	-10.5853
▁брак	-10.5858
▁съпруга	-10.5867
▁провали	-10.5867
тревож	-10.587
звод	-10.5871
▁фото	-10.5873
▁затопляне	-10.5878
дал	-10.5882
▁водни	-10.5895
▁непрекъснато	-10.5906
▁компютърни	-10.5908
▁сух	-10.5909
▁вдъхновен	-10.5914
▁доход	-10.5924
▁земеделие	-10.5936
▁относително	-10.5936
▁реклама	-10.5936
▁спектър	-10.5936
▁центрове	-10.5936
▁килограм	-10.5936
▁продължителност	-10.5936
▁екипа	-10.5936
▁Андерс	-10.5936
▁зрител	-10.5936
▁възниква	-10.5937
▁изправя	-10.5938
▁неврон	-10.5945
▁намерих	-10.5952
▁покрив	-10.5954
▁Дей	-10.5955
et	-10.5961
▁дива	-10.5977
▁родител	-10.5988
▁натиск	-10.5988
▁Казвам	-10.5991
▁нужна	-10.5993
▁работещи	-10.5995
тук	-10.5997
щият	-10.6003
▁ниска	-10.6005
▁подвод	-10.6005
▁психо	-10.6009
▁умра	-10.6011
ръба	-10.602
▁въздействие	-10.6021
▁гравитация	-10.6021
▁комбинация	-10.6021
▁завинаги	-10.6021
▁апарат	-10.6022
▁вестник	-10.6022
▁фондация	-10.6023
▁чудесни	-10.6032
▁поставят	-10.6039
▁развие	-10.6048
▁приемат	-10.6048
▁покани	-10.605
▁изпълнение	-10.6053
▁Въз	-10.6055
▁продължават	-10.6056
▁Ше	-10.6075
▁тур	-10.6077
▁учене	-10.6082
▁22	-10.6082
▁сезон	-10.6088
стер	-10.61
▁дадат	-10.6101
▁споделяне	-10.6103
▁възползва	-10.6108
▁Австралия	-10.6108
▁статистика	-10.6108
▁коментар	-10.6108
▁ваксини	-10.6108
▁логика	-10.6108
▁вариант	-10.6108
▁хотел	-10.6109
▁срещи	-10.611
▁БВ	-10.6111
▁висок	-10.6112
▁детски	-10.6118
▁познати	-10.6119
писани	-10.6123
▁чип	-10.6126
▁чудо	-10.6127
▁етаж	-10.6135
▁коса	-10.6137
▁демократи	-10.6141
нду	-10.6142
▁архитектура	-10.6147
▁Оке	-10.6153
▁вход	-10.6154
▁Минал	-10.6162
▁национална	-10.6165
▁любопит	-10.6172
▁нейния	-10.618
части	-10.6192
▁Фейсбук	-10.6194
▁метафора	-10.6194
▁лодка	-10.6195
▁провери	-10.6195
▁разлики	-10.6198
▁червена	-10.6199
▁марка	-10.6199
▁чуди	-10.62
▁Големия	-10.6201
▁разработва	-10.6201
▁кабел	-10.6203
▁пилот	-10.6204
▁езици	-10.6206
▁поглежда	-10.6217
иците	-10.6219
▁лег	-10.6225
▁дойдат	-10.6232
▁крак	-10.6233
▁чудесна	-10.6245
гледаме	-10.6247
▁спестява	-10.6249
▁теми	-10.6254
▁разреши	-10.6267
▁печели	-10.6273
▁протеин	-10.628
екция	-10.6281
▁господа	-10.6282
▁взаимно	-10.6282
▁съвмест	-10.6282
▁домакин	-10.6284
▁свири	-10.6285
▁масово	-10.6286
▁участват	-10.6286
▁оборудване	-10.6288
▁дигитални	-10.629
▁дължина	-10.63
▁прах	-10.6308
висока	-10.6312
▁член	-10.6318
▁колежа	-10.6319
▁Марк	-10.6329
▁предаване	-10.6337
at	-10.634
извест	-10.6345
▁пее	-10.6354
изследовател	-10.6354
▁открити	-10.6358
▁стоки	-10.636
▁дотам	-10.6366
▁необходим	-10.637
▁телескоп	-10.6371
▁изобретател	-10.6371
▁захранва	-10.6371
▁часовник	-10.6371
▁отстрани	-10.6375
▁намаляване	-10.6375
силно	-10.6375
▁пиле	-10.6376
▁приложения	-10.6378
▁бърз	-10.6381
▁здравни	-10.6384
▁продават	-10.6384
▁изумително	-10.6388
▁сценари	-10.6394
▁техники	-10.6398
▁водород	-10.6412
▁отбор	-10.6414
▁отведе	-10.6415
▁23	-10.6418
▁Смятам	-10.6423
▁падна	-10.6427
▁произ	-10.6436
▁нейни	-10.6439
▁Джейм	-10.6439
▁свързват	-10.644
луд	-10.6445
▁Две	-10.6445
st	-10.6456
▁увреждания	-10.646
▁китайски	-10.646
▁Харесва	-10.646
▁джоб	-10.646
▁фаза	-10.646
▁донесе	-10.6461
▁вчера	-10.6462
▁разпространи	-10.6462
▁дебел	-10.6469
▁рискове	-10.6471
▁скъпо	-10.6475
▁харесват	-10.6478
ув	-10.6479
▁тона	-10.6488
онос	-10.649
▁Помн	-10.6491
▁листа	-10.6492
▁типа	-10.6519
▁представляват	-10.6521
▁появяват	-10.6537
▁плът	-10.6538
▁Франци	-10.655
▁телевизион	-10.655
▁фалшив	-10.655
▁сблъска	-10.655
▁извърши	-10.655
▁колело	-10.655
▁последици	-10.6551
▁метро	-10.6551
▁възглед	-10.6554
▁Йе	-10.6554
▁детство	-10.6555
▁домашни	-10.6557
▁научно	-10.6558
▁желанието	-10.6571
вой	-10.6573
▁правилна	-10.6587
▁любовта	-10.6597
тивни	-10.6603
▁достъпни	-10.6605
ард	-10.6606
рки	-10.6626
▁вляво	-10.6626
▁кожа	-10.663
▁терористи	-10.6634
▁изчисли	-10.664
▁написа	-10.664
▁Харвард	-10.6641
▁дясна	-10.6641
▁презентация	-10.6641
▁традиция	-10.6641
▁знаци	-10.6641
▁заразен	-10.6641
▁връх	-10.6641
▁жесток	-10.6642
▁придоби	-10.6646
▁победи	-10.6649
▁местна	-10.6653
▁естествени	-10.6658
▁полезно	-10.6658
▁счита	-10.6662
▁писател	-10.6668
▁месеци	-10.6674
▁трима	-10.6676
▁подобрява	-10.6676
▁телевизия	-10.6689
▁интервю	-10.6692
▁80-	-10.6702
▁Друга	-10.6708
▁развиват	-10.6709
▁50-	-10.6722
▁успеш	-10.6728
ефикас	-10.6732
малка	-10.6732
▁апартамент	-10.6733
▁освободи	-10.6733
▁Предполага	-10.6733
▁информира	-10.6733
▁шофира	-10.6733
▁включен	-10.6733
▁удря	-10.6733
▁писмо	-10.6733
▁справедливост	-10.6733
▁уроци	-10.6733
▁вдига	-10.6734
▁излязох	-10.6735
▁дърветата	-10.6737
▁музикант	-10.6742
▁обърка	-10.676
▁доняк	-10.6761
▁финансови	-10.6769
▁отдолу	-10.6779
реже	-10.6779
стотин	-10.6782
удоб	-10.6785
фон	-10.6787
▁безплат	-10.6794
▁доставя	-10.6796
▁корен	-10.6801
▁стол	-10.6804
▁производител	-10.6804
▁съпруг	-10.6808
ръг	-10.6818
▁екстрем	-10.6825
▁въглища	-10.6825
▁динозаври	-10.6825
▁исторически	-10.6825
▁проработи	-10.6825
▁споделен	-10.6825
▁налягане	-10.6825
▁Дарвин	-10.6825
▁завършва	-10.6825
▁Франк	-10.6826
▁преживе	-10.6826
▁хранене	-10.6826
▁вдигна	-10.6827
▁бивш	-10.6828
▁свойства	-10.6828
▁2008	-10.683
▁семена	-10.6832
ужасяващ	-10.6839
▁правилния	-10.684
▁отгледа	-10.6844
▁модерни	-10.6844
▁върнат	-10.6855
сад	-10.6861
▁спад	-10.6884
▁залив	-10.6891
▁взаимодейства	-10.6894
▁помисле	-10.6896
▁дължи	-10.69
жна	-10.6915
▁30-	-10.6918
▁интелект	-10.6919
▁вдъхнови	-10.6919
▁уебсайт	-10.6919
▁африкански	-10.6919
▁изключва	-10.6919
▁освобождава	-10.6919
▁функции	-10.6919
▁забавлява	-10.6919
▁озова	-10.6919
▁съдеб	-10.6919
▁договор	-10.692
▁усет	-10.692
▁обработва	-10.6922
енерги	-10.6924
▁тайни	-10.6924
▁Луната	-10.6939
▁въже	-10.6946
▁новия	-10.6949
▁мускули	-10.695
▁млада	-10.695
ирах	-10.6952
рийн	-10.6959
▁бутон	-10.696
▁приятелка	-10.6967
▁избран	-10.6975
▁речник	-10.6983
▁успешно	-10.7008
▁развити	-10.7008
▁персонал	-10.7011
▁библиотека	-10.7013
комфорт	-10.7013
▁Англия	-10.7013
▁взаимоотношения	-10.7013
▁главно	-10.7013
▁търговски	-10.7013
▁оценка	-10.7013
▁ситуации	-10.7013
▁футбол	-10.7013
▁незабавно	-10.7013
▁сериозни	-10.7013
▁имитира	-10.7014
▁покрай	-10.7014
динамич	-10.7014
▁слиза	-10.702
▁бой	-10.7022
▁разказ	-10.7023
▁американска	-10.703
▁остават	-10.7032
▁дяволи	-10.7038
▁устойчивост	-10.7041
▁насилието	-10.7043
▁Коре	-10.7052
спир	-10.7053
▁драматич	-10.7055
▁улица	-10.7069
▁боря	-10.707
▁партньори	-10.7074
▁скок	-10.7078
▁химикали	-10.7094
▁контекста	-10.71
прозрач	-10.7108
▁съхранява	-10.7108
▁хоризонт	-10.7108
▁мъртви	-10.7108
▁конструира	-10.7108
▁изкачва	-10.7108
▁министър	-10.7109
▁разшири	-10.7109
▁забавя	-10.711
▁звън	-10.711
▁топлина	-10.7111
▁хранителна	-10.7112
▁Рай	-10.7113
▁изглед	-10.7123
▁признава	-10.713
▁борд	-10.7133
годишно	-10.7137
кове	-10.7154
▁дошл	-10.7159
завършен	-10.7164
▁мускул	-10.7172
▁фон	-10.7177
▁електрическа	-10.7205
▁оръжие	-10.7205
▁печалба	-10.7205
▁подчерта	-10.7205
▁разхожда	-10.7205
▁мръс	-10.7205
▁привлече	-10.7205
▁инвалид	-10.7205
▁лазер	-10.7205
▁микроскоп	-10.7205
▁схема	-10.7205
▁тъмно	-10.7205
▁Често	-10.7205
▁Ша	-10.7206
▁приходи	-10.7208
▁краища	-10.7208
▁равни	-10.7209
качествен	-10.721
ефектив	-10.7211
▁ползи	-10.7211
▁наблюдаваме	-10.7219
▁строя	-10.7219
▁долина	-10.7222
▁предаде	-10.7223
▁Меди	-10.7235
зор	-10.7236
▁близки	-10.7247
▁скали	-10.7248
▁шимпанзета	-10.7265
▁Вод	-10.7272
▁реша	-10.7277
▁пласт	-10.7288
▁китове	-10.7296
▁творчество	-10.7302
▁понятие	-10.7302
▁арабски	-10.7302
▁обяви	-10.7302
▁тренира	-10.7302
▁поезия	-10.7302
▁насочен	-10.7302
▁насочи	-10.7302
▁увери	-10.7302
▁негатив	-10.7306
▁194	-10.7308
▁защитен	-10.7309
▁вътрешна	-10.731
▁контролират	-10.7312
▁успял	-10.7312
зле	-10.7316
▁настояще	-10.7316
твърд	-10.7317
▁науча	-10.7317
▁скача	-10.7325
зелен	-10.7328
▁гледаш	-10.7339
▁вируси	-10.734
▁наема	-10.7342
▁научен	-10.7343
▁телевизията	-10.7348
▁суб	-10.7362
▁кариера	-10.7363
пълни	-10.7371
▁черно	-10.7396
▁самолети	-10.7397
▁заобикаля	-10.74
▁оформя	-10.74
▁операции	-10.74
▁гъби	-10.74
▁площад	-10.7401
▁Йо	-10.7401
▁196	-10.7404
▁27	-10.7405
▁фактор	-10.7415
▁къс	-10.7424
▁предприемачи	-10.7426
ъзда	-10.7427
▁естествен	-10.7436
▁визия	-10.7439
▁светлин	-10.7442
▁90-	-10.7442
▁дясно	-10.7443
▁индивид	-10.7444
▁издава	-10.7445
▁стаи	-10.745
▁изрази	-10.7466
нския	-10.7472
▁Син	-10.7475
▁планината	-10.7486
реден	-10.7497
▁следват	-10.7498
справедлив	-10.7498
▁бутилка	-10.7499
▁литература	-10.7499
▁обстоятелства	-10.7499
▁тийнейджър	-10.7499
▁трансформация	-10.7499
▁уважение	-10.7499
▁художник	-10.7499
▁свръх	-10.7499
▁Русия	-10.7499
▁свържа	-10.7499
▁оптимиз	-10.7499
▁Цяла	-10.7499
▁мозъчни	-10.7502
▁гърди	-10.7502
ro	-10.7502
▁Чува	-10.7503
▁зима	-10.7503
▁зелена	-10.7504
▁помня	-10.7505
▁облек	-10.7509
▁съдба	-10.751
▁красив	-10.7515
▁600	-10.7516
▁нарече	-10.7522
▁научил	-10.7525
▁мотивира	-10.7531
ir	-10.7537
30	-10.7541
▁уши	-10.7542
вари	-10.7551
▁разпространен	-10.7552
▁убие	-10.7555
▁наложи	-10.7562
▁измерим	-10.7563
▁интереси	-10.7569
▁вдясно	-10.7571
▁острови	-10.7572
▁заведе	-10.7581
▁блокира	-10.7584
▁цар	-10.7588
▁Конгрес	-10.7599
▁еквивалент	-10.7599
▁дискусия	-10.7599
▁посещава	-10.7599
▁рециклира	-10.7599
▁съжалява	-10.7599
▁орбита	-10.7599
▁музей	-10.7599
▁костюм	-10.7599
▁произвол	-10.7599
▁ферма	-10.7599
▁кибер	-10.7599
▁Майк	-10.7605
▁увеличение	-10.7605
▁опитах	-10.7608
дълбоко	-10.7611
▁публично	-10.7616
▁куб	-10.7623
високи	-10.763
▁определят	-10.7636
▁потребител	-10.7643
▁щат	-10.7648
▁откриват	-10.7658
врат	-10.7666
▁цветя	-10.7675
▁успя	-10.7683
говаря	-10.7683
▁харесвам	-10.7686
▁Египет	-10.77
▁бюро	-10.77
▁демонстрира	-10.77
▁извлече	-10.77
▁институция	-10.77
▁отвътре	-10.77
▁предложение	-10.77
▁предназначен	-10.77
▁риболов	-10.77
▁натрупва	-10.77
▁тръгне	-10.77
▁генетични	-10.77
▁поредица	-10.77
▁суша	-10.77
▁мехур	-10.77
▁бомба	-10.77
▁Проект	-10.7701
▁гроз	-10.7701
▁полюс	-10.7702
▁субект	-10.7702
▁убеден	-10.7703
▁интер	-10.7704
▁Велик	-10.7704
▁такси	-10.7706
▁Начин	-10.7706
▁чудя	-10.7707
▁болката	-10.7709
▁воля	-10.7709
различни	-10.7714
начало	-10.7715
▁Ваш	-10.7717
ic	-10.7734
▁Мон	-10.7735
▁специална	-10.7749
oo	-10.775
▁склонн	-10.776
▁роман	-10.7764
▁нормални	-10.7764
мислен	-10.7766
кер	-10.7767
▁подобна	-10.7768
▁завърши	-10.777
▁изляза	-10.7782
▁политик	-10.7794
▁родени	-10.7798
▁племе	-10.7799
▁планиране	-10.7799
функционал	-10.7802
▁2010	-10.7802
▁НАС	-10.7802
▁грешно	-10.7802
▁пингвин	-10.7802
▁услуга	-10.7802
▁художници	-10.7802
▁диабет	-10.7802
▁постепенно	-10.7802
▁задвижва	-10.7802
com	-10.7802
▁морска	-10.7804
▁автомат	-10.7805
▁250	-10.7805
▁протеини	-10.7806
Tu	-10.7833
шир	-10.7834
▁ужасни	-10.7854
▁методи	-10.7856
слой	-10.7866
фил	-10.7879
▁отворени	-10.7891
гон	-10.7892
▁дигитална	-10.7897
▁предотвратя	-10.7905
▁упражнява	-10.7905
▁обърква	-10.7905
▁ваксина	-10.7905
▁днешни	-10.7905
▁яйца	-10.7905
▁отклик	-10.7905
▁доминира	-10.7905
▁плос	-10.7906
▁течност	-10.7907
▁полезни	-10.791
▁крива	-10.7912
емост	-10.7912
▁цялост	-10.7916
▁избрах	-10.7918
▁70-	-10.7928
широк	-10.7928
подоб	-10.7939
▁крие	-10.7941
▁Туит	-10.7941
▁близ	-10.7942
▁светлини	-10.7951
▁Голяма	-10.7955
▁биологич	-10.7969
▁страдание	-10.797
говори	-10.7973
бива	-10.7974
▁ядрени	-10.7982
▁чувал	-10.7985
▁умове	-10.7994
la	-10.7995
▁диви	-10.7997
▁изпълни	-10.8006
▁стабил	-10.8008
▁алгоритми	-10.8009
▁велосипед	-10.8009
▁днешно	-10.8009
▁медицинска	-10.8009
▁пластмаса	-10.8009
▁ритуал	-10.8009
▁физическа	-10.8009
▁извънзем	-10.8009
▁различава	-10.8009
▁плюс	-10.8009
▁батерия	-10.8009
▁вериги	-10.8009
▁склад	-10.8009
▁свещен	-10.8009
▁схваща	-10.8009
▁етикет	-10.8009
▁рационал	-10.801
▁химия	-10.8011
▁въртя	-10.8012
▁архитект	-10.8013
▁индивидуални	-10.8019
▁усети	-10.8021
▁Хъ	-10.8033
▁рожден	-10.8036
▁преса	-10.8037
▁болници	-10.8048
▁болни	-10.805
▁автомобили	-10.8052
▁братя	-10.8055
▁32	-10.8055
▁починал	-10.806
▁споменах	-10.806
▁65	-10.8076
гнат	-10.8078
▁бяла	-10.8108
▁говориш	-10.8111
▁Университет	-10.8114
▁вдигне	-10.8114
▁импулс	-10.8114
▁качества	-10.8114
▁оценки	-10.8114
▁дефинира	-10.8114
▁радиация	-10.8115
▁Жена	-10.8116
▁основи	-10.8117
▁Помислих	-10.8122
▁животинск	-10.8128
последователност	-10.8132
▁потребителите	-10.8157
▁ключови	-10.8159
▁микроб	-10.8168
флу	-10.8194
чове	-10.8195
етика	-10.8195
ляска	-10.8196
▁опасно	-10.8201
▁съзнателно	-10.8201
▁позволим	-10.8206
▁ядрен	-10.8206
▁маркетинг	-10.8221
▁Научих	-10.8221
▁диаграма	-10.8221
▁кредит	-10.8221
▁атакува	-10.8221
▁заплаш	-10.8221
▁свикнал	-10.8222
▁лаборатории	-10.8222
▁диета	-10.8223
кратно	-10.8223
▁редица	-10.8226
▁здравна	-10.8234
▁върша	-10.8236
▁слух	-10.8247
▁символи	-10.8251
▁сляп	-10.8261
▁съседи	-10.8282
▁симптоми	-10.8286
▁производ	-10.8292
▁Два	-10.8296
знание	-10.8298
▁национални	-10.8299
стични	-10.8302
▁замърсяване	-10.8321
▁биват	-10.8323
▁отговорни	-10.8328
▁Пакистан	-10.8328
▁Трудно	-10.8328
▁наполовина	-10.8328
▁оцелее	-10.8328
▁сериозен	-10.8328
▁телевизор	-10.8328
▁характеристики	-10.8328
▁мобилен	-10.8328
▁портрет	-10.8328
▁химически	-10.8328
▁въвежда	-10.8328
▁желае	-10.8328
▁хаос	-10.833
▁нейно	-10.8332
▁Бал	-10.8334
▁светове	-10.8338
▁създаден	-10.8342
▁конфликти	-10.8343
лесна	-10.8346
▁Изток	-10.8349
▁Тома	-10.835
▁мозъчна	-10.8353
▁неясно	-10.8355
▁Мис	-10.8361
▁биологични	-10.8362
▁местно	-10.8364
▁трудна	-10.8366
▁квартали	-10.8369
▁забележително	-10.8372
▁клиент	-10.8383
▁авто	-10.8389
▁погледнах	-10.8404
▁важност	-10.8408
баче	-10.8408
▁Земя	-10.8412
▁бебето	-10.8415
▁експерт	-10.8415
▁изобретен	-10.8416
▁добровол	-10.8416
▁безопасно	-10.8417
▁кмет	-10.8417
раци	-10.8427
▁обем	-10.8428
▁аргумент	-10.8437
▁вертикал	-10.8437
▁инцидент	-10.8437
▁практикува	-10.8437
▁колега	-10.8437
▁хълм	-10.8437
▁клиника	-10.8437
▁покачва	-10.8437
▁улавя	-10.8437
▁студио	-10.8438
▁механич	-10.844
▁реални	-10.8443
▁отделен	-10.8444
мография	-10.8448
▁разрешение	-10.8448
▁кости	-10.8459
▁разпределение	-10.8463
▁доходи	-10.8467
малък	-10.8467
▁признае	-10.8469
▁Знаеш	-10.8477
▁фактори	-10.8477
▁кариерата	-10.8478
инк	-10.8484
▁Пан	-10.85
ършат	-10.8501
▁изход	-10.8506
▁проверява	-10.8542
▁внезапно	-10.8547
▁дефиниция	-10.8547
▁изобрети	-10.8547
▁свободни	-10.8547
▁хрумна	-10.8547
▁замисля	-10.8547
▁камъни	-10.8547
▁мляко	-10.8547
▁събуди	-10.8547
▁Обама	-10.8547
▁Живее	-10.8547
▁вляза	-10.8548
▁облаци	-10.8548
▁съмнение	-10.8548
▁Чуд	-10.8549
▁Майкъл	-10.855
▁подтик	-10.855
▁защити	-10.8551
▁измина	-10.8553
▁планове	-10.8556
▁живял	-10.8558
▁взел	-10.8569
▁лява	-10.8574
▁природ	-10.8574
▁очевид	-10.8581
▁чии	-10.8586
бва	-10.8588
▁ограничени	-10.8592
▁древни	-10.8601
▁седях	-10.8608
▁отидеш	-10.8613
лесен	-10.8619
силни	-10.8619
култур	-10.8637
▁сравнява	-10.8658
▁аутизъм	-10.8658
▁изречение	-10.8658
▁молекуляр	-10.8658
▁подготвя	-10.8658
▁популация	-10.8658
▁постижения	-10.8658
▁дядо	-10.8658
▁прашец	-10.8658
▁разкаже	-10.8658
▁израства	-10.8658
▁печеля	-10.8658
▁Важно	-10.8658
▁изграден	-10.8658
▁сравнително	-10.8658
▁наследство	-10.8658
▁отказва	-10.8659
▁Баща	-10.866
▁предимство	-10.8661
▁избягва	-10.8665
поляр	-10.8672
▁поправя	-10.8674
▁вътрешни	-10.868
▁пакет	-10.8683
▁Кр	-10.8694
▁бла	-10.8696
▁истинския	-10.8698
▁писане	-10.8699
лният	-10.8703
истка	-10.8703
▁наречем	-10.8715
▁нарек	-10.8716
▁външ	-10.8718
▁преподавател	-10.8731
▁документира	-10.8733
любим	-10.8735
свет	-10.8738
послед	-10.8739
▁крайно	-10.8746
▁вгледа	-10.8747
▁бърза	-10.8754
▁типове	-10.8754
▁Съществува	-10.877
▁количества	-10.877
▁ограничава	-10.877
▁очарова	-10.877
▁подпомага	-10.877
▁приближи	-10.877
▁първоначално	-10.877
▁тенденции	-10.877
▁терапия	-10.877
▁унищожава	-10.877
▁безкрайно	-10.877
▁Здрав	-10.877
▁подробности	-10.877
▁космическа	-10.877
▁опазване	-10.877
▁интерактив	-10.877
▁тежки	-10.8771
▁губя	-10.8771
▁станция	-10.8771
▁Стивън	-10.8772
селени	-10.8778
▁Намира	-10.8779
▁пиано	-10.8779
▁шеф	-10.8782
▁намаля	-10.8791
▁религиозни	-10.8792
▁удивително	-10.88
▁създадена	-10.8805
▁предишни	-10.8809
▁световен	-10.8827
бедни	-10.8836
▁Кри	-10.884
▁отнеме	-10.8854
насят	-10.8857
▁плод	-10.8867
il	-10.8868
▁финансова	-10.8871
le	-10.8873
▁Кан	-10.8877
▁преживя	-10.8882
▁взаимо	-10.8884
▁Близкия	-10.8884
▁генетично	-10.8884
▁граждански	-10.8884
▁концентрира	-10.8884
▁пластмасов	-10.8884
▁унищожи	-10.8884
▁творби	-10.8884
▁Взех	-10.8884
▁камък	-10.8884
▁актьор	-10.8884
▁Време	-10.8886
▁морско	-10.8888
▁пробва	-10.889
▁предсто	-10.889
▁36	-10.8891
▁играчки	-10.8891
▁обединява	-10.8895
▁котка	-10.8897
▁ужас	-10.8901
▁Правя	-10.8906
▁любопитство	-10.8914
ed	-10.8919
▁оттук	-10.8922
▁натиска	-10.8932
▁външна	-10.8934
▁стимул	-10.894
▁обществена	-10.8947
ace	-10.8947
сега	-10.8953
▁кв	-10.896
▁финансов	-10.8967
▁Вселена	-10.898
талия	-10.898
мощни	-10.8984
грама	-10.899
▁забелязах	-10.8995
▁Получава	-10.8999
▁присъединя	-10.8999
▁паунда	-10.8999
▁Около	-10.8999
▁климатични	-10.9
▁Адам	-10.9002
▁риф	-10.9003
▁духа	-10.9003
▁хипер	-10.9004
▁Възможно	-10.9005
▁механизми	-10.9012
el	-10.9015
▁Гра	-10.9019
▁спомням	-10.9039
▁аспекти	-10.9047
бар	-10.9052
▁ефективност	-10.9058
вълнуващ	-10.906
влекат	-10.9067
▁разбра	-10.9068
▁съща	-10.9078
▁нервна	-10.908
▁неиз	-10.9091
▁публич	-10.9095
▁случа	-10.9097
▁Ду	-10.9114
▁гарантира	-10.9115
▁изобилие	-10.9115
▁Антаркти	-10.9115
▁болезнен	-10.9115
▁екосистема	-10.9115
▁изгубен	-10.9115
▁творчески	-10.9115
▁излекува	-10.9115
▁участници	-10.9115
▁притеснен	-10.9115
▁Хайде	-10.9115
▁пчела	-10.9115
▁чаша	-10.9115
▁избера	-10.9116
▁банки	-10.9116
▁тежка	-10.9116
▁зелено	-10.9117
▁театър	-10.9117
▁януар	-10.9117
▁2009	-10.9119
▁държавни	-10.9119
▁2007	-10.912
▁вграден	-10.9121
гласи	-10.9121
▁кас	-10.9122
видели	-10.9124
is	-10.913
▁сваля	-10.9132
▁разрешим	-10.9135
▁Факт	-10.9135
▁взаимодействат	-10.9146
▁инженерство	-10.9149
▁базира	-10.9153
▁спада	-10.9154
▁съдове	-10.9166
▁огр	-10.9167
▁хол	-10.9172
▁страхове	-10.9174
▁помолих	-10.9186
▁почина	-10.9187
▁стимулира	-10.9189
▁пази	-10.919
▁предпазва	-10.9194
▁сменя	-10.9198
▁близко	-10.92
▁ужасен	-10.9204
чуд	-10.9214
▁Правим	-10.9214
▁Сигур	-10.9219
▁Получих	-10.9233
▁абстракт	-10.9233
▁гмурка	-10.9233
▁двойка	-10.9233
▁маркер	-10.9233
▁произлиза	-10.9233
▁проявява	-10.9233
▁допринася	-10.9233
▁журналист	-10.9233
▁убедя	-10.9233
▁купчина	-10.9233
▁Оказа	-10.9233
▁еднакви	-10.9233
▁стъкло	-10.9233
▁вестници	-10.9234
▁голф	-10.9235
▁Чикаг	-10.9235
▁говорех	-10.9239
▁количка	-10.9241
яколко	-10.9244
▁склон	-10.9247
▁Шве	-10.9249
уване	-10.925
▁вътрешно	-10.9254
лагат	-10.9256
логично	-10.9259
▁забележи	-10.9264
▁развил	-10.9268
▁рамо	-10.927
▁бял	-10.9277
▁осъзнае	-10.9278
несат	-10.9279
▁правилни	-10.9282
▁плаж	-10.9282
▁горива	-10.9285
▁абсолют	-10.931
▁поеме	-10.9314
▁Част	-10.9315
▁канали	-10.9327
▁бъдещи	-10.9332
▁обрат	-10.9338
унд	-10.9339
специфич	-10.934
следователно	-10.9344
фантастич	-10.935
▁бозайници	-10.9352
▁заглавие	-10.9352
▁изобретява	-10.9352
▁регулира	-10.9352
▁сърдечни	-10.9352
▁желания	-10.9352
▁пясък	-10.9352
▁увереност	-10.9352
▁История	-10.9352
▁автоматично	-10.9352
▁цитира	-10.9352
▁кухня	-10.9353
▁Страх	-10.9354
▁полица	-10.9355
▁вечно	-10.9356
▁извине	-10.9358
ri	-10.936
▁визуал	-10.9363
▁5000	-10.9364
▁измислен	-10.9365
▁последовател	-10.9367
▁третия	-10.937
▁наранява	-10.9374
▁пука	-10.9385
▁специалисти	-10.9389
▁съставки	-10.939
▁утро	-10.9392
▁пожар	-10.9393
▁пропуск	-10.9405
▁Джим	-10.9432
▁дигитал	-10.9436
▁оптимист	-10.9445
▁хран	-10.9458
▁квантова	-10.9458
▁ежеднев	-10.9461
▁гъвкав	-10.9462
▁Идва	-10.9465
▁изключен	-10.9467
▁игнорира	-10.9472
▁насърчава	-10.9472
▁присъствие	-10.9472
▁църква	-10.9472
▁концерт	-10.9472
▁страшно	-10.9472
▁тълпа	-10.9472
▁прозорци	-10.9472
▁Здравейте	-10.9472
▁Попитах	-10.9472
▁Хигс	-10.9472
▁аромат	-10.9472
▁премества	-10.9473
▁проследи	-10.9473
▁доказа	-10.9473
▁странен	-10.9474
▁приятно	-10.9474
▁климатична	-10.9474
▁домашно	-10.9475
▁поговорим	-10.9475
▁скром	-10.9475
план	-10.9476
▁служи	-10.9477
▁безжич	-10.9479
▁моделира	-10.9481
▁принос	-10.9485
▁Жени	-10.9493
▁пролет	-10.9498
▁награди	-10.9503
клонен	-10.9506
▁Брит	-10.9512
отдалечен	-10.9523
▁Съвет	-10.953
▁панел	-10.9533
без	-10.9535
▁дъска	-10.9536
▁потребители	-10.9544
▁слънчеви	-10.9549
▁инч	-10.9553
▁Направи	-10.956
▁финансиране	-10.9563
▁напише	-10.9573
▁разбрали	-10.9577
▁обеща	-10.9587
трудни	-10.9589
▁Всяк	-10.9591
▁международ	-10.9591
▁комуникации	-10.9594
▁подготви	-10.9594
▁предварително	-10.9594
▁преобразува	-10.9594
▁сексуално	-10.9594
▁практически	-10.9594
▁уважава	-10.9594
▁езеро	-10.9594
▁адрес	-10.9594
▁спасен	-10.9595
▁Руанд	-10.9595
▁комари	-10.9595
▁прозрачност	-10.9595
▁бележк	-10.9595
▁локал	-10.9596
▁стреми	-10.9597
▁събрани	-10.9597
▁профил	-10.9599
▁Кор	-10.9607
червен	-10.9607
▁клик	-10.9608
▁бръ	-10.9609
▁приложи	-10.961
▁съществуващи	-10.9612
▁пряко	-10.9616
▁напуска	-10.962
▁случайност	-10.9621
преди	-10.9624
▁изправен	-10.9636
▁точни	-10.9637
▁обектив	-10.9637
re	-10.9649
▁Невероятно	-10.9651
▁колония	-10.9655
▁отишл	-10.9656
▁набира	-10.9666
▁осъзна	-10.9673
летя	-10.968
▁обучен	-10.9691
май	-10.9695
▁вътрешност	-10.9701
зма	-10.9702
▁разположен	-10.9711
▁архитекти	-10.9711
▁горна	-10.9712
интелигентни	-10.9718
▁интуитив	-10.9718
▁продукция	-10.9718
▁хромозом	-10.9718
▁централна	-10.9718
▁комплекс	-10.9718
▁помисля	-10.9718
▁Бостън	-10.9718
▁реакции	-10.9718
▁отпечатък	-10.9718
▁пристига	-10.9718
▁букви	-10.9718
▁кратки	-10.9718
▁хваща	-10.9719
▁Уау	-10.9719
▁2005	-10.9722
▁ориз	-10.9729
▁темпо	-10.9729
▁таван	-10.9733
▁реална	-10.9734
▁активист	-10.9739
▁Стив	-10.9739
▁очаквания	-10.9742
▁развиващия	-10.9759
▁интервюира	-10.9777
различно	-10.9778
▁Сити	-10.9782
▁племена	-10.9786
▁предци	-10.9789
лайн	-10.9797
▁изчезнал	-10.9797
▁смесва	-10.9798
▁спомен	-10.9806
рев	-10.9821
▁огън	-10.9823
▁съставен	-10.9831
▁единствени	-10.9833
▁визуална	-10.9834
▁демонстрация	-10.9843
▁диагноза	-10.9843
▁забавление	-10.9843
▁изложба	-10.9843
▁познания	-10.9843
▁световно	-10.9843
▁хормон	-10.9843
▁усъвършенства	-10.9844
▁изградя	-10.9845
▁летище	-10.9847
▁фермер	-10.9848
▁дреб	-10.9852
▁агент	-10.9854
▁сфери	-10.9856
анците	-10.986
▁възстановява	-10.9867
▁ОК	-10.9868
▁Чувствам	-10.9874
▁носа	-10.9877
▁запомни	-10.9891
▁умно	-10.9891
▁врати	-10.9892
▁Вер	-10.9898
▁мишки	-10.9902
щастлив	-10.9906
▁боя	-10.9915
▁корени	-10.9921
▁визуални	-10.9946
▁разбива	-10.9965
▁инсталира	-10.9969
▁интуиция	-10.9969
▁Прекарах	-10.9969
▁религии	-10.9969
▁ускорява	-10.9969
▁посоки	-10.9969
▁приоритет	-10.9969
▁равенство	-10.9969
▁тръби	-10.9969
▁Париж	-10.9969
▁френски	-10.9969
▁сигурна	-10.997
▁акули	-10.997
▁помоля	-10.997
▁копие	-10.997
▁равнище	-10.9972
▁прециз	-10.9972
▁нарекох	-10.9975
▁черти	-10.9976
▁продаде	-10.9977
▁гигантски	-10.9979
▁подходящи	-10.9982
▁вълнува	-10.9985
▁стади	-10.9989
▁лъчи	-10.999
▁тихо	-10.9999
▁газове	-11.0011
основен	-11.0022
▁измери	-11.0022
студен	-11.0024
▁чуя	-11.0024
▁масив	-11.0035
▁транспортира	-11.0045
▁Представ	-11.0051
▁атоми	-11.0059
ийн	-11.0062
водни	-11.0075
▁клинич	-11.0087
▁отдели	-11.0096
способен	-11.0097
▁iPhone	-11.0097
▁Европейск	-11.0097
▁дълбочина	-11.0097
▁избегне	-11.0097
▁корпоратив	-11.0097
▁психология	-11.0097
▁република	-11.0097
▁събужда	-11.0097
▁гърдата	-11.0097
▁индийски	-11.0097
▁изпратя	-11.0098
две	-11.0098
▁пароли	-11.0098
▁сериозна	-11.0098
▁пренесе	-11.0107
▁праща	-11.0113
▁икономисти	-11.0114
▁загина	-11.0116
▁производители	-11.0128
▁слабо	-11.0136
чко	-11.015
▁поставих	-11.0154
▁предприема	-11.0162
▁хирургия	-11.0165
▁намале	-11.0177
▁проба	-11.0179
▁очила	-11.0187
▁Гар	-11.0187
▁религиоз	-11.0202
▁предприе	-11.021
▁Анджелис	-11.0227
▁рисунки	-11.0227
▁съсредоточи	-11.0227
▁усилие	-11.0227
▁енергийни	-11.0227
▁мравка	-11.0227
▁Момиче	-11.0228
▁еднакво	-11.0228
▁либерал	-11.0228
▁коприна	-11.0228
▁посветен	-11.0228
▁обхват	-11.0228
ing	-11.0229
▁призная	-11.0243
▁чия	-11.0246
▁плаче	-11.0247
▁Тихи	-11.0262
▁потенциално	-11.028
▁класна	-11.0287
успешни	-11.0289
▁превозни	-11.0293
▁запазва	-11.0299
▁мощност	-11.03
▁Пу	-11.0304
▁превозно	-11.0305
▁Роб	-11.0307
▁пробив	-11.0315
важна	-11.0327
▁чай	-11.0332
богати	-11.0348
чувствител	-11.0357
▁Станфорд	-11.0359
▁консумация	-11.0359
▁обедини	-11.0359
▁предостави	-11.0359
▁прозрение	-11.0359
▁съгласн	-11.0359
▁федерал	-11.0359
▁оплаква	-11.0359
▁птица	-11.0359
▁анимация	-11.0359
▁намерение	-11.0359
▁колела	-11.0359
▁чифт	-11.036
▁Единствено	-11.0363
▁горещи	-11.0364
▁върти	-11.0366
▁попада	-11.0367
▁големина	-11.0368
▁Остав	-11.0369
▁бактерия	-11.037
▁свире	-11.037
▁настоява	-11.037
▁изток	-11.0382
▁международна	-11.0384
▁водещи	-11.0388
▁маркира	-11.0402
▁Уил	-11.0407
▁нишки	-11.0409
▁проваля	-11.0432
▁рисков	-11.0445
▁електронни	-11.0448
▁подобряване	-11.0451
▁сензор	-11.0457
▁Стан	-11.0468
▁плакат	-11.0469
▁напреднал	-11.047
истки	-11.0474
▁Обединено	-11.0492
▁академич	-11.0492
▁блясък	-11.0492
▁охлажда	-11.0492
▁предотврати	-11.0492
▁престъпления	-11.0492
▁репутация	-11.0492
▁традиции	-11.0492
▁успели	-11.0492
▁прогнози	-11.0492
▁Четири	-11.0492
▁работно	-11.0492
▁следобед	-11.0492
▁икономическо	-11.0493
▁принтер	-11.0493
▁Джули	-11.0493
▁миналия	-11.0493
▁изкарва	-11.0493
▁влияе	-11.0494
▁Скоро	-11.0496
▁внимава	-11.0498
▁разположение	-11.05
▁Втория	-11.0501
▁умение	-11.0503
▁културни	-11.0503
▁Национална	-11.0508
знае	-11.0509
▁отделение	-11.0515
енера	-11.0519
▁изнася	-11.052
▁сензори	-11.0529
▁влага	-11.0542
▁главния	-11.0544
▁свърза	-11.0555
▁сурови	-11.0558
▁ранна	-11.0568
▁нормал	-11.0571
▁Закон	-11.0573
дължително	-11.0594
▁споменава	-11.0612
труд	-11.0615
конкурент	-11.0619
▁Град	-11.0626
▁осъществи	-11.0627
▁затлъстяване	-11.0627
▁крайбрежие	-11.0627
▁напрежение	-11.0627
▁подготвен	-11.0627
▁предположение	-11.0627
▁премахва	-11.0627
▁синхрон	-11.0627
▁харчи	-11.0627
▁затваря	-11.0627
▁приключа	-11.0627
▁механика	-11.0627
▁крушк	-11.0627
▁Александ	-11.0628
▁жест	-11.0632
▁Направе	-11.0632
▁котки	-11.0632
▁базов	-11.0634
▁рискува	-11.0639
▁гръбначния	-11.0642
▁селски	-11.0646
▁способ	-11.0647
▁враг	-11.0677
▁остаряване	-11.068
дълбоки	-11.0681
▁изучаване	-11.0682
▁показател	-11.0699
дадат	-11.0703
▁лидерство	-11.0717
▁пръстен	-11.0722
▁достатъчн	-11.0731
▁терор	-11.0748
▁благосъстояние	-11.0764
▁двойно	-11.0764
▁инициатива	-11.0764
▁наслаждава	-11.0764
▁неравенство	-11.0764
▁почивка	-11.0764
▁творба	-11.0764
▁непременно	-11.0764
▁кутии	-11.0764
▁позиции	-11.0764
▁изгаря	-11.0765
▁фантастично	-11.0765
▁делфин	-11.0765
▁уверя	-11.0766
▁опиша	-11.0766
▁Супер	-11.0766
▁откаже	-11.0767
▁паразит	-11.0769
▁познато	-11.077
▁Някак	-11.0771
антроп	-11.0774
▁любима	-11.0774
▁огъня	-11.0786
us	-11.0795
▁философия	-11.0796
▁вдъхновение	-11.08
▁тероризм	-11.0801
▁сетива	-11.0806
▁120	-11.0808
▁Мор	-11.0817
▁Истина	-11.083
▁практич	-11.0842
змът	-11.0846
дошли	-11.0849
ac	-11.0858
▁векове	-11.0866
▁Работя	-11.088
▁бащи	-11.0881
▁разделени	-11.0884
▁трудности	-11.0884
подходящ	-11.0885
▁артист	-11.0887
▁живеещи	-11.0889
▁социалния	-11.0892
▁километ	-11.0895
▁луна	-11.0898
граничен	-11.0903
id	-11.0903
▁когнитив	-11.0903
▁манипулира	-11.0903
▁потребление	-11.0903
▁физическо	-11.0903
▁достойнство	-11.0903
▁консуматор	-11.0903
▁разсейва	-11.0903
▁хлапе	-11.0903
▁Етиоп	-11.0903
▁Опитах	-11.0903
▁повиши	-11.0903
▁документ	-11.0903
▁странна	-11.0903
▁жители	-11.0903
▁разпада	-11.0904
▁креативност	-11.0904
▁Мартин	-11.0905
▁скочи	-11.0905
▁прибира	-11.0906
▁кралство	-11.0908
▁2004	-11.0909
▁отрича	-11.0911
патия	-11.0912
▁чий	-11.0914
▁отглеждане	-11.0915
▁върше	-11.0919
▁единици	-11.0923
▁прочета	-11.0926
▁доброволци	-11.093
▁Джак	-11.0944
▁медия	-11.095
▁моно	-11.0972
▁външния	-11.0972
▁Тур	-11.0973
ur	-11.0977
▁долна	-11.0992
сложни	-11.0996
▁Пат	-11.1014
▁Гал	-11.1022
фини	-11.1025
▁хип	-11.1034
ap	-11.1036
глупав	-11.104
▁талант	-11.1043
▁Особено	-11.1044
▁изчислява	-11.1044
▁инструкции	-11.1044
▁премахне	-11.1044
▁видеоклип	-11.1044
▁изнасилва	-11.1044
▁ритъм	-11.1044
▁тоалетна	-11.1044
▁двойки	-11.1044
▁разраства	-11.1044
▁писма	-11.1044
▁гараж	-11.1044
▁треска	-11.1044
▁генерал	-11.1044
променлив	-11.1044
▁спокойно	-11.1045
▁прекъсва	-11.1045
▁обвинен	-11.1045
▁теории	-11.1045
▁злато	-11.1045
▁икономи	-11.1046
▁образователна	-11.1046
▁книж	-11.1047
▁2006	-11.1049
▁комун	-11.1055
▁шега	-11.1059
▁подкуп	-11.1062
▁изстреля	-11.1064
▁разнообраз	-11.1078
▁Нуж	-11.1079
▁взети	-11.109
оскоп	-11.1095
ведат	-11.1105
▁младо	-11.1105
▁Светът	-11.1112
▁разочарова	-11.1116
▁Буш	-11.1122
▁Фар	-11.1123
▁оцелява	-11.1138
▁хор	-11.1138
▁протест	-11.1142
продуктив	-11.1154
▁Нужн	-11.1157
▁удивителни	-11.116
▁отчаян	-11.1164
всяк	-11.117
изми	-11.1181
звуч	-11.1186
▁шоколад	-11.1187
▁Слънчева	-11.1187
▁Страхотно	-11.1187
▁конкуренция	-11.1187
▁коридор	-11.1187
▁уравнение	-11.1187
автентич	-11.1187
▁прочетох	-11.1187
▁двуоки	-11.1187
▁свършва	-11.1187
▁илюзия	-11.1187
▁файл	-11.1187
▁фигура	-11.1187
▁Филип	-11.1187
▁измама	-11.1187
▁обслужва	-11.1187
▁докаже	-11.1187
▁пулс	-11.1188
▁фосил	-11.1188
▁каскад	-11.119
▁тръба	-11.119
▁ръководител	-11.1192
▁позитивни	-11.1192
,2	-11.1198
ловим	-11.1204
▁хапче	-11.1213
20	-11.122
▁информацион	-11.1223
▁леви	-11.1223
▁Негов	-11.1231
▁спуска	-11.1242
беден	-11.126
▁мобилния	-11.1261
свързан	-11.1287
▁почит	-11.1288
▁здраво	-11.129
▁устойчиво	-11.1294
▁технологични	-11.1298
▁спя	-11.1302
ПМ	-11.1304
▁План	-11.1314
▁разрешен	-11.1317
▁обяснен	-11.1318
▁взаимодействия	-11.1332
▁гражданско	-11.1332
▁рисунка	-11.1332
▁упражнения	-11.1332
осезаем	-11.1332
▁Обединени	-11.1332
▁замръзн	-11.1332
▁инвеститори	-11.1332
▁кисели	-11.1332
▁енергийна	-11.1332
▁разпознае	-11.1332
▁главна	-11.1332
▁уникално	-11.1332
▁предложа	-11.1332
▁тежко	-11.1332
▁диалог	-11.1332
▁предградия	-11.1332
▁изважда	-11.1332
▁комплект	-11.1332
▁оцени	-11.1332
▁подкрепи	-11.1332
▁лекции	-11.1333
▁Тексас	-11.1333
▁скрити	-11.1333
▁подходящо	-11.1333
▁емоционално	-11.1333
▁скенер	-11.1334
▁паркинг	-11.1335
▁специализира	-11.1335
▁Готов	-11.1335
▁одобрен	-11.1336
▁солид	-11.1337
▁културна	-11.1338
▁195	-11.1339
▁Конго	-11.1339
▁95	-11.1343
▁крила	-11.1346
▁Западна	-11.1356
бод	-11.1357
▁Източн	-11.1358
▁икономики	-11.1364
▁3000	-11.1367
▁брои	-11.1367
▁описание	-11.1381
▁ресурс	-11.1383
▁основател	-11.1387
▁досто	-11.1392
▁изследователски	-11.1416
▁външни	-11.142
▁гореща	-11.1423
▁700	-11.1427
om	-11.1429
▁купя	-11.143
▁балансира	-11.143
▁самостоятелно	-11.1433
напред	-11.1437
офи	-11.1449
▁заключен	-11.1452
часов	-11.1462
взе	-11.1462
▁надпис	-11.1464
дневно	-11.1469
▁забелязал	-11.1472
▁астероид	-11.1479
▁гнездо	-11.1479
▁неизбежно	-11.1479
▁хартиен	-11.1479
председател	-11.1479
▁африканци	-11.1479
▁експоненциал	-11.1479
▁мъртъв	-11.1479
▁разработен	-11.1479
▁територия	-11.1479
▁музея	-11.1479
▁рецепта	-11.1479
▁Международ	-11.1479
▁рекорд	-11.1479
▁самоуби	-11.1479
▁потърси	-11.1479
▁изживява	-11.148
▁тунел	-11.148
▁огледало	-11.148
▁съответства	-11.1481
▁довел	-11.1482
▁капан	-11.1487
▁кула	-11.1489
позитив	-11.149
▁впечатлява	-11.1491
▁Глав	-11.1493
ждение	-11.1494
▁Едва	-11.1497
▁основния	-11.1499
▁запознати	-11.1508
▁слаби	-11.1514
▁постоянна	-11.1517
▁купих	-11.1518
▁убити	-11.1518
збрали	-11.1541
ациите	-11.1567
▁съгласие	-11.1569
▁определение	-11.1572
▁бетон	-11.1574
▁музикални	-11.1574
▁северна	-11.1577
▁почувствах	-11.1589
▁философ	-11.1607
▁осветление	-11.1628
▁бръмбар	-11.1628
▁диагностицира	-11.1628
▁динамика	-11.1628
▁подготовка	-11.1628
▁преобладава	-11.1628
▁разрушава	-11.1628
▁водорасли	-11.1628
▁дъщери	-11.1628
▁отхвърля	-11.1628
▁състезание	-11.1628
▁нулев	-11.1628
▁предсказа	-11.1628
▁добродетел	-11.1628
▁сравним	-11.1628
▁дървен	-11.1628
▁разследва	-11.1629
▁подобрение	-11.1629
▁коляно	-11.163
▁явно	-11.163
▁Браун	-11.1631
▁смъртонос	-11.1632
▁специфични	-11.1632
▁Ерик	-11.1633
▁хване	-11.1635
▁синтетич	-11.1637
▁Откъде	-11.1638
▁семейни	-11.1638
▁унищожение	-11.164
▁застана	-11.1647
▁почиства	-11.1649
▁слепи	-11.1652
▁подбор	-11.1653
▁произведение	-11.1655
▁Год	-11.1659
▁стоях	-11.1675
▁създания	-11.168
▁произведения	-11.1692
▁атаки	-11.1693
▁плуване	-11.172
▁особен	-11.1721
▁температур	-11.1727
▁строг	-11.174
▁експериментира	-11.1744
▁кино	-11.1746
▁Благодар	-11.1754
уари	-11.1758
▁Фер	-11.1763
▁свива	-11.1771
▁изключи	-11.1775
▁гръб	-11.1778
▁възприятие	-11.178
▁глупост	-11.178
▁земетресение	-11.178
▁изчезне	-11.178
▁илюстрира	-11.178
▁невежество	-11.178
▁привилегия	-11.178
▁професия	-11.178
▁Алцхаймер	-11.178
▁архив	-11.178
▁повдига	-11.178
▁стратегии	-11.178
▁стремеж	-11.178
▁уникална	-11.178
▁подарък	-11.178
▁съпричаст	-11.178
▁явление	-11.178
▁Човешк	-11.178
▁допълнени	-11.178
▁служба	-11.178
▁зърно	-11.178
▁сърца	-11.178
▁превод	-11.178
▁жизненоваж	-11.1781
▁написано	-11.1781
▁момиченце	-11.1781
▁Испан	-11.1782
▁забави	-11.1785
▁ню	-11.1787
▁астрономи	-11.1791
▁лиценз	-11.1795
,3	-11.1796
▁квантов	-11.1797
▁морални	-11.1798
▁обичайни	-11.1799
▁вкара	-11.18
софт	-11.1801
▁изляз	-11.1807
▁Отива	-11.1812
джами	-11.182
▁сдоби	-11.1825
паднах	-11.1827
▁работник	-11.1831
▁справяне	-11.1834
▁зная	-11.1838
▁Праве	-11.1847
▁Дере	-11.1849
▁странични	-11.1863
плава	-11.1875
логични	-11.1875
▁кодира	-11.1877
▁бяло	-11.1887
▁привлекател	-11.1923
▁Жив	-11.1925
▁Започн	-11.1927
▁праг	-11.1928
▁демо	-11.1932
▁алкохол	-11.1934
▁благотворително	-11.1934
▁стихотворение	-11.1934
▁заплати	-11.1934
▁симетрия	-11.1934
▁екологични	-11.1934
▁колекция	-11.1934
▁хуман	-11.1934
▁Нуждае	-11.1934
▁робство	-11.1935
▁женска	-11.1937
▁емоционална	-11.1937
▁живели	-11.1937
▁модул	-11.1939
▁26	-11.194
▁28	-11.1943
▁БД	-11.1946
▁играчка	-11.1947
▁Националния	-11.1949
▁подрежда	-11.1949
▁паяк	-11.1954
▁устойчиви	-11.1954
▁планина	-11.1957
▁гроб	-11.1958
▁невинн	-11.1959
▁постигане	-11.196
ганда	-11.1965
▁изчезване	-11.1967
▁детайл	-11.1979
▁Току	-11.1981
▁точна	-11.1981
бек	-11.1986
▁раса	-11.1986
▁Обича	-11.1997
▁позволе	-11.2014
▁увеличаване	-11.2016
▁чие	-11.2036
близки	-11.2057
▁съответ	-11.2078
секунд	-11.2085
свободен	-11.2089
▁буква	-11.2089
▁Институт	-11.209
▁господин	-11.209
▁предположения	-11.209
▁сърдечна	-11.209
▁хардуер	-11.209
▁Атлант	-11.209
▁изпратен	-11.209
▁настъпи	-11.209
▁обучи	-11.209
▁пропусна	-11.209
▁проучи	-11.2091
▁изключителни	-11.2091
▁разболя	-11.2092
▁1960	-11.2092
▁индустриална	-11.2098
▁ясна	-11.21
▁лесни	-11.2104
▁завърших	-11.2107
▁Макар	-11.2108
▁евтини	-11.2108
▁издържа	-11.2112
обшир	-11.2115
▁Мисле	-11.2115
▁ужасна	-11.2115
▁филмов	-11.2119
▁предприемач	-11.2126
▁наклон	-11.2133
▁сцени	-11.2141
делно	-11.2152
бург	-11.2161
▁твърдение	-11.2165
▁близост	-11.2174
▁топки	-11.2191
▁плътност	-11.2192
▁свързаност	-11.2195
▁пристъп	-11.2196
пишем	-11.2198
индустриал	-11.2227
▁ценност	-11.2229
▁спрях	-11.2239
▁Сатурн	-11.2248
▁арестува	-11.2248
▁бейзбол	-11.2248
▁магистрала	-11.2248
▁пирамида	-11.2248
▁повторно	-11.2248
▁поглъща	-11.2248
▁преодоля	-11.2248
▁придвижи	-11.2248
▁2011	-11.2249
▁ентусиаз	-11.2249
▁заплахи	-11.2249
▁комерсиал	-11.2249
▁корпорации	-11.2249
▁магически	-11.2249
▁мюсюлмани	-11.2249
▁влязох	-11.2249
▁стъпало	-11.2249
▁облечен	-11.2249
▁състезава	-11.2249
▁Намерих	-11.2249
▁Робърт	-11.2249
▁майстор	-11.2249
▁клуб	-11.2249
▁издигна	-11.2249
▁физици	-11.2249
▁кадри	-11.2249
▁растител	-11.2249
,7	-11.2249
▁микрофон	-11.2249
▁махне	-11.2249
▁свиря	-11.2249
▁данъци	-11.2249
▁създатели	-11.2251
▁лудост	-11.2256
▁фибр	-11.2258
▁намеса	-11.226
▁валут	-11.2267
▁създание	-11.2274
▁плодове	-11.2275
▁съзнател	-11.2278
▁клинични	-11.228
▁нормална	-11.2289
▁ухо	-11.229
▁хвърли	-11.2294
▁граф	-11.2309
▁възпр	-11.2322
▁риб	-11.2336
стично	-11.2343
SE	-11.2346
▁главни	-11.2347
цветен	-11.2348
уел	-11.2351
▁спася	-11.2354
▁объркан	-11.2362
▁дявол	-11.2366
▁мотив	-11.2371
▁търсех	-11.2389
▁пасив	-11.2389
▁метан	-11.2396
▁дребни	-11.2403
▁Следващия	-11.2403
▁виртуални	-11.2407
дисциплина	-11.241
задълбочен	-11.241
▁великолеп	-11.241
▁завладя	-11.241
▁зеленчуци	-11.241
▁изобразява	-11.241
▁карикатури	-11.241
▁медицинско	-11.241
▁поддръжка	-11.241
▁престъпление	-11.241
▁цифров	-11.241
▁мразя	-11.241
▁Център	-11.241
▁успея	-11.241
▁порядък	-11.241
▁Ясно	-11.241
▁Познава	-11.241
▁стомана	-11.241
▁доказва	-11.241
анхатън	-11.241
▁автоном	-11.241
▁акула	-11.2411
▁фундаментално	-11.2411
▁нещастие	-11.2412
▁In	-11.2412
▁Скот	-11.2413
▁служа	-11.2414
▁подходяща	-11.2416
▁плашещ	-11.2418
значим	-11.2419
li	-11.242
▁придържа	-11.2432
▁визуално	-11.2435
▁оператор	-11.2436
▁правителствени	-11.2438
▁ядро	-11.244
блъ	-11.2444
▁вреда	-11.2447
▁Сигурно	-11.2447
▁горещо	-11.2447
▁върхове	-11.245
▁частица	-11.248
▁Кир	-11.249
▁вреди	-11.2499
мощен	-11.2501
учени	-11.2504
▁причинен	-11.251
▁физик	-11.2517
▁информационни	-11.2532
▁намиране	-11.2533
▁Нашия	-11.2535
▁обещава	-11.2537
▁Титан	-11.2538
технологич	-11.2549
бягва	-11.2563
пускаме	-11.2564
агресив	-11.2574
▁Глобал	-11.2574
▁Оксфорд	-11.2574
▁администрация	-11.2574
▁компромис	-11.2574
▁оригами	-11.2574
▁принадлежи	-11.2574
▁сблъсък	-11.2574
▁ядосан	-11.2574
▁открадна	-11.2574
▁усвоява	-11.2574
▁бежанци	-11.2574
▁престъпност	-11.2574
▁графики	-11.2574
▁Изследва	-11.2574
▁списания	-11.2574
▁кафяв	-11.2574
▁спешно	-11.2574
▁сянка	-11.2575
▁студено	-11.2575
▁Струва	-11.2577
▁сделка	-11.2578
▁включа	-11.2578
▁изкара	-11.258
▁твои	-11.258
▁съвременна	-11.2581
▁фундаментални	-11.2581
▁тревожи	-11.2588
▁мерки	-11.2592
▁печата	-11.2596
▁работещ	-11.2598
▁разрез	-11.2599
▁стабилност	-11.2615
▁глобализация	-11.2616
седмичн	-11.2618
▁Шест	-11.2625
▁пия	-11.264
▁разделение	-11.2645
мисъл	-11.2646
▁ежедневие	-11.2655
▁летящ	-11.2656
▁Бор	-11.271
▁кръгове	-11.2715
красив	-11.272
▁зъб	-11.2727
▁удивител	-11.2728
▁разбрал	-11.2736
▁антибиотици	-11.274
▁динозавър	-11.274
▁земеделски	-11.274
▁инжектира	-11.274
▁категория	-11.274
▁нагласа	-11.274
▁обработка	-11.274
▁обсебен	-11.274
▁пенсионира	-11.274
▁постижение	-11.274
▁регистрира	-11.274
▁Слуша	-11.274
▁запомня	-11.274
▁филантроп	-11.274
▁очерта	-11.274
▁батерии	-11.274
▁изпробва	-11.274
състрадател	-11.274
▁приземи	-11.274
▁доверява	-11.2741
▁Уор	-11.2741
▁архитектурн	-11.2742
▁химични	-11.2742
▁мотивация	-11.2742
▁Чух	-11.2742
▁статии	-11.2742
▁смяна	-11.2743
▁ХХ	-11.2745
▁традиционна	-11.2745
▁2003	-11.2746
▁детектор	-11.2747
▁свърша	-11.2749
▁емоция	-11.2753
▁химикал	-11.2765
▁800	-11.2774
▁завършил	-11.2775
▁слава	-11.2777
▁сметки	-11.2784
правил	-11.2787
▁дигитално	-11.2787
▁служител	-11.2789
▁докладва	-11.28
▁Първи	-11.2805
▁осъществява	-11.2822
▁студ	-11.283
▁имплант	-11.2845
▁графич	-11.2846
▁Извед	-11.2851
▁рентгенов	-11.2876
▁боре	-11.2876
▁придобива	-11.2879
▁Боб	-11.2884
специално	-11.2891
З	-11.2891
▁независимост	-11.2893
▁изненадва	-11.2896
▁Уикипедия	-11.291
▁алгоритъм	-11.291
▁геноцид	-11.291
▁гражданска	-11.291
▁маршрут	-11.291
▁октомври	-11.291
▁хипотеза	-11.291
▁Говоря	-11.291
▁басейн	-11.291
▁безполез	-11.291
▁импровизира	-11.291
▁недостиг	-11.291
▁сглобява	-11.291
▁посочи	-11.291
▁изхранва	-11.291
▁обвинява	-11.291
▁предвижда	-11.291
▁уникални	-11.291
▁Показва	-11.291
▁маймуна	-11.291
▁лампа	-11.291
▁агенция	-11.291
▁чичо	-11.291
▁кабинет	-11.291
▁кауза	-11.291
▁картоф	-11.291
▁повтори	-11.291
▁капка	-11.291
▁оправи	-11.291
▁глупаво	-11.2911
▁електроника	-11.2914
▁биологична	-11.2915
▁ходех	-11.2916
▁пътека	-11.2918
▁колона	-11.292
▁примат	-11.2922
▁юни	-11.2923
▁2001	-11.2925
▁комета	-11.2928
▁Кинг	-11.293
▁водач	-11.2944
▁мач	-11.2974
▁дъх	-11.2984
▁опера	-11.3022
▁ежедневни	-11.3026
▁спомни	-11.3038
смислено	-11.3047
▁простира	-11.3061
▁атака	-11.3074
МР	-11.3078
▁Библия	-11.3082
▁бутилки	-11.3082
▁измерение	-11.3082
▁криминал	-11.3082
▁обожава	-11.3082
▁озаглавен	-11.3082
▁ориентира	-11.3082
▁отбелязва	-11.3082
▁пренебрегва	-11.3082
▁разстояния	-11.3082
▁резолюция	-11.3082
▁симулация	-11.3082
▁съществено	-11.3082
▁трагедия	-11.3082
▁усмихва	-11.3082
▁цунами	-11.3082
▁оцелели	-11.3082
▁фармацевти	-11.3082
▁шапка	-11.3082
▁заинтересован	-11.3082
▁пещера	-11.3082
▁рецептор	-11.3082
▁симулира	-11.3082
▁сгъва	-11.3082
▁кристал	-11.3082
▁критично	-11.3082
▁Правителств	-11.3083
▁лъжа	-11.3083
▁Глас	-11.3083
▁наркоман	-11.3084
▁изтича	-11.3084
▁слонове	-11.3084
▁корем	-11.3084
▁глупави	-11.3087
▁звуков	-11.3093
▁налични	-11.3102
▁Към	-11.3105
▁виновн	-11.3106
▁излага	-11.3111
▁Единия	-11.3124
▁сайтове	-11.3129
бавно	-11.3129
▁нуж	-11.3138
познайте	-11.3138
▁тенис	-11.3144
▁Смята	-11.3156
▁дробове	-11.3161
▁изхвърли	-11.317
ложим	-11.3198
▁завод	-11.3205
висок	-11.3241
▁донор	-11.3242
против	-11.3247
креатив	-11.3253
▁ФБР	-11.3258
▁диоксид	-11.3258
▁ентропия	-11.3258
▁изречения	-11.3258
▁обмисля	-11.3258
▁оркестър	-11.3258
▁съвпада	-11.3258
▁генетична	-11.3258
▁мелодия	-11.3258
▁политическо	-11.3258
▁удвои	-11.3258
▁централно	-11.3258
▁максима	-11.3258
▁празнува	-11.3258
грешен	-11.3258
▁критична	-11.3258
▁оперира	-11.3258
▁Уилям	-11.3258
▁бомби	-11.3258
▁японски	-11.3258
▁Създава	-11.3258
▁Холивуд	-11.3258
▁довежда	-11.3258
▁Приятел	-11.3259
▁минус	-11.3259
▁фронт	-11.326
▁миризма	-11.326
▁ходене	-11.326
▁класически	-11.3261
▁внуци	-11.3261
▁мирише	-11.3261
▁Смит	-11.3261
PS	-11.3262
▁независими	-11.3262
▁дял	-11.3263
директ	-11.3263
▁повишен	-11.3264
▁знач	-11.3267
▁ретина	-11.3269
▁готино	-11.3269
▁проведох	-11.3269
▁смешно	-11.3272
▁лежи	-11.3272
▁възход	-11.3274
▁измени	-11.33
▁Вас	-11.3322
лоша	-11.333
кинс	-11.3342
ol	-11.3364
▁паркира	-11.3366
▁мозъч	-11.339
▁действител	-11.3399
степен	-11.3427
мащаб	-11.3428
истична	-11.3435
▁Срещнах	-11.3436
▁абсурд	-11.3436
▁асансьор	-11.3436
▁аудитория	-11.3436
▁заобиколен	-11.3436
▁изработен	-11.3436
▁катастрофи	-11.3436
▁математици	-11.3436
▁наблюдател	-11.3436
▁нарушава	-11.3436
▁съглася	-11.3436
▁чуждестран	-11.3436
▁парализиран	-11.3436
▁похарчи	-11.3436
▁сладки	-11.3436
▁загубен	-11.3436
▁трупа	-11.3436
▁бензин	-11.3436
▁въвлечен	-11.3436
▁заразява	-11.3436
▁въздушни	-11.3437
▁преструва	-11.3437
▁необичайно	-11.3437
▁изтъкна	-11.3437
▁Джеф	-11.3438
▁ярост	-11.3439
▁тежест	-11.3439
▁хидро	-11.344
доволен	-11.3442
▁отпечата	-11.3445
▁преговори	-11.3445
▁емоционални	-11.3446
▁засегнати	-11.3448
▁гъвкавост	-11.3451
▁МС	-11.3452
▁Наука	-11.3456
▁мнозинство	-11.3457
▁американско	-11.3457
▁остри	-11.3463
▁33	-11.3466
▁интензивно	-11.3466
▁Брун	-11.3469
▁лоб	-11.3472
▁заинтересува	-11.3489
▁Общо	-11.3503
▁романтич	-11.3505
▁натрупа	-11.3516
▁Бъд	-11.3557
▁биолог	-11.3563
▁плъх	-11.3564
▁дизайнерски	-11.3565
▁отнесе	-11.3566
разбира	-11.3602
lo	-11.3604
Щ	-11.3616
▁Министерство	-11.3618
▁Съжалявам	-11.3618
▁агенции	-11.3618
▁инвестиция	-11.3618
▁картографира	-11.3618
▁категории	-11.3618
▁мярка	-11.3618
▁парадигма	-11.3618
▁фабрики	-11.3618
▁Говоре	-11.3618
▁сандвич	-11.3618
▁британски	-11.3618
▁бляскав	-11.3618
▁изразходва	-11.3618
▁отдалечава	-11.3618
▁забавни	-11.3618
▁операционна	-11.3618
▁упорит	-11.3619
▁освободен	-11.3619
▁неочаквано	-11.3619
▁трагич	-11.3619
▁танцьор	-11.3619
▁ожени	-11.3621
▁реформа	-11.3621
▁гледка	-11.3623
▁студена	-11.3625
▁варира	-11.3627
▁смелост	-11.363
▁износ	-11.3631
▁преглежда	-11.3636
▁вълнуващи	-11.3639
▁птич	-11.3642
▁Белия	-11.3643
ционалн	-11.3653
un	-11.3654
▁финанси	-11.3668
▁сесия	-11.3673
▁плъхове	-11.3673
▁блестя	-11.3684
▁спестявания	-11.3688
▁затворници	-11.3722
▁Коран	-11.3731
▁разтвор	-11.3733
▁човече	-11.3733
▁55	-11.3788
реалистичн	-11.3791
▁засегна	-11.3791
▁върх	-11.3795
възможни	-11.3801
▁1990	-11.3803
▁Усеща	-11.3803
▁ангажимент	-11.3803
▁дискусии	-11.3803
▁екосистеми	-11.3803
▁елегант	-11.3803
▁несигурност	-11.3803
▁парламент	-11.3803
▁процедура	-11.3803
▁споразумение	-11.3803
▁травма	-11.3803
▁хеликоптер	-11.3803
▁царевица	-11.3803
▁Гейтс	-11.3803
▁недостатъч	-11.3803
▁предсказва	-11.3803
▁Разказва	-11.3803
▁растящ	-11.3803
▁бряг	-11.3803
▁счупен	-11.3803
▁хумор	-11.3803
▁грешни	-11.3803
▁поведения	-11.3803
▁докосне	-11.3803
▁метаболиз	-11.3804
▁насилствен	-11.3804
▁твое	-11.3804
▁глух	-11.3804
▁тайно	-11.3805
▁водна	-11.3805
▁мебели	-11.3805
▁мъничко	-11.3807
▁прочут	-11.381
▁върве	-11.3812
▁пазя	-11.3814
▁крачка	-11.3818
um	-11.3831
мъдр	-11.3855
▁безсмислен	-11.3857
▁суров	-11.3913
▁Тесл	-11.3914
▁специалист	-11.3937
▁крайник	-11.3946
▁вулкан	-11.3947
▁приложен	-11.3958
▁храня	-11.3971
▁Големи	-11.3979
▁написан	-11.399
▁Продължава	-11.3992
▁отбеляза	-11.3992
▁успокоя	-11.3992
▁Анжелис	-11.3992
▁Звучи	-11.3992
▁Огром	-11.3992
▁експлодира	-11.3992
▁инсулин	-11.3992
▁преобрази	-11.3992
▁преодолее	-11.3992
▁продажби	-11.3992
▁процъфтява	-11.3992
▁траектория	-11.3992
▁шарка	-11.3992
▁провинция	-11.3992
▁счупи	-11.3992
▁намерения	-11.3992
▁Хенри	-11.3992
▁Норве	-11.3993
▁заплата	-11.3993
▁замяна	-11.3994
▁роднини	-11.3994
▁визуализира	-11.3995
▁изигра	-11.3995
▁стъклен	-11.3995
▁военна	-11.3996
▁Третия	-11.3996
▁ръчно	-11.3996
▁звуча	-11.3996
▁културно	-11.3997
▁ракета	-11.3997
▁критик	-11.3997
▁супа	-11.3998
▁тясно	-11.4002
▁стадион	-11.4006
▁Учени	-11.4007
▁забеляза	-11.4008
▁запали	-11.4024
▁дарения	-11.4026
▁Север	-11.4031
▁опише	-11.4033
озни	-11.4048
▁богове	-11.4051
▁навици	-11.4054
даденост	-11.4058
▁Забележ	-11.4059
▁столове	-11.4066
▁срив	-11.4082
▁ръководство	-11.4088
иканск	-11.4091
▁Техни	-11.4116
▁осъзнал	-11.4128
▁марки	-11.4128
▁изстрелва	-11.4143
▁подписа	-11.4145
▁дълг	-11.415
▁съсредоточава	-11.416
▁мънич	-11.4171
▁изпуска	-11.4184
amp	-11.4184
▁1980	-11.4184
▁Абсолютно	-11.4184
▁декември	-11.4184
▁диапазон	-11.4184
▁конкурс	-11.4184
▁координа	-11.4184
▁представление	-11.4184
▁скулптура	-11.4184
▁уплашен	-11.4184
▁Флорид	-11.4184
▁банкер	-11.4184
▁европейски	-11.4184
▁матрица	-11.4184
▁практики	-11.4184
▁грубо	-11.4184
▁Коледа	-11.4184
▁колеба	-11.4184
▁пещери	-11.4184
▁безброй	-11.4184
▁оформи	-11.4184
▁ябълка	-11.4184
▁Върнах	-11.4185
▁редовно	-11.4185
▁млн	-11.4185
,6	-11.4185
▁възпита	-11.4185
▁изкачи	-11.4185
,4	-11.4185
дневен	-11.4185
▁изключителен	-11.4185
▁щял	-11.4188
▁прониква	-11.4188
▁полезна	-11.4188
▁Джонсън	-11.4188
▁имунна	-11.419
▁племенни	-11.419
▁Сахар	-11.4191
▁ефективна	-11.4191
▁горния	-11.4194
▁порасна	-11.4195
▁Северния	-11.4201
▁разреша	-11.4204
▁финал	-11.4206
▁струни	-11.4214
▁отчаяние	-11.4221
▁изобретение	-11.4221
▁записах	-11.4227
▁отворя	-11.423
▁игла	-11.4234
оналд	-11.4237
▁царство	-11.4247
▁допир	-11.4255
▁неврологич	-11.4256
▁срок	-11.4261
▁органични	-11.4275
▁преведе	-11.4277
▁плаващ	-11.4281
▁Голям	-11.4285
▁Слага	-11.4286
▁обсег	-11.4301
▁подобря	-11.4378
▁всичк	-11.4379
▁хап	-11.4379
▁косми	-11.438
▁Резултат	-11.438
▁Бангладеш	-11.438
▁Делхи	-11.438
▁МТИ	-11.438
▁Наблюдава	-11.438
▁Технология	-11.438
▁вещество	-11.438
▁генетичен	-11.438
▁диаметър	-11.438
▁дистанционно	-11.438
▁експедиция	-11.438
▁завръща	-11.438
▁китайска	-11.438
▁печалби	-11.438
▁присъда	-11.438
▁ръкопис	-11.438
▁съотношение	-11.438
▁транзистор	-11.438
▁тъмнина	-11.438
▁филтрира	-11.438
▁Твърде	-11.438
▁изчерп	-11.438
▁принуден	-11.438
▁наказание	-11.438
▁добитък	-11.438
▁червеи	-11.438
▁задейства	-11.438
▁фраза	-11.438
▁предпази	-11.438
▁кураж	-11.438
▁заповед	-11.4381
▁медийни	-11.4381
▁тишина	-11.4381
▁читател	-11.4381
▁готвене	-11.4381
▁греша	-11.4381
▁наподобява	-11.4381
▁готвач	-11.4381
▁чудех	-11.4382
▁отърве	-11.4382
▁кратка	-11.4384
▁туит	-11.4385
▁откажа	-11.4385
▁татко	-11.4386
настояще	-11.4389
▁29	-11.4389
▁търка	-11.439
▁Лю	-11.439
▁отдалечени	-11.4392
▁благодарност	-11.4396
▁докара	-11.4396
▁твърдо	-11.4397
▁градини	-11.4398
▁оч	-11.4421
▁сорт	-11.4446
▁гнев	-11.4449
▁разочарован	-11.4479
▁доколко	-11.4495
ЛТ	-11.4501
▁разделен	-11.4523
▁лого	-11.4532
▁картичк	-11.4533
▁лъч	-11.4548
▁обществен	-11.4555
фундаментал	-11.4563
▁превоз	-11.4566
добие	-11.4577
ностатистически	-11.458
▁Създадох	-11.458
▁бедствия	-11.458
▁безпрецедент	-11.458
▁възобнов	-11.458
▁заглавия	-11.458
▁местоположение	-11.458
▁миниатюр	-11.458
▁модифицира	-11.458
▁непосредствен	-11.458
▁обединен	-11.458
▁окситоцин	-11.458
▁поговоря	-11.458
▁преоткри	-11.458
▁цифра	-11.458
▁Свобод	-11.458
▁Специал	-11.458
▁Червени	-11.458
▁неуспех	-11.458
▁парадокс	-11.458
▁безработ	-11.458
▁дилема	-11.458
▁изкривява	-11.458
▁елиминира	-11.458
▁училищни	-11.458
▁Родители	-11.458
▁калории	-11.458
▁копринен	-11.458
▁принуди	-11.458
▁подзем	-11.4581
▁приемлив	-11.4581
▁натисне	-11.4581
▁запазя	-11.4581
▁желез	-11.4581
▁килим	-11.4582
▁мъч	-11.4582
▁изключителна	-11.4582
▁изчислителна	-11.4583
▁подложен	-11.4583
▁Момче	-11.4584
▁пресича	-11.4584
▁персонализира	-11.4584
▁нули	-11.4585
▁защитни	-11.4587
▁свежда	-11.4588
▁музикална	-11.4589
▁трикове	-11.4592
▁Американски	-11.4604
▁важ	-11.4609
▁Интер	-11.4613
▁добив	-11.465
ийд	-11.4667
▁блогове	-11.4691
▁развълнува	-11.4698
▁остарява	-11.4708
блъсква	-11.4712
паднали	-11.4714
▁разпределен	-11.4736
▁изчислен	-11.4746
▁85	-11.4748
▁презерватив	-11.4784
▁пясъч	-11.4784
▁Apple	-11.4784
▁Едуард	-11.4784
▁Кеймбридж	-11.4784
▁Означава	-11.4784
▁геометрия	-11.4784
▁експлозия	-11.4784
▁изсвири	-11.4784
▁мрежов	-11.4784
▁наблюдения	-11.4784
▁премахна	-11.4784
▁приготвя	-11.4784
▁припомня	-11.4784
▁съсредоточен	-11.4784
▁уравнения	-11.4784
▁ваканция	-11.4784
▁Мрежа	-11.4784
▁версии	-11.4784
▁дневни	-11.4785
▁сътруднича	-11.4785
▁контраст	-11.4785
▁фигури	-11.4785
▁тормоз	-11.4785
▁задържи	-11.4785
АНС	-11.4785
▁наруши	-11.4785
▁критери	-11.4785
▁стреля	-11.4785
неутрал	-11.4785
▁престъпници	-11.4785
▁оправя	-11.4785
▁сървър	-11.4785
▁спести	-11.4785
▁желал	-11.4786
▁прибере	-11.4786
▁запаси	-11.4786
▁сълзи	-11.4786
▁умрял	-11.4787
▁прецени	-11.4787
▁фантастични	-11.4787
▁изнесе	-11.4787
▁Чувствах	-11.4788
▁простатата	-11.4793
▁кули	-11.48
▁психологич	-11.4819
▁вълнуваща	-11.4822
▁разказвач	-11.4828
▁уличн	-11.4834
влява	-11.4851
▁врагове	-11.4854
▁столче	-11.4872
▁Уай	-11.4874
▁инстинкт	-11.49
▁склонност	-11.4901
▁захвана	-11.4909
седнал	-11.4949
▁структур	-11.4954
▁различи	-11.4966
ation	-11.4993
▁Леонардо	-11.4993
▁Очаква	-11.4993
▁братовчед	-11.4993
▁брилянт	-11.4993
▁вълшеб	-11.4993
▁галерия	-11.4993
▁дузина	-11.4993
▁евентуално	-11.4993
▁замърсител	-11.4993
▁инфекция	-11.4993
▁насекомо	-11.4993
▁охлюв	-11.4993
▁прехвърля	-11.4993
▁приказки	-11.4993
▁първоначална	-11.4993
▁революцион	-11.4993
▁статистически	-11.4993
▁супермаркет	-11.4993
▁съчувствие	-11.4993
▁увреждане	-11.4993
▁Амазон	-11.4993
▁вакуум	-11.4993
▁наводнен	-11.4993
▁слоеве	-11.4993
▁грешна	-11.4993
▁изтегля	-11.4993
▁навлезе	-11.4993
▁тюлен	-11.4993
▁опростен	-11.4993
▁лепило	-11.4993
▁състояния	-11.4993
▁бонобо	-11.4993
▁загадка	-11.4993
▁Президент	-11.4993
▁постъпи	-11.4993
▁лампи	-11.4993
▁кръвоносни	-11.4993
▁Мандел	-11.4993
▁служби	-11.4993
▁вибрира	-11.4993
▁Каролин	-11.4993
▁евреи	-11.4993
▁Прилича	-11.4993
▁докажа	-11.4994
▁генетика	-11.4994
▁иновативни	-11.4995
▁Разбрах	-11.4995
▁променен	-11.4995
▁Лестер	-11.4996
▁забележителна	-11.4996
and	-11.4996
спокойн	-11.4997
▁изяде	-11.5
▁Гърци	-11.5
▁кух	-11.5017
▁установява	-11.5023
хубави	-11.5027
▁осигуря	-11.5042
окей	-11.5047
▁обещание	-11.5052
▁тегл	-11.5091
▁Вярва	-11.5106
ent	-11.511
▁потребителски	-11.5114
▁появя	-11.5115
▁Чувств	-11.5148
▁слива	-11.5149
▁неприят	-11.5174
▁ускори	-11.519
▁Швейцар	-11.5206
консерватив	-11.5206
▁конструкция	-11.5206
▁правосъдие	-11.5206
▁пъзел	-11.5206
▁2012	-11.5206
▁Дизайн	-11.5206
▁джихад	-11.5206
▁изкопаеми	-11.5206
▁надежди	-11.5206
▁отражение	-11.5206
▁търпение	-11.5206
▁формула	-11.5206
▁обхваща	-11.5206
▁барабан	-11.5206
▁ускорен	-11.5206
▁отрицател	-11.5206
▁допамин	-11.5206
▁екологично	-11.5206
▁преценява	-11.5206
мистериоз	-11.5206
▁подслон	-11.5206
▁краткосроч	-11.5206
▁оборот	-11.5206
▁Вдигн	-11.5206
▁комикс	-11.5206
▁Война	-11.5206
▁мастило	-11.5206
▁Природа	-11.5206
ржентин	-11.5206
▁ферми	-11.5206
▁предимства	-11.5207
▁чувствителни	-11.5207
▁ензим	-11.5207
▁ефикасност	-11.5207
анхай	-11.5207
вгуст	-11.5208
▁Колумбия	-11.5209
▁храм	-11.5209
▁креативни	-11.5209
▁галон	-11.521
▁пиеса	-11.5211
▁мънички	-11.5216
▁специфично	-11.5222
▁гигантска	-11.5222
▁впечатление	-11.5227
среща	-11.5234
▁разруши	-11.5247
▁завися	-11.5248
▁решен	-11.5278
съвремен	-11.5282
SA	-11.5289
програм	-11.5295
▁увеличе	-11.5408
▁построяване	-11.541
▁депресира	-11.5423
▁доближава	-11.5423
▁желязо	-11.5423
▁мюсюлманск	-11.5423
▁посещение	-11.5423
▁урбаниз	-11.5423
▁Чудесно	-11.5423
▁въздейства	-11.5423
▁възпроизвежда	-11.5423
▁задръстване	-11.5423
▁пигмент	-11.5423
▁статистики	-11.5423
▁уникален	-11.5423
▁Берлин	-11.5423
▁Брайън	-11.5423
▁навътре	-11.5423
▁ненулев	-11.5423
▁характеристика	-11.5423
▁хроничн	-11.5423
▁субсиди	-11.5423
▁монтира	-11.5423
▁бедствие	-11.5423
▁стъпала	-11.5423
▁полукълб	-11.5423
▁светулки	-11.5423
▁платформи	-11.5423
▁тласка	-11.5423
▁избегна	-11.5423
▁Независимо	-11.5423
▁атлети	-11.5423
▁картинка	-11.5424
▁мнения	-11.5424
,8	-11.5424
търсач	-11.5424
▁Вътре	-11.5425
,1	-11.5425
▁туристи	-11.5426
▁образователни	-11.5428
▁нарко	-11.5429
▁Арабск	-11.5429
▁криви	-11.543
▁St	-11.5431
▁поканен	-11.5433
▁оператив	-11.5444
▁нишка	-11.5449
▁призив	-11.5451
▁свеж	-11.5453
връзка	-11.5454
▁забраве	-11.5458
▁реформи	-11.5466
▁рентген	-11.5467
уверени	-11.5471
▁спонсорира	-11.5478
▁130	-11.5486
▁прехвърли	-11.5492
ведени	-11.5503
▁шимпанзе	-11.5506
енеди	-11.5507
▁доведа	-11.5526
▁дойда	-11.555
▁артистич	-11.5569
▁капитализм	-11.5574
▁Разлик	-11.5592
ледователно	-11.5597
,	-11.5618
▁груп	-11.562
удовлетворен	-11.5645
▁беседа	-11.5645
▁бъркотия	-11.5645
▁враждеб	-11.5645
▁допринесе	-11.5645
▁инфекции	-11.5645
▁криптира	-11.5645
▁мениджър	-11.5645
▁оцелеят	-11.5645
▁приключение	-11.5645
▁свободна	-11.5645
▁сътрудничи	-11.5645
▁фестивал	-11.5645
▁човечност	-11.5645
▁Монтерей	-11.5645
▁аудио	-11.5645
▁биоразнообразие	-11.5645
▁крещя	-11.5645
▁мълчание	-11.5645
▁тропически	-11.5645
ристотел	-11.5645
▁греши	-11.5645
▁днешна	-11.5645
▁влюбен	-11.5645
▁глагол	-11.5645
▁състезател	-11.5645
▁тротоар	-11.5645
▁изменение	-11.5645
▁насърчи	-11.5645
▁корица	-11.5645
▁преместя	-11.5645
зрастнах	-11.5645
▁мистерия	-11.5645
▁запазен	-11.5645
▁тържеств	-11.5645
▁ултра	-11.5646
▁отказах	-11.5646
▁екология	-11.5646
▁поръчка	-11.5646
имуществ	-11.5647
▁храст	-11.5647
▁неочаквани	-11.5647
▁норми	-11.5647
▁потвърди	-11.5648
▁Малки	-11.5648
▁опции	-11.5648
TI	-11.5648
▁копче	-11.5649
▁Клинт	-11.565
▁ъгли	-11.5651
▁твърда	-11.5651
иноватив	-11.5652
▁промишленост	-11.5659
▁влияя	-11.5664
печеливш	-11.567
▁отпечатва	-11.5676
различен	-11.5681
достъп	-11.5681
▁пространст	-11.5697
въгле	-11.5726
подробно	-11.5768
физ	-11.5801
▁принц	-11.5801
▁Андрю	-11.5872
▁Зеландия	-11.5872
▁Интересува	-11.5872
▁Ключ	-11.5872
▁възхищава	-11.5872
▁гръцк	-11.5872
▁джунгла	-11.5872
▁институционал	-11.5872
▁метафори	-11.5872
▁омраза	-11.5872
▁стратегическ	-11.5872
▁съгласен	-11.5872
▁търговска	-11.5872
▁условие	-11.5872
▁SMS	-11.5872
▁парникови	-11.5872
▁пистолет	-11.5872
▁подхранва	-11.5872
▁популации	-11.5872
▁редактира	-11.5872
▁ръкопляска	-11.5872
▁хирурзи	-11.5872
смуква	-11.5872
▁албум	-11.5872
▁репортер	-11.5872
▁Танзани	-11.5872
▁кошмар	-11.5873
▁медийна	-11.5873
▁творци	-11.5873
▁усърдн	-11.5873
▁вариации	-11.5873
▁строеж	-11.5873
▁аноним	-11.5873
▁бременна	-11.5873
▁превежда	-11.5873
▁изяжда	-11.5873
▁протокол	-11.5873
▁докосна	-11.5873
▁драска	-11.5873
▁белези	-11.5873
▁наличие	-11.5874
ционира	-11.5874
org	-11.5874
▁извика	-11.5876
▁посвети	-11.5876
▁сравните	-11.5876
▁2020	-11.5877
▁оратор	-11.5877
▁преводач	-11.5877
▁отвежда	-11.5877
▁спазва	-11.5878
▁любимо	-11.5878
▁1950	-11.5879
▁божеств	-11.5881
▁фатал	-11.5881
▁документал	-11.5882
▁леща	-11.5901
▁изхвърлен	-11.5903
▁земни	-11.5906
▁сапун	-11.5908
▁гордост	-11.5931
▁Нелс	-11.5933
РУ	-11.5952
▁барел	-11.5958
благород	-11.6013
ul	-11.6014
▁прилив	-11.605
▁допуска	-11.605
разпростран	-11.6096
▁ментор	-11.6098
амбициоз	-11.6105
▁демографски	-11.6105
▁ембрион	-11.6105
▁задължение	-11.6105
▁задължения	-11.6105
▁изоставен	-11.6105
▁недвижим	-11.6105
▁оранжев	-11.6105
▁оцелял	-11.6105
▁полицейски	-11.6105
▁принадлежа	-11.6105
▁прогноза	-11.6105
▁професии	-11.6105
▁сработи	-11.6105
▁съвпадение	-11.6105
▁усмивка	-11.6105
▁хуманитарни	-11.6105
▁2015	-11.6105
▁Случва	-11.6105
▁гълъб	-11.6105
▁енергийно	-11.6105
▁епизод	-11.6105
▁индекс	-11.6105
▁мазнини	-11.6105
▁парашут	-11.6105
▁плочки	-11.6105
▁призовава	-11.6105
▁лъвове	-11.6105
▁Щях	-11.6105
▁акцент	-11.6105
▁лодки	-11.6105
▁героя	-11.6105
▁редактор	-11.6105
▁цикли	-11.6105
▁откровен	-11.6105
▁изказва	-11.6105
▁излезли	-11.6105
▁мигрира	-11.6106
▁анатоми	-11.6106
▁Останал	-11.6106
▁пропаст	-11.6106
▁Дисни	-11.6106
▁сегмент	-11.6106
▁идиот	-11.6106
▁измами	-11.6106
▁стремя	-11.6106
▁продуктивност	-11.6107
▁обичайно	-11.6108
▁облича	-11.6108
▁критикува	-11.6111
▁насока	-11.6112
▁осъден	-11.6115
очакван	-11.6127
▁бунт	-11.6135
▁кошер	-11.614
▁протестира	-11.6156
▁обич	-11.6158
▁отправя	-11.6165
▁Камер	-11.6182
▁позволен	-11.6219
▁причин	-11.6234
▁демократични	-11.6241
▁Газ	-11.6247
▁математик	-11.6263
▁машин	-11.6265
▁гигант	-11.6321
▁примитив	-11.633
▁внася	-11.6342
▁The	-11.6343
▁Вирджин	-11.6343
▁Държав	-11.6343
▁Латинска	-11.6343
▁айсберг	-11.6343
▁благослови	-11.6343
▁дефект	-11.6343
▁излишък	-11.6343
▁инсталация	-11.6343
▁предупреждение	-11.6343
▁приключва	-11.6343
▁размишлява	-11.6343
▁размножава	-11.6343
▁убеждава	-11.6343
▁Звук	-11.6343
▁равнява	-11.6343
▁форум	-11.6343
▁дълбини	-11.6343
▁хищници	-11.6343
▁синдром	-11.6343
▁шегува	-11.6343
▁питейна	-11.6343
▁плочи	-11.6343
▁отстранява	-11.6343
▁хибрид	-11.6343
▁пионер	-11.6343
▁сервира	-11.6343
▁яйце	-11.6343
▁завъртя	-11.6343
▁сантимет	-11.6344
▁военно	-11.6344
▁захваща	-11.6344
▁потиска	-11.6345
▁застрашени	-11.6346
▁изчака	-11.6346
▁семейно	-11.6346
▁традиционно	-11.6346
▁ЛГ	-11.6347
▁защитя	-11.6348
▁влошава	-11.6349
▁закуска	-11.635
▁катерач	-11.6353
съответствие	-11.6357
▁Страна	-11.6358
▁мазе	-11.6377
▁картон	-11.638
▁слънчев	-11.6382
сложно	-11.6395
различна	-11.6396
▁Тяхн	-11.6419
▁англ	-11.6425
пуснеш	-11.6446
средство	-11.6474
готин	-11.6485
скорошни	-11.649
▁популярно	-11.6503
нестабил	-11.6505
▁Погледн	-11.6526
приятни	-11.653
all	-11.6535
емоционал	-11.6566
впечатляващ	-11.6568
▁Шекспир	-11.6587
▁въоръжен	-11.6587
▁експлоатира	-11.6587
▁илюстрация	-11.6587
▁кампании	-11.6587
▁контейнер	-11.6587
▁концентрация	-11.6587
▁координира	-11.6587
▁легитим	-11.6587
▁обстановка	-11.6587
▁официално	-11.6587
▁процедури	-11.6587
▁разгръща	-11.6587
▁разпръсква	-11.6587
▁сглоби	-11.6587
▁уязвими	-11.6587
▁факултет	-11.6587
▁художествен	-11.6587
▁шрифт	-11.6587
безопасен	-11.6587
▁китайци	-11.6587
▁приветства	-11.6587
▁удвоява	-11.6587
▁повторя	-11.6587
▁подсказва	-11.6587
▁Виетнам	-11.6587
▁предскаже	-11.6587
▁бременност	-11.6587
▁прехрана	-11.6587
▁опакова	-11.6587
▁гръм	-11.6587
▁филтър	-11.6587
▁Паркинсон	-11.6587
▁Британия	-11.6587
▁реактор	-11.6587
▁прекосява	-11.6587
▁симетрич	-11.6587
▁елементарни	-11.6587
▁мислов	-11.6587
▁останки	-11.6587
▁поражда	-11.6588
▁обновя	-11.6588
▁заражда	-11.6588
▁пречиства	-11.6589
▁жица	-11.6589
▁съчетава	-11.6589
▁доставка	-11.6589
▁Исус	-11.659
▁позитивна	-11.6592
▁проверя	-11.6599
▁горски	-11.6609
американец	-11.6613
▁Бърт	-11.6623
▁вкарва	-11.6633
опасно	-11.664
хубаво	-11.6646
склонн	-11.6651
▁незначител	-11.6665
речем	-11.6669
изу	-11.6675
страшен	-11.6702
▁разлив	-11.671
значителна	-11.6738
океанск	-11.674
бележе	-11.6748
▁изпълня	-11.681
ируем	-11.6831
▁Връща	-11.6837
▁аналогия	-11.6837
▁балдахин	-11.6837
▁дисциплини	-11.6837
▁електроцентрал	-11.6837
▁разпределя	-11.6837
▁спечеля	-11.6837
▁стереотип	-11.6837
▁трансплантация	-11.6837
▁упражнение	-11.6837
▁фантастика	-11.6837
▁фрагмент	-11.6837
▁хармония	-11.6837
▁церемония	-11.6837
▁Позволе	-11.6837
▁класифицира	-11.6837
▁подхожда	-11.6837
▁претърпя	-11.6837
▁противопоставя	-11.6837
▁убийства	-11.6837
▁вълнение	-11.6837
▁драстично	-11.6837
▁опрашва	-11.6837
▁неврология	-11.6837
▁централни	-11.6837
▁Взима	-11.6837
▁погрижи	-11.6837
▁съпротива	-11.6837
▁нападение	-11.6837
▁Сноуд	-11.6837
▁чанта	-11.6837
▁подценява	-11.6837
▁прегърна	-11.6837
▁преценка	-11.6837
▁убийство	-11.6837
▁дърпа	-11.6838
▁Пътува	-11.6838
▁прекоси	-11.6838
▁Извине	-11.6838
▁желая	-11.6838
▁Цяло	-11.6838
разсъд	-11.6838
▁учудва	-11.6838
▁класическа	-11.6839
изтънчен	-11.6839
▁столица	-11.684
▁витамин	-11.6841
▁съмнява	-11.6843
▁Станах	-11.685
▁популярна	-11.6853
▁Съглас	-11.6859
▁разпръснат	-11.6867
предприемачество	-11.6874
стъпват	-11.6877
уместно	-11.689
хванах	-11.6892
инженер	-11.6902
сериозно	-11.6902
технологии	-11.6902
▁лаборатор	-11.7024
▁преведа	-11.7034
ЕК	-11.7048
▁пряк	-11.7049
▁стимулаци	-11.7062
▁благодарн	-11.7073
▁комуникацион	-11.7093
▁1998	-11.7093
▁Израснах	-11.7093
▁възвръща	-11.7093
▁изобрази	-11.7093
▁консултант	-11.7093
▁леопард	-11.7093
▁недостатъци	-11.7093
▁ноември	-11.7093
▁обвивка	-11.7093
▁обиколка	-11.7093
▁отвръща	-11.7093
▁превключва	-11.7093
▁предшественици	-11.7093
▁принуждава	-11.7093
▁смартфон	-11.7093
▁триъгълник	-11.7093
▁туберкулоза	-11.7093
▁тълкува	-11.7093
▁убеждение	-11.7093
▁уикенд	-11.7093
▁шаблон	-11.7093
▁шапки	-11.7093
▁Бронкс	-11.7093
▁диспле	-11.7093
▁растях	-11.7093
▁ръбове	-11.7093
▁треньор	-11.7093
▁увреден	-11.7093
▁усвои	-11.7093
▁Прекрас	-11.7094
▁Нобелова	-11.7094
▁повреден	-11.7094
▁сладко	-11.7094
▁житейск	-11.7094
▁главен	-11.7094
▁ветерани	-11.7094
▁Проучва	-11.7094
▁двоич	-11.7094
▁чувствителност	-11.7095
▁палец	-11.7095
▁мутации	-11.7095
▁сбърка	-11.7097
▁махна	-11.7098
▁забранен	-11.7099
▁майчин	-11.7101
▁роботизиран	-11.7102
▁Зная	-11.711
срещнат	-11.7192
мълч	-11.7269
▁сведе	-11.7311
▁социо	-11.7319
▁впечатлен	-11.7335
помних	-11.7346
▁Пекин	-11.7357
▁абсорбира	-11.7357
▁афганистан	-11.7357
▁баскетбол	-11.7357
▁бедняшки	-11.7357
▁безопасна	-11.7357
▁злоупотреба	-11.7357
▁конгрес	-11.7357
▁кънектом	-11.7357
▁незаконно	-11.7357
▁отбележи	-11.7357
▁разстройство	-11.7357
▁скептич	-11.7357
▁съединения	-11.7357
▁хрумва	-11.7357
▁цилиндър	-11.7357
▁бариера	-11.7357
▁снабдява	-11.7357
▁възприятия	-11.7357
▁кортекс	-11.7357
▁млрд	-11.7357
▁пристанище	-11.7357
▁генератор	-11.7357
▁палатка	-11.7357
▁осветява	-11.7357
▁блъска	-11.7357
▁бездомни	-11.7357
▁медуза	-11.7357
▁отвратител	-11.7357
▁разрушени	-11.7357
▁астма	-11.7357
▁разширени	-11.7357
▁Четвърт	-11.7357
▁оттегля	-11.7357
▁безпомощн	-11.7357
▁навърши	-11.7357
▁резервоар	-11.7357
▁подозира	-11.7357
▁тъга	-11.7357
▁Лесно	-11.7357
▁токсини	-11.7357
▁ярко	-11.7357
▁установен	-11.7357
▁изпълва	-11.7358
▁Добав	-11.736
▁Линкъ	-11.736
▁изгас	-11.736
▁естество	-11.7361
▁талантлив	-11.7361
▁фундаментална	-11.7365
▁слезе	-11.7365
▁Половин	-11.7366
▁челюст	-11.737
▁индустриални	-11.7378
▁аборт	-11.7386
използва	-11.7435
▁хомо	-11.7473
професионалист	-11.7539
ентрал	-11.7585
стабилна	-11.7607
▁сравнен	-11.7622
ингапур	-11.7627
▁1970	-11.7627
▁Калифорнийск	-11.7627
▁Написах	-11.7627
▁Силиконова	-11.7627
▁Уотсън	-11.7627
▁двуизмер	-11.7627
▁измъкне	-11.7627
▁концепции	-11.7627
▁куршум	-11.7627
▁палестин	-11.7627
▁панталони	-11.7627
▁поговорка	-11.7627
▁препятствия	-11.7627
▁проповед	-11.7627
▁психиатри	-11.7627
▁светодиод	-11.7627
▁сексуални	-11.7627
▁стопанств	-11.7627
▁творец	-11.7627
▁цивилизации	-11.7627
▁испански	-11.7627
▁лечения	-11.7627
▁обиколи	-11.7627
▁облекчение	-11.7627
▁аутизм	-11.7627
▁брутал	-11.7627
▁измъкна	-11.7627
▁минерали	-11.7627
▁предпочел	-11.7627
адаптив	-11.7627
▁мъгла	-11.7627
▁психологически	-11.7627
▁изтегли	-11.7627
▁фиксиран	-11.7627
▁хайде	-11.7627
▁ширина	-11.7627
▁опасен	-11.7627
▁привидно	-11.7627
▁Татко	-11.7627
▁април	-11.7627
▁изваден	-11.7628
▁зловещ	-11.7628
▁прибера	-11.7629
▁системн	-11.7629
▁сонда	-11.7629
▁обитава	-11.7629
▁статут	-11.763
▁обменя	-11.763
▁ревност	-11.7631
▁нежелан	-11.7632
▁Катрин	-11.7632
▁изменя	-11.7634
▁чаши	-11.7634
▁заразн	-11.7634
▁шах	-11.7639
▁чудно	-11.7639
▁Дадох	-11.7644
аньон	-11.7662
▁неизвестно	-11.7678
близко	-11.7713
интензив	-11.7858
▁окураж	-11.7899
дизвика	-11.7901
необичайн	-11.7904
▁астронавт	-11.7905
издръжлив	-11.7905
конструктив	-11.7905
▁MIT	-11.7905
▁iPod	-11.7905
▁Бъркли	-11.7905
▁екологична	-11.7905
▁измъчва	-11.7905
▁йерархия	-11.7905
▁квалифицира	-11.7905
▁клетъчна	-11.7905
▁култивира	-11.7905
▁лъскав	-11.7905
▁погрешни	-11.7905
▁полиомелит	-11.7905
▁посочва	-11.7905
▁прегръща	-11.7905
▁просперитет	-11.7905
▁резонанс	-11.7905
▁секвентира	-11.7905
▁съхранение	-11.7905
▁християни	-11.7905
▁Любов	-11.7905
▁безкрайна	-11.7905
▁знаменитост	-11.7905
▁изражение	-11.7905
▁предупреди	-11.7905
▁терапии	-11.7905
▁участък	-11.7905
мигранти	-11.7905
▁възприеме	-11.7905
▁изолация	-11.7905
▁теоретичн	-11.7905
▁Опитай	-11.7905
▁Сложих	-11.7905
▁двойна	-11.7905
▁повторен	-11.7905
▁учебници	-11.7905
▁присъщ	-11.7905
▁буркан	-11.7905
▁оформен	-11.7905
▁Случи	-11.7905
▁кълбо	-11.7905
▁Странно	-11.7905
▁люсп	-11.7905
▁бижу	-11.7905
▁близнаци	-11.7905
▁империя	-11.7905
▁статус	-11.7905
▁Изкуство	-11.7905
▁борса	-11.7905
▁идеология	-11.7905
▁Истински	-11.7905
▁приложа	-11.7905
▁отломки	-11.7905
▁щедрост	-11.7905
амбоджа	-11.7905
▁Агенция	-11.7906
податлив	-11.7906
▁натисна	-11.7906
▁Златн	-11.7908
▁неправилно	-11.7908
▁Американска	-11.7908
▁Машин	-11.7909
▁влиятел	-11.7912
▁Силви	-11.7913
▁полимер	-11.7913
▁ускорител	-11.7925
▁идентичн	-11.7926
▁посетя	-11.7933
▁Забав	-11.7947
▁увелича	-11.7956
процент	-11.7999
▁подлага	-11.808
▁патолог	-11.808
▁банан	-11.8106
▁напомни	-11.813
▁внимателн	-11.8153
▁възстановя	-11.8161
▁1999	-11.819
▁Архитект	-11.819
▁асоциира	-11.819
▁въображаем	-11.819
▁египтяни	-11.819
▁издигне	-11.819
▁интерпретация	-11.819
▁многообразие	-11.819
▁мобилизира	-11.819
▁надпревара	-11.819
▁неандерталци	-11.819
▁отбележа	-11.819
▁пластмаси	-11.819
▁повдигна	-11.819
▁прародител	-11.819
▁предразсъдъци	-11.819
▁разсъждава	-11.819
▁сулфид	-11.819
▁трансплантира	-11.819
▁чудовище	-11.819
▁чужбина	-11.819
доволство	-11.819
▁Еверест	-11.819
▁боядиса	-11.819
▁ветрове	-11.819
▁календар	-11.819
▁огъва	-11.819
▁приземява	-11.819
▁старомод	-11.819
▁безкрайни	-11.819
▁тълпи	-11.819
подозрени	-11.819
▁станции	-11.819
▁новинарски	-11.819
▁талибани	-11.819
▁ултразвук	-11.819
▁коментира	-11.819
▁прескочи	-11.819
▁Свързан	-11.819
▁извънредно	-11.819
▁Нордън	-11.819
▁спалня	-11.819
▁мрази	-11.819
▁послания	-11.819
▁реколта	-11.819
▁Учител	-11.8191
▁дъждовна	-11.8191
▁златни	-11.8191
▁симетрии	-11.8191
▁количествен	-11.8191
▁герман	-11.8191
▁Алекс	-11.8191
▁изтощен	-11.8192
▁преброи	-11.8193
▁седалка	-11.8194
▁Ирланд	-11.8195
▁припомни	-11.8213
престъпни	-11.8226
могъщ	-11.8229
▁отхвърли	-11.8233
▁настъпва	-11.8237
▁удобств	-11.8238
▁изпревар	-11.8282
▁непрекъснат	-11.8292
ръзки	-11.8295
▁Печ	-11.8326
ношение	-11.8387
пазване	-11.8415
▁постъпва	-11.8436
ианска	-11.8451
▁гръбнач	-11.8456
▁унищожен	-11.8461
▁Пациент	-11.8484
опенхаген	-11.8484
▁Необходим	-11.8484
▁Осъзнах	-11.8484
▁Поставя	-11.8484
▁аквариум	-11.8484
▁география	-11.8484
▁дискутира	-11.8484
▁добавка	-11.8484
▁изобразен	-11.8484
▁коригира	-11.8484
▁обобщава	-11.8484
▁обсъди	-11.8484
▁ограничи	-11.8484
▁офшор	-11.8484
▁оцвети	-11.8484
▁пестициди	-11.8484
▁поведенчески	-11.8484
▁потвърждава	-11.8484
▁препоръчва	-11.8484
▁провокира	-11.8484
▁произхожда	-11.8484
▁пружин	-11.8484
▁разновидност	-11.8484
▁режисьор	-11.8484
▁съоръжения	-11.8484
▁тропическа	-11.8484
▁французи	-11.8484
▁хилядолетия	-11.8484
▁химиотерапия	-11.8484
▁шизофрения	-11.8484
зявление	-11.8484
▁Разгледах	-11.8484
▁Централна	-11.8484
▁заплащане	-11.8484
▁швейцар	-11.8484
▁компресира	-11.8484
▁рецепти	-11.8484
▁пристрастен	-11.8484
▁мигновен	-11.8484
▁фрактал	-11.8484
▁Показах	-11.8484
▁слепота	-11.8484
▁бариери	-11.8485
▁Помолих	-11.8485
▁неприятности	-11.8485
▁прегърне	-11.8485
▁чернокож	-11.8485
▁изплашен	-11.8485
▁Хюс	-11.8485
▁проверка	-11.8485
▁обявен	-11.8485
▁интериор	-11.8485
▁тъжно	-11.8485
▁извършен	-11.8485
▁кокаин	-11.8485
▁затруднен	-11.8485
▁Стига	-11.8485
▁любимци	-11.8485
▁тъжна	-11.8485
▁духовни	-11.8485
▁разстроен	-11.8485
▁погребан	-11.8486
▁цирк	-11.8486
▁прояви	-11.8486
▁стомах	-11.8486
▁смайващ	-11.8486
▁Истинска	-11.8486
▁прокле	-11.8487
▁паяци	-11.8487
▁пасаж	-11.8493
▁прибрах	-11.8502
▁начални	-11.8515
▁рафт	-11.8517
движен	-11.8565
американски	-11.8596
▁петиц	-11.8603
▁Обърн	-11.8626
▁въведа	-11.8721
▁феноменалн	-11.8742
хвърлени	-11.8748
▁философск	-11.8761
▁промишлен	-11.8769
ливуд	-11.8787
▁Джъстин	-11.8787
▁длъжност	-11.8787
▁приспособя	-11.8787
▁Бруклин	-11.8787
▁Изумително	-11.8787
▁Индонезия	-11.8787
▁Определен	-11.8787
▁Фондация	-11.8787
▁атрибут	-11.8787
▁бягство	-11.8787
▁въодушевен	-11.8787
▁декодира	-11.8787
▁дефицит	-11.8787
▁доставчици	-11.8787
▁изостави	-11.8787
▁конкурира	-11.8787
▁конфигурация	-11.8787
▁крокодил	-11.8787
▁многобройни	-11.8787
▁нетърпение	-11.8787
▁нововъведения	-11.8787
▁озадач	-11.8787
▁окончател	-11.8787
▁поверителност	-11.8787
▁погрешна	-11.8787
▁преобърна	-11.8787
▁пропаганда	-11.8787
▁психическ	-11.8787
▁регенерира	-11.8787
▁самочувствие	-11.8787
▁североизточ	-11.8787
▁сексуална	-11.8787
▁симфония	-11.8787
▁творческа	-11.8787
▁шампион	-11.8787
▁Изучава	-11.8787
▁дразне	-11.8787
▁индикатор	-11.8787
▁клиники	-11.8787
▁упадък	-11.8787
▁величина	-11.8787
▁мексикан	-11.8788
▁тухли	-11.8788
▁ябълки	-11.8788
▁изригва	-11.8788
▁италиански	-11.8788
▁копнеж	-11.8788
▁обобщя	-11.8788
▁школа	-11.8788
▁зърне	-11.8788
▁ураган	-11.8788
▁отклонения	-11.8788
▁осветен	-11.8788
▁Възраст	-11.8788
▁рязк	-11.8788
▁принтира	-11.8788
▁Чакай	-11.8788
▁халюцинации	-11.8789
▁ребус	-11.8789
▁Среща	-11.8789
▁Хиляд	-11.8789
▁планински	-11.8789
▁украс	-11.8789
▁хаотич	-11.879
▁държавно	-11.879
▁лъже	-11.8792
▁летене	-11.8793
минутн	-11.8799
▁Връзк	-11.8814
пускане	-11.8823
▁гадн	-11.8825
▁бреме	-11.8837
найсет	-11.8841
разбираемо	-11.8847
сложна	-11.8909
Ж	-11.8909
Ш	-11.8909
сигурни	-11.8916
естествен	-11.8917
▁космос	-11.8987
▁звезд	-11.9024
Й	-11.908
сроч	-11.9094
▁Моцарт	-11.91
▁РНК	-11.91
▁Успях	-11.91
▁безпокои	-11.91
▁глетчер	-11.91
▁грамотност	-11.91
▁диригент	-11.91
▁заинтригува	-11.91
▁законодателство	-11.91
▁изслуша	-11.91
▁индустрии	-11.91
▁клавиатура	-11.91
▁непокътнат	-11.91
▁положително	-11.91
▁равновесие	-11.91
▁регулатор	-11.91
▁съоръжение	-11.91
▁торбички	-11.91
▁успокои	-11.91
▁хилядолетие	-11.91
▁Крейг	-11.91
▁безпокоя	-11.91
▁бонбон	-11.91
▁Обществен	-11.91
▁индийска	-11.91
▁предпазни	-11.91
▁пшеница	-11.91
▁зародиш	-11.91
▁тоалетни	-11.91
▁гъши	-11.91
▁прекомер	-11.91
▁токсични	-11.91
▁Сериозн	-11.91
▁разпростира	-11.91
▁понятия	-11.91
▁ремикс	-11.91
▁скандал	-11.91
▁обадя	-11.91
▁парализа	-11.91
▁привързан	-11.91
▁Прекарва	-11.91
▁диария	-11.91
▁сбъдн	-11.91
▁сътрудник	-11.91
▁табло	-11.9101
▁Арктик	-11.9101
▁каменни	-11.9101
▁натоварва	-11.9101
▁ангел	-11.9101
йлънд	-11.9101
▁доставки	-11.9101
▁издател	-11.9102
▁Красив	-11.9102
▁обобщен	-11.9102
▁змия	-11.9102
екзотич	-11.9103
▁Хавай	-11.9103
▁Погледнах	-11.9107
▁Разкаж	-11.9107
▁Бърз	-11.9108
▁измамн	-11.9117
▁Уеб	-11.9124
▁изложи	-11.9205
имплантира	-11.9224
Ц	-11.9231
▁лъжи	-11.9307
▁затопля	-11.9318
▁неспособн	-11.9325
платени	-11.9386
традицион	-11.9401
▁преувеличен	-11.9423
itter	-11.9423
▁1984	-11.9423
▁Галапагос	-11.9423
▁Кеплер	-11.9423
▁Португал	-11.9423
▁Саудитс	-11.9423
▁Студенти	-11.9423
▁африканска	-11.9423
▁географски	-11.9423
▁глюкоза	-11.9423
▁интерпретира	-11.9423
▁интимност	-11.9423
▁композитор	-11.9423
▁конференции	-11.9423
▁корпорация	-11.9423
▁лауреат	-11.9423
▁побеждава	-11.9423
▁предпоставк	-11.9423
▁пресъздаде	-11.9423
▁прозрения	-11.9423
▁рецесия	-11.9423
▁рокля	-11.9423
▁сгреши	-11.9423
▁съгласува	-11.9423
▁усмихна	-11.9423
▁Нарекох	-11.9423
▁благодари	-11.9423
▁жужене	-11.9423
▁министерство	-11.9423
▁мразе	-11.9423
▁охрана	-11.9423
▁презентации	-11.9423
▁самоличност	-11.9423
▁училищна	-11.9423
▁Достатъчн	-11.9423
▁издълба	-11.9423
▁легенда	-11.9423
▁сърфира	-11.9423
▁внуши	-11.9423
▁любез	-11.9423
▁усилва	-11.9423
▁совалка	-11.9423
▁златно	-11.9423
▁златна	-11.9423
▁подейства	-11.9423
▁стрелка	-11.9423
▁извинява	-11.9423
▁Кейп	-11.9423
▁холера	-11.9423
▁Индийск	-11.9423
▁бонус	-11.9423
▁засажда	-11.9423
▁парола	-11.9423
▁натъкнах	-11.9423
конкретно	-11.9424
▁протича	-11.9424
▁уморен	-11.9424
▁слушалки	-11.9424
▁азбука	-11.9424
▁духовно	-11.9426
▁окуражава	-11.9429
образно	-11.9465
благоприятн	-11.9482
▁бактери	-11.949
органичен	-11.9532
вселена	-11.9564
▁безнадеждн	-11.961
образни	-11.9643
национал	-11.9686
▁символичн	-11.9704
лизабет	-11.9756
▁Удивително	-11.9756
▁дипломира	-11.9756
▁интеграция	-11.9756
▁инфекциоз	-11.9756
▁коефициент	-11.9756
▁магическо	-11.9756
▁прожектира	-11.9756
▁съществена	-11.9756
▁убеждения	-11.9756
▁цигулка	-11.9756
▁Мичиган	-11.9756
▁боклуци	-11.9756
▁застреля	-11.9756
▁секретар	-11.9756
▁Бизнес	-11.9756
надежден	-11.9756
▁сътрудници	-11.9756
▁хероин	-11.9756
▁шантав	-11.9756
▁Дълго	-11.9756
▁оживява	-11.9756
▁скариди	-11.9756
▁проумее	-11.9756
▁параметри	-11.9756
▁загубя	-11.9756
▁оферта	-11.9756
▁Любим	-11.9756
▁Никакв	-11.9756
▁Тибет	-11.9756
▁фрази	-11.9756
▁планктон	-11.9756
▁прекъсна	-11.9757
▁невиждан	-11.9757
▁морков	-11.9757
▁памук	-11.9757
▁вагина	-11.9758
▁привлека	-11.9765
демократич	-11.9769
▁добаве	-11.977
▁замърсява	-11.9777
▁съчетан	-11.9789
▁Честн	-11.981
▁Програм	-11.9823
скъпо	-11.9909
плътно	-11.9923
▁Изследовател	-11.9981
приятна	-12.0021
▁Национал	-12.0034
▁разрушителн	-12.0034
▁1991	-12.0101
▁Джеферсън	-12.0101
▁Индустриална	-12.0101
▁НПО	-12.0101
▁Осъзнава	-12.0101
▁Палестина	-12.0101
▁Питсбърг	-12.0101
▁демокрации	-12.0101
▁земеделска	-12.0101
▁изработи	-12.0101
▁куфар	-12.0101
▁наближава	-12.0101
▁неприемлив	-12.0101
▁омъжи	-12.0101
▁предшественик	-12.0101
▁принадлежност	-12.0101
▁революции	-12.0101
▁съпрузи	-12.0101
▁уязвимост	-12.0101
▁фотоапарат	-12.0101
▁Атлантическия	-12.0101
▁консерватор	-12.0101
▁наглася	-12.0101
▁обитатели	-12.0101
▁самоорганизира	-12.0101
▁тинейджър	-12.0101
▁дузини	-12.0101
▁мазнина	-12.0101
▁управител	-12.0101
▁аналогов	-12.0101
▁черупка	-12.0101
▁варовик	-12.0101
▁издържи	-12.0101
▁мъртва	-12.0101
▁обявява	-12.0101
▁хабитат	-12.0101
▁изрязва	-12.0101
▁мембрана	-12.0101
▁находчив	-12.0101
▁печеле	-12.0101
▁стълбище	-12.0101
▁мустаци	-12.0101
▁пожарникар	-12.0101
▁съзнава	-12.0101
▁езера	-12.0101
▁запомне	-12.0101
▁сгъна	-12.0101
▁Кайро	-12.0101
▁настройва	-12.0101
▁Висок	-12.0101
▁косъм	-12.0101
▁бременни	-12.0101
▁билборд	-12.0101
▁Канзас	-12.0101
ахиди	-12.0101
▁заместител	-12.0101
▁капки	-12.0102
▁направлява	-12.0102
▁отклонение	-12.0102
▁обитаем	-12.0103
▁белег	-12.0103
линейно	-12.0105
▁егоистич	-12.0105
чувствен	-12.0106
▁тривиалн	-12.0106
ръжава	-12.0118
▁множ	-12.0134
▁логич	-12.0164
▁докторант	-12.0184
▁свинск	-12.0199
▁археолог	-12.0218
звук	-12.0267
технология	-12.0267
▁разширя	-12.0315
▁плув	-12.0336
▁спонсор	-12.0367
▁вероят	-12.0386
▁обединя	-12.0423
уквално	-12.0457
▁1995	-12.0458
▁1997	-12.0458
▁Съпруг	-12.0458
▁адаптация	-12.0458
▁асоциация	-12.0458
▁благословен	-12.0458
▁бразилск	-12.0458
▁възнамерява	-12.0458
▁галерии	-12.0458
▁заобиколи	-12.0458
▁коктейл	-12.0458
▁компетентн	-12.0458
▁консенсус	-12.0458
▁магьосни	-12.0458
▁маймунка	-12.0458
▁манипулаци	-12.0458
▁основополагащ	-12.0458
▁пандемия	-12.0458
▁представления	-12.0458
▁пренебрегна	-12.0458
▁преосмисли	-12.0458
▁скулптури	-12.0458
▁спомага	-12.0458
▁телекомуникаци	-12.0458
▁терапевт	-12.0458
▁торбичка	-12.0458
▁убежище	-12.0458
▁хамбургер	-12.0458
▁Разполага	-12.0458
▁аплодира	-12.0458
▁електромагнит	-12.0458
▁изоставя	-12.0458
▁инвестицион	-12.0458
▁репортаж	-12.0458
▁Изпраща	-12.0458
▁асистент	-12.0458
▁банкова	-12.0458
▁благополучие	-12.0458
▁комедия	-12.0458
▁търгува	-12.0458
нататъш	-12.0458
▁индийци	-12.0458
▁китайско	-12.0458
▁комплимент	-12.0458
▁Основна	-12.0458
▁психолози	-12.0458
▁Процес	-12.0458
▁Роджър	-12.0458
▁осъжда	-12.0458
▁жилища	-12.0458
▁диамант	-12.0458
▁илюзии	-12.0458
▁пощенска	-12.0458
▁паралич	-12.0458
▁Информаци	-12.0458
▁Социалн	-12.0458
▁екватор	-12.0458
▁актуал	-12.0458
▁толерантност	-12.0458
▁спътник	-12.0458
▁Транс	-12.0458
▁суши	-12.0458
▁освети	-12.0458
▁двойни	-12.0459
▁имитация	-12.0459
центрич	-12.0459
▁пощенски	-12.0459
▁Либери	-12.0462
▁Събрах	-12.0465
▁доволн	-12.0471
плетени	-12.0499
▁симптом	-12.0602
▁архе	-12.0704
▁светещ	-12.0752
астрономия	-12.08
концептуал	-12.0828
▁Йерусалим	-12.0828
▁Компютър	-12.0828
▁абстракция	-12.0828
▁академия	-12.0828
▁бозайник	-12.0828
▁възпроизведе	-12.0828
▁диагностика	-12.0828
▁експедиции	-12.0828
▁епидемии	-12.0828
▁изработка	-12.0828
▁олимпийски	-12.0828
▁ориентация	-12.0828
▁освободя	-12.0828
▁предсказуем	-12.0828
▁пукнатини	-12.0828
▁разузнаване	-12.0828
▁рейтинг	-12.0828
▁тренировки	-12.0828
▁тръбопровод	-12.0828
▁тютюн	-12.0828
▁ултравиолетова	-12.0828
▁усложнения	-12.0828
▁хлебарка	-12.0828
▁хребет	-12.0828
▁1994	-12.0828
▁грандиоз	-12.0828
▁жонглира	-12.0828
▁затруднява	-12.0828
▁зъболекар	-12.0828
▁инфектира	-12.0828
▁корумпира	-12.0828
▁луксоз	-12.0828
▁небрежн	-12.0828
▁пристрастява	-12.0828
▁територии	-12.0828
▁Изисква	-12.0828
▁Търгов	-12.0828
▁амбиция	-12.0828
▁вибрации	-12.0828
▁награждава	-12.0828
▁биомаса	-12.0828
▁отпечатъци	-12.0828
▁мрачно	-12.0828
▁преносим	-12.0828
▁хипотетич	-12.0828
▁Марсоход	-12.0828
▁писменост	-12.0828
▁груба	-12.0828
▁двайсет	-12.0828
▁дядовци	-12.0828
▁навигира	-12.0828
▁кукли	-12.0828
▁локум	-12.0828
▁извадя	-12.0828
▁маратон	-12.0828
▁латинск	-12.0829
▁ядях	-12.0829
▁интриг	-12.0829
▁Събира	-12.083
▁джаз	-12.083
▁висящ	-12.083
▁Войни	-12.0831
▁бозон	-12.0834
▁величеств	-12.0835
▁Австр	-12.0836
▁изпъкн	-12.0847
звездни	-12.0859
▁съсредоточа	-12.0876
▁инстинктивн	-12.0997
▁фактическ	-12.1007
кървав	-12.1027
надеждни	-12.1057
месечно	-12.1095
▁оценя	-12.1155
нтервюиращ	-12.12
▁Стигнах	-12.1213
▁1989	-12.1213
▁1996	-12.1213
▁Инженер	-12.1213
▁Маргарет	-12.1213
▁банкнота	-12.1213
▁британска	-12.1213
▁дървесина	-12.1213
▁експлоатация	-12.1213
▁инсталации	-12.1213
▁калкулатор	-12.1213
▁максимизира	-12.1213
▁марихуана	-12.1213
▁микроорганизми	-12.1213
▁официална	-12.1213
▁официални	-12.1213
▁пеперуда	-12.1213
▁периферия	-12.1213
▁пристигне	-12.1213
▁провинциал	-12.1213
▁противоположни	-12.1213
▁стипендия	-12.1213
▁умишлен	-12.1213
▁употребява	-12.1213
▁хладилник	-12.1213
▁шедьов	-12.1213
всеобхват	-12.1213
▁Забелязва	-12.1213
▁Стюар	-12.1213
▁електрическо	-12.1213
▁запаметява	-12.1213
▁недоверие	-12.1213
▁обкръжение	-12.1213
▁плацебо	-12.1213
▁преобръща	-12.1213
▁протяга	-12.1213
▁свободи	-12.1213
▁2.0	-12.1213
▁Образование	-12.1213
▁списъци	-12.1213
▁устрем	-12.1213
▁пламъци	-12.1213
▁явления	-12.1213
▁естетическ	-12.1213
▁мистерии	-12.1213
▁флейти	-12.1213
▁боядисва	-12.1213
▁цигари	-12.1213
▁авторитарн	-12.1213
▁розови	-12.1213
▁нападения	-12.1213
▁Помогн	-12.1213
▁Ефект	-12.1213
Ч	-12.3704
Я	-12.4786
#	-12.619
ь	-12.7824
Ю	-14.4182
♪	-14.4364
%	-14.4365
!	-14.4366
♫	-14.4367
—	-14.4368
)	-14.4369
:	-14.437
?	-14.4371
&	-14.4372
q	-14.4372
