<unk>	0
<s>	0
</s>	0
▁,	-2.9407
▁.	-3.22834
t	-3.75037
i	-3.90171
u	-4.01476
y	-4.13858
▁a	-4.16633
a	-4.22675
▁	-4.29318
e	-4.30247
▁se	-4.34721
▁je	-4.49389
▁na	-4.59851
▁to	-4.60431
▁v	-4.70456
;	-4.73027
▁&	-4.74315
quo	-4.79291
m	-4.82429
▁že	-4.87109
ch	-4.94795
í	-4.96934
o	-5.06838
ě	-5.09874
▁A	-5.14073
▁s	-5.16359
▁z	-5.19308
á	-5.19456
▁jsem	-5.26761
▁o	-5.37548
ou	-5.41381
em	-5.43191
▁do	-5.49957
te	-5.5334
to	-5.55041
ho	-5.56531
▁si	-5.61524
é	-5.67579
▁?	-5.69171
▁tak	-5.78185
me	-5.787
ů	-5.80574
▁jsme	-5.80835
▁co	-5.8138
l	-5.82345
▁pro	-5.8342
▁:	-5.84211
▁k	-5.8714
▁jako	-5.94478
▁za	-5.95748
▁po	-5.96937
▁jak	-5.98875
▁ale	-6.05695
▁které	-6.05913
▁jsou	-6.06922
▁)	-6.07141
▁(	-6.07285
ní	-6.096
▁by	-6.12395
ž	-6.16334
li	-6.17567
▁ve	-6.19069
s	-6.19935
▁ne	-6.23546
▁když	-6.23896
ý	-6.31547
▁To	-6.36703
▁Ale	-6.4201
▁od	-6.42776
▁—	-6.43028
▁aby	-6.43477
▁který	-6.43644
d	-6.45257
ek	-6.45638
▁Je	-6.47392
▁nebo	-6.4837
k	-6.49456
▁byl	-6.52414
r	-6.5746
z	-6.58432
ce	-6.58528
▁vy	-6.61848
▁Takž	-6.61946
mi	-6.63709
▁V	-6.6486
▁toho	-6.65276
▁vám	-6.65679
la	-6.66036
▁ty	-6.67104
že	-6.70291
p	-6.70957
v	-6.71791
▁tom	-6.71904
▁u	-6.72003
▁protože	-6.73492
ých	-6.76013
▁než	-6.77088
▁mě	-6.81512
▁před	-6.8232
▁být	-6.82348
▁i	-6.82359
n	-6.82981
▁mi	-6.84525
ně	-6.84993
▁Po	-6.88744
▁S	-6.88905
▁bylo	-6.88982
▁-	-6.90549
▁něco	-6.90911
▁která	-6.90945
▁velmi	-6.91578
▁jen	-6.91623
st	-6.91844
né	-6.9273
h	-6.92777
š	-6.93375
▁té	-6.93625
▁let	-6.95208
▁tím	-6.98993
chom	-6.9902
▁tu	-6.99324
▁Na	-7.0078
ka	-7.0329
▁Smí	-7.04085
ný	-7.04573
▁lidé	-7.05293
▁mohl	-7.07707
▁měl	-7.07712
ná	-7.09519
▁má	-7.09838
ky	-7.09897
ci	-7.10067
▁jste	-7.10251
▁byla	-7.10816
▁už	-7.1086
ech	-7.10907
▁nás	-7.11412
ové	-7.11534
▁své	-7.11959
b	-7.12115
▁při	-7.12694
▁není	-7.12786
▁lidí	-7.13144
j	-7.13588
▁já	-7.13814
▁ten	-7.1452
▁těch	-7.16475
▁kde	-7.16772
▁také	-7.1687
č	-7.17868
lo	-7.18071
ku	-7.18784
▁může	-7.19534
▁jejich	-7.19784
.	-7.21191
▁pak	-7.21466
nou	-7.22186
▁tam	-7.22439
▁více	-7.23465
▁další	-7.23815
c	-7.24354
le	-7.24515
▁řekl	-7.24683
ovat	-7.25113
▁nám	-7.26211
▁Když	-7.2664
▁pokud	-7.26664
▁kteř	-7.27494
▁Tak	-7.2805
▁ho	-7.28422
▁život	-7.29128
▁ji	-7.29358
▁naše	-7.29996
cí	-7.30161
▁tomu	-7.31425
▁m	-7.31572
na	-7.3208
ra	-7.32956
▁vás	-7.34761
hle	-7.35326
▁bude	-7.35499
ého	-7.36076
▁Ne	-7.36192
-	-7.36697
▁věci	-7.37737
▁Co	-7.3932
▁Byl	-7.39532
▁pře	-7.39565
▁teď	-7.39876
▁ze	-7.40513
jí	-7.4089
▁opravd	-7.41111
▁M	-7.41349
▁bych	-7.41916
ni	-7.43083
ře	-7.43361
▁problém	-7.43916
▁kdy	-7.44612
▁tento	-7.44811
ování	-7.45071
▁rok	-7.45627
▁kterou	-7.46375
ách	-7.46956
▁tady	-7.47585
▁ta	-7.4823
g	-7.48769
▁máme	-7.49077
▁Potlesk	-7.49723
▁Jak	-7.50191
▁roz	-7.51918
uje	-7.54212
▁svět	-7.54344
▁jedno	-7.5504
en	-7.55042
kud	-7.55153
▁Z	-7.565
ují	-7.56685
▁můžete	-7.57193
▁D	-7.57782
▁moc	-7.5874
▁tohle	-7.58844
▁jeho	-7.59104
chni	-7.59461
▁všechny	-7.60233
vá	-7.60315
▁mají	-7.607
▁věc	-7.60702
„	-7.61022
▁začal	-7.61325
il	-7.63071
▁světě	-7.63651
f	-7.63794
▁mezi	-7.63906
▁ještě	-7.64065
ým	-7.64132
▁pod	-7.64164
▁toto	-7.64354
▁ted	-7.65318
▁P	-7.65327
▁mít	-7.65369
▁jeden	-7.65411
ří	-7.66415
▁způsob	-7.66583
ak	-7.66892
▁první	-7.67515
▁musí	-7.68752
▁nich	-7.68956
▁čas	-7.69246
▁–	-7.69523
▁H	-7.70154
mu	-7.70257
▁K	-7.70304
ům	-7.70952
▁B	-7.71873
▁jim	-7.72137
▁což	-7.7284
ro	-7.74661
ost	-7.75452
ly	-7.76054
▁my	-7.76441
▁možn	-7.77058
▁zde	-7.77058
al	-7.77267
▁dnes	-7.77818
▁bez	-7.78209
▁proč	-7.78287
ny	-7.78556
▁Proto	-7.7947
▁někd	-7.79498
můžeme	-7.79703
oval	-7.79708
▁každý	-7.79918
je	-7.80887
ne	-7.81269
ůj	-7.8134
▁mnoho	-7.81701
▁Ta	-7.82269
▁myslím	-7.8231
▁h	-7.82677
on	-7.83608
dy	-7.8465
po	-7.84801
ze	-7.85149
▁skutečnost	-7.85219
▁Za	-7.85304
ři	-7.85307
▁“	-7.85462
▁ani	-7.8551
▁Tohle	-7.85844
▁naši	-7.86365
or	-7.8786
▁vlastně	-7.88074
▁O	-7.88077
▁asi	-7.88173
▁vši	-7.88437
▁pomoc	-7.89556
▁všechno	-7.89603
ám	-7.89776
čí	-7.89904
dělat	-7.90014
an	-7.90335
mohou	-7.90468
▁mé	-7.90472
▁Může	-7.90571
▁on	-7.90739
▁pár	-7.91363
ami	-7.91392
no	-7.92382
in	-7.92873
▁kdo	-7.93334
▁udělat	-7.93349
ř	-7.93806
▁nebyl	-7.93844
ť	-7.93992
▁lidi	-7.94634
▁Děkuji	-7.9521
▁nej	-7.9577
▁nic	-7.95811
▁p	-7.96342
znamená	-7.96542
▁děti	-7.96562
▁vidět	-7.96773
nu	-7.97408
▁věcí	-7.97794
▁byli	-7.98021
▁přes	-7.98459
▁slov	-7.98625
roce	-7.98628
▁nad	-7.98663
▁mu	-7.98957
▁ti	-7.99304
el	-7.99359
▁naší	-7.99895
▁chtěl	-7.99919
▁mnoh	-8.00035
▁společnost	-8.00292
▁druh	-8.00496
▁dva	-8.00838
▁d	-8.00873
▁běh	-8.01055
va	-8.01093
▁většin	-8.01252
▁sebe	-8.01387
▁ke	-8.02121
▁den	-8.02274
▁ob	-8.0257
▁C	-8.02742
ské	-8.02915
er	-8.03007
▁trochu	-8.03125
▁příběh	-8.03418
ko	-8.0351
ím	-8.03592
ili	-8.03623
▁No	-8.03746
ním	-8.03762
cela	-8.04054
▁byst	-8.04202
▁vlastní	-8.04324
vo	-8.04732
da	-8.04752
▁člověk	-8.04895
ví	-8.05067
▁poslední	-8.05127
▁procent	-8.05593
ší	-8.06273
vě	-8.06536
▁U	-8.06763
▁systém	-8.07134
▁žen	-8.08362
▁mozk	-8.08547
íme	-8.08638
▁nikdy	-8.08809
vi	-8.08972
▁budou	-8.0922
▁!	-8.09765
ová	-8.09871
▁Do	-8.10085
ující	-8.10205
▁20	-8.10387
▁víc	-8.10687
▁Pro	-8.11358
▁stejně	-8.11416
▁stále	-8.1173
▁hodně	-8.12017
▁života	-8.12275
▁tato	-8.12377
▁tři	-8.12395
x	-8.13011
▁proto	-8.13029
▁pouz	-8.13458
▁jedna	-8.13739
konce	-8.14298
ujeme	-8.14332
▁♫	-8.14501
▁všech	-8.14766
str	-8.15379
▁říct	-8.15686
▁jedn	-8.15799
▁T	-8.15871
osti	-8.16103
▁tuto	-8.16578
vidíte	-8.1705
lu	-8.17931
▁jí	-8.18004
▁právě	-8.18225
ru	-8.18429
▁I	-8.19081
▁Myslím	-8.19396
▁případ	-8.19438
▁l	-8.1961
▁Ve	-8.2011
ň	-8.20358
▁musím	-8.20632
lí	-8.2072
nější	-8.21107
▁smích	-8.21237
▁mám	-8.21258
▁či	-8.21377
eň	-8.21439
ali	-8.21645
▁10	-8.21781
▁máte	-8.22281
▁jestli	-8.22616
▁světa	-8.22725
ve	-8.22755
▁říká	-8.22882
hr	-8.2339
▁svo	-8.23673
▁Proč	-8.2395
▁dvě	-8.24868
▁Vy	-8.24978
krát	-8.25068
si	-8.25152
cích	-8.25444
▁země	-8.25484
▁místo	-8.2578
kou	-8.2602
▁podstat	-8.26272
▁abych	-8.26274
▁svůj	-8.26605
▁dobře	-8.27262
us	-8.27272
▁dostal	-8.27546
lé	-8.27614
▁š	-8.27649
▁Já	-8.27765
▁velic	-8.28199
▁vů	-8.283
ků	-8.28378
ích	-8.28423
▁celé	-8.2903
▁lety	-8.29254
ovali	-8.29538
▁...	-8.29787
▁prác	-8.3023
▁kolem	-8.30279
▁miliard	-8.31276
▁F	-8.31394
▁Jsou	-8.31406
ální	-8.31663
▁jde	-8.32002
ri	-8.3208
ský	-8.32413
▁G	-8.32534
▁schopn	-8.33048
▁nové	-8.33187
▁viděl	-8.33224
▁vše	-8.3328
re	-8.33425
ovi	-8.34091
▁její	-8.34137
ový	-8.34187
▁proti	-8.34209
koliv	-8.34262
▁dělá	-8.34338
▁vždy	-8.34345
rá	-8.34491
▁třeba	-8.34497
▁vesmír	-8.34508
se	-8.34586
ar	-8.34862
ště	-8.35116
bec	-8.35189
▁cest	-8.35919
▁svým	-8.35932
ol	-8.36275
▁nyní	-8.3655
▁moj	-8.36825
▁samozřejm	-8.36863
▁jiný	-8.37002
ká	-8.37348
▁práce	-8.37349
měř	-8.37498
▁technologie	-8.37665
ém	-8.37745
▁budeme	-8.37916
▁Js	-8.37924
▁E	-8.3821
▁podle	-8.38252
▁míst	-8.3847
ových	-8.38839
de	-8.38907
vat	-8.39866
▁náš	-8.39867
▁dolarů	-8.40185
▁malé	-8.4042
zn	-8.40428
0	-8.40475
▁důvod	-8.40857
▁díky	-8.40938
▁větší	-8.41277
▁stran	-8.41413
▁ú	-8.41484
▁zemí	-8.41592
▁velké	-8.41639
ur	-8.41799
dí	-8.4203
ými	-8.4204
ání	-8.42203
▁několik	-8.42627
▁R	-8.42701
úplně	-8.42985
▁letech	-8.43012
co	-8.43148
▁vaše	-8.43201
▁způsobem	-8.43236
▁skutečně	-8.43518
▁Ty	-8.43679
ení	-8.43945
▁dost	-8.44061
▁část	-8.44131
ha	-8.44132
▁důležité	-8.44188
▁kterým	-8.44542
▁chc	-8.44632
▁prostředí	-8.44981
▁méně	-8.45159
ji	-8.45577
▁f	-8.4585
▁nejlepší	-8.46052
▁re	-8.4611
▁stát	-8.46115
▁rodin	-8.46249
ad	-8.46283
▁znovu	-8.46402
▁b	-8.46526
▁lidské	-8.47065
ější	-8.47949
ovou	-8.48128
konec	-8.48619
▁velký	-8.48694
▁nejsou	-8.48853
▁lepší	-8.48942
▁abys	-8.48973
▁cen	-8.49341
▁celý	-8.49403
▁musel	-8.49436
▁přesně	-8.50165
ád	-8.50395
▁kvůli	-8.50547
bo	-8.50621
▁Teď	-8.51266
▁hodnot	-8.51452
▁dobré	-8.52004
ter	-8.521
▁de	-8.5225
▁možné	-8.52526
▁nový	-8.53032
▁vz	-8.53293
▁stalo	-8.53368
▁prostě	-8.53506
▁Při	-8.53635
vých	-8.53735
du	-8.54103
tím	-8.54373
pl	-8.54554
▁ní	-8.54645
▁vš	-8.54744
▁hodin	-8.54779
▁dostat	-8.54866
či	-8.55099
di	-8.5545
▁ná	-8.55603
▁vypadá	-8.5563
▁nějaké	-8.56278
▁kdyby	-8.56673
sk	-8.56697
▁3	-8.57097
▁každé	-8.57136
▁druhé	-8.57386
▁mluvit	-8.57732
▁době	-8.57744
▁spoust	-8.57905
▁příklad	-8.57908
▁nez	-8.57993
▁nes	-8.58028
▁jenom	-8.58393
▁nějak	-8.58553
▁víte	-8.58589
▁příliš	-8.59369
▁lidem	-8.59597
▁dál	-8.59639
▁Lid	-8.5965
▁spolu	-8.59672
▁největší	-8.59718
▁prostor	-8.60121
▁Od	-8.60291
kon	-8.60327
▁nepo	-8.60527
▁dvou	-8.60536
▁pocit	-8.60551
ají	-8.60565
▁zpět	-8.60605
▁dětí	-8.60729
nout	-8.6091
▁model	-8.61336
▁děje	-8.6154
▁budoucnost	-8.61721
▁stal	-8.61874
▁200	-8.61899
vnitř	-8.61938
▁hlav	-8.62139
▁schopnost	-8.6217
▁planet	-8.62199
ník	-8.62536
▁věd	-8.62692
ba	-8.62789
▁vytvoři	-8.62891
▁Měl	-8.62914
ši	-8.62949
▁tolik	-8.63063
▁dal	-8.63293
▁Není	-8.63376
▁jaké	-8.63469
▁kterém	-8.6349
▁zjistil	-8.63604
▁pořád	-8.6362
▁mnoha	-8.63705
▁jiné	-8.63716
▁Tento	-8.63725
▁Možn	-8.6383
▁řešení	-8.64022
▁často	-8.64652
▁nápad	-8.64706
▁myslí	-8.64721
ným	-8.64776
▁vytvořil	-8.65165
▁Před	-8.65249
▁zemi	-8.65357
ční	-8.65386
▁projekt	-8.65394
▁dítě	-8.65417
▁000	-8.65712
▁neměl	-8.65928
▁například	-8.66099
▁množství	-8.66782
ství	-8.66863
▁změni	-8.66929
sta	-8.6739
▁sobě	-8.67431
▁takové	-8.67515
▁měla	-8.67524
▁malý	-8.67805
chod	-8.67964
do	-8.68038
▁pří	-8.68081
jící	-8.68164
apos	-8.68165
še	-8.68288
▁proces	-8.68307
▁in	-8.68369
šel	-8.68606
w	-8.68761
▁různý	-8.68814
▁vý	-8.69207
▁energie	-8.69425
▁přístup	-8.6963
▁zvuk	-8.6985
▁žádné	-8.70496
▁něj	-8.70508
▁myšlenk	-8.70514
ila	-8.70625
▁sami	-8.70794
ného	-8.70798
S	-8.71141
ních	-8.71169
cky	-8.71171
dal	-8.7122
▁30	-8.71389
▁stane	-8.71482
op	-8.71718
▁ukázal	-8.71781
▁již	-8.72051
▁chvíl	-8.72243
▁minut	-8.72329
▁století	-8.72397
2	-8.72988
▁L	-8.73121
▁přišl	-8.73423
▁říkal	-8.73443
▁rozhodl	-8.73517
ický	-8.73606
ické	-8.7397
▁žádn	-8.73996
▁informace	-8.73998
▁tisíc	-8.74097
▁čím	-8.74179
▁jej	-8.74185
▁ně	-8.74322
▁představ	-8.74376
▁budu	-8.74453
▁práv	-8.74477
ec	-8.75094
▁rád	-8.75363
A	-8.75513
es	-8.75571
▁některé	-8.7563
▁Máme	-8.75641
ilo	-8.75667
▁zpráv	-8.75669
▁vlád	-8.75828
▁potom	-8.7584
▁vím	-8.76066
ing	-8.76204
▁kolik	-8.76338
▁udělal	-8.7641
os	-8.76748
▁Řekl	-8.76754
▁vidím	-8.76818
zí	-8.76852
▁zvířat	-8.76972
▁peníz	-8.76974
by	-8.77092
men	-8.77136
nutí	-8.77272
za	-8.77386
ry	-8.7749
nost	-8.77656
▁existuje	-8.77689
▁dne	-8.77756
▁komunit	-8.77932
▁rozdíl	-8.77946
▁součást	-8.78171
▁dělají	-8.78281
▁rychle	-8.78438
▁Ano	-8.78716
▁můž	-8.78787
uji	-8.79029
▁špatn	-8.7923
íte	-8.79274
vý	-8.79349
▁50	-8.79794
▁internet	-8.79874
▁mozek	-8.79885
ace	-8.79924
▁TED	-8.8012
▁přímo	-8.8013
▁ostatní	-8.80251
bu	-8.8037
dné	-8.80402
drž	-8.80796
▁dělal	-8.80903
▁stejné	-8.81018
▁milion	-8.81081
▁dostane	-8.81542
▁základ	-8.81792
▁jazyk	-8.82107
▁budete	-8.82215
▁nevy	-8.82657
▁doby	-8.8268
ver	-8.82837
▁Indi	-8.82846
▁později	-8.82866
▁nemoc	-8.82943
▁Ma	-8.83028
▁New	-8.83191
▁změnil	-8.83267
ská	-8.83545
▁čtyři	-8.83571
fi	-8.83674
ej	-8.83701
če	-8.83872
▁chcete	-8.84136
▁oblasti	-8.84163
▁Ten	-8.84217
▁pra	-8.8431
▁funguje	-8.84408
vr	-8.8459
▁kon	-8.84635
▁nejs	-8.84736
nd	-8.84802
C	-8.84821
▁rad	-8.84895
▁růst	-8.84938
ck	-8.8499
▁celo	-8.85201
▁váš	-8.85202
▁Dnes	-8.85208
▁J	-8.85371
▁vědě	-8.85488
▁W	-8.8564
▁lidmi	-8.85718
▁udělali	-8.85832
▁film	-8.86015
án	-8.86157
▁sociální	-8.86205
▁nikd	-8.86441
▁100	-8.86495
▁program	-8.8664
▁stojí	-8.8671
▁zatím	-8.86853
▁síl	-8.87011
▁možnost	-8.87027
▁těmi	-8.87162
▁skupin	-8.87183
▁zda	-8.87298
▁obráz	-8.87346
▁potlesk	-8.87521
▁smysl	-8.87558
▁ano	-8.8772
▁několika	-8.87786
▁dohromady	-8.88052
▁nemá	-8.8826
91	-8.8886
▁celém	-8.89153
▁jiného	-8.89168
▁dělám	-8.8918
▁4	-8.89266
▁půl	-8.89396
dním	-8.89516
▁zajímavé	-8.89546
▁pa	-8.89629
▁části	-8.90024
▁Pak	-8.90106
stav	-8.90324
▁směr	-8.90381
▁všem	-8.9039
▁Chtěl	-8.90479
▁tímto	-8.90506
rov	-8.9063
čka	-8.90894
▁student	-8.90972
▁otázka	-8.91208
▁chceme	-8.91241
▁přírod	-8.91345
▁kam	-8.91417
▁vztah	-8.91684
▁takto	-8.91693
id	-8.91735
▁společn	-8.91743
▁dobu	-8.91869
D	-8.91907
potřebujeme	-8.92105
▁knih	-8.92365
▁naprosto	-8.92407
▁základní	-8.92482
uba	-8.92682
▁Chci	-8.92765
ček	-8.92864
▁určit	-8.93014
ber	-8.9306
okolo	-8.93196
▁mimo	-8.9329
▁výzkum	-8.93326
▁dá	-8.93645
poj	-8.93774
▁pl	-8.93846
▁test	-8.93877
▁nebude	-8.94107
▁kr	-8.94148
▁tr	-8.94212
▁představit	-8.94496
▁materiál	-8.94553
▁pokus	-8.94584
▁svém	-8.94588
▁2	-8.94616
▁fakt	-8.94619
▁úžasné	-8.94712
▁jít	-8.94891
▁muž	-8.95127
▁Víte	-8.95127
▁typ	-8.95193
kem	-8.95208
▁Nebo	-8.95329
▁školy	-8.95487
▁obraz	-8.95614
▁chyb	-8.95795
▁dřív	-8.95804
▁potřebuje	-8.95859
▁Ch	-8.96042
93;	-8.9609
▁chování	-8.96239
▁pět	-8.96323
▁no	-8.96379
ově	-8.96386
▁form	-8.96433
▁dobrý	-8.9655
▁boj	-8.96643
▁dat	-8.96849
br	-8.96888
▁hlas	-8.96896
▁nimi	-8.96914
▁výrob	-8.9696
ejte	-8.96974
val	-8.97149
klad	-8.97154
▁První	-8.97252
4	-8.97326
poté	-8.97427
▁mí	-8.97541
man	-8.97732
ova	-8.97836
▁telefon	-8.98131
▁každ	-8.9854
▁USA	-8.98724
▁nejen	-8.98726
▁zákon	-8.98727
▁neza	-8.98736
▁trh	-8.98855
lož	-8.98869
▁přátel	-8.98943
▁1	-8.99118
▁experiment	-8.99316
▁těžké	-8.99319
▁vidí	-8.99397
▁g	-8.9949
ící	-8.99879
▁stav	-8.99911
▁15	-9.00069
▁dát	-9.00161
▁rostlin	-9.00251
lů	-9.00556
zi	-9.00676
▁sp	-9.00768
▁věk	-9.00985
jít	-9.01114
▁pohled	-9.0113
▁hlavní	-9.01175
▁Musím	-9.01201
▁měst	-9.01397
▁spíš	-9.01439
9	-9.01548
▁jich	-9.0188
ců	-9.01917
▁válk	-9.01917
▁On	-9.01956
▁milionů	-9.02071
and	-9.02409
▁Mám	-9.02427
▁něm	-9.026
▁Podívej	-9.0265
▁vývoj	-9.0265
▁naučil	-9.02653
ah	-9.02749
▁Vši	-9.02834
ven	-9.02841
▁data	-9.02972
▁mno	-9.02994
▁nemůže	-9.03037
▁r	-9.03049
▁sebou	-9.03348
8	-9.03401
ované	-9.03429
▁otázku	-9.03445
▁různé	-9.03497
▁použít	-9.03579
▁nejvíc	-9.03613
▁žádný	-9.03667
žit	-9.03688
nes	-9.03735
▁pracovat	-9.0389
5	-9.03985
▁velk	-9.04045
▁úkol	-9.04222
▁buňky	-9.04257
rán	-9.0429
▁auto	-9.04473
▁vzal	-9.04483
▁sám	-9.04664
▁řad	-9.04813
▁chtějí	-9.0483
▁zařízení	-9.0483
▁Další	-9.04843
aci	-9.04904
▁Jako	-9.04909
▁Tato	-9.04965
bl	-9.0499
▁poprvé	-9.05039
▁přesto	-9.05059
▁ukáza	-9.0515
▁podívat	-9.05463
▁dále	-9.05466
▁takový	-9.05511
▁tehd	-9.05781
▁daleko	-9.05782
ován	-9.05791
▁mluvil	-9.05814
▁mil	-9.05816
ujete	-9.05978
▁My	-9.06039
▁N	-9.06123
▁lép	-9.06134
▁těm	-9.0614
bi	-9.06158
let	-9.06186
čt	-9.06192
nosti	-9.06245
▁začíná	-9.06499
▁pos	-9.06511
▁počítač	-9.06643
▁pravd	-9.06679
▁objevil	-9.0668
▁snaží	-9.0672
▁jakým	-9.06801
1	-9.06958
▁města	-9.07164
čky	-9.07182
ového	-9.07287
B	-9.07303
▁bod	-9.07417
▁Musí	-9.07626
▁peněz	-9.07706
▁mír	-9.07859
▁dlouho	-9.07932
▁pacient	-9.0802
▁nějaký	-9.08051
▁mění	-9.08426
3	-9.0874
▁noc	-9.08839
▁Každý	-9.08898
▁něko	-9.08912
▁zdraví	-9.09015
▁věděl	-9.09309
▁video	-9.09486
▁br	-9.09523
čen	-9.09609
▁ukazuje	-9.09689
▁robot	-9.09771
▁pracoval	-9.09871
▁oblast	-9.09901
▁začí	-9.09931
▁jaký	-9.10056
▁5	-9.10083
▁tým	-9.10177
▁rádi	-9.10218
▁nemohl	-9.10328
▁jinak	-9.10668
▁krok	-9.10737
▁životní	-9.11061
▁zhr	-9.11261
M	-9.1147
▁ro	-9.11514
pe	-9.11813
ó	-9.11875
kaz	-9.12043
be	-9.12264
log	-9.12282
▁zkušenost	-9.12314
▁získa	-9.12324
▁rakovin	-9.1235
▁40	-9.12633
▁čem	-9.12634
▁rychlost	-9.12844
▁štěstí	-9.12874
▁js	-9.12887
▁správn	-9.12921
▁říkají	-9.13186
▁Ny	-9.13341
▁firm	-9.13374
▁Le	-9.13422
▁Jo	-9.13459
▁umění	-9.1349
▁Jen	-9.13624
koro	-9.13632
▁dnešní	-9.13719
vedl	-9.13953
▁nedo	-9.14109
▁obrázk	-9.14124
▁informací	-9.14392
▁vaši	-9.14433
▁skvělé	-9.14435
rát	-9.14548
▁gen	-9.14741
▁hvězd	-9.14756
▁názor	-9.14756
▁Představ	-9.14988
šli	-9.15105
ant	-9.15133
▁povrch	-9.15456
▁18	-9.15468
▁systému	-9.15915
▁přišel	-9.15935
▁vytváří	-9.16157
E	-9.16551
▁odpověď	-9.16567
▁Ob	-9.16792
▁slyšel	-9.17184
▁úspěch	-9.17223
▁Dobř	-9.17589
NA	-9.1762
▁tyhle	-9.17657
příklad	-9.17709
▁těla	-9.17727
▁jídl	-9.17866
▁pohyb	-9.18012
▁pěti	-9.18057
▁plán	-9.18142
ává	-9.18157
▁žít	-9.18247
ga	-9.18293
▁podíváte	-9.18296
méně	-9.18399
▁dobr	-9.18421
pat	-9.18566
▁totiž	-9.18667
spo	-9.18755
▁vody	-9.19065
▁cíl	-9.19276
P	-9.19374
▁skrz	-9.19383
▁pozornost	-9.19491
▁globální	-9.19748
▁Už	-9.19809
▁samé	-9.19949
▁budov	-9.20111
▁málo	-9.20381
▁říkám	-9.20489
▁politik	-9.20851
kol	-9.21094
▁realit	-9.21223
▁domů	-9.21334
▁les	-9.21435
▁c	-9.21487
▁produkt	-9.21589
▁jednoduché	-9.21622
▁Jeden	-9.21717
rod	-9.21723
▁dává	-9.21842
▁lék	-9.2186
tra	-9.21875
▁ukáž	-9.21973
▁Evrop	-9.21976
▁opět	-9.21982
pí	-9.22195
▁zpátky	-9.22342
zít	-9.22345
▁otázky	-9.22452
▁aut	-9.22739
O	-9.2282
▁konci	-9.22847
▁říc	-9.22906
▁ni	-9.22929
▁vyp	-9.23037
sp	-9.23188
▁celk	-9.23305
gen	-9.2334
T	-9.2361
▁zdá	-9.23708
vést	-9.23725
šlo	-9.2384
▁přijde	-9.24015
▁Se	-9.24094
▁Ti	-9.24306
ng	-9.24419
▁všude	-9.24619
nění	-9.24632
▁CA	-9.24671
▁čemu	-9.24748
▁najed	-9.24764
▁dokáže	-9.24827
▁příležitost	-9.24921
▁světlo	-9.24955
▁změny	-9.25041
▁mně	-9.2507
▁používa	-9.25134
kládá	-9.25213
▁přemýšlet	-9.25389
▁nemusí	-9.25389
7	-9.25446
prvé	-9.25451
▁Jedno	-9.25552
hu	-9.25565
6	-9.25903
▁6	-9.25927
▁sta	-9.25986
I	-9.26029
▁struktur	-9.26145
len	-9.2617
▁kultur	-9.26251
sh	-9.26258
▁Mo	-9.26459
▁špatné	-9.26473
▁Díky	-9.26559
▁Nic	-9.26589
ork	-9.26646
▁třetí	-9.26701
vy	-9.26772
▁polovin	-9.26948
up	-9.27082
▁místnosti	-9.27212
stup	-9.27241
zv	-9.27252
▁cestu	-9.2732
▁zase	-9.27344
ala	-9.27358
▁půd	-9.27362
▁volb	-9.27364
pra	-9.27393
▁našem	-9.2743
víc	-9.27493
▁problémů	-9.27551
zen	-9.2763
ěji	-9.27712
▁zárov	-9.27742
átor	-9.27758
▁hudb	-9.27857
▁svobod	-9.27944
▁Má	-9.28123
▁rozhodnutí	-9.28137
ed	-9.28168
▁vliv	-9.28176
▁ekonomik	-9.28184
▁podob	-9.28192
mile	-9.2827
for	-9.28427
▁mysli	-9.28483
▁tvar	-9.28541
▁technologií	-9.28932
▁Hudb	-9.28932
▁velikost	-9.28933
vod	-9.28977
▁mluví	-9.29022
lně	-9.29087
ned	-9.29296
▁Zemi	-9.29399
▁oh	-9.2942
▁živ	-9.29536
▁mém	-9.29563
čení	-9.29609
▁pravděpodobně	-9.29639
▁dr	-9.29685
▁dopad	-9.29721
▁pan	-9.29768
▁škol	-9.29815
ovaný	-9.30094
▁řekn	-9.30117
▁zdroje	-9.30199
ú	-9.3038
▁čase	-9.30396
▁univerzit	-9.30548
▁Mohl	-9.30559
▁Jedna	-9.30589
ran	-9.30663
ď	-9.30843
Jsem	-9.30911
▁Většin	-9.30957
▁uvědomil	-9.31031
▁hmot	-9.3105
ění	-9.31147
▁lidský	-9.31251
▁jídlo	-9.31278
▁Spojený	-9.31366
▁okamžik	-9.31366
▁vzdělání	-9.31485
▁žena	-9.31646
▁nev	-9.3178
▁tvoří	-9.31784
▁dvěm	-9.31832
▁skvěl	-9.31936
nit	-9.31994
▁učitel	-9.32143
▁moment	-9.32271
▁napsal	-9.32662
ard	-9.3301
▁zeptal	-9.33023
▁pracovní	-9.33147
▁sama	-9.33218
▁Čín	-9.33261
▁pohledu	-9.33434
▁Existuj	-9.33441
▁podobné	-9.33601
▁snad	-9.33617
▁stejn	-9.33625
▁vědomí	-9.33662
▁umí	-9.33683
▁lékař	-9.33796
▁myslel	-9.33983
▁jednoduše	-9.34283
▁vyšší	-9.34284
▁zas	-9.34313
▁stovk	-9.34794
▁Zde	-9.34859
áme	-9.34873
as	-9.34879
▁pracuje	-9.35023
▁řekne	-9.35035
▁díl	-9.35084
řil	-9.35113
▁znám	-9.3516
▁myšlenka	-9.35239
novou	-9.35308
ruš	-9.35427
▁mne	-9.35495
bud	-9.35497
áze	-9.35507
▁vaší	-9.35612
▁tisíce	-9.35661
lan	-9.35696
▁místní	-9.35784
cká	-9.35838
▁Někd	-9.35991
▁spousta	-9.36043
▁nemám	-9.36241
▁děkuji	-9.36315
▁měsíců	-9.36331
▁Asi	-9.36347
▁snažil	-9.3642
▁Země	-9.36437
▁potřeb	-9.36469
▁pravidl	-9.36652
ář	-9.36683
pro	-9.36738
▁příběhy	-9.36877
▁škole	-9.37009
00	-9.37115
▁nají	-9.37146
skou	-9.37225
▁Vlastn	-9.37288
▁Ro	-9.37292
▁měsíc	-9.37302
▁včel	-9.37437
▁12	-9.37529
▁postup	-9.37566
▁energi	-9.37596
▁vzduch	-9.37725
▁počet	-9.37866
▁význam	-9.3788
▁auta	-9.37938
▁Pře	-9.38041
▁zní	-9.38132
▁Začal	-9.38166
ic	-9.38168
ému	-9.3831
ge	-9.38314
▁zvláštní	-9.38373
ák	-9.38375
▁Všechn	-9.38421
▁každém	-9.38589
▁60	-9.38625
▁Afric	-9.38666
▁Ba	-9.38869
▁potřeba	-9.38968
G	-9.38995
▁soucit	-9.39047
▁Běh	-9.39052
▁studi	-9.39096
jte	-9.39171
vají	-9.39195
▁Moj	-9.39237
▁chce	-9.3925
ér	-9.39323
van	-9.39519
▁získal	-9.39526
▁tří	-9.39566
ační	-9.39591
▁velkou	-9.397
▁strom	-9.39729
▁pr	-9.39736
▁tělo	-9.39756
▁dokázal	-9.39797
▁nemají	-9.39941
▁pravda	-9.40309
ném	-9.40548
▁ryb	-9.40782
▁kost	-9.40806
▁důkaz	-9.40836
▁Re	-9.41025
▁par	-9.41052
ros	-9.41088
▁bolest	-9.41288
▁dosáhnou	-9.41288
▁důležit	-9.41302
▁začátku	-9.41338
▁období	-9.41462
kra	-9.41516
▁strach	-9.41593
▁odpad	-9.41687
zení	-9.41779
ir	-9.41933
▁papír	-9.42207
▁začne	-9.42293
▁úžasný	-9.42406
▁us	-9.42564
▁pomohl	-9.42658
der	-9.4276
▁obchod	-9.4282
pis	-9.42966
▁osob	-9.42976
▁osobní	-9.43039
▁námi	-9.43234
▁světl	-9.43324
▁některý	-9.43376
dle	-9.43457
čku	-9.43478
nil	-9.43491
▁studie	-9.43515
nice	-9.43526
ron	-9.43603
rk	-9.43607
▁čísl	-9.43608
▁Jde	-9.43628
▁potravin	-9.43659
▁žil	-9.43719
▁7	-9.43789
▁25	-9.43789
▁sam	-9.44032
▁molekul	-9.44039
kal	-9.44046
▁úžasn	-9.44057
čin	-9.44288
ovým	-9.44349
▁neustál	-9.44445
▁nena	-9.44465
▁vypadal	-9.44497
▁číslo	-9.44502
▁map	-9.44532
▁Rád	-9.44579
▁Naše	-9.4463
▁dír	-9.44647
ův	-9.44694
▁op	-9.4493
▁používá	-9.44951
▁Pr	-9.4497
▁laboratoř	-9.44976
▁mohu	-9.44985
▁plyn	-9.45016
▁vede	-9.45075
tivní	-9.4512
▁uvidíte	-9.45137
▁Br	-9.45208
▁Tu	-9.4538
▁založen	-9.45461
nech	-9.45467
▁cítí	-9.45486
▁sdíle	-9.45513
den	-9.45709
▁místě	-9.45822
▁čist	-9.45896
▁šest	-9.45901
▁technologii	-9.4593
▁využít	-9.4593
son	-9.45933
▁zap	-9.45998
▁kůž	-9.4618
čit	-9.46227
lep	-9.46258
▁dn	-9.4627
▁mluvím	-9.46335
▁Samozřejm	-9.46406
▁čeho	-9.46416
▁vodu	-9.46453
▁výsledky	-9.46476
▁Mar	-9.46583
▁Li	-9.46645
ární	-9.46728
ští	-9.46782
▁Bu	-9.46812
nul	-9.46844
▁rodiče	-9.46852
▁Dobr	-9.46954
▁řeč	-9.46972
pr	-9.47125
▁taková	-9.4715
▁Ho	-9.47163
▁lidsk	-9.47301
L	-9.47453
▁připraven	-9.47635
▁použití	-9.47788
▁lásk	-9.4786
▁Což	-9.47862
del	-9.47926
bývá	-9.47973
▁nástroje	-9.48
▁úrovn	-9.48005
▁ona	-9.48077
ké	-9.4825
bra	-9.48595
▁Ted	-9.48621
▁služb	-9.48821
▁muži	-9.48871
▁věří	-9.48949
▁graf	-9.48954
▁vážně	-9.49018
▁samo	-9.49145
ovací	-9.49155
▁kamarád	-9.49311
▁zdravotní	-9.49311
▁menší	-9.49312
▁násilí	-9.49324
▁někteř	-9.4933
▁pomal	-9.49336
▁náklad	-9.49346
N	-9.49361
▁mas	-9.49467
▁ostatním	-9.49593
▁vytvořen	-9.49731
▁ruce	-9.49816
▁naučit	-9.49824
▁svoji	-9.49895
▁ním	-9.50057
▁hra	-9.501
▁takového	-9.50186
▁pochopit	-9.50191
▁kvalit	-9.50306
▁neví	-9.50346
▁jmén	-9.50348
▁druhý	-9.50393
▁kamer	-9.504
▁týden	-9.50797
▁jiným	-9.50895
▁moderní	-9.50946
▁hor	-9.50972
▁počítače	-9.51005
▁led	-9.51046
▁určité	-9.51085
▁začn	-9.51144
ostí	-9.51218
▁podíval	-9.51309
▁změn	-9.5137
▁jist	-9.51409
▁obrovský	-9.51573
hal	-9.51584
▁In	-9.5169
▁nevím	-9.51731
vět	-9.51743
▁existují	-9.51744
▁minulost	-9.51801
▁péč	-9.52326
▁věřím	-9.52428
R	-9.52448
▁vrátil	-9.52497
▁Al	-9.52508
▁kterého	-9.52572
▁nahoru	-9.52828
mluv	-9.52875
bor	-9.53068
▁stránk	-9.53108
vali	-9.53239
▁srdce	-9.5324
ok	-9.53244
šť	-9.53306
▁zjistit	-9.53322
▁populace	-9.53452
▁kous	-9.53523
▁design	-9.5354
▁světové	-9.53665
▁žijí	-9.53793
dit	-9.53794
dil	-9.53856
ření	-9.53957
cké	-9.54027
▁bytost	-9.54043
▁kus	-9.54089
▁všeho	-9.54126
jší	-9.54145
▁ven	-9.54279
▁metod	-9.54355
▁8	-9.54383
▁vzor	-9.54393
stí	-9.54397
▁vys	-9.54466
příč	-9.54486
▁vedl	-9.54578
▁druhů	-9.54648
▁jednom	-9.54854
▁matematik	-9.54869
▁Afrik	-9.54869
▁vlastnost	-9.54874
▁vesnic	-9.54958
▁vznik	-9.54982
▁správné	-9.55097
▁syn	-9.55177
▁vytváře	-9.55184
opak	-9.55192
▁Ha	-9.55345
▁léčb	-9.55389
▁doslov	-9.5539
▁obrovské	-9.55429
▁podobně	-9.5589
ené	-9.56015
zu	-9.56028
▁spojen	-9.56093
žívá	-9.56109
▁kom	-9.56291
▁Někteř	-9.56439
▁mezinárodní	-9.56439
▁cítil	-9.56565
▁přijí	-9.5664
▁Ko	-9.56753
▁stroj	-9.56781
vání	-9.56835
▁muže	-9.56858
▁oči	-9.56918
▁dalším	-9.5698
▁obsah	-9.57025
▁hrát	-9.57034
▁spotřeb	-9.57059
▁všechn	-9.57201
▁skvělý	-9.57255
▁Te	-9.57279
▁Kdo	-9.57376
▁malá	-9.57384
▁tě	-9.57451
▁obvykl	-9.575
▁princip	-9.57501
▁zdroj	-9.5767
▁hry	-9.57686
ev	-9.57802
▁postav	-9.57922
▁Opravd	-9.58035
dají	-9.58068
▁Bude	-9.58279
▁lev	-9.58305
▁bá	-9.5863
▁město	-9.58636
▁plast	-9.58657
▁Vidít	-9.58669
▁nástroj	-9.58768
▁stol	-9.58854
ena	-9.58874
▁pozor	-9.58874
▁historii	-9.59093
▁spojení	-9.59101
▁nejdůležitější	-9.59113
▁necha	-9.59154
▁skupina	-9.5922
▁Zá	-9.59233
▁střední	-9.59239
záleží	-9.594
▁projektu	-9.59415
▁místech	-9.59419
▁vide	-9.59454
▁planety	-9.5954
▁ostatních	-9.59599
▁prostřed	-9.59614
▁ja	-9.59619
padl	-9.59642
▁mou	-9.5966
▁chudob	-9.5966
▁ráno	-9.59683
lad	-9.59686
▁skupiny	-9.59702
▁objekt	-9.59752
▁starý	-9.59768
▁stejný	-9.5992
▁rámc	-9.60208
kop	-9.60253
▁kriz	-9.60306
▁poz	-9.60351
tické	-9.60483
▁příští	-9.60554
▁národní	-9.60723
▁novin	-9.60731
plat	-9.60749
▁vrchol	-9.60752
▁doma	-9.60916
▁krás	-9.60999
▁našim	-9.61207
▁možnosti	-9.61327
ována	-9.61347
▁staré	-9.61363
▁Roz	-9.61419
▁jediný	-9.61447
▁organizace	-9.61471
vala	-9.61832
píš	-9.61836
▁elektřin	-9.6186
▁Jestli	-9.61866
▁ochran	-9.61867
▁mým	-9.61943
ismus	-9.61949
▁důležitý	-9.62011
▁sedm	-9.62257
▁jednoduchý	-9.62349
▁obyvatel	-9.62416
▁post	-9.62425
bal	-9.6249
line	-9.62502
▁doktor	-9.6251
▁stop	-9.62613
cím	-9.6293
▁učí	-9.62937
▁skutečné	-9.6298
▁chorob	-9.62981
cházejí	-9.6306
▁objev	-9.63095
▁ba	-9.63122
▁Vám	-9.63317
▁dokáž	-9.63323
▁tuhle	-9.63328
nova	-9.63343
▁žije	-9.63412
ovalo	-9.63428
▁náboženství	-9.63546
▁detail	-9.63546
ment	-9.63552
níci	-9.63577
týká	-9.63593
vost	-9.64113
▁9	-9.64155
▁Tím	-9.64277
nictví	-9.6432
ovány	-9.64361
▁mladý	-9.64362
▁potenciál	-9.64423
▁hru	-9.64503
ps	-9.64504
▁La	-9.64512
▁kol	-9.64553
▁předmět	-9.64688
▁zásadní	-9.64688
▁motor	-9.64699
▁uprostřed	-9.64758
▁skl	-9.64803
rovna	-9.6484
▁udělám	-9.65077
▁Ka	-9.651
▁cíle	-9.6519
led	-9.65242
▁pořádk	-9.65249
▁spoluprác	-9.6526
▁následující	-9.6526
▁událost	-9.65261
▁dostatečn	-9.65281
▁Nebyl	-9.65302
ající	-9.6535
▁mal	-9.6538
▁čtvrt	-9.65382
▁barv	-9.65414
▁jediné	-9.65416
▁199	-9.65454
▁tříd	-9.65694
▁technik	-9.65841
▁průběh	-9.65841
▁situac	-9.65857
▁výhod	-9.65865
▁změní	-9.65893
▁vln	-9.65916
váme	-9.65966
ina	-9.66038
evším	-9.66221
▁výsled	-9.66393
▁signál	-9.6642
▁vyvinul	-9.6642
▁16	-9.66439
▁Ja	-9.66464
▁cesta	-9.66601
ily	-9.6663
▁důsledk	-9.6666
▁teorie	-9.66867
▁závěr	-9.67002
▁vzdělávání	-9.67006
ovém	-9.67007
▁pokrok	-9.67011
▁výkon	-9.6706
vin	-9.67157
▁aniž	-9.67162
▁smrt	-9.67253
▁smrti	-9.67273
▁důvodů	-9.67281
▁používají	-9.67306
K	-9.67344
▁blíž	-9.67355
▁jedin	-9.67393
konečně	-9.67398
▁okamžit	-9.67593
▁čtyř	-9.67604
ané	-9.67657
▁dám	-9.67729
▁sto	-9.67841
▁vráti	-9.68004
ow	-9.68014
▁takovou	-9.68025
wa	-9.6806
ovn	-9.68102
▁nos	-9.68173
▁efekt	-9.6818
▁odhad	-9.68196
▁kontrol	-9.68212
bě	-9.68309
bil	-9.68514
▁jedná	-9.68549
▁De	-9.6868
▁přítel	-9.68809
▁str	-9.68871
▁zrovn	-9.68936
lin	-9.68984
▁Nikdy	-9.6913
gan	-9.69159
pen	-9.69191
▁tahle	-9.69372
▁buněk	-9.69379
▁použil	-9.69385
▁učit	-9.69479
žil	-9.69516
žijeme	-9.69577
▁dní	-9.69737
▁úspěšn	-9.69921
▁médi	-9.70021
otec	-9.70107
kové	-9.70153
▁těle	-9.70158
▁proud	-9.70296
ster	-9.70464
kov	-9.70567
rovná	-9.70571
▁zájm	-9.70588
▁vytvoří	-9.70588
▁ruku	-9.70595
▁snažím	-9.70622
▁postaven	-9.7063
▁otáz	-9.70724
▁digitální	-9.70734
sky	-9.70737
▁bio	-9.70753
▁hlad	-9.7084
svoje	-9.71213
▁14	-9.71223
▁Práv	-9.71242
▁učení	-9.71418
ložit	-9.71441
han	-9.71489
▁něčem	-9.71709
nají	-9.71719
▁jménem	-9.71754
▁příjem	-9.71812
▁příjm	-9.71814
▁přesvědči	-9.71831
pod	-9.72018
▁hodiny	-9.72067
▁otevřen	-9.72159
▁myšlení	-9.7235
▁vysoké	-9.72428
▁šesti	-9.72476
ama	-9.72506
ep	-9.72517
▁soud	-9.72637
▁Nikd	-9.72684
▁říka	-9.7282
bral	-9.73053
▁obnov	-9.73143
▁státy	-9.73166
▁něče	-9.73198
▁vypada	-9.73219
▁změnu	-9.73365
▁celá	-9.7345
▁mužů	-9.73472
▁hudba	-9.73484
▁někde	-9.7359
▁řek	-9.73621
vou	-9.73624
▁Americe	-9.73674
▁přístroj	-9.73674
▁dívk	-9.73695
▁jmenuje	-9.73798
▁80	-9.73806
▁roli	-9.74067
dět	-9.74202
▁výzv	-9.74227
▁přírodní	-9.74231
▁podnik	-9.74294
▁Někter	-9.74303
▁nechal	-9.74366
▁oceán	-9.74381
▁osm	-9.74385
▁her	-9.74415
▁boh	-9.74457
▁ráda	-9.74464
stanou	-9.74479
▁rop	-9.74572
ským	-9.74693
▁nepři	-9.7474
▁hranice	-9.74745
▁střed	-9.7479
▁porozumě	-9.74829
ejší	-9.7486
▁fyzik	-9.74911
▁hmyz	-9.74936
▁morální	-9.74943
▁John	-9.75
▁bi	-9.75027
▁postavi	-9.75164
dla	-9.75268
▁smyslu	-9.75434
▁fotk	-9.75456
▁návrh	-9.75469
▁říkáme	-9.75572
▁starší	-9.75573
▁pryč	-9.75574
▁sekund	-9.75575
▁hnutí	-9.75682
▁něčí	-9.75692
nk	-9.75733
▁děl	-9.75762
▁Ná	-9.75927
růst	-9.76145
▁žá	-9.76206
▁sítě	-9.76223
▁aktivit	-9.76251
▁vedle	-9.76448
pravit	-9.76527
zuje	-9.76546
nete	-9.76657
▁počt	-9.76829
▁deseti	-9.76829
▁domácí	-9.7686
▁Aby	-9.76861
▁rukou	-9.76862
▁soutěž	-9.76955
▁metr	-9.77026
pál	-9.77078
▁vědci	-9.77122
▁13	-9.77246
les	-9.77256
▁rozvoj	-9.77364
▁Chris	-9.77514
▁dcer	-9.77529
▁matk	-9.77605
▁dosáhl	-9.77652
▁bal	-9.77788
vzájem	-9.77914
▁současnost	-9.78055
fr	-9.78078
▁podnikatel	-9.78162
▁seznam	-9.78163
▁myslet	-9.78197
dání	-9.78233
▁pokaždé	-9.78236
▁chodí	-9.78259
▁současné	-9.78269
▁částí	-9.78285
▁zábav	-9.78375
▁fotograf	-9.78409
▁radost	-9.78475
▁Pod	-9.78575
▁stroje	-9.78692
nor	-9.78698
▁znalost	-9.78742
▁dveř	-9.78826
▁jasné	-9.78828
▁nesmírn	-9.7883
▁Ri	-9.7885
▁tráv	-9.78851
▁léta	-9.78854
▁paliv	-9.78866
▁nutn	-9.78872
ložil	-9.78962
ováním	-9.78978
▁výzkumu	-9.79133
oh	-9.79317
▁inteligenc	-9.79482
▁dětem	-9.79489
▁veřejné	-9.79491
▁přichází	-9.79666
kup	-9.79738
▁čern	-9.7977
▁vir	-9.79836
elné	-9.79846
▁vět	-9.79893
▁Potřebujem	-9.80023
raz	-9.8008
kož	-9.80158
▁řečen	-9.80174
▁síť	-9.80174
▁států	-9.80234
lik	-9.80394
ss	-9.80394
▁šanc	-9.80501
▁historie	-9.80579
ivé	-9.80605
▁možností	-9.80649
pustí	-9.80751
▁hudební	-9.8082
▁konkrétní	-9.8082
▁rozhovor	-9.8082
▁partner	-9.8082
▁dívat	-9.80858
▁koho	-9.80987
▁finanční	-9.81002
▁nová	-9.81025
▁vláda	-9.81153
▁bakterie	-9.81182
▁řídi	-9.81295
▁klimat	-9.81325
,	-9.81457
tlač	-9.81474
▁sledovat	-9.81504
▁vtip	-9.81505
▁vnitřní	-9.81538
▁takových	-9.81618
▁platí	-9.81678
▁dív	-9.81737
▁šel	-9.81883
▁západní	-9.82031
▁fot	-9.82098
▁pacientů	-9.82102
▁sluneční	-9.82175
▁Míst	-9.82195
▁17	-9.82198
▁náhod	-9.82205
hne	-9.82219
▁Sh	-9.82281
res	-9.82343
▁podpor	-9.82419
▁mobilní	-9.8242
▁tvář	-9.82453
vaná	-9.82502
▁domov	-9.8252
▁získá	-9.82728
▁mysleli	-9.82741
nést	-9.82804
▁Lo	-9.82839
▁super	-9.82869
▁ztrát	-9.82888
▁našl	-9.82937
▁vybra	-9.83071
▁obrovsk	-9.83119
stane	-9.83176
pal	-9.83214
▁konec	-9.83348
▁web	-9.83396
▁Mil	-9.83436
▁San	-9.83477
▁nepře	-9.83537
▁důvěr	-9.8355
▁zvíře	-9.83552
▁Stejn	-9.83553
H	-9.83572
▁div	-9.8368
star	-9.83714
▁dar	-9.83763
četně	-9.83973
▁filmu	-9.84
eno	-9.84091
▁ledov	-9.84098
▁slep	-9.84235
▁muset	-9.84249
▁vysoko	-9.84255
▁deset	-9.84275
▁prů	-9.84291
▁přitom	-9.84293
▁pravděpodobnost	-9.84344
▁500	-9.84539
▁měsíce	-9.84649
▁zemřel	-9.84821
▁přemýšlel	-9.84944
▁Video	-9.84944
▁Amerik	-9.84944
▁podíváme	-9.84944
ký	-9.84945
▁brzy	-9.84948
▁projev	-9.84957
razil	-9.84971
▁měřítk	-9.84995
bit	-9.85114
▁prvním	-9.85151
▁opak	-9.85212
řad	-9.85239
chází	-9.85433
jdeme	-9.8549
▁matka	-9.85535
▁společné	-9.85545
▁začát	-9.85572
▁denně	-9.8561
▁zpráva	-9.85646
▁strategi	-9.85648
▁řídí	-9.85658
▁ostrov	-9.85665
▁tlak	-9.85665
▁uměl	-9.85672
▁slyše	-9.85733
tvrd	-9.85938
▁jasně	-9.85943
▁téma	-9.86037
race	-9.86058
ňuje	-9.86168
elný	-9.86209
▁pla	-9.86214
▁dobro	-9.86229
hnout	-9.8629
▁potřeboval	-9.8629
▁symbol	-9.86357
▁tradiční	-9.86357
▁Nevím	-9.8639
▁plat	-9.86402
▁zajímá	-9.86492
ováno	-9.86536
šení	-9.86544
sud	-9.86554
▁pole	-9.86649
prosím	-9.86651
▁Všechno	-9.86667
kres	-9.86801
▁dovol	-9.86861
▁pís	-9.86981
▁Dr	-9.87025
eny	-9.87047
▁umožňuje	-9.87072
▁pěst	-9.87077
ýče	-9.87081
▁normální	-9.87081
▁fungovat	-9.87088
▁neznám	-9.8709
razí	-9.87101
dávat	-9.87106
▁dospěl	-9.87193
▁úrov	-9.87259
▁nechá	-9.87348
▁jistý	-9.87358
hledat	-9.87358
▁velkým	-9.87414
kami	-9.87415
▁knihu	-9.87424
zovat	-9.87518
▁dolar	-9.87534
▁stál	-9.87549
▁biologi	-9.87631
ávají	-9.87677
čas	-9.87732
▁Google	-9.87791
▁kód	-9.87795
▁pokoj	-9.87797
▁buď	-9.87801
▁větr	-9.87822
▁ex	-9.87857
▁činnost	-9.88102
▁Kdyby	-9.88118
mých	-9.88123
▁nepro	-9.88149
ickou	-9.88162
▁státech	-9.88169
▁mobil	-9.88198
inu	-9.88348
stává	-9.88417
kách	-9.88505
▁vězení	-9.88525
▁OK	-9.88562
▁národ	-9.88597
▁představu	-9.88614
▁nemůžeme	-9.88662
▁občan	-9.88933
tický	-9.89065
▁most	-9.89179
▁stává	-9.89198
▁Víme	-9.89202
▁pochopil	-9.89246
▁vrstv	-9.89247
▁koncept	-9.89248
▁farmář	-9.89294
▁voda	-9.89334
▁značk	-9.89419
▁generace	-9.8945
▁přece	-9.89485
▁Nejs	-9.89504
▁metrů	-9.89591
▁nového	-9.89631
lý	-9.89648
▁situace	-9.89693
levo	-9.89733
alo	-9.8981
▁manžel	-9.89964
▁armád	-9.89981
▁teplot	-9.89994
▁udrže	-9.89995
▁sledoval	-9.90011
▁příčin	-9.90018
▁vůdc	-9.90031
ském	-9.90058
▁vznikl	-9.90097
▁večer	-9.90107
▁neuron	-9.90161
▁sex	-9.90204
▁Car	-9.9021
iny	-9.90276
▁obchodní	-9.90278
▁čin	-9.90291
▁strávil	-9.90382
▁pokračova	-9.90501
▁pochází	-9.90535
neme	-9.90589
▁zásad	-9.90719
▁záznam	-9.90722
▁zbav	-9.90755
go	-9.9085
▁pát	-9.9099
▁Vím	-9.91074
▁Podl	-9.9114
▁bu	-9.91276
ejmén	-9.91462
▁neviděl	-9.91468
▁kontakt	-9.91468
▁anglick	-9.91468
▁poruch	-9.91479
▁odpověděl	-9.91495
▁Kolik	-9.91563
ang	-9.91615
▁obět	-9.91616
▁otázk	-9.91663
▁ekonomické	-9.91717
čel	-9.91882
▁vypadají	-9.91899
▁očí	-9.921
▁Prost	-9.92136
kání	-9.92403
▁změna	-9.92413
▁malo	-9.92573
pravo	-9.92601
čet	-9.92781
▁Pojďm	-9.92797
▁Sta	-9.92857
▁Ně	-9.92882
▁umožnil	-9.92968
▁průzkum	-9.92977
▁desetiletí	-9.92981
▁psycholog	-9.92989
▁fotografie	-9.9302
▁stavě	-9.93024
▁per	-9.93085
▁Mnoho	-9.93149
vš	-9.93182
▁vším	-9.93184
vu	-9.9319
▁udělá	-9.93327
padá	-9.93393
▁Mars	-9.93458
▁podobný	-9.93506
▁kap	-9.93524
▁postavil	-9.93539
▁potřebuj	-9.9365
▁sil	-9.93738
▁Západ	-9.93741
▁vyrábě	-9.93741
▁Každ	-9.93802
▁pán	-9.93816
cházel	-9.93846
rh	-9.93942
▁Kde	-9.93995
▁snadné	-9.94086
▁krásné	-9.94148
▁mysl	-9.94155
▁zdrojů	-9.94157
rozen	-9.94271
▁doprav	-9.94349
▁šťastn	-9.94425
▁jednoduch	-9.94449
pustit	-9.94458
▁farm	-9.9446
pír	-9.94485
▁uživatel	-9.9451
▁řád	-9.94512
▁úpln	-9.9469
▁omezen	-9.94721
▁publik	-9.94832
▁90	-9.94864
▁nechce	-9.94923
▁představuje	-9.9493
▁publiku	-9.94962
kro	-9.9497
▁miliónů	-9.95009
▁kulturní	-9.95188
▁nevěděl	-9.95261
▁konflikt	-9.95285
▁výběr	-9.95291
▁síla	-9.95388
▁průměr	-9.95472
místo	-9.95478
▁letadl	-9.95573
nec	-9.95653
▁všemi	-9.95671
▁zločin	-9.9573
▁fungují	-9.95803
▁hol	-9.95892
▁dokážeme	-9.95955
▁jaká	-9.96045
▁pravidel	-9.96066
▁provoz	-9.96127
▁styl	-9.96134
sle	-9.96161
▁Moc	-9.96217
▁blízko	-9.96282
▁společností	-9.96339
▁konce	-9.9634
▁dole	-9.96382
▁školu	-9.96395
▁novým	-9.96434
▁rychlej	-9.96553
▁rizik	-9.96572
▁moji	-9.96657
▁témat	-9.96667
▁vníma	-9.967
cký	-9.96701
▁zjistí	-9.96703
zní	-9.96706
▁zajímav	-9.96802
▁jediná	-9.96849
Ř	-9.9685
rou	-9.9685
▁ředitel	-9.96854
▁nemožné	-9.96855
▁text	-9.96855
▁hráč	-9.96855
▁ovšem	-9.96856
▁útok	-9.96944
▁určitý	-9.97048
▁Cel	-9.97079
▁složité	-9.97155
▁spo	-9.97311
▁lét	-9.97331
leté	-9.97367
nské	-9.97387
ejme	-9.97441
▁špatný	-9.97532
▁krát	-9.97606
▁vlastním	-9.97608
▁správ	-9.97618
▁soused	-9.97632
▁Musel	-9.97648
▁chodit	-9.97655
▁věřit	-9.97673
▁slab	-9.977
▁Jin	-9.97781
▁sedí	-9.97796
▁Dal	-9.97829
▁druhá	-9.97891
▁skutečný	-9.98013
▁Kr	-9.9807
▁silnic	-9.98275
▁dané	-9.98278
▁něk	-9.98382
dál	-9.98393
▁angličtin	-9.98447
▁prezident	-9.98447
▁vyřešit	-9.98447
▁nechtěl	-9.98448
▁Vždy	-9.9845
▁bratr	-9.98462
▁atom	-9.98463
▁dob	-9.98467
▁účel	-9.98472
řel	-9.98523
▁obav	-9.98535
hledně	-9.98628
▁Č	-9.98639
násob	-9.98677
▁zajímavý	-9.98706
▁prst	-9.98714
▁člen	-9.9874
potřeb	-9.98779
▁mikro	-9.98878
▁výsledk	-9.98923
▁mladí	-9.99086
tají	-9.99099
hlavně	-9.99195
áno	-9.99234
ill	-9.9925
▁Spojené	-9.99254
▁produkc	-9.99254
▁hezk	-9.99254
▁Dovol	-9.99255
▁Ukáž	-9.99255
▁pre	-9.99267
▁občas	-9.99291
IV	-9.9932
vně	-9.99402
▁nachází	-9.99428
▁neod	-9.99452
▁Nez	-9.99564
▁hledání	-9.99575
▁ukázk	-9.99614
hrad	-9.99695
▁skončil	-9.99711
▁hranic	-9.99724
▁nejde	-9.99772
▁hromad	-9.99825
▁politické	-9.99848
▁dovoli	-9.99872
▁dopis	-9.99978
▁shod	-10.0002
▁obě	-10.0005
▁ekonom	-10.0006
▁záležitost	-10.0007
▁tvrdí	-10.001
▁vodo	-10.0016
▁vytváření	-10.0017
▁doufám	-10.0019
▁týdny	-10.002
▁Vel	-10.0024
▁otevř	-10.0029
▁naděj	-10.0051
▁Pří	-10.0055
vis	-10.007
▁niko	-10.0075
▁nohy	-10.0082
her	-10.0083
nky	-10.0085
▁prázdn	-10.0089
▁využití	-10.0089
▁dvoj	-10.0089
▁seděl	-10.009
▁11	-10.0092
▁díval	-10.0096
▁nemohou	-10.0098
▁pojm	-10.0099
▁moř	-10.0106
▁tisk	-10.0106
▁70	-10.0111
▁snímk	-10.0113
▁orgán	-10.012
neuvěřitelně	-10.0133
▁kousk	-10.0155
▁státní	-10.0157
▁provedl	-10.0158
bývají	-10.0161
▁Afghánistán	-10.0171
▁chirurg	-10.0171
▁kancelář	-10.0171
▁Británi	-10.0171
▁hrál	-10.0173
▁hesl	-10.0174
▁vytvoření	-10.0184
▁posloucha	-10.0188
▁nebud	-10.0188
ff	-10.0193
▁chlapc	-10.0194
▁bezpečnost	-10.0197
ovač	-10.0205
▁studentů	-10.0212
tisk	-10.0228
▁vír	-10.0237
▁zrak	-10.0244
▁oceánu	-10.0245
▁kmen	-10.0245
▁Říká	-10.025
▁samotné	-10.0251
▁cítím	-10.0251
▁dovednost	-10.0255
▁198	-10.0256
▁ptát	-10.0256
▁24	-10.0258
▁blog	-10.026
opravd	-10.0272
▁spolupracova	-10.0278
▁leh	-10.0278
▁mnohokrát	-10.0279
▁aktiv	-10.0289
padne	-10.0292
▁slunce	-10.0294
▁noh	-10.0301
▁20.	-10.0305
▁probíh	-10.0311
▁nim	-10.0331
▁Izrael	-10.0339
▁přibližn	-10.0339
▁reklam	-10.0339
▁vteřin	-10.0339
▁dráh	-10.034
▁plav	-10.0343
▁výš	-10.0348
▁drží	-10.0354
▁fungoval	-10.0354
▁mrtv	-10.0357
▁známe	-10.0357
▁továrn	-10.0366
▁strán	-10.0367
▁koupi	-10.0375
▁lod	-10.0375
aly	-10.0401
▁Sp	-10.0404
▁medicín	-10.0423
▁titul	-10.0424
nic	-10.0424
.000	-10.0424
▁centru	-10.0425
▁faktor	-10.0436
▁infrastruktur	-10.0442
▁Jeho	-10.0446
▁jistě	-10.0448
▁milión	-10.0454
▁svá	-10.0457
ger	-10.0458
▁dostan	-10.046
▁býval	-10.0475
hoře	-10.0477
ůh	-10.0485
▁zbyt	-10.0486
▁člán	-10.0493
rap	-10.0494
▁popis	-10.0507
▁souvis	-10.0509
▁konverzac	-10.0509
▁zůstal	-10.0509
▁ohledu	-10.0509
▁ročně	-10.051
▁Vidím	-10.051
▁pomáhá	-10.0516
▁Zatím	-10.0528
▁vezm	-10.0529
▁obor	-10.0538
▁níž	-10.0543
▁předpoklád	-10.0547
▁Věd	-10.055
▁atmosfér	-10.0552
nese	-10.0579
▁nějaká	-10.0579
šti	-10.058
▁Ani	-10.0582
myslíte	-10.0583
▁posun	-10.0591
▁potkal	-10.0597
▁rozumě	-10.0599
ari	-10.0605
▁ptal	-10.0615
▁jo	-10.0616
▁Pan	-10.0622
▁vzdálenost	-10.0628
▁vyprávě	-10.0628
▁demokracie	-10.0631
▁správný	-10.0635
per	-10.0639
blíž	-10.0641
▁vašem	-10.0646
▁Začn	-10.0648
jdou	-10.0651
▁přednášk	-10.0657
hn	-10.0658
▁odpověd	-10.0659
ovy	-10.0661
▁jisté	-10.067
▁park	-10.0672
▁vysvětl	-10.0673
▁300	-10.0677
vysvětlit	-10.0678
▁číst	-10.0681
▁Twitter	-10.0682
▁neexistuje	-10.0682
▁vyroben	-10.0682
▁záběr	-10.0682
▁poděli	-10.0684
▁nejspíš	-10.0684
něte	-10.0686
▁Říkám	-10.0687
▁krabic	-10.0688
▁fáz	-10.0693
▁trval	-10.0696
▁miluj	-10.0706
▁podívejte	-10.0713
▁pozná	-10.073
▁všiml	-10.0731
▁zlom	-10.0734
▁nemocnic	-10.0748
oví	-10.0765
▁definic	-10.077
▁vysoký	-10.077
▁vazb	-10.077
▁ploch	-10.0772
▁reálném	-10.0773
▁trpí	-10.0774
▁pohybu	-10.0776
▁ran	-10.0783
▁snadno	-10.0784
▁krajin	-10.0785
▁přesta	-10.0789
▁Mal	-10.0796
▁použit	-10.0801
▁nikoli	-10.081
▁stara	-10.0811
stavil	-10.0812
▁bank	-10.0815
▁klíč	-10.0817
▁dojde	-10.0817
ence	-10.0832
štěstí	-10.085
▁reáln	-10.0856
▁praktick	-10.0859
▁přinesl	-10.086
▁roste	-10.086
▁hraje	-10.0866
▁šlo	-10.0866
▁venk	-10.0867
▁brán	-10.0869
▁list	-10.0875
▁nazývám	-10.0877
▁pamatuj	-10.0882
▁nehod	-10.0883
▁objeví	-10.0888
▁vnímání	-10.0891
▁nazývá	-10.0902
ivní	-10.0904
▁plný	-10.0914
prve	-10.0921
▁vědom	-10.093
▁přeměn	-10.0931
gram	-10.0931
zích	-10.094
▁dlouhou	-10.0941
▁existenc	-10.0948
▁respekt	-10.0948
▁standard	-10.0948
▁revoluce	-10.0949
▁narodil	-10.095
▁Ukázal	-10.095
▁obou	-10.0964
▁teori	-10.0969
▁vlas	-10.097
▁Číně	-10.099
▁Str	-10.0996
ins	-10.0996
▁rozdíly	-10.1005
▁jejím	-10.1009
klid	-10.1023
mar	-10.103
sla	-10.103
▁pracují	-10.103
měr	-10.1034
▁kariér	-10.1038
▁mimořádn	-10.1038
▁tajemství	-10.1038
▁vzpomínk	-10.1041
▁podmínky	-10.1045
ovými	-10.1047
▁pozitivní	-10.1047
potřebují	-10.1047
▁hrdin	-10.105
ns	-10.1052
▁změně	-10.1055
stavit	-10.1055
▁chvíle	-10.1067
▁tepl	-10.107
metr	-10.1072
ner	-10.1075
▁reakce	-10.1079
▁jedinc	-10.1079
dli	-10.1088
ávání	-10.1088
▁používáme	-10.1101
kromě	-10.1105
▁propojen	-10.1109
▁obsahuj	-10.1128
▁Japonsk	-10.1129
▁expert	-10.1129
▁závod	-10.1129
▁kup	-10.113
har	-10.113
▁učil	-10.1135
▁skutečn	-10.1139
▁vstup	-10.114
▁budoucn	-10.1141
▁duch	-10.1144
▁uhlík	-10.1156
▁vzájemn	-10.1158
▁jind	-10.1158
▁druhu	-10.116
▁rodina	-10.1165
izace	-10.1189
ole	-10.1189
▁tun	-10.1194
točil	-10.1195
▁inovace	-10.1198
▁cíti	-10.12
▁různ	-10.122
▁vynález	-10.122
▁komplikovan	-10.122
▁vzhled	-10.122
▁Poslední	-10.122
▁emoce	-10.122
▁spojit	-10.122
▁využívá	-10.1221
▁starost	-10.1222
povídá	-10.1227
ler	-10.1228
▁Zdá	-10.1245
▁hrozn	-10.125
▁operac	-10.1257
▁kamen	-10.1267
▁uvaž	-10.1293
▁král	-10.1294
kázal	-10.1307
▁samotný	-10.1307
▁běžné	-10.1312
▁Internet	-10.1313
▁Kaliforni	-10.1313
▁Problém	-10.1313
▁Zjistil	-10.1313
▁paměti	-10.1313
▁požádal	-10.1313
▁šimpanz	-10.1313
▁sledování	-10.1313
▁kruh	-10.1315
▁nejhorší	-10.1315
▁září	-10.132
▁cit	-10.132
▁kilometrů	-10.132
rganiz	-10.132
▁vizuální	-10.1327
▁Potřebuj	-10.133
▁pop	-10.1336
▁pohybova	-10.1342
čítá	-10.1349
▁americký	-10.1356
▁znač	-10.1357
graf	-10.136
F	-10.1363
▁odlišné	-10.1366
jich	-10.1371
lán	-10.1372
▁lov	-10.1384
port	-10.1384
▁odlišn	-10.1385
ón	-10.1386
ren	-10.1388
kla	-10.1391
▁podíl	-10.1394
▁cel	-10.1395
▁životů	-10.1403
▁absolutn	-10.1406
▁energetick	-10.1406
▁debat	-10.1407
▁patří	-10.1407
▁třem	-10.1409
▁chtí	-10.141
▁čeká	-10.1421
▁přimě	-10.1433
▁spor	-10.1444
▁černé	-10.1445
▁poměrn	-10.1447
▁otce	-10.1448
▁Wi	-10.1472
hodno	-10.1488
ismu	-10.149
▁různým	-10.1494
▁venkov	-10.1498
▁Německ	-10.1501
▁představivost	-10.1501
▁látk	-10.1501
▁začínají	-10.1503
▁pohod	-10.1507
též	-10.1512
▁med	-10.1518
▁okn	-10.1529
tíž	-10.1529
▁mladé	-10.1531
▁přemýšlím	-10.1536
▁samý	-10.1545
▁prostředk	-10.1548
▁strany	-10.1564
▁mat	-10.157
▁dlouhé	-10.157
▁Řekn	-10.1572
▁podporu	-10.1575
▁americké	-10.1577
▁politický	-10.1586
▁stanic	-10.1587
▁Svět	-10.1592
▁kov	-10.1596
▁algoritm	-10.1596
▁dispozic	-10.1596
▁bomb	-10.1597
▁dřev	-10.1598
▁lidech	-10.1604
▁houb	-10.161
nějším	-10.1626
▁Druh	-10.1631
▁teprv	-10.1643
▁historick	-10.1645
▁uděláte	-10.1655
▁přemýšlí	-10.1659
▁Nemůže	-10.167
▁vztahu	-10.1672
▁ulici	-10.1672
▁statistik	-10.1692
▁vzrušující	-10.1692
▁proměn	-10.1693
▁okolí	-10.1696
▁ztratil	-10.1696
lon	-10.1703
▁přidá	-10.1734
▁běž	-10.1747
iteln	-10.1753
▁uvažova	-10.1754
▁hladin	-10.1757
▁Můž	-10.1774
amp	-10.1777
zoval	-10.1778
▁celosvětov	-10.1789
▁Pamatuj	-10.1789
▁skončí	-10.1789
▁neob	-10.1794
▁vysoc	-10.1802
▁dětm	-10.1806
▁nul	-10.1807
▁trik	-10.1812
▁týdnů	-10.1814
▁budova	-10.1819
▁znak	-10.1835
▁psal	-10.1847
▁vezme	-10.185
▁Go	-10.1851
pracov	-10.1852
volal	-10.1861
▁osobnost	-10.1866
▁plné	-10.1869
▁jednotk	-10.1871
zdrav	-10.1872
itelné	-10.1872
▁znáte	-10.1881
▁silný	-10.1881
▁scén	-10.1886
▁hloup	-10.1887
▁umožní	-10.1887
▁ukazují	-10.1889
▁výraz	-10.1892
▁horší	-10.1894
▁Bill	-10.1895
▁snah	-10.1896
▁19	-10.1903
▁stří	-10.1906
▁znamena	-10.1908
▁vybral	-10.1911
▁speciální	-10.1918
▁společenské	-10.1922
▁komplexní	-10.1932
nekonečn	-10.1935
oň	-10.1949
▁odlišný	-10.196
▁kor	-10.1978
▁příkladů	-10.1984
▁rozumí	-10.1986
▁živočich	-10.1986
▁svědk	-10.1986
▁časopis	-10.1986
▁nádor	-10.1986
▁Chceme	-10.1986
▁přežití	-10.1986
▁ochotn	-10.1987
▁cizí	-10.199
▁hus	-10.1991
▁severní	-10.1991
▁stres	-10.1992
▁druhém	-10.2009
▁obrn	-10.201
▁neuvěřitelné	-10.2013
luč	-10.2018
▁odkud	-10.2018
▁žijící	-10.2019
▁těž	-10.2025
před	-10.2027
▁budoucí	-10.2035
▁past	-10.2037
▁Dám	-10.2047
▁kontrolu	-10.2048
▁genetick	-10.2049
▁vydal	-10.2062
▁Vše	-10.2071
▁Velké	-10.2078
▁dívám	-10.2079
zují	-10.2086
▁Doufám	-10.2086
▁předpoklad	-10.2086
▁zájem	-10.2086
▁Myslel	-10.2086
▁barev	-10.2087
▁197	-10.2087
▁důležitější	-10.2091
▁Nej	-10.2091
čné	-10.2094
▁čeli	-10.2099
▁šok	-10.21
▁psá	-10.2103
▁Američan	-10.212
▁rozhodnou	-10.2126
▁politick	-10.2128
▁ohromn	-10.213
▁typick	-10.2133
▁modr	-10.2141
▁roboti	-10.2154
poví	-10.2158
▁neuronů	-10.2163
▁barvy	-10.2167
▁nud	-10.2167
líb	-10.2168
▁rodičů	-10.2171
svědč	-10.2185
▁Facebook	-10.2187
▁siln	-10.2188
▁kdybych	-10.2198
▁kouk	-10.22
▁ekonomický	-10.2201
▁studoval	-10.2216
nili	-10.2224
▁řekněm	-10.2229
▁stup	-10.223
▁dům	-10.2232
▁reakc	-10.2244
▁jenž	-10.2244
▁kdybys	-10.2245
▁řízení	-10.2246
▁zažil	-10.2251
▁kým	-10.2268
▁nevidí	-10.2269
pověď	-10.2273
▁Londýn	-10.2289
▁chláp	-10.2289
▁profesor	-10.2289
▁tvořen	-10.2289
▁trošku	-10.2291
▁aktivní	-10.2293
▁kořen	-10.2296
ráže	-10.2302
hání	-10.2302
▁pal	-10.2303
▁původ	-10.2305
▁The	-10.2311
▁zvedn	-10.2315
hlas	-10.2317
▁zahrad	-10.2322
▁Jedin	-10.2326
▁vědecké	-10.2326
▁Nemám	-10.2334
▁Vezmě	-10.2334
▁atd	-10.2345
▁vést	-10.2361
▁potrav	-10.2376
▁poměr	-10.2378
▁Franci	-10.2392
▁čár	-10.2393
▁Hodn	-10.2399
skutk	-10.2401
ell	-10.2407
▁porozumění	-10.242
▁podmín	-10.2428
▁umělc	-10.2448
▁designu	-10.245
▁Druhý	-10.2459
▁provádě	-10.2463
▁Če	-10.2465
třech	-10.2469
▁plně	-10.2471
▁znamenal	-10.2475
▁sedmi	-10.2488
▁chud	-10.2493
▁úmrtnost	-10.2497
▁zůstat	-10.2497
▁vakcín	-10.2497
▁hledisk	-10.2497
▁úvah	-10.2497
▁oslav	-10.2497
▁zapojen	-10.2499
▁pochyb	-10.2504
▁rozvojový	-10.2504
▁inter	-10.2509
▁pád	-10.2525
▁postel	-10.2527
gh	-10.2529
dlo	-10.253
▁chlap	-10.2563
▁Tahle	-10.2571
▁míru	-10.2575
kli	-10.258
▁původní	-10.2587
▁jdou	-10.2596
▁zážit	-10.2597
evoluce	-10.26
▁nejdřív	-10.2602
▁nejvyšší	-10.2602
▁virtuální	-10.2602
▁bublin	-10.2602
▁Skutečn	-10.2602
▁dokument	-10.2602
▁délk	-10.2602
▁Zkus	-10.2602
▁dvacet	-10.2605
▁názv	-10.2608
▁Potom	-10.2611
běh	-10.2614
▁nedávno	-10.2614
▁jádr	-10.2616
▁médií	-10.2618
DP	-10.2621
▁Muž	-10.2621
▁někom	-10.2629
▁zdi	-10.2633
▁vedoucí	-10.2634
▁Přesto	-10.2638
▁kolo	-10.2642
boj	-10.2645
lub	-10.2652
qu	-10.2658
▁demokraci	-10.2664
▁nazval	-10.2668
▁školní	-10.2669
proti	-10.2691
ráz	-10.2692
▁konečn	-10.2694
▁obzvláš	-10.2708
▁pobřeží	-10.2708
▁zásob	-10.2708
▁tradic	-10.2708
▁trest	-10.271
▁jižní	-10.271
▁vybudova	-10.271
▁souhlas	-10.271
▁zkusit	-10.2711
▁vysvětlení	-10.2712
▁Čím	-10.2713
▁akce	-10.272
▁dochází	-10.2722
▁prvk	-10.2723
▁vedení	-10.2724
▁Věřím	-10.2726
▁došl	-10.2738
▁silné	-10.2738
▁bot	-10.2741
▁televizi	-10.2746
liš	-10.2747
▁zajíma	-10.2747
▁zisk	-10.2747
▁ekologick	-10.2748
ens	-10.276
dělají	-10.2762
▁obtížné	-10.2769
mění	-10.2774
▁osud	-10.278
▁veřejnost	-10.2793
▁studova	-10.2802
▁fyzick	-10.2805
stoupil	-10.2807
▁150	-10.2812
ností	-10.2813
▁Slunce	-10.2816
▁Severní	-10.2816
▁raket	-10.2816
▁dětství	-10.2816
▁navržen	-10.2816
▁záchran	-10.2816
▁Mimo	-10.2816
▁škod	-10.2816
▁líbí	-10.2817
▁Vaše	-10.2817
▁Bez	-10.2819
▁chodil	-10.2823
▁bavi	-10.2824
nku	-10.2826
▁lekc	-10.2832
▁srdc	-10.2833
nka	-10.2835
▁němu	-10.2838
▁překážk	-10.2838
▁touh	-10.2859
ejít	-10.2863
▁podivn	-10.2863
íci	-10.2872
▁Jaké	-10.2873
kry	-10.2876
▁Ber	-10.2877
▁dáte	-10.2888
isté	-10.2907
▁napadl	-10.2909
▁up	-10.2913
▁poslal	-10.2919
▁rovně	-10.2923
▁muslim	-10.2924
▁odehráv	-10.2924
▁srovnání	-10.2925
▁hovoři	-10.2925
▁spokojen	-10.2925
▁vylepš	-10.2926
▁závislost	-10.2928
▁podnikání	-10.2929
▁vešker	-10.2934
▁viděla	-10.2949
▁dala	-10.296
▁prodáva	-10.2971
▁robota	-10.2972
▁takovým	-10.2992
▁tvorb	-10.2994
▁dítěte	-10.3001
▁polici	-10.3004
▁populac	-10.3006
▁klik	-10.3011
▁příběhů	-10.3011
▁věnova	-10.3012
▁krásn	-10.3026
▁šla	-10.3027
▁politic	-10.3029
letý	-10.303
▁autor	-10.3033
▁podařil	-10.3033
▁výjimečn	-10.3034
▁ono	-10.3034
▁oblečení	-10.3034
▁řešit	-10.3034
▁záměr	-10.3035
▁ruka	-10.3036
▁jedinečn	-10.3036
▁chlad	-10.3037
▁setkání	-10.3039
▁35	-10.3041
▁fyzické	-10.3041
čně	-10.3043
▁četl	-10.3047
▁používal	-10.3051
líd	-10.3064
▁babičk	-10.3072
užel	-10.3075
▁učitele	-10.31
nici	-10.31
nos	-10.3111
▁omezení	-10.3116
▁David	-10.3145
▁ekosystém	-10.3145
▁pochopení	-10.3145
▁Viděl	-10.3145
▁kouzeln	-10.3145
▁rozsah	-10.3145
▁konferenc	-10.3145
▁zbraně	-10.3146
▁leží	-10.3146
▁déle	-10.3146
▁trend	-10.3146
▁následk	-10.3146
▁skladb	-10.3148
▁Vás	-10.315
▁kluk	-10.3152
▁způsobil	-10.3156
▁stará	-10.3157
zadu	-10.3157
▁drže	-10.316
▁odměn	-10.3169
▁využíva	-10.3176
táhnout	-10.3188
▁oddělení	-10.3202
▁osoba	-10.3207
▁kontextu	-10.3209
▁přednáš	-10.3218
▁Nechc	-10.3222
▁způsobuje	-10.3234
cházíme	-10.3235
▁pozic	-10.3238
▁formu	-10.324
▁pit	-10.3247
práv	-10.3247
▁rovno	-10.325
▁zub	-10.3254
▁závisl	-10.3254
plně	-10.3254
▁písm	-10.3256
▁Otázk	-10.3258
▁argument	-10.3258
▁identit	-10.3258
▁srdeční	-10.3258
▁Říkal	-10.3258
▁bohatství	-10.3259
▁nabízí	-10.3259
▁rozhodně	-10.3265
avé	-10.3267
▁dostává	-10.3267
▁CO	-10.3268
▁En	-10.327
▁cokoli	-10.3271
díte	-10.3273
▁průmysl	-10.3274
▁Tam	-10.3279
▁stránky	-10.328
▁účast	-10.3284
▁Jižní	-10.3286
sadil	-10.329
verzi	-10.3294
▁nezávisl	-10.3298
▁navzdor	-10.3299
▁Vz	-10.3305
▁nebe	-10.3312
rub	-10.3317
▁galaxie	-10.3318
▁lid	-10.3319
▁chemi	-10.3319
▁jiném	-10.332
▁inženýr	-10.3325
▁půjde	-10.333
▁fo	-10.3331
prostřed	-10.3333
▁dlouhý	-10.3338
▁částice	-10.3356
zastavit	-10.3358
▁disk	-10.3364
běhl	-10.3368
▁epidemi	-10.3371
▁nefunguj	-10.3371
▁pomyslel	-10.3371
védsk	-10.3371
▁Mezi	-10.3372
▁dosah	-10.3372
▁očima	-10.3374
▁zvykl	-10.3375
▁séri	-10.3376
vač	-10.3384
▁dan	-10.3386
▁Máte	-10.3386
bar	-10.3392
▁nemocí	-10.3392
žívají	-10.3395
▁postupně	-10.3399
▁osmi	-10.3407
▁obchodu	-10.3417
fer	-10.3422
▁prací	-10.3451
▁nemůž	-10.3451
▁rozměr	-10.3452
leč	-10.3453
▁připrav	-10.3454
▁rozum	-10.3463
loni	-10.3464
▁nedokáže	-10.3465
▁zvlášt	-10.3468
▁druhým	-10.3475
toři	-10.3477
▁ovláda	-10.3478
▁architekt	-10.348
▁douf	-10.3481
▁známé	-10.3485
▁perspektiv	-10.3486
▁duševní	-10.3486
▁trans	-10.3487
▁efektivní	-10.3487
▁kombinac	-10.3487
▁Udělal	-10.3489
▁slavn	-10.3489
▁malári	-10.3492
▁náhl	-10.3499
lík	-10.3501
▁veřejn	-10.3502
▁terorist	-10.3505
ňování	-10.3506
▁naučí	-10.3509
▁propojení	-10.3512
▁kul	-10.3513
▁400	-10.3519
▁zastavil	-10.3523
▁založil	-10.3535
▁lidstva	-10.3536
▁prs	-10.3536
▁dokol	-10.354
trati	-10.3542
▁Maj	-10.3544
▁odpor	-10.3551
▁hledal	-10.3556
▁nedělá	-10.3558
▁programu	-10.3564
▁upřímn	-10.3564
▁Budu	-10.3569
▁Star	-10.3573
U	-10.3583
pouští	-10.3584
nek	-10.3587
▁těžko	-10.3588
dokonal	-10.3591
▁alternativ	-10.3603
▁fantastick	-10.3603
▁kategori	-10.3603
▁každodenní	-10.3603
▁kreativit	-10.3603
▁zemědělství	-10.3603
▁neviditeln	-10.3603
▁samostatn	-10.3603
▁navrhl	-10.3603
▁přináší	-10.3603
▁vozík	-10.3603
▁zeptá	-10.3603
▁minulý	-10.3604
▁poznat	-10.3604
▁stejným	-10.3604
▁pravé	-10.3605
▁vodě	-10.3605
▁drog	-10.3606
▁čekal	-10.3608
▁klinick	-10.3608
▁krátký	-10.3608
kovat	-10.361
▁myšlenek	-10.3613
▁krásný	-10.3616
▁obyčejn	-10.362
▁Tito	-10.3621
▁příležitosti	-10.3627
10	-10.3627
▁Har	-10.3628
kroč	-10.3629
▁známý	-10.3635
▁vyšl	-10.3636
▁nebezpečné	-10.368
▁obličej	-10.3683
▁právní	-10.3686
▁komunikac	-10.3688
▁moře	-10.3689
mail	-10.3696
▁vhodn	-10.37
▁pas	-10.3719
▁region	-10.372
▁Měsíc	-10.372
▁analýz	-10.372
▁mechanism	-10.372
▁přání	-10.372
▁kapacit	-10.372
▁okraj	-10.3722
▁citliv	-10.3722
▁překona	-10.3723
▁postoj	-10.3724
▁Vypadá	-10.3725
▁čínsk	-10.3726
▁přenos	-10.3727
▁novinář	-10.3728
▁přicházejí	-10.3737
▁pyl	-10.3739
▁Ned	-10.3746
▁válc	-10.3747
▁krátké	-10.3767
▁malým	-10.377
vel	-10.3774
ňte	-10.3782
▁vydá	-10.3799
▁pracuj	-10.3806
▁Stal	-10.3808
▁naděje	-10.3808
▁mr	-10.3809
▁sleduje	-10.382
▁teb	-10.3839
▁vyžaduje	-10.3839
▁vzácn	-10.3839
▁napsa	-10.3839
▁soustav	-10.384
▁medvěd	-10.3841
▁minulé	-10.3842
▁prales	-10.3842
▁přesvědčen	-10.385
▁Přesně	-10.385
▁květin	-10.3856
▁vodní	-10.3864
▁slovník	-10.3867
ával	-10.3869
▁vytvářejí	-10.3871
▁měnit	-10.3876
▁riziko	-10.3882
▁přestal	-10.3888
▁ačkoli	-10.3898
,5	-10.3906
▁nazvan	-10.3908
▁jd	-10.3921
rin	-10.3923
▁písk	-10.393
▁hmotnost	-10.3932
▁zabí	-10.3934
▁Vý	-10.3936
ajn	-10.3936
▁nadšení	-10.3941
▁velkém	-10.3949
▁posla	-10.395
▁ekonomick	-10.3955
kých	-10.3956
jenom	-10.3957
povědět	-10.3958
▁filozof	-10.396
▁informační	-10.396
▁metafor	-10.396
▁kompletn	-10.396
▁komunikova	-10.396
▁nejlép	-10.396
schopen	-10.396
vyrobit	-10.3961
▁skryt	-10.3962
▁rovnic	-10.3962
▁konzum	-10.3964
▁devět	-10.3965
▁zkouma	-10.3974
▁kočk	-10.3976
rick	-10.3979
▁Dět	-10.3984
▁vál	-10.3994
istický	-10.4003
▁Jedná	-10.4011
▁výšk	-10.4019
▁zodpovědnost	-10.4022
▁buňka	-10.4028
▁mlad	-10.4029
▁podívej	-10.4038
▁zlat	-10.4039
ance	-10.4041
nize	-10.4041
▁dokáza	-10.405
▁hotov	-10.4066
▁znal	-10.4069
stoupí	-10.4071
▁temn	-10.408
▁OSN	-10.4082
▁návštěv	-10.4082
▁restaurac	-10.4082
▁zeptat	-10.4082
▁zdarma	-10.4082
▁posíla	-10.4082
▁Neměl	-10.4082
▁blok	-10.4083
▁určen	-10.4085
▁nárůst	-10.4086
▁Věděl	-10.4088
▁software	-10.4089
▁sítí	-10.409
▁šťastný	-10.4092
▁sklon	-10.4093
▁očekáva	-10.4104
▁dětsk	-10.4106
čko	-10.4108
▁snaz	-10.4108
▁For	-10.4115
▁Přes	-10.4116
▁Kdy	-10.4122
▁Fr	-10.4122
▁pozorování	-10.4132
▁zkoumání	-10.4134
▁oblíbený	-10.4135
▁zachráni	-10.4135
▁odkaz	-10.4142
vající	-10.4147
▁Veli	-10.4147
▁kultura	-10.4165
▁úhl	-10.4165
▁Vzal	-10.4181
▁stávají	-10.4199
▁vědeck	-10.42
▁syna	-10.4205
▁kapitál	-10.4205
▁společenství	-10.4205
▁vzdělávací	-10.4205
▁zlepšení	-10.4205
▁firem	-10.4205
▁zapojit	-10.4205
čtější	-10.4215
▁hračk	-10.4224
▁solární	-10.4225
▁Jaký	-10.4234
▁nádherné	-10.4236
▁případů	-10.4238
▁magnetick	-10.4247
▁obrazovk	-10.4248
▁očekávání	-10.4251
▁Sam	-10.4253
▁zlepši	-10.426
▁přeží	-10.4261
▁stromů	-10.4266
▁jednotlivé	-10.4269
▁společensk	-10.4274
▁čtení	-10.4278
▁koupil	-10.428
▁pozorovat	-10.4283
▁trvá	-10.429
nebo	-10.4297
▁autismu	-10.4299
▁demokratick	-10.4299
par	-10.4302
▁desítk	-10.4309
▁stud	-10.431
▁vážn	-10.4311
▁nedostatk	-10.4322
▁technick	-10.4322
▁cukr	-10.4325
▁kniha	-10.4326
▁kyslík	-10.433
▁voják	-10.433
▁rozvíje	-10.433
▁Pracuj	-10.433
▁Jmenuj	-10.4331
▁zákazník	-10.4332
▁korál	-10.4332
▁Stál	-10.4333
▁21.	-10.4335
▁2008	-10.4338
▁měřit	-10.4341
▁spatř	-10.4341
▁nevěř	-10.4343
▁kart	-10.4347
▁otevřel	-10.435
▁stvoření	-10.435
▁užitečn	-10.4353
▁popsal	-10.4354
▁položil	-10.4355
sed	-10.4368
▁dobrým	-10.4374
▁trvalo	-10.4387
▁užíva	-10.4395
▁mag	-10.4398
mluvil	-10.4399
dná	-10.4404
▁umř	-10.4408
▁průměrn	-10.4421
letěl	-10.4426
lezl	-10.4428
▁sníži	-10.4433
▁oko	-10.4443
▁místnost	-10.4449
▁odoln	-10.445
▁katastrof	-10.4457
▁komiks	-10.4457
▁ovlivňuje	-10.4457
▁řidič	-10.4457
▁spektr	-10.4457
▁čekat	-10.4457
▁snímek	-10.4458
▁prodej	-10.446
▁spojil	-10.446
▁Jenom	-10.446
▁zabíje	-10.4462
▁akci	-10.4465
▁stačí	-10.447
pracuj	-10.4475
▁dlouhodob	-10.4488
▁Kong	-10.4489
▁tváří	-10.4493
ňovat	-10.4496
▁představil	-10.45
▁drob	-10.4508
▁zim	-10.4522
ivot	-10.4525
vádí	-10.4526
▁chápe	-10.4535
▁Bar	-10.4542
▁najdete	-10.4547
▁informac	-10.4548
▁pokračuje	-10.4548
▁Abych	-10.4559
▁Nes	-10.4559
▁aplikac	-10.4561
▁ohromné	-10.4563
▁be	-10.4577
des	-10.4577
pochyb	-10.4577
pořád	-10.4579
▁zajistit	-10.4585
▁Rozhodl	-10.4585
▁oxid	-10.4585
▁snažit	-10.4585
▁soubor	-10.4586
▁odpoví	-10.4586
▁využil	-10.4586
▁vězni	-10.4586
▁lah	-10.4587
▁dávk	-10.4588
▁diskuz	-10.4589
zev	-10.4591
▁těžký	-10.4598
▁získává	-10.4601
▁tát	-10.4605
▁obran	-10.4605
▁pomůže	-10.4609
▁těl	-10.4611
▁najd	-10.4616
dávají	-10.4619
▁Náš	-10.462
▁komunikace	-10.462
▁tajn	-10.4626
▁neděl	-10.4629
▁přítomnost	-10.4629
▁porad	-10.4629
▁obrazov	-10.4632
ktor	-10.4635
▁Ken	-10.4642
bíral	-10.4644
▁slon	-10.4647
▁rodině	-10.4649
▁činí	-10.4655
▁čelí	-10.4657
padají	-10.4658
▁počátk	-10.4664
▁jednotlivý	-10.4671
▁překvapení	-10.4672
DS	-10.4685
byl	-10.4689
▁užitečné	-10.4691
▁obecně	-10.4702
▁samotn	-10.4704
▁chápa	-10.4708
pustil	-10.4711
▁pes	-10.4713
▁Nejdřív	-10.4715
▁nejrůznější	-10.4715
▁rozhraní	-10.4715
▁zkoušk	-10.4715
▁Angli	-10.4715
▁okolnost	-10.4716
▁dopředu	-10.4716
▁Ros	-10.472
▁přesun	-10.4722
▁šíři	-10.4722
▁úst	-10.4723
▁červ	-10.4726
▁kolegy	-10.4726
▁lini	-10.4729
▁nechc	-10.4737
▁šílen	-10.4738
▁nebudu	-10.4741
▁Jiným	-10.4758
▁díváte	-10.4758
▁hrozb	-10.4767
▁vědecký	-10.4771
▁narazil	-10.4773
▁Dokáže	-10.4774
▁domě	-10.4786
▁sval	-10.4788
▁naléz	-10.4802
▁zamyslet	-10.4803
tud	-10.4812
▁dívá	-10.4818
▁dodáv	-10.4822
▁veškeré	-10.4835
▁nabí	-10.484
▁vzpomín	-10.4841
▁konstrukc	-10.4846
▁umožňují	-10.4846
▁Nemusí	-10.4846
▁žlut	-10.4847
▁zaměstnanc	-10.4847
▁selhání	-10.4847
▁viditeln	-10.4848
▁sektor	-10.4849
▁Dostal	-10.4849
▁kyber	-10.4849
▁zjevn	-10.4851
▁uvidím	-10.4856
▁dav	-10.4856
jede	-10.4863
hlási	-10.4866
▁končí	-10.4867
▁dozvěděl	-10.4869
▁dramatick	-10.4872
▁bohat	-10.4888
jasn	-10.4889
▁strachu	-10.4894
▁používání	-10.4896
▁milova	-10.49
▁přirozené	-10.4909
▁zodpovědn	-10.4911
▁stěn	-10.4913
▁zkusil	-10.4921
▁systémů	-10.4924
kyně	-10.4928
▁hád	-10.4945
▁ras	-10.4947
▁východní	-10.4953
ářsk	-10.4963
▁open	-10.4971
▁matematic	-10.4979
▁tečk	-10.4979
▁neurověd	-10.498
▁pohlaví	-10.498
▁rozdělen	-10.498
▁tvůrc	-10.498
▁velryb	-10.498
▁zdravotnictví	-10.498
▁bezpečí	-10.498
▁vlákn	-10.498
▁důchod	-10.498
▁bateri	-10.498
▁sdílí	-10.498
▁sloup	-10.498
▁aspekt	-10.498
▁souvislost	-10.498
▁posedl	-10.498
▁neumí	-10.4983
hlédl	-10.4985
▁liší	-10.4985
▁autorit	-10.4986
▁Miluj	-10.4988
▁prochází	-10.4993
▁Cha	-10.5005
▁zbytk	-10.5023
▁Iráku	-10.5026
▁přidal	-10.5039
▁způsoben	-10.5043
▁třídě	-10.5046
▁obrázků	-10.505
čer	-10.5056
rp	-10.5068
ňují	-10.507
▁přijd	-10.5073
▁nápadů	-10.508
▁prv	-10.5081
▁hrají	-10.5097
▁začnete	-10.5109
▁Washington	-10.5115
▁chytrý	-10.5115
▁delfín	-10.5115
▁hedvábí	-10.5115
▁hluboc	-10.5115
▁přijmou	-10.5115
▁sekvenc	-10.5115
▁záhad	-10.5115
▁úspor	-10.5115
▁klasick	-10.5115
▁patent	-10.5115
▁blázniv	-10.5115
▁delší	-10.5115
▁dostupné	-10.5116
▁šíří	-10.5116
▁Paul	-10.5117
▁hluboko	-10.5117
▁fascinující	-10.5117
▁pomáhají	-10.512
▁podnět	-10.512
▁genom	-10.512
▁divok	-10.512
▁protein	-10.5123
▁slib	-10.5123
▁želez	-10.5123
▁sad	-10.5138
▁půjč	-10.5142
▁maso	-10.5143
▁organizací	-10.5146
▁buňk	-10.5152
▁komu	-10.5177
kne	-10.5179
▁účinn	-10.5179
▁bar	-10.5186
▁patr	-10.5195
▁Budeme	-10.5197
▁Jenž	-10.5204
▁studií	-10.5207
komp	-10.5217
▁porod	-10.5224
stran	-10.5227
táhne	-10.5237
ór	-10.5237
▁bezpečné	-10.5238
▁vysvětlil	-10.5238
▁investice	-10.5246
▁uhlí	-10.5248
▁nábožensk	-10.5252
▁prezentac	-10.5252
▁vozidl	-10.5252
▁vyvolá	-10.5252
▁Kanad	-10.5252
▁podpoři	-10.5252
▁zápas	-10.5252
▁vysíla	-10.5252
▁zůstává	-10.5252
▁kanál	-10.5252
počívá	-10.5252
▁relativn	-10.5252
▁týdn	-10.5253
▁hovoří	-10.5256
▁zdravé	-10.526
kombin	-10.5261
▁19.	-10.5262
▁jednání	-10.5265
rušení	-10.5267
▁temp	-10.5269
▁silnější	-10.5272
▁mýt	-10.5278
▁stavb	-10.528
▁rodič	-10.5283
▁měření	-10.5283
▁Steve	-10.5294
▁Os	-10.5297
▁rostoucí	-10.53
▁pořad	-10.5302
tion	-10.5303
istické	-10.5309
dan	-10.5315
jezd	-10.5315
▁uzavřen	-10.5321
▁motivac	-10.5324
▁generac	-10.5325
▁věřil	-10.5327
▁komplex	-10.5327
▁přirozeně	-10.5328
▁asp	-10.5328
▁dovolen	-10.5329
▁Man	-10.5332
▁zabil	-10.5332
neštěstí	-10.5335
▁dával	-10.5356
▁nějakým	-10.5361
gar	-10.5363
▁plod	-10.537
▁sdílení	-10.5376
▁použije	-10.5386
▁zaměstna	-10.539
▁rozpozna	-10.5391
▁senzor	-10.5391
▁instituce	-10.5391
▁potěšení	-10.5391
▁Pořád	-10.5391
▁drahé	-10.5391
▁dějin	-10.5391
▁účink	-10.5391
▁limit	-10.5391
▁zbraní	-10.5392
▁zvyk	-10.5392
▁zelené	-10.5393
▁fajn	-10.5393
▁75	-10.5394
▁zaměřen	-10.5395
▁opačn	-10.5398
▁elektrický	-10.5402
▁sál	-10.5405
▁brát	-10.5405
▁bere	-10.5409
▁působí	-10.541
jímá	-10.5413
▁jakoby	-10.5416
com	-10.5422
▁východ	-10.5431
lám	-10.5435
▁nástrojů	-10.5436
psal	-10.5438
▁Bož	-10.5443
rb	-10.5444
pokoj	-10.5445
▁škola	-10.5455
▁AI	-10.5462
bírat	-10.5464
▁střech	-10.5469
▁průmyslu	-10.5477
▁překvap	-10.5478
stát	-10.5479
▁Vezm	-10.549
číst	-10.5491
▁bojova	-10.5495
▁objeven	-10.5495
▁kole	-10.5496
▁doba	-10.5508
▁neroz	-10.5526
▁identifik	-10.5532
▁uviděl	-10.5532
▁vymyslel	-10.5532
▁zabývat	-10.5532
▁zrcadl	-10.5532
▁zboží	-10.5532
▁úsilí	-10.5532
▁předchozí	-10.5532
▁kreativní	-10.5532
▁Tehd	-10.5532
▁záření	-10.5533
▁Stát	-10.5533
▁mladší	-10.5535
▁rozsáhl	-10.5536
▁sluch	-10.5537
druhé	-10.5537
▁částečn	-10.5537
▁neskutečn	-10.5539
▁vědců	-10.554
▁smutn	-10.554
▁dávají	-10.5541
▁společenský	-10.5546
spod	-10.5546
▁složitý	-10.5548
▁šed	-10.555
stavíme	-10.5551
jdete	-10.5564
▁zamyslíte	-10.5574
▁obličeje	-10.5577
▁oper	-10.5579
platí	-10.558
▁písmen	-10.559
▁cháp	-10.5594
▁dopravní	-10.56
▁pohybuje	-10.5602
▁jakékoli	-10.5611
▁neuvěřiteln	-10.5615
počet	-10.5619
▁mikroskop	-10.5619
razit	-10.5621
▁léků	-10.563
▁lepším	-10.5634
▁vrátí	-10.5634
▁jednotliv	-10.5635
způsob	-10.5636
letí	-10.5649
▁23	-10.565
▁přirozen	-10.5659
▁196	-10.5674
▁investova	-10.5674
▁pódiu	-10.5674
▁třetin	-10.5674
▁špičk	-10.5674
▁reagova	-10.5674
▁Důvod	-10.5675
▁strav	-10.5675
▁neřekl	-10.5675
▁chlapík	-10.5676
strašně	-10.5679
▁rohu	-10.5679
▁zničen	-10.5681
▁složen	-10.5681
▁nedostat	-10.5683
hnul	-10.5686
▁zvané	-10.5695
▁El	-10.5696
▁výzva	-10.57
▁článk	-10.5701
▁Změn	-10.5718
▁trpěl	-10.5721
▁nervov	-10.5722
zývá	-10.5724
▁Mon	-10.5725
▁rychlé	-10.5745
klop	-10.5754
▁Ind	-10.5758
▁bíl	-10.5761
▁hloub	-10.5764
▁civilizace	-10.5775
▁čte	-10.5777
▁kaps	-10.5779
▁americk	-10.5784
▁technologick	-10.5798
▁nazýva	-10.5806
▁přednášky	-10.581
▁jehl	-10.581
▁řez	-10.5814
▁zaměři	-10.5819
▁Austráli	-10.5819
▁Nemohl	-10.5819
▁vojensk	-10.5819
▁Znamen	-10.5819
▁korupc	-10.582
▁léčit	-10.582
▁chráni	-10.582
source	-10.582
▁škál	-10.582
ničeho	-10.5821
▁45	-10.5826
▁oprav	-10.585
▁NAS	-10.5852
▁Dva	-10.5854
▁nadšen	-10.5856
▁Gra	-10.5862
▁tváře	-10.5866
▁odděl	-10.5868
▁dlouh	-10.5869
škol	-10.587
▁káv	-10.5876
▁rozhodován	-10.5891
▁hork	-10.5895
▁Její	-10.5902
▁bezpečn	-10.5908
▁považuje	-10.5909
▁známk	-10.591
▁dostávám	-10.5917
▁nemocnice	-10.5931
▁Přišl	-10.5934
▁váh	-10.5942
▁pohybují	-10.5953
▁krv	-10.5961
▁Charles	-10.5966
▁zázrak	-10.5966
▁Anderson	-10.5966
▁Třeba	-10.5966
▁ohrožen	-10.5966
▁specifick	-10.5966
▁výjimk	-10.5966
▁zřejmě	-10.5966
▁automatick	-10.5966
▁prototyp	-10.5967
▁dalekohled	-10.5967
▁britsk	-10.5968
▁nedokázal	-10.5968
▁ohlede	-10.5968
ráží	-10.5972
▁zážitk	-10.5975
▁vychází	-10.5975
▁počítačový	-10.5976
▁psycho	-10.5976
▁kritick	-10.5981
▁Brit	-10.5983
▁plic	-10.5983
▁prax	-10.5984
▁vlak	-10.5986
▁Ben	-10.5994
▁opravdové	-10.5996
pravdě	-10.5997
▁extrémní	-10.6006
▁terorismu	-10.6015
kládají	-10.6031
▁pravidlo	-10.6035
čnost	-10.605
▁koleg	-10.6056
▁nosit	-10.6064
▁vyhrál	-10.6067
▁Nemá	-10.6071
dáme	-10.6071
V	-10.608
▁hledám	-10.6082
▁fotka	-10.61
▁klid	-10.6106
▁miluje	-10.6109
▁televiz	-10.6114
bírají	-10.6115
▁Nemyslím	-10.6116
▁chvilk	-10.6116
▁falešn	-10.6116
▁neobvykl	-10.6116
▁oteplování	-10.6116
▁ovlivnit	-10.6116
▁padesát	-10.6116
▁revoluci	-10.6116
▁zahrnuje	-10.6116
▁zjištění	-10.6116
▁vyrostl	-10.6116
▁zelenin	-10.6116
▁inteligentní	-10.6116
▁orig	-10.6116
▁kouzl	-10.6116
▁vypořáda	-10.6117
▁Bohuž	-10.6117
▁narození	-10.6118
▁laboratoře	-10.6118
▁pokryt	-10.6119
▁jízd	-10.6119
▁umísti	-10.6119
▁vedlejší	-10.6119
▁protest	-10.6122
▁architektur	-10.6124
▁baví	-10.6127
▁osobně	-10.6138
eď	-10.6141
▁nejmenší	-10.6143
sun	-10.6145
▁onemocnění	-10.6146
▁zkušeností	-10.6148
▁takovém	-10.6149
▁tvor	-10.6172
▁považuj	-10.6175
možn	-10.6177
ráb	-10.6181
▁organizac	-10.6187
▁poušt	-10.6206
▁měří	-10.6208
stávají	-10.6212
▁učitelů	-10.6217
hel	-10.6224
▁knihovn	-10.6226
▁údaj	-10.6227
▁chudý	-10.624
▁operace	-10.6263
▁prozkouma	-10.6267
▁Zeptal	-10.6267
▁regul	-10.6267
▁zabráni	-10.6267
pamatovat	-10.6267
▁Brazíli	-10.6267
▁tendenci	-10.6267
▁poskytuje	-10.6267
▁tkáně	-10.6267
▁tábor	-10.6267
▁režim	-10.6267
▁opatrn	-10.6267
▁malink	-10.6268
▁verze	-10.6269
▁stanov	-10.6269
▁otevřené	-10.627
▁účet	-10.6272
▁přijíma	-10.6274
▁nálad	-10.6275
▁světový	-10.6276
▁ústav	-10.6281
▁dívka	-10.6281
pas	-10.6281
▁tušení	-10.6287
▁někter	-10.6291
▁ide	-10.6291
▁panel	-10.6293
dával	-10.6295
▁rozšířen	-10.6298
▁západ	-10.63
ška	-10.6301
▁soukromé	-10.6309
▁vybavení	-10.6317
▁vypl	-10.6317
▁znát	-10.633
▁nemyslím	-10.6339
ební	-10.6343
▁ledn	-10.6344
▁vrt	-10.6357
▁udržiteln	-10.6371
▁objevuj	-10.6372
koval	-10.638
▁dohod	-10.6396
▁Kon	-10.6416
kový	-10.6417
▁tráví	-10.6418
▁hrd	-10.642
▁funkce	-10.6421
▁rozšířit	-10.6421
▁vyjádřit	-10.6421
▁úmysl	-10.6421
▁nemusel	-10.6421
▁závisí	-10.6421
▁chystá	-10.6421
▁poskytnou	-10.6421
▁zhorš	-10.6421
▁nerovnost	-10.6421
▁empati	-10.6422
▁navrhuj	-10.6422
▁nízko	-10.6424
▁600	-10.6426
▁následn	-10.6426
▁22	-10.6427
▁veřejný	-10.643
▁Nové	-10.6433
▁centra	-10.6435
▁slum	-10.6438
boha	-10.644
hůr	-10.6441
▁vyvíje	-10.6443
▁pronik	-10.6444
▁sond	-10.6445
istick	-10.6447
▁existova	-10.645
▁aplikace	-10.645
▁chovat	-10.6452
schopn	-10.6463
▁Dál	-10.6472
rozměrn	-10.6476
▁mouch	-10.6481
▁uvědomí	-10.6485
▁hledá	-10.6505
ional	-10.6524
▁hře	-10.6524
zac	-10.6526
▁podař	-10.6528
▁Děkuj	-10.6534
▁pěkn	-10.6535
12	-10.6545
▁uvědomi	-10.6549
▁přispě	-10.655
▁oběd	-10.6566
▁proveden	-10.6574
▁domácnost	-10.6577
▁soustředi	-10.6577
▁transform	-10.6577
▁rituál	-10.6577
▁nižší	-10.6577
▁všeobecn	-10.6577
▁autobus	-10.6577
▁ministr	-10.6578
▁Frank	-10.6578
▁zůstane	-10.6578
▁cvičení	-10.6579
▁Buď	-10.658
▁účastník	-10.6581
▁Moho	-10.6596
▁pojďm	-10.6599
▁zkouše	-10.66
▁Rad	-10.6608
▁oblaste	-10.6609
▁perfektní	-10.6609
▁moudrost	-10.6609
▁sexuální	-10.6616
▁tep	-10.662
▁Světov	-10.6621
▁pokračoval	-10.6624
▁úrovně	-10.6643
▁genů	-10.6654
▁Nuž	-10.6658
▁zón	-10.6683
▁počítačů	-10.6683
▁častěj	-10.6685
▁uvědomova	-10.6691
▁zmínil	-10.6693
▁dlouhodobé	-10.6697
▁živin	-10.6699
▁Oh	-10.67
plnit	-10.6711
▁klíčové	-10.6712
▁úz	-10.6713
▁charakter	-10.6715
▁opice	-10.6721
▁hraní	-10.6728
▁Harvard	-10.6736
▁Mexik	-10.6736
▁funkční	-10.6736
▁nebezpečí	-10.6736
▁širší	-10.6736
▁dosáhne	-10.6736
▁stupňů	-10.6736
▁urychl	-10.6736
▁vyrůstal	-10.6736
▁loď	-10.6737
▁přemýšlení	-10.6737
▁schůz	-10.6737
▁email	-10.6739
▁poznal	-10.674
▁min	-10.6741
▁úřad	-10.6741
▁potřebné	-10.6742
▁Posl	-10.6743
▁přivádí	-10.6746
▁vyprávění	-10.6747
▁dojem	-10.6748
▁anti	-10.6748
ambi	-10.6749
dnout	-10.6753
▁nesmí	-10.676
▁odborn	-10.6762
din	-10.6764
▁Často	-10.6764
▁stín	-10.6766
▁výměn	-10.6769
▁elektronick	-10.677
▁sledují	-10.6772
▁vín	-10.6773
▁Tři	-10.6785
▁pás	-10.6789
▁dělo	-10.679
▁situací	-10.6798
▁motiv	-10.6801
▁Den	-10.6805
▁Vytvořil	-10.6807
▁stálo	-10.6807
elná	-10.6819
dělal	-10.6819
▁had	-10.6827
▁týdne	-10.6828
▁Nejsou	-10.6837
řez	-10.684
▁potřebova	-10.6841
▁pouhým	-10.6846
tažen	-10.685
▁vzork	-10.6851
▁ulicí	-10.6854
▁celkov	-10.6864
▁existoval	-10.6867
▁lok	-10.6882
▁hled	-10.6883
Tube	-10.6889
▁prošl	-10.6893
centr	-10.6896
sper	-10.6896
▁astronom	-10.6897
▁deprese	-10.6897
▁funkci	-10.6897
▁navždy	-10.6897
▁nejchudší	-10.6897
▁ovlivněn	-10.6897
▁tvrzení	-10.6897
▁Prosím	-10.6898
▁pořízen	-10.6898
▁připojen	-10.6898
▁stavební	-10.6899
▁zvýšen	-10.6899
▁krys	-10.6899
▁křídl	-10.6899
▁začínal	-10.69
▁přínos	-10.69
▁scénář	-10.69
▁večeř	-10.6902
▁těžší	-10.6903
léz	-10.6904
▁krve	-10.6905
▁potká	-10.6907
▁žal	-10.6909
jetí	-10.691
▁obvod	-10.6911
▁Pracoval	-10.6912
▁zraněn	-10.6914
▁předpověd	-10.6918
Z	-10.6923
▁energií	-10.6926
▁Ex	-10.6927
▁jediným	-10.6939
▁údaje	-10.694
▁napravo	-10.6952
nické	-10.696
▁vedou	-10.6961
▁výuk	-10.6966
▁obří	-10.6966
▁současn	-10.6979
ectví	-10.6981
▁náročn	-10.6989
▁250	-10.6995
▁krev	-10.7001
elnost	-10.7004
▁zvýšil	-10.7009
tivně	-10.701
platit	-10.7011
▁tanc	-10.7012
▁pamatuje	-10.7018
▁Kol	-10.7023
▁risk	-10.7024
▁občansk	-10.7027
▁objektiv	-10.7033
▁mrtvý	-10.7039
ris	-10.7041
▁nebezpečn	-10.7053
▁uspě	-10.7055
▁Kam	-10.7061
▁ovlivňují	-10.7061
▁recept	-10.7061
▁zoufal	-10.7061
▁zvyšuje	-10.7061
▁devíti	-10.7061
▁dosažen	-10.7061
▁obdiv	-10.7061
▁reform	-10.7061
▁pozadí	-10.7061
▁Třetí	-10.7062
▁vzestup	-10.7062
▁Times	-10.7062
▁navrhnou	-10.7063
▁červené	-10.7063
▁ruky	-10.7064
▁záchod	-10.7064
▁Cháp	-10.7065
▁organizova	-10.7066
▁jistot	-10.7067
▁Jasn	-10.7074
▁částic	-10.7074
▁složit	-10.7075
▁70.	-10.7076
▁bezpečnostní	-10.7079
▁ničí	-10.7081
žít	-10.7081
▁současný	-10.7082
▁Mc	-10.7086
nášejí	-10.7096
▁plno	-10.7098
▁jadern	-10.7102
▁kultu	-10.7106
žasn	-10.7107
▁pokusil	-10.7108
▁pravdiv	-10.7112
▁zajímal	-10.7126
▁pouhý	-10.7128
▁stov	-10.7146
▁volně	-10.7152
▁Myslí	-10.7157
plň	-10.7158
▁dobrovoln	-10.7158
▁ukr	-10.7161
tolik	-10.7197
▁náhodn	-10.7203
▁koloni	-10.7205
▁Kdybych	-10.7206
▁projektů	-10.7218
▁cyklu	-10.7228
▁Egypt	-10.7228
▁Thomas	-10.7228
▁fenomén	-10.7228
▁jednodušší	-10.7228
▁paměť	-10.7228
▁služeb	-10.7228
▁tvořiv	-10.7228
▁byznys	-10.7228
▁humor	-10.7228
▁infekc	-10.7228
▁normálně	-10.7228
▁rozšířil	-10.7228
▁Slyšel	-10.7228
▁nerozumí	-10.7228
▁knížk	-10.7228
▁podrob	-10.7229
▁uspokoj	-10.7229
▁Minul	-10.7229
▁cykl	-10.723
▁65	-10.7233
▁přijel	-10.7237
▁negativní	-10.7248
▁odpovědět	-10.7253
▁provádí	-10.7267
▁vyrovna	-10.7269
▁nestal	-10.727
▁měste	-10.7273
▁pozice	-10.7279
▁chut	-10.7283
▁Nejprv	-10.7287
▁dár	-10.7288
▁obtížn	-10.7304
▁Nedávn	-10.7326
▁Darwin	-10.7329
▁nádherný	-10.7349
▁materiálů	-10.7366
nejmenším	-10.7366
▁dnů	-10.7371
▁odpovědí	-10.7377
▁Par	-10.7382
▁uhličit	-10.7397
▁MIT	-10.7397
▁agentur	-10.7397
▁gravitac	-10.7397
▁Mluvil	-10.7397
▁chřipk	-10.7397
▁mechanick	-10.7397
▁populární	-10.7398
▁území	-10.7398
▁vyrábí	-10.7398
▁vděčn	-10.7398
▁troj	-10.7399
▁součt	-10.7399
▁přidat	-10.74
▁Najed	-10.7404
▁vrací	-10.7404
▁píše	-10.7405
▁přenáš	-10.7406
▁počítačové	-10.7407
▁povím	-10.7412
▁rychl	-10.7416
▁oddělen	-10.7423
▁letišt	-10.7427
▁nadac	-10.743
W	-10.7431
▁dospělý	-10.7436
▁Op	-10.7442
▁smlouv	-10.7452
▁násiln	-10.7456
▁jezdi	-10.7462
▁procházel	-10.7463
▁vědec	-10.7464
▁Los	-10.7468
▁Moz	-10.748
▁zahranič	-10.7486
stával	-10.7499
▁měsící	-10.75
▁krevní	-10.7502
▁zachyti	-10.751
▁miloval	-10.7515
▁dostáva	-10.7516
▁letadlo	-10.7537
▁včer	-10.7542
▁elektrické	-10.7544
▁přesvědčení	-10.7555
▁21	-10.7557
var	-10.7559
▁vládní	-10.7566
▁voln	-10.7568
▁Einstein	-10.757
▁Nobelov	-10.757
▁globalizac	-10.757
▁spolehliv	-10.757
▁zpravodaj	-10.757
▁zvládnou	-10.757
▁Mluvím	-10.757
▁exponenciáln	-10.757
▁nijak	-10.757
▁vyrobil	-10.757
▁rovnováh	-10.757
▁terén	-10.757
▁kapitol	-10.757
▁Chcete	-10.757
▁akademi	-10.757
▁Boha	-10.757
▁James	-10.7571
▁útes	-10.7571
▁výborn	-10.7571
▁Ukazuje	-10.7572
▁lokální	-10.7572
▁nemluví	-10.7573
▁designér	-10.7574
▁třicet	-10.7574
hlédnou	-10.7575
▁pustil	-10.7577
▁školá	-10.7579
BG	-10.758
▁chlapec	-10.7585
▁Jim	-10.7586
▁umírá	-10.7587
▁schopný	-10.7599
▁čtyřmi	-10.7603
▁rovnost	-10.7605
▁dron	-10.7607
▁odpovídá	-10.7609
▁pil	-10.761
hodit	-10.7613
▁zavolal	-10.7617
▁přechod	-10.7619
▁říš	-10.762
slyšíte	-10.7624
▁hodnocení	-10.7625
dávno	-10.7625
▁upřímně	-10.7627
▁odpovědnost	-10.7628
▁vezmeme	-10.763
▁dětské	-10.7636
▁spodní	-10.7636
▁Dostan	-10.7652
▁levé	-10.766
▁zahraniční	-10.7662
▁Kar	-10.7665
gie	-10.7669
▁podmínká	-10.7672
bože	-10.7681
▁nedostan	-10.7682
▁Pat	-10.7692
ref	-10.7695
řídil	-10.7712
▁George	-10.7712
▁jakéhokoli	-10.7716
▁čip	-10.7716
▁zakáz	-10.7728
ovky	-10.774
▁daný	-10.7745
▁Pákistán	-10.7745
▁evoluční	-10.7745
▁kognitivní	-10.7745
▁nasloucha	-10.7745
▁marketing	-10.7745
▁považován	-10.7745
▁Skvěl	-10.7745
▁Určit	-10.7745
▁tiskárn	-10.7745
▁platform	-10.7745
▁snížení	-10.7745
▁minimáln	-10.7745
▁nechtěj	-10.7745
▁zmizel	-10.7745
▁šéf	-10.7746
▁chytř	-10.7746
▁přivedl	-10.7746
▁snižuj	-10.7746
▁Hlavn	-10.7746
▁týkající	-10.7746
▁nedostal	-10.7746
▁195	-10.7747
▁194	-10.7748
▁zapojil	-10.7748
▁složitější	-10.7748
▁přijal	-10.7748
▁Titan	-10.7748
▁svaz	-10.7752
▁slyším	-10.7759
▁Znám	-10.7768
▁zaží	-10.7771
▁hotel	-10.7773
▁porovnání	-10.7779
▁zněl	-10.7786
▁skláda	-10.7795
▁výsledků	-10.78
▁zvýši	-10.7802
svítí	-10.7804
▁nezbytné	-10.7819
▁napsán	-10.7823
▁modré	-10.7827
▁krátk	-10.783
▁výstav	-10.7831
▁ocel	-10.7836
▁robotů	-10.7839
▁pad	-10.7849
ručně	-10.7861
▁Američanů	-10.7863
▁zvláš	-10.7867
▁křivk	-10.7867
zpět	-10.7876
▁Wal	-10.7886
▁Mas	-10.7895
▁temné	-10.79
▁spisovatel	-10.7924
▁spravedlnost	-10.7924
▁utrpení	-10.7924
▁zemědělsk	-10.7924
▁Zajímav	-10.7924
▁imunitní	-10.7924
▁čísel	-10.7924
▁reaktor	-10.7924
▁Naučil	-10.7924
▁poskytují	-10.7924
▁dekád	-10.7924
▁umístěn	-10.7924
▁hluboké	-10.7925
▁předsudk	-10.7925
▁mód	-10.7925
▁objem	-10.7926
▁pochopiteln	-10.7927
▁rozhod	-10.7929
▁sken	-10.7931
▁rozpozná	-10.7932
překvapivě	-10.7932
▁noční	-10.7936
▁chová	-10.7936
▁pěš	-10.7938
▁dýcha	-10.7939
▁jedl	-10.7941
▁setkal	-10.7946
▁podvod	-10.7949
▁pozdě	-10.7954
pel	-10.796
TV	-10.7964
▁psaní	-10.7969
▁soukromí	-10.7972
▁MS	-10.7973
▁role	-10.7975
▁galaxií	-10.798
▁bakterií	-10.7995
▁dálnic	-10.7996
▁uvedl	-10.7999
▁kdekoli	-10.8
▁Per	-10.8011
vědí	-10.8016
▁soukromý	-10.8023
▁elektron	-10.8024
stupuje	-10.8031
▁mozkové	-10.8036
▁běžný	-10.8039
▁rozdílné	-10.8041
▁rostou	-10.8042
▁magnet	-10.8045
▁nedá	-10.8056
▁účastni	-10.8058
▁živé	-10.8063
▁ulice	-10.8064
ovu	-10.8068
mlouv	-10.8072
▁společný	-10.8074
▁zemře	-10.8075
▁napln	-10.8079
▁běžně	-10.808
▁soudní	-10.8088
▁opravdový	-10.8088
▁liber	-10.8089
▁Dan	-10.8098
plác	-10.8103
▁oblíben	-10.8105
▁Nejlepší	-10.8106
▁institucí	-10.8106
▁nejstarší	-10.8106
▁ohromující	-10.8106
▁oxytocin	-10.8106
▁oškliv	-10.8106
▁priorit	-10.8106
▁Ovšem	-10.8106
▁označen	-10.8106
▁Street	-10.8106
▁román	-10.8106
▁kondom	-10.8106
▁řas	-10.8106
▁ničem	-10.8106
▁lítost	-10.8106
vůj	-10.8106
▁koncert	-10.8107
▁tržní	-10.8107
▁zbytečn	-10.8108
▁umírají	-10.8109
▁naživ	-10.8109
▁Váš	-10.8109
▁poslán	-10.8111
▁Více	-10.8112
▁27	-10.8112
▁smyslupln	-10.812
▁logick	-10.8128
▁přežil	-10.8134
▁návrhář	-10.8136
▁kdykoli	-10.8139
▁lidstvo	-10.814
▁vize	-10.8144
▁vyzkouše	-10.8146
▁oběžn	-10.8147
▁černý	-10.8159
20	-10.8183
táhn	-10.8192
▁strojů	-10.8208
▁myšlen	-10.821
▁studen	-10.8214
▁navštívil	-10.8215
▁míč	-10.8216
▁očekává	-10.8223
▁extrémně	-10.8223
▁mikrob	-10.8232
▁uvidí	-10.8234
sáhl	-10.8235
▁ohromný	-10.8242
▁inspirova	-10.8249
ítr	-10.8253
▁zkus	-10.8254
11	-10.8269
▁podobn	-10.827
▁vesmírné	-10.8277
mýšlí	-10.8285
▁Michael	-10.8291
▁Publik	-10.8291
▁dobrodružství	-10.8291
▁kampaň	-10.8291
▁kontinent	-10.8291
▁monitor	-10.8291
▁nejoblíbenější	-10.8291
▁nepřítel	-10.8291
▁poslouchá	-10.8291
▁úmrtí	-10.8291
▁odsouzen	-10.8291
▁Richard	-10.8291
▁golf	-10.8291
vez	-10.8291
▁nestačí	-10.8291
▁mediální	-10.8291
▁hormon	-10.8291
▁rozvinut	-10.8291
▁Derek	-10.8291
▁nabídk	-10.8292
▁norm	-10.8293
▁obráti	-10.8293
▁daří	-10.8293
▁pilot	-10.8293
▁chůz	-10.8294
▁manželství	-10.8295
▁povah	-10.8295
▁rys	-10.8296
▁nádhern	-10.8297
učinit	-10.8298
▁dobř	-10.8299
▁průměrný	-10.8299
▁hůř	-10.8305
▁Kore	-10.8307
▁geo	-10.8308
▁podporovat	-10.831
▁stád	-10.8311
▁přijímá	-10.8314
▁mrak	-10.8315
▁objevit	-10.8316
▁koš	-10.8317
▁nalezen	-10.8317
▁emocionální	-10.8317
▁bílé	-10.8319
▁Snažím	-10.8331
▁pták	-10.8336
▁vzorce	-10.8342
▁chudé	-10.8345
▁desk	-10.8347
▁nastal	-10.8352
▁žijete	-10.8352
▁bojoval	-10.8354
▁jezer	-10.837
▁řízen	-10.837
▁uzl	-10.8379
▁ptá	-10.8386
koup	-10.8391
▁udržitelnost	-10.8401
▁psa	-10.8408
▁noham	-10.8414
ijeme	-10.8417
▁jakýkoli	-10.8422
▁hroz	-10.8466
▁vítěz	-10.8478
▁Nevěděl	-10.848
▁bílkovin	-10.848
▁chytré	-10.848
▁diagnóz	-10.848
▁evropsk	-10.848
▁návrat	-10.848
▁postižení	-10.848
▁slouží	-10.848
▁vzdělan	-10.848
▁zemětřesení	-10.848
▁chemikáli	-10.848
▁laser	-10.848
▁ztrácí	-10.848
▁Společn	-10.848
▁Národní	-10.848
▁modul	-10.848
▁popsat	-10.848
▁růžov	-10.848
▁uspořádá	-10.848
▁chaos	-10.848
▁propag	-10.848
▁vyvíjí	-10.848
▁pokročil	-10.848
▁multi	-10.848
▁zpěv	-10.848
▁kurz	-10.848
▁Spoust	-10.8481
▁fotbal	-10.8482
▁poslech	-10.8482
▁ukazoval	-10.8484
▁tmav	-10.8484
▁berou	-10.8485
▁výstup	-10.8488
▁horní	-10.8488
▁vzájemné	-10.8491
▁očividn	-10.8492
▁tělesn	-10.8495
▁skok	-10.8496
▁objevova	-10.8496
▁prospěch	-10.8497
RI	-10.8497
▁vzdálen	-10.8498
▁kdokoli	-10.8498
▁štít	-10.85
▁užití	-10.8506
▁věnuj	-10.8506
▁rozvojové	-10.851
▁rozv	-10.8512
▁porovná	-10.8524
▁plánování	-10.8531
▁Celý	-10.8546
▁vrátím	-10.8546
▁Bea	-10.8547
▁stěž	-10.8547
▁kolegů	-10.8548
▁důležitost	-10.8557
dnes	-10.8574
▁kůr	-10.8579
▁neuvěřitelný	-10.8598
blízk	-10.8604
▁biologický	-10.861
▁automobil	-10.8618
rativní	-10.8627
▁třesk	-10.8636
▁bla	-10.8639
▁odraz	-10.864
30	-10.8657
▁vzdálené	-10.8662
▁hrozné	-10.867
▁hack	-10.867
▁antibiotik	-10.8672
▁komentář	-10.8672
▁prozkoumá	-10.8672
▁Znovu	-10.8672
▁vynalezl	-10.8672
▁povede	-10.8672
▁posílá	-10.8672
▁mezer	-10.8672
▁šíření	-10.8672
▁jazyc	-10.8672
▁dostupný	-10.8672
▁ztracen	-10.8673
▁maličk	-10.8673
▁čest	-10.8673
▁rozpor	-10.8673
▁emocí	-10.8673
▁okolní	-10.8677
▁fyzikální	-10.8679
▁děd	-10.868
▁pláž	-10.8681
▁výlet	-10.8685
▁průmyslov	-10.869
zývají	-10.8694
kládal	-10.8695
▁Velký	-10.8701
▁generací	-10.8709
▁nazva	-10.8713
▁změři	-10.8717
▁podvádě	-10.8717
▁Umí	-10.8721
ejde	-10.8733
▁bohatý	-10.8733
▁link	-10.8743
ložíte	-10.8758
▁silně	-10.876
▁vysvětluje	-10.877
▁inovací	-10.8776
▁vyprávěl	-10.8779
▁dít	-10.8806
▁čisté	-10.8812
▁nerv	-10.8814
opádn	-10.8814
▁pravý	-10.8824
▁uši	-10.8824
▁dokončil	-10.8827
▁počíta	-10.8836
▁vpřed	-10.8844
▁přednost	-10.8846
▁opakovan	-10.8846
▁zavř	-10.8855
▁biologické	-10.8859
▁výrazně	-10.8864
▁nadšený	-10.8866
▁diplom	-10.8867
▁Zamysle	-10.8868
▁nejrychlej	-10.8868
▁nevyhnuteln	-10.8868
▁poptávk	-10.8868
▁přemýšlej	-10.8868
▁připomíná	-10.8868
▁spravedliv	-10.8868
▁vynaléz	-10.8868
▁replik	-10.8868
▁rozpočt	-10.8868
▁islám	-10.8868
▁Dívk	-10.8868
▁pokles	-10.8868
▁ujisti	-10.8868
▁nízký	-10.8868
▁poskytl	-10.8868
▁odvážn	-10.8868
▁povinnost	-10.8868
▁pól	-10.8868
▁vyskytuj	-10.8868
▁zaměstnanců	-10.8869
▁chemický	-10.8869
▁vypráví	-10.8869
▁střet	-10.8869
▁ovoce	-10.8869
▁balón	-10.8869
▁chemické	-10.8869
▁poezi	-10.8871
▁spánk	-10.8871
▁pevně	-10.8872
ngeles	-10.8872
▁palub	-10.8874
▁tlačítk	-10.8876
▁chovají	-10.888
zklam	-10.888
▁Napsal	-10.8881
▁start	-10.8881
▁Ahoj	-10.8882
▁bezpečně	-10.8884
▁složk	-10.889
ovník	-10.889
▁kmenové	-10.8891
▁pus	-10.8898
▁odsud	-10.8914
▁překlad	-10.8914
▁zaplati	-10.8921
▁představují	-10.8925
▁opustil	-10.8939
▁genetické	-10.8946
▁jeskyn	-10.8958
▁právník	-10.8967
▁vyhrá	-10.8968
▁volné	-10.8976
▁nezbytn	-10.8984
▁posunou	-10.8985
loze	-10.8992
▁umě	-10.8996
▁hloubk	-10.8999
▁rozšíření	-10.9028
▁děsivé	-10.903
▁pozoruhodné	-10.9035
▁zkoumal	-10.9046
▁džihád	-10.9068
▁komerční	-10.9068
▁radikální	-10.9068
▁termín	-10.9068
▁zřejmé	-10.9068
▁iPhon	-10.9068
▁závaž	-10.9068
▁sděli	-10.9068
▁Používám	-10.9068
▁květ	-10.9068
▁učinil	-10.9069
▁daň	-10.9069
▁ramen	-10.907
▁parazit	-10.907
▁odvah	-10.907
▁hustot	-10.907
▁opyl	-10.9072
▁zajímavější	-10.9073
▁omyl	-10.9074
▁tón	-10.9075
▁rychlejší	-10.9083
▁zaměstnání	-10.9085
▁liberál	-10.9089
▁olej	-10.9091
▁ponoř	-10.9093
▁smrteln	-10.9093
▁jednoduchost	-10.9094
▁zahrá	-10.9098
▁pozoruhodn	-10.9101
▁přeprav	-10.9111
▁odešl	-10.9113
▁pouč	-10.912
▁Higgsov	-10.9122
▁Nevy	-10.913
▁povědomí	-10.9133
stavení	-10.9151
chytil	-10.9151
▁poznání	-10.9155
▁náročné	-10.9157
▁pocházejí	-10.9161
▁zachránil	-10.9183
▁oblíbené	-10.9184
▁ticho	-10.9193
▁vědce	-10.9212
▁Gal	-10.9212
▁strun	-10.9216
▁udržitelné	-10.9218
▁umělé	-10.9219
▁neudělal	-10.9223
posud	-10.9224
▁rostl	-10.9254
▁Stan	-10.9261
▁pomáha	-10.9262
▁dynamick	-10.9272
▁entropi	-10.9272
▁odpoledne	-10.9272
▁satelit	-10.9272
▁vymyslet	-10.9272
▁Chtějí	-10.9272
▁chráněn	-10.9272
▁fosfor	-10.9272
▁výpočt	-10.9272
▁úřední	-10.9272
▁Trval	-10.9272
▁mentální	-10.9272
▁oslov	-10.9272
▁Troch	-10.9272
▁čaj	-10.9273
▁zmizí	-10.9273
▁Bibl	-10.9273
▁světluš	-10.9273
▁hřišt	-10.9273
▁podél	-10.9275
▁savc	-10.9275
▁Juli	-10.9275
▁odborník	-10.9277
▁36	-10.9282
▁vajíčk	-10.9285
▁přejí	-10.9289
▁kopi	-10.929
▁úspěšný	-10.9293
▁plus	-10.9293
▁bitv	-10.9295
▁80.	-10.9296
▁posunul	-10.9305
▁spojí	-10.9309
▁civilizac	-10.9335
▁přiče	-10.9336
▁městský	-10.9342
▁současně	-10.9349
▁držel	-10.9358
▁rozhodne	-10.9363
měňuj	-10.9363
▁cestovat	-10.9366
berg	-10.9376
bur	-10.9382
▁považova	-10.9394
pán	-10.9401
▁občanské	-10.9405
▁hodn	-10.9422
žíval	-10.9429
▁vystaven	-10.9434
▁kosmick	-10.9448
▁elektrod	-10.9448
▁zkoušel	-10.9454
▁kolen	-10.9458
▁dej	-10.9458
▁Nepo	-10.946
▁překl	-10.9464
▁povol	-10.9474
▁fascin	-10.9478
▁zákaz	-10.948
▁Výsledk	-10.948
▁evoluci	-10.948
▁frekvenc	-10.948
▁hypotéz	-10.948
▁inspirac	-10.948
▁křesťan	-10.948
▁nesmysl	-10.948
▁syndrom	-10.948
▁špinav	-10.948
▁žralok	-10.948
▁odstranit	-10.948
▁zvládne	-10.948
▁vypěstova	-10.948
▁výživ	-10.948
▁Saturn	-10.948
▁čtenář	-10.948
▁zkouší	-10.9481
▁slušn	-10.9481
▁čerstv	-10.9481
▁Střed	-10.9481
▁Opět	-10.9482
▁divadl	-10.9483
▁Občas	-10.9483
▁zítra	-10.9485
▁Způsob	-10.9487
▁trén	-10.9487
▁Mnohokrát	-10.9488
▁spojuje	-10.9489
▁kráv	-10.949
▁příkaz	-10.9491
▁divák	-10.9492
▁toalet	-10.9492
▁pěkné	-10.9502
▁zvládl	-10.9506
▁1000	-10.9512
▁pozoroval	-10.9535
hromadě	-10.9545
▁elektro	-10.9548
▁poškození	-10.9554
▁bohaté	-10.9568
▁mor	-10.9573
▁skonči	-10.9575
▁považoval	-10.9586
▁přítomn	-10.9621
▁biologick	-10.9632
▁Věř	-10.9633
dávám	-10.9635
▁ovládá	-10.9636
▁nevědom	-10.9639
CD	-10.9641
▁běží	-10.9649
▁histori	-10.9669
▁softwar	-10.9681
▁biolog	-10.9691
▁poznatk	-10.9692
▁pyramid	-10.9693
▁připomína	-10.9693
▁univerzální	-10.9693
▁obezit	-10.9693
▁uplynul	-10.9693
▁vyfoti	-10.9693
▁čokolád	-10.9693
▁detektor	-10.9693
▁přizpůsobit	-10.9693
▁reaguje	-10.9693
▁stráví	-10.9693
▁simulac	-10.9693
▁front	-10.9693
▁nabídnout	-10.9693
▁uskutečnit	-10.9694
▁vysílá	-10.9694
▁cév	-10.9694
▁beton	-10.9695
▁chápání	-10.9697
▁zelený	-10.9698
zdravější	-10.9698
▁dobrovolník	-10.9698
▁nákup	-10.97
▁přiměl	-10.9705
▁věř	-10.9709
▁zdravý	-10.9712
▁přicházel	-10.9716
▁připadá	-10.9716
▁předved	-10.9719
▁kontrolovat	-10.9719
▁pěkně	-10.9729
▁mořské	-10.9747
▁městské	-10.9748
▁čtvereční	-10.9753
▁prodává	-10.9764
▁uprav	-10.9764
▁Pán	-10.9767
▁snížil	-10.9769
▁Wall	-10.9798
▁uzavř	-10.9801
▁Velk	-10.9819
▁ptám	-10.982
▁učím	-10.9822
▁orgánů	-10.9828
▁členů	-10.9832
▁zábavné	-10.9839
▁podporuje	-10.9861
▁aktivist	-10.9862
vezl	-10.9862
▁prostředků	-10.9899
▁vstoupi	-10.9902
▁subjekt	-10.991
▁optimismu	-10.991
▁stárnutí	-10.991
▁tvořit	-10.991
▁nejbližší	-10.991
▁orchestr	-10.991
▁paradigma	-10.991
▁produktivit	-10.991
▁Pravd	-10.9911
▁závaz	-10.9911
ypravěč	-10.9911
▁Podobn	-10.9911
▁indické	-10.9911
▁Boston	-10.9911
▁bláz	-10.9911
▁ruční	-10.9911
▁ztratí	-10.9911
▁mamograf	-10.9911
▁hýba	-10.9911
▁střev	-10.9912
▁příprav	-10.9912
▁99	-10.9915
▁klimatický	-10.9916
▁červeno	-10.9922
▁přehrá	-10.9924
▁čekají	-10.9926
▁znečištění	-10.9927
▁nevěr	-10.9928
▁11.	-10.993
▁zabij	-10.9934
povídají	-10.9937
▁zasáhl	-10.9942
vedou	-10.9944
▁rozmanitost	-10.9951
▁samičk	-10.9957
▁nově	-10.9965
▁Hele	-10.9968
ologie	-10.9969
▁nezáleží	-10.9991
▁zachova	-10.9998
City	-11.0011
ybí	-11.0016
kládání	-11.0022
▁roční	-11.0028
▁sbírk	-11.0028
▁malb	-11.0029
▁zabit	-11.0037
▁televizní	-11.0056
nčil	-11.0072
▁kraj	-11.008
▁vyzkoušel	-11.0083
ařilo	-11.0084
▁čtvrtin	-11.0085
▁umělec	-11.0116
▁nahráv	-11.0128
▁Googlu	-11.0133
▁Pravděpodobně	-11.0133
▁ignorova	-11.0133
▁uvěřit	-11.0133
▁zdůrazn	-11.0133
▁živočišn	-11.0133
▁Strávil	-11.0133
▁konzerv	-11.0133
▁vyřešil	-11.0133
▁odvětví	-11.0133
▁intuic	-11.0133
▁majet	-11.0133
▁domnívám	-11.0133
▁následovat	-11.0133
▁převážn	-11.0133
▁báječn	-11.0133
▁úzkost	-11.0133
▁databáz	-11.0133
▁spotřebitel	-11.0133
▁trénink	-11.0133
▁Robert	-11.0133
▁hněd	-11.0133
▁nečekan	-11.0134
▁červený	-11.0135
▁duše	-11.0136
▁hacker	-11.0137
▁bohatší	-11.0138
▁mlék	-11.0139
▁investic	-11.0143
▁přizna	-11.0143
▁placen	-11.0144
stihl	-11.0144
▁rovin	-11.0144
▁zaměřil	-11.0145
▁gest	-11.0146
červená	-11.015
▁trva	-11.0151
▁sehna	-11.0159
svojí	-11.0162
▁drát	-11.0164
▁Uvědomil	-11.0167
▁vědomost	-11.0169
▁inspiroval	-11.0183
býval	-11.0185
▁Každé	-11.0193
▁ovládání	-11.0193
▁obecn	-11.0194
2007	-11.0196
▁vzniknou	-11.0197
každé	-11.0197
▁šat	-11.0199
▁190	-11.0201
▁zamysle	-11.0207
▁celkové	-11.0209
▁zadní	-11.0228
voří	-11.0237
▁dokto	-11.0239
▁hub	-11.0242
▁ptáků	-11.0245
▁myšlenkami	-11.0252
trvá	-11.0258
vádějí	-11.0258
▁klíčov	-11.0262
▁převz	-11.0267
▁Kdybys	-11.029
▁využívají	-11.0303
▁poškozen	-11.0317
dáte	-11.0333
▁Jan	-11.0336
▁aplikovat	-11.036
▁odehrál	-11.036
▁soustředí	-11.036
▁zdravotnick	-11.036
▁zpomali	-11.036
▁filtr	-11.036
▁nenávist	-11.036
▁tkáň	-11.036
▁zásah	-11.036
▁obklopen	-11.036
▁holčičk	-11.036
▁zničil	-11.036
▁člun	-11.036
▁Začíná	-11.036
▁kabel	-11.036
▁odhalit	-11.036
▁zbraň	-11.036
▁soupeř	-11.036
▁vysoká	-11.036
▁Cítil	-11.036
▁práš	-11.036
▁Francisc	-11.036
▁ozbrojen	-11.036
▁zmaten	-11.0361
▁počasí	-11.0361
▁narozenin	-11.0361
▁schvál	-11.0361
▁židl	-11.0362
▁přiblíži	-11.0362
▁prohlásil	-11.0362
▁komár	-11.0362
▁produktivní	-11.0363
▁Východ	-11.0364
▁výnos	-11.0364
▁např	-11.0367
▁diskus	-11.037
▁2006	-11.0371
▁GP	-11.0376
▁EM	-11.0376
▁natáče	-11.0377
▁účt	-11.038
▁90.	-11.0382
▁výdaj	-11.0382
zovan	-11.0383
▁zabýval	-11.0387
▁holka	-11.0389
▁bál	-11.0393
▁průmyslové	-11.0394
pracoval	-11.04
▁nelíb	-11.0409
▁věnoval	-11.041
▁webov	-11.0411
feren	-11.042
▁Dej	-11.0447
▁120	-11.0449
▁potenciální	-11.0466
▁hlás	-11.0484
▁zlepšil	-11.049
▁zkoumá	-11.0493
bírám	-11.0501
▁Mis	-11.0504
▁ban	-11.0505
▁pln	-11.0534
▁talent	-11.055
atur	-11.0554
▁Čas	-11.0557
▁osvoj	-11.0567
▁konkur	-11.0577
▁řetěz	-11.0578
▁původně	-11.0591
panělsk	-11.0593
▁alkohol	-11.0593
▁intenzivní	-11.0593
▁manažer	-11.0593
▁portrét	-11.0593
▁přitažliv	-11.0593
▁supermarket	-11.0593
▁uprchlík	-11.0593
▁predátor	-11.0593
▁zobrazen	-11.0593
▁ušetři	-11.0593
▁rozlišení	-11.0593
▁požadova	-11.0593
▁bilion	-11.0593
▁primát	-11.0593
▁schéma	-11.0593
▁uspořáda	-11.0593
▁písničk	-11.0593
▁seriál	-11.0593
▁následoval	-11.0593
▁Podíval	-11.0593
▁Kongres	-11.0594
▁operační	-11.0594
▁vystoupení	-11.0595
▁Zelen	-11.0595
▁vyvinou	-11.0595
▁hluboký	-11.0596
▁fond	-11.0597
▁sleduj	-11.0599
▁Bob	-11.0599
istán	-11.0602
▁nápis	-11.0603
▁spát	-11.0603
▁Dívá	-11.0605
▁budování	-11.061
▁vizi	-11.0611
▁32	-11.062
▁staří	-11.0622
▁kolektivní	-11.0626
▁rychlý	-11.0627
▁míří	-11.0632
ovské	-11.0634
▁elektrárn	-11.0638
lást	-11.0656
▁nepřátel	-11.0657
▁zlaté	-11.0658
▁složitost	-11.0674
▁běžn	-11.0685
▁Chil	-11.0689
▁slyší	-11.0703
▁zajímají	-11.0711
▁divné	-11.0724
▁dospělé	-11.0736
▁zacháze	-11.0737
▁Mik	-11.0745
▁pracující	-11.0756
▁Leg	-11.0758
▁plánova	-11.076
▁Abys	-11.0783
skočil	-11.0783
▁šílené	-11.0789
▁vyděláva	-11.0789
▁Matt	-11.0797
▁pouh	-11.0798
▁děsiv	-11.0811
sadit	-11.0814
▁psy	-11.0828
▁cvič	-11.0829
▁Počítač	-11.0831
▁dimenze	-11.0831
▁histork	-11.0831
▁komunikační	-11.0831
▁Jistě	-11.0831
▁informova	-11.0831
▁laskav	-11.0831
▁neslyšel	-11.0831
▁injekc	-11.0831
▁stabilní	-11.0831
▁příbuzn	-11.0831
▁zjišťuj	-11.0831
▁neziskov	-11.0831
▁chuť	-11.0831
▁žádost	-11.0831
cítění	-11.0832
▁obloh	-11.0832
▁neřekn	-11.0832
▁skromn	-11.0832
▁kresli	-11.0832
▁řeší	-11.0833
▁koláč	-11.0833
▁oblék	-11.0834
▁inženýrství	-11.0834
▁molekulární	-11.0835
▁patnáct	-11.0836
vůli	-11.0839
▁28	-11.0841
▁cukrovk	-11.0842
▁klesa	-11.0852
▁tvrdě	-11.0856
▁Boj	-11.0856
▁zůstáva	-11.0869
▁hospodářsk	-11.0874
▁pouhé	-11.0874
▁představení	-11.0875
▁hlasit	-11.0875
▁Pojď	-11.0888
psán	-11.0891
▁Dělám	-11.0894
▁pořídil	-11.0896
▁cestoval	-11.0903
azatel	-11.0908
▁Našl	-11.0911
▁Učí	-11.0914
▁mikrobů	-11.092
▁soudc	-11.0952
▁0,	-11.0971
▁výstavb	-11.0973
▁hran	-11.098
▁obecné	-11.101
▁Mnoh	-11.1011
▁rozpad	-11.1014
▁dovoluje	-11.1016
▁zvědav	-11.1031
štin	-11.104
slep	-11.104
▁zaměřuj	-11.1042
vázan	-11.1043
▁významné	-11.1043
působit	-11.1069
▁Afričan	-11.1075
▁Amazon	-11.1075
▁důvěř	-11.1075
▁fosilní	-11.1075
▁gravitační	-11.1075
▁halucinace	-11.1075
▁inspirován	-11.1075
▁nešťastn	-11.1075
▁notebook	-11.1075
▁příslušn	-11.1075
▁soustředěn	-11.1075
▁specializ	-11.1075
▁systematick	-11.1075
▁teoretick	-11.1075
▁konektom	-11.1075
▁tvořil	-11.1075
hlíží	-11.1075
▁produkují	-11.1075
▁zahrnují	-11.1075
▁japonsk	-11.1075
▁zaujal	-11.1075
▁těsně	-11.1075
▁plakát	-11.1075
▁klinik	-11.1075
▁prohlášení	-11.1075
▁Spolu	-11.1075
▁Super	-11.1075
▁klesá	-11.1075
▁Příběh	-11.1076
▁Technologie	-11.1076
▁protéz	-11.1076
jišťova	-11.1076
▁významný	-11.1076
▁kvantové	-11.1076
▁vyhraj	-11.1076
▁zneuží	-11.1076
▁zápis	-11.1076
▁rozhodova	-11.1077
▁promít	-11.1077
▁váží	-11.1078
▁ploš	-11.1081
▁organické	-11.1081
▁čert	-11.1081
▁elit	-11.1082
▁extra	-11.1084
▁oběť	-11.1086
▁dědeč	-11.1089
kreslí	-11.109
▁řetězce	-11.109
▁pruh	-11.1091
▁neudělá	-11.1091
▁motivova	-11.1094
▁Rod	-11.1094
▁vzdal	-11.1098
▁výzkumník	-11.1101
▁existující	-11.1101
padající	-11.1114
▁fyzický	-11.1116
▁vytisk	-11.1118
▁prsten	-11.1128
▁proměnil	-11.1135
uben	-11.1153
▁profesionální	-11.1154
▁pramen	-11.1158
žijete	-11.1162
▁zrakov	-11.1163
▁pozván	-11.1199
entní	-11.1205
▁necháp	-11.1218
▁umělecké	-11.1226
▁překvapen	-11.1232
▁700	-11.125
▁požadavk	-11.1261
▁jaderné	-11.1263
▁Již	-11.1265
centů	-11.1281
▁střel	-11.1283
▁přestane	-11.1298
▁klidně	-11.1307
▁Chicag	-11.1325
▁Florid	-11.1325
▁blahobyt	-11.1325
▁dimenzí	-11.1325
▁neexistoval	-11.1325
▁náklaďák	-11.1325
▁osvětlen	-11.1325
▁pohřb	-11.1325
▁policejní	-11.1325
▁praktik	-11.1325
▁přestěhoval	-11.1325
▁schizofreni	-11.1325
▁tvůrčí	-11.1325
▁vyjádření	-11.1325
▁baseball	-11.1325
▁jmenoval	-11.1325
▁údolí	-11.1325
▁důvěryhodn	-11.1325
▁nakrmi	-11.1325
▁produkuje	-11.1325
▁přál	-11.1325
▁depresi	-11.1325
▁zpracování	-11.1325
▁emoční	-11.1325
▁zaveden	-11.1325
▁propojit	-11.1325
▁Jednoduš	-11.1325
▁chrání	-11.1325
▁břeh	-11.1325
▁arabsk	-11.1325
▁mamink	-11.1325
▁logik	-11.1326
▁otestova	-11.1326
▁Odpověděl	-11.1326
▁pyšn	-11.1326
▁hluk	-11.1326
▁Krom	-11.1327
▁show	-11.1327
▁lídr	-11.1328
▁obilí	-11.1331
▁vyplýv	-11.1331
▁blízké	-11.1331
▁virus	-11.1336
▁pozemk	-11.1337
▁jasný	-11.1338
▁centimetr	-11.1338
▁jedničk	-11.134
▁elektrick	-11.1342
▁požár	-11.1344
▁sněh	-11.1344
▁videohr	-11.1346
▁vlastni	-11.1347
▁nulov	-11.1358
▁pacientov	-11.136
▁plodin	-11.1371
▁lékařské	-11.1373
▁nepřed	-11.1376
▁uvědom	-11.1378
▁paprsk	-11.1387
▁pokračuj	-11.1397
běr	-11.1418
▁umělecký	-11.1426
▁pozval	-11.1431
▁palc	-11.1432
▁vyhnou	-11.1443
▁dětský	-11.1445
ujme	-11.145
dělává	-11.1482
▁stimul	-11.1489
▁ironi	-11.149
▁žensk	-11.1497
▁pracovník	-11.1508
▁věčn	-11.1509
▁mot	-11.1523
▁obyčejný	-11.1543
kazuje	-11.1556
▁ulic	-11.1579
týkají	-11.158
▁Ministerstv	-11.1581
▁Oxford	-11.1581
▁Vytváří	-11.1581
▁kandidát	-11.1581
▁metabol	-11.1581
▁požádat	-11.1581
▁zapomněl	-11.1581
▁zdánliv	-11.1581
▁2050	-11.1581
▁Projekt	-11.1581
▁mikrofon	-11.1581
▁oficiáln	-11.1581
▁povídat	-11.1581
▁exploz	-11.1581
▁výpočetní	-11.1581
▁taneční	-11.1581
▁Itáli	-11.1581
▁Smith	-11.1581
▁klient	-11.1581
▁racionální	-11.1581
▁zástupc	-11.1581
▁zastaral	-11.1581
▁zvýší	-11.1581
▁emise	-11.1581
▁neurologick	-11.1581
▁generál	-11.1582
▁vyvinut	-11.1582
▁muzik	-11.1582
▁užívání	-11.1582
▁potíže	-11.1583
▁vyřešen	-11.1583
▁matematické	-11.1583
▁Abed	-11.1584
▁ocitl	-11.1585
▁mono	-11.1585
▁horečk	-11.1586
▁Korán	-11.1587
▁koupí	-11.1591
▁autist	-11.1592
▁dozví	-11.1592
▁Dělal	-11.1595
▁vesel	-11.1596
▁Fakt	-11.1597
▁klíčový	-11.1602
▁extrém	-11.1607
▁kuře	-11.1607
▁nevinn	-11.161
▁Park	-11.161
▁Sleduj	-11.1613
▁nedokáž	-11.1629
▁přirozený	-11.1633
▁sýr	-11.1644
nahradit	-11.165
▁zvon	-11.1659
▁zaplatil	-11.1669
▁Adam	-11.167
▁vznikají	-11.1674
▁volební	-11.168
▁půjd	-11.1682
▁ekonomic	-11.1699
počátk	-11.1706
svobod	-11.1707
▁Věc	-11.1713
bíhá	-11.1737
▁Nejen	-11.1756
▁udělej	-11.178
▁použiteln	-11.1788
smát	-11.179
rušil	-11.1811
spěje	-11.1816
▁optimist	-11.1825
▁Budou	-11.1842
▁otevřený	-11.1843
▁efektivně	-11.1843
▁civil	-11.1844
▁Rwand	-11.1844
▁Vietnam	-11.1844
▁Virgin	-11.1844
▁dinosaur	-11.1844
▁financován	-11.1844
▁financí	-11.1844
▁francouzsk	-11.1844
▁individuální	-11.1844
▁konkrétně	-11.1844
▁naslouchá	-11.1844
▁otevírá	-11.1844
▁tekutin	-11.1844
▁uvězněn	-11.1844
▁všudypřítomn	-11.1844
▁demografick	-11.1844
▁osmdesát	-11.1844
▁rybolov	-11.1844
▁interakce	-11.1844
▁vyspěl	-11.1844
▁Snažil	-11.1844
▁směšn	-11.1844
▁Paříž	-11.1844
▁dilema	-11.1844
▁utváře	-11.1844
▁napětí	-11.1844
▁prasat	-11.1844
▁africké	-11.1844
▁nejčastěj	-11.1844
▁pochopí	-11.1844
▁skepti	-11.1844
▁hyper	-11.1844
▁zraniteln	-11.1844
▁čočk	-11.1844
▁hydr	-11.1844
▁Kevin	-11.1844
▁žárovk	-11.1844
▁mluvení	-11.1844
▁kuchyn	-11.1845
▁obviněn	-11.1845
▁sníží	-11.1845
▁roztomil	-11.1845
▁přečetl	-11.1845
▁Appl	-11.1845
▁nakažen	-11.1846
▁Martin	-11.1847
▁Pomoc	-11.1847
▁modl	-11.1849
▁obáva	-11.1849
▁pomáhal	-11.185
▁šťastnější	-11.1851
▁vaření	-11.1852
▁fráz	-11.1853
▁poznámk	-11.1858
▁kříž	-11.1858
▁trop	-11.186
▁zvaný	-11.1865
▁uměleck	-11.1871
▁stupně	-11.1873
▁pytl	-11.1889
▁vzorec	-11.1894
▁představoval	-11.1897
▁ideální	-11.1898
▁děkuj	-11.1913
▁Alzheimer	-11.1914
▁příšern	-11.1943
rozumě	-11.1952
▁navštívi	-11.1953
▁bok	-11.1954
▁předvídat	-11.1954
▁strávi	-11.1967
sledova	-11.1967
píná	-11.1968
▁kopc	-11.1988
▁přesnost	-11.199
▁nezávislost	-11.2017
▁vnímán	-11.202
▁inovac	-11.2049
▁zemř	-11.2057
▁inžený	-11.2065
▁vyvíjel	-11.2077
studova	-11.2078
▁demo	-11.2098
buněčn	-11.2114
▁Palestin	-11.2114
▁beznaděj	-11.2114
▁pokrýv	-11.2114
▁Leonard	-11.2114
▁Nigéri	-11.2114
▁funkcí	-11.2114
▁kritéri	-11.2114
▁starověk	-11.2114
▁Stanford	-11.2114
▁legrac	-11.2114
▁netušil	-11.2114
▁poselství	-11.2114
▁potápě	-11.2114
▁komodit	-11.2114
▁licenc	-11.2114
▁uveden	-11.2114
▁znamení	-11.2114
▁kalori	-11.2115
▁skleněn	-11.2115
▁fúz	-11.2115
▁schova	-11.2115
▁návyk	-11.2115
▁vláke	-11.2115
▁připojil	-11.2115
▁odhalil	-11.2116
▁propast	-11.2116
▁talíř	-11.2116
▁vyslov	-11.2116
▁Navrh	-11.2117
▁dluh	-11.2117
▁Konec	-11.212
zbroj	-11.2122
▁postara	-11.2124
▁stráž	-11.2125
▁neuvidí	-11.213
▁Bell	-11.2131
▁odjel	-11.2132
▁pojem	-11.2133
▁síti	-11.2135
▁světelný	-11.2136
▁Stojí	-11.2136
ulární	-11.2142
orker	-11.2147
▁homosexuální	-11.2151
hrnul	-11.2164
▁klima	-11.2169
▁tabul	-11.2175
jímají	-11.2182
▁literatur	-11.2186
násobn	-11.2198
duši	-11.2203
▁horizont	-11.2205
▁zjednoduš	-11.2239
▁pozorovatel	-11.2255
ight	-11.2257
▁moč	-11.2257
▁ročník	-11.2259
▁účinnost	-11.2265
▁prožíva	-11.2266
▁vzdálený	-11.2274
ťák	-11.2281
váděl	-11.2282
chutná	-11.2291
▁diagnostik	-11.2293
▁přijat	-11.2298
vzdor	-11.2299
▁uvědomuj	-11.2305
▁piv	-11.2308
▁vybírá	-11.2322
▁tabulk	-11.2335
rámec	-11.2344
▁slouži	-11.2374
širok	-11.2375
▁Děla	-11.2381
raňuj	-11.2386
krmí	-11.2391
▁paradox	-11.2392
▁Důležit	-11.2392
▁Institut	-11.2392
▁Myšlenk	-11.2392
▁Vzpomíná	-11.2392
▁William	-11.2392
▁bambus	-11.2392
▁institut	-11.2392
▁legrační	-11.2392
▁nejtěžší	-11.2392
▁neutrální	-11.2392
▁nevládní	-11.2392
▁rukopis	-11.2392
▁sendvič	-11.2392
▁shromažď	-11.2392
▁skleníkový	-11.2392
▁unikátní	-11.2392
▁víkend	-11.2392
▁zúčastni	-11.2392
▁bezdrátov	-11.2392
▁devadesát	-11.2392
▁efektivit	-11.2392
▁označi	-11.2392
▁investuj	-11.2392
▁nesouhlas	-11.2392
▁náchyln	-11.2392
▁ukazatel	-11.2392
▁pevné	-11.2392
▁romantick	-11.2392
▁utratí	-11.2392
▁Část	-11.2392
▁Dítě	-11.2393
▁zatracen	-11.2393
▁vodík	-11.2393
▁produkova	-11.2393
▁chytřejší	-11.2393
▁obyvatelstv	-11.2394
▁bratř	-11.2394
▁ponětí	-11.2394
▁zadar	-11.2395
▁podlah	-11.2395
▁Dřív	-11.2396
▁povolení	-11.2396
▁zabere	-11.2396
▁Arab	-11.2398
▁UV	-11.2398
▁95	-11.2398
ografie	-11.2399
▁pobídky	-11.2399
▁rýž	-11.2401
▁vzdát	-11.2401
▁dějí	-11.2404
▁obrat	-11.2404
▁transparentnost	-11.2406
▁ideologi	-11.2406
▁přijetí	-11.2407
▁všimnou	-11.2411
▁agend	-11.2416
▁jednotlivce	-11.2419
▁všimne	-11.2421
sadím	-11.2422
▁zanechá	-11.2427
▁žádá	-11.2444
▁imun	-11.2454
▁jasno	-11.2455
▁volný	-11.2461
▁policist	-11.2473
▁klade	-11.2476
▁prosté	-11.2503
▁Nemůž	-11.2509
ovský	-11.2517
BM	-11.252
▁poskláda	-11.2522
▁květn	-11.2533
▁čelím	-11.2536
▁kupova	-11.2537
▁slid	-11.254
▁drobné	-11.2562
▁popisuje	-11.2563
▁červn	-11.2567
▁profesionál	-11.2585
▁pásk	-11.259
▁projde	-11.2605
▁jakoukoli	-11.2618
▁očekával	-11.263
▁nemoh	-11.2638
▁souhlasil	-11.2672
▁Pacifik	-11.2678
▁Přemýšlel	-11.2678
▁království	-11.2678
▁krátkodob	-11.2678
▁naposled	-11.2678
▁nefungoval	-11.2678
▁nejistot	-11.2678
▁nepřetržit	-11.2678
▁primitivní	-11.2678
▁překrásn	-11.2678
▁ušetří	-11.2678
▁inovativní	-11.2678
▁morálk	-11.2678
▁oznámil	-11.2678
▁prospěšn	-11.2678
▁psychiatr	-11.2678
▁vnoučat	-11.2678
▁mateřsk	-11.2678
▁důkladn	-11.2678
▁obdržel	-11.2678
▁pump	-11.2678
▁vlastnictví	-11.2678
▁indický	-11.2678
▁odpovídající	-11.2678
▁Rozdíl	-11.2678
▁brýle	-11.2678
▁spolupracují	-11.2678
▁Gates	-11.2678
▁záliv	-11.2678
▁iluze	-11.2678
▁Scott	-11.2678
hlášen	-11.2678
antrop	-11.2679
▁veterán	-11.2679
▁Řekněte	-11.2679
▁výjimečný	-11.268
▁masivní	-11.268
▁nenulovým	-11.2681
▁profil	-11.2682
▁ledvin	-11.2682
▁1960	-11.2682
▁tvrdil	-11.2683
▁Medi	-11.2683
▁nevypadá	-11.2684
▁Snad	-11.2684
▁uděl	-11.2684
▁vzorců	-11.2685
▁vydat	-11.2687
▁26	-11.2688
▁poloh	-11.2688
mlouvám	-11.2695
▁narodí	-11.2696
▁optimistick	-11.2698
▁rozumn	-11.2703
▁zeleno	-11.2707
▁Nejde	-11.2708
▁směřuje	-11.2711
▁spojují	-11.2721
▁technologický	-11.2721
▁galaxi	-11.2724
▁zvědavost	-11.2729
▁předcháze	-11.2732
▁zjistím	-11.2733
máhá	-11.2745
▁riskova	-11.2746
ntrol	-11.2758
▁rybář	-11.2758
▁nahrávk	-11.2761
▁bílý	-11.2771
▁hledají	-11.2775
▁Děj	-11.278
americ	-11.2816
▁lidskost	-11.2838
▁zdál	-11.2842
▁nezvlád	-11.2855
▁voleb	-11.286
omb	-11.2862
▁zkusím	-11.2872
▁pravděpodobn	-11.2901
▁těžb	-11.2936
▁dvanáct	-11.2969
▁kvantov	-11.2971
▁prvočísl	-11.2972
▁sponzor	-11.2972
▁University	-11.2972
▁Univerzit	-11.2972
▁děvčat	-11.2972
▁majitel	-11.2972
▁nevidom	-11.2972
▁rezistenc	-11.2972
▁teleskop	-11.2972
▁vizualizac	-11.2972
▁vrstev	-11.2972
▁zmrzl	-11.2972
▁koordin	-11.2972
▁parlament	-11.2972
rozdělit	-11.2972
▁naléhav	-11.2972
▁zlepšova	-11.2972
▁Henry	-11.2972
▁Norden	-11.2972
▁Učitel	-11.2972
▁naprosté	-11.2972
▁polévk	-11.2972
▁nejsilnější	-11.2972
▁period	-11.2972
▁analogi	-11.2972
▁promluvit	-11.2972
▁Ježíš	-11.2972
▁ověřit	-11.2972
▁kalhot	-11.2972
▁kloub	-11.2972
▁pokouší	-11.2972
▁výskyt	-11.2972
▁průlom	-11.2972
▁vlhk	-11.2972
▁naštvan	-11.2972
▁Narodil	-11.2972
▁lebk	-11.2972
▁Robot	-11.2973
važoval	-11.2973
▁těhotn	-11.2973
▁veliké	-11.2974
▁server	-11.2974
▁Rusk	-11.2975
▁Přírod	-11.2976
▁citát	-11.2977
▁úhel	-11.2977
▁vyhledáva	-11.2977
▁učiní	-11.2978
▁85	-11.2979
▁ničení	-11.298
▁nacháze	-11.299
▁technický	-11.2992
▁levnější	-11.2995
plátk	-11.2997
▁Jedn	-11.3001
▁klip	-11.3002
▁nabídl	-11.3022
▁diagnostikován	-11.3079
▁choval	-11.3096
▁troch	-11.3098
▁upraven	-11.3117
plout	-11.3125
J	-11.3136
materiál	-11.3138
▁Vytvoř	-11.3143
▁koz	-11.315
▁naváza	-11.3153
▁Pouz	-11.3162
▁spojený	-11.3186
▁zastáv	-11.3202
konc	-11.3204
▁připravil	-11.3214
▁rozmanit	-11.3219
▁prohlíže	-11.3223
▁vážný	-11.3228
bíha	-11.3228
RA	-11.3243
▁kmenový	-11.325
15	-11.3263
výcarsk	-11.3275
▁Průměrn	-11.3275
▁dynamik	-11.3275
▁nakažliv	-11.3275
▁naznačuje	-11.3275
▁nejnovější	-11.3275
▁nejúžasnější	-11.3275
▁osaměl	-11.3275
▁ovlivnil	-11.3275
▁pigment	-11.3275
▁reflex	-11.3275
▁rekord	-11.3275
▁úsměv	-11.3275
▁Číňan	-11.3275
▁Zdrav	-11.3275
▁interakci	-11.3275
▁utráce	-11.3275
▁Zajímal	-11.3275
▁končetin	-11.3275
▁menšin	-11.3275
▁rozmnož	-11.3275
▁vyžadova	-11.3275
▁bariér	-11.3275
▁centrální	-11.3275
▁sourozenc	-11.3275
▁tisíciletí	-11.3275
▁támhle	-11.3275
▁nalezne	-11.3275
▁gras	-11.3275
▁odstraněn	-11.3275
▁sotva	-11.3275
▁vyřeší	-11.3275
▁nucen	-11.3275
▁Valle	-11.3275
▁vyměni	-11.3276
▁nálepk	-11.3276
▁kampan	-11.3276
▁efektivnější	-11.3276
▁Vlád	-11.3276
▁večír	-11.3277
kratší	-11.3277
▁hojnost	-11.3277
▁geometri	-11.3277
▁uložen	-11.3277
▁mimink	-11.3277
▁úsek	-11.3278
▁dokončen	-11.3278
▁únik	-11.3279
▁videoher	-11.3279
▁úprav	-11.328
▁Talk	-11.3282
▁dokonalé	-11.3282
▁prostat	-11.3285
▁55	-11.3286
▁tlačí	-11.3288
▁klesl	-11.3289
zničit	-11.3291
▁Ghan	-11.3291
▁dohled	-11.3291
▁stravování	-11.3292
▁robotické	-11.3293
▁úvod	-11.3293
▁zachování	-11.3294
▁fung	-11.3296
podivu	-11.3307
▁poháněn	-11.3318
▁klam	-11.3328
▁žij	-11.3346
BI	-11.3348
▁demokrat	-11.3351
▁bojuje	-11.3376
▁sídl	-11.3379
následuj	-11.3413
▁naplněn	-11.3414
▁studuj	-11.3415
▁zvaž	-11.3434
▁zjednodušen	-11.3445
▁uchova	-11.347
▁193	-11.347
▁položí	-11.3475
▁nedává	-11.3475
ysvětlím	-11.3489
pozic	-11.3504
maloval	-11.3509
▁vyděl	-11.3511
▁stručn	-11.3512
procentní	-11.3556
▁rozhoduje	-11.3559
▁vzdělá	-11.3573
▁Atlant	-11.3585
▁Bhútán	-11.3588
▁Taliban	-11.3588
▁antikoncepc	-11.3588
▁brambor	-11.3588
▁charakteristik	-11.3588
▁glukóz	-11.3588
▁kapitalismu	-11.3588
▁neúspěch	-11.3588
▁neštovic	-11.3588
▁nukleární	-11.3588
▁podhoubí	-11.3588
▁pověděl	-11.3588
▁přestávk	-11.3588
▁sebevražd	-11.3588
▁strašné	-11.3588
▁tragédi	-11.3588
▁vynikající	-11.3588
▁zbožňuj	-11.3588
▁Ekonom	-11.3588
▁melodi	-11.3588
▁přetvoři	-11.3588
▁uvolňuj	-11.3588
▁zlepšuje	-11.3588
▁šedesát	-11.3588
▁SMS	-11.3588
▁určuje	-11.3588
▁Nějak	-11.3588
▁duchovní	-11.3588
▁velkolep	-11.3588
▁Ládin	-11.3588
▁reagují	-11.3588
▁přehnan	-11.3588
▁přihodil	-11.3588
▁jablk	-11.3588
▁odstraň	-11.3588
▁posvátn	-11.3588
▁nestojí	-11.3588
▁zvolen	-11.3588
▁pavouk	-11.3588
▁kavárn	-11.3588
▁odstranil	-11.3588
▁Zálež	-11.3588
▁nesprávn	-11.3589
▁sláv	-11.3589
▁Norsk	-11.3589
▁přiblíží	-11.3589
▁široké	-11.359
ville	-11.359
▁odhalen	-11.359
▁veliký	-11.3591
▁příspěvk	-11.3591
▁etik	-11.3591
▁the	-11.3591
▁burz	-11.3591
▁otrav	-11.3591
▁lehké	-11.3592
▁tajemn	-11.3592
▁staletí	-11.3593
▁Správn	-11.3593
▁nezmění	-11.3593
▁stoupa	-11.3594
▁sousedství	-11.3594
skoči	-11.3595
▁JK	-11.3595
▁klimatické	-11.3596
▁statistick	-11.3597
▁srand	-11.3598
▁létající	-11.3599
▁svatb	-11.3599
▁získáva	-11.3601
▁Cíl	-11.3604
▁Cest	-11.3607
▁příhod	-11.3608
▁nepodař	-11.3608
▁elektronik	-11.3608
▁bakteri	-11.3609
well	-11.3613
LA	-11.3633
▁uslyší	-11.3635
▁Řek	-11.3641
▁přináše	-11.3657
▁Objevil	-11.3662
▁zmíni	-11.3675
▁hroziv	-11.3684
▁nastaven	-11.3693
▁ptác	-11.3693
▁křiv	-11.371
▁koč	-11.372
▁kontext	-11.3726
▁opic	-11.3731
▁leteck	-11.3742
▁zavřen	-11.3756
části	-11.3772
▁dnešk	-11.3773
▁obdob	-11.3785
▁Alzheimerov	-11.3825
▁masov	-11.3841
▁vystoup	-11.3864
hodinov	-11.3887
vládají	-11.3902
nepříjemn	-11.3907
▁Hlas	-11.391
▁Texas	-11.391
srozumiteln	-11.391
▁Antarktid	-11.391
▁Etiopi	-11.391
▁Potřeboval	-11.391
▁Pravidl	-11.391
▁dominantní	-11.391
▁ingredienc	-11.391
▁inspirují	-11.391
▁klobouk	-11.391
▁ministerstv	-11.391
▁navrhování	-11.391
▁neexistují	-11.391
▁nezaměstnan	-11.391
▁pečovatel	-11.391
▁poskytovat	-11.391
▁skrýva	-11.391
▁zakořeněn	-11.391
▁záblesk	-11.391
▁Pohyb	-11.391
▁Uvidím	-11.391
▁Aristotel	-11.391
▁Bronx	-11.391
▁kilogram	-11.391
▁Green	-11.391
▁definuj	-11.391
▁zvídav	-11.391
▁instituci	-11.391
▁sdruž	-11.391
▁zotav	-11.391
▁hrůz	-11.391
▁remix	-11.391
▁charit	-11.391
▁nahrazen	-11.391
▁odmítl	-11.391
▁provinci	-11.391
▁rozvíjí	-11.391
▁úvaz	-11.391
▁mešit	-11.391
▁sobeck	-11.391
▁schránk	-11.391
▁Vrať	-11.391
▁prevenc	-11.391
view	-11.3911
▁ukonči	-11.3911
▁zajistil	-11.3911
▁překvapivé	-11.3911
▁tetování	-11.3912
▁diet	-11.3913
▁usilova	-11.3913
▁jednotlivců	-11.3913
▁Homo	-11.3914
▁vášniv	-11.3914
▁obíhají	-11.3914
▁akční	-11.3915
▁umožni	-11.3915
▁rozhodující	-11.3916
▁překvapující	-11.3917
▁Doktor	-11.3918
▁lamp	-11.3921
▁necítí	-11.3922
▁získávají	-11.3923
▁tvé	-11.3928
▁fac	-11.3934
▁Všimn	-11.3936
▁konkurenc	-11.3937
▁Nechal	-11.3942
▁housl	-11.3942
tahuje	-11.3944
▁využij	-11.3948
▁náměst	-11.3951
▁náhodný	-11.3957
▁Slov	-11.396
▁drsn	-11.3961
▁knír	-11.3964
hlížet	-11.3966
▁grafik	-11.3974
▁bojov	-11.3975
▁migr	-11.3977
▁různorodost	-11.3977
▁výchov	-11.4039
vzdá	-11.4086
▁etick	-11.4091
▁důsled	-11.4105
▁opakuj	-11.4106
spěch	-11.4131
▁trpě	-11.4136
▁ekologi	-11.4143
děláte	-11.4153
▁sbír	-11.4184
▁Rovn	-11.4192
▁Niko	-11.4214
,4	-11.4226
▁Evropsk	-11.4235
▁organick	-11.4235
▁Bangladéš	-11.4243
▁Manhattan	-11.4243
▁Microsoft	-11.4243
▁Neexistuj	-11.4243
▁Pomysle	-11.4243
▁Udělám	-11.4243
▁behaviorální	-11.4243
▁feministk	-11.4243
▁hardwar	-11.4243
▁hlubší	-11.4243
▁hnojiv	-11.4243
▁klávesnic	-11.4243
▁kukuřic	-11.4243
▁luxus	-11.4243
▁pixel	-11.4243
▁rezonanc	-11.4243
▁spočítat	-11.4243
▁vynalezen	-11.4243
▁Člověk	-11.4243
▁filosof	-11.4243
▁naprogramova	-11.4243
▁procedur	-11.4243
▁hnízd	-11.4243
▁medúz	-11.4243
▁nepravděpodobn	-11.4243
▁očkování	-11.4243
▁Nechtěl	-11.4243
▁intelektuální	-11.4243
▁vytrval	-11.4243
▁Funguj	-11.4243
▁inkoust	-11.4243
▁opatření	-11.4243
▁Několik	-11.4243
▁domněnk	-11.4243
▁pizz	-11.4243
▁přizpůsobiv	-11.4244
▁takzvané	-11.4244
▁uznání	-11.4244
▁každičk	-11.4244
▁zpívat	-11.4244
▁vychováva	-11.4244
▁památ	-11.4244
▁udržovat	-11.4244
▁zmíněn	-11.4244
anghaj	-11.4244
▁činitel	-11.4244
versus	-11.4244
škrt	-11.4244
▁donutil	-11.4244
▁Pozor	-11.4244
▁schováva	-11.4244
▁Apoll	-11.4244
▁neděj	-11.4244
▁Vrátil	-11.4245
▁Tvrd	-11.4245
▁osnov	-11.4245
▁posíli	-11.4245
▁směs	-11.4245
▁uvědomění	-11.4245
▁prud	-11.4246
▁Vážn	-11.4246
▁nedávné	-11.4246
▁Sedm	-11.4247
▁vítězství	-11.4247
▁Potkal	-11.4247
▁banán	-11.4247
▁krab	-11.4248
▁Long	-11.4248
▁jídeln	-11.4249
▁buněčné	-11.4249
▁provede	-11.425
▁otočí	-11.425
▁poděkova	-11.4251
▁zdalek	-11.4252
▁Hans	-11.4252
spekul	-11.4254
▁Mohu	-11.4254
▁podepsa	-11.4255
▁zabudova	-11.4261
▁jezdí	-11.4263
▁Těm	-11.427
várn	-11.4271
▁animac	-11.4272
▁položi	-11.4283
▁vyjde	-11.4291
vědomí	-11.4301
▁desít	-11.4301
▁pozoruj	-11.4305
▁třes	-11.4306
▁kachn	-11.431
▁natoči	-11.4312
▁pohon	-11.4317
▁přeloži	-11.4318
▁přímý	-11.4338
▁Vod	-11.4361
▁použij	-11.4362
▁úžas	-11.4363
těžit	-11.4364
▁lidstv	-11.4386
zločinc	-11.4391
▁háč	-11.4395
▁krav	-11.4436
▁kosm	-11.4453
dlouho	-11.4466
měsíční	-11.4469
▁vybaven	-11.4476
▁povědom	-11.4502
▁různorod	-11.4517
▁ideál	-11.4528
▁sebevědom	-11.4534
▁pobíd	-11.458
▁čele	-11.4585
▁ultrafialov	-11.4588
▁Mezinárodní	-11.4588
▁Singapur	-11.4588
▁Výzkum	-11.4588
▁Wikipedi	-11.4588
▁asteroid	-11.4588
▁astronaut	-11.4588
▁dinosauř	-11.4588
▁dodavatel	-11.4588
▁důstojnost	-11.4588
▁ekvivalent	-11.4588
▁element	-11.4588
▁expedic	-11.4588
▁hamburger	-11.4588
▁lásce	-11.4588
▁maximáln	-11.4588
▁organismy	-11.4588
▁plýtvání	-11.4588
▁ponaučení	-11.4588
▁stvořil	-11.4588
▁Arduin	-11.4588
▁Lékař	-11.4588
▁Červen	-11.4588
▁škodlivé	-11.4588
▁pohádk	-11.4588
▁pubert	-11.4588
▁emisí	-11.4588
▁poskytne	-11.4588
▁prosperit	-11.4588
▁zajištěn	-11.4588
▁ptačí	-11.4588
▁variant	-11.4588
▁Pozděj	-11.4588
▁napadnou	-11.4588
▁Otevř	-11.4588
▁oranžov	-11.4588
▁zvětši	-11.4588
▁říjn	-11.4588
▁Získa	-11.4588
▁poctiv	-11.4588
▁pohlt	-11.4588
▁tlust	-11.4588
▁neříká	-11.4588
▁dostupná	-11.4589
▁chrám	-11.4589
▁Výborn	-11.4589
▁Uměl	-11.4589
▁bouře	-11.4589
▁kluci	-11.4589
▁pirát	-11.4589
▁zelená	-11.4589
▁výhled	-11.4589
▁hrob	-11.4589
▁Peter	-11.459
▁chleb	-11.459
▁astma	-11.459
▁nečekal	-11.4591
▁následuje	-11.4591
▁nepříjemné	-11.4591
▁senior	-11.4591
▁odešel	-11.4592
▁úct	-11.4592
▁statečn	-11.4593
▁Hledá	-11.4593
▁položen	-11.4593
▁Knih	-11.4593
▁docíli	-11.4594
▁lineárn	-11.4595
▁snědl	-11.4597
kredit	-11.4599
▁strop	-11.4599
▁nevědě	-11.4599
▁tričk	-11.4603
▁cizinc	-11.4613
▁zaměří	-11.4621
▁dokonale	-11.4624
▁spojova	-11.463
▁výzkumníc	-11.4632
▁klín	-11.4639
▁dočasn	-11.4641
▁měkk	-11.4641
▁chyběl	-11.4646
▁interpretac	-11.4655
ránc	-11.468
▁navaz	-11.4733
▁zabezpečen	-11.4741
▁chov	-11.4774
spívají	-11.4781
▁pokyn	-11.4786
▁drama	-11.4793
▁předvídateln	-11.4797
sloužil	-11.4896
▁moz	-11.4898
▁vyrazi	-11.4922
▁soukrom	-11.4938
▁Přemýšlej	-11.4945
wood	-11.4945
▁Udělej	-11.4945
▁distribuc	-11.4945
▁elektromagnet	-11.4945
▁fantazi	-11.4945
▁galeri	-11.4945
▁implantát	-11.4945
▁intenzit	-11.4945
▁membrán	-11.4945
▁mláďat	-11.4945
▁nervózní	-11.4945
▁spoléha	-11.4945
▁sportovní	-11.4945
▁stabilit	-11.4945
▁subsaharsk	-11.4945
▁symptom	-11.4945
▁trojúhelník	-11.4945
▁upozorni	-11.4945
▁zaznamenal	-11.4945
▁zdvojnásobil	-11.4945
▁zmáčkn	-11.4945
▁LED	-11.4945
▁angažova	-11.4945
▁fanouš	-11.4945
▁fyziologi	-11.4945
▁iPod	-11.4945
▁instalac	-11.4945
▁strašliv	-11.4945
▁Čtyři	-11.4945
▁Domnívám	-11.4945
▁dialog	-11.4945
▁domorod	-11.4945
▁přibližuj	-11.4945
▁stadion	-11.4945
▁vyrobí	-11.4945
▁povšim	-11.4945
▁kuchař	-11.4945
▁prvotní	-11.4945
▁vyčerpá	-11.4945
▁šroub	-11.4945
▁nůž	-11.4945
▁primárn	-11.4945
▁rytmu	-11.4946
▁uskutečnil	-11.4946
▁stoupá	-11.4946
▁sfér	-11.4946
▁Všud	-11.4946
▁foťák	-11.4946
▁mentor	-11.4946
▁bydlení	-11.4946
▁počítání	-11.4946
▁Zvuk	-11.4946
▁žalob	-11.4946
▁predik	-11.4946
▁adres	-11.4947
▁bolí	-11.4947
▁zanechal	-11.4947
▁výhradn	-11.4947
▁probudil	-11.4947
▁Použil	-11.4947
▁syntetick	-11.4948
▁zajistí	-11.4948
▁nárok	-11.4949
▁tvoj	-11.4949
▁Pár	-11.4949
▁2,5	-11.4949
▁troub	-11.4953
▁pian	-11.4954
▁kresb	-11.4954
▁neznal	-11.4955
▁skáka	-11.4956
▁zřetel	-11.4968
celk	-11.4987
▁oceněn	-11.5003
▁kolegov	-11.5013
poznávání	-11.5021
▁podstoupi	-11.5078
▁Tesl	-11.5082
▁skál	-11.51
▁atmosfé	-11.5127
hlédne	-11.5137
▁struktu	-11.5138
▁slunc	-11.514
▁financova	-11.516
třetí	-11.518
▁nenajde	-11.5185
▁vinn	-11.5186
▁uhlíkov	-11.5215
▁Dělá	-11.5218
▁vymýšle	-11.5227
▁Nepotřebuj	-11.5234
▁propad	-11.5245
▁váži	-11.5258
vázal	-11.5261
▁počát	-11.5282
▁kilometr	-11.5286
,7	-11.5298
▁lez	-11.5303
▁autonomní	-11.5316
▁definován	-11.5316
▁gramotnost	-11.5316
▁improvizova	-11.5316
▁iniciativ	-11.5316
▁interaktivní	-11.5316
▁nejjednodušší	-11.5316
▁nejkrásnější	-11.5316
▁nejmladší	-11.5316
▁ovlivní	-11.5316
▁přikázání	-11.5316
▁vyprodukova	-11.5316
▁zveřejnil	-11.5316
▁Říkaj	-11.5316
▁Shakespear	-11.5316
▁bilión	-11.5316
▁olympij	-11.5316
▁posluchač	-11.5316
▁propuštěn	-11.5316
▁shromáždi	-11.5316
▁stereotyp	-11.5316
▁velkorys	-11.5316
▁zvětšuje	-11.5316
▁diagram	-11.5316
▁hygien	-11.5316
▁kontroverz	-11.5316
▁konzervativní	-11.5316
▁modifik	-11.5316
▁Vyrostl	-11.5316
▁Whitopi	-11.5316
▁proslov	-11.5316
▁záleže	-11.5316
▁koncentrac	-11.5316
▁polymer	-11.5316
▁shluk	-11.5316
▁vyhledává	-11.5316
▁zmapova	-11.5316
▁kritik	-11.5316
▁Jednoduch	-11.5316
▁Ugand	-11.5316
▁bezmoc	-11.5316
▁zmenši	-11.5316
▁Trans	-11.5316
▁mizern	-11.5316
▁tančí	-11.5316
okruh	-11.5316
▁status	-11.5316
▁úloh	-11.5317
▁pasivní	-11.5317
▁zpíval	-11.5317
▁identick	-11.5318
▁Konečn	-11.5318
▁krystal	-11.5318
▁udržuje	-11.5318
▁vibrac	-11.5318
▁potvrdil	-11.5318
▁zakonči	-11.5318
▁Data	-11.5318
▁princ	-11.5319
▁připojí	-11.5319
▁Modr	-11.5319
▁selhal	-11.532
▁dokonalý	-11.5323
▁křiče	-11.5324
▁akor	-11.5325
▁oblak	-11.5328
▁zaznamenává	-11.5328
▁Čern	-11.5331
ovka	-11.5331
▁nerad	-11.5332
▁poraněn	-11.5334
▁nitr	-11.534
▁posouva	-11.5342
▁přímé	-11.5355
stěn	-11.5357
▁přesunul	-11.5358
▁nemyslí	-11.5367
▁zmiňov	-11.5369
▁dotyk	-11.5369
jíždí	-11.5376
▁Rud	-11.5391
▁myln	-11.5402
psané	-11.5414
ologické	-11.5426
▁pračk	-11.5446
▁zpětno	-11.5455
pomenout	-11.5497
▁pokladn	-11.5517
▁Matk	-11.5521
skutečn	-11.5542
hánějí	-11.5549
▁sofistikovan	-11.5556
rozdíl	-11.5562
století	-11.5563
významnější	-11.5609
▁momentáln	-11.5626
▁pojď	-11.5647
láká	-11.5678
▁instinkt	-11.5681
▁Nejvyšší	-11.57
▁Neříkám	-11.57
▁benzín	-11.57
▁disciplín	-11.57
▁elegantní	-11.57
▁extrovert	-11.57
▁figur	-11.57
▁hmatateln	-11.57
▁komponent	-11.57
▁komunikují	-11.57
▁libovoln	-11.57
▁mládí	-11.57
▁nejbohatší	-11.57
▁nejzajímavější	-11.57
▁nezapomenu	-11.57
▁nuklární	-11.57
▁návnad	-11.57
▁pevnin	-11.57
▁předstírat	-11.57
▁symfoni	-11.57
▁transplantac	-11.57
▁tučňák	-11.57
▁tweet	-11.57
▁vitamín	-11.57
▁vyjadřuje	-11.57
▁zrychlen	-11.57
▁zřídka	-11.57
▁Phoenix	-11.57
▁dirigent	-11.57
▁harmoni	-11.57
▁vypínač	-11.57
▁žebříčk	-11.57
▁asistent	-11.57
▁infikovan	-11.57
▁uchopit	-11.57
▁vyvolat	-11.57
▁hlubin	-11.57
▁léčiv	-11.57
▁počáteční	-11.57
▁napaden	-11.57
▁sladké	-11.57
▁zodpovědě	-11.57
▁Vyrůstal	-11.57
▁kybernetick	-11.57
▁chaotick	-11.57
▁pevný	-11.57
▁Polovin	-11.5701
▁skvrn	-11.5701
▁zvyšují	-11.5701
▁nepatrn	-11.5701
▁vesnič	-11.5701
▁vybudování	-11.5701
▁milimetr	-11.5701
▁průhledn	-11.5701
▁Řím	-11.5701
▁odchyl	-11.5701
Global	-11.5701
▁subjektivní	-11.5701
▁výtah	-11.5701
▁sezón	-11.5701
▁podzim	-11.5701
▁italsk	-11.5701
▁pružn	-11.5702
▁Brian	-11.5702
▁loňsk	-11.5702
▁dvor	-11.5702
▁soulad	-11.5703
▁sunda	-11.5703
▁garáž	-11.5703
▁otáče	-11.5703
▁Atlantik	-11.5705
▁volit	-11.5705
▁otrok	-11.5705
▁zpracováva	-11.5706
▁děr	-11.5707
vzbudil	-11.5707
▁zaplav	-11.571
▁touží	-11.5717
▁blízký	-11.5721
▁smál	-11.5722
pokláda	-11.5726
▁věrn	-11.5726
▁odebra	-11.5727
▁předešl	-11.5729
▁vzešl	-11.574
▁splněn	-11.5741
▁mlh	-11.5756
▁jevišt	-11.5774
▁červenc	-11.5775
▁dokonči	-11.5784
▁předvádě	-11.5804
▁klec	-11.5804
hlásí	-11.5822
pravděpodobnější	-11.5834
▁odejd	-11.5878
▁teror	-11.591
míň	-11.5929
▁paprs	-11.6001
▁přísn	-11.601
▁moudr	-11.602
hlédnutí	-11.61
▁Arthur	-11.61
▁Blízk	-11.61
▁Zéland	-11.61
▁federální	-11.61
▁instrukce	-11.61
▁korporace	-11.61
▁listopad	-11.61
▁magazín	-11.61
▁marshmallow	-11.61
▁mechanik	-11.61
▁mimozemšťan	-11.61
▁nenávidě	-11.61
▁originální	-11.61
▁ovladač	-11.61
▁populační	-11.61
▁recyklovat	-11.61
▁rozdělí	-11.61
▁skrývá	-11.61
▁smartphon	-11.61
▁spolupracovník	-11.61
▁zahájil	-11.61
▁zrychluje	-11.61
▁zvládnu	-11.61
▁žárlivost	-11.61
▁Beethoven	-11.61
▁Watson	-11.61
▁integrova	-11.61
▁každoročn	-11.61
▁podezřel	-11.61
▁Karolín	-11.61
▁index	-11.61
▁zapomeň	-11.61
▁sdělen	-11.61
▁vojác	-11.61
▁souhrn	-11.61
▁tragick	-11.61
▁patogen	-11.61
▁surovin	-11.61
▁Studie	-11.61
▁kopírova	-11.61
▁paralel	-11.61
▁tleska	-11.61
▁zorganizova	-11.61
▁Eric	-11.61
▁tablet	-11.61
▁opuštěn	-11.6101
▁korelac	-11.6101
▁parkovišt	-11.6101
▁slupk	-11.6101
▁nádob	-11.6101
▁netuší	-11.6101
▁spirál	-11.6101
▁středisk	-11.6101
▁lístk	-11.6101
▁přizpůsoben	-11.6101
▁ocas	-11.6101
▁zpracovává	-11.6101
▁metan	-11.6101
▁chodník	-11.6101
▁zůstanou	-11.6101
▁roztrh	-11.6102
▁trauma	-11.6102
▁bydlí	-11.6102
▁nedostatečn	-11.6102
▁výrok	-11.6103
▁hovor	-11.6103
▁psychick	-11.6103
▁bankéř	-11.6103
▁následovn	-11.6103
▁troš	-11.6103
▁organizm	-11.6103
▁Pokus	-11.6103
▁pravic	-11.6104
▁hejn	-11.6104
▁zrodil	-11.6105
▁nepřišl	-11.6107
▁přebyt	-11.6111
▁Bruno	-11.6114
▁zváži	-11.6117
▁ukáz	-11.6119
▁rozjel	-11.612
▁Líb	-11.6122
▁přizná	-11.6122
ISA	-11.6126
▁učebnic	-11.6129
▁široko	-11.613
▁Havaj	-11.6139
ustále	-11.6161
nikam	-11.6165
krmení	-11.6189
izovaný	-11.6226
▁Darwinov	-11.6265
▁přived	-11.6299
ředn	-11.636
▁příšer	-11.6361
▁manipul	-11.6372
▁speciáln	-11.6383
SA	-11.6423
▁interpret	-11.6436
▁Uvědom	-11.6458
▁fyzic	-11.646
▁přežij	-11.6464
▁pořídi	-11.6469
cionální	-11.6517
▁Design	-11.6517
▁Francouz	-11.6517
▁Kolumbi	-11.6517
▁Největší	-11.6517
▁Philip	-11.6517
▁absolvent	-11.6517
▁adaptac	-11.6517
▁analyzovat	-11.6517
▁dědictví	-11.6517
▁elimin	-11.6517
▁hladomor	-11.6517
▁laboratorní	-11.6517
▁nezměnil	-11.6517
▁pobřežní	-11.6517
▁působení	-11.6517
▁recyklac	-11.6517
▁rentgenov	-11.6517
▁shromážděn	-11.6517
▁sjednoc	-11.6517
▁teenager	-11.6517
▁těhotenství	-11.6517
▁ultrazvuk	-11.6517
▁znepokojen	-11.6517
▁znepokojující	-11.6517
▁zobrazuje	-11.6517
▁zveřejněn	-11.6517
▁Islám	-11.6517
▁administrativ	-11.6517
▁chytrá	-11.6517
▁fotovoltai	-11.6517
▁kapitán	-11.6517
▁otevíra	-11.6517
▁označuj	-11.6517
▁procházk	-11.6517
▁hasič	-11.6517
▁obrácen	-11.6517
▁kořist	-11.6517
▁vyčerpa	-11.6517
▁důraz	-11.6517
▁zákrok	-11.6517
▁zachycen	-11.6517
▁zpracovat	-11.6517
▁Black	-11.6517
▁trápi	-11.6517
▁směje	-11.6517
▁zamiloval	-11.6517
▁nejedná	-11.6517
▁chronick	-11.6517
▁prosinc	-11.6517
▁nepoužívá	-11.6517
▁přistál	-11.6517
▁Sierr	-11.6517
▁zvolil	-11.6517
▁Sýri	-11.6518
▁toleranc	-11.6518
▁stěhuj	-11.6518
▁Film	-11.6518
▁motýl	-11.6519
▁Farm	-11.6519
▁manuál	-11.6519
▁sklenic	-11.6521
▁obojí	-11.6521
▁hrubé	-11.6523
▁veliká	-11.6524
▁povídání	-11.6524
▁zprav	-11.6529
▁hněv	-11.6532
▁páteř	-11.6538
▁mzd	-11.6539
▁bankovk	-11.6541
▁odstín	-11.6541
paži	-11.6546
▁zaznamenán	-11.6562
myšlení	-11.6574
▁pekl	-11.6595
reativ	-11.6631
▁útoči	-11.6643
▁náctilet	-11.6657
▁zapomenou	-11.6674
bírání	-11.6695
▁vystřel	-11.6699
vádění	-11.681
hodnocení	-11.6813
jinam	-11.6831
▁Objev	-11.6849
▁překáž	-11.6862
▁perfektn	-11.6863
▁dozvědě	-11.6875
▁sestaven	-11.6931
▁ukazova	-11.6951
▁infračerven	-11.6952
▁DVD	-11.6952
▁Grónsk	-11.6952
▁Miguel	-11.6952
▁Nedokáž	-11.6952
▁Vypadal	-11.6952
▁feromon	-11.6952
▁impuls	-11.6952
▁komunikuje	-11.6952
▁konzulta	-11.6952
▁maxima	-11.6952
▁monarch	-11.6952
▁nanotechnologi	-11.6952
▁odhodlání	-11.6952
▁pavoučí	-11.6952
▁pesticid	-11.6952
▁pohlavní	-11.6952
▁předměstí	-11.6952
▁připadal	-11.6952
▁rodičovství	-11.6952
▁sociálně	-11.6952
▁supermasivní	-11.6952
▁vězňů	-11.6952
▁čínštin	-11.6952
produkční	-11.6952
▁Požádal	-11.6952
▁Zvláš	-11.6952
▁bazén	-11.6952
▁doprováz	-11.6952
▁navštěvuj	-11.6952
▁pohřeb	-11.6952
▁prezentova	-11.6952
▁přispívá	-11.6952
▁sedmdesát	-11.6952
▁židovsk	-11.6952
▁dvojčat	-11.6952
▁stárnou	-11.6952
▁uvolni	-11.6952
▁nektar	-11.6952
▁zácp	-11.6952
▁flétn	-11.6952
▁Vyvinul	-11.6952
▁ohromen	-11.6952
eatbox	-11.6952
▁náznak	-11.6952
▁vyžadují	-11.6952
▁rozšíří	-11.6952
▁výsad	-11.6952
▁zlepší	-11.6952
▁nekončí	-11.6952
▁pojmenoval	-11.6952
▁srážk	-11.6952
▁březn	-11.6952
▁Studen	-11.6952
▁bavln	-11.6952
▁Latinsk	-11.6952
▁obálk	-11.6952
▁výprav	-11.6952
▁Daniel	-11.6952
▁náprav	-11.6952
▁Čísl	-11.6952
▁Sledoval	-11.6952
▁stáří	-11.6952
▁Ostatn	-11.6952
▁nabízel	-11.6953
▁minerál	-11.6953
▁antropolog	-11.6953
▁brazilsk	-11.6953
▁zítř	-11.6954
▁závěrečn	-11.6954
▁lalok	-11.6954
▁dostupnost	-11.6954
▁symetri	-11.6954
▁uznáva	-11.6955
▁varování	-11.6956
▁nehraj	-11.6956
▁stačil	-11.6956
▁posouvá	-11.6956
▁obávám	-11.6957
▁nadměrn	-11.6957
▁Gold	-11.6959
▁trysk	-11.696
▁Díval	-11.696
▁udiv	-11.6961
střih	-11.6965
▁etnick	-11.6966
▁králík	-11.6968
▁smějí	-11.697
▁přesahuj	-11.6972
▁instinktivn	-11.6974
▁vynoř	-11.6986
nedávn	-11.702
▁vzpomenou	-11.7023
kontroloval	-11.7047
matika	-11.7059
▁manipulac	-11.7061
▁Ačkoli	-11.7076
▁předáva	-11.7101
▁synov	-11.7103
▁tašk	-11.7137
zemřou	-11.7137
▁kolečk	-11.7149
▁Brown	-11.7151
▁přispíva	-11.7167
▁zařídi	-11.718
▁Dokáž	-11.7199
pusť	-11.7206
▁nezdá	-11.722
▁babič	-11.725
vládl	-11.7294
▁přehled	-11.7301
▁cizin	-11.7375
▁Goliáš	-11.7406
▁Stewart	-11.7406
▁doporuči	-11.7406
▁zvládá	-11.7406
▁Disney	-11.7406
▁Island	-11.7406
▁Pacient	-11.7406
▁Systém	-11.7406
▁Vesmír	-11.7406
▁aktuální	-11.7406
▁basket	-11.7406
▁léčebn	-11.7406
▁navrhovat	-11.7406
▁neefektivní	-11.7406
▁neuvědomuj	-11.7406
▁osvobozen	-11.7406
▁ovzduší	-11.7406
▁pavučin	-11.7406
▁pohotovost	-11.7406
▁pojištění	-11.7406
▁povzbuzuj	-11.7406
▁požehnán	-11.7406
▁vydavatel	-11.7406
▁vyjádřil	-11.7406
▁vzpomene	-11.7406
▁zakladatel	-11.7406
▁zápěstí	-11.7406
▁genocid	-11.7406
▁problematic	-11.7406
▁přízvuk	-11.7406
▁sestroji	-11.7406
▁Sylvi	-11.7406
▁Zvedně	-11.7406
▁kontrast	-11.7406
▁premiér	-11.7406
▁uvolněn	-11.7406
▁Seattl	-11.7406
▁napodobi	-11.7406
▁vychovává	-11.7406
▁chystal	-11.7406
▁hostitel	-11.7406
▁polokoul	-11.7406
▁Kennedy	-11.7406
▁závise	-11.7406
▁loteri	-11.7406
▁vypuštěn	-11.7406
▁mikrobiální	-11.7407
▁nepatří	-11.7407
▁srovnateln	-11.7407
▁uskutečněn	-11.7407
▁favel	-11.7407
▁ukraden	-11.7407
▁zhroutil	-11.7407
▁Seděl	-11.7407
▁Těžk	-11.7407
▁trenér	-11.7407
▁anonymn	-11.7407
▁německé	-11.7407
▁africký	-11.7407
▁středověk	-11.7407
▁Skupin	-11.7407
▁géni	-11.7407
▁nejasné	-11.7407
▁komedi	-11.7407
▁vězně	-11.7407
▁oslab	-11.7407
▁vybrán	-11.7407
▁schodišt	-11.7407
▁Rozumí	-11.7407
▁Prostřed	-11.7407
▁mýlí	-11.7407
▁Vznik	-11.7407
▁počínaj	-11.7407
▁Nemluvím	-11.7407
▁volant	-11.7407
▁velitel	-11.7407
▁architektonick	-11.7407
▁fikc	-11.7407
▁Krás	-11.7407
▁esej	-11.7407
▁nábyt	-11.7407
▁skřín	-11.7408
▁propuk	-11.7408
▁volič	-11.7409
▁zapálen	-11.741
▁verzí	-11.7411
▁hrubý	-11.7411
▁estetic	-11.7413
▁vykonáva	-11.7421
▁vyhazov	-11.7423
▁Hraj	-11.743
▁filmař	-11.7446
dotknou	-11.7501
▁příšt	-11.7516
lháva	-11.7522
▁automobilov	-11.7536
nebezpečnější	-11.759
▁osvícen	-11.7628
▁zastaven	-11.7751
▁finančn	-11.7753
▁onemocně	-11.7786
▁elektrár	-11.7788
přátelství	-11.7872
▁fascinuj	-11.7881
onfigurac	-11.7883
▁Cassini	-11.7883
▁Dreyfus	-11.7883
▁Hollywood	-11.7883
▁Jupiter	-11.7883
▁Kepler	-11.7883
▁Neuvěřiteln	-11.7883
▁Obsahuj	-11.7883
▁Obvykl	-11.7883
▁Parkinsonov	-11.7883
▁Svobod	-11.7883
▁Upřímn	-11.7883
▁doporučuj	-11.7883
▁evidentn	-11.7883
▁infarkt	-11.7883
▁injekční	-11.7883
▁introvert	-11.7883
▁kreslení	-11.7883
▁kuchyň	-11.7883
▁nemyslel	-11.7883
▁ovlivňova	-11.7883
▁povstání	-11.7883
▁požádán	-11.7883
▁prefrontální	-11.7883
▁problematik	-11.7883
▁působil	-11.7883
▁rozšiřuje	-11.7883
▁spočítal	-11.7883
▁stigma	-11.7883
▁strašideln	-11.7883
▁tuberkulóz	-11.7883
▁vyhýba	-11.7883
▁zamyslím	-11.7883
▁záplav	-11.7883
▁družic	-11.7883
▁spletit	-11.7883
▁válečný	-11.7883
▁Čtvrt	-11.7883
▁Klíčov	-11.7883
▁ratingov	-11.7883
▁stárne	-11.7883
▁dusík	-11.7883
▁riskantní	-11.7883
▁trojrozměrné	-11.7883
▁vyčisti	-11.7883
▁zvyšova	-11.7883
▁štědr	-11.7883
▁Základní	-11.7883
▁penis	-11.7883
▁Současn	-11.7883
▁interakcí	-11.7883
▁tekuté	-11.7883
▁spuštěn	-11.7883
▁neuměl	-11.7883
▁šířk	-11.7883
▁zátěž	-11.7883
▁Obecně	-11.7883
▁přiláka	-11.7883
▁útvar	-11.7883
▁nátlak	-11.7883
▁Chodil	-11.7883
▁pracovišt	-11.7883
▁setkávám	-11.7883
▁unaven	-11.7883
▁indik	-11.7883
▁Chlap	-11.7883
▁lůžk	-11.7883
▁Nepři	-11.7883
▁přízniv	-11.7883
▁salát	-11.7883
▁životopis	-11.7883
▁simulova	-11.7883
▁zvrat	-11.7883
▁šetři	-11.7883
▁Kosov	-11.7883
▁drahý	-11.7883
▁vrchní	-11.7883
▁břich	-11.7883
▁obrací	-11.7884
▁íránsk	-11.7884
▁nepotřeboval	-11.7884
▁zasáhnou	-11.7884
▁nutil	-11.7884
▁zvětšen	-11.7885
▁kreslíř	-11.7885
▁nepozná	-11.7887
omezit	-11.7888
▁ctnost	-11.7888
▁doplňk	-11.7889
▁pláč	-11.789
▁pokryl	-11.789
▁konvic	-11.789
▁breče	-11.7891
▁nedávný	-11.7893
▁kráče	-11.7894
▁všimnět	-11.7896
značně	-11.7918
▁prověř	-11.792
▁spojován	-11.7927
▁Vedl	-11.7959
▁nechutn	-11.7959
zdola	-11.7966
šláp	-11.7993
▁poháně	-11.8005
▁vyskoč	-11.8009
▁počítačov	-11.802
▁přitahuj	-11.8037
▁stimulac	-11.8058
▁nesnáše	-11.8106
▁varova	-11.8126
▁poukáza	-11.816
hloub	-11.8248
▁hospodář	-11.8292
▁kolektiv	-11.8311
▁homosexuál	-11.8314
▁učebn	-11.8349
hlubok	-11.8364
▁vykazuj	-11.8374
zpátk	-11.8381
▁republi	-11.8383
▁křižovat	-11.8383
▁Babbage	-11.8383
▁Europ	-11.8383
▁Indonési	-11.8383
▁Jeruzalém	-11.8383
▁Kultur	-11.8383
▁Nizozem	-11.8383
▁Stephen	-11.8383
▁Vzpomeň	-11.8383
▁bezdomovc	-11.8383
▁biotechnologi	-11.8383
▁bizarní	-11.8383
▁definovat	-11.8383
▁diskriminac	-11.8383
▁dražší	-11.8383
▁environmentální	-11.8383
▁exoplanet	-11.8383
▁fakult	-11.8383
▁klasifik	-11.8383
▁kompromis	-11.8383
▁lhostejn	-11.8383
▁menstruac	-11.8383
▁napodobova	-11.8383
▁nejhlubší	-11.8383
▁nevypadal	-11.8383
▁obsluh	-11.8383
▁orientac	-11.8383
▁porozumí	-11.8383
▁rajčat	-11.8383
▁rehabilitac	-11.8383
▁reportér	-11.8383
▁rozeznat	-11.8383
▁specialist	-11.8383
▁supravodič	-11.8383
▁tranzistor	-11.8383
▁čtverec	-11.8383
▁škatulk	-11.8383
jížděl	-11.8383
▁konstant	-11.8383
▁kreslený	-11.8383
▁objedná	-11.8383
▁optimaliz	-11.8383
▁uniknou	-11.8383
▁vysokoškolské	-11.8383
▁zachráněn	-11.8383
▁útočník	-11.8383
▁School	-11.8383
▁střeše	-11.8383
▁vytáhl	-11.8383
▁zaujat	-11.8383
▁nelegáln	-11.8383
▁uvolní	-11.8383
▁Doslov	-11.8383
▁Následuj	-11.8383
▁Turing	-11.8383
▁archiv	-11.8383
▁vyděšen	-11.8383
▁vězeň	-11.8383
▁sestřičk	-11.8383
▁spoléhá	-11.8383
▁vyléčit	-11.8383
▁hovězí	-11.8383
▁iPad	-11.8383
▁rozpínání	-11.8383
▁morálně	-11.8383
▁vyděs	-11.8383
▁koupeln	-11.8383
▁zachrání	-11.8383
▁mýlil	-11.8383
▁německý	-11.8383
▁Přemýšlím	-11.8383
▁Nelson	-11.8383
▁umožněn	-11.8383
▁stabiliz	-11.8383
▁Organizac	-11.8383
▁výbuch	-11.8383
▁uvěří	-11.8383
▁petic	-11.8383
▁otvor	-11.8383
▁Whit	-11.8383
▁pistol	-11.8383
▁bubn	-11.8383
▁ztráce	-11.8383
▁alarm	-11.8383
▁matoucí	-11.8383
▁určují	-11.8383
▁blesk	-11.8383
▁zamilovan	-11.8383
▁kapalin	-11.8383
▁zaútoči	-11.8384
▁přeložen	-11.8384
▁detekc	-11.8384
▁anatomi	-11.8384
▁aplikuj	-11.8385
▁Nevad	-11.8387
▁proměnliv	-11.8387
▁spálen	-11.8387
▁zasadi	-11.8388
▁málokd	-11.8388
▁Hrál	-11.8391
▁zvedá	-11.8398
▁otcov	-11.84
rozlišit	-11.8405
úvěr	-11.8426
▁cihl	-11.8468
▁Georg	-11.848
▁poslouž	-11.8488
▁přešl	-11.853
▁Uved	-11.8555
▁mozkovo	-11.8692
zapojují	-11.8722
▁Irák	-11.8725
▁přijed	-11.8746
▁modern	-11.8749
▁podvědom	-11.875
▁nenašl	-11.8789
▁vystupuj	-11.8805
▁Tvoř	-11.8859
▁jakýchkoli	-11.8904
▁intelekt	-11.8909
▁Kalifornsk	-11.8909
▁zpřístupni	-11.8909
▁1,2	-11.8909
▁Andrew	-11.8909
▁Brooklyn	-11.8909
▁CRISPR	-11.8909
▁Gándhí	-11.8909
▁Připomíná	-11.8909
▁Thajsk	-11.8909
▁Vyžaduj	-11.8909
▁World	-11.8909
▁atentát	-11.8909
▁biodiverzit	-11.8909
▁biopaliv	-11.8909
▁depresí	-11.8909
▁důmysln	-11.8909
▁enzym	-11.8909
▁expanz	-11.8909
▁globálně	-11.8909
▁hierarchi	-11.8909
▁intenzivně	-11.8909
▁investován	-11.8909
▁mládež	-11.8909
▁nainstalova	-11.8909
▁nejzákladnější	-11.8909
▁nejúspěšnější	-11.8909
▁nepřijateln	-11.8909
▁obsažen	-11.8909
▁ordinac	-11.8909
▁orientova	-11.8909
▁pedagog	-11.8909
▁přeživší	-11.8909
▁příslib	-11.8909
▁reprezentac	-11.8909
▁reproduktor	-11.8909
▁rozšiřova	-11.8909
▁skladatel	-11.8909
▁stvořit	-11.8909
▁vegetarián	-11.8909
▁velbloud	-11.8909
▁vstříc	-11.8909
▁vyhlídk	-11.8909
▁vyjadřova	-11.8909
▁vyjadřují	-11.8909
▁vyšetřování	-11.8909
▁vzpomeň	-11.8909
▁znásilněn	-11.8909
▁znázorněn	-11.8909
▁zázračn	-11.8909
▁černobíl	-11.8909
▁běloš	-11.8909
▁nepamatuj	-11.8909
▁profesí	-11.8909
▁provediteln	-11.8909
▁realizovat	-11.8909
▁úsvit	-11.8909
▁Melind	-11.8909
▁ilustruj	-11.8909
▁neškodn	-11.8909
▁republikán	-11.8909
▁seznámil	-11.8909
▁interagova	-11.8909
▁pouliční	-11.8909
▁divočin	-11.8909
▁genetik	-11.8909
▁přetváře	-11.8909
▁sušenk	-11.8909
▁zaplacen	-11.8909
▁bankovní	-11.8909
▁námořní	-11.8909
▁obhaj	-11.8909
▁předpojat	-11.8909
▁uchovává	-11.8909
▁zasažen	-11.8909
▁poloměr	-11.8909
▁vánoční	-11.8909
▁trapné	-11.8909
▁hýbe	-11.8909
▁embry	-11.8909
▁stříkačk	-11.8909
▁lákav	-11.8909
▁sobot	-11.8909
▁Naprost	-11.8909
▁pomůck	-11.8909
▁vyvážen	-11.8909
sběrač	-11.8909
▁povídal	-11.8909
▁koléb	-11.8909
▁usmíva	-11.8909
▁poskytován	-11.891
▁unikl	-11.891
▁zkratk	-11.891
▁postihuj	-11.891
▁krychl	-11.891
diskutovat	-11.891
▁oprávněn	-11.891
▁hornin	-11.891
▁Berlín	-11.8911
▁ničiv	-11.8911
▁odhaluje	-11.8912
▁slíbil	-11.8912
▁zatížen	-11.8913
▁odlišuj	-11.8914
▁ledničk	-11.8914
▁ložnic	-11.8915
▁potlačen	-11.8915
▁pomyslí	-11.8915
▁chlup	-11.8915
▁nepřemýšle	-11.8915
▁srpn	-11.8918
▁předčasn	-11.8925
▁kartáč	-11.8926
▁utekl	-11.8927
▁nenávidí	-11.8934
▁rezervac	-11.8999
ochopitelně	-11.9017
▁nepřijde	-11.907
▁mytologi	-11.9082
▁vypusti	-11.9316
příliš	-11.9327
▁Snaží	-11.9344
půjčit	-11.9368
▁rezerv	-11.937
▁měřiteln	-11.9445
▁Došl	-11.9451
▁příspěv	-11.9458
▁pohrom	-11.946
▁tasmánsk	-11.9464
▁žongl	-11.9464
▁Aljaš	-11.9464
▁Foundation	-11.9464
▁Kambodž	-11.9464
▁Kansas	-11.9464
▁Mahmoud	-11.9464
▁Michigan	-11.9464
▁Nejdůležitější	-11.9464
▁Vešker	-11.9464
▁Zipcar	-11.9464
▁badatel	-11.9464
▁chatrč	-11.9464
▁demonstrac	-11.9464
▁distribuova	-11.9464
▁fotoaparát	-11.9464
▁fundamentalism	-11.9464
▁helikoptér	-11.9464
▁humanitární	-11.9464
▁hřbet	-11.9464
▁ilustrac	-11.9464
▁kalendář	-11.9464
▁nejmocnější	-11.9464
▁nejnižší	-11.9464
▁nejznámější	-11.9464
▁orangutan	-11.9464
▁podezření	-11.9464
▁podvýživ	-11.9464
▁poštovní	-11.9464
▁privilegi	-11.9464
▁protoindické	-11.9464
▁průběžn	-11.9464
▁rozdělil	-11.9464
▁sloučenin	-11.9464
▁vzkvéta	-11.9464
▁vzpomněl	-11.9464
▁výcvik	-11.9464
▁zakřiven	-11.9464
▁zkonstruova	-11.9464
▁zkrácen	-11.9464
▁Jefferson	-11.9464
▁izraelsk	-11.9464
▁litrů	-11.9464
▁nepředvídateln	-11.9464
▁utrácí	-11.9464
▁Oscar	-11.9464
▁dopamin	-11.9464
▁mravenc	-11.9464
▁nežádoucí	-11.9464
▁zachraňova	-11.9464
▁přehodnoti	-11.9464
▁Jmenoval	-11.9464
▁Poslouchej	-11.9464
▁vzdušn	-11.9464
▁zlepšují	-11.9464
▁Původn	-11.9464
▁vyučování	-11.9465
▁navigac	-11.9465
▁hodlám	-11.9465
▁potvrzen	-11.9465
▁přídav	-11.9465
▁ponděl	-11.9465
▁trápí	-11.9465
▁údiv	-11.9465
uperhrdin	-11.9465
▁určil	-11.9465
▁producent	-11.9465
▁rozvinul	-11.9465
▁uchováva	-11.9465
▁rozezná	-11.9465
▁ovocn	-11.9465
▁pulz	-11.9465
▁antén	-11.9465
▁cenzur	-11.9465
▁kabin	-11.9465
▁korektn	-11.9465
▁Dieg	-11.9465
▁vykonává	-11.9466
▁šváb	-11.9466
▁Ztratil	-11.9466
▁odvozen	-11.9466
▁zářiv	-11.9466
▁semínk	-11.9467
▁mlýn	-11.9467
▁zasahuj	-11.9467
▁tatín	-11.9468
▁Podívám	-11.9468
▁vrtačk	-11.9468
▁přistupova	-11.947
▁výroč	-11.9471
zopakovat	-11.9496
▁radiac	-11.9503
těžuj	-11.9519
▁Nezálež	-11.9525
▁smýšle	-11.9606
▁městečk	-11.9678
▁mikroskopick	-11.9687
▁Brownov	-11.9788
inženýring	-11.9799
zajist	-11.9821
▁nepředstaviteln	-11.9928
▁posbíra	-11.9945
dávej	-11.9974
▁letectv	-11.9979
▁negativ	-11.9981
zabiják	-12.0039
stihnou	-12.0041
▁třináct	-12.0047
omáhají	-12.0049
▁Podíváte	-12.0053
▁rozsvíti	-12.0053
▁vyšetřova	-12.0053
reprezentuje	-12.0053
roctví	-12.0053
▁America	-12.0053
▁Bombaj	-12.0053
▁Centru	-12.0053
▁Edward	-12.0053
▁Mohamed	-12.0053
▁Přibliž	-12.0053
▁Warren	-12.0053
▁absorbuj	-12.0053
▁ambiciózní	-12.0053
▁američt	-12.0053
▁artefakt	-12.0053
▁australsk	-12.0053
▁bioluminiscen	-12.0053
▁bližší	-12.0053
▁celebrit	-12.0053
▁displej	-12.0053
▁finance	-12.0053
▁frustrac	-12.0053
▁guvernér	-12.0053
▁hurikán	-12.0053
▁inkubátor	-12.0053
▁katedrál	-12.0053
▁knoflík	-12.0053
▁kolaborativní	-12.0053
▁management	-12.0053
▁nestabilní	-12.0053
▁neurogenez	-12.0053
▁ohrožuje	-12.0053
▁ovládnou	-12.0053
▁plankton	-12.0053
▁podpůrn	-12.0053
▁předpovídat	-12.0053
▁rekonstrukc	-12.0053
▁revolucí	-12.0053
▁rukáv	-12.0053
▁simulátor	-12.0053
▁skříňk	-12.0053
▁středoškolsk	-12.0053
▁telekomunika	-12.0053
▁urbanizac	-12.0053
▁vyhýbá	-12.0053
▁vězňov	-12.0053
▁zachycuje	-12.0053
▁zaneprázdněn	-12.0053
▁zastoupen	-12.0053
▁zdvořil	-12.0053
▁znečišť	-12.0053
▁zodpovězen	-12.0053
▁zpoždění	-12.0053
▁žraloci	-12.0053
▁Luther	-12.0053
▁Odysse	-12.0053
▁Wright	-12.0053
▁impéri	-12.0053
▁kongres	-12.0053
▁kreslené	-12.0053
▁peněžen	-12.0053
▁podmořsk	-12.0053
▁pohlcuj	-12.0053
▁polštář	-12.0053
▁průvodce	-12.0053
▁ubrous	-12.0053
▁vyhynutí	-12.0053
▁výtvor	-12.0053
▁Clinton	-12.0053
▁Dospěl	-12.0053
▁hektar	-12.0053
▁kuřat	-12.0053
▁odmítnut	-12.0053
▁prozradi	-12.0053
▁Bassem	-12.0053
▁cloud	-12.0053
▁ignoruj	-12.0053
▁Řeck	-12.0053
▁personál	-12.0053
▁vozíčk	-12.0053
▁bonus	-12.0053
▁puls	-12.0053
▁zázemí	-12.0053
▁Koupil	-12.0053
▁protichůdn	-12.0053
▁pilulk	-12.0053
▁inovova	-12.0053
▁zobrazi	-12.0053
▁Zimba	-12.0053
▁stěhova	-12.0053
▁zpochybňova	-12.0053
▁cedul	-12.0053
▁Studoval	-12.0053
▁říkej	-12.0053
▁realistick	-12.0053
▁požaduj	-12.0054
▁uznává	-12.0055
▁zahraj	-12.0055
▁Dánsk	-12.0055
▁krabičk	-12.0055
▁spadnou	-12.0055
▁Obrovsk	-12.0056
▁generova	-12.0056
▁ponížen	-12.0056
▁vysušen	-12.0057
▁Psycho	-12.0059
▁sítnic	-12.0059
▁kuličk	-12.006
▁prádl	-12.0061
▁koncepc	-12.0062
▁přenesen	-12.0063
▁nevhodn	-12.0071
stupňov	-12.0084
▁přijateln	-12.026
▁měsíčn	-12.0262
▁namalova	-12.0323
pohání	-12.0397
▁zvláda	-12.044
▁čtvereč	-12.0501
▁literatu	-12.0511
▁digitáln	-12.0523
▁stvořen	-12.0577
▁pozitiv	-12.0642
▁Archiméd	-12.0678
▁přistěhova	-12.0678
▁Afgán	-12.0678
▁Edinburg	-12.0678
▁Joseph	-12.0678
▁Konkrétn	-12.0678
▁McGowan	-12.0678
▁Movember	-12.0678
▁Prezident	-12.0678
▁Somálsk	-12.0678
▁Zvládn	-12.0678
▁aktualizova	-12.0678
▁analyzoval	-12.0678
▁asfalt	-12.0678
▁atraktivní	-12.0678
▁bezvýznamn	-12.0678
▁celoživotní	-12.0678
▁definoval	-12.0678
▁diktátor	-12.0678
▁děvče	-12.0678
▁festival	-12.0678
▁flexibilní	-12.0678
▁intelektuálně	-12.0678
▁korespond	-12.0678
▁kvalifikovan	-12.0678
▁megawatt	-12.0678
▁mikrovln	-12.0678
▁naprogramován	-12.0678
▁narkoman	-12.0678
▁neobjevil	-12.0678
▁neurochirurg	-12.0678
▁obydlí	-12.0678
▁ojediněl	-12.0678
▁okouzlující	-12.0678
▁peněžní	-12.0678
▁poznamena	-12.0678
▁revoluční	-12.0678
▁rezistentní	-12.0678
▁rozšiřování	-12.0678
▁světoobčan	-12.0678
▁trápení	-12.0678
▁upozorněn	-12.0678
▁vyřazen	-12.0678
▁vzkříšen	-12.0678
▁zaujmou	-12.0678
▁zdvojnásobí	-12.0678
▁zemědělc	-12.0678
▁zkorumpovan	-12.0678
▁znovuobjev	-12.0678
▁úchvatné	-12.0678
▁žraločí	-12.0678
▁Alexandr	-12.0678
▁Vermeer	-12.0678
▁deštný	-12.0678
▁jmenovat	-12.0678
▁nepohodln	-12.0678
▁nesnaží	-12.0678
▁pamatoval	-12.0678
▁popřemýšl	-12.0678
▁terapeut	-12.0678
▁zahrnoval	-12.0678
▁zaměstnavatel	-12.0678
▁zmenšuje	-12.0678
▁nepomohl	-12.0678
▁nevšiml	-12.0678
▁nezapomeň	-12.0678
▁profese	-12.0678
▁sterilní	-12.0678
▁zápach	-12.0678
▁Hitler	-12.0678
▁třás	-12.0678
▁uplatnit	-12.0678
q	-12.9176
Č	-12.9224
♫	-13.5518
!	-13.5519
“	-13.552
–	-13.5521
—	-13.5522
(	-13.5523
)	-13.5524
:	-13.5525
?	-13.5526
&	-13.5527
