<unk>	0
<s>	0
</s>	0
▁	-1.95447
▁,	-3.05587
的	-3.41906
▁。	-3.47526
了	-4.8944
是	-4.95567
在	-5.0115
和	-5.24391
▁我	-5.32215
▁我们	-5.48926
有	-5.52766
我	-5.62154
一个	-5.6565
我们	-5.68832
上	-5.74473
不	-5.85628
中	-5.9
人	-5.94989
会	-6.05239
到	-6.0792
你	-6.09878
说	-6.12188
来	-6.14008
这个	-6.18677
这些	-6.1913
▁在	-6.2148
对	-6.22982
一	-6.2392
里	-6.24207
被	-6.24785
他们	-6.24922
用	-6.26393
▁这	-6.28291
去	-6.28563
▁他们	-6.30035
地	-6.31623
▁你	-6.36509
它	-6.37071
可以	-6.38208
t	-6.38387
;	-6.38686
时	-6.41272
都	-6.42148
大	-6.42652
就	-6.43799
要	-6.44988
他	-6.52393
能	-6.54285
年	-6.5481
为	-6.55937
从	-6.57237
▁他	-6.60634
quo	-6.63912
把	-6.64512
▁这是	-6.64653
▁但	-6.65267
这	-6.6626
着	-6.66642
将	-6.67671
与	-6.67764
▁它	-6.68894
▁所以	-6.6969
很	-6.70595
出	-6.71144
▁但是	-6.71898
开始	-6.72354
也	-6.72975
就是	-6.74611
想	-6.77283
做	-6.77531
下	-6.78115
过	-6.79175
性	-6.80085
没有	-6.81034
一些	-6.81383
最	-6.82565
的人	-6.84078
▁笑声	-6.86228
▁而	-6.87252
子	-6.87326
个	-6.87352
看	-6.87956
▁因为	-6.8835
那些	-6.88391
小	-6.88862
▁.	-6.88946
更	-6.88988
好	-6.90716
非常	-6.9128
多	-6.91309
呢	-6.94051
的时候	-6.94312
于	-6.94629
所	-6.97375
问题	-6.97456
得	-6.97914
者	-6.9846
已经	-6.99725
后	-7.06008
她	-7.0601
▁然后	-7.07122
需要	-7.09107
▁现在	-7.11367
自己	-7.13679
比	-7.14161
工作	-7.16362
水	-7.16501
一种	-7.18374
点	-7.18816
手	-7.1888
知道	-7.19161
它们	-7.19562
这种	-7.21772
一样	-7.21917
你们	-7.22282
研究	-7.22505
还	-7.23014
世界	-7.23032
而	-7.24454
人们	-7.25165
什么	-7.25313
那	-7.27165
使用	-7.28125
▁如果	-7.28286
向	-7.28721
吗	-7.29617
现在	-7.30307
给	-7.30315
▁这些	-7.30993
们	-7.31087
能够	-7.31342
生	-7.31417
又	-7.31752
我们的	-7.32139
不是	-7.32994
▁这个	-7.33958
我的	-7.34065
发现	-7.34809
可	-7.35399
很多	-7.3546
前	-7.35779
看到	-7.36245
▁掌声	-7.36785
斯	-7.3737
头	-7.3817
▁她	-7.3844
▁而且	-7.38619
人类	-7.38766
以	-7.39407
天	-7.39552
可能	-7.39608
高	-7.39726
▁我想	-7.40439
▁如果你	-7.40543
无	-7.40853
改变	-7.41139
如何	-7.4114
▁并且	-7.42059
起	-7.42759
事	-7.42928
像	-7.42937
国家	-7.43704
家	-7.4405
这样	-7.44334
成	-7.44455
之	-7.4539
新	-7.46593
认为	-7.46652
让	-7.47457
进行	-7.47549
▁它们	-7.47965
开	-7.48779
都是	-7.49059
系统	-7.49357
力	-7.50082
心	-7.51386
或	-7.51585
▁那	-7.5199
时间	-7.52045
只	-7.52839
化	-7.54237
社会	-7.54462
问	-7.54584
1	-7.55219
尔	-7.55734
特	-7.5683
体	-7.57152
长	-7.58138
公司	-7.58756
光	-7.58889
你的	-7.59587
是一个	-7.60204
正	-7.6021
技术	-7.60405
e	-7.61164
通过	-7.61426
▁并	-7.61495
内	-7.61638
设计	-7.6181
发	-7.62012
拉	-7.62668
动	-7.62877
▁从	-7.63745
那个	-7.64142
车	-7.64419
正在	-7.64752
不同	-7.65093
的东西	-7.65406
完全	-7.65456
3	-7.6673
这样的	-7.67197
只是	-7.67469
▁或者	-7.68518
.	-7.68589
再	-7.68836
美国	-7.69737
其他	-7.70138
克	-7.70201
之后	-7.70447
▁当	-7.70757
面	-7.71461
的是	-7.71763
学	-7.72155
行	-7.72207
带	-7.72215
吧	-7.72423
20	-7.73018
2	-7.73186
所有	-7.73258
东西	-7.73315
两	-7.73412
▁那么	-7.73827
关于	-7.73981
不会	-7.74011
却	-7.74164
任何	-7.74553
真的	-7.74676
得到	-7.75228
选择	-7.75243
▁因此	-7.7553
的地方	-7.75758
孩子	-7.75999
线	-7.76142
他们的	-7.76146
a	-7.76441
分	-7.76713
来说	-7.76887
一下	-7.76959
跟	-7.76975
爱	-7.77205
不能	-7.77433
外	-7.78122
▁-	-7.78236
成为	-7.7903
三	-7.7968
自	-7.79714
信息	-7.79872
▁以及	-7.79891
o	-7.8012
决定	-7.8047
▁还有	-7.81141
还是	-7.81737
希望	-7.81829
海	-7.82018
中的	-7.82292
使	-7.8351
组织	-7.84071
写	-7.8409
▁当然	-7.84392
并不	-7.84602
▁你们	-7.84683
声	-7.8486
政府	-7.8502
其	-7.85182
走	-7.86219
▁就是	-7.86363
想要	-7.86418
叫	-7.86602
名	-7.86733
并	-7.86908
起来	-7.87039
太	-7.87193
城市	-7.87287
的问题	-7.87371
回	-7.88694
加	-7.88942
德	-7.89458
种	-7.89735
花	-7.8977
数据	-7.89834
细胞	-7.90019
当	-7.90218
了解	-7.90338
应该	-7.90346
经济	-7.90479
拥有	-7.91279
重	-7.91451
打	-7.91648
器	-7.91691
电	-7.92645
事情	-7.92713
不同的	-7.93157
科学	-7.93186
一起	-7.9324
来自	-7.93283
整个	-7.93413
发展	-7.9374
没	-7.93977
的话	-7.94445
钱	-7.9445
的事情	-7.94496
同	-7.94589
▁这就是	-7.94604
有一个	-7.95071
发生	-7.95199
自己的	-7.95278
讲	-7.95506
之前	-7.95585
才	-7.95612
图	-7.95614
▁事实上	-7.95714
听	-7.95855
帮助	-7.9627
这一	-7.97113
马	-7.97127
理解	-7.97296
画	-7.9738
大家	-7.97724
▁你可以	-7.97819
实	-7.98351
4	-7.98616
是个	-7.98677
数	-7.98679
明	-7.9906
觉得	-7.99199
s	-7.99214
机	-7.99338
道	-7.99366
生活	-7.99444
利	-7.9945
日	-7.99479
由	-7.99722
无法	-8.00269
度	-8.00595
▁谢谢	-8.00702
先	-8.01076
▁就像	-8.01535
10	-8.01793
动物	-8.02054
19	-8.02073
方式	-8.02174
就会	-8.02476
口	-8.02709
的方式	-8.02742
路	-8.02973
5	-8.03115
万	-8.03188
到了	-8.03591
量	-8.03739
出来	-8.03767
本	-8.04006
怎么	-8.04023
法	-8.05038
i	-8.05103
教育	-8.05651
物	-8.05685
环境	-8.05709
相信	-8.05826
身	-8.06077
学习	-8.06093
大脑	-8.06192
真正	-8.06278
入	-8.06306
或者	-8.06624
▁人们	-8.06976
变	-8.06986
网络	-8.071
影响	-8.07645
如此	-8.07664
上的	-8.08024
远	-8.08235
▁来	-8.08239
创造	-8.08287
找到	-8.0853
对于	-8.09254
所有的	-8.09277
了一个	-8.0936
岁	-8.09483
是否	-8.09601
月	-8.09675
作	-8.10018
格	-8.10184
一次	-8.10374
运动	-8.1069
他的	-8.10939
全球	-8.10979
非	-8.11124
真	-8.11301
这里	-8.11319
等	-8.11321
A	-8.11527
感	-8.11529
两个	-8.1153
▁比如	-8.11662
次	-8.12268
解决	-8.12324
方	-8.12745
非洲	-8.12842
新的	-8.12888
一点	-8.1303
6	-8.13063
流	-8.13184
生命	-8.13422
C	-8.13509
受	-8.13891
▁如果我们	-8.13905
-	-8.14261
D	-8.14538
此	-8.14966
卡	-8.15133
做的	-8.15149
今天	-8.15268
放	-8.15274
▁我们可以	-8.15788
地方	-8.15801
▁而是	-8.15945
生物	-8.16155
科技	-8.16182
片	-8.16351
建筑	-8.16441
▁就	-8.16576
许多	-8.16691
难	-8.16884
条	-8.16935
提供	-8.17018
四	-8.17122
场	-8.17196
那里	-8.1723
老	-8.17259
让我	-8.17732
书	-8.17774
故事	-8.17844
把它	-8.17872
十	-8.18212
女性	-8.18351
P	-8.18371
安全	-8.18475
美	-8.18484
在这里	-8.18635
必须	-8.18744
利用	-8.18918
▁当我	-8.1915
电脑	-8.19413
低	-8.198
▁所以我	-8.20078
吃	-8.20134
y	-8.20267
全	-8.20305
主	-8.20486
定	-8.20595
思考	-8.20883
方法	-8.21023
病	-8.21313
地球	-8.21329
布	-8.21402
门	-8.2157
基	-8.21868
令人	-8.22149
▁这是一个	-8.22199
那样	-8.22202
7	-8.22286
音乐	-8.22441
自然	-8.22585
一直	-8.22632
8	-8.22715
展示	-8.22718
▁但我	-8.22754
年前	-8.22892
▁我认为	-8.23185
因为	-8.23317
身体	-8.23348
控制	-8.23352
尼	-8.23408
将会	-8.23764
另一个	-8.24143
间	-8.2417
相	-8.24226
喜欢	-8.24262
的故事	-8.24675
进	-8.24842
为什么	-8.24945
也是	-8.25042
热	-8.25136
实验	-8.25243
有人	-8.25273
健康	-8.25732
国	-8.25791
之一	-8.25884
总	-8.2602
感到	-8.26068
五	-8.26246
是什么	-8.26373
只有	-8.26871
个人	-8.26931
想象	-8.27032
尝试	-8.2723
活动	-8.27344
啊	-8.27542
存在	-8.27706
语	-8.27719
极	-8.27914
达	-8.28011
处	-8.28313
▁...	-8.28368
S	-8.28506
转	-8.28756
地区	-8.28913
几	-8.29151
艺术	-8.2922
文化	-8.29537
《	-8.29853
提	-8.29889
合作	-8.29892
部	-8.30028
▁不过	-8.30111
这么	-8.30638
教	-8.3126
快	-8.31431
成功	-8.31452
取	-8.31489
买	-8.3153
接受	-8.32072
▁这样	-8.32136
一位	-8.32221
进入	-8.32229
率	-8.32327
世纪	-8.3233
该	-8.32422
项目	-8.32563
方面	-8.32604
制造	-8.32771
米	-8.32865
▁为什么	-8.32922
保护	-8.33086
性的	-8.33155
50	-8.33299
是在	-8.33322
甚至	-8.33382
▁这种	-8.33471
治疗	-8.33593
部分	-8.33743
制	-8.34115
变得	-8.34329
计划	-8.34344
更多	-8.34353
风	-8.34396
还有	-8.34563
▁也	-8.34639
继续	-8.34641
视频	-8.34817
学校	-8.3483
▁当你	-8.35103
叫做	-8.35212
最后	-8.35501
儿	-8.35522
每	-8.35688
位	-8.35715
出现	-8.35791
半	-8.35863
解释	-8.35928
亿	-8.361
过去	-8.36168
指	-8.3632
气	-8.36439
西	-8.36495
感觉	-8.36778
眼	-8.36838
回到	-8.36853
▁然而	-8.36929
球	-8.37212
死	-8.37403
语言	-8.37644
▁所以我们	-8.37774
大学	-8.37787
意	-8.37916
第一个	-8.37923
产生	-8.37973
让我们	-8.37997
E	-8.38032
并不是	-8.38309
理	-8.38367
市场	-8.3837
模式	-8.38446
▁那是	-8.38575
深	-8.38585
9	-8.38664
重新	-8.38737
▁也许	-8.3874
飞	-8.38858
合	-8.38971
不知道	-8.39244
及	-8.39332
er	-8.39452
曾	-8.39462
领域	-8.39465
空间	-8.3961
安	-8.39885
类	-8.39916
纳	-8.39917
印度	-8.40009
空	-8.40152
▁以	-8.40277
是因为	-8.40301
那么	-8.41046
笑	-8.41129
重要	-8.41202
层	-8.41203
政治	-8.41276
实现	-8.41798
如	-8.418
事实	-8.4192
变成	-8.42092
意识到	-8.42311
行为	-8.4236
掉	-8.42418
疾病	-8.42483
女	-8.42504
听到	-8.42582
完成	-8.42734
员	-8.42857
中国	-8.42886
结果	-8.43167
作为	-8.43237
M	-8.4341
建立	-8.43464
罗	-8.43526
里面	-8.43745
努力	-8.43777
B	-8.43822
各种	-8.43838
之间	-8.43862
看看	-8.44016
山	-8.44294
处理	-8.4457
挑战	-8.44749
它的	-8.45123
别	-8.45206
信	-8.45347
中心	-8.45666
世界上	-8.45837
形	-8.45859
u	-8.4617
住	-8.46184
朋友	-8.46339
讨论	-8.4639
十分	-8.46429
确实	-8.46526
▁让我们	-8.46661
以及	-8.46675
公	-8.46822
已	-8.46847
有些	-8.4708
30	-8.47225
应	-8.47338
现实	-8.47374
an	-8.47447
▁通过	-8.47481
▁我们需要	-8.47489
▁实际上	-8.47565
怎样	-8.47594
至	-8.48112
基因	-8.48137
机器人	-8.48357
管	-8.48579
生产	-8.48753
变化	-8.48786
看起来	-8.48866
近	-8.48904
几乎	-8.49043
社区	-8.4935
关系	-8.49572
自由	-8.49594
才能	-8.49666
病人	-8.49865
医生	-8.49886
▁那些	-8.49909
鱼	-8.50062
步	-8.50094
强	-8.50166
▁当我们	-8.50548
关注	-8.50562
少	-8.50585
I	-8.50671
都有	-8.50817
▁对于	-8.50881
时代	-8.51079
照	-8.51306
白	-8.51426
产品	-8.51447
制作	-8.51449
电影	-8.5149
更加	-8.51532
▁那就是	-8.51596
宇宙	-8.51614
便	-8.51635
见	-8.51665
TED	-8.51945
孩子们	-8.52005
做出	-8.52045
巴	-8.52217
▁你知道	-8.52289
自我	-8.52295
反	-8.52483
越	-8.52573
传	-8.52646
大约	-8.52667
当时	-8.52915
脑	-8.52943
就能	-8.52946
读	-8.52967
结构	-8.53003
食物	-8.53197
战争	-8.53359
边	-8.53467
想到	-8.53765
做了	-8.54203
总是	-8.54384
单	-8.54469
就可以	-8.54483
▁笑	-8.54617
号	-8.5464
汽车	-8.54693
区域	-8.54857
同样	-8.5486
的方法	-8.54966
期	-8.55055
▁我在	-8.5506
更多的	-8.55105
T	-8.55218
特别	-8.55238
的事	-8.55292
解	-8.55327
第一次	-8.55453
▁甚至	-8.55841
想法	-8.55907
玩	-8.55993
家庭	-8.56117
获得	-8.56174
服务	-8.56237
情	-8.5657
千	-8.5664
游戏	-8.56714
文	-8.56778
▁因为我	-8.56791
死亡	-8.56825
活	-8.5693
树	-8.56938
简单	-8.56958
年代	-8.57172
演讲	-8.57216
机器	-8.57258
维	-8.57628
拿	-8.57646
离	-8.57705
都会	-8.57747
b	-8.57905
有关	-8.58035
资源	-8.58081
清	-8.58151
超过	-8.58233
未来	-8.58259
救	-8.58323
n	-8.58379
显示	-8.58575
在一起	-8.58871
原	-8.58994
选	-8.59045
寻找	-8.59115
主要	-8.59357
模型	-8.59455
星	-8.59548
原因	-8.59616
联系	-8.59647
p	-8.59665
冰	-8.59818
有很多	-8.59967
商	-8.60168
▁同时	-8.60211
区	-8.60253
ar	-8.60442
权	-8.60565
通	-8.60779
质	-8.60786
分享	-8.60848
其实	-8.61169
身上	-8.61228
干	-8.61293
H	-8.61482
机构	-8.61621
行动	-8.61674
学生	-8.61682
▁因为我们	-8.61699
药	-8.61814
的工作	-8.61836
最终	-8.61894
倍	-8.61953
式	-8.62339
尽	-8.62415
一切	-8.62499
观察	-8.62586
▁这里	-8.62628
海洋	-8.63047
g	-8.63106
▁最后	-8.63174
她们	-8.63181
装	-8.63212
推	-8.63298
历史	-8.6342
立	-8.63492
别人	-8.63525
支持	-8.6356
通常	-8.63571
时候	-8.6366
的时间	-8.63778
下来	-8.63848
▁我要	-8.64024
有点	-8.64062
六	-8.64232
奇	-8.64246
台	-8.64449
▁没有	-8.64509
▁而不是	-8.64593
比较	-8.64662
音	-8.64763
R	-8.6478
曾经	-8.64839
▁于是	-8.64853
造	-8.64899
一定	-8.64929
因	-8.64961
进化	-8.64989
波	-8.65007
并没有	-8.65071
平	-8.65094
工	-8.65201
样	-8.65281
战	-8.65285
神经	-8.65289
能力	-8.65351
金	-8.65371
实际上	-8.65398
同时	-8.65474
往	-8.6549
阿	-8.65755
15	-8.65799
N	-8.65942
理论	-8.65976
词	-8.66
她的	-8.66047
落	-8.66175
▁为了	-8.66216
以前	-8.66241
创新	-8.66312
网	-8.66425
病毒	-8.66439
火	-8.66795
科	-8.67059
▁再	-8.67134
▁我们在	-8.67283
二	-8.67415
亚	-8.67511
大概	-8.67536
其它	-8.67823
结束	-8.67839
有个	-8.67858
答案	-8.67876
谈	-8.67927
有了	-8.68023
这个问题	-8.682
早	-8.6841
的想法	-8.6849
▁你会	-8.68557
是我们	-8.68587
计算机	-8.68794
知识	-8.68806
▁其实	-8.6894
▁他说	-8.69039
品	-8.69061
女孩	-8.6918
投资	-8.6931
有着	-8.69333
的一个	-8.69365
是如何	-8.69412
植物	-8.69444
神	-8.69453
其中	-8.69518
板	-8.69602
情况	-8.69664
也许	-8.70036
切	-8.7006
微	-8.70066
这是	-8.70134
最近	-8.702
▁B	-8.70268
假	-8.70282
达到	-8.70283
一张	-8.70287
现	-8.70467
分子	-8.70497
一条	-8.7082
复杂	-8.7088
数字	-8.71071
美元	-8.71216
州	-8.71254
古	-8.71299
举	-8.71671
材料	-8.71745
养	-8.71922
约	-8.71935
考虑	-8.72123
是一种	-8.72178
▁我觉得	-8.72266
纸	-8.72721
在那里	-8.72742
▁但是我	-8.7283
观众	-8.73034
拍	-8.73205
色	-8.73283
找	-8.73429
除	-8.73461
男人	-8.73509
坐	-8.73515
另一	-8.73621
调	-8.73693
哈	-8.73746
女人	-8.73857
跑	-8.73896
巨大的	-8.73916
乐	-8.73927
里的	-8.73944
人口	-8.7395
的孩子	-8.73976
▁也就是	-8.73996
增长	-8.74037
接	-8.74079
声音	-8.7424
些	-8.74264
论	-8.74315
倒	-8.74332
仍然	-8.7434
m	-8.7468
过程	-8.7469
每天	-8.74846
用来	-8.74892
民主	-8.74898
目标	-8.75105
能源	-8.75137
给我	-8.75287
不断	-8.75313
谁	-8.75475
人的	-8.75671
▁它是	-8.75678
经历	-8.75813
明白	-8.75845
面对	-8.75956
多少	-8.7629
都在	-8.76293
么	-8.76336
▁我的	-8.76391
夫	-8.76396
型	-8.76444
的生活	-8.76479
科学家	-8.76491
0	-8.76491
一只	-8.76525
目前	-8.76577
为了	-8.76674
工具	-8.76753
每个	-8.76774
手机	-8.77032
代表	-8.7705
奥	-8.77293
关键	-8.77296
则	-8.77306
参与	-8.77324
局	-8.77427
排	-8.77453
测试	-8.77507
字	-8.7774
百	-8.77775
三个	-8.77884
也有	-8.77889
▁或	-8.77967
首	-8.78156
兰	-8.78196
连接	-8.78201
大部分	-8.78347
▁尽管	-8.78356
很好	-8.78391
实验室	-8.78423
试图	-8.78528
满	-8.78564
业	-8.78757
节	-8.7878
的世界	-8.78828
一年	-8.78996
话	-8.79133
失	-8.79159
分钟	-8.79213
放在	-8.79265
具有	-8.79293
设备	-8.79421
意义	-8.79604
作品	-8.79685
我想	-8.79694
移动	-8.79749
意识	-8.79831
▁我会	-8.79836
几个	-8.79852
探索	-8.79885
记录	-8.79996
件	-8.80005
张	-8.80042
收	-8.80055
d	-8.80622
让人	-8.80797
木	-8.80866
同样的	-8.80994
▁请	-8.81108
连	-8.81153
看见	-8.81292
基本	-8.81306
就像	-8.8132
照片	-8.81329
萨	-8.81435
七	-8.81592
增加	-8.81924
表	-8.81925
那种	-8.82031
儿童	-8.82075
称	-8.82142
在这	-8.8215
建造	-8.82297
▁但我们	-8.823
言	-8.82465
组	-8.82497
F	-8.82537
常	-8.82538
▁鼓掌	-8.82656
那时	-8.82947
现象	-8.82955
坏	-8.83157
谈论	-8.83351
生活在	-8.83411
带来	-8.83457
证明	-8.83512
图片	-8.83609
母亲	-8.83737
▁关于	-8.83833
一天	-8.83835
▁首先	-8.83884
▁虽然	-8.83993
也会	-8.84036
告诉我	-8.84044
正是	-8.84116
相当	-8.84123
弹	-8.84131
▁但这	-8.84243
直接	-8.84342
k	-8.84368
准备	-8.8443
反应	-8.84833
形式	-8.84846
保持	-8.84945
回答	-8.84952
很难	-8.84994
告诉	-8.85234
40	-8.85234
油	-8.85252
▁这是我	-8.85374
周	-8.85383
每个人都	-8.85436
算	-8.85469
管理	-8.85472
南	-8.85687
观	-8.85704
机会	-8.85778
本身	-8.85865
媒体	-8.8592
仅仅	-8.86161
事物	-8.86255
群	-8.86293
交流	-8.86299
▁我知道	-8.8631
形成	-8.86343
皮	-8.86389
很多人	-8.86509
块	-8.8656
药物	-8.86617
八	-8.86742
物种	-8.86787
▁让	-8.86823
建	-8.86846
迷	-8.86849
▁我说	-8.8688
游	-8.86943
跳	-8.8723
的一部分	-8.87387
迪	-8.87405
▁例如	-8.87408
运	-8.87438
要求	-8.87459
不再	-8.87534
G	-8.87557
100	-8.87592
共同	-8.876
等等	-8.87638
船	-8.8788
交	-8.88012
超	-8.88087
修	-8.88214
石	-8.88273
应用	-8.88309
费	-8.88435
▁好吧	-8.88452
in	-8.88589
L	-8.88598
未	-8.88667
到底	-8.88686
好的	-8.88772
方向	-8.88784
最大的	-8.88851
发明	-8.88971
军	-8.88973
根	-8.89052
草	-8.89081
真正的	-8.89101
造成	-8.89148
每一个	-8.89157
关	-8.89317
受到	-8.89321
食	-8.89323
经	-8.89359
视	-8.89448
派	-8.89584
站	-8.89612
全世界	-8.89691
当地	-8.89843
温	-8.89884
公共	-8.89947
也可以	-8.89973
功能	-8.89977
使得	-8.90056
双	-8.90064
界	-8.90089
减少	-8.90287
骨	-8.9037
的原因	-8.9056
的声音	-8.90602
▁直到	-8.90615
团队	-8.90623
和我	-8.90805
事件	-8.90806
商业	-8.90807
上面	-8.90883
数学	-8.90916
en	-8.91079
持续	-8.91341
院	-8.91348
大的	-8.914
做什么	-8.91444
穿	-8.91769
每年	-8.91816
危险	-8.91824
飞机	-8.91879
英国	-8.91951
计算	-8.92046
产	-8.92052
告诉你	-8.9231
素	-8.92335
沙	-8.92344
不需要	-8.92395
c	-8.92455
血	-8.92496
最好的	-8.92597
例	-8.9261
O	-8.92696
知	-8.92757
愿意	-8.92764
例子	-8.92821
惊	-8.92854
这样做	-8.92892
坐在	-8.9296
有趣的	-8.93028
开发	-8.93039
电话	-8.93052
亲	-8.934
症	-8.93414
在于	-8.9352
意味着	-8.93623
的人们	-8.93636
错误	-8.93638
on	-8.937
一个人	-8.93762
某些	-8.93765
▁如果我	-8.93883
出了	-8.93942
经常	-8.93947
唯一	-8.93953
停	-8.94069
父母	-8.94089
东	-8.94236
欧洲	-8.94288
癌症	-8.9429
象	-8.94396
不得不	-8.94484
留	-8.9461
12	-8.94611
医疗	-8.94643
周围	-8.94649
让他们	-8.94759
精	-8.94791
基本上	-8.9483
的小	-8.94926
可能会	-8.94954
黑	-8.95034
认识	-8.95271
标	-8.95307
▁然后我	-8.95323
脚	-8.9536
办法	-8.95443
互联网	-8.95541
困难	-8.95546
只能	-8.95704
世	-8.95803
拍摄	-8.96088
集	-8.961
电视	-8.96155
传统	-8.96203
物质	-8.96298
足够	-8.96342
断	-8.96411
程	-8.96492
会有	-8.96594
价值	-8.96611
丝	-8.96625
离开	-8.96739
诺	-8.96808
▁我也	-8.9684
问题是	-8.96868
角	-8.96879
杀	-8.97016
我们可以	-8.97056
刚刚	-8.97152
是我	-8.97177
然	-8.97214
错	-8.9727
预测	-8.97364
代	-8.97473
市	-8.97524
给你	-8.97586
▁只有	-8.97639
分析	-8.97734
表达	-8.97871
▁像	-8.98049
完	-8.98088
小时	-8.98289
肯定	-8.98294
在一个	-8.98331
▁我们就	-8.98335
第一	-8.98491
不到	-8.98529
笔	-8.98654
手术	-8.98685
的国家	-8.98709
如果	-8.98719
级	-8.98777
▁即使	-8.9878
▁但是我们	-8.98899
核	-8.98967
歌	-8.98997
源	-8.99133
网站	-8.99242
▁我们有	-8.99336
结	-8.99343
看到的	-8.99387
冷	-8.994
某种	-8.9943
提出	-8.99478
这么做	-8.99681
下面	-8.9971
河	-8.99747
▁在我	-8.99943
传播	-8.99974
顶	-9.00069
▁我们要	-9.00095
担心	-9.00169
实际	-9.00266
圣	-9.00312
红	-9.00326
不可	-9.00419
l	-9.00598
大多数	-9.00684
请	-9.00716
似乎	-9.00724
老师	-9.00744
作用	-9.00809
▁其中	-9.00822
我在	-9.00877
风险	-9.00916
过程中	-9.00957
来到	-9.00963
更好的	-9.00981
报	-9.0113
收入	-9.01142
英里	-9.012
发生了	-9.01209
零	-9.01278
看着	-9.0129
让你	-9.01388
岛	-9.01471
地图	-9.01574
卖	-9.01628
不可能	-9.01788
林	-9.01797
18	-9.01833
导	-9.01878
这一点	-9.01962
击	-9.02139
发生在	-9.02181
不仅	-9.02271
程度	-9.02289
密	-9.02364
的数据	-9.02406
根本	-9.02527
一项	-9.02528
有什么	-9.02604
其他人	-9.02735
年的	-9.02811
百分之	-9.02834
精神	-9.02916
鲁	-9.03028
DNA	-9.03028
宗教	-9.03029
室	-9.03062
200	-9.03091
是由	-9.03094
毛	-9.03222
▁M	-9.033
任务	-9.03421
▁我希望	-9.03475
记	-9.03483
值得	-9.03694
▁是的	-9.03777
塔	-9.03808
狗	-9.03808
送	-9.03825
的信息	-9.03853
以后	-9.03919
正常	-9.04066
▁我们必须	-9.04154
民	-9.04215
r	-9.04245
领	-9.04327
牛	-9.04394
国际	-9.04406
房	-9.04546
恐惧	-9.04595
根据	-9.04601
新闻	-9.04646
▁正如	-9.04744
加入	-9.04831
▁美国	-9.04864
法律	-9.04904
▁或是	-9.05056
暴力	-9.05197
支	-9.05276
▁而我	-9.05287
越来越	-9.05343
经过	-9.05365
信号	-9.05423
的研究	-9.05527
雷	-9.05587
一段	-9.05634
90	-9.05768
圈	-9.05787
石油	-9.05804
帮	-9.0587
▁不是	-9.05885
土	-9.06049
定义	-9.0606
▁我就	-9.06088
▁让我	-9.06187
毒	-9.06223
人生	-9.06345
调查	-9.06402
压	-9.06526
▁接着	-9.06529
换	-9.06547
服	-9.06668
发生的	-9.06696
的照片	-9.06797
说明	-9.06834
百万	-9.06882
不仅仅是	-9.06913
妇女	-9.07
▁我们也	-9.07083
夜	-9.07185
伊	-9.07192
▁非常感谢	-9.07408
遇到	-9.07641
绝	-9.07681
一般	-9.077
改变了	-9.07759
塞	-9.07805
阶段	-9.07807
料	-9.07965
思想	-9.07969
描述	-9.0801
福	-9.08063
主义	-9.08182
表现	-9.08232
体验	-9.08246
这些人	-9.08256
的确	-9.0828
想想	-9.08316
哪	-9.08505
第	-9.08533
告诉我们	-9.08575
剧	-9.08598
过来	-9.08691
道德	-9.08745
托	-9.08829
真实	-9.08869
生存	-9.08952
北	-9.08981
医院	-9.09042
顿	-9.09242
共	-9.09249
快乐	-9.09319
在美国	-9.09394
K	-9.09435
妈妈	-9.09451
试着	-9.09457
一场	-9.09473
直	-9.09511
端	-9.09619
恩	-9.09657
果	-9.09785
▁我可以	-9.0983
▁S	-9.09953
站在	-9.09966
而言	-9.09966
菌	-9.10066
退	-9.10069
勒	-9.10073
参加	-9.10118
做到	-9.10256
细菌	-9.10289
60	-9.10349
了很多	-9.10395
▁所有	-9.10443
艾	-9.10491
经验	-9.10492
程序	-9.10563
全部	-9.10618
▁而这	-9.1069
状态	-9.10742
▁大家	-9.10823
试	-9.10847
普	-9.10865
平均	-9.10921
现代	-9.1114
队	-9.11145
复	-9.11164
随着	-9.11229
▁我们会	-9.11234
姆	-9.1133
上帝	-9.11338
图像	-9.1135
付	-9.1145
有一些	-9.11463
肉	-9.11541
曼	-9.11543
土地	-9.11669
相互	-9.11732
电子	-9.11743
提高	-9.11769
效果	-9.11817
潜	-9.11821
很重要	-9.11855
在这个	-9.11931
用于	-9.12124
个月	-9.12151
效	-9.12247
不错	-9.12269
包括	-9.12311
存	-9.12317
▁今天	-9.12476
▁每	-9.12485
您	-9.12607
给我们	-9.12613
▁嗯	-9.12694
学家	-9.12726
成了	-9.1277
登	-9.12817
记忆	-9.12821
不用	-9.12959
异	-9.1298
▁这是个	-9.13021
酒	-9.13029
搞	-9.13036
莱	-9.13036
收集	-9.13054
每个人	-9.13154
企业	-9.13201
占	-9.13246
力量	-9.13249
森林	-9.13262
「	-9.13467
瓦	-9.13467
感兴趣	-9.13488
简单的	-9.13625
的影响	-9.13847
永远	-9.1387
充满	-9.13876
突然	-9.13879
80	-9.13924
的例子	-9.14036
伦	-9.14092
回来	-9.1414
容易	-9.1421
也不	-9.14272
带着	-9.14308
各	-9.14314
的能力	-9.14363
自身	-9.14421
士	-9.14469
配	-9.14493
▁现在我们	-9.14555
架	-9.14667
之间的	-9.14702
某个	-9.14792
下去	-9.14983
轮	-9.14987
到达	-9.15
致	-9.1521
靠	-9.15306
打开	-9.15383
可以看到	-9.15595
重要的	-9.15684
能量	-9.15721
▁包括	-9.15955
把它们	-9.15988
华	-9.1609
银行	-9.16207
发现了	-9.16255
英尺	-9.16312
政策	-9.16313
因素	-9.16556
地球上	-9.16558
专家	-9.16568
一件	-9.16746
看到了	-9.16774
▁因为他们	-9.16805
值	-9.16879
▁我是	-9.16923
吸引	-9.16938
去了	-9.16973
出生	-9.16974
绿色	-9.16988
普通	-9.16999
▁A	-9.17001
火星	-9.1701
好了	-9.17025
减	-9.17172
亮	-9.17202
复杂的	-9.17229
25	-9.17299
作为一个	-9.1736
了这个	-9.17368
水平	-9.17396
▁因为它	-9.17439
▁我们已经	-9.17588
我要	-9.17642
标准	-9.1766
进步	-9.17755
住在	-9.17759
数量	-9.17809
团	-9.17972
创作	-9.18081
太阳	-9.18293
刻	-9.18295
去做	-9.18301
危机	-9.18338
一旦	-9.18347
概念	-9.18391
导致	-9.18483
刚	-9.18743
纽约	-9.18769
就在	-9.18827
初	-9.18873
▁结果	-9.18884
的情况	-9.18899
差	-9.18971
绝对	-9.18992
接触	-9.19026
足	-9.19148
伤	-9.19166
大量的	-9.19234
座	-9.1925
都不	-9.19293
置	-9.19312
一半	-9.1938
表面	-9.19407
腿	-9.19468
感受	-9.19474
▁第一	-9.19631
▁然后我们	-9.19633
▁我们现在	-9.1969
第三	-9.19705
很快	-9.19765
糟糕	-9.19928
查	-9.19929
不管	-9.1997
是为了	-9.20091
观点	-9.20107
索	-9.2028
来看	-9.20342
列	-9.20349
去年	-9.2038
▁即	-9.20406
▁作为	-9.20436
的结果	-9.20475
还要	-9.20614
九	-9.20621
改	-9.20666
智	-9.20721
客	-9.20769
命	-9.20771
失败	-9.20859
转变	-9.20872
w	-9.21
h	-9.21262
灯	-9.21265
兴奋	-9.21319
视觉	-9.21331
运用	-9.21349
他人	-9.21405
随	-9.21427
人民	-9.21436
太多	-9.21473
助	-9.21512
会说	-9.21535
洛	-9.21552
感染	-9.21559
成本	-9.21593
墙	-9.21596
了我	-9.21648
在过去	-9.21741
软件	-9.21793
▁哦	-9.21907
仍	-9.21999
犯	-9.22007
▁我们将	-9.22074
好像	-9.22154
艺术家	-9.22169
破	-9.22199
盘	-9.22254
运作	-9.22299
对此	-9.22373
我们应该	-9.22486
虫	-9.22491
训练	-9.22492
的力量	-9.22522
▁还是	-9.22593
较	-9.22635
一家	-9.22703
介绍	-9.22728
假设	-9.22735
房子	-9.22853
时期	-9.22928
具	-9.22953
允许	-9.22965
▁在这个	-9.22972
变成了	-9.22995
权利	-9.23029
70	-9.23051
杰	-9.23203
▁对吧	-9.23328
化学	-9.23336
短	-9.23583
▁音乐	-9.23714
▁只要	-9.23874
以为	-9.23898
▁她们	-9.23952
背	-9.24067
开放	-9.24087
的大脑	-9.24118
花了	-9.24119
吉	-9.24159
中间	-9.24176
我们所	-9.24311
飞行	-9.24446
保	-9.24488
是怎么	-9.24527
显然	-9.24644
没有人	-9.2467
注意	-9.24681
境	-9.24691
清楚	-9.24872
枪	-9.24882
待	-9.24928
晚	-9.24995
师	-9.25053
按	-9.25103
更好	-9.25109
得到了	-9.25237
之中	-9.25261
赛	-9.25286
类似	-9.25333
盖	-9.25362
基于	-9.25394
可能是	-9.25404
▁看看	-9.25442
给你们	-9.25486
友	-9.25609
这个世界	-9.25637
这件事	-9.25735
也没有	-9.25759
紧	-9.25819
革命	-9.25847
or	-9.25957
▁比如说	-9.26053
课	-9.26077
f	-9.26079
款	-9.26096
颜色	-9.261
试验	-9.26103
各位	-9.26138
你可以	-9.262
思	-9.26302
生活中	-9.26305
速度	-9.26399
几年	-9.26458
注	-9.26504
空气	-9.26562
翻	-9.26585
体系	-9.2661
其中的	-9.26633
▁不要	-9.26704
还没有	-9.26801
弄	-9.2681
出来的	-9.26864
▁这不是	-9.26893
花费	-9.27137
al	-9.27414
并非	-9.27444
美国人	-9.27451
男性	-9.2771
元	-9.27748
这次	-9.27751
某	-9.2779
雨	-9.27814
威胁	-9.27827
▁第二	-9.27875
何	-9.27892
动作	-9.27947
贴	-9.28076
是不是	-9.28345
的行为	-9.28382
▁我不知道	-9.28395
轻	-9.28411
晚上	-9.28437
表明	-9.28449
觉	-9.28487
职	-9.28561
一系列	-9.28611
表演	-9.28689
仅	-9.28725
给大家	-9.28729
害	-9.28803
森	-9.28816
乱	-9.28822
所做的	-9.28874
▁你就	-9.2888
幸福	-9.28885
了一些	-9.28924
不想	-9.28989
会议	-9.29153
大量	-9.29175
粉	-9.29295
取得	-9.29576
任	-9.29615
触	-9.29663
彼此	-9.29841
当中	-9.29857
质量	-9.29905
套	-9.29929
有效	-9.30054
z	-9.30094
状况	-9.30096
对我来说	-9.30134
患者	-9.30206
▁或许	-9.30214
求	-9.30223
计	-9.30262
沉	-9.30343
总统	-9.30356
其他的	-9.3038
展	-9.30435
麦	-9.30445
有些人	-9.30505
容	-9.30516
这一切	-9.30541
距离	-9.30608
规则	-9.30625
信任	-9.30628
处于	-9.30704
偏	-9.30841
▁我们知道	-9.3085
▁这是我们	-9.30873
从未	-9.30952
▁我们还	-9.31029
害怕	-9.3112
铁	-9.31194
▁我们都	-9.31211
是关于	-9.31229
▁就在	-9.31251
贝	-9.3128
年轻人	-9.3129
智慧	-9.31376
降	-9.31425
我们在	-9.31484
▁他们会	-9.31492
城	-9.31598
神经元	-9.31652
投入	-9.31664
有可能	-9.31689
11	-9.31706
责任	-9.31737
成长	-9.31776
另外	-9.31805
这个项目	-9.31858
形状	-9.31929
人员	-9.32033
我们需要	-9.32067
的名字	-9.32128
称之为	-9.32153
物体	-9.32443
唱	-9.32608
怀	-9.32667
婴儿	-9.32676
▁接下来	-9.32907
班	-9.32936
监狱	-9.32937
降低	-9.32964
愿	-9.33139
正确的	-9.33154
野	-9.33185
冲突	-9.33204
年轻	-9.33234
发出	-9.33429
藏	-9.3344
建议	-9.33473
ra	-9.33674
慢	-9.33703
箱	-9.33707
注意到	-9.33909
▁从而	-9.34018
怎么样	-9.34029
十年	-9.34042
讲述	-9.34062
西方	-9.34128
re	-9.34149
独立	-9.34266
预	-9.34318
包	-9.34343
el	-9.34457
牌	-9.34505
真是	-9.34542
你在	-9.34766
当然	-9.34768
当你	-9.34794
状	-9.34835
第二个	-9.34869
父亲	-9.34902
▁J	-9.34987
装置	-9.35076
▁我们发现	-9.35227
es	-9.35345
大小	-9.35351
公民	-9.35353
还在	-9.35361
是非常	-9.35445
冲	-9.35572
•	-9.35592
证	-9.35684
警	-9.35852
伯	-9.35862
at	-9.3596
所有这些	-9.36215
对话	-9.36226
关心	-9.36282
内容	-9.36354
散	-9.3636
的社会	-9.36375
旧	-9.36389
▁当时	-9.36423
能看到	-9.36427
压力	-9.36478
▁我相信	-9.36487
▁也是	-9.36549
最重要的	-9.36595
哪里	-9.36639
一份	-9.36657
感谢	-9.3667
适应	-9.36683
种族	-9.36691
和平	-9.36713
时刻	-9.36739
内部	-9.36757
投	-9.36857
怪	-9.36875
洞	-9.36929
露	-9.36939
测量	-9.36969
没有任何	-9.3699
的观点	-9.37012
苦	-9.37213
喝	-9.37221
工程	-9.37327
一直在	-9.37339
引	-9.37439
范围	-9.37448
洗	-9.37495
简	-9.37655
▁于是我	-9.37663
左	-9.37667
一块	-9.37669
升	-9.37687
蒙	-9.37769
停止	-9.37786
▁我还	-9.37964
人类的	-9.37988
这条	-9.38008
思维	-9.38066
相关	-9.38209
不要	-9.38228
在我	-9.38258
蜂	-9.38319
生长	-9.38526
把这些	-9.38544
它们的	-9.38565
速	-9.38723
男孩	-9.3877
下降	-9.38774
都能	-9.38815
互相	-9.38831
响	-9.38869
再次	-9.38901
整	-9.38908
▁这就	-9.38915
设计师	-9.38961
就有	-9.38985
▁好的	-9.39087
所在	-9.39145
奖	-9.39154
看上去	-9.39164
▁你能	-9.39234
表示	-9.39245
我自己	-9.39253
巨大	-9.393
望	-9.39648
挺	-9.39714
儿子	-9.39727
条件	-9.39765
属于	-9.3979
这儿	-9.39809
射	-9.3983
▁而我们	-9.39872
一群	-9.39877
▁有些	-9.39907
静	-9.39967
v	-9.39985
剂	-9.39995
避免	-9.39998
相似	-9.40017
领导	-9.40059
给他们	-9.40125
碳	-9.40151
过的	-9.40152
鸟	-9.40254
相反	-9.40295
成为了	-9.40322
像是	-9.40422
味	-9.40479
学会	-9.4048
并且	-9.40544
牙	-9.40557
蓝色	-9.40647
医学	-9.4066
有趣	-9.40859
演	-9.41011
每次	-9.41347
底	-9.41405
J	-9.41484
世界的	-9.415
伟大的	-9.41609
痛	-9.41687
借	-9.41687
消	-9.41791
面临	-9.41867
王	-9.41957
眼睛	-9.41969
▁除了	-9.42175
势	-9.42204
告诉你们	-9.42223
价格	-9.42259
▁谁	-9.42278
▁尤其是	-9.42293
二十	-9.42326
▁T	-9.42383
负责	-9.42388
来自于	-9.42411
这类	-9.42425
环	-9.42518
优	-9.42543
星球	-9.42548
▁后来	-9.42681
暴	-9.4276
护	-9.42811
未来的	-9.42828
蒂	-9.42848
疯狂	-9.42851
痛苦	-9.42857
一个小	-9.42859
阅读	-9.42861
结合	-9.42874
且	-9.42875
目	-9.42893
很大的	-9.43005
▁无论	-9.43276
诗	-9.43312
这项	-9.43359
在那	-9.4337
专业	-9.4344
le	-9.43462
学到	-9.43471
ri	-9.43506
所说的	-9.43536
右	-9.43692
朝	-9.4372
编	-9.43812
▁最终	-9.43914
我们对	-9.43935
▁你可以看到	-9.44008
▁K	-9.44033
互动	-9.44081
对我们	-9.44173
家伙	-9.44195
情感	-9.4422
舞	-9.44303
仅仅是	-9.44405
▁G	-9.44625
资金	-9.44741
快速	-9.4482
先生	-9.44823
▁现在我	-9.44871
曲	-9.4489
富	-9.44896
破坏	-9.44913
500	-9.44991
广告	-9.45196
很大	-9.45219
女儿	-9.45256
ch	-9.45263
出去	-9.45282
▁我将	-9.45318
严重	-9.45319
▁我开始	-9.45367
认	-9.45413
秒	-9.45443
一部分	-9.45458
居住	-9.45472
房间	-9.45504
星期	-9.45518
的新	-9.45528
很棒	-9.45538
对我	-9.45541
楼	-9.45621
四个	-9.45754
气候	-9.45778
示	-9.45854
记得	-9.45889
长大	-9.45928
规模	-9.46044
失去	-9.46064
差不多	-9.46084
竞争	-9.46084
保证	-9.46095
让它	-9.46116
上了	-9.46243
见到	-9.4627
世界各地	-9.46324
V	-9.46383
叶	-9.46383
说过	-9.46486
我所	-9.46577
至少	-9.46638
背景	-9.4669
工业	-9.46708
和其他	-9.4672
运行	-9.46748
兴趣	-9.46955
吸	-9.46979
云	-9.46984
太空	-9.47063
联	-9.47081
回家	-9.47099
负	-9.47115
想象一下	-9.47126
什么是	-9.47217
价	-9.47228
暗	-9.47253
啦	-9.47287
或许	-9.47396
目的	-9.47459
旅行	-9.47609
巨	-9.47693
弱	-9.47893
逐渐	-9.47895
杂志	-9.47897
▁在我们	-9.47971
缩	-9.48084
化的	-9.48108
都没有	-9.48141
见过	-9.4818
是从	-9.48193
模拟	-9.48199
消失	-9.48381
库	-9.48386
园	-9.48419
第二	-9.48429
行业	-9.4848
忘	-9.4849
爬	-9.48504
工程师	-9.48515
▁可是	-9.48559
这张	-9.4856
▁谢谢大家	-9.48657
份	-9.48662
史	-9.48704
▁我们能	-9.48774
操作	-9.48827
看待	-9.48991
是很	-9.49032
说话	-9.49061
红色	-9.49145
可以在	-9.49189
恶	-9.49292
的过程	-9.49301
蓝	-9.49331
充	-9.49359
收到	-9.49371
店	-9.49398
凡	-9.49427
证据	-9.49433
接近	-9.49471
群体	-9.49569
的感觉	-9.49683
th	-9.49729
交易	-9.49749
抗	-9.49784
找到了	-9.49802
▁这意味着	-9.49824
日本	-9.49883
漂亮	-9.5005
▁每个	-9.50142
这样一个	-9.50179
捕	-9.50337
女士	-9.5039
事实上	-9.50621
认知	-9.50686
it	-9.50721
是谁	-9.5073
身边	-9.50755
发表	-9.50829
告	-9.50954
缺	-9.50961
急	-9.50975
邀请	-9.50986
塑料	-9.50987
有一天	-9.51069
确定	-9.51291
偷	-9.51299
疫苗	-9.513
一件事	-9.51309
年龄	-9.51346
这位	-9.51348
都可以	-9.51467
不一样	-9.51477
听起来	-9.51481
am	-9.51531
▁如今	-9.51534
早期	-9.51659
引起	-9.51737
义	-9.51869
项	-9.51882
相比	-9.5189
防	-9.51909
博	-9.51911
X	-9.51931
农业	-9.51942
猎	-9.52249
▁我很	-9.52378
供	-9.52518
▁有时	-9.52519
同意	-9.52535
像这样	-9.52536
情绪	-9.52571
利益	-9.52595
真实的	-9.52646
的生命	-9.52655
梦想	-9.52812
艾滋病	-9.52875
方案	-9.52885
搜索	-9.52889
是怎样	-9.52917
的样子	-9.53017
▁我现在	-9.53069
之处	-9.53172
一些人	-9.53196
是这样	-9.53218
妻子	-9.53225
细	-9.53268
获	-9.53304
▁或者是	-9.5332
录	-9.53329
脱	-9.53372
今年	-9.53399
集中	-9.53422
限制	-9.53481
额	-9.53487
▁如	-9.53509
博物馆	-9.53529
确保	-9.53533
所谓的	-9.53603
正确	-9.53607
会被	-9.53657
生命的	-9.53676
的设计	-9.53762
戴	-9.53851
留下	-9.53902
街	-9.54044
人群	-9.5411
财富	-9.54177
犯罪	-9.54184
聚	-9.54193
哪些	-9.542
建设	-9.54206
▁它会	-9.54357
营	-9.54442
放到	-9.54462
烟	-9.545
瓶	-9.545
若	-9.545
稳定	-9.54509
理由	-9.54636
成员	-9.54689
增	-9.54695
议	-9.54761
把我	-9.5477
差异	-9.54841
首先	-9.55077
组成	-9.55107
这些东西	-9.55132
阿富汗	-9.55152
阻止	-9.55155
卫生	-9.55186
卫星	-9.55257
▁至少	-9.55261
学院	-9.55363
相同的	-9.55399
▁这也是	-9.55408
什么呢	-9.55549
制度	-9.55555
是这样的	-9.55753
段	-9.55786
圆	-9.55788
行星	-9.55795
糖	-9.55809
燃料	-9.55814
原始	-9.55822
公园	-9.55832
物理	-9.55842
隐	-9.56126
丹	-9.56139
猫	-9.56139
蚂蚁	-9.56139
家人	-9.56224
没人	-9.56233
也能	-9.56272
的目标	-9.56306
我们能够	-9.56331
ro	-9.56353
折	-9.56447
恢复	-9.5647
摩	-9.5647
仔细	-9.56472
文章	-9.56489
上升	-9.56525
非常重要	-9.56609
过去的	-9.56786
所有人	-9.56794
循环	-9.56804
▁但它	-9.56806
的技术	-9.56912
自动	-9.5701
似	-9.5706
明显	-9.57066
滑	-9.57129
给予	-9.57155
来的	-9.57217
使我们	-9.5723
的作品	-9.57243
名字	-9.57255
最好	-9.57278
创造了	-9.57281
▁我发现	-9.57298
案	-9.57338
印	-9.57385
警察	-9.57473
教授	-9.57484
交通	-9.57491
久	-9.57494
温度	-9.57555
的所有	-9.57596
常常	-9.57646
记者	-9.57707
镜	-9.5772
归	-9.57768
鼓励	-9.57806
下一个	-9.57855
把他们	-9.57864
一名	-9.57937
其实是	-9.57971
文字	-9.58052
x	-9.58142
贫穷	-9.58144
课程	-9.5816
具体	-9.58216
母	-9.58216
患	-9.58256
相对	-9.58265
衣	-9.58469
U	-9.5848
承认	-9.58484
元素	-9.58498
报道	-9.5854
如果你	-9.58596
我们自己	-9.5861
还能	-9.58751
页	-9.58757
变得更	-9.5878
乘	-9.58819
香	-9.58819
两种	-9.5891
大型	-9.58941
的城市	-9.59021
另外一个	-9.59033
过了	-9.59043
脸	-9.59072
一个问题	-9.59115
当我	-9.59116
伴	-9.59146
隔	-9.59153
贫困	-9.5916
呼吸	-9.59165
放弃	-9.59173
老鼠	-9.59177
有多	-9.59324
层面	-9.59372
丽	-9.59466
可以用	-9.59484
赞	-9.59491
影	-9.59673
劳	-9.59788
一片	-9.59789
多么	-9.59789
不仅仅	-9.59793
菜	-9.59843
积极	-9.59861
理念	-9.59871
在哪里	-9.59885
文明	-9.59938
闻	-9.60097
杂	-9.60172
器官	-9.60217
针对	-9.60255
面前	-9.60397
恐	-9.60525
信仰	-9.60525
欧	-9.60527
谷歌	-9.6054
男	-9.60633
左右	-9.60635
后来	-9.60723
办	-9.60732
票	-9.60863
诊断	-9.60883
记住	-9.6095
公开	-9.60985
以来	-9.61
或是	-9.61022
▁有时候	-9.61029
▁我对	-9.61038
采用	-9.61081
体内	-9.61084
年后	-9.61107
不只是	-9.61119
年里	-9.61128
其中一个	-9.61153
各个	-9.61183
一台	-9.61191
章	-9.61206
馆	-9.61216
雪	-9.61218
的演讲	-9.61261
终于	-9.61318
难以	-9.61385
易	-9.6154
▁你看	-9.61544
尖	-9.61573
胡	-9.61573
饭	-9.61573
平衡	-9.616
打算	-9.61652
16	-9.61757
发生了什么	-9.61802
亿美元	-9.61821
长的	-9.61827
做过	-9.619
习惯	-9.61924
产生的	-9.61948
移	-9.62004
不太	-9.62075
载	-9.6216
灵	-9.62169
激动	-9.62185
这张照片	-9.62189
▁另外	-9.62211
呆	-9.62274
秘密	-9.62282
▁我喜欢	-9.62301
ur	-9.62355
对待	-9.6244
余	-9.6261
货	-9.62625
徒	-9.62626
资料	-9.62636
主题	-9.62641
星系	-9.62689
是有	-9.62732
微生物	-9.62788
属	-9.62866
耳	-9.62977
▁这里有	-9.62988
左边	-9.63005
位于	-9.63008
流行	-9.63178
任何人	-9.63231
用户	-9.63282
长期	-9.63306
攻击	-9.63339
究竟	-9.63393
重复	-9.63396
怎么做	-9.63466
这段	-9.6349
重大	-9.63605
善	-9.63661
诸	-9.6369
▁我的意思是	-9.63696
沟通	-9.63788
部门	-9.63793
即	-9.6384
很有	-9.63933
治	-9.63935
我们能	-9.6397
玛	-9.6404
杯	-9.64047
肿瘤	-9.64047
熟悉	-9.64047
反对	-9.64147
成果	-9.64148
态	-9.64161
识	-9.64189
▁这就是我们	-9.64207
观念	-9.64272
生活的	-9.64312
然后	-9.64319
的机会	-9.64319
逃	-9.64386
演奏	-9.6441
工厂	-9.64418
别的	-9.64437
终	-9.64438
给了	-9.64509
面包	-9.64574
的速度	-9.64602
在我的	-9.64608
的概念	-9.64704
述	-9.64704
固	-9.64738
同时也	-9.64741
埃	-9.64742
障碍	-9.64765
很少	-9.64886
14	-9.65001
情况下	-9.65016
罪	-9.65106
避	-9.65123
因此	-9.65124
结论	-9.65157
食品	-9.65162
提到	-9.65192
来了	-9.65243
必要	-9.65277
将要	-9.65329
但	-9.65411
心理	-9.65419
胶	-9.65488
难以置信	-9.65489
创建	-9.65501
英语	-9.65505
▁W	-9.65516
▁噢	-9.65516
这两个	-9.65533
这个故事	-9.65546
2000	-9.65654
德国	-9.65753
把这个	-9.65773
生物学	-9.65779
人体	-9.65803
弗	-9.65852
约翰	-9.65853
神奇	-9.65854
个体	-9.65869
免费	-9.6587
道路	-9.65876
享受	-9.65985
也不是	-9.66006
会看到	-9.66036
的学生	-9.66077
完美	-9.66093
▁特别是	-9.66105
一步	-9.66164
接下来	-9.66214
贡献	-9.66217
划	-9.66221
谈谈	-9.66263
位置	-9.66269
▁所以这	-9.6633
▁因为你	-9.66479
后面	-9.66512
只需要	-9.66535
▁然后你	-9.66536
狂	-9.6658
宽	-9.66583
闪	-9.66583
之所以	-9.66585
坚持	-9.66588
同事	-9.66588
迫	-9.66672
校	-9.66755
内心	-9.66758
的未来	-9.66818
is	-9.66836
有所	-9.66845
临	-9.66887
一代	-9.66914
喷	-9.66951
泰	-9.66951
改善	-9.66961
往往	-9.66999
责	-9.67023
us	-9.67032
▁这就是我	-9.67093
最高	-9.67147
很好的	-9.67239
针	-9.67247
政	-9.6728
细节	-9.67338
比例	-9.67477
设计的	-9.67502
桌	-9.67587
岁的	-9.67637
as	-9.67656
潮	-9.6769
▁你要	-9.67699
深入	-9.67805
比赛	-9.67812
件事	-9.68026
很简单	-9.68035
皮肤	-9.68064
成功的	-9.68122
权力	-9.68224
版	-9.68241
用了	-9.68272
▁他是	-9.68297
航	-9.68307
法国	-9.68429
二氧化碳	-9.68435
援助	-9.68438
培养	-9.6844
最初	-9.68451
得多	-9.68505
做的事情	-9.6852
▁而且我	-9.68637
▁由于	-9.6864
动力	-9.68656
的第一	-9.6875
谱	-9.68759
的关系	-9.68759
批	-9.688
补	-9.68802
伦敦	-9.68812
气候变化	-9.68836
超级	-9.68838
彩	-9.68878
原理	-9.68878
几个月	-9.68929
▁所以你	-9.68985
梦	-9.6901
需求	-9.69011
是最	-9.69071
出现了	-9.6908
平台	-9.69099
污染	-9.69187
满足	-9.69211
身份	-9.69225
的发展	-9.69306
从来没有	-9.69308
称为	-9.69318
的变化	-9.69355
专	-9.69418
存在于	-9.69455
来看看	-9.69476
的意思	-9.695
办公室	-9.69563
这个词	-9.69644
▁你需要	-9.69647
族	-9.69789
材	-9.6993
羊	-9.69942
生态	-9.69957
才是	-9.69983
获取	-9.70011
我们如何	-9.70052
背后	-9.70078
透	-9.70115
将来	-9.70172
准	-9.70256
礼	-9.70287
希	-9.70314
居	-9.70315
准确	-9.70326
历史上	-9.7039
问我	-9.70449
▁克里斯	-9.70485
黑人	-9.70539
检测	-9.70556
磁	-9.70675
苏	-9.70685
复制	-9.70748
一个非常	-9.70766
帮助我们	-9.70787
▁我们把	-9.70833
这点	-9.70968
振	-9.71087
检查	-9.7109
的项目	-9.71091
21	-9.71101
之外	-9.71103
不喜欢	-9.71121
的朋友	-9.71196
机制	-9.71234
还可以	-9.7126
心脏	-9.7126
太阳能	-9.71278
益	-9.71397
原子	-9.71405
▁她说	-9.71433
那天	-9.71442
鸡	-9.71472
▁于是我们	-9.71544
释放	-9.71547
很容易	-9.71701
令	-9.71799
虚拟	-9.71858
选举	-9.71909
扫描	-9.71977
的位置	-9.71981
原则	-9.7204
▁我当时	-9.72137
就像是	-9.72138
13	-9.72142
性别	-9.72145
哥	-9.72233
矿	-9.72245
农民	-9.72255
报告	-9.7226
将其	-9.72262
▁也就是说	-9.72445
不过	-9.72469
历	-9.72484
基因组	-9.72519
展现	-9.72585
昆虫	-9.72635
▁这也	-9.72659
的部分	-9.72678
两年	-9.72767
团体	-9.72798
也在	-9.72916
广	-9.72942
好处	-9.7299
遗	-9.72992
消耗	-9.73032
也不会	-9.73051
找出	-9.73185
重要的是	-9.73225
你能	-9.73251
区别	-9.73254
由于	-9.73269
斯特	-9.73287
几年前	-9.73291
在你	-9.73323
年来	-9.73335
漫画	-9.73448
一百	-9.73462
我们要	-9.73505
理想	-9.73592
走进	-9.73599
早上	-9.73609
日常	-9.73718
电力	-9.73719
一边	-9.73795
追	-9.73798
睡	-9.738
默	-9.73801
路上	-9.73803
咖啡	-9.73811
英雄	-9.73813
丰富	-9.73814
变革	-9.73818
蛋白质	-9.73819
联合国	-9.73832
让人们	-9.73956
ne	-9.74107
而已	-9.74129
模	-9.74139
普遍	-9.74215
就是这样	-9.74223
大家都	-9.7454
彻底	-9.74607
从事	-9.74619
▁但你	-9.74635
带到	-9.74717
▁这些是	-9.74813
得以	-9.74937
开心	-9.74952
备	-9.74962
贵	-9.74998
灭绝	-9.75007
这些问题	-9.7515
进一步	-9.75183
右边	-9.7532
封	-9.75332
另	-9.75349
赶	-9.75401
句	-9.75416
和我们	-9.75437
范围内	-9.75473
就这样	-9.75611
类型	-9.75666
持	-9.75749
税	-9.75803
迅速	-9.75804
依然	-9.75811
购买	-9.75824
一开始	-9.75832
巴西	-9.75883
现场	-9.75885
智能	-9.75931
▁因为这	-9.75965
当我们	-9.75984
高度	-9.76157
顺	-9.76168
莉	-9.76206
途径	-9.76208
金融	-9.76214
博士	-9.7622
一座	-9.76271
每一	-9.76275
组合	-9.76376
认识到	-9.76417
人物	-9.76512
在此	-9.76579
种植	-9.76581
既	-9.76598
股	-9.76604
肥	-9.7661
附近	-9.76627
角度	-9.76671
失去了	-9.76754
另一种	-9.76775
▁我已经	-9.76841
最大	-9.76957
碎	-9.76989
销	-9.77007
富有	-9.7701
就开始	-9.77171
很小	-9.77274
幅	-9.77277
类似的	-9.77375
猜	-9.77427
伤害	-9.77431
衣服	-9.7744
创	-9.77445
▁但在	-9.77462
出现在	-9.77527
要做的	-9.77588
有没有	-9.7761
我们现在	-9.77642
呈现	-9.7766
突	-9.77663
大多数人	-9.77774
胜	-9.77784
围	-9.77803
熊	-9.77836
17	-9.77844
期间	-9.77927
我会	-9.77934
24	-9.77955
所有人都	-9.78111
威	-9.78174
员工	-9.78242
▁&#9	-9.78247
壁	-9.78247
菲	-9.78247
你想	-9.78356
般	-9.7846
消息	-9.78483
▁他们说	-9.78484
我就	-9.78512
平等	-9.78542
谈到	-9.78549
测	-9.78555
的反应	-9.78576
方面的	-9.78584
裂	-9.78618
这么多	-9.7864
撞	-9.78645
浮	-9.78659
霍	-9.7866
很有趣	-9.7866
蜜蜂	-9.78664
走到	-9.78676
职业	-9.78685
很明显	-9.78934
餐	-9.79031
侵	-9.79043
施	-9.79065
做一个	-9.79071
▁&#93;	-9.79075
▁这些都是	-9.79077
▁我们开始	-9.79131
有意思	-9.79245
床	-9.79255
效率	-9.79287
景	-9.79306
珍	-9.79492
便宜	-9.79498
案例	-9.79508
的经历	-9.79518
态度	-9.79531
系	-9.79565
说服	-9.79567
三十	-9.79612
得到的	-9.79624
相同	-9.79764
侧	-9.7991
追求	-9.7992
角色	-9.80023
▁你必须	-9.80024
实际上是	-9.801
资	-9.80195
存在的	-9.80197
一部	-9.80217
武器	-9.80326
莫	-9.8033
1000	-9.80346
外面	-9.80406
多年	-9.80432
一切都	-9.80445
家里	-9.80447
等待	-9.80531
产生了	-9.80536
感受到	-9.80553
了吗	-9.80557
官	-9.80563
▁他们是	-9.80568
末	-9.80588
的一切	-9.80679
▁当他们	-9.80686
成就	-9.80702
▁但他们	-9.80712
袋	-9.80732
忙	-9.80741
疟疾	-9.80752
激励	-9.80752
公众	-9.80773
大众	-9.80797
探	-9.80802
没什么	-9.80812
这些数据	-9.80816
创造力	-9.80915
▁我从	-9.81008
那儿	-9.81055
的书	-9.81056
这场	-9.81095
一致	-9.81128
穿过	-9.81136
绿	-9.8116
广泛	-9.81179
千万	-9.81228
事业	-9.8123
不知	-9.8135
汇	-9.81427
播	-9.81507
的生物	-9.81528
梅	-9.81602
黑猩猩	-9.81607
慢慢	-9.81616
解决方案	-9.81641
来做	-9.81716
为此	-9.81728
医	-9.81763
链	-9.81847
创造出	-9.8185
不够	-9.81904
爆炸	-9.81977
宝	-9.82008
厅	-9.82023
毁	-9.82026
乌	-9.82029
逻辑	-9.82029
伊朗	-9.82034
你自己	-9.82063
部落	-9.82074
强大的	-9.82154
的食物	-9.82217
有多少	-9.82246
的工具	-9.8233
的事物	-9.82396
席	-9.82458
兹	-9.82458
成千上万	-9.82458
美丽的	-9.82458
万人	-9.82473
灾难	-9.82474
电池	-9.82481
大规模	-9.82521
▁他们在	-9.82526
的历史	-9.82549
为我们	-9.82559
不久	-9.82827
这只	-9.82834
就是我们	-9.82842
废	-9.82854
同性恋	-9.82889
酸	-9.82889
旅程	-9.82897
提醒	-9.82909
启发	-9.8291
可行	-9.82939
错了	-9.82957
有机会	-9.83017
峰	-9.83049
相机	-9.83055
个小时	-9.8309
▁我们正在	-9.83139
假如	-9.83273
则是	-9.83319
阿拉伯	-9.83322
卷	-9.83322
招	-9.83322
文件	-9.83376
播放	-9.83392
说法	-9.83395
重点	-9.83404
ic	-9.83432
卫	-9.8344
还会	-9.83442
如今	-9.83457
的内容	-9.83485
典	-9.83549
美好	-9.8364
争	-9.8368
党	-9.83743
奴	-9.83757
庞	-9.83757
前面	-9.83854
小小的	-9.83868
期待	-9.83874
克斯	-9.83876
非常好	-9.84069
混	-9.84091
有效的	-9.84092
漫	-9.84154
判	-9.84159
成为一个	-9.84182
就要	-9.84189
孔	-9.84194
爸爸	-9.84194
创意	-9.84218
许多人	-9.84222
话题	-9.84234
这个人	-9.8426
规	-9.84306
众	-9.84344
消费	-9.84362
特殊	-9.84444
技能	-9.8445
走向	-9.84469
稍	-9.84615
懂	-9.84618
▁他在	-9.84626
摇	-9.84629
‘	-9.84632
扔	-9.84632
趋势	-9.84635
毫无	-9.8465
特征	-9.84672
跟我	-9.84695
刚才	-9.84727
岁的时候	-9.84776
即将	-9.84781
▁我是说	-9.84782
好消息	-9.84813
▁因此我	-9.84837
说到	-9.84843
▁因为他	-9.84949
应对	-9.84996
画面	-9.85019
有一种	-9.85023
la	-9.85032
冒	-9.85071
全新的	-9.85106
极端	-9.85127
感知	-9.85148
能让	-9.85166
能在	-9.85183
适合	-9.85207
以上	-9.85248
些什么	-9.85256
一生	-9.85381
伊拉克	-9.85515
凯	-9.85515
驾驶	-9.85516
强大	-9.85628
分布	-9.85851
每一个人	-9.85885
码	-9.85893
没有什么	-9.85897
旁	-9.8594
必须要	-9.85945
以色列	-9.8596
刑	-9.8596
墨西哥	-9.8596
拼	-9.8596
怀疑	-9.85966
浪费	-9.85973
判断	-9.85973
海岸	-9.85985
▁那么我们	-9.86155
是如此	-9.86157
将它	-9.86166
的作用	-9.86176
从中	-9.86203
乐观	-9.8631
感觉到	-9.86361
略	-9.86385
省	-9.86391
发展中国家	-9.86408
传递	-9.86416
够	-9.86491
有机	-9.86564
不好	-9.86685
丁	-9.8682
▁他们都	-9.86827
合理	-9.8683
得出	-9.86833
沙漠	-9.86858
毕业	-9.86861
作出	-9.86867
的角度	-9.86883
处在	-9.86959
一本	-9.86962
看过	-9.87014
▁或者说	-9.87088
独	-9.87161
全国	-9.87184
松	-9.87267
统计	-9.87272
取决于	-9.87305
采取	-9.87307
简直	-9.87323
黑暗	-9.87324
拒绝	-9.87328
一个新的	-9.87389
以下	-9.87542
那是	-9.87561
▁但是你	-9.87626
依赖	-9.87663
娜	-9.87757
插	-9.87757
当今	-9.87915
酷	-9.87987
只要	-9.88
为何	-9.88015
什么样的	-9.88024
在我们的	-9.88047
▁我想要	-9.88096
伟大	-9.88139
农	-9.88152
缓	-9.88203
都很	-9.88211
泥	-9.88212
强烈	-9.88227
维持	-9.88233
曲线	-9.88237
进行了	-9.88287
的情况下	-9.88344
钟	-9.88391
使我	-9.88393
▁我们从	-9.884
想像	-9.88441
棒	-9.88486
掌握	-9.88673
▁这是一种	-9.88763
寿命	-9.88767
关联	-9.88796
做得	-9.88861
主义者	-9.88922
执	-9.88952
据	-9.89041
的空间	-9.89049
烧	-9.89124
不应该	-9.89191
原因是	-9.89192
被称为	-9.89382
▁我能	-9.89531
误	-9.89556
摆	-9.89581
美妙	-9.89608
高中	-9.89613
按照	-9.89627
报纸	-9.89628
推动	-9.89628
在那儿	-9.89637
刺激	-9.89642
干细胞	-9.89722
▁我一直	-9.8976
这个想法	-9.89827
死去	-9.89879
这个国家	-9.89974
瑞	-9.90035
了解到	-9.90051
Y	-9.90051
安德森	-9.90051
有两个	-9.90052
缺乏	-9.90054
加上	-9.90061
透明	-9.90092
相关的	-9.9012
念	-9.90124
写了	-9.90176
有能力	-9.90321
可以通过	-9.90419
大自然	-9.9045
肯	-9.90486
抵	-9.90509
桥	-9.90515
嘴	-9.90516
旁边	-9.90537
忘记	-9.90537
士兵	-9.90671
ed	-9.90701
后果	-9.90705
▁你会发现	-9.90742
严重的	-9.90802
如同	-9.90837
一千	-9.90874
▁但是他们	-9.90921
来源	-9.90965
窗	-9.90979
▁我们希望	-9.90981
轴	-9.90983
自行车	-9.90984
供应	-9.91014
▁它可以	-9.91047
节目	-9.91066
式的	-9.91114
对他们	-9.9114
那么多	-9.9115
面积	-9.91167
加州	-9.91244
一套	-9.91286
龙	-9.91446
拖	-9.91453
覆盖	-9.91455
发挥	-9.91476
主意	-9.91544
五年	-9.91773
控	-9.91838
虚	-9.91924
滴	-9.91925
▁你可能	-9.91941
边缘	-9.91943
遗传	-9.91949
期望	-9.91958
美丽	-9.91963
应该是	-9.91968
▁因此我们	-9.92138
99	-9.92154
提供了	-9.92188
看不到	-9.92309
息	-9.92364
已经被	-9.92378
抽	-9.92386
薄	-9.92399
麻烦	-9.92401
机械	-9.92408
金属	-9.92422
盒子	-9.92453
ing	-9.92457
进去	-9.92459
作家	-9.92509
听说过	-9.9257
构成	-9.92642
童	-9.92656
改造	-9.9278
想知道	-9.92813
种类	-9.92847
的基础	-9.92855
耗	-9.92867
帕	-9.92867
敢	-9.92873
糟	-9.92874
渴望	-9.92877
指出	-9.92897
手段	-9.92984
构	-9.93085
在非洲	-9.93092
公里	-9.93124
▁这就是为什么	-9.93144
鲜	-9.93279
尾	-9.93321
浪	-9.93334
览	-9.93344
伸	-9.9335
启动	-9.93376
聚集	-9.93424
不幸	-9.93428
准备好	-9.93437
的看法	-9.93439
看到的是	-9.93452
一段时间	-9.93484
两者	-9.93649
唯一的	-9.93667
黄	-9.938
绕	-9.9382
衡量	-9.93849
都知道	-9.93917
惊人的	-9.94038
相当于	-9.94123
私人	-9.94127
在这儿	-9.94131
是一名	-9.94151
的存在	-9.94152
抓	-9.94227
坚	-9.94262
迈	-9.94317
共享	-9.94323
解决问题	-9.94351
屏幕	-9.94356
都被	-9.94473
做的事	-9.94488
参	-9.94552
的家庭	-9.94627
务	-9.94629
带来了	-9.94677
婚	-9.9479
扎	-9.94801
幼	-9.94802
玻璃	-9.94803
有许多	-9.94817
照顾	-9.94819
地下	-9.94827
去看	-9.94862
手指	-9.94894
更高	-9.94964
原来	-9.95046
不起	-9.95104
真的很	-9.9511
聊	-9.95168
掌	-9.95271
捐	-9.9529
吓	-9.9529
加拿大	-9.95291
改革	-9.95293
领袖	-9.95293
翻译	-9.95298
没法	-9.953
看来	-9.95305
震惊	-9.95337
对象	-9.95339
热情	-9.95395
执行	-9.95477
世界上最	-9.95533
的数量	-9.95581
才会	-9.95591
更有	-9.95668
前进	-9.95688
始	-9.957
跨	-9.95707
术	-9.95718
搭	-9.95766
范	-9.9577
可怕的	-9.95775
湾	-9.95781
邻居	-9.95784
万美元	-9.95832
驱动	-9.95865
一辆	-9.95901
极其	-9.9599
指数	-9.96102
几天	-9.96106
还没	-9.96131
一幅	-9.96196
诚	-9.96239
舞台	-9.96247
摄影	-9.96268
田	-9.96273
客户	-9.96282
▁我们想	-9.96357
理性	-9.96427
良	-9.96455
篇	-9.96512
▁然后他	-9.9656
影片	-9.96731
魔	-9.96731
呀	-9.96768
肺	-9.96768
深刻	-9.96932
识别	-9.96984
带来的	-9.97039
▁它们是	-9.97066
都要	-9.97078
屋	-9.97138
的基因	-9.97157
告诉他们	-9.9716
著	-9.97225
呼	-9.9724
脂	-9.97266
寻求	-9.9727
隐藏	-9.97279
猴子	-9.97295
发布	-9.97344
大陆	-9.9735
含	-9.97455
止	-9.97458
是我的	-9.97459
症状	-9.97474
几百	-9.97475
本质	-9.97547
那时候	-9.97556
的意义	-9.97633
需	-9.97711
软	-9.97734
死于	-9.97743
一点点	-9.97758
逐	-9.97764
矛盾	-9.97766
阵	-9.97766
奇妙	-9.97779
输入	-9.97785
调整	-9.97795
▁我们看到	-9.97924
地面	-9.98071
沃	-9.98216
什么时候	-9.98237
灰	-9.98252
教学	-9.9826
握	-9.98264
幻灯片	-9.98268
猪	-9.98268
演员	-9.98307
版本	-9.98312
完成了	-9.98337
限	-9.98401
存活	-9.98412
li	-9.98472
▁但是这	-9.98509
▁我们用	-9.98734
W	-9.98735
丢	-9.98758
谷	-9.98759
残	-9.98762
阴	-9.98766
挂	-9.98773
标志	-9.98783
混乱	-9.98784
基础设施	-9.98794
街道	-9.98826
哪儿	-9.98832
的人口	-9.98849
录像	-9.98877
所能	-9.98893
穿着	-9.98921
国会	-9.98973
环境中	-9.99048
军队	-9.99089
开车	-9.99107
成立	-9.99123
决	-9.99167
哪个	-9.99228
乔	-9.99274
喂	-9.99281
骑	-9.99281
舞蹈	-9.99282
斗争	-9.99284
修复	-9.99315
玩具	-9.99393
副	-9.9943
私	-9.99432
大卫	-9.99436
除了	-9.99462
充满了	-9.99528
物品	-9.99544
算法	-9.99751
穆斯林	-9.99791
爱因斯坦	-9.99791
丈夫	-9.99792
技巧	-9.99793
投票	-9.99804
人士	-9.99817
转移	-9.99828
奇怪的	-9.99843
这本书	-9.99855
公平	-9.99872
粒子	-9.99876
混合	-9.999
第三个	-9.99905
视角	-9.99926
还有一个	-10.0006
流动	-10.0011
地点	-10.0016
附	-10.0028
▁你就会	-10.0029
守	-10.0029
磅	-10.003
纹	-10.003
轨道	-10.0032
能否	-10.0033
的价值	-10.004
有点像	-10.0059
幸运	-10.0066
sh	-10.0071
▁我记得	-10.0072
在印度	-10.0072
给他	-10.0078
诉	-10.0081
幕	-10.0082
逊	-10.0082
规划	-10.0083
明确	-10.0085
角落	-10.0087
进展	-10.0087
谈话	-10.0088
300	-10.0088
超越	-10.0088
让你们	-10.0099
可以让	-10.0107
把这	-10.011
厂	-10.0132
▁而在	-10.0134
佩	-10.0134
伙伴	-10.0134
象征	-10.0135
居民	-10.0135
埃及	-10.0137
场景	-10.0138
交谈	-10.0139
生态系统	-10.0141
▁而这些	-10.0149
生意	-10.0174
赢	-10.0176
育	-10.0178
▁那就	-10.018
教堂	-10.0181
堂	-10.0183
禁	-10.0185
对你	-10.0185
辛	-10.0186
恐龙	-10.0187
建筑师	-10.0192
▁我需要	-10.0197
▁我不是	-10.0208
遍	-10.0215
样本	-10.0217
不像	-10.0219
放大	-10.0235
雅	-10.0237
哇	-10.0238
柱	-10.0238
愤怒	-10.0238
评论	-10.0239
▁我只是	-10.0243
你所	-10.0246
名为	-10.0247
整体	-10.0248
之类的	-10.0252
如果我们	-10.0254
回应	-10.0256
随后	-10.0257
个国家	-10.0262
同一个	-10.0266
拿到	-10.0267
▁你们知道	-10.027
必	-10.027
消费者	-10.0273
到处	-10.0276
▁但他	-10.0278
村	-10.0279
州的	-10.0284
名叫	-10.0286
败	-10.0289
策略	-10.0291
依靠	-10.0292
的目的	-10.0298
包含	-10.0311
出版	-10.0311
▁但是在	-10.0312
是多么	-10.0325
访	-10.0337
洋	-10.0338
戏	-10.0341
季	-10.0342
寄	-10.0344
估计	-10.0345
移民	-10.0346
马上	-10.0348
片段	-10.0351
非常非常	-10.0356
一个例子	-10.0362
更大的	-10.0383
的角色	-10.0387
却是	-10.039
剩	-10.0395
麻	-10.0396
淡	-10.0397
演示	-10.0398
毒品	-10.0401
达成	-10.0403
改进	-10.041
便是	-10.0426
合成	-10.0434
洛杉矶	-10.045
走了	-10.0451
瞬间	-10.0451
尊重	-10.0452
神秘	-10.0452
博客	-10.0452
祖先	-10.0453
专利	-10.0455
十亿	-10.0465
至今	-10.0467
传统的	-10.047
意外	-10.0473
醒	-10.0476
回去	-10.0483
看一下	-10.0498
隆	-10.0504
举个例子	-10.0504
婚姻	-10.0504
模仿	-10.0505
▁我们认为	-10.0505
展览	-10.0505
总结	-10.0507
紧张	-10.0508
短信	-10.0509
提升	-10.0509
每天都	-10.051
白色	-10.0512
企业家	-10.0517
标记	-10.0519
费用	-10.0531
五十	-10.0531
特定的	-10.0536
常见	-10.0537
今	-10.0543
设想	-10.0546
鞋	-10.0548
Ro	-10.0551
走出	-10.0554
堆	-10.0557
刀	-10.0558
致力于	-10.0558
意大利	-10.0558
印象	-10.056
固定	-10.0562
强调	-10.0566
地说	-10.0586
在未来	-10.0611
妈	-10.0612
雇	-10.0613
严肃	-10.0613
特定	-10.0614
宣传	-10.0614
会发生	-10.0616
把我们	-10.0617
提取	-10.0627
金钱	-10.0627
ay	-10.0628
也很	-10.0636
st	-10.0642
精确	-10.0649
合法	-10.0659
厚	-10.0667
羞	-10.0667
脆弱	-10.0667
代码	-10.0669
直觉	-10.067
展示了	-10.0671
地理	-10.0678
当作	-10.0682
基金会	-10.0685
研发	-10.0687
特殊的	-10.0691
字母	-10.0694
完美的	-10.0694
横	-10.0701
▁我认为这	-10.0716
孙	-10.0722
钻	-10.0722
ma	-10.0725
品牌	-10.0726
流感	-10.0743
的时刻	-10.075
所看到的	-10.0756
发电	-10.0768
人数	-10.0773
鼠	-10.0773
恰	-10.0777
所知	-10.0778
pos	-10.0779
我父亲	-10.0784
商品	-10.0785
集体	-10.0787
最佳	-10.0791
想起	-10.0793
各种各样的	-10.0806
种子	-10.081
即使	-10.0816
亿人	-10.0824
耐	-10.0827
疗	-10.0829
迹	-10.083
硬	-10.0831
估	-10.0832
甲	-10.0833
豆	-10.0833
粘	-10.0833
培训	-10.0833
赋予	-10.0833
承诺	-10.0834
旋转	-10.0834
环保	-10.0835
600	-10.0837
夏天	-10.0837
人性	-10.0841
抓住	-10.0843
注意力	-10.0846
采	-10.0846
的可能性	-10.0847
会发生什么	-10.0852
气球	-10.0857
il	-10.0858
着手	-10.0859
还有很多	-10.0865
经历了	-10.0865
领导者	-10.0869
让他	-10.087
兵	-10.087
少数	-10.0871
un	-10.0874
▁这只是	-10.0883
个孩子	-10.0884
秘	-10.0886
保存	-10.0886
工人	-10.0888
图书馆	-10.0889
扬	-10.0889
肌肉	-10.0889
死了	-10.089
偏见	-10.0893
坦	-10.0894
▁这里是	-10.0896
死亡率	-10.09
效应	-10.09
打电话	-10.09
恒星	-10.0908
阳光	-10.093
年轻的	-10.0932
▁如果他们	-10.0934
故	-10.0935
佛	-10.0943
Google	-10.0945
桶	-10.0945
慈善	-10.0945
肯尼亚	-10.0945
争论	-10.0947
把自己	-10.0948
产业	-10.095
好奇	-10.0951
重建	-10.0957
真相	-10.0964
任何一个	-10.0965
潜水	-10.0969
美好的	-10.0983
▁然后他们	-10.0986
进来	-10.099
巧	-10.1001
稀	-10.1002
提到的	-10.1004
45	-10.1008
差别	-10.1008
不确定	-10.1008
非常简单	-10.1021
送到	-10.1025
拿着	-10.1026
移植	-10.1031
序	-10.1031
的能量	-10.1031
认为这	-10.104
宣	-10.1052
拿出	-10.1053
行走	-10.1054
确实是	-10.1054
高兴	-10.1057
汉	-10.1058
胸	-10.1058
望远镜	-10.1058
赫	-10.1058
奖励	-10.1058
▁CA	-10.1061
户	-10.1065
北极	-10.1065
发明了	-10.1066
▁所以他们	-10.1068
地位	-10.1072
▁我们不能	-10.108
上学	-10.1081
积	-10.1084
同情	-10.1085
扩大	-10.1086
的需求	-10.1086
▁如果你想	-10.1088
▁而且我们	-10.1092
不平等	-10.1108
获得了	-10.1113
构建	-10.1117
蚊子	-10.1117
▁你不能	-10.1118
发光	-10.1119
转换	-10.1123
赢得	-10.1126
意见	-10.1128
很高兴	-10.1129
英	-10.1133
域	-10.1137
是一位	-10.1151
加速	-10.1153
答	-10.1162
征	-10.1165
做些什么	-10.1169
钢	-10.1173
纤维	-10.1173
摆脱	-10.1174
充分	-10.1181
有意义	-10.1181
打破	-10.1182
说的是	-10.1182
可爱	-10.1182
情形	-10.1183
成分	-10.1186
潜力	-10.1188
▁为什么我们	-10.1194
▁他们可以	-10.1194
人工	-10.1196
为什么要	-10.1197
更快	-10.12
▁他们也	-10.1223
ha	-10.1223
衰	-10.1228
给你们看	-10.1228
狱	-10.1231
湖	-10.1231
违	-10.1231
邮件	-10.1231
采访	-10.1231
分离	-10.1241
▁我没有	-10.1243
▁不论	-10.1247
远远	-10.1253
生成	-10.1254
引发	-10.1257
小型	-10.1261
我的工作	-10.1262
放进	-10.1268
这幅	-10.1276
小组	-10.1278
疑	-10.1281
斯坦	-10.1281
偶	-10.1282
排放	-10.1284
截	-10.1289
剪	-10.1289
貌	-10.1289
受害者	-10.1289
海豚	-10.1289
古老的	-10.129
带给	-10.1291
大脑中	-10.1291
做成	-10.1295
惊奇	-10.1295
神奇的	-10.1296
展开	-10.1302
发射	-10.1302
对我说	-10.1307
对方	-10.1314
功	-10.1323
ad	-10.1325
的梦想	-10.133
5000	-10.134
考	-10.1344
吹	-10.1347
措施	-10.1348
决策	-10.1348
贷款	-10.1348
et	-10.1348
陷入	-10.1349
做这个	-10.1349
一篇	-10.1378
患有	-10.1385
本来	-10.1389
ve	-10.1397
肠	-10.1406
忽略	-10.1406
土壤	-10.1406
村庄	-10.1406
损失	-10.1407
运输	-10.1407
稍微	-10.1408
有限	-10.141
南非	-10.1412
填	-10.1425
付出	-10.1429
观看	-10.1447
无限	-10.1448
把他	-10.1453
to	-10.1454
亡	-10.1463
蛋	-10.1463
宫	-10.1465
澳大利亚	-10.1465
犹	-10.1465
壳	-10.1465
冒险	-10.1466
图表	-10.1468
北部	-10.1473
制定	-10.1477
▁就好像	-10.1479
对称	-10.148
我们必须	-10.1493
掉了	-10.1508
朋友们	-10.1516
律	-10.1517
悲	-10.1522
兄弟	-10.1525
锁	-10.1525
腐败	-10.1525
袭击	-10.1525
符合	-10.1526
优势	-10.1527
中央	-10.1527
奇迹	-10.1527
注射	-10.1527
黑客	-10.1528
专门	-10.1529
不可思议的	-10.1533
化石	-10.1544
全球化	-10.155
做一些	-10.1557
能做到	-10.1557
om	-10.1558
释	-10.157
▁无论是	-10.1574
宇宙中	-10.1575
以外	-10.1576
岩	-10.1583
鼓	-10.1583
恋	-10.1585
尼日利亚	-10.1585
虎	-10.1585
忽视	-10.1585
销售	-10.1585
突破	-10.1586
活跃	-10.1586
愿望	-10.1587
现状	-10.1589
所需的	-10.1593
接着	-10.1605
更为	-10.161
对抗	-10.1628
者们	-10.163
就不会	-10.1632
沿	-10.1632
ter	-10.1636
刺	-10.1638
翼	-10.1645
扮演	-10.1645
这么说	-10.1646
反映	-10.1646
随机	-10.1654
▁甚至是	-10.1655
与我们	-10.1665
许	-10.1667
乎	-10.1682
良好	-10.1682
真的是	-10.1685
能找到	-10.1688
幻	-10.1688
青	-10.169
就是我	-10.1691
喜	-10.1699
授	-10.1701
堡	-10.1705
筹	-10.1706
标签	-10.1707
回顾	-10.1709
综合	-10.1709
岁时	-10.1709
认同	-10.1714
穷人	-10.1715
敏感	-10.1718
阿尔	-10.1729
定位	-10.1731
屋顶	-10.1735
在你的	-10.1736
应当	-10.1743
癌	-10.1762
社交	-10.1763
设	-10.1764
壮	-10.1765
乳	-10.1765
抱	-10.1766
夺	-10.1766
旗	-10.1767
反馈	-10.1767
互	-10.1767
清洁	-10.1767
灵感	-10.1771
告诉大家	-10.178
开展	-10.178
意思	-10.1786
这是一个	-10.1786
仪器	-10.1789
尽可能	-10.1796
携带	-10.1797
也许会	-10.1798
头脑	-10.1799
▁我今天	-10.1802
不必	-10.1802
价值观	-10.1812
根本不	-10.1815
顾	-10.1816
资本	-10.1819
第四	-10.182
▁要是	-10.1824
妇	-10.1826
休	-10.1826
签	-10.1826
杆	-10.1828
喊	-10.1828
嘿	-10.1828
鬼	-10.1828
治愈	-10.1829
代价	-10.1831
很可能	-10.1831
奇怪	-10.1831
400	-10.1832
促进	-10.1833
认真	-10.1844
热爱	-10.1855
公正	-10.1856
不断地	-10.1856
由此	-10.1861
心脏病	-10.1867
活着	-10.1879
液	-10.1883
摄	-10.1887
冻	-10.189
珊	-10.189
盗	-10.189
齐	-10.189
▁没错	-10.1891
网上	-10.1893
吃惊	-10.1899
纳米	-10.1904
在座的	-10.1905
特性	-10.1906
在纽约	-10.1913
天空	-10.1914
杀死	-10.1926
直到	-10.1928
▁那你	-10.1946
依	-10.1948
▁你将	-10.1951
堵	-10.1952
可能性	-10.1958
一定要	-10.1964
ir	-10.1964
回报	-10.1964
鼓掌	-10.1968
而且	-10.1984
高效	-10.1991
粒	-10.2004
觉得这	-10.2008
组成的	-10.2009
是一件	-10.2009
也就	-10.2011
拜	-10.2013
华盛顿	-10.2014
瑟	-10.2014
俄罗斯	-10.2015
三年	-10.2015
玩耍	-10.2015
黑洞	-10.2017
▁当时我	-10.2017
的眼睛	-10.2017
老人	-10.202
之内	-10.2029
为止	-10.2032
道理	-10.2035
为你	-10.2037
and	-10.2044
律师	-10.2046
协	-10.2047
大楼	-10.2048
来讲	-10.2049
著名的	-10.205
先进	-10.2052
际	-10.2055
题	-10.2057
免	-10.2073
烈	-10.2075
译	-10.2076
牲	-10.2077
兆	-10.2077
裔	-10.2077
保险	-10.2078
规律	-10.2078
血液	-10.2079
得很	-10.2079
精彩	-10.2079
▁众人	-10.2082
预算	-10.2084
穿越	-10.2084
临床	-10.2085
▁我曾	-10.209
运动员	-10.2095
这些事情	-10.21
的脸	-10.2117
他们自己的	-10.2126
▁它能	-10.2132
一颗	-10.2137
审	-10.2138
做好	-10.2138
恨	-10.214
绳	-10.214
卵	-10.214
闲	-10.214
希腊	-10.214
结婚	-10.2142
椅子	-10.2144
单词	-10.215
小心	-10.2152
联合	-10.2159
最后一个	-10.2161
动画	-10.2162
途	-10.2184
一大	-10.2195
氧	-10.2202
不少	-10.2203
踏	-10.2204
禁止	-10.2205
住了	-10.2207
可怕	-10.221
75	-10.2211
能不能	-10.2212
进了	-10.2214
层次	-10.223
懂得	-10.225
对自己	-10.2257
邮	-10.2267
哭	-10.2268
抗生素	-10.2268
亚洲	-10.227
预防	-10.227
景象	-10.227
支付	-10.2272
几十年	-10.2275
形象	-10.2276
取代	-10.2277
这项技术	-10.2279
搬	-10.2282
沿着	-10.2282
都没	-10.2287
是一样的	-10.2295
ill	-10.2298
点子	-10.23
妙	-10.2304
在乎	-10.2319
完整的	-10.2325
马克	-10.2327
评	-10.2328
多样性	-10.2329
好事	-10.233
奏	-10.233
叠	-10.2332
涌	-10.2333
Z	-10.2333
传感器	-10.2333
编辑	-10.2333
节奏	-10.2334
黄色	-10.2335
资本主义	-10.2341
融合	-10.2341
▁但如果	-10.2342
听说	-10.2348
链接	-10.2355
志	-10.2373
可见	-10.2386
荒	-10.2398
凭	-10.2398
吨	-10.2398
探险	-10.2398
评估	-10.2398
致命	-10.2401
靠近	-10.2404
▁要么	-10.2408
很喜欢	-10.2409
作者	-10.2414
▁它也	-10.2441
动机	-10.2448
无数	-10.2456
蛛	-10.2462
涂	-10.2463
挤	-10.2463
西班牙	-10.2463
自闭症	-10.2463
承担	-10.2463
紧密	-10.2466
三维	-10.2474
意味着什么	-10.2496
就知道	-10.2496
激发	-10.2499
不可思议	-10.252
孕	-10.2528
芬	-10.2529
探讨	-10.2529
追踪	-10.2529
显著	-10.2529
▁我是一个	-10.253
成绩	-10.253
实施	-10.2534
同情心	-10.2535
越来越多的	-10.2536
遭受	-10.2544
不止	-10.2544
35	-10.2546
听过	-10.2567
更好地	-10.2575
穷	-10.2578
敌人	-10.258
▁因为如果	-10.2584
水中	-10.2587
担	-10.2588
献	-10.2593
康	-10.2594
浓	-10.2595
港	-10.2595
膜	-10.2595
与此同时	-10.2595
欣赏	-10.2595
魅力	-10.2595
昂贵	-10.2595
构造	-10.2598
▁我意识到	-10.2601
血管	-10.2603
分配	-10.2608
▁今天我	-10.2608
一些东西	-10.2612
独特的	-10.2615
确	-10.2615
保留	-10.2621
推特	-10.2621
空中	-10.2627
候	-10.2632
查看	-10.2648
脏	-10.2656
孤	-10.2659
阻	-10.2661
勃	-10.2662
俗	-10.2662
步骤	-10.2662
也没	-10.2663
保守	-10.2663
难题	-10.2665
商店	-10.2666
de	-10.2667
单位	-10.2675
另一方面	-10.2675
,000	-10.2681
一组	-10.2684
着迷	-10.2685
颗	-10.2703
难民	-10.2714
我最喜欢的	-10.2714
以一种	-10.2718
co	-10.2719
赚	-10.2725
五个	-10.2726
健	-10.2728
滚	-10.2728
弦	-10.2729
游泳	-10.2729
▁如果你们	-10.273
农场	-10.2733
听众	-10.2734
手臂	-10.2736
吸收	-10.2741
经济学家	-10.2745
法则	-10.2749
学生们	-10.2755
▁那时我	-10.2757
▁即便	-10.2764
秒钟	-10.2771
营养	-10.2776
一首	-10.2787
腐	-10.2796
‧	-10.2796
灵魂	-10.2797
教师	-10.2803
额外	-10.2805
起源	-10.2813
说道	-10.2828
很久	-10.2829
兴	-10.284
发送	-10.2844
Sh	-10.2845
▁不管是	-10.2852
池	-10.2861
磨	-10.2864
j	-10.2864
娱乐	-10.2865
争议	-10.2866
符号	-10.2866
去世	-10.2867
立刻	-10.287
领导人	-10.2877
越多	-10.2878
度过	-10.2884
火车	-10.2889
有一点	-10.2894
出发	-10.2894
文学	-10.2902
这个过程	-10.2916
会产生	-10.2916
比我们	-10.2919
▁对吗	-10.292
之下	-10.2921
刊	-10.2933
烤	-10.2933
雕塑	-10.2933
那一刻	-10.2933
辩论	-10.2934
编码	-10.2934
屋子	-10.2947
大概是	-10.2952
跟着	-10.2955
这个系统	-10.2961
变得更加	-10.2965
lo	-10.2973
表情	-10.2973
身处	-10.2992
白人	-10.2995
的话题	-10.3001
赖	-10.3002
敬	-10.3002
牢	-10.3002
藻	-10.3002
桑	-10.3002
辐射	-10.3002
仪式	-10.3004
喜爱	-10.3007
众多	-10.3008
药品	-10.3011
▁我必须	-10.3015
这两	-10.3015
自杀	-10.3018
信心	-10.3024
是因为我	-10.3026
▁但事实上	-10.3031
生物学家	-10.3036
▁当他	-10.3039
军事	-10.3041
洲	-10.3049
延	-10.3065
鲸	-10.3069
摸	-10.307
疯	-10.3071
迎	-10.3071
腺	-10.3071
订	-10.3071
▁换句话说	-10.3071
恐怖主义	-10.3071
迟	-10.3071
青少年	-10.3071
练习	-10.3072
粮食	-10.3072
激情	-10.3073
优秀的	-10.3076
分散	-10.3082
经济增长	-10.3089
正在发生	-10.3092
震	-10.3095
整合	-10.3099
▁它是一个	-10.3101
▁你可能会	-10.3106
150	-10.3112
拥	-10.3115
雄	-10.3122
不再是	-10.3126
习	-10.3129
旅	-10.3133
承	-10.3136
塑造	-10.3141
埋	-10.3141
引擎	-10.3141
泄	-10.3141
缝	-10.3141
躲	-10.3141
描绘	-10.3141
庆祝	-10.3141
肥胖	-10.3141
典型的	-10.3142
统治	-10.3142
这片	-10.3144
书籍	-10.3144
跟踪	-10.3144
异常	-10.3146
爆发	-10.3151
民众	-10.3151
还记得	-10.3159
这些信息	-10.3161
尤其	-10.3162
这座	-10.3167
核心	-10.3171
植入	-10.3173
再一次	-10.3175
镇	-10.3181
多数	-10.3187
跨越	-10.3192
他们所	-10.3193
设施	-10.3204
岸	-10.3208
愈	-10.3211
巴基斯坦	-10.3212
拔	-10.3212
辱	-10.3212
崩溃	-10.3212
繁荣	-10.3212
贸易	-10.3212
替代	-10.3213
饮食	-10.3213
做些	-10.3215
生命中	-10.3216
打印	-10.3216
分裂	-10.3219
克服	-10.3228
一周	-10.3233
大气	-10.3236
现在已经	-10.324
在那个	-10.3248
在他的	-10.3252
基金	-10.3273
的核心	-10.3274
ac	-10.3275
实时	-10.3279
谋	-10.3281
诱	-10.3283
杜	-10.3283
盛	-10.3283
达尔文	-10.3283
指挥	-10.3284
▁所以当	-10.3285
头发	-10.3286
创造一个	-10.3289
诊所	-10.3292
正义	-10.3294
安装	-10.3295
正好	-10.3296
贝尔	-10.3297
风格	-10.3305
体现	-10.3328
小说	-10.3345
仪	-10.3347
燃	-10.3352
春	-10.3354
铺	-10.3354
盐	-10.3354
竭	-10.3354
缺陷	-10.3354
申请	-10.3355
倾听	-10.3357
集团	-10.3358
我之前	-10.3363
指导	-10.3363
作物	-10.3364
进程	-10.3365
南部	-10.3365
远离	-10.3372
解放	-10.3377
外交	-10.3383
无线	-10.3385
想象力	-10.3398
了不起的	-10.3401
▁但是如果	-10.3414
年间	-10.3418
生活方式	-10.3419
一层	-10.3422
▁谢谢你	-10.3423
欲	-10.3425
拆	-10.3426
租	-10.3426
稿	-10.3426
躺	-10.3426
局限	-10.3428
房间里	-10.3432
论文	-10.3435
接收	-10.344
平方	-10.3442
感情	-10.3444
点击	-10.3448
石头	-10.3453
人均	-10.3461
树木	-10.3473
编程	-10.3473
激	-10.3478
Ch	-10.348
规定	-10.3483
密度	-10.3487
最重要的是	-10.349
哲学	-10.3494
荷	-10.3497
非常有趣	-10.3498
沮丧	-10.3498
目睹	-10.3499
延伸	-10.3499
洞穴	-10.3499
战斗	-10.35
民族	-10.3501
形态	-10.3501
推广	-10.3502
▁我曾经	-10.3504
得知	-10.3504
那边	-10.3513
这种情况	-10.3519
是因为我们	-10.3523
盲	-10.3524
我们今天	-10.353
发生的事情	-10.3535
▁但是它	-10.3563
ie	-10.3565
幸	-10.3566
想过	-10.3569
氏	-10.3571
召	-10.3571
宁	-10.3571
棉	-10.3571
冰川	-10.3572
瑞典	-10.3572
遥远	-10.3572
防止	-10.3573
频率	-10.3573
勇气	-10.3573
团结	-10.3576
的重要性	-10.3576
第二天	-10.3579
教室	-10.3581
镜头	-10.3585
事儿	-10.3586
自主	-10.3603
想一下	-10.3607
家长	-10.3607
足以	-10.3607
走过	-10.3608
一万	-10.3612
过度	-10.362
特点	-10.3621
不足	-10.3622
ia	-10.3625
罗斯	-10.3638
单一	-10.3639
辨	-10.3641
弃	-10.3641
湿	-10.3645
琳	-10.3645
蝠	-10.3645
伽	-10.3645
毕竟	-10.3645
噪音	-10.3645
舒服	-10.3645
祖母	-10.3646
和他的	-10.3648
引导	-10.3648
算是	-10.3651
广场	-10.3654
不行	-10.3662
过滤	-10.3666
▁我不想	-10.3672
对比	-10.3674
教会	-10.3681
把所有	-10.3686
那位	-10.3701
虽然	-10.371
一根	-10.3713
是对的	-10.3717
闭	-10.3717
灌	-10.3719
骗	-10.3719
烂	-10.3719
茶	-10.3719
蛇	-10.3719
委员会	-10.3719
愚蠢	-10.3719
芯片	-10.3719
承受	-10.3722
信念	-10.3722
某一	-10.3729
花粉	-10.373
在我看来	-10.3732
所见	-10.3733
联系起来	-10.3742
这份	-10.3745
不仅是	-10.3766
di	-10.3777
美金	-10.3779
尘	-10.3794
甘	-10.3794
畏	-10.3794
绑	-10.3794
饼	-10.3794
旧金山	-10.3794
企鹅	-10.3794
太棒了	-10.3794
繁殖	-10.3794
火箭	-10.3795
感官	-10.3799
礼物	-10.38
黑色	-10.38
社	-10.3802
安排	-10.3805
本地	-10.3809
家族	-10.3817
▁但现在	-10.3819
更重要	-10.3843
▁而且他们	-10.3844
不存在	-10.3845
售	-10.3851
▁即使是	-10.3853
墙上	-10.3855
永	-10.3862
焦	-10.3868
深深	-10.3869
污	-10.3869
悬	-10.3869
猛	-10.3869
逝	-10.3869
扩展	-10.3869
残疾	-10.3869
战略	-10.3872
午	-10.3873
无聊	-10.3878
影响力	-10.3885
合适的	-10.3892
改变世界	-10.3898
人造	-10.3899
市长	-10.3903
一本书	-10.3912
▁不是吗	-10.3916
生理	-10.3938
现今	-10.3942
缘	-10.3942
灾	-10.3942
中东	-10.3944
纷	-10.3945
宏	-10.3945
敲	-10.3945
陈	-10.3945
看不见	-10.3945
剩下的	-10.3947
航空	-10.3949
鱼类	-10.396
四十	-10.3962
原本	-10.3964
骨头	-10.3972
在学校	-10.3984
抑郁	-10.3985
房屋	-10.3988
▁就算	-10.3989
本质上	-10.3998
肢	-10.4013
纯	-10.4019
司	-10.4019
裤	-10.4021
莎	-10.4021
三分之一	-10.4021
饥饿	-10.4021
讨厌	-10.4021
乔治	-10.4022
设置	-10.4022
重视	-10.4023
罪犯	-10.4023
质疑	-10.4023
氧气	-10.4024
ell	-10.4029
ul	-10.4035
回收	-10.404
消除	-10.4041
▁每当	-10.406
做了一个	-10.4061
体制	-10.4072
祖	-10.4092
跃	-10.4096
炸	-10.4096
更容易	-10.4098
薪	-10.4098
辞	-10.4098
饱	-10.4098
哺乳动物	-10.4098
扩张	-10.4099
连续	-10.4099
厕所	-10.4099
退休	-10.4099
抗议	-10.41
资助	-10.41
经营	-10.4101
事故	-10.4103
不安	-10.4127
▁因为它们	-10.4128
存在着	-10.4135
多种	-10.4136
而不是	-10.414
▁然后再	-10.4144
ig	-10.4147
只会	-10.4163
hi	-10.4168
什	-10.4171
渔	-10.4174
导致了	-10.4174
纪念	-10.4174
海底	-10.4175
胎	-10.4175
摄像机	-10.4175
模糊	-10.4176
Co	-10.4177
既然	-10.4178
有多少人	-10.4178
使你	-10.418
物理学家	-10.4185
底部	-10.4186
nd	-10.4188
ry	-10.419
脑部	-10.4193
这块	-10.4195
我的朋友	-10.42
大约有	-10.42
离开了	-10.4208
字典	-10.4209
前往	-10.4213
帮我	-10.4215
有更多的	-10.4219
随时	-10.4225
令我	-10.4243
阶	-10.4251
奔	-10.4254
巢	-10.4254
雾	-10.4254
保障	-10.4254
关闭	-10.4255
抽象	-10.4256
护士	-10.4256
宣布	-10.4257
▁但如果你	-10.4258
鸟类	-10.426
已有	-10.4265
法官	-10.4268
作为一名	-10.4271
写作	-10.4271
后代	-10.429
为什么会	-10.4296
碰到	-10.4299
胜利	-10.4302
▁你们可以	-10.4304
遇	-10.4316
给出	-10.432
让大家	-10.4325
储存	-10.4325
欢迎	-10.433
仿	-10.4331
秀	-10.4331
奋	-10.4332
浸	-10.4332
▁这真是	-10.4332
恰恰	-10.4333
联邦	-10.4333
魔术	-10.4333
协议	-10.4333
太阳系	-10.4333
绘画	-10.4334
世上	-10.4347
看着我	-10.4348
一个故事	-10.4353
父	-10.4362
▁当人们	-10.4376
部位	-10.4382
um	-10.4383
以及其他	-10.4383
ce	-10.4388
这个数字	-10.4392
未知	-10.4399
利亚	-10.4404
引用	-10.4407
纽	-10.441
蚁	-10.441
抛	-10.4411
傻	-10.4412
斑	-10.4412
纠	-10.4412
朱	-10.4412
理查德	-10.4412
掌控	-10.4412
餐厅	-10.4413
▁不幸的是	-10.4413
协调	-10.4414
密码	-10.4414
分辨	-10.4416
周期	-10.4421
放入	-10.4422
满意	-10.4424
运转	-10.4424
买了	-10.4424
好好	-10.4432
分开	-10.4434
解决这个问题	-10.4434
边界	-10.4435
人权	-10.4435
一整	-10.4441
推进	-10.4444
使它	-10.4445
心中	-10.4448
消失了	-10.4448
再生	-10.4456
▁你知道吗	-10.4459
天气	-10.4461
▁这是因为	-10.4464
比尔	-10.4474
有用的	-10.4474
▁而现在	-10.4479
严	-10.4485
夏	-10.4485
屏幕上	-10.4486
向前	-10.4487
策	-10.449
忧	-10.4491
驾	-10.4492
抢	-10.4492
鉴	-10.4492
两次	-10.4493
区分	-10.4493
单独	-10.4495
受伤	-10.4495
很高	-10.4497
机场	-10.4501
动态	-10.4503
2008	-10.4503
在接下来的	-10.4511
下一代	-10.4517
两倍	-10.4519
光线	-10.4545
会怎样	-10.4546
碰	-10.4555
重量	-10.4564
灭	-10.457
牧	-10.4571
漏	-10.4571
堪	-10.4572
擦	-10.4572
劲	-10.4572
皇	-10.4572
厨房	-10.4572
做到了	-10.4572
上百	-10.4573
黄金	-10.4575
乐队	-10.4578
液体	-10.4579
保罗	-10.458
组装	-10.4581
花园	-10.4582
还需要	-10.4583
方便	-10.4591
命名	-10.4592
▁以便	-10.4594
惊人	-10.4597
月球	-10.4598
不懂	-10.4598
分类	-10.4605
自信	-10.4616
出色	-10.4622
的确是	-10.4624
这张图	-10.4625
小时候	-10.4632
否	-10.4632
好玩	-10.4633
22	-10.4645
明天	-10.4645
是什么样的	-10.4645
数千	-10.4647
▁这正是	-10.465
织	-10.4651
甚	-10.4651
役	-10.4654
舍	-10.4654
叹	-10.4654
吻	-10.4654
负担	-10.4655
隐私	-10.4655
喜剧	-10.4655
安静	-10.466
顺利	-10.466
停下来	-10.4662
部队	-10.4664
转向	-10.467
讲话	-10.4672
ow	-10.4674
那个人	-10.4675
桌子	-10.4676
演化	-10.4679
你可以看到	-10.4688
各自	-10.4694
学者	-10.4698
也不能	-10.4701
反而	-10.4704
作业	-10.4709
促使	-10.4714
万个	-10.4717
大概有	-10.4725
建立一个	-10.4734
暖	-10.4734
亚马逊	-10.4736
挡	-10.4736
柔	-10.4736
珠	-10.4736
罐	-10.4736
一会儿	-10.4736
歧视	-10.4736
干净	-10.4737
年的时间	-10.4739
会不会	-10.474
预期	-10.4742
图案	-10.4744
河流	-10.4748
▁那么你	-10.475
一些事情	-10.4767
▁但是当	-10.4769
看起来像	-10.4779
一种新的	-10.4782
想出	-10.4782
形成了	-10.4811
径	-10.4813
讲故事	-10.4813
净	-10.4816
烦	-10.4818
扇	-10.4818
崇	-10.4818
谜	-10.4818
陌生人	-10.4818
勇敢	-10.4819
毁灭	-10.4819
鼓舞	-10.4819
形容	-10.4825
自然界	-10.4831
传达	-10.4839
可持续	-10.4853
从没	-10.4856
台上	-10.4866
发起	-10.4868
一方面	-10.487
2010	-10.487
眼前	-10.4871
新型	-10.4885
疗法	-10.4885
视为	-10.4888
son	-10.4889
怎么办	-10.4893
也知道	-10.4893
我说的	-10.4894
探测	-10.4899
让自己	-10.49
揭	-10.4901
邦	-10.4901
抬	-10.4902
从来不	-10.4904
无比	-10.4907
碎片	-10.4907
800	-10.4908
变得越来越	-10.4912
我们所做的	-10.4914
打击	-10.4917
站起来	-10.4921
65	-10.4925
四处	-10.4927
精力	-10.4927
考虑到	-10.4928
类似于	-10.4935
刚开始	-10.4939
立即	-10.4941
输	-10.4944
▁但当	-10.495
这句话	-10.4961
▁所以如果	-10.4962
体育	-10.4966
学术	-10.4974
年级	-10.4974
寻常	-10.4978
驱	-10.498
那个时候	-10.4983
琴	-10.4985
妮	-10.4986
炎	-10.4986
捷	-10.4986
赌	-10.4986
货币	-10.4986
钢琴	-10.4986
差距	-10.4986
框架	-10.4986
抵抗	-10.4987
戏剧	-10.4987
沉默	-10.4988
自豪	-10.4989
网页	-10.499
▁难道	-10.499
体重	-10.4992
为自己	-10.4993
神话	-10.4995
在上面	-10.4995
ah	-10.4996
你看到的	-10.5001
乡	-10.5003
海报	-10.5003
界面	-10.5008
的做法	-10.5008
一遍	-10.5017
万年	-10.5027
革新	-10.5028
传染	-10.5035
学科	-10.5047
小行星	-10.5051
敏	-10.5053
起作用	-10.5056
大象	-10.5062
几千	-10.5067
俄	-10.507
凝	-10.507
荡	-10.507
GDP	-10.507
遵循	-10.507
捕捉	-10.5071
印刷	-10.5071
鲨鱼	-10.5071
顾客	-10.5072
采集	-10.5072
参观	-10.5073
▁这并不是	-10.5073
想一想	-10.5073
坚信	-10.5074
当下	-10.5074
开启	-10.5075
午餐	-10.5075
当成	-10.5076
数码	-10.5077
皮层	-10.5082
跟你	-10.5087
我们的生活	-10.5091
经历过	-10.5098
可靠	-10.5107
量子	-10.5108
活力	-10.5109
这件	-10.5114
我应该	-10.5115
一间	-10.5116
下午	-10.5147
免疫	-10.515
迁	-10.5155
肩	-10.5156
氢	-10.5156
婆	-10.5156
宾	-10.5156
攀	-10.5156
困境	-10.5157
这些照片	-10.5159
跳舞	-10.516
眼镜	-10.5162
倾向于	-10.5162
句子	-10.5178
一定会	-10.5181
罗马	-10.5184
什么东西	-10.5184
在英国	-10.5185
圣经	-10.5193
▁所以我想	-10.5201
有益	-10.5203
经济学	-10.5204
长时间	-10.5204
技	-10.522
通讯	-10.5224
涉	-10.524
煤	-10.5242
染色体	-10.5242
仁	-10.5242
伏	-10.5242
甜	-10.5242
志愿者	-10.5242
至关重要	-10.5242
渐渐	-10.5242
利润	-10.5243
这边	-10.5244
▁因为这是	-10.5245
交换	-10.5248
▁你能看到	-10.5249
法案	-10.525
场所	-10.5259
显	-10.526
帝国	-10.5265
ck	-10.5268
一直都	-10.5277
一百万	-10.5277
指的是	-10.5282
还有其他	-10.53
十万	-10.5301
ent	-10.5314
损	-10.5323
谢	-10.5324
欢	-10.5328
亦	-10.5329
惠	-10.5329
栏	-10.5329
畅	-10.5329
腾	-10.5329
摧毁	-10.5329
焦虑	-10.5329
屠杀	-10.5329
蛋白	-10.533
交互	-10.5331
诗歌	-10.5333
▁此外	-10.5335
这其中	-10.5343
永远不会	-10.5347
相连	-10.5349
ke	-10.5351
学到了	-10.5354
▁但却	-10.5358
建筑物	-10.5363
就越	-10.5369
95	-10.5371
▁让我来	-10.5373
这个地方	-10.5374
这种方法	-10.5384
帮助他们	-10.5388
某人	-10.539
3000	-10.5394
不如	-10.5401
只需	-10.5411
斗	-10.5414
丑	-10.5417
柜	-10.5417
瞧	-10.5417
串	-10.5417
井	-10.5417
太平洋	-10.5417
渡	-10.5417
皆	-10.5417
耶	-10.5417
幽默	-10.5417
队伍	-10.5418
隔离	-10.5418
传输	-10.5419
鲸鱼	-10.5419
英文	-10.542
确信	-10.5421
灵活	-10.5421
700	-10.5423
证实	-10.5428
其他地方	-10.5429
几周	-10.543
部件	-10.5431
深处	-10.5439
任何地方	-10.544
显得	-10.5442
面部	-10.5448
伙	-10.5449
一起工作	-10.5451
ll	-10.5461
冠	-10.5465
▁这让我	-10.5468
,	-10.5479
诊	-10.5492
危	-10.5501
ni	-10.5502
逆	-10.5503
核能	-10.5504
攻	-10.5504
累	-10.5504
档	-10.5504
繁	-10.5505
裁	-10.5505
屏	-10.5505
辈	-10.5505
我们所有人	-10.5505
吞	-10.5505
址	-10.5505
瓜	-10.5505
环绕	-10.5507
接到	-10.5509
收获	-10.5509
遍布	-10.551
变异	-10.5518
▁谢谢你们	-10.5519
首次	-10.5523
影像	-10.5524
下载	-10.5534
无知	-10.5536
▁St	-10.5537
深海	-10.5537
着陆	-10.5541
跟你们	-10.5542
机遇	-10.5545
涉及	-10.5556
享	-10.5557
融	-10.5568
聚会	-10.557
ho	-10.5586
困	-10.559
递	-10.5592
Chris	-10.5594
俩	-10.5594
悟	-10.5594
枝	-10.5594
赤	-10.5594
Facebook	-10.5594
囊	-10.5594
惜	-10.5594
拓	-10.5594
蚊帐	-10.5594
雇佣	-10.5595
▁否则	-10.5595
燃烧	-10.5595
耳朵	-10.5595
各地	-10.5597
干什么	-10.5598
绘制	-10.56
月份	-10.5603
感应	-10.5604
天堂	-10.5605
将近	-10.5605
注入	-10.5606
只有一个	-10.5611
失明	-10.5614
敌	-10.5615
割	-10.5622
很有可能	-10.5626
童年	-10.5629
更少	-10.5646
绝大多数	-10.5647
不停	-10.5664
所谓	-10.5668
一同	-10.5671
替	-10.5681
扰	-10.5682
饮	-10.5683
万年前	-10.5684
彻	-10.5684
纵	-10.5684
卢	-10.5685
帽	-10.5685
晶	-10.5685
唤	-10.5685
化合物	-10.5685
显微镜	-10.5685
某种意义上	-10.5685
监控	-10.5685
代替	-10.5686
广播	-10.5686
悲伤	-10.5686
炸弹	-10.5686
具备	-10.5687
试试	-10.5687
定律	-10.5689
很长时间	-10.5698
新鲜	-10.5699
南极	-10.5699
来到这里	-10.57
海水	-10.5703
共有	-10.5709
▁我们都知道	-10.571
诗人	-10.5717
给了我	-10.5717
亲密	-10.5721
科学家们	-10.5726
含有	-10.5727
带回	-10.5729
任何东西	-10.5736
ut	-10.574
mo	-10.5741
可不是	-10.5765
盒	-10.5765
戈	-10.577
地震	-10.577
刷	-10.5775
贯	-10.5775
玉米	-10.5776
联盟	-10.5776
哈佛	-10.5778
整整	-10.5778
源于	-10.5779
伊斯兰	-10.5782
气味	-10.5783
火山	-10.579
对我们来说	-10.579
促	-10.5792
乐器	-10.5794
一支	-10.5799
ap	-10.5807
主流	-10.5807
以往	-10.5821
卡车	-10.583
等着	-10.5834
不愿意	-10.584
游行	-10.5843
op	-10.5848
同步	-10.5857
朵	-10.5867
穆	-10.5867
贪	-10.5867
加利福尼亚	-10.5867
贾	-10.5867
挖掘	-10.5867
惩罚	-10.5867
毫无疑问	-10.5868
始终	-10.5868
怀孕	-10.5868
结尾	-10.587
大气层	-10.587
我希望你们	-10.587
找不到	-10.5876
六个月	-10.5878
威尔	-10.5879
飞船	-10.588
me	-10.5883
正式	-10.589
视力	-10.5897
小女孩	-10.59
高速	-10.5902
开始思考	-10.5903
激进	-10.5912
数学家	-10.5914
走路	-10.5918
很清楚	-10.5923
参与到	-10.5923
向你们	-10.5926
man	-10.5942
却没有	-10.5943
高级	-10.5944
代表着	-10.5946
这一切都	-10.595
制造出	-10.5953
一个巨大的	-10.5955
bo	-10.5956
朗	-10.5956
邻	-10.5959
腹	-10.596
GPS	-10.596
泪	-10.596
浅	-10.596
艇	-10.596
永久	-10.5961
依旧	-10.5961
含义	-10.5961
康复	-10.5961
悲剧	-10.5962
瑞士	-10.5962
完善	-10.5963
创立	-10.5964
探测器	-10.5964
适	-10.5964
争取	-10.5965
反复	-10.5969
仅有	-10.597
某种程度上	-10.5971
聊天	-10.5972
心灵	-10.5975
很有意思	-10.5978
亚当	-10.5985
多久	-10.5996
非法	-10.5998
完整	-10.6
很酷	-10.6005
去找	-10.6007
环境下	-10.6011
并不知道	-10.6037
熟	-10.6047
很长的	-10.6049
忍	-10.6049
奶	-10.6052
惨	-10.6053
罩	-10.6053
忠	-10.6053
瘫	-10.6053
是什么样子	-10.6053
祈祷	-10.6053
财政	-10.6054
折磨	-10.6054
建立起	-10.6055
绝望	-10.6057
劳动	-10.6061
沃尔	-10.6063
在网上	-10.6066
情报	-10.6067
通信	-10.6069
你们可能	-10.607
尼亚	-10.6071
势力	-10.6071
等于	-10.6076
青年	-10.6077
见证	-10.6086
观察到	-10.6096
23	-10.6117
包含了	-10.6118
议员	-10.6121
家乡	-10.6127
染	-10.6142
Al	-10.6143
滋	-10.6144
每周	-10.6146
辩	-10.6146
撒	-10.6147
娃	-10.6148
烹	-10.6148
篮	-10.6148
涨	-10.6148
芝加哥	-10.6148
乡村	-10.6148
车祸	-10.6149
序列	-10.6149
睡觉	-10.615
该如何	-10.615
收益	-10.6151
权威	-10.6152
失望	-10.6153
强迫	-10.6153
变为	-10.6153
成熟	-10.6154
2009	-10.6159
一个简单的	-10.6161
写着	-10.6162
街头	-10.6166
统	-10.6171
举行	-10.6177
部长	-10.6188
外部	-10.619
均	-10.6192
研究人员	-10.6196
物理学	-10.6205
在某种程度上	-10.6231
用它来	-10.6234
觉得自己	-10.6237
一堆	-10.6239
介	-10.6239
祖父	-10.6242
祝	-10.6243
糖尿病	-10.6243
丘	-10.6243
臭	-10.6243
讽刺	-10.6243
尺寸	-10.6243
这个样子	-10.6243
竟然	-10.6243
一小部分	-10.6244
今晚	-10.6245
岩石	-10.6245
刚果	-10.6248
激光	-10.625
科学研究	-10.6255
遭遇	-10.6257
微笑	-10.6258
我和我的	-10.6264
带领	-10.6264
幻想	-10.6269
27	-10.6278
数据库	-10.6279
双手	-10.6285
本书	-10.6292
大部分人	-10.6303
纽约市	-10.6311
六个	-10.6314
陆	-10.6321
龄	-10.6325
有多大	-10.6329
喻	-10.6331
ak	-10.6332
豪	-10.6335
尺	-10.6335
汤	-10.6338
蜜	-10.6338
挖	-10.6339
粗	-10.6339
前所未有的	-10.6339
牵	-10.6339
砖	-10.6339
欺骗	-10.6339
撒谎	-10.6339
仿佛	-10.6339
在同一	-10.634
折叠	-10.634
偶然	-10.6341
资产	-10.6342
酒店	-10.6342
运营	-10.6343
赚钱	-10.6344
成年人	-10.6344
还有一些	-10.6346
让它们	-10.6351
辆车	-10.6354
航天	-10.6355
也不知道	-10.6355
维度	-10.6365
男子	-10.6368
天然	-10.6369
字体	-10.6372
会导致	-10.6377
词汇	-10.6379
给自己	-10.6379
电路	-10.6379
福利	-10.6388
统一	-10.6398
佳	-10.6412
许可	-10.6415
新技术	-10.642
放射	-10.6421
生病	-10.6422
臂	-10.6426
在家里	-10.6429
地表	-10.6431
挑	-10.6432
束	-10.6433
栋	-10.6436
坡	-10.6436
浴	-10.6436
兽	-10.6436
掩	-10.6436
愉快	-10.6436
阻碍	-10.6436
媒介	-10.6436
疼痛	-10.6437
韩国	-10.6437
轻松	-10.6438
观测	-10.6439
增强	-10.6442
融化	-10.6447
一个很好的	-10.645
确切	-10.6453
一直以来	-10.6462
管道	-10.6464
真理	-10.6465
缩小	-10.6469
寻	-10.6484
da	-10.6486
陆地	-10.6494
▁但是如果你	-10.6495
有幸	-10.6495
一句	-10.65
色彩	-10.6513
很多人都	-10.6526
察	-10.653
稳	-10.6531
伐	-10.6534
卢旺达	-10.6534
晓	-10.6534
虾	-10.6534
抱歉	-10.6534
挣扎	-10.6535
批评	-10.6535
监管	-10.6536
北美	-10.6536
帮忙	-10.6537
经典	-10.6537
融入	-10.6538
会让你	-10.6543
天才	-10.6547
所需要的	-10.6549
跟我说	-10.6552
清理	-10.6552
例外	-10.6558
被称作	-10.6559
食用	-10.656
不停地	-10.6562
何时	-10.6564
尚	-10.6571
这两种	-10.6573
确认	-10.6574
大笑	-10.6578
银	-10.658
脱离	-10.6581
全面	-10.6582
美分	-10.6584
演出	-10.6588
非常棒	-10.6609
搬到	-10.6612
三种	-10.6615
数百万	-10.6617
购	-10.6625
饰	-10.6631
框	-10.6632
障	-10.6632
奥巴马	-10.6633
叛	-10.6633
尿	-10.6633
巧克力	-10.6633
恐怖分子	-10.6633
笼	-10.6633
逼	-10.6633
奉	-10.6633
详细	-10.6633
匿名	-10.6634
孤独	-10.6634
灯泡	-10.6634
农村	-10.6634
Mo	-10.6634
监视	-10.6634
评价	-10.6634
乐趣	-10.6635
荷兰	-10.6635
创伤	-10.6636
com	-10.6638
情景	-10.6638
脑袋	-10.6638
▁那里有	-10.6642
适用于	-10.6642
工作人员	-10.6644
和谐	-10.6644
外界	-10.6658
图形	-10.6659
数目	-10.6659
▁你们可以看到	-10.6666
一生中	-10.6666
也可能	-10.6668
前提	-10.6669
不清楚	-10.6674
植	-10.6679
全都	-10.6681
通用	-10.6683
这种方式	-10.6683
辆	-10.6688
政治家	-10.6689
很快就	-10.6691
尤	-10.6695
艺	-10.6731
毕	-10.6731
丰	-10.6732
债	-10.6733
珊瑚礁	-10.6733
腔	-10.6733
・	-10.6733
巾	-10.6733
疲	-10.6733
遗憾	-10.6733
困扰	-10.6733
支撑	-10.6734
武装	-10.6734
亲爱的	-10.6734
幻觉	-10.6735
长达	-10.6735
营销	-10.6735
排列	-10.674
独自	-10.6742
足球	-10.6743
是很重要的	-10.6744
平常	-10.6744
引入	-10.6745
页面	-10.6746
2007	-10.6747
美洲	-10.6748
开关	-10.6749
当前	-10.675
可以做到	-10.675
公布	-10.6758
Le	-10.6764
遇见	-10.6772
我的父亲	-10.6781
数百	-10.6789
是错误的	-10.6802
地铁	-10.6804
倾	-10.6824
挥	-10.6827
肌	-10.6833
伪	-10.6834
涵	-10.6834
兼	-10.6834
核聚变	-10.6834
波士顿	-10.6834
耻	-10.6834
贫民窟	-10.6834
闹	-10.6834
抱怨	-10.6834
牙齿	-10.6835
十二	-10.6835
欲望	-10.6835
课堂	-10.6836
法庭	-10.6837
专注于	-10.684
缺少	-10.6841
鼻子	-10.6843
味道	-10.6846
二战	-10.6847
最基本的	-10.685
笑话	-10.6863
音乐家	-10.6865
告诉他	-10.6873
著名	-10.6886
的世界里	-10.6888
种不同的	-10.6896
无线电	-10.6903
拍照	-10.691
已知	-10.6925
我母亲	-10.6927
主动	-10.6933
映	-10.6934
iPhone	-10.6936
契	-10.6936
栖息地	-10.6936
泉	-10.6936
窃	-10.6936
荣幸	-10.6936
拥抱	-10.6937
巴黎	-10.6937
摄影师	-10.6938
化学物质	-10.6942
含量	-10.6943
围绕着	-10.6947
原型	-10.6949
▁答案是	-10.695
id	-10.6952
ers	-10.6971
极度	-10.6972
分成	-10.6978
这部电影	-10.6991
ga	-10.7013
数字化	-10.7014
做了什么	-10.7018
启	-10.7023
续	-10.7037
泛	-10.7039
扫	-10.7039
拨	-10.7039
磷	-10.7039
墨	-10.7039
扩散	-10.704
教训	-10.704
司机	-10.7041
缓慢	-10.7041
布朗	-10.7042
种种	-10.7042
概率	-10.7043
举办	-10.7044
▁这就意味着	-10.7044
干预	-10.7046
风暴	-10.7048
调节	-10.705
国内	-10.7052
方块	-10.7058
参与者	-10.7058
老板	-10.706
客观	-10.7061
我刚才	-10.7084
醒来	-10.7085
脉	-10.7112
▁但实际上	-10.7114
独特	-10.7125
怕	-10.7132
衡	-10.7132
那条	-10.7136
这个例子	-10.7137
及其	-10.714
穴	-10.7143
耕	-10.7143
坑	-10.7143
显而易见	-10.7143
曼哈顿	-10.7143
窗户	-10.7144
哪怕	-10.7145
苏联	-10.7146
精英	-10.7146
设立	-10.7146
反应堆	-10.7149
正面	-10.715
顶端	-10.715
指令	-10.715
维护	-10.715
▁其次	-10.7151
劳动力	-10.7152
随意	-10.7154
几个小时	-10.7158
工作室	-10.7168
平面	-10.7178
学位	-10.7181
路线	-10.7206
遭到	-10.7209
这件事情	-10.7209
长度	-10.722
实体	-10.7225
纪	-10.7232
歌曲	-10.7234
激素	-10.7239
两位	-10.7247
脊	-10.7248
鹅	-10.7249
咬	-10.7249
夹	-10.7249
嵌	-10.7249
狮	-10.7249
狼	-10.7249
跌	-10.7249
宿	-10.7249
笨	-10.7249
鸽	-10.7249
催	-10.7249
舒适	-10.7249
克里斯	-10.7249
匹配	-10.725
天然气	-10.7251
可持续发展	-10.7253
向你们展示	-10.7254
视野	-10.7254
录音	-10.7255
群岛	-10.7257
整理	-10.7257
决心	-10.726
请求	-10.7261
负面	-10.7264
毫不	-10.7269
很幸运	-10.7286
分解	-10.7287
麦克	-10.7313
整个世界	-10.7314
全身	-10.7315
震动	-10.7315
表现出	-10.7318
无论如何	-10.7331
0000	-10.7341
上述	-10.7344
旋	-10.7352
摔	-10.7355
嘲	-10.7355
骄傲	-10.7355
与众不同	-10.7355
困惑	-10.7355
抛弃	-10.7355
撞击	-10.7358
居然	-10.7359
工资	-10.736
底下	-10.7367
服用	-10.7368
指标	-10.7369
交给	-10.7378
西部	-10.7382
听见	-10.7392
从这里	-10.7394
一架	-10.7395
无关	-10.7402
主导	-10.7403
气体	-10.7411
读者	-10.7426
年纪	-10.7453
键	-10.7459
账	-10.7462
唐	-10.7463
柯	-10.7463
痴	-10.7463
全球变暖	-10.7463
哨	-10.7463
嗨	-10.7463
标题	-10.7465
趣	-10.7467
对我而言	-10.7467
知觉	-10.7468
反抗	-10.747
心理学	-10.747
电子游戏	-10.7472
各国	-10.7476
▁假如你	-10.7492
深度	-10.7498
引力	-10.7507
床上	-10.751
ub	-10.7517
患上	-10.7526
拿起	-10.7526
被迫	-10.7539
被认为是	-10.7542
集合	-10.7543
han	-10.7555
符	-10.7565
况	-10.7569
85	-10.7569
嘛	-10.7569
谎	-10.757
室内	-10.757
茨	-10.757
剥	-10.7571
狭	-10.7571
疏	-10.7571
萤火虫	-10.7571
鹰	-10.7571
有史以来	-10.7571
葬	-10.7571
发达国家	-10.7571
依据	-10.7572
▁观众笑	-10.7574
激活	-10.7574
再也不	-10.7576
协作	-10.7577
果蝇	-10.7578
官方	-10.7579
反射	-10.7579
受益	-10.758
短期	-10.758
前景	-10.7588
艺术品	-10.7591
智力	-10.7597
可持续性	-10.7608
一件事情	-10.7608
透过	-10.7621
脸上	-10.7624
存储	-10.7636
▁这才是	-10.7638
一副	-10.7646
那段	-10.7654
vi	-10.7661
爆	-10.7666
阳	-10.7672
两千	-10.7673
第一步	-10.7674
猩猩	-10.768
慌	-10.7681
矩	-10.7681
亨	-10.7681
偿	-10.7681
勤	-10.7681
埃塞俄比亚	-10.7681
大西洋	-10.7681
好莱坞	-10.7681
毯	-10.7681
外星人	-10.7681
睡眠	-10.7682
积累	-10.7682
对于我来说	-10.7682
高尔夫球	-10.7682
山脉	-10.7683
巨型	-10.7687
准则	-10.7688
一句话	-10.7689
心理学家	-10.7691
国王	-10.7691
访问	-10.7693
周边	-10.7694
突然间	-10.7695
长久	-10.7698
几分钟	-10.7699
滥用	-10.7702
认可	-10.7705
所带来的	-10.7712
用途	-10.7714
解决方法	-10.772
感激	-10.7721
协会	-10.7723
岁的孩子	-10.7723
生气	-10.7727
返	-10.7737
讲讲	-10.7738
的一员	-10.7753
高科技	-10.7765
构想	-10.7776
放在一起	-10.7778
超市	-10.7783
bi	-10.7784
伊斯兰教	-10.7784
戒	-10.7792
抚	-10.7792
开玩笑	-10.7792
弥	-10.7792
厉害	-10.7793
保健	-10.7793
发掘	-10.7793
优雅	-10.7794
干扰	-10.7795
审视	-10.7795
占据	-10.7795
官员	-10.7797
版权	-10.7798
极限	-10.7798
男女	-10.7799
诚实	-10.78
树林	-10.7803
很奇怪	-10.7805
联系在一起	-10.7809
角度来	-10.7819
尽量	-10.782
雄性	-10.7822
解读	-10.7834
盲人	-10.7864
我的父母	-10.7871
己	-10.7899
轨	-10.7901
艘	-10.7903
弯	-10.7904
贫	-10.7904
遮	-10.7905
酱	-10.7905
咨询	-10.7905
姓	-10.7905
苍蝇	-10.7905
4000	-10.7907
购物	-10.7908
创业	-10.7909
无人机	-10.7909
推测	-10.791
实质	-10.791
马丁	-10.7913
好奇心	-10.7916
加贝	-10.7921
另一边	-10.7921
村子	-10.7927
依赖于	-10.7929
损伤	-10.793
出售	-10.793
简化	-10.7934
一张照片	-10.7936
怎样才能	-10.7946
Li	-10.7948
最棒的	-10.7952
面临着	-10.7956
也同样	-10.797
重力	-10.8003
打造	-10.801
纪录	-10.8016
护理	-10.8017
荣	-10.8018
措	-10.8018
署	-10.8018
欣	-10.8018
怜	-10.8018
打交道	-10.8018
无处不在	-10.8018
匠	-10.8018
橡	-10.8018
因特网	-10.8018
德里克	-10.8018
操纵	-10.8018
尊严	-10.8019
挪威	-10.8019
轨迹	-10.8019
囚犯	-10.8019
共鸣	-10.8019
休息	-10.8019
消灭	-10.8019
人工智能	-10.8019
触摸	-10.802
温暖	-10.802
即兴	-10.802
旅游	-10.8021
惊喜	-10.8021
赞助	-10.8022
到底是什么	-10.8022
坦白	-10.8022
受欢迎	-10.8023
医药	-10.8023
车辆	-10.8024
提议	-10.8027
底层	-10.8027
哲学家	-10.8028
随便	-10.8028
成为一名	-10.8033
飞行器	-10.8036
流程	-10.8037
建成	-10.8046
第二次	-10.8056
加纳	-10.806
特质	-10.8065
临时	-10.807
涉及到	-10.8071
运算	-10.8086
来源于	-10.8098
予	-10.8126
开源	-10.8129
伍	-10.8132
匹	-10.8132
册	-10.8132
厌	-10.8132
趋	-10.8132
挣	-10.8133
募	-10.8133
菇	-10.8133
Q	-10.8133
温室气体	-10.8133
炼	-10.8133
罢	-10.8133
蔓延	-10.8133
公斤	-10.8133
从根本上	-10.8134
独裁	-10.8134
这个星球上	-10.8135
蚁群	-10.8135
布什	-10.8135
暗示	-10.8136
硬件	-10.8136
夜晚	-10.8139
几个星期	-10.8139
包装	-10.8141
分别	-10.8142
角度看	-10.8143
微型	-10.8146
新兴	-10.8147
短片	-10.8147
大爆炸	-10.8148
2005	-10.8153
添加	-10.8155
直线	-10.8156
水母	-10.816
这项工作	-10.8164
两周	-10.8164
小镇	-10.8182
储	-10.819
棵树	-10.819
每一天	-10.8191
是非常重要的	-10.822
从来没	-10.8227
顶部	-10.8239
五千	-10.8247
每一次	-10.8249
洪	-10.825
汁	-10.825
蕾	-10.825
詹姆斯	-10.825
搜寻	-10.825
英寸	-10.825
顺序	-10.8251
装饰	-10.8252
消防	-10.8253
界限	-10.8253
搭建	-10.8253
季节	-10.8253
个性化	-10.8253
询问	-10.8253
景观	-10.8254
严格	-10.8254
设定	-10.8255
ick	-10.8259
比喻	-10.8259
原料	-10.826
步行	-10.8263
ph	-10.8263
巴拉	-10.8299
总体	-10.8317
没办法	-10.8317
是不可能的	-10.8326
合适	-10.8334
所拥有的	-10.834
司法	-10.8361
险	-10.8362
赏	-10.8367
吐	-10.8367
喔	-10.8367
榜	-10.8367
轰	-10.8367
酶	-10.8367
爱尔兰	-10.8367
笛	-10.8367
查尔斯	-10.8367
富裕	-10.8367
猜测	-10.8369
医师	-10.837
必然	-10.837
简短	-10.8371
模块	-10.8371
棒球	-10.8373
称作	-10.8373
尸体	-10.8381
生育	-10.8382
品质	-10.8383
星星	-10.8385
恶心	-10.8388
制成	-10.8402
我想说的是	-10.8457
词语	-10.8462
ru	-10.8468
最伟大的	-10.847
产量	-10.8472
监	-10.8481
虑	-10.8485
我的同事	-10.8486
督	-10.8486
怒	-10.8486
巴勒斯坦	-10.8486
窝	-10.8486
肚	-10.8486
膨胀	-10.8486
裸	-10.8486
陪	-10.8486
劫	-10.8486
转化为	-10.8486
储蓄	-10.8486
捐赠	-10.8486
按钮	-10.8486
邪恶	-10.8486
简洁	-10.8487
弯曲	-10.8487
拜访	-10.8487
档案	-10.8487
尾巴	-10.8491
装备	-10.8492
土星	-10.8497
研	-10.8558
乏	-10.8606
颠	-10.8607
垫	-10.8607
屈	-10.8607
押	-10.8607
撕	-10.8607
歇	-10.8607
淋	-10.8607
检	-10.8653
尝	-10.8658
滩	-10.8725
距	-10.8726
醉	-10.8728
卑	-10.8729
芭	-10.8729
厄	-10.8729
恼	-10.8729
猿	-10.8729
胃	-10.8729
蒸	-10.8756
泡	-10.8804
鼻	-10.8842
廊	-10.8848
凶	-10.8852
锐	-10.8852
颈	-10.8852
阅	-10.8971
讨	-10.8975
昂	-10.8977
娅	-10.8977
摘	-10.8977
棍	-10.8977
漆	-10.8977
俱	-10.8977
绘	-10.9092
踪	-10.9099
抑	-10.91
箭	-10.9102
削	-10.9103
齿	-10.9103
渐	-10.9103
矮	-10.9104
蛮	-10.9104
塌	-10.9104
愧	-10.9104
斥	-10.9104
旨	-10.9104
昏	-10.9104
李	-10.9104
洁	-10.9229
髓	-10.9232
罚	-10.9232
喘	-10.9232
衷	-10.9232
驼	-10.9232
坛	-10.9232
扣	-10.9232
踢	-10.9232
颇	-10.9232
鹿	-10.9232
培	-10.936
寒	-10.936
慈	-10.9361
须	-10.9361
肝	-10.9361
砸	-10.9362
啥	-10.9362
晃	-10.9362
株	-10.9362
铜	-10.9362
棵	-10.9428
伟	-10.9441
殖	-10.949
盟	-10.9492
饿	-10.9493
竹	-10.9493
舌	-10.9493
舱	-10.9493
醇	-10.9493
扯	-10.9493
帝	-10.9587
梯	-10.9622
勇	-10.9624
仰	-10.9625
惯	-10.9626
挨	-10.9627
兔	-10.9627
冥	-10.9627
龟	-10.9627
屁	-10.9627
殿	-10.9627
溯	-10.9627
缠	-10.9627
腕	-10.9627
钉	-10.9627
雌	-10.9745
眠	-10.9761
秃	-10.9762
秋	-10.9762
蕴	-10.9762
蜡	-10.9762
谦	-10.9762
韧	-10.9762
妒	-10.9762
庭	-10.9803
恒	-10.9852
毫	-10.9863
练	-10.9896
郁	-10.9899
拾	-10.9899
奈	-10.9899
碑	-10.9899
贿	-10.9899
锋	-10.9899
陶	-10.9899
豹	-11.0034
庆	-11.0037
仑	-11.0038
呐	-11.0038
哒	-11.0038
棋	-11.0038
携	-11.0109
胆	-11.0121
宜	-11.0176
墓	-11.0178
券	-11.0179
僵	-11.0179
披	-11.0179
梭	-11.0179
涡	-11.0179
聘	-11.0179
腰	-11.0179
酵	-11.0179
驻	-11.0179
财	-11.0318
糊	-11.0321
凑	-11.0321
枯	-11.0321
睁	-11.0321
绵	-11.0321
操	-11.0458
仔	-11.0466
庄	-11.0466
乙	-11.0466
勾	-11.0466
爽	-11.0466
畜	-11.0466
辉	-11.0466
酬	-11.0466
骚	-11.0466
坠	-11.0466
躯	-11.0466
扭	-11.0599
郊	-11.0612
漂	-11.0612
申	-11.0612
贷	-11.0612
疼	-11.0613
陋	-11.0613
县	-11.0613
筒	-11.0613
薯	-11.0613
哦	-11.0685
滥	-11.0734
暂	-11.0745
冬	-11.0756
陷	-11.0759
援	-11.076
漠	-11.0761
泽	-11.0763
抹	-11.0763
炉	-11.0763
瘾	-11.0763
呈	-11.0827
丧	-11.0913
誉	-11.0914
妨	-11.0914
撤	-11.0914
躁	-11.0914
皂	-11.0914
蔽	-11.0914
铃	-11.0914
频	-11.1059
宗	-11.1061
耍	-11.1066
阔	-11.1067
继	-11.1067
歉	-11.1068
崩	-11.1068
凉	-11.1068
宇	-11.1068
巡	-11.1068
帆	-11.1068
汗	-11.1068
芽	-11.1068
葛	-11.1068
尊	-11.122
粪	-11.1221
夸	-11.1223
袭	-11.1223
砍	-11.1224
嫁	-11.1224
饲	-11.1224
遭	-11.1225
柏	-11.1382
扮	-11.1382
爸	-11.1383
委	-11.1383
盆	-11.1383
钩	-11.1383
喀	-11.1383
撰	-11.1383
枚	-11.1383
番	-11.1441
拒	-11.1536
寂	-11.1544
弓	-11.1544
溶	-11.1544
芒	-11.1544
衫	-11.1544
韦	-11.1544
卓	-11.1706
绪	-11.1706
济	-11.1707
骂	-11.1708
惹	-11.1708
柴	-11.1708
栖	-11.1708
橙	-11.1708
踩	-11.1708
垂	-11.1868
析	-11.1869
塑	-11.1871
掠	-11.1875
雀	-11.1875
宅	-11.1875
隙	-11.1875
刹	-11.1875
贩	-11.204
虽	-11.2043
叉	-11.2043
蓄	-11.2044
蟹	-11.2044
扶	-11.2044
骸	-11.2044
黏	-11.2044
壶	-11.2044
孟	-11.2044
敞	-11.2044
碗	-11.2044
鳄	-11.2044
鲨	-11.2215
币	-11.2216
捉	-11.2216
鲍	-11.2216
凌	-11.2217
庙	-11.2217
悠	-11.2217
羽	-11.2217
誓	-11.2217
铅	-11.2217
鸭	-11.2217
垮	-11.2217
盔	-11.2217
眉	-11.2217
牠	-11.2217
革	-11.2299
尸	-11.2372
椅	-11.238
驶	-11.2387
愤	-11.2392
衬	-11.2392
仙	-11.2392
吊	-11.2392
挫	-11.2392
搏	-11.2392
裙	-11.2392
坎	-11.2392
宴	-11.2392
捡	-11.2392
晒	-11.2392
桃	-11.2392
沸	-11.2392
砰	-11.2392
蝶	-11.2392
猴	-11.256
搜	-11.2568
筑	-11.2569
舒	-11.2569
叙	-11.257
呵	-11.2571
垒	-11.2571
筋	-11.2571
萝	-11.2571
貘	-11.2571
拘	-11.2571
慰	-11.275
渴	-11.2752
斜	-11.2752
届	-11.2753
汀	-11.2753
慕	-11.2753
欠	-11.2753
拐	-11.2753
棚	-11.2753
洒	-11.2753
淘	-11.2753
冈	-11.2753
竟	-11.2905
妻	-11.2927
武	-11.2932
疾	-11.2933
竞	-11.2934
【	-11.2938
亏	-11.2938
扑	-11.2938
飘	-11.2938
唯	-11.2979
扩	-11.3032
膝	-11.3125
胞	-11.3126
衍	-11.3126
癫	-11.3126
董	-11.3126
趟	-11.3126
顽	-11.3126
俯	-11.3126
膏	-11.3126
蜣	-11.3126
择	-11.3317
棕	-11.3317
姿	-11.3318
痕	-11.3318
丸	-11.3319
嗅	-11.3319
纺	-11.3319
茫	-11.3319
詹	-11.3319
刮	-11.3319
硕	-11.3319
陵	-11.3319
验	-11.347
究	-11.3513
硅	-11.3514
扼	-11.3515
炮	-11.3515
蓬	-11.3515
妆	-11.3515
捏	-11.3515
泵	-11.3515
涯	-11.3515
澳	-11.3515
皱	-11.3515
闷	-11.3515
颖	-11.3515
讯	-11.3555
罕	-11.3713
纤	-11.3713
丛	-11.3714
辅	-11.3714
详	-11.3714
蠢	-11.3715
兄	-11.3715
淀	-11.3715
侠	-11.3715
斐	-11.3715
铭	-11.3715
驳	-11.3715
吵	-11.3715
澡	-11.3715
熵	-11.3715
陨	-11.3715
韵	-11.3715
饶	-11.3715
添	-11.3879
媒	-11.3914
楚	-11.3917
旱	-11.3917
鸣	-11.3918
敦	-11.3918
描	-11.3918
虐	-11.3918
删	-11.3919
噩	-11.3919
泊	-11.3919
贼	-11.3919
卸	-11.3919
哩	-11.3919
姨	-11.3919
溜	-11.3919
瘦	-11.3919
窄	-11.3919
诀	-11.3919
霸	-11.3919
嘉	-11.3919
籍	-11.412
袖	-11.4126
悦	-11.4127
欺	-11.4127
肿	-11.4127
谨	-11.4127
藉	-11.4127
哀	-11.4127
哺	-11.4127
廓	-11.4127
恤	-11.4127
悖	-11.4127
戚	-11.4127
浇	-11.4127
爪	-11.4127
琐	-11.4127
瓷	-11.4127
纱	-11.4127
舟	-11.4127
挠	-11.4127
馈	-11.4338
晨	-11.4338
咪	-11.434
氨	-11.434
浑	-11.434
谊	-11.434
钞	-11.434
茄	-11.434
廉	-11.4525
颜	-11.4556
劣	-11.4557
贸	-11.4557
螺	-11.4557
氮	-11.4557
君	-11.4557
颅	-11.4557
噬	-11.4557
珀	-11.4557
煮	-11.4557
绒	-11.4557
悉	-11.4779
姑	-11.478
莓	-11.478
赐	-11.478
乃	-11.478
塘	-11.478
庇	-11.478
挚	-11.478
搅	-11.478
萧	-11.478
锅	-11.478
硫	-11.478
械	-11.5002
黎	-11.5005
络	-11.5005
循	-11.5006
胖	-11.5006
挪	-11.5006
剑	-11.5006
肾	-11.5007
溪	-11.5007
瞄	-11.5007
碱	-11.5007
凸	-11.5007
锡	-11.5007
碟	-11.5007
盈	-11.5236
覆	-11.5238
囚	-11.5238
脆	-11.5239
忌	-11.5239
抄	-11.5239
佐	-11.5239
剔	-11.5239
妓	-11.5239
履	-11.5239
拳	-11.5239
沾	-11.5239
渺	-11.5239
焰	-11.5239
赎	-11.5239
阁	-11.5239
肖	-11.5472
惑	-11.5477
烯	-11.5478
嬉	-11.5478
钓	-11.5478
―	-11.5478
佑	-11.5478
叭	-11.5478
砂	-11.5478
筝	-11.5478
贺	-11.5478
咸	-11.5478
捆	-11.5478
朽	-11.5478
犬	-11.5478
霉	-11.5478
概	-11.5702
询	-11.5714
q	-11.5721
丙	-11.5721
禽	-11.5721
衔	-11.5721
逸	-11.5721
摊	-11.5721
栓	-11.5721
栽	-11.5721
熬	-11.5721
眨	-11.5721
碌	-11.5721
竖	-11.5721
纬	-11.5721
铝	-11.5721
雏	-11.5721
狠	-11.5721
遥	-11.5968
辑	-11.597
津	-11.597
粹	-11.5971
愚	-11.5971
浩	-11.5971
狄	-11.5971
咒	-11.5971
扁	-11.5971
晕	-11.5971
枢	-11.5971
稽	-11.5971
驰	-11.5971
旦	-11.6208
绩	-11.6222
苗	-11.6228
咱	-11.6228
坊	-11.6228
簧	-11.6228
«	-11.6228
»	-11.6228
巷	-11.6228
旺	-11.6228
脖	-11.6228
舅	-11.6228
舰	-11.6228
铸	-11.6228
锤	-11.6228
鹫	-11.6228
懒	-11.6228
稻	-11.6228
遣	-11.6228
疫	-11.6489
伞	-11.6489
帐	-11.6491
祷	-11.6491
巫	-11.6491
嚼	-11.6491
奎	-11.6491
涅	-11.6491
艳	-11.6491
铲	-11.6491
叮	-11.6491
撇	-11.6491
烛	-11.6491
狸	-11.6491
翁	-11.6491
聋	-11.6491
贬	-11.6491
桨	-11.6491
泻	-11.6491
熔	-11.6491
贤	-11.6491
窥	-11.6491
魂	-11.6761
仇	-11.6761
瘤	-11.6761
颤	-11.6761
缅	-11.6761
匪	-11.6761
喉	-11.6761
蚕	-11.6761
函	-11.6761
唇	-11.6761
坞	-11.6761
耸	-11.6761
蛎	-11.6761
逾	-11.6761
虹	-11.6761
诡	-11.6761
鳍	-11.6761
卧	-11.7038
濒	-11.7038
炭	-11.7039
抖	-11.7039
芝	-11.7039
绞	-11.7039
辟	-11.7039
杠	-11.7039
烘	-11.7039
焚	-11.7039
酿	-11.7039
拦	-11.7039
桩	-11.7039
槽	-11.7039
溢	-11.7039
甩	-11.7039
疤	-11.7039
帜	-11.7039
弧	-11.7039
痒	-11.7039
盼	-11.7039
汽	-11.7318
哲	-11.7319
邀	-11.7324
杉	-11.7324
撑	-11.7324
仓	-11.7324
傲	-11.7325
哎	-11.7325
嘘	-11.7325
渊	-11.7325
祭	-11.7325
妄	-11.7325
廷	-11.7325
掷	-11.7325
鄂	-11.7325
黛	-11.7325
沟	-11.7538
悔	-11.7581
蚊	-11.7608
怎	-11.7616
宪	-11.7616
弊	-11.7616
瞬	-11.7616
寸	-11.7618
幽	-11.7618
怨	-11.7619
鸦	-11.7619
姐	-11.7619
娘	-11.7619
趁	-11.7619
藤	-11.7619
嫌	-11.7619
蹲	-11.7619
逗	-11.7619
馅	-11.7619
僧	-11.7619
浦	-11.7619
综	-11.7903
努	-11.7916
燥	-11.792
渗	-11.792
企	-11.792
颂	-11.7921
裹	-11.7921
妥	-11.7922
掏	-11.7922
陀	-11.7922
仗	-11.7922
娶	-11.7922
孢	-11.7922
拽	-11.7922
獾	-11.7922
薇	-11.7922
逛	-11.7922
锯	-11.7922
顷	-11.7922
侮	-11.7922
肘	-11.7922
婴	-11.8232
劝	-11.8234
勘	-11.8234
呜	-11.8234
袍	-11.8234
钦	-11.8234
僻	-11.8234
帘	-11.8234
恭	-11.8234
摒	-11.8234
礁	-11.8234
翠	-11.8234
谣	-11.8234
锈	-11.8234
陡	-11.8234
幢	-11.8234
虔	-11.8234
彼	-11.8545
寿	-11.8551
训	-11.8554
川	-11.8555
泳	-11.8556
峡	-11.8557
蛙	-11.8557
胺	-11.8557
潘	-11.8557
玫	-11.8557
疆	-11.8557
疹	-11.8557
蹦	-11.8557
鞭	-11.8557
冯	-11.8557
凿	-11.8557
勉	-11.8557
恳	-11.8557
懈	-11.8557
栅	-11.8557
殴	-11.8557
袜	-11.8557
闯	-11.8557
驯	-11.8557
骇	-11.8557
麽	-11.8557
淑	-11.8557
炒	-11.8557
碧	-11.8557
谓	-11.8874
御	-11.889
碍	-11.889
刃	-11.889
篱	-11.889
]	-11.889
昧	-11.889
祥	-11.889
缸	-11.889
匀	-11.889
坝	-11.889
拷	-11.889
槛	-11.889
橘	-11.889
渣	-11.889
阀	-11.889
炫	-11.889
祸	-11.923
紫	-11.9234
遵	-11.9235
妹	-11.9235
戮	-11.9235
犀	-11.9235
诫	-11.9235
咳	-11.9235
斧	-11.9235
汲	-11.9235
澄	-11.9235
燕	-11.9235
瞎	-11.9235
绷	-11.9235
缪	-11.9235
茅	-11.9235
赔	-11.9235
铀	-11.9235
帧	-11.9235
浆	-11.9235
瓣	-11.9235
饵	-11.9235
葱	-11.9235
辖	-11.9235
宰	-11.959
挽	-11.959
拟	-11.9591
府	-11.9592
膀	-11.9592
苍	-11.9592
氯	-11.9592
[	-11.9592
_	-11.9592
刘	-11.9592
峭	-11.9592
萌	-11.9592
诵	-11.9592
颚	-11.9592
吟	-11.9592
椰	-11.9592
韩	-11.996
噪	-11.9961
屠	-11.9961
睹	-11.9962
蚀	-11.9962
弟	-11.9962
慎	-11.9963
祈	-11.9963
孵	-11.9963
沦	-11.9963
烫	-11.9963
#	-11.9963
梵	-11.9963
泼	-11.9963
滨	-11.9963
煎	-11.9963
芳	-11.9963
迦	-11.9963
掀	-11.9963
橱	-11.9963
蛾	-11.9963
钙	-11.9963
捣	-11.9963
臣	-11.9963
剖	-12.034
忽	-12.0344
肤	-12.0344
朋	-12.0346
梁	-12.0347
矫	-12.0347
贮	-12.0347
隘	-12.0347
髋	-12.0347
匮	-12.0347
垢	-12.0347
拱	-12.0347
柄	-12.0347
臀	-12.0347
芦	-12.0347
苛	-12.0347
跪	-12.0347
厢	-12.0347
帅	-12.0347
搁	-12.0347
梳	-12.0347
汰	-12.0347
锥	-12.0347
垄	-12.0347
厉	-12.0746
赠	-12.0747
悯	-12.0747
苯	-12.0747
夷	-12.0747
後	-12.0747
捧	-12.0747
迭	-12.0747
吼	-12.0747
杏	-12.0747
辙	-12.0747
锂	-12.0747
锦	-12.0747
倚	-12.0747
奠	-12.0747
岂	-12.0747
瑜	-12.0747
绸	-12.0747
曝	-12.0747
腻	-12.0747
螨	-12.0747
滤	-12.1042
滞	-12.1163
诈	-12.1164
侯	-12.1164
庸	-12.1164
乍	-12.1164
兑	-12.1164
杖	-12.1164
瘟	-12.1164
睾	-12.1164
砌	-12.1164
纲	-12.1164
缔	-12.1164
贱	-12.1164
辣	-12.1164
霜	-12.1164
靴	-12.1164
寡	-12.1164
恍	-12.1164
狐	-12.1164
簿	-12.1164
绅	-12.1164
莲	-12.1164
蹈	-12.1598
邪	-12.1598
瑕	-12.1599
@	-12.1599
〉	-12.1599
嘀	-12.1599
怯	-12.1599
愁	-12.1599
晋	-12.1599
柿	-12.1599
玻	-12.1599
纂	-12.1599
茜	-12.1599
褶	-12.1599
赴	-12.1599
兜	-12.1599
咽	-12.1599
屡	-12.1599
拙	-12.1599
毗	-12.1599
禅	-12.1599
腌	-12.1599
苔	-12.1599
枕	-12.1599
涩	-12.1599
雕	-12.2044
赋	-12.2047
润	-12.205
捞	-12.2053
篷	-12.2053
亭	-12.2053
氦	-12.2053
瞒	-12.2053
颞	-12.2053
旷	-12.2053
朴	-12.2053
郎	-12.2053
鄙	-12.2053
〈	-12.2053
咯	-12.2053
哼	-12.2053
昼	-12.2053
暑	-12.2053
淌	-12.2053
胀	-12.2053
荫	-12.2053
凤	-12.2053
绣	-12.2053
谍	-12.2053
谐	-12.2476
粮	-12.2528
烷	-12.2529
讽	-12.2529
沐	-12.2529
杨	-12.2529
瘠	-12.2529
缴	-12.2529
跋	-12.2529
嚷	-12.2529
晴	-12.2529
棱	-12.2529
椭	-12.2529
瞪	-12.2529
瞻	-12.2529
稠	-12.2529
穹	-12.2529
郡	-12.2529
堤	-12.2529
歪	-12.2529
肋	-12.2529
茂	-12.2529
吱	-12.253
玉	-12.3027
奸	-12.3027
翰	-12.3028
饥	-12.3029
惩	-12.3029
江	-12.3029
徽	-12.3029
盏	-12.3029
铐	-12.3029
剃	-12.3029
對	-12.3029
屑	-12.3029
帖	-12.3029
於	-12.3029
榨	-12.3029
灼	-12.3029
芙	-12.3029
邓	-12.3029
靶	-12.3029
嗜	-12.3029
戳	-12.3029
昭	-12.3029
荼	-12.3029
鼬	-12.3029
歧	-12.3549
殊	-12.3551
匿	-12.3552
淹	-12.3552
厨	-12.3554
括	-12.3554
爵	-12.3555
糕	-12.3555
酪	-12.3556
蹄	-12.3556
悍	-12.3556
灿	-12.3556
辰	-12.3556
夕	-12.3556
彭	-12.3556
疮	-12.3556
窜	-12.3556
跷	-12.3556
遏	-12.3556
哑	-12.3556
嗒	-12.3556
姥	-12.3556
拭	-12.3556
腥	-12.3556
舆	-12.3556
蔑	-12.3556
蜥	-12.3556
镁	-12.3556
腓	-12.3556
钮	-12.411
迅	-12.4111
茎	-12.4111
湛	-12.4111
乖	-12.4111
乞	-12.4111
沒	-12.4111
涤	-12.4111
葵	-12.4111
跤	-12.4111
焊	-12.4111
猝	-12.4111
蛆	-12.4111
谛	-12.4111
凹	-12.4111
灶	-12.4111
畸	-12.4111
诅	-12.4111
鳗	-12.4111
昆	-12.4699
摧	-12.4699
勿	-12.47
晾	-12.47
玄	-12.47
喧	-12.47
槟	-12.47
涕	-12.47
膛	-12.47
來	-12.47
俚	-12.47
儒	-12.47
彷	-12.47
拢	-12.47
斋	-12.47
梗	-12.47
羡	-12.47
鳕	-12.47
佬	-12.47
侍	-12.47
俘	-12.47
扛	-12.47
碾	-12.47
诃	-12.47
钝	-12.47
锢	-12.47
飙	-12.47
拌	-12.47
棘	-12.5317
岗	-12.5322
壤	-12.5323
咕	-12.5325
硝	-12.5325
噗	-12.5325
屎	-12.5325
椒	-12.5325
毙	-12.5325
熏	-12.5325
穗	-12.5325
舵	-12.5325
菊	-12.5325
鼎	-12.5325
狡	-12.5325
缀	-12.5325
钾	-12.5325
厕	-12.5979
渠	-12.5988
骤	-12.5989
淫	-12.599
慧	-12.599
翅	-12.5991
矛	-12.5991
們	-12.5991
寐	-12.5991
嘶	-12.5991
揣	-12.5991
煽	-12.5991
仆	-12.5991
哄	-12.5991
忱	-12.5991
悼	-12.5991
旭	-12.5991
柳	-12.5991
洼	-12.5991
烙	-12.5991
焕	-12.5991
癖	-12.5991
砾	-12.5991
茧	-12.5991
褐	-12.5991
贞	-12.5991
酯	-12.5991
驴	-12.5991
咎	-12.5991
抒	-12.5991
晦	-12.5991
筏	-12.5991
缕	-12.5991
羔	-12.5991
逢	-12.5991
颊	-12.5991
奧	-12.5991
拧	-12.5991
脾	-12.5991
茱	-12.5991
鞍	-12.5991
琼	-12.6699
肃	-12.6705
勺	-12.6706
掺	-12.6706
攒	-12.6706
酌	-12.6706
鬣	-12.6706
彰	-12.6706
懦	-12.6706
昌	-12.6706
溅	-12.6706
绊	-12.6706
褪	-12.6706
谤	-12.6706
凳	-12.6706
叨	-12.6706
嗪	-12.6706
媚	-12.6706
岔	-12.6706
惶	-12.6706
檐	-12.6706
汪	-12.6706
洽	-12.6706
矢	-12.6706
籽	-12.6706
镖	-12.6706
镶	-12.6706
魄	-12.6706
蒿	-12.6706
铛	-12.6706
鲑	-12.6706
琥	-12.6706
佣	-12.7474
谬	-12.7474
溃	-12.7475
迸	-12.7475
娇	-12.7475
崎	-12.7475
遛	-12.7475
嗓	-12.7475
醋	-12.7475
闸	-12.7475
鳞	-12.7475
▪	-12.7475
卤	-12.7475
嘎	-12.7475
姬	-12.7475
汹	-12.7475
澈	-12.7475
缉	-12.7475
赘	-12.7475
麼	-12.7475
呱	-12.7475
幌	-12.7475
躬	-12.7475
钛	-12.7475
撮	-12.7475
簇	-12.7475
酮	-12.7475
芯	-12.8305
肴	-12.8308
犁	-12.8308
眶	-12.8308
á	-12.8308
兮	-12.8308
浊	-12.8308
渍	-12.8308
踝	-12.8308
$	-12.8308
é	-12.8308
啪	-12.8308
噜	-12.8308
嚣	-12.8308
揪	-12.8308
撬	-12.8308
栗	-12.8308
棺	-12.8308
竿	-12.8308
篡	-12.8308
粥	-12.8308
赦	-12.8308
跛	-12.8308
镀	-12.8308
黯	-12.8308
秉	-12.8308
趴	-12.8308
钍	-12.8308
膳	-12.8308
辗	-12.8308
钳	-12.8308
睿	-12.8308
掘	-12.9212
豚	-12.9213
丈	-12.9216
裕	-12.9216
镑	-12.9217
叔	-12.9217
β	-12.9217
睦	-12.9217
孝	-12.9217
畔	-12.9217
莽	-12.9217
傍	-12.9217
婉	-12.9217
將	-12.9217
摞	-12.9217
曳	-12.9217
窖	-12.9217
維	-12.9217
藩	-12.9217
诶	-12.9217
钚	-12.9217
鞠	-12.9217
*	-12.9217
呤	-12.9217
唬	-12.9217
嗷	-12.9217
姜	-12.9217
孰	-12.9217
弛	-12.9217
拂	-12.9217
暮	-12.9217
檀	-12.9217
淤	-12.9217
疽	-12.9217
喃	-12.9217
宵	-12.9217
痰	-12.9217
瞥	-12.9217
滔	-12.9217
嗯	-12.9798
蝇	-13.0157
隧	-13.0214
斤	-13.0215
娱	-13.0216
励	-13.0216
觅	-13.0216
趾	-13.0216
椎	-13.0217
沼	-13.0217
爷	-13.0217
伺	-13.0217
痣	-13.0217
盎	-13.0217
睬	-13.0217
笋	-13.0217
舔	-13.0217
萃	-13.0217
凋	-13.0217
叼	-13.0217
吠	-13.0217
咻	-13.0217
姚	-13.0217
婭	-13.0217
媛	-13.0217
憋	-13.0217
殷	-13.0217
腱	-13.0217
蛤	-13.0217
辽	-13.0217
這	-13.0217
啄	-13.0217
妖	-13.0217
嫩	-13.0217
牟	-13.0217
羚	-13.0217
嚏	-13.0217
攫	-13.0217
苟	-13.0217
辐	-13.1321
宠	-13.1325
逮	-13.1328
崖	-13.1328
岭	-13.1328
讳	-13.1328
孜	-13.1328
桂	-13.1328
亥	-13.1328
吾	-13.1328
喵	-13.1328
懊	-13.1328
旬	-13.1328
暧	-13.1328
梨	-13.1328
榭	-13.1328
潦	-13.1328
玲	-13.1328
琪	-13.1328
诧	-13.1328
卒	-13.1328
嗝	-13.1328
嚓	-13.1328
尉	-13.1328
扳	-13.1328
拣	-13.1328
捂	-13.1328
捅	-13.1328
槌	-13.1328
笃	-13.1328
箔	-13.1328
脓	-13.1328
茉	-13.1328
蕊	-13.1328
酚	-13.1328
铂	-13.1328
隼	-13.1328
鳃	-13.1328
咋	-13.1328
喙	-13.1328
垦	-13.1328
彬	-13.1328
拴	-13.1328
揍	-13.1328
為	-13.1328
眩	-13.1328
窑	-13.1328
绽	-13.1328
ö	-13.1328
脐	-13.1328
桔	-13.1328
噢	-13.2476
央	-13.2539
盯	-13.2565
谅	-13.2576
皿	-13.2578
腊	-13.2578
胁	-13.2578
泣	-13.2578
沫	-13.2578
咨	-13.2578
猩	-13.2578
盾	-13.2578
岳	-13.2578
挞	-13.2578
揽	-13.2578
毡	-13.2578
渥	-13.2578
熙	-13.2578
羟	-13.2578
雯	-13.2578
冶	-13.2578
劈	-13.2578
厮	-13.2578
唆	-13.2578
樣	-13.2578
薛	-13.2578
虱	-13.2578
锑	-13.2578
ó	-13.2578
凄	-13.2578
妳	-13.2578
氟	-13.2578
滕	-13.2578
秆	-13.2578
赃	-13.2578
蹼	-13.2578
雹	-13.2578
鞘	-13.2578
鲈	-13.2578
鹤	-13.2578
吝	-13.2578
拗	-13.2578
掰	-13.2578
蒲	-13.2578
蜇	-13.2578
裡	-13.2578
仲	-13.2578
蔗	-13.2578
迂	-13.2578
厘	-13.4004
绍	-13.4007
ˎ	-13.4007
俊	-13.4007
徳	-13.4007
怡	-13.4007
敷	-13.4007
魁	-13.4007
×	-13.4007
冤	-13.4007
坤	-13.4007
壕	-13.4007
婊	-13.4007
寨	-13.4007
怠	-13.4007
曹	-13.4007
è	-13.4007
呯	-13.4007
ü	-13.4007
亢	-13.4007
俏	-13.4007
惮	-13.4007
搂	-13.4007
勋	-13.4007
魅	-13.5668
允	-13.5673
贡	-13.5673
坟	-13.5673
啡	-13.5674
咖	-13.5674
睛	-13.7671
亩	-13.7673
毋	-13.7674
匙	-13.7674
蔓	-14.0173
缚	-14.0173
萤	-14.0174
憾	-14.3506
胚	-14.3507
峻	-14.3507
鸿	-14.3507
膨	-14.3507
柬	-14.3507
愉	-14.8504
恢	-14.8506
蕉	-14.8506
吁	-14.8506
姻	-14.8506
讼	-14.8506
糙	-14.8507
锻	-14.8507
骄	-14.8507
胳	-14.8507
钥	-14.8507
昙	-15.8106
忏	-15.8107
屉	-15.8108
啬	-15.8109
唵	-15.811
吩	-15.8111
剽	-15.8112
凛	-15.8113
£	-15.8114
鳝	-15.8115
鯨	-15.8116
霆	-15.8117
镰	-15.8118
铠	-15.8119
醺	-15.812
蹩	-15.8121
谧	-15.8122
蜿	-15.8123
蜒	-15.8124
窿	-15.8125
瞠	-15.8126
甄	-15.8127
炙	-15.8128
澎	-15.8129
潢	-15.813
湃	-15.8131
淙	-15.8132
涓	-15.8133
沧	-15.8134
桡	-15.8135
拄	-15.8136
寥	-15.8137
婶	-15.8138
姊	-15.8139
垩	-15.814
鸥	-15.8141
馏	-15.8142
霓	-15.8143
蝾	-15.8144
绰	-15.8145
绦	-15.8146
磋	-15.8147
狙	-15.8148
攸	-15.8149
惋	-15.815
岖	-15.8151
寞	-15.8152
啼	-15.8153
匣	-15.8154
儡	-15.8155
傀	-15.8156
伎	-15.8157
©	-15.8158
蹊	-15.8159
豁	-15.816
谩	-15.8161
蚤	-15.8162
纫	-15.8163
窘	-15.8164
磺	-15.8165
狒	-15.8166
沌	-15.8167
峙	-15.8168
娠	-15.8169
妊	-15.817
嘌	-15.8171
唾	-15.8172
侃	-15.8173
⋯	-15.8174
鹉	-15.8175
阂	-15.8176
镭	-15.8177
訇	-15.8178
蔼	-15.8179
翱	-15.818
缭	-15.8181
筷	-15.8182
睐	-15.8183
澜	-15.8184
榴	-15.8185
抨	-15.8186
恙	-15.8187
墅	-15.8188
唉	-15.8189
卦	-15.819
袤	-15.8191
螈	-15.8192
蝓	-15.8193
蜢	-15.8194
蛞	-15.8195
蚱	-15.8196
菠	-15.8197
耽	-15.8198
簸	-15.8199
篝	-15.82
箴	-15.8201
祀	-15.8202
炽	-15.8203
漪	-15.8204
涟	-15.8205
桅	-15.8206
暇	-15.8207
惭	-15.8208
巩	-15.8209
唠	-15.821
咐	-15.8211
咆	-15.8212
呻	-15.8213
吮	-15.8214
侥	-15.8215
乓	-15.8216
乒	-15.8217
®	-15.8218
陛	-15.8219
诽	-15.822
蜷	-15.8221
蜕	-15.8222
茁	-15.8223
曙	-15.8224
崽	-15.8225
俾	-15.8226
鹦	-15.8227
鱿	-15.8228
遨	-15.8229
赝	-15.823
蜴	-15.8231
芜	-15.8232
猾	-15.8233
楷	-15.8234
慑	-15.8235
圳	-15.8236
酝	-15.8237
轶	-15.8238
衅	-15.8239
蟋	-15.824
蟀	-15.8241
葫	-15.8242
瀚	-15.8243
淇	-15.8244
媲	-15.8245
娩	-15.8246
啮	-15.8247
迥	-15.8248
祉	-15.8249
獗	-15.825
氓	-15.8251
昵	-15.8252
忡	-15.8253
宛	-15.8254
囱	-15.8255
嘱	-15.8256
嗽	-15.8257
唧	-15.8258
咚	-15.8259
凰	-15.826
佼	-15.8261
°	-15.8262
痊	-15.8263
涸	-15.8264
扪	-15.8265
惚	-15.8266
倘	-15.8267
亟	-15.8268
靡	-15.8269
翩	-15.827
窒	-15.8271
憬	-15.8272
憧	-15.8273
嗡	-15.8274
胱	-15.8275
猖	-15.8276
桦	-15.8277
晤	-15.8278
惰	-15.8279
哔	-15.828
赁	-15.8281
蝌	-15.8282
蚪	-15.8283
藓	-15.8284
茸	-15.8285
紊	-15.8286
睫	-15.8287
疵	-15.8288
渲	-15.8289
奄	-15.829
咔	-15.8291
卿	-15.8292
侏	-15.8293
螳	-15.8294
萦	-15.8295
腋	-15.8296
汐	-15.8297
毅	-15.8298
⁄	-15.8299
郑	-15.83
漩	-15.8301
檬	-15.8302
柠	-15.8303
昔	-15.8304
惕	-15.8305
悚	-15.8306
岌	-15.8307
嘟	-15.8308
髦	-15.8309
罹	-15.831
绎	-15.8311
笆	-15.8312
瞩	-15.8313
瑰	-15.8314
搐	-15.8315
夭	-15.8316
坍	-15.8317
嘻	-15.8318
咙	-15.8319
冗	-15.832
稼	-15.8321
橇	-15.8322
捍	-15.8323
惫	-15.8324
徘	-15.8325
徊	-15.8326
唔	-15.8327
酗	-15.8328
谚	-15.8329
菩	-15.833
呕	-15.8331
沛	-15.8332
殆	-15.8333
螃	-15.8334
稚	-15.8335
熄	-15.8336
淆	-15.8337
匈	-15.8338
驭	-15.8339
轿	-15.834
扉	-15.8341
巅	-15.8342
圭	-15.8343
咀	-15.8344
倭	-15.8345
禧	-15.8346
瞰	-15.8347
嘈	-15.8348
蝴	-15.8349
栩	-15.835
=	-15.8351
赂	-15.8352
溺	-15.8353
恻	-15.8354
牡	-15.8355
抉	-15.8356
婪	-15.8357
侈	-15.8358
窍	-15.8359
瀑	-15.836
侄	-15.8361
沥	-15.8362
婷	-15.8363
狩	-15.8364
犸	-15.8365
恕	-15.8366
酋	-15.8367
埔	-15.8368
豫	-15.8369
痢	-15.837
琢	-15.8371
煌	-15.8372
～	-15.8373
蜻	-15.8374
蜓	-15.8375
肮	-15.8376
烁	-15.8377
堕	-15.8378
蠕	-15.8379
墟	-15.838
坪	-15.8381
匆	-15.8382
谴	-15.8383
疚	-15.8384
徙	-15.8385
+	-15.8386
辍	-15.8387
畴	-15.8388
溉	-15.8389
颁	-15.839
萎	-15.8391
憎	-15.8392
痫	-15.8393
榈	-15.8394
骆	-15.8395
筛	-15.8396
譬	-15.8397
辜	-15.8398
迄	-15.8399
拇	-15.84
肆	-15.8401
】	-15.8402
哮	-15.8403
蟑	-15.8404
泌	-15.8405
痹	-15.8406
倦	-15.8407
荐	-15.8408
侦	-15.8409
飓	-15.841
诠	-15.8411
氛	-15.8412
"	-15.8413
寺	-15.8414
僚	-15.8415
卜	-15.8416
–	-15.8417
屿	-15.8418
崭	-15.8419
慷	-15.842
崛	-15.8421
喇	-15.8422
奢	-15.8423
蜗	-15.8424
橄	-15.8425
缆	-15.8426
甸	-15.8427
榄	-15.8428
呃	-15.8429
翔	-15.843
秩	-15.8431
嫉	-15.8432
悄	-15.8433
啸	-15.8434
蘑	-15.8435
撼	-15.8436
饪	-15.8437
蔬	-15.8438
胰	-15.8439
痪	-15.844
聆	-15.8441
慨	-15.8442
彗	-15.8443
尴	-15.8444
尬	-15.8445
肪	-15.8446
侣	-15.8447
耀	-15.8448
窟	-15.8449
~	-15.845
牺	-15.8451
蜘	-15.8452
阐	-15.8453
倡	-15.8454
荧	-15.8455
螂	-15.8456
蝙	-15.8457
京	-15.8458
骼	-15.8459
寓	-15.846
擅	-15.8461
浏	-15.8462
─	-15.8463
葡	-15.8464
萄	-15.8465
隶	-15.8466
昨	-15.8467
陌	-15.8468
晰	-15.8469
’	-15.847
苹	-15.8471
践	-15.8472
瑚	-15.8473
/	-15.8474
疟	-15.8475
逻	-15.8476
♪	-15.8477
艰	-15.8478
讶	-15.8479
拯	-15.848
蚂	-15.8481
诞	-15.8482
垃	-15.8483
圾	-15.8484
怖	-15.8485
」	-15.8486
聪	-15.8487
忆	-15.8488
惧	-15.8489
础	-15.849
宙	-15.8491
厦	-15.8492
》	-15.8492
♫	-15.8493
!	-15.8494
%	-15.8495
·	-15.8496
孩	-15.8497
&	-15.8498
、	-15.8499
:	-15.85
—	-15.8501
”	-15.8502
“	-15.8503
(	-15.8504
)	-15.8505
?	-15.8506
啤	-15.8506
擎	-15.8506
弈	-15.8506
稣	-15.8507
沮	-15.8507
阱	-15.8507
璃	-15.8507
。	-15.8507
矶	-15.8507
膊	-15.8507
