<unk>	0
<s>	0
</s>	0
▁,	-3.05805
▁.	-3.23451
t	-3.48409
▁er	-3.88793
▁at	-3.93618
e	-4.02076
r	-4.02644
▁	-4.10945
▁og	-4.16743
▁det	-4.22062
s	-4.24981
▁i	-4.25876
▁en	-4.2842
;	-4.41504
▁&	-4.46483
quo	-4.52658
▁af	-4.56203
▁til	-4.64957
de	-4.73081
▁den	-4.73762
▁vi	-4.74539
▁der	-4.75066
▁for	-4.75208
▁på	-4.76571
▁jeg	-4.76801
▁de	-4.79592
▁ikke	-4.99123
en	-5.00518
▁som	-5.00943
er	-5.04857
▁med	-5.08293
▁har	-5.14341
▁et	-5.15359
▁Og	-5.17737
▁Det	-5.24072
ne	-5.30831
▁var	-5.33597
▁kan	-5.41101
▁så	-5.44814
n	-5.48807
▁om	-5.50119
▁?	-5.59722
▁man	-5.62306
▁Jeg	-5.64361
▁vil	-5.72512
et	-5.81641
▁ved	-5.82253
▁Så	-5.85579
▁men	-5.894
▁du	-5.89928
▁I	-5.91902
▁—	-5.95528
▁fra	-5.97254
▁dette	-5.99471
▁:	-5.99727
▁være	-6.00519
-	-6.01749
▁)	-6.0495
(	-6.05245
▁Vi	-6.06447
nde	-6.0858
▁ud	-6.1103
▁eller	-6.11109
▁Men	-6.12213
▁meget	-6.12683
▁sig	-6.1299
▁mig	-6.13327
▁hvad	-6.16708
▁dem	-6.19801
▁os	-6.20864
▁her	-6.25606
▁vore	-6.27493
▁blive	-6.27794
▁han	-6.28677
▁alle	-6.30423
▁hvor	-6.31141
▁disse	-6.33788
▁De	-6.36889
▁noget	-6.36973
▁hvis	-6.40218
▁blev	-6.41264
▁se	-6.41304
ter	-6.43441
▁over	-6.43464
▁hav	-6.43699
▁år	-6.44087
▁ville	-6.44842
te	-6.51203
g	-6.52619
es	-6.5284
▁-	-6.53194
▁jer	-6.53557
▁mere	-6.55127
▁kunne	-6.55303
▁ting	-6.56251
▁op	-6.56953
▁end	-6.57431
▁gøre	-6.60756
▁når	-6.61665
▁selv	-6.64407
le	-6.66317
▁min	-6.67047
▁mennesker	-6.67708
▁nu	-6.67791
▁ind	-6.68957
▁Lat	-6.69155
ske	-6.71218
▁have	-6.71405
▁tage	-6.76973
▁faktisk	-6.77309
▁skal	-6.77396
▁gør	-6.7909
▁ser	-6.80253
▁verden	-6.80326
▁B	-6.80566
▁også	-6.83261
▁lige	-6.8349
▁sag	-6.84936
▁mange	-6.85173
▁folk	-6.86867
▁to	-6.88663
▁må	-6.88664
▁hvordan	-6.9036
di	-6.91104
▁bare	-6.93958
▁virkelig	-6.95118
▁få	-6.95649
▁Den	-6.97148
▁For	-6.97312
▁måde	-6.97825
.	-6.98818
for	-6.98871
▁efter	-7.00869
▁dag	-7.00981
▁nogle	-7.02783
re	-7.03353
▁kommer	-7.03592
▁andre	-7.04066
▁Der	-7.04692
▁alt	-7.05547
a	-7.05696
▁kun	-7.06488
▁hun	-7.07972
▁anden	-7.08131
▁sige	-7.08308
erne	-7.12973
▁første	-7.13865
▁tror	-7.1451
▁Hvor	-7.14594
i	-7.157
m	-7.16767
▁finde	-7.17488
▁dig	-7.18119
fordi	-7.18276
▁Hvi	-7.1895
k	-7.20974
▁give	-7.22401
▁da	-7.22863
▁nogen	-7.23184
▁lave	-7.25506
▁hele	-7.26604
▁tilbage	-7.26611
▁tid	-7.27461
▁Hvad	-7.28364
apos	-7.28745
y	-7.29
▁sammen	-7.29268
▁samme	-7.29474
h	-7.33081
▁mi	-7.33265
deres	-7.37272
▁liv	-7.38768
ere	-7.38863
▁Han	-7.38933
▁hvilke	-7.3999
▁får	-7.41238
▁arbejde	-7.41353
▁bruge	-7.42104
▁En	-7.43105
▁del	-7.44158
▁siden	-7.44931
▁omkring	-7.45677
▁kom	-7.46626
p	-7.47121
▁godt	-7.48445
▁lille	-7.50597
▁gå	-7.51602
vis	-7.53084
▁Man	-7.54362
▁hver	-7.54517
ifald	-7.55136
▁ned	-7.55427
▁spørgsmål	-7.55606
▁gjorde	-7.56629
▁kigge	-7.5848
▁tre	-7.59212
som	-7.59431
▁gang	-7.60347
al	-7.61064
▁rigtig	-7.61406
▁sin	-7.61568
an	-7.61683
▁går	-7.62647
▁brug	-7.63034
▁under	-7.63446
▁Du	-7.63556
d	-7.64235
▁ingen	-7.64403
▁F	-7.6458
hed	-7.64807
▁før	-7.64909
▁slags	-7.65235
▁S	-7.65686
▁tog	-7.66146
▁helt	-7.66866
▁kalde	-7.67216
▁bruger	-7.67243
▁skulle	-7.67374
▁hende	-7.6772
▁sådan	-7.67836
▁børn	-7.69018
▁sidste	-7.69202
▁igen	-7.6946
▁store	-7.69679
▁mod	-7.71567
▁gennem	-7.725
▁fik	-7.72749
▁forskellige	-7.73169
▁procent	-7.73547
l	-7.73899
▁nok	-7.74328
▁andet	-7.74361
o	-7.74678
▁♫	-7.75123
▁bedre	-7.75132
▁set	-7.75196
▁gange	-7.76318
▁din	-7.76543
▁mine	-7.77221
u	-7.77246
▁mest	-7.77877
sk	-7.78766
▁betyde	-7.79762
▁mellem	-7.80224
▁Nu	-7.8056
▁begyndt	-7.80927
▁lidt	-7.81141
▁ændre	-7.82192
▁A	-7.825
el	-7.83144
v	-7.83289
▁komme	-7.83411
ing	-7.83588
▁par	-7.837
▁aldri	-7.84408
▁stor	-7.85418
ste	-7.85602
▁eksempel	-7.85737
▁flere	-7.85962
▁uden	-7.86356
▁Her	-7.86433
ay	-7.89505
om	-7.89666
▁historie	-7.90174
▁sker	-7.90548
me	-7.90656
▁tale	-7.91211
f	-7.91792
▁mindre	-7.92088
▁fandt	-7.92096
gik	-7.92586
▁grund	-7.93423
▁f	-7.93627
▁viser	-7.93969
▁tænker	-7.94337
▁ret	-7.96104
▁frem	-7.96465
in	-7.96491
▁virke	-7.96795
▁sted	-7.96983
▁inden	-7.97064
▁Lad	-7.97395
▁Tak	-7.97888
▁ham	-7.98749
lige	-7.98799
æ	-7.99063
▁data	-7.9912
nu	-7.99198
1	-7.9954
▁nye	-7.9965
▁fortælle	-8.00419
▁M	-8.00446
▁Når	-8.01168
ge	-8.01233
▁20	-8.014
▁s	-8.02225
▁stadig	-8.02789
▁10	-8.03462
ning	-8.03916
▁rundt	-8.04126
▁be	-8.05137
til	-8.0515
▁penge	-8.05788
▁prøve	-8.06144
▁fire	-8.06648
▁stand	-8.07163
altid	-8.07654
eneste	-8.08227
▁form	-8.08484
▁hvorfor	-8.0851
ende	-8.08619
▁tænke	-8.08643
▁brugt	-8.08729
▁god	-8.09236
▁lad	-8.09801
lse	-8.10493
▁ord	-8.10557
▁teknologi	-8.10559
▁D	-8.11414
▁nødt	-8.11824
▁ønske	-8.11962
▁dele	-8.12057
▁vigtig	-8.12553
gerne	-8.12695
dan	-8.12852
▁bygge	-8.13337
▁næste	-8.13349
▁selvfølgelig	-8.13429
▁laver	-8.13508
ri	-8.14035
▁lære	-8.14532
c	-8.14892
▁fantastisk	-8.14918
▁tænkt	-8.15
▁Hun	-8.15055
der	-8.15066
▁k	-8.15218
▁land	-8.15455
▁tak	-8.15889
▁vand	-8.15914
gjort	-8.16099
be	-8.16176
▁sætte	-8.16229
▁Da	-8.16334
▁ny	-8.16944
▁sikker	-8.17505
us	-8.17537
▁skabe	-8.17574
▁små	-8.17652
▁lys	-8.18169
▁b	-8.18243
b	-8.18306
▁K	-8.18644
▁utrolig	-8.19519
▁udvikle	-8.19949
▁di	-8.20304
▁lang	-8.20689
▁forstå	-8.20877
▁social	-8.21487
um	-8.21803
▁H	-8.2267
▁problem	-8.23442
▁hjælpe	-8.23992
▁nogensi	-8.24711
▁kende	-8.24754
▁hen	-8.25774
▁stedet	-8.25992
▁taler	-8.2621
ø	-8.26733
▁billede	-8.2692
▁dollars	-8.26948
▁u	-8.2705
▁fleste	-8.27388
▁sket	-8.27505
▁energi	-8.27514
▁side	-8.27742
▁bedste	-8.28024
▁Ja	-8.28182
▁masse	-8.28409
▁lever	-8.28617
▁USA	-8.28722
▁vise	-8.29458
▁person	-8.29534
▁starte	-8.30178
▁Som	-8.30255
rne	-8.31595
▁T	-8.31712
▁Ok	-8.31966
▁større	-8.32448
▁dyr	-8.32654
▁opdage	-8.32766
▁interessant	-8.33019
▁Afrika	-8.33286
millioner	-8.3331
▁gode	-8.33482
▁fem	-8.33573
op	-8.3396
▁lande	-8.34002
▁Mang	-8.34373
on	-8.3553
▁væk	-8.35802
▁information	-8.35982
▁leve	-8.36163
▁arbejder	-8.3727
▁bag	-8.37481
at	-8.38147
▁klar	-8.38356
lig	-8.3878
id	-8.39151
▁begynder	-8.39167
▁hinanden	-8.39237
▁hjerne	-8.40228
▁hos	-8.40404
▁valg	-8.40444
▁G	-8.40549
▁problemer	-8.40811
▁På	-8.41176
▁næsten	-8.41327
ens	-8.41396
ler	-8.4154
▁Er	-8.41959
▁fortæller	-8.42366
▁vej	-8.42635
▁præcis	-8.42683
▁p	-8.42959
iske	-8.42987
▁sprog	-8.44239
▁ens	-8.44429
▁huske	-8.44807
or	-8.45053
▁kvinder	-8.45104
▁gav	-8.45214
▁én	-8.45553
▁høre	-8.45652
▁samfund	-8.4611
▁stå	-8.46289
▁tidspunkt	-8.46374
▁stille	-8.46441
▁lært	-8.46813
j	-8.46911
▁C	-8.47124
▁hed	-8.47278
▁lavede	-8.47296
▁smul	-8.47609
▁mand	-8.47759
▁lide	-8.47875
▁talt	-8.47977
▁venner	-8.48034
▁handler	-8.48113
▁syne	-8.48188
▁menneskelig	-8.4829
▁prøver	-8.48356
▁sener	-8.48406
▁længere	-8.48493
▁tro	-8.48881
▁engang	-8.4935
▁fortalt	-8.49442
▁forhold	-8.4991
▁hvert	-8.49948
▁hjernen	-8.50167
▁videre	-8.50261
▁livet	-8.5069
▁al	-8.50911
▁R	-8.51156
▁Denne	-8.51246
▁høj	-8.51343
▁tiden	-8.51519
ene	-8.51679
▁skrev	-8.52069
▁holde	-8.52146
▁hve	-8.5228
▁steder	-8.52332
▁først	-8.52333
▁mor	-8.52667
▁mad	-8.52966
gang	-8.53028
▁hjem	-8.54961
▁bestemt	-8.55022
▁stoppe	-8.55399
▁Et	-8.55678
▁film	-8.56115
▁egen	-8.56715
▁far	-8.57026
ke	-8.57285
▁seks	-8.57644
▁tilfælde	-8.58174
▁lærer	-8.58231
ik	-8.5847
▁&#9	-8.5905
så	-8.59417
▁vokse	-8.59759
▁&#93;	-8.59987
▁mulighed	-8.60189
▁stykke	-8.6019
▁ofte	-8.60324
▁ligne	-8.60913
▁største	-8.61015
▁50	-8.61075
▁gruppe	-8.61188
▁...	-8.61427
▁langt	-8.61497
.000	-8.61688
▁milliarder	-8.62079
ol	-8.62195
▁E	-8.62477
▁cirk	-8.62886
▁allerede	-8.62921
▁kæmpe	-8.62951
isk	-8.63053
is	-8.63056
▁30	-8.63061
▁mulig	-8.63251
▁vidst	-8.63439
vel	-8.63455
ur	-8.63575
▁At	-8.63772
▁stort	-8.6419
ar	-8.64544
▁computer	-8.64663
▁svært	-8.64725
▁producere	-8.64807
ud	-8.64908
ad	-8.65085
▁svare	-8.65224
▁Se	-8.65628
▁L	-8.65701
▁måder	-8.66533
▁måneder	-8.66563
▁barn	-8.67361
▁skaber	-8.67479
▁spurgt	-8.67815
stod	-8.6792
▁Nog	-8.68142
ro	-8.68251
▁h	-8.68442
▁hørt	-8.68464
▁3	-8.68503
▁Jam	-8.68646
▁ske	-8.68956
▁hurtigt	-8.69147
▁fejl	-8.69394
ic	-8.69647
ligt	-8.69864
▁New	-8.69866
ig	-8.70008
▁mærke	-8.70068
▁beslutte	-8.70392
burde	-8.70416
▁snakke	-8.70429
▁Nej	-8.7092
efter	-8.71333
▁blot	-8.71445
▁CA	-8.71453
ve	-8.71823
▁hånd	-8.72413
▁O	-8.72524
▁forestille	-8.7259
▁P	-8.72661
▁U	-8.7273
▁startede	-8.72798
ation	-8.73049
ul	-8.73093
ch	-8.7312
▁Indien	-8.7358
imod	-8.73655
▁køre	-8.73834
▁Må	-8.74137
▁kort	-8.74418
▁navn	-8.74555
▁lade	-8.74564
▁familie	-8.74597
ken	-8.74612
▁århundrede	-8.74664
aktisk	-8.74758
▁uddannelse	-8.7495
▁behøve	-8.75206
▁billeder	-8.75482
▁rum	-8.7576
▁bør	-8.75788
▁løbet	-8.7655
▁bevæge	-8.7658
▁an	-8.76925
▁g	-8.76966
▁jo	-8.77147
▁vist	-8.77341
▁elsker	-8.77472
▁kvinde	-8.77476
▁kultur	-8.7779
skab	-8.77957
▁muligt	-8.78165
▁forsøg	-8.782
▁Min	-8.78303
dda	-8.79076
▁unge	-8.79496
▁sand	-8.79599
▁gammel	-8.79688
▁skabt	-8.79803
▁læse	-8.80109
▁hoved	-8.80129
▁krop	-8.80341
em	-8.80536
▁mål	-8.80552
▁flytte	-8.80896
▁naturlig	-8.81198
▁virkeligheden	-8.81289
isse	-8.81289
▁dage	-8.8181
▁15	-8.81913
▁Alle	-8.8282
▁dårlig	-8.8298
▁hjælp	-8.83287
w	-8.83428
▁ja	-8.83461
▁TED	-8.83479
▁mening	-8.83519
▁bil	-8.83851
▁fyr	-8.83964
▁200	-8.84048
lo	-8.84096
as	-8.84115
▁100	-8.84328
▁øjeblik	-8.84357
ør	-8.84454
▁sit	-8.84471
va	-8.84513
li	-8.8468
▁holder	-8.85188
▁studere	-8.85356
ma	-8.85512
▁anderledes	-8.8559
▁speciel	-8.8559
▁studerende	-8.85739
D	-8.85778
▁mænd	-8.86117
▁jorden	-8.8616
▁sidde	-8.86202
ling	-8.86273
▁ideer	-8.86328
▁re	-8.86534
▁ide	-8.8681
▁amerikansk	-8.86961
▁troe	-8.87074
▁lag	-8.87076
4	-8.87136
ak	-8.87427
▁slå	-8.87444
▁rejse	-8.87665
▁million	-8.88032
▁simpelt	-8.88042
▁hels	-8.88215
▁by	-8.88282
▁tal	-8.88446
▁gen	-8.88515
▁system	-8.88726
▁intet	-8.888
▁forskel	-8.88869
else	-8.88979
ry	-8.89187
8	-8.89482
▁Ikke	-8.89501
▁bog	-8.89565
00	-8.89667
▁fast	-8.89923
▁forklare	-8.89938
fundet	-8.90248
▁verdens	-8.9027
▁leder	-8.90501
▁minutter	-8.90676
mi	-8.90686
▁mængde	-8.90687
land	-8.9103
ce	-8.91248
▁menneske	-8.91306
ering	-8.91349
▁vel	-8.91459
itet	-8.91574
ind	-8.91785
▁samle	-8.91787
▁gam	-8.91878
▁forsker	-8.92006
ige	-8.92017
it	-8.92335
▁temmelig	-8.92514
▁særlig	-8.92565
am	-8.9265
▁1	-8.92825
▁begynde	-8.92968
▁række	-8.93155
▁tidligere	-8.9324
▁interessere	-8.93384
▁døde	-8.93513
▁fremtiden	-8.93722
▁skrive	-8.93794
▁kræve	-8.93822
▁nyt	-8.93844
▁svar	-8.93937
▁vente	-8.94254
▁40	-8.94448
▁pleje	-8.94488
▁værdi	-8.94538
▁enorm	-8.95173
2	-8.95461
▁kunst	-8.95599
ra	-8.9578
haft	-8.95994
▁Kan	-8.96105
▁idé	-8.96115
▁2	-8.96257
▁føler	-8.96343
▁bekymre	-8.96527
▁lykke	-8.96632
▁åbne	-8.9664
▁videnskab	-8.96655
▁størrelse	-8.96817
▁global	-8.97166
▁ven	-8.97177
▁fysisk	-8.97178
▁lægge	-8.9729
▁lyd	-8.97648
ia	-8.97949
ion	-8.97965
▁Har	-8.98126
▁eksistere	-8.98554
▁Kina	-8.98563
▁enkelt	-8.98877
igennem	-8.99253
ver	-8.99281
▁politisk	-8.99661
▁stemme	-8.99766
ring	-8.99798
▁DNA	-8.9995
ær	-9.00054
▁historien	-9.00491
▁ben	-9.00564
▁Eller	-9.00657
▁a	-9.01076
▁økonomisk	-9.01102
hen	-9.01331
▁ligge	-9.01516
T	-9.01851
▁miste	-9.02086
hold	-9.02321
▁egne	-9.02835
▁historier	-9.03168
▁spille	-9.03229
▁niveau	-9.03231
▁bund	-9.03382
▁miljø	-9.03385
▁design	-9.03659
▁Med	-9.03948
lser	-9.042
▁fjerne	-9.04348
▁timer	-9.0441
▁job	-9.04435
▁ad	-9.04808
▁venstre	-9.04915
▁løse	-9.0542
3	-9.05452
ork	-9.05939
▁hundrede	-9.06117
▁netværk	-9.06224
▁W	-9.06239
▁nej	-9.06486
▁udvikling	-9.06615
▁pris	-9.06943
▁fungerer	-9.06979
▁områder	-9.07265
▁enhver	-9.07332
▁fri	-9.074
la	-9.07467
▁former	-9.0773
▁lokale	-9.07829
▁grunden	-9.07993
▁regler	-9.0805
son	-9.08096
▁træ	-9.08286
▁medicin	-9.08472
▁lyde	-9.08536
B	-9.08578
len	-9.08587
▁Vore	-9.08746
▁forkert	-9.08788
▁vejen	-9.09312
dag	-9.09392
▁offentlig	-9.09463
▁Ingen	-9.09514
▁hold	-9.09635
▁bøger	-9.09743
del	-9.09958
▁designe	-9.10001
▁opleve	-9.10023
▁overhovede	-9.10291
ien	-9.10438
▁bor	-9.10468
▁projekt	-9.10867
▁syv	-9.11079
▁v	-9.11442
▁frygt	-9.1172
▁købe	-9.11767
▁blå	-9.11866
▁per	-9.11939
▁stige	-9.11967
▁m	-9.11994
iv	-9.12136
7	-9.12542
▁bo	-9.13226
▁overraske	-9.13327
0	-9.1336
z	-9.13424
▁Klapsalve	-9.1345
▁spil	-9.13466
▁uger	-9.13492
▁universet	-9.13644
▁12	-9.13669
▁følge	-9.13833
▁morgen	-9.14257
over	-9.14513
▁naturen	-9.1483
6	-9.15005
▁vide	-9.15221
▁hjerte	-9.15242
to	-9.15248
▁skole	-9.15253
▁Re	-9.15567
▁rest	-9.15579
mp	-9.15684
▁egentlig	-9.159
▁dagen	-9.16026
▁fange	-9.16113
▁d	-9.16353
▁heller	-9.16743
▁Ved	-9.16744
▁latter	-9.16935
▁højre	-9.1694
▁virksomheder	-9.16949
E	-9.17092
▁The	-9.17342
▁foran	-9.17397
ie	-9.17528
▁fortsætte	-9.1757
▁sex	-9.17614
▁type	-9.17766
▁vækst	-9.17769
▁nå	-9.1784
å	-9.17847
▁oplevelse	-9.17892
ist	-9.1794
af	-9.18002
x	-9.18016
▁plads	-9.18114
▁25	-9.18137
▁Hver	-9.18141
▁muligheder	-9.18163
kke	-9.1822
▁beskytte	-9.18271
▁lav	-9.18421
▁problemet	-9.18453
▁video	-9.1853
▁bland	-9.18657
▁påvirke	-9.1866
▁forstår	-9.18719
▁myrer	-9.18734
▁Ma	-9.18738
▁Al	-9.18828
▁rent	-9.18918
▁måle	-9.19058
▁struktur	-9.19207
▁Google	-9.19237
▁vigtige	-9.19268
▁følelse	-9.1952
▁område	-9.19575
▁vandet	-9.19631
▁Le	-9.19679
ko	-9.19722
▁død	-9.19903
▁støtte	-9.20092
▁To	-9.20206
▁direkt	-9.20317
▁tæt	-9.20458
▁sikre	-9.20483
C	-9.20608
▁5	-9.2068
ger	-9.20706
▁alder	-9.20884
▁plan	-9.21216
▁født	-9.21264
og	-9.21314
▁hus	-9.21483
ker	-9.21728
▁elske	-9.21754
▁kaldt	-9.21865
▁både	-9.21877
▁maskine	-9.21885
▁spare	-9.21895
▁ok	-9.21991
▁byen	-9.2203
▁pige	-9.22068
tal	-9.22162
▁Hvilke	-9.22704
▁dog	-9.22713
▁sammenligne	-9.22723
▁viden	-9.22801
▁videnskabelig	-9.22894
ed	-9.22983
▁falde	-9.23057
un	-9.23156
værre	-9.23217
▁endelig	-9.23276
▁pludselig	-9.23585
▁blod	-9.23605
▁engelsk	-9.23634
▁alene	-9.23686
▁opnå	-9.23848
▁spørge	-9.2385
il	-9.23873
▁holdt	-9.24476
▁lov	-9.24505
ill	-9.24553
▁kontakt	-9.24651
▁nød	-9.2491
▁process	-9.25208
▁bi	-9.25352
▁lytte	-9.25382
▁klare	-9.26028
▁dø	-9.26411
ha	-9.26705
▁bringe	-9.26787
▁tingene	-9.26946
▁succes	-9.26979
▁tredje	-9.27156
▁kendt	-9.27162
▁helbred	-9.27206
▁putte	-9.27243
▁meste	-9.27258
▁forældre	-9.27445
▁meter	-9.27533
▁økonomi	-9.27548
▁håb	-9.27658
▁nem	-9.27781
▁gener	-9.27808
▁ni	-9.27912
▁evne	-9.28111
▁almindelig	-9.28132
▁online	-9.28132
▁Lige	-9.28174
▁halv	-9.2848
man	-9.28622
S	-9.28732
▁tusind	-9.28814
▁slutning	-9.29042
▁nødvendig	-9.29066
▁vidunderlig	-9.29131
▁effektiv	-9.29145
mod	-9.29164
eks	-9.29227
9	-9.29247
▁sendt	-9.2925
▁ringe	-9.29284
tog	-9.29386
ingen	-9.29763
▁fremmed	-9.29828
▁fald	-9.29946
▁ekstrem	-9.3001
▁fuldstændig	-9.3001
▁hænder	-9.30012
je	-9.30062
elle	-9.30575
▁st	-9.30666
▁regne	-9.30764
▁adfærd	-9.30962
▁olie	-9.30974
▁kontrollere	-9.31022
G	-9.3141
▁of	-9.31519
▁V	-9.31602
▁love	-9.31815
▁faktum	-9.31923
▁kontrol	-9.32181
▁øjne	-9.32381
▁personlig	-9.32503
hi	-9.32514
▁Vil	-9.32524
tion	-9.32566
▁trække	-9.32611
▁18	-9.32667
▁grupper	-9.32847
▁dør	-9.32874
▁ansigt	-9.32886
▁digital	-9.32889
▁Selv	-9.32895
▁Til	-9.32939
▁Nå	-9.33063
▁håbe	-9.33234
▁politik	-9.33287
sse	-9.33471
▁spise	-9.33514
▁patienter	-9.33794
▁kreativ	-9.33862
▁otte	-9.33878
▁forvente	-9.33964
▁spørger	-9.33994
▁art	-9.34417
▁fremtid	-9.34515
▁vold	-9.3466
▁længe	-9.3475
▁spiller	-9.34763
isme	-9.34827
▁OK	-9.34877
▁tillade	-9.34903
▁midten	-9.3527
▁byer	-9.35421
▁80	-9.35467
▁hel	-9.35492
arbejde	-9.35647
▁krig	-9.35714
▁Hv	-9.36137
æl	-9.36439
▁N	-9.36531
by	-9.36559
vej	-9.36583
▁sandsynlig	-9.36597
▁lege	-9.36622
und	-9.36682
▁derud	-9.36909
▁sende	-9.36928
▁net	-9.37059
▁teori	-9.37067
si	-9.37525
tur	-9.37576
fa	-9.37663
▁udføre	-9.3773
▁Jo	-9.37831
ey	-9.37847
▁behov	-9.37895
▁Folk	-9.37895
▁tilføje	-9.37895
▁forbundet	-9.37959
▁ti	-9.37965
▁tydelig	-9.37974
A	-9.37999
▁eksperiment	-9.38013
▁fat	-9.38065
▁kasse	-9.38248
▁J	-9.38344
▁føle	-9.38414
ab	-9.38495
▁gennemsnitlig	-9.38544
▁følte	-9.3863
▁høje	-9.38725
▁forskning	-9.3883
▁bad	-9.38903
▁Musik	-9.3893
▁foredrag	-9.38932
▁hvid	-9.38944
bo	-9.39113
▁behandle	-9.39122
ister	-9.3913
rak	-9.39246
▁grad	-9.39318
▁vigtigst	-9.39355
▁udenfor	-9.39373
▁involvere	-9.39393
▁mødte	-9.39419
▁planet	-9.39619
ou	-9.39648
▁retning	-9.39672
allige	-9.39707
▁samarbejde	-9.39971
▁ung	-9.40103
▁ca	-9.40181
▁mønstre	-9.40193
▁resultater	-9.40297
▁sidst	-9.40449
▁adgang	-9.4105
▁tilgængelig	-9.41065
lad	-9.41078
▁måtte	-9.411
▁dybest	-9.41111
▁fokusere	-9.4114
▁60	-9.41306
▁vende	-9.41579
▁styre	-9.41671
▁time	-9.41765
▁antal	-9.4186
sætte	-9.41872
▁celler	-9.41927
▁givet	-9.42002
ang	-9.42326
▁fungere	-9.42431
▁basere	-9.42626
▁året	-9.42977
▁kompleks	-9.43146
▁hvorpå	-9.43273
▁kræft	-9.43374
▁Bar	-9.43417
▁vælge	-9.43467
▁fordel	-9.43587
▁beskrive	-9.43877
fald	-9.44077
ord	-9.44105
▁model	-9.44123
▁ekstra	-9.44241
▁perfekt	-9.44248
erede	-9.4452
▁spiser	-9.44779
lsen	-9.44952
M	-9.44995
▁slut	-9.45023
▁mørke	-9.45122
▁musik	-9.45344
▁Efter	-9.45346
▁moralsk	-9.4549
▁fælles	-9.45544
▁biler	-9.45572
▁dække	-9.45601
▁bevægelse	-9.45971
▁bro	-9.46177
▁undersøgelse	-9.46186
▁virkelighed	-9.4623
sær	-9.46289
▁sygdom	-9.46394
▁resultat	-9.46397
▁simple	-9.46457
▁forsvinde	-9.46457
▁fod	-9.4646
▁demokrati	-9.46466
▁møde	-9.46526
træ	-9.4653
▁mindste	-9.46619
▁syn	-9.46929
▁betale	-9.4693
▁udforske	-9.46947
▁bede	-9.47114
▁stærk	-9.47174
▁halvdel	-9.47179
▁landet	-9.4719
▁handle	-9.47281
ni	-9.47284
bu	-9.47418
tiden	-9.47512
▁perspektiv	-9.4758
▁elektricitet	-9.47582
▁inspirere	-9.47647
lin	-9.47817
▁sind	-9.47903
▁telefon	-9.47916
lod	-9.47964
▁stof	-9.47985
mand	-9.48111
▁beg	-9.48162
isere	-9.48497
år	-9.48508
▁chance	-9.48717
▁redde	-9.48747
▁satte	-9.48771
▁Mit	-9.48787
▁uge	-9.48803
▁risiko	-9.48841
▁lyset	-9.48876
▁sjovt	-9.48942
▁computere	-9.49052
▁råd	-9.49064
▁internettet	-9.49068
sten	-9.49298
antallet	-9.49341
ot	-9.49363
den	-9.49492
▁4	-9.4955
▁sat	-9.49779
▁kommunikere	-9.49866
▁spænde	-9.49867
▁Video	-9.49878
▁emne	-9.49886
co	-9.49971
▁mønster	-9.49973
os	-9.49986
▁brand	-9.5001
ek	-9.5002
▁mørk	-9.501
▁magt	-9.50112
▁8	-9.50167
▁studie	-9.50217
▁luft	-9.5023
▁ude	-9.50257
▁let	-9.50326
bi	-9.50514
▁forbedre	-9.51029
▁sp	-9.51035
ale	-9.51098
▁ændrede	-9.51167
system	-9.51274
▁styrke	-9.51581
▁årti	-9.51737
▁Jame	-9.51773
sta	-9.51785
▁kraft	-9.51889
▁øje	-9.52088
▁hurtig	-9.52135
▁skyld	-9.52164
▁ældre	-9.52205
▁ma	-9.52483
▁flyve	-9.52615
▁nær	-9.52635
væ	-9.5275
▁personer	-9.53051
▁the	-9.53407
▁mus	-9.53448
ben	-9.53453
▁gro	-9.5348
ber	-9.53615
lle	-9.53645
▁dårlige	-9.53815
▁snar	-9.53817
▁begyndelse	-9.53977
løb	-9.54141
na	-9.54571
▁konstant	-9.54601
står	-9.54749
▁befolkning	-9.54765
▁fly	-9.54816
▁11	-9.54824
▁løsning	-9.55044
▁fedt	-9.55078
▁behandling	-9.55081
▁følger	-9.55308
▁medier	-9.55319
au	-9.55364
▁værd	-9.55536
▁ledere	-9.55635
lag	-9.5565
▁pointe	-9.55653
▁bygget	-9.55756
▁John	-9.5582
▁dé	-9.55828
mm	-9.55976
▁lede	-9.55988
▁masser	-9.56054
inger	-9.56577
▁c	-9.56864
▁Amerika	-9.56965
▁glæde	-9.57055
▁bange	-9.57055
▁reducere	-9.57057
▁eget	-9.57061
▁adskil	-9.57075
▁virksomhed	-9.57101
▁materiale	-9.57151
▁gæld	-9.5717
bar	-9.57232
▁sandsynlighed	-9.57396
▁hul	-9.57814
ænd	-9.58041
▁læst	-9.58091
▁fundamental	-9.58175
▁filmen	-9.58228
R	-9.58258
▁kommunikation	-9.58305
▁stykker	-9.58357
▁glad	-9.5836
▁linje	-9.58377
5	-9.5856
▁aktivitet	-9.58599
▁papir	-9.58695
eret	-9.58817
▁Tag	-9.58872
go	-9.58916
art	-9.58943
ton	-9.59031
ka	-9.59077
▁Pa	-9.59172
▁læge	-9.59193
▁optage	-9.59195
mer	-9.59198
ng	-9.59219
▁l	-9.59516
▁elektrisk	-9.5957
▁sprede	-9.59579
▁stress	-9.59628
▁kamp	-9.59829
▁opgave	-9.59949
▁jord	-9.60074
▁14	-9.60285
årige	-9.60467
årig	-9.6069
▁ø	-9.60781
K	-9.60829
▁Europa	-9.60853
▁Tænk	-9.60856
ow	-9.6086
▁placere	-9.60928
▁nummer	-9.61279
▁sygdomme	-9.61326
▁svære	-9.61404
▁modern	-9.61415
▁hjemme	-9.6148
▁effekt	-9.61565
ap	-9.61624
▁skov	-9.61679
ba	-9.61809
med	-9.61867
▁Co	-9.61935
▁overflade	-9.61977
up	-9.6202
▁rummet	-9.62032
▁forbinde	-9.62122
▁reaktion	-9.62151
▁trods	-9.62153
▁rolle	-9.62156
▁Altså	-9.62169
▁skifte	-9.62211
▁uans	-9.62233
mit	-9.62246
▁beslutninger	-9.62269
fra	-9.62334
▁kendte	-9.62444
▁drive	-9.62448
▁udfordring	-9.62777
L	-9.62783
▁søn	-9.62793
▁pr	-9.62903
▁skade	-9.62968
▁Ud	-9.63029
ly	-9.63039
▁tilfældig	-9.63047
vend	-9.63323
▁skridt	-9.63468
▁bogstavelig	-9.63469
▁generel	-9.63479
ov	-9.63525
▁regering	-9.6362
ex	-9.63709
▁tur	-9.63842
▁overleve	-9.63934
▁6	-9.64009
▁kr	-9.64083
ment	-9.641
dy	-9.64538
▁bygger	-9.64597
▁publikum	-9.64734
▁kinesisk	-9.648
▁Chris	-9.64801
ære	-9.64803
▁håndtere	-9.64853
▁Gud	-9.64877
▁smerte	-9.64977
sto	-9.65044
▁kilometer	-9.6506
▁koste	-9.65071
heden	-9.65092
▁fisk	-9.65279
▁Om	-9.65298
▁formål	-9.6537
▁test	-9.65661
▁aktiv	-9.65873
▁myre	-9.65888
▁19	-9.65913
▁samfundet	-9.65972
▁bier	-9.66062
▁typisk	-9.66152
▁drøm	-9.66158
▁overveje	-9.66174
▁passer	-9.6622
▁løber	-9.66228
▁sagt	-9.66243
▁ægte	-9.66254
▁kørt	-9.6627
▁hastighed	-9.66392
▁sælge	-9.66456
▁fint	-9.66463
tra	-9.66524
▁ofre	-9.66552
▁angreb	-9.66606
▁pro	-9.66707
ron	-9.66821
▁interesse	-9.6684
▁sekunder	-9.66896
yl	-9.66935
▁undersøge	-9.67066
▁tidlig	-9.67102
▁7	-9.67104
▁kul	-9.67165
▁natur	-9.67448
▁Facebook	-9.67522
▁repræsentere	-9.67522
▁national	-9.67615
ld	-9.67629
▁kaste	-9.6765
▁opmærksomhed	-9.67665
▁Forestil	-9.67748
vi	-9.67891
▁følelser	-9.6799
ings	-9.67997
▁punkt	-9.68224
▁møder	-9.68444
▁beslutning	-9.68792
▁hurtige	-9.68839
ød	-9.68841
▁innovation	-9.6891
▁Japan	-9.68911
▁specifik	-9.68913
▁Dr	-9.68918
▁grundlægge	-9.68985
▁depression	-9.69012
▁unik	-9.69078
ier	-9.69168
▁apparat	-9.69275
ku	-9.69279
▁fyldt	-9.69454
giver	-9.69541
▁hårdt	-9.69715
rum	-9.69723
▁modeller	-9.69799
rede	-9.69874
▁super	-9.70183
▁måned	-9.70198
▁eksemple	-9.70319
▁uendelig	-9.70323
▁genetisk	-9.70324
▁foregå	-9.70325
▁matematik	-9.7033
▁forbi	-9.70337
▁dybt	-9.70403
▁gud	-9.70405
da	-9.70605
brug	-9.70632
▁dyre	-9.70831
▁valgt	-9.70961
▁kroppen	-9.71172
stand	-9.71184
▁total	-9.71189
P	-9.71313
lighed	-9.71372
ive	-9.7149
fuld	-9.71523
▁spor	-9.71539
tage	-9.71567
▁sider	-9.71579
▁organisationer	-9.71662
▁forfærdelig	-9.71747
▁toppen	-9.71749
▁hensyn	-9.71762
▁sender	-9.71764
▁CO	-9.71765
▁kærlighed	-9.71767
▁Alt	-9.71779
▁felt	-9.71797
▁flyde	-9.71987
▁90	-9.72046
▁tusinde	-9.72135
▁17	-9.72147
▁nøgle	-9.72195
▁løb	-9.72273
▁gal	-9.72406
rende	-9.72451
▁udvide	-9.72518
▁ren	-9.72676
▁normalt	-9.72863
N	-9.72976
tisk	-9.72982
▁vælger	-9.73065
▁ærlig	-9.73167
▁tendens	-9.73197
▁begrænse	-9.73209
▁acceptere	-9.73269
▁univers	-9.7327
sa	-9.73285
▁sol	-9.7346
ck	-9.73532
▁undre	-9.73576
▁16	-9.73576
ho	-9.7361
▁lyst	-9.73637
ance	-9.73662
men	-9.73696
▁tegn	-9.73736
ac	-9.73938
fi	-9.7403
ember	-9.74072
▁luften	-9.74083
▁levende	-9.74126
▁tegne	-9.74426
▁fugle	-9.74515
▁bevidst	-9.74555
▁patient	-9.74655
▁indsamle	-9.74667
▁ressourcer	-9.74682
▁smukke	-9.747
gennem	-9.74752
tik	-9.74771
all	-9.74771
▁foretage	-9.748
▁alvorlig	-9.74809
▁kl	-9.74876
▁systemet	-9.75008
▁overfladen	-9.75143
▁br	-9.75171
▁hår	-9.75209
▁samlede	-9.75229
▁arbejdet	-9.75343
▁Ind	-9.75345
▁teste	-9.75476
▁mente	-9.75477
▁fattige	-9.75649
▁funktion	-9.758
plan	-9.7588
vin	-9.75941
▁billig	-9.75988
▁smukt	-9.76054
rør	-9.76093
▁natten	-9.76182
▁batteri	-9.76245
▁Jorden	-9.7639
▁indse	-9.76439
ll	-9.76496
▁besked	-9.76503
▁kommet	-9.76548
▁klart	-9.76626
▁organisation	-9.7664
ningen	-9.76677
ppe	-9.76833
▁løbe	-9.76907
▁dreje	-9.77093
▁planeten	-9.77366
▁9	-9.77433
▁revolution	-9.77479
▁arbejds	-9.7755
▁nat	-9.77666
▁gratis	-9.77675
▁komplicere	-9.77675
▁tætte	-9.77675
▁bestå	-9.77722
▁løfte	-9.77725
▁modsatte	-9.77756
▁graf	-9.77765
▁sundhed	-9.7777
▁forståelse	-9.77862
elt	-9.77897
oner	-9.77902
▁slog	-9.77924
ah	-9.77994
▁ordet	-9.7804
▁børnene	-9.78045
▁føles	-9.78275
▁rige	-9.78374
▁sekund	-9.78543
▁sommer	-9.78664
▁arm	-9.78718
egge	-9.78729
pe	-9.78785
do	-9.78981
følge	-9.79019
▁rejser	-9.79055
▁købt	-9.79211
▁samtidig	-9.79213
▁simpel	-9.79237
ip	-9.79308
egne	-9.79309
▁bevis	-9.79314
▁forsøger	-9.79363
▁tab	-9.79532
par	-9.79617
▁læser	-9.79717
▁sæt	-9.798
▁skriver	-9.79967
▁familier	-9.80024
▁generation	-9.80122
▁umulig	-9.80164
▁sorte	-9.80514
▁Fra	-9.80558
▁evig	-9.80601
fer	-9.80667
▁Ju	-9.80752
▁undgå	-9.80777
▁tværs	-9.80785
▁udført	-9.80915
▁piger	-9.80953
▁højt	-9.8097
▁bred	-9.81028
▁fuld	-9.81224
ater	-9.81274
▁farve	-9.8128
▁vægt	-9.81332
▁slutte	-9.81368
▁bilen	-9.81544
▁dyrke	-9.81547
▁minde	-9.81634
▁forskellen	-9.81842
▁Først	-9.82138
▁samtale	-9.82156
▁samler	-9.82189
▁skr	-9.82194
▁Sådan	-9.82341
▁investere	-9.82363
▁kredsløb	-9.82363
▁software	-9.82363
▁po	-9.82386
▁syd	-9.82387
▁smuk	-9.8244
▁udtryk	-9.82535
pper	-9.82578
læg	-9.82652
kan	-9.82677
▁øge	-9.82759
ator	-9.8292
▁j	-9.82986
dom	-9.83022
▁individer	-9.83425
▁firma	-9.83628
▁eks	-9.83662
▁forbindelse	-9.83771
▁mobil	-9.8397
▁Selvfølgelig	-9.83976
▁fremskridt	-9.83976
▁forbløffe	-9.83976
▁Ha	-9.83989
▁sad	-9.84157
▁universitetet	-9.8423
▁jam	-9.84258
▁dukke	-9.84506
▁forandring	-9.84509
▁røre	-9.84521
▁sko	-9.84535
▁Nogen	-9.84662
istisk	-9.848
▁læger	-9.84855
▁udnytte	-9.85092
▁Bi	-9.85109
▁rette	-9.85191
ny	-9.85236
▁vind	-9.8524
▁færdig	-9.85313
heder	-9.85344
▁Sa	-9.85395
▁forskellig	-9.85413
▁mindst	-9.85454
▁negativ	-9.85616
▁199	-9.85617
▁flagermus	-9.85619
▁slukke	-9.85627
▁ingenting	-9.85627
▁70	-9.85646
▁Over	-9.85656
▁karakter	-9.85707
råd	-9.85804
▁Di	-9.85815
▁hjemmeside	-9.85929
age	-9.85961
▁projekter	-9.85965
▁metode	-9.85991
▁tanke	-9.8629
▁La	-9.86411
▁kamera	-9.86416
mon	-9.8647
▁milliard	-9.86611
▁midt	-9.8664
▁nylig	-9.86734
▁svær	-9.86846
▁Jer	-9.8688
▁køber	-9.86977
▁endte	-9.87003
▁regel	-9.87148
▁robot	-9.87232
▁åben	-9.87269
▁baggrund	-9.87282
▁forblive	-9.87282
▁massiv	-9.87282
▁dobbelt	-9.87282
▁forårsage	-9.87283
▁sang	-9.87313
▁nyde	-9.87488
▁klasse	-9.87548
værend	-9.87599
ninger	-9.87675
▁24	-9.87699
lys	-9.8782
▁mobiltelefon	-9.8788
▁frihed	-9.87993
▁ryg	-9.88031
▁opstå	-9.88046
▁kode	-9.88287
and	-9.88342
▁udfordringer	-9.88351
▁rammer	-9.88361
▁betaler	-9.88423
sag	-9.88442
▁overal	-9.88479
ib	-9.88568
▁bestemme	-9.88597
▁tænder	-9.88728
▁insekter	-9.88799
▁opmærksom	-9.88801
▁Mo	-9.88843
▁privat	-9.88847
talte	-9.88851
▁Ka	-9.88877
▁London	-9.88977
▁absolut	-9.88978
▁udelukke	-9.88979
▁definere	-9.88979
▁klima	-9.88985
wa	-9.88996
▁Menneske	-9.89009
▁fænomen	-9.8905
▁bank	-9.89058
▁plante	-9.892
▁presse	-9.8922
▁forudsige	-9.89379
▁So	-9.89412
▁lokal	-9.8953
▁indkomst	-9.89562
▁handling	-9.8959
port	-9.89777
▁betalt	-9.89783
▁ansvar	-9.8981
▁årsag	-9.90023
▁gan	-9.90031
▁begejstre	-9.90102
▁afhængig	-9.90463
é	-9.906
▁svampe	-9.90602
▁svarer	-9.90685
▁forhindre	-9.90701
▁intelligens	-9.90701
▁engagere	-9.90701
▁færre	-9.90701
▁England	-9.90701
▁organisere	-9.90706
▁oven	-9.90716
▁hoppe	-9.90718
▁mund	-9.90725
▁Meg	-9.90754
▁tilstand	-9.90833
blik	-9.90906
han	-9.90911
mænd	-9.91033
▁aften	-9.91043
pet	-9.91279
▁lukke	-9.9128
▁røde	-9.91287
O	-9.91331
▁danne	-9.91368
▁Ser	-9.91425
arv	-9.91488
på	-9.91548
I	-9.91654
▁co	-9.91656
▁liste	-9.91724
▁fortælling	-9.9191
▁lå	-9.92331
ium	-9.92336
▁fred	-9.92407
▁GPS	-9.92456
▁berømt	-9.92456
▁identificere	-9.92456
▁introducere	-9.92456
▁potentiale	-9.92456
▁Publikum	-9.92456
▁voksne	-9.92457
▁reagere	-9.92458
▁udfordre	-9.92458
▁vindue	-9.92471
▁højde	-9.92493
▁hukommelse	-9.9256
teknologi	-9.92581
▁ha	-9.92656
io	-9.92724
▁Mu	-9.92834
▁sø	-9.92921
▁sammenhæng	-9.92941
▁dollar	-9.92967
▁kerne	-9.92981
▁efterlade	-9.93025
▁traditionel	-9.93032
▁kroppe	-9.93197
▁proces	-9.93284
lagt	-9.93394
rige	-9.9349
▁An	-9.935
▁Kun	-9.93591
▁starten	-9.93591
stilling	-9.93907
ff	-9.94032
▁tit	-9.9408
▁betydning	-9.94241
▁afsløre	-9.94241
▁fascinere	-9.94241
▁central	-9.94254
▁evner	-9.94283
▁datter	-9.94329
kraft	-9.94388
▁læ	-9.94407
▁strøm	-9.94497
▁afrikansk	-9.94499
▁drage	-9.9454
ft	-9.94557
▁serie	-9.94586
▁kilde	-9.9463
▁videnskaben	-9.94652
kon	-9.94711
▁MS	-9.95037
▁biologi	-9.95062
▁San	-9.95657
tale	-9.95675
sky	-9.95768
▁ski	-9.95783
▁laboratoriet	-9.95858
▁hj	-9.95946
▁fuldt	-9.9605
▁tør	-9.96056
▁karriere	-9.9606
▁fantasi	-9.9606
▁tilbyde	-9.96091
▁vejret	-9.96101
▁beviser	-9.96155
▁bære	-9.96178
▁nævnt	-9.96198
▁lig	-9.96233
▁indeholde	-9.96237
F	-9.96243
▁forlade	-9.96279
▁Bill	-9.96355
▁skala	-9.96421
▁værktøj	-9.96546
▁situation	-9.96546
▁opfattelse	-9.96582
kort	-9.96634
▁præ	-9.96646
▁fattigdom	-9.9691
▁takt	-9.96945
ub	-9.97326
▁regn	-9.97335
▁fremme	-9.97458
▁sælger	-9.97671
▁skoler	-9.97753
▁hjørne	-9.97911
▁kontor	-9.97929
▁slet	-9.97947
▁ét	-9.97966
▁bedst	-9.98008
▁produkt	-9.98124
▁version	-9.98188
▁sort	-9.98269
øje	-9.98339
▁program	-9.98434
▁sten	-9.98461
▁vestlig	-9.98507
▁sandheden	-9.98579
ble	-9.98773
▁forbindelser	-9.98811
▁afsted	-9.98842
▁solen	-9.989
▁maskiner	-9.99004
▁lykkelig	-9.99277
▁opfatte	-9.99402
end	-9.99452
▁tekst	-9.99481
industrien	-9.99503
▁tabt	-9.99573
▁oppe	-9.99589
ard	-9.99619
▁eksperimenter	-9.99621
▁fængsel	-9.99798
▁pattedyr	-9.99798
▁foreslå	-9.99799
▁no	-9.99807
▁solgt	-9.99812
▁beskrev	-9.99817
▁forandre	-10.0001
▁nærmest	-10.0001
studerende	-10.0007
liggende	-10.0007
▁bio	-10.0011
▁periode	-10.0013
▁scenen	-10.0019
▁grønne	-10.0022
▁Ni	-10.0029
▁Ve	-10.0056
▁Sp	-10.007
▁voksen	-10.0078
alitet	-10.0088
▁ar	-10.0089
▁lærere	-10.0095
▁landsby	-10.0099
▁cent	-10.0099
▁biologisk	-10.0102
delen	-10.0108
▁ej	-10.0146
▁forbruger	-10.0159
▁sætning	-10.0166
▁internet	-10.0172
▁matematisk	-10.0172
▁betragte	-10.0172
▁nøjagtig	-10.0172
▁føde	-10.0172
▁Hej	-10.0172
▁tændt	-10.0173
▁team	-10.0173
▁email	-10.0174
▁fortrydelse	-10.0175
▁hvornår	-10.0179
▁tøj	-10.0181
▁vision	-10.0184
liv	-10.0188
▁kød	-10.0209
▁bevidsthed	-10.0215
▁dreng	-10.0219
▁spillet	-10.0224
stød	-10.0226
▁Go	-10.023
▁hjerner	-10.0234
agtig	-10.0236
▁varme	-10.0245
▁ur	-10.0253
ager	-10.0261
læs	-10.0262
hænger	-10.0273
▁bogen	-10.0274
▁tidlige	-10.0279
▁befolkningen	-10.0295
▁organer	-10.03
▁nyheder	-10.036
▁seriøs	-10.0368
▁sjælden	-10.0369
▁skør	-10.037
▁skubbe	-10.037
▁forklaring	-10.0376
▁individ	-10.0382
▁udgive	-10.0384
▁forsøge	-10.0389
▁celle	-10.0399
▁sikkerhed	-10.0402
kom	-10.0404
▁mærkelig	-10.0408
billede	-10.0408
ki	-10.0413
▁korte	-10.0419
▁senest	-10.042
▁individuel	-10.0422
▁fortsat	-10.043
▁fjerde	-10.0432
▁amerikanere	-10.0445
▁Po	-10.0454
▁bar	-10.0455
▁13	-10.0457
▁kø	-10.0461
led	-10.0467
▁syntes	-10.0489
▁arter	-10.0493
▁kulturel	-10.0493
▁stjerne	-10.0494
sel	-10.0495
▁Li	-10.0499
▁blande	-10.051
▁træk	-10.0512
▁Mine	-10.0527
▁forestil	-10.0535
▁anti	-10.0535
▁computeren	-10.0539
▁minder	-10.0542
ighed	-10.0565
▁Na	-10.0565
▁korrekt	-10.0568
▁basal	-10.0569
▁bragt	-10.0569
▁Op	-10.0571
▁antage	-10.0571
▁kurve	-10.058
▁allesammen	-10.0581
▁stole	-10.0589
oh	-10.0594
▁løsninger	-10.0599
▁planter	-10.0602
▁nettet	-10.0611
▁moral	-10.0613
▁væv	-10.0618
▁dimensioner	-10.0624
▁fører	-10.0628
▁male	-10.0629
▁post	-10.0638
ina	-10.065
▁Tre	-10.0659
▁300	-10.0667
▁hovede	-10.0668
▁tvivl	-10.0677
▁professionel	-10.0684
▁rød	-10.0685
alp	-10.0687
▁sørge	-10.069
▁forretning	-10.0715
▁scene	-10.0731
▁Universit	-10.0734
▁venlig	-10.0743
▁tv	-10.0755
▁leg	-10.0757
hus	-10.0759
▁inde	-10.076
▁materialer	-10.0762
▁sandhed	-10.0764
▁uddanne	-10.0767
lægge	-10.077
▁inkludere	-10.0772
▁præsident	-10.0772
▁Grund	-10.0772
▁Californi	-10.0773
▁rulle	-10.0773
▁tillid	-10.0773
▁succesfuld	-10.0774
▁gennemgå	-10.0776
hvert	-10.0779
▁præstation	-10.078
original	-10.0783
▁Giv	-10.0788
sted	-10.0789
▁skønhed	-10.079
▁kone	-10.0793
▁våben	-10.0795
▁hårde	-10.0796
▁politiet	-10.0798
▁gaden	-10.0806
løse	-10.0807
brud	-10.0814
spil	-10.0817
▁Ra	-10.0822
▁religion	-10.0825
siden	-10.083
▁stærke	-10.0841
satte	-10.0844
nemlig	-10.0845
▁erfaring	-10.0853
▁designer	-10.0873
▁201	-10.0874
▁opdagelse	-10.0876
▁sund	-10.0878
▁tanker	-10.0881
æg	-10.0885
▁syge	-10.0886
igt	-10.0886
▁vor	-10.0893
fri	-10.0899
▁hale	-10.0922
▁Mand	-10.0932
▁tids	-10.0952
▁fattig	-10.0955
▁livs	-10.0959
▁bæredygtig	-10.0968
▁værktøjer	-10.0969
▁ære	-10.0974
▁glade	-10.0975
▁Afghanistan	-10.0981
▁Richard	-10.0981
▁kollega	-10.0981
▁oxytocin	-10.0981
▁populær	-10.0981
▁kritisk	-10.0981
▁skræmme	-10.0981
▁bemærke	-10.0981
▁TV	-10.0983
▁kreativitet	-10.0984
▁træer	-10.0987
▁standard	-10.0987
▁vild	-10.1001
øj	-10.1003
▁tilgang	-10.1019
gar	-10.1022
▁kon	-10.1024
▁glas	-10.1032
▁billedet	-10.1033
▁løs	-10.1033
▁institutioner	-10.1039
kø	-10.1044
▁værdier	-10.1053
▁bryde	-10.1057
▁kunstig	-10.1058
▁industri	-10.1063
▁tiltrække	-10.1063
▁øjeblikke	-10.1063
▁stemmer	-10.1069
▁holdning	-10.107
▁ansvarlig	-10.1081
▁lod	-10.1081
▁nåe	-10.109
▁strategi	-10.1099
▁skoven	-10.1121
▁barndom	-10.1141
▁fyren	-10.1147
▁varm	-10.1154
ick	-10.1168
▁indflydelse	-10.1193
▁Storbritannien	-10.1193
▁dræbt	-10.1193
▁smelte	-10.1193
▁finansiel	-10.1194
▁benytte	-10.1194
▁Applaus	-10.1194
▁gemme	-10.1195
▁spist	-10.1196
▁erstatte	-10.1197
▁slem	-10.1197
▁modsætning	-10.1197
tød	-10.121
▁Do	-10.1213
under	-10.1222
▁operation	-10.1226
▁forrest	-10.1226
▁forfatter	-10.1229
▁systemer	-10.1247
▁rejst	-10.1261
▁markedet	-10.1271
lægger	-10.1282
▁faldt	-10.1286
▁ko	-10.1287
▁tider	-10.1294
have	-10.1304
pol	-10.1308
▁øjnene	-10.1308
▁træne	-10.1316
fu	-10.1338
▁hud	-10.1339
▁flyver	-10.1342
mens	-10.1342
vand	-10.1362
leg	-10.1365
▁udvikler	-10.1372
▁skrift	-10.1389
▁baby	-10.1399
▁22	-10.1408
▁kvadrat	-10.1411
▁kollektiv	-10.1411
▁usædvanlig	-10.1411
▁true	-10.1411
▁fængsle	-10.1411
▁lomme	-10.1413
▁landbrug	-10.1415
ovre	-10.1429
▁slippe	-10.1447
▁kvalitet	-10.145
od	-10.1453
slag	-10.1463
▁fyre	-10.1464
▁elementer	-10.1479
▁tænk	-10.1485
▁organismer	-10.1487
▁gennemsnit	-10.1496
▁navne	-10.1498
oppe	-10.1528
▁kunder	-10.1531
▁ramt	-10.1545
▁tjener	-10.1547
▁hemmelighed	-10.1566
▁live	-10.1569
▁Af	-10.1585
▁åbner	-10.1586
▁mennesket	-10.1587
▁start	-10.1593
▁borger	-10.1593
▁patent	-10.1595
▁drenge	-10.1604
▁pengene	-10.1607
qu	-10.1611
▁nyligt	-10.1614
løst	-10.1617
▁genom	-10.1628
▁markeds	-10.1629
▁FBI	-10.1633
▁kombinere	-10.1633
▁interagere	-10.1633
▁indhold	-10.1636
▁mental	-10.1641
▁således	-10.1653
▁års	-10.1655
▁analysere	-10.1657
▁bygning	-10.1669
▁grundlag	-10.1674
▁vilje	-10.1677
▁drømme	-10.1678
▁personen	-10.1699
▁position	-10.1707
▁neuroner	-10.1738
side	-10.1761
▁folket	-10.1768
▁sans	-10.1779
▁forskelle	-10.1779
▁500	-10.1783
▁opføre	-10.1787
▁universitet	-10.1798
▁opfinde	-10.18
▁Pro	-10.1801
▁religioner	-10.1802
mål	-10.184
isering	-10.1842
▁magisk	-10.1846
▁ild	-10.1847
▁studier	-10.1854
▁eksistens	-10.186
▁entropi	-10.186
▁invitere	-10.186
▁formentlig	-10.186
▁drikke	-10.1861
▁følelsesmæssig	-10.1861
▁prikker	-10.1861
▁falsk	-10.1862
▁ægteskab	-10.1863
▁fællesskab	-10.1863
gøre	-10.1865
▁objekt	-10.1865
▁flod	-10.1868
▁halvt	-10.1871
▁top	-10.1876
▁ulighed	-10.1876
▁genstand	-10.1877
▁tag	-10.1878
mmer	-10.188
per	-10.1883
gu	-10.1887
▁tredjedel	-10.189
fin	-10.1892
▁bakterie	-10.1893
▁Ko	-10.1898
NP	-10.1898
▁Lo	-10.1908
▁indre	-10.1913
▁markeder	-10.1914
▁fransk	-10.1919
kast	-10.1937
ph	-10.194
▁mangler	-10.1945
ai	-10.1951
▁boet	-10.1965
▁rig	-10.197
▁skolen	-10.1981
▁EM	-10.1985
▁fremtidig	-10.1986
▁patienten	-10.2014
ox	-10.2016
▁passion	-10.2022
▁observere	-10.2023
mage	-10.2025
▁opgaver	-10.2027
▁døds	-10.2051
▁signaler	-10.2052
▁kat	-10.2053
vil	-10.2055
▁vær	-10.2062
▁evolution	-10.2072
▁lyden	-10.2091
▁empati	-10.2093
▁forfædre	-10.2093
▁international	-10.2093
▁vågne	-10.2093
▁misbrug	-10.2093
▁Hel	-10.2094
▁Tja	-10.2095
▁menneskeheden	-10.2095
▁praktisk	-10.2096
▁Hans	-10.2097
▁smide	-10.2098
▁Igen	-10.21
▁Su	-10.21
▁grænser	-10.2108
▁definition	-10.2111
erende	-10.2117
form	-10.2123
▁vendt	-10.2125
▁læring	-10.2126
▁stil	-10.2134
▁ru	-10.2137
▁nemme	-10.2139
ford	-10.2146
▁ledelse	-10.2158
▁Tom	-10.2159
▁konsekvenser	-10.2161
mellem	-10.2166
▁knap	-10.2167
▁Kom	-10.2199
▁ejer	-10.2239
ække	-10.224
▁handel	-10.225
▁æg	-10.2263
▁ødelægge	-10.2265
▁sunde	-10.2266
ologi	-10.227
▁grøn	-10.2278
▁kost	-10.2301
▁hemmelig	-10.2305
▁ændringer	-10.2314
▁visuel	-10.2319
greb	-10.2323
stråle	-10.2323
▁sundheds	-10.2323
middel	-10.233
mor	-10.2331
▁radio	-10.2331
▁yndlings	-10.2331
▁arabisk	-10.2331
▁inklusiv	-10.2331
▁komplet	-10.2331
▁omstændigheder	-10.2331
▁vaske	-10.2331
▁bekendt	-10.2332
▁ferie	-10.2332
▁ansatte	-10.2333
▁kompleksitet	-10.2334
▁brænde	-10.2336
▁klippe	-10.2337
systemet	-10.234
▁krydse	-10.234
▁Israel	-10.2345
▁mødre	-10.2349
▁professor	-10.2357
løs	-10.2358
▁Mar	-10.2358
▁faktor	-10.2374
▁sen	-10.238
skib	-10.2387
▁vinder	-10.239
rytme	-10.2409
plads	-10.2409
▁nul	-10.2421
▁sti	-10.2429
▁tom	-10.2434
▁God	-10.2443
abel	-10.2456
▁Ny	-10.2459
▁bånd	-10.2463
ca	-10.2463
▁kemi	-10.2465
▁chimpanser	-10.2467
▁langsomt	-10.2472
▁forsøgt	-10.2475
▁regeringen	-10.2487
▁nærhed	-10.2509
▁demokratisk	-10.2522
▁sproget	-10.2546
▁forretnings	-10.2551
gra	-10.2552
▁ond	-10.2552
▁styr	-10.2568
▁positiv	-10.2569
▁sjæl	-10.2574
▁Probleme	-10.2575
▁civilisation	-10.2575
▁diskutere	-10.2575
▁dominere	-10.2575
▁fødder	-10.2575
▁lejlighed	-10.2575
▁oprindelig	-10.2575
▁opfordre	-10.2575
▁elektronisk	-10.2575
▁lyve	-10.2576
▁øverst	-10.2576
▁alternativ	-10.2576
▁Paul	-10.2579
▁dejlig	-10.2582
▁optimistisk	-10.2582
▁nutiden	-10.2603
▁inter	-10.2604
tegn	-10.261
lød	-10.2614
▁oplevelser	-10.2619
dge	-10.2619
0.000	-10.262
▁kor	-10.2639
50	-10.266
▁krise	-10.2662
ami	-10.2666
▁plu	-10.2668
▁giv	-10.267
sætning	-10.2675
vo	-10.2677
▁sove	-10.2685
▁værelse	-10.269
▁området	-10.2738
▁danse	-10.2742
farten	-10.276
lå	-10.2766
▁hænge	-10.2767
▁søge	-10.2773
hu	-10.2774
las	-10.2782
▁anvende	-10.2795
bil	-10.2801
▁programmer	-10.2801
▁teknologien	-10.2804
▁fysik	-10.2811
,5	-10.2825
▁afslutte	-10.2825
▁angribe	-10.2825
▁forhåbentlig	-10.2825
▁identitet	-10.2825
▁kognitiv	-10.2825
▁primær	-10.2825
▁yderlig	-10.2825
▁essentiel	-10.2825
▁usynlig	-10.2825
▁bevare	-10.2825
▁Verden	-10.2825
▁forvandle	-10.2826
▁Stor	-10.2827
▁virtuel	-10.283
▁konkurrence	-10.2831
▁sub	-10.2835
▁opbygge	-10.2835
stat	-10.2844
▁kampagne	-10.2848
ført	-10.2853
▁næse	-10.2857
▁Ta	-10.2861
▁reaktor	-10.2865
▁pakke	-10.2878
▁km	-10.2893
▁Sy	-10.2893
▁kvinderne	-10.2912
kunst	-10.2915
Tu	-10.2915
▁strukturer	-10.2925
▁produktion	-10.2937
▁kyst	-10.2938
▁projektet	-10.2941
sprog	-10.2943
▁øjeblikket	-10.2946
▁journalist	-10.2951
▁lo	-10.2959
syn	-10.2963
▁binde	-10.2967
▁detaljer	-10.2977
▁fin	-10.2986
▁forbrug	-10.2996
▁ligning	-10.2999
▁sjov	-10.3001
▁gave	-10.3013
van	-10.3038
▁Pri	-10.3038
▁aktive	-10.3045
▁budskab	-10.3046
▁Mor	-10.3056
▁underlig	-10.307
▁Harvard	-10.3081
▁ekstraordinær	-10.3081
▁elefant	-10.3081
▁historisk	-10.3081
▁ignorere	-10.3081
▁kolleger	-10.3081
▁svømme	-10.3081
▁potentiel	-10.3081
▁rimelig	-10.3081
▁Georg	-10.3081
emærkelsesværdig	-10.3081
▁æble	-10.3081
▁yng	-10.3082
▁multi	-10.3082
drift	-10.3082
▁kraftfuld	-10.3083
kald	-10.3086
▁Husk	-10.3092
spring	-10.3094
▁Nord	-10.3098
▁argumentere	-10.3098
▁kloge	-10.3099
▁privatliv	-10.3101
▁omdømme	-10.3107
varen	-10.3108
▁kilder	-10.3116
▁firmaer	-10.313
▁bølge	-10.3146
du	-10.3153
▁samtaler	-10.3153
øre	-10.3154
▁hade	-10.3156
ktor	-10.3163
V	-10.3172
▁ryste	-10.318
▁Sta	-10.3184
▁sne	-10.3186
▁koloni	-10.3191
▁mail	-10.32
▁egenskaber	-10.3204
▁dyrene	-10.321
▁årsager	-10.321
▁and	-10.3241
▁katte	-10.3246
▁fare	-10.325
▁motor	-10.3259
▁bed	-10.3285
▁Dan	-10.329
▁sande	-10.3303
drag	-10.3305
væk	-10.331
sko	-10.3323
far	-10.3342
▁Twitter	-10.3344
▁belønning	-10.3344
▁deprimere	-10.3344
▁kombination	-10.3344
▁trafik	-10.3344
▁synspunkt	-10.3345
▁Adam	-10.3345
▁196	-10.3345
▁Ne	-10.3346
▁bedstemor	-10.3347
▁efterligne	-10.3354
▁langsomme	-10.3354
▁metal	-10.3356
rate	-10.3359
▁øvrig	-10.336
dør	-10.3361
▁hjul	-10.3367
leve	-10.3369
▁Car	-10.337
▁afgørende	-10.3385
▁mave	-10.3392
▁økonomer	-10.3399
▁skam	-10.3404
▁nation	-10.3415
▁debat	-10.3421
▁kolonier	-10.3425
▁point	-10.3433
▁gader	-10.3439
kar	-10.3441
▁normale	-10.3443
wi	-10.3456
fører	-10.3467
▁magi	-10.348
▁besat	-10.3484
▁mødt	-10.3486
give	-10.349
iti	-10.3505
▁ugen	-10.3505
niveau	-10.3507
▁glemt	-10.3516
▁sikkerheds	-10.352
▁farlig	-10.3536
ark	-10.3551
▁øre	-10.3579
ket	-10.3583
▁farver	-10.3583
▁produkter	-10.3586
▁koncept	-10.3591
mærk	-10.3599
▁atomkraft	-10.3599
▁mikro	-10.3614
▁Einstein	-10.3615
▁teknisk	-10.3615
▁undersøgt	-10.3615
▁overbevise	-10.3615
▁pension	-10.3615
▁region	-10.3615
▁toilet	-10.3615
▁omtrent	-10.3615
▁gulvet	-10.3615
▁variation	-10.3615
▁tvunge	-10.3615
▁træffe	-10.3615
▁198	-10.3616
▁197	-10.3616
▁JF	-10.3616
▁visdom	-10.3617
▁Børn	-10.3617
▁partikler	-10.3617
▁tilbøjelighed	-10.3622
▁retfærdighed	-10.3622
▁Hu	-10.3627
▁trykke	-10.3632
▁10.000	-10.3635
▁Anders	-10.3636
of	-10.3646
▁tvinge	-10.3646
▁robotter	-10.3648
▁partner	-10.3651
▁galakse	-10.3652
evis	-10.3659
▁ube	-10.366
▁normal	-10.3665
ledning	-10.3666
▁væg	-10.3671
▁Ro	-10.371
▁statistik	-10.3712
▁elever	-10.3712
anset	-10.3712
tine	-10.3714
▁samling	-10.3719
▁fortællinger	-10.3721
valg	-10.3729
skud	-10.3731
▁afdeling	-10.3731
lykke	-10.3733
▁ledt	-10.3744
▁miljøet	-10.375
øst	-10.3756
▁he	-10.3756
▁ingeniør	-10.3756
dste	-10.3757
eller	-10.3787
▁Bo	-10.3787
▁Con	-10.3796
▁tradition	-10.3801
▁Ly	-10.3803
▁stjerner	-10.3813
▁pi	-10.3814
▁reel	-10.3822
ligne	-10.3825
orer	-10.3827
▁tabe	-10.3844
agende	-10.3845
H	-10.3856
▁fokus	-10.3861
▁døren	-10.3862
▁fordele	-10.3869
▁laboratori	-10.3869
▁respekt	-10.387
▁la	-10.389
▁artikel	-10.3892
▁fiasko	-10.3892
▁mekanisk	-10.3892
▁taknemmelig	-10.3892
▁nævne	-10.3892
▁beregne	-10.3893
▁kontekst	-10.3893
▁ukendt	-10.3893
▁principper	-10.3894
▁tidsalder	-10.3895
▁skærm	-10.3897
▁Indus	-10.3898
▁positive	-10.3899
▁tilpasse	-10.3899
▁minut	-10.3902
▁hanner	-10.3903
hjel	-10.3903
▁Vær	-10.3903
▁borts	-10.3909
▁dybere	-10.3911
▁fremad	-10.3912
▁insekt	-10.3922
▁flaske	-10.3924
ionen	-10.3926
▁dybe	-10.3929
ja	-10.393
▁følsom	-10.3933
▁bevise	-10.394
▁politi	-10.3959
▁ligeså	-10.396
▁foto	-10.396
suelle	-10.3962
▁ilt	-10.3971
områder	-10.3972
▁organ	-10.398
▁dræbe	-10.3982
▁gentage	-10.3984
▁aktivere	-10.3988
▁forud	-10.4001
▁orden	-10.4005
maskine	-10.401
▁fil	-10.402
▁ba	-10.4034
▁medicinsk	-10.4039
▁molekyler	-10.4039
▁hundred	-10.4053
▁løn	-10.4056
▁Ph	-10.4063
▁nede	-10.4065
▁bidrage	-10.4069
▁mangel	-10.4075
▁smarte	-10.4081
▁lykkelige	-10.4081
▁moder	-10.4096
▁virus	-10.4102
▁deltage	-10.4114
▁Bra	-10.4117
▁heldig	-10.4125
▁Charle	-10.4137
▁fortid	-10.4144
▁passe	-10.4148
▁sam	-10.4148
▁skøn	-10.4157
▁grader	-10.4161
▁informations	-10.4164
▁ånd	-10.4164
▁slip	-10.4176
▁benzin	-10.4176
▁molekylær	-10.4178
▁skjult	-10.4178
▁Australi	-10.4178
▁favorit	-10.4178
▁printe	-10.4179
▁færdigheder	-10.4179
▁guld	-10.418
▁status	-10.4181
▁gennemført	-10.4183
▁analyse	-10.4184
▁gutter	-10.4185
▁stolt	-10.4185
▁su	-10.4187
▁grin	-10.419
▁månen	-10.4197
skriften	-10.4201
▁stikke	-10.4203
▁Ca	-10.4208
▁symboler	-10.4209
▁Bang	-10.421
▁Gå	-10.422
▁Hør	-10.422
▁begå	-10.4234
▁skaffe	-10.424
▁kontinent	-10.4243
▁opfindelse	-10.4255
▁vurdere	-10.4258
▁glemme	-10.4289
▁lette	-10.429
ild	-10.4292
vidt	-10.4302
▁gætte	-10.4319
▁Få	-10.4322
▁fabrik	-10.4323
stedet	-10.4336
▁terror	-10.4338
gav	-10.4343
line	-10.4347
agt	-10.4361
retning	-10.4371
▁underviser	-10.4374
▁dræber	-10.4379
▁universel	-10.4383
▁grave	-10.4402
▁økonomien	-10.4409
▁El	-10.4409
uk	-10.4409
▁hjertet	-10.4411
▁ro	-10.4413
hånden	-10.4415
▁værst	-10.4426
▁lugte	-10.4441
▁ankom	-10.4441
▁forventede	-10.4446
▁Natur	-10.4452
▁osv	-10.4454
▁klog	-10.4454
api	-10.4456
▁glim	-10.446
▁kig	-10.4462
▁resultate	-10.4467
▁herre	-10.4468
▁HIV	-10.4472
▁aspekt	-10.4472
▁avancere	-10.4472
▁praksis	-10.4472
▁religiøs	-10.4472
▁tatovering	-10.4472
▁David	-10.4472
▁fordoble	-10.4472
▁Street	-10.4472
▁forvirre	-10.4472
▁hylde	-10.4472
▁teenage	-10.4472
▁ørken	-10.4472
▁frø	-10.4473
▁Hollywood	-10.4473
▁arkitektur	-10.4474
▁magtfuld	-10.4474
▁villig	-10.4474
▁brev	-10.4474
▁maleri	-10.4479
▁pund	-10.4479
arbejdere	-10.4479
▁Iran	-10.4481
▁Bu	-10.4481
▁salg	-10.4489
▁Am	-10.4495
▁Siden	-10.4504
▁overraskelse	-10.4518
anuar	-10.4531
▁omkostninger	-10.4533
▁modstand	-10.4535
▁Mov	-10.4542
▁regeringer	-10.4545
▁afstand	-10.4559
▁kapital	-10.456
▁udgør	-10.4561
▁dyb	-10.4564
vandt	-10.4565
▁diskussion	-10.457
spiller	-10.4571
ana	-10.4581
▁delvis	-10.4584
sammen	-10.4591
▁35	-10.4592
▁signal	-10.4598
▁skyde	-10.4604
▁objekter	-10.461
bånd	-10.461
▁mærkelige	-10.4613
regning	-10.4635
▁idéer	-10.4643
▁forme	-10.4658
▁reklame	-10.4669
væg	-10.4676
▁ører	-10.4684
▁talle	-10.4686
bane	-10.4692
▁strenge	-10.4693
gton	-10.47
▁familien	-10.4704
▁Bri	-10.471
▁hacker	-10.4713
▁gift	-10.4728
▁enig	-10.4733
▁veje	-10.4736
▁75	-10.4744
▁ked	-10.4746
▁væksten	-10.4756
▁spore	-10.4758
▁galakser	-10.476
bra	-10.4768
▁genop	-10.4769
▁National	-10.4775
▁Spørgsmåle	-10.4775
▁kaffe	-10.4775
▁litteratur	-10.4775
▁præsentere	-10.4775
▁gribe	-10.4775
▁skat	-10.4775
▁fylde	-10.4775
▁trick	-10.4776
▁gemt	-10.4776
▁Intet	-10.4776
ita	-10.4777
▁værdifuld	-10.4778
▁Hold	-10.4778
lejr	-10.478
▁21.	-10.4783
▁indsigt	-10.4786
minister	-10.4786
▁beskæftige	-10.4788
snit	-10.479
▁service	-10.4794
▁udgav	-10.4799
▁velstand	-10.4808
▁platform	-10.4814
▁stigning	-10.4814
▁beholde	-10.4818
▁ændring	-10.4826
▁vinden	-10.4828
▁brugbar	-10.483
▁marked	-10.4834
▁taber	-10.4834
▁server	-10.4835
▁tjene	-10.486
handler	-10.4867
▁linjer	-10.487
▁stammer	-10.4872
▁tryk	-10.4877
20	-10.4882
hånd	-10.4886
▁investering	-10.4887
ley	-10.4916
har	-10.4919
værdi	-10.4922
selskab	-10.4923
▁delfiner	-10.4931
▁forsknings	-10.4932
▁so	-10.4958
▁lidelser	-10.4958
▁hær	-10.4959
▁konflikt	-10.4964
▁boe	-10.4968
område	-10.4978
▁fede	-10.4993
▁barnet	-10.4996
dyr	-10.5014
▁65	-10.5022
▁fiske	-10.5028
if	-10.503
▁træde	-10.5033
lov	-10.5038
▁0	-10.5043
lerne	-10.5046
▁modtager	-10.5049
▁Ti	-10.5056
amp	-10.5062
gram	-10.5063
▁smag	-10.5075
▁elektro	-10.5078
▁Canada	-10.5088
▁Mexico	-10.5088
▁Tyskland	-10.5088
▁Washin	-10.5088
▁fakta	-10.5088
▁indrømme	-10.5088
▁infektion	-10.5088
▁lektie	-10.5088
▁undtagelse	-10.5088
▁knytte	-10.5088
▁droppe	-10.5088
▁indsats	-10.5088
▁klatre	-10.5088
▁billion	-10.5088
▁pollen	-10.5088
▁Svare	-10.5088
▁bekræfte	-10.5088
manden	-10.5089
▁ældst	-10.5089
▁åbenlys	-10.5089
▁mikrober	-10.5089
▁Vesten	-10.5089
▁City	-10.509
▁Under	-10.509
søgning	-10.509
▁fossile	-10.5092
▁27	-10.5093
▁pege	-10.5093
▁besøge	-10.5094
▁nysgerrighed	-10.5096
▁steg	-10.5098
▁sange	-10.51
▁integrere	-10.5101
▁intelligent	-10.5101
▁lim	-10.5102
fil	-10.5104
▁karakterer	-10.5109
▁forudse	-10.5114
skole	-10.5118
▁Fem	-10.5118
▁trin	-10.5122
▁show	-10.5128
▁Par	-10.5132
▁springe	-10.5138
▁økologisk	-10.5143
færd	-10.5145
▁å	-10.5151
lan	-10.5167
▁udsat	-10.5174
smæssig	-10.5182
▁femte	-10.5186
jen	-10.5193
▁lægen	-10.5196
▁forsvar	-10.5199
tallet	-10.52
ikker	-10.5201
▁lighed	-10.5205
folk	-10.5209
▁generere	-10.521
marked	-10.521
▁terrorist	-10.5232
▁overlever	-10.5232
▁nord	-10.5235
▁kunstner	-10.5237
fandt	-10.5245
▁kur	-10.525
▁ordbog	-10.5255
mark	-10.5256
▁vrede	-10.5257
▁fulgte	-10.5258
▁Ah	-10.5258
▁skader	-10.5271
æk	-10.5293
ual	-10.5297
▁dinosaur	-10.53
▁War	-10.5311
▁takke	-10.5312
uden	-10.532
▁pu	-10.5326
sæt	-10.5333
▁gi	-10.5345
▁nyhed	-10.5349
material	-10.5363
▁flad	-10.5367
▁ramme	-10.5373
▁hunde	-10.5377
mulighed	-10.5378
▁abe	-10.5382
▁transport	-10.5383
▁isen	-10.5385
▁forberede	-10.5405
▁eventyr	-10.541
▁klassisk	-10.541
▁opførsel	-10.541
▁marketing	-10.541
▁Frank	-10.5411
øvre	-10.5411
▁bekæmpe	-10.5412
▁klappe	-10.5412
▁pille	-10.5414
▁Læg	-10.5414
▁fornemmelse	-10.5414
liste	-10.5414
▁kvindelig	-10.5414
▁uvidenhed	-10.5415
▁jul	-10.5415
▁nyttig	-10.5416
▁45	-10.5418
▁jagt	-10.5418
▁kopiere	-10.5419
▁reflektere	-10.5422
▁fysiker	-10.5426
▁Gør	-10.5434
▁eksponentiel	-10.5435
▁legetøj	-10.5436
▁foretrække	-10.5443
▁folde	-10.5446
▁konference	-10.5447
arm	-10.5447
▁udtrykke	-10.5451
▁informere	-10.5469
old	-10.5487
▁non	-10.5488
▁bevægelser	-10.549
▁modtage	-10.5493
▁ånde	-10.5499
ramme	-10.551
▁400	-10.5523
▁kons	-10.5527
▁Sidst	-10.5528
▁kemisk	-10.5557
▁frivillig	-10.5561
sider	-10.5568
▁liberal	-10.5569
trækning	-10.5574
▁køn	-10.5575
skrev	-10.5576
pris	-10.5577
▁cellerne	-10.5578
systemer	-10.5578
verdenen	-10.5584
▁funktioner	-10.5587
▁lån	-10.5588
▁begivenhed	-10.5606
anske	-10.5611
▁stat	-10.5614
skrig	-10.5615
▁byerne	-10.5626
▁snyde	-10.5629
▁påvirket	-10.5636
▁stats	-10.5636
▁blomster	-10.5642
▁symbol	-10.5648
▁fløjte	-10.5663
▁rode	-10.5676
▁mors	-10.5689
▁incitamenter	-10.5694
▁krav	-10.5703
▁militær	-10.5707
▁fan	-10.571
▁vant	-10.5713
▁Per	-10.5721
▁jobs	-10.5734
▁frisk	-10.5739
centre	-10.574
▁bedrag	-10.574
bjørn	-10.5742
▁bryst	-10.5744
▁disciplin	-10.5744
▁forstærke	-10.5744
▁opmuntre	-10.5744
▁sofistikere	-10.5744
▁Micha	-10.5744
▁bunke	-10.5744
▁citat	-10.5744
▁Næste	-10.5744
▁motivere	-10.5744
▁1960	-10.5745
▁smertefuld	-10.5745
▁liter	-10.5746
▁99	-10.5746
▁genbrug	-10.5747
▁støj	-10.5747
▁oplevet	-10.5748
▁ansigter	-10.5748
▁bøje	-10.575
▁ler	-10.5751
▁rapport	-10.5754
▁flok	-10.5756
råb	-10.5765
▁nederst	-10.5766
pos	-10.577
▁variere	-10.5771
▁vinter	-10.5771
undet	-10.5771
▁epidemi	-10.5775
ala	-10.578
▁Tro	-10.5792
▁Hav	-10.5797
▁medlemmer	-10.5799
▁sengen	-10.5808
▁kræfter	-10.5811
▁Kvinde	-10.5814
▁synge	-10.5817
▁Ed	-10.5818
▁sæd	-10.5819
▁indtage	-10.5819
▁Ri	-10.5824
videnskab	-10.5829
▁skærmen	-10.5834
▁levetid	-10.5841
▁Wi	-10.5844
ygge	-10.585
▁tænde	-10.5853
▁ty	-10.5864
▁retten	-10.5866
▁matche	-10.5879
▁huset	-10.5884
ald	-10.5888
▁frigive	-10.5891
bygge	-10.5896
▁kurs	-10.59
▁onde	-10.5902
▁uddø	-10.5909
▁gade	-10.591
mindre	-10.5923
energi	-10.5923
stykke	-10.5924
▁spild	-10.5933
▁synlig	-10.5934
▁indbygger	-10.5936
▁bue	-10.5936
▁kategori	-10.5943
▁sult	-10.5956
▁frugt	-10.5968
▁ufor	-10.597
▁universitets	-10.5987
▁bygninger	-10.6006
▁undersøgelser	-10.6007
personer	-10.6013
oni	-10.6018
▁hente	-10.6026
▁Ba	-10.6034
▁psykologisk	-10.6044
▁argument	-10.6066
10	-10.6067
ører	-10.6079
▁installere	-10.6089
▁konkurrere	-10.6089
▁ritual	-10.6089
▁symptomer	-10.6089
▁relatere	-10.6089
▁chef	-10.6089
▁basis	-10.6089
▁omfatte	-10.6089
▁Brown	-10.6089
▁mo	-10.609
▁gravid	-10.609
▁omgivelser	-10.609
▁islam	-10.6091
▁åbenbar	-10.6091
▁blink	-10.6091
▁realitet	-10.6092
▁bedstefar	-10.6092
▁vedligeholde	-10.6092
▁blød	-10.6093
kvart	-10.6093
▁21	-10.6097
▁indtryk	-10.6099
▁pære	-10.61
▁urban	-10.61
▁bytte	-10.6107
▁eje	-10.6108
▁sårbar	-10.611
low	-10.6124
lære	-10.6126
▁kapacitet	-10.6127
▁und	-10.6131
▁krone	-10.6138
▁150	-10.6141
års	-10.6142
ity	-10.6146
▁dinosaurer	-10.6146
gel	-10.6148
▁slide	-10.6152
somhed	-10.6162
▁derind	-10.6163
historie	-10.6175
org	-10.6192
▁stoffer	-10.6194
▁fløj	-10.6194
▁20.	-10.6217
▁tysk	-10.6218
▁jage	-10.6219
atur	-10.622
▁forstyrre	-10.6223
▁interviewe	-10.6224
▁kage	-10.6229
ipp	-10.6231
alen	-10.6247
▁gæt	-10.6273
lem	-10.6278
▁nordlig	-10.6283
sikre	-10.6285
model	-10.6294
▁algoritmer	-10.6314
▁Mars	-10.6317
▁boble	-10.6319
▁vidt	-10.6346
▁søger	-10.6351
▁voldsom	-10.6353
▁konsekvens	-10.6361
stol	-10.6363
tyve	-10.6366
▁konge	-10.6381
▁temperatur	-10.6407
værk	-10.6422
ståe	-10.6423
▁planeter	-10.6424
▁sæl	-10.6433
▁No	-10.644
▁salt	-10.6441
forme	-10.6444
▁ydmyg	-10.6444
▁ulig	-10.6445
▁væsen	-10.6445
eatbox	-10.6446
▁Stanford	-10.6446
▁anonym	-10.6446
▁associere	-10.6446
▁firkant	-10.6446
▁illusion	-10.6446
▁skæbne	-10.6446
▁bestøv	-10.6446
▁efterspørgs	-10.6446
▁guldsmede	-10.6446
▁infrastruktur	-10.6446
▁recept	-10.6446
▁relativ	-10.6446
▁forbedring	-10.6446
▁isolere	-10.6446
▁stadie	-10.6446
▁Sydafrika	-10.6446
▁fjende	-10.6446
▁kæmpestor	-10.6446
▁genskabe	-10.6446
▁skrue	-10.6446
▁1950	-10.6447
▁poly	-10.645
▁Time	-10.6451
▁printer	-10.6451
▁fornuftig	-10.6451
▁frygtelig	-10.6451
▁2009	-10.6451
klods	-10.6452
▁mur	-10.6455
▁flag	-10.6457
skift	-10.6457
▁held	-10.6459
▁klimaforandring	-10.646
▁sep	-10.6466
▁efterfølge	-10.6467
▁spektrum	-10.6467
▁dreve	-10.647
▁højeste	-10.6471
bel	-10.6472
▁medie	-10.6473
▁suge	-10.6477
▁tons	-10.6479
▁interaktiv	-10.6487
▁kedelig	-10.6489
▁Før	-10.6494
dømt	-10.6495
one	-10.6504
▁Cha	-10.6512
▁personlighed	-10.6534
▁teknik	-10.654
▁spredt	-10.6549
uld	-10.6553
▁relevant	-10.6562
stid	-10.6565
▁led	-10.6569
▁smart	-10.6569
▁huden	-10.6581
programmer	-10.6582
▁Pe	-10.6592
▁bid	-10.6593
▁dum	-10.6594
▁forslag	-10.6596
ire	-10.6613
▁fodre	-10.6621
▁slag	-10.6622
▁van	-10.6628
▁delfin	-10.6638
▁bord	-10.6639
▁klokke	-10.6647
skrive	-10.6648
økonomi	-10.6651
mail	-10.6653
▁egenskab	-10.6654
▁genkende	-10.6664
▁affald	-10.6675
▁glemmer	-10.6675
▁mobiltelefoner	-10.6683
film	-10.669
▁fond	-10.6696
æder	-10.6701
sigt	-10.6707
▁rod	-10.6709
lam	-10.6712
▁Star	-10.6722
forsker	-10.6734
▁lidelse	-10.6742
▁She	-10.6745
▁arkitekt	-10.6761
trukke	-10.6762
▁hund	-10.6766
▁stak	-10.6787
▁Mil	-10.6792
▁uafhængig	-10.6795
▁Bur	-10.68
pass	-10.6811
▁brændstof	-10.6815
stråling	-10.6816
▁Babbage	-10.6816
▁Pakistan	-10.6816
▁Prøv	-10.6816
▁besvare	-10.6816
▁mikrofon	-10.6816
▁nervøs	-10.6816
▁oprindelse	-10.6816
▁radikal	-10.6816
▁travl	-10.6816
▁cykel	-10.6816
▁ocean	-10.6816
▁origami	-10.6816
▁overskæg	-10.6816
▁Cambri	-10.6816
▁Frankrig	-10.6816
▁automatisk	-10.6816
▁Martin	-10.6816
▁tilbud	-10.6816
▁opsummere	-10.6817
▁konservativ	-10.6817
▁filmklip	-10.6817
▁front	-10.6818
▁værdsætte	-10.6819
▁filtre	-10.6819
▁frembringe	-10.6819
▁Ox	-10.6823
▁2008	-10.6825
▁Sag	-10.6828
▁oversætte	-10.683
timer	-10.6832
▁udforskning	-10.6837
▁kandidat	-10.6839
▁billederne	-10.6839
▁Mark	-10.684
▁terrorisme	-10.684
▁sydlig	-10.6843
▁sjove	-10.6859
▁23	-10.6861
celler	-10.6862
▁fejle	-10.6864
▁seng	-10.6866
▁udløse	-10.6866
▁Vent	-10.6867
▁planlægge	-10.6873
▁kraftig	-10.6873
▁undervisning	-10.6881
▁deltager	-10.6891
▁Neanderthaler	-10.6907
▁hallucinationer	-10.6916
▁Art	-10.6917
▁Var	-10.6919
laden	-10.6933
lev	-10.6946
▁gifte	-10.6958
lang	-10.6967
ian	-10.6968
▁optagelse	-10.6979
▁joke	-10.6995
▁syg	-10.6995
▁beskrivelse	-10.6997
▁Del	-10.6999
lip	-10.7019
talende	-10.7021
problem	-10.7021
▁Tra	-10.7022
leder	-10.7031
basere	-10.7037
samfund	-10.7045
løsning	-10.7055
▁sky	-10.7062
omo	-10.7062
▁grænse	-10.7068
▁økosystem	-10.707
▁snyder	-10.7072
▁rytme	-10.7079
bord	-10.7079
▁journal	-10.7085
▁vandre	-10.7092
▁handlinger	-10.7097
▁mysterie	-10.71
dder	-10.7102
▁bogstav	-10.7104
▁lukket	-10.7119
kommen	-10.7127
▁videoen	-10.7128
ejer	-10.7148
▁offentliggjor	-10.7156
▁løgne	-10.7161
▁sexarbejder	-10.7168
▁undskyld	-10.7178
båd	-10.7179
avi	-10.7186
▁begrave	-10.7186
udov	-10.7199
▁trans	-10.72
▁Kenya	-10.7201
▁MIT	-10.7201
▁eftermiddag	-10.7201
▁imponere	-10.7201
▁rovdyr	-10.7201
▁sprøjte	-10.7201
▁ultimativ	-10.7201
ristotel	-10.7201
▁ambition	-10.7201
▁sfære	-10.7201
▁Italien	-10.7201
Obama	-10.7201
▁Darwin	-10.7201
▁belønne	-10.7201
▁stjæle	-10.7201
▁finansiere	-10.7201
▁diagnosticere	-10.7201
▁britisk	-10.7201
▁vanskelig	-10.7201
▁livsstil	-10.7201
▁score	-10.7201
▁hotel	-10.7201
▁desperat	-10.7201
▁elektronik	-10.7201
▁korruption	-10.7201
▁lægemidler	-10.7201
▁fraktal	-10.7201
▁teknikker	-10.7202
▁forekomme	-10.7202
▁tvang	-10.7202
▁forsigtig	-10.7202
▁diagram	-10.7203
▁roman	-10.7203
▁søgt	-10.7204
▁begrænsninger	-10.7204
▁tankegang	-10.7205
▁landskabe	-10.7205
center	-10.7206
▁effektivitet	-10.7207
▁maj	-10.7208
▁heldigvis	-10.7209
▁Andre	-10.7211
lineær	-10.7211
▁skylde	-10.7215
▁bud	-10.7222
▁fag	-10.7225
▁sektor	-10.7226
▁dokumentere	-10.7226
▁engelske	-10.7227
▁analogi	-10.7227
fader	-10.7229
▁evolutionær	-10.7236
▁ankomme	-10.7247
▁2.	-10.7254
▁gas	-10.7258
bitte	-10.7268
▁næring	-10.7273
lav	-10.7273
▁Park	-10.7277
riminalitet	-10.7277
▁forventninger	-10.7304
▁Che	-10.7308
▁stål	-10.7318
bund	-10.7325
link	-10.7329
▁reb	-10.7331
bringe	-10.7337
stegn	-10.7354
▁teorier	-10.7356
▁tri	-10.7359
▁slu	-10.7361
▁Dem	-10.737
▁sal	-10.7372
▁Lin	-10.7377
▁forudsigelser	-10.7392
▁600	-10.741
▁opdrage	-10.7413
forskning	-10.7413
somme	-10.742
bog	-10.7431
øvelse	-10.7433
W	-10.7433
▁Los	-10.7434
projekt	-10.7436
2-	-10.7444
▁mil	-10.7455
▁blade	-10.7469
▁Fortæl	-10.7471
▁forandringer	-10.7471
▁effekter	-10.7475
livet	-10.748
▁32	-10.7483
▁fulgt	-10.7499
▁pen	-10.7518
▁unger	-10.7529
▁Si	-10.753
uck	-10.7532
▁græde	-10.7533
▁Bea	-10.7537
træk	-10.7539
own	-10.7559
▁afgøre	-10.756
midler	-10.7561
▁grå	-10.7573
▁øjen	-10.7582
▁knæ	-10.7585
▁Ch	-10.7591
▁pres	-10.7597
ary	-10.7597
▁landsbyer	-10.7599
▁kilo	-10.7601
▁fødsel	-10.7601
▁akademisk	-10.7601
▁iPhone	-10.7601
▁inspiration	-10.7601
▁intuition	-10.7601
▁magasin	-10.7601
▁mammut	-10.7601
▁trussel	-10.7601
▁Gennem	-10.7601
▁spekulere	-10.7601
▁dommer	-10.7601
▁tilfredsstille	-10.7601
silien	-10.7601
▁sammenligning	-10.7601
▁gople	-10.7601
▁væggen	-10.7601
▁tilskynde	-10.7601
▁skinne	-10.7601
▁tjent	-10.7601
derhjemme	-10.7601
▁skuespiller	-10.7601
▁taste	-10.7602
▁1970	-10.7602
▁ubåd	-10.7603
▁omdanne	-10.7604
▁videnskabsfolk	-10.7604
▁klynge	-10.7604
▁muslimsk	-10.7604
▁ligegyldig	-10.7606
▁blomst	-10.7607
▁Coke	-10.7607
▁arrestere	-10.7608
▁vidne	-10.7611
▁levealder	-10.7611
▁nærmere	-10.7611
▁app	-10.7612
▁Pan	-10.7613
▁100.000	-10.7619
seksuelle	-10.7624
▁undskyldning	-10.7624
▁bæredygtighed	-10.7625
▁relationer	-10.7627
MS	-10.7629
▁fremmest	-10.763
▁spids	-10.7632
▁blind	-10.7635
▁dumme	-10.7638
▁fugl	-10.7643
▁anvendelse	-10.7649
▁virkning	-10.7654
konto	-10.7656
▁Charl	-10.7664
krig	-10.7665
▁Oh	-10.7668
▁term	-10.7669
▁øjeblikkelig	-10.7673
▁svage	-10.7675
▁smile	-10.7677
▁selskab	-10.7682
▁skære	-10.7688
▁tå	-10.7693
▁profit	-10.7694
▁kunstnere	-10.7699
▁hospital	-10.7702
shistorie	-10.7723
30	-10.7724
▁forøge	-10.7726
▁fjer	-10.7729
▁laboratorie	-10.7732
bul	-10.7735
▁præst	-10.7745
▁situationer	-10.7752
▁Cal	-10.7754
▁landsbyen	-10.7759
▁geni	-10.7768
▁reklamer	-10.7769
▁fest	-10.7769
▁hjemmet	-10.777
▁mark	-10.7775
skrift	-10.7777
rigere	-10.7777
▁generationer	-10.778
▁netværket	-10.7798
kæde	-10.7799
▁Vel	-10.78
aw	-10.7804
▁Hele	-10.7818
tryk	-10.782
▁streng	-10.7821
▁Pen	-10.7828
▁ekspert	-10.783
▁objektiv	-10.7832
▁måneden	-10.7835
▁princip	-10.7838
afdeling	-10.785
kræft	-10.785
▁ødelagt	-10.7851
ial	-10.7853
▁knogler	-10.7863
former	-10.7868
kul	-10.7888
▁telefonen	-10.7892
▁parker	-10.7896
don	-10.7904
▁trak	-10.7905
drev	-10.793
▁maden	-10.7936
bare	-10.7955
▁manden	-10.7959
ografi	-10.7967
handel	-10.7973
dømme	-10.7974
▁værk	-10.7984
gruppe	-10.7988
▁svin	-10.7996
▁grine	-10.8001
lyd	-10.8007
▁industriel	-10.8014
ressource	-10.8014
source	-10.8016
skilt	-10.8016
fyldt	-10.8016
▁tilfreds	-10.8017
▁Alzheimer	-10.8017
▁Amazon	-10.8017
▁NASA	-10.8017
▁Thomas	-10.8017
▁civil	-10.8017
▁elegant	-10.8017
▁engagement	-10.8017
▁gigantisk	-10.8017
▁overbevist	-10.8017
▁pingvin	-10.8017
▁Ghana	-10.8017
▁Smith	-10.8017
▁kommerciel	-10.8017
▁trådløs	-10.8017
▁mystisk	-10.8017
risici	-10.8017
▁plakat	-10.8017
▁fingre	-10.8018
▁fejre	-10.8018
▁klinisk	-10.8018
▁bane	-10.8018
▁Asien	-10.8018
▁passage	-10.8018
▁anmeldelse	-10.8018
▁Pix	-10.8018
▁forberedt	-10.802
▁skatte	-10.802
▁passiv	-10.8021
▁tæer	-10.8021
▁plet	-10.8022
▁metafor	-10.8023
▁uheld	-10.8024
▁forestilling	-10.8024
▁zoome	-10.8024
▁dusin	-10.8024
▁landmænd	-10.8025
ooh	-10.8027
▁AI	-10.8027
▁lederskab	-10.8028
ærlighed	-10.8033
zz	-10.8035
▁gradvis	-10.804
▁overfald	-10.8044
▁rettigheder	-10.8046
▁eksperimentere	-10.8055
▁base	-10.8056
▁syndrom	-10.8057
▁sukker	-10.8057
▁finger	-10.8062
▁rense	-10.8062
▁skille	-10.8067
▁off	-10.807
▁nægte	-10.8079
▁neurologisk	-10.8084
▁indholdet	-10.8086
▁omfang	-10.8088
▁brød	-10.8097
▁huller	-10.8099
afhængighed	-10.81
▁tanken	-10.8126
bærer	-10.8128
igdom	-10.8136
▁disk	-10.8136
▁blanding	-10.8138
▁Hea	-10.814
▁uheldig	-10.8148
able	-10.8171
▁redskaber	-10.8172
person	-10.8175
▁øst	-10.8177
ida	-10.8203
▁kopi	-10.8204
▁genkender	-10.8228
året	-10.8247
▁ejendom	-10.8274
frem	-10.828
samling	-10.8287
▁storme	-10.8296
▁husk	-10.8297
▁Bro	-10.8298
▁forsvare	-10.8303
▁forfra	-10.8307
grad	-10.8308
station	-10.8318
punkte	-10.8333
ester	-10.8346
▁tung	-10.836
▁fejler	-10.836
▁svag	-10.8372
alisere	-10.8377
▁fulde	-10.8384
▁forholdet	-10.8384
giv	-10.8392
▁omgive	-10.8408
▁stabil	-10.8418
▁snak	-10.8424
▁produktions	-10.8426
▁strømmen	-10.8433
▁tilbøjelig	-10.844
▁nysgerrig	-10.8441
handle	-10.8444
kap	-10.8449
▁cyber	-10.845
▁golf	-10.8452
,000	-10.8452
▁Chicago	-10.8452
▁Elizabeth	-10.8452
▁bioluminescen	-10.8452
▁demonstrere	-10.8452
▁fjernsyn	-10.8452
▁konstruktion	-10.8452
▁opvarmning	-10.8452
▁psykisk	-10.8452
▁skjule	-10.8452
▁særdeles	-10.8452
▁tommelfinger	-10.8452
▁censur	-10.8452
▁reference	-10.8452
▁rektang	-10.8452
▁sædvanlig	-10.8452
▁transformere	-10.8452
▁Tesla	-10.8452
▁biavler	-10.8452
▁scanne	-10.8453
▁brække	-10.8453
▁erindring	-10.8453
lunde	-10.8454
▁sollys	-10.8454
▁intensiv	-10.8454
▁trive	-10.8455
▁sænke	-10.8455
▁aktie	-10.8456
dle	-10.8456
▁strak	-10.8457
▁nedbryde	-10.8457
▁fredag	-10.8459
▁forælde	-10.8459
▁elektroder	-10.846
itu	-10.846
iction	-10.8461
▁Død	-10.8466
ood	-10.8466
▁hæve	-10.8466
▁FN	-10.8467
▁begravelse	-10.8468
▁voldelig	-10.847
▁Enhver	-10.847
▁operere	-10.8471
▁ingeniører	-10.8471
mkring	-10.8474
▁Fin	-10.8478
▁Peter	-10.848
fold	-10.8482
ora	-10.8483
▁oplysninger	-10.8494
rødder	-10.8504
▁dimension	-10.8507
▁incitament	-10.8518
stof	-10.8518
▁støde	-10.8524
▁Første	-10.8526
▁tørre	-10.8536
▁afslutning	-10.8537
▁tryg	-10.854
▁kemikalier	-10.854
▁Ab	-10.8545
▁måltid	-10.8545
▁befinde	-10.8547
▁kameraet	-10.8548
ain	-10.8555
▁chokere	-10.8555
▁tomme	-10.8566
▁overlevelse	-10.8568
▁udstyr	-10.8573
▁mødes	-10.8574
▁letter	-10.8576
▁løst	-10.8578
▁rep	-10.8598
▁sød	-10.8602
▁undervise	-10.8606
▁længde	-10.8608
styring	-10.8624
▁damer	-10.8628
faldet	-10.8631
▁kolde	-10.8653
▁konflikter	-10.8671
▁myte	-10.8672
gørelse	-10.8686
▁tælle	-10.8701
▁dykker	-10.8703
▁nyheds	-10.8706
▁patienterne	-10.8717
▁bror	-10.8721
standen	-10.8735
bryde	-10.8735
▁forudsigelse	-10.8739
bygning	-10.8741
struktur	-10.8741
▁hør	-10.8743
født	-10.8743
mæssig	-10.8747
ved	-10.8752
▁molekyle	-10.8765
za	-10.8768
▁informationer	-10.8769
▁sy	-10.877
hæng	-10.8776
▁nabo	-10.8776
▁spredte	-10.8776
▁Ad	-10.8778
▁forventning	-10.8786
givelse	-10.8791
▁sær	-10.88
sniveau	-10.881
▁tynd	-10.8817
graf	-10.8822
▁institution	-10.8826
▁Mel	-10.8832
▁filosof	-10.8837
stro	-10.8842
▁pin	-10.8844
▁banke	-10.885
▁avis	-10.8854
▁teknologisk	-10.8855
zone	-10.8857
▁hæ	-10.8859
▁ros	-10.8869
▁prik	-10.8871
linje	-10.8878
▁Gra	-10.8891
▁musen	-10.89
▁låne	-10.8905
▁psyko	-10.8907
cratch	-10.8907
▁Koranen	-10.8907
▁Valley	-10.8907
▁anklage	-10.8907
▁bekymring	-10.8907
▁fremstille	-10.8907
▁himmel	-10.8907
▁konkret	-10.8907
▁kuldioxid	-10.8907
▁monsun	-10.8907
▁opsparing	-10.8907
▁prototype	-10.8907
▁skuffe	-10.8907
▁skulder	-10.8907
▁udbredt	-10.8907
▁væsner	-10.8907
▁fostre	-10.8907
▁kriminel	-10.8907
▁officiel	-10.8907
▁privilegi	-10.8907
▁ulovlig	-10.8907
neutral	-10.8907
▁lancere	-10.8907
▁tilbragt	-10.8907
skrivning	-10.8907
▁køkken	-10.8907
▁essens	-10.8907
▁grim	-10.8907
▁venskaber	-10.8907
▁vælte	-10.8907
▁banan	-10.8907
▁forhøje	-10.8907
▁poesi	-10.8907
▁Francisco	-10.8907
▁overordne	-10.8907
▁blokere	-10.8907
▁klasseværelse	-10.8907
▁jobbet	-10.8907
▁rationel	-10.8908
▁Angel	-10.8908
▁Mike	-10.8908
panel	-10.8909
▁stirre	-10.8909
▁forelske	-10.8909
▁skygge	-10.8909
▁Kong	-10.8909
▁isbjerg	-10.8912
▁stop	-10.8912
grupper	-10.8914
▁besøgt	-10.8915
▁undervist	-10.8917
▁laser	-10.8918
▁målbar	-10.893
print	-10.8932
▁stilhed	-10.8934
▁katastrofe	-10.8935
▁Bob	-10.8938
▁mændene	-10.8945
▁erindre	-10.8945
▁politikere	-10.8946
▁heroppe	-10.895
▁supermarked	-10.8951
amen	-10.8955
▁boks	-10.8959
▁Mc	-10.8959
▁rapportere	-10.896
▁oversættelse	-10.8961
▁produktiv	-10.8966
▁bakke	-10.8969
▁ligeglade	-10.8972
▁194	-10.8982
lampe	-10.8986
ino	-10.899
▁Universitet	-10.8995
▁fælde	-10.8999
▁Stu	-10.9006
▁plastik	-10.902
▁Tal	-10.9024
▁programmere	-10.9032
▁farlige	-10.9033
▁naboer	-10.9038
▁klip	-10.9048
knappe	-10.9049
▁tjeneste	-10.9052
hol	-10.9054
▁Wall	-10.9055
▁End	-10.9058
▁køb	-10.9061
▁bjerge	-10.9085
▁hest	-10.9093
▁øve	-10.9104
▁Kar	-10.9115
▁tæller	-10.9117
▁dykke	-10.9117
spejle	-10.912
▁hunner	-10.9121
▁Ford	-10.9125
▁Lyd	-10.9125
▁kolonien	-10.9126
▁mekanismer	-10.9129
arter	-10.913
▁ordene	-10.9143
bold	-10.9146
følelse	-10.9153
▁rar	-10.9159
▁gymnasiet	-10.918
▁fordeling	-10.9192
nternettet	-10.9197
▁retfærdig	-10.9198
præge	-10.9209
længde	-10.9214
indkomst	-10.9218
stjerne	-10.9218
kasse	-10.9226
krise	-10.9228
▁norm	-10.923
▁mekanisme	-10.9232
kilde	-10.9252
▁kvinden	-10.9264
▁planer	-10.9269
folkene	-10.9273
▁dyd	-10.9279
▁parti	-10.9286
zi	-10.9315
▁brud	-10.9319
leje	-10.9328
▁And	-10.933
fod	-10.9333
▁kontroll	-10.9349
teori	-10.9353
▁balance	-10.9354
tegning	-10.9359
opkald	-10.9366
ordamerika	-10.9382
▁klinik	-10.9383
▁bryllup	-10.9383
▁røntgen	-10.9383
blæksprutte	-10.9383
▁Sammenlign	-10.9383
▁asiatisk	-10.9383
▁downloade	-10.9383
▁implementere	-10.9383
▁konklusion	-10.9383
▁overvåge	-10.9383
▁permanent	-10.9383
▁resultere	-10.9383
▁stimulere	-10.9383
▁uundgåelig	-10.9383
▁vanvittig	-10.9383
▁Central	-10.9383
▁administrere	-10.9383
▁prostata	-10.9383
▁uvente	-10.9383
▁motivation	-10.9383
▁yderst	-10.9383
▁søvn	-10.9383
planlægning	-10.9383
▁hofte	-10.9383
▁Robert	-10.9383
▁selvmord	-10.9383
▁Super	-10.9383
▁skelne	-10.9383
▁pistol	-10.9383
▁tidsskrift	-10.9383
▁dramatisk	-10.9383
▁Euro	-10.9384
▁væsentlig	-10.9384
stemning	-10.9384
▁produktivitet	-10.9385
▁nøje	-10.9385
▁race	-10.9385
▁Samme	-10.9385
▁tema	-10.9386
▁1990	-10.9386
▁knus	-10.9386
▁Frem	-10.9387
▁skabelse	-10.9387
▁tilsyne	-10.9387
useum	-10.9388
oma	-10.9388
▁garantere	-10.9389
▁Phil	-10.9389
▁problemstilling	-10.939
▁Fire	-10.939
▁logik	-10.9391
▁fase	-10.9391
▁Dé	-10.9392
▁flertal	-10.9392
▁tavle	-10.9393
▁fac	-10.9397
▁tand	-10.9397
▁Sha	-10.9397
▁mari	-10.94
▁hellige	-10.94
▁publikumme	-10.9407
▁troværdig	-10.9411
▁hob	-10.9419
▁hospitalet	-10.9425
com	-10.9426
▁aftale	-10.9426
▁pla	-10.9427
▁matematiker	-10.9435
▁stamceller	-10.9438
▁udstilling	-10.9445
off	-10.9445
▁centimeter	-10.9445
▁bordet	-10.9449
▁råbe	-10.945
▁træner	-10.9451
▁plotte	-10.946
▁kugle	-10.9463
▁Syd	-10.9466
▁trist	-10.9468
eslog	-10.9472
▁tilladelse	-10.9484
▁manglen	-10.9487
▁klø	-10.9488
▁forene	-10.9493
▁tunge	-10.9494
meter	-10.9498
berg	-10.9504
▁hjemløse	-10.9507
▁staten	-10.9507
effekt	-10.9518
▁indgang	-10.9524
▁afprøve	-10.9526
▁Lov	-10.9534
gruppen	-10.9545
▁økosystemer	-10.9548
▁My	-10.9557
▁sanser	-10.956
▁Ren	-10.957
▁fine	-10.9575
øger	-10.9583
▁band	-10.959
▁Can	-10.9591
▁dybde	-10.9606
▁billed	-10.9606
▁udvidelse	-10.9614
▁algoritme	-10.9618
▁filosofi	-10.9625
▁betydelig	-10.9627
▁påstand	-10.9629
▁søgen	-10.963
▁mangle	-10.9631
▁hurtigst	-10.9635
olo	-10.9635
cy	-10.9636
ledes	-10.9637
▁Inden	-10.9643
▁spejl	-10.9653
▁blinde	-10.9659
▁kold	-10.9662
▁250	-10.9665
▁skalere	-10.9677
▁fotografi	-10.9678
▁spa	-10.968
▁skud	-10.9683
▁Wat	-10.9685
▁plade	-10.9698
▁redskab	-10.9699
ative	-10.9701
▁gavn	-10.9707
bank	-10.9713
sikkerhed	-10.9715
position	-10.9715
politik	-10.9716
▁rumme	-10.9716
J	-10.9716
hjælp	-10.9717
rådighed	-10.9722
▁mycelie	-10.9724
▁dataen	-10.9726
angreb	-10.9728
behandling	-10.9729
fyr	-10.973
når	-10.9732
holder	-10.975
▁sammenhængen	-10.9751
▁bjerg	-10.9754
▁Sir	-10.9758
▁detaljere	-10.976
▁synd	-10.9764
▁beskeder	-10.9768
▁Kvinder	-10.9778
▁dronning	-10.9785
▁smil	-10.9788
orker	-10.98
▁forudsigelig	-10.9821
biolog	-10.984
klædt	-10.9845
▁bla	-10.9849
▁fordelen	-10.9853
▁lunge	-10.9861
vinkel	-10.9862
▁Foundation	-10.9883
▁Jeopardy	-10.9883
▁antidepressiv	-10.9883
▁demonstration	-10.9883
▁fødsle	-10.9883
▁innovativ	-10.9883
▁kalender	-10.9883
▁kalorie	-10.9883
▁lotteri	-10.9883
▁manuskripter	-10.9883
▁nuklear	-10.9883
▁overvægtig	-10.9883
▁restaurant	-10.9883
▁tilpasning	-10.9883
▁tilslutte	-10.9883
▁udviklingslande	-10.9883
▁usandsynlig	-10.9883
▁velgørenhed	-10.9883
▁kropsstørrelse	-10.9883
▁sæson	-10.9883
▁overflod	-10.9883
▁valgmuligheder	-10.9883
▁bistade	-10.9883
▁lækker	-10.9883
▁brems	-10.9883
▁ulykkelig	-10.9883
▁indtægt	-10.9883
▁udseende	-10.9883
▁Arki	-10.9883
ugust	-10.9883
▁røv	-10.9883
▁manipulere	-10.9883
somkostninger	-10.9883
▁valuta	-10.9883
▁lufthavn	-10.9883
▁pumpe	-10.9883
▁himlen	-10.9884
▁Well	-10.9884
▁søster	-10.9884
▁aflevere	-10.9884
▁efterladt	-10.9884
▁195	-10.9885
▁motorvej	-10.9885
▁Brug	-10.9886
▁ordbøger	-10.9886
▁Flor	-10.9886
▁tæppe	-10.9886
aldiv	-10.9887
▁1900	-10.9888
▁fjerdedel	-10.9889
▁skilte	-10.989
▁autis	-10.989
bød	-10.9895
▁halvanden	-10.9901
▁snor	-10.9905
▁neurovidenskab	-10.9914
▁koge	-10.9926
▁fotografere	-10.9927
Cola	-10.9929
▁Mad	-10.9931
▁oprør	-10.9934
▁cykle	-10.9937
▁græsk	-10.9945
▁pop	-10.9946
ytte	-10.9946
▁Hon	-10.9948
▁beskyttelse	-10.9955
PA	-10.9959
▁vesten	-10.9964
LA	-10.9966
▁logisk	-10.9973
▁medlem	-10.9976
▁køle	-10.9979
hall	-10.9984
▁Gu	-10.9993
▁firmaet	-10.9997
▁strømme	-10.9998
▁King	-11.0023
▁agent	-11.0036
▁passionere	-11.004
▁Bell	-11.0041
▁rå	-11.0045
▁selskaber	-11.0055
lth	-11.0064
bogen	-11.0066
▁leje	-11.0074
▁knogle	-11.0077
▁psykologi	-11.0079
tech	-11.0079
▁daglig	-11.0079
▁Lab	-11.0087
▁bygningen	-11.011
▁mege	-11.0111
▁trænings	-11.0126
atar	-11.0148
▁Wa	-11.0167
▁trend	-11.0173
program	-11.0183
▁opskrift	-11.019
▁cha	-11.0203
forstyrrelse	-11.0205
dannelse	-11.0211
▁vest	-11.0212
▁eksperter	-11.0217
achi	-11.0218
obi	-11.0222
▁kop	-11.0229
▁95	-11.0236
U	-11.0241
styrke	-11.0242
rejst	-11.0243
hoved	-11.0243
miljø	-11.0243
papir	-11.0244
▁gymnasie	-11.0244
glen	-11.0246
design	-11.0246
▁latterlig	-11.0255
▁næ	-11.0263
▁Cap	-11.0276
▁chok	-11.0285
▁indisk	-11.0286
▁State	-11.0293
▁lektion	-11.0335
klip	-11.0336
▁SS	-11.0336
kryds	-11.0352
hur	-11.0352
pligt	-11.0354
▁Wal	-11.0355
▁styrken	-11.0357
▁udsende	-11.0357
værker	-11.0374
▁langsom	-11.0378
▁procentdel	-11.0379
py	-11.0388
▁dokument	-11.0391
uf	-11.0393
kirurg	-11.0397
cell	-11.04
visning	-11.0403
▁hård	-11.0407
banis	-11.0408
ænge	-11.0408
▁bøn	-11.0409
▁finans	-11.0409
bureau	-11.0409
▁spredning	-11.0409
▁AIDS	-11.0409
▁Tilbage	-11.0409
▁arkæolog	-11.0409
▁ballon	-11.0409
▁beskidt	-11.0409
▁bonobo	-11.0409
▁eksplodere	-11.0409
▁fjolle	-11.0409
▁frustrere	-11.0409
▁gekko	-11.0409
▁hovedsagelig	-11.0409
▁intuitiv	-11.0409
▁juni	-11.0409
▁maksimere	-11.0409
▁nitrogenmonoxid	-11.0409
▁odds	-11.0409
▁overvælde	-11.0409
▁primitiv	-11.0409
▁skizofren	-11.0409
▁skræmt	-11.0409
▁skrøbelig	-11.0409
▁spiral	-11.0409
▁spontan	-11.0409
▁sundhedsvæsnet	-11.0409
▁tastatur	-11.0409
▁teoretisk	-11.0409
▁ubehagelig	-11.0409
▁ultraviolet	-11.0409
▁uploade	-11.0409
▁Sverige	-11.0409
▁Virgin	-11.0409
▁erhverv	-11.0409
▁fejltagelse	-11.0409
▁polio	-11.0409
▁Boston	-11.0409
▁Videnskab	-11.0409
▁antyde	-11.0409
▁helvede	-11.0409
kjole	-11.0409
▁briller	-11.0409
▁vindmølle	-11.0409
▁brystkræft	-11.041
▁glat	-11.041
▁Atlant	-11.041
▁parallel	-11.041
▁undervands	-11.041
▁høste	-11.041
▁nørd	-11.041
steuropa	-11.041
▁idiot	-11.041
flyvning	-11.041
▁arbejdsplads	-11.041
▁miljømæssig	-11.0411
▁pæn	-11.0411
▁Center	-11.0411
▁kirke	-11.0411
▁1980	-11.0411
▁ironisk	-11.0411
▁blodkar	-11.0411
atrix	-11.0412
▁lodret	-11.0412
▁fedme	-11.0412
▁udfolde	-11.0413
▁Tony	-11.0413
▁offentligheden	-11.0414
▁SMS	-11.0416
▁intim	-11.0417
▁stue	-11.0417
▁såkaldt	-11.0418
spræng	-11.0419
▁36	-11.0421
ack	-11.0423
▁skarp	-11.0423
▁intellektuel	-11.0423
▁forsyne	-11.0424
▁skema	-11.0426
▁mono	-11.0427
bær	-11.043
gård	-11.0431
▁tilladt	-11.0432
▁gren	-11.0437
▁rygg	-11.0439
▁rotte	-11.044
▁ungdom	-11.0444
▁foregik	-11.0445
ikke	-11.045
▁respektere	-11.0452
▁prøv	-11.0455
▁klikke	-11.0456
▁acce	-11.0459
▁mandlig	-11.046
alderen	-11.0461
▁Din	-11.0462
zo	-11.0473
▁kortlægge	-11.0473
▁Hende	-11.0476
▁Ray	-11.0477
▁vane	-11.0491
▁krusedulle	-11.0505
▁heldige	-11.0506
▁bifald	-11.0511
▁Jord	-11.0513
▁stater	-11.0515
▁runde	-11.0523
lappe	-11.0527
rummet	-11.0534
▁Rom	-11.0539
▁videoer	-11.0539
ond	-11.0546
▁offer	-11.0561
▁planten	-11.0563
▁følt	-11.0565
▁Halv	-11.0566
▁programme	-11.0575
OL	-11.0582
▁bredt	-11.0589
ober	-11.0592
▁beregning	-11.0594
ach	-11.0596
▁zone	-11.061
12	-11.0627
▁østlig	-11.0631
figur	-11.0632
▁banker	-11.0636
gifte	-11.0649
gåe	-11.0654
▁situationen	-11.066
princippe	-11.0663
eståe	-11.0683
▁aftenen	-11.0688
slutning	-11.069
vandet	-11.0704
▁frivillige	-11.0707
flade	-11.0716
▁babyer	-11.0729
▁bobler	-11.073
▁fortjene	-11.0739
▁erfaringer	-11.0745
▁interview	-11.0749
▁investeringer	-11.076
▁hospitaler	-11.0776
iz	-11.0796
mission	-11.0797
streng	-11.0797
funktion	-11.0798
revolution	-11.0798
bevægelse	-11.0799
bøger	-11.0799
sygdom	-11.0799
værelse	-11.0799
▁nationer	-11.0801
▁th	-11.0803
▁grundig	-11.0804
produktion	-11.0809
syre	-11.0817
▁historiefortæll	-11.0842
▁Wil	-11.0844
▁plast	-11.0849
▁skyer	-11.085
▁græs	-11.0856
BM	-11.0857
folket	-11.0861
butik	-11.0865
▁neurolog	-11.0877
værdige	-11.0881
unge	-11.0882
▁kapit	-11.0889
▁hæld	-11.0903
▁hyppig	-11.0903
▁my	-11.0905
ung	-11.0907
▁stresse	-11.0939
▁anerkende	-11.0944
▁smid	-11.0952
▁værker	-11.0952
▁nytte	-11.0955
cifre	-11.0957
▁intens	-11.0961
▁målestok	-11.0965
▁web	-11.0965
▁neokort	-11.0965
anzania	-11.0965
prostitution	-11.0965
▁Antarktis	-11.0965
▁Global	-11.0965
▁LED	-11.0965
▁Sahara	-11.0965
▁alkohol	-11.0965
▁anbefale	-11.0965
▁chokolade	-11.0965
▁dristig	-11.0965
▁dynamisk	-11.0965
▁europæisk	-11.0965
▁feedback	-11.0965
▁investorer	-11.0965
▁koncentrere	-11.0965
▁malaria	-11.0965
▁mikroskop	-11.0965
▁millimeter	-11.0965
▁minimum	-11.0965
▁paradigme	-11.0965
▁parkeringsplads	-11.0965
▁italiensk	-11.0965
▁autoritet	-11.0965
▁opstille	-11.0965
▁robust	-11.0965
▁spænding	-11.0965
▁bizar	-11.0965
▁nutidig	-11.0965
▁beslutningstag	-11.0965
▁stillads	-11.0965
▁syntetisk	-11.0965
▁twee	-11.0965
▁beundre	-11.0965
▁kaos	-11.0965
▁systematisk	-11.0965
▁bærbar	-11.0965
▁kloden	-11.0965
▁kirkegård	-11.0965
▁antenne	-11.0965
afgrøde	-11.0965
▁markant	-11.0965
▁etablere	-11.0965
▁anvendt	-11.0965
▁forbud	-11.0965
▁skidt	-11.0965
▁tegneserie	-11.0965
rigade	-11.0965
▁regenerere	-11.0965
▁lokalsamfund	-11.0965
▁solenergi	-11.0966
▁elite	-11.0966
▁postkort	-11.0966
▁stave	-11.0966
▁optræde	-11.0966
▁dame	-11.0966
kreds	-11.0967
▁ydmygelse	-11.0967
▁hensigt	-11.0969
▁Science	-11.0969
▁sygeplejersker	-11.0969
▁Endelig	-11.0969
snød	-11.0969
▁udefra	-11.097
▁Anas	-11.097
▁omvendt	-11.0971
▁usikkerhed	-11.0972
▁tyk	-11.0972
▁lamme	-11.0973
▁robotten	-11.0974
▁26	-11.0974
▁bagerst	-11.0976
▁tegninger	-11.0976
▁opfange	-11.0976
▁Roy	-11.0979
▁33	-11.0979
krampe	-11.0982
atomer	-11.0983
▁real	-11.0989
▁kryptere	-11.0989
▁influenza	-11.0989
▁Rød	-11.099
▁erkendelse	-11.099
▁røg	-11.0991
▁almen	-11.0994
▁out	-11.0994
▁Kunst	-11.0998
▁lovgivning	-11.0999
▁atmosfæren	-11.1003
▁instruktør	-11.1003
▁forsikring	-11.1003
▁påvirkning	-11.1003
▁Rus	-11.1004
mber	-11.1006
▁arbejdsløs	-11.1006
▁vedrøre	-11.101
▁smage	-11.1012
anlæg	-11.1015
▁Far	-11.1018
▁nærme	-11.1019
▁18.	-11.1021
cover	-11.1022
▁tilhører	-11.1023
forsyning	-11.1035
▁penis	-11.1035
▁dødelig	-11.1043
▁medfølelse	-11.1045
▁økonomier	-11.105
▁frygten	-11.1055
▁forbund	-11.1058
▁Sig	-11.1063
▁flue	-11.1064
yon	-11.1079
▁aviser	-11.109
▁proteiner	-11.1095
▁bogstaver	-11.1106
▁tilbringe	-11.1107
▁Ric	-11.1133
▁grafisk	-11.1147
▁kollaps	-11.1165
flow	-11.1168
▁menneskelighed	-11.1172
køn	-11.1172
tider	-11.118
▁forbande	-11.1199
▁hemmeligheder	-11.1201
▁begivenheder	-11.1202
▁Fl	-11.1213
▁chimpanse	-11.1218
▁oversat	-11.1228
▁øl	-11.1245
▁vigtighed	-11.1271
prøve	-11.1278
▁blad	-11.1279
▁advokat	-11.1291
SE	-11.1298
stationer	-11.1313
▁Pu	-11.1313
▁alge	-11.1315
▁Bas	-11.1324
▁afrikanere	-11.1333
▁udlede	-11.1338
▁snarer	-11.1347
▁diskussioner	-11.1358
▁punkter	-11.1364
▁Pla	-11.1365
artikler	-11.1379
næst	-11.138
▁kollapse	-11.138
proces	-11.1383
vurdere	-11.1383
spore	-11.1384
fulgt	-11.1385
studie	-11.1387
jorden	-11.1388
rejse	-11.1388
kultur	-11.1389
uddannelse	-11.139
viden	-11.1391
eldigvis	-11.1395
nummer	-11.1397
masse	-11.1411
▁træning	-11.1411
▁kontinenter	-11.1418
▁opgive	-11.1424
▁butik	-11.1441
mad	-11.1443
ikken	-11.1457
ificere	-11.1458
▁krigen	-11.146
▁gyld	-11.1461
SA	-11.1466
ngeniørvidenskab	-11.1481
genkendelse	-11.1503
13	-11.1504
▁frigøre	-11.1504
▁magnet	-11.152
dommen	-11.1527
▁Cou	-11.153
sekvens	-11.155
▁check	-11.1553
▁nano	-11.1553
▁transaktion	-11.1553
absorbere	-11.1553
kaptajn	-11.1553
▁Higgs	-11.1553
▁Pludselig	-11.1553
▁Præsident	-11.1553
▁Sylvia	-11.1553
▁Undskyld	-11.1553
▁animation	-11.1553
▁berømmelse	-11.1553
▁bittesm	-11.1553
▁diagnose	-11.1553
▁illustrere	-11.1553
▁instrument	-11.1553
▁jævn	-11.1553
▁konstruere	-11.1553
▁lastbil	-11.1553
▁maksimal	-11.1553
▁placering	-11.1553
▁præsentation	-11.1553
▁regulere	-11.1553
▁respons	-11.1553
▁skribent	-11.1553
▁stjål	-11.1553
▁annoncere	-11.1553
▁dronte	-11.1553
▁fliser	-11.1553
▁muskel	-11.1553
▁trylle	-11.1553
▁fragmenter	-11.1553
▁minoritet	-11.1553
▁længst	-11.1553
▁reserve	-11.1553
▁Solly	-11.1553
▁irritere	-11.1553
▁overkomme	-11.1553
▁fastslå	-11.1553
▁hydrogen	-11.1553
▁database	-11.1553
▁sektion	-11.1553
▁pålidelig	-11.1553
▁spændt	-11.1553
▁adskillelse	-11.1553
▁fortæl	-11.1553
▁vibrere	-11.1553
▁vittighed	-11.1553
▁donor	-11.1553
▁ydelse	-11.1553
▁hyre	-11.1553
▁registrere	-11.1553
▁fremgangsmåde	-11.1554
▁gule	-11.1554
▁grise	-11.1554
▁forholdsvis	-11.1554
▁vugge	-11.1554
exa	-11.1554
▁Congo	-11.1555
▁benægte	-11.1555
▁kapitalisme	-11.1555
ugh	-11.1556
▁Evan	-11.1558
▁søndag	-11.1558
▁krist	-11.1559
▁naiv	-11.156
lsesarbejder	-11.1563
brændt	-11.1563
▁justere	-11.1563
▁musikken	-11.1563
▁enkelhed	-11.1564
▁kirurgi	-11.1566
▁Mont	-11.1575
▁rive	-11.1576
▁Joel	-11.1577
▁Pol	-11.1582
▁adresse	-11.1583
▁Seks	-11.1586
▁vers	-11.1587
▁betingelser	-11.159
▁Sko	-11.1601
uba	-11.1608
▁løgn	-11.1615
▁landmand	-11.1615
æmme	-11.1618
▁druk	-11.163
▁konceptet	-11.1633
ugge	-11.1634
▁producent	-11.164
▁begreb	-11.1652
kanal	-11.1655
▁dinosaurerne	-11.1661
▁spirituel	-11.1669
▁udsætte	-11.1683
▁temperaturen	-11.1686
▁Gam	-11.1699
▁modstå	-11.17
▁grav	-11.1702
▁hals	-11.1704
▁kede	-11.1705
▁søde	-11.1725
▁opad	-11.1729
▁nyhederne	-11.1731
▁mission	-11.1734
▁Nel	-11.174
▁helhed	-11.1744
▁virusse	-11.1745
▁Gi	-11.1765
ook	-11.1786
▁Moder	-11.179
▁sulten	-11.1791
▁ødelag	-11.1795
▁poet	-11.1808
chip	-11.1818
jern	-11.1819
▁special	-11.1832
▁profession	-11.1833
▁komik	-11.1833
▁bestand	-11.1837
▁kameraer	-11.1837
▁hval	-11.1842
▁vred	-11.185
▁butikke	-11.185
▁korn	-11.1856
▁Beh	-11.1874
▁grænsen	-11.1876
▁uh	-11.1908
hul	-11.1923
▁Tid	-11.1957
▁filosofisk	-11.1961
hv	-11.1968
▁nøg	-11.198
▁Land	-11.1985
bølge	-11.2011
kontrol	-11.2012
apparat	-11.2012
forældre	-11.2012
organisation	-11.2012
teknik	-11.2013
▁naturvidenskab	-11.2016
navn	-11.202
▁bille	-11.2021
▁dygtig	-11.2028
▁protein	-11.2033
uch	-11.2035
nteressant	-11.2035
▁fo	-11.2045
▁vilkår	-11.2064
▁begrebe	-11.2083
▁omkostning	-11.209
▁tempo	-11.2091
▁smerten	-11.2091
ull	-11.21
▁192	-11.2109
kostning	-11.2135
▁atmosfære	-11.2135
▁accept	-11.2146
▁raket	-11.2156
▁Tri	-11.2156
▁klik	-11.2158
▁modsat	-11.216
brinte	-11.2165
▁uenig	-11.2171
cience	-11.2173
▁straf	-11.2173
▁vol	-11.2177
▁kredit	-11.2178
kollision	-11.2178
procedure	-11.2178
▁Apple	-11.2178
▁Bhutan	-11.2178
▁Edinburg	-11.2178
▁Hawking	-11.2178
▁William	-11.2178
▁World	-11.2178
▁bibliotek	-11.2178
▁intention	-11.2178
▁konfrontere	-11.2178
▁proportion	-11.2178
▁redaktør	-11.2178
▁risikere	-11.2178
▁subjektiv	-11.2178
▁tjekke	-11.2178
▁tuberkulose	-11.2178
▁umiddelbar	-11.2178
▁Projekt	-11.2178
▁Tusind	-11.2178
▁klæbe	-11.2178
▁konkludere	-11.2178
▁overbevisning	-11.2178
▁splitte	-11.2178
▁undertrykke	-11.2178
▁fødevare	-11.2178
▁Scott	-11.2178
▁betydningsfuld	-11.2178
uther	-11.2178
▁trusle	-11.2178
▁honning	-11.2178
▁forfatning	-11.2178
▁sjældne	-11.2178
▁System	-11.2178
▁vitamin	-11.2178
▁grøntsag	-11.2178
▁golfvogn	-11.2178
▁Skal	-11.2178
▁trøst	-11.2178
gummi	-11.2178
▁orang	-11.2178
▁Typ	-11.2178
▁misforstå	-11.2178
▁identisk	-11.2178
▁kreditkort	-11.2178
▁Bestemt	-11.2178
▁genopbygge	-11.2179
▁indikere	-11.2179
NA	-11.2179
▁Islam	-11.2179
▁overvinde	-11.2179
▁spildevand	-11.2179
▁panik	-11.2179
▁komponenter	-11.218
▁motion	-11.218
▁museum	-11.218
▁godkendt	-11.218
▁soldater	-11.2181
▁High	-11.2181
▁larm	-11.2181
▁homoseksuelle	-11.2182
fortolke	-11.2182
▁biologer	-11.2182
▁fabrikker	-11.2183
▁slave	-11.2183
feber	-11.2184
▁kæreste	-11.2184
▁aldre	-11.2184
▁matematikken	-11.2186
▁elektroner	-11.2186
▁ansætte	-11.2188
▁Medica	-11.219
▁forpligtelse	-11.2191
▁sved	-11.2193
▁CC	-11.2194
▁Kort	-11.2195
right	-11.2196
▁fastholde	-11.2198
lock	-11.2198
mill	-11.2202
▁spansk	-11.2203
realistisk	-11.2205
▁hypotese	-11.2206
blok	-11.2207
▁Kig	-11.2214
shor	-11.2216
▁hunnen	-11.2217
▁seksuel	-11.2218
▁kurere	-11.2218
▁udsigt	-11.2219
kton	-11.2219
▁kontrakt	-11.2229
▁giftig	-11.223
▁atleter	-11.223
igh	-11.2231
▁passende	-11.2232
▁193	-11.2232
▁stakke	-11.2241
horn	-11.2245
▁Forsker	-11.2246
TI	-11.2247
▁ris	-11.2248
▁000	-11.2251
▁forøgelse	-11.226
▁budget	-11.226
▁Talk	-11.2261
▁fusion	-11.2262
▁Internet	-11.2263
▁dufte	-11.2263
flu	-11.2266
▁Mod	-11.2266
▁kravle	-11.2266
▁budskabet	-11.2268
forhold	-11.2275
25	-11.2279
▁optog	-11.2284
øl	-11.2286
▁græd	-11.2288
medes	-11.2301
▁dronningen	-11.2303
▁udgifter	-11.2306
▁hacke	-11.2311
fly	-11.2312
▁vogn	-11.2316
▁interaktioner	-11.2325
ica	-11.2327
▁sensorer	-11.2328
hai	-11.235
▁lektioner	-11.2363
lus	-11.2365
▁dans	-11.2377
▁harmoni	-11.2381
▁tilfældighed	-11.2385
▁demokratiet	-11.2388
▁mio	-11.2403
dannelsessystem	-11.2403
▁andel	-11.2413
▁fotograf	-11.2426
▁bidrag	-11.2429
ebru	-11.2436
▁midler	-11.244
▁teksten	-11.2446
▁Egypte	-11.2447
færdiggøre	-11.249
▁Ku	-11.2495
ham	-11.2504
▁anse	-11.2504
▁ryger	-11.2517
▁akse	-11.2541
elektromagnetisk	-11.2547
▁melde	-11.2548
▁kopier	-11.2553
▁døv	-11.2554
▁spørg	-11.2561
▁Sø	-11.2562
figurer	-11.2567
▁sammensat	-11.2573
▁universiteter	-11.2576
spunkt	-11.2581
bro	-11.259
▁statistikke	-11.2605
▁organisme	-11.2612
verden	-11.2615
▁stamme	-11.2632
astro	-11.2638
resultate	-11.2678
signal	-11.2679
markedet	-11.2683
▁student	-11.2684
hjerne	-11.2685
▁interaktion	-11.269
▁opfylde	-11.2703
amerikansk	-11.2722
▁journalister	-11.2723
vold	-11.2728
time	-11.2739
▁afhandling	-11.2741
fire	-11.2742
mester	-11.2756
▁mild	-11.2766
col	-11.2769
▁formå	-11.2778
▁alvor	-11.2779
▁genomer	-11.279
▁Sid	-11.2793
modeller	-11.2804
▁bak	-11.2807
▁myg	-11.2816
løft	-11.2817
way	-11.2819
▁kontra	-11.282
▁bedømme	-11.2823
væv	-11.2826
serie	-11.2843
afrika	-11.2843
▁skar	-11.2844
▁skumfidus	-11.2845
Rabbit	-11.2845
regulering	-11.2845
vågning	-11.2845
▁Etiopien	-11.2845
▁Fibonacci	-11.2845
▁Mellemøsten	-11.2845
▁Parkinson	-11.2845
▁Resultate	-11.2845
▁Samuel	-11.2845
▁Weibo	-11.2845
▁asfalt	-11.2845
▁bukser	-11.2845
▁dæmpe	-11.2845
▁fluktuation	-11.2845
▁forstørre	-11.2845
▁fouragere	-11.2845
▁fremhæve	-11.2845
▁hypotetisk	-11.2845
▁juridisk	-11.2845
▁kolonne	-11.2845
▁livmoderen	-11.2845
▁manuskriptet	-11.2845
▁midlertidig	-11.2845
▁millard	-11.2845
▁omfavne	-11.2845
▁opbevare	-11.2845
▁optimisme	-11.2845
▁overflødig	-11.2845
▁oversvømme	-11.2845
▁placebo	-11.2845
▁praktisere	-11.2845
▁propaganda	-11.2845
▁publicere	-11.2845
▁rekruttere	-11.2845
▁reproducere	-11.2845
▁skilsmisse	-11.2845
▁smartphone	-11.2845
▁sponsor	-11.2845
▁sundhedsvæsen	-11.2845
▁titusind	-11.2845
▁udødelighed	-11.2845
▁uskyldig	-11.2845
▁visualisere	-11.2845
▁Blue	-11.2845
▁energiforbrug	-11.2845
▁gribbe	-11.2845
▁krokodille	-11.2845
▁udslette	-11.2845
▁Steph	-11.2845
▁improvisation	-11.2845
▁mirakel	-11.2845
▁narko	-11.2845
▁skeptisk	-11.2845
▁iagttage	-11.2845
▁honningbier	-11.2845
▁advare	-11.2845
▁dedikere	-11.2845
▁quad	-11.2845
▁videnskabsmænd	-11.2845
▁glu	-11.2845
▁lærred	-11.2845
rydning	-11.2845
▁hævde	-11.2845
roject	-11.2845
▁cement	-11.2845
▁gammeldags	-11.2845
▁entreprenører	-11.2845
▁banebryde	-11.2845
▁udsagn	-11.2845
▁strand	-11.2845
▁videnskabsmand	-11.2845
▁blæk	-11.2845
▁fritid	-11.2845
▁faldskærm	-11.2846
▁vaskemaskine	-11.2846
turbine	-11.2846
▁kulstof	-11.2846
▁brændstoffer	-11.2846
▁statistisk	-11.2846
▁rydde	-11.2846
▁morgenmad	-11.2846
▁svæve	-11.2846
▁dyst	-11.2846
▁blodtryk	-11.2846
dåse	-11.2846
ealand	-11.2847
▁alverden	-11.2847
▁oprette	-11.2847
▁velfærd	-11.2848
▁sekvenser	-11.2848
▁scenarie	-11.2849
▁Glem	-11.2849
▁straffe	-11.285
▁undervurdere	-11.285
▁direktører	-11.2851
▁formue	-11.2851
▁72	-11.2852
▁angå	-11.2852
▁brun	-11.2852
▁nål	-11.2853
undring	-11.2854
▁Gener	-11.2854
▁Newton	-11.2855
▁ivrig	-11.2855
▁målinger	-11.2856
▁hæmme	-11.2858
▁smal	-11.2858
▁ES	-11.2858
▁mangfoldighed	-11.2859
drab	-11.2863
▁beløb	-11.2864
aftryk	-11.2865
strengteori	-11.2867
▁overdrev	-11.2872
▁tænkning	-11.2873
▁lyn	-11.2873
▁West	-11.2874
▁tilstede	-11.2875
ix	-11.2876
▁Nem	-11.2877
▁amerikanerne	-11.2877
▁begær	-11.2878
▁realtid	-11.2885
▁Sex	-11.2886
▁græsse	-11.2893
▁fremgang	-11.2901
▁specialist	-11.2902
▁damp	-11.2907
BC	-11.2917
▁militæret	-11.2919
▁evighed	-11.2922
▁2.0	-11.2927
▁misse	-11.2928
▁overtage	-11.2932
▁Rand	-11.2944
▁indføre	-11.295
▁genomet	-11.2956
ologer	-11.2957
▁patentere	-11.2962
▁rolig	-11.2974
▁3.	-11.2975
tekst	-11.298
▁skyen	-11.2992
▁studenter	-11.3008
▁mentor	-11.3018
▁strække	-11.3029
glas	-11.3031
▁ødelæggelse	-11.3035
▁afvise	-11.304
▁blomstre	-11.3044
▁udnyttelse	-11.3066
▁motorer	-11.3067
▁nove	-11.3069
▁pose	-11.3081
▁psykologer	-11.3113
▁Lib	-11.3114
▁sørgelig	-11.3126
▁ligninger	-11.313
branchen	-11.3134
punk	-11.3145
▁185	-11.3158
▁forskellighed	-11.316
ndlyse	-11.3163
▁moderen	-11.3174
trækker	-11.3178
▁indbygge	-11.3178
▁angive	-11.3234
▁Bag	-11.326
ius	-11.3276
fange	-11.3297
▁strategier	-11.3304
▁gæste	-11.3308
▁element	-11.3331
▁køretøj	-11.3342
▁bombe	-11.3357
▁lovlig	-11.337
oth	-11.337
produkt	-11.3372
skærm	-11.3392
profit	-11.3392
metode	-11.3393
drive	-11.3394
boble	-11.3396
måde	-11.3399
fond	-11.3404
▁Mac	-11.3406
dække	-11.3408
forretning	-11.3416
selv	-11.3419
▁Sch	-11.3431
▁Th	-11.345
frihed	-11.3459
▁Coc	-11.346
▁budgette	-11.3466
type	-11.347
▁opfyld	-11.3471
aktivitet	-11.3481
cykl	-11.3483
▁tavs	-11.3498
win	-11.3506
ænke	-11.3506
▁hin	-11.3546
▁meta	-11.3546
begrænsning	-11.3552
▁gennemsigtig	-11.3554
▁dyk	-11.3555
antastisk	-11.3555
▁Speci	-11.3558
▁fornøjelse	-11.3558
▁entrepren	-11.3559
evaluering	-11.3559
▁forhindringer	-11.3559
▁kulhydrater	-11.3559
▁selvtillid	-11.3559
▁tommelfingre	-11.3559
bevæbne	-11.3559
yndige	-11.3559
▁Beijing	-11.3559
▁Grækenland	-11.3559
▁Institut	-11.3559
▁Microsoft	-11.3559
▁PTSD	-11.3559
▁Vietnam	-11.3559
▁accelerere	-11.3559
▁advarsel	-11.3559
▁aggressiv	-11.3559
▁ambitiøs	-11.3559
▁avatar	-11.3559
▁bestræbelse	-11.3559
▁cymatik	-11.3559
▁distrahere	-11.3559
▁elendig	-11.3559
▁fornærme	-11.3559
▁indvikle	-11.3559
▁input	-11.3559
▁kendsgerning	-11.3559
▁leopard	-11.3559
▁mønt	-11.3559
▁nektar	-11.3559
▁udveksling	-11.3559
▁ærefrygt	-11.3559
▁Holland	-11.3559
▁abstrakt	-11.3559
▁fysiologi	-11.3559
▁hysteri	-11.3559
▁nordøstlig	-11.3559
▁storslåe	-11.3559
▁støv	-11.3559
▁udgangspunkt	-11.3559
▁Black	-11.3559
▁humor	-11.3559
▁oldtiden	-11.3559
▁atomvåben	-11.3559
▁formindske	-11.3559
▁quiz	-11.3559
▁søstre	-11.3559
▁Golf	-11.3559
▁kontant	-11.3559
▁svensk	-11.3559
▁Gates	-11.3559
▁barriere	-11.3559
▁velvære	-11.3559
▁immun	-11.3559
▁skabninger	-11.3559
synkron	-11.3559
▁betaling	-11.3559
▁kritik	-11.3559
▁kronisk	-11.3559
▁pga	-11.3559
▁langsigte	-11.3559
▁indeholdt	-11.3559
▁ulve	-11.3559
▁imperi	-11.3559
▁dvs	-11.3559
▁forbrydelse	-11.3559
▁skød	-11.356
▁forblev	-11.356
▁søjle	-11.356
svigt	-11.356
▁like	-11.356
▁soldrev	-11.356
plikation	-11.356
▁sejle	-11.356
▁observationer	-11.3561
▁Kanzi	-11.3561
▁lægemiddel	-11.3561
▁æra	-11.3561
▁dybhav	-11.3561
▁velkommen	-11.3562
▁chips	-11.3562
▁slange	-11.3562
▁bagved	-11.3563
▁globalisering	-11.3563
▁veninde	-11.3563
▁aktion	-11.3563
▁ordentlig	-11.3564
sprang	-11.3564
▁slette	-11.3564
▁vacciner	-11.3565
▁oplyse	-11.3565
▁regime	-11.3565
ducere	-11.3565
▁indvirkning	-11.3566
iansk	-11.3567
▁Act	-11.3567
▁forbyde	-11.3568
▁Law	-11.3569
▁rotere	-11.3569
▁hils	-11.3569
▁kære	-11.3571
kriminalisering	-11.3571
▁tilsvare	-11.3573
▁stråler	-11.3574
▁Lang	-11.3576
▁Jona	-11.3578
▁stærkest	-11.358
▁delstat	-11.358
▁meddeler	-11.358
▁Pige	-11.3581
▁Ted	-11.3582
▁separat	-11.3582
ilic	-11.3584
▁teleskope	-11.3585
▁Korea	-11.3587
▁opløsning	-11.3587
▁busk	-11.3587
RI	-11.3588
roldmand	-11.359
▁solcelle	-11.3594
▁hyper	-11.3599
amarbejdspartner	-11.3602
▁Bliv	-11.3604
mønstre	-11.3614
bland	-11.3616
▁Sho	-11.3626
▁puls	-11.3627
krani	-11.3634
▁svinge	-11.3639
▁hyppighed	-11.3639
ingeniører	-11.3639
▁adfærdsøkonomi	-11.364
▁lugt	-11.3647
tanke	-11.3659
▁computerspil	-11.3681
▁Matt	-11.369
back	-11.3712
▁bearbejd	-11.3715
alarm	-11.3737
▁sexarbejde	-11.3739
▁svamp	-11.3758
▁55	-11.3766
▁title	-11.3771
▁besværlig	-11.3771
skåre	-11.3794
▁Scho	-11.3803
▁Gui	-11.3847
eorien	-11.386
▁revolutionere	-11.3877
gie	-11.3885
uelle	-11.3888
▁advokater	-11.3888
ingeniør	-11.3901
eads	-11.391
TEDster	-11.393
aksen	-11.395
▁humani	-11.3979
▁neuron	-11.4011
▁match	-11.4016
▁beregninger	-11.4044
▁stoffe	-11.4099
færdig	-11.4099
▁gensidig	-11.4107
UK	-11.4118
blokke	-11.4148
▁kriminal	-11.4157
befinde	-11.416
strategi	-11.416
skaffe	-11.4161
kæmpe	-11.4161
værktøj	-11.4161
borger	-11.4162
svampe	-11.4162
pakke	-11.4162
molekyle	-11.4162
social	-11.4163
vogn	-11.4163
computer	-11.4164
bombe	-11.4175
ambi	-11.4186
▁130	-11.4215
magt	-11.4215
▁maskin	-11.4228
data	-11.4232
▁neuro	-11.4232
▁Ham	-11.4247
drøm	-11.426
▁bagside	-11.4265
rsdag	-11.4276
▁nerve	-11.428
▁myndighed	-11.4295
▁integr	-11.4296
voks	-11.4302
hua	-11.4304
▁Tha	-11.4304
▁tålmodig	-11.4305
▁kval	-11.432
muslim	-11.4326
▁Hoved	-11.4328
nsylvani	-11.4328
usiness	-11.4328
▁America	-11.4328
▁Aurora	-11.4328
▁International	-11.4328
▁Nigeria	-11.4328
▁Stewart	-11.4328
▁Teknologi	-11.4328
▁assistenter	-11.4328
▁brøkdel	-11.4328
▁ferskvand	-11.4328
▁hardware	-11.4328
▁hjertelidelse	-11.4328
▁innovere	-11.4328
▁introduktion	-11.4328
▁klapsalve	-11.4328
▁konvertere	-11.4328
▁middelklasse	-11.4328
▁narkotika	-11.4328
▁navig	-11.4328
▁onkel	-11.4328
▁paradoks	-11.4328
▁parlament	-11.4328
▁prioritet	-11.4328
▁pyramide	-11.4328
▁research	-11.4328
▁slankekur	-11.4328
▁smutte	-11.4328
▁tyngdekraften	-11.4328
▁vertikal	-11.4328
▁weekend	-11.4328
▁forbavse	-11.4328
▁jomfru	-11.4328
▁kakerlak	-11.4328
▁multipotenti	-11.4328
▁rekord	-11.4328
▁autonom	-11.4328
▁gravitationel	-11.4328
▁Spørg	-11.4328
▁husholdning	-11.4328
▁pigge	-11.4328
▁Manhatt	-11.4328
▁referere	-11.4328
▁Idé	-11.4328
▁forlænge	-11.4328
▁stafet	-11.4328
▁Dybe	-11.4328
▁futur	-11.4328
▁metro	-11.4328
▁tyveri	-11.4328
▁attitude	-11.4328
▁Grand	-11.4328
▁Ryst	-11.4328
▁fair	-11.4328
stream	-11.4328
well	-11.4328
▁blank	-11.4329
▁glide	-11.4329
▁Bush	-11.4329
▁Child	-11.4329
▁kniv	-11.4329
▁cafe	-11.4329
▁fartøj	-11.4329
krabbe	-11.4329
▁velkendt	-11.4329
▁donere	-11.4329
▁fodbold	-11.433
▁tape	-11.433
bespare	-11.433
▁skur	-11.433
▁Mario	-11.433
gulv	-11.433
▁hjerneaktivitet	-11.4331
▁dokumentar	-11.4331
▁simulation	-11.4331
▁graviditet	-11.4331
▁værdighed	-11.4331
▁cyberkrimin	-11.4332
▁Politi	-11.4332
▁vagt	-11.4332
▁formodning	-11.4332
ingham	-11.4333
▁Carol	-11.4334
▁sms	-11.4334
▁fundamentalisme	-11.4334
▁gerning	-11.4335
▁Jess	-11.4335
▁rækkefølge	-11.4335
▁47	-11.4336
▁Maria	-11.4336
▁loop	-11.4337
▁baghave	-11.4337
▁ideologi	-11.4337
▁2005	-11.4338
▁løj	-11.4338
▁flygte	-11.4339
▁Slu	-11.4339
▁litt	-11.4339
▁hovedfa	-11.434
▁52	-11.4341
▁fed	-11.4343
burg	-11.4343
▁datapunkt	-11.4344
▁Jack	-11.4344
▁28	-11.4345
▁livstid	-11.4351
ish	-11.4351
▁Mænd	-11.4351
▁beton	-11.4352
▁noder	-11.4353
▁savne	-11.4356
▁cort	-11.4357
▁Walter	-11.4357
propper	-11.4357
▁kontrast	-11.4359
▁eB	-11.436
▁Steven	-11.4361
▁uset	-11.4363
▁hid	-11.4364
▁klage	-11.4366
▁indført	-11.4369
▁cirkler	-11.437
▁navngive	-11.4371
▁plage	-11.4372
▁overskud	-11.4377
▁akt	-11.4379
▁Høj	-11.4387
▁markere	-11.4392
koble	-11.4401
▁medikamenter	-11.441
▁omgå	-11.4411
▁bip	-11.4413
40	-11.442
▁udøve	-11.4424
▁bøde	-11.4434
▁fros	-11.4439
▁frekvens	-11.4439
▁udrydde	-11.445
▁organisk	-11.4465
MRI	-11.4469
▁variab	-11.4471
▁Find	-11.448
▁klarhed	-11.448
tjeneste	-11.4492
Hex	-11.4492
eddi	-11.4493
▁uddele	-11.4506
styrelse	-11.4507
▁pile	-11.4511
virksomheder	-11.4519
itz	-11.4545
▁talenter	-11.458
▁kommentarer	-11.4582
▁Fortælle	-11.4587
▁menneskehand	-11.46
▁perle	-11.461
▁700	-11.4625
ffektiv	-11.4637
▁Santa	-11.4654
▁park	-11.4658
▁turist	-11.4692
▁streger	-11.4707
▁44	-11.4711
lug	-11.4767
▁streg	-11.4767
▁tættest	-11.4803
▁personale	-11.4847
▁elev	-11.4868
▁sports	-11.4872
▁geografi	-11.4881
indgyde	-11.4893
fælde	-11.4895
▁pap	-11.49
▁formidle	-11.4901
▁180	-11.4913
rence	-11.4923
direktør	-11.493
industri	-11.4931
▁skær	-11.4932
▁had	-11.4932
rmere	-11.4934
▁bind	-11.4948
▁debatte	-11.4951
nettet	-11.4983
strøm	-11.4983
ekspert	-11.4993
koloni	-11.4994
firma	-11.4995
point	-11.4995
kilometer	-11.4995
udvikling	-11.4995
undersøgelse	-11.4996
universitet	-11.4996
fælles	-11.4996
kontakt	-11.4996
oplevelse	-11.4996
udvikle	-11.4996
rusedulletegning	-11.501
sendt	-11.5028
kamp	-11.5034
▁Fred	-11.5037
skade	-11.5041
▁protest	-11.5042
orientere	-11.5057
▁tilhør	-11.5077
forretningsmodel	-11.5077
banen	-11.5086
besøg	-11.5129
▁embed	-11.5137
levering	-11.5141
▁polar	-11.5143
▁Inter	-11.5145
▁fossil	-11.5149
modsigelse	-11.5152
▁pas	-11.5155
▁skulptur	-11.5161
▁Ridderfalk	-11.5161
▁Computer	-11.5161
▁symfoni	-11.5161
masseudslettelse	-11.5161
▁Demokrati	-11.5161
▁Edward	-11.5161
▁Entropica	-11.5161
▁Hospital	-11.5161
▁Kennedy	-11.5161
▁Sebastian	-11.5161
▁Styrke	-11.5161
▁astronom	-11.5161
▁dopamin	-11.5161
▁dæmon	-11.5161
▁flotte	-11.5161
▁habitat	-11.5161
▁hollandsk	-11.5161
▁hovedtelefon	-11.5161
▁illegal	-11.5161
▁inficere	-11.5161
▁instruktion	-11.5161
▁kompromis	-11.5161
▁konventionel	-11.5161
▁koordiner	-11.5161
▁marmelade	-11.5161
▁mægtig	-11.5161
▁narrativ	-11.5161
▁opfindsom	-11.5161
▁ophavsrets	-11.5161
▁primat	-11.5161
▁redefinere	-11.5161
▁remix	-11.5161
▁simulere	-11.5161
▁smykke	-11.5161
▁sportsgrene	-11.5161
▁terræn	-11.5161
▁tragedie	-11.5161
▁tragisk	-11.5161
▁uklar	-11.5161
▁understrege	-11.5161
▁uretfærdig	-11.5161
▁Maskin	-11.5161
▁forelæsning	-11.5161
▁forurening	-11.5161
▁gødning	-11.5161
▁hybri	-11.5161
▁iværksætter	-11.5161
▁kommando	-11.5161
▁melodi	-11.5161
▁opretholde	-11.5161
▁oprigtig	-11.5161
▁insistere	-11.5162
▁North	-11.5162
▁citere	-11.5162
▁japansk	-11.5162
▁megawatt	-11.5162
▁skrælle	-11.5162
▁summen	-11.5162
▁narre	-11.5162
▁målrette	-11.5162
▁Bonnet	-11.5162
▁Union	-11.5162
▁stofskifte	-11.5162
▁kvæle	-11.5162
▁flugt	-11.5162
▁implikation	-11.5162
griben	-11.5162
▁dråbe	-11.5162
▁hændelse	-11.5162
▁power	-11.5162
▁Regering	-11.5162
▁kupon	-11.5162
▁rykke	-11.5162
▁mislykke	-11.5162
▁Køb	-11.5162
▁fristelse	-11.5162
▁fornylig	-11.5162
▁Nobel	-11.5162
▁kalksten	-11.5162
▁talentfuld	-11.5162
▁replik	-11.5162
zero	-11.5162
▁kraniet	-11.5162
▁Pointe	-11.5162
▁trang	-11.5162
▁afdød	-11.5162
▁arbejdsstyrke	-11.5162
▁binær	-11.5162
▁forudsætning	-11.5163
▁Dommer	-11.5163
obbel	-11.5163
▁opvokse	-11.5163
▁forurene	-11.5163
▁venteværelse	-11.5164
▁intensitet	-11.5164
▁opløfte	-11.5164
▁højtaler	-11.5164
▁trådt	-11.5164
▁Krig	-11.5164
▁arbejdskraft	-11.5164
▁skrivebord	-11.5165
▁klinikken	-11.5165
▁genoplive	-11.5165
▁lokke	-11.5165
▁realisere	-11.5166
▁kemiker	-11.5166
▁Sæt	-11.5167
▁benzintank	-11.5167
▁Island	-11.5167
▁kløft	-11.5167
sprocess	-11.5168
▁dengue	-11.5168
▁modificere	-11.5168
▁trolde	-11.5169
▁aktiemarkede	-11.5169
▁Vand	-11.5169
march	-11.517
▁Brill	-11.5171
motiv	-11.5171
▁globalisere	-11.5172
▁selvstændig	-11.5172
▁udmærke	-11.5172
▁56	-11.5173
▁Forrest	-11.5173
▁Amel	-11.5174
▁opvarme	-11.5174
▁29	-11.5174
▁latin	-11.5174
▁sorg	-11.5176
attle	-11.5177
▁charme	-11.5178
▁kostbar	-11.5178
▁Oz	-11.518
kål	-11.518
▁gran	-11.5181
▁Air	-11.5182
▁Aldri	-11.5183
▁Gab	-11.5183
▁erkende	-11.5183
▁puste	-11.5184
▁forladt	-11.5188
▁uran	-11.5188
▁forberedelse	-11.5188
▁Tidlig	-11.5191
▁hologra	-11.5191
▁raketter	-11.5193
▁ansvarlighed	-11.5196
▁synsvink	-11.5198
▁tåge	-11.5201
▁opført	-11.5212
▁solid	-11.5212
▁Shi	-11.5214
▁uafhængighed	-11.5216
▁protestere	-11.5221
▁parring	-11.5224
▁7.	-11.5224
▁algerne	-11.5233
▁Fly	-11.5235
fest	-11.5244
▁statisk	-11.5248
▁nedad	-11.5256
▁Sang	-11.5281
gyldig	-11.5284
irke	-11.5301
▁skive	-11.531
▁muliggør	-11.5321
▁utal	-11.5324
videnskabelig	-11.5344
▁udvise	-11.5365
▁Lav	-11.5368
▁succesrig	-11.5372
strig	-11.5408
partikle	-11.541
▁mord	-11.5416
▁pinlig	-11.542
▁myggen	-11.5422
▁økonom	-11.5423
▁formode	-11.5425
▁Dia	-11.544
indlæring	-11.5483
▁geometri	-11.55
▁underlag	-11.5502
▁statslig	-11.5503
▁Ow	-11.5533
utte	-11.5563
▁Indo	-11.5589
god	-11.56
edia	-11.5604
▁enkel	-11.5626
▁psykolog	-11.5631
hvaler	-11.5634
styre	-11.5677
opia	-11.5678
æppe	-11.5683
ukket	-11.5686
▁klub	-11.5694
▁forband	-11.5694
▁find	-11.5727
▁biobrænds	-11.5746
hulle	-11.5757
oldtægt	-11.5799
bered	-11.5802
▁besvær	-11.5804
brød	-11.5805
kommet	-11.5835
kammerater	-11.5849
rian	-11.5849
▁slap	-11.5851
Bit	-11.5859
▁mygge	-11.5859
▁Vind	-11.5867
▁talent	-11.5868
▁intethed	-11.5896
kendt	-11.5902
kvalitet	-11.5902
forsøg	-11.5903
informere	-11.5903
foto	-11.5904
periode	-11.5904
familie	-11.5904
job	-11.5905
mængde	-11.5905
sidst	-11.5906
faktor	-11.5907
udtryk	-11.5908
storm	-11.5948
stemte	-11.5952
venlig	-11.5969
▁tilstrækkelig	-11.5978
korea	-11.5984
▁Britis	-11.6006
▁ophidse	-11.6024
▁gennemskue	-11.6032
▁ræk	-11.6045
brænder	-11.605
▁fornuft	-11.6057
▁fortryde	-11.606
▁Marc	-11.606
▁drille	-11.6066
programmør	-11.6068
view	-11.607
symmetri	-11.6071
▁Alaska	-11.6071
▁Apollo	-11.6071
▁blyant	-11.6071
▁diagnosti	-11.6071
▁knoglemarv	-11.6071
diversitet	-11.6071
eographic	-11.6071
ifikation	-11.6071
orientering	-11.6071
▁Airbnb	-11.6071
▁Netflix	-11.6071
▁Offentlige	-11.6071
▁Singapore	-11.6071
▁South	-11.6071
▁Stock	-11.6071
▁Universet	-11.6071
▁Walmart	-11.6071
▁administration	-11.6071
▁akkurat	-11.6071
▁anstrengelse	-11.6071
▁arrangement	-11.6071
▁astronaut	-11.6071
▁bachelor	-11.6071
▁behagelig	-11.6071
▁blænde	-11.6071
▁diabetes	-11.6071
▁dækselskab	-11.6071
▁finansiering	-11.6071
▁formodentlig	-11.6071
▁forurolige	-11.6071
▁guddommelig	-11.6071
▁gyrus	-11.6071
▁hierarki	-11.6071
▁katastrofal	-11.6071
▁kompliment	-11.6071
▁loyalitet	-11.6071
▁luksus	-11.6071
▁lørdag	-11.6071
▁middelmådig	-11.6071
▁olieudslip	-11.6071
▁omhyggelig	-11.6071
▁pessimistisk	-11.6071
▁regnskov	-11.6071
▁stadion	-11.6071
▁sweater	-11.6071
▁årtusinde	-11.6071
▁Barfods	-11.6071
▁dimittere	-11.6071
▁genopfinde	-11.6071
▁legitim	-11.6071
▁uniform	-11.6071
▁Dylan	-11.6071
▁applikation	-11.6071
▁kradse	-11.6071
olumbia	-11.6071
▁alumin	-11.6071
mobning	-11.6071
▁fødselsdag	-11.6071
▁redning	-11.6071
▁appellere	-11.6071
▁forsinke	-11.6071
▁Sprog	-11.6071
▁bugt	-11.6071
▁dyreriget	-11.6071
▁halstørklæde	-11.6071
▁fryse	-11.6071
▁meningsfuld	-11.6071
▁rumvæs	-11.6071
▁garage	-11.6071
▁selektiv	-11.6071
▁sekulær	-11.6071
▁tumor	-11.6071
▁løv	-11.6071
▁forstille	-11.6071
▁påpege	-11.6071
dosis	-11.6071
▁indvendig	-11.6071
▁problematisk	-11.6071
▁separere	-11.6071
▁generøs	-11.6071
▁grænseflade	-11.6071
▁scanning	-11.6071
▁erklære	-11.6071
▁steril	-11.6071
▁Great	-11.6071
▁Sandhed	-11.6071
ransparens	-11.6071
▁lidenskabelig	-11.6071
▁rygrad	-11.6071
mælk	-11.6071
▁filmskaber	-11.6071
▁Bedste	-11.6071
▁nanoteknologi	-11.6071
▁tilskuer	-11.6071
▁ustabilitet	-11.6071
▁Alice	-11.6071
▁udtænke	-11.6071
▁barbere	-11.6072
▁Delfin	-11.6072
▁Morgan	-11.6072
▁ligevægt	-11.6072
▁regelmæssig	-11.6072
▁søgemaskine	-11.6072
pplaus	-11.6072
▁taske	-11.6072
▁søgeresultat	-11.6072
▁anstændig	-11.6072
▁nabolag	-11.6072
værn	-11.6072
▁ærme	-11.6072
▁klemme	-11.6072
▁udenlandsk	-11.6073
▁2.5	-11.6073
▁ubevidst	-11.6073
▁skylle	-11.6073
▁vrag	-11.6073
Patient	-11.6073
▁stable	-11.6073
▁svindel	-11.6073
▁karakteristisk	-11.6074
▁trekant	-11.6074
▁raketten	-11.6075
▁programmører	-11.6075
▁døtre	-11.6075
▁monstr	-11.6075
▁mobilisere	-11.6075
▁Colle	-11.6076
▁NO	-11.6076
▁romantisk	-11.6076
▁energikilde	-11.6076
▁hakke	-11.6076
▁Bank	-11.6077
▁samfundsmæssig	-11.6077
▁fysikken	-11.6078
▁97	-11.6078
▁tante	-11.6079
▁berøre	-11.608
▁halvvej	-11.608
▁linse	-11.608
▁Føl	-11.6081
▁detektor	-11.6081
▁Jenni	-11.6082
▁kvik	-11.6082
skanning	-11.6082
▁rase	-11.6083
▁bølgerne	-11.6083
▁Olie	-11.6084
▁spole	-11.6084
▁Who	-11.6085
▁pande	-11.6085
▁TEDx	-11.6087
▁Fold	-11.6088
▁velsignelse	-11.6088
▁udveksle	-11.6089
▁konsistente	-11.609
▁uenighed	-11.6091
chu	-11.6091
▁markør	-11.6092
▁estim	-11.6093
▁tilstedeværelse	-11.6095
▁Ræk	-11.6096
▁1500	-11.6097
▁tålmodighed	-11.6098
▁Athen	-11.6098
▁anerkendelse	-11.6105
▁CD	-11.6106
gennemskuelighed	-11.611
▁genial	-11.6112
▁Forstå	-11.6112
▁Hall	-11.6114
▁indgå	-11.612
grammer	-11.6121
sedler	-11.6127
EC	-11.6127
summer	-11.6128
rprise	-11.6128
▁haj	-11.6129
▁modtagelig	-11.6131
▁apr	-11.6132
▁Solo	-11.6134
▁dumpe	-11.6148
IA	-11.6158
▁Map	-11.6162
▁skrige	-11.6169
▁ideel	-11.6178
▁vifte	-11.6186
▁Inv	-11.6188
asien	-11.6195
knude	-11.6198
arkitekter	-11.6207
▁håbløs	-11.6221
drog	-11.6235
▁symbolsk	-11.624
▁Cla	-11.6254
spot	-11.6256
logisk	-11.626
tænder	-11.6262
SR	-11.6274
▁suse	-11.6274
▁dydig	-11.6297
▁læbe	-11.6302
oda	-11.6314
sygeplejerske	-11.6326
▁ekspedition	-11.6326
▁hjernecelle	-11.6374
holdenhed	-11.6391
blo	-11.6398
▁Kend	-11.6399
▁glem	-11.6422
▁Histori	-11.6454
▁Proto	-11.649
▁human	-11.6503
▁modelle	-11.651
lokken	-11.6518
biografi	-11.6535
▁bomb	-11.6574
RS	-11.6597
gypten	-11.6647
fabrik	-11.6668
▁rystelse	-11.6683
slog	-11.6718
▁snyd	-11.6728
NT	-11.6753
▁Virkelig	-11.6762
kins	-11.6763
aven	-11.677
▁85	-11.6828
▁fordomme	-11.6833
▁kemikalie	-11.6865
▁størst	-11.6888
varme	-11.6896
forfatter	-11.69
psykologi	-11.6901
medlemmer	-11.6903
kapital	-11.6903
mekanisme	-11.6903
undervisning	-11.6903
reaktor	-11.6904
medicin	-11.6904
kamera	-11.6904
modtager	-11.6904
patient	-11.6904
forbindelse	-11.6904
hastighed	-11.6904
klasse	-11.6905
størrelse	-11.6905
menneske	-11.6906
overflade	-11.6907
farve	-11.6912
▁ram	-11.6913
wai	-11.6917
▁moderat	-11.6922
fremme	-11.6922
▁skynd	-11.6923
kugle	-11.6938
▁Sug	-11.6959
ivitet	-11.6965
havn	-11.6966
neskerettigheder	-11.697
▁analog	-11.7001
▁relation	-11.7002
starte	-11.7004
▁Sydamerika	-11.7006
stemme	-11.7008
▁Steve	-11.7028
▁blog	-11.7035
▁konsisten	-11.705
▁kommun	-11.7058
▁uviden	-11.7061
▁porno	-11.7065
observation	-11.7068
komponent	-11.7068
▁vædde	-11.707
tørklæde	-11.707
dynamik	-11.7071
stilvækst	-11.7071
volut	-11.7071
▁Michelle	-11.7071
▁bugspytkirt	-11.7071
allestedsnærvære	-11.7071
ambodja	-11.7071
▁Boltzmann	-11.7071
▁EEG	-11.7071
▁Feynman	-11.7071
▁Gandhi	-11.7071
▁Kaluza	-11.7071
▁NBA	-11.7071
▁Præcis	-11.7071
▁Republik	-11.7071
▁Shakespeare	-11.7071
▁WALL	-11.7071
▁allerførst	-11.7071
▁beskadige	-11.7071
▁beslægte	-11.7071
▁brainstorm	-11.7071
▁distribuere	-11.7071
▁drastisk	-11.7071
▁eliminere	-11.7071
▁emotionel	-11.7071
▁hektar	-11.7071
▁improvisere	-11.7071
▁indsprøjtning	-11.7071
▁infrarød	-11.7071
▁ingrediens	-11.7071
▁invadere	-11.7071
▁irrelevant	-11.7071
▁jordskælv	-11.7071
▁kidnappe	-11.7071
▁klassificere	-11.7071
▁kokain	-11.7071
▁kritisere	-11.7071
▁livscyklus	-11.7071
▁meningsmåling	-11.7071
▁næringsstoffer	-11.7071
▁optimal	-11.7071
▁prostituere	-11.7071
▁præference	-11.7071
▁serotonin	-11.7071
▁stigmatisering	-11.7071
▁størrelsesorden	-11.7071
▁sundhedspleje	-11.7071
▁terawatt	-11.7071
▁vurdering	-11.7071
▁væbne	-11.7071
flygtninge	-11.7071
▁Jefferson	-11.7071
▁Journal	-11.7071
▁Rigtig	-11.7071
▁carbon	-11.7071
▁eksportere	-11.7071
▁gennemføre	-11.7071
▁humør	-11.7071
▁partikelfysik	-11.7071
▁ubrugelig	-11.7071
chauffør	-11.7071
læns	-11.7071
truffe	-11.7071
▁1.5	-11.7071
▁dialog	-11.7071
▁enzym	-11.7071
▁grusom	-11.7071
▁partikel	-11.7071
▁smække	-11.7071
canadisk	-11.7071
▁demoralisere	-11.7071
▁jødisk	-11.7071
▁mytologi	-11.7071
reservat	-11.7071
▁berøring	-11.7071
▁materiel	-11.7071
▁medvirke	-11.7071
▁reparere	-11.7071
▁ulempe	-11.7071
▁afghansk	-11.7071
▁cyklus	-11.7071
▁Design	-11.7071
▁knibe	-11.7071
▁tandhjul	-11.7071
▁Saturn	-11.7071
▁Sydney	-11.7071
▁perifer	-11.7071
▁småkage	-11.7071
▁hjernebark	-11.7071
▁klaver	-11.7071
▁Every	-11.7071
føring	-11.7071
krølle	-11.7071
▁Ranger	-11.7071
▁Film	-11.7071
▁æsteti	-11.7071
gennemstrømning	-11.7071
▁alliere	-11.7071
▁væddemål	-11.7071
▁ordinere	-11.7071
▁Woody	-11.7071
▁checkliste	-11.7071
▁pilot	-11.7071
duktion	-11.7071
springshandling	-11.7071
▁udformning	-11.7071
▁trøje	-11.7071
▁livskvalitet	-11.7071
▁folkeskole	-11.7071
▁foster	-11.7071
▁soveværelse	-11.7071
▁Berlin	-11.7071
▁undervejs	-11.7071
▁Liberia	-11.7071
▁jæger	-11.7071
▁Whit	-11.7071
▁frimærke	-11.7071
▁kvadratmeter	-11.7071
▁East	-11.7072
▁krænke	-11.7072
PU	-11.7072
▁gut	-11.7072
▁you	-11.7072
▁mæt	-11.7072
▁omsorg	-11.7072
▁optegnelser	-11.7072
▁diligen	-11.7072
▁slægtninge	-11.7073
▁beboer	-11.7073
▁lægevidenskab	-11.7073
▁overskrifter	-11.7073
▁slugt	-11.7073
▁mursten	-11.7073
▁dagligdag	-11.7073
▁moduler	-11.7073
▁barsel	-11.7073
▁high	-11.7074
▁afslappe	-11.7074
▁alarmere	-11.7074
▁Jim	-11.7074
▁myrde	-11.7074
▁køleskab	-11.7074
▁diskret	-11.7074
▁indånde	-11.7074
▁1989	-11.7074
▁EU	-11.7074
▁rav	-11.7074
soldat	-11.7075
▁befrie	-11.7075
▁blæse	-11.7075
▁tredimensionel	-11.7075
▁gnist	-11.7075
▁genetik	-11.7076
▁tråde	-11.7077
▁tekstil	-11.7077
▁forpligte	-11.7077
▁håbefuld	-11.7077
▁aktivisme	-11.7078
▁gennemsigtighed	-11.7078
▁feje	-11.7078
▁årstider	-11.7078
▁fremvisning	-11.7078
▁96	-11.7078
▁indefra	-11.7079
▁digitalisere	-11.7079
▁vejledning	-11.7079
▁CV	-11.708
rmest	-11.708
▁Juli	-11.7081
▁tredie	-11.7082
▁48	-11.7084
▁Cru	-11.7084
▁Gold	-11.7084
▁smugle	-11.7085
▁støb	-11.7085
▁ælde	-11.7087
▁hive	-11.7092
▁enkle	-11.7092
▁kraftværk	-11.7095
▁industrialiser	-11.7096
scan	-11.7096
▁stifte	-11.7099
▁glo	-11.7101
▁Canc	-11.7103
▁sandelig	-11.7105
NI	-11.7106
▁blogge	-11.7107
sproblemer	-11.7107
▁overføre	-11.7111
▁trænge	-11.7112
▁sir	-11.7113
▁adressere	-11.7118
alyp	-11.7119
▁Cra	-11.712
▁debattere	-11.712
falk	-11.7123
dringen	-11.7124
▁rækkevide	-11.7127
▁lun	-11.7127
▁atomkraftværk	-11.713
▁luftfart	-11.7132
▁balancere	-11.7134
▁underholde	-11.7137
▁klone	-11.7142
stabilisere	-11.7152
▁psykiatrisk	-11.7156
▁transportere	-11.7161
rettigheds	-11.7163
▁renhed	-11.7202
▁præcision	-11.7221
II	-11.7247
▁vilkårlig	-11.7259
▁kno	-11.7263
▁computerprogram	-11.7269
▁Thi	-11.7292
▁levested	-11.7297
▁låse	-11.731
▁hjælpeløs	-11.7311
dygtighed	-11.7314
▁vove	-11.7328
▁Træk	-11.7331
▁Komme	-11.7356
▁solsystem	-11.7367
▁lea	-11.7372
▁kunstnerisk	-11.7406
▁geografisk	-11.7421
▁partisk	-11.7425
HC	-11.7438
▁afrikaner	-11.7464
▁stram	-11.7472
▁42	-11.7495
▁rigelig	-11.7546
kortlagt	-11.7554
▁specialiser	-11.7569
▁værdsat	-11.7576
stændig	-11.7615
operation	-11.7617
træf	-11.7627
▁kys	-11.7678
▁amerikaner	-11.7686
▁Carl	-11.7706
▁branche	-11.7707
forfalsker	-11.7762
▁biograf	-11.7766
▁detalje	-11.7774
▁ordblind	-11.7814
▁175	-11.7881
▁160	-11.7901
gjorde	-11.7907
▁hjemløs	-11.791
kammer	-11.7926
▁slid	-11.7974
lektion	-11.8011
rapport	-11.8012
bevidst	-11.8013
producent	-11.8014
hjem	-11.8014
▁PR	-11.8015
følsom	-11.8015
bakterie	-11.8016
samtale	-11.8016
version	-11.8017
organer	-11.8017
afrikansk	-11.8018
slippe	-11.8055
gelsk	-11.8057
killer	-11.8063
nægte	-11.8076
netværk	-11.809
teleskop	-11.8094
pression	-11.8097
brønd	-11.8118
cast	-11.8135
▁halvande	-11.8141
q	-11.8152
veksle	-11.8159
filantrop	-11.8165
▁refleks	-11.8168
ånd	-11.8171
vaccine	-11.8173
▁kærlig	-11.8175
oka	-11.8175
ollywood	-11.8179
registre	-11.8181
▁Francis	-11.8181
▁lidenskab	-11.8181
mølle	-11.8181
▁mistænk	-11.8181
orporation	-11.8182
▁krystal	-11.8182
▁pseudo	-11.8182
snævr	-11.8182
▁Begynd	-11.8182
▁OECD	-11.8182
▁akavet	-11.8182
▁drivhus	-11.8182
▁europæer	-11.8182
▁patrulje	-11.8182
▁pilespidser	-11.8182
▁vibrationer	-11.8182
Europæisk	-11.8182
forlystelsespark	-11.8182
stordriftsfordel	-11.8182
▁1,3	-11.8182
▁Bahamas	-11.8182
▁Barbara	-11.8182
▁Benjam	-11.8182
▁Ebola	-11.8182
▁House	-11.8182
▁Khmerer	-11.8182
▁Matematik	-11.8182
▁Mission	-11.8182
▁Nevada	-11.8182
▁Pittsburg	-11.8182
▁Professor	-11.8182
▁Samantha	-11.8182
▁Samtidig	-11.8182
▁Virksomheder	-11.8182
▁akkumulere	-11.8182
▁analytisk	-11.8182
▁biokemi	-11.8182
▁brødføde	-11.8182
▁børnebørn	-11.8182
▁cigaret	-11.8182
▁clairvoyan	-11.8182
▁college	-11.8182
▁cowboy	-11.8182
▁destination	-11.8182
▁dilemma	-11.8182
▁eksponering	-11.8182
▁evaluere	-11.8182
▁forvrænge	-11.8182
▁hydrogensulfid	-11.8182
▁imødekomme	-11.8182
▁israelsk	-11.8182
▁knudepunkt	-11.8182
▁konfiguration	-11.8182
▁kosmolog	-11.8182
▁kosmos	-11.8182
▁millisekunder	-11.8182
▁mutation	-11.8182
▁olympisk	-11.8182
▁orgasme	-11.8182
▁population	-11.8182
▁psykiater	-11.8182
▁racistisk	-11.8182
▁rekonstruere	-11.8182
▁rækkevidde	-11.8182
▁slæb	-11.8182
▁snæver	-11.8182
▁udtænkt	-11.8182
▁ufattelig	-11.8182
▁uhyggelig	-11.8182
▁unødvendig	-11.8182
▁vaskulær	-11.8182
▁vietnamesisk	-11.8182
slagtilfælde	-11.8182
▁Alexand	-11.8182
▁Hindu	-11.8182
▁abnorm	-11.8182
▁depoter	-11.8182
▁grammati	-11.8182
▁gulerod	-11.8182
▁kabine	-11.8182
▁minimere	-11.8182
▁modstrid	-11.8182
▁termitter	-11.8182
▁ydre	-11.8182
ntagon	-11.8182
▁bemærkning	-11.8182
▁forsørge	-11.8182
▁koncert	-11.8182
▁sølv	-11.8182
▁Prince	-11.8182
▁Sierra	-11.8182
▁astma	-11.8182
▁opdatere	-11.8182
▁vokal	-11.8182
▁Hjernen	-11.8182
▁abstraktioner	-11.8182
▁anmodning	-11.8182
▁irrationel	-11.8182
▁404-	-11.8182
▁fremtræden	-11.8182
▁lækre	-11.8182
▁klump	-11.8182
▁Jeff	-11.8182
▁kropssprog	-11.8182
▁korporationer	-11.8182
▁tallerken	-11.8182
▁arkiv	-11.8182
▁brutal	-11.8182
▁pokker	-11.8182
▁Luft	-11.8182
praktik	-11.8182
konsulent	-11.8182
▁ekko	-11.8182
▁negle	-11.8182
▁Sydasien	-11.8182
▁tiarme	-11.8182
▁vægtforøgelse	-11.8182
▁slør	-11.8182
▁tolv	-11.8182
▁Norge	-11.8182
betjent	-11.8182
▁serviet	-11.8182
▁ækv	-11.8182
▁heroin	-11.8182
▁tønde	-11.8182
▁firs	-11.8182
▁tredjepart	-11.8182
odspor	-11.8182
▁Cheeto	-11.8182
▁indkøbscent	-11.8182
▁Regler	-11.8182
▁areal	-11.8183
▁Nair	-11.8183
▁gengæld	-11.8183
▁fløjtespiller	-11.8183
▁Moore	-11.8183
manipul	-11.8183
▁graffit	-11.8183
åbning	-11.8183
▁erstatning	-11.8183
▁sparke	-11.8183
▁spøgelse	-11.8183
▁varevogn	-11.8183
▁strid	-11.8183
▁bedstemødre	-11.8183
▁yog	-11.8183
▁busse	-11.8183
▁genkendt	-11.8184
▁Motor	-11.8184
▁Shang	-11.8184
▁fortabt	-11.8184
aeda	-11.8184
overlevelsesrate	-11.8184
▁markedsplads	-11.8184
domstol	-11.8184
ibiri	-11.8184
svække	-11.8184
▁album	-11.8184
▁Dreng	-11.8184
▁flyselskab	-11.8185
▁genialitet	-11.8185
▁kondom	-11.8185
▁flyvemaskine	-11.8185
▁udregne	-11.8185
▁kernekraft	-11.8185
▁loft	-11.8185
▁værdikæde	-11.8185
▁2015	-11.8186
stanker	-11.8186
▁Green	-11.8186
▁Sandy	-11.8186
▁bønner	-11.8187
▁højdepunkt	-11.8187
▁skinke	-11.8187
▁Aust	-11.8187
▁udkant	-11.8187
▁Risen	-11.8187
▁kalk	-11.8188
▁migrant	-11.8188
▁døgn	-11.8188
▁isbjørn	-11.8189
▁ulæk	-11.819
▁angst	-11.819
▁Luk	-11.8191
▁dirigere	-11.8191
▁Jones	-11.8191
irekt	-11.8191
stillen	-11.8192
▁videregive	-11.8192
▁spotte	-11.8192
kvalificere	-11.8192
▁Data	-11.8193
▁Glas	-11.8194
▁aku	-11.8196
▁modsige	-11.8196
▁lysstråle	-11.8196
▁tykke	-11.8196
▁DV	-11.8196
▁forunderlig	-11.8197
▁57	-11.8197
▁trætte	-11.82
▁lur	-11.8202
▁Life	-11.8203
vinkle	-11.8204
▁fingeraftryk	-11.8207
▁stj	-11.8208
▁utopi	-11.8209
▁bedrageri	-11.821
▁Rose	-11.8214
▁Maha	-11.8214
▁sensorisk	-11.8216
▁udspringe	-11.8218
▁overgå	-11.8223
▁Afrikansk	-11.8225
rumteleskop	-11.8228
▁bedømmelse	-11.8228
▁genvi	-11.8235
▁ophidselse	-11.824
▁brønde	-11.8246
▁Amerikaner	-11.8249
emmelig	-11.8251
▁tidevand	-11.8257
prikken	-11.8264
plæser	-11.827
▁Case	-11.8272
▁Naturlig	-11.8272
▁dødelighed	-11.8272
▁tavshed	-11.8279
▁Stop	-11.828
▁deltagelse	-11.828
▁pung	-11.8282
▁Spil	-11.8282
ventiler	-11.8292
▁fundamentalist	-11.8295
▁Britisk	-11.8297
HO	-11.8301
pace	-11.8302
▁forståelig	-11.8308
▁hældning	-11.8314
Planet	-11.8321
▁klargør	-11.8323
▁wh	-11.8323
▁ugift	-11.8324
▁udbredelse	-11.8324
▁inderst	-11.8326
▁Atkin	-11.8329
generator	-11.8329
tænksom	-11.8357
lbert	-11.8362
▁forringe	-11.8363
▁kunstværk	-11.8434
▁legat	-11.8446
iram	-11.8499
▁færdiggjor	-11.8527
▁reje	-11.8539
▁kongelig	-11.8541
▁gæst	-11.8594
▁troppe	-11.8661
▁skæld	-11.8669
▁efterforske	-11.869
▁selvorganiser	-11.8706
▁meld	-11.871
læring	-11.8731
tvivlsom	-11.8743
▁Uddannelse	-11.8752
batte	-11.8812
▁fugtig	-11.8816
▁Patri	-11.8827
DH	-11.8831
▁afgift	-11.8883
agenter	-11.8904
dimensionel	-11.8908
▁geometrisk	-11.8934
▁ged	-11.9019
▁kommentar	-11.9022
▁gentag	-11.9032
lygter	-11.9082
ekspeditioner	-11.9085
krop	-11.9086
▁hallucination	-11.9143
virkning	-11.916
DG	-11.9162
partner	-11.9187
strømmen	-11.9235
løg	-11.9239
▁ligeglad	-11.9246
bjerge	-11.9248
grænser	-11.9257
grænsen	-11.9262
centimeter	-11.9263
fusion	-11.9263
laboratori	-11.9264
beskrivelse	-11.9264
generere	-11.9264
platform	-11.9264
stigning	-11.9264
karakter	-11.9265
analyse	-11.9265
video	-11.9265
matematik	-11.9265
myrer	-11.9267
show	-11.9267
lokale	-11.9267
cirk	-11.9271
▁udbrede	-11.9273
▁Forskell	-11.9276
▁barsk	-11.9285
aftale	-11.9289
fabrikke	-11.9303
hegn	-11.9315
▁Person	-11.9343
sikring	-11.9344
▁lingvist	-11.9351
bestemt	-11.9357
ståelse	-11.9378
▁udvælge	-11.9404
ministeriet	-11.9404
▁just	-11.9412
nosaur	-11.9429
▁drama	-11.943
konomi	-11.943
ssociation	-11.943
▁fødesamler	-11.9432
helikopter	-11.9432
▁amatør	-11.9432
▁brutto	-11.9432
▁farmaceut	-11.9432
▁håndgribelig	-11.9432
▁kæledyr	-11.9432
▁perception	-11.9432
▁sargassum	-11.9432
▁sindssyg	-11.9432
▁skuldre	-11.9432
▁trængselsafgift	-11.9432
▁vaccination	-11.9432
asketball	-11.9432
befolkningsvækst	-11.9432
betændelse	-11.9432
container	-11.9432
spektakulær	-11.9432
våbne	-11.9432
▁Anonymous	-11.9432
▁English	-11.9432
▁Information	-11.9432
▁Kongressen	-11.9432
▁NGO	-11.9432
▁Olympi	-11.9432
▁Osmakac	-11.9432
▁ROV	-11.9432
▁Schweiz	-11.9432
▁TEMPT	-11.9432
▁Thailand	-11.9432
▁Titanic	-11.9432
▁Venedig	-11.9432
▁Verdensbank	-11.9432
▁akademiker	-11.9432
▁alfabet	-11.9432
▁anbefaling	-11.9432
▁anekdote	-11.9432
▁animere	-11.9432
▁antibiotik	-11.9432
▁beherske	-11.9432
▁bomuld	-11.9432
▁diktator	-11.9432
▁distrikt	-11.9432
▁doktrine	-11.9432
▁dragekonge	-11.9432
▁episode	-11.9432
▁forsyningskæde	-11.9432
▁gestus	-11.9432
▁græker	-11.9432
▁hormon	-11.9432
▁hvirvle	-11.9432
▁indhylle	-11.9432
▁initiativ	-11.9432
▁instinktiv	-11.9432
▁karakteristika	-11.9432
▁kollidere	-11.9432
▁koralrev	-11.9432
▁kujon	-11.9432
▁leksikograf	-11.9432
▁mareridt	-11.9432
▁målstreg	-11.9432
▁mødding	-11.9432
▁nanopartikler	-11.9432
▁nigeriansk	-11.9432
▁operatør	-11.9432
▁rengøring	-11.9432
▁rædsel	-11.9432
▁skjorte	-11.9432
▁sociolog	-11.9432
▁socioøkonomisk	-11.9432
▁sopran	-11.9432
▁surrogat	-11.9432
▁sydvestlig	-11.9432
▁udfylde	-11.9432
▁underminere	-11.9432
▁vegetar	-11.9432
▁whistleblower	-11.9432
▁ytringsfrihed	-11.9432
▁ægtefælle	-11.9432
invasiv	-11.9432
▁Admin	-11.9432
▁Brother	-11.9432
▁fingerspidser	-11.9432
▁kosmisk	-11.9432
▁multitask	-11.9432
▁puslespil	-11.9432
▁spøgefuld	-11.9432
▁uforståelig	-11.9432
▁veteran	-11.9432
vridning	-11.9432
▁Ocean	-11.9432
▁indvandrer	-11.9432
▁intakt	-11.9432
▁jura	-11.9432
▁naturgas	-11.9432
▁Geiger	-11.9432
▁revner	-11.9432
▁spørgeskema	-11.9432
▁iPod	-11.9432
▁smadre	-11.9432
▁fremskynde	-11.9432
▁forsvunde	-11.9432
▁kamel	-11.9432
▁provins	-11.9432
▁stejl	-11.9432
▁Kerala	-11.9432
▁trapper	-11.9432
▁mikroalge	-11.9432
▁antikken	-11.9432
▁besættelse	-11.9432
▁Arktis	-11.9432
▁forvalte	-11.9432
▁Kreativ	-11.9432
▁ledetråd	-11.9432
▁latinamerikansk	-11.9432
▁udtøm	-11.9432
▁Tyler	-11.9432
▁fremkomst	-11.9432
▁bestilt	-11.9432
▁cirkulere	-11.9432
▁tvangstanker	-11.9432
▁jernbane	-11.9432
▁neurokirurg	-11.9432
▁udpege	-11.9432
målestoksforhold	-11.9432
▁ophobe	-11.9432
▁romersk	-11.9432
▁Camero	-11.9432
stemple	-11.9432
▁trædemølle	-11.9432
▁fiber	-11.9432
amok	-11.9432
▁horisontal	-11.9432
▁Dronning	-11.9432
▁mortalitet	-11.9432
▁Kevin	-11.9432
▁lyserød	-11.9432
▁fortjent	-11.9432
regnefærdighed	-11.9432
▁Berkel	-11.9432
▁asteroide	-11.9432
▁retssag	-11.9432
▁snige	-11.9432
▁lineal	-11.9433
▁Grønland	-11.9433
▁horisonten	-11.9433
▁elevator	-11.9433
▁skabelon	-11.9433
▁pulsåre	-11.9433
▁undertøj	-11.9433
▁komedie	-11.9433
▁middelalder	-11.9433
▁våd	-11.9433
▁ineffektiv	-11.9433
▁mindske	-11.9433
▁Build	-11.9433
▁watt	-11.9433
▁Læs	-11.9433
▁stinke	-11.9433
▁bonus	-11.9433
▁association	-11.9433
▁stereotyp	-11.9433
▁Russel	-11.9433
▁Simon	-11.9433
▁eksamen	-11.9434
▁fuldkommen	-11.9434
▁mega	-11.9434
eatret	-11.9434
implicit	-11.9434
▁Noah	-11.9434
▁spytte	-11.9434
▁henvendt	-11.9434
▁Luc	-11.9434
▁hjertesygdom	-11.9434
▁nærsamfund	-11.9434
venue	-11.9434
▁udvinde	-11.9435
▁Lærer	-11.9435
▁Rock	-11.9435
▁knække	-11.9435
▁bioteknologi	-11.9435
▁soft	-11.9435
▁robotagtig	-11.9435
▁Latinamerika	-11.9436
▁adfærdsmæssig	-11.9436
▁logo	-11.9436
▁føderal	-11.9436
▁svim	-11.9436
shima	-11.9436
▁nedefra	-11.9436
▁Acu	-11.9436
▁diæt	-11.9437
▁meningsløs	-11.9437
▁modstandsdygtig	-11.9437
▁Roger	-11.9438
▁forebygge	-11.9438
rilleånden	-11.9439
imlen	-11.9439
▁henvende	-11.944
▁fleksibel	-11.9442
▁husstand	-11.9442
▁oplyst	-11.9442
sstraf	-11.9442
▁prale	-11.9442
▁blære	-11.9443
▁komfortabel	-11.9443
AA	-11.9443
▁Virtuel	-11.9443
ommentator	-11.9446
▁refleksion	-11.9447
fej	-11.9447
▁Bolt	-11.9449
Elsker	-11.9451
▁kysse	-11.9451
▁mineral	-11.9451
▁Amerikansk	-11.9452
▁fornemme	-11.9453
▁pligter	-11.9454
stift	-11.9455
▁wow	-11.9455
▁variant	-11.9459
aftrykke	-11.946
▁udvælgelse	-11.946
▁brint	-11.946
▁fjernbetjening	-11.9461
tankeeksperiment	-11.9462
tidsorientere	-11.9469
wand	-11.9471
▁ledninger	-11.9471
▁fuldfør	-11.9473
Tech	-11.9476
▁Lekti	-11.9478
▁Jenn	-11.9482
cula	-11.9483
▁Magi	-11.9485
▁magnetisk	-11.9505
konti	-11.9505
lukke	-11.9508
▁lingvistisk	-11.9514
▁nervesystem	-11.9521
▁afkrydse	-11.9522
▁Personlig	-11.9527
brikker	-11.953
ængsle	-11.9539
▁etnisk	-11.9565
▁ekstern	-11.9577
cels	-11.9586
▁landlig	-11.959
manuel	-11.9594
▁Tab	-11.9605
▁Brand	-11.962
egon	-11.9638
▁udtrække	-11.9693
gennemtrænge	-11.9739
rkeligheden	-11.9749
vejleder	-11.9776
▁nedsat	-11.9787
køretøjer	-11.9835
brændsel	-11.9904
pool	-11.9964
virksomhed	-12.0042
brand	-12.0057
▁uforudsigelig	-12.007
▁Patric	-12.0079
▁Math	-12.0098
varsle	-12.0101
▁grådig	-12.0158
FO	-12.0229
shandling	-12.0306
▁skæl	-12.0345
udholdenhed	-12.0366
▁sensor	-12.0468
▁Sky	-12.0479
▁tremme	-12.048
gentlig	-12.0531
▁vælg	-12.0567
▁økologi	-12.0596
▁plot	-12.0624
udryddelse	-12.063
ktivt	-12.0646
eksperiment	-12.0659
Talk	-12.069
flaske	-12.0691
temperatur	-12.0692
kapacitet	-12.0692
algoritmer	-12.0693
konference	-12.0693
våben	-12.0693
boks	-12.0693
dreng	-12.0694
demokrati	-12.0694
udfordring	-12.0694
risiko	-12.0694
sekunder	-12.0694
professor	-12.0695
robot	-12.0695
politisk	-12.0696
forandre	-12.0711
▁vidunder	-12.0755
klædning	-12.0759
kælder	-12.0771
▁konspiration	-12.0781
▁hyp	-12.0783
▁udslip	-12.081
blindhed	-12.0844
▁institut	-12.0848
▁usikker	-12.085
imulation	-12.0855
lagermus	-12.0857
▁anmeld	-12.0858
▁stereo	-12.0859
▁zoo	-12.0859
▁ustabil	-12.0859
▁metaboli	-12.086
▁fission	-12.086
rekvisit	-12.086
▁cellulose	-12.086
▁fjendtlig	-12.086
▁innovatører	-12.086
▁kromosomer	-12.086
▁kubik	-12.086
▁mikroblogg	-12.086
brydningskultur	-12.086
bureaukratisk	-12.086
epilep	-12.086
onkurrencedygtig	-12.086
▁Bernoulli	-12.086
▁CERN	-12.086
▁Colombia	-12.086
▁Economi	-12.086
▁Faktum	-12.086
▁Innovation	-12.086
▁Leonard	-12.086
▁Miljø	-12.086
▁Mærkelig	-12.086
▁Okinawa	-12.086
▁Social	-12.086
▁Square	-12.086
▁Storbrit	-12.086
▁Størrelse	-12.086
▁Tyrkiet	-12.086
▁Uganda	-12.086
▁Volta	-12.086
▁absurd	-12.086
▁accelerometer	-12.086
▁afsløring	-12.086
▁algoritmisk	-12.086
▁almægtig	-12.086
▁analfabet	-12.086
▁betragtning	-12.086
▁brasiliansk	-12.086
▁bugspytskirt	-12.086
▁chikane	-12.086
▁dominan	-12.086
▁egoistisk	-12.086
▁entusiastisk	-12.086
▁fabelagtig	-12.086
▁fakultet	-12.086
▁festival	-12.086
▁forespørg	-12.086
▁fortolkning	-12.086
▁forudindtage	-12.086
▁frustration	-12.086
▁google	-12.086
▁hemisfære	-12.086
▁hundredetusinde	-12.086
▁importere	-12.086
▁imødegå	-12.086
▁invitation	-12.086
▁katedral	-12.086
▁klassificering	-12.086
▁kontinuerlig	-12.086
▁kontraintuitiv	-12.086
▁krympe	-12.086
▁kvantitativ	-12.086
▁lamslåe	-12.086
▁lommeregner	-12.086
▁margin	-12.086
▁membran	-12.086
▁mexicaner	-12.086
▁mexicansk	-12.086
▁monument	-12.086
▁motorcykel	-12.086
▁neutron	-12.086
▁obligatorisk	-12.086
▁oktaeder	-12.086
▁olivenolie	-12.086
▁ondskabsfuld	-12.086
▁opskalere	-12.086
▁overførsle	-12.086
▁pizza	-12.086
▁posttraumatisk	-12.086
▁premierminister	-12.086
▁promovere	-12.086
▁rekursiv	-12.086
▁repræsentativ	-12.086
▁resisten	-12.086
▁respirator	-12.086
▁skeptiker	-12.086
▁skræddersy	-12.086
▁svovl	-12.086
▁svulst	-12.086
▁territori	-12.086
▁testosteron	-12.086
▁tidsperspektiv	-12.086
▁tindingelapp	-12.086
▁traumatisk	-12.086
▁trillion	-12.086
▁tryllekunstner	-12.086
▁tsunami	-12.086
▁tyggegummi	-12.086
▁ultralyd	-12.086
▁yndefuld	-12.086
faglært	-12.086
▁Dykker	-12.086
▁Normal	-12.086
▁automatisere	-12.086
▁bestille	-12.086
▁bevillige	-12.086
▁diameter	-12.086
▁erobre	-12.086
▁ildebrand	-12.086
▁inflation	-12.086
▁juice	-12.086
▁kilowatt	-12.086
▁koordinat	-12.086
▁lokation	-12.086
▁lottokupon	-12.086
▁minimal	-12.086
▁paraply	-12.086
▁protocelle	-12.086
▁slynge	-12.086
▁udluft	-12.086
▁uholdbar	-12.086
▁verdensomspænde	-12.086
▁Sardin	-12.086
▁Tampa	-12.086
▁Windows	-12.086
▁anerkendt	-12.086
▁beklage	-12.086
▁camping	-12.086
▁hospice	-12.086
▁hovedpine	-12.086
▁kriteri	-12.086
▁licens	-12.086
▁opdagelsesrejse	-12.086
▁patologi	-12.086
▁tiendedel	-12.086
nstagram	-12.086
▁distance	-12.086
▁indenrigs	-12.086
▁mystik	-12.086
▁radiobølger	-12.086
▁sladder	-12.086
▁spekulati	-12.086
▁triumf	-12.086
▁Daniel	-12.086
▁kaskade	-12.086
▁Lanka	-12.086
▁berolige	-12.086
▁jungle	-12.086
▁neural	-12.086
▁orkide	-12.086
▁retningslinje	-12.086
▁råolie	-12.086
▁tvilling	-12.086
▁bestikke	-12.086
▁ejendomsret	-12.086
▁klistre	-12.086
▁kontroversiel	-12.086
▁volumen	-12.086
▁1800-	-12.086
▁vænne	-12.086
▁Aaron	-12.086
▁anordning	-12.086
▁kropsbygning	-12.086
▁Multi	-12.086
▁akustik	-12.086
▁arkitektonisk	-12.086
▁kenyan	-12.086
▁meningsfyldt	-12.086
▁sushi	-12.086
▁cirkulær	-12.086
▁Geoff	-12.086
▁Valg	-12.086
▁anslå	-12.086
▁udmatte	-12.086
▁vejrtrækning	-12.086
campus	-12.086
▁forræderi	-12.086
Sacco	-12.086
▁cybervåben	-12.086
skandal	-12.086
▁kapsle	-12.086
▁porøs	-12.0861
▁modulær	-12.0861
▁spendere	-12.0861
▁børnebog	-12.0861
▁katolsk	-12.0861
▁parodi	-12.0861
▁puffe	-12.0861
▁trofast	-12.0861
▁Meyer	-12.0861
▁gendanne	-12.0861
▁ekspertise	-12.0861
▁vasketøj	-12.0861
▁pasta	-12.0861
▁uvillig	-12.0861
▁klasselokale	-12.0861
▁nomade	-12.0861
▁kommunistisk	-12.0861
▁tidsperiode	-12.0861
▁musikvideo	-12.0861
▁Acc	-12.0861
▁induktion	-12.0861
▁Ofte	-12.0861
▁golfspiller	-12.0861
▁slægt	-12.0861
▁overhale	-12.0861
▁optimere	-12.0861
▁bivirkning	-12.0861
▁supermagt	-12.0862
gevær	-12.0862
▁opgrader	-12.0862
▁episk	-12.0862
▁hydro	-12.0862
bøjning	-12.0862
▁genvild	-12.0862
kortlægning	-12.0863
Henderson	-12.0863
▁væske	-12.0863
▁Denisovaner	-12.0863
▁rasle	-12.0863
▁ledsage	-12.0864
dræn	-12.0864
klyn	-12.0864
▁fru	-12.0864
▁auto	-12.0865
▁altruis	-12.0865
▁arbejdsetik	-12.0865
▁indhente	-12.0865
▁Indian	-12.0866
▁skalerbar	-12.0866
▁kolonisere	-12.0866
▁niche	-12.0867
▁spæd	-12.0867
▁udskifte	-12.087
ndroid	-12.0871
▁Rosali	-12.0872
▁Impo	-12.0872
okrat	-12.0874
udbud	-12.0876
▁blid	-12.0877
▁atletisk	-12.0879
▁speed	-12.0879
ngola	-12.088
▁oplade	-12.0892
▁luftstrømme	-12.0895
spray	-12.0902
▁fremkomme	-12.0905
▁spøg	-12.0907
▁kim	-12.0909
glimt	-12.0926
nstein	-12.0929
▁efterkomme	-12.0933
bænk	-12.0945
▁inddrage	-12.0954
skellige	-12.0955
træthed	-12.0972
▁Turin	-12.0978
▁satellit	-12.1
▁forhandling	-12.1008
kvinde	-12.1014
ængse	-12.1046
▁immateri	-12.1046
Mail	-12.1047
triol	-12.1049
agentur	-12.105
temporal	-12.1072
▁makro	-12.1078
restrikti	-12.1079
▁Træ	-12.1123
▁transplant	-12.1156
kategorier	-12.1205
▁kammerat	-12.123
gensidighed	-12.1298
▁saks	-12.1317
okost	-12.1337
▁begejstr	-12.1405
▁Cooper	-12.1408
vinding	-12.1484
syntese	-12.1498
klubbe	-12.1505
▁utilstrækkelig	-12.1529
▁Woo	-12.162
bedøvelse	-12.1651
▁sav	-12.1895
▁distribut	-12.1977
trængen	-12.2066
▁tiltag	-12.2149
frost	-12.2179
▁udgift	-12.22
spise	-12.2258
jeblik	-12.2306
▁medikament	-12.2344
hundrede	-12.2345
▁flest	-12.2345
adresse	-12.2357
institution	-12.2358
sukker	-12.2358
oplysninger	-12.2358
syndrom	-12.2359
konflikter	-12.2359
udstyr	-12.2359
epidemi	-12.2359
afgørende	-12.236
kampagne	-12.236
dollar	-12.236
situation	-12.236
forskelle	-12.2361
ændringer	-12.2361
mønster	-12.2361
minutter	-12.2362
højde	-12.2362
gæld	-12.2368
regler	-12.2368
præst	-12.2373
løn	-12.2383
æden	-12.241
sbyrd	-12.241
okumenter	-12.2464
▁reflekt	-12.2468
▁mangfoldig	-12.2489
▁velsigne	-12.2494
▁hastig	-12.2496
▁garant	-12.2505
▁skub	-12.2511
▁fleksib	-12.2513
nakken	-12.2513
scenari	-12.2516
▁multipl	-12.2523
▁korrupt	-12.2524
aliforni	-12.2525
horisont	-12.2525
bsolut	-12.2526
ycelie	-12.2526
▁indkøb	-12.2526
gawatt	-12.2527
▁kvantef	-12.2527
▁attributter	-12.2527
▁fortrolighed	-12.2527
▁fuldkorns	-12.2527
▁stumper	-12.2527
▁undergrund	-12.2527
askulinitet	-12.2527
destruktiv	-12.2527
eliksir	-12.2527
erapeut	-12.2527
logaritmisk	-12.2527
palæontolog	-12.2527
rchaeopteryx	-12.2527
rugergrænseflade	-12.2527
synsfelt	-12.2527
udbredelses	-12.2527
▁Algeriet	-12.2527
▁Arbejde	-12.2527
▁Breivik	-12.2527
▁Cambodia	-12.2527
▁Clinton	-12.2527
▁Eksperiment	-12.2527
▁Exxon	-12.2527
▁Filosof	-12.2527
▁Godmorgen	-12.2527
▁Hjælp	-12.2527
▁Horizon	-12.2527
▁Improv	-12.2527
▁Intelligen	-12.2527
▁Kamerae	-12.2527
▁Leviathan	-12.2527
▁McDonald	-12.2527
▁Meggendorfer	-12.2527
▁Mountain	-12.2527
▁Mozart	-12.2527
▁Mængde	-12.2527
▁Optagelse	-12.2527
▁PostSecre	-12.2527
▁Society	-12.2527
▁Sovjetunionen	-12.2527
▁Svampe	-12.2527
▁Undersøgelse	-12.2527
▁Voks	-12.2527
▁ambassadør	-12.2527
▁appelsinjuice	-12.2527
▁auktion	-12.2527
▁bekvemmelighed	-12.2527
▁besynderlig	-12.2527
▁børnedødelighed	-12.2527
▁diplom	-12.2527
▁display	-12.2527
▁drivkraft	-12.2527
▁dæmning	-12.2527
▁elektrochok	-12.2527
▁elektrokemisk	-12.2527
▁embryo	-12.2527
▁encyklopædi	-12.2527
▁fjols	-12.2527
▁fleksibilitet	-12.2527
▁fordomsfri	-12.2527
▁forvirring	-12.2527
▁gadehjørne	-12.2527
▁genoverveje	-12.2527
▁gevaldig	-12.2527
▁gletsjer	-12.2527
▁gorilla	-12.2527
▁græsplæne	-12.2527
▁hotdog	-12.2527
▁håndsoprækning	-12.2527
▁højrefløj	-12.2527
▁infinitesimal	-12.2527
▁invalid	-12.2527
▁jamsession	-12.2527
▁kollektion	-12.2527
▁koloskopi	-12.2527
▁koncentration	-12.2527
▁kongres	-12.2527
▁korrelation	-12.2527
▁kronblade	-12.2527
▁kuffert	-12.2527
▁kænguru	-12.2527
▁laptop	-12.2527
▁legendarisk	-12.2527
▁lesbisk	-12.2527
▁lobby	-12.2527
▁luftbår	-12.2527
▁manifestation	-12.2527
▁megafaun	-12.2527
▁mikroorganisme	-12.2527
▁opbakning	-12.2527
▁overfladisk	-12.2527
▁overnaturlig	-12.2527
▁palliativ	-12.2527
▁patternicit	-12.2527
▁pixel	-12.2527
▁privilegere	-12.2527
▁profeti	-12.2527
▁renæssance	-12.2527
▁repræsentation	-12.2527
▁retsforfølge	-12.2527
▁reverse	-12.2527
▁rodfæste	-12.2527
▁samvittighed	-12.2527
▁skadestuen	-12.2527
▁skraldebil	-12.2527
▁sløjfe	-12.2527
▁solnedgang	-12.2527
▁substitut	-12.2527
▁søgsmål	-12.2527
▁transparent	-12.2527
▁trivsel	-12.2527
▁udklække	-12.2527
▁underernæring	-12.2527
▁unormal	-12.2527
▁utilfreds	-12.2527
▁vagina	-12.2527
▁varroamide	-12.2527
▁visualisering	-12.2527
▁østkyst	-12.2527
grænseoverskride	-12.2527
sklinik	-12.2527
▁Disney	-12.2527
▁Nyota	-12.2527
▁Sikkerhed	-12.2527
▁Utrolig	-12.2527
▁adoptere	-12.2527
▁aircondition	-12.2527
▁ambassade	-12.2527
▁automatisering	-12.2527
▁automobil	-12.2527
▁belysning	-12.2527
▁cubansk	-12.2527
▁fallit	-12.2527
▁kunstharpiks	-12.2527
▁libertarian	-12.2527
▁marathon	-12.2527
▁markedsførings	-12.2527
▁output	-12.2527
▁rastløs	-12.2527
▁rekruttering	-12.2527
▁skæv	-12.2527
møbler	-12.2527
transformation	-12.2527
▁Fried	-12.2527
▁Portug	-12.2527
▁ernæring	-12.2527
▁forplantning	-12.2527
▁mafia	-12.2527
▁opslugt	-12.2527
▁sammenbruddet	-12.2527
▁savanne	-12.2527
▁Leibni	-12.2527
▁aftensmad	-12.2527
▁anatomi	-12.2527
▁kompetent	-12.2527
▁leverandør	-12.2527
▁udstrakt	-12.2527
▁1.4	-12.2527
▁Africa	-12.2527
▁Secur	-12.2527
▁Taiw	-12.2527
▁Vækst	-12.2527
▁distributions	-12.2527
▁medbragt	-12.2527
▁1.2	-12.2527
▁Alpha	-12.2527
▁akustisk	-12.2527
▁badeværelse	-12.2527
▁mulighedsskaber	-12.2527
▁prinsesse	-12.2527
ebrejd	-12.2527
▁landingsbane	-12.2527
▁Kigali	-12.2527
▁nedslåe	-12.2527
▁triviel	-12.2527
▁Album	-12.2527
▁Små	-12.2527
▁forvandling	-12.2527
▁tackle	-12.2527
▁langvarig	-12.2527
▁økse	-12.2527
▁Goose	-12.2527
▁lighter	-12.2527
▁indstille	-12.2527
▁Skam	-12.2527
▁behåre	-12.2527
▁hæderlig	-12.2527
▁pengevask	-12.2527
▁Betyd	-12.2527
▁Sundhed	-12.2527
▁logge	-12.2527
▁rynke	-12.2527
vænning	-12.2527
▁Freud	-12.2527
▁diktere	-12.2527
▁ærinde	-12.2527
▁detailhand	-12.2527
▁tømme	-12.2527
▁Harriet	-12.2527
▁mikrobiel	-12.2527
▁iPad	-12.2527
automat	-12.2527
▁vandpyt	-12.2527
▁segment	-12.2527
▁Lokal	-12.2527
▁metabolisme	-12.2527
ajestæt	-12.2527
▁doser	-12.2527
▁stryg	-12.2527
▁skanne	-12.2527
▁tilstoppe	-12.2527
▁kikkert	-12.2527
biopsi	-12.2528
▁Græke	-12.2528
ILM	-12.2528
▁prins	-12.2528
▁forankre	-12.2528
▁betinge	-12.2528
▁sergent	-12.2528
urfing	-12.2528
▁koreansk	-12.2528
kodning	-12.2528
▁Depp	-12.2528
▁Klar	-12.2528
▁Regul	-12.2529
▁kommentere	-12.2529
▁indflydelsesrig	-12.2529
▁vride	-12.2529
▁Emma	-12.2529
▁Smerte	-12.2529
▁følelsesløs	-12.253
▁paradi	-12.253
▁Blanc	-12.253
▁ytre	-12.253
▁Eddie	-12.2531
▁regere	-12.2531
▁regnbue	-12.2532
▁ruiner	-12.2532
▁hindring	-12.2533
▁Fortællinge	-12.2534
Robot	-12.2534
▁Plante	-12.2536
▁maskinalder	-12.2537
▁Hyper	-12.2538
▁sank	-12.254
etikette	-12.2541
▁heroisk	-12.2542
troperne	-12.2543
nationalprodukt	-12.2544
ommunismen	-12.2548
▁feminist	-12.2549
pirater	-12.2551
decifrere	-12.2551
halskæde	-12.2552
▁fredelig	-12.2555
▁filantropi	-12.2555
▁klæde	-12.2558
komfur	-12.2559
▁banal	-12.2562
traktion	-12.2564
▁egeninteresse	-12.2573
ettighederne	-12.258
beregningsmæssig	-12.2586
ovedårsage	-12.259
vogte	-12.26
▁generaliser	-12.2613
▁maskinlær	-12.2614
iopisk	-12.2683
▁tromme	-12.2692
▁plurali	-12.2726
▁certifi	-12.2733
▁afbild	-12.28
ague	-12.2863
ectu	-12.2944
bestemmelse	-12.2946
▁fremføre	-12.2972
handlinger	-12.2973
▁mysteri	-12.3008
avler	-12.3094
▁myceli	-12.3112
apua	-12.3131
▁forfalske	-12.321
▁foretruk	-12.326
affel	-12.3303
dragelse	-12.3327
▁beskyld	-12.3351
Kahn	-12.3375
fugtighed	-12.3462
lønned	-12.3531
▁Histor	-12.3688
▁relevan	-12.3845
▁gymnasi	-12.3945
▁reaktiv	-12.4021
frekvense	-12.4226
avnen	-12.4314
kontrakt	-12.4357
mødre	-12.4358
spids	-12.4359
legetøj	-12.4359
hjul	-12.436
eksponentiel	-12.436
konkurrence	-12.436
definition	-12.436
tredjedel	-12.436
opfattelse	-12.4361
halvdel	-12.4361
nævnt	-12.4361
tydelig	-12.4364
nstruktør	-12.438
▁samarbejds	-12.4399
klaring	-12.444
▁Organi	-12.4479
▁tilstedevære	-12.4484
▁fugt	-12.4493
▁standardiser	-12.4494
▁arrest	-12.4495
smugl	-12.4497
edligeholdelses	-12.4504
▁komfortab	-12.4509
▁medføle	-12.4513
▁homoseksuel	-12.4514
fjerd	-12.4521
▁patriarka	-12.4522
plicit	-12.4523
onservativ	-12.4524
lektricitet	-12.4524
erfekt	-12.4525
▁Grøn	-12.4525
aluta	-12.4526
ældning	-12.4526
▁funk	-12.4526
optegnelse	-12.4526
handicap	-12.4527
▁temper	-12.4527
▁Church	-12.4527
▁Tydelig	-12.4527
▁neanderthaler	-12.4527
▁traffick	-12.4527
▁udskamning	-12.4527
fluoresce	-12.4527
hampagne	-12.4527
opsparingsadfærd	-12.4527
▁Jacque	-12.4527
▁Kurzweil	-12.4527
▁Psykologer	-12.4527
▁blindsmagning	-12.4527
▁drivhusgasser	-12.4527
▁kalibrer	-12.4527
▁kvarker	-12.4527
▁lexigram	-12.4527
▁petroleum	-12.4527
▁selvtilfreds	-12.4527
▁sympati	-12.4527
▁ventilations	-12.4527
Shabaab	-12.4527
dissonans	-12.4527
ensionsopsparing	-12.4527
hvidvaskning	-12.4527
konfrontation	-12.4527
medlidenhed	-12.4527
nationalregnskab	-12.4527
ndtægtsulighed	-12.4527
opblomstring	-12.4527
pacemaker	-12.4527
portefølje	-12.4527
priviligere	-12.4527
sbreve	-12.4527
uperhydrofobi	-12.4527
▁1860	-12.4527
▁Abraham	-12.4527
▁Bannister	-12.4527
▁Beijerinck	-12.4527
▁Bonobo	-12.4527
▁Buddha	-12.4527
▁Bølgeboble	-12.4527
▁Elektro	-12.4527
▁Explor	-12.4527
▁Giussan	-12.4527
▁Howard	-12.4527
▁Mælkevej	-12.4527
▁NATO	-12.4527
▁SIM	-12.4527
▁Service	-12.4527
▁Skrift	-12.4527
▁Snowden	-12.4527
▁Tokyo	-12.4527
▁Tweet	-12.4527
▁Whewell	-12.4527
▁Wisconsin	-12.4527
▁administrativ	-12.4527
▁agnosti	-12.4527
▁akvatisk	-12.4527
▁arvemasse	-12.4527
▁bjælke	-12.4527
▁bronze	-12.4527
▁canadier	-12.4527
▁cymatisk	-12.4527
▁dechifrere	-12.4527
▁dybsindig	-12.4527
▁dækning	-12.4527
▁eksemplar	-12.4527
▁frembragt	-12.4527
▁fuskefaktor	-12.4527
▁færdselsbetjent	-12.4527
▁glamour	-12.4527
▁håndhæve	-12.4527
▁immigrant	-12.4527
▁inkorporere	-12.4527
▁invasion	-12.4527
▁israeler	-12.4527
▁japaner	-12.4527
▁kalcium	-12.4527
▁kardiovaskulær	-12.4527
▁kartoffel	-12.4527
▁kartofle	-12.4527
▁katalysator	-12.4527
▁klassiker	-12.4527
▁knytnæve	-12.4527
▁kolonialisme	-12.4527
▁kolossal	-12.4527
▁komponist	-12.4527
▁korrekturlæsere	-12.4527
▁krybdyr	-12.4527
▁lejrbål	-12.4527
▁lucifer	-12.4527
▁metafysisk	-12.4527
▁milepæl	-12.4527
▁moské	-12.4527
▁multinational	-12.4527
▁narcissis	-12.4527
▁næststørst	-12.4527
▁operationsstue	-12.4527
▁opfølgning	-12.4527
▁overdådig	-12.4527
▁pergament	-12.4527
▁pomfrit	-12.4527
▁pragtfuld	-12.4527
▁premiere	-12.4527
▁provokere	-12.4527
▁radioaktiv	-12.4527
▁recession	-12.4527
▁resonans	-12.4527
▁ribben	-12.4527
▁rædselsslagen	-12.4527
▁ræsonner	-12.4527
▁sammensværgelse	-12.4527
▁samtykke	-12.4527
▁silikone	-12.4527
▁simplificere	-12.4527
▁simulering	-12.4527
▁skolebørn	-12.4527
▁snobbe	-12.4527
▁socialrådgiver	-12.4527
▁synekdoktisk	-12.4527
▁synonym	-12.4527
▁syntetisere	-12.4527
▁termostat	-12.4527
▁tilflugtssted	-12.4527
▁tilknytte	-12.4527
▁tvillingetinder	-12.4527
▁ubarmhjertig	-12.4527
▁ukrudt	-12.4527
▁utænkelig	-12.4527
▁vegetation	-12.4527
▁voicemail	-12.4527
▁vrøvl	-12.4527
accelerator	-12.4527
diamanter	-12.4527
drejning	-12.4527
iomimic	-12.4527
losseplads	-12.4527
ustralopithec	-12.4527
▁Education	-12.4527
▁Evigt	-12.4527
▁Fattigdom	-12.4527
▁Fugle	-12.4527
▁Hammett	-12.4527
▁Højesteret	-12.4527
▁Kuwait	-12.4527
▁Technolog	-12.4527
▁Traditionel	-12.4527
▁Vermeer	-12.4527
▁Victoria	-12.4527
▁adrenalin	-12.4527
▁autoimmun	-12.4527
▁beboelig	-12.4527
▁eventuel	-12.4527
▁hallucinere	-12.4527
▁indsprøjte	-12.4527
▁kendskab	-12.4527
▁kompensere	-12.4527
▁komponere	-12.4527
▁korrelere	-12.4527
▁masseproducere	-12.4527
▁mikrobiologisk	-12.4527
▁myldretid	-12.4527
▁omdefinere	-12.4527
▁overtrædelse	-12.4527
▁prosodi	-12.4527
▁rationalitet	-12.4527
▁revidere	-12.4527
▁savanna	-12.4527
▁symbio	-12.4527
▁synshæmme	-12.4527
▁testamente	-12.4527
▁ukomfortab	-12.4527
▁utilsigte	-12.4527
▁verdensrekord	-12.4527
▁æbletærte	-12.4527
▁ældgammel	-12.4527
balsam	-12.4527
▁Chagall	-12.4527
▁Hundrede	-12.4527
▁Løsning	-12.4527
▁Medlemmer	-12.4527
▁Religion	-12.4527
▁cirkulation	-12.4527
▁fortvivle	-12.4527
▁rumklang	-12.4527
▁telegraf	-12.4527
▁1.6	-12.4527
▁Vinci	-12.4527
▁indikator	-12.4527
▁nordvest	-12.4527
▁opdigte	-12.4527
▁skråning	-12.4527
▁undergrave	-12.4527
syningsselskab	-12.4527
▁1.3	-12.4527
▁Drugs	-12.4527
▁apati	-12.4527
▁botanisk	-12.4527
▁forsegle	-12.4527
▁gardin	-12.4527
▁korttids	-12.4527
▁1.8	-12.4527
▁Branson	-12.4527
▁Winni	-12.4527
▁dvd	-12.4527
▁koncern	-12.4527
▁skikkelse	-12.4527
▁umoral	-12.4527
berettige	-12.4527
▁Dyret	-12.4527
▁Panama	-12.4527
▁forekomst	-12.4527
▁oktav	-12.4527
▁rygsæk	-12.4527
▁skovhug	-12.4527
▁foredragsholder	-12.4527
▁fortrins	-12.4527
▁multiplicer	-12.4527
▁opsamle	-12.4527
▁snurre	-12.4527
▁Robin	-12.4527
▁Smuk	-12.4527
ahoo	-12.4527
▁Stemme	-12.4527
▁dermatolog	-12.4527
▁eksotisk	-12.4527
▁Algier	-12.4527
▁nethinde	-12.4527
#	-12.7027
♫	-14.1397
)	-14.1398
:	-14.1399
—	-14.14
?	-14.1401
&	-14.1402
,	-14.1403
