<unk>	0
<s>	0
</s>	0
▁,	-2.89413
▁.	-3.18392
▁	-3.79752
en	-3.86577
n	-3.94256
▁die	-4.07282
▁und	-4.21156
s	-4.28227
▁der	-4.49347
;	-4.49376
e	-4.51364
▁&	-4.54046
▁ist	-4.56713
quot	-4.58356
▁in	-4.68441
▁das	-4.68604
▁zu	-4.69618
t	-4.79672
▁wir	-4.8501
▁ich	-4.87478
▁es	-4.94362
▁ein	-5.00652
▁sie	-5.07289
▁Sie	-5.07868
▁eine	-5.1186
▁von	-5.19137
▁nicht	-5.2023
▁dass	-5.24742
▁den	-5.26234
▁Und	-5.26936
▁mit	-5.38191
▁auf	-5.4037
er	-5.42122
m	-5.45946
▁Ich	-5.54773
▁an	-5.55946
-	-5.60109
▁sich	-5.60583
▁wie	-5.61169
▁:	-5.63035
▁sind	-5.63298
r	-5.63549
▁diese	-5.68045
▁?	-5.68192
▁haben	-5.69132
▁war	-5.7121
▁für	-5.7121
▁so	-5.74787
▁als	-5.77195
▁man	-5.81046
▁Das	-5.83795
▁um	-5.86807
▁Es	-5.90631
▁Wir	-5.96638
o	-5.98303
▁aus	-6.00154
▁was	-6.00745
▁dem	-6.03433
▁im	-6.04326
▁uns	-6.10444
▁er	-6.10803
▁)	-6.11003
(	-6.11087
▁wenn	-6.12386
▁über	-6.16013
▁können	-6.16368
▁werden	-6.21386
▁einen	-6.2393
▁hat	-6.24587
▁oder	-6.25566
▁des	-6.2662
▁Die	-6.31573
▁kann	-6.31793
▁auch	-6.33773
▁Aber	-6.3392
▁aber	-6.34809
▁einer	-6.38584
▁einem	-6.40066
▁sehr	-6.41173
▁wird	-6.41782
es	-6.41968
▁hier	-6.43204
▁nur	-6.43223
▁Menschen	-6.47871
▁sein	-6.48075
▁da	-6.49381
▁–	-6.50232
▁mich	-6.51381
▁gibt	-6.52821
▁nach	-6.54108
▁meine	-6.54169
▁—	-6.55373
te	-6.56956
dann	-6.5781
st	-6.58076
▁vor	-6.60591
▁etwas	-6.63424
▁sehen	-6.64328
▁noch	-6.65544
▁habe	-6.65656
▁Als	-6.69669
▁dieser	-6.70191
l	-6.70741
▁Welt	-6.71867
▁mir	-6.72796
▁alle	-6.7319
▁unsere	-6.73254
▁mehr	-6.75605
▁bei	-6.76951
ung	-6.78127
▁Wenn	-6.79148
▁Er	-6.79361
d	-6.80475
▁durch	-6.83907
also	-6.857
.	-6.86322
▁wurde	-6.87902
▁viel	-6.90622
▁Ihnen	-6.925
▁ver	-6.93481
▁wirklich	-6.94692
▁würde	-6.94934
▁keine	-6.95207
▁ihre	-6.97051
▁In	-6.97294
▁ihn	-6.97557
▁machen	-6.97924
▁zum	-7.0072
▁immer	-7.00899
▁Zeit	-7.01405
▁ge	-7.02672
▁andere	-7.04495
▁weil	-7.05157
▁♫	-7.06791
ten	-7.06987
y	-7.0746
▁tun	-7.083
▁Was	-7.08662
▁hatte	-7.08698
▁viele	-7.09247
▁Dinge	-7.09348
k	-7.1112
▁einfach	-7.12903
▁wo	-7.13425
▁bis	-7.15239
▁am	-7.15638
▁dieses	-7.15785
▁Leute	-7.17216
▁be	-7.17455
▁-	-7.18059
▁müssen	-7.18529
in	-7.19494
▁zwei	-7.19579
▁Leben	-7.20858
f	-7.22605
▁Art	-7.24269
um	-7.24897
ä	-7.26121
▁Jahren	-7.27705
▁sagen	-7.28192
▁sagte	-7.28275
▁bin	-7.28499
h	-7.28653
▁jetzt	-7.28979
▁wissen	-7.30037
▁Ein	-7.30655
▁ihr	-7.30881
▁waren	-7.31293
▁S	-7.32318
g	-7.32484
▁Wie	-7.33414
▁diesen	-7.34422
▁Der	-7.36125
▁Man	-7.36202
▁mein	-7.36788
an	-7.37605
▁anderen	-7.3804
▁alles	-7.38626
▁ganz	-7.38805
▁ab	-7.39216
z	-7.39836
▁Jahre	-7.39946
▁wieder	-7.40841
▁zur	-7.41225
▁Applaus	-7.41382
▁selbst	-7.41888
▁damit	-7.4197
▁geht	-7.42747
▁gut	-7.42982
▁muss	-7.43881
▁sollte	-7.45025
▁Gelächter	-7.45789
ge	-7.46863
▁einige	-7.4804
▁Lachen	-7.48054
a	-7.48836
lich	-7.48973
de	-7.49518
▁So	-7.49807
▁A	-7.49955
▁du	-7.49962
▁kleine	-7.50593
▁B	-7.50753
▁ob	-7.5081
▁Da	-7.50959
▁möchte	-7.51893
▁K	-7.52463
▁seine	-7.5251
b	-7.53325
▁Kinder	-7.53643
▁all	-7.539
▁unter	-7.54941
al	-7.5528
▁Nun	-7.55485
u	-7.55764
▁Diese	-7.55783
▁konnte	-7.5649
▁große	-7.56778
re	-7.56968
▁schon	-7.5723
p	-7.57692
ch	-7.5821
dem	-7.58833
ur	-7.59944
den	-7.6007
be	-7.60387
sch	-7.60748
▁T	-7.61558
▁vielleicht	-7.61873
▁heute	-7.62388
▁zurück	-7.62737
w	-7.62829
zu	-7.63308
▁Geschichte	-7.63529
ht	-7.64911
▁Hier	-7.65072
▁weiter	-7.65182
ü	-7.65301
▁davon	-7.65564
▁An	-7.66897
▁Jahr	-7.67628
▁Be	-7.68202
▁E	-7.68603
▁drei	-7.69229
▁könnte	-7.699
le	-7.70105
▁Ver	-7.71071
▁welche	-7.71578
▁kein	-7.72192
▁dort	-7.7263
apos	-7.72901
▁nun	-7.7324
▁Ihre	-7.7331
▁Problem	-7.73414
▁hatten	-7.73707
▁genau	-7.73843
gar	-7.74203
em	-7.74258
▁tatsächlich	-7.74673
▁werde	-7.75143
▁Teil	-7.75156
▁paar	-7.75162
ste	-7.75837
▁gab	-7.76138
▁denn	-7.76197
ter	-7.76541
ig	-7.77521
▁wollen	-7.77644
▁meiner	-7.78205
S	-7.78449
us	-7.78472
is	-7.78977
▁darüber	-7.7901
el	-7.79754
▁wollte	-7.79789
▁Dies	-7.80398
▁Beispiel	-7.81106
sten	-7.81317
i	-7.8235
▁zusammen	-7.82402
▁nie	-7.82958
▁unser	-7.83567
▁neue	-7.83584
▁wurden	-7.83649
für	-7.83653
▁gehen	-7.8368
sondern	-7.83859
▁unserer	-7.84334
▁Tag	-7.84345
▁weiß	-7.84561
▁Eine	-7.85361
▁ganze	-7.85734
▁wäre	-7.86554
▁dies	-7.86642
▁kam	-7.86754
kommt	-7.87284
▁Vor	-7.88221
▁denke	-7.88984
der	-7.89173
vom	-7.90062
▁Sch	-7.90402
or	-7.90651
▁Wasser	-7.91007
ern	-7.91008
▁eigene	-7.91458
▁kommen	-7.91897
▁macht	-7.92315
▁Arbeit	-7.92401
ro	-7.92938
▁dazu	-7.93898
▁ging	-7.94093
▁denken	-7.94336
▁glaube	-7.94375
▁Frage	-7.94548
▁gemacht	-7.94661
▁gerade	-7.94969
▁finden	-7.95401
▁erste	-7.95492
▁un	-7.95954
▁Mal	-7.96648
▁zwischen	-7.96995
ver	-7.97256
▁Land	-7.97443
▁einmal	-7.97495
▁heraus	-7.97625
ra	-7.98478
A	-7.98612
▁Prozent	-7.98688
▁hätte	-7.98895
▁geben	-8.0006
▁ohne	-8.00287
li	-8.00331
▁zeigen	-8.00649
ö	-8.01335
▁jemand	-8.01839
it	-8.02061
kt	-8.02202
▁Ge	-8.02376
ie	-8.02523
▁passiert	-8.02722
▁jeder	-8.0378
▁besser	-8.04633
▁möglich	-8.047
▁natürlich	-8.04875
▁mal	-8.05515
ieren	-8.0566
ing	-8.05677
▁Bild	-8.05875
▁etwa	-8.05927
▁will	-8.06229
▁G	-8.06258
▁Millionen	-8.06653
▁leben	-8.07306
▁daran	-8.07669
▁Auf	-8.07685
▁Frauen	-8.07863
B	-8.08334
▁Gehirn	-8.0868
▁wichtig	-8.09075
▁meisten	-8.09201
▁Idee	-8.09337
▁Ab	-8.09506
▁ersten	-8.09573
at	-8.0958
▁verstehen	-8.09826
▁ja	-8.09969
▁während	-8.10135
▁jede	-8.10351
iert	-8.1059
▁Geld	-8.10707
▁lassen	-8.11596
▁hin	-8.12553
1	-8.13028
▁Im	-8.13143
▁Zu	-8.13374
schen	-8.13648
▁ziemlich	-8.13673
▁letzten	-8.13889
▁Daten	-8.13948
et	-8.14579
ar	-8.14763
▁dachte	-8.14822
▁ihren	-8.1492
il	-8.15067
la	-8.152
▁Musik	-8.15287
▁C	-8.16049
▁Bei	-8.16108
▁Weg	-8.16206
▁Raum	-8.16463
▁Aus	-8.17707
▁Grund	-8.1853
ation	-8.19048
on	-8.19284
▁Ja	-8.19562
c	-8.1957
▁dabei	-8.19679
▁Dank	-8.20038
▁verschiedene	-8.20097
▁könnten	-8.20835
▁bedeutet	-8.21239
▁sagt	-8.21281
▁Ende	-8.21361
▁bekommen	-8.21791
▁ihrer	-8.21948
▁10	-8.21976
▁sprechen	-8.22064
as	-8.22269
▁je	-8.22298
gen	-8.22539
▁Ihr	-8.22849
▁Technologie	-8.23177
einander	-8.24338
▁M	-8.24389
ische	-8.24565
M	-8.24597
▁weg	-8.24604
▁eigentlich	-8.24838
▁arbeiten	-8.24941
▁Körper	-8.25557
▁musste	-8.25613
▁Lebens	-8.25783
ischen	-8.25945
▁weniger	-8.26108
▁Computer	-8.26164
▁St	-8.26364
doch	-8.26746
ri	-8.26751
▁heiß	-8.26795
me	-8.26837
är	-8.26884
▁vier	-8.27449
▁ent	-8.27533
▁Mit	-8.27785
▁begann	-8.29135
▁nichts	-8.29235
▁Dollar	-8.29408
ungen	-8.29841
▁sah	-8.29908
▁nehmen	-8.30132
▁Mann	-8.30354
▁Dann	-8.30442
▁Sache	-8.30596
▁darauf	-8.31063
ab	-8.31222
rum	-8.31372
▁Re	-8.31465
bar	-8.31565
▁20	-8.3181
▁R	-8.32219
▁gleich	-8.32273
▁Energie	-8.32414
▁Du	-8.32536
erweise	-8.32541
C	-8.32919
▁Stadt	-8.32944
▁Menge	-8.33339
▁Denn	-8.33378
▁Warum	-8.33748
▁P	-8.33836
▁seit	-8.34114
▁Danke	-8.34122
▁Le	-8.3423
P	-8.34235
▁brauchen	-8.3496
▁ihm	-8.35101
▁bringen	-8.35132
▁Weise	-8.35313
ik	-8.35479
▁O	-8.35613
▁...	-8.35817
heit	-8.35845
ul	-8.36145
ta	-8.36215
▁Seite	-8.36267
pf	-8.36597
▁gesehen	-8.36801
▁sicher	-8.37138
▁Moment	-8.37517
mals	-8.37773
▁funktioniert	-8.37816
▁Zukunft	-8.38533
▁wenig	-8.39274
zeit	-8.39639
igen	-8.39983
▁Vielen	-8.40104
▁I	-8.40271
▁Frau	-8.40376
▁Fall	-8.40384
▁richtig	-8.40811
ma	-8.40837
▁W	-8.41236
▁Ort	-8.41387
▁jeden	-8.41523
di	-8.41658
▁Erde	-8.41795
▁pro	-8.4264
▁Person	-8.42854
▁Hand	-8.42857
▁Um	-8.43418
▁gegen	-8.43425
▁schnell	-8.43796
D	-8.43916
▁System	-8.44091
lt	-8.4436
▁lang	-8.44368
chen	-8.44444
▁Licht	-8.44582
kommen	-8.45007
▁lange	-8.45127
ß	-8.45415
▁weit	-8.45767
▁f	-8.45835
R	-8.45966
▁sch	-8.46367
▁beide	-8.46576
▁Kind	-8.46769
liche	-8.46794
▁versuchen	-8.46944
her	-8.4718
▁D	-8.47498
▁später	-8.47739
▁F	-8.47968
▁Jetzt	-8.48222
isch	-8.48273
T	-8.48347
ut	-8.48448
▁Natur	-8.48451
▁hoch	-8.48791
▁gern	-8.48871
2	-8.49126
▁gesagt	-8.49127
▁fand	-8.49258
▁L	-8.49777
▁schaffen	-8.50057
▁sei	-8.50305
op	-8.5093
▁Wissen	-8.50963
▁fast	-8.51089
▁Un	-8.51307
▁Afrika	-8.51611
▁einzige	-8.51755
▁lernen	-8.52142
K	-8.52274
▁groß	-8.52446
▁zeigt	-8.52479
▁Mutter	-8.52627
▁stellen	-8.52635
▁fünf	-8.52645
E	-8.53203
ha	-8.533
▁Probleme	-8.53697
▁beim	-8.53724
halb	-8.53772
▁Form	-8.53913
los	-8.54031
▁gute	-8.54174
▁glauben	-8.54215
▁jedes	-8.54635
▁oft	-8.54872
▁nutzen	-8.54897
ende	-8.55166
▁entwickelt	-8.55435
mal	-8.5562
▁3	-8.55788
▁wahrscheinlich	-8.55819
fe	-8.55832
▁Nach	-8.56068
▁Video	-8.56392
ka	-8.56916
bi	-8.57435
uch	-8.5745
▁Auto	-8.57847
▁Co	-8.57922
▁Projekt	-8.58033
▁d	-8.58809
▁herum	-8.58905
▁ungefähr	-8.58955
▁schwer	-8.59214
un	-8.59361
▁Gesellschaft	-8.59502
▁30	-8.59634
0	-8.59838
▁Al	-8.60053
ag	-8.60111
▁genug	-8.6022
L	-8.60293
▁Bilder	-8.60428
chmal	-8.60573
ell	-8.60623
▁Buch	-8.60745
▁Spiel	-8.60838
ah	-8.61232
ige	-8.61506
▁her	-8.61691
▁alt	-8.61906
▁New	-8.62039
▁nächsten	-8.62112
▁anders	-8.62161
▁seiner	-8.62598
ster	-8.6263
▁erzählen	-8.62751
gehen	-8.62771
zi	-8.62862
▁neuen	-8.62872
▁Über	-8.62912
nd	-8.63317
▁Internet	-8.63326
fall	-8.63404
ion	-8.63642
▁klar	-8.63854
▁USA	-8.63867
▁k	-8.6445
▁Mädchen	-8.64649
▁Männer	-8.65184
▁Milliarden	-8.6538
▁helfen	-8.65452
ir	-8.6567
▁lieg	-8.65676
▁besonder	-8.65847
▁kennen	-8.65996
▁Planeten	-8.66188
▁200	-8.66559
ko	-8.66631
▁bauen	-8.67005
▁Punkt	-8.67069
ien	-8.67248
▁Design	-8.67325
▁50	-8.67391
▁gehört	-8.68009
▁Weil	-8.68218
x	-8.68267
▁braucht	-8.68501
▁Selbst	-8.68676
▁N	-8.68832
mit	-8.68859
▁Regierung	-8.68963
he	-8.69649
▁Ideen	-8.69759
▁Gebäude	-8.70452
▁Meine	-8.70508
▁Informationen	-8.70568
ad	-8.70667
to	-8.70854
▁Augen	-8.7088
falls	-8.71009
au	-8.71165
▁H	-8.71208
▁erst	-8.7135
▁überall	-8.71548
▁Fähigkeit	-8.71687
▁Unternehmen	-8.71824
▁verändern	-8.71882
▁solche	-8.71974
▁TED	-8.72121
▁wusste	-8.72175
▁Schule	-8.72422
ein	-8.72544
▁Film	-8.72635
ol	-8.72697
▁stehen	-8.7283
▁fest	-8.72951
icht	-8.72964
geben	-8.72982
F	-8.73043
wohl	-8.73628
▁La	-8.73682
br	-8.73761
sp	-8.74337
I	-8.74585
▁schön	-8.74647
▁nennen	-8.74751
aus	-8.74841
▁Für	-8.75045
.000	-8.75051
cht	-8.75118
▁Antwort	-8.75209
ler	-8.75582
▁Kunst	-8.75619
▁Kopf	-8.75981
▁100	-8.76285
▁außer	-8.76369
▁z	-8.7649
▁Dieses	-8.76689
▁soll	-8.77612
▁menschliche	-8.77822
▁Ha	-8.78056
▁Erfahrung	-8.78183
▁Wort	-8.78421
▁erreichen	-8.78538
iv	-8.78699
3	-8.79123
▁Am	-8.79136
▁Wo	-8.79232
▁Nein	-8.79311
▁nächste	-8.79375
G	-8.79414
▁Bo	-8.79416
▁letzte	-8.79471
am	-8.79561
▁neu	-8.79595
▁Indien	-8.79879
end	-8.80092
▁Haus	-8.80131
▁Mein	-8.80225
ger	-8.80295
nehmen	-8.80341
▁bereits	-8.80456
▁bevor	-8.80708
▁Stück	-8.80818
▁wahr	-8.80883
▁Sp	-8.809
lei	-8.81106
▁15	-8.81107
▁Familie	-8.81223
dessen	-8.8134
▁Entwicklung	-8.81588
ot	-8.81596
▁sechs	-8.81597
▁Krankheit	-8.81755
▁Fragen	-8.81828
▁soziale	-8.8183
▁Ka	-8.822
legen	-8.82536
▁Lass	-8.82716
▁unglaublich	-8.83138
▁machte	-8.83152
▁namens	-8.83189
▁Wissenschaft	-8.83189
▁reden	-8.8346
▁Angst	-8.83512
▁4	-8.83762
pp	-8.83775
▁gleiche	-8.83794
▁recht	-8.84006
▁Arten	-8.84159
land	-8.84184
▁finde	-8.84486
▁steht	-8.84568
▁dich	-8.84828
▁Leuten	-8.84934
bau	-8.8519
▁fragen	-8.85221
mo	-8.85331
keit	-8.85429
▁Gefühl	-8.85451
so	-8.85496
▁Ma	-8.8617
ti	-8.86196
▁weitere	-8.86363
4	-8.86504
▁erkennen	-8.86677
▁kurz	-8.86683
▁einzelne	-8.86947
▁Gruppe	-8.86958
▁halten	-8.87052
▁&#9	-8.87113
Oder	-8.8713
nach	-8.87132
▁Doch	-8.87163
▁Vielleicht	-8.87281
▁benutzen	-8.87337
▁Z	-8.8736
▁&#93;	-8.87448
▁Mo	-8.87636
▁anzu	-8.87838
bel	-8.88231
▁Herz	-8.88309
▁Geschichten	-8.88313
▁versucht	-8.88344
▁vorstellen	-8.88376
spiel	-8.88429
▁wer	-8.88511
▁Krieg	-8.88708
ale	-8.88826
▁euch	-8.8883
▁Macht	-8.88835
▁hören	-8.88928
▁Luft	-8.8897
▁schwierig	-8.89015
▁V	-8.89137
lichen	-8.89636
id	-8.89882
ia	-8.90061
▁Nicht	-8.90148
▁spielen	-8.90266
N	-8.90322
vi	-8.90865
▁Oh	-8.90927
▁gesamte	-8.91011
th	-8.91035
▁Möglichkeit	-8.91168
▁bewegen	-8.91271
▁Vater	-8.91373
▁Patienten	-8.91451
▁Ho	-8.91457
äh	-8.91602
ho	-8.9173
eher	-8.91872
▁verändert	-8.91878
gebracht	-8.92148
tra	-8.922
▁gar	-8.92205
form	-8.92342
▁Kultur	-8.92423
▁Eltern	-8.9243
▁Verbindung	-8.92603
▁Entscheidung	-8.92635
stand	-8.92687
5	-8.92709
▁Bewegung	-8.92928
▁ins	-8.93046
bo	-8.93123
▁2	-8.93245
ft	-8.93325
schw	-8.9358
teil	-8.93636
ben	-8.93668
ken	-8.93701
▁irgendwie	-8.93841
▁Verhalten	-8.93879
▁nahm	-8.94004
▁Minuten	-8.94303
▁ändern	-8.94368
▁entwickeln	-8.94377
▁oben	-8.94554
▁Okay	-8.9474
7	-8.94816
kon	-8.94888
▁Hause	-8.94987
▁Sprache	-8.94987
ämlich	-8.95099
ier	-8.95122
bringen	-8.95154
darin	-8.9551
schaft	-8.95522
▁aller	-8.95529
▁verwenden	-8.95679
▁De	-8.95791
wa	-8.95833
8	-8.96082
zustellen	-8.96087
▁Eis	-8.96122
ck	-8.96288
▁bekannt	-8.9637
im	-8.96382
auf	-8.96404
▁Ziel	-8.96699
bei	-8.96827
▁J	-8.96996
▁erhalten	-8.97139
▁Glück	-8.975
▁China	-8.97847
▁Vorstellung	-8.97863
▁Des	-8.98017
▁beginnen	-8.98291
▁hinter	-8.98304
▁Ent	-8.98332
▁U	-8.98348
und	-8.98733
▁Pro	-8.98907
ork	-8.98966
▁Umwelt	-8.98977
▁Stunden	-8.99059
▁5	-8.99251
▁sagten	-8.99284
▁direkt	-8.99342
▁liebe	-8.99428
▁getan	-8.99547
ach	-8.99584
▁innerhalb	-8.99663
▁auszu	-8.9972
lässt	-8.99735
ber	-9.00018
▁frei	-9.00059
▁Regel	-9.00165
▁Mensch	-9.00832
▁niemand	-9.01056
▁Heut	-9.01078
▁wohl	-9.01132
sche	-9.01259
▁besten	-9.01411
▁Gott	-9.01453
▁Ra	-9.01605
▁führen	-9.01737
ind	-9.02065
▁Länder	-9.02215
▁Unter	-9.02234
ll	-9.02254
H	-9.02295
eck	-9.02296
▁Na	-9.02342
▁schauen	-9.02505
wegen	-9.02545
rü	-9.02631
fangen	-9.0265
▁stellt	-9.02735
▁40	-9.02754
▁menschlichen	-9.02977
▁mag	-9.03063
satz	-9.03073
rei	-9.03148
▁glücklich	-9.03184
da	-9.03232
▁interessant	-9.03276
kl	-9.03373
rin	-9.03413
enden	-9.03424
▁unterschiedlich	-9.0358
▁klein	-9.0371
▁Herausforderung	-9.03774
halten	-9.03778
W	-9.03893
▁Anfang	-9.03984
▁He	-9.04143
▁fragte	-9.04249
▁Lage	-9.04321
tro	-9.0447
▁1	-9.04526
▁riesige	-9.0478
ant	-9.04784
▁normal	-9.04789
▁Me	-9.04831
6	-9.04878
ng	-9.0499
schließlich	-9.05095
▁Tiere	-9.05396
▁befinde	-9.05839
▁falsch	-9.05887
mp	-9.05899
▁Krebs	-9.0593
vor	-9.06005
▁Stellen	-9.0602
▁sage	-9.06192
▁dir	-9.06214
eln	-9.06303
▁zwa	-9.06396
▁aufzu	-9.06447
▁treffen	-9.06523
▁Universum	-9.06604
▁Tage	-9.0669
ich	-9.06892
▁Wissenschaftler	-9.06999
▁Wahl	-9.07186
▁überhaupt	-9.07199
ze	-9.07426
ru	-9.07468
and	-9.07511
ei	-9.07572
▁18	-9.07603
▁Gemeinschaft	-9.07898
▁Bildung	-9.07905
▁bereit	-9.07917
▁Sachen	-9.07926
▁Technik	-9.08
ment	-9.08184
recht	-9.08304
all	-9.08509
▁betrachte	-9.08519
ür	-9.08668
▁Kindern	-9.08697
▁weltweit	-9.08826
▁deine	-9.0887
▁Lehrer	-9.08901
ke	-9.08929
ehr	-9.09159
▁p	-9.09204
▁bringt	-9.09452
▁Publikum	-9.09658
▁Sa	-9.0968
▁zweite	-9.09742
▁Do	-9.09818
▁Mi	-9.09894
ismus	-9.10105
ssen	-9.10109
zen	-9.10206
ton	-9.1024
▁führt	-9.1032
▁Möglichkeiten	-9.10326
igkeit	-9.10422
▁Boden	-9.10572
ic	-9.10768
art	-9.10809
ierung	-9.10834
▁Freunde	-9.10878
O	-9.10975
▁Roboter	-9.11039
▁benutzt	-9.11133
ug	-9.11198
▁Zellen	-9.11237
▁Sinn	-9.11242
ph	-9.11357
ill	-9.11446
▁los	-9.11487
▁völlig	-9.11556
ick	-9.11693
▁Wirtschaft	-9.11793
▁Gedanken	-9.11885
▁Essen	-9.11926
▁allem	-9.11942
▁Prozess	-9.12148
▁worden	-9.12414
▁Mittel	-9.12781
▁voll	-9.12819
▁jene	-9.1308
▁Ist	-9.1317
cken	-9.13185
ub	-9.13497
ba	-9.13555
▁Versuch	-9.13568
▁Unterschied	-9.13822
▁Staaten	-9.13831
▁Hilfe	-9.13927
▁Jahrhundert	-9.1408
▁bekam	-9.14187
org	-9.14192
▁Denken	-9.14347
hi	-9.14614
go	-9.14671
▁Alle	-9.14784
▁Kraft	-9.14804
▁verwendet	-9.14804
ay	-9.1529
▁Markt	-9.15368
▁Richtung	-9.15688
▁kleiner	-9.15714
▁entfernt	-9.15739
▁ausge	-9.15845
bl	-9.15874
tut	-9.16036
▁Pa	-9.16045
▁Wochen	-9.16243
▁Tages	-9.16314
▁Zum	-9.1643
wand	-9.16568
▁vorher	-9.16632
▁Thema	-9.16819
leg	-9.16877
▁Lösung	-9.1693
▁eben	-9.16934
▁acht	-9.16934
▁Kon	-9.17079
▁Bi	-9.17265
▁damals	-9.17368
fi	-9.17386
▁Ko	-9.17507
bare	-9.1769
mittel	-9.17694
▁Team	-9.17701
setzen	-9.17861
▁komplett	-9.17932
▁Typ	-9.17933
▁beginn	-9.18069
▁Grunde	-9.18205
▁nachdenk	-9.18263
co	-9.18461
▁Wer	-9.18473
ist	-9.18485
▁unten	-9.18525
uer	-9.1861
▁funktionieren	-9.18618
▁Liebe	-9.18621
durch	-9.18939
ine	-9.19007
▁Reihe	-9.19074
▁Unsere	-9.19125
▁Monate	-9.19275
▁Viele	-9.19303
▁Autos	-9.19464
▁Alter	-9.19467
▁Modell	-9.19649
▁größer	-9.19656
▁Wert	-9.19934
tage	-9.20021
man	-9.20031
▁bitte	-9.20062
pa	-9.20149
▁Preis	-9.20178
ack	-9.20293
▁statt	-9.20517
selbe	-9.20548
▁Woche	-9.20628
▁Tier	-9.2063
9	-9.20725
lichkeit	-9.20762
eb	-9.20815
▁Nacht	-9.21109
▁bestimmt	-9.21183
▁Bau	-9.21238
statt	-9.2143
▁besteht	-9.2144
▁Erfolg	-9.21508
treten	-9.21558
v	-9.21731
▁globale	-9.218
▁All	-9.21985
00	-9.22071
▁früh	-9.22085
▁Ro	-9.22114
▁größte	-9.22353
tel	-9.22538
▁stark	-9.22629
kaufen	-9.22798
▁lösen	-9.23051
▁jedoch	-9.23126
▁tief	-9.23258
▁schlecht	-9.23465
▁bleiben	-9.23549
▁Familien	-9.23625
▁sterben	-9.23776
▁Sehen	-9.2387
▁leicht	-9.24008
▁stellte	-9.24074
▁erinnern	-9.24257
▁genannt	-9.24257
▁politische	-9.24309
▁Schritt	-9.24313
▁junge	-9.24356
lin	-9.24409
▁absolut	-9.245
▁hohe	-9.24539
▁genauso	-9.24592
ce	-9.24592
▁zuvor	-9.24877
▁Tatsache	-9.24987
▁wären	-9.25051
▁ange	-9.25103
▁Größe	-9.2523
raußen	-9.25262
ed	-9.25289
▁6	-9.2531
▁teilen	-9.25319
▁fühlen	-9.25649
▁bestimmte	-9.25698
▁verbunden	-9.25719
▁Bereich	-9.26298
▁Dr	-9.26474
▁suchen	-9.2648
▁Namen	-9.26509
▁Li	-9.26587
isten	-9.26595
we	-9.26639
▁Oberfläche	-9.26707
▁b	-9.26749
▁erreicht	-9.26761
▁Situation	-9.26794
voll	-9.2686
▁offen	-9.26929
ett	-9.27027
wert	-9.27134
▁Haupt	-9.27203
rie	-9.27249
▁hinein	-9.27259
▁60	-9.27377
▁Zahl	-9.27384
▁Zwei	-9.27463
▁Städte	-9.27502
▁Meter	-9.27516
▁Reise	-9.2753
ierte	-9.27549
sehen	-9.27559
▁Gründe	-9.28032
▁hab	-9.2831
od	-9.28482
▁Gesundheit	-9.28632
▁nimm	-9.28662
▁Foto	-9.28697
ff	-9.2881
▁80	-9.28962
do	-9.28975
▁erschaffen	-9.29043
▁sprach	-9.29151
▁Wahrheit	-9.29218
▁sollen	-9.29468
▁rein	-9.29497
▁Meinung	-9.29642
weder	-9.29658
par	-9.2969
▁Ländern	-9.29742
anz	-9.29962
▁Innovation	-9.2998
▁Labor	-9.29981
▁Po	-9.29985
wissenschaftlich	-9.30072
sh	-9.30273
▁zer	-9.30422
▁Umgebung	-9.30499
▁stand	-9.30543
arbeit	-9.30746
▁Tat	-9.30932
▁bessere	-9.30992
▁Natürlich	-9.3101
pi	-9.31046
▁essen	-9.31061
▁Freund	-9.31129
len	-9.31177
weg	-9.31293
lu	-9.31337
▁gebaut	-9.31398
▁erklären	-9.31452
▁sehe	-9.31496
▁Wind	-9.31581
▁Rolle	-9.31588
▁Neu	-9.3162
▁gelernt	-9.31693
ve	-9.31696
che	-9.31953
▁Amerika	-9.32051
ry	-9.32268
▁Hände	-9.32327
▁alte	-9.3255
▁sieben	-9.3258
▁scheint	-9.32584
▁Se	-9.3261
▁Stimme	-9.32689
po	-9.32834
jährige	-9.32838
▁gefunden	-9.3301
gang	-9.33191
▁beste	-9.33285
▁aussehen	-9.33364
▁Muster	-9.33399
▁Anzahl	-9.33413
werk	-9.33484
▁re	-9.33628
▁Alles	-9.33657
▁schreiben	-9.33714
stellen	-9.33816
▁Material	-9.33941
▁passier	-9.33975
▁Programm	-9.34063
▁geworden	-9.34164
▁Hoffnung	-9.34165
arm	-9.34178
erst	-9.34348
▁Künstler	-9.34431
▁darau	-9.34611
▁Jeder	-9.34647
ziehen	-9.34679
gestellt	-9.34707
▁Straßen	-9.3485
▁Einige	-9.34932
▁Ba	-9.35003
▁Je	-9.35076
▁12	-9.35132
fer	-9.35141
tz	-9.35288
▁länger	-9.35508
▁raus	-9.35538
▁Tatsächlich	-9.35779
▁gewesen	-9.35827
▁mache	-9.35903
▁gemeinsam	-9.35934
system	-9.35981
▁Bevölkerung	-9.36045
▁bewegt	-9.36053
sam	-9.36059
▁Technologien	-9.3609
haft	-9.3616
▁bewusst	-9.36295
▁Konzept	-9.36323
▁verloren	-9.36432
▁CA	-9.36439
▁Tod	-9.36447
zahl	-9.36515
▁Platz	-9.36602
▁zehn	-9.36863
stoff	-9.36864
ator	-9.36883
ring	-9.36983
▁gezeigt	-9.37095
▁Ob	-9.37119
oren	-9.37286
▁größten	-9.37483
sta	-9.37533
▁Ding	-9.37554
▁interessiert	-9.37697
ank	-9.38071
▁Chris	-9.38257
▁25	-9.38376
ca	-9.38422
ga	-9.38446
iger	-9.38615
ör	-9.38642
plan	-9.3897
▁plötzlich	-9.3909
▁Fa	-9.39092
▁Ar	-9.39125
▁w	-9.39126
▁ähnlich	-9.39272
▁amerikanische	-9.39303
▁einfache	-9.39354
▁Ozean	-9.3938
▁Realität	-9.39383
ucht	-9.39526
▁lesen	-9.39681
▁Di	-9.39733
ard	-9.39827
eg	-9.40141
▁Fisch	-9.40193
▁Bücher	-9.40218
▁Europa	-9.40221
ip	-9.40235
▁manche	-9.40252
▁Aufgabe	-9.4028
▁anderer	-9.40324
▁Hälfte	-9.40502
ja	-9.40518
▁fliegen	-9.40666
▁Ta	-9.40745
▁erfolgreich	-9.40787
▁Si	-9.40894
▁Veränderung	-9.40953
gleich	-9.41105
heim	-9.41272
▁deshalb	-9.4153
▁hast	-9.41945
V	-9.42129
▁8	-9.42137
▁Medien	-9.42225
▁Blut	-9.42225
▁stimmt	-9.42226
▁Genau	-9.42279
bild	-9.4229
▁schneller	-9.42321
ium	-9.42373
▁großartige	-9.42418
▁Schauen	-9.42443
ang	-9.42491
▁DNA	-9.42514
rat	-9.42739
mmer	-9.42767
pe	-9.428
▁unseres	-9.42936
des	-9.42946
▁schrieb	-9.43031
▁Mitgefühl	-9.43105
▁allein	-9.43126
▁Teile	-9.43406
▁g	-9.43635
▁Sicherheit	-9.43719
▁tat	-9.43748
▁zeige	-9.43786
▁Maschine	-9.43845
punkt	-9.4413
▁Fehler	-9.44172
reich	-9.44202
▁richtige	-9.4428
▁Test	-9.44436
age	-9.44477
▁Schul	-9.44547
▁neben	-9.44569
▁Kosten	-9.44628
▁Rest	-9.44735
▁bist	-9.44775
▁Flugzeug	-9.44867
▁traf	-9.44868
▁verrückt	-9.44872
▁Jo	-9.44951
▁Kamera	-9.45004
▁lebt	-9.45057
ow	-9.45265
▁Papier	-9.4546
▁nenn	-9.45481
ord	-9.45493
▁Straße	-9.45591
▁brachte	-9.45752
▁Während	-9.45759
▁Meer	-9.45809
▁öffentliche	-9.45845
▁fing	-9.45853
▁Kl	-9.45901
▁geboren	-9.46049
▁Bedeutung	-9.46059
▁Demokratie	-9.46079
▁Zeug	-9.46361
▁Arm	-9.46402
▁7	-9.46422
▁Worte	-9.46529
▁abge	-9.46555
▁Vereinigte	-9.46966
▁folgende	-9.4698
▁Ex	-9.47073
son	-9.47137
▁Nur	-9.47142
▁Gebiet	-9.4716
lassen	-9.47199
▁Wachstum	-9.4727
▁Nahrung	-9.47272
▁Vortrag	-9.47469
▁Mitte	-9.47552
▁Chance	-9.47576
▁gegenüber	-9.47915
kel	-9.47983
▁Süd	-9.4815
▁hoffe	-9.48298
▁Recht	-9.48399
▁Gen	-9.48452
▁wichtige	-9.48534
▁interessante	-9.48542
▁bekommt	-9.48578
▁daher	-9.48613
▁erlaubt	-9.48783
▁Strom	-9.48805
▁Generation	-9.48845
▁fahren	-9.4893
▁Pflanzen	-9.48978
hin	-9.49016
▁Durch	-9.49106
▁90	-9.49231
▁Universität	-9.49259
▁Evolution	-9.49424
▁sofort	-9.49425
tag	-9.49507
▁Sonne	-9.49555
▁Bio	-9.496
gi	-9.49634
▁egal	-9.49736
▁Produkt	-9.49744
bauen	-9.49919
▁Gene	-9.49966
▁Gewalt	-9.49986
spe	-9.50243
▁Medizin	-9.50361
▁Gut	-9.50399
▁Forschung	-9.50521
▁echte	-9.50593
▁hinaus	-9.50618
og	-9.50628
▁Gesicht	-9.50671
▁Interesse	-9.50675
▁ständig	-9.50675
▁näher	-9.50676
ap	-9.50701
▁laufen	-9.50802
▁Herr	-9.50965
▁Wal	-9.50978
▁einzu	-9.51057
▁kurze	-9.51177
elle	-9.51186
▁schlechte	-9.51238
▁ziehen	-9.51523
ssystem	-9.51611
▁großartig	-9.5175
▁Struktur	-9.51844
trag	-9.51994
▁Karte	-9.52264
▁versch	-9.52409
▁Ga	-9.52462
▁Revolution	-9.52583
▁Firma	-9.52583
▁Studenten	-9.52598
▁dar	-9.52641
leben	-9.52858
▁offensichtlich	-9.52909
va	-9.52945
▁arbeitet	-9.53034
▁langsam	-9.53115
▁arbeitete	-9.53206
zellen	-9.53285
▁wichtigste	-9.53291
ker	-9.53504
uf	-9.53528
ling	-9.53568
druck	-9.5366
▁Beziehung	-9.53703
▁Ebene	-9.53899
▁möchten	-9.5392
▁Orte	-9.53988
itz	-9.54007
stück	-9.54262
fach	-9.54493
▁extrem	-9.54528
▁Behandlung	-9.54869
gu	-9.54893
▁geschie	-9.54901
hören	-9.54997
ität	-9.55024
welt	-9.5504
▁unbe	-9.55137
▁toll	-9.55141
ühl	-9.55149
▁Google	-9.55185
▁wichtiger	-9.5519
▁sonst	-9.55321
▁Von	-9.55415
▁Telefon	-9.55515
▁Blick	-9.55515
▁Dorf	-9.55516
▁Zahlen	-9.55686
▁Politik	-9.5571
▁tragen	-9.55721
▁genommen	-9.55748
▁Gegen	-9.55779
▁Mu	-9.55797
▁Experiment	-9.55849
▁Ne	-9.5594
▁mögen	-9.56178
▁Tür	-9.5626
geht	-9.56351
▁älter	-9.56512
▁mehrere	-9.56538
▁Gerät	-9.56729
▁vorbei	-9.56768
ät	-9.56789
▁Studie	-9.56803
▁US	-9.56888
▁Ergebnis	-9.56946
isse	-9.56971
▁The	-9.57108
▁HIV	-9.57182
▁größere	-9.57344
▁versuchte	-9.57414
▁Himmel	-9.57521
▁Pe	-9.57686
weise	-9.57748
▁herauszufinden	-9.57857
▁gegeben	-9.57858
ak	-9.57895
▁Zugang	-9.57898
gabe	-9.57998
▁Arbeits	-9.58088
▁handelt	-9.5824
▁OK	-9.58264
▁16	-9.58557
cher	-9.58627
▁Theorie	-9.58728
roll	-9.58788
ob	-9.58824
▁anschaue	-9.58897
▁War	-9.59025
▁ansehen	-9.59063
▁Nachrichten	-9.5915
▁Bakterien	-9.59219
▁Wand	-9.5924
▁fertig	-9.59395
▁Rat	-9.59546
▁Organ	-9.59563
tik	-9.59625
▁liegen	-9.5964
▁großer	-9.59804
▁Information	-9.5987
fass	-9.5991
▁nein	-9.60019
▁Mars	-9.60037
▁Netzwerk	-9.6032
▁Sh	-9.604
▁setzen	-9.60553
▁Hu	-9.6063
▁Ihrer	-9.60874
▁entdeckt	-9.6088
▁hilf	-9.60897
▁Druck	-9.60899
▁gleichzeitig	-9.60955
▁neues	-9.60972
▁19	-9.61113
▁echt	-9.6112
▁Geschäft	-9.61143
▁Gesundheits	-9.61202
▁hörte	-9.61205
▁70	-9.61252
vo	-9.61278
▁lieben	-9.61451
▁Sicht	-9.61453
ud	-9.61589
▁Bewusstsein	-9.6165
▁Lo	-9.61717
▁wachsen	-9.61825
gesetzt	-9.61831
▁Gruppen	-9.61898
▁Sinne	-9.61945
▁Region	-9.62007
▁früher	-9.62031
▁Objekt	-9.62413
▁Netz	-9.62427
▁passierte	-9.62487
bu	-9.62503
folge	-9.62505
laden	-9.62582
bald	-9.62593
▁abzu	-9.62659
▁danke	-9.62764
▁9	-9.62852
▁gesprochen	-9.62934
ere	-9.63039
hält	-9.63046
▁Aufmerksamkeit	-9.63066
änder	-9.63118
▁Monaten	-9.63135
zug	-9.63217
▁kau	-9.63238
▁selbe	-9.63295
kul	-9.63313
erung	-9.63346
▁hundert	-9.63379
▁Morgen	-9.63424
▁geschrieben	-9.63481
▁Sex	-9.63508
▁real	-9.63673
▁erzählt	-9.63733
▁Beginn	-9.63782
▁Vi	-9.63855
▁bilden	-9.63857
up	-9.64031
the	-9.64045
aff	-9.64103
▁000	-9.64143
du	-9.64219
▁betrachtet	-9.64315
▁ca	-9.6432
▁Finger	-9.64503
▁ermöglicht	-9.64504
▁Super	-9.64504
pu	-9.64527
▁Rück	-9.64558
▁Bar	-9.64798
▁Park	-9.64971
▁beobachten	-9.65024
tion	-9.65065
nahme	-9.65153
ete	-9.65245
ran	-9.65385
▁Ergebnisse	-9.65484
▁gearbeitet	-9.65585
▁Vergangenheit	-9.65593
▁Eigenschaft	-9.65597
▁bleibt	-9.65599
▁Auswirkung	-9.65601
▁Menschheit	-9.65638
ative	-9.65817
▁produzieren	-9.65969
▁14	-9.65987
schau	-9.66003
▁verbesser	-9.66017
res	-9.66029
▁hart	-9.66084
▁Grenzen	-9.66098
zudenken	-9.66152
▁Seh	-9.66157
▁Können	-9.66327
▁Haut	-9.66378
▁dein	-9.66404
▁Nachricht	-9.66419
▁See	-9.66465
ort	-9.66543
blick	-9.66555
▁Stelle	-9.66629
▁Monat	-9.66671
▁Funktion	-9.66698
▁Reaktion	-9.66701
ok	-9.6671
setzt	-9.66948
messen	-9.6703
rück	-9.67063
▁vergessen	-9.67066
▁verlieren	-9.67067
▁rund	-9.67084
▁sitzen	-9.67131
▁Architektur	-9.67158
akt	-9.67208
▁Mikro	-9.67391
▁Kontrolle	-9.67438
▁Ton	-9.6754
▁erstaunlich	-9.67577
▁National	-9.67618
▁guten	-9.67778
▁machten	-9.67872
▁bald	-9.67936
▁fort	-9.67998
▁kreativ	-9.68186
▁anfange	-9.68231
▁nahe	-9.68236
▁Gemeinde	-9.68251
ide	-9.68289
▁verlassen	-9.68308
hand	-9.68362
▁Geist	-9.68425
▁Handy	-9.68483
▁Mar	-9.68489
▁führte	-9.68516
▁Job	-9.68528
▁Bürger	-9.6854
▁Spaß	-9.68562
hal	-9.68828
▁Religion	-9.68939
▁Spezies	-9.68939
▁Wirklichkeit	-9.68944
▁hervor	-9.68983
▁ändert	-9.69044
▁zweiten	-9.69198
▁Erinnerung	-9.69558
sel	-9.69666
▁Einfluss	-9.69725
ib	-9.69759
fahren	-9.69935
ki	-9.69978
▁El	-9.70062
▁Firmen	-9.7008
▁Bäume	-9.70086
▁Flug	-9.70134
▁lag	-9.70217
sprechen	-9.7033
wei	-9.70388
▁la	-9.70446
tisch	-9.70465
win	-9.70533
stellung	-9.70633
lang	-9.70657
▁schafft	-9.70848
▁Mond	-9.7092
aub	-9.71055
▁komplexe	-9.71077
▁links	-9.71234
▁irgendwo	-9.71235
▁Fälle	-9.71242
▁aussieh	-9.71247
▁Wi	-9.71257
▁Kern	-9.71257
▁Armut	-9.71266
▁zumindest	-9.71325
▁nenne	-9.71461
▁Studien	-9.71555
▁Linie	-9.71612
▁Kommunikation	-9.71621
▁Ca	-9.71723
io	-9.71748
ana	-9.7193
▁existiert	-9.7201
▁cool	-9.72011
▁erzeugen	-9.72014
▁Amerikaner	-9.72029
▁CO	-9.72064
werfen	-9.72076
▁hielt	-9.72125
raum	-9.72174
üb	-9.72334
▁de	-9.72336
richten	-9.72372
▁unmöglich	-9.72411
igung	-9.72486
les	-9.72623
▁Leid	-9.72872
war	-9.72898
▁heut	-9.72958
▁Bis	-9.72988
▁verbinden	-9.73078
lauf	-9.73084
▁Industrie	-9.73196
▁Büro	-9.73196
del	-9.73256
▁unglaubliche	-9.73312
nächst	-9.73391
▁Su	-9.73463
ischer	-9.73497
▁Landes	-9.73658
tritt	-9.73692
lass	-9.73748
tische	-9.7379
▁ok	-9.73891
dig	-9.73914
▁199	-9.73972
seite	-9.73973
▁Fre	-9.73981
▁medizinische	-9.73983
lung	-9.74008
U	-9.74049
geschehen	-9.74378
▁Berg	-9.74434
genommen	-9.7454
▁Her	-9.74575
▁digitale	-9.74734
▁we	-9.74755
zunehmen	-9.7508
▁Seiten	-9.75112
ari	-9.75164
▁Präsident	-9.75179
▁benötigt	-9.75179
▁Arzt	-9.7518
ive	-9.75187
▁San	-9.75194
▁Fuß	-9.75201
▁dritte	-9.75243
▁Gesetz	-9.756
fälle	-9.75601
▁laut	-9.75837
▁übrigen	-9.75872
▁spielt	-9.75883
stein	-9.75914
▁einge	-9.75926
lose	-9.75975
▁schrecklich	-9.75987
▁Klima	-9.75987
▁ehrlich	-9.75995
▁Bank	-9.76086
▁h	-9.76121
▁moderne	-9.76223
▁Baum	-9.76372
▁To	-9.76442
tät	-9.76551
ex	-9.76576
führen	-9.76629
▁Feld	-9.7676
▁Sohn	-9.76816
▁13	-9.76835
feld	-9.76854
j	-9.76872
▁Orten	-9.76897
wann	-9.77013
▁Schulen	-9.77087
nutz	-9.77137
▁gefährlich	-9.77215
▁Sekunden	-9.7724
▁schöne	-9.77396
ziel	-9.77538
▁Million	-9.77579
▁Nummer	-9.77625
▁Freiheit	-9.77633
stern	-9.77641
▁reich	-9.77689
▁dieselbe	-9.77788
▁Fi	-9.77904
▁gefragt	-9.78036
▁Krankenhaus	-9.78038
▁Beispiele	-9.78108
▁Zusammen	-9.78155
▁entscheiden	-9.78185
wasser	-9.78298
per	-9.78347
fisch	-9.78427
▁Prinzip	-9.78434
▁Leistung	-9.78451
▁Kampf	-9.78452
▁Aktivität	-9.78453
über	-9.78708
▁Methode	-9.7872
▁Ressourcen	-9.78786
▁Schüler	-9.78868
▁starb	-9.78874
staat	-9.78897
oll	-9.78903
▁Br	-9.79076
▁Groß	-9.79172
▁arbeite	-9.7922
mat	-9.7924
▁verstanden	-9.79242
▁Designer	-9.79261
▁verkauft	-9.79296
▁hinzu	-9.79331
och	-9.79387
,	-9.79391
drücken	-9.79395
karte	-9.79528
▁kling	-9.79734
▁17	-9.79736
▁Wald	-9.79765
kam	-9.79818
▁Not	-9.79872
▁Pi	-9.79985
▁schwarze	-9.80003
▁Nation	-9.80025
▁Kollegen	-9.80036
▁11	-9.8009
▁sprich	-9.80119
▁Wahrscheinlich	-9.80129
▁Ärzte	-9.80129
▁Sand	-9.80133
last	-9.80156
▁na	-9.8016
▁Stein	-9.80252
zig	-9.80257
▁Abend	-9.80359
▁aktiv	-9.80406
kom	-9.80534
uh	-9.80537
▁erklärt	-9.80552
▁Feuer	-9.80561
▁Komm	-9.80598
▁zeigte	-9.80609
▁Traum	-9.80669
änge	-9.80711
▁versuche	-9.80801
▁neun	-9.80818
▁wirtschaftliche	-9.80968
▁gewinnen	-9.81007
durchschnittlich	-9.81019
▁folgen	-9.8102
▁wunderbare	-9.81055
▁Risiko	-9.81095
port	-9.81186
kraft	-9.81267
▁Werk	-9.81328
schlag	-9.81337
isieren	-9.81343
dass	-9.81361
▁Genom	-9.81411
▁runter	-9.81411
▁entdecken	-9.8142
▁gekommen	-9.81497
haus	-9.817
▁entschieden	-9.81711
▁Finanz	-9.81834
▁Text	-9.81836
innen	-9.81949
▁Will	-9.81952
▁Ku	-9.82093
sinn	-9.82136
tragen	-9.82291
gezogen	-9.82292
▁Vergleich	-9.82333
▁Regierungen	-9.82375
ani	-9.82493
▁erfahren	-9.82529
▁komme	-9.82532
▁Formen	-9.82586
lage	-9.82636
brechen	-9.82654
▁aufgrund	-9.82676
▁Konflikt	-9.82698
▁tolle	-9.82776
▁diejenige	-9.82781
▁verschieden	-9.82812
▁Mach	-9.82859
▁erzählte	-9.82964
▁gi	-9.83046
▁Baby	-9.83086
▁Englisch	-9.83133
▁niedrig	-9.83133
▁Bühne	-9.83133
▁erzeugt	-9.83137
mann	-9.83161
▁Wunder	-9.83181
▁Systeme	-9.83244
▁trotzde	-9.83275
ös	-9.83348
▁Organisation	-9.83367
laufen	-9.83378
▁Mathematik	-9.83427
▁Ordnung	-9.8357
▁täglich	-9.8357
▁retten	-9.83572
▁häufig	-9.83573
▁Vertrauen	-9.83579
▁sowohl	-9.83655
▁Software	-9.83786
▁Grad	-9.83792
▁dreht	-9.83796
▁herausfinde	-9.83952
▁Wieder	-9.84047
▁Bezug	-9.84066
▁Kar	-9.84151
▁bisher	-9.84323
▁Klasse	-9.84343
▁Zelle	-9.84353
▁Projekte	-9.84359
▁Kilometer	-9.84451
▁läuf	-9.84466
▁of	-9.84466
läuf	-9.84527
▁Bienen	-9.84538
▁Andere	-9.84539
▁nutzt	-9.84553
▁gesch	-9.84618
▁Geschäfts	-9.8481
▁Uhr	-9.84892
▁dunkle	-9.84893
▁Ri	-9.84906
▁verbreitet	-9.84921
▁Fotos	-9.84925
▁Zeitpunkt	-9.85132
▁Regen	-9.8524
▁Beine	-9.85296
▁Tisch	-9.85384
▁eure	-9.85425
kor	-9.8552
▁jungen	-9.85594
krieg	-9.85624
▁bestehen	-9.85626
▁Glauben	-9.85782
▁leisten	-9.85787
technologie	-9.85816
flu	-9.85883
▁Ur	-9.86009
ierten	-9.86027
▁km	-9.86028
trieb	-9.86092
▁Frieden	-9.86096
▁rechts	-9.861
▁erleben	-9.86107
▁Ju	-9.86206
▁John	-9.86224
▁höchst	-9.8623
▁schützen	-9.86268
▁Sommer	-9.86316
▁wenige	-9.86351
▁Au	-9.86376
▁Sterne	-9.86547
▁Auge	-9.8662
▁Höhe	-9.86658
▁Biologie	-9.86689
▁Farbe	-9.86897
▁Maschinen	-9.86986
▁Ph	-9.87045
schluss	-9.87103
▁Atom	-9.87133
▁erinnert	-9.87133
problem	-9.87134
▁Schmerz	-9.87134
▁Spitze	-9.87139
führung	-9.87172
▁Werte	-9.87201
▁Einkommen	-9.87214
▁grüne	-9.87243
oh	-9.87384
▁fühlte	-9.87442
▁Entdeckung	-9.87588
▁untersuchen	-9.87589
fähig	-9.87601
▁mi	-9.87609
rad	-9.87613
▁Wesen	-9.87619
▁Medikamente	-9.87636
sie	-9.87677
▁hält	-9.87727
▁gestellt	-9.87822
▁Unser	-9.87968
▁Gespräch	-9.88045
▁praktisch	-9.88045
▁saß	-9.88045
▁produziert	-9.88054
stehen	-9.88119
▁Lösungen	-9.88244
▁tot	-9.88267
▁lernte	-9.8839
▁Personen	-9.88403
zieh	-9.88437
▁gelang	-9.88457
▁Produkte	-9.88461
▁Kreis	-9.88497
▁Welche	-9.88504
strahl	-9.88512
▁Ersten	-9.88631
▁Schlüssel	-9.88964
greifen	-9.89136
▁No	-9.89167
▁verbring	-9.89175
▁Liste	-9.89229
wenden	-9.89253
▁Ru	-9.89279
▁Gelegenheit	-9.89427
▁Tochter	-9.89427
bedingt	-9.89428
▁nannte	-9.89428
sitz	-9.89448
▁umzu	-9.89475
▁Lebensmittel	-9.89482
ktion	-9.89545
▁500	-9.89668
▁heutigen	-9.89754
ct	-9.89834
▁Schönheit	-9.89892
▁Fluss	-9.89908
voller	-9.89952
▁Spe	-9.89968
▁Manche	-9.9011
▁Beste	-9.9022
raten	-9.90273
▁außergewöhnlich	-9.90359
▁Name	-9.9036
▁Institution	-9.90378
▁sucht	-9.90418
machen	-9.90439
▁Keine	-9.90467
▁Ch	-9.90475
gl	-9.90522
ai	-9.90675
▁Junge	-9.90703
▁las	-9.90809
▁Haben	-9.90814
▁Hirn	-9.90837
weisen	-9.91036
ark	-9.91068
amp	-9.91164
lf	-9.91248
omi	-9.91261
handel	-9.91377
wo	-9.91424
lied	-9.91453
ven	-9.91476
▁müsste	-9.91649
▁sammeln	-9.91674
▁rot	-9.9172
▁erinnere	-9.91775
▁unterstützen	-9.91775
▁aufregend	-9.91782
grund	-9.91785
kra	-9.91788
▁ebenso	-9.91816
▁Hoch	-9.91993
▁Schiff	-9.9202
rate	-9.92219
istische	-9.92228
schutz	-9.92251
▁Schwester	-9.92252
▁Japan	-9.92253
▁selten	-9.92254
berg	-9.9227
▁Hi	-9.92282
▁geschaffen	-9.92308
▁Beziehungen	-9.92504
▁Lehr	-9.92608
▁verursacht	-9.92729
▁Nehm	-9.92736
band	-9.92755
▁herstellen	-9.9277
▁he	-9.92979
▁Handel	-9.93179
▁Klimawandel	-9.9321
mus	-9.9324
▁Lied	-9.93285
▁taten	-9.93328
▁irgendeine	-9.93375
gefunden	-9.93379
▁ihres	-9.93479
▁Nord	-9.93514
▁veröffentlicht	-9.93693
▁kostet	-9.93693
▁Botschaft	-9.93694
▁behandelt	-9.93695
▁Punkte	-9.93723
▁Aufnahme	-9.93749
▁Fortschritt	-9.93813
▁aufge	-9.93901
▁zufällig	-9.93906
▁brauchte	-9.94006
▁komm	-9.94053
▁Charakter	-9.94179
▁Nähe	-9.9419
▁geschah	-9.94199
▁24	-9.94219
▁Klein	-9.94221
▁Veränderungen	-9.94382
▁Jedes	-9.94466
schrift	-9.94576
▁Tu	-9.94587
▁Car	-9.94636
schläg	-9.94666
▁vollständig	-9.94666
▁persönliche	-9.94698
▁wählen	-9.94792
▁Beruf	-9.94826
▁Pu	-9.94922
rüber	-9.94957
ging	-9.94968
▁Gra	-9.95032
▁internationale	-9.95128
struktur	-9.95157
▁London	-9.95157
▁erwartet	-9.95157
ualität	-9.95453
▁ernst	-9.95492
▁hört	-9.95606
▁Verantwortung	-9.95649
▁getroffen	-9.95649
▁Bitte	-9.95662
mäßig	-9.95676
▁Stunde	-9.95681
▁Noch	-9.95821
rufen	-9.95841
▁verkaufen	-9.9586
wir	-9.95881
▁300	-9.95928
▁Lernen	-9.96031
▁Fahr	-9.96062
leistung	-9.96143
▁steckt	-9.96145
maschine	-9.96145
▁Effekt	-9.9616
▁Neuronen	-9.96184
▁Geb	-9.96217
gelegt	-9.96233
▁Geräusch	-9.96333
arten	-9.96387
▁warten	-9.96498
▁Gute	-9.96534
▁Wörter	-9.96555
▁normale	-9.9658
▁Leidenschaft	-9.96642
▁Freude	-9.96643
▁behaupte	-9.9665
denken	-9.96656
▁linke	-9.96671
zusag	-9.96699
lieg	-9.96756
▁Ki	-9.96803
▁Jahrhunderts	-9.96811
räume	-9.96914
▁Seit	-9.96996
▁Erd	-9.97089
platz	-9.97127
▁Gehirns	-9.97141
industrie	-9.97142
▁behandeln	-9.97143
▁Tri	-9.97212
▁Loch	-9.97242
▁Tra	-9.97304
▁Zweiten	-9.97354
buch	-9.97505
▁Rede	-9.97583
▁Partner	-9.97631
▁Verständnis	-9.97644
▁beschäftigt	-9.97644
▁Gewicht	-9.97644
▁erfunden	-9.97646
▁dorthin	-9.97719
▁Drei	-9.97891
wissenschaft	-9.98081
▁bloß	-9.98149
▁Artikel	-9.9815
▁Gewinn	-9.9815
▁Tumor	-9.98151
▁Version	-9.98152
▁unabhängig	-9.9816
gerät	-9.98182
▁Jahres	-9.98198
▁schicken	-9.98217
▁Gefahr	-9.98295
gebiet	-9.98451
▁Lu	-9.98512
tin	-9.9852
▁Materiali	-9.98575
artige	-9.98609
design	-9.98639
▁benötige	-9.98657
▁Etwa	-9.98658
▁Ahnung	-9.98658
▁schaut	-9.98683
alter	-9.98705
▁einfacher	-9.98847
teilung	-9.9892
▁Glas	-9.98996
▁gehe	-9.99111
▁Atmosphäre	-9.99167
▁konzentriere	-9.99167
▁ursprünglich	-9.99167
▁Volk	-9.99167
▁Motor	-9.99186
wi	-9.9935
tausend	-9.99386
▁Lieblings	-9.99405
schnitt	-9.99431
gegeben	-9.9948
erstellen	-9.99556
▁Geschwindigkeit	-9.9968
▁Forscher	-9.9968
▁erwarten	-9.9968
teilen	-9.99682
▁nachhaltig	-9.99769
bereich	-9.99866
▁Gesetze	-10
▁Werkzeuge	-10.0015
▁Infrastruktur	-10.002
▁Geburt	-10.002
▁effektiv	-10.002
fahrt	-10.002
fa	-10.0026
▁Neuro	-10.0027
wort	-10.0031
wesen	-10.0032
▁Los	-10.0045
▁Herzen	-10.005
▁ließ	-10.0058
isierung	-10.0068
▁Afghanistan	-10.0071
▁Opfer	-10.0071
▁angefangen	-10.0074
▁gedacht	-10.0076
▁Dah	-10.0078
▁Wa	-10.0092
▁legt	-10.0104
auto	-10.0106
▁gebe	-10.0107
▁voraus	-10.0108
one	-10.0111
▁Entwicklungsl	-10.0111
▁höher	-10.0122
▁elektrische	-10.0123
▁begonne	-10.0123
▁Kurz	-10.0124
▁Ansicht	-10.0124
▁Fenster	-10.0124
meter	-10.013
▁Wege	-10.0131
▁Plan	-10.0139
▁endlich	-10.0149
▁perfekt	-10.0165
geschichte	-10.0165
▁Kontakt	-10.0176
▁wesentlich	-10.0176
har	-10.0183
▁fühlt	-10.0193
que	-10.0194
falt	-10.0208
▁wunderbar	-10.022
▁Schl	-10.0222
▁Pla	-10.0225
▁Betracht	-10.0227
▁Phänomen	-10.0228
▁beeinflusst	-10.0228
▁Ecke	-10.0234
▁Zustand	-10.0237
▁spreche	-10.0244
programm	-10.0267
▁Westen	-10.027
▁wert	-10.0274
immt	-10.0274
▁Ok	-10.0277
▁land	-10.0279
▁Verfügung	-10.0281
▁Schutz	-10.0281
▁genutzt	-10.0281
▁geschaff	-10.0282
▁aufgenommen	-10.0288
▁Mehr	-10.0289
nahm	-10.029
▁Anders	-10.0295
▁grundlegende	-10.0298
▁Ganze	-10.03
skraft	-10.0301
▁Web	-10.0305
▁lautet	-10.0305
▁irgendwa	-10.0318
ruf	-10.0318
zeug	-10.033
▁Nerven	-10.0334
▁erwähnt	-10.0335
▁Virus	-10.0335
▁Drogen	-10.0335
▁ermöglichen	-10.0335
▁bezahl	-10.034
▁arme	-10.0343
▁gegangen	-10.0357
▁Akt	-10.0358
▁mächtig	-10.0364
▁überleben	-10.037
gab	-10.0373
▁Intelligenz	-10.0388
▁kämpfen	-10.0389
wirtschaft	-10.0394
▁traditionelle	-10.0398
▁triff	-10.0398
▁Mess	-10.0401
▁Post	-10.0403
testen	-10.0406
▁Insel	-10.0409
▁Hei	-10.0412
▁Go	-10.0424
▁Inhalt	-10.0428
anten	-10.0428
▁Städten	-10.0431
sitzt	-10.0435
▁herunter	-10.0437
▁Sozial	-10.0442
▁Anwendung	-10.0443
suche	-10.0445
▁Landwirtschaft	-10.0445
atur	-10.0456
wohn	-10.0457
▁global	-10.0457
ac	-10.0458
▁gewisse	-10.0481
▁Farben	-10.0488
▁Suche	-10.0489
asse	-10.049
▁Jede	-10.0493
▁Temperatur	-10.0496
schicht	-10.0504
▁Fe	-10.0511
teile	-10.0513
▁entsteh	-10.0523
ly	-10.0533
xi	-10.0543
▁Elektro	-10.0546
▁faszinierend	-10.055
▁notwendig	-10.055
▁erlebt	-10.055
▁David	-10.055
▁Landschaft	-10.0561
pol	-10.0576
alt	-10.0578
alität	-10.0593
▁starke	-10.0594
leiten	-10.0597
▁Müll	-10.0605
are	-10.0606
if	-10.0632
▁Gegend	-10.0634
▁Cha	-10.0634
▁Ni	-10.064
▁Objekte	-10.0651
stig	-10.0651
▁Große	-10.0651
▁allgemein	-10.066
▁einzigartig	-10.066
▁Brot	-10.0663
▁erlaub	-10.0663
▁Dort	-10.0664
▁Jahrzehnt	-10.0664
▁schien	-10.0673
fft	-10.0678
▁total	-10.068
ate	-10.0696
▁Einer	-10.0699
weis	-10.0707
▁Gefängnis	-10.0711
▁persönlich	-10.0711
▁Großbritannien	-10.0715
▁kontrollieren	-10.0715
▁nötig	-10.0715
kreis	-10.0718
▁Werkzeug	-10.0721
In	-10.0727
hnen	-10.0728
▁Ansatz	-10.0729
▁Kann	-10.073
▁Wirtschafts	-10.0741
▁nett	-10.0741
wächst	-10.0746
hause	-10.0747
mut	-10.0748
▁Viel	-10.075
▁halbe	-10.0756
bildung	-10.0764
Z	-10.0768
▁deutlich	-10.0771
▁zog	-10.0775
▁Begriff	-10.0775
markt	-10.0776
barkeit	-10.0779
uß	-10.078
▁ähnliche	-10.0784
▁Einsatz	-10.079
olog	-10.079
ci	-10.0794
▁Jungen	-10.0796
▁sowie	-10.0803
▁Fer	-10.0805
chte	-10.0814
▁beobachtet	-10.0823
▁folgt	-10.0826
▁198	-10.0827
▁Unternehmer	-10.0827
▁lief	-10.0827
▁Kunden	-10.0827
▁entlang	-10.083
leider	-10.0836
▁wohin	-10.0841
▁Boot	-10.0856
▁Milliarde	-10.0857
stelle	-10.0868
▁fällt	-10.0868
ition	-10.0868
▁Ganz	-10.0871
▁sogenannte	-10.0883
▁Niemand	-10.0883
▁Würde	-10.0883
zeichen	-10.0883
▁Strategie	-10.0883
▁Produktion	-10.0886
▁Wandel	-10.089
▁entspr	-10.0893
▁Har	-10.0893
kal	-10.0896
pack	-10.0898
▁drin	-10.0898
▁Massen	-10.0911
grün	-10.0913
▁Insekten	-10.0937
▁öffnen	-10.0939
▁Position	-10.0939
▁mittler	-10.0941
▁Überleben	-10.0942
▁Hinter	-10.0944
bahn	-10.0946
▁Hin	-10.0953
well	-10.0964
▁Bett	-10.097
uck	-10.0975
uelle	-10.0977
ami	-10.0978
setzung	-10.0995
gehend	-10.0996
▁Kreativität	-10.0996
▁erforschen	-10.0996
▁Außer	-10.0996
▁Materie	-10.0996
▁Operation	-10.0997
▁Per	-10.1006
wie	-10.1006
▁entschied	-10.1014
▁Lauf	-10.1027
▁West	-10.1027
▁Den	-10.1028
ließ	-10.1038
▁fuhr	-10.1043
zeichnet	-10.1048
▁Früh	-10.1052
▁Wunsch	-10.1053
zentr	-10.1056
▁durchgeführt	-10.1059
chi	-10.1059
▁Filme	-10.1063
▁mach	-10.1066
▁solch	-10.1068
▁Ehe	-10.1071
▁betri	-10.1072
▁Tieren	-10.1083
▁setzt	-10.1087
▁Konferenz	-10.1088
▁afrikanische	-10.1089
▁trotz	-10.1092
▁Bill	-10.1093
▁Schau	-10.1095
za	-10.1099
▁natürliche	-10.1106
▁leid	-10.1106
▁Museum	-10.1111
▁Unterstützung	-10.1111
▁Zentrum	-10.1111
▁City	-10.1112
▁selber	-10.1113
▁Ausbildung	-10.1113
▁handeln	-10.1116
stellt	-10.1119
▁entstehen	-10.1123
▁gutes	-10.1128
▁Forschungs	-10.1139
▁unge	-10.1141
▁Rand	-10.1148
▁Bedingung	-10.1168
▁Polizei	-10.1168
▁Titel	-10.1169
▁Kohle	-10.1169
▁Zusammenarbeit	-10.117
▁Großteil	-10.117
▁Weiß	-10.117
▁Ameisen	-10.1176
▁weiss	-10.1177
▁dagegen	-10.1178
lock	-10.118
lig	-10.1181
▁krank	-10.1182
▁Perspektive	-10.1184
▁neuer	-10.1193
▁Teilen	-10.1203
schein	-10.1212
▁überzeugt	-10.1227
▁Standard	-10.1227
möglichkeit	-10.1227
▁Bauern	-10.1238
▁201	-10.1243
▁fragt	-10.1247
▁heran	-10.1249
▁Unterschiede	-10.1255
▁entscheidend	-10.1255
gelassen	-10.1258
pro	-10.126
isches	-10.1261
▁sicherlich	-10.1261
körper	-10.1284
▁Komplexität	-10.1285
▁Knochen	-10.1285
▁besucht	-10.1285
▁Golf	-10.1286
ändern	-10.1291
▁halb	-10.1292
▁technische	-10.1294
ose	-10.1298
▁nah	-10.13
fassung	-10.1314
▁Gas	-10.133
▁Zi	-10.1337
verständlich	-10.1344
▁Gewebe	-10.1344
▁Steuer	-10.1344
▁untersucht	-10.1344
werte	-10.1344
mission	-10.1347
▁nützlich	-10.1352
▁tausende	-10.1365
▁fallen	-10.1366
▁Sonnen	-10.1381
zeichnen	-10.1382
▁kalt	-10.1382
▁Fo	-10.139
griff	-10.1395
▁Gold	-10.1399
▁eng	-10.14
funktion	-10.1402
spür	-10.1402
▁investieren	-10.1403
▁reagieren	-10.1403
▁überrascht	-10.1403
▁Faktor	-10.1403
▁Ausdruck	-10.1408
▁Or	-10.1412
▁Sta	-10.1418
dienst	-10.1422
▁Haar	-10.1422
▁keiner	-10.1426
▁falsche	-10.1426
▁Staat	-10.1433
rich	-10.1437
▁glaubt	-10.1437
ial	-10.1443
▁fühle	-10.1446
tor	-10.1449
▁Fische	-10.1459
▁Informations	-10.1461
▁Resultat	-10.1462
▁typisch	-10.1465
tausch	-10.1468
red	-10.1502
▁Code	-10.1507
ologie	-10.1518
▁Rot	-10.1518
for	-10.1519
ya	-10.1521
▁Irak	-10.1522
▁Zusammenhang	-10.1523
▁überzeugen	-10.1524
rennen	-10.1526
tauchen	-10.153
▁Reich	-10.1536
sweise	-10.1538
▁legen	-10.1542
▁Osten	-10.155
fallen	-10.1554
▁nehme	-10.1569
▁Fabrik	-10.1583
▁Mütter	-10.1583
▁kommunizieren	-10.1583
▁Dami	-10.1592
▁öffentlich	-10.1626
▁Antworten	-10.1631
aktiv	-10.1635
▁Kontinent	-10.1643
▁stecken	-10.1644
▁Durchschnitt	-10.1644
ies	-10.1657
ück	-10.1665
▁Politiker	-10.1668
gewachsen	-10.1675
▁Todes	-10.1685
▁teil	-10.1689
▁beschreiben	-10.1689
▁Interessant	-10.1704
▁Sauerstoff	-10.1704
▁AIDS	-10.1704
▁Malaria	-10.1704
▁wuchs	-10.1704
▁Verlust	-10.1704
▁2000	-10.1719
achte	-10.1724
▁übertragen	-10.1735
▁erhält	-10.1744
▁blaue	-10.1746
schuldig	-10.1763
▁Zeitung	-10.1765
fährt	-10.1766
▁Fläche	-10.1766
▁inspiriert	-10.1766
▁online	-10.1766
▁zerstört	-10.1766
▁Krise	-10.1766
▁westliche	-10.1766
kü	-10.1766
▁Link	-10.1767
▁blieb	-10.1767
▁Basis	-10.1768
▁Patient	-10.177
▁spät	-10.1782
▁Ziele	-10.1783
▁Mir	-10.1787
▁lebte	-10.1787
lange	-10.1793
▁Meeres	-10.1801
▁biologische	-10.1802
af	-10.1813
▁Hund	-10.1819
▁Holz	-10.1831
▁Iran	-10.1832
frage	-10.1833
▁Radio	-10.1834
person	-10.1835
▁lokale	-10.1841
gefallen	-10.1847
▁Bus	-10.1848
▁Einzel	-10.1849
▁Tausende	-10.1854
▁wider	-10.1869
▁nochmal	-10.1876
▁gesund	-10.1878
unter	-10.1881
▁gewonnen	-10.1889
▁verfügbar	-10.1889
▁Plastik	-10.1889
uadrat	-10.1889
▁Wüste	-10.189
▁tausend	-10.1892
▁Satz	-10.1892
▁Flu	-10.1894
▁Fach	-10.1909
öl	-10.1929
▁ex	-10.1936
▁rote	-10.1947
▁Brief	-10.1953
▁verd	-10.1954
star	-10.1957
▁Grundlage	-10.1957
▁weiterhi	-10.1958
wagen	-10.1964
▁Freunden	-10.1977
▁Laufe	-10.1991
▁Wei	-10.1991
▁bemerkt	-10.2002
▁Ball	-10.2013
▁Untersuchung	-10.2015
▁relativ	-10.2015
▁Schluss	-10.2015
bewegung	-10.2015
▁bemerkenswert	-10.2015
▁Verkehr	-10.2018
▁fiel	-10.203
▁geführt	-10.2032
▁erstaunliche	-10.2054
▁geh	-10.2058
▁Affen	-10.2065
schließen	-10.207
hö	-10.2073
▁Sekunde	-10.2074
▁Erklärung	-10.2078
▁Kalifornien	-10.2078
▁Statistik	-10.2078
▁interessiere	-10.2078
▁nationale	-10.2078
stadt	-10.2079
▁lebende	-10.208
steigt	-10.208
▁Brücke	-10.2082
▁Gefühle	-10.2084
▁passt	-10.2086
▁darf	-10.2093
pri	-10.2095
▁Lang	-10.2099
▁kümmer	-10.2108
▁Spiele	-10.2109
bereit	-10.211
▁Fest	-10.211
▁verwandel	-10.2111
fällig	-10.2114
▁Modelle	-10.2114
▁gross	-10.2129
▁Organisationen	-10.2133
▁hunderte	-10.2137
▁buchstäblich	-10.2142
▁Fünf	-10.2142
▁Vision	-10.2142
▁hauptsächlich	-10.2142
▁Bildschirm	-10.2144
▁gestalten	-10.2145
jahr	-10.2147
▁Maß	-10.215
▁baut	-10.2152
▁Gu	-10.2161
tsch	-10.2163
▁überraschend	-10.2167
by	-10.2183
▁drübe	-10.2185
unternehmen	-10.2186
▁Masse	-10.2186
▁kenne	-10.2205
▁Brust	-10.2206
▁Diskussion	-10.2206
▁lustig	-10.2206
▁bestimmen	-10.2206
▁alleine	-10.221
gebaut	-10.221
▁umgehen	-10.2215
ult	-10.2225
ade	-10.2225
▁dahin	-10.2235
mehr	-10.2239
sein	-10.2252
▁Mai	-10.226
lager	-10.2261
▁Är	-10.227
▁Identität	-10.227
▁Vögel	-10.227
▁Häuser	-10.227
▁Hintergrund	-10.2271
film	-10.2272
▁enorme	-10.2275
▁erfinde	-10.2275
Ver	-10.2276
endlich	-10.2283
▁Tanz	-10.2284
▁Gang	-10.2284
▁Mark	-10.2286
▁leer	-10.2287
▁passen	-10.2288
▁blau	-10.2291
fügen	-10.2295
hilfe	-10.2296
brach	-10.2315
▁basiert	-10.2317
▁Experten	-10.2323
▁Nie	-10.2334
projekt	-10.2335
▁Stufe	-10.2337
▁400	-10.2345
▁Pol	-10.2347
▁bat	-10.2357
▁Sorgen	-10.2365
▁Anti	-10.2365
kosystem	-10.2369
▁sozial	-10.237
ände	-10.2372
▁Ad	-10.2377
▁Nutzen	-10.2378
lapp	-10.238
▁versteckt	-10.2382
▁Zeichen	-10.2401
▁Fleisch	-10.2401
▁kulturelle	-10.2401
▁unsichtbar	-10.2401
▁High	-10.2401
töten	-10.2401
▁verteilt	-10.2402
▁Statt	-10.2402
▁Erfindung	-10.2403
▁Stamm	-10.2403
▁Hör	-10.2405
▁sorgen	-10.2406
▁20.	-10.2407
▁Kein	-10.2412
▁grosse	-10.2414
▁Sport	-10.2414
▁erhielt	-10.2416
▁Falls	-10.2417
pass	-10.2423
stände	-10.2433
▁sende	-10.2437
gegangen	-10.2445
▁verbracht	-10.2451
▁Rad	-10.2453
netz	-10.2462
▁effizient	-10.2464
▁begeistert	-10.2466
▁gewöhnlich	-10.2466
▁stolz	-10.2466
▁Karriere	-10.2466
▁Kontext	-10.2467
▁Handlung	-10.2471
▁vollkommen	-10.2473
▁beende	-10.2499
sichtlich	-10.2511
gekommen	-10.2515
wegs	-10.2521
förder	-10.2528
▁Militär	-10.2533
▁Themen	-10.2535
▁Absicht	-10.2541
▁Karten	-10.2564
ina	-10.2564
▁35	-10.2568
lon	-10.2571
▁Gras	-10.2593
▁Israel	-10.2599
▁chemische	-10.2599
▁Drittel	-10.2607
▁bezahlt	-10.2611
je	-10.2649
ippe	-10.2654
▁150	-10.2655
▁Kräfte	-10.2666
Ä	-10.2667
rang	-10.2668
▁We	-10.2669
▁hinweg	-10.2674
▁Physik	-10.2677
▁Folgende	-10.2678
▁fantastisch	-10.2681
holen	-10.2683
▁Sitz	-10.2683
risch	-10.2689
▁Norden	-10.2693
▁gering	-10.2695
▁entwickelte	-10.2698
▁erstellt	-10.2698
▁Schuld	-10.2699
Gesundheitswesen	-10.2706
hy	-10.271
▁Jobs	-10.2714
erei	-10.2716
▁Tasche	-10.2717
▁erkannte	-10.2722
zuführen	-10.2731
▁morgen	-10.2732
▁Dem	-10.2732
fläche	-10.2734
▁Interaktion	-10.2734
kultur	-10.2734
▁vorhanden	-10.2735
quelle	-10.2741
▁Medikament	-10.2745
▁Waffen	-10.2745
▁seltsam	-10.2767
geteilt	-10.2769
maßen	-10.2773
kennt	-10.2776
▁Strukturen	-10.2779
▁dritten	-10.2791
heben	-10.2793
▁Dienst	-10.2796
Mail	-10.28
produkt	-10.28
▁Facebook	-10.2802
▁Grafik	-10.2802
▁September	-10.2802
▁Tradition	-10.2802
▁hängt	-10.2802
▁Fahrzeug	-10.2803
▁Märkte	-10.2803
egel	-10.2804
▁schaute	-10.2807
▁Träume	-10.2809
ief	-10.2813
0.000	-10.2816
rseit	-10.2817
▁Moleküle	-10.2818
▁Nichts	-10.2819
▁bieten	-10.2827
Institut	-10.2838
upp	-10.2838
▁spezielle	-10.2839
iff	-10.2839
▁moralische	-10.2842
▁bitten	-10.2851
J	-10.2852
dauer	-10.2858
▁dran	-10.2859
steigen	-10.286
▁Zell	-10.2862
▁Meilen	-10.2864
desto	-10.2866
▁Geräte	-10.2869
▁Chirurg	-10.2871
▁Depression	-10.2871
▁beeinflussen	-10.2871
▁vermutlich	-10.2871
▁aktuelle	-10.2871
▁Pflege	-10.2871
▁Trick	-10.2872
mpel	-10.2875
▁entwerfen	-10.2875
▁Sein	-10.2877
▁scheinen	-10.2877
▁Folge	-10.2882
anlage	-10.2885
▁voran	-10.2889
▁besitzen	-10.2897
▁erzähle	-10.2898
▁reicht	-10.2901
▁Einheit	-10.2917
▁existieren	-10.2919
▁Wichtig	-10.2926
kte	-10.2933
▁Besonder	-10.294
▁Washington	-10.294
▁konzentriert	-10.294
▁Kohlenstoff	-10.294
▁gehabt	-10.294
▁Elemente	-10.294
▁teuer	-10.2941
▁for	-10.2946
▁halte	-10.2968
menge	-10.297
▁zieh	-10.2981
pflanzen	-10.2986
▁enorm	-10.3004
▁Wahrnehmung	-10.3009
▁Zweck	-10.3009
▁Änderung	-10.3009
ffentlichkeit	-10.301
▁rief	-10.301
üsse	-10.3014
weite	-10.3017
▁sichtbar	-10.3023
▁Wettbewerb	-10.3026
▁billig	-10.3027
ica	-10.3039
ake	-10.3042
▁Vielfa	-10.3044
▁organisiert	-10.3048
▁Probe	-10.3049
▁Universums	-10.3067
schrei	-10.3076
krebs	-10.3079
▁Kaffee	-10.3079
▁verantwortlich	-10.3079
▁unver	-10.3079
▁drehen	-10.3079
▁Unterhaltung	-10.308
▁Trans	-10.3081
▁Zeitalter	-10.3091
schi	-10.3093
▁Kindheit	-10.3094
▁Marke	-10.3119
▁Vorfahr	-10.3119
▁Kal	-10.3128
Ge	-10.3139
▁visuelle	-10.3146
▁Muskel	-10.3149
▁verdienen	-10.3149
▁Zauber	-10.3149
material	-10.315
▁Folie	-10.3151
▁stärker	-10.3151
▁lernt	-10.3167
▁Uni	-10.3172
▁Bereiche	-10.3175
▁Mode	-10.3189
▁1.	-10.3189
▁seines	-10.3193
▁Schw	-10.3197
▁Schrift	-10.3199
▁zukünftige	-10.3202
▁Jahrzehnte	-10.3214
anischen	-10.3219
▁getötet	-10.322
verhindern	-10.322
▁Küste	-10.3221
▁usw	-10.3222
▁gegenseitig	-10.3222
▁Beweis	-10.3232
50	-10.3235
▁Stimm	-10.3254
▁erfass	-10.3269
▁liefer	-10.3275
llt	-10.3277
▁Netzwerke	-10.328
▁innere	-10.3285
▁Fernsehen	-10.3288
▁Zivilisation	-10.3292
▁mindestens	-10.3292
▁Bruder	-10.3292
▁Hunger	-10.3292
▁half	-10.3292
▁Schlaf	-10.3292
▁Jungs	-10.3292
▁Pferd	-10.3293
▁Zimmer	-10.3293
▁Kurs	-10.3294
gewinn	-10.3296
▁winzig	-10.3297
▁Farm	-10.3299
▁ernsthaft	-10.3301
▁versorg	-10.3303
▁Schicht	-10.331
▁Erlebnis	-10.3311
▁wertvoll	-10.3312
ock	-10.3313
▁wartet	-10.3321
sätze	-10.3336
lag	-10.3338
schütz	-10.3339
▁genetische	-10.3345
daten	-10.3348
▁einsetzen	-10.336
▁dürfe	-10.3364
▁Eigentlich	-10.3364
▁letztendlich	-10.3364
▁Garten	-10.3377
▁unterrichte	-10.3389
masse	-10.3393
▁Paar	-10.3396
schaffen	-10.3402
lief	-10.341
iziert	-10.3414
▁Lern	-10.3415
▁träg	-10.3427
▁bedeuten	-10.3431
alisiert	-10.3436
▁Symbol	-10.3436
▁Stärke	-10.3436
▁anfing	-10.3436
▁verfolgen	-10.3436
▁Augenblick	-10.3439
▁Katze	-10.344
▁Einrichtung	-10.3442
▁Galaxien	-10.3446
▁dauert	-10.3448
▁Sprech	-10.3454
▁Sag	-10.3455
▁rechten	-10.3462
▁verwandelt	-10.3471
▁fern	-10.348
linie	-10.3484
▁Soldaten	-10.3491
modell	-10.3502
noch	-10.3504
▁Vogel	-10.3507
würdig	-10.3509
▁Lebewesen	-10.3509
gerichtet	-10.3509
▁Investition	-10.3509
▁Außen	-10.3509
▁Viertel	-10.351
▁Mission	-10.351
▁Feind	-10.3511
▁stammt	-10.3512
reif	-10.3513
schalten	-10.3513
ley	-10.3517
▁baute	-10.3523
▁Zug	-10.3529
▁Seele	-10.353
▁hoffent	-10.3539
▁gemeinsame	-10.3541
gramm	-10.3545
stimme	-10.3578
▁College	-10.3583
▁chinesische	-10.3583
▁Rahmen	-10.3583
▁geändert	-10.3583
führt	-10.3585
▁UN	-10.3588
▁Zuers	-10.3596
▁Wein	-10.3603
▁stelle	-10.3608
▁Maus	-10.3615
kat	-10.3617
▁künstliche	-10.3625
hafte	-10.3626
aufnahme	-10.3626
decken	-10.3637
▁Grenze	-10.3639
▁Ingenieur	-10.3648
▁Kapital	-10.3656
gebrochen	-10.3657
▁interagieren	-10.3657
▁45	-10.3658
krise	-10.3658
▁hergestellt	-10.3662
▁zurückzu	-10.3663
▁Gib	-10.3663
▁Kerl	-10.3663
muster	-10.3664
einhalb	-10.3668
▁oh	-10.367
▁Verb	-10.3676
gruppe	-10.3685
verbrauch	-10.3692
preis	-10.3699
zog	-10.3706
▁per	-10.3719
▁Höhle	-10.3731
▁Könnte	-10.3731
▁Richard	-10.3731
▁Zucker	-10.3731
▁kürzlich	-10.3732
▁197	-10.3732
▁vertraut	-10.3735
▁Denk	-10.3737
▁Arme	-10.3738
kä	-10.3738
▁lebendig	-10.3738
grad	-10.3753
▁Experimente	-10.3756
schaut	-10.3759
▁Minute	-10.3762
▁speziell	-10.3766
▁schlimmer	-10.3772
gh	-10.3772
ette	-10.3774
▁Erst	-10.3781
flo	-10.3788
lösen	-10.3789
▁Aufgaben	-10.3797
▁Lager	-10.3801
▁Geschlecht	-10.3806
▁beschäftige	-10.3806
▁Trend	-10.3807
▁tue	-10.3807
▁Null	-10.3807
energie	-10.3808
off	-10.3814
▁Hy	-10.3816
▁Heimat	-10.3816
▁Einstellung	-10.382
passen	-10.3837
▁brauche	-10.3839
schule	-10.3845
▁Gedicht	-10.3849
▁Dis	-10.3879
▁beantworten	-10.3882
▁diskutier	-10.3882
▁gäbe	-10.3882
▁irgendetw	-10.3882
▁Figur	-10.3882
▁zentrale	-10.3882
▁End	-10.3883
▁Mitarbeiter	-10.3885
▁Lektion	-10.3886
fordern	-10.3886
▁Tor	-10.3888
ual	-10.3889
▁schlagen	-10.3889
▁10.000	-10.3898
▁schwarz	-10.3905
▁verbrachte	-10.3905
▁verbinde	-10.3909
▁gehalten	-10.392
▁Ernährung	-10.3923
reise	-10.3924
vis	-10.3926
▁wahre	-10.3933
▁schließen	-10.3938
kehr	-10.3941
isierte	-10.395
▁Organismen	-10.3959
▁zugänglich	-10.3959
▁studiert	-10.3959
▁Konsequenz	-10.3959
▁Räume	-10.3959
▁Metall	-10.3959
▁Ausmaß	-10.3966
▁Einstein	-10.3971
regen	-10.3972
▁erster	-10.3973
▁Innere	-10.3978
ograph	-10.3981
wis	-10.3991
▁frage	-10.3993
bank	-10.3998
▁aufbauen	-10.3999
▁erhöht	-10.4006
tzt	-10.401
sorge	-10.4011
regel	-10.4025
reichen	-10.4027
frei	-10.4035
▁entworfen	-10.4035
▁Zuschauer	-10.4036
▁allerdings	-10.4036
▁Haufen	-10.4036
▁unterscheiden	-10.4036
▁vergleichen	-10.4036
▁Phase	-10.4037
▁berührt	-10.4039
▁21.	-10.4043
▁Paul	-10.4045
▁kostenlos	-10.4047
▁positive	-10.4048
▁Mut	-10.4051
▁Gleiche	-10.4052
▁miss	-10.4057
▁Weltraum	-10.406
▁Mc	-10.406
schäd	-10.4061
▁Aspekt	-10.4067
▁Gedanke	-10.4071
▁schlechter	-10.4075
▁Vo	-10.4092
tiere	-10.4093
▁Ober	-10.4096
▁fantastische	-10.4096
wärts	-10.4099
forschung	-10.4102
▁könnt	-10.4102
station	-10.4103
zieren	-10.4104
▁Metapher	-10.4113
▁Mexiko	-10.4113
▁genauer	-10.4114
▁Auswahl	-10.4115
▁Gegenteil	-10.4116
samkeit	-10.4118
▁Hunde	-10.412
ov	-10.4124
jenige	-10.4124
▁übrig	-10.4135
▁Ed	-10.4136
▁Restaurant	-10.4137
▁entstanden	-10.4142
▁mitten	-10.4151
com	-10.4179
schlagen	-10.4181
▁verbessert	-10.4181
▁Brasilien	-10.4191
▁Verhältnis	-10.4191
▁Diagramm	-10.4191
▁seh	-10.4194
▁Umstände	-10.4194
haltung	-10.4196
▁Zitat	-10.4197
zentrum	-10.4201
▁entdeckte	-10.4209
▁Architekten	-10.4211
▁erscheinen	-10.4217
▁Gebiete	-10.4228
▁Hinweis	-10.4237
gänge	-10.4237
sprache	-10.4244
gebildet	-10.4247
▁ernähr	-10.4258
pla	-10.4259
▁Dinosaurier	-10.427
▁Elektrizität	-10.427
▁öffnet	-10.427
▁Fels	-10.4271
▁Wohlstand	-10.4271
▁höhere	-10.4272
▁versteh	-10.4274
zimmer	-10.4274
▁besuche	-10.4282
▁Sprachen	-10.4285
▁zahlen	-10.4285
▁Besitz	-10.4296
▁fäng	-10.4303
mensch	-10.4314
▁Lib	-10.4315
▁Erkenntnis	-10.4318
▁Anteil	-10.4325
mutig	-10.4326
yl	-10.433
▁hol	-10.4332
▁Jeden	-10.4334
▁Stern	-10.4336
▁eingesetzt	-10.4344
kämpft	-10.4349
▁Kombination	-10.4349
▁Füße	-10.4349
▁trink	-10.4349
▁George	-10.435
▁Küche	-10.435
▁starten	-10.435
▁Kabel	-10.4356
typ	-10.4362
▁Klang	-10.4364
▁Eindruck	-10.4366
▁Individuen	-10.4383
▁Blog	-10.4395
▁beweis	-10.4398
▁Folgen	-10.4402
▁Grün	-10.4404
▁besondere	-10.4406
▁aufhör	-10.4416
▁Schreib	-10.4425
▁Wohn	-10.4429
▁Korruption	-10.4429
▁reduzieren	-10.4429
▁Wesentliche	-10.443
▁Steve	-10.443
▁gebraucht	-10.4432
oni	-10.4434
▁Mund	-10.4446
▁perfekte	-10.4446
▁Wohl	-10.4448
▁berühmte	-10.4452
▁Wetter	-10.4454
▁komplex	-10.4462
▁Bra	-10.4473
▁indische	-10.4475
▁Sicherheits	-10.4477
▁kompliziert	-10.4487
▁winzige	-10.4504
hu	-10.4509
minister	-10.451
versorgung	-10.451
▁Chemikalie	-10.451
▁jährlich	-10.451
▁verbreiten	-10.451
▁beinahe	-10.451
▁Schatten	-10.451
▁gelesen	-10.451
▁Spiegel	-10.4511
▁still	-10.4511
▁Details	-10.4514
▁programmier	-10.4517
▁Gericht	-10.452
▁Stand	-10.4521
▁Patent	-10.4521
▁Nachbarn	-10.4526
▁intelligente	-10.4529
▁Nano	-10.4535
arbeiter	-10.4535
park	-10.4539
▁Band	-10.4546
▁gesunde	-10.4551
▁brachten	-10.4554
ierende	-10.4555
▁Roh	-10.4563
viel	-10.4566
▁Vorteil	-10.4575
mar	-10.4584
erfolg	-10.459
▁the	-10.459
▁kontrolliert	-10.4591
▁radikal	-10.4591
▁finanzier	-10.4593
▁fördern	-10.4597
▁meist	-10.4599
▁steigen	-10.4599
geschlossen	-10.4608
▁emotionale	-10.4611
▁dauern	-10.4612
▁Verstand	-10.4612
▁beschlossen	-10.4615
▁Rechte	-10.4625
▁verschwinden	-10.4626
weile	-10.4637
weit	-10.4641
atte	-10.4642
▁Neues	-10.4649
▁Fä	-10.4651
wechsel	-10.4656
▁Argument	-10.4673
▁Darwin	-10.4673
getragen	-10.4674
Hey	-10.4677
▁Para	-10.4684
▁Führungs	-10.4692
stell	-10.4698
▁Freundin	-10.4703
rand	-10.4711
▁geschickt	-10.4716
▁alter	-10.4722
▁abhängig	-10.4725
▁Hat	-10.4734
tiker	-10.4741
▁Professor	-10.4756
▁Theater	-10.4756
▁Straf	-10.4756
▁Wirkung	-10.4758
▁Naja	-10.476
▁Abschluss	-10.4761
▁einiger	-10.4769
▁Dichte	-10.477
▁Times	-10.4771
▁glaubte	-10.4771
▁Bur	-10.4773
▁App	-10.4778
artig	-10.4781
▁Videos	-10.4782
zelle	-10.4784
▁setzte	-10.4795
▁Arbeiter	-10.4795
ächte	-10.4806
▁Methoden	-10.4813
val	-10.4814
▁trug	-10.4823
▁Generationen	-10.4828
▁Löcher	-10.4839
▁Prototyp	-10.4839
▁Schwierigkeit	-10.4839
▁Website	-10.4839
▁dramatisch	-10.4839
▁traurig	-10.4839
▁Klinik	-10.4839
▁Kurve	-10.4839
▁jung	-10.4841
▁begrenzt	-10.4842
gibt	-10.4843
▁teure	-10.4843
▁wunderschöne	-10.4848
▁eindeutig	-10.4855
▁Hallo	-10.486
systeme	-10.4861
▁Sei	-10.4863
sicher	-10.4865
▁dank	-10.4868
▁My	-10.4869
▁Stimmen	-10.4872
sprozess	-10.4874
▁feststell	-10.4878
geschlagen	-10.488
▁rede	-10.488
uell	-10.4882
▁private	-10.4884
▁biete	-10.4896
logisch	-10.4907
▁König	-10.4907
▁Rücken	-10.4912
▁Dach	-10.4921
▁Allgemein	-10.4923
▁Emotion	-10.4923
▁unterstützt	-10.4923
▁verdoppel	-10.4923
▁identifizier	-10.4923
▁wild	-10.4923
▁holen	-10.4924
▁Satelliten	-10.4924
▁ersetzen	-10.4925
▁Linien	-10.4925
▁üblich	-10.4926
▁Ausstellung	-10.4929
2-	-10.4935
ahl	-10.4936
▁tiefer	-10.4939
▁angesehen	-10.4965
▁hoffen	-10.4975
meister	-10.4991
organisation	-10.5008
▁Definition	-10.5008
▁Großmutter	-10.5008
▁repräsentier	-10.5008
▁Maßstab	-10.5008
▁Zwischen	-10.5008
▁Jemand	-10.5008
▁vergangen	-10.5009
▁bildet	-10.5009
▁stabil	-10.5009
▁Seine	-10.5009
▁Berechnung	-10.501
▁erschein	-10.5014
▁Juli	-10.5016
▁plan	-10.5016
▁Annahme	-10.5022
▁Autor	-10.5024
farbe	-10.5025
▁Bedürfnisse	-10.5025
▁auseinander	-10.5028
▁physische	-10.5031
▁Hinsicht	-10.5031
merken	-10.5035
gesehen	-10.5048
▁Programmier	-10.5053
▁Normal	-10.5059
öhn	-10.5059
wachsen	-10.5059
▁Vier	-10.5065
▁grundlegend	-10.5066
▁Geheimnis	-10.5087
halte	-10.5089
▁Charles	-10.5093
▁automatisch	-10.5093
▁Magnet	-10.5094
qualität	-10.5094
▁Deutschland	-10.5094
▁wes	-10.5096
▁Schließ	-10.5099
q	-10.5101
▁zunehmend	-10.5101
deckt	-10.5109
▁Port	-10.5109
▁Erste	-10.5111
uar	-10.5115
▁meiste	-10.5116
▁teilt	-10.5126
▁Planet	-10.5147
▁fehlt	-10.5158
▁Star	-10.5158
graben	-10.5165
richtung	-10.5167
▁Signal	-10.5171
▁Online	-10.518
▁Interview	-10.518
▁Potential	-10.518
▁Rätsel	-10.518
▁beinhaltet	-10.518
▁gewählt	-10.518
▁Solar	-10.518
▁Pilz	-10.518
▁Viren	-10.5182
▁Staats	-10.5182
▁Milch	-10.5184
▁unendlich	-10.5184
▁Szene	-10.5189
▁ließen	-10.5195
▁Sam	-10.5196
▁Rechen	-10.5201
▁Spur	-10.5208
▁soviel	-10.5214
▁vorzu	-10.5215
▁bestand	-10.5218
▁spielte	-10.522
▁zählen	-10.5226
brenn	-10.5229
▁spr	-10.5236
▁schlimm	-10.5236
macht	-10.5246
Bahn	-10.5251
▁derselbe	-10.5253
▁Wellen	-10.5262
kräfte	-10.5266
▁weibliche	-10.5267
erkennung	-10.5267
▁Winter	-10.5267
▁klug	-10.5267
▁99	-10.5269
▁Fliegen	-10.5273
▁Geh	-10.5275
▁Tonnen	-10.5277
▁11.	-10.5288
▁hell	-10.5297
▁fürchte	-10.53
▁Anruf	-10.5302
▁Gesichter	-10.5302
äum	-10.5303
▁Dimension	-10.5307
▁qu	-10.5309
▁wundervolle	-10.5311
▁Teilchen	-10.5343
▁Ruf	-10.5347
▁fähig	-10.5349
gefühl	-10.5353
▁vorne	-10.5353
geworfen	-10.5354
▁Australien	-10.5354
▁England	-10.5354
▁Erwartung	-10.5354
▁Existenz	-10.5354
▁Führer	-10.5354
▁Laptop	-10.5354
▁Twitter	-10.5354
▁grundsätzlich	-10.5354
▁tötet	-10.5354
▁Echtzeit	-10.5354
▁Köpfe	-10.5354
▁heisst	-10.5354
streit	-10.5357
▁Hotel	-10.536
züge	-10.5371
uellen	-10.5384
▁betreib	-10.5387
▁formen	-10.5388
▁Gehen	-10.5394
merk	-10.5401
finden	-10.5401
▁positiv	-10.5404
▁gewissen	-10.5415
geber	-10.5422
Show	-10.5424
▁meinte	-10.5427
punkte	-10.5431
▁Katastrophe	-10.5443
▁Nigeria	-10.5443
▁Plattform	-10.5443
▁Ägypte	-10.5443
▁ruhig	-10.5443
▁Letzte	-10.5443
▁Geschenk	-10.5443
▁spannend	-10.5443
▁sparen	-10.5443
▁reichen	-10.5449
technik	-10.5449
▁Angriff	-10.545
▁veränderte	-10.5453
▁zusammenarbeite	-10.5455
▁Molekül	-10.5456
press	-10.546
▁Sprach	-10.548
▁Schimpansen	-10.5481
dreht	-10.5487
istisch	-10.5488
heil	-10.5498
fertig	-10.5506
▁entstand	-10.5512
hü	-10.5522
▁Pat	-10.5532
spezifische	-10.5532
▁Komponente	-10.5532
▁gestorben	-10.5532
▁besagt	-10.5532
▁klassische	-10.5532
▁singen	-10.5534
▁gelöst	-10.5536
▁rück	-10.554
▁herein	-10.5545
▁Helden	-10.5547
▁Sy	-10.5548
spanne	-10.555
▁Fra	-10.5551
stoßen	-10.5554
▁gehören	-10.5557
▁Instrument	-10.5558
▁behalten	-10.5568
▁anwende	-10.5568
onne	-10.557
van	-10.557
▁lä	-10.5576
gegen	-10.5578
▁schätzen	-10.5588
▁aufgebaut	-10.5595
▁Blau	-10.5597
▁grau	-10.5621
Epidemie	-10.5622
▁Kreuz	-10.5622
▁Wurzel	-10.5622
▁fasziniert	-10.5622
▁virtuelle	-10.5622
▁Kongress	-10.5622
▁SMS	-10.5622
▁School	-10.5622
▁Zahn	-10.5622
▁Kenia	-10.5623
▁Transport	-10.5623
▁entgegen	-10.5625
▁darstellen	-10.5625
▁gründete	-10.5626
eign	-10.5629
schneiden	-10.5634
kette	-10.5636
▁Brit	-10.5638
fä	-10.5641
▁Erzähl	-10.5641
träge	-10.5642
▁75	-10.5646
vier	-10.5647
bruch	-10.5649
Tech	-10.5649
▁Fehl	-10.5652
▁wenigsten	-10.5662
träger	-10.5668
▁seltsame	-10.5669
wick	-10.567
▁Seide	-10.5687
▁For	-10.5689
leuchten	-10.5695
▁Blumen	-10.5697
▁Galaxie	-10.57
▁Mag	-10.571
▁Überraschung	-10.5713
theorie	-10.5713
▁Entfernung	-10.5713
▁Toilette	-10.5713
holfen	-10.5713
▁verdient	-10.5713
▁Aussage	-10.5713
▁vermitteln	-10.5714
▁Bedrohung	-10.5714
▁komisch	-10.5719
▁Betrieb	-10.5723
▁Sub	-10.5723
melde	-10.5723
▁Kilo	-10.5726
▁Ereignisse	-10.5738
▁Tiefe	-10.574
▁Mil	-10.5749
dacht	-10.5765
▁nieder	-10.5772
▁Risik	-10.578
▁Pri	-10.5781
▁Cent	-10.5781
oberfläche	-10.5805
▁akzeptieren	-10.5805
▁zerstören	-10.5805
▁gegründet	-10.5805
streben	-10.5805
▁Schnee	-10.5806
▁Stammzellen	-10.5806
▁Letzt	-10.5808
▁Dia	-10.5812
krankheit	-10.5813
▁2008	-10.5814
▁Unfall	-10.5815
▁Rechts	-10.5815
▁Südafrika	-10.5817
▁obere	-10.5822
wärme	-10.5823
▁verstehe	-10.5829
▁Beweise	-10.583
▁Che	-10.5836
▁Impfstoff	-10.5838
▁Bericht	-10.5842
▁Air	-10.5844
▁Samen	-10.5851
▁fließ	-10.5853
▁äußer	-10.5858
▁Kol	-10.5861
▁entfern	-10.5876
▁wach	-10.5876
▁beschloss	-10.5878
▁dumm	-10.5894
▁wora	-10.5896
▁Element	-10.5897
▁Rezept	-10.5897
▁Wälder	-10.5897
▁kreieren	-10.5897
▁Gesamt	-10.5897
▁Webseite	-10.5898
▁Moral	-10.5904
▁Schwer	-10.5905
▁Ausnahme	-10.5906
gesellschaftlich	-10.5909
▁Weltkrieg	-10.5923
▁erkennt	-10.5926
▁22	-10.5927
▁Schwarze	-10.5928
▁hierher	-10.5942
etze	-10.5942
▁anschaut	-10.5948
▁Frei	-10.5961
krank	-10.5963
kleid	-10.5972
▁Erwachsene	-10.5978
▁Zer	-10.5978
konom	-10.5983
hindert	-10.5987
▁Ozeane	-10.5988
▁umgeben	-10.5988
▁gemein	-10.599
▁Gemälde	-10.5991
▁Irgendw	-10.5991
▁studieren	-10.5991
▁Darstellung	-10.5991
▁Grippe	-10.5991
▁Billionen	-10.5991
▁Acht	-10.5991
▁Anreiz	-10.5991
▁Blase	-10.5991
▁Bürgermeister	-10.5992
▁Sechs	-10.5992
▁gebete	-10.5992
fluss	-10.5993
▁Pfund	-10.5994
▁23	-10.5999
probieren	-10.6
▁Signale	-10.6
▁kriegen	-10.6001
feuer	-10.6002
▁Schlag	-10.6007
▁Gar	-10.6014
▁hinten	-10.6024
▁Bre	-10.6042
▁Haushalt	-10.6048
▁Pre	-10.6053
tüm	-10.6083
orientiert	-10.6085
▁Francisco	-10.6085
▁britische	-10.6085
▁definieren	-10.6085
▁quasi	-10.6085
▁Doktor	-10.6085
▁außen	-10.6085
▁Chemie	-10.6085
▁schlau	-10.6085
▁Prä	-10.6086
▁vermute	-10.6092
▁Ohne	-10.6097
▁Aktion	-10.61
▁erkannt	-10.6102
▁überprüf	-10.6105
▁Laden	-10.6121
rauch	-10.6122
▁besitz	-10.6128
tun	-10.613
Pro	-10.6137
▁weh	-10.6142
klasse	-10.6149
▁Schritte	-10.6161
▁kosten	-10.6167
▁Damen	-10.6168
grenze	-10.6169
größe	-10.6179
vermögen	-10.618
▁Gedächtnis	-10.618
▁NASA	-10.618
▁Teufel	-10.618
▁doppelt	-10.618
▁momentan	-10.618
▁Verbesserung	-10.618
▁vermeide	-10.618
▁Dunkel	-10.6181
schlüsse	-10.6181
liz	-10.6181
▁Wild	-10.6181
▁Stahl	-10.6183
▁Mehrheit	-10.6185
▁Umfeld	-10.6186
beziehen	-10.6193
▁Reis	-10.6205
▁Fu	-10.621
▁schwimmen	-10.6215
▁Erinner	-10.6216
cy	-10.6217
spieler	-10.6225
▁Hai	-10.6229
▁leiden	-10.6229
▁Ei	-10.6231
▁Gesichts	-10.6236
▁Proteine	-10.6248
▁schwieriger	-10.6248
▁schlimmste	-10.6258
schütte	-10.6267
▁Hä	-10.627
▁Bibliothek	-10.6277
▁Harvard	-10.6277
▁Kleidung	-10.6277
▁Persönlichkeit	-10.6277
▁beeindruckend	-10.6277
▁hieß	-10.6277
▁unbekannt	-10.6277
▁ungewöhnlich	-10.6277
▁Privat	-10.6277
▁Alternative	-10.6277
▁Ursache	-10.6277
▁196	-10.6278
▁morgens	-10.6281
▁bemerken	-10.6285
▁Schlange	-10.6288
our	-10.6289
▁Magie	-10.6325
gesellschaft	-10.6332
▁Fortschritte	-10.635
▁Rob	-10.6367
▁Kredit	-10.6374
ländische	-10.6374
▁MIT	-10.6374
▁definiert	-10.6374
▁erweitern	-10.6374
zykl	-10.6374
▁blind	-10.6374
▁demokratische	-10.6374
schlug	-10.6375
schloss	-10.6378
▁Mikroben	-10.6378
▁beliebt	-10.638
▁Voll	-10.6383
▁Witz	-10.6384
▁Box	-10.6384
▁Ingenieure	-10.6385
▁Fla	-10.6387
pruch	-10.6392
▁Start	-10.6399
▁biologisch	-10.6414
ity	-10.6419
hielt	-10.642
▁Gleichung	-10.6426
▁2.	-10.6433
▁Koch	-10.6436
schreiben	-10.6438
▁Schnitt	-10.6439
▁Prozesse	-10.644
▁gespielt	-10.6444
▁Wohnung	-10.6452
▁solcher	-10.6452
▁Pf	-10.6456
▁Berge	-10.6464
hob	-10.6466
gesammelt	-10.6472
politik	-10.6472
sammlung	-10.6472
▁Batterie	-10.6472
▁Kanada	-10.6472
▁analysier	-10.6472
▁langfristig	-10.6472
▁besorgt	-10.6472
▁empfinde	-10.6472
▁Open	-10.6473
stamm	-10.6474
▁sowas	-10.6474
wissenschaftler	-10.6475
▁194	-10.6476
▁vertrauen	-10.6476
▁Knie	-10.6477
▁wechseln	-10.6478
▁Weiter	-10.6479
klick	-10.6479
▁Journalist	-10.6484
▁liebte	-10.6498
▁interessanter	-10.6509
▁wieviel	-10.6516
▁stet	-10.6518
▁finanzielle	-10.6519
▁Armee	-10.6557
▁dauerte	-10.6559
▁Ah	-10.656
▁aufnehmen	-10.6561
▁Debatte	-10.6571
▁Teenager	-10.6571
▁Therapie	-10.6571
▁World	-10.6571
▁überlebt	-10.6571
▁vergrößer	-10.6571
▁Zähne	-10.6571
▁knapp	-10.6571
▁überwinde	-10.6572
▁kaufte	-10.6573
▁höre	-10.6575
hänge	-10.6579
▁Th	-10.6594
▁Mama	-10.6597
▁ergibt	-10.6599
▁Tim	-10.6603
▁Miss	-10.6606
gemacht	-10.6606
▁Nase	-10.6617
▁Tee	-10.6641
gerufen	-10.6644
prüf	-10.6645
Achse	-10.665
verhalten	-10.6664
▁beteiligt	-10.6671
▁industrielle	-10.6671
straße	-10.6671
▁Nachbarschaft	-10.6672
▁Asien	-10.6672
▁Terrorismus	-10.6672
▁Teilnehmer	-10.6674
▁aktivier	-10.6676
▁ansieh	-10.6676
▁hasse	-10.668
▁dicht	-10.6681
gründe	-10.6687
▁Gleich	-10.6694
▁Protein	-10.6701
▁Wow	-10.671
▁religiöse	-10.6724
zwischen	-10.6734
▁zusammenzu	-10.6738
▁verhalten	-10.6746
ati	-10.6754
bücher	-10.6755
fahrer	-10.6763
▁Frank	-10.6772
▁Infektion	-10.6772
▁langweilig	-10.6772
▁verfolgt	-10.6772
▁GPS	-10.6772
▁Werbung	-10.6772
▁Dutzend	-10.6772
▁Partei	-10.6772
▁infiziert	-10.6772
▁Ehre	-10.6772
▁Konsum	-10.6772
▁ledig	-10.6772
▁Kirche	-10.6772
▁darunter	-10.6773
▁Stoff	-10.6775
▁Wände	-10.6775
▁drauf	-10.6776
▁Wagen	-10.6778
fiel	-10.678
fordert	-10.6783
▁Klar	-10.6788
▁Tour	-10.679
▁Babys	-10.6791
effekt	-10.6793
▁Zufall	-10.6797
▁stattfinde	-10.6804
▁schickte	-10.6811
führer	-10.6812
hof	-10.6814
ius	-10.6817
▁Ach	-10.6826
gruppen	-10.6832
▁Ti	-10.6851
▁Flo	-10.6852
begriff	-10.6855
einig	-10.6861
üchtig	-10.6873
▁Buchstaben	-10.6874
▁Gerechtigkeit	-10.6874
▁Islam	-10.6874
▁Schicksal	-10.6874
▁gelebt	-10.6874
▁jünger	-10.6874
▁reduziert	-10.6874
▁froh	-10.6874
▁Fakten	-10.6874
▁Russland	-10.6875
▁gefällt	-10.6881
▁Innen	-10.6883
▁dick	-10.6886
▁anstelle	-10.6886
ice	-10.6893
▁saubere	-10.6911
illi	-10.6913
▁langsamer	-10.6918
pot	-10.6918
füllen	-10.6929
lla	-10.6932
▁stehe	-10.6936
ographie	-10.6956
▁vierte	-10.6977
▁Offen	-10.6977
wörtlich	-10.6977
▁Kampagne	-10.6977
▁Spektrum	-10.6977
▁iPhone	-10.6977
▁Gegenwart	-10.6977
▁jeweil	-10.6977
▁klinische	-10.6977
▁Erkrankung	-10.6977
▁technologische	-10.6977
▁Chaos	-10.6978
▁historische	-10.6978
▁2010	-10.698
▁Spielzeug	-10.698
▁Ohren	-10.6982
blase	-10.6988
rlei	-10.699
▁Euro	-10.6992
▁Einfach	-10.6996
▁zusätzliche	-10.7004
ologische	-10.7004
▁bemerkte	-10.7005
▁heirate	-10.7015
▁Student	-10.7028
▁günstig	-10.705
▁geschlossen	-10.7056
▁Mill	-10.7056
▁fehl	-10.7058
qui	-10.7065
fliegen	-10.7076
▁Psych	-10.708
▁Michael	-10.7081
▁Pakistan	-10.7081
▁investiert	-10.7081
förmig	-10.7081
▁reagiert	-10.7081
▁Überzeugung	-10.7081
▁dünn	-10.7081
▁Kolonie	-10.7081
▁Sicher	-10.7081
▁Schaden	-10.7082
ordnung	-10.7083
ebene	-10.7083
▁lebe	-10.7085
▁Atem	-10.7085
DH	-10.7096
▁verließ	-10.7099
▁Schulter	-10.7099
geführt	-10.7115
bilder	-10.7134
▁kümmert	-10.7137
▁Aspekte	-10.7144
▁Angele	-10.7146
▁redet	-10.7166
ohl	-10.7171
▁individuelle	-10.7171
▁Tom	-10.7184
lösung	-10.7186
▁Literatur	-10.7186
▁Training	-10.7186
▁Wechsel	-10.7186
▁kollektive	-10.7186
▁wünsche	-10.7186
▁startete	-10.7186
▁wiederholt	-10.7186
▁flach	-10.7186
▁mathematische	-10.7188
bezogen	-10.7189
▁Alltag	-10.719
▁Bas	-10.719
▁Prinzipien	-10.7191
▁Roman	-10.7191
▁hinunter	-10.7191
▁Sichtweise	-10.7195
▁Nutzung	-10.72
▁100.000	-10.7202
▁hinauf	-10.7204
▁Erwachsenen	-10.7206
schiff	-10.7209
▁springen	-10.7213
▁antwortete	-10.7213
▁ausgebildet	-10.722
▁bedenk	-10.7221
▁Sequenz	-10.7239
av	-10.7257
▁Instrumente	-10.7261
nommen	-10.7265
insel	-10.7273
▁Gemein	-10.7274
seitig	-10.7281
geordnet	-10.7291
ografie	-10.7293
▁Beobachtung	-10.7293
▁Symmetrie	-10.7293
▁Teleskop	-10.7293
▁elektronische	-10.7293
▁illegal	-10.7293
▁innovativ	-10.7293
▁verursachen	-10.7293
▁ländliche	-10.7293
▁Meister	-10.7293
geleitet	-10.7293
▁intensiv	-10.7293
spiegel	-10.7293
▁dunkel	-10.7293
▁produktiv	-10.7293
▁Frankreich	-10.7294
▁James	-10.7294
▁Pollen	-10.7295
▁Verwendung	-10.7295
ivität	-10.7295
▁Sonnensystem	-10.7296
▁Schlacht	-10.7296
▁reisen	-10.73
▁dahinter	-10.73
▁Wann	-10.7302
schreibt	-10.7309
▁Hunderte	-10.7316
▁durchführen	-10.7321
basierte	-10.7323
geld	-10.7329
▁Eier	-10.7331
▁greif	-10.7331
▁beizu	-10.7334
guck	-10.7336
▁Eigen	-10.7345
kehren	-10.7362
liebe	-10.7384
▁wunderschön	-10.7389
▁Dritte	-10.739
dimension	-10.74
▁Verbreitung	-10.74
▁physikalische	-10.74
fütter	-10.74
▁verschwunden	-10.74
▁Zweifel	-10.74
▁durfte	-10.74
gewiesen	-10.74
▁Schweden	-10.74
▁Ursprung	-10.7401
▁Schuhe	-10.7402
▁verglich	-10.7402
▁27	-10.7408
▁Afrikaner	-10.7411
▁Such	-10.7413
▁Decke	-10.7415
▁Unterricht	-10.7415
▁Analyse	-10.7416
▁berichten	-10.7425
werbe	-10.7426
▁19.	-10.7433
▁Pass	-10.7433
▁senk	-10.7438
▁beispiels	-10.7442
▁Fernseh	-10.7458
▁Elefanten	-10.7463
länder	-10.7471
▁komplizierte	-10.7472
▁Flasche	-10.7475
politisch	-10.7486
▁zählt	-10.7487
▁Abfall	-10.7502
bleib	-10.7504
▁Zehn	-10.7509
▁Belohnung	-10.7509
▁Diagnose	-10.7509
▁Nächste	-10.7509
gesteuert	-10.7509
▁steuern	-10.7509
▁Medium	-10.7509
▁erweitert	-10.7509
▁stieg	-10.7509
▁Stress	-10.7509
▁englische	-10.7509
▁Fahrrad	-10.751
▁sink	-10.7514
▁leichter	-10.7517
füll	-10.7519
▁bezeichnen	-10.7523
zuhalten	-10.7524
▁Halt	-10.7527
sichtig	-10.753
▁gewann	-10.7533
flogen	-10.7557
▁erhöh	-10.7561
▁Vorteile	-10.7574
▁beschrieben	-10.7596
▁1000	-10.7601
▁treiben	-10.7605
treffen	-10.7607
gelöst	-10.7615
▁Inspiration	-10.7619
▁Säugetier	-10.7619
▁sammelt	-10.7619
▁Stuhl	-10.7619
▁irgendjemand	-10.7619
▁Zerstörung	-10.7619
▁Titan	-10.7619
▁berichtet	-10.7619
▁Studierende	-10.7619
▁Thom	-10.762
▁darstellt	-10.762
Talk	-10.7621
haben	-10.7621
▁Neben	-10.7624
▁21	-10.7627
▁Rock	-10.7629
▁Wolken	-10.7642
leitung	-10.7644
▁verknüpf	-10.7653
post	-10.7679
lacht	-10.7682
▁erziel	-10.7682
prozess	-10.7684
kopf	-10.7686
▁Chi	-10.769
ance	-10.7693
ball	-10.7716
kunft	-10.7726
▁Heim	-10.7729
▁Mobiltelefon	-10.773
▁Nachhaltigkeit	-10.773
▁Pinguin	-10.773
▁Zeichnung	-10.773
▁dynamisch	-10.773
▁erwähne	-10.773
▁organisieren	-10.773
▁Übung	-10.773
behörde	-10.773
▁Delfin	-10.773
▁Presse	-10.773
▁Street	-10.773
▁Schwimm	-10.773
▁unmittelbar	-10.773
kündig	-10.773
▁scheinbar	-10.773
▁erneut	-10.773
▁lehre	-10.7731
▁Mitglieder	-10.7732
▁Stock	-10.7734
▁eröffnet	-10.774
osa	-10.7743
bedeutend	-10.7745
treiben	-10.7746
bogen	-10.7751
▁europäische	-10.7755
▁Par	-10.7756
▁Aufbau	-10.7759
▁breite	-10.7765
▁Magazin	-10.7767
▁Chip	-10.7769
▁Leg	-10.7769
▁äußerst	-10.7777
▁verstand	-10.7804
low	-10.7819
▁Gottes	-10.7834
schirm	-10.784
sterblichkeit	-10.7841
▁Wirklich	-10.7842
▁Science	-10.7842
▁zufrieden	-10.7842
bezüglich	-10.7842
▁Potenzial	-10.7842
▁Vorhersage	-10.7842
▁erforscht	-10.7842
▁gekauft	-10.7842
▁getrennt	-10.7842
▁städtische	-10.7842
▁nachgedacht	-10.7842
▁Marketing	-10.7842
fressen	-10.7843
frau	-10.7843
▁erschien	-10.7843
▁etc	-10.7843
kapital	-10.7844
kurs	-10.7845
▁Flügel	-10.7845
▁Ruhe	-10.7847
▁Neuigkeit	-10.7847
▁schlafen	-10.7849
ju	-10.785
▁Mauer	-10.785
able	-10.7856
▁Chef	-10.7857
liste	-10.7858
▁schließ	-10.7863
▁Nest	-10.7867
▁bekomme	-10.7875
appen	-10.7875
▁begreif	-10.7883
trick	-10.7884
ita	-10.7904
▁Werbe	-10.792
▁seid	-10.7925
haut	-10.7933
▁Richtig	-10.7937
bring	-10.7937
glieder	-10.7955
ouTube	-10.7956
▁Blätter	-10.7956
▁betroffen	-10.7956
▁Geschmack	-10.7956
▁Geruch	-10.7956
▁Herstellung	-10.7958
▁entschloss	-10.7959
zone	-10.7959
▁Nadel	-10.796
System	-10.796
geboren	-10.7961
▁hängen	-10.7962
wissen	-10.7964
▁schuf	-10.7964
▁frisch	-10.7964
▁Serie	-10.7966
▁1.000	-10.7966
▁bezeichnet	-10.7971
,5	-10.7973
▁Bord	-10.7979
reicht	-10.798
▁schwach	-10.7989
einheit	-10.7993
▁Kopie	-10.7998
probe	-10.8005
▁Kindes	-10.8027
▁Fast	-10.8044
▁Besuch	-10.8049
handlung	-10.8064
stimmung	-10.8071
▁Behinderung	-10.8071
▁Option	-10.8071
▁Röntgen	-10.8071
▁Treffen	-10.8071
▁University	-10.8071
▁kognitive	-10.8071
▁dreidimensional	-10.8071
▁vorbereitet	-10.8071
▁Cyber	-10.8071
▁markier	-10.8071
▁reparier	-10.8071
▁Mangel	-10.8071
▁Blind	-10.8071
▁bedroht	-10.8073
▁erfüllt	-10.8073
spitze	-10.8075
▁Ballon	-10.8077
▁Verfahren	-10.8085
strecke	-10.8087
▁Bevor	-10.8098
▁genetisch	-10.81
▁Fett	-10.8101
flug	-10.8104
zuschauen	-10.8134
sonst	-10.8141
ruhe	-10.8146
▁irgendein	-10.8149
schied	-10.815
▁Gal	-10.8151
▁berühmt	-10.8154
▁Kiste	-10.8154
▁ausgesetzt	-10.8157
orker	-10.8177
rechnet	-10.8179
▁fotografiert	-10.8187
▁konstruier	-10.8187
▁wüsste	-10.8187
▁Mäuse	-10.8187
störung	-10.8187
▁Zentral	-10.8188
▁super	-10.8188
▁Multi	-10.8188
▁gewaltige	-10.8188
▁Riesen	-10.8188
▁teilweise	-10.8189
▁Wäre	-10.8191
▁bewirken	-10.8193
▁Papa	-10.8194
Dollar	-10.8197
▁Verbrechen	-10.8199
▁600	-10.82
▁hinterlasse	-10.82
▁heilen	-10.8201
▁Angestellte	-10.8202
▁65	-10.8202
▁enthalten	-10.8203
▁Mont	-10.8212
▁Ski	-10.8219
position	-10.822
▁willst	-10.8236
▁wundervoll	-10.8248
▁umher	-10.8258
▁nachts	-10.827
technisch	-10.8286
▁ausprobier	-10.8294
▁geringer	-10.8295
hme	-10.83
geschwindigkeit	-10.8305
▁Chicago	-10.8305
▁Lebenserwartung	-10.8305
▁Population	-10.8305
▁kaputt	-10.8305
▁Kommentar	-10.8305
▁freue	-10.8305
▁regelmäßig	-10.8305
▁Sonnenlicht	-10.8305
▁Gebrauch	-10.8305
▁Dienstleistung	-10.8306
gewalt	-10.8306
▁Kugel	-10.831
▁Anführer	-10.831
gesamt	-10.8316
▁Immer	-10.8317
▁endet	-10.8319
▁Last	-10.832
▁Summe	-10.832
ähnliche	-10.8321
▁heutige	-10.8322
▁wachsende	-10.8324
▁Stift	-10.8326
▁Einzelne	-10.8331
waffe	-10.8333
▁Toten	-10.8337
▁Schweine	-10.8343
▁bewerte	-10.8345
▁Schaf	-10.8346
▁Gel	-10.8348
▁Geistes	-10.8356
▁gefangen	-10.836
wunde	-10.836
▁integriert	-10.8361
zugeh	-10.8363
kamera	-10.8366
aussage	-10.8371
kinder	-10.8379
▁flog	-10.8381
▁Kap	-10.8384
▁prä	-10.8393
▁verletzt	-10.8402
losigkeit	-10.8411
▁erstmal	-10.8417
▁angenommen	-10.8422
▁Widerstand	-10.8424
▁Asteroid	-10.8424
▁exponentiell	-10.8424
▁tödlich	-10.8424
▁unglücklich	-10.8424
▁wütend	-10.8424
▁Obama	-10.8424
geschäft	-10.8424
▁Bestandteil	-10.8424
verschmutz	-10.8424
▁Polio	-10.8425
▁Lücke	-10.8426
▁wiederholen	-10.8435
▁beschränk	-10.8435
▁Verstehen	-10.8436
neu	-10.8437
▁sau	-10.8445
▁lenk	-10.8446
▁Lä	-10.845
▁erwachsen	-10.8457
ison	-10.8457
▁antworte	-10.8461
▁Mathematiker	-10.8463
gebung	-10.8471
▁Norm	-10.8477
jo	-10.8485
▁Bauch	-10.8494
bewusst	-10.8498
▁Erzählung	-10.8509
Stiftung	-10.8523
stärke	-10.8543
genügend	-10.8544
▁Budget	-10.8544
▁Extrem	-10.8544
▁Gletscher	-10.8544
▁Italien	-10.8544
▁Stämme	-10.8544
▁gestartet	-10.8544
▁Ängste	-10.8544
▁Fokus	-10.8544
▁Impuls	-10.8544
▁arabische	-10.8544
▁Futter	-10.8544
▁Störung	-10.8544
▁Krankenhäuser	-10.8544
▁entsprechend	-10.8545
▁gestaltet	-10.8545
Drohne	-10.8553
▁Dreh	-10.8554
▁bedeckt	-10.8555
▁Reg	-10.8561
▁letzter	-10.8563
▁Laut	-10.8563
▁basierend	-10.857
schön	-10.8577
gelenk	-10.8606
▁Pra	-10.8625
▁Ford	-10.8652
▁Terror	-10.8664
verkehr	-10.8664
▁Angelegenheit	-10.8666
▁Atlant	-10.8666
▁Kategorie	-10.8666
▁Respekt	-10.8666
▁Spannung	-10.8666
▁beliebig	-10.8666
▁profitier	-10.8666
▁verdammt	-10.8666
stoppen	-10.8666
▁Animation	-10.8666
▁BIP	-10.8666
▁DNS	-10.8666
▁älteste	-10.8666
schmerz	-10.8666
▁Rettung	-10.8666
▁Apfel	-10.8666
▁Koralle	-10.8666
figur	-10.8666
▁Za	-10.8667
▁Schauspieler	-10.8667
▁hinzufügen	-10.8667
▁Krieges	-10.8673
▁Übergang	-10.8675
geschnitten	-10.8698
schritt	-10.8699
▁Mär	-10.8701
leute	-10.8704
liebt	-10.8706
▁anzusehen	-10.871
▁32	-10.8714
▁modern	-10.8718
Kreislauf	-10.8722
▁insbesonder	-10.8729
▁gelangt	-10.8734
bul	-10.8738
▁lokal	-10.8741
▁Live	-10.8753
▁Ereignis	-10.8756
▁ausdrück	-10.8777
▁Antibiotika	-10.879
▁Dörfer	-10.879
▁Kapitel	-10.879
▁gerettet	-10.879
▁Logik	-10.879
▁Blatt	-10.879
▁Sektor	-10.879
▁löst	-10.879
grafische	-10.879
▁taucht	-10.879
▁ewig	-10.879
▁Sterbe	-10.8793
schossen	-10.8794
▁2009	-10.8799
▁Darüber	-10.8804
▁Verlauf	-10.8804
▁Anlage	-10.8806
hundert	-10.8809
▁Fang	-10.8813
▁Biologe	-10.8822
ax	-10.8823
▁irgend	-10.8827
trug	-10.883
▁Fried	-10.8831
▁Pflanze	-10.8844
sfähigkeit	-10.8846
Mi	-10.8851
▁Hab	-10.8856
▁sexuelle	-10.8856
▁ergeben	-10.8866
▁wirtschaftlich	-10.8869
▁herauszu	-10.8876
▁riesig	-10.8904
rechnen	-10.8907
tschaftswachstum	-10.891
▁Dialog	-10.8915
▁Gemüse	-10.8915
▁Studio	-10.8915
▁Higgs	-10.8915
▁Geburtstag	-10.8915
▁Boston	-10.8915
▁Enkel	-10.8915
▁Funk	-10.8915
▁böse	-10.8916
▁Adam	-10.8918
produktion	-10.8918
▁betrieben	-10.892
▁gründen	-10.892
gestalt	-10.8921
▁zwang	-10.8925
▁vorsichtig	-10.893
▁Dame	-10.8934
gewandt	-10.8946
▁inspirieren	-10.8957
schwäch	-10.896
merkt	-10.896
▁Stil	-10.8971
▁gewisser	-10.8982
▁Physiker	-10.9021
gefähr	-10.9037
cha	-10.9039
gefügt	-10.9041
▁Anstieg	-10.9041
▁Transparenz	-10.9041
▁Verletzung	-10.9041
▁abstrakte	-10.9041
▁berücksichtig	-10.9041
▁Tätigkeit	-10.9041
▁Stanford	-10.9041
▁befand	-10.9041
▁engagier	-10.9041
▁Streit	-10.9042
▁mochte	-10.9042
▁Slum	-10.9042
▁neigen	-10.9042
▁Salz	-10.9042
▁Ideal	-10.9044
▁Nutz	-10.9045
bekämpfen	-10.9046
binden	-10.9046
▁Kongo	-10.9048
▁Bibel	-10.9049
bricht	-10.9059
amerikanische	-10.9069
▁gemessen	-10.9073
weiß	-10.908
▁Jugendliche	-10.9085
holz	-10.9088
nseit	-10.9093
▁Fri	-10.9093
▁Spar	-10.9102
▁Fliege	-10.9102
▁Seil	-10.9104
▁Center	-10.9105
stunde	-10.9109
▁wovo	-10.9115
▁reiste	-10.9119
▁Leber	-10.9125
▁Führung	-10.9139
▁worauf	-10.9141
▁wahrnehme	-10.9148
zusehen	-10.9161
▁Hundert	-10.9167
freund	-10.9169
▁Flüchtling	-10.9169
computer	-10.9169
▁Klavier	-10.9169
▁aufgeregt	-10.9169
▁dokumentier	-10.9169
▁furchtbar	-10.9169
▁konfrontiert	-10.9169
▁angepasst	-10.917
▁Brustkrebs	-10.917
▁exakt	-10.9171
gefasst	-10.9174
strom	-10.9175
▁1990	-10.9176
▁zurückkehren	-10.9176
studie	-10.9179
▁Balk	-10.9181
klang	-10.9182
▁Warte	-10.9182
letzt	-10.9184
iel	-10.9185
▁Matt	-10.9188
▁Richtige	-10.9192
fällt	-10.9195
rgestellt	-10.9195
▁Beton	-10.92
▁erfüllen	-10.92
▁Rund	-10.9207
▁Nahe	-10.921
llion	-10.9223
▁Jack	-10.9224
▁Pop	-10.9231
▁Cla	-10.9236
gehört	-10.9238
▁ausmachen	-10.9238
▁trat	-10.9257
Fotograf	-10.926
sprech	-10.9264
▁physisch	-10.9265
▁Hol	-10.9276
gesetz	-10.9276
kürz	-10.9299
▁Erfinder	-10.9299
▁mechanisch	-10.9299
▁optimistisch	-10.9299
▁relevant	-10.9299
▁Entwurf	-10.9299
▁Flüssigkeit	-10.9299
▁Männchen	-10.9299
▁Präsentation	-10.9299
▁evolutionäre	-10.9299
▁genießen	-10.9299
▁irgendwelche	-10.9299
▁wählt	-10.9299
▁Übrigen	-10.9299
▁ökonomische	-10.9299
methode	-10.9299
▁Wärme	-10.9299
▁merkwürdig	-10.9299
▁lüg	-10.9299
faktor	-10.9299
objekt	-10.9299
▁befreien	-10.93
▁Terroristen	-10.93
▁1960	-10.9302
▁bedeutende	-10.9302
▁Laser	-10.9307
▁lachen	-10.9309
▁Jim	-10.9309
▁Videospiele	-10.9312
Zeitraum	-10.9331
groß	-10.9337
▁Brenn	-10.9346
bewahr	-10.9346
nerhalb	-10.9347
▁Anstat	-10.9376
▁Jugend	-10.9386
abend	-10.9387
▁kleinste	-10.9388
▁Mich	-10.94
▁Mak	-10.9414
wal	-10.942
▁Bab	-10.9423
▁Detail	-10.9425
▁Versorgung	-10.9431
Chromosom	-10.9431
stürzt	-10.9431
▁Cartoon	-10.9431
▁Erdbeben	-10.9431
▁Karikatur	-10.9431
▁Ruanda	-10.9431
▁Symptome	-10.9431
▁begegnen	-10.9431
▁neugierig	-10.9431
▁Globalisierung	-10.9431
▁Kreatur	-10.9431
▁besessen	-10.9431
▁nervös	-10.9431
▁Neugier	-10.9431
▁Sätze	-10.9431
▁kreiert	-10.9431
▁Hitze	-10.9431
▁Einwohner	-10.9431
▁Leiter	-10.9431
▁eingeladen	-10.9433
▁General	-10.9435
▁Algorithmen	-10.9435
▁Denkweise	-10.9436
hofft	-10.9441
▁landete	-10.9441
▁Umgang	-10.9442
▁versicher	-10.9447
möglich	-10.9466
▁Saal	-10.9467
leiter	-10.9475
▁heb	-10.948
▁Top	-10.9496
pflege	-10.9497
▁breit	-10.9498
aku	-10.9515
ltern	-10.9535
wickelt	-10.9562
▁Möglich	-10.9563
▁Gipfel	-10.9564
▁International	-10.9564
▁Ungleichheit	-10.9564
▁herrscht	-10.9564
▁sinnvoll	-10.9565
▁Juni	-10.9566
▁Schild	-10.9566
liess	-10.9569
▁Gestaltung	-10.9575
▁spüren	-10.9577
▁Werde	-10.958
▁treib	-10.9582
▁männliche	-10.9588
arb	-10.9589
▁si	-10.959
will	-10.9593
▁Wichtigste	-10.9597
wirkung	-10.9603
zweifel	-10.961
liefert	-10.961
▁verlange	-10.962
logen	-10.9622
span	-10.9622
▁Sorge	-10.9641
▁0,	-10.9649
▁eingeführt	-10.9652
▁Fort	-10.966
▁Plötzlich	-10.9699
▁Fantasie	-10.9699
▁Niveau	-10.9699
▁stirbt	-10.9699
▁Käfer	-10.9699
region	-10.9699
▁Weisheit	-10.9699
▁Januar	-10.9699
▁jegliche	-10.97
▁Richter	-10.97
▁verliert	-10.97
▁Talent	-10.97
▁Humor	-10.97
▁tanzen	-10.97
häuser	-10.97
▁Nachfrage	-10.9704
▁Paris	-10.9705
▁lieb	-10.9707
▁Pause	-10.9708
▁verliebt	-10.971
ummel	-10.9711
stütze	-10.9711
▁Staub	-10.9718
▁beschreib	-10.9723
▁Mad	-10.9724
▁anfäng	-10.9733
▁Skal	-10.9735
▁Kuh	-10.9739
▁ausmacht	-10.974
schlaf	-10.9763
hört	-10.9768
▁ersetzt	-10.9786
▁Rio	-10.9786
▁Farb	-10.9794
▁magische	-10.9799
▁intelligent	-10.9804
lly	-10.9814
soweit	-10.9819
aja	-10.9824
▁korrekt	-10.9836
▁umgekehrt	-10.9836
männer	-10.9836
▁Alzheimer	-10.9836
▁Frequenz	-10.9836
▁Kämpfe	-10.9836
▁Treibstoff	-10.9836
▁geöffnet	-10.9836
▁Ghana	-10.9836
städte	-10.9836
▁rational	-10.9836
▁lehrt	-10.9836
▁erfand	-10.9837
▁Gift	-10.9837
▁Kritik	-10.9837
▁geschützt	-10.9837
▁Robert	-10.9837
▁Spinne	-10.9839
▁Haiti	-10.9839
aktivität	-10.9839
▁Trotzde	-10.9841
▁Vorträge	-10.9842
▁Platte	-10.9843
▁Kunstwerk	-10.9845
▁Lebensraum	-10.9846
blut	-10.9854
▁Fahrer	-10.9857
▁dazwischen	-10.9857
▁offenbar	-10.9858
▁bearbeite	-10.986
ney	-10.9862
▁kritische	-10.9862
▁Beide	-10.9865
▁gefahren	-10.9872
ritt	-10.9872
▁verschwende	-10.9875
ember	-10.988
500	-10.9884
▁Gehör	-10.99
▁Vorbild	-10.9916
▁komplizierter	-10.9922
▁Vorder	-10.9925
▁bewahre	-10.9925
▁zusätzlich	-10.9939
▁Wach	-10.9939
▁Verkauf	-10.9944
läufig	-10.9947
,000	-10.9957
zeichnung	-10.9972
medizin	-10.9974
gezwungen	-10.9975
▁Diabetes	-10.9975
▁Kooperation	-10.9975
▁Täuschung	-10.9975
▁Vergnügen	-10.9975
▁ausgewählt	-10.9975
bedarf	-10.9975
▁Schweiz	-10.9975
▁Benzin	-10.9975
therapie	-10.9975
▁Einfachheit	-10.9978
▁Sonder	-10.9979
▁Strand	-10.998
▁schief	-10.998
spalt	-10.9983
▁stammen	-10.9983
▁verbraucht	-10.9983
Scan	-10.9988
▁abschließen	-10.9989
▁Mini	-10.9992
▁beibring	-10.9993
▁sub	-10.9995
wirtschaftliche	-11.0005
atom	-11.001
gewicht	-11.0014
▁Mio	-11.0016
hang	-11.002
▁Ring	-11.0038
▁anpassen	-11.005
fähigkeit	-11.0056
gesprochen	-11.0063
▁250	-11.0068
schieben	-11.0078
▁trans	-11.0115
fabrik	-11.0116
gestiegen	-11.0116
▁Aufstieg	-11.0116
▁Blickwinkel	-11.0116
▁Mikroskop	-11.0116
▁Schätzung	-11.0116
▁französische	-11.0116
▁professionell	-11.0116
▁universell	-11.0116
▁verblüffend	-11.0116
geblieben	-11.0116
▁Freiwillige	-11.0116
linear	-11.0117
▁vermittelt	-11.0117
▁überwach	-11.0121
liegende	-11.0125
▁berechnen	-11.0125
▁26	-11.0126
▁Vorschlag	-11.0129
Schaltkreis	-11.0131
wahl	-11.0133
▁Schall	-11.0142
▁erfordert	-11.0149
▁ideal	-11.0151
getreten	-11.0164
häuf	-11.017
thro	-11.0188
▁zurückgehen	-11.0193
ualle	-11.0202
▁könne	-11.0208
▁120	-11.0218
▁Tief	-11.0227
wünscht	-11.0239
kind	-11.0241
lett	-11.0242
▁Ziege	-11.0258
▁Hilfs	-11.0258
plätze	-11.0258
▁Angebot	-11.0259
▁Olymp	-11.0259
▁unerwartet	-11.0259
▁Überwachung	-11.0259
schmelzen	-11.0259
▁Diplomat	-11.0259
▁Doppel	-11.0259
▁Nährstoffe	-11.0259
▁Original	-11.0259
▁Variation	-11.0259
▁Wikipedia	-11.0259
▁gewöhnt	-11.0259
gebunden	-11.0259
▁Scheibe	-11.0259
▁Konsumenten	-11.0259
▁Chinese	-11.026
▁atmen	-11.026
▁freundlich	-11.026
▁Kapitalismus	-11.0261
motor	-11.0264
▁Umfrage	-11.0264
▁Daumen	-11.0264
gefertigt	-11.0265
▁Brun	-11.0267
▁Oper	-11.0267
schild	-11.0268
▁erfuhr	-11.0271
▁Rauch	-11.0274
▁vorwärts	-11.0284
▁verteilen	-11.029
path	-11.0291
▁gerecht	-11.0323
mächtig	-11.0324
▁ausgegeben	-11.034
▁angenehm	-11.0349
Up	-11.0358
dringen	-11.0359
▁fundamentale	-11.036
▁billiger	-11.0366
beträg	-11.0381
▁hingeh	-11.0382
▁Glücklich	-11.0384
▁Hall	-11.0395
▁Photo	-11.0404
empfindlich	-11.0404
entwicklung	-11.0404
▁Anstrengung	-11.0404
▁Schlagzeile	-11.0404
▁inklusive	-11.0404
▁molekulare	-11.0404
▁veröffentlichen	-11.0404
▁Klassenzimmer	-11.0404
▁Anpassung	-11.0404
▁örtliche	-11.0404
▁Liefer	-11.0404
▁Akteur	-11.0404
▁überquer	-11.0404
Aktivist	-11.0404
reißen	-11.0405
▁sorgt	-11.0405
▁verlangt	-11.0405
▁geistige	-11.0406
▁kauft	-11.0407
▁Schnell	-11.0407
▁Mathe	-11.0411
▁Orang	-11.0412
▁Tauch	-11.0414
▁Block	-11.0418
▁Camp	-11.0419
▁massive	-11.0421
breitet	-11.0421
▁hindurch	-11.0423
▁wünschte	-11.0424
▁Vorgang	-11.0425
▁Ausland	-11.043
wichtig	-11.0431
zeigen	-11.0432
wisst	-11.0435
ffekt	-11.0443
▁Falt	-11.0443
▁Fotografie	-11.0448
boden	-11.045
wirken	-11.0452
zählen	-11.046
maß	-11.0462
dichte	-11.0473
team	-11.0494
gehalt	-11.0499
opfer	-11.0508
▁schaue	-11.052
▁widme	-11.0523
geist	-11.0525
wache	-11.0534
alisierung	-11.054
fahrzeug	-11.0551
▁Abenteuer	-11.0551
▁Bedarf	-11.0551
▁Großvater	-11.0551
▁Hollywood	-11.0551
▁Sammlung	-11.0551
▁berühren	-11.0551
▁ignorieren	-11.0551
▁intellektuelle	-11.0551
▁manipulier	-11.0551
▁südlich	-11.0551
▁Pilot	-11.0551
▁anscheinend	-11.0551
▁identisch	-11.0551
▁Status	-11.0551
▁beschleunigt	-11.0551
▁Alpha	-11.0551
▁Gleichgewicht	-11.0551
▁Effizienz	-11.0554
▁Beschreibung	-11.0554
▁dringend	-11.0554
färb	-11.0554
▁feiern	-11.0555
▁Schädel	-11.0556
▁wette	-11.0562
▁Faser	-11.0566
kabel	-11.0569
▁Eva	-11.0569
▁Chor	-11.0575
sensor	-11.0577
filter	-11.0579
▁Wut	-11.0581
▁Stille	-11.0593
▁Wett	-11.061
brachte	-11.0612
eilt	-11.062
▁Homo	-11.0623
▁Anzeige	-11.0628
nehmer	-11.0639
▁benutze	-11.0651
▁Mac	-11.0657
zeitig	-11.0693
▁Darauf	-11.0693
revolution	-11.07
gängig	-11.07
▁Entschuldigung	-11.07
▁Ritual	-11.07
▁Thunfisch	-11.07
▁Urknall	-11.07
▁Vermögen	-11.07
▁jüngste	-11.07
▁lächerlich	-11.07
▁potentiell	-11.07
▁ungeheuer	-11.07
▁verurteilt	-11.07
▁Abhängigkeit	-11.07
▁Hölle	-11.07
▁Tempo	-11.07
▁Skelett	-11.07
▁herausfand	-11.07
▁hübsch	-11.07
verhältnis	-11.07
▁Nahrungsmittel	-11.07
geprägt	-11.07
▁Strecke	-11.07
▁Strasse	-11.0701
▁Green	-11.0703
▁Korea	-11.0704
▁Weltbevölkerung	-11.0705
labor	-11.0707
▁kühl	-11.0709
▁Verteilung	-11.0714
▁Wasserstoff	-11.0721
Cola	-11.0727
letztlich	-11.0747
eifen	-11.0764
▁Mott	-11.0764
▁kleb	-11.0766
bett	-11.0787
▁verlor	-11.0792
ffentlich	-11.0793
pflanzt	-11.0837
▁Mari	-11.0838
rührt	-11.0844
▁Bush	-11.0849
temperatur	-11.0852
▁Illusion	-11.0852
▁Simulation	-11.0852
▁Weibchen	-11.0852
▁hässlich	-11.0852
▁interpretier	-11.0852
▁öfter	-11.0852
bedingung	-11.0852
▁fokussier	-11.0852
▁züchte	-11.0852
▁Brüder	-11.0852
▁Level	-11.0852
▁ähnel	-11.0852
▁schmerzhaft	-11.0852
▁Party	-11.0852
▁Methan	-11.0852
räder	-11.0852
▁Lärm	-11.0853
▁Kanal	-11.0853
▁Verwandte	-11.0853
element	-11.0854
▁Standpunkt	-11.0857
▁Höhepunkt	-11.0859
▁stimmen	-11.0861
▁Pille	-11.0861
▁dankbar	-11.0862
▁beseitig	-11.0863
▁36	-11.0867
▁nahezu	-11.0872
old	-11.0873
▁anbieten	-11.0879
▁negative	-11.0888
▁Planung	-11.0901
▁Kauf	-11.0905
▁Schwa	-11.0926
▁Fernseher	-11.0931
Projekt	-11.0935
▁verleih	-11.0938
▁verschwinde	-11.094
▁sauber	-11.0952
▁Schwarz	-11.0954
gesundheit	-11.0956
▁spiele	-11.0967
fund	-11.0967
achtung	-11.0988
code	-11.1003
▁Kapazität	-11.1006
▁Manhattan	-11.1006
▁Pazifik	-11.1006
▁Schokolade	-11.1006
▁Uganda	-11.1006
▁Valley	-11.1006
▁getestet	-11.1006
▁intuitiv	-11.1006
▁offiziell	-11.1006
▁vernünftig	-11.1006
Nobelpreis	-11.1006
ifikation	-11.1006
▁Treppe	-11.1006
▁gefährdet	-11.1006
gewebe	-11.1006
▁Griechen	-11.1006
▁Front	-11.1006
▁Selbstmord	-11.1006
▁gegessen	-11.1006
▁Kondom	-11.1006
▁Strahlung	-11.1006
▁Sky	-11.1006
▁circ	-11.1006
▁Konstruktion	-11.1006
▁Gerade	-11.1007
▁extra	-11.1009
▁aussah	-11.101
▁starr	-11.101
▁Auflösung	-11.101
artikel	-11.101
▁1980	-11.1011
▁verschwand	-11.1011
▁Apple	-11.1016
▁28	-11.1017
▁Zurück	-11.1018
▁Tinte	-11.1019
▁33	-11.1025
▁Auftrag	-11.1029
▁Gri	-11.1031
▁Einblick	-11.1034
▁Zeitschrift	-11.1034
▁Güter	-11.1035
fühlen	-11.1074
▁95	-11.1132
▁Grab	-11.1146
schne	-11.1157
▁Ausrüstung	-11.1162
▁Einschränkung	-11.1162
▁Entstehung	-11.1162
▁Intuition	-11.1162
▁gelehrt	-11.1162
▁isoliert	-11.1162
▁theoretisch	-11.1162
geschaltet	-11.1162
▁präzise	-11.1162
▁bewirkt	-11.1162
▁Größenordnung	-11.1162
▁Lügen	-11.1162
▁Schlechte	-11.1162
▁Säule	-11.1162
▁deutsche	-11.1162
▁Pfeil	-11.1162
zoom	-11.1162
fleisch	-11.1162
▁Island	-11.1162
▁Arbeitsplätze	-11.1163
▁Fußball	-11.1163
▁Produktivität	-11.1163
erkrankung	-11.1163
▁ausreichend	-11.1164
▁Erwärmung	-11.1164
▁1950	-11.1165
burg	-11.1169
▁leise	-11.1171
▁festgestellt	-11.1171
▁Linse	-11.1173
foto	-11.1173
▁geliebt	-11.1173
▁steh	-11.1176
▁Antrieb	-11.1179
▁lo	-11.1182
▁Oft	-11.1184
▁Reform	-11.1184
▁herab	-11.1193
▁2001	-11.1196
fäng	-11.1221
unterschied	-11.1224
▁Schon	-11.1243
▁sag	-11.1251
Technologie	-11.1255
ügel	-11.1284
schreiten	-11.1284
▁lasse	-11.1302
▁merkte	-11.1306
▁Gestalt	-11.1308
▁Demokrat	-11.131
▁digital	-11.131
Algorithm	-11.1316
▁Baseball	-11.1321
▁Cambridge	-11.1321
▁Löwen	-11.1321
▁Oxford	-11.1321
▁Pläne	-11.1321
▁diagnostizier	-11.1321
▁erkunden	-11.1321
▁erledigt	-11.1321
Nullsummen	-11.1321
▁systematisch	-11.1321
▁süß	-11.1321
▁Autismus	-11.1321
▁Speicher	-11.1321
▁Erziehung	-11.1321
▁bewunder	-11.1321
▁Fleck	-11.1321
▁trocken	-11.1321
▁Saturn	-11.1321
▁Sprung	-11.1321
brecher	-11.1321
▁litt	-11.1321
▁psychologische	-11.1322
gestimmt	-11.1324
▁Aufzeichnung	-11.1324
▁überlegt	-11.1328
▁Böse	-11.133
▁Elektronen	-11.1333
streu	-11.1337
uanten	-11.1337
▁Stau	-11.1344
▁Erforschung	-11.1344
▁zivil	-11.1345
▁lies	-11.1358
▁Leser	-11.1378
held	-11.1378
▁dreimal	-11.1382
ford	-11.1383
riss	-11.1388
▁MS	-11.1398
▁kg	-11.1409
▁gelbe	-11.1421
▁Schalt	-11.1424
▁Wolke	-11.1448
ckel	-11.1455
gebrauch	-11.1477
▁Nachbar	-11.148
▁Parlament	-11.1482
gebäude	-11.1482
▁Business	-11.1482
▁Flughafen	-11.1482
▁Hormon	-11.1482
▁Substanz	-11.1482
▁Widerspruch	-11.1482
▁fossile	-11.1482
Origami	-11.1482
▁Polizist	-11.1482
▁Tiefsee	-11.1482
▁Truppe	-11.1482
läd	-11.1482
▁Benutzer	-11.1482
▁rettet	-11.1482
▁Ausgangs	-11.1482
▁drückt	-11.1482
▁kochen	-11.1483
Zentr	-11.1483
▁1,5	-11.1484
▁195	-11.1486
hirn	-11.1486
▁herstellt	-11.1487
▁Nordamerika	-11.1488
▁Rasse	-11.149
▁Philosophie	-11.149
▁Sollte	-11.149
▁Schock	-11.1491
gerissen	-11.1491
▁Irr	-11.1493
amme	-11.1494
▁Spät	-11.1503
stoß	-11.1507
▁Mega	-11.1515
▁geraten	-11.1515
▁Finde	-11.1517
gestoßen	-11.1517
▁Nimm	-11.1521
▁müsst	-11.1525
nkung	-11.1527
▁PM	-11.1527
erkennen	-11.1528
▁versteck	-11.153
▁Song	-11.1532
turm	-11.1535
▁Hyper	-11.1564
unwahrscheinlich	-11.1564
bohr	-11.1572
dex	-11.1575
Fi	-11.1579
Boot	-11.1585
Test	-11.1591
▁trage	-11.1619
▁Kranken	-11.1645
physik	-11.1646
▁Alkohol	-11.1646
▁Unabhängigkeit	-11.1646
▁außerordentlich	-11.1646
▁respektier	-11.1646
▁Texas	-11.1646
▁geeignet	-11.1646
würfe	-11.1646
▁Frucht	-11.1646
▁Mechanismus	-11.1646
▁Erscheinung	-11.1646
▁Anweisung	-11.1646
▁gewaltig	-11.1646
▁Reichtum	-11.1646
▁fair	-11.1646
▁Halb	-11.1646
Source	-11.1646
▁wandert	-11.1646
▁dauerhaft	-11.1646
▁freiwillig	-11.1647
▁Verbraucher	-11.1647
▁Hügel	-11.1648
▁aß	-11.1648
▁Bürgerkrieg	-11.1648
▁Martin	-11.1649
generieren	-11.165
▁teilnehmen	-11.165
platte	-11.1651
block	-11.1663
▁Peter	-11.167
▁Ernst	-11.1682
stock	-11.1683
▁befasse	-11.1685
▁weich	-11.1698
▁BG	-11.1706
▁moralisch	-11.1714
▁Erkenntnisse	-11.1719
standard	-11.1743
Spiel	-11.1754
▁versammel	-11.178
▁Spezial	-11.1783
redet	-11.1784
▁Waffe	-11.1786
Jährige	-11.1812
kreuz	-11.1812
▁Blüte	-11.1812
▁Orchester	-11.1812
▁Verteidigung	-11.1812
▁argumentier	-11.1812
▁hervorragend	-11.1812
▁schwanger	-11.1812
▁Integr	-11.1812
märkte	-11.1813
source	-11.1813
▁Ehemann	-11.1814
▁flücht	-11.1814
▁Schwanz	-11.1815
▁heilige	-11.1816
▁Graph	-11.1816
▁Derek	-11.1817
▁angemessen	-11.1817
▁Datenbank	-11.1819
▁blockier	-11.182
▁visuell	-11.182
▁Hochzeit	-11.182
▁Meme	-11.1823
treue	-11.1825
▁Geheimnisse	-11.1825
▁Cap	-11.1831
kampf	-11.1833
▁Königin	-11.1843
türme	-11.1844
üssig	-11.1865
▁fehlende	-11.1867
▁Beach	-11.188
betrieb	-11.1891
▁einzusetz	-11.1913
sache	-11.1928
▁abhäng	-11.1929
▁Angesicht	-11.193
▁Architekt	-11.1935
lagerung	-11.1972
deutet	-11.1974
speicher	-11.1977
osphäre	-11.1981
stehende	-11.1982
Service	-11.1982
trunken	-11.1982
▁Analogie	-11.1982
▁Bakterium	-11.1982
▁Horizont	-11.1982
▁Knopf	-11.1982
▁Oktober	-11.1982
▁Oxytocin	-11.1982
▁Urlaub	-11.1982
▁Völker	-11.1982
▁Äthiopien	-11.1982
▁Befehl	-11.1982
▁Fundament	-11.1982
▁Microsoft	-11.1982
▁Möbel	-11.1982
▁Phosphor	-11.1982
▁William	-11.1982
▁verringern	-11.1982
▁Apparat	-11.1982
▁Brown	-11.1982
▁Flagge	-11.1982
▁angetrieben	-11.1982
▁auftaucht	-11.1982
▁Väter	-11.1982
▁japanische	-11.1982
brüche	-11.1982
▁Hacker	-11.1982
▁Bedauern	-11.1982
▁Zeile	-11.1982
▁verzweifelt	-11.1982
kunst	-11.1982
formulier	-11.1983
▁verarbeiten	-11.1984
▁Hals	-11.1985
schuss	-11.1986
▁Unterwasser	-11.1987
arzt	-11.1987
marke	-11.199
▁Länge	-11.1992
▁halt	-11.1993
▁ökologische	-11.1997
▁Grundstück	-11.1997
werf	-11.2016
▁blicken	-11.2017
▁Dauer	-11.2025
▁Nu	-11.2034
lehnt	-11.2049
hrung	-11.2068
läst	-11.2074
drängt	-11.2085
abhängig	-11.2098
Kopf	-11.2103
▁Bedenke	-11.2118
▁Rente	-11.2122
▁Ameise	-11.2133
deuten	-11.2148
histori	-11.2153
Global	-11.2154
▁Expedition	-11.2154
▁Hypothese	-11.2154
▁Kohlendioxid	-11.2154
▁Kompromiss	-11.2154
▁Motivation	-11.2154
▁Privileg	-11.2154
▁Tragödie	-11.2154
▁Tränen	-11.2154
▁besaß	-11.2154
▁gesünder	-11.2154
▁kombiniert	-11.2154
▁nördlich	-11.2154
▁sorgfältig	-11.2154
▁unangenehm	-11.2154
▁vorhersagen	-11.2154
▁entwarf	-11.2154
▁verkünde	-11.2154
▁Raketen	-11.2154
▁Bewohner	-11.2154
partner	-11.2154
▁gegenwärtige	-11.2155
▁Onkel	-11.2155
▁wirksam	-11.2155
▁Media	-11.2155
▁Stoffwechsel	-11.2155
▁Immunsystem	-11.2155
▁Regenwald	-11.2155
▁Psychologie	-11.2155
▁Herkunft	-11.2155
▁Automobil	-11.2155
▁Gates	-11.2157
▁Bären	-11.2157
▁Filter	-11.2157
▁erlangen	-11.2158
plikation	-11.2158
▁Partnerschaft	-11.2159
▁Minister	-11.216
back	-11.2161
▁Extra	-11.2162
gegriffen	-11.2167
▁5.000	-11.2169
freiheit	-11.2175
haber	-11.2177
boot	-11.2183
ED	-11.2191
▁unterhalten	-11.2202
ütze	-11.2212
▁gelb	-11.2224
firma	-11.2238
sprung	-11.2252
größte	-11.2281
▁führende	-11.2289
▁traditionell	-11.2297
alismus	-11.2303
äuschen	-11.2308
,6	-11.2312
feier	-11.2313
▁eröffne	-11.2314
gemäß	-11.232
▁Philosoph	-11.2321
blätter	-11.233
grenzung	-11.233
risiko	-11.233
wurzel	-11.233
▁Disziplin	-11.233
▁Getreide	-11.233
▁Privatsphäre	-11.233
▁Trinkwasser	-11.233
▁detailliert	-11.233
▁gigantische	-11.233
▁grösser	-11.233
▁simulier	-11.233
▁spirituell	-11.233
▁verlangsam	-11.233
▁überwältigend	-11.233
prinzip	-11.233
▁fügt	-11.233
▁verwirrt	-11.233
kontrolle	-11.233
▁trainiere	-11.233
▁Winkel	-11.233
▁Elektronik	-11.233
▁vertikal	-11.233
▁Sendung	-11.233
▁ärmste	-11.233
▁Regime	-11.233
▁Rohstoffe	-11.233
▁Offensichtlich	-11.233
▁bediene	-11.2333
wendig	-11.2333
▁Söhne	-11.2333
▁weinen	-11.2334
▁Mücke	-11.2336
wachstum	-11.2336
phase	-11.2338
▁uralte	-11.234
▁Kunststoff	-11.234
▁international	-11.234
▁herausstellt	-11.2341
▁betreffen	-11.2342
▁fange	-11.2342
gehoben	-11.2344
▁Beitrag	-11.2346
▁Juden	-11.2351
▁50.000	-11.2354
fehler	-11.2356
▁befrag	-11.2365
▁Gore	-11.2365
▁Darm	-11.2367
▁Deine	-11.237
▁präsentiere	-11.2407
sistenz	-11.2447
wald	-11.2466
▁Bonobo	-11.2508
▁Engagement	-11.2508
▁Töchter	-11.2508
▁Vulkan	-11.2508
▁begleitet	-11.2508
▁clever	-11.2508
▁ehemalige	-11.2508
▁spontan	-11.2508
▁trainiert	-11.2508
missbrauch	-11.2508
▁Praxis	-11.2508
▁Variante	-11.2508
▁Versicherung	-11.2508
▁Käse	-11.2508
▁gefüllt	-11.2509
▁South	-11.2509
ville	-11.2509
stapel	-11.2509
▁Panik	-11.2509
Übertragung	-11.2509
▁tanzt	-11.2509
▁zahlreiche	-11.2509
▁vernetzt	-11.251
▁Wörterbuch	-11.251
▁Supermarkt	-11.251
▁Kino	-11.2513
▁vereint	-11.2513
▁schießen	-11.2514
▁Febr	-11.2514
▁Human	-11.2514
▁Koran	-11.2514
▁Verhandlung	-11.2515
tadium	-11.2517
▁Unfälle	-11.2518
▁Ausschnitt	-11.2518
gesichts	-11.252
▁verhindert	-11.2527
▁körperliche	-11.2536
▁bereitet	-11.2546
springen	-11.255
▁Kette	-11.2554
▁Dick	-11.2569
▁Gelände	-11.258
▁antreib	-11.2585
▁Tele	-11.2596
gemeinschaft	-11.2603
▁Russ	-11.2613
häu	-11.2623
viertel	-11.2646
Maschine	-11.2648
Zahl	-11.2649
▁weitermache	-11.2653
▁Bedürfnis	-11.2653
▁drau	-11.2659
▁Held	-11.2661
▁wunder	-11.2684
▁Trotz	-11.2684
amerika	-11.2688
▁Rhyth	-11.269
llerdings	-11.269
▁Moskito	-11.269
Herangehensweise	-11.269
Krankenschwester	-11.269
charakter	-11.269
kombinieren	-11.269
▁Demonstration	-11.269
▁Digital	-11.269
▁Durchmesser	-11.269
▁Florida	-11.269
▁Optimismus	-11.269
▁Studium	-11.269
▁etablier	-11.269
▁fortgeschritten	-11.269
transportieren	-11.269
▁elegant	-11.269
▁erstaunt	-11.269
▁ethnische	-11.269
▁braun	-11.269
▁Versagen	-11.269
▁alternative	-11.269
▁Audio	-11.269
▁Knoten	-11.269
▁erledige	-11.269
trockn	-11.269
▁Comic	-11.2691
▁Bereit	-11.2691
▁Verlangen	-11.2691
▁mentale	-11.2691
▁gesucht	-11.2691
▁Abendessen	-11.2691
▁Schwerkraft	-11.2691
▁Branche	-11.2692
▁Gleichheit	-11.2694
▁umfasst	-11.2697
▁träume	-11.2697
▁hilfreich	-11.2699
▁Kuchen	-11.2702
▁berechnet	-11.2703
schrieben	-11.2703
▁schlicht	-11.2704
▁abgeschlossen	-11.2704
▁zweieinhalb	-11.2709
▁700	-11.2715
▁Fund	-11.2722
▁erheblich	-11.2736
▁menschlich	-11.277
▁Züge	-11.28
▁Schwein	-11.282
▁bio	-11.2846
assi	-11.2853
ession	-11.2869
▁Weihnachts	-11.2875
▁Feedback	-11.2875
▁Prüfung	-11.2875
▁bedeutsam	-11.2875
▁involviert	-11.2875
▁motiviert	-11.2875
▁synthetische	-11.2875
▁Flüsse	-11.2875
sektor	-11.2875
▁Maßnahmen	-11.2875
▁Mittler	-11.2876
▁Ehrlich	-11.2876
▁Wollen	-11.2876
▁geplant	-11.2877
▁2,5	-11.2878
▁Individuum	-11.2878
▁Rennen	-11.2879
▁ermutigen	-11.2879
▁Dreieck	-11.288
pilz	-11.288
▁Menschenrechte	-11.2885
▁Rose	-11.2888
▁tragisch	-11.289
▁Beute	-11.2892
▁Hindernisse	-11.2894
konomie	-11.2896
kologie	-11.2904
▁Brand	-11.2909
▁Tiger	-11.2914
triff	-11.2914
▁geheime	-11.2916
unterricht	-11.2931
▁bot	-11.2934
freut	-11.2937
fremd	-11.294
▁Genie	-11.2949
aktion	-11.2949
▁Trag	-11.2956
mangel	-11.2969
bericht	-11.2971
rauben	-11.2978
▁85	-11.2987
▁Hill	-11.2991
▁inspirierend	-11.3
▁Güte	-11.3028
versuch	-11.3046
klettert	-11.305
schieß	-11.3059
steigern	-11.3064
strategie	-11.3064
▁Chinesisch	-11.3064
▁Fossil	-11.3064
▁Priorität	-11.3064
▁Rollstuhl	-11.3064
▁Taliban	-11.3064
▁akzeptiert	-11.3064
▁belohn	-11.3064
▁chaotisch	-11.3064
▁ignoriert	-11.3064
▁jahrelang	-11.3064
▁transportiert	-11.3064
▁Bescheid	-11.3064
▁Hektar	-11.3064
▁Termin	-11.3064
bürger	-11.3064
rechner	-11.3064
▁richtet	-11.3064
▁Spanien	-11.3064
▁beschleunigen	-11.3064
lässig	-11.3064
▁beschützen	-11.3065
bewusstsein	-11.3065
▁Führungskräfte	-11.3065
▁Griff	-11.3065
▁aufgezeichnet	-11.3066
geholt	-11.3066
▁Heilung	-11.3066
▁informiert	-11.3067
genoss	-11.307
▁erheb	-11.3072
▁192	-11.3075
▁präsentiert	-11.3079
▁Pfad	-11.308
▁Eingriff	-11.3086
tasche	-11.3089
▁schade	-11.3089
▁Hochschul	-11.3109
iegel	-11.3118
▁existierende	-11.312
▁Haltung	-11.3123
▁formt	-11.3177
▁fremde	-11.3189
▁basieren	-11.3216
werden	-11.3216
kämpfe	-11.3226
ize	-11.323
▁Journal	-11.3233
▁55	-11.3246
▁Polar	-11.3249
▁unterscheide	-11.3255
▁Sowjet	-11.3256
Bandbreite	-11.3256
▁Pyramide	-11.3256
▁Voraussetzung	-11.3256
▁friedlich	-11.3256
▁glamourös	-11.3256
▁musikalische	-11.3256
▁Förder	-11.3256
▁Währung	-11.3256
▁scheitern	-11.3256
▁zutiefst	-11.3256
▁Einkaufs	-11.3256
▁Pharma	-11.3256
▁Redner	-11.3256
▁unheimlich	-11.3256
▁Mischung	-11.3257
▁Egal	-11.3257
▁Brian	-11.3257
▁Notiz	-11.3257
▁Profit	-11.3257
▁umfassende	-11.3257
▁Rhythmus	-11.3257
▁restliche	-11.3257
▁passiv	-11.3257
spazier	-11.3258
▁Garage	-11.3259
▁geformt	-11.3259
▁Frühling	-11.3259
netzwerk	-11.3259
wendung	-11.3262
▁Protest	-11.3262
▁erlern	-11.3263
▁Elite	-11.3265
▁Wohin	-11.3271
traut	-11.3272
▁gewissermaß	-11.3282
stätte	-11.3282
rotten	-11.3305
▁Meta	-11.3325
▁derzeitige	-11.3365
▁schnellste	-11.3392
Programm	-11.3426
wolle	-11.3428
Schein	-11.3431
▁schreibe	-11.3448
▁Schäd	-11.3448
wässer	-11.3449
bilität	-11.3452
schrecken	-11.3452
Ü	-11.3452
gelähmt	-11.3452
▁Feuerwehr	-11.3452
▁Gandhi	-11.3452
▁Glamour	-11.3452
▁Götter	-11.3452
▁Installation	-11.3452
▁Kalorien	-11.3452
▁Nachmittag	-11.3452
▁Notwendigkeit	-11.3452
▁Scott	-11.3452
▁Teppich	-11.3452
▁Unglaublich	-11.3452
▁Verwaltung	-11.3452
▁primitiv	-11.3452
▁zwölf	-11.3452
▁Jäger	-11.3452
▁Sonntag	-11.3452
▁simple	-11.3452
▁Hersteller	-11.3452
▁Zehen	-11.3452
▁Tropf	-11.3452
▁Rauschen	-11.3452
▁längst	-11.3452
▁Eigentum	-11.3453
▁Bewertung	-11.3453
▁Gerüst	-11.3453
▁regne	-11.3453
▁Vieh	-11.3453
▁Stunt	-11.3453
signal	-11.3453
▁Psychologe	-11.3453
verfahren	-11.3454
▁Gewässer	-11.3456
▁beantwortet	-11.3459
▁Mutation	-11.346
▁Schwelle	-11.3461
▁Schreibtisch	-11.3462
▁prüfen	-11.3463
ergebnisse	-11.3463
▁Abschnitt	-11.3464
▁sang	-11.3475
▁EU	-11.3476
ibera	-11.3482
schicken	-11.3496
▁schüttel	-11.3504
▁verschieb	-11.3506
leihen	-11.3544
▁schickt	-11.3575
▁zeichnete	-11.3601
▁körperlich	-11.3624
Amerika	-11.3629
trauen	-11.3639
älle	-11.3647
▁Glühbirne	-11.3652
▁Gravitation	-11.3652
▁LKW	-11.3652
▁Portrait	-11.3652
▁Zentimeter	-11.3652
▁bescheiden	-11.3652
▁beschädigt	-11.3652
▁gewähr	-11.3652
▁hungrig	-11.3652
▁iPod	-11.3652
▁nukleare	-11.3652
▁spektakulär	-11.3652
▁stieß	-11.3652
▁verabschiede	-11.3652
Empfänger	-11.3652
▁benannt	-11.3652
▁unklar	-11.3652
stoppt	-11.3652
▁Distanz	-11.3652
▁Reaktor	-11.3652
geschrieben	-11.3652
▁Archiv	-11.3652
▁Schriftsteller	-11.3652
▁vergleichbar	-11.3653
▁Orbit	-11.3653
▁multi	-11.3653
▁Parasit	-11.3653
branche	-11.3653
papier	-11.3653
▁Disney	-11.3653
▁künstlerische	-11.3653
▁Gehalt	-11.3654
▁käme	-11.3654
robot	-11.3654
▁Blue	-11.3654
▁verwandt	-11.3655
▁Hafen	-11.3655
▁Arbeitsplatz	-11.3655
▁Weizen	-11.3657
▁Autobahn	-11.3659
übergreifend	-11.366
▁Long	-11.366
▁Sturm	-11.3661
faser	-11.3662
▁Freitag	-11.3662
▁unsicher	-11.3662
▁Regal	-11.3709
Roll	-11.3719
sexuell	-11.3721
▁liebste	-11.373
gelaufen	-11.3743
▁Tausend	-11.3769
▁emotional	-11.3806
▁Nick	-11.3814
befinde	-11.3815
flüg	-11.385
rechnung	-11.3852
gültig	-11.3857
▁Detroit	-11.3857
▁Erlaubnis	-11.3857
▁Investoren	-11.3857
▁Luxus	-11.3857
▁Mittagessen	-11.3857
▁Selektion	-11.3857
▁Sklaven	-11.3857
▁Treibhausgase	-11.3857
▁Unglück	-11.3857
▁Völkermord	-11.3857
▁definitiv	-11.3857
▁fotografiere	-11.3857
▁gefolg	-11.3857
▁riskier	-11.3857
▁ultimative	-11.3857
▁verfügt	-11.3857
▁vielfältig	-11.3857
pläne	-11.3857
schüchter	-11.3857
▁August	-11.3857
▁garantiert	-11.3857
▁robust	-11.3857
▁America	-11.3857
▁Mühe	-11.3857
▁Primaten	-11.3857
▁Protozelle	-11.3857
▁Smith	-11.3857
▁Tendenz	-11.3857
▁verboten	-11.3857
▁Tempel	-11.3857
▁gespeichert	-11.3857
▁eingeschränkt	-11.3857
zweck	-11.3857
▁Galerie	-11.3857
Strahl	-11.3857
leidenschaftlich	-11.3857
▁getrieben	-11.3857
▁wandern	-11.3857
▁umwandel	-11.3858
▁Einsicht	-11.3858
▁erneuerbare	-11.3858
▁Kandidaten	-11.3858
demokrati	-11.3858
▁Amazonas	-11.3859
▁Gegenstände	-11.3859
▁Gärt	-11.3859
▁Indus	-11.386
▁Partikel	-11.386
▁Nervensystem	-11.386
▁tätig	-11.386
▁Hätte	-11.3862
müde	-11.3864
▁Route	-11.3865
▁Brut	-11.3868
▁29	-11.3869
▁wiegt	-11.3876
▁Aufreg	-11.3878
höhe	-11.3881
▁Welle	-11.3883
Komp	-11.3908
▁lese	-11.3909
nerv	-11.3921
▁Pack	-11.3927
abdruck	-11.3934
▁zahlt	-11.3941
▁Ernte	-11.3945
gemeinschaftlich	-11.3956
▁Zivil	-11.3973
rägt	-11.3991
verständnis	-11.4065
▁Dopamin	-11.4065
▁Erstaunlich	-11.4065
▁Konzentration	-11.4065
▁Mahlzeit	-11.4065
▁Tsunami	-11.4065
▁Zuhörer	-11.4065
▁begegnet	-11.4065
▁bräuchte	-11.4065
▁flüssige	-11.4065
▁konstant	-11.4065
▁stärkste	-11.4065
▁transparent	-11.4065
▁verteidig	-11.4065
▁Balance	-11.4065
▁urbane	-11.4065
Behörde	-11.4065
▁Kühe	-11.4065
▁Anwalt	-11.4065
kugel	-11.4065
▁generell	-11.4065
▁verarbeitet	-11.4065
▁Tänzer	-11.4065
▁grob	-11.4065
▁Stabilität	-11.4065
▁Brennstoffe	-11.4065
▁Jesus	-11.4065
▁verwalte	-11.4065
front	-11.4066
▁verbrennen	-11.4066
▁Atomenergie	-11.4066
▁platziert	-11.4066
▁Zelt	-11.4066
▁giftige	-11.4067
▁ermutigt	-11.4067
▁live	-11.4067
ößt	-11.4068
▁hinterfrag	-11.4068
▁sequenzier	-11.4068
▁Klänge	-11.4069
▁1970	-11.407
▁speichern	-11.4071
saal	-11.4072
flügel	-11.4072
reaktion	-11.4074
▁Austausch	-11.4075
▁Kommun	-11.4076
▁Glied	-11.4079
▁gefühlt	-11.408
▁rasch	-11.4082
▁lud	-11.4085
hunger	-11.4094
chaffung	-11.4101
▁Bohr	-11.4101
grenzt	-11.4114
▁misch	-11.4132
▁schenke	-11.4134
▁Großartig	-11.4148
▁mobile	-11.4162
Energieverbrauch	-11.4163
▁begeh	-11.419
▁glaub	-11.4193
▁erfreu	-11.4208
gefordert	-11.4225
,7	-11.4259
Modell	-11.4268
ingenieur	-11.4278
▁Alexander	-11.4278
▁Bambus	-11.4278
▁Berührung	-11.4278
▁Dynamik	-11.4278
▁Ignoranz	-11.4278
▁Interpretation	-11.4278
▁Konkurrenz	-11.4278
▁Lächeln	-11.4278
▁Verpflichtung	-11.4278
▁bewältigen	-11.4278
▁materielle	-11.4278
▁schmutzig	-11.4278
▁verbrannt	-11.4278
▁verdeutlich	-11.4278
▁vergewaltigt	-11.4278
ströme	-11.4278
▁MRT	-11.4278
▁Rückenmark	-11.4278
▁schwamm	-11.4278
▁Stickstoff	-11.4278
▁Veranstaltung	-11.4278
▁scharf	-11.4278
▁plus	-11.4278
▁riecht	-11.4278
▁Börse	-11.4278
▁Henry	-11.4278
▁optische	-11.4278
▁Töne	-11.4278
▁beachten	-11.4278
▁Wohnzimmer	-11.4278
▁zusammenfassen	-11.4279
maßnahme	-11.4279
▁Hilfsmittel	-11.4279
▁betonen	-11.428
▁LED	-11.428
draht	-11.428
▁nackt	-11.4281
oxid	-11.4281
▁Vereinte	-11.4281
▁Kluft	-11.4283
▁agieren	-11.4284
▁irre	-11.4285
▁Jeff	-11.4285
gereist	-11.4286
regierung	-11.4288
schuhe	-11.4288
▁schneide	-11.4291
▁Zone	-11.4298
haufen	-11.4298
▁Meile	-11.4298
titel	-11.4302
luft	-11.4307
Nutzer	-11.4321
▁Sorte	-11.4323
▁realistisch	-11.4345
schätzung	-11.4345
bieten	-11.4351
▁hervorruf	-11.436
versag	-11.4371
▁verrate	-11.4398
▁befolg	-11.4439
▁negativ	-11.4443
▁verspr	-11.4449
▁regier	-11.4487
bindung	-11.4487
Industrie	-11.449
leichter	-11.4493
kräftig	-11.4495
▁Dilemma	-11.4495
▁Direktor	-11.4495
▁Korallenriff	-11.4495
▁Sklaverei	-11.4495
▁Ultraschall	-11.4495
▁Verzweiflung	-11.4495
▁allgegenwärtig	-11.4495
▁ausgestorben	-11.4495
▁gemeinnützige	-11.4495
▁kosmische	-11.4495
▁verheiratet	-11.4495
▁2020	-11.4495
▁Nelson	-11.4495
▁aufmerksam	-11.4495
▁errichtet	-11.4495
▁russische	-11.4495
▁Tunnel	-11.4495
▁Behauptung	-11.4495
▁Herbst	-11.4495
firmen	-11.4495
▁Gross	-11.4495
gesteckt	-11.4495
▁Erdgas	-11.4495
▁Tafel	-11.4495
bewohner	-11.4495
▁human	-11.4495
▁Mentor	-11.4495
▁legal	-11.4496
▁akademische	-11.4496
▁gewohnt	-11.4496
▁verpasst	-11.4496
▁Besser	-11.4496
▁Durchbruch	-11.4497
▁grausam	-11.4497
decke	-11.4498
▁Klick	-11.4503
allererst	-11.4505
änze	-11.4516
dämm	-11.4521
▁vorschlage	-11.4522
lzt	-11.4522
▁feine	-11.4523
▁Moore	-11.4525
▁Grundsätz	-11.458
gift	-11.4588
▁privat	-11.4598
tabil	-11.4617
Karte	-11.4662
▁kritisch	-11.4675
,4	-11.4701
drehen	-11.4703
Stipendi	-11.4717
Syndrom	-11.4717
▁Aufklärung	-11.4717
▁Erweiterung	-11.4717
▁Fledermäuse	-11.4717
▁Melodie	-11.4717
▁Parkinson	-11.4717
▁Plätze	-11.4717
▁Schöpfung	-11.4717
▁Shanghai	-11.4717
▁Singapur	-11.4717
▁Wähler	-11.4717
▁beängstigend	-11.4717
▁empfangen	-11.4717
▁explodiert	-11.4717
▁fröhlich	-11.4717
▁konservativ	-11.4717
▁motivieren	-11.4717
▁verstärkt	-11.4717
▁verwirklichen	-11.4717
▁Rechnung	-11.4717
▁Transistor	-11.4717
▁woanders	-11.4717
mechanism	-11.4717
▁Republikaner	-11.4717
▁statistisch	-11.4717
▁sanft	-11.4717
▁zwanzig	-11.4717
student	-11.4717
▁Arabisch	-11.4717
video	-11.4717
▁Solche	-11.4717
▁probiert	-11.4718
▁Bindung	-11.4718
▁Solarenergie	-11.4718
▁veranlass	-11.4718
▁Bausteine	-11.4718
▁kraftvoll	-11.4719
metall	-11.472
▁Modern	-11.4721
▁Johnson	-11.4721
▁versagt	-11.4722
▁Anfänge	-11.4722
▁Freizeit	-11.4723
▁Breite	-11.4723
▁Hemd	-11.4724
▁wahrgenommen	-11.4726
▁Gegenstand	-11.4726
▁Puppe	-11.4728
▁abgelegen	-11.4728
▁Goldene	-11.4736
▁Notfall	-11.4741
leuchtet	-11.4745
▁bringe	-11.4753
▁Feier	-11.4755
▁Baumwoll	-11.4758
▁steigende	-11.4762
glas	-11.4776
▁realisiert	-11.4787
Schnittstelle	-11.4793
▁Genetik	-11.481
▁vorhi	-11.482
▁Gelb	-11.4867
▁zusammenbring	-11.4903
▁angreif	-11.4922
▁neueste	-11.4927
experiment	-11.494
anstalt	-11.494
ortex	-11.4944
Mechanism	-11.4944
erfahrung	-11.4944
▁Banglades	-11.4944
▁Gewohnheit	-11.4944
▁Grönland	-11.4944
▁Hardware	-11.4944
▁Hühner	-11.4944
▁Project	-11.4944
▁Richtlinie	-11.4944
▁Schizophren	-11.4944
▁Silicon	-11.4944
▁attraktiv	-11.4944
▁grösste	-11.4944
▁jüdische	-11.4944
▁konkurrieren	-11.4944
▁Dächer	-11.4945
▁Fußgänger	-11.4945
▁Sahara	-11.4945
▁Vietnam	-11.4945
▁bewiesen	-11.4945
▁Kevin	-11.4945
stürzen	-11.4945
▁Fertigkeit	-11.4945
Fiction	-11.4945
▁Clip	-11.4945
▁daneben	-11.4945
▁tiefgreifend	-11.4945
verlust	-11.4945
▁orange	-11.4946
information	-11.4946
flasche	-11.4946
▁Geschäftsmodell	-11.4946
▁Autorität	-11.4946
säure	-11.4947
▁Agent	-11.4948
werkzeug	-11.4948
▁Artenvielf	-11.4949
▁Überfluss	-11.4949
▁Found	-11.4949
Team	-11.495
gesagt	-11.495
gearbeitet	-11.4951
zehn	-11.4951
▁Fischerei	-11.4952
▁bevorzuge	-11.4954
▁Pfeif	-11.4955
▁Insekt	-11.4955
▁Wahr	-11.4966
▁entscheide	-11.4979
treuung	-11.4982
ldung	-11.5038
▁Klebe	-11.504
Station	-11.5045
Dimensionen	-11.5069
▁hyp	-11.5076
▁verspreche	-11.5078
▁allererste	-11.5102
▁Enc	-11.515
haupt	-11.5152
klären	-11.5155
▁treu	-11.5157
chirurg	-11.5175
▁Agrar	-11.5177
gespräch	-11.5177
molekül	-11.5177
▁Anwälte	-11.5177
▁County	-11.5177
▁Enzym	-11.5177
▁Transformation	-11.5177
▁Unsicherheit	-11.5177
▁beeindruckt	-11.5177
▁konsumieren	-11.5177
▁registrier	-11.5177
▁verborgen	-11.5177
▁Möchte	-11.5177
▁angeboten	-11.5177
▁ausgestattet	-11.5177
▁stattfand	-11.5177
familie	-11.5177
▁Agenda	-11.5177
▁Gegner	-11.5177
▁wohlhabend	-11.5177
▁regionale	-11.5177
▁Behälter	-11.5177
▁Pflicht	-11.5177
▁Nebenwirkung	-11.5177
▁rannte	-11.5178
▁herzlich	-11.5178
▁Davon	-11.5178
▁Meeresspiegel	-11.5178
▁Mysteri	-11.5178
▁zehntausende	-11.5178
oleranz	-11.5178
▁Biosphäre	-11.5178
▁Brille	-11.5179
▁Standort	-11.5179
▁sprang	-11.5179
verbindung	-11.5181
▁Einzige	-11.5182
▁ansah	-11.5187
▁Sender	-11.519
text	-11.5197
sky	-11.5199
Verbrauch	-11.5205
▁wechselt	-11.5211
▁individuell	-11.5211
▁fließend	-11.53
▁schmi	-11.532
▁auswähle	-11.5335
willig	-11.5353
▁Haustier	-11.5356
▁frag	-11.5358
sprochen	-11.5364
Analys	-11.5379
schreibung	-11.5411
▁zugrunde	-11.5413
katastrophe	-11.5415
▁Abweichung	-11.5415
▁Bemühung	-11.5415
▁Clinton	-11.5415
▁Gefäß	-11.5415
▁Geometrie	-11.5415
▁Geschwister	-11.5415
▁Halluzination	-11.5415
▁Prognose	-11.5415
▁SETI	-11.5415
▁Verschmutz	-11.5415
▁Vorgehensweise	-11.5415
▁angewendet	-11.5415
▁brutal	-11.5415
▁eventuell	-11.5415
▁griechische	-11.5415
▁minimal	-11.5415
▁verletzen	-11.5415
▁Wünsche	-11.5415
▁Streben	-11.5415
▁farbige	-11.5415
▁Anhänger	-11.5415
▁bzw	-11.5415
▁drahtlose	-11.5415
▁heftig	-11.5415
▁peinlich	-11.5415
▁Belastung	-11.5415
▁östlich	-11.5415
▁Vorlesung	-11.5415
▁Panzer	-11.5415
▁Drachen	-11.5415
forscher	-11.5415
▁Rekord	-11.5415
▁Stasi	-11.5416
blatt	-11.5416
flugzeug	-11.5416
version	-11.5416
▁Dampf	-11.5416
büro	-11.5416
reserv	-11.5417
▁Nordpol	-11.5417
▁gezielt	-11.5418
▁Rückseite	-11.5419
▁Massa	-11.5419
▁Neigung	-11.542
Kortex	-11.5424
▁kehrte	-11.5425
sendung	-11.5429
Regierung	-11.5432
einrichtung	-11.5435
wusst	-11.5437
▁Mono	-11.5446
▁Krebszelle	-11.5457
▁Ressource	-11.5462
kenntnis	-11.5473
schüss	-11.5479
ffnung	-11.549
gras	-11.5505
zubilden	-11.5545
▁Affe	-11.5624
▁ökologisch	-11.5638
▁Deutsch	-11.5658
synchron	-11.5659
▁Verantwortlich	-11.5659
gesperrt	-11.5659
röhre	-11.5659
▁FBI	-11.5659
▁Früchte	-11.5659
▁Grösse	-11.5659
▁Hausaufgabe	-11.5659
▁Kanäle	-11.5659
▁Konversation	-11.5659
▁Lincoln	-11.5659
▁Minderheit	-11.5659
▁Redwood	-11.5659
▁Reparatur	-11.5659
▁Schwangerschaft	-11.5659
▁Smartphone	-11.5659
▁Vitamin	-11.5659
▁absorbier	-11.5659
▁assoziier	-11.5659
▁bizarr	-11.5659
▁erschwinglich	-11.5659
▁gestohlen	-11.5659
▁großzügig	-11.5659
▁nirgendwo	-11.5659
▁optimier	-11.5659
▁wahnsinnig	-11.5659
▁schätzt	-11.5659
▁Leinwand	-11.5659
▁Lateinamerika	-11.5659
▁Gitter	-11.5659
▁Skizze	-11.5659
▁beruht	-11.5659
▁North	-11.5659
▁Stachel	-11.5659
▁Tablet	-11.5659
▁Berlin	-11.566
beziehung	-11.566
▁verhaftet	-11.566
▁Aussicht	-11.566
Adresse	-11.566
immel	-11.566
▁Teller	-11.566
gemischt	-11.5661
gefahr	-11.5662
▁Beamte	-11.5663
▁Gefängnisse	-11.5676
▁platziere	-11.5676
▁Arktis	-11.5682
Jahr	-11.5682
ridge	-11.5684
▁füllt	-11.5688
klebe	-11.5699
▁Blume	-11.5702
▁Spezialist	-11.5705
egeister	-11.5721
▁interne	-11.5728
stitution	-11.5769
▁weiterentwickel	-11.587
▁Zunge	-11.5895
Schlussfolgerung	-11.5909
Zylinder	-11.5909
uantenmechani	-11.5909
wettbewerb	-11.5909
▁Andrew	-11.5909
▁Hawaii	-11.5909
▁Membran	-11.5909
▁Pestizid	-11.5909
▁Recycling	-11.5909
▁anerkannt	-11.5909
▁ausgedrückt	-11.5909
▁gelegentlich	-11.5909
▁kontinuierlich	-11.5909
▁ordentlich	-11.5909
▁symmetrisch	-11.5909
▁2030	-11.5909
▁Charlie	-11.5909
▁Hütte	-11.5909
▁Krabbe	-11.5909
▁Provinz	-11.5909
▁Trommel	-11.5909
▁betrüg	-11.5909
▁dominieren	-11.5909
▁problematisch	-11.5909
▁Gewehr	-11.5909
▁bestraf	-11.5909
träumt	-11.5909
▁Bananen	-11.5909
▁Earth	-11.5909
▁Vorbereitung	-11.5909
▁Fusion	-11.5909
▁überholt	-11.5909
▁erschuf	-11.5909
▁Prothese	-11.5909
▁lösch	-11.5909
▁Erschaffung	-11.5909
Sammler	-11.591
▁Keller	-11.591
▁Gramm	-11.591
▁Monster	-11.591
streifen	-11.5911
▁gelungen	-11.5911
▁Barriere	-11.5911
▁Manager	-11.5911
▁Königreich	-11.5911
kuchen	-11.5913
▁experimentiere	-11.5913
▁Suppe	-11.5913
▁Lokal	-11.5917
▁vereinen	-11.5917
bomb	-11.5925
Unternehmen	-11.5938
Feld	-11.5939
funk	-11.594
▁Franc	-11.5945
▁hervorbring	-11.5958
unio	-11.5965
▁Kollege	-11.5969
▁Kante	-11.5995
▁schwimm	-11.5999
antwortet	-11.6013
▁hingeg	-11.6059
stafrika	-11.606
neutral	-11.6133
produzier	-11.6154
ffizienz	-11.6161
psycholog	-11.6164
Detektor	-11.6165
Interface	-11.6165
Veröffentlichung	-11.6165
telefon	-11.6165
▁Apollo	-11.6165
▁Benjamin	-11.6165
▁Connectome	-11.6165
▁Dokumente	-11.6165
▁Filmemacher	-11.6165
▁Herzinfarkt	-11.6165
▁Pandemie	-11.6165
▁Pizza	-11.6165
▁Vermächtnis	-11.6165
▁Vernunft	-11.6165
▁Veteranen	-11.6165
▁ausbreiten	-11.6165
▁geschätzt	-11.6165
▁kooperieren	-11.6165
▁lohnt	-11.6165
▁muslimische	-11.6165
▁optimal	-11.6165
▁parallel	-11.6165
unterbrochen	-11.6165
▁Abholzung	-11.6165
▁Ideologie	-11.6165
▁Passagier	-11.6165
▁Urheberrecht	-11.6165
▁fortschrittlich	-11.6165
▁magnetische	-11.6165
▁Myzel	-11.6165
▁Robotik	-11.6165
▁sensib	-11.6165
▁steuert	-11.6165
▁Periode	-11.6165
▁Schachtel	-11.6165
▁albern	-11.6165
flüsse	-11.6166
▁Stapel	-11.6166
▁streng	-11.6166
gehörige	-11.6166
▁Stopp	-11.6166
▁schrittweise	-11.6166
▁Anspruch	-11.6166
▁andauernd	-11.6166
▁externe	-11.6166
modul	-11.6166
▁Gleichzeitig	-11.6166
▁Innenstadt	-11.6166
▁anschließend	-11.6167
▁glatt	-11.6167
prall	-11.6167
▁analog	-11.6167
nummer	-11.6167
▁Zusammenbruch	-11.6167
▁Mobilität	-11.6167
schliessen	-11.6167
▁kürzer	-11.6168
▁Zeig	-11.6184
lampe	-11.6188
glaubt	-11.6201
Bewegung	-11.6202
Bild	-11.6204
alisiere	-11.6213
▁fundamental	-11.6244
▁religiös	-11.6287
▁schnapp	-11.6301
▁finanziell	-11.6301
willkommen	-11.6316
▁herkomme	-11.6362
▁männlich	-11.6382
▁massiv	-11.6398
▁Amazon	-11.6426
▁Republik	-11.6429
völker	-11.6429
händler	-11.6429
▁Amateur	-11.6429
▁Cloud	-11.6429
▁Eifersucht	-11.6429
▁Einladung	-11.6429
▁Empathie	-11.6429
▁Indonesie	-11.6429
▁Informatik	-11.6429
▁Kühlschrank	-11.6429
▁Millimeter	-11.6429
▁Monterey	-11.6429
▁November	-11.6429
▁Röhre	-11.6429
▁Scheitern	-11.6429
▁Shakespeare	-11.6429
▁Trennung	-11.6429
▁Zigarette	-11.6429
▁Zufriedenheit	-11.6429
▁aggressiv	-11.6429
▁atemberaubend	-11.6429
▁beherrschen	-11.6429
▁bestätigt	-11.6429
▁drastisch	-11.6429
▁flexible	-11.6429
▁gründlich	-11.6429
▁horizontal	-11.6429
▁installiert	-11.6429
▁islamische	-11.6429
▁regulieren	-11.6429
▁romantisch	-11.6429
▁zeitgenössische	-11.6429
▁Primzahl	-11.6429
▁recherchier	-11.6429
▁verringert	-11.6429
▁Stolz	-11.6429
▁Furcht	-11.6429
▁Tattoo	-11.6429
▁leistet	-11.6429
fälsch	-11.6429
▁Cousin	-11.6429
▁Pionier	-11.6429
▁Priester	-11.6429
▁null	-11.6429
▁Mandela	-11.6429
rahmen	-11.6429
▁beruflich	-11.6429
▁Falsch	-11.6429
▁befreit	-11.6429
hebung	-11.643
▁damalige	-11.6431
▁veranstalte	-11.6434
schweige	-11.6451
hauen	-11.6469
Druck	-11.6472
Zeit	-11.6472
Seite	-11.6474
▁Experte	-11.6478
widmet	-11.6479
ifizierung	-11.6497
▁Wenig	-11.6513
Stick	-11.653
▁vorlese	-11.6539
▁integrier	-11.6569
▁grenz	-11.6658
▁Vagina	-11.6699
Square	-11.6699
geduldig	-11.6699
wälder	-11.6699
▁Bronx	-11.6699
▁Carolina	-11.6699
▁Fettleibigkeit	-11.6699
▁Hierarchie	-11.6699
▁Kriminalität	-11.6699
▁Neuseeland	-11.6699
▁Regulierung	-11.6699
▁Seattle	-11.6699
▁Tansania	-11.6699
▁Ursprünge	-11.6699
▁Variable	-11.6699
▁Virginia	-11.6699
▁bestätigen	-11.6699
▁empfehle	-11.6699
▁entsetzlich	-11.6699
▁frustriert	-11.6699
▁häusliche	-11.6699
▁klettern	-11.6699
▁Alaska	-11.6699
▁Aussterben	-11.6699
▁Kenntnis	-11.6699
▁transformieren	-11.6699
▁IBM	-11.6699
▁April	-11.6699
▁Waschmaschine	-11.6699
▁Aristo	-11.6699
▁Gründung	-11.6699
▁experimentelle	-11.6699
▁zuverlässig	-11.6699
▁Verarbeitung	-11.6699
▁Dürre	-11.6699
▁kopieren	-11.6699
▁Beratung	-11.6699
▁befürchte	-11.6699
▁angeblich	-11.6699
▁Vermutung	-11.6699
▁Story	-11.6699
▁Tesla	-11.6699
▁trank	-11.6699
zettel	-11.6699
▁Arthur	-11.6699
▁gefilmt	-11.6699
▁verabreich	-11.6699
▁imitiert	-11.67
▁Schreck	-11.67
▁zitiere	-11.67
▁Gebilde	-11.67
Scanner	-11.6701
▁Albert	-11.6701
▁Maske	-11.6708
▁Evere	-11.671
▁Bundes	-11.6714
fuhr	-11.6725
▁führe	-11.673
ernährung	-11.674
gezeigt	-11.675
Video	-11.675
▁Tante	-11.675
imitieren	-11.6773
▁loswerde	-11.6781
wolke	-11.6796
▁hinausgeh	-11.6806
▁überschreite	-11.6831
ntwicklungshilfe	-11.6891
▁Grenz	-11.6938
findung	-11.6968
finanz	-11.697
rwärmung	-11.6972
schleunig	-11.6976
Gebühr	-11.6977
Protokoll	-11.6977
geräusch	-11.6977
konzept	-11.6977
rezept	-11.6977
▁Astronaut	-11.6977
▁Bekannt	-11.6977
▁Buddha	-11.6977
▁DVD	-11.6977
▁Errungenschaft	-11.6977
▁Harmonie	-11.6977
▁Hüfte	-11.6977
▁Joshua	-11.6977
▁Kartoffel	-11.6977
▁Kyros	-11.6977
▁Mammographie	-11.6977
▁Mythos	-11.6977
▁Paradigma	-11.6977
▁Premierminister	-11.6977
▁Referenz	-11.6977
▁Synapse	-11.6977
▁Szenario	-11.6977
▁Universen	-11.6977
▁Vertreter	-11.6977
▁Visualisierung	-11.6977
▁Wohltätigkeit	-11.6977
▁authentisch	-11.6977
▁beunruhigend	-11.6977
▁depressiv	-11.6977
▁gewalttätig	-11.6977
▁humanitäre	-11.6977
▁ungeheure	-11.6977
▁Ältere	-11.6977
mütter	-11.6977
schöpfung	-11.6977
▁Mozart	-11.6977
▁Tastatur	-11.6977
▁Trocken	-11.6977
▁Meeting	-11.6977
▁anonym	-11.6977
▁beurteilen	-11.6977
▁schweben	-11.6977
▁Räder	-11.6977
▁Tabelle	-11.6977
▁Saudi	-11.6977
▁Schweigen	-11.6977
▁Lebensstil	-11.6977
▁Koffer	-11.6977
pumpen	-11.6977
▁Trainer	-11.6977
▁Impfung	-11.6977
▁Meeresboden	-11.6977
sklav	-11.6978
▁Schläge	-11.6978
▁Kamel	-11.6978
▁mitfühlend	-11.6979
zauber	-11.6979
▁spart	-11.6979
▁befasst	-11.698
▁vorbereiten	-11.698
stift	-11.6981
▁statisch	-11.6981
▁herrlich	-11.6983
▁Isa	-11.6986
▁Amerikanische	-11.6995
▁ordne	-11.6998
▁Spanisch	-11.7
zählt	-11.701
gestanden	-11.7047
▁beschrieb	-11.7047
▁Soldat	-11.7048
pause	-11.7077
▁verdräng	-11.7089
sammeln	-11.7091
▁letz	-11.7152
▁nütz	-11.7226
▁Hindernis	-11.7233
technolog	-11.7239
Philanthrop	-11.7262
frequenz	-11.7262
gelöscht	-11.7262
strömt	-11.7262
▁Beschränkung	-11.7262
▁Beteiligung	-11.7262
▁Ethanol	-11.7262
▁Geographic	-11.7262
▁Lautsprecher	-11.7262
▁Matrix	-11.7262
▁Mumbai	-11.7262
▁Paradox	-11.7262
▁Produzent	-11.7262
▁Präzision	-11.7262
▁Steigerung	-11.7262
▁Vakuum	-11.7262
▁Zusätzlich	-11.7262
▁allmählich	-11.7262
▁beeinträchtig	-11.7262
▁beruhigen	-11.7262
▁beunruhigt	-11.7262
▁geleistet	-11.7262
▁gesunken	-11.7262
▁ironisch	-11.7262
▁konventionelle	-11.7262
▁phänomenal	-11.7262
▁reflektiert	-11.7262
▁vernachlässig	-11.7262
▁willkürlich	-11.7262
analyse	-11.7262
▁Arzneimittel	-11.7262
▁Asthma	-11.7262
▁Faszin	-11.7262
▁Kriteri	-11.7262
▁Stephen	-11.7262
▁institutionelle	-11.7262
▁neurologische	-11.7262
▁Social	-11.7262
▁Zykl	-11.7262
▁goldene	-11.7262
gewohnheit	-11.7262
▁Verpackung	-11.7262
Komplex	-11.7262
▁Thermo	-11.7262
▁Vorurteile	-11.7263
▁bequem	-11.7263
▁jetzige	-11.7263
▁Gesang	-11.7263
▁Bundesstaat	-11.7263
getaucht	-11.7263
▁bevorzugt	-11.7263
▁riechen	-11.7263
invasiv	-11.7263
▁Bleib	-11.7263
säule	-11.7263
Shirt	-11.7263
▁widerspiegel	-11.7263
▁personalisier	-11.7264
▁bieg	-11.7264
▁Snow	-11.7264
knochen	-11.7264
▁Keim	-11.7264
▁geriet	-11.7264
▁Perfekt	-11.7264
Stränge	-11.7264
▁Verschwend	-11.7265
vereinbar	-11.7265
▁Down	-11.7269
▁gemalt	-11.7269
▁Stühle	-11.7269
▁enthüll	-11.7273
▁Emma	-11.728
▁Darau	-11.7292
beugen	-11.7301
Computerprogramm	-11.7322
Gruppe	-11.733
Problem	-11.733
Film	-11.733
nachricht	-11.7336
▁verrichte	-11.7344
▁Reife	-11.7456
iöse	-11.7553
denkst	-11.7555
▁erneuer	-11.7555
struktion	-11.7555
▁Immun	-11.7556
nähernd	-11.7557
▁Aluminium	-11.7557
▁Begegnung	-11.7557
▁Beschäftigung	-11.7557
▁Blutgefäße	-11.7557
▁Brooklyn	-11.7557
▁Favorit	-11.7557
▁Frösche	-11.7557
▁Geduld	-11.7557
▁Helikopter	-11.7557
▁Hülle	-11.7557
▁Kennedy	-11.7557
▁Obdachlose	-11.7557
▁Würmer	-11.7557
▁demonstrieren	-11.7557
▁dürfte	-11.7557
▁hoffnungslos	-11.7557
▁mysteriös	-11.7557
▁rekonstruier	-11.7557
▁schmeckt	-11.7557
▁unzählige	-11.7557
▁vereinfachen	-11.7557
▁zerbrechlich	-11.7557
▁Ähnlichkeit	-11.7557
▁Älterwerden	-11.7557
▁Anwesenheit	-11.7557
▁Scheiß	-11.7557
▁Zwang	-11.7557
▁ansteckend	-11.7557
▁Action	-11.7557
▁Medica	-11.7557
▁Umfang	-11.7557
▁tendieren	-11.7557
lächelt	-11.7557
▁Craig	-11.7557
▁Mikrofon	-11.7557
▁befriedigen	-11.7557
▁Gummi	-11.7557
▁entschlüssel	-11.7557
▁subtil	-11.7557
▁Bestechung	-11.7557
▁Reporter	-11.7557
▁Mitleid	-11.7557
▁Schwäche	-11.7557
▁kostengünstig	-11.7557
▁Stigma	-11.7557
▁Jagd	-11.7557
▁Draht	-11.7557
▁Killer	-11.7557
museum	-11.7557
▁Prinz	-11.7557
▁Anliegen	-11.7557
▁Sänger	-11.7557
▁Deep	-11.7557
schleife	-11.7558
▁Wusste	-11.7559
▁Gelenk	-11.756
▁Olive	-11.7561
▁vergifte	-11.7564
klima	-11.7565
▁sähe	-11.7584
Design	-11.7633
erblichkeitsrate	-11.7669
▁Woh	-11.7669
▁künstlich	-11.7683
▁Insulin	-11.7752
▁beleuchte	-11.7821
▁mathematisch	-11.7854
▁Technolog	-11.7854
▁Symphonie	-11.786
Community	-11.786
Weihnachten	-11.786
verletzung	-11.786
▁Assistent	-11.786
▁Beleuchtung	-11.786
▁Chemiker	-11.786
▁Fantastisch	-11.786
▁Gänse	-11.786
▁Joseph	-11.786
▁Lebensunterhalt	-11.786
▁Ostküste	-11.786
▁Rezession	-11.786
▁Schlimmste	-11.786
▁Wahnsinn	-11.786
▁dominiert	-11.786
▁herkömmliche	-11.786
▁unterschätz	-11.786
▁zuständig	-11.786
▁Ästheti	-11.786
apparat	-11.786
▁auslöst	-11.786
▁lebhaft	-11.786
▁Ethik	-11.786
▁Raubtier	-11.786
sekunde	-11.786
▁Gattung	-11.786
▁NSA	-11.786
▁Rabbi	-11.786
search	-11.786
▁Watson	-11.786
▁servier	-11.786
▁implantier	-11.786
▁Jazz	-11.786
▁erholt	-11.786
▁Space	-11.786
▁Streifen	-11.786
▁Atombombe	-11.786
▁Syrien	-11.786
▁Tomaten	-11.786
▁Tugend	-11.786
▁Transaktion	-11.786
▁Lippen	-11.786
▁Kosov	-11.786
▁Berater	-11.786
▁erschreckend	-11.786
▁Schnecke	-11.786
▁symbolisch	-11.7861
▁Bergsteiger	-11.7861
▁Pumpe	-11.7863
▁Wurm	-11.7865
▁kontaktier	-11.7868
▁Jahrtausende	-11.7869
wüste	-11.7871
lvani	-11.7912
folgsgeschichte	-11.7933
▁treffe	-11.7943
positiv	-11.7944
Welt	-11.7946
generation	-11.7952
▁schätze	-11.7975
töne	-11.7994
▁Liebling	-11.8026
gespielt	-11.8077
wahrscheinlich	-11.8104
▁abschneide	-11.811
ruchteil	-11.8119
▁architektonisch	-11.814
▁durchdring	-11.8141
▁Grundschul	-11.8149
kontakt	-11.8164
▁Kosmo	-11.817
künstler	-11.8171
▁Parallel	-11.8172
▁Skelettmuskel	-11.8172
Engineering	-11.8172
flüster	-11.8172
hälfte	-11.8172
kampagne	-11.8172
nerzähler	-11.8172
▁Bezirk	-11.8172
▁Comedy	-11.8172
▁Franzose	-11.8172
▁Französisch	-11.8172
▁Jerusalem	-11.8172
▁Kambodscha	-11.8172
▁Leonardo	-11.8172
▁NGO	-11.8172
▁Sylvia	-11.8172
▁Ungerechtigkeit	-11.8172
▁Vereinbarung	-11.8172
▁Vergewaltigung	-11.8172
▁anderthalb	-11.8172
▁katastrophal	-11.8172
▁koordinier	-11.8172
▁kurzfristig	-11.8172
▁maximal	-11.8172
▁Cholera	-11.8172
▁Idiot	-11.8172
▁Praktik	-11.8172
▁schockiert	-11.8172
▁Spazier	-11.8172
▁besiegen	-11.8172
▁Spritze	-11.8172
▁Universal	-11.8172
kredit	-11.8172
▁Ewigkeit	-11.8172
▁kopiert	-11.8172
▁Übel	-11.8172
verarbeitung	-11.8172
▁ruinier	-11.8172
▁absurd	-11.8172
klammer	-11.8172
▁veraltet	-11.8172
▁generiert	-11.8172
▁Probanden	-11.8172
▁Wildnis	-11.8172
▁nutzlos	-11.8173
▁Auseinandersetz	-11.8175
▁chirurgische	-11.8175
▁Begleit	-11.8175
soldat	-11.8176
bäume	-11.8177
▁Surf	-11.818
▁Hirte	-11.8181
▁nachdachte	-11.819
▁solide	-11.8196
gepackt	-11.8198
▁minu	-11.8217
hacke	-11.8234
▁Dosi	-11.8235
günstig	-11.8266
Schrift	-11.8267
Studie	-11.8268
besser	-11.8268
mobil	-11.8281
▁erkläre	-11.8298
izz	-11.8305
▁präsent	-11.8328
▁strategisch	-11.8376
haltige	-11.8437
▁übernimm	-11.8469
▁Wunde	-11.8482
Reflex	-11.8495
▁Kollision	-11.8495
Bombenzielgerät	-11.8495
patienten	-11.8495
situation	-11.8495
▁Ausbreitung	-11.8495
▁Enthüllung	-11.8495
▁Highschool	-11.8495
▁Händler	-11.8495
▁Intensität	-11.8495
▁Kapitän	-11.8495
▁Kopenhagen	-11.8495
▁Kriminelle	-11.8495
▁Kälte	-11.8495
▁Phoenix	-11.8495
▁Propaganda	-11.8495
▁Unbekannte	-11.8495
▁altmodisch	-11.8495
▁bahnbrechend	-11.8495
▁enttäuscht	-11.8495
▁gespannt	-11.8495
▁installieren	-11.8495
▁italienische	-11.8495
▁replizier	-11.8495
▁signifikant	-11.8495
blühen	-11.8495
disziplin	-11.8495
▁Bäcker	-11.8495
▁messbar	-11.8495
prozentige	-11.8495
studium	-11.8495
▁MoMA	-11.8495
▁essentiell	-11.8495
kolonie	-11.8495
▁Health	-11.8495
▁Künste	-11.8495
▁Nathan	-11.8495
konzern	-11.8495
hersteller	-11.8495
wefelwasserstoff	-11.8495
▁Statue	-11.8495
▁stört	-11.8495
▁Luther	-11.8495
▁unternehmerisch	-11.8495
müll	-11.8495
▁Krater	-11.8495
▁verstärken	-11.8495
plex	-11.8495
stuhl	-11.8496
▁Zoo	-11.8496
▁zurückkehrt	-11.8496
▁Bald	-11.8496
Think	-11.8496
wärmt	-11.8497
▁Kosmolog	-11.8498
▁Schott	-11.8499
▁iranische	-11.85
▁Computerspiele	-11.852
brücke	-11.8522
geachtet	-11.8536
▁Rassis	-11.8564
▁zukünftig	-11.8578
▁wähle	-11.8631
▁überraschen	-11.8694
wählen	-11.8715
▁erzähl	-11.8741
träglich	-11.8827
berechtigung	-11.8828
bezirk	-11.8828
entzündung	-11.8828
gläubig	-11.8828
▁Athlet	-11.8828
▁Außerirdische	-11.8828
▁Canyon	-11.8828
▁Chemotherapie	-11.8828
▁Embryo	-11.8828
▁Fortpflanzung	-11.8828
▁Hubschrauber	-11.8828
▁Jupiter	-11.8828
▁Kollaps	-11.8828
▁Konservative	-11.8828
▁Neanderthaler	-11.8828
▁Performance	-11.8828
▁Schildkröte	-11.8828
▁Wiederaufbau	-11.8828
▁Wiederholung	-11.8828
▁bemüht	-11.8828
▁eigenständig	-11.8828
▁eingebettet	-11.8828
▁flexibel	-11.8828
▁gänzlich	-11.8828
▁kommuniziert	-11.8828
▁korrupt	-11.8828
▁potenziell	-11.8828
▁primär	-11.8828
▁skeptisch	-11.8828
▁unnötig	-11.8828
▁verkleiner	-11.8828
treibung	-11.8828
▁CEO	-11.8828
▁Eröffnung	-11.8828
▁Heilmittel	-11.8828
▁Hühnchen	-11.8828
▁Michigan	-11.8828
▁Mörder	-11.8828
▁Schadstoffe	-11.8828
▁explodieren	-11.8828
▁höflich	-11.8828
▁stundenlang	-11.8828
▁Plankton	-11.8828
versicherung	-11.8828
▁Liberia	-11.8828
▁blöd	-11.8828
▁Email	-11.8828
▁schaltet	-11.8828
▁wandelt	-11.8828
reaktor	-11.8828
▁wußte	-11.8828
▁undeutlich	-11.8828
besitzer	-11.8828
▁stören	-11.8828
Sharing	-11.8829
▁begründet	-11.8829
kurve	-11.8829
▁ideologisch	-11.8829
▁Klient	-11.8829
▁faul	-11.883
▁niedlich	-11.8831
Central	-11.8832
niveau	-11.8833
sammenzuarbeiten	-11.8835
▁begrab	-11.8886
schwimmen	-11.8945
▁zusammensetz	-11.899
heiß	-11.906
bevölkerung	-11.9161
droht	-11.9167
▁Molekular	-11.9173
Ausrottung	-11.9173
▁Babbage	-11.9173
▁Beethoven	-11.9173
▁CRISPR	-11.9173
▁Dschihad	-11.9173
▁Dünger	-11.9173
▁Expansion	-11.9173
▁Globus	-11.9173
▁Gouverneur	-11.9173
▁Immobilien	-11.9173
▁Instinkt	-11.9173
▁Ironie	-11.9173
▁Kaninchen	-11.9173
▁Knöpfe	-11.9173
▁Kompetenz	-11.9173
▁Langlebigkeit	-11.9173
▁Nairobi	-11.9173
▁Namibia	-11.9173
▁Schöpfer	-11.9173
▁Synthese	-11.9173
▁Thailand	-11.9173
▁Verkäufe	-11.9173
▁Verzerrung	-11.9173
▁Zimbabwe	-11.9173
▁adoptier	-11.9173
▁beauftragt	-11.9173
▁differenzier	-11.9173
▁frustrierend	-11.9173
▁geheimnisvoll	-11.9173
▁homosexuell	-11.9173
▁maximier	-11.9173
▁populär	-11.9173
▁qualifizier	-11.9173
▁schockierend	-11.9173
▁unvorstellbar	-11.9173
▁verstorben	-11.9173
▁verwirrend	-11.9173
▁verärgert	-11.9173
▁Ärztin	-11.9173
instrument	-11.9173
werbung	-11.9173
▁Mountain	-11.9173
▁Münze	-11.9173
▁Reputation	-11.9173
▁resistent	-11.9173
▁endgültige	-11.9173
▁Offenbarung	-11.9173
▁Nahrungskette	-11.9173
▁Vernetzung	-11.9173
▁witzig	-11.9173
vielversprechend	-11.9173
▁Schlamm	-11.9173
gehörigkeit	-11.9173
▁Engel	-11.9173
▁regelrecht	-11.9173
▁Kontrast	-11.9173
bühne	-11.9173
▁garantiere	-11.9173
▁Hürde	-11.9173
▁Unmögliche	-11.9173
sonderlich	-11.9174
▁experimentiert	-11.9174
Minerali	-11.9174
▁erschöpf	-11.9175
▁Toast	-11.9176
▁Abgeordnete	-11.9179
▁Narbe	-11.9179
tafel	-11.9181
▁modellier	-11.9205
▁vorantreib	-11.9207
effiziente	-11.9241
elekommunikation	-11.9293
Gerät	-11.9303
gelernt	-11.9307
▁hervorheb	-11.9316
▁unterzeichne	-11.9326
▁auseinandersetz	-11.9373
▁herunterlade	-11.9393
▁Homosexu	-11.9393
afrikanische	-11.9402
▁Entscheid	-11.9457
deutig	-11.9528
algorithm	-11.953
gestützt	-11.953
transplantat	-11.953
vögel	-11.953
▁Anatomie	-11.953
▁Basketball	-11.953
▁Exemplar	-11.953
▁Frustration	-11.953
▁Getränk	-11.953
▁Gitarre	-11.953
▁Hamburger	-11.953
▁Isolation	-11.953
▁Lobby	-11.953
▁Mythologie	-11.953
▁Rückmeldung	-11.953
▁asiatische	-11.953
▁bestäub	-11.953
▁empfand	-11.953
▁gescheitert	-11.953
▁iPad	-11.953
▁indirekt	-11.953
▁interviewt	-11.953
▁israelische	-11.953
▁kontrovers	-11.953
▁scheitert	-11.953
gebrannt	-11.953
▁Affäre	-11.953
▁Dirigent	-11.953
▁Fitness	-11.953
▁Infrarot	-11.953
▁Jefferson	-11.953
▁Schwellenländer	-11.953
▁Stillstand	-11.953
▁bösartig	-11.953
▁erstreckt	-11.953
▁hochgeladen	-11.953
▁räumliche	-11.953
▁verfeiner	-11.953
gläser	-11.953
▁anfangs	-11.953
gräb	-11.953
▁Louis	-11.953
▁FDA	-11.953
▁Mammut	-11.953
▁frisst	-11.953
▁Recherche	-11.953
▁Child	-11.953
▁neigt	-11.953
▁Kupfer	-11.953
▁Schmuck	-11.953
▁Gamma	-11.953
▁Schwingung	-11.953
▁Vorsitzende	-11.953
höhle	-11.953
▁bedient	-11.953
▁Great	-11.953
▁Barrel	-11.953
▁Kiefer	-11.953
▁kühn	-11.953
▁Gecko	-11.953
▁Stockwerke	-11.953
▁rutsch	-11.953
▁Gallone	-11.953
stimmig	-11.953
▁Urban	-11.953
▁Investi	-11.9531
vertrauenswürdig	-11.9531
▁herauskomm	-11.9531
▁Imperi	-11.9531
▁weinte	-11.9532
▁entschuldige	-11.9544
dampf	-11.9548
siedeln	-11.9589
Wörterbücher	-11.959
verkauf	-11.9591
▁teilhabe	-11.9599
sichtslos	-11.9621
Konferenz	-11.9673
▁Elefant	-11.9685
▁Sterblichkeit	-11.9763
verändernde	-11.9828
chütteln	-11.9839
▁aufnimm	-11.9887
Satellit	-11.9896
drehung	-11.99
persönlichkeit	-11.99
▁Absolut	-11.99
▁Barmherzigkeit	-11.99
▁Bündel	-11.99
▁Delphine	-11.99
▁Fakultät	-11.99
▁Honigbiene	-11.99
▁Hybrid	-11.99
▁Intervention	-11.99
▁Korrelation	-11.99
▁Kristall	-11.99
▁Krokodil	-11.99
▁Manipulation	-11.99
▁Natasha	-11.99
▁Remix	-11.99
▁Selbstvertrauen	-11.99
▁Tuberkulose	-11.99
▁Ushahidi	-11.99
▁afghanische	-11.99
▁bemühe	-11.99
▁brilliant	-11.99
▁ergänzen	-11.99
▁glänzende	-11.99
▁konzipier	-11.99
▁reflektieren	-11.99
▁unvermeidbar	-11.99
▁veranschaulich	-11.99
▁überwältigt	-11.99
artnäckig	-11.99
zuschätzen	-11.99
▁Beschleunigung	-11.99
▁Differenz	-11.99
▁Enthusias	-11.99
▁Feministin	-11.99
▁Intellekt	-11.99
▁Nuklear	-11.99
▁Puzzle	-11.99
▁Träger	-11.99
▁beachtlich	-11.99
▁eBay	-11.99
▁isolieren	-11.99
▁permanent	-11.99
▁raffinierte	-11.99
▁vereinfacht	-11.99
▁beherberg	-11.99
▁eindrucksvoll	-11.99
▁Fertigung	-11.99
▁Bestimmt	-11.99
▁Wohlergehen	-11.99
▁begleiten	-11.99
▁begeistern	-11.99
▁operiert	-11.99
▁revolutionäre	-11.99
▁Asphalt	-11.99
batterie	-11.99
▁gekocht	-11.99
Arabien	-11.99
▁Muschel	-11.99
▁Moskitonetze	-11.9901
Hydro	-11.9901
üffel	-11.9901
▁Sammel	-11.9901
rekord	-11.9901
▁mobilisier	-11.9902
▁mikroskopisch	-11.9902
▁schwinde	-11.9902
Fieber	-11.9906
scheibe	-11.9907
Event	-11.9912
▁Geschöpf	-11.9915
▁Verwund	-11.9928
ambia	-11.9944
▁fahre	-11.9955
ivilgesellschaft	-12.0016
▁entführ	-12.0018
ständigkeit	-12.0033
Afrika	-12.0058
Geschichte	-12.0059
loggen	-12.0066
▁Authenti	-12.008
mindest	-12.0196
hülle	-12.0274
fresser	-12.0285
gebühr	-12.0285
konferenz	-12.0285
konflikt	-12.0285
▁Avatar	-12.0285
▁Edinburgh	-12.0285
▁Favela	-12.0285
▁Fluktuation	-12.0285
▁Football	-12.0285
▁Grammatik	-12.0285
▁Horror	-12.0285
▁Kathedrale	-12.0285
▁Lithium	-12.0285
▁Marshmallow	-12.0285
▁Migräne	-12.0285
▁Oklahoma	-12.0285
▁Palästina	-12.0285
▁Pittsburgh	-12.0285
▁Positive	-12.0285
▁Reduktion	-12.0285
▁Resonanz	-12.0285
▁Todesursache	-12.0285
▁Tyrann	-12.0285
▁Umlaufbahn	-12.0285
▁Wolfram	-12.0285
▁anständig	-12.0285
▁astronomisch	-12.0285
▁autistische	-12.0285
▁beherrscht	-12.0285
▁bewerkstelligen	-12.0285
▁geometrische	-12.0285
▁hoffnungsvoll	-12.0285
▁irrational	-12.0285
▁korrigieren	-12.0285
▁mikrobielle	-12.0285
▁nigerianische	-12.0285
▁philosophische	-12.0285
▁riskant	-12.0285
▁schläf	-12.0285
▁talentierte	-12.0285
▁unterirdisch	-12.0285
▁verblüfft	-12.0285
▁vorhersehbar	-12.0285
▁wertschätz	-12.0285
▁widersprüchlich	-12.0285
röpfchen	-12.0285
schleuder	-12.0285
▁Akzent	-12.0285
▁Dylan	-12.0285
▁Nektar	-12.0285
▁Zeichne	-12.0285
▁entspannt	-12.0285
▁Äquator	-12.0285
▁Bosnien	-12.0285
▁Kürze	-12.0285
▁Paradies	-12.0285
studio	-12.0285
▁tropische	-12.0285
▁betrogen	-12.0285
wörter	-12.0285
▁erwiesen	-12.0285
teppich	-12.0285
▁Club	-12.0285
▁Royal	-12.0285
▁Larry	-12.0285
▁landesweit	-12.0285
▁Doaa	-12.0285
▁gefaltet	-12.0285
▁kürzeste	-12.0285
äugige	-12.0286
▁Zähl	-12.0286
▁kodier	-12.0286
▁Überreste	-12.0286
▁pink	-12.0286
nästhesie	-12.0288
▁lehne	-12.0319
▁digitalisier	-12.0353
spritze	-12.0361
▁Reiz	-12.0392
organisiert	-12.0457
Einkommen	-12.0458
Theorie	-12.0458
Roboter	-12.0458
Stunden	-12.0458
▁auswirk	-12.0529
▁beheb	-12.0615
▁gegenübersteh	-12.066
▁abhol	-12.0671
▁Schwefel	-12.0685
gehängt	-12.0685
physiologi	-12.0685
population	-12.0685
verwaltung	-12.0685
▁Abstraktion	-12.0685
▁Adoption	-12.0685
▁Akzeptanz	-12.0685
▁Aquarium	-12.0685
▁Blöcke	-12.0685
▁Bruttoinlands	-12.0685
▁Fledermaus	-12.0685
▁Goliath	-12.0685
▁Justiz	-12.0685
▁Lähmung	-12.0685
▁Migration	-12.0685
▁Mohammed	-12.0685
▁Niederlande	-12.0685
▁Orientierung	-12.0685
▁Prozedur	-12.0685
▁Sediment	-12.0685
▁Supraleiter	-12.0685
▁Zeitraffer	-12.0685
▁Zeremonie	-12.0685
▁autoritäre	-12.0685
▁begrüßen	-12.0685
▁bewaffnete	-12.0685
▁scannen	-12.0685
▁selbständig	-12.0685
▁verlieh	-12.0685
▁Übereinstimmung	-12.0685
▁ästhetische	-12.0685
▁übereinstimmt	-12.0685
▁überflüssig	-12.0685
Armstrong	-12.0685
▁Graffiti	-12.0685
▁Himalaya	-12.0685
▁Investment	-12.0685
▁Komplikation	-12.0685
▁Monsun	-12.0685
▁stolper	-12.0685
kanäle	-12.0685
künfte	-12.0685
▁Spirit	-12.0685
▁Wilson	-12.0685
▁marschier	-12.0685
▁verminder	-12.0685
▁vernichtet	-12.0685
▁Befreiung	-12.0685
▁Howard	-12.0685
▁diverse	-12.0685
▁protestier	-12.0685
▁Ausbeut	-12.0685
▁lecker	-12.0685
▁Anziehung	-12.0685
▁Falken	-12.0685
▁Larven	-12.0685
▁Juwel	-12.0685
▁einflussreich	-12.0685
▁verzichte	-12.0685
▁einverstande	-12.0685
interesse	-12.0686
▁Tausch	-12.0686
Mobile	-12.0687
Strateg	-12.0688
kundig	-12.0692
▁reichhaltig	-12.0692
▁milde	-12.0693
▁zusammenhäng	-12.0695
▁Bürgersteig	-12.0699
▁besetz	-12.0718
▁freisetz	-12.0776
Student	-12.0874
Krieg	-12.0875
zusammengestellt	-12.0996
schränkt	-12.106
gedanken	-12.1068
gemütlich	-12.1102
potential	-12.1102
▁Anthropologe	-12.1102
▁Bangalore	-12.1102
▁Beerdigung	-12.1102
▁Beobachter	-12.1102
▁Betroffene	-12.1102
▁Cassini	-12.1102
▁Columbia	-12.1102
▁Komponist	-12.1102
▁Maßstäbe	-12.1102
▁Missbrauch	-12.1102
▁Mitternacht	-12.1102
▁Multiversum	-12.1102
▁Odysse	-12.1102
▁Osteurop	-12.1102
▁Philadelphia	-12.1102
▁Sebastian	-12.1102
▁Seltsam	-12.1102
▁Stewart	-12.1102
▁Verfügbarkeit	-12.1102
▁Wandertaube	-12.1102
▁Wright	-12.1102
▁Wölfe	-12.1102
▁ausgedehnt	-12.1102
▁ausgerottet	-12.1102
▁beständig	-12.1102
▁dreckig	-12.1102
▁ermordet	-12.1102
▁gekennzeichnet	-12.1102
▁gruselig	-12.1102
▁instinktiv	-12.1102
▁interagiert	-12.1102
▁jugendliche	-12.1102
▁katholische	-12.1102
▁klüger	-12.1102
▁komponier	-12.1102
▁präfrontale	-12.1102
▁rekrutier	-12.1102
▁repräsentativ	-12.1102
▁unbeabsichtigte	-12.1102
▁unterhaltsam	-12.1102
▁unvollständig	-12.1102
▁verletzlich	-12.1102
▁Tasmanische	-12.1102
▁ehrgeizig	-12.1102
▁extrahieren	-12.1102
▁harmlos	-12.1102
▁verheerend	-12.1102
▁Knochenmark	-12.1102
kollekt	-12.1102
▁BMW	-12.1102
▁Bildhauer	-12.1102
▁Kokain	-12.1102
▁ueber	-12.1102
▁Vereinigung	-12.1102
geklärt	-12.1102
erkeley	-12.1102
koppel	-12.1102
▁gespart	-12.1102
▁Sünde	-12.1102
▁empor	-12.1102
▁Grube	-12.1102
▁Zehntausende	-12.1102
▁hinbekomm	-12.1105
krabbe	-12.1106
rätsel	-12.1108
▁importier	-12.111
▁einhergeh	-12.1123
▁Drama	-12.1126
quat	-12.1129
raufhin	-12.1178
▁widersteh	-12.1243
sulinresisten	-12.1252
Ausstoß	-12.1268
geschickt	-12.1309
Patient	-12.1309
Vortrag	-12.1309
Wirtschaft	-12.1309
▁verbiete	-12.1431
schöpfen	-12.1516
sequenz	-12.1529
hrfurcht	-12.1536
würmer	-12.1536
▁AIMS	-12.1536
▁Akustik	-12.1536
▁Amsterdam	-12.1536
▁Anekdote	-12.1536
▁Anforderung	-12.1536
▁Dokumentation	-12.1536
▁Dänemark	-12.1536
▁Erleuchtung	-12.1536
▁Fassade	-12.1536
▁Feuchtigkeit	-12.1536
▁Flöten	-12.1536
▁Gewissheit	-12.1536
▁Jersey	-12.1536
▁Kästchen	-12.1536
▁Linkshänder	-12.1536
▁Lotterie	-12.1536
▁Michelangelo	-12.1536
▁Mobilfunk	-12.1536
▁Oscar	-12.1536
▁Schnurrbart	-12.1536
▁Sprichwort	-12.1536
▁Sydney	-12.1536
▁Volumen	-12.1536
▁anpassungsfähig	-12.1536
▁gespendet	-12.1536
▁gestört	-12.1536
▁immaterielle	-12.1536
▁kritisiert	-12.1536
▁multiplizier	-12.1536
▁neuronale	-12.1536
▁proportional	-12.1536
▁sämtliche	-12.1536
▁umfangreich	-12.1536
▁Äpfel	-12.1536
▁ägyptische	-12.1536
▁übereinstimmen	-12.1536
▁überwiegend	-12.1536
▁Entdecker	-12.1536
▁anstrengen	-12.1536
▁drängen	-12.1536
▁injizieren	-12.1536
▁schwedische	-12.1536
aufrechterhalten	-12.1536
▁Akku	-12.1536
▁Anonym	-12.1536
#	-12.5262
!	-13.2509
♫	-13.251
—	-13.2511
–	-13.2512
)	-13.2513
?	-13.2514
:	-13.2515
&	-13.2516
