<unk>	0
<s>	0
</s>	0
▁,	-3.31662
▁.	-3.3279
ς	-3.42789
▁	-3.56662
ν	-3.62524
▁να	-3.90499
α	-4.12639
▁και	-4.17277
▁το	-4.20382
▁τη	-4.47659
▁είναι	-4.52881
▁που	-4.60941
ι	-4.63141
ά	-4.76821
;	-4.86643
▁&	-4.91134
▁από	-4.93844
▁για	-4.94459
▁με	-5.0008
▁τα	-5.03474
▁του	-5.05416
ε	-5.09169
▁η	-5.1431
▁στο	-5.17475
ο	-5.17626
▁σε	-5.18276
▁αυτό	-5.23256
ή	-5.24503
ω	-5.24602
ot	-5.26027
qu	-5.26437
ες	-5.2746
▁ένα	-5.29122
▁στη	-5.34813
▁θα	-5.35484
▁της	-5.40107
▁ότι	-5.40683
▁δεν	-5.44793
▁τι	-5.45754
▁Και	-5.46767
με	-5.48811
▁τους	-5.53387
▁μια	-5.54608
η	-5.56223
ό	-5.59222
ει	-5.61559
ές	-5.6509
▁ο	-5.65651
▁μου	-5.68515
▁οι	-5.70094
ουμε	-5.72413
▁μας	-5.75631
▁τον	-5.76999
τε	-5.78474
▁;	-5.84032
ως	-5.90086
των	-5.91354
a	-5.96684
▁ήταν	-5.99163
ών	-6.06669
▁αν	-6.08491
▁πολύ	-6.08754
pos	-6.12418
υ	-6.12726
ουν	-6.20504
▁)	-6.21019
(	-6.21059
▁σας	-6.21131
ί	-6.21859
▁αυτή	-6.22195
▁:	-6.24621
ων	-6.28713
▁—	-6.31317
▁αλλά	-6.31583
ύ	-6.31816
▁πω	-6.32833
χ	-6.39546
▁Το	-6.41215
ου	-6.42108
▁μπορεί	-6.42262
▁έχει	-6.45102
▁Η	-6.45386
εται	-6.45662
γ	-6.50288
ετε	-6.50392
▁ή	-6.51567
ού	-6.54012
▁Αυτό	-6.55643
ρ	-6.57438
κ	-6.59718
▁αυτά	-6.61372
▁όταν	-6.62707
λ	-6.62867
φ	-6.65583
▁Είνα	-6.65689
▁Αλλά	-6.66388
▁στα	-6.68037
▁πιο	-6.69524
σ	-6.6969
▁Δεν	-6.70103
τ	-6.71797
▁όπ	-6.72504
τα	-6.72538
«	-6.72621
▁»	-6.73639
▁κάτι	-6.73642
▁Ο	-6.74348
οί	-6.74619
αν	-6.75951
ώ	-6.76762
π	-6.77403
▁μόνο	-6.79107
▁μία	-6.81861
αμε	-6.83072
▁προ	-6.84125
▁Ε	-6.86187
μ	-6.86963
▁εδώ	-6.86983
θ	-6.87109
▁Π	-6.87295
▁έχουν	-6.87885
▁Έτσι	-6.87924
έ	-6.90306
πρέπει	-6.90725
▁χρόνια	-6.94186
▁έχουμε	-6.948
β	-6.95054
.	-6.96675
▁Γέλι	-6.98504
εί	-7.01215
▁κόσμο	-7.01651
▁τρόπο	-7.02702
ις	-7.0441
▁κι	-7.04707
ώς	-7.0495
▁είχα	-7.05662
ους	-7.06321
▁στι	-7.0838
-	-7.08875
▁μέσα	-7.09061
ος	-7.09441
▁πράγματα	-7.10738
όν	-7.1133
▁λοιπόν	-7.11829
▁έτσι	-7.12451
δ	-7.13038
▁σαν	-7.13255
▁άνθρωποι	-7.13404
▁Α	-7.13791
▁κάθε	-7.14304
υς	-7.14846
▁Θα	-7.1615
ούς	-7.16688
▁σ	-7.17195
▁κάνει	-7.17797
οι	-7.17903
▁οποίο	-7.19084
▁απ	-7.19581
▁υπάρχει	-7.20865
▁τόσο	-7.21795
▁δύο	-7.21797
▁αυτές	-7.23347
▁γιατί	-7.23698
▁πώς	-7.24018
μα	-7.24355
▁τώρα	-7.2528
▁κάνουμε	-7.25546
ούν	-7.25784
▁όλα	-7.26277
▁Οι	-7.27912
▁μπορούμε	-7.27926
▁Αν	-7.29704
αι	-7.3008
ία	-7.30375
▁επειδ	-7.30771
▁ως	-7.31435
▁ένας	-7.31946
▁σου	-7.33015
▁μετά	-7.33169
▁εκεί	-7.34019
▁πραγματικά	-7.34084
εις	-7.35446
▁έναν	-7.36164
το	-7.36807
▁Σ	-7.37925
ξ	-7.3817
▁όλο	-7.38351
▁όπου	-7.38656
▁απο	-7.38725
▁όχι	-7.38802
▁ανθρώπους	-7.41292
ός	-7.42241
ονται	-7.42292
▁Χειροκρότημα	-7.44152
σε	-7.44207
▁πάνω	-7.46483
▁είχε	-7.46893
▁-	-7.47164
▁κάποιο	-7.48186
▁περισσότερο	-7.48303
▁κατά	-7.48396
▁ζωή	-7.48469
ντ	-7.49054
▁π	-7.49087
▁άλλο	-7.50867
▁κάνουν	-7.51136
▁πριν	-7.52368
▁οποία	-7.52674
▁μερικ	-7.52701
▁επι	-7.5341
▁Τώρα	-7.54241
▁εξ	-7.54554
είς	-7.56294
οντας	-7.56546
▁πραγματικότητα	-7.56587
▁δια	-7.5712
▁Τα	-7.57337
▁όμ	-7.58028
ται	-7.58542
▁χρόνο	-7.59446
▁ακόμα	-7.59458
▁καθ	-7.59475
ερ	-7.59812
▁παιδιά	-7.60077
▁δι	-7.61242
άν	-7.61858
▁δε	-7.62507
ρα	-7.62779
▁υπάρχουν	-7.631
▁επίσης	-7.64138
στ	-7.6437
λα	-7.64504
▁Αυτή	-7.64874
▁μαζί	-7.66304
▁Για	-7.67246
ώστε	-7.68992
▁σήμερα	-7.69057
ορ	-7.69089
▁συν	-7.71466
▁ιστορία	-7.7201
▁τότε	-7.72393
▁γι	-7.72435
▁ίδιο	-7.72781
▁ιδέα	-7.72928
ούμε	-7.73048
τι	-7.73065
▁Τι	-7.73127
▁μπορούν	-7.73955
▁μέρος	-7.74264
ώντας	-7.74411
▁ενός	-7.74811
▁πολλά	-7.75299
▁Σα	-7.75659
▁είμαστε	-7.75681
▁περίπου	-7.76227
▁είμαι	-7.77162
ική	-7.77608
απλά	-7.78014
▁Μ	-7.78241
▁εκ	-7.78751
▁ποτέ	-7.79391
σα	-7.80508
▁όσο	-7.80556
▁Ότα	-7.8067
ρι	-7.8126
είτε	-7.8131
▁λίγο	-7.81912
▁είπε	-7.83035
▁εν	-7.83853
▁μ	-7.85935
▁παράδειγμα	-7.86139
τη	-7.86267
▁κάνω	-7.87789
▁παρα	-7.87835
▁μπορούσα	-7.87847
▁έχω	-7.87891
▁Κι	-7.88183
▁στιγμή	-7.89424
▁νομίζ	-7.89707
▁Οπότ	-7.89782
λά	-7.89972
▁Με	-7.90144
▁πίσω	-7.90352
ζ	-7.90364
▁Αυτ	-7.90543
▁κ	-7.91236
▁πάντα	-7.91866
▁Στη	-7.92198
▁πρόβλημα	-7.92509
ίσως	-7.92804
ικό	-7.92897
λε	-7.9294
▁δουλειά	-7.93242
▁Β	-7.93576
λι	-7.93782
▁εγώ	-7.94244
▁αρκετ	-7.944
▁φορά	-7.94425
▁δείτε	-7.95197
ρε	-7.96125
▁μέχρι	-7.96231
▁Μπορεί	-7.96734
βα	-7.96991
▁χωρί	-7.97046
e	-7.97519
▁συμβαίνει	-7.97964
▁αυτούς	-7.99293
▁φορές	-7.99531
o	-7.99623
σι	-7.99644
ρο	-8.00345
▁μην	-8.01024
▁ακόμη	-8.01127
ση	-8.01157
▁κάποια	-8.0185
λο	-8.02034
ψ	-8.02482
▁τεχνολογία	-8.02571
▁πρώτη	-8.0275
▁ήθελα	-8.02976
▁εάν	-8.03176
ελ	-8.03639
▁Ήταν	-8.04612
▁πράγμα	-8.04791
▁έπρεπε	-8.05026
▁σύστημα	-8.05606
▁ακριβώς	-8.05618
▁Λοιπ	-8.05774
▁κατα	-8.05886
τά	-8.06192
▁ευχαριστώ	-8.06403
▁σπίτι	-8.06443
▁Χ	-8.06794
▁μεγάλη	-8.07033
ιο	-8.07372
δώ	-8.07457
▁μέρα	-8.07669
▁σημαίν	-8.07804
▁Γιατ	-8.08053
▁ήμουν	-8.08087
μο	-8.08093
λη	-8.08115
▁καλά	-8.08241
τος	-8.08249
στους	-8.0829
▁μεταξ	-8.08608
σαν	-8.09127
▁σημαντικό	-8.09282
▁μπορούσε	-8.096
τρ	-8.09774
▁μεγάλο	-8.10125
▁νέα	-8.10351
ιών	-8.11312
▁έκανα	-8.12237
s	-8.12596
πλ	-8.13334
κτ	-8.13383
▁άλλα	-8.13834
κρ	-8.13951
▁Σε	-8.14027
▁γίνει	-8.14103
▁κάτω	-8.14507
γκ	-8.1454
αρ	-8.14759
▁άλλη	-8.154
ότητα	-8.17255
▁ίδια	-8.17665
▁χώρα	-8.17724
δήποτε	-8.17814
▁αυτού	-8.18091
▁πρώτο	-8.18312
▁δούμε	-8.18318
▁έχετ	-8.18398
▁Τ	-8.18533
▁πολλές	-8.18763
1	-8.18869
▁όλε	-8.19211
▁έκανε	-8.19625
▁...	-8.19634
▁λέει	-8.19821
▁μη	-8.20362
ομαι	-8.20501
▁θέλω	-8.20876
▁ζωής	-8.21115
όλοι	-8.21162
ίες	-8.22085
▁υπο	-8.22141
▁βλέπετ	-8.22244
▁πόσο	-8.24144
▁σκ	-8.245
αλ	-8.24774
▁φυσικ	-8.25192
▁είδος	-8.25418
i	-8.26101
▁σχεδ	-8.26116
έν	-8.2612
▁μικρό	-8.26363
▁αντι	-8.26555
▁ενέργεια	-8.26646
ρέπει	-8.26912
▁χ	-8.2736
▁γίνεται	-8.27764
▁γυναίκες	-8.28223
▁κανείς	-8.28359
κα	-8.28528
όρ	-8.28545
▁όλη	-8.28681
μι	-8.28972
▁Μα	-8.29532
▁10	-8.29572
▁Φ	-8.29878
▁πρόκειται	-8.30137
▁μπορώ	-8.30244
ηση	-8.30395
▁σχετικά	-8.31033
▁20	-8.31258
▁ποιο	-8.31411
εκατομμύρια	-8.31416
▁καλό	-8.31507
▁φαίν	-8.31532
▁ομάδα	-8.317
έρ	-8.31924
▁χρειάζετ	-8.32491
▁εκατό	-8.32709
▁είσαι	-8.32928
δε	-8.33025
▁Δ	-8.33444
▁εικόνα	-8.33586
μά	-8.33892
▁έξω	-8.34146
▁εαυτό	-8.3425
στε	-8.34585
▁ξέρετε	-8.34918
0	-8.35628
▁ονομάζ	-8.35703
▁φ	-8.36119
▁πα	-8.36199
έλ	-8.36381
▁προσ	-8.36388
λί	-8.36736
ματ	-8.36841
▁Τζ	-8.38394
▁κα	-8.38822
σκ	-8.39008
▁Ένα	-8.39009
▁δεδομένα	-8.39021
κε	-8.3904
▁ανθρώπων	-8.39254
▁πά	-8.39562
γραφ	-8.39867
ικά	-8.39899
▁θέμα	-8.39955
▁πιστεύω	-8.40118
γε	-8.40188
σουμε	-8.40213
▁νερό	-8.40664
▁β	-8.40734
βι	-8.40843
ούσε	-8.41139
δι	-8.41444
ρό	-8.41588
άρ	-8.41886
τί	-8.42376
▁όλους	-8.42471
▁τ	-8.42889
ότι	-8.4396
▁παρ	-8.44191
▁περισσότερα	-8.44458
πα	-8.44525
▁γρήγορ	-8.44767
▁κόσμος	-8.44778
πι	-8.44862
δο	-8.4531
▁εμάς	-8.45766
▁γύρω	-8.46062
μη	-8.46062
▁αυτοί	-8.46457
▁μένα	-8.46789
τικό	-8.46922
▁ό	-8.46925
▁περι	-8.46968
ον	-8.4701
▁μέλλον	-8.4701
σω	-8.47143
▁Να	-8.47187
▁καλύτερο	-8.47274
▁τίποτ	-8.47517
▁Πώ	-8.48029
▁χώρο	-8.48492
οπ	-8.48685
▁Γ	-8.4899
▁Κ	-8.49088
βλέπουμε	-8.49524
▁κομμάτι	-8.49628
ηθεί	-8.49915
▁Υπάρχουν	-8.49952
▁τέλος	-8.50082
▁μπ	-8.50126
ταν	-8.50226
▁χώρες	-8.50472
▁μετα	-8.51191
▁Υπάρχε	-8.51258
▁Όμ	-8.5139
▁σημείο	-8.5139
▁τελευταία	-8.51587
▁απλώ	-8.51895
▁είδ	-8.5191
▁δώσ	-8.52301
▁μέσω	-8.52455
▁γ	-8.52854
ϊ	-8.52891
▁ξανά	-8.52988
πο	-8.53088
κο	-8.53101
υρ	-8.53543
▁πει	-8.53948
τζ	-8.53976
▁μόλ	-8.54226
▁κάνεις	-8.54982
▁λένε	-8.5542
▁ενδιαφέρον	-8.55471
▁δύσκολο	-8.56009
▁Αφρική	-8.56108
θεί	-8.56712
▁ενώ	-8.56778
▁παιδί	-8.56801
▁αλήθεια	-8.57283
▁κόσμου	-8.57411
t	-8.57724
ήσει	-8.57813
λέ	-8.58045
▁αλλαγή	-8.58272
υλ	-8.58286
▁δύναμη	-8.58765
▁πλανήτη	-8.58907
▁πού	-8.58999
ίου	-8.59361
υπ	-8.59583
ούτε	-8.59657
▁ξέρου	-8.59764
▁μεγαλύτερο	-8.60256
▁κοιτάξ	-8.60514
▁παρά	-8.6065
▁μα	-8.60714
▁σώμα	-8.60721
τό	-8.6109
▁αυτο	-8.612
▁έ	-8.61227
▁τρεις	-8.61257
▁αντί	-8.6134
▁οτι	-8.61376
▁διαδικασία	-8.61559
▁Στο	-8.61616
λογ	-8.61674
▁Μπορού	-8.61964
▁κάνετε	-8.62158
▁έγινε	-8.62226
▁είστε	-8.6223
▁εσάς	-8.62252
▁εγκέφαλο	-8.62373
ήδη	-8.62374
▁τρία	-8.62434
▁είπα	-8.62807
▁σχέση	-8.62815
▁εμείς	-8.62839
χα	-8.63005
▁κάπ	-8.63101
▁γυναίκα	-8.6311
▁Είμα	-8.63136
▁δ	-8.63167
▁θέση	-8.63195
μπ	-8.63411
2	-8.63454
▁Ναι	-8.63602
.000	-8.63945
▁περιβάλλον	-8.64026
ιού	-8.64087
▁καλύτερα	-8.64203
άκι	-8.64483
▁ξε	-8.64752
▁προβλήματα	-8.65202
▁μιλήσ	-8.65232
δα	-8.65313
▁επ	-8.65383
▁δείξω	-8.65429
▁Ι	-8.65461
▁γον	-8.65684
▁Ά	-8.66024
▁διαφορετικ	-8.66348
▁ανά	-8.66468
▁φω	-8.66719
▁εκείνη	-8.67208
▁ερώτηση	-8.67511
▁βασικ	-8.6758
σαμε	-8.67842
ίας	-8.6786
▁υπερ	-8.68045
▁άτομα	-8.68119
χο	-8.68185
▁εσ	-8.68212
▁πέντε	-8.68433
▁άλλους	-8.68799
▁Ευχαριστώ	-8.68909
▁Από	-8.68925
▁πάρ	-8.6902
▁συχνά	-8.69084
▁πολλοί	-8.69215
▁εποχή	-8.69452
▁δει	-8.69579
▁διαφορετικά	-8.70091
▁κάποιον	-8.70352
▁εκείνο	-8.70727
▁σχολείο	-8.70801
ξε	-8.70809
▁Ν	-8.70859
▁3	-8.70928
▁υπήρχ	-8.70958
▁50	-8.71021
▁Όχι	-8.71442
▁νέο	-8.71444
▁κάποι	-8.71526
τική	-8.71702
σή	-8.72542
ζουν	-8.72622
▁30	-8.72904
▁αυτών	-8.72976
▁χιλιάδ	-8.73064
ωση	-8.731
▁Εντάξει	-8.73228
▁Νομίζ	-8.73228
▁λίγ	-8.73698
▁ξέρω	-8.73721
▁ευ	-8.73746
λλ	-8.73896
▁πόλη	-8.73937
συ	-8.73985
▁ανάμεσ	-8.74063
ούσα	-8.7408
▁αρ	-8.74149
▁πάλι	-8.746
▁γε	-8.7461
5	-8.7463
▁δική	-8.74645
▁πληροφορίες	-8.74718
▁μέρη	-8.74768
▁φύση	-8.7488
▁μπροστ	-8.74883
▁Μου	-8.75007
▁γεγονό	-8.75094
▁κατ	-8.75288
▁φωτογραφία	-8.75401
▁καιρό	-8.75406
υμ	-8.75501
τελικά	-8.7555
▁Τη	-8.75717
σεις	-8.75918
ρη	-8.75924
▁Γκ	-8.75997
▁εμπειρία	-8.7639
▁περιοχή	-8.76559
▁πάει	-8.76762
▁αριθμό	-8.76898
▁άλλες	-8.77068
▁Θέλω	-8.77083
▁ώρα	-8.7742
▁Μια	-8.77453
▁μικρή	-8.77838
▁βιβλίο	-8.77923
▁κοινωνία	-8.77982
▁είδα	-8.78165
▁καλ	-8.78349
▁περίπτωση	-8.7846
τικά	-8.78519
▁Γι	-8.7857
▁Γη	-8.78611
πε	-8.78675
σουν	-8.78723
▁κάνα	-8.78766
▁αρχή	-8.79133
▁οποί	-8.79166
▁Όλ	-8.79464
θηκε	-8.79615
▁πάρα	-8.79681
▁επίπεδο	-8.79706
▁λιγότερο	-8.79774
p	-8.79917
τσ	-8.79963
▁μιλά	-8.80049
▁κανένα	-8.80187
▁έρευνα	-8.80338
▁κύτταρα	-8.80594
▁2	-8.80607
▁αποτέλεσμα	-8.80714
μό	-8.80763
▁κλ	-8.80765
ισμό	-8.80898
▁ξεκινήσ	-8.80904
▁βρίσκεται	-8.80956
ιμ	-8.81121
γο	-8.81346
▁στοιχεί	-8.81706
▁εκπαίδευση	-8.81972
ατε	-8.82048
στο	-8.8231
▁βάλ	-8.82546
▁συγ	-8.82665
▁μουσική	-8.82776
▁νέ	-8.8293
▁Αυτός	-8.83018
υγ	-8.83047
▁απάντηση	-8.8321
▁διάρκεια	-8.8321
▁δυο	-8.83575
▁βίντεο	-8.83581
▁Επειδ	-8.83753
▁Έχ	-8.84052
▁κοινό	-8.84413
▁κατάσταση	-8.84499
▁σημασία	-8.84853
▁δρόμο	-8.85113
▁TED	-8.85221
▁Όπω	-8.85221
▁μητέρα	-8.85222
d	-8.85375
μή	-8.85411
▁μεγαλύτερη	-8.8544
▁δολάρια	-8.85575
▁συνέβη	-8.85596
τερ	-8.85686
▁λάθος	-8.85963
▁θέλουμε	-8.85963
▁καλή	-8.85966
▁φτιάξ	-8.86204
▁τέτοιο	-8.86214
▁αρέσει	-8.86336
ατ	-8.86683
▁βρήκα	-8.86715
▁συνεχ	-8.86894
▁γλώσσα	-8.86897
▁ιδέες	-8.86897
▁χρήση	-8.8692
▁Ντ	-8.87122
ικής	-8.87142
▁σωστά	-8.8721
y	-8.8722
▁χρήματα	-8.87272
▁λόγος	-8.87308
ισμού	-8.87343
▁Δε	-8.87392
θε	-8.87504
▁Ινδία	-8.8751
▁Μετά	-8.87548
σει	-8.87644
▁βάση	-8.87652
▁ανθρώπινη	-8.87879
▁χρησιμοποι	-8.87967
▁υπολογιστή	-8.87973
▁χέρι	-8.88132
νομ	-8.88222
▁μυαλό	-8.88308
▁πήγα	-8.88411
έξι	-8.8856
ήσεις	-8.88697
▁θέλει	-8.88794
▁μήνες	-8.88794
▁λέω	-8.88814
▁είδη	-8.88832
▁σύμπαν	-8.88985
ικές	-8.89217
▁Ίσ	-8.89388
άλλον	-8.89566
▁Λ	-8.89743
σσ	-8.89921
μαι	-8.89922
στα	-8.9003
γα	-8.90059
▁δεκαετία	-8.90336
▁υπολογιστ	-8.90396
▁επιστήμη	-8.90591
▁σκεφτεί	-8.90621
πλέον	-8.90666
ζε	-8.90695
ψε	-8.90983
κλ	-8.91057
▁καν	-8.91256
▁αιώνα	-8.91512
κιν	-8.91572
ετ	-8.91579
▁κοντά	-8.91729
▁αλλάξει	-8.91997
ιτ	-8.91998
ωρ	-8.92009
▁Δι	-8.92141
▁θ	-8.92354
▁πολιτική	-8.92666
του	-8.9267
▁λέξη	-8.92697
▁ακού	-8.92927
τέ	-8.93165
9	-8.93231
▁100	-8.93704
8	-8.93888
▁Μά	-8.93991
▁ιστορίες	-8.94099
ξη	-8.94131
▁Έχει	-8.94138
▁ζώ	-8.9415
▁200	-8.94191
ήσουμε	-8.94484
▁τρόπους	-8.94498
▁δικό	-8.94619
▁Άρα	-8.94642
▁σειρά	-8.9471
Α	-8.95071
▁αργότερα	-8.95118
▁συμβεί	-8.95317
όταν	-8.95496
σης	-8.95554
▁άρχισα	-8.95727
▁γνωρίζ	-8.95929
θη	-8.96047
▁Έχου	-8.9605
▁μέσο	-8.96144
▁Ζ	-8.96344
▁Πιστεύ	-8.96344
▁βρίσκοντα	-8.96374
▁Αμερική	-8.96551
▁ιδιαίτερ	-8.96551
ίων	-8.96784
▁εγ	-8.96938
▁περισσότερες	-8.96998
▁κυβέρνηση	-8.97173
▁Έχω	-8.97309
έτ	-8.97339
c	-8.9736
▁εκτό	-8.97477
ούσαν	-8.97551
▁έργο	-8.9782
▁πλευρά	-8.97867
▁ανάπτυξη	-8.97878
▁μά	-8.98003
▁Όλο	-8.98028
▁άτομο	-8.98219
▁εντελ	-8.98228
▁15	-8.98374
χειρ	-8.98518
▁συνέχεια	-8.98641
▁βία	-8.98726
b	-8.98843
▁αφ	-8.98923
ωθεί	-8.98963
▁πάμε	-8.99018
▁παγκόσμια	-8.99071
άζ	-8.99142
4	-8.99185
καλ	-8.99257
▁ώρες	-8.99277
▁μέρες	-8.99373
g	-8.99457
▁ταινία	-8.99595
▁βρ	-8.99636
▁4	-8.99641
▁ξανα	-8.99705
δί	-8.99854
σία	-8.99926
▁κο	-8.99938
ίζει	-9.00213
τυ	-9.00222
είται	-9.00281
3	-9.00489
εφ	-9.00502
▁διαφορά	-9.00646
7	-9.00739
▁δεύτερο	-9.00776
▁χρησιμοποιεί	-9.00841
▁δισεκατομμύρι	-9.00866
▁&#93;	-9.00991
▁επί	-9.01107
δη	-9.01171
▁λόγο	-9.0122
▁μάθ	-9.01249
ρέ	-9.01267
οδο	-9.01272
σμ	-9.01357
οποίηση	-9.01406
▁&#9	-9.01425
▁γνωρίζου	-9.0155
▁λειτουργεί	-9.01727
στη	-9.01745
▁ηλικία	-9.02079
ξα	-9.02183
▁1	-9.02253
δό	-9.02264
▁Είχα	-9.02297
▁ουσία	-9.02304
ημα	-9.02444
κό	-9.02462
φορ	-9.02538
▁Παρ	-9.02647
▁Μπ	-9.02735
▁μπορούσαν	-9.02804
▁πρώτα	-9.02935
κού	-9.03156
▁διαφορετικό	-9.03164
▁ευκαιρία	-9.03398
▁πολλού	-9.03398
▁A	-9.03496
▁κοινωνικ	-9.03558
▁εικόνες	-9.04065
▁δείχνει	-9.04201
▁μορφή	-9.04207
▁χρησιμοποιήσ	-9.04249
▁ΗΠΑ	-9.04288
ντι	-9.04335
▁οικονομία	-9.04578
ολ	-9.04718
ιμο	-9.04779
▁παιχνίδι	-9.04916
▁5	-9.04978
δικ	-9.05287
κι	-9.05367
όλων	-9.05447
έφ	-9.05471
▁μοιάζει	-9.05638
▁τρ	-9.058
A	-9.05821
▁πι	-9.06016
στά	-9.06052
▁αίσθηση	-9.06092
στρ	-9.06127
ήσουν	-9.06326
στερ	-9.06358
▁S	-9.06534
▁μακριά	-9.06548
▁θέλετε	-9.06548
Π	-9.06667
ματα	-9.06836
▁χρειαζόμαστ	-9.07006
ιστεί	-9.07172
▁T	-9.07301
▁έλεγα	-9.07467
l	-9.07618
▁μο	-9.07648
▁ουσιαστικ	-9.07698
▁πήρα	-9.07699
▁εξαιρετικ	-9.07868
▁θέλουν	-9.07929
▁Ξέρετε	-9.0804
▁διάφορ	-9.08186
▁Ω	-9.0831
▁δίνει	-9.08311
▁πατέρα	-9.08397
▁Καθ	-9.08432
ίσει	-9.08554
▁Κάν	-9.08739
▁αγορά	-9.08868
δια	-9.08952
▁υπό	-9.08979
ιδ	-9.09009
▁μοντέλο	-9.09095
▁Κίνα	-9.09114
▁καλύτερη	-9.0928
▁δω	-9.09541
▁κοινότητα	-9.09634
er	-9.09697
▁προσπαθού	-9.09811
▁εγκεφάλου	-9.10062
▁κου	-9.10318
▁θε	-9.10379
▁Νέα	-9.1098
▁λεπτά	-9.10993
▁δυνατό	-9.11245
▁επιλογή	-9.11468
▁πέρα	-9.11593
όμαστε	-9.11834
▁στ	-9.12259
ημ	-9.12286
▁M	-9.12325
▁C	-9.12358
▁B	-9.12539
▁καθένα	-9.12708
▁ομιλία	-9.13162
▁πάρει	-9.13297
▁πόλεις	-9.13416
ονταν	-9.13527
ολογ	-9.13585
▁άνθρωπος	-9.13652
▁πιθανό	-9.14098
μπι	-9.14125
ίνει	-9.14192
▁P	-9.14355
εσαι	-9.14494
▁αξία	-9.1458
▁χέρια	-9.14764
k	-9.14777
▁πρόσφατ	-9.15384
σθ	-9.15498
▁τέτοια	-9.15612
▁συμπεριφορά	-9.15634
▁ημέρα	-9.15721
▁δεδομένων	-9.16136
▁οπότε	-9.16137
ματος	-9.16927
▁Ηνωμέν	-9.17363
▁ζωές	-9.17616
▁δηλαδή	-9.17664
ησα	-9.17676
λια	-9.17764
▁τελευταίο	-9.17826
▁αλ	-9.17884
▁τάξη	-9.17914
σεων	-9.18007
λυ	-9.18044
▁μικρά	-9.18103
θρ	-9.18118
τρο	-9.18146
▁ισχύ	-9.1817
▁επόμενη	-9.18204
ρια	-9.18226
▁τελείω	-9.18342
▁αποτελεί	-9.18427
▁πρόγραμμα	-9.18947
▁Κάθε	-9.18952
▁18	-9.18959
▁ξέρει	-9.19202
μένο	-9.19345
ήμερα	-9.19398
▁κοινωνική	-9.19555
▁πραγματικό	-9.19629
ταρ	-9.19775
τον	-9.19913
▁λόγω	-9.19983
▁γίν	-9.20003
κατ	-9.20081
ποι	-9.203
▁διά	-9.20325
▁πρό	-9.20344
▁οικογένεια	-9.20453
άκια	-9.20506
▁Ρ	-9.20522
ρκ	-9.20557
▁φα	-9.20572
γγ	-9.20592
▁G	-9.20687
οφ	-9.20746
μάτων	-9.20772
▁καρκίνο	-9.20926
▁εξέλιξη	-9.21034
▁κακ	-9.21039
▁Ένας	-9.2106
ρου	-9.21088
▁συνήθ	-9.21303
ωμα	-9.21484
▁γίνοντα	-9.21549
▁υπήρχαν	-9.21568
έψ	-9.21669
I	-9.21957
▁40	-9.22132
▁Του	-9.22185
▁εμένα	-9.22381
▁εργαλεί	-9.2244
▁κέντρο	-9.22477
▁υπ	-9.22504
▁επόμενο	-9.22582
▁ρομπότ	-9.22632
▁ζ	-9.22662
▁δημο	-9.22748
▁δυνατότητα	-9.228
▁Λέ	-9.22852
▁σχέδιο	-9.22958
μαν	-9.22963
m	-9.2315
▁Ακόμ	-9.23176
▁φωτογραφίες	-9.23181
ούρ	-9.23203
πομέν	-9.23211
▁σπ	-9.2324
▁απλό	-9.23579
▁Ήμουν	-9.23712
γμα	-9.23715
ίδα	-9.23774
▁τεράστια	-9.23814
▁κάν	-9.23935
μέ	-9.23955
▁Επίση	-9.23984
▁αφορά	-9.23984
▁οποιο	-9.24033
▁καταλάβ	-9.24162
μί	-9.24195
▁λέξεις	-9.24256
▁μαθηματικ	-9.24566
▁δημιουργία	-9.24718
▁σοβαρ	-9.24755
φερ	-9.24913
ζα	-9.25116
βολ	-9.25166
▁πρόσβαση	-9.25353
▁αναφέρ	-9.25381
6	-9.25527
σον	-9.25598
▁ήρθε	-9.25632
▁κυρίω	-9.25632
ώσει	-9.25706
▁λύση	-9.25949
▁μηχανή	-9.26148
▁ακ	-9.26211
▁δημιουργ	-9.26257
▁καμία	-9.26478
▁καθόλ	-9.26579
λου	-9.26588
▁ανθρώπινο	-9.26609
▁ποια	-9.26727
▁Φυσικ	-9.26744
▁ταξίδι	-9.27023
▁εύκολο	-9.27232
▁εταιρεία	-9.27303
▁λέγετ	-9.2732
ίζ	-9.27326
▁χρησιμοποιούμε	-9.27394
▁φιλ	-9.27549
▁ερώτημ	-9.27585
χε	-9.27611
σο	-9.27748
μαστε	-9.27783
▁σα	-9.27787
ότητας	-9.28007
▁Δια	-9.28033
τή	-9.28036
▁λε	-9.28065
▁μέγεθ	-9.28151
▁έπει	-9.28422
▁πολυ	-9.28471
▁μυ	-9.28536
▁οικονομικ	-9.28586
▁χα	-9.28679
▁εκατοντάδες	-9.28761
ήσω	-9.28845
▁ήχο	-9.28912
▁εμπ	-9.28918
▁σημαντική	-9.29143
▁κίνηση	-9.29209
θούν	-9.29601
▁πράγματι	-9.29693
▁τουλάχιστο	-9.29726
▁οικονομική	-9.29823
▁βοήθεια	-9.29867
Μ	-9.29911
δρα	-9.29985
▁φέρ	-9.30027
▁αφού	-9.30066
θηκαν	-9.30143
στικ	-9.30365
▁μεγάλε	-9.30446
▁Ποιο	-9.30516
▁χρησιμοποιούν	-9.30531
Κ	-9.30766
συστήματα	-9.30901
τού	-9.30904
u	-9.31026
▁περιοχές	-9.31029
τρα	-9.31059
▁πληροφορία	-9.31091
μβ	-9.31156
λιά	-9.31261
▁ετών	-9.31349
τέρ	-9.31359
▁D	-9.31363
βλέπω	-9.3147
γι	-9.31519
έξ	-9.31521
▁φίλου	-9.31529
▁εισ	-9.31618
ίνη	-9.31623
καρ	-9.31678
▁διάστημα	-9.31908
▁DNA	-9.3191
▁βιο	-9.31959
▁ερωτήσε	-9.32159
κά	-9.32175
▁ασφάλεια	-9.32203
▁τέσσερα	-9.32212
▁φαγητό	-9.32227
▁ικανότητα	-9.32289
λεί	-9.32376
χη	-9.32382
ήματα	-9.32391
ρεπ	-9.32456
▁εαυτού	-9.32499
▁φανταστεί	-9.32504
▁περίοδο	-9.32509
υσ	-9.32511
▁είπαν	-9.32534
τών	-9.32596
▁12	-9.32697
▁Υόρκη	-9.32796
▁βιβλία	-9.32796
▁γνώση	-9.32796
▁διαφορετική	-9.32922
▁μιλάμε	-9.3294
ολογία	-9.32957
▁τέσσερ	-9.32964
C	-9.32965
μπά	-9.33039
▁άνθρακα	-9.33094
▁Πριν	-9.33123
▁Βλέπ	-9.33166
▁F	-9.33197
▁καρδιά	-9.33213
▁προσπαθήσ	-9.33399
▁παντού	-9.33403
▁Κα	-9.33487
▁χά	-9.33966
μένη	-9.34021
άρι	-9.34097
▁πεί	-9.342
▁λα	-9.34409
▁σύ	-9.34442
en	-9.34628
▁πάνε	-9.34738
▁Μερικ	-9.34947
▁σκέφτηκα	-9.34974
▁επιφάνεια	-9.35161
σετε	-9.3527
▁ομάδες	-9.35275
▁φυσική	-9.35293
περ	-9.35328
▁σκεφτού	-9.35416
▁αφήσ	-9.35484
ισμός	-9.356
▁Στα	-9.35728
▁ολόκληρο	-9.35799
▁παρελθόν	-9.35813
▁αποτελέσματα	-9.35911
▁υγεία	-9.3592
▁συγκεκριμέν	-9.36143
▁δημιουργήσου	-9.36292
στή	-9.36309
▁γη	-9.36313
σμα	-9.3638
▁διαδίκτυο	-9.36427
▁έρχεται	-9.36428
▁ακούσ	-9.3654
▁έλεγε	-9.36736
▁νόημα	-9.36736
N	-9.36738
▁πια	-9.36767
▁επιστήμον	-9.37001
μού	-9.37135
▁60	-9.37159
▁φωνή	-9.37367
▁κλίμακα	-9.3768
▁Είμαστ	-9.37685
▁αυτοκίνητο	-9.37828
μάτια	-9.3783
▁βρού	-9.37868
▁ξεκινά	-9.3793
▁ελπίζ	-9.3798
▁συγκεκριμένο	-9.38192
▁γραμμή	-9.38304
▁απλ	-9.38311
▁επιτυχία	-9.38344
τσι	-9.38375
▁πολιτικ	-9.38379
▁πόδια	-9.38841
▁δημιουργεί	-9.3888
όμ	-9.38917
▁μελέτη	-9.38925
▁βρει	-9.39046
ίρ	-9.39086
▁γίνου	-9.39095
κου	-9.39199
ρευ	-9.39201
▁Πολλ	-9.39212
▁Ξέρ	-9.39262
▁σχεδιαστ	-9.39271
ικών	-9.39381
▁παίρνει	-9.39466
ήθηκε	-9.39482
▁σκοπό	-9.39587
▁υλικό	-9.39657
σκοπ	-9.39666
νγκ	-9.39668
▁Προ	-9.39704
or	-9.39904
▁Μουσική	-9.40195
▁αυτής	-9.40264
ρία	-9.40331
δρο	-9.40413
▁80	-9.40511
▁ήθελε	-9.40516
▁μέση	-9.40518
ώσεις	-9.40557
▁τόσ	-9.40692
ικού	-9.40725
▁ξεκίνησα	-9.40837
αρτ	-9.40929
ίζουν	-9.40972
▁ειδικ	-9.40999
▁μεγαλύτερ	-9.41128
▁Ευρώπη	-9.4116
▁τρίτο	-9.41161
▁όρο	-9.41195
▁αέρα	-9.41204
on	-9.41318
▁συμ	-9.41403
▁όνομα	-9.41431
πούμε	-9.41437
▁κανόν	-9.41711
εκ	-9.41764
▁πόλεμο	-9.41808
▁όσ	-9.41866
ζουμε	-9.41914
▁υγείας	-9.42021
▁άνθρωπο	-9.42134
▁σίγουρα	-9.42204
▁κεφάλι	-9.42461
▁φυσικό	-9.42476
σια	-9.42519
▁άλλοι	-9.42607
▁έως	-9.42888
▁προσοχή	-9.43118
▁ήξερα	-9.43118
▁έρχοντα	-9.43118
▁περνά	-9.43146
βάλ	-9.43288
▁σκεφτόμαστε	-9.4349
▁ρόλο	-9.43512
υχ	-9.43577
τερο	-9.43661
▁Εγώ	-9.43781
S	-9.43827
in	-9.43831
σέ	-9.43851
πολ	-9.4403
▁θέλα	-9.44137
ικο	-9.44412
τηκε	-9.4449
λόγια	-9.44538
▁αλλάξου	-9.44769
άζει	-9.44774
▁μήνυμα	-9.44779
όσα	-9.44829
▁επιτρέπει	-9.44913
▁δουλεύ	-9.44921
▁βήμα	-9.4493
ίδι	-9.45025
▁έννοια	-9.45114
▁πρόκληση	-9.45114
▁τεράστιο	-9.45218
▁σωστό	-9.45398
έρα	-9.45649
▁Τότε	-9.45793
γκα	-9.4585
▁κομμάτια	-9.45958
ωμένο	-9.45981
μένα	-9.4618
▁ποι	-9.46199
▁εξής	-9.46244
ημάτων	-9.46355
▁θεωρία	-9.46553
▁ολόκληρη	-9.46554
▁όντω	-9.46615
▁πρόσωπο	-9.46684
έλα	-9.46776
ητή	-9.46786
00	-9.46798
▁δομή	-9.46811
▁πάρου	-9.46821
▁περισσότερη	-9.46848
▁δωμάτιο	-9.47036
άλλων	-9.47066
▁γυναικ	-9.47152
▁πλαίσι	-9.47152
▁συζήτηση	-9.47171
▁αρχέ	-9.47185
ρθ	-9.47261
▁δεξιά	-9.47348
▁υπέροχο	-9.4742
▁έγινα	-9.47496
▁χημικ	-9.47499
▁επόμεν	-9.47548
▁6	-9.47774
▁ενεργ	-9.47808
▁αντικείμενα	-9.47845
▁θεραπεία	-9.47955
ησε	-9.47976
ιρ	-9.47993
ar	-9.481
ρίστε	-9.48108
▁εντάξει	-9.48186
r	-9.4824
▁απίστευτ	-9.48241
▁νιώθ	-9.48263
δες	-9.484
▁ακρίβεια	-9.48533
τόσο	-9.48588
▁αλλαγ	-9.48704
ίνουν	-9.48727
σφ	-9.48832
χρον	-9.4889
▁Συν	-9.48963
▁απλή	-9.49096
ηθούν	-9.49098
▁φίλο	-9.4915
▁πόσ	-9.4923
▁αγάπη	-9.49232
▁σκηνή	-9.49232
▁Φανταστείτ	-9.49232
▁χρόνου	-9.49312
▁ηλεκτρονικ	-9.49324
▁φοιτητές	-9.49331
▁Αμερικαν	-9.49342
,	-9.49606
τικές	-9.49685
▁κοιτά	-9.49866
an	-9.50149
▁επανα	-9.50239
έι	-9.50335
λέμε	-9.50341
▁διαφορ	-9.50607
▁μεγάλα	-9.50643
▁αμέσ	-9.50672
▁πραγματική	-9.50863
υρί	-9.50875
ημένο	-9.50886
▁παίρνου	-9.50991
▁Κατά	-9.51024
▁αλλάζει	-9.51116
▁κά	-9.51132
▁Βλέπετ	-9.51269
▁κόστο	-9.51284
▁επιλογές	-9.51356
▁δυνατ	-9.51433
▁τύπο	-9.51571
τοπ	-9.51584
ανε	-9.51687
▁υλικά	-9.51982
ρίσ	-9.52066
▁τομέα	-9.52107
▁παίρν	-9.52178
▁Τρ	-9.52238
▁τμήμα	-9.52319
▁ιατρική	-9.52404
▁τέχνη	-9.52416
▁χρειάζοντα	-9.52435
λιστα	-9.52508
αστεί	-9.52622
▁οπτική	-9.5265
▁8	-9.5276
▁σκέφτομαι	-9.52816
M	-9.52853
▁κακό	-9.53072
▁χτίσ	-9.5319
▁συσκευή	-9.53225
▁Απλ	-9.53277
▁στρ	-9.53281
E	-9.53285
οντά	-9.53378
▁προϊόν	-9.53407
χρ	-9.53456
▁έμαθα	-9.53526
▁90	-9.53616
▁κάπου	-9.5372
τσα	-9.53864
▁Έχουν	-9.53874
▁δίν	-9.53876
▁γενιά	-9.53892
▁νύχτα	-9.53912
▁περί	-9.54155
h	-9.54212
αιτίας	-9.54257
▁έλεγχο	-9.54259
n	-9.54263
▁εβδομάδα	-9.54397
▁70	-9.54588
▁πείραμα	-9.54629
▁δουλεύει	-9.54631
▁Εξ	-9.54712
▁ποσοστό	-9.54766
ρεμ	-9.54806
▁9	-9.54962
▁παν	-9.55137
▁υψηλή	-9.55301
▁πήρε	-9.55372
ίζεται	-9.55501
▁τιμή	-9.55515
▁περ	-9.55607
▁Καλ	-9.55641
▁Αλ	-9.55704
της	-9.55741
▁τεχνολογίες	-9.55744
▁φόβο	-9.55768
έτα	-9.55778
▁ξαφνικά	-9.558
μείς	-9.55869
ουρ	-9.55985
it	-9.55992
ρόκειται	-9.56061
▁θέματα	-9.56123
▁7	-9.56143
▁βρίσκ	-9.56151
έμ	-9.56153
▁συνδέ	-9.56165
Σ	-9.5627
πό	-9.56438
μπα	-9.56447
▁χάρτη	-9.56495
▁σημεία	-9.56496
▁παραδείγματα	-9.56504
▁Καν	-9.56536
▁κό	-9.56553
▁έκ	-9.56581
▁μπλε	-9.56609
τικ	-9.56656
ισμένο	-9.56661
▁βλέπου	-9.56814
▁Κάποιο	-9.56857
▁αύξηση	-9.56872
▁αποφάσε	-9.56874
▁ασθενείς	-9.5691
ριά	-9.56952
αγωγ	-9.57101
θα	-9.57162
▁μηχαν	-9.5717
▁τοπικ	-9.57237
▁αυτοκίνητα	-9.57283
▁ρωτήσ	-9.5733
▁αντικείμενο	-9.57631
▁επανάσταση	-9.57631
▁παιδιών	-9.57711
ώνουν	-9.57722
▁25	-9.57925
ιζε	-9.57929
τρέ	-9.57941
▁έδαφος	-9.58012
▁Μπρ	-9.58122
▁ανάγκη	-9.58235
▁λιγότερ	-9.58304
▁προσπάθεια	-9.58345
▁δημοκρατία	-9.58569
O	-9.58643
▁ήμαστ	-9.5869
▁δίκτυο	-9.58743
▁αριστερά	-9.5878
▁τύπος	-9.58822
μένες	-9.58831
▁σχήμα	-9.58872
που	-9.58899
▁αρχίσ	-9.58923
τές	-9.58964
▁Επι	-9.58969
▁σημαντικά	-9.59079
γου	-9.59168
άσει	-9.59297
▁έπ	-9.59307
▁καταλάβουμε	-9.5935
▁σκέψη	-9.59381
▁κορίτσια	-9.59429
▁γνωρίζετε	-9.59433
T	-9.59469
▁αποφάσισα	-9.59554
▁κώδικα	-9.59554
▁ξεκίνησε	-9.59554
▁συμπ	-9.5958
▁μοιραστ	-9.59604
▁εργαστήριο	-9.59634
▁εργασίας	-9.59653
▁πηγ	-9.59803
▁αγαπ	-9.59886
▁κρίση	-9.59943
▁δώσει	-9.59943
▁βαθιά	-9.59947
▁διαβάζ	-9.59959
▁φτάσει	-9.6009
ιλ	-9.60094
▁ταχύτητα	-9.60113
άντα	-9.60288
▁ψάχν	-9.60327
▁προγράμματ	-9.60358
▁ακούσει	-9.60401
▁λειτουργία	-9.60431
▁δεύτερη	-9.60726
al	-9.60792
▁άποψη	-9.608
▁ανακαλύψ	-9.60916
▁οδήγησ	-9.61119
▁άντρες	-9.61119
▁τί	-9.61132
▁νέου	-9.61159
ψη	-9.61249
▁πόνο	-9.61289
▁χρώμα	-9.61396
▁εργασία	-9.61413
▁δημιουργήσει	-9.61473
ρακ	-9.61514
▁άνδρες	-9.61515
▁επιχειρήσεις	-9.61551
▁έχ	-9.61676
▁ειδικά	-9.61767
▁βάζ	-9.61883
▁αμ	-9.6189
τεί	-9.61937
μερ	-9.62008
τώ	-9.62081
▁ελπίδα	-9.62124
χρονο	-9.6218
▁ισ	-9.62451
▁μικρέ	-9.62463
▁υπόλοιπο	-9.62568
▁καινοτομία	-9.62765
ένα	-9.62876
▁ανθρωπ	-9.63024
▁λύσει	-9.63049
▁προκαλεί	-9.63116
▁καθαρ	-9.6317
▁δημόσια	-9.63187
▁Μπορ	-9.63281
▁φτωχ	-9.63375
▁μικρο	-9.63381
ήσαμε	-9.63428
▁παραδοσιακ	-9.63515
▁19	-9.63549
▁αντ	-9.63907
τρι	-9.64075
▁επίπεδ	-9.64207
▁πρωτο	-9.64272
▁Πολιτείες	-9.64326
▁11	-9.64382
▁φυτ	-9.64433
▁Μπα	-9.64522
▁οδηγεί	-9.64555
▁Γου	-9.64608
▁χαρά	-9.64698
▁κυριολεκτικ	-9.64734
▁κύριο	-9.64753
▁ζούμε	-9.64802
ταλ	-9.64994
▁συνθήκες	-9.65144
▁κατασκευή	-9.65144
D	-9.65199
έζ	-9.65248
▁πρωτε	-9.65269
▁αλλάξ	-9.65543
▁περιπτώσει	-9.65556
▁εβδομάδες	-9.65611
▁Κο	-9.65822
▁σκληρ	-9.65881
▁Τσ	-9.65963
▁Απο	-9.65989
▁Έπ	-9.66014
βο	-9.66307
βολή	-9.66381
▁άρχισε	-9.66384
▁βακτήρι	-9.66384
▁μισ	-9.66434
R	-9.66437
▁μισό	-9.66454
▁επτά	-9.66472
θει	-9.66518
▁διπλ	-9.6653
▁δοκιμάσ	-9.66628
▁άρα	-9.66806
τηκαν	-9.66843
▁σκέφτεσ	-9.669
▁πυρ	-9.66986
▁σίγουρο	-9.67141
▁L	-9.67205
▁θάνατο	-9.67219
▁πρωί	-9.6722
παρ	-9.67326
τροπ	-9.67448
▁πορεία	-9.67639
▁μάτι	-9.67934
ιστέ	-9.67954
όπ	-9.67965
▁εταιρείες	-9.68061
▁σχολεία	-9.68061
▁δέρμα	-9.68067
▁κορυφή	-9.68167
▁έδωσε	-9.68485
▁δίπλα	-9.68485
▁μάθει	-9.68489
▁σχέσε	-9.68493
▁δίνου	-9.68548
▁πεδίο	-9.68594
ριο	-9.68613
ιακή	-9.68756
▁Απ	-9.68881
▁βλέπεις	-9.68893
▁βαθμό	-9.68928
ινγκ	-9.6897
ρων	-9.69001
ολόγο	-9.69077
▁προσπαθεί	-9.69171
δέχ	-9.69214
▁βάρο	-9.69357
▁ζω	-9.69389
μπο	-9.69473
▁γραμμέ	-9.6958
μουν	-9.69735
▁διαθέσιμ	-9.69767
θεν	-9.69866
▁πηγαίν	-9.70118
▁σχεδιασμό	-9.70198
▁δράση	-9.70199
es	-9.70256
ακολουθ	-9.70264
▁τύπου	-9.70325
οβ	-9.70359
στρα	-9.7037
▁τροφή	-9.70405
▁λόγους	-9.70411
▁Στι	-9.70584
▁16	-9.70651
κερ	-9.70685
▁όγκο	-9.707
▁ελέγχου	-9.70732
▁Θ	-9.70768
B	-9.70873
λαβ	-9.70875
θώ	-9.70962
▁πηγαίνει	-9.70996
μπερ	-9.71029
βί	-9.7107
▁περάσει	-9.71075
▁μέτρα	-9.71085
▁πλαστικ	-9.711
▁φαντασία	-9.71152
▁Σαν	-9.71218
στάσεις	-9.71381
▁R	-9.71435
▁Σκεφτείτ	-9.71502
▁βέβαι	-9.71502
▁βιομηχανία	-9.71502
▁ασθενή	-9.71655
▁υπόλοιπ	-9.71658
▁εκείν	-9.71857
λικ	-9.71919
▁κάποιου	-9.71933
▁Google	-9.71941
▁κουλτούρα	-9.71941
▁οποίους	-9.71959
▁κορίτσι	-9.72082
μισ	-9.72123
▁αυξάν	-9.72338
▁ευτυχία	-9.72484
▁φρ	-9.72585
▁εμφαν	-9.72641
όμεν	-9.72654
▁Πόσο	-9.72752
▁ήλιο	-9.72985
▁έρθει	-9.73041
ηθ	-9.73152
▁όμορφο	-9.7316
▁παραπάνω	-9.73268
▁νερού	-9.73269
▁λειτουργούν	-9.73313
▁Λο	-9.73497
▁Στ	-9.73609
▁συσκευ	-9.73636
▁Μο	-9.73694
▁παγκόσμιο	-9.73696
▁προσέγγιση	-9.73765
▁πιστεύουμε	-9.73799
▁θυμά	-9.73897
▁Ρό	-9.74059
ογραφία	-9.74143
▁Εν	-9.74368
οποιημέν	-9.7445
▁E	-9.74459
ργα	-9.74606
▁επιστρέψ	-9.74614
γραμμ	-9.7467
▁Κό	-9.7484
▁πιστεύου	-9.74861
Τ	-9.74951
▁ωραί	-9.7502
▁ασθένεια	-9.75066
▁βγάλ	-9.75068
▁λογική	-9.75154
▁πληθυσμού	-9.75229
▁πλήρω	-9.75267
όμουν	-9.75274
▁Θέλ	-9.75276
σμό	-9.75292
▁φτώχεια	-9.75521
▁βοηθήσει	-9.75535
▁δημιουργήσ	-9.7562
κολ	-9.75729
▁ζει	-9.7575
τούν	-9.75995
ρντ	-9.75996
▁μαθητές	-9.76059
▁ποιότητα	-9.76136
▁λύ	-9.76159
▁πιθανότητα	-9.76279
σύ	-9.76315
λαμ	-9.76355
▁δάσκαλο	-9.76436
▁οθόνη	-9.76436
▁αγόρι	-9.76438
▁Είπα	-9.76441
▁ιδιωτικ	-9.76443
▁μάθημα	-9.76463
▁ΚΑ	-9.76482
▁φορ	-9.76639
▁νόμο	-9.76648
▁αρχίζει	-9.76677
μία	-9.76729
▁Πρώτ	-9.7688
▁συνεργασία	-9.76897
εστε	-9.77258
Γ	-9.77304
▁χρονών	-9.77368
κομ	-9.77407
ρών	-9.77465
▁θάλασσα	-9.77494
▁τρι	-9.77667
έψει	-9.77831
▁οποια	-9.77836
▁ψυχ	-9.77862
▁άλλαξε	-9.77911
▁επικοινωνία	-9.77979
ήκα	-9.78069
▁ισχυρ	-9.78281
▁στιγμ	-9.78286
▁μπορέσ	-9.78294
▁εννοώ	-9.78341
▁προφανώ	-9.78404
▁ακούγ	-9.78444
ίσω	-9.78643
▁συνέπει	-9.78761
▁έντον	-9.78764
▁199	-9.78777
▁βοηθά	-9.7879
▁μάθηση	-9.78816
ίνα	-9.78875
▁καταλαβαίν	-9.78879
▁βρω	-9.78914
▁αίμα	-9.78939
τεχν	-9.78948
▁πήγε	-9.79235
▁σύνολ	-9.79235
▁μήνα	-9.79238
▁δέντρ	-9.79385
κάρ	-9.7962
▁σύντομα	-9.79707
▁πετά	-9.79743
▁πηγή	-9.79873
▁αναπ	-9.79943
ζι	-9.80035
▁τρώ	-9.80073
▁μαθαίνου	-9.80084
▁δείχνου	-9.8017
▁Όσο	-9.80183
▁Εννοώ	-9.80192
P	-9.80199
▁παρέ	-9.80232
▁πράξη	-9.80249
▁υπηρεσί	-9.80476
κτη	-9.80586
▁μόνη	-9.80666
οτήτων	-9.80669
▁Αρ	-9.80749
▁Μπά	-9.80786
έχει	-9.80809
▁δραστηριότητα	-9.8085
▁κρατ	-9.80892
έργα	-9.81046
▁κολ	-9.81083
▁φτάσ	-9.81123
▁κατανόηση	-9.81143
▁πανεπιστήμι	-9.81143
▁πολίτες	-9.81143
▁μήκο	-9.81153
▁καλύτερ	-9.81287
μου	-9.81422
▁κοινωνί	-9.81465
▁εργαλείο	-9.81488
μένος	-9.8155
▁ζωνταν	-9.81587
τάσεις	-9.81591
▁εγκεφαλικ	-9.81626
▁κίνδυνο	-9.81626
▁αποστολή	-9.81626
▁στατιστικ	-9.81641
▁εμ	-9.81643
▁ελευθερία	-9.81659
▁οικογένειά	-9.81828
εκτ	-9.81853
ίνω	-9.81855
εύει	-9.8198
▁γυρ	-9.82042
ίζονται	-9.82134
▁στόχο	-9.82144
▁Μία	-9.82177
▁επιπλέον	-9.82244
▁έξυπνο	-9.82258
▁εκπληκτικό	-9.82447
▁απίστευτο	-9.82471
γαν	-9.82503
▁κρατά	-9.82731
▁πίνακα	-9.82831
βάν	-9.82947
▁υπήρξ	-9.83089
▁Κλ	-9.83096
▁αντίληψη	-9.83096
θηκα	-9.83142
▁O	-9.8325
▁έτοιμο	-9.83365
ιστική	-9.83375
▁διαφάνεια	-9.83418
▁συνείδηση	-9.83582
▁μεταφορά	-9.83582
▁Κοιτάξ	-9.83584
▁συμπόνια	-9.83587
ολόγ	-9.83679
▁τηλέφωνο	-9.83708
▁δρόμους	-9.8372
▁σχεδιάσ	-9.8399
▁υπερβολικ	-9.8408
όρια	-9.84169
▁Προσ	-9.84229
▁άκρ	-9.84408
▁αίθουσα	-9.84458
▁Έπει	-9.8452
▁προστασία	-9.84574
▁συστήματος	-9.84578
▁κανονικ	-9.8458
▁φάρμακα	-9.84583
▁14	-9.84605
τρια	-9.84645
Ε	-9.84734
▁λίστα	-9.85078
▁στείλ	-9.85079
▁νεκρ	-9.85083
▁σχεδιάζ	-9.8509
ξί	-9.85151
ch	-9.85169
▁παιχνίδια	-9.85173
▁σπουδαίο	-9.85174
▁γυρίσ	-9.85192
▁θεωρ	-9.85225
▁εύκολα	-9.85244
▁καταφέρ	-9.85278
▁ικανότητ	-9.85365
▁διασ	-9.85394
▁νοσοκομείο	-9.85446
▁πληθυσμό	-9.85473
ρωση	-9.85561
▁βράδυ	-9.85577
▁δεκαετίες	-9.85577
▁οκτώ	-9.8558
▁πάτε	-9.85595
▁ύλη	-9.85606
▁Πολύ	-9.85652
▁οδηγ	-9.85699
▁λεπτό	-9.85763
▁χρησιμοποιήσου	-9.85788
▁κορ	-9.85808
▁Κατα	-9.85866
ζαν	-9.85938
▁Είχε	-9.86082
τέλ	-9.86082
▁αστ	-9.86093
▁Σωστ	-9.86169
▁τεχνικ	-9.86183
▁δυσ	-9.86201
▁Βασικ	-9.864
▁αποκ	-9.86403
▁ίδι	-9.86465
ουργ	-9.86579
▁Έλ	-9.86589
▁Γνωρίζ	-9.86589
▁χρονιά	-9.8659
ώσουμε	-9.86789
ρώ	-9.86934
▁γραφείο	-9.86974
▁ικαν	-9.87041
▁αυτ	-9.87076
▁Αφγανιστάν	-9.871
▁ταυτόχρον	-9.871
▁υπέρ	-9.87149
▁νεαρ	-9.87407
χλ	-9.87494
▁τηλεόραση	-9.87612
▁Μόνο	-9.87617
▁Επ	-9.87619
▁17	-9.87643
▁γνωστό	-9.87664
▁συγκεκριμένη	-9.87739
▁δρ	-9.87775
όμενο	-9.87893
φυ	-9.87913
▁γνωρίζει	-9.87998
▁περιορισμ	-9.88038
▁απαραίτητ	-9.88055
▁παράγου	-9.88126
▁ζήτημα	-9.88128
▁μνήμη	-9.88128
▁πληροφορι	-9.88151
▁πολιτισμό	-9.88192
▁συνειδητοποίησα	-9.88247
▁κύκλο	-9.88299
▁ανθρωπότητα	-9.88321
▁επαν	-9.88432
ύγ	-9.88509
▁επιχειρηματικ	-9.88646
▁ηγέτες	-9.88646
▁χωριό	-9.88649
▁γινόταν	-9.88649
▁φυτά	-9.8867
▁ειδών	-9.88726
▁προϊόντα	-9.88816
▁σωστή	-9.88859
re	-9.8896
▁Κάτ	-9.8899
▁άκρη	-9.89046
▁σελίδα	-9.89169
δέν	-9.89187
▁ανάλυση	-9.8923
μορ	-9.89231
▁Μέσ	-9.89315
▁αργ	-9.89353
▁πηγαίνου	-9.8936
▁παρουσιάσ	-9.89433
ρικ	-9.89508
ραχ	-9.89534
σου	-9.89612
κάλ	-9.89644
βερ	-9.89644
▁κατεύθυνση	-9.8969
▁άνδρα	-9.89694
▁δέκα	-9.89699
▁ηθική	-9.89708
▁πρόοδο	-9.89715
γκο	-9.8976
▁πατ	-9.89837
▁αρχίζου	-9.89866
▁βάλει	-9.89884
▁θερμ	-9.89921
ασί	-9.89974
▁παράγει	-9.90002
▁αντιμετωπίζου	-9.90048
ισμα	-9.90081
▁ειλικριν	-9.90217
ήσετε	-9.90296
▁συνέβαινε	-9.90307
▁βοηθήσ	-9.90308
▁μηχανική	-9.90347
▁χαρακτηριστικά	-9.90359
▁διαφ	-9.90468
ητές	-9.90742
▁πί	-9.90745
▁βιολογία	-9.90751
▁πότε	-9.90772
▁πιθαν	-9.90807
▁στοιχείο	-9.90947
λους	-9.90949
ψεις	-9.91103
▁διαρκ	-9.91151
▁κοινή	-9.91169
▁ρυθμό	-9.913
στήρι	-9.91318
▁σημ	-9.91318
χολ	-9.91367
▁διατηρ	-9.91395
▁χιλιόμετρα	-9.91467
▁ηθικ	-9.91521
φιλ	-9.91539
▁πετ	-9.91658
▁Ί	-9.91799
▁αναγνωρίζ	-9.91813
▁προστατεύ	-9.91814
▁κουτί	-9.91867
ιση	-9.91879
▁Λε	-9.91895
▁ασθεν	-9.92108
▁παλ	-9.92122
▁παγ	-9.9215
▁επιστημονική	-9.922
βαλ	-9.92266
είας	-9.92283
▁λεφτά	-9.9235
▁σκύλο	-9.92364
▁μιλήσουμε	-9.92407
▁κάποιους	-9.92842
▁φων	-9.92885
εκατομμύριο	-9.9289
▁αποτελούν	-9.92891
▁παρουσιάζ	-9.92891
γραμμα	-9.92918
at	-9.92927
ίνε	-9.92963
▁πράσινο	-9.93046
▁Πά	-9.93069
▁πετρ	-9.93076
▁ενδιαφέρ	-9.93364
άνια	-9.93369
οποιήσ	-9.93379
▁συστ	-9.93415
▁ματιά	-9.93437
▁υπόθεση	-9.93441
▁κύτταρο	-9.93502
▁βαρ	-9.93505
▁περιμέν	-9.93505
▁παίζει	-9.93535
▁ιστορίας	-9.93623
▁όμορφ	-9.93731
▁διαβάσ	-9.93734
▁φτιάξει	-9.9382
▁Πρ	-9.93843
▁τεστ	-9.93853
▁σκέφτοντα	-9.93861
▁φίλοι	-9.93913
▁απολύτως	-9.93981
▁σημεριν	-9.93981
▁τυφλ	-9.93981
γελ	-9.93984
▁Πήγα	-9.93984
▁κυβερνήσεις	-9.93992
▁βλέπει	-9.94003
▁μετρά	-9.94026
▁ερευνητ	-9.94031
▁13	-9.94032
▁Μην	-9.94069
▁αγαπημέν	-9.94218
▁γενικ	-9.94379
ραγ	-9.94459
▁βουν	-9.94474
κρατ	-9.94518
▁τρομερ	-9.94531
λαντ	-9.94669
▁σχετικ	-9.94815
▁κάπο	-9.94853
▁πολέμου	-9.95083
▁φυλακή	-9.95092
▁αδύνατο	-9.95093
▁έρευν	-9.9514
▁χαρ	-9.9516
▁τέτοι	-9.9527
▁δευτερόλεπτα	-9.95284
ικα	-9.95312
▁Κέ	-9.95393
▁Ήθελα	-9.95638
▁αυτοκινήτ	-9.95638
▁συμφων	-9.95657
▁ζητ	-9.95717
▁γιαγιά	-9.95734
▁συμβαίν	-9.9583
διο	-9.95909
▁παιδική	-9.95915
et	-9.95969
▁τρελ	-9.96037
▁ελάχιστ	-9.96197
▁πελάτ	-9.96198
▁καταστροφή	-9.96216
ol	-9.96227
▁Μόλ	-9.96232
▁αναζήτηση	-9.96237
▁24	-9.96238
▁παραγωγή	-9.96309
μπρ	-9.96434
le	-9.96439
▁ποσότητα	-9.96445
▁ανάπτυξης	-9.96549
ροφ	-9.96731
▁μέλη	-9.96762
▁προσπαθ	-9.9677
▁τάση	-9.96776
▁κλείσ	-9.96815
▁ωραίο	-9.96828
αγωγή	-9.9695
▁σχ	-9.97073
▁χρησιμοποιήσει	-9.97208
στρο	-9.97225
γμέν	-9.97278
▁Μέχρι	-9.97324
▁κάμερα	-9.97324
▁Είπε	-9.97325
στικό	-9.97335
▁ήρθα	-9.97342
▁κόρη	-9.97357
▁21	-9.97416
▁καταλάβει	-9.97492
▁βασικό	-9.97547
ευση	-9.97576
▁πρόσωπ	-9.9762
▁δουλεύουν	-9.97666
μενο	-9.97697
ίντεο	-9.97869
▁κυνηγ	-9.97892
▁επιλέξ	-9.97892
ούλ	-9.97929
▁Θεός	-9.97963
▁Σκ	-9.97991
▁κολλ	-9.98008
λιν	-9.98097
▁αρκετό	-9.98201
ρυθμ	-9.98289
▁βρεί	-9.98424
▁ανοιχτ	-9.98441
▁Διαδίκτυο	-9.98463
▁συναισθήματ	-9.98463
▁ιατρικ	-9.98513
▁στεν	-9.98524
▁κοιτάζ	-9.98531
▁παρατηρ	-9.98539
▁βιολογικ	-9.98602
ουσα	-9.98611
▁ενα	-9.98706
▁άμεσ	-9.98706
▁έξυπν	-9.98864
▁παρόν	-9.98906
▁ρωτά	-9.98935
▁πόρτα	-9.99023
▁Τελικ	-9.99043
▁εμπορικ	-9.99053
▁πάρω	-9.99141
▁κατασκευάσ	-9.99462
▁συναρπαστικό	-9.99505
▁φροντίδα	-9.99616
▁μετατρέψ	-9.99617
▁φωτός	-9.99619
▁ενδιαφέροντα	-9.99728
▁φόρ	-9.99832
▁μορφές	-9.99867
μένοι	-9.99909
▁Ρί	-9.99983
▁Ου	-10.0007
▁πρώτος	-10.0008
▁ορισμέν	-10.0011
▁περίεργο	-10.0017
▁παλιά	-10.0018
▁εξουσία	-10.002
▁άσχημα	-10.003
▁μοναδικό	-10.0032
▁201	-10.0033
▁πρ	-10.0038
▁ακολουθήσ	-10.0039
▁σημαντικές	-10.0039
▁δυνάμει	-10.0042
▁Ωσ	-10.0051
▁προσωπικό	-10.0062
▁πόλης	-10.0071
▁Παγκόσμιο	-10.0078
▁έλλειψη	-10.0078
▁κεφάλαι	-10.0078
▁μοντέλα	-10.0078
▁ομορφιά	-10.0078
▁φυσιολογικ	-10.0078
▁λέγοντας	-10.008
▁αξί	-10.0081
▁Κάποι	-10.0086
▁ρίξ	-10.0087
τικού	-10.0096
▁Άρη	-10.0103
▁ανακάλυψα	-10.0107
θούμε	-10.0132
▁ιστοσελίδα	-10.0135
▁εγκέφαλό	-10.0137
▁καταλήξ	-10.0137
▁μοιάζου	-10.0137
▁επαφή	-10.0138
▁μελετήσ	-10.014
στική	-10.014
▁φαινόμενο	-10.017
▁δοκιμ	-10.0174
ογράφ	-10.0178
▁στόχος	-10.0182
▁ηλικιωμέν	-10.0196
▁κατάλληλ	-10.0196
▁σύμφων	-10.0196
▁πολλή	-10.0196
▁I	-10.0198
ικοί	-10.0199
▁αναπτύσσ	-10.0206
▁κόκκινο	-10.0215
▁αρχικά	-10.0216
ώδη	-10.0217
μπλ	-10.0224
▁γενετικ	-10.023
▁σχέδια	-10.0232
▁Συ	-10.0233
▁πέ	-10.0238
▁θανάτου	-10.0256
▁αξίζει	-10.0256
▁κλιματική	-10.0265
όριο	-10.0271
ιακό	-10.0273
βελτ	-10.0282
▁αρχίσει	-10.0286
οτέ	-10.0288
▁προσφέρει	-10.0295
▁μυστικ	-10.0301
▁βοηθήσου	-10.0309
▁αδερφ	-10.0316
▁αντίδραση	-10.0316
▁ποντίκι	-10.0316
▁καφέ	-10.0316
▁γεμάτο	-10.0332
▁οργανισμό	-10.0335
▁Εκεί	-10.0357
▁μωρ	-10.0367
▁απόσταση	-10.0371
▁ασθένειες	-10.0376
▁Δεύτερο	-10.0376
▁υποστηρίζ	-10.0376
▁λίγη	-10.0395
▁βγ	-10.0399
▁εσωτερικό	-10.0401
▁Λα	-10.0411
▁Αντί	-10.0411
▁ζητήσ	-10.0416
▁αναγνωρίσ	-10.0436
▁στέκ	-10.0437
▁ονόματ	-10.0437
φόρο	-10.0449
▁δικαιώματ	-10.0452
▁χαρτί	-10.0456
για	-10.0458
▁κοινότητες	-10.046
▁Λί	-10.0463
ρίν	-10.0467
ουσ	-10.0473
ήπω	-10.0485
▁ανθρώπινα	-10.0489
▁άδεια	-10.0497
▁δωρεάν	-10.0497
▁γονίδια	-10.0497
▁μικροσκοπικ	-10.0498
▁ενάντι	-10.0498
▁τίτλο	-10.0498
ζει	-10.0498
▁εταιρία	-10.0498
▁πεθαίνου	-10.0511
L	-10.0519
γράψ	-10.052
▁αποφασίσ	-10.052
▁απαντήσ	-10.0551
▁οργαν	-10.0561
▁τέχνης	-10.0562
▁Χα	-10.0575
▁Κά	-10.0577
ίωση	-10.0578
ωθούν	-10.059
▁καινούργιο	-10.0592
ic	-10.0617
▁δημιουργούν	-10.0619
Ωραία	-10.0621
▁Πάρ	-10.0635
▁λογισμικό	-10.0635
▁εξωτερικ	-10.0637
▁αισθάν	-10.0644
▁περισσότερου	-10.0649
Ν	-10.0658
▁πιστεύει	-10.0665
▁Λονδίνο	-10.0683
▁έδειξα	-10.0683
▁ατόμων	-10.0683
▁εμπειρίες	-10.0683
▁χρειάζεσ	-10.0683
▁αρχίσου	-10.0687
▁δίκτυ	-10.0689
▁τοίχο	-10.0693
▁φτάνει	-10.0704
γρ	-10.0718
▁Θυμά	-10.0729
ότητά	-10.0732
▁θέσει	-10.0746
ιστούν	-10.075
▁δυνατότητες	-10.0756
▁πιθανότητ	-10.076
▁σώματος	-10.0768
▁αντιμετωπίσου	-10.0783
▁φτάσου	-10.0803
▁εφαρμόσ	-10.0808
▁εργοστάσι	-10.0808
▁ευθύνη	-10.0808
▁απαιτεί	-10.0808
▁εμπόδι	-10.0809
▁βρισκόμαστε	-10.0809
▁ζώο	-10.081
▁Ινδ	-10.081
▁εύ	-10.0815
▁δύσκολ	-10.0815
▁προσωπικ	-10.0816
▁πετάξ	-10.0819
▁σεξ	-10.0825
▁νου	-10.0833
θήκα	-10.0837
Ο	-10.084
δίδ	-10.0855
ζόταν	-10.0857
▁εργαστήρι	-10.0858
▁φτιάχν	-10.0862
▁σπουδ	-10.0863
▁χωρ	-10.0868
▁έδωσα	-10.0871
▁μέθοδο	-10.0871
▁παγκοσμίω	-10.0871
▁επιλέγ	-10.0871
▁πίεση	-10.0871
τρικ	-10.0873
▁παρακαλώ	-10.0875
▁ροή	-10.0884
ούμενο	-10.0889
▁δεις	-10.0911
▁διδάσκ	-10.093
▁Καλιφόρνια	-10.0935
▁επιχείρηση	-10.0935
▁δάσο	-10.0935
▁αριθμούς	-10.0935
▁πίστη	-10.0937
▁εφαρμογή	-10.0941
▁Αγ	-10.0955
▁δικά	-10.0957
▁ξεκινήσει	-10.0961
▁Πού	-10.0967
άδα	-10.098
▁μετατρέπ	-10.0992
▁πίστευα	-10.0999
▁Επιτρέψ	-10.0999
▁προέρχ	-10.1005
▁υψηλ	-10.1005
ίπ	-10.1006
ζο	-10.1021
ουσι	-10.1033
▁γωνία	-10.1037
▁λειτουργικ	-10.1037
▁παίζου	-10.1043
▁υψηλότερ	-10.1047
▁απειλ	-10.1047
▁προσωπική	-10.1052
▁τελευταί	-10.1054
▁ξοδεύ	-10.1064
▁μελέτες	-10.1065
▁μηνύματα	-10.1066
▁νούμερ	-10.1068
ήματος	-10.1068
▁πιστέψ	-10.1081
▁Περι	-10.1083
τίθεται	-10.1084
▁βασίζ	-10.1096
▁ερωτ	-10.1107
▁προσπαθώ	-10.1119
▁παρουσία	-10.1119
▁ήχου	-10.112
χρησ	-10.1122
άρχ	-10.1123
▁ταινί	-10.1123
▁τραγούδι	-10.1129
▁γέλια	-10.1129
▁τρίτη	-10.1129
▁παράθυρ	-10.1129
▁κέρδ	-10.1129
▁οργάνωση	-10.1129
▁μαθήματ	-10.1129
▁χαμηλ	-10.1135
▁αλλάζουν	-10.1138
ήθηκαν	-10.1143
βαθμ	-10.1145
▁γράψ	-10.1149
▁ακριβ	-10.1149
▁αγαπά	-10.1154
ήστε	-10.1156
έλαιο	-10.1159
▁παρατηρήσ	-10.1168
ro	-10.118
▁μιλ	-10.1185
▁φάρμακο	-10.1195
▁Ποια	-10.1197
φάλ	-10.1205
▁Κρις	-10.1206
▁ανάγκ	-10.1218
▁μοναδική	-10.1219
▁σταματήσ	-10.1227
▁αποτελεσματικ	-10.1237
▁λιγ	-10.1239
▁έμοιαζ	-10.126
▁όργανα	-10.126
▁πλούτο	-10.126
▁ήρω	-10.1263
▁ζεστ	-10.1272
▁Χρειαζόμαστ	-10.1274
λερ	-10.1276
▁αγορές	-10.1281
▁ιδιότητ	-10.1288
▁κοιν	-10.1289
▁Νε	-10.1304
▁σήμα	-10.1306
▁προφαν	-10.1311
▁δημιουργικ	-10.1316
ιπτόντ	-10.1326
▁εμπιστοσύνη	-10.1326
▁μέλισσ	-10.1326
▁Φαίν	-10.1326
▁Χειροκροτήματα	-10.1326
▁μάχη	-10.1329
▁θρησκεία	-10.1332
▁μύ	-10.1335
▁τόπο	-10.1338
▁αρχιτεκτονική	-10.1339
▁πλήρη	-10.1342
▁συνολικ	-10.1348
άδες	-10.1348
▁δείχν	-10.1354
▁μεγαλ	-10.1355
▁συνεχίσ	-10.1358
▁μειώσ	-10.1366
▁τέλειο	-10.1366
▁δύσκολη	-10.1366
έκτη	-10.1367
▁δείξει	-10.1368
ώματα	-10.1373
ri	-10.1379
▁καταστ	-10.1382
▁γνώμη	-10.1385
λεξ	-10.1386
▁ειρήνη	-10.1393
▁ρώτησα	-10.1393
▁σύνδεση	-10.1393
▁πόρου	-10.1394
▁πάγο	-10.14
στό	-10.1403
▁σταθερ	-10.141
▁θέσ	-10.1413
μένω	-10.1417
▁κατανοήσουμε	-10.1417
▁χαρακτήρα	-10.1434
ητική	-10.1439
ίζω	-10.1456
έμπ	-10.1457
▁εχθρ	-10.146
▁κυττάρ	-10.146
▁προσθέσ	-10.146
▁πήγαινα	-10.146
▁σταματήσει	-10.1464
▁Νό	-10.1464
▁επιτρέψ	-10.1467
▁τέλεια	-10.1468
▁αληθιν	-10.1472
τάρ	-10.1477
δων	-10.1486
ότερα	-10.1496
ρίου	-10.1499
ίδες	-10.1508
κυκλ	-10.1508
όνια	-10.151
▁αγώνα	-10.1516
book	-10.1527
▁μελλοντικ	-10.1527
us	-10.1527
άρια	-10.1528
▁έκθεση	-10.1528
▁ωκεανού	-10.1531
▁απαντήσεις	-10.1536
κινητό	-10.1541
▁μαμά	-10.1542
▁βρίσκου	-10.1542
ότερ	-10.1548
▁τεράστι	-10.1548
οποιεί	-10.1553
ρμο	-10.1564
Ρ	-10.1566
▁γραφή	-10.1568
▁Εκ	-10.157
▁Σου	-10.1575
λοκ	-10.1591
▁καμπ	-10.1593
▁Πραγματικ	-10.1595
▁ελέγξ	-10.1595
▁νευρώνες	-10.1595
▁χρειαζόταν	-10.1595
▁πρόταση	-10.1595
▁ζωντανό	-10.1596
σαι	-10.1596
▁προκλήσε	-10.1599
▁φύλ	-10.1602
θεσ	-10.1604
θερ	-10.1604
▁αναπτυσσόμεν	-10.1609
▁δυστυχ	-10.161
ώνονται	-10.1611
▁δικέ	-10.1625
▁θερμοκρασία	-10.1627
▁λειτουργ	-10.1633
▁κτίριο	-10.1635
ίστηκε	-10.1636
ιστικό	-10.1637
▁στρατ	-10.1649
όμενη	-10.1656
μηχαν	-10.166
▁Βι	-10.1661
▁κατάλαβα	-10.1664
▁οργανισμούς	-10.1669
ώδε	-10.1671
▁δημιουργικότητα	-10.1674
▁μαύρο	-10.1684
▁μετρήσ	-10.1686
▁δυνατά	-10.169
▁μπορέσου	-10.1696
ράφ	-10.1699
▁δουλέψει	-10.1702
▁παίξ	-10.1714
▁φωτογραφ	-10.1723
▁Νο	-10.1729
δουν	-10.1732
▁γιο	-10.1732
σχεδιασμού	-10.1733
▁ευκαιρίες	-10.1733
▁συγκρίν	-10.1733
▁197	-10.1735
▁αστικ	-10.1742
▁αστείο	-10.175
μών	-10.175
▁μιλούσα	-10.1751
κρά	-10.1758
▁φυλ	-10.1766
▁γιατρός	-10.1767
▁διαφορετικού	-10.1774
▁μικρότερο	-10.1785
▁βάζει	-10.18
▁κινείται	-10.1805
▁κλίμα	-10.1805
▁υποστήριξη	-10.1809
▁αγοράσ	-10.1809
▁παίζ	-10.1811
▁οικογένειες	-10.182
άξε	-10.183
▁σκέψης	-10.1833
▁Λι	-10.1835
ter	-10.1838
▁ημέρ	-10.1849
▁ενδιαφέρουσα	-10.1854
ηλαδή	-10.187
▁εταιρίες	-10.1872
▁περιεχόμεν	-10.1872
▁φοβερ	-10.1872
▁φέρνει	-10.1875
ευμέν	-10.1877
μόρια	-10.1878
▁500	-10.1882
▁καταναλωτ	-10.1884
▁Κρ	-10.1886
αινε	-10.1892
▁ανακάλυψη	-10.1895
▁όρου	-10.1896
▁τρύπα	-10.191
▁κυβερν	-10.1927
▁χάσ	-10.1938
▁Πανεπιστήμι	-10.1943
▁κατασκευαστ	-10.1943
▁πάθος	-10.1943
▁μίλια	-10.1943
▁χαρούμενο	-10.1943
▁εξηγήσω	-10.1943
▁στάδιο	-10.1964
▁ανθρώπου	-10.1971
ιστής	-10.1988
μπου	-10.2007
▁Μιλά	-10.201
▁έγραψε	-10.2013
▁καλοκαίρι	-10.2013
▁περιβαλλοντικ	-10.2013
▁αλλού	-10.2014
▁αλλιώ	-10.2014
εϊ	-10.2016
▁Fac	-10.2018
▁τραγουδ	-10.2022
▁τραβ	-10.2023
▁συνεργάτ	-10.2026
▁διεθν	-10.2032
▁πληρ	-10.2036
▁Που	-10.204
▁υπεύθυνο	-10.2042
▁περίπλοκ	-10.2042
έτη	-10.2045
▁Ξέρει	-10.2046
▁Μπό	-10.2046
▁ανακαλύψει	-10.205
▁ηλεκτρο	-10.2059
σιμ	-10.2069
λογο	-10.2075
▁βρισκό	-10.2084
▁τραπέζι	-10.2085
▁Βρίσκ	-10.2085
▁απόφαση	-10.2085
▁ευφυ	-10.2087
ντερ	-10.2097
▁εξίσ	-10.2102
▁δολλάρια	-10.2107
ιγκ	-10.2113
▁μαύρη	-10.2121
▁Ασία	-10.2128
▁γνωστ	-10.2129
▁Υπ	-10.2135
▁υπέροχ	-10.2135
ra	-10.2142
▁δημόσιο	-10.2146
▁δημοσιογράφο	-10.2157
▁ύπαρξη	-10.2157
▁άρεσε	-10.2157
▁έβαλα	-10.2157
▁γλυκ	-10.2157
▁αρνητικ	-10.216
προ	-10.2166
▁υπάρξει	-10.217
▁χειρότερ	-10.2176
,5	-10.2176
▁πρακτικ	-10.2177
▁χαρτ	-10.2187
▁ξεχάσ	-10.2195
▁Καρ	-10.2197
▁εκπληκτικ	-10.2199
▁θυμάσ	-10.22
▁νιώσ	-10.2208
▁Κατ	-10.2218
▁ζήσει	-10.2219
▁βάθο	-10.2229
▁κοστίζ	-10.223
▁αντίθεση	-10.2231
λετ	-10.2235
▁απίστευτη	-10.2237
▁προχωρήσ	-10.2261
ma	-10.2299
▁μαθαίν	-10.2302
▁απασχολ	-10.2302
▁ατμόσφαιρα	-10.2302
▁περίθαλψη	-10.2302
▁ουρανό	-10.2302
▁κατασκευάζ	-10.2302
▁χειρουργ	-10.2302
▁ρούχ	-10.2303
▁Ρά	-10.2307
▁επιστημονικ	-10.2308
▁σωματικ	-10.2309
▁όνειρ	-10.2323
▁πυρηνικ	-10.2323
▁εντό	-10.2325
▁καλού	-10.2327
▁μιλήσει	-10.2342
▁ξυ	-10.2359
▁άσχημ	-10.2363
▁Δρ	-10.2368
0.000	-10.2369
▁κακή	-10.2374
▁ζήτησ	-10.2375
▁διαδικτυακ	-10.2376
▁τρισδιάστατ	-10.2376
▁παρόλο	-10.2376
▁ανάλογ	-10.2378
▁Πρώτον	-10.2381
▁πιστεύετε	-10.2384
▁άλλου	-10.2387
▁άρθρο	-10.2395
στηκε	-10.2395
▁κάρτ	-10.2402
▁ωκεανό	-10.2416
▁Μάρ	-10.2418
,000	-10.2419
▁τυχερ	-10.245
▁αναφορά	-10.245
καλλιέργ	-10.245
▁Τέλο	-10.2451
▁απόλυτα	-10.2451
▁σήμαιν	-10.2453
▁ξεχωριστ	-10.2453
▁περπατά	-10.2456
▁χάσει	-10.2457
▁παρέχου	-10.2458
τηρί	-10.2481
▁δεσμ	-10.2491
σαρ	-10.2499
▁κοινωνικό	-10.2516
όνων	-10.252
▁Ιαπωνία	-10.2525
▁επιχειρηματί	-10.2525
▁αγαθ	-10.2525
▁αόρατ	-10.2525
▁ύψο	-10.2526
▁τυπ	-10.2532
▁300	-10.2535
οειδ	-10.2536
▁αεροπλάνο	-10.2545
▁έτος	-10.2546
▁ανθρώπινου	-10.2557
ωμένη	-10.2572
▁γεγονότα	-10.2578
▁γης	-10.258
▁ιερ	-10.2589
▁συμμετ	-10.2592
▁Κου	-10.2592
▁καθημερινά	-10.2599
θήκη	-10.26
▁συναίσθη	-10.26
▁ψάξ	-10.26
▁εναντί	-10.26
▁δικαιοσύνη	-10.26
▁κλειδί	-10.26
ιζα	-10.2603
▁καλλιτέχνη	-10.2607
▁όποιο	-10.2608
▁Εκείν	-10.2616
▁μαύρ	-10.2616
▁σκοτεινή	-10.2633
▁Ιρά	-10.2635
▁εξετάσ	-10.264
ισμένη	-10.2641
▁φτιάχνου	-10.2644
▁όμορφη	-10.2653
▁αντίθετο	-10.2658
▁μηχανικ	-10.2662
▁παραγωγής	-10.2663
τής	-10.2664
▁χώρους	-10.2666
▁Υ	-10.2669
▁προέρχοντα	-10.2671
▁οφείλ	-10.2675
▁πραγμάτων	-10.2675
▁αρέσουν	-10.2675
▁νωρίτερα	-10.2676
φτ	-10.2676
▁ιστό	-10.2682
φελ	-10.2686
▁συνειδητοποιήσ	-10.2687
▁εικονικ	-10.2687
▁δικαίωμ	-10.2689
▁Μακ	-10.2692
▁όντα	-10.2709
▁καταπληκτικό	-10.2709
▁πέτρ	-10.272
▁Άλ	-10.2724
▁πάντω	-10.2725
αρά	-10.2728
▁κινητ	-10.2738
▁βαθ	-10.2738
ύτερ	-10.2739
▁πιάσ	-10.2744
▁ολο	-10.2745
▁εφαρμόζ	-10.2752
▁καριέρα	-10.2752
▁αδελφ	-10.2752
▁δολαρί	-10.2752
▁Θεωρ	-10.2752
▁198	-10.2752
▁Νότια	-10.2752
▁ενεργειακ	-10.2753
▁δεκάδ	-10.2753
▁συναρπαστικ	-10.2766
▁τεχνολογι	-10.2794
σιμο	-10.282
▁αριθμο	-10.2828
▁Ελπίζ	-10.2829
▁απεικόνιση	-10.2829
▁αποδεικνύ	-10.2829
▁στρατιωτικ	-10.2829
▁δίκιο	-10.2829
▁λέγα	-10.283
ne	-10.2834
▁πιθανώς	-10.2842
▁Δύση	-10.2842
▁πλούσι	-10.2844
▁Μπε	-10.2854
▁καταφέρει	-10.2856
ζοντας	-10.2863
νέα	-10.2864
▁υδρ	-10.2866
πέρα	-10.2869
σταση	-10.287
▁φά	-10.2882
▁κοιτ	-10.2888
▁πολύπλοκ	-10.2891
▁δείγμα	-10.2898
▁ένιωθα	-10.2906
▁στρατηγική	-10.2906
▁ναρκωτικ	-10.2906
▁πτυχ	-10.2906
▁συμβού	-10.2907
σδήποτε	-10.2909
▁γάμο	-10.2911
▁ψάρια	-10.2927
▁επιτρέπου	-10.293
ασταν	-10.2932
▁Ντά	-10.2935
υτό	-10.2935
και	-10.294
▁Ενώ	-10.2941
▁βασική	-10.2943
ντας	-10.2957
▁σώματ	-10.2963
▁αληθινή	-10.2967
▁ψηλά	-10.2968
▁παρακολουθού	-10.2969
▁τελειώσ	-10.2969
▁αιτία	-10.2974
▁αγροτικ	-10.2984
▁πέθανε	-10.2984
▁παππού	-10.2984
▁φεγγάρι	-10.2984
▁συμπεριλαμβανομ	-10.2984
▁ήξερε	-10.2984
▁μαζική	-10.2984
νικ	-10.2985
▁βιομηχανικ	-10.2985
▁ούτω	-10.2985
▁φέρει	-10.2987
▁ιδεώ	-10.2987
▁περίεργ	-10.2988
▁πρώτε	-10.2993
κράτη	-10.2994
σκευ	-10.2995
δυτικ	-10.3001
▁ισχυρό	-10.3013
▁Δύ	-10.302
▁επιθυμία	-10.3021
▁επάν	-10.3021
▁καθηγητή	-10.3025
▁μεγέθ	-10.3028
▁μονο	-10.3035
φρα	-10.3038
ημένη	-10.3042
▁χαλ	-10.306
▁καρδιακ	-10.3064
▁συμβουλ	-10.3064
ήθηκα	-10.3071
▁καλλιτέχνες	-10.3073
▁νιώθει	-10.3079
▁χρώματα	-10.3087
▁πιστ	-10.3099
▁τελει	-10.3104
▁πολλαπλ	-10.3106
μπορ	-10.311
έρχεται	-10.3123
▁σπουδαία	-10.3131
▁Πάντ	-10.3131
καλλιεργ	-10.3132
ίνουμε	-10.3133
▁δουλειές	-10.3142
▁επίδραση	-10.3142
▁αισθητήρ	-10.3142
▁Ονομάζ	-10.3143
▁ζώων	-10.3143
▁σταματά	-10.3144
▁γιατροί	-10.3144
▁συνεχίζ	-10.3144
▁πολιτικό	-10.3164
▁Τζον	-10.3167
▁πεθάνει	-10.3172
▁καταγράφ	-10.3176
▁μυαλ	-10.3204
▁χαμηλή	-10.3207
▁εθνικ	-10.321
▁άντρας	-10.3217
▁νόμου	-10.3217
λατ	-10.3217
▁είπαμε	-10.3219
▁εκλογές	-10.3223
▁βαθύτερ	-10.3223
▁Σχεδ	-10.3224
▁Ρο	-10.3228
▁Χάρ	-10.3229
▁σχολικ	-10.323
▁συνεπ	-10.3231
ούμενη	-10.3234
ευε	-10.324
▁καμι	-10.3241
ίστα	-10.325
▁υπηρεσία	-10.3254
▁βγάζει	-10.3265
δίκ	-10.3266
ζόμαστε	-10.3267
ένων	-10.3271
▁Σπ	-10.3273
▁αντίστοιχ	-10.3303
▁γρηγορότερ	-10.3303
▁εναλλακτικ	-10.3303
▁πλειοψηφία	-10.3303
▁τράπεζ	-10.3303
▁ανακαλύπτ	-10.3303
▁βρήκε	-10.3303
▁κρίσιμ	-10.3303
▁αποκαλούμε	-10.3304
▁Εθνικ	-10.3305
▁αληθινό	-10.3306
ράτ	-10.3309
ur	-10.3311
▁παιχνιδιού	-10.3312
▁αναγκ	-10.3313
▁κρυφ	-10.3321
▁χτυπ	-10.3328
▁στρατό	-10.3331
▁συζητήσει	-10.3343
el	-10.3348
▁αντίθετ	-10.335
τηκα	-10.3354
▁γειτονιά	-10.3355
▁Εσ	-10.3364
εύσει	-10.3365
▁Παίρν	-10.3372
▁είδε	-10.3381
▁Βόρεια	-10.3384
▁έκπληξη	-10.3384
▁κατανάλωση	-10.3384
▁σύμβολ	-10.3384
▁εξετάζ	-10.3385
▁απέναντ	-10.3385
▁προβλήματ	-10.3386
▁τετρ	-10.3401
▁δημιουργήσαμε	-10.3405
▁αγαπημένο	-10.3411
▁150	-10.3412
υρο	-10.3415
▁εξερευνήσ	-10.3424
▁νότ	-10.3437
▁δέντρο	-10.3442
▁παράξενο	-10.3445
ing	-10.3447
▁μείνει	-10.3447
▁ιό	-10.3447
▁επενδύ	-10.345
κλειδ	-10.3454
▁δικαι	-10.3457
▁συνεργ	-10.3458
▁δημιουργήθηκ	-10.3459
▁μορφ	-10.3461
▁παράγ	-10.3466
▁έδειξε	-10.3466
▁λεπτομέρειες	-10.3466
▁πολυπλοκότητα	-10.3466
▁θηλυκ	-10.3466
▁μέλος	-10.3466
όργανο	-10.3467
▁ζούσα	-10.3467
▁ζητήματα	-10.3468
▁τεχνητ	-10.3471
▁αγοράζ	-10.3471
▁επομέν	-10.3472
▁λευκ	-10.3474
▁μείωση	-10.3476
▁επηρεάζει	-10.3482
δημιουργούμε	-10.3492
αφή	-10.3493
▁θεωρεί	-10.3499
▁προσεκτικά	-10.3499
▁υπέροχη	-10.351
▁τυχαία	-10.3512
▁πειράματα	-10.3513
▁ασφαλή	-10.3515
ιζαν	-10.3519
▁ακριβή	-10.3533
▁περπατ	-10.3548
▁εισόδημα	-10.3549
▁θηλαστικ	-10.3549
▁πλήθο	-10.3549
▁ταξιδεύ	-10.3549
▁στρατιώτ	-10.3549
▁πραγματ	-10.3553
▁τροχ	-10.3554
▁εθελοντ	-10.3556
▁35	-10.3557
▁κοιμ	-10.3562
▁επιβίωση	-10.3562
▁πολύτιμ	-10.3568
▁βασ	-10.3573
▁επιτυχημέν	-10.3583
θαρ	-10.3595
▁φανταστικό	-10.3596
παντ	-10.3596
Ι	-10.3599
βατ	-10.3604
▁φτιάχνει	-10.3608
▁πολιτ	-10.361
ίνο	-10.3611
▁παρόμοια	-10.3631
▁Βραζιλία	-10.3632
▁αλγόριθμο	-10.3632
▁αμερικανικ	-10.3632
▁μηχάνημα	-10.3632
▁δάση	-10.3633
▁εντοπίσ	-10.3633
▁ονομάσ	-10.3633
▁ξέρα	-10.3633
▁μάζα	-10.3637
▁βάσει	-10.3639
▁ανοιχτό	-10.3643
ρίζ	-10.365
προσωπ	-10.3653
λιών	-10.3662
▁νέοι	-10.3677
▁προσφέρ	-10.368
ίστηκα	-10.368
▁ψηφιακή	-10.3684
om	-10.3687
ώσουν	-10.3706
ίγουρα	-10.3708
ωμάτων	-10.3714
▁Χρειάζε	-10.3716
▁Έκανα	-10.3716
▁έντομα	-10.3716
▁νοημοσύνη	-10.3716
▁ατομικ	-10.3716
▁ακτίν	-10.3717
▁φαινότ	-10.3717
▁Αρχ	-10.3722
▁τοπίο	-10.3727
περνούν	-10.3728
▁παρακολούθηση	-10.3729
▁κινδύνου	-10.3736
▁κλινικ	-10.3749
▁παράγοντα	-10.3753
▁Θέλου	-10.3761
ευτεί	-10.3773
▁ψηφιακ	-10.3775
▁πυρηνική	-10.3777
▁μπαμπά	-10.3796
▁μεγάλου	-10.3798
▁έφτιαξα	-10.3801
▁ασχοληθ	-10.3801
▁διαφθορά	-10.3801
▁Ντέιβι	-10.3801
▁πνεύμα	-10.3801
▁σκεφτόμουν	-10.3801
▁χάρη	-10.3806
▁ανέβ	-10.3806
▁οδηγήσει	-10.3809
▁Γερμανία	-10.381
▁φάση	-10.3811
▁διαδρομή	-10.3813
▁καλέ	-10.3814
▁ιδι	-10.3816
is	-10.3817
▁ανοίξ	-10.3817
ρικό	-10.3827
▁κατανοήσ	-10.3856
οποιήσει	-10.3868
▁Φρ	-10.387
▁θεωρώ	-10.3875
▁Ρα	-10.3882
▁ξεπεράσ	-10.3883
▁πλάσματ	-10.3884
▁καλύπτ	-10.3887
▁διδάξ	-10.3887
▁κίνημα	-10.3887
▁τύχη	-10.3887
▁άκουσα	-10.3887
▁λατρεύ	-10.3887
▁λάθη	-10.3887
▁Ξε	-10.3889
▁Νέ	-10.3895
▁ρεύμα	-10.3896
▁επικίνδυνο	-10.3902
▁καρτ	-10.3905
▁συμβά	-10.3912
▁περιοδικό	-10.3913
▁χρονικ	-10.3914
▁δρόμου	-10.3915
▁καθημεριν	-10.3921
▁αστέρι	-10.3926
▁απευθ	-10.3927
▁δισεκατομμύριο	-10.3939
τέλη	-10.394
▁ταυτότητα	-10.3947
▁μοτίβ	-10.3948
▁εξωτερικό	-10.395
▁Είσ	-10.3954
▁Άλλ	-10.3964
έρι	-10.3968
▁ενισχύ	-10.3973
▁εμβόλι	-10.3973
▁σημάδι	-10.3973
▁οπου	-10.3975
ίζοντας	-10.3976
▁Γεια	-10.3977
▁ισχυρή	-10.3983
▁προσπάθει	-10.3984
▁πολύπλοκο	-10.399
▁μέτρο	-10.3996
▁φανταστικ	-10.3998
▁Χρησιμοποι	-10.3998
χθεί	-10.4015
▁παλιό	-10.4017
▁γενικά	-10.402
▁τυπικ	-10.4023
▁κρατήσ	-10.4029
▁σπά	-10.4036
▁Απλώ	-10.4044
▁πέρασα	-10.4044
▁βρίσκει	-10.4046
κειμένου	-10.4054
▁βρου	-10.4056
▁τραπεζ	-10.406
▁έβλεπα	-10.406
▁απομακρύν	-10.406
▁ενθαρρύν	-10.406
▁φορτηγ	-10.406
▁βελτίωση	-10.406
▁σκεπ	-10.4061
▁περιγράψ	-10.4063
▁μαρ	-10.4079
▁μαγνητικ	-10.4079
▁ανοίγ	-10.4081
▁καινούριο	-10.409
▁Ασ	-10.4094
▁συνδυασμό	-10.4105
▁Ούτ	-10.4129
▁πλούσιο	-10.413
▁προσφέρου	-10.413
▁τοποθετήσ	-10.4135
▁μάθουν	-10.4142
▁ακτινοβολία	-10.4148
▁αλληλεπίδραση	-10.4148
▁απίθαν	-10.4148
▁ποδήλατ	-10.4148
▁κανόνα	-10.4148
▁διάβασ	-10.4149
▁επίθεση	-10.4149
θεση	-10.4154
λεμ	-10.4156
▁βαθμού	-10.4158
▁μαθαίνει	-10.4166
▁βγει	-10.4167
▁χειρότερο	-10.4168
▁μαστ	-10.4169
▁όνομ	-10.4178
▁αγνο	-10.4179
▁Μπου	-10.418
▁τέτοιου	-10.4183
▁εκτελ	-10.4189
▁νιώθουν	-10.4199
▁γάτ	-10.4201
Λ	-10.422
▁δημοσιεύ	-10.4224
▁φωτο	-10.4225
▁έγραψα	-10.4236
▁δημιούργησε	-10.4236
▁πολλών	-10.4236
▁σύγκρουση	-10.4236
▁έμειν	-10.4236
▁παρακολουθεί	-10.4236
▁φωτιά	-10.4236
▁κινούντα	-10.4236
βάτ	-10.4241
▁St	-10.4256
▁μοτίβο	-10.4262
▁προσπαθούσα	-10.4267
▁βάζου	-10.4268
il	-10.4268
▁συλλογή	-10.4273
de	-10.4277
▁τοπική	-10.4277
στεί	-10.4278
έσω	-10.4285
ψαν	-10.4287
▁ξεκάθαρο	-10.4303
σένα	-10.4316
ύριο	-10.4321
▁Αυστραλία	-10.4325
▁μονοπάτι	-10.4325
▁συμμετοχή	-10.4325
▁σύγκριση	-10.4325
▁ανησυχού	-10.4325
▁επιπτώσε	-10.4325
▁εξελιχθ	-10.4325
▁βρεθεί	-10.4325
▁χρυσ	-10.4325
▁μαζεύ	-10.4325
▁παρακολουθήσ	-10.4326
▁απόλυτη	-10.4326
▁κατάφερα	-10.4326
▁δραματικ	-10.4327
▁αρκετή	-10.4328
▁επικοινων	-10.433
▁ασφαλ	-10.4337
▁ιστορικ	-10.4344
▁οπτικ	-10.4353
▁χρησιμοποιούσα	-10.4358
▁φάσμα	-10.4362
▁απώλεια	-10.4365
▁όνειρο	-10.4391
σμένα	-10.44
▁ξεκινού	-10.4406
ποίηση	-10.4406
▁παραγωγικ	-10.4408
▁ασυνήθιστ	-10.4415
▁παράλληλ	-10.4415
▁επεκτείν	-10.4415
▁παράδοση	-10.4415
▁αρσενικ	-10.4415
▁δημοκρατικ	-10.4416
▁μονάδα	-10.4416
▁κατοικ	-10.442
οσύνη	-10.442
▁κατηγορ	-10.4422
▁βγαίνει	-10.4428
▁θεωρούν	-10.4429
▁ωσ	-10.4431
λωσ	-10.4442
▁ευτυχ	-10.4445
▁αναστ	-10.4457
ζί	-10.4461
▁μουσικ	-10.4472
▁ερευν	-10.4475
▁τριών	-10.4477
▁ψηφιακό	-10.4479
▁κίνητρα	-10.4481
▁πολιτισμ	-10.4489
▁ζητά	-10.4491
▁βου	-10.4496
▁ποσό	-10.4506
▁Δυστυχ	-10.4506
▁αμάξι	-10.4506
▁αστυνομία	-10.4506
▁εξελικτικ	-10.4506
▁τηλεσκόπι	-10.4506
▁Βρήκα	-10.4506
▁αγρότ	-10.4506
▁αρχηγ	-10.4506
▁σύνορα	-10.4506
χώρησ	-10.4506
▁ηλιακή	-10.4506
▁Θεέ	-10.4507
φυλακ	-10.4511
▁45	-10.4513
▁Βρετανία	-10.4516
▁Υπο	-10.4527
▁διαδ	-10.4532
▁σήματ	-10.4539
▁τρελό	-10.4547
▁διαβάσει	-10.4548
ένου	-10.4561
▁κενό	-10.4566
▁αρκετές	-10.458
▁πρότυπο	-10.4587
▁χρήσιμ	-10.4594
μιλούν	-10.4596
▁εκπαιδευτικ	-10.4598
▁Άρχισα	-10.4598
▁πλανήτες	-10.4598
▁ρομποτικ	-10.4598
▁συμμετέχου	-10.4598
▁φράση	-10.4598
▁πήγαινε	-10.4598
▁απόδοση	-10.4599
▁κινήσεις	-10.4599
▁τεχνική	-10.4602
▁αρχίσα	-10.4602
▁σοβαρό	-10.4615
▁παρόμοιο	-10.4621
▁ψαρ	-10.4629
▁νομικ	-10.4631
▁νοιάζ	-10.4653
▁οικογενειακ	-10.4659
αξιο	-10.4666
▁βασισμέν	-10.467
▁φύγ	-10.4689
λέτε	-10.469
▁πανέμορφ	-10.4691
▁συγκεντρών	-10.4691
▁αναρωτηθ	-10.4691
▁βλέπα	-10.4691
▁ενήλικες	-10.4691
▁εξερεύνηση	-10.4691
▁δομές	-10.4691
▁τραβήξ	-10.4691
▁σιγά	-10.4691
▁κρέα	-10.4691
▁υπολογίσ	-10.4691
▁Πήρα	-10.4692
▁κουβαλ	-10.4693
▁ζευγάρι	-10.4694
▁μεταφέρ	-10.4701
ρίζει	-10.4702
▁βυθ	-10.471
▁κιλά	-10.4712
▁πόδι	-10.4716
▁προβλέψ	-10.4716
▁καινούργια	-10.4729
ραμ	-10.473
▁πνευματικ	-10.4731
▁Ιράν	-10.4741
▁περίπλοκο	-10.4747
▁αφήνει	-10.4763
▁θεωρούμε	-10.4768
▁χαρακτηριστικό	-10.4772
ότου	-10.4779
στροφή	-10.478
▁καταλαβαίνουμε	-10.4781
Χ	-10.4782
▁αξιοσημείωτ	-10.4784
▁κατάθλιψη	-10.4784
▁ποικιλία	-10.4784
▁μεγάλων	-10.4784
▁οικονομολόγο	-10.4784
▁συγγραφέα	-10.4784
▁εξαρτάται	-10.4784
▁ακραί	-10.4785
▁εσωτερικ	-10.4786
▁κήπο	-10.4786
▁παρέχει	-10.4788
στατ	-10.4789
▁φλ	-10.4796
▁στόχου	-10.4799
un	-10.4801
έται	-10.4804
▁κίνητρ	-10.481
▁Είδα	-10.4821
▁ρίζ	-10.4823
▁Λό	-10.4825
▁χρονικό	-10.4826
▁σταματήσουμε	-10.4829
ίσουν	-10.4833
▁Συγ	-10.4836
▁αντιμετωπίσ	-10.4846
▁εκείνου	-10.4848
▁λεπτ	-10.485
▁εκπληκτική	-10.4853
ed	-10.4855
ικότητα	-10.4859
id	-10.4867
άζονται	-10.4869
τήριο	-10.4874
▁Ανατολή	-10.4878
▁έκφραση	-10.4878
▁έφτασε	-10.4878
▁δάχτυλ	-10.4878
▁εκφράσ	-10.4878
▁ευημερία	-10.4878
▁κρεβάτι	-10.4878
▁συνέντευξη	-10.4878
▁συνέχισ	-10.4878
▁χρειαστεί	-10.4878
▁αλυσίδ	-10.4878
▁Αφού	-10.4879
▁Κανένα	-10.488
▁καθορίζ	-10.4884
▁όραμ	-10.4886
▁σχεδίασ	-10.4898
▁εφημερίδα	-10.4898
ματική	-10.4903
ρούν	-10.4915
am	-10.4915
▁δυναμική	-10.4918
▁νεαρό	-10.4918
▁απειλή	-10.4922
▁μικρού	-10.4923
έφερα	-10.4926
▁πάρκο	-10.493
▁οικονομικό	-10.4944
▁Χάν	-10.495
▁συμπερι	-10.4953
▁μπει	-10.4966
▁μοιράζ	-10.4968
δικτύου	-10.4968
▁δικηγόρο	-10.4974
▁πρότζεκτ	-10.4974
▁συνέδρι	-10.4974
▁τοποθεσί	-10.4974
▁τριγύρ	-10.4974
▁ένταση	-10.4974
▁χρόνων	-10.4974
▁όραση	-10.4974
▁κοντιν	-10.4974
▁μεγαλώνει	-10.4974
▁σηκώσ	-10.4974
▁αποτελεσματικό	-10.4984
li	-10.4985
▁εξαρτ	-10.499
▁2000	-10.4992
▁στόμα	-10.4993
▁νοσοκομεί	-10.4999
τυπο	-10.4999
▁χτυπά	-10.5
ώθηκε	-10.5004
▁σύγχρονη	-10.5007
▁διαφων	-10.5011
▁γαλαξία	-10.5021
▁πνευματική	-10.5028
λυτ	-10.5037
▁δουλέψ	-10.5038
▁τελειώσει	-10.504
▁αθλ	-10.5057
▁γράμμα	-10.5059
ιασμέν	-10.507
▁χρειάστηκ	-10.507
▁σκέψεις	-10.507
▁αποφύγ	-10.507
ιακά	-10.5072
▁ζώνη	-10.5075
▁ηλεκτρικ	-10.5076
▁καθαρό	-10.508
φέρει	-10.5082
▁βοηθ	-10.5089
ύματα	-10.5093
▁σημειώ	-10.5096
▁προσωπικά	-10.5101
▁κτίρι	-10.5111
▁κάθ	-10.5116
▁μάθαμε	-10.512
▁ελεύθερο	-10.5157
υτή	-10.5158
▁πολιτισμού	-10.516
▁φτιαγμένο	-10.5164
th	-10.5165
▁αυθεντικ	-10.5167
▁βοήθησε	-10.5167
▁μακροπρόθεσμ	-10.5167
▁μεγάλωσα	-10.5167
▁πετρελαίου	-10.5167
▁χρηματοδοτ	-10.5167
▁εστιάσ	-10.5167
λντ	-10.517
▁εκατομμυρίων	-10.5172
▁πλευρές	-10.518
γνώμη	-10.5186
▁σχετίζ	-10.5196
ηθούμε	-10.5205
▁αποτυχία	-10.5206
▁καρκίνου	-10.5207
▁επενδύσει	-10.5215
▁δώσουν	-10.5221
▁πραγματικ	-10.5226
▁αερο	-10.5234
▁Είσα	-10.5246
▁επικίνδυν	-10.5248
▁φαίνοντα	-10.5254
έστερ	-10.5256
▁αφαιρ	-10.5262
▁τηλεφων	-10.5263
▁Ισραήλ	-10.5265
▁αίσθημ	-10.5265
▁αντίκτυπο	-10.5265
▁γνώριζα	-10.5265
▁διαχείριση	-10.5265
▁εξοπλισμό	-10.5265
▁εργασίες	-10.5265
▁ιδιοκτησία	-10.5265
▁οξυγόνο	-10.5265
▁τέταρτο	-10.5265
▁Προφαν	-10.5265
▁θρησκευτικ	-10.5265
▁ανισότητ	-10.5265
▁υπολογίζ	-10.5266
▁στάση	-10.5266
▁τροχιά	-10.5266
▁σωρό	-10.5266
▁99	-10.5269
▁μπήκα	-10.5269
▁δώρο	-10.5271
▁μοιράζονται	-10.5271
▁εθ	-10.5273
▁παίξει	-10.5283
▁10.000	-10.5283
▁λογικό	-10.5285
▁ξεχ	-10.5292
▁επιτρέπ	-10.5294
tter	-10.5294
▁ποσοστ	-10.5327
τρώνε	-10.5332
▁κινητή	-10.5335
te	-10.5344
▁εξηγ	-10.5363
▁δεδομένο	-10.5364
▁γείτον	-10.5364
▁πλεον	-10.5364
▁συναδέλφου	-10.5364
▁χορό	-10.5365
▁ισορροπία	-10.5368
▁75	-10.5368
▁αφορού	-10.537
▁Χωρί	-10.5371
▁χρησιμοποιούντα	-10.5373
▁ορισμό	-10.5375
▁πρότυπ	-10.5377
▁γυμν	-10.5384
▁ακολουθεί	-10.5387
εύουν	-10.5389
▁Γίν	-10.5389
▁περιγράφ	-10.5393
ay	-10.5393
▁ίδιου	-10.5393
▁χαρακτήρ	-10.5401
▁τρομακτικ	-10.5406
▁πολεμ	-10.5406
▁καθημερινή	-10.5425
▁κυβερνητικ	-10.5429
▁μυστικό	-10.5441
χτεί	-10.546
▁Όπο	-10.5464
▁Καναδά	-10.5464
▁δασκάλου	-10.5464
▁σωματίδι	-10.5464
▁σκεφτήκα	-10.5464
▁μύθο	-10.5468
▁ασφαλείας	-10.5469
▁2008	-10.547
▁400	-10.5492
ειναι	-10.5495
▁υποφέρ	-10.5507
κίνηση	-10.5513
▁γέφυρα	-10.552
▁εντυπωσιακ	-10.552
▁Χό	-10.5521
▁Εντ	-10.5522
▁εργάζ	-10.553
▁φύλλ	-10.5562
▁ΑΕΠ	-10.5565
▁κατέληξα	-10.5565
▁μπουκάλι	-10.5565
▁πλατφόρμ	-10.5565
▁προσπάθησα	-10.5565
▁αποφασίζ	-10.5565
▁ποτάμι	-10.5565
▁μαγεία	-10.5565
▁έφερε	-10.5565
▁φώτα	-10.5565
▁αποδοτικ	-10.5567
▁όχημ	-10.5567
▁κόλπο	-10.5571
▁εντ	-10.5575
▁Μεγάλη	-10.5576
▁προηγούμεν	-10.5586
▁αποδείξει	-10.5592
▁επικοινωνού	-10.5595
▁δηλ	-10.5604
τησί	-10.561
▁ευτυχισμένο	-10.5611
▁παλι	-10.5612
▁εξετάσει	-10.5614
▁αντιμετωπίζ	-10.562
▁συζητήσ	-10.5621
▁θύματ	-10.5622
▁φύγει	-10.5635
▁στρώμα	-10.5642
▁Πάμε	-10.5661
▁βγάλει	-10.5667
▁ΜΜΕ	-10.5667
▁αφήγηση	-10.5667
▁ελέφαντ	-10.5667
▁καταλήγου	-10.5667
▁υιοθετ	-10.5667
▁Σκέφτηκ	-10.5667
▁πρόεδρο	-10.5667
▁πτήση	-10.5667
▁γενιές	-10.5667
▁δυσκολί	-10.5667
▁ανοικτ	-10.5667
▁πιθανότ	-10.5668
κάλυψη	-10.567
▁λύσουμε	-10.5673
▁μεταβολ	-10.5676
▁σοφία	-10.568
στήκα	-10.568
▁τυχαί	-10.5681
▁τόση	-10.5688
▁συμφωνία	-10.5695
▁συνάντηση	-10.5701
▁Βασ	-10.5711
▁έτοιμ	-10.5712
▁χώρου	-10.5714
▁καθηγητ	-10.5717
αθέσ	-10.5718
▁εποχ	-10.5718
▁πληροφορ	-10.5741
▁αγγλικ	-10.577
▁γεννήθηκε	-10.577
▁δευτερόλεπτο	-10.577
▁λουλούδι	-10.577
▁λήψη	-10.577
▁διάσημο	-10.577
▁πρωτότυπ	-10.577
▁ιδανικ	-10.577
▁ταπειν	-10.577
▁συμπέρασμα	-10.5771
▁εντολ	-10.5772
μπελ	-10.5774
▁Μπέ	-10.5776
▁προσέξ	-10.5778
▁Κοινό	-10.5779
προσδιορί	-10.5784
▁Κάπ	-10.5787
▁ελαφρ	-10.5791
▁φίλ	-10.5792
ειδή	-10.5795
μέτρ	-10.5796
▁ορατ	-10.58
▁τμήματα	-10.5804
▁εργάζοντα	-10.5806
▁συνειδητ	-10.5806
▁μεγαλώνου	-10.5809
▁χαζ	-10.5821
ίξει	-10.5831
▁Δημιουργ	-10.5833
▁κλινική	-10.5835
▁κύκλου	-10.584
▁γνωστή	-10.5846
▁Κάρ	-10.5846
▁γράμματ	-10.585
ir	-10.5854
ποδ	-10.5858
ιστών	-10.586
▁Θεό	-10.5862
Ξ	-10.587
διορθ	-10.5871
▁Βέβαι	-10.5874
▁Πακιστ	-10.5874
▁Πράγματ	-10.5874
▁αξιόπιστ	-10.5874
▁αρχιτέκτον	-10.5874
▁γλώσσες	-10.5874
▁ρίχν	-10.5874
▁έφτασα	-10.5874
▁πλάκα	-10.5874
▁τρομοκρατία	-10.5875
▁Θεού	-10.5875
ότερη	-10.5875
▁σπάνια	-10.5876
▁εφαρμογέ	-10.5877
▁νόσο	-10.5879
▁προσκ	-10.588
▁χρήσιμο	-10.5881
υσα	-10.5889
G	-10.5907
▁ειδικό	-10.592
▁μισή	-10.5922
▁τρύπ	-10.5924
▁σπιτι	-10.5939
▁καλλιτεχνικ	-10.5955
▁ερωτήματ	-10.5956
▁μικρ	-10.5961
▁αναρωτιέ	-10.5977
▁Άντζελες	-10.598
▁Βασίλειο	-10.598
▁Γυναίκ	-10.598
▁άξονα	-10.598
▁σκοτάδι	-10.598
▁αστυνομικ	-10.598
▁Πόλεμο	-10.598
▁διακοπ	-10.598
▁κλασικ	-10.598
▁ριζικ	-10.598
▁καύσιμ	-10.598
▁διαχειριστ	-10.598
▁φανταστού	-10.5984
▁195	-10.5984
▁φτάνου	-10.5988
▁σκεφτώ	-10.5988
▁παράνομ	-10.599
PS	-10.5991
▁θεατ	-10.5992
▁εφικτό	-10.6001
λόγου	-10.6004
▁γράψει	-10.6008
αργά	-10.6015
τλ	-10.6017
▁απαλ	-10.6021
▁καταπληκτική	-10.6023
▁βήματα	-10.6029
▁συναισθηματικ	-10.6033
▁συστατικά	-10.6037
▁εξηγεί	-10.6038
γράφω	-10.6058
▁χρησιμοποιώ	-10.6064
ωμένα	-10.6067
▁Μιλ	-10.6069
οποιηθεί	-10.6077
▁ξεκάθαρα	-10.608
▁αυξανόμεν	-10.6086
▁γρίπη	-10.6086
▁θνησιμότητα	-10.6086
▁ρώτησε	-10.6086
▁προκαλούν	-10.6086
▁φεύγ	-10.6086
▁μένει	-10.6086
▁στραβ	-10.6087
▁μαλλι	-10.6088
▁αφαιρέσ	-10.6091
▁συνομιλ	-10.6092
▁Παρόλ	-10.6094
▁στυλ	-10.6096
▁προσπαθήσει	-10.6097
▁συνδέσ	-10.6097
▁Ντό	-10.6098
▁Άντρ	-10.61
▁επιστήμονας	-10.6104
▁εξαιρετική	-10.6114
▁χρήστ	-10.6115
▁γεμάτη	-10.6115
▁Πόλ	-10.6116
▁παιδικ	-10.6118
▁υγρό	-10.6131
▁Δυτική	-10.6131
▁συνεχίσου	-10.6134
▁κερδίσ	-10.6156
▁πολιτιστικ	-10.6162
▁ποιό	-10.6165
▁έρθου	-10.6165
▁υγρ	-10.6167
▁πιάνο	-10.6179
▁αλληλεπιδρά	-10.6193
▁αναπόφευκτ	-10.6193
▁πίστευε	-10.6193
▁υποστηρίξ	-10.6193
▁άγρια	-10.6193
▁προοπτική	-10.6193
▁εκατοστ	-10.6194
▁μπαίνει	-10.6194
▁επρόκειτ	-10.6194
▁μόδα	-10.6194
▁αγγίζ	-10.6194
▁εμφανίζονται	-10.6195
▁υπουργ	-10.6196
▁194	-10.6197
▁Ηνωμένο	-10.6215
▁Ουά	-10.6215
▁δυναμικό	-10.6225
▁μικρότερ	-10.6228
▁ακουστ	-10.6229
▁ανήκει	-10.6231
▁γνώρισα	-10.6234
ιζόμεν	-10.6236
▁γαλαξί	-10.6248
▁σεξουαλικ	-10.6249
▁γλ	-10.6258
▁χρησιμοποιηθ	-10.6262
▁εθνική	-10.6265
▁αγοράσει	-10.6268
▁υποθέτ	-10.6272
▁πολιτικού	-10.6273
▁Πέ	-10.628
▁ουρά	-10.6284
παιδ	-10.6286
▁νυχτερίδ	-10.6302
▁απάντησε	-10.6302
▁γεωργία	-10.6302
▁ευαίσθητ	-10.6302
▁πέφτει	-10.6302
▁παράγοντες	-10.6302
▁χρειάζομα	-10.6302
▁κρύβ	-10.6302
▁καθεστώ	-10.6302
▁αγκαλιά	-10.6302
▁ύπνο	-10.6302
▁σχόλι	-10.6302
▁μόνιμ	-10.6303
▁βγαίνου	-10.6307
▁ενθουσιασμένο	-10.6309
▁μουσείο	-10.6312
▁σημαντικ	-10.6313
▁αυξήσ	-10.6314
▁πείνα	-10.6318
▁πέσει	-10.6318
▁προκειμέν	-10.6319
▁κατηγορία	-10.6326
▁εκπαιδευ	-10.6334
▁συνεχίσει	-10.6336
▁Κί	-10.6346
▁επιστρέφ	-10.6359
▁πίνακ	-10.636
▁εκπομπ	-10.6363
▁τροφ	-10.6373
▁δείξ	-10.6374
▁καινούρι	-10.6376
▁ζήσου	-10.639
κόρ	-10.6395
▁κόψ	-10.6399
▁μηχανικό	-10.6399
▁λευκό	-10.6403
▁Δαρβίνο	-10.6412
▁έδειχν	-10.6412
▁μακριν	-10.6412
▁συλλέγ	-10.6412
▁έβαλε	-10.6412
▁Κοίτα	-10.6412
▁βελτιών	-10.6412
▁άσπρ	-10.6412
▁εισάγ	-10.6413
▁πλοίο	-10.6414
▁κλειστ	-10.6416
▁τόνο	-10.6417
▁παρεμπ	-10.6418
▁γνώσει	-10.6419
▁μόριο	-10.642
▁βρίσκομα	-10.642
▁αυτι	-10.6421
▁παρουσίαση	-10.6427
άστηκα	-10.6441
▁μικρότερη	-10.6451
ζεται	-10.6461
οστά	-10.6463
ορισμένες	-10.6467
▁εντυπωσιακό	-10.647
▁μεταφέρει	-10.6472
▁σύγχρον	-10.6481
▁προβλέψει	-10.6493
▁συνδε	-10.65
▁πράξει	-10.6501
▁συνηθισμένο	-10.6509
▁δοκιμή	-10.651
▁υποθέσει	-10.6522
▁Αγγλία	-10.6523
▁Φρανσίσκο	-10.6523
▁ανησυχεί	-10.6523
▁αξιολόγηση	-10.6523
▁βαρύτητα	-10.6523
▁διδασκαλία	-10.6523
▁καταστρέφ	-10.6523
▁προέκυψ	-10.6523
▁συγκρούσε	-10.6523
▁άσκηση	-10.6523
▁κείμενο	-10.6523
εσσάρων	-10.6523
μάρκετ	-10.6523
▁Κένυα	-10.6523
▁Κορέα	-10.6523
▁δεξιότητες	-10.6523
▁αναλογία	-10.6523
▁καλύψ	-10.6524
▁καλώδι	-10.6524
▁οικολογικ	-10.6526
▁τρέχει	-10.6526
▁ιστού	-10.6527
▁πολιτεία	-10.653
▁βαρετ	-10.653
▁ασκ	-10.6531
▁άντρα	-10.6532
▁οργανισμοί	-10.6535
ce	-10.6541
▁συναντήσει	-10.6543
▁παράξεν	-10.6553
▁Εκείνο	-10.6554
▁βροχή	-10.6556
▁διευθυντή	-10.6557
▁κρυ	-10.6568
▁βιώσ	-10.6579
▁ποσότητ	-10.6586
▁διαδικασί	-10.6586
▁κέντρ	-10.6588
▁Κολ	-10.6592
▁παιδι	-10.6599
▁Υπήρχε	-10.6604
co	-10.6617
▁ξεκιν	-10.6618
θρο	-10.662
▁πυκν	-10.6626
▁διαστάσε	-10.6634
▁εισοδήματ	-10.6636
▁καρέκλ	-10.6636
▁κουζίνα	-10.6636
▁μπαταρία	-10.6636
▁συνάδελφο	-10.6636
▁σωλήν	-10.6636
▁περίμενα	-10.6636
προσώπου	-10.6636
▁σταδιακ	-10.6638
▁κορυφαί	-10.6638
▁σύγχρονο	-10.6639
▁ανώτερ	-10.664
and	-10.664
▁αφήνου	-10.6645
▁συζητ	-10.6651
▁αγορ	-10.6651
▁συνδέονται	-10.6653
▁αντιμετώπιση	-10.6656
▁μικρόβι	-10.6662
▁κλικ	-10.6664
20	-10.6665
▁φορητ	-10.6675
▁υψηλό	-10.6676
▁δεκα	-10.6689
▁ενδιαφέρε	-10.6697
▁πρώτου	-10.6704
▁κοινού	-10.6705
▁θεραπε	-10.671
▁Τζόν	-10.6727
▁Ισ	-10.6741
▁γενική	-10.6745
▁AIDS	-10.6749
▁δημιούργησα	-10.6749
▁διαστημικ	-10.6749
▁ομιλίες	-10.6749
▁συγκεντρώσ	-10.6749
▁γονίδιο	-10.6749
▁αισθήσε	-10.6749
▁Συνήθ	-10.6749
▁νησι	-10.675
▁ζήτησα	-10.675
▁άμμο	-10.675
▁σηκών	-10.675
▁πέρυσι	-10.6751
▁νότια	-10.6753
γκλημα	-10.6757
▁ανεξάρτητα	-10.6759
▁μπαίνου	-10.6759
▁τρέξ	-10.6766
▁λαμβάνου	-10.6775
▁κοινά	-10.6782
▁Θυμ	-10.6782
▁περνούσ	-10.6785
▁μηχανισμό	-10.679
▁ακρο	-10.6794
▁ασφαλές	-10.6795
▁προηγούμενο	-10.6797
▁σαφ	-10.6799
▁τηλέφωνα	-10.6802
▁λαό	-10.6803
▁νοσ	-10.6803
▁ερευνητικ	-10.6807
▁αφήν	-10.6813
άφι	-10.6814
▁συνάντησ	-10.6826
▁άμεση	-10.6826
▁συλλ	-10.6834
▁συνεχίζει	-10.6835
▁υλικ	-10.684
▁περιμένει	-10.6848
▁έρθ	-10.6849
ισμοί	-10.6853
▁ζήσ	-10.686
▁Ότι	-10.6864
▁ίδρυμ	-10.6864
▁ενημέρωση	-10.6864
▁ευχάριστ	-10.6864
▁κυκλοφορία	-10.6864
▁νόμιζα	-10.6864
▁χημεία	-10.6864
▁εμποδίζ	-10.6864
▁νευρικ	-10.6864
▁νησί	-10.6864
▁άγχο	-10.6864
▁μπάλα	-10.6865
▁χίλι	-10.6865
οξείδιο	-10.6865
▁Μπιλ	-10.6869
▁βοηθούν	-10.6873
▁επαγγελματικ	-10.6876
▁απαραίτητο	-10.688
▁μέρ	-10.6886
▁μωρά	-10.6896
▁τροπικ	-10.6905
▁χρήστη	-10.6909
▁κοιτάζει	-10.6911
▁χτυπήσ	-10.6918
Β	-10.6928
▁καταλαβαίνει	-10.6929
▁Ξεκίνησα	-10.6935
▁τετράγωνο	-10.6939
▁επιτέ	-10.6941
μιλ	-10.6941
▁χαμηλότερ	-10.6944
▁Μέση	-10.695
▁κάθεται	-10.6951
μβρί	-10.6958
▁γενετική	-10.6968
▁σκέφτ	-10.6974
βουλ	-10.6974
▁οργανισμ	-10.6975
▁ένιωσα	-10.698
▁ανθεκτικ	-10.698
▁διατροφή	-10.698
▁εκδοχή	-10.698
▁ελονοσία	-10.698
▁επιρροή	-10.698
▁θόρυβο	-10.698
▁ιδιοκτήτ	-10.698
▁ηγεσία	-10.698
▁δόντι	-10.6981
▁αιχμ	-10.6981
▁συγγεν	-10.6981
▁χορεύ	-10.6981
▁ομιλητ	-10.6981
▁εργαζόμενο	-10.6981
▁βγήκα	-10.6982
▁πεζ	-10.6986
▁ειδήσεις	-10.6987
▁αναγνώριση	-10.699
▁ανακάλυψ	-10.7002
▁οδηγούν	-10.7002
▁ανέφερα	-10.7009
▁μαθητή	-10.7011
▁Τρί	-10.7012
▁βραβείο	-10.7015
▁δωμάτι	-10.7021
▁γενε	-10.7022
▁χιμπατζήδ	-10.7022
κοινωνι	-10.7025
▁ενδο	-10.703
▁επιτυχ	-10.703
▁άγνωστο	-10.7033
εμβρ	-10.7048
▁22	-10.7049
▁δικαστ	-10.7049
F	-10.7051
▁αναλύσ	-10.7053
▁δραστηριότητ	-10.7064
▁θυμό	-10.7066
▁διεθνή	-10.7067
▁έγ	-10.707
▁περιμένουμε	-10.7084
▁οδηγό	-10.7087
δόσεις	-10.7097
▁βδομάδα	-10.7098
▁επεξεργασία	-10.7098
▁θαλάσσι	-10.7098
▁λανθασμέν	-10.7098
▁παραμένει	-10.7098
▁περιλαμβάνει	-10.7098
▁πρόθυμο	-10.7098
▁ταξιδέψ	-10.7098
▁έμαθε	-10.7098
▁άνεμο	-10.7098
▁απαίσι	-10.7098
▁Προσπαθού	-10.7098
▁βομβ	-10.7098
▁περιέργεια	-10.7098
▁αναπηρί	-10.7098
▁Αγαπ	-10.7098
▁Άντερσ	-10.7099
▁χάκερ	-10.7101
▁φτιαγμέν	-10.7101
▁Κέι	-10.7102
▁ψηλ	-10.7109
λεκτικ	-10.7111
▁συνειδητοποιού	-10.7116
γευμα	-10.7119
▁εξηγήσει	-10.7121
άλλου	-10.7126
χωρών	-10.7132
▁αντιπροσωπεύει	-10.7136
▁πέρασε	-10.7136
▁ηλεκτρικό	-10.7149
βεν	-10.7157
▁μπορέσει	-10.7161
▁συχνότητ	-10.7164
lo	-10.7164
▁σκοτειν	-10.7164
λεϊ	-10.7174
▁πλαστ	-10.7184
γεια	-10.7184
▁συναντήσ	-10.7196
ικη	-10.7198
▁πετύχει	-10.7199
▁Ιστ	-10.7212
▁Ήλιο	-10.7217
▁έμπνευση	-10.7217
▁επιταχύν	-10.7217
▁μπόρεσα	-10.7217
▁ξοδέψ	-10.7217
▁άπειρ	-10.7217
▁φλοιό	-10.7217
▁αρκούδ	-10.7217
▁ολοκλήρ	-10.7217
▁σελίδες	-10.7217
▁οφέλ	-10.7218
▁κατανοού	-10.7219
▁Σουηδία	-10.7223
▁περάσου	-10.7224
▁συνδέσει	-10.7225
οπτικές	-10.7226
▁κράτος	-10.7226
▁γράφημ	-10.7226
ροπ	-10.723
▁συνηθισμέν	-10.7232
▁συνδεδεμένο	-10.7236
▁Ma	-10.7241
▁σκληρή	-10.7249
▁γύρ	-10.7252
▁Σημα	-10.7256
▁γιορτ	-10.7256
▁μαστού	-10.7265
▁Τί	-10.7273
ούμαι	-10.7273
έκα	-10.7274
▁βγάζου	-10.7276
▁γνωρίσ	-10.7277
▁πετύχ	-10.7282
▁προσδοκί	-10.729
▁αποφασίσα	-10.7293
▁σχετίζοντα	-10.7301
▁πρακτική	-10.7305
▁ελεύθερ	-10.7311
▁αναπτυσσόμενο	-10.7314
▁εύκολ	-10.7329
κινγκ	-10.7335
▁Ινστιτούτο	-10.7338
▁έκδοση	-10.7338
▁αντιδράσει	-10.7338
▁εμφάνιση	-10.7338
▁μίλησα	-10.7338
▁πτώση	-10.7338
▁επιθέσε	-10.7338
▁αναμνήσε	-10.7338
▁αξιοποι	-10.7338
▁τελική	-10.7338
▁τρέχου	-10.7338
▁κατοίκ	-10.7338
ότητες	-10.734
▁αποκτήσ	-10.734
▁θαυμάσιο	-10.7347
▁Κοιτ	-10.7349
▁Παιδ	-10.7353
▁διαμάχη	-10.7353
μέρει	-10.7355
▁αποκαλώ	-10.7355
▁γιατρού	-10.736
▁αρχική	-10.7361
pe	-10.7362
▁ορίζ	-10.7367
▁αποτελεσματικά	-10.7372
▁κεφαλή	-10.7375
▁εμφανίζετ	-10.7376
▁ανθρωπιστικ	-10.7381
▁τείνου	-10.7382
▁προηγούμενη	-10.7383
ke	-10.7387
▁Αγγλικά	-10.7388
▁παγκόσμιου	-10.7391
▁συναισθηματική	-10.7398
▁προχωρά	-10.7405
▁παρατηρήσει	-10.7416
▁ικανό	-10.742
▁περιοδικ	-10.7422
▁συζητά	-10.7437
▁εκπαιδεύ	-10.7443
▁στέλνου	-10.7446
▁γονιδίω	-10.7449
▁σκελετ	-10.7453
▁επιτύχου	-10.7459
▁αλληλεπιδρού	-10.7459
▁Ευρωπαϊκ	-10.7459
▁βόρεια	-10.7459
▁διαθέτου	-10.7459
▁δορυφόρ	-10.7459
▁επανδρωμέν	-10.7459
▁ευάλωτ	-10.7459
▁καθεξής	-10.7459
▁προκύπτε	-10.7459
▁συμφέρον	-10.7459
▁σύνθετ	-10.746
▁φάλαιν	-10.746
▁ανατολικ	-10.746
▁συνήθει	-10.746
έτυχε	-10.746
▁196	-10.746
▁πάτωμ	-10.746
▁ερχόταν	-10.7462
▁εξερευν	-10.7463
▁κτήριο	-10.7465
▁φτερ	-10.7467
▁φαντασ	-10.7468
άλλω	-10.7468
▁αρχίζ	-10.7478
▁κουρ	-10.7481
ευσε	-10.7488
φορντ	-10.7492
▁ιδρύματ	-10.7495
▁ελέγχ	-10.7499
▁κόκκιν	-10.7504
▁πράσιν	-10.7509
▁Άρ	-10.751
sh	-10.7511
▁κεντρικό	-10.7513
▁γελά	-10.7519
▁καλύτερου	-10.7521
▁μεταφέρου	-10.7522
λογία	-10.7526
▁Πολ	-10.7526
▁χάνου	-10.7531
▁ποτ	-10.7537
▁επιστήμ	-10.7542
κάτω	-10.7544
▁αντιπροσωπεύ	-10.7544
▁Χρησιμοποιού	-10.7547
▁καταστάσε	-10.7548
▁φυλή	-10.7553
▁συλλογ	-10.7553
ευθεί	-10.7554
▁ιστορικό	-10.7558
▁οργανικ	-10.757
▁ανοιχτή	-10.7573
ντερνετ	-10.7582
▁Νιώθ	-10.7583
▁εξήγηση	-10.7583
▁επιδημία	-10.7583
▁καπιταλισμ	-10.7583
▁σφαίρα	-10.7583
▁σύζυγο	-10.7583
▁τράβηξ	-10.7583
▁υπηρεσι	-10.7583
▁συμπεριφορές	-10.7583
▁εργάτ	-10.7583
▁τελικό	-10.7583
▁νωρί	-10.7583
▁σεβασμό	-10.7583
πρώην	-10.7583
▁γόνατ	-10.7583
▁πρώιμ	-10.7583
▁Σεπτε	-10.7583
▁κρατήσει	-10.7584
▁απορροφ	-10.7584
▁κοίταξα	-10.7584
▁κανάλι	-10.7585
▁Κονγκ	-10.7586
▁συνεχίζου	-10.7587
πομπ	-10.7587
▁2010	-10.7588
▁οργανώσεις	-10.7589
▁γονιδίωμα	-10.7593
▁βιβλιοθήκη	-10.7594
▁συντηρητικ	-10.7598
έιλ	-10.7601
▁δασ	-10.7603
▁βρίσκεσ	-10.7611
▁δείξουμε	-10.7619
▁κόστους	-10.7625
▁κινούμεν	-10.7635
▁ηλεκτρική	-10.7651
▁θαύμα	-10.7657
τοποι	-10.7658
λογικά	-10.7661
▁Δυτικ	-10.7662
▁κλπ	-10.7663
▁επηρεάζου	-10.7664
▁φοιτητ	-10.7671
▁οικονομί	-10.7686
γκερ	-10.7691
▁αντικειμέν	-10.7697
▁iPhone	-10.7708
▁γήρανση	-10.7708
▁απολαμβάν	-10.7708
▁διευθύν	-10.7708
▁εξελίχθηκ	-10.7708
▁βγήκε	-10.7708
▁μεμονωμέν	-10.7708
▁εστιάζ	-10.7708
▁εφτά	-10.7709
▁ακροατήρι	-10.7709
▁τσιπ	-10.7709
▁Μίλ	-10.7714
▁βάρ	-10.7742
▁γύρη	-10.7748
▁αναπτύξ	-10.775
▁συγγραφ	-10.7756
ντίθετα	-10.7756
▁σεξουαλική	-10.7769
▁σενάρι	-10.7774
▁μισού	-10.7787
οικονομ	-10.7811
▁Ne	-10.7829
▁Ένωση	-10.7835
▁θεμελιώδε	-10.7835
▁λεπτομέρεια	-10.7835
▁σύννεφο	-10.7835
▁αποκλειστικ	-10.7835
▁επενδυτ	-10.7835
▁σιωπή	-10.7835
▁αριστερό	-10.7835
▁ντόπι	-10.7835
▁γράφει	-10.7835
▁μητέρες	-10.7835
▁τουαλέτα	-10.7835
▁βρέθηκα	-10.7835
▁ξένο	-10.784
▁διαδικτύου	-10.7841
ληψη	-10.7844
▁1.000	-10.7846
▁εμπειρι	-10.7849
▁100.000	-10.785
▁καταπληκτικ	-10.7854
▁απορρ	-10.7856
▁μάζε	-10.7858
ύστερα	-10.786
στορ	-10.7872
▁μεταλλ	-10.7873
▁Φέρ	-10.7877
▁φυσικού	-10.7878
▁ψάρι	-10.7929
▁φυσ	-10.7933
▁δουλέψου	-10.7934
▁σοκ	-10.7942
▁μηδενικ	-10.7943
▁Γουί	-10.7949
▁περπατήσ	-10.7953
▁κοίτα	-10.796
▁Δουλεύ	-10.7963
▁Πηγαίν	-10.7963
▁ακαδημαϊκ	-10.7963
▁ανέπτυξ	-10.7963
▁αποφάσισε	-10.7963
▁ατόμου	-10.7963
▁διαπιστώσ	-10.7963
▁κυρίαρχ	-10.7963
▁μυστήριο	-10.7963
▁έδινα	-10.7963
▁δείκτη	-10.7963
▁αφιερώ	-10.7963
▁τηλεοπτικ	-10.7964
▁μόνα	-10.7967
▁τόνους	-10.7973
▁σοφ	-10.7991
▁σωστ	-10.7994
▁Υπήρχ	-10.7999
▁ψυχολογικ	-10.7999
▁αναπτύξει	-10.8005
▁εσωτερική	-10.8035
▁αφήσει	-10.8054
υνση	-10.8063
ίσματα	-10.807
▁παιχνιδι	-10.8078
Υ	-10.808
▁επιχειρήσε	-10.8081
▁Νιγηρία	-10.8093
▁έφτιαξε	-10.8093
▁δημοφιλή	-10.8093
▁διακυβέρνηση	-10.8093
▁δούλευα	-10.8093
▁θεμελιώδη	-10.8093
▁λεγόταν	-10.8093
▁ανεβάσ	-10.8093
▁εννιά	-10.8093
▁ψεύτ	-10.8093
▁επίσημ	-10.8094
▁εμφανίστηκε	-10.8094
όπλα	-10.8096
▁27	-10.8102
▁ακτή	-10.8104
▁τιμές	-10.8107
▁ψυχή	-10.8108
▁καθοδηγ	-10.8114
▁συσ	-10.814
▁υποδομή	-10.8144
▁ελέγχει	-10.8151
δημιουργηθεί	-10.816
φορτ	-10.8164
▁γραφικ	-10.8164
▁γιατρό	-10.8165
άσματα	-10.8174
ιμότητα	-10.8193
ώσεων	-10.8196
▁εφημερίδ	-10.8197
▁ξεχωριστό	-10.8219
▁ασύρματ	-10.8224
▁διακόπτ	-10.8224
▁ενσωματωμέν	-10.8224
▁επιχείρημα	-10.8224
▁ζημιά	-10.8224
▁καταφύγι	-10.8224
▁κουκκίδ	-10.8224
▁γεύση	-10.8224
▁προνόμι	-10.8224
▁εμμον	-10.8224
▁αμοιβ	-10.8224
▁μένουν	-10.8225
▁στήλη	-10.8225
▁φοιτητής	-10.8226
▁ψάχνει	-10.8226
ικανοί	-10.8229
▁ρίσκο	-10.823
▁κοινωνικών	-10.8233
▁έξοδ	-10.8234
▁κτλ	-10.8236
▁Μπί	-10.8245
γκλ	-10.8246
▁κοιτούσα	-10.8249
▁κουτι	-10.8252
▁περιβάλλοντος	-10.8254
τίμησ	-10.8257
όμοι	-10.8258
▁κριτική	-10.8264
▁φέρνου	-10.8273
▁φίλη	-10.8273
▁Μπέρ	-10.8278
▁εκπομπή	-10.8288
▁τρομακτικό	-10.8301
▁υποδομ	-10.8305
▁μαγικ	-10.8317
▁πεδί	-10.8324
▁σταθερή	-10.8329
▁Μεγάλο	-10.833
▁τοίχου	-10.8338
▁θαυμάσι	-10.8347
▁μετρήσει	-10.8353
▁κατευθύν	-10.8356
▁βιώσιμο	-10.8356
ouTube	-10.8358
φαρμάκων	-10.8358
▁Έγιν	-10.8358
▁διαμορφών	-10.8358
▁εκφράζ	-10.8358
▁νοοτροπία	-10.8358
▁βασιλιά	-10.8358
▁Ρωσία	-10.8358
▁γεννήθηκα	-10.8358
▁οικοδομ	-10.8358
▁πλάτη	-10.8358
▁συγκέντρωση	-10.8358
▁κληρονομιά	-10.8358
▁κρύο	-10.8358
▁περιστατικ	-10.8358
▁χρηματοδότηση	-10.8358
▁κοίταξε	-10.8359
▁Χάρβα	-10.8364
▁65	-10.8364
▁Αφήσ	-10.8366
▁τοποθετ	-10.837
ημερών	-10.8383
μπό	-10.8388
▁θεωρητικ	-10.8389
▁γεύμα	-10.8397
▁ελεύθερη	-10.84
▁κεντρική	-10.8403
▁γειτονι	-10.8408
▁προτείνω	-10.841
▁θετική	-10.8412
▁ευχαριστ	-10.8421
▁σχήματ	-10.8423
▁χειρότερη	-10.8429
▁Ιδ	-10.8437
▁προστατευ	-10.8446
▁αποδείξ	-10.8456
▁ανοίξει	-10.8468
▁πρωτ	-10.8475
▁Ρέ	-10.848
▁δημόσι	-10.8488
▁εξυπηρετ	-10.8493
▁Αμερικάνο	-10.8493
▁Αϊνστάιν	-10.8493
▁Γαλλία	-10.8493
▁έκρηξη	-10.8493
▁έννοιες	-10.8493
▁αντικαταστήσ	-10.8493
▁πολιομυελίτιδα	-10.8493
▁συμμετάσχ	-10.8493
▁υπάλληλο	-10.8493
▁χιούμορ	-10.8493
▁νοσοκόμ	-10.8493
▁νίκη	-10.8493
▁Μεξικό	-10.8493
▁πρόγονο	-10.8493
▁μετάβαση	-10.8493
▁ψέματα	-10.8493
▁ταιριάζε	-10.8493
▁αέριο	-10.8493
▁τρισεκατομμύρι	-10.8493
▁δικαιωμάτων	-10.8493
▁συμβατικ	-10.8493
▁άλλαξαν	-10.8493
▁Γκάνα	-10.8494
▁φυλακισμέν	-10.8494
▁χορηγ	-10.8494
▁φτην	-10.8494
▁Επιπλέον	-10.8498
▁έθεσ	-10.8499
▁ευρέ	-10.8503
άπτ	-10.8503
▁επικρατ	-10.8506
▁εύρο	-10.851
ho	-10.851
▁προσωπικότητ	-10.8512
▁εμπόρ	-10.8519
▁δοκιμάζ	-10.8521
▁παρατήρηση	-10.8522
▁διασκεδαστικό	-10.8522
▁θερμότητα	-10.8523
▁Στάν	-10.8524
▁κύμα	-10.8528
▁23	-10.8529
▁μουσικό	-10.8534
▁λαμβάνει	-10.8543
▁μαϊμούδ	-10.8544
▁λαμβάν	-10.8548
▁δυναμικ	-10.8554
▁λυπ	-10.8575
▁προσέχ	-10.8584
▁αντιμετωπίσει	-10.8594
▁εικον	-10.8608
▁προτείν	-10.8614
▁Γερμαν	-10.8615
▁κοινότητ	-10.8619
▁Βάλ	-10.8623
βεβαιώ	-10.8629
▁διαμαρτυρ	-10.863
▁Ξαφνικ	-10.863
▁Ουάσινγκτον	-10.863
▁απόδειξη	-10.863
▁δουλεία	-10.863
▁επίγνωση	-10.863
▁ολοκληρωμέν	-10.863
▁παθιασμέν	-10.863
▁παπούτσια	-10.863
▁ευκολότερ	-10.863
▁εκτίμηση	-10.863
▁κάμερες	-10.863
▁αγγεί	-10.863
▁προήλθ	-10.863
▁μαζέψ	-10.863
▁υγιή	-10.863
▁Κέντρο	-10.863
▁στήθο	-10.863
▁ανώνυμ	-10.863
▁έλαβα	-10.863
▁φανερ	-10.8631
▁ανόητ	-10.8632
▁έγγραφ	-10.8632
▁Πάνω	-10.8635
▁πάντο	-10.8636
▁ζωντανή	-10.864
▁Στρ	-10.8651
▁πιστεύ	-10.8659
δοθεί	-10.866
▁δημιουργική	-10.8667
χαρτο	-10.8673
▁Τόμ	-10.8678
▁τιμωρ	-10.8682
▁μοναδικ	-10.8686
▁ωκεαν	-10.8686
δόθηκ	-10.8691
▁Περίπ	-10.8694
▁σκοτώσει	-10.8701
▁δικού	-10.8709
▁οπτικό	-10.873
▁νευρο	-10.873
▁ακριβό	-10.8732
▁Τζέι	-10.8765
▁θεραπεί	-10.8768
▁Ακριβώς	-10.8769
▁αδύναμ	-10.8769
▁ελκυστικ	-10.8769
▁μοιραζόμαστ	-10.8769
▁προτεραιότητ	-10.8769
▁Ευτυχ	-10.8769
▁κύρια	-10.8769
▁πρωιν	-10.8769
▁βελτιώσου	-10.8769
▁φέτος	-10.8769
▁πυρήνα	-10.8769
▁Αραβικ	-10.8769
▁μέτρηση	-10.8769
▁συμπτώματ	-10.8769
▁δίσκο	-10.8769
▁μέτρων	-10.8769
▁υπόψη	-10.8773
▁τομογραφί	-10.879
▁απλού	-10.8794
κινητά	-10.8797
▁καταπι	-10.8806
▁γραφεί	-10.8808
▁Τζέιμ	-10.881
σπαν	-10.8814
▁μαγικό	-10.8821
κοσμο	-10.8828
▁γεμάτ	-10.8833
πληρώσ	-10.8838
▁γνωρίσει	-10.8839
ιούντα	-10.8864
▁εκπαιδευτικό	-10.887
30	-10.8871
▁ανοίγει	-10.8878
▁πληθυσμ	-10.8888
▁υπολογισμ	-10.8888
▁επιτρέψει	-10.8895
σιμότητα	-10.8898
▁φόβου	-10.89
▁έθνος	-10.8909
▁αναπτυχθεί	-10.8909
▁αποκαλύπτ	-10.8909
▁διάγνωση	-10.8909
▁νευρώνων	-10.8909
▁ολοκληρώσ	-10.8909
▁παγκοσμιοποίηση	-10.8909
▁προβλημάτων	-10.8909
▁προσεγγίσ	-10.8909
▁έδινε	-10.8909
▁παροχή	-10.8909
▁Συχνά	-10.8909
▁δίκαιο	-10.8909
▁ταξιδι	-10.8909
▁αγελάδ	-10.8909
▁αυξηθ	-10.8909
▁φάνηκ	-10.8909
▁αλληλουχί	-10.8909
▁ζωγραφίζ	-10.891
▁Τίποτ	-10.891
▁εργατικ	-10.891
▁κλάδο	-10.891
▁ακολουθούν	-10.891
κατασκευασμέν	-10.8911
▁μελετά	-10.8911
▁ψυχολόγο	-10.8911
▁κατάστημ	-10.8912
▁αποδεχ	-10.8914
▁απόλυτο	-10.8916
▁μοριακ	-10.8917
ul	-10.8923
▁ανθρώπινες	-10.895
οποιούντα	-10.896
φύγω	-10.8966
▁στοχεύ	-10.8978
αρκεί	-10.8984
▁στέλν	-10.9005
ut	-10.9013
▁αντιμετωπίζει	-10.9021
▁μεγαλώσ	-10.9027
▁συντηρ	-10.9036
▁τρένο	-10.9037
▁περιέχ	-10.9042
▁επιστημονικό	-10.9045
▁Σύμφων	-10.9052
▁απάντησα	-10.9052
▁βόλτα	-10.9052
▁επέτρεψ	-10.9052
▁θέληση	-10.9052
▁κατάρρευση	-10.9052
▁μολύν	-10.9052
▁πνεύμον	-10.9052
▁προγραμματιστ	-10.9052
▁σκουπίδια	-10.9052
▁συνδυάσ	-10.9052
▁υγιείς	-10.9052
▁ειρηνικ	-10.9052
▁καυσίμ	-10.9052
▁καταστροφικ	-10.9052
▁σταθμό	-10.9052
▁υποδοχ	-10.9052
▁αρχαίο	-10.9052
▁νόμιμ	-10.9052
▁διακρίν	-10.9053
▁ψυχολογία	-10.9055
▁ξεχνά	-10.9056
▁παράσταση	-10.9056
▁εφό	-10.906
▁τραυματισμ	-10.906
▁σίγουρ	-10.9062
MS	-10.9065
▁γέννηση	-10.9066
▁πόρω	-10.9069
▁βιώσιμη	-10.9074
▁αρχικό	-10.908
▁αρχεί	-10.908
▁ηλεκτρισμό	-10.9091
▁τέλει	-10.9095
▁ψηφί	-10.9104
▁χαμηλό	-10.9112
▁συλλογική	-10.9122
▁ερχό	-10.9129
▁τακτικ	-10.913
▁εδάφ	-10.9135
▁αποκτήσει	-10.9136
▁καλέσ	-10.9137
▁καταλάβου	-10.9138
θιστ	-10.9149
▁ακουστικ	-10.9152
▁αναζητ	-10.9154
▁λεωφορείο	-10.9176
▁κινητικ	-10.9185
▁σκεφτ	-10.9186
▁έπαιρνα	-10.9197
▁αισιόδοξο	-10.9197
▁ανησυχητικ	-10.9197
▁διαφήμιση	-10.9197
▁ερμηνεία	-10.9197
▁μίλησε	-10.9197
▁τετραγωνικ	-10.9197
▁αποτύχ	-10.9197
▁Μανχάτ	-10.9197
▁άφησα	-10.9197
▁αναδύ	-10.9197
▁σούπερ	-10.9197
▁φωτειν	-10.9197
▁σχολή	-10.9197
▁συναντά	-10.9197
▁ντροπή	-10.9197
▁Πιθανό	-10.9197
▁διαδραστικ	-10.9197
▁γκέι	-10.9198
▁έφταν	-10.9198
▁ενδυ	-10.9198
▁χτίζου	-10.9198
▁κατευθεί	-10.9199
▁ήσυχ	-10.92
▁αναρωτιέστε	-10.9201
▁εξίσωση	-10.9201
υθυν	-10.9207
έστω	-10.9207
▁κεφαλαί	-10.9208
▁συνδεδεμέν	-10.9212
▁αλληλο	-10.9223
▁οδηγί	-10.9235
▁συχν	-10.9239
▁κόκκινη	-10.9243
▁προωθήσ	-10.9249
▁αποκτού	-10.9253
▁τηλεφών	-10.9254
▁ετοιμ	-10.9277
▁χρήμα	-10.9281
ολογική	-10.9292
▁Co	-10.9299
▁αεροπλάν	-10.9305
▁αναπτύσσοντα	-10.9319
▁κράτ	-10.9321
▁κίτρινο	-10.933
ψήφι	-10.9343
▁περιστρέφ	-10.9344
▁φιλελεύθερ	-10.9344
▁χαμογελ	-10.9344
ακόλουθ	-10.9344
▁Αίγυπτο	-10.9344
▁αντίστροφ	-10.9344
▁αποκαλύψ	-10.9344
▁δευτερολέπτ	-10.9344
▁δισεκατομμυρί	-10.9344
▁δούλευε	-10.9344
▁επικεφαλή	-10.9344
▁κατέληξε	-10.9344
▁μεταμόρφωσ	-10.9344
▁συνδυάζ	-10.9344
▁συνεισφέρ	-10.9344
▁σύζυγό	-10.9344
▁χάρτες	-10.9344
▁χειμώνα	-10.9344
▁απεικονίσ	-10.9344
▁Ξεκινά	-10.9344
▁απαιτούν	-10.9344
▁δοχεί	-10.9344
▁αποδεκτ	-10.9344
▁διαλέξε	-10.9344
▁κατανοητ	-10.9344
▁μαντέψ	-10.9344
▁προσφορά	-10.9344
▁συστηματικ	-10.9344
▁θέα	-10.9345
▁άνοδο	-10.9346
▁διάθεση	-10.9346
μπέρ	-10.9347
▁Νότιο	-10.9347
▁περιορίζ	-10.9347
▁Σκοτ	-10.9347
▁εξάγ	-10.9349
▁φαγητού	-10.9349
▁ευχή	-10.935
▁εστιατόριο	-10.936
▁ανήκουν	-10.9362
▁βιολόγο	-10.9367
▁σχηματίζ	-10.9368
▁σχεδιασμέν	-10.9371
▁Άλλο	-10.9373
▁καταλαβαίνου	-10.9378
χείρ	-10.9378
▁προγραμματισμό	-10.9391
▁αυτοκίνητ	-10.9403
▁περιμένου	-10.9407
▁δεξι	-10.9413
▁ρωτ	-10.9427
▁εθνικό	-10.9431
▁θεσμ	-10.9448
▁έφηβο	-10.9448
▁ξενοδοχείο	-10.9457
▁αρχείο	-10.9465
▁ασφαλεί	-10.947
▁ανεξάρτητ	-10.9481
▁υποδ	-10.9485
▁φαντάζ	-10.9488
ανιχνευτ	-10.9493
▁ήπειρο	-10.9493
▁δήλωση	-10.9493
▁εντύπωση	-10.9493
▁επισκέπτ	-10.9493
▁ζάχαρη	-10.9493
▁λογαριασμό	-10.9493
▁τρόφιμα	-10.9493
▁ορυκτ	-10.9493
▁Ξεκινήσα	-10.9493
▁εκτιμήσ	-10.9494
▁μπήκε	-10.9494
▁θρεπτικ	-10.9494
▁τεχνολογική	-10.9494
▁αιώνες	-10.9494
▁μετακινήσ	-10.9495
▁μεσαία	-10.9497
▁ευχαριστούμε	-10.9498
um	-10.9499
▁ταλέντ	-10.95
▁επιστροφή	-10.9502
δείγματα	-10.9505
▁κρατικ	-10.9506
ίρου	-10.9513
▁διάγραμ	-10.9521
▁αναμέν	-10.9527
μάρ	-10.9529
▁εξελίσσ	-10.9557
▁αποκτήσου	-10.9559
▁σκοτώσ	-10.9566
▁κατηγορί	-10.9569
▁θυμηθεί	-10.9578
▁γνωστικ	-10.9579
▁κάλυ	-10.9598
μπεργκ	-10.9606
▁ολόκληρ	-10.9613
πολογισμό	-10.9626
▁λοιπ	-10.9636
μπέλ	-10.964
▁Μέρ	-10.9642
▁παρατηρούμε	-10.9644
▁Ήμαστ	-10.9645
▁έστειλα	-10.9645
▁ανάμνηση	-10.9645
▁ανεβαίνει	-10.9645
▁δελφίνι	-10.9645
▁εξαίρεση	-10.9645
▁εξαφάνιση	-10.9645
▁επέκταση	-10.9645
▁επέστρεψα	-10.9645
▁καταλήγει	-10.9645
▁λίμνη	-10.9645
▁τροφίμων	-10.9645
▁ατυχήματ	-10.9645
▁γονιδιώματ	-10.9645
▁γραπτ	-10.9645
▁Μοιάζει	-10.9645
▁έκταση	-10.9645
▁Πολιτειών	-10.9645
▁διανομή	-10.9645
▁σκόνη	-10.9646
▁Τάιμ	-10.9646
▁κατάφερε	-10.9646
κουμπί	-10.9646
▁Νιου	-10.9647
▁κόμμα	-10.9649
ard	-10.9651
▁χώμα	-10.9653
▁αναγκαί	-10.9654
▁άλμα	-10.9654
▁λαμπρ	-10.9654
▁πυκνότητα	-10.9658
▁καμπύλη	-10.9662
▁Ανατολική	-10.9665
▁πράσινη	-10.9693
λύσ	-10.971
▁στέλνει	-10.9713
▁μεγαλώσει	-10.9722
▁θείο	-10.9728
▁σώσει	-10.9748
▁μελετώ	-10.9751
▁φθην	-10.9773
▁κυριαρχ	-10.9779
▁φάρμα	-10.9794
βδομάδες	-10.9797
▁γυαλ	-10.9798
εξασφαλ	-10.9799
▁The	-10.9799
▁Κογκρέσο	-10.9799
▁άρρωστ	-10.9799
▁έπαιρνε	-10.9799
▁αντιλαμβανόμαστ	-10.9799
▁απεικονίζ	-10.9799
▁εξωγήιν	-10.9799
▁κοτόπουλ	-10.9799
▁προηγουμέν	-10.9799
▁πρόβλεψη	-10.9799
▁φωτογράφο	-10.9799
▁χτύπησ	-10.9799
λέιζερ	-10.9799
▁Σύμπαν	-10.9799
▁αφηρημέν	-10.9799
▁επιβραδύν	-10.9799
▁ψήφο	-10.9799
▁πλέγμα	-10.9799
▁αποκαλούν	-10.9799
▁Κινέζο	-10.9799
▁μακρυ	-10.9799
▁πληγ	-10.9799
▁μαγαζ	-10.9799
▁μονάδες	-10.98
ΙΤ	-10.98
▁φυλετικ	-10.9802
com	-10.9803
▁CO	-10.9803
άρισμα	-10.9807
▁υπολογισμούς	-10.9808
▁μηχανήματα	-10.9809
▁σταματού	-10.9832
▁κεντρικ	-10.9834
▁ποιητ	-10.9844
▁250	-10.9849
▁χάσμα	-10.9856
▁τελεί	-10.9856
▁χρημάτ	-10.9857
ευόμαστε	-10.986
▁επιλύ	-10.9861
▁θύμα	-10.9861
▁χθε	-10.987
στολ	-10.9874
▁μεγαλύτερου	-10.9874
▁τροποποι	-10.9883
▁άγνωστ	-10.9885
▁παγκόσμι	-10.9887
▁κερδίσει	-10.9903
▁σκέφτηκ	-10.9918
▁ευγενικ	-10.9929
αμφισβητ	-10.994
▁To	-10.9945
▁περήφανο	-10.9947
▁ανταποκρίν	-10.9955
▁Πρόσφατ	-10.9955
▁αναπαράγ	-10.9955
▁αναπαραγωγή	-10.9955
▁ασχολούντα	-10.9955
▁διαταραχές	-10.9955
▁εφαρμοστ	-10.9955
▁φρέσκ	-10.9955
▁αριστερή	-10.9955
▁καρχαρί	-10.9955
▁λείπει	-10.9955
▁έρημο	-10.9955
▁ενδείξε	-10.9955
τέχνες	-10.9955
▁κατανομή	-10.9955
▁συμμετείχ	-10.9955
▁ηλιακό	-10.9955
▁μάρκα	-10.9955
▁Ξαν	-10.9956
▁τραγικ	-10.9956
▁συλλέξ	-10.9956
▁νερά	-10.9957
▁διάλογο	-10.9958
▁επένδυση	-10.9964
▁Κυρί	-10.9964
▁μύτη	-10.997
ers	-10.998
▁αερί	-10.9989
▁καταφέρου	-10.9995
▁κράτησ	-11.0008
▁συλλογικ	-11.0009
έικ	-11.0015
▁καινοτομί	-11.003
▁ψυχικ	-11.0032
▁συστατικ	-11.0049
ολικά	-11.0068
▁κάθοντα	-11.0069
▁λογισμικ	-11.0077
βάζ	-11.008
ενεργοποι	-11.009
λάμβανε	-11.0114
▁έβγαζ	-11.0114
▁έβλεπε	-11.0114
▁αντικειμενικ	-11.0114
▁απογοητευ	-11.0114
▁αυτοπεποίθηση	-11.0114
▁πέθανα	-11.0114
▁φιλοσοφία	-11.0114
▁χρησιμοποίησα	-11.0114
διδακτορικ	-11.0114
▁Καταλαβαίν	-11.0114
▁απομακρυσμέν	-11.0114
▁επαναλαμβάν	-11.0114
▁περιπέτει	-11.0114
▁λεπτομερ	-11.0114
▁κοριτσι	-11.0114
▁σύνθεση	-11.0114
▁αγγίξ	-11.0114
▁Μάικλ	-11.0114
▁ξύλο	-11.0114
▁έπεσε	-11.0114
▁ηγέτη	-11.0114
▁Συνεπ	-11.0114
▁γλυπτ	-11.0114
▁γύρισα	-11.0114
▁επιστημ	-11.0114
▁βράχο	-11.0114
▁ενθουσιασμό	-11.0114
▁αμφι	-11.0115
▁εξασκ	-11.0115
▁Ch	-11.0116
▁θεραπεύσ	-11.0116
▁γεμίζ	-11.0117
NA	-11.0119
▁διαστήματ	-11.0121
οχτώ	-11.0122
▁ειδ	-11.0124
▁θυμίζει	-11.0128
▁Μαζ	-11.0134
▁μελετού	-11.0146
▁ισότητα	-11.0156
▁περιορισμού	-11.0159
▁πλήρ	-11.0165
▁θετικ	-11.0172
▁θυμηθ	-11.0185
▁Πατ	-11.0194
χρωμ	-11.0213
▁ιδρύ	-11.0228
▁Τρίτο	-11.025
αλληλ	-11.0251
▁αεροσκάφο	-11.0261
κληρ	-11.0273
▁Ρίτσαρντ	-11.0275
▁βλέμμα	-11.0275
▁είκοσι	-11.0275
▁επίδειξη	-11.0275
▁επικεντρωθ	-11.0275
▁κινηματογραφ	-11.0275
▁κοπριά	-11.0275
▁περασμένο	-11.0275
▁πλησιάζει	-11.0275
▁σύντομη	-11.0275
▁υγιειν	-11.0275
οδυναμ	-11.0275
▁άφησε	-11.0275
▁έφυγα	-11.0275
▁εξέταση	-11.0275
▁πέρσι	-11.0275
▁κωδικοποι	-11.0275
▁παραδεχτ	-11.0275
▁παντρευτ	-11.0275
▁ξαναδεί	-11.0275
▁δομικ	-11.0276
▁εντοπίζ	-11.0276
▁θέατρο	-11.0276
▁σφάλμα	-11.0277
▁διάσταση	-11.0277
▁ροζ	-11.0277
▁2006	-11.0283
▁προκάλεσε	-11.0283
▁ΝΑ	-11.0289
IS	-11.0291
▁Πολιτ	-11.0297
θέτω	-11.031
▁καταναλών	-11.0324
▁θετικό	-11.0337
▁κρίν	-11.0357
▁Λάν	-11.0367
▁φτάν	-11.0373
▁μαγειρ	-11.0392
▁παρόμοι	-11.0404
▁εκθετικ	-11.0418
▁Βάζ	-11.0432
▁Ρού	-11.0436
▁Κινέζικ	-11.0439
▁Παγκόσμια	-11.0439
▁άνοιξε	-11.0439
▁έστειλε	-11.0439
▁εκπλήσσ	-11.0439
▁επιπέδ	-11.0439
▁κουνούπι	-11.0439
▁λιοντάρι	-11.0439
▁πλουσιότερ	-11.0439
▁Μαθαίν	-11.0439
▁Μουσείο	-11.044
▁στούντι	-11.044
▁νεφρ	-11.044
▁ίχν	-11.0441
▁ατύχημ	-11.0441
▁πρόθεση	-11.0441
▁τηλεφωνικ	-11.0442
▁1960	-11.0442
▁μεθόδους	-11.0443
▁μιλούσε	-11.0445
▁χρέο	-11.0446
▁πεντ	-11.0449
▁λειτουργήσει	-11.0449
▁εσένα	-11.045
▁εξηγήσου	-11.0452
▁ζούσε	-11.0453
▁άβολ	-11.0454
▁Νιού	-11.046
▁φόρου	-11.0462
ΣΑ	-11.047
▁ανταγωνισμό	-11.047
▁κινήματ	-11.0475
φάνε	-11.0478
▁θρησκεί	-11.0492
▁συνεργάζοντα	-11.0493
γράφη	-11.0496
▁προσθετικ	-11.0504
▁παραμένου	-11.0522
▁Αφρικαν	-11.0522
▁ανήκ	-11.053
▁πετύχου	-11.054
ni	-11.054
▁θεσμού	-11.0548
βραδ	-11.0566
▁Βρεταν	-11.0596
χάιμερ	-11.0606
▁άγνοια	-11.0606
▁αποκατάσταση	-11.0606
▁συμμετέχοντ	-11.0606
▁χρησιμοποίησε	-11.0606
▁Ρουάντα	-11.0606
▁ανιχνεύ	-11.0606
▁κοπέλα	-11.0606
▁προέλευση	-11.0606
▁προόδου	-11.0606
▁Ομπάμα	-11.0606
▁επιβάλλ	-11.0606
▁διανοητικ	-11.0606
▁θαυμαστ	-11.0606
▁ζωγραφίσ	-11.0606
▁τάξει	-11.0606
▁απαντά	-11.0606
▁όφελο	-11.0606
▁διπλάσι	-11.0606
▁έγκυ	-11.0606
▁Γουόλ	-11.0606
▁ιστοσελίδ	-11.0612
▁ευρύ	-11.0612
▁φτωχού	-11.0613
▁πλάσμα	-11.0617
▁χάπι	-11.0618
▁παίξου	-11.0625
▁παλαιότερ	-11.0629
λαμπ	-11.0629
▁πεθαίνει	-11.0629
▁καταφέρνου	-11.0634
▁χαλαρ	-11.0634
ci	-11.0639
▁διαλύ	-11.0644
▁υλικού	-11.065
κενά	-11.0652
γράμματ	-11.0653
▁τοξικ	-11.0679
▁κεφαλ	-11.071
▁πεθάν	-11.0717
▁κύματ	-11.0719
οδηγού	-11.0726
▁διοικ	-11.0741
▁διάφορου	-11.0765
▁πραγματικού	-11.0768
κείμενα	-11.0773
▁ευτυχισμέν	-11.0774
σκόπηση	-11.0775
▁εξαφανιστεί	-11.0775
▁προσαρμογή	-11.0775
▁Περισσότερ	-11.0775
▁δυσκολότερ	-11.0775
▁μεταπτυχιακ	-11.0775
▁ριζοσπαστικ	-11.0775
▁υπαλλήλ	-11.0775
▁υποστηρικτ	-11.0775
▁φαρμακευτικ	-11.0775
▁Αϊτή	-11.0775
▁θερμοκηπί	-11.0775
▁λαχανικ	-11.0775
▁Άνθρωπο	-11.0775
▁απομονωμέν	-11.0775
▁λόφο	-11.0775
▁παιδεία	-11.0775
▁εγκλήματ	-11.0775
▁προβάλλ	-11.0775
▁προφυλακτικ	-11.0776
▁άνοιγ	-11.0776
▁ακοή	-11.0777
▁έχασα	-11.0779
▁συμπληρώ	-11.0782
τσάι	-11.0784
▁άστρα	-11.0785
▁παλαι	-11.0803
▁Ντέρ	-11.0807
tion	-11.0808
▁προχωρ	-11.0811
▁νεο	-11.0811
▁ξεκάθαρ	-11.0829
▁πληρώνου	-11.0831
▁βασίζοντα	-11.0841
▁λειτουργί	-11.0865
▁κερδ	-11.0876
▁δίνοντα	-11.0885
▁τροφοδοτ	-11.0898
▁διορθώσ	-11.0903
▁ορίζοντα	-11.0905
▁σπόρου	-11.0918
▁μοιραστού	-11.0925
▁Υπουργείο	-11.0948
▁αισθανθ	-11.0948
▁αστεροειδ	-11.0948
▁διασκέδαση	-11.0948
▁εγκατάσταση	-11.0948
▁εκκλησία	-11.0948
▁σιωπηλ	-11.0948
▁σύμβουλο	-11.0948
▁υποβρύχι	-11.0948
▁φιλανθρωπί	-11.0948
▁Λατρεύ	-11.0948
▁αναφορές	-11.0948
▁κτήρια	-11.0948
▁κύριε	-11.0948
▁μεταμορφώσ	-11.0948
▁σχηματίσ	-11.0948
▁μέταλλ	-11.0948
▁επαγγελματίες	-11.0948
▁δείπνο	-11.0948
▁Υγεία	-11.0948
▁ιδρυ	-11.0948
▁κβαντικ	-11.0948
▁απόβλητ	-11.0948
▁διαχωρισμ	-11.0948
▁κατέβ	-11.0948
▁οχήματα	-11.0948
▁λεγόμεν	-11.0948
▁ακίνητ	-11.0949
▁μακρύ	-11.0949
▁εισαγωγή	-11.095
▁Re	-11.0952
▁μηχανισμού	-11.0954
ub	-11.0955
▁γκολ	-11.0959
▁υψ	-11.096
▁Λίγο	-11.096
▁τοποθετού	-11.0968
▁άλογ	-11.099
▁θυμόμαστ	-11.0997
οψία	-11.1
▁αναπτύξου	-11.1007
αυγά	-11.1033
▁Αμερικανικ	-11.1068
▁διευθυντ	-11.107
▁κριτικ	-11.1073
▁άρθρ	-11.1079
▁Πότε	-11.1079
▁μονό	-11.1093
▁πεθάνου	-11.1118
▁εφεύρ	-11.1123
▁Δημοκρατία	-11.1123
▁Εβραίο	-11.1123
▁Υπήρξ	-11.1123
▁αεροδρόμι	-11.1123
▁ανταμοιβ	-11.1123
▁βοήθησα	-11.1123
▁γενέθλι	-11.1123
▁διατήρηση	-11.1123
▁σκοτώνει	-11.1123
▁σύννεφα	-11.1123
▁φιλόσοφο	-11.1123
▁Βίβλο	-11.1123
▁βακτηρί	-11.1123
▁εγκαταστάσε	-11.1123
▁πρότειν	-11.1123
▁χορευτ	-11.1123
▁γύρισε	-11.1123
▁Τόσο	-11.1123
▁ενάμισ	-11.1123
▁γεωγραφικ	-11.1123
▁κρυμμέν	-11.1123
καταιγίδ	-11.1124
▁έγραφα	-11.1124
▁κερδίζει	-11.1124
▁εικοσ	-11.1124
ζόμουν	-11.1125
▁μόλυνση	-11.1126
▁περιττ	-11.1126
▁πόρτ	-11.113
▁τσάντ	-11.1131
▁βγάζ	-11.1131
▁βραχ	-11.1134
▁36	-11.1134
πορτ	-11.1138
▁δολάρι	-11.1138
▁φίλτρ	-11.114
▁ύφα	-11.1141
βλημα	-11.1143
▁ρωτούσα	-11.1144
▁κρατούν	-11.1151
▁στολή	-11.1152
έστησ	-11.1163
▁μαγειρεύ	-11.1173
▁γκά	-11.1195
▁Νόρ	-11.1196
▁πατήσ	-11.1197
γράφουν	-11.1202
▁πρώτ	-11.1223
▁χρήματ	-11.1228
▁υπεύθυν	-11.1231
▁βοηθούσ	-11.1236
▁Li	-11.1243
▁συμφωνήσ	-11.1246
▁βροχ	-11.125
▁ρολό	-11.1262
▁παρατήρησ	-11.1263
▁γυμνασ	-11.1265
ευρώ	-11.1279
κλαδ	-11.1292
▁Ολλανδ	-11.1302
▁έμβρυ	-11.1302
▁αδυναμί	-11.1302
▁αμφιβολία	-11.1302
▁αποτύπωμ	-11.1302
▁αυστηρ	-11.1302
▁διαβήτη	-11.1302
▁επέτρεπ	-11.1302
▁επιθυμού	-11.1302
▁μυρωδιά	-11.1302
▁σκουλήκι	-11.1302
▁αναπτύχθηκ	-11.1302
▁χειροκρότη	-11.1302
▁ψευδ	-11.1302
▁εφεύρεση	-11.1302
▁κριτήρι	-11.1302
▁περίμενε	-11.1302
▁Πέρασα	-11.1302
▁κρασί	-11.1302
▁παθητικ	-11.1302
▁χωριά	-11.1304
▁μπρος	-11.1305
άτσο	-11.1305
▁γκρι	-11.1305
▁απαντού	-11.1306
▁αποκαλεί	-11.1308
▁φορτίο	-11.1313
▁αποκτά	-11.1314
▁2005	-11.1316
▁Ουγκ	-11.1316
▁όψη	-11.1317
▁σκιά	-11.1317
▁δέσ	-11.132
▁σαφέ	-11.1322
▁χάνει	-11.1322
χρωματ	-11.1332
▁συνθετικ	-11.1349
▁φτωχότερ	-11.1357
▁εξαφανίστηκ	-11.1433
▁Πόσ	-11.1466
▁600	-11.1468
▁λέγοντ	-11.148
▁εμπιστεύ	-11.1483
▁Έμαθα	-11.1483
▁Ουσιαστικ	-11.1483
▁Τράπεζα	-11.1483
▁ανατομία	-11.1483
▁αντιστοιχεί	-11.1483
▁βιβλίων	-11.1483
▁δούλεψα	-11.1483
▁εξάπλωση	-11.1483
▁παραλλαγ	-11.1483
▁πορτοκαλ	-11.1483
▁προκατάληψη	-11.1483
▁χιλιοστ	-11.1483
▁μεταφράσ	-11.1483
▁πινακίδ	-11.1483
▁αισθήματ	-11.1483
▁συνεδρί	-11.1483
▁περιθώρι	-11.1484
▁καταγραφή	-11.1484
▁Αρκετ	-11.1484
▁αντίγραφο	-11.1484
▁εμπνέ	-11.1485
γένει	-11.1486
▁μακρά	-11.1489
άνετα	-11.149
▁Μπορούσα	-11.1498
λεξικό	-11.15
▁κίτριν	-11.1501
▁αξιολογ	-11.1501
In	-11.1504
▁εκπαιδεύσ	-11.1508
▁δεξί	-11.1511
▁παρατηρεί	-11.1512
▁φοβό	-11.1531
up	-11.1536
πέρασμα	-11.1542
▁τετράγων	-11.1549
▁περιφέρ	-11.1553
ng	-11.1556
▁αποτυγχάν	-11.1569
▁γενικότερ	-11.1579
▁ακτιν	-11.1646
▁προβλέπ	-11.1659
βιτ	-11.1664
οργάνωσ	-11.1668
▁Χρειάστηκ	-11.1669
▁έβγαλε	-11.1669
▁ακτιβιστ	-11.1669
▁ανοσοποιητικ	-11.1669
▁βλέποντα	-11.1669
▁δολοφον	-11.1669
▁εξελιγμέν	-11.1669
▁κολέγιο	-11.1669
▁μεταβλητ	-11.1669
▁νευρώνα	-11.1669
▁ορχήστρ	-11.1669
▁πέφτουν	-11.1669
▁σταμάτησε	-11.1669
▁περιόδου	-11.1669
▁εξαπλών	-11.1669
▁εγκαταλείψ	-11.1669
▁κάτοικο	-11.1669
▁κέρδισε	-11.1669
▁τελειώνει	-11.1669
▁πιλότο	-11.1669
▁φρικτ	-11.1669
▁ραδιο	-11.1669
▁εγγεν	-11.1669
▁σπάνιο	-11.1669
▁Πολέμ	-11.167
▁κτιρί	-11.1671
▁κόπο	-11.168
▁5.000	-11.1684
▁αποδίδ	-11.1688
▁αναφερό	-11.1688
▁θολ	-11.1688
▁συνειδητοποίησ	-11.1689
▁επιφάνει	-11.1694
▁αιτί	-11.1702
▁μονά	-11.1731
▁παγωμέν	-11.1736
ντιθέτ	-11.1762
▁δεσμεύ	-11.1767
▁αισθανόμαστ	-11.1772
ect	-11.1789
▁σώσου	-11.179
▁ανθρώπιν	-11.1801
▁επικοινωνήσ	-11.1803
▁στάδι	-11.1825
▁καταφέρα	-11.1829
ell	-11.1838
▁οδηγήσου	-11.1857
▁αράχνη	-11.1857
▁Apple	-11.1857
▁Ολυμπιακ	-11.1857
▁ένδειξη	-11.1857
▁ανάγνωση	-11.1857
▁αρουραίο	-11.1857
▁γυμνάσιο	-11.1857
▁δικτύωση	-11.1857
▁επάγγελμ	-11.1857
▁ευέλικτ	-11.1857
▁εφηβεία	-11.1857
▁θανατηφόρ	-11.1857
▁θεμέλια	-11.1857
▁μακροχρόνι	-11.1857
▁πεποιθήσε	-11.1857
▁σκαθάρι	-11.1857
▁συνθηματικ	-11.1857
▁τοποθέτησ	-11.1857
▁βόμβα	-11.1857
▁επίλυση	-11.1857
▁ευγνώμ	-11.1857
▁λωρίδ	-11.1857
▁τελετή	-11.1857
▁ευρύτερη	-11.1857
▁προσωριν	-11.1857
▁ποταμό	-11.1857
▁ανδρών	-11.1857
▁πόλεων	-11.1857
▁αντιδρού	-11.1857
▁προσευχ	-11.1857
▁υπόσχ	-11.1858
▁συμβόλ	-11.1858
▁Μικρ	-11.186
▁διασχίζ	-11.186
▁παράσιτ	-11.1863
▁σκοπεύ	-11.1865
▁θεωρίες	-11.1868
▁26	-11.1868
▁Σίλ	-11.1869
▁σπουδαί	-11.1874
▁Μαρκ	-11.1879
▁αισθητικ	-11.1907
▁βέλ	-11.192
έβη	-11.192
▁αναλύ	-11.1931
▁πιέσ	-11.1932
οποιούμε	-11.1945
all	-11.1956
▁αναζητού	-11.196
▁Πέντ	-11.1999
▁αναζητήσ	-11.2003
▁ελαφρώ	-11.201
χάντ	-11.2046
▁Αποφάσισα	-11.205
▁αγόρασα	-11.205
▁ανεπτυγμέν	-11.205
▁βλάβη	-11.205
▁βρώμικ	-11.205
▁οικοσύστημ	-11.205
▁παίκτες	-11.205
▁παχυσαρκία	-11.205
▁ραδιόφων	-11.205
▁σταμάτησα	-11.205
▁αποθέματ	-11.205
▁μιμίδι	-11.205
▁πακέτο	-11.205
▁διεργασί	-11.205
▁ντιζά	-11.205
▁τωριν	-11.205
▁εγκληματικ	-11.205
▁εξαντλ	-11.205
▁νοητική	-11.205
▁πειραματικ	-11.205
▁χιόνι	-11.205
▁Σικάγο	-11.205
▁Τσάρλ	-11.205
ack	-11.205
▁γυαλιά	-11.2051
▁μεταφορέ	-11.2052
▁ποντικ	-11.2052
▁έτους	-11.2053
▁δόση	-11.2053
ics	-11.2061
▁περιέχε	-11.2064
▁στεκό	-11.2066
▁Κρατ	-11.2066
άλυση	-11.2067
▁φρούτ	-11.2071
▁επηρεάζ	-11.2082
▁αγών	-11.2083
▁ανταγωνιστ	-11.2096
▁καινοτόμο	-11.2097
▁Γάλλο	-11.2126
▁Sh	-11.2126
μαχί	-11.217
πάρτι	-11.2181
▁κοιτάζοντα	-11.2187
▁ποινικ	-11.2189
▁καθαρίσ	-11.2241
▁ευχαριστήσ	-11.2241
▁εργαζό	-11.2245
▁Έρικ	-11.2246
▁Συμβαίν	-11.2246
▁ανακοινώσ	-11.2246
▁αναμονή	-11.2246
▁απελευθέρωσ	-11.2246
▁δικτύων	-11.2246
▁εκτοξεύ	-11.2246
▁εξάλειψη	-11.2246
▁πλατεία	-11.2246
▁ψευδαίσθηση	-11.2246
▁ψωμί	-11.2246
▁αναδυόμεν	-11.2246
▁δαπάν	-11.2246
▁διάλεξη	-11.2246
▁καρκινικ	-11.2246
▁κοιλάδ	-11.2246
▁Τεχν	-11.2246
▁εξακολουθεί	-11.2246
▁διαλέγ	-11.2246
▁παραμείνει	-11.2246
▁παρόλα	-11.2246
▁ταχύτερ	-11.2246
▁επιβιώσου	-11.2246
▁χοντρ	-11.2246
▁σημαία	-11.2246
▁άχρηστ	-11.2247
▁επινόησ	-11.2247
▁δικαστήρι	-11.2247
▁κόμβο	-11.2247
▁εξακολουθού	-11.2248
▁Κρόνο	-11.2251
▁1980	-11.2252
▁παράλογο	-11.2253
▁Εκτό	-11.2257
▁λεξικ	-11.2257
▁2004	-11.2258
▁αυξάνοντα	-11.2265
μετρό	-11.2298
▁Κόκα	-11.2307
▁Ζού	-11.2326
▁πόλ	-11.2337
▁αισθάνοντα	-11.234
συνδέ	-11.2357
▁οργανώσ	-11.236
▁μαθητ	-11.2361
Δ	-11.2363
▁ανταγωνιστικ	-11.2398
▁διατηρήσου	-11.2403
▁άποψ	-11.2407
▁αριστ	-11.2423
▁Σάντ	-11.2426
ρύθμιση	-11.2446
▁Αμερικάνικ	-11.2446
▁Κοράνι	-11.2446
▁Πρόεδρο	-11.2446
▁αισιοδοξία	-11.2446
▁αντιλαμβάνοντα	-11.2446
▁διαίσθησ	-11.2446
▁διαγωνισμό	-11.2446
▁εξαπάτηση	-11.2446
▁ποικιλομορφία	-11.2446
▁τραγωδία	-11.2446
▁υδρογόνο	-11.2446
▁Μεγάλωσα	-11.2446
▁άκουσε	-11.2446
▁αποφεύγ	-11.2446
▁αφρικανικ	-11.2446
▁δυσκολεύ	-11.2446
▁Διεθν	-11.2446
▁βρέθηκε	-11.2446
▁χαριτωμέν	-11.2446
▁παγετών	-11.2446
▁σκηνές	-11.2446
▁γέλιο	-11.2446
▁πλανητ	-11.2446
▁Παρεμπ	-11.2446
▁υφή	-11.2446
▁μοιράσ	-11.2447
▁κοσμικ	-11.2448
amp	-11.2449
▁προμηθε	-11.245
▁αντίσταση	-11.2451
▁μεταδώσ	-11.2452
▁χάλια	-11.2453
ΚΟ	-11.2453
▁ράφι	-11.2455
▁ψέμ	-11.2456
▁Αλτσ	-11.2459
▁παραγωγικότητα	-11.2464
▁αθώ	-11.2467
▁καλλιεργήσ	-11.2471
▁πληρώσει	-11.2472
▁κινεί	-11.2479
▁ψηλότερ	-11.248
▁σταθερότητα	-11.248
▁βιώνου	-11.2483
▁συντονισμ	-11.2491
▁πραγματοποιήσ	-11.2502
▁δημιουργούντα	-11.2506
▁καινοτομ	-11.2525
▁οικογένει	-11.2553
▁συνεργαζό	-11.2556
▁Αγγλικ	-11.2564
▁κρατούσα	-11.2566
▁μεταφέροντα	-11.2619
▁φτιάχνοντα	-11.2622
πρεπε	-11.2624
▁φορούσ	-11.2636
αρακαλώ	-11.2644
▁Ίδρυμα	-11.265
▁Ανταρκτική	-11.265
▁άσχετ	-11.265
▁αποθήκευση	-11.265
▁βενζίνη	-11.265
▁διάδρομο	-11.265
▁διεξάγ	-11.265
▁μάρτυρ	-11.265
▁μανιτάρι	-11.265
▁οργάνων	-11.265
▁πολίτη	-11.265
▁σύνταξη	-11.265
▁φροντίσ	-11.265
▁Ιταλία	-11.265
▁Μηχαν	-11.265
▁αναγενν	-11.265
▁ενδιέφερ	-11.265
▁θεώρησ	-11.265
▁πατρίδα	-11.265
▁συνεργαστού	-11.265
▁μπέιζμπ	-11.265
▁συνειδητοποιώ	-11.265
▁καθήκον	-11.265
▁αιμοφόρ	-11.265
▁καταρρέ	-11.265
▁ορμόν	-11.265
▁τατουάζ	-11.265
▁υπόγειο	-11.265
▁μικροσκόπιο	-11.265
▁Χριστιαν	-11.265
▁Σμιθ	-11.265
▁χορδ	-11.265
▁έζησα	-11.265
▁λαιμό	-11.265
▁φήμη	-11.265
▁κρανίο	-11.265
▁ομαδικ	-11.265
▁γάλα	-11.2651
▁Μπράουν	-11.2651
▁Ιραν	-11.2652
▁Φωνή	-11.2652
▁Γύρ	-11.2657
▁συνεργατικ	-11.2661
λήψεις	-11.2666
▁φίδι	-11.2666
λυθεί	-11.2669
▁ηχητικ	-11.2671
▁Φοβ	-11.2678
αέρια	-11.2678
▁κρίσε	-11.268
λάβουμε	-11.2683
▁ενεργοποιεί	-11.2687
κοινών	-11.2692
▁ενέργει	-11.2695
▁αρετ	-11.2698
▁κατεβάσ	-11.2714
▁κομματι	-11.2728
▁εταιρικ	-11.2728
▁θανάτω	-11.2731
▁βραβεί	-11.2796
▁κορυφ	-11.28
▁καινοτόμ	-11.2807
▁μαγνητ	-11.2811
▁μειώνετ	-11.283
γλωσσ	-11.2836
▁Ευχαριστ	-11.2847
▁αρρώστ	-11.2857
σπασμα	-11.2858
▁Νορβηγ	-11.2858
▁Έκρηξη	-11.2858
▁Σοβιετικ	-11.2858
▁διοίκηση	-11.2858
▁διοξειδί	-11.2858
▁ενοχλητικ	-11.2858
▁επηρεάσει	-11.2858
▁επισκεφτ	-11.2858
▁ερμηνεύ	-11.2858
▁ολοκληρωτικ	-11.2858
▁σκότωσ	-11.2858
▁φαινομενικ	-11.2858
▁φοβούντα	-11.2858
αδέρφ	-11.2858
▁Γεννήθηκ	-11.2858
▁ανταλλαγ	-11.2858
▁δυνητικ	-11.2858
▁κατασκευές	-11.2858
▁παθήσεις	-11.2858
▁άρνηση	-11.2858
▁εντροπία	-11.2858
▁εξαπατ	-11.2858
▁ξεφορτωθ	-11.2858
▁ένστικτ	-11.2858
δότηση	-11.2858
▁μπάνιο	-11.2858
▁Ταλιμπ	-11.2859
▁αφεντικ	-11.2859
▁σκίτσ	-11.2859
▁αντιμέτωπο	-11.2859
▁ακολουθία	-11.286
▁λεωφορεί	-11.2888
▁ήσαστ	-11.2891
▁θεσμικ	-11.2896
αρίσι	-11.29
▁παρακολουθούσα	-11.2901
▁αίθουσ	-11.2907
▁συρρ	-11.2918
▁καθολικ	-11.294
▁ποίη	-11.2946
ρχικά	-11.2953
σλάμ	-11.2959
▁ακούγοντα	-11.2964
▁προωθ	-11.2982
▁θρησκε	-11.2983
▁περιβάλλ	-11.2989
▁καρδι	-11.2993
γκάμ	-11.3011
ίκευση	-11.3016
▁αντιμετώπισ	-11.3032
▁Βρετανικ	-11.3059
▁επαρκ	-11.3067
αιτέρω	-11.3068
▁email	-11.3071
▁έμφασ	-11.3071
▁αναρωτήθηκα	-11.3071
▁αφθονία	-11.3071
▁γαλαξι	-11.3071
▁διαμέρισμ	-11.3071
▁διαπίστωσ	-11.3071
▁εμφυτεύ	-11.3071
▁λογοτεχνία	-11.3071
▁μεταμορφών	-11.3071
▁πληθώρα	-11.3071
▁προσελκύ	-11.3071
▁σκουπιδ	-11.3071
▁στρατηγικές	-11.3071
▁φούσκα	-11.3071
▁φτιάχτηκ	-11.3071
Times	-11.3071
▁Αιγύπτ	-11.3071
▁απελευθερώσ	-11.3071
▁προκύψ	-11.3071
▁ενημερώσ	-11.3071
▁προκαταλήψε	-11.3071
▁συνοδεύ	-11.3071
▁NAS	-11.3071
▁εκτιμού	-11.3071
▁μετάδοση	-11.3071
▁σακούλ	-11.3071
▁ουσίες	-11.3071
▁δάνει	-11.3071
▁έχασε	-11.3071
▁αναφερθ	-11.3071
▁γκρεμ	-11.3071
▁ρίσκα	-11.3071
▁δικιά	-11.3072
▁λύκει	-11.3072
▁εργασιακ	-11.3072
▁πλακ	-11.3073
▁Κόσμο	-11.3074
▁γεμίσ	-11.3074
οργανωμέν	-11.3074
▁τρόμο	-11.3077
▁καταγωγή	-11.3077
▁εφέ	-11.3082
ill	-11.309
οπλισμέν	-11.3093
▁κερδίζου	-11.3098
ίστρια	-11.3108
▁0,	-11.3114
▁παλιότερ	-11.3153
▁ετοιμάζ	-11.3171
▁προχωρήσου	-11.3174
▁υποθέσ	-11.318
Κόλα	-11.3186
▁προσεκτικ	-11.3204
▁τοποθετεί	-11.3217
▁χειρίζ	-11.3218
Η	-11.3225
▁αστέρ	-11.3242
▁κλαί	-11.3249
▁νύχ	-11.3278
▁κληρονομ	-11.3287
▁ψευδαισθήσε	-11.3288
αντιδραστήρα	-11.3288
▁Αποδεικνύε	-11.3288
▁Παρασκευή	-11.3288
▁ανακαλύφθηκ	-11.3288
▁αντίληψή	-11.3288
▁ατζέντα	-11.3288
▁αυτοκτονία	-11.3288
▁βιντεοπαιχνίδι	-11.3288
▁δούλεψε	-11.3288
▁δυόμισ	-11.3288
▁εξώφυλλ	-11.3288
▁επαναλαμβανόμεν	-11.3288
▁ποδοσφα	-11.3288
▁σοκολάτα	-11.3288
▁τρομοκράτες	-11.3288
▁χαμόγελ	-11.3288
▁άκουγα	-11.3288
▁απογοήτευσ	-11.3288
▁μπερδεμέν	-11.3288
▁πλησιάσ	-11.3288
▁ποικίλ	-11.3288
▁στελέχ	-11.3288
▁ελίτ	-11.3288
▁Ακούγ	-11.3288
▁κύβο	-11.3288
▁ηλεκτρόνι	-11.3289
▁συναντηθ	-11.3289
▁πληρώνει	-11.3289
▁εγγυ	-11.3289
ένεση	-11.3289
▁ασαφ	-11.3289
▁εμφανίστηκα	-11.329
▁εννοεί	-11.3291
▁βρεθού	-11.3292
iki	-11.3295
▁ισχυρίζ	-11.3296
▁στόχ	-11.3297
▁χαίρ	-11.3297
▁πλουτ	-11.3299
▁φακό	-11.33
▁εμπορί	-11.3302
▁αγγει	-11.3303
▁ενδιαφέρουσ	-11.3349
▁ασκήσει	-11.3361
μένουμε	-11.3386
κάλεσε	-11.3422
▁192	-11.3435
▁επενδύσου	-11.3445
▁τρίχ	-11.3448
σπί	-11.3455
▁κατεβ	-11.3484
εύρεση	-11.3504
▁ζωτικ	-11.3509
▁οικοσυστ	-11.351
▁Ελβετ	-11.351
▁Αισθάν	-11.351
▁Βοστώνη	-11.351
▁Επανάσταση	-11.351
▁Ρόμπερτ	-11.351
▁έβγαλα	-11.351
▁ακρωτηριασ	-11.351
▁αμφιβληστροειδ	-11.351
▁ανανεώσιμ	-11.351
▁απεριόριστ	-11.351
▁αποδοχή	-11.351
▁βεβαιωθ	-11.351
▁δίχτυ	-11.351
▁διαθέτει	-11.351
▁κύκλωμα	-11.351
▁παράδοξο	-11.351
▁προκύπτου	-11.351
▁συμπεριφέροντα	-11.351
▁συναλλαγ	-11.351
▁συντήρηση	-11.351
▁σύριγγ	-11.351
▁ψυγεί	-11.351
▁ύφεση	-11.351
▁αξιοπρέπεια	-11.351
▁μικρόφωνο	-11.351
▁συμφώνησ	-11.351
▁έτρεχ	-11.351
▁ασχολείτ	-11.351
▁διάβαζα	-11.351
▁κατεβαίνει	-11.351
▁χιλιομέτρ	-11.351
▁θέτει	-11.3511
▁πολιτείες	-11.3511
▁Μάρτιν	-11.3511
▁αυλή	-11.3511
▁πάσχ	-11.3511
▁μικροβίω	-11.3511
▁διαφέρου	-11.3512
▁υποψήφιο	-11.3513
▁μετάξι	-11.3514
▁ανάποδ	-11.3516
▁δράσου	-11.3523
▁διδάσκου	-11.353
▁ομάδ	-11.3536
λήμ	-11.3543
▁σπάσει	-11.3544
▁υποθετικ	-11.358
▁επαναλάβ	-11.3583
ίνια	-11.3611
▁συνδυασμ	-11.362
ρωτούν	-11.3663
δοκιμασί	-11.3665
DA	-11.3673
κλιση	-11.3685
▁διασκεδαστικ	-11.3688
▁ζωγραφι	-11.369
▁Έκανε	-11.3738
▁Οξφόρδη	-11.3738
▁έφευγ	-11.3738
▁αμφιλεγόμεν	-11.3738
▁ανακοίνωσ	-11.3738
▁απαγορεύ	-11.3738
▁δήμαρχο	-11.3738
▁διαπραγματεύ	-11.3738
▁είσοδο	-11.3738
▁ενήλικα	-11.3738
▁εξαφανίζοντα	-11.3738
▁επικεντρών	-11.3738
▁κατέρρευσ	-11.3738
▁παρενέργει	-11.3738
▁περιλαμβάνου	-11.3738
▁πληροφόρηση	-11.3738
▁προτιμούν	-11.3738
▁σπονδυλική	-11.3738
▁συνεντεύξε	-11.3738
▁χιλιετί	-11.3738
▁χρωμόσωμ	-11.3738
▁εγκληματί	-11.3738
▁προσβάσιμ	-11.3738
▁υπηρετ	-11.3738
▁Νεάντερ	-11.3738
▁αεροπορικ	-11.3738
▁γεννηθεί	-11.3738
▁ποδηλάτ	-11.3738
▁εκτεταμέν	-11.3738
▁Βόρειο	-11.3738
▁σκοτώνου	-11.3738
▁συμπεράσματ	-11.3738
▁πρωτοβουλί	-11.3738
▁Γαλλικ	-11.3738
▁πρωταρχικ	-11.3738
▁Φρανκ	-11.3738
▁κλίση	-11.3738
▁εγγόνι	-11.3738
▁γρασ	-11.3738
▁εκθέσ	-11.3738
▁δίδαξ	-11.3738
▁αποστολέ	-11.3739
▁εργαζόμαστε	-11.3739
ίτιδα	-11.3739
μπουργκ	-11.374
αραδόξω	-11.374
▁κατευθύνσεις	-11.3741
▁συνδεθεί	-11.3742
▁υγιέ	-11.3744
▁οξύ	-11.3747
▁δύσ	-11.3751
▁καλαμπ	-11.3759
▁ρυθμού	-11.3759
▁τραύμα	-11.3767
κλείδ	-11.3771
▁Μισ	-11.3782
▁αεροσκάφ	-11.3788
▁ταυτότητ	-11.3807
▁επιθετικ	-11.3814
▁ερευνήσ	-11.3912
▁φοβά	-11.3919
▁υπάρξ	-11.3926
σχεδιασμένο	-11.3934
οποίησε	-11.394
▁αξιολογήσ	-11.3948
▁ζευγ	-11.3964
▁βιβλιο	-11.397
▁υποσχέ	-11.397
υστέρηση	-11.397
▁Μητέρα	-11.397
▁έβρισκα	-11.397
▁έψαχνα	-11.397
▁αξιοθαύμαστ	-11.397
▁αποδείχτηκ	-11.397
▁αρμονία	-11.397
▁δέσμευση	-11.397
▁διευκολύν	-11.397
▁διευρύν	-11.397
▁εγκαταστήσ	-11.397
▁εκδήλωση	-11.397
▁εκτυπωτ	-11.397
▁ενδιάμεσ	-11.397
▁ενσυναίσθηση	-11.397
▁εξειδικευμέν	-11.397
▁καπέλο	-11.397
▁παρέμβαση	-11.397
▁περασμένη	-11.397
▁ρισκάρ	-11.397
▁συγκεντρωμέν	-11.397
▁συμπεριλαμβάν	-11.397
▁συμπονετικ	-11.397
▁υποδηλών	-11.397
▁φιγούρ	-11.397
▁χαρακτηρίζ	-11.397
▁αντοχή	-11.397
▁αυξήθηκ	-11.397
▁διατροφικ	-11.397
▁επαρχί	-11.397
▁ρεαλιστικ	-11.397
.500	-11.397
▁εγχείρημ	-11.397
▁χρηματικ	-11.397
▁λέξεω	-11.397
▁ζωγραφική	-11.397
▁ποδιών	-11.3971
▁κατάλαβε	-11.3971
▁λάμπε	-11.3971
▁κανονισμ	-11.3971
▁συνειδητοποιεί	-11.3971
▁ίντερνετ	-11.3971
▁άξιζ	-11.3972
▁κυκλώματ	-11.3972
▁παραλία	-11.3972
▁κρατούμενο	-11.3973
▁Σηκώ	-11.3974
▁Νικ	-11.398
▁θελήσ	-11.3981
▁έλκ	-11.3984
▁Στρατ	-11.3993
▁ιππ	-11.4009
▁επιτυγχάν	-11.4032
▁δημογραφικ	-11.4038
▁Άμπε	-11.4079
▁φορέσ	-11.4084
▁επιστρέφου	-11.4085
▁μορί	-11.4109
▁ίσο	-11.411
▁επιβίωσ	-11.417
πρόσωπ	-11.4172
▁μαθηματικώ	-11.4176
▁υπάρχου	-11.4183
▁Ινδικ	-11.4189
▁οδηγούσ	-11.4192
▁πολεμήσ	-11.4201
▁Φαντάζ	-11.4208
▁Έγραψ	-11.4208
▁Ιατρική	-11.4208
▁Κορίτσι	-11.4208
▁ΟΗΕ	-11.4208
▁ακολούθησα	-11.4208
▁απογοητεύ	-11.4208
▁απορρίπτ	-11.4208
▁αποφοίτησ	-11.4208
▁απόλαυση	-11.4208
▁ατελείωτ	-11.4208
▁αφοσίωση	-11.4208
▁βιωσιμότητα	-11.4208
▁γκαράζ	-11.4208
▁διαμόρφωσ	-11.4208
▁δολοφόνο	-11.4208
▁εγχείρηση	-11.4208
▁επεισόδι	-11.4208
▁θλίψη	-11.4208
▁κυψέλ	-11.4208
▁μοντέρνο	-11.4208
▁πληκτρολογ	-11.4208
▁ποικιλότητα	-11.4208
▁προσπάθησε	-11.4208
▁πυθμένα	-11.4208
▁σύνδεσμο	-11.4208
▁υπερθέρμανση	-11.4208
▁χάρτιν	-11.4208
▁συσχετισμ	-11.4208
▁έθνη	-11.4208
▁έτρεξ	-11.4208
▁σύνδρομ	-11.4208
▁ποταμού	-11.4208
▁έβαζα	-11.4208
▁προθέσε	-11.4209
▁στήριξη	-11.4209
▁έλαβε	-11.4209
▁προηγμέν	-11.4209
▁κόκκο	-11.4209
▁έπαιζα	-11.4209
▁οροφή	-11.4209
▁μεταναστ	-11.421
▁αρρώστια	-11.421
▁ευρύτερο	-11.421
▁ένωση	-11.421
▁διαχειρίζ	-11.4211
▁ανέβηκ	-11.4212
▁δράσει	-11.4213
▁μίσο	-11.4214
▁καταγράψου	-11.4214
▁προκαλούσ	-11.4214
▁υπεριώδ	-11.4216
▁ξεπεράσου	-11.4219
▁κυματ	-11.4227
γραφικά	-11.425
▁θερμίδ	-11.4261
▁Υποθέτ	-11.427
▁κυκλικ	-11.4279
▁πληρώσου	-11.4285
ντουιτ	-11.4285
▁διαφάνει	-11.4289
▁αφήνοντα	-11.439
ελευθερών	-11.4393
▁φοβόμαστ	-11.4397
άζομα	-11.443
▁κόλπ	-11.4439
▁δουλεύοντα	-11.4444
αδέλφ	-11.4452
▁ενδεχομέν	-11.4452
▁Ινδονησία	-11.4452
▁απροσδόκητ	-11.4452
▁αυτοκρατορ	-11.4452
▁δεινόσαυρο	-11.4452
▁δοκίμασ	-11.4452
▁δυσλειτουργ	-11.4452
▁επέστρεφ	-11.4452
▁καθρέφτη	-11.4452
▁καταλαμβάν	-11.4452
▁μεθάνιο	-11.4452
▁μπόρεσε	-11.4452
▁μύκητ	-11.4452
▁νευρωνικ	-11.4452
▁πανεπιστημί	-11.4452
▁παράδεισο	-11.4452
▁προγραμματίσ	-11.4452
▁προτιμούσα	-11.4452
▁σπατάλη	-11.4452
▁συγκεντρωθ	-11.4452
▁ψηφοφόρ	-11.4452
▁ωκυτοκίνη	-11.4452
▁εξαλείψ	-11.4452
▁προσαρμοστικ	-11.4452
▁πύργο	-11.4452
▁δασκάλα	-11.4452
▁διάθεσή	-11.4452
▁σταγόνα	-11.4452
▁διάδοση	-11.4452
▁μετατροπή	-11.4452
▁Γκάντι	-11.4453
▁Στόχο	-11.4453
▁επαναστατικ	-11.4453
▁καλυμμέν	-11.4453
▁κλήση	-11.4453
▁αλιεία	-11.4453
▁πατέντ	-11.4454
▁εντοπισμ	-11.4455
▁Χένρ	-11.4455
▁Γιόρκ	-11.4457
▁δοκιμαστικ	-11.4457
▁Κάρολ	-11.4458
▁πρόβατ	-11.4458
▁λίπο	-11.4459
▁διδαχ	-11.446
▁Ακούσ	-11.4461
▁χείλ	-11.4464
▁αναρωτιόμαστ	-11.4465
▁αμφισβητήσ	-11.4475
▁βοσκ	-11.4479
▁μπαμπ	-11.4479
▁Πρωτ	-11.448
▁193	-11.4484
τήρες	-11.4524
▁πλασ	-11.4532
οικογενειακή	-11.454
▁προσδοκ	-11.4549
▁ενώνοντα	-11.4645
▁Κύρι	-11.4658
▁μεταλλικ	-11.4684
▁οικογενει	-11.4698
▁επείγον	-11.4702
▁Micros	-11.4702
▁Δελχί	-11.4702
▁Συγκεκριμένα	-11.4702
▁Τέχνη	-11.4702
▁άφθον	-11.4702
▁ακολούθησε	-11.4702
▁αλκοόλ	-11.4702
▁ανίχνευση	-11.4702
▁ατσάλι	-11.4702
▁βασίλει	-11.4702
▁εμπνευσμέν	-11.4702
▁εξάσκηση	-11.4702
▁επέλεξα	-11.4702
▁ευαισθησία	-11.4702
▁ημερομηνία	-11.4702
▁κοριτσάκι	-11.4702
▁ομοφυλόφιλ	-11.4702
▁προετοιμασία	-11.4702
▁ραντεβού	-11.4702
▁συμφόρηση	-11.4702
▁τελετουργικ	-11.4702
▁τσουνάμι	-11.4702
▁χρειαζόμουν	-11.4702
▁έστελν	-11.4702
▁αναλαμβάν	-11.4702
▁βεβαίω	-11.4702
▁επισημάν	-11.4702
▁ζέστη	-11.4702
▁καλοκαιρι	-11.4702
▁κατασκεύασ	-11.4702
▁κοπάδι	-11.4702
▁προσανατολισμ	-11.4702
▁συγκριτικ	-11.4702
▁φουαγ	-11.4702
▁Προσπαθώ	-11.4702
pedi	-11.4702
▁παίκτη	-11.4702
▁ουρανού	-11.4702
ενήντα	-11.4702
▁Φτιάξ	-11.4702
▁μπλογκ	-11.4702
▁αραβικ	-11.4702
▁σπαταλ	-11.4702
▁Χώρα	-11.4702
▁μετακομίσ	-11.4702
εργαστώ	-11.4703
▁Γκέιτ	-11.4703
▁συνθέσ	-11.4703
▁πρόσθεσ	-11.4703
▁διαγνώσ	-11.4703
▁κούπα	-11.4703
▁απευθύν	-11.4704
▁αναπνέ	-11.4704
τραυματι	-11.4704
▁Αφρικανικ	-11.4707
ρύπ	-11.4708
▁Ειδικ	-11.4709
νόμισμ	-11.4711
▁βιώσιμ	-11.4713
μικροβιακ	-11.4723
φερθού	-11.4726
▁νικήσου	-11.4733
θετικά	-11.474
φοβάμαι	-11.4758
▁Δώσ	-11.4809
▁φαινόμεν	-11.4815
ροφίλ	-11.486
▁δυνάμε	-11.4862
▁Ελάτ	-11.4885
▁γινόμαστ	-11.4889
τρομοκρατ	-11.4913
▁κολλημέν	-11.4916
▁ψηφι	-11.4957
▁σιγουρευτ	-11.4959
παρήγαγε	-11.4959
▁LED	-11.4959
▁Ήξερα	-11.4959
▁αβεβαιότητα	-11.4959
▁αναλάβε	-11.4959
▁απασχόληση	-11.4959
▁αποδείχθηκ	-11.4959
▁ασήμαντ	-11.4959
▁γήπεδο	-11.4959
▁επιτευχθεί	-11.4959
▁ηθοποιό	-11.4959
▁ιπτάμεν	-11.4959
▁καροτσάκι	-11.4959
▁κινδυνεύ	-11.4959
▁λάσπη	-11.4959
▁μέδουσ	-11.4959
▁μαχαίρι	-11.4959
▁ξυπνά	-11.4959
▁πρωτόγον	-11.4959
▁φιλόδοξ	-11.4959
▁φροντίζου	-11.4959
▁χειροκροτ	-11.4959
▁Ελλάδα	-11.4959
▁δωματίου	-11.4959
▁ημερολόγι	-11.4959
▁ιδεολογία	-11.4959
▁προσομοι	-11.4959
▁σκοτώθηκ	-11.4959
▁πετυχημέν	-11.4959
▁συντομία	-11.4959
▁επίδοση	-11.4959
▁περιπλαν	-11.4959
στράφηκ	-11.4959
▁θυμωμέν	-11.4959
▁προειδοποίησ	-11.4959
▁ζεύγ	-11.4959
▁βαρέλι	-11.4959
▁έλειπ	-11.4959
▁λάμπα	-11.496
▁ονομαζό	-11.496
▁έμενα	-11.496
▁χωράφι	-11.496
▁καθοριστικ	-11.496
▁πρόληψη	-11.4961
▁καταυλισμ	-11.4961
▁έπεσα	-11.4962
▁χιον	-11.4962
▁δευτερ	-11.4963
▁Κύρο	-11.4964
▁παίρνοντα	-11.4964
▁νευρολογικ	-11.4965
▁αδιαφ	-11.4965
▁θέτου	-11.4966
▁εκμεταλλευτού	-11.4968
▁ασπ	-11.4968
▁καρότ	-11.4976
▁αναλογικ	-11.499
▁Παίρνου	-11.4997
▁αθλητικ	-11.5003
▁ελευθερ	-11.5003
▁καλλιτεχν	-11.502
▁τοποθετημέν	-11.5024
τυχαίνει	-11.5032
▁φωνητικ	-11.5035
μυρίζει	-11.5054
▁ζητήθηκ	-11.5066
▁αισθανό	-11.5076
▁υποθέσουμ	-11.5092
▁πλευρ	-11.5104
▁φιλικ	-11.515
▁αρχιτεκτονικ	-11.5169
▁παρακολούθησ	-11.5183
▁εστιατόρι	-11.5193
Φ	-11.5201
▁βασιζό	-11.5208
κέφτομαι	-11.5214
▁συσσωρεύ	-11.5222
▁χορωδ	-11.5222
▁Αιθιοπία	-11.5222
▁Ισραηλιν	-11.5222
▁Προσπάθησ	-11.5222
▁Σιγκαπούρη	-11.5222
▁Φλόριντα	-11.5222
▁ανταπόκριση	-11.5222
▁αξιωματούχ	-11.5222
▁αξιόλογ	-11.5222
▁αποψίλωση	-11.5222
▁αυξημέν	-11.5222
▁βιοποικιλότητα	-11.5222
▁γιγαντιαί	-11.5222
▁διάκριση	-11.5222
▁διαστημόπλοι	-11.5222
▁διαφημίσει	-11.5222
▁ειρηνευτικ	-11.5222
▁καταρρεύσει	-11.5222
▁λειτούργησ	-11.5222
▁μεταμόσχευση	-11.5222
▁μυρμήγκι	-11.5222
▁ξεκίνημ	-11.5222
▁ομοσπονδιακ	-11.5222
▁πεπεισμέν	-11.5222
▁περιοχών	-11.5222
▁προσδόκιμο	-11.5222
▁προσομοίωση	-11.5222
▁πύραυλο	-11.5222
▁στρογγυλ	-11.5222
▁συσχέτιση	-11.5222
▁σύλληψη	-11.5222
▁υπενθυμίζ	-11.5222
▁Άνταμ	-11.5222
▁κινέζικ	-11.5222
▁ξύλιν	-11.5222
▁πλεονεκτήματ	-11.5222
▁Τζορτζ	-11.5222
▁αναγνώστ	-11.5222
▁ανεπαρκ	-11.5222
▁μαγνήτ	-11.5222
▁ξένη	-11.5222
▁ποσοτικ	-11.5222
▁ετικέτ	-11.5222
▁αναπνοή	-11.5222
▁κιόλας	-11.5222
▁ξεχωρίσ	-11.5222
▁τολμηρ	-11.5222
▁έκλεισ	-11.5222
▁έπαιζε	-11.5222
▁τουαλέτες	-11.5222
▁διακυμ	-11.5222
▁προστάτη	-11.5222
▁Χιλή	-11.5222
▁υποχρεώ	-11.5222
▁Φορντ	-11.5222
▁φλοιού	-11.5222
▁συνέβε	-11.5222
▁καταστροφέ	-11.5222
▁έσοδ	-11.5222
▁επιχειρήματ	-11.5222
▁είσαστ	-11.5222
▁σκάφο	-11.5222
▁πρωτοπόρ	-11.5223
▁χορού	-11.5223
▁οικοσυστήματα	-11.5223
▁σπασμέν	-11.5223
▁συναντού	-11.5223
▁Γενικ	-11.5224
▁μετέφερ	-11.5226
▁ιδίω	-11.5226
▁μιμηθ	-11.5228
λήφθη	-11.5231
▁πειρατ	-11.5244
▁ειδήσε	-11.5251
πωρο	-11.5257
▁ευγεν	-11.5267
▁σχέδι	-11.5271
▁εμπλέκοντα	-11.5282
λεπτ	-11.5292
▁νικητ	-11.5313
▁προστατευτικ	-11.5315
▁μεσαίο	-11.533
▁αγοραστ	-11.5404
▁εφικτ	-11.5438
κυτταρ	-11.5443
▁σχηματίζοντα	-11.5448
▁παραδόσει	-11.5471
ργότερα	-11.5492
▁Ακαδημία	-11.5492
▁Αλήθεια	-11.5492
▁Ανησυχ	-11.5492
▁Δημοκρατικ	-11.5492
▁Ζηλανδία	-11.5492
▁Σεπτέμβρ	-11.5492
▁άνοιξη	-11.5492
▁αντιβιοτικ	-11.5492
▁δημοσίευση	-11.5492
▁διεύθυνση	-11.5492
▁επίκεντρο	-11.5492
▁επηρεάσου	-11.5492
▁κατεστραμμέν	-11.5492
▁κινηματογράφο	-11.5492
▁κουλτούρες	-11.5492
▁μετατραπεί	-11.5492
▁παγόβουν	-11.5492
▁περιεχομέν	-11.5492
▁πλησίασ	-11.5492
▁προγραμματίζ	-11.5492
▁υφίστα	-11.5492
▁φυματίωση	-11.5492
▁χωρητικότητα	-11.5492
▁Μπράιαν	-11.5492
▁Οικονομικ	-11.5492
▁δεδομένη	-11.5492
▁ενσωματώσ	-11.5492
▁επανάληψη	-11.5492
▁πλυντήρι	-11.5492
▁υπάρχοντ	-11.5492
▁διάταξη	-11.5492
▁μαζικά	-11.5492
▁σύμπτω	-11.5492
▁βρετανικ	-11.5492
▁μετανάστευση	-11.5492
▁ξυπνήσ	-11.5492
▁ρομαντικ	-11.5492
▁κρύψ	-11.5492
▁Άνοιξ	-11.5492
▁κατάχρηση	-11.5492
▁οργή	-11.5492
▁επαναπροσδιορίσ	-11.5492
▁μπύρα	-11.5492
▁βλαστικ	-11.5492
▁εξασφαλίσου	-11.5492
▁πυροδοτ	-11.5492
▁ομοιότητ	-11.5492
▁ποτήρι	-11.5493
▁ξανακάν	-11.5493
▁έγραφε	-11.5493
▁κομψ	-11.5493
▁μισθό	-11.5493
▁ευρήματ	-11.5493
▁σκηνικ	-11.5495
▁πλάι	-11.5495
▁ταμπού	-11.5497
▁κοινοτικ	-11.5499
▁Αρχίσ	-11.5501
▁παλεύου	-11.5522
▁αξίζου	-11.5532
▁αισθάνεσ	-11.5533
ρωτή	-11.5533
▁κυτταρικ	-11.5541
▁ακολουθούμε	-11.5562
▁προχωρημέν	-11.5582
▁αρχικ	-11.5588
▁κινητοποι	-11.5589
κιλό	-11.5619
▁ενδιαφερό	-11.5628
▁συμπαθ	-11.5631
▁γωνί	-11.5632
▁συνδεθού	-11.5662
▁πράξ	-11.5664
▁ηλεκτρισμ	-11.5719
▁αδύνατ	-11.5765
▁Λειτουργ	-11.577
▁επεξεργάζ	-11.577
▁Αριστοτέλη	-11.577
▁Βερολίνο	-11.577
▁ένζυμ	-11.577
▁αγόρασε	-11.577
▁αξιοπιστία	-11.577
▁απομόνωση	-11.577
▁αποτελέσε	-11.577
▁αποφασιστικ	-11.577
▁απρόσμεν	-11.577
▁αστροναύτ	-11.577
▁αστρονόμο	-11.577
▁ασχολήθηκ	-11.577
▁γιγάντιο	-11.577
▁γνώριζε	-11.577
▁δάκρυ	-11.577
▁δύναμή	-11.577
▁εξέπληξε	-11.577
▁εξυπνότερ	-11.577
▁επέστρεψε	-11.577
▁εργαστεί	-11.577
▁ευθύνε	-11.577
▁εύθραυστ	-11.577
▁θυμούντα	-11.577
▁ιστοριών	-11.577
▁λιβάδι	-11.577
▁λογαριασμού	-11.577
▁μεταμοσχεύ	-11.577
▁ντοπαμίνη	-11.577
▁πεζοδρόμι	-11.577
▁πρωθυπουργό	-11.577
▁πρωτοσέλιδ	-11.577
▁ραγδαία	-11.577
▁σπασίκλ	-11.577
▁στερεότυπ	-11.577
▁σύντροφο	-11.577
▁ταιριάζουν	-11.577
▁τραβήχτηκ	-11.577
▁φτιαχτεί	-11.577
ευρωπαϊκ	-11.577
▁νυχτεριν	-11.577
▁σκαρφαλώ	-11.577
▁τσιγάρ	-11.577
▁Μεξικού	-11.577
▁αμέτρητ	-11.577
▁γράφουμε	-11.577
▁ικανοποιητικ	-11.577
▁θάρρο	-11.577
▁Στάδιο	-11.577
▁ζήλια	-11.577
▁Τιτάνα	-11.577
▁επανέλθ	-11.577
▁μάθαινα	-11.577
▁γράφτηκ	-11.577
▁στρατόπεδ	-11.577
▁αποκαλούσα	-11.577
▁διακρίσε	-11.577
▁στιγμιαί	-11.577
▁συνηθίζ	-11.577
▁εμβολί	-11.577
▁τόξο	-11.577
▁ραβδ	-11.577
▁μήτρα	-11.5771
▁έμβι	-11.5771
▁σηκωθ	-11.5771
▁έναρξη	-11.5771
▁αναπηρικ	-11.5771
▁μαλακ	-11.5772
▁μεταφορικ	-11.5772
▁Χριστ	-11.5774
▁τσιμπ	-11.5774
▁πετυχαίν	-11.5779
▁οντότητ	-11.5799
▁χτιστ	-11.5813
▁φθηνότερ	-11.5819
▁πειράματ	-11.5892
▁προγραμματισμ	-11.5962
▁προσλάβ	-11.5972
▁λύνου	-11.5992
▁βγαίν	-11.6008
▁αυξήσου	-11.6024
▁Σουηδ	-11.6043
▁αποτέλεσ	-11.6047
έρυσι	-11.605
▁επωφεληθ	-11.6056
▁Κυριακή	-11.6056
▁Παγκοσμί	-11.6056
▁Συμφων	-11.6056
▁Σύντομ	-11.6056
▁απαίτησ	-11.6056
▁αριθμητικ	-11.6056
▁ασχολούμαι	-11.6056
▁βεβαιότητ	-11.6056
▁δολλαρί	-11.6056
▁εξάρτηση	-11.6056
▁εξαφανίζεται	-11.6056
▁επέμβαση	-11.6056
▁εστίαση	-11.6056
▁εφευρέτ	-11.6056
▁θορύβου	-11.6056
▁κατευθυντή	-11.6056
▁μεγάλωσε	-11.6056
▁μετακόμισ	-11.6056
▁μυθιστόρημ	-11.6056
▁μυκήλιο	-11.6056
▁νευροεπιστήμη	-11.6056
▁προώθηση	-11.6056
▁συγχρόνω	-11.6056
▁ύπαρξή	-11.6056
▁Φτιάχν	-11.6056
▁έσπασ	-11.6056
▁έφυγε	-11.6056
▁αποτυχημέν	-11.6056
▁αφοσιωμέν	-11.6056
▁βιβλιογραφία	-11.6056
▁γενναιόδωρ	-11.6056
▁γεωργικ	-11.6056
▁δυσάρεστ	-11.6056
▁κουνουπι	-11.6056
▁κόκκαλ	-11.6056
▁ονόμασα	-11.6056
▁υποκειμενικ	-11.6056
▁διαχωρίζ	-11.6056
▁εκατομ	-11.6056
βιομηχανίες	-11.6056
▁αποικία	-11.6056
▁κλασσικ	-11.6056
▁σκυλιά	-11.6056
▁όρθιο	-11.6056
▁ολοκληρωθ	-11.6056
▁συναυλί	-11.6056
▁έζησε	-11.6056
▁έφερν	-11.6056
▁Συνεργ	-11.6057
▁πειράζ	-11.6062
▁ντοκ	-11.6064
▁Οίκο	-11.608
▁πράμα	-11.6084
▁συλλέκτ	-11.6115
▁Μιλούσ	-11.6154
▁βιαστ	-11.6162
▁φανταζόμαστ	-11.6171
▁νοιάζοντα	-11.6182
▁γέφυρ	-11.6186
▁ενθουσιασμέν	-11.6192
υλάχιστο	-11.6199
▁εξερευνητ	-11.6199
ture	-11.6213
▁πολεμιστ	-11.6234
▁εκλογικ	-11.6246
▁καταναλώνου	-11.6261
τραφεί	-11.631
▁διαμάχ	-11.6312
ηλεκτρ	-11.6342
▁εγκαταλε	-11.635
▁Ενδιαφέρ	-11.635
▁ανταποκριθ	-11.635
▁ξεπερνά	-11.635
▁συσχετίζ	-11.635
▁iPod	-11.635
▁Αποφασί	-11.635
▁Βρισκόμαστ	-11.635
▁Ισπανία	-11.635
▁Ντιτρό	-11.635
▁Πάρκινσον	-11.635
▁Πράσιν	-11.635
▁Σκεφτόμουν	-11.635
▁Συμβούλιο	-11.635
▁Χαβάη	-11.635
▁Χρειάζοντα	-11.635
▁αηδία	-11.635
▁ανατροφή	-11.635
▁αυθόρμητ	-11.635
▁βραχυπρόθεσμ	-11.635
▁γεννιούντα	-11.635
▁διαδεδομέν	-11.635
▁διατεθειμένο	-11.635
▁δορυφορικ	-11.635
▁ειλικρίνεια	-11.635
▁ειρωνεία	-11.635
▁εξήγησε	-11.635
▁εξατομικευμέν	-11.635
▁ερήμου	-11.635
▁μεσημεριανό	-11.635
▁ξεφύγου	-11.635
▁ξύπνησ	-11.635
▁ονειρεύ	-11.635
▁οριζόντι	-11.635
▁ορυχεί	-11.635
▁πειραματιστ	-11.635
▁πλήκτρ	-11.635
▁πώληση	-11.635
▁συζύγου	-11.635
▁σχηματισμό	-11.635
▁σχιζοφρένεια	-11.635
▁τρίγων	-11.635
▁τσιμέντο	-11.635
▁φθινό	-11.635
▁χειρονομί	-11.635
▁Τζωρτζ	-11.635
▁απέδειξ	-11.635
▁αφίσες	-11.635
▁αφαίρεσ	-11.635
▁ηλεκτρόδι	-11.635
▁λάτρευ	-11.635
▁μπερδεύ	-11.635
▁Μαντέλα	-11.635
▁αντιλαμβάνετ	-11.635
▁διαφημιστικ	-11.635
▁κολλέγι	-11.635
▁έγκαιρ	-11.635
▁διακριτικ	-11.635
▁σπουδαιότερ	-11.635
▁μπαλόνι	-11.635
▁Αφγαν	-11.635
▁αγωνιστ	-11.635
▁καπνό	-11.635
▁υπόσχεση	-11.635
▁κάμποσ	-11.635
▁Σχολή	-11.635
▁εξισώσε	-11.635
λιγουντ	-11.635
▁ειρωνικ	-11.635
▁Φύση	-11.635
▁χτίζοντα	-11.6351
▁διασχίσ	-11.6351
▁Κόλπο	-11.6351
▁έπιασ	-11.6351
▁εκτείν	-11.6352
▁θυσί	-11.6353
▁τάφο	-11.6354
▁ανδρικ	-11.6355
▁σφυρί	-11.6355
▁βαθμολογί	-11.6355
▁παίχτ	-11.6364
▁Φίλ	-11.6365
▁έριξ	-11.6371
πολογιστ	-11.6385
▁σπόρο	-11.6403
▁γέρο	-11.6411
▁αναλάβου	-11.6411
▁ελπίδ	-11.649
θρωπο	-11.6519
▁λιώσ	-11.656
πολογισμού	-11.6561
▁ερωτικ	-11.6599
παραχθεί	-11.6617
▁Αναρωτιέ	-11.6653
▁Milo	-11.6653
▁Ήθελε	-11.6653
▁Γροιλανδία	-11.6653
▁Ερυθρ	-11.6653
▁Ιρλανδ	-11.6653
▁Μπέντζαμ	-11.6653
▁Τέσσερ	-11.6653
▁ανακύκλωση	-11.6653
▁αναπαράσταση	-11.6653
▁ανατροφοδότηση	-11.6653
▁αυτοκινητόδρομο	-11.6653
▁βακτηριακ	-11.6653
▁βόμβες	-11.6653
▁δαχτυλ	-11.6653
▁διάλειμμα	-11.6653
▁δωροδοκ	-11.6653
▁εκμάθηση	-11.6653
▁εκτέλεση	-11.6653
▁ενδεχόμεν	-11.6653
▁εξοικειωμένο	-11.6653
▁επαγγέλματ	-11.6653
▁επιχείρησή	-11.6653
▁μολυσμέν	-11.6653
▁μόρφωση	-11.6653
▁ξεκαθαρίσ	-11.6653
▁πορτραίτ	-11.6653
▁πρόσφυγ	-11.6653
▁σπρώξ	-11.6653
▁σφαίρες	-11.6653
▁Κοινωνικ	-11.6653
▁Νόμιζα	-11.6653
▁επαναφέρου	-11.6653
▁ηπείρου	-11.6653
▁ρωγμ	-11.6653
▁χαρτογραφήσ	-11.6653
▁καναπέ	-11.6653
▁ξηρά	-11.6653
▁εκτιμά	-11.6653
▁αποσπά	-11.6653
▁βιωματικ	-11.6653
▁αδικία	-11.6653
▁γερνά	-11.6653
▁λίρες	-11.6653
▁εντατική	-11.6653
▁κωμικ	-11.6653
▁πέμπτο	-11.6653
▁ευρεία	-11.6653
▁ηχογραφ	-11.6653
▁δημοσίω	-11.6653
▁σούπα	-11.6653
▁λογικ	-11.6653
▁προορισμό	-11.6653
▁απουσία	-11.6653
▁συμπεριφορικ	-11.6653
▁γαρίδ	-11.6653
▁Γκρέι	-11.6653
▁Ορισμέν	-11.6654
▁ελαστικ	-11.6654
▁μεταδοτικ	-11.6654
▁καμβά	-11.6655
▁θεραπευτικ	-11.6655
▁κεραί	-11.6655
▁άδικο	-11.6655
▁διαμέσ	-11.6655
γωνιά	-11.6656
υκείου	-11.6656
▁ανέμου	-11.6656
▁ιδιαιτέρ	-11.6657
▁Ανακάλυψ	-11.6658
▁επιζήσ	-11.6662
▁δραστικ	-11.6664
▁Χαίρο	-11.6668
▁περήφαν	-11.6669
▁Γκάμπ	-11.6675
▁λάβου	-11.6769
τζίνι	-11.6788
▁χρησιμοποιήθηκ	-11.6806
▁ενδιαφερόμαστ	-11.681
▁δυνατότητ	-11.6817
σκευάσ	-11.6817
▁αγνοήσ	-11.6854
▁αντιγράφ	-11.6893
▁χαρακτηριστικ	-11.6921
▁δικαί	-11.6935
▁Γουίλιαμ	-11.6965
▁Πανεπιστημί	-11.6965
▁Υπηρεσία	-11.6965
▁ένιωθε	-11.6965
▁αναπτυγμέν	-11.6965
▁αναπτυχθού	-11.6965
▁απομακρυνθεί	-11.6965
▁δεινοσαύρ	-11.6965
▁διαμορφώσ	-11.6965
▁διπλωματία	-11.6965
▁δυαδικ	-11.6965
▁ελεγχόμεν	-11.6965
▁ενθουσιάζ	-11.6965
▁εξαιρέσει	-11.6965
▁επίσκεψη	-11.6965
▁θέρμανση	-11.6965
▁ιθαγεν	-11.6965
▁καθοδήγηση	-11.6965
▁λιβελούλ	-11.6965
▁πανίσχυρ	-11.6965
▁πτερύγι	-11.6965
▁ραδιοφωνικ	-11.6965
▁στοιχειώδ	-11.6965
▁συλλαμβάν	-11.6965
▁συναισθημάτων	-11.6965
▁σωματιδί	-11.6965
▁ταχύτατ	-11.6965
▁υιοθέτησ	-11.6965
▁υπενθυμίσ	-11.6965
▁υπευθυνότητα	-11.6965
▁φιλοσοφικ	-11.6965
▁εταιρειών	-11.6965
▁προετοιμασμέν	-11.6965
▁απέκτησε	-11.6965
▁κόμικ	-11.6965
▁μεταρρύθμιση	-11.6965
▁φυλάκιση	-11.6965
▁Αποτελεί	-11.6965
▁οικειότητα	-11.6965
▁ομότιμ	-11.6965
▁στομάχι	-11.6965
▁συνοψίσ	-11.6965
▁τυφών	-11.6965
▁ταίριαζ	-11.6965
▁απελευθερώνει	-11.6965
▁διάμετρο	-11.6965
▁διάσωση	-11.6965
▁παρέμειν	-11.6965
▁υποβάλλ	-11.6965
▁ανοχή	-11.6965
▁άνεση	-11.6965
▁υπέρηχο	-11.6965
▁άστεγο	-11.6965
▁Τσαρλ	-11.6965
▁υπόβαθρ	-11.6965
▁εικασί	-11.6966
▁Φράνκ	-11.6966
▁γκρίζ	-11.6966
▁περίφημ	-11.6966
▁Έλλην	-11.6966
▁χώρι	-11.6966
▁μειώνοντα	-11.6966
▁επαγγελματία	-11.6966
▁φιλτράρ	-11.6967
▁κατέβηκ	-11.6967
▁παρείχ	-11.6968
▁ιστότοπο	-11.6969
▁εκδότ	-11.6981
Εγχ	-11.6986
ηγούντα	-11.7024
▁Λίνκο	-11.7026
▁αρνήθηκ	-11.7047
▁πτήσε	-11.7054
▁έφηβ	-11.7062
▁κάθισμ	-11.7065
▁κτίσ	-11.7108
▁χάνοντα	-11.7118
▁παρουσιάστηκ	-11.7122
▁ισχυρισμ	-11.7127
▁εξελίσσοντα	-11.7151
κουβά	-11.7183
▁χρήσ	-11.7217
▁σχεδιάστηκ	-11.722
▁είμαστ	-11.7227
▁δυναμ	-11.7236
▁περίπτωσ	-11.725
κλήρ	-11.7256
▁εκμεταλλευ	-11.7276
Κάιν	-11.7281
αριθμών	-11.7288
▁MIT	-11.7288
▁Ακολουθ	-11.7288
▁Εργαστήρι	-11.7288
▁Ιανουάριο	-11.7288
▁Συνειδητοποίησ	-11.7288
▁έβγαινε	-11.7288
▁αναπάντεχ	-11.7288
▁δεξαμενή	-11.7288
▁διέγερση	-11.7288
▁εκτύπωση	-11.7288
▁ενέπνευσε	-11.7288
▁ενθάρρυν	-11.7288
▁εξωστρεφ	-11.7288
▁επεμβάσε	-11.7288
▁ζωγράφο	-11.7288
▁κουβέντ	-11.7288
▁κουράγιο	-11.7288
▁κυβερνοεγκληματ	-11.7288
▁κυκλοφορού	-11.7288
▁κυνήγι	-11.7288
▁μολύβι	-11.7288
▁νευροεπιστήμον	-11.7288
▁οδυνηρ	-11.7288
▁παθογόν	-11.7288
▁πληκτρολόγι	-11.7288
▁πλημμύρ	-11.7288
▁προγόνους	-11.7288
▁προσαρμόσ	-11.7288
▁προσλαμβάν	-11.7288
▁σιγουριά	-11.7288
▁συγκλονιστικ	-11.7288
▁συναρμολογ	-11.7288
▁ταξίδεψ	-11.7288
▁φιλανθρωπικ	-11.7288
▁φτωχογειτονι	-11.7288
▁χαρτογράφηση	-11.7288
▁χειρόγραφ	-11.7288
▁δίδασκ	-11.7288
▁διασκεδάζ	-11.7288
▁νεύρα	-11.7288
▁προσεγγίζ	-11.7288
▁συγκροτ	-11.7288
▁αφηγητ	-11.7288
▁ιδιοφυ	-11.7288
ξπηρ	-11.7288
▁μετάφραση	-11.7288
▁βόρειο	-11.7288
▁επιμονή	-11.7288
▁μετανάστε	-11.7288
▁τρυφερ	-11.7288
▁αποκαλέσ	-11.7288
▁Δεδομέν	-11.7288
▁προτιμήσ	-11.7288
▁μπαλάκι	-11.7288
▁απέκτησα	-11.7288
▁φράσεις	-11.7288
▁ικανοποιημένο	-11.7288
▁δίδυμ	-11.7288
▁πλοία	-11.7288
▁στεγν	-11.7288
▁προβληματικ	-11.7289
▁κόβει	-11.7289
▁Ανάμεσ	-11.7289
▁πιάνει	-11.7289
▁αγρι	-11.729
▁εξαρτώντα	-11.7292
▁πιστωτικ	-11.7294
▁μιμεί	-11.7305
▁σκελετικ	-11.7305
▁φαντάσ	-11.731
▁πτώμα	-11.7313
▁διορθώσου	-11.7407
▁περισσότερ	-11.7469
▁φανταζό	-11.7489
πραντ	-11.7502
▁βιασμ	-11.7541
▁κλιματικ	-11.7568
▁τραγουδήσ	-11.758
▁προσέγγισ	-11.7583
▁εκπαίδευσ	-11.7583
▁καμπύλ	-11.7583
▁πραγματικότητ	-11.7612
χωριού	-11.7612
οθεραπεία	-11.7621
συναρμολόγηση	-11.7621
▁Άρχισε	-11.7621
▁Βιετνάμ	-11.7621
▁Μπρούκλιν	-11.7621
▁Σομαλία	-11.7621
▁Τελευταί	-11.7621
▁έτρωγα	-11.7621
▁ακρόαση	-11.7621
▁αντιλαμβάνεσ	-11.7621
▁απελπισία	-11.7621
▁βετεράνο	-11.7621
▁γεωγραφία	-11.7621
▁δασκάλων	-11.7621
▁εμφύλιο	-11.7621
▁ζυγίζει	-11.7621
▁καρδιοπάθει	-11.7621
▁λεκάνη	-11.7621
▁μεταλλάξεις	-11.7621
▁νομοθεσία	-11.7621
▁ξηρασία	-11.7621
▁παντελόνι	-11.7621
▁πρωτεύοντ	-11.7621
▁σκεπτόμενο	-11.7621
▁συκώτι	-11.7621
▁συνάδελφό	-11.7621
▁σύγχυση	-11.7621
▁υποτροφί	-11.7621
▁υψόμετρ	-11.7621
▁φροντίζει	-11.7621
▁Ατλαντικ	-11.7621
▁Δοκιμ	-11.7621
▁Τανζανία	-11.7621
▁Τασμανία	-11.7621
▁ανεργία	-11.7621
▁αντάλλα	-11.7621
▁βατράχ	-11.7621
▁διαπραγματευ	-11.7621
▁επίτευγμ	-11.7621
▁επηρέασ	-11.7621
▁μετέτρεψ	-11.7621
▁μοναχικ	-11.7621
▁οφθαλμ	-11.7621
▁σήκωσ	-11.7621
▁χειρούργο	-11.7621
▁Λευκό	-11.7621
▁εμπεριέχ	-11.7621
▁θάμνο	-11.7621
▁λιμάνι	-11.7621
▁πρόσεξα	-11.7621
▁ψυχαγωγία	-11.7621
▁πακέτα	-11.7621
▁Αδάμ	-11.7621
▁Επιτροπή	-11.7621
▁οραματιστ	-11.7621
▁προσθέτου	-11.7621
▁αφιέρω	-11.7621
▁διασταυρ	-11.7621
▁εκδηλώσ	-11.7621
▁σοδει	-11.7621
▁διαμερίσματ	-11.7621
▁αποβλή	-11.7621
▁περιουσία	-11.7621
▁φούρνο	-11.7621
▁πάθηση	-11.7621
▁Ατλάντ	-11.7621
▁κρασι	-11.7621
▁φράχτ	-11.7621
▁αποτελούσ	-11.7621
▁πανταχο	-11.7621
▁ακουγό	-11.7621
▁μεταφραστ	-11.7621
▁κόλλα	-11.7622
▁Πήγαινε	-11.7622
▁πνιγ	-11.7622
▁δηλητήρι	-11.7622
▁λαμπτήρ	-11.7622
▁δεχτού	-11.7622
▁Άκουσ	-11.7623
▁εισιτήρι	-11.7625
λήπτ	-11.7625
▁επινοήσ	-11.7627
▁Τύπο	-11.7631
▁φαντάζεσ	-11.7635
▁ενεργοποιήσου	-11.7639
▁ενωμέν	-11.7645
όδρομο	-11.7655
▁γλωσσικ	-11.766
▁μετατρέποντα	-11.7664
▁σβήσ	-11.7676
▁ρυθμίζ	-11.7679
όλιθο	-11.7687
μεγέθη	-11.7771
▁δικαστικ	-11.7772
▁αποκάλεσ	-11.7794
▁επιθυμί	-11.7802
▁θερμοκρασί	-11.7802
▁αλήθει	-11.7803
▁τηλεφώνησ	-11.783
οποιητ	-11.7863
▁μειώθηκ	-11.7875
▁χρηματοδότ	-11.7964
ohn	-11.7966
αθροίσματος	-11.7966
▁Αμαζόνιο	-11.7966
▁Απίστευτ	-11.7966
▁Δούλεψ	-11.7966
▁Ειρήνη	-11.7966
▁Ειρηνικό	-11.7966
▁Ναμίμπι	-11.7966
▁Οκτώβριο	-11.7966
▁Περπατ	-11.7966
▁Σιάτλ	-11.7966
▁Σκεφτήκα	-11.7966
▁Στίβεν	-11.7966
▁έντομο	-11.7966
▁έφτιαχνα	-11.7966
▁αηδιαστικ	-11.7966
▁ανήσυχο	-11.7966
▁ανακούφιση	-11.7966
▁αναπτυξιακ	-11.7966
▁απελπισμέν	-11.7966
▁βλάστηση	-11.7966
▁γενναιοδωρία	-11.7966
▁διασκεδάσ	-11.7966
▁εκπέμπει	-11.7966
▁εκπλήξει	-11.7966
▁ελικόπτερ	-11.7966
▁ενσωμάτωση	-11.7966
▁εξωφρενικ	-11.7966
▁εφευρέθηκ	-11.7966
▁ζούγκλα	-11.7966
▁θεμέλιο	-11.7966
▁ινστιτούτ	-11.7966
▁καφετέρι	-11.7966
▁κυβέρνησή	-11.7966
▁κωμωδία	-11.7966
▁κύλινδρο	-11.7966
▁λάμψη	-11.7966
▁νοικοκυρι	-11.7966
▁ξεφύγει	-11.7966
▁παραβίαση	-11.7966
▁περιέγραψα	-11.7966
▁περιφερειακ	-11.7966
▁στάθμευση	-11.7966
▁συμπεριφέρεται	-11.7966
▁συναρπάζ	-11.7966
▁συντρόφου	-11.7966
▁φράκταλ	-11.7966
▁χειροπιαστ	-11.7966
▁Αποδείχ	-11.7966
▁επιθυμεί	-11.7966
▁μεγεθύν	-11.7966
▁μελωδί	-11.7966
▁πυροσβεστ	-11.7966
▁φαινομέν	-11.7966
▁χαιρετ	-11.7966
▁Ιησού	-11.7966
▁έμφυτ	-11.7966
▁βαλβίδ	-11.7966
▁εργαζομέν	-11.7966
▁αντιληπτ	-11.7966
σφαιρα	-11.7966
▁Νατάσα	-11.7966
▁συνοψίζ	-11.7966
▁φαλαιν	-11.7966
▁γελοιογραφ	-11.7966
▁περιουσιακ	-11.7966
▁καρπού	-11.7966
γκαλερί	-11.7966
▁σκόπιμ	-11.7966
▁Φίλιπ	-11.7966
▁αποδειχθ	-11.7966
▁αφίσα	-11.7966
▁Ρώσο	-11.7966
▁ξέσπασ	-11.7966
κατεστημέν	-11.7966
▁επιβιώνου	-11.7967
▁παραβιάσ	-11.7967
ούργημ	-11.7968
▁μισθού	-11.7968
▁αντάρτ	-11.7973
▁νοικι	-11.7975
▁Αναφέρ	-11.7977
▁φωτογραφίσ	-11.798
δομημέν	-11.7982
▁διακοσ	-11.7985
▁γραμμάτ	-11.7991
▁Μεγάλ	-11.8
μηδενικού	-11.8021
▁επιδόσε	-11.8028
▁ρήμα	-11.8031
▁τηλέφων	-11.8067
πολιτισμικ	-11.8097
▁Ξεκίνησ	-11.8103
▁Δημιουργήσα	-11.8106
▁αντιλήψε	-11.8116
▁δημοκρατί	-11.816
▁ψηφίζου	-11.8195
▁δυστυχισμέν	-11.8243
▁συνέβαιν	-11.8261
▁περιέργ	-11.8323
ηγορία	-11.8323
ποθέσει	-11.8323
▁προετοιμαστ	-11.8323
▁ταλαιπωρ	-11.8323
▁Έρχετ	-11.8323
▁Ειρηνικού	-11.8323
▁Ευρωπαίο	-11.8323
▁Κεντρική	-11.8323
▁Ντίσνε	-11.8323
▁Παλαιστίνη	-11.8323
▁ίδρυσ	-11.8323
▁ανεπάρκεια	-11.8323
▁αντανακλά	-11.8323
▁αντικατάσταση	-11.8323
▁αντιλαμβάνομα	-11.8323
▁ασχολούμαστ	-11.8323
▁βιοτεχνολογία	-11.8323
▁γουρούνι	-11.8323
▁γραμματοσειρ	-11.8323
▁εκμεταλλεύ	-11.8323
▁επανειλημμέν	-11.8323
▁επισκεφθ	-11.8323
▁επώδυν	-11.8323
▁ερασιτέχν	-11.8323
▁ευγνωμοσύνη	-11.8323
▁ζαχαρωτ	-11.8323
▁ζωγράφισ	-11.8323
▁ηφαίστει	-11.8323
▁θλιβερ	-11.8323
▁ισοδύναμ	-11.8323
▁μέγιστη	-11.8323
▁μεταρρυθμίσει	-11.8323
▁μετατόπιση	-11.8323
▁ουδέτερ	-11.8323
▁πέτυχα	-11.8323
▁παραμύθι	-11.8323
▁περιστασιακ	-11.8323
▁πιθήκου	-11.8323
▁πορτοφόλι	-11.8323
▁προετοιμάζ	-11.8323
▁προοδευτικ	-11.8323
▁πρωταγωνιστ	-11.8323
▁πυγολαμπίδ	-11.8323
▁στέγαση	-11.8323
▁υποχρέωσ	-11.8323
▁φάκελο	-11.8323
▁φούσκες	-11.8323
ενισχυ	-11.8323
▁Sky	-11.8323
▁Οργανισμό	-11.8323
▁Τέλεια	-11.8323
▁απαγόρευσ	-11.8323
▁εμπλακού	-11.8323
▁ενημερωμέν	-11.8323
▁ριψοκίνδυν	-11.8323
▁γενναίο	-11.8323
▁κατοχή	-11.8323
▁νόστιμ	-11.8323
▁πειρασμό	-11.8323
▁Εργάζ	-11.8323
▁πρόσφερ	-11.8323
▁αλληλογραφία	-11.8323
▁φυσαλίδ	-11.8323
▁Τέτοι	-11.8323
▁σηκώθηκ	-11.8323
▁χρώση	-11.8323
▁ψύχ	-11.8323
▁άγριο	-11.8323
▁φύκι	-11.8323
▁ανήθικ	-11.8323
▁προπονητ	-11.8323
▁Κούβα	-11.8323
▁κοιλιά	-11.8323
▁δώδεκ	-11.8323
▁καλωδί	-11.8323
▁αποσπάσματ	-11.8323
▁υδάτ	-11.8323
▁αποχωρ	-11.8323
▁καθορίσου	-11.8323
▁φαβέλ	-11.8323
▁στίχο	-11.8324
▁παύση	-11.8324
▁κραυγ	-11.8324
▁εκτιμώ	-11.8324
▁θεαματικ	-11.8326
▁πλοηγ	-11.8328
▁περιοριστ	-11.833
▁κάτσε	-11.833
▁οράματ	-11.833
▁προερχό	-11.8331
▁δημοσιεύτηκ	-11.8374
μωρού	-11.8382
▁εξαφανίσ	-11.8424
▁κινηθού	-11.8504
▁απώλει	-11.853
▁ταχύτητ	-11.853
▁εμπλέκ	-11.8609
▁καταναλωτικ	-11.8629
▁εκατοντάδ	-11.864
▁ανακατασκευ	-11.8689
κρυπτογράφηση	-11.8694
▁Lego	-11.8694
▁Ένιωθα	-11.8694
▁Δημιούργησ	-11.8694
▁Πίστευα	-11.8694
▁Συνέχισ	-11.8694
▁Τυνησία	-11.8694
▁άφηνα	-11.8694
▁έβγαινα	-11.8694
▁απάντησή	-11.8694
▁γεωμετρία	-11.8694
▁διάρροια	-11.8694
▁διηγηθώ	-11.8694
▁επίτευξη	-11.8694
▁επιθυμητ	-11.8694
▁εργαστού	-11.8694
▁εσωστρεφ	-11.8694
▁εφηύρε	-11.8694
▁κυβερνοχώρο	-11.8694
▁κυριολεξία	-11.8694
▁λαϊκή	-11.8694
▁μετάλλαξη	-11.8694
▁μπαταρίες	-11.8694
▁μπογιά	-11.8694
▁ξόδεψ	-11.8694
▁πίθηκο	-11.8694
▁πολυεθνικ	-11.8694
▁ρύπανση	-11.8694
▁συμπόνοια	-11.8694
▁σύμπλεγμ	-11.8694
▁υπερασπιστ	-11.8694
▁ψηφοφορία	-11.8694
▁αβοήθητ	-11.8694
▁αγκώνα	-11.8694
▁αναθεωρήσ	-11.8694
▁αναμενόμενο	-11.8694
▁διερευνήσ	-11.8694
▁επεξεργαστή	-11.8694
▁κολυμπήσ	-11.8694
▁κολυμπού	-11.8694
▁μαγείρε	-11.8694
▁πράκτορ	-11.8694
▁πτέρυγ	-11.8694
▁ύποπτ	-11.8694
▁στιγμιότυπ	-11.8694
▁υπομονή	-11.8694
▁Ειλικρ	-11.8694
▁επιπλοκ	-11.8694
▁Δευτέρ	-11.8694
▁προδιαγραφ	-11.8694
▁βραδιά	-11.8694
▁απόγνωση	-11.8694
▁σάρκα	-11.8694
▁σαλόνι	-11.8694
▁στίγμα	-11.8694
▁διαλέξου	-11.8694
▁ανωμαλί	-11.8694
▁απαιτούσ	-11.8694
▁απορρίψ	-11.8694
▁έμμεσ	-11.8694
▁φθορ	-11.8694
προσώπω	-11.8694
εξοχή	-11.8694
▁Σχεδιάζ	-11.8695
▁τούβλ	-11.8696
▁έφαγ	-11.8696
▁καταστραφ	-11.8698
▁βαρυτικ	-11.8698
▁ηρωικ	-11.8701
▁χρωματιστ	-11.8701
▁κλείνου	-11.8702
αρομοίω	-11.8714
▁ανεκτικ	-11.8715
▁αποτρέπ	-11.8721
▁παρατήσ	-11.8731
▁χωρέσ	-11.8768
▁διπλωμάτ	-11.8789
επιστημονικ	-11.8791
▁επιφέρ	-11.88
▁δέχοντα	-11.8821
Αφρικανοί	-11.8877
▁υλοποίησ	-11.8878
▁καταστήματ	-11.8992
▁διαδρομ	-11.9026
▁γέννησ	-11.904
▁Φαντασ	-11.9077
▁επεξεργαστού	-11.9078
▁CRISPR	-11.9078
▁iPad	-11.9078
▁Βραβείο	-11.9078
▁Γαλαξία	-11.9078
▁Δείχνει	-11.9078
▁Κολομβία	-11.9078
▁Πιθανώ	-11.9078
▁Χρειάζομα	-11.9078
▁Ωκεανό	-11.9078
▁άλμπουμ	-11.9078
▁έκπληκτ	-11.9078
▁έμπαινα	-11.9078
▁αγνώστου	-11.9078
▁ακατέργαστ	-11.9078
▁ανατολή	-11.9078
▁απεγνωσμέν	-11.9078
▁απλοϊκ	-11.9078
▁αποκωδικοποι	-11.9078
▁απολιθώματ	-11.9078
▁αποταμίευση	-11.9078
▁βορρά	-11.9078
▁δικτύωμ	-11.9078
▁δυσπιστία	-11.9078
▁εισήγαγ	-11.9078
▁εκπλαγεί	-11.9078
▁εκτεθειμέν	-11.9078
▁εξόρυξη	-11.9078
▁επιχειρηματολογ	-11.9078
▁κατέγραψ	-11.9078
▁κυκλοφόρησ	-11.9078
▁μελισσών	-11.9078
▁μεσάνυχτα	-11.9078
▁μετατράπηκ	-11.9078
▁μπάσκετ	-11.9078
▁μπαστούνι	-11.9078
▁μπονόμπο	-11.9078
▁μυστηριώδη	-11.9078
▁ονόμασε	-11.9078
▁πολυτέλεια	-11.9078
▁προπαγάνδα	-11.9078
▁προσαρμοστού	-11.9078
▁πρωτοποριακ	-11.9078
▁πρόσκληση	-11.9078
▁σύντηξη	-11.9078
▁τιμολόγηση	-11.9078
▁υποδεικνύε	-11.9078
▁χρωμοσώματ	-11.9078
▁χωροχρόνο	-11.9078
▁ανεπιθύμητ	-11.9078
▁ανταλλάσ	-11.9078
▁αντιστέκ	-11.9078
▁αρρωσταίν	-11.9078
▁αυθεντί	-11.9078
▁ελληνικ	-11.9078
▁εμπιστευτ	-11.9078
▁εμπλακεί	-11.9078
▁εφευρίσκ	-11.9078
▁κυκλοφοριακ	-11.9078
▁μυθολογία	-11.9078
▁νόμιζε	-11.9078
▁οικοδόμη	-11.9078
▁πνευμον	-11.9078
▁σταγόνες	-11.9078
▁Σχολείο	-11.9078
▁κατάστασή	-11.9078
▁οφθαλμαπάτ	-11.9078
▁πέταξε	-11.9078
▁Δούλευ	-11.9078
▁Υεμένη	-11.9078
▁αποτρέψου	-11.9078
▁προληπτικ	-11.9078
▁απόφοιτο	-11.9078
▁παραμικρ	-11.9078
▁κινήτρ	-11.9078
▁Τζέρσε	-11.9078
▁καταχωρ	-11.9078
▁σφαιρ	-11.9078
▁μετακινηθού	-11.9078
▁φυλλάδι	-11.9078
▁γέμισ	-11.9078
▁συμμορί	-11.9079
▁κινούμαστ	-11.9079
βαλίτσ	-11.9079
▁επιβεβαιώσ	-11.9079
▁πλείστ	-11.9079
▁κουκίδ	-11.908
▁εννοούσ	-11.9081
▁τρελαίν	-11.9096
▁καινούργι	-11.91
▁συμπτωμ	-11.9134
▁τρομοκρατικ	-11.9143
▁προσέφερ	-11.9168
▁ξενοδοχεί	-11.9174
▁Inte	-11.9185
▁Ασφαλ	-11.9247
τεχνολογικά	-11.926
▁αποτυχί	-11.9314
▁χρόνι	-11.9315
▁κερδοσκοπικ	-11.9384
▁Ανατολικ	-11.9425
▁υποστήριξ	-11.944
▁εκατομμυρί	-11.9458
▁προστατέψου	-11.9478
ight	-11.9478
Χριστούγεννα	-11.9478
άθλημα	-11.9478
αντιδραστήρες	-11.9478
κατασταθεί	-11.9478
▁Αδελφ	-11.9478
▁Ανάπτυξη	-11.9478
▁Ανακαλύψ	-11.9478
▁Δικαστήρι	-11.9478
▁Εκκλησία	-11.9478
▁Επιστημών	-11.9478
▁Καρολίνα	-11.9478
▁Περίμεν	-11.9478
▁άνοιξα	-11.9478
▁ανέκδοτ	-11.9478
▁αντιπαράθεση	-11.9478
▁ασταμάτητ	-11.9478
▁βελόνα	-11.9478
▁διασύνδεση	-11.9478
▁εγκυμοσύνη	-11.9478
▁εμπνευστ	-11.9478
▁εξοικονόμηση	-11.9478
▁επιδράσει	-11.9478
▁εργάστηκα	-11.9478
▁ευσπλαχνία	-11.9478
▁εφιάλτ	-11.9478
▁κάρβουνο	-11.9478
▁κυριότερο	-11.9478
▁μέντορ	-11.9478
▁μετακινούντα	-11.9478
▁νεογέννητ	-11.9478
▁πεπρωμένο	-11.9478
▁προσαρμοσμέν	-11.9478
▁συμβιβασμό	-11.9478
▁σφιχτ	-11.9478
▁τρυβλί	-11.9478
▁υποσαχάρια	-11.9478
▁Κινεζικ	-11.9478
▁ίσχυ	-11.9478
▁αξιωματικ	-11.9478
▁αρπακτικ	-11.9478
▁αφροαμερικαν	-11.9478
▁διπλασιάσ	-11.9478
▁ενοχλεί	-11.9478
▁μετακινείται	-11.9478
▁μετακινηθεί	-11.9478
▁ποδηλατ	-11.9478
▁τρομαχτικ	-11.9478
▁υποσυνείδητ	-11.9478
▁υποχρεωτικ	-11.9478
▁Εποχή	-11.9478
▁ακτιβισμ	-11.9478
▁αλτρουισμ	-11.9478
▁εμφύτευ	-11.9478
▁εργαστηρί	-11.9478
▁σερβιέτ	-11.9478
▁συντελεστ	-11.9478
▁Προσωπικ	-11.9478
▁μαμούθ	-11.9478
▁Κρίστο	-11.9478
εγείρει	-11.9478
▁παντρεμέν	-11.9478
▁εκτυπώσ	-11.9478
▁κηδεί	-11.9478
▁Μεγαλώ	-11.9478
▁εγκαταλείπου	-11.9478
▁τρομάζ	-11.9478
▁γαλλικ	-11.9478
▁γλιτώσ	-11.9478
▁διάσειση	-11.9478
▁κόλλησ	-11.9478
▁προσγειωθ	-11.9478
▁παρουσιαστ	-11.9478
▁ανοησί	-11.9478
▁βασιλικ	-11.9478
▁γράφοντα	-11.9478
▁φώναζ	-11.9479
▁Ισλαμικ	-11.9479
▁κατεβαίνου	-11.9479
▁έκτακτ	-11.9479
διαστολή	-11.948
▁βασανιστ	-11.9481
▁σώζου	-11.9493
▁Αρχίζου	-11.9534
▁σαρωτ	-11.9668
▁λειτουργήσου	-11.9697
ίπτωση	-11.9699
▁καλλιτέχν	-11.9803
▁οπτικοποι	-11.9818
▁μεθόδ	-11.9886
μέτωπο	-11.9892
ymp	-11.9895
▁Nation	-11.9895
▁Βοσνί	-11.9895
▁ΔΕΠ	-11.9895
▁Θάλασσα	-11.9895
▁Ισλανδία	-11.9895
▁Πεκίνο	-11.9895
▁Σελήνη	-11.9895
▁Τραγούδι	-11.9895
▁Φιλαδέλφεια	-11.9895
▁έψαχνε	-11.9895
▁αγωνία	-11.9895
▁αμφίδρομ	-11.9895
▁αναλογιστού	-11.9895
▁απήχηση	-11.9895
▁απρόβλεπτ	-11.9895
▁αφηγήσεις	-11.9895
▁βασίλισσα	-11.9895
▁διαλέξω	-11.9895
▁εκμετάλλευση	-11.9895
▁εκπέμπου	-11.9895
▁ενδυνάμωση	-11.9895
▁ενστικτωδ	-11.9895
▁ενσωματώνε	-11.9895
▁εξέγερση	-11.9895
▁επεμβατικ	-11.9895
▁εργαστηριακ	-11.9895
▁εφευρέσε	-11.9895
▁ιεραρχία	-11.9895
▁ινσουλίνη	-11.9895
▁καπετάνιο	-11.9895
▁κηπουρ	-11.9895
▁κομματάκι	-11.9895
▁κυκλοφορεί	-11.9895
▁μακροζωία	-11.9895
▁μοναξιά	-11.9895
▁ντουζίνα	-11.9895
▁πέθαινα	-11.9895
▁περιέγραψε	-11.9895
▁περπάτημ	-11.9895
▁προσαρμοστεί	-11.9895
▁ράβδο	-11.9895
▁σινιάλ	-11.9895
▁συναντιούντα	-11.9895
▁συνεισφορά	-11.9895
▁ταχυδρομείο	-11.9895
▁τυλίγ	-11.9895
▁Αλάσκα	-11.9895
▁Ιάπων	-11.9895
▁Πληροφορ	-11.9895
▁Σαγκάη	-11.9895
▁αποκαταστήσ	-11.9895
▁εκτόξευση	-11.9895
▁μεταφερθεί	-11.9895
▁πισίνα	-11.9895
▁πυροβολισμ	-11.9895
▁ταξινομ	-11.9895
▁φρόντιζ	-11.9895
▁Intern	-11.9895
▁έκλαιγ	-11.9895
▁διαστέλλ	-11.9895
▁εξαπλώθηκ	-11.9895
▁πέταξα	-11.9895
▁υπόψιν	-11.9895
γνήσιο	-11.9895
▁μαέστρο	-11.9895
▁εκτοξευ	-11.9895
▁κόλαση	-11.9895
▁παγιδεύ	-11.9895
▁προτύπ	-11.9895
▁βελτιωμέν	-11.9895
▁αντιλήφθηκ	-11.9895
▁κατέχου	-11.9895
▁τομογράφο	-11.9895
▁Σοβαρ	-11.9895
▁ιστολόγι	-11.9895
▁απαιτούμε	-11.9895
▁αυταρχικ	-11.9895
▁ορθολογικ	-11.9895
▁άθροισ	-11.9895
▁θνητ	-11.99
▁ακτινογραφί	-11.9948
κυριαρχία	-11.9951
▁υπέφερ	-11.9979
▁διοικητικ	-11.9986
▁συμπεριλάβου	-11.9987
▁κατασκευάστηκ	-12.0013
▁εβδομάδ	-12.0112
▁Προέρχ	-12.0124
σφαλείας	-12.0137
▁χωρισμέν	-12.0145
▁καθαρίζε	-12.0151
▁ισορροπ	-12.024
σκάφη	-12.0271
επαγγελματ	-12.0284
▁θυμίζ	-12.0291
▁βιβλιοθήκ	-12.0291
νώρισα	-12.0327
έλκυση	-12.033
αμφίβολ	-12.033
γκυκλοπαίδεια	-12.033
▁Αντιμετωπί	-12.033
▁Απάντησα	-12.033
▁Αργεντινή	-12.033
▁Βασιλείου	-12.033
▁Βενεζουέλα	-12.033
▁Γραφείο	-12.033
▁Ελέγχου	-12.033
▁Μαλδίβ	-12.033
▁Σύλβια	-12.033
▁έβρισκε	-12.033
▁αμαξάκι	-12.033
▁αναψυκτικ	-12.033
▁ανεπίσημ	-12.033
▁ανταγωνίζοντα	-12.033
▁αντιμετωπιστ	-12.033
▁απελπιστικ	-12.033
▁αποικίες	-12.033
▁αράχνες	-12.033
▁αρρωστήσ	-12.033
▁ασυνείδητ	-12.033
▁δελφινι	-12.033
▁εγκατέλειψ	-12.033
▁εγχειρίδι	-12.033
▁εμποδίσου	-12.033
▁ενηλικίωσ	-12.033
▁επεκταθεί	-12.033
▁επικεντρωνό	-12.033
▁εργοστασί	-12.033
▁μητροπολιτικ	-12.033
▁ομίχλη	-12.033
▁πειραματίζ	-12.033
▁ποδόσφαιρο	-12.033
▁πρωτοκύτταρο	-12.033
▁πυρκαγι	-12.033
▁ρουτίνα	-12.033
▁συνέχιζα	-12.033
▁συντριπτικ	-12.033
▁τύμπαν	-12.033
▁υπενθύμισ	-12.033
▁Τεράστι	-12.033
▁άθικτ	-12.033
▁αλλόκοτ	-12.033
▁αντιμετώπιζ	-12.033
▁αφιερωμέν	-12.033
▁διπλασιάζ	-12.033
▁επιδιώκ	-12.033
▁μεγιστοποι	-12.033
▁ολοκληρών	-12.033
▁προεδρικ	-12.033
▁πρωταθλητ	-12.033
▁τριγυρν	-12.033
▁διεκδικ	-12.033
▁εργοδότ	-12.033
▁κατσίκ	-12.033
▁μποτιλι	-12.033
▁ονόμαζ	-12.033
▁σκοτώνοντα	-12.033
▁συμπεραίν	-12.033
▁σβήνου	-12.033
▁συγκινητικ	-12.033
▁τύπω	-12.033
▁σοκαριστικ	-12.033
▁διορατικ	-12.033
▁αγωνίζ	-12.033
▁τραυματί	-12.033
▁λέσχ	-12.033
▁προστατέψε	-12.033
▁προοδεύ	-12.033
▁αναλυτικ	-12.033
φύλαξη	-12.0332
▁συνάψει	-12.0339
▁ειπωθ	-12.0354
▁λογιστικ	-12.0369
▁δραστηρι	-12.0399
συμμετρία	-12.0453
▁στάθηκ	-12.0474
▁πληρώνοντα	-12.0508
▁λυπημέν	-12.0526
▁ενθουσιασ	-12.054
▁κύτταρ	-12.0564
▁βασιζόμαστ	-12.0591
▁μαϊμού	-12.0611
▁γνώρισ	-12.0616
▁χιλιόμετρ	-12.0621
▁δραστηριοποι	-12.0665
▁φαγητ	-12.0732
▁εγκεφάλ	-12.0736
▁αναγνώρισ	-12.0746
▁πραγματοποιού	-12.0763
▁εργασι	-12.0781
▁κυμαίν	-12.0784
▁κύπελ	-12.0784
προσδιορισμό	-12.0784
χρηματοοικονομικ	-12.0784
▁Έφτιαξα	-12.0784
▁Αφροδίτη	-12.0784
▁Βοστόνη	-12.0784
▁Εβραϊκ	-12.0784
▁Σκεφτόμαστ	-12.0784
▁Χρησιμοποίησα	-12.0784
▁αίτηση	-12.0784
▁αναποτελεσματικ	-12.0784
▁ατμοσφαιρικ	-12.0784
▁αυθαίρετ	-12.0784
▁βιντεοπαιχνιδι	-12.0784
▁βοήθειά	-12.0784
▁γνωσιακ	-12.0784
▁διάχυση	-12.0784
▁διεφθαρμέν	-12.0784
▁ενασχόληση	-12.0784
▁ενθουσιάστηκ	-12.0784
▁ενιαίο	-12.0784
▁επέλεξε	-12.0784
▁επέτειο	-12.0784
▁επισκέφτηκ	-12.0784
▁ερεθίσματ	-12.0784
▁θεμελιωδώ	-12.0784
▁καταθλιπτικ	-12.0784
▁καταλύτη	-12.0784
▁κατασκήνωση	-12.0784
▁κορύφωσ	-12.0784
▁λεξιλόγι	-12.0784
▁λογοκρισία	-12.0784
▁μεθοδολογί	-12.0784
▁μολυσματικ	-12.0784
▁ναυτιλία	-12.0784
▁ντροπιαστικ	-12.0784
▁ορφανοτροφεί	-12.0784
▁παρασκήνι	-12.0784
▁παχύσαρκο	-12.0784
▁πληθωρισμ	-12.0784
▁προμετωπιαίο	-12.0784
▁σαφήνεια	-12.0784
▁σπρώχνει	-12.0784
▁στάθμη	-12.0784
▁στρέμματα	-12.0784
▁συγκρότημ	-12.0784
▁φανταχτερ	-12.0784
▁χορτοφάγο	-12.0784
▁ψυχιατρικ	-12.0784
orld	-12.0784
▁Προσπαθήσ	-12.0784
▁έψαξα	-12.0784
▁βούληση	-12.0784
▁κομμουνιστ	-12.0784
▁πολυσύμπαν	-12.0784
▁προκάλεσα	-12.0784
▁τρυπάνι	-12.0784
▁αγχωμέν	-12.0784
▁ενηλίκ	-12.0784
▁Κονγκρέσο	-12.0784
▁Χτύπ	-12.0784
▁αξονικ	-12.0784
▁ανάπηρ	-12.0784
▁θηρευτ	-12.0784
▁πεινασμέν	-12.0784
▁πλημμυρ	-12.0784
▁ανεβάζου	-12.0784
▁αναφορικ	-12.0784
▁απομονώσ	-12.0784
▁επιτρεπό	-12.0785
▁κόστιζ	-12.0785
▁Μεξικαν	-12.0785
▁προγραμμάτ	-12.0785
λυγουντ	-12.0786
▁περιεκτικ	-12.0786
▁νοιαζό	-12.079
▁παραιτηθ	-12.0794
περιθωρ	-12.0799
▁δεχόμαστ	-12.0808
▁αναγκάστηκ	-12.0818
τέσσερα	-12.0975
▁Ανθρωπ	-12.1042
▁χιμπατζή	-12.1087
αισθητικό	-12.1135
▁ερώτησ	-12.1222
▁αποτελεσ	-12.1239
τύχημ	-12.1256
κατοντάδες	-12.1259
▁Σκέφτεσ	-12.126
▁απελευθερωθ	-12.126
▁Έβγαλα	-12.126
▁Κοπεγχάγη	-12.126
▁Σιβηρία	-12.126
▁Τηλεσκόπιο	-12.126
▁άφηνε	-12.126
▁αθανασία	-12.126
▁αλφάβητο	-12.126
▁αμφισβήτησ	-12.126
▁ανίκανο	-12.126
▁ανεβάζει	-12.126
▁αποφασισμέν	-12.126
▁βάτραχο	-12.126
▁βιντεοσκοπ	-12.126
▁βλαστοκυττ	-12.126
Ζ	-12.5143
#	-12.6206
Ά	-12.9769
Θ	-13.2446
Ω	-13.2452
q	-13.8903
%	-14.1943
!	-14.1944
♫	-14.1945
Ή	-14.1946
»	-14.1947
Ό	-14.1948
—	-14.1949
:	-14.195
)	-14.1951
Έ	-14.1952
&	-14.1953
Ί	-14.1953
