<unk>	0
<s>	0
</s>	0
▁,	-2.99793
n	-3.06389
▁.	-3.15864
as	-3.41802
▁	-3.461
▁la	-3.50672
s	-3.55982
▁de	-4.29338
kaj	-4.3112
;	-4.32951
▁&	-4.3589
e	-4.39896
ot	-4.43265
qu	-4.44085
j	-4.55932
▁mi	-4.62661
▁en	-4.68159
▁ni	-4.81237
▁est	-4.84331
o	-4.9497
▁ne	-4.96763
▁ke	-5.05028
▁al	-5.07255
▁vi	-5.12961
▁esta	-5.16613
is	-5.18525
▁Kaj	-5.27224
▁por	-5.27268
▁pri	-5.33479
▁?	-5.37417
a	-5.40686
▁Mi	-5.44783
▁tiu	-5.45527
▁:	-5.51085
▁ili	-5.51874
u	-5.55224
▁kiu	-5.55602
▁tio	-5.63642
▁ĉi	-5.64864
▁ĝi	-5.65419
▁pli	-5.75764
▁kiel	-5.76147
▁el	-5.81818
(	-5.83022
▁)	-5.83022
i	-5.83223
▁da	-5.8559
▁esti	-5.87779
jn	-5.87818
-	-5.88823
▁Se	-5.93763
▁kio	-5.9442
▁oni	-5.94481
▁—	-5.95658
aj	-6.00807
▁La	-6.03019
d	-6.0339
▁kiuj	-6.05221
▁Ni	-6.07286
▁tiuj	-6.0958
▁kun	-6.12039
▁mia	-6.13021
▁hav	-6.20208
oj	-6.21274
▁ĝin	-6.23171
▁pov	-6.23862
on	-6.25447
▁fari	-6.25686
▁unu	-6.25783
▁sed	-6.30788
▁per	-6.31604
▁Do	-6.34715
▁tion	-6.37663
▁aŭ	-6.37966
▁ĉiuj	-6.40307
▁li	-6.41625
os	-6.4299
▁kiam	-6.43093
▁Ĉ	-6.44226
▁nur	-6.46483
▁se	-6.48232
▁tie	-6.4956
ado	-6.50398
▁plej	-6.55562
▁pova	-6.55728
▁nia	-6.58319
▁Ĝi	-6.58693
▁tre	-6.61435
▁vol	-6.64426
▁ĉar	-6.66651
▁nun	-6.67571
▁Tio	-6.67934
▁Nu	-6.6839
aŭ	-6.68417
▁dev	-6.68545
▁homoj	-6.68818
▁Ili	-6.69258
▁Jen	-6.7174
m	-6.73596
ĉu	-6.74791
▁far	-6.75404
▁ol	-6.75901
ta	-6.76883
an	-6.76885
▁sci	-6.78439
us	-6.7929
▁do	-6.80267
ante	-6.82418
▁vidas	-6.85162
▁du	-6.86664
▁vere	-6.88291
▁mondo	-6.88563
▁sur	-6.88738
▁tiel	-6.8925
▁dum	-6.89328
▁jaroj	-6.89975
▁Vi	-6.90189
▁ank	-6.91403
▁vidi	-6.93041
▁je	-6.97891
▁Rido	-7.0137
▁laŭ	-7.02797
▁sia	-7.03037
▁diris	-7.03919
▁alia	-7.05931
▁ĉe	-7.07128
▁kie	-7.09155
▁pro	-7.12669
▁Oni	-7.14835
▁ja	-7.1506
▁antaŭ	-7.15118
▁Est	-7.15193
▁vivo	-7.15318
▁Aplaŭdo	-7.16123
▁povu	-7.16425
▁kelkaj	-7.17449
▁granda	-7.18764
▁multe	-7.19381
ajn	-7.22118
▁Tiu	-7.22523
▁Li	-7.23317
▁niaj	-7.23733
▁ŝi	-7.24004
▁ĉiu	-7.24846
▁Kio	-7.25226
▁io	-7.2807
te	-7.28378
ĝas	-7.28544
▁via	-7.28915
▁jen	-7.29114
▁Ne	-7.29162
▁En	-7.29504
▁tiam	-7.31466
▁Ki	-7.32138
▁...	-7.32152
▁bezon	-7.3318
▁aliaj	-7.33922
▁ajn	-7.34136
▁K	-7.36105
▁multaj	-7.36539
▁grava	-7.36809
▁E	-7.36811
▁dir	-7.37519
▁post	-7.386
▁iom	-7.39432
l	-7.39785
▁fakt	-7.3981
▁sen	-7.39945
.	-7.40007
▁iu	-7.40018
▁bone	-7.41489
▁inter	-7.41874
▁eble	-7.425
▁min	-7.45984
eco	-7.46452
▁tri	-7.46872
el	-7.48623
▁A	-7.49414
▁Jes	-7.49983
io	-7.51858
▁trovi	-7.53148
eĉ	-7.53593
taj	-7.53951
ita	-7.54655
▁plu	-7.55591
▁pens	-7.55765
▁havi	-7.55907
ar	-7.56567
▁afero	-7.5845
igi	-7.59949
▁mem	-7.6077
▁tempo	-7.6221
▁M	-7.64086
▁S	-7.65263
▁ĝis	-7.65451
▁Kia	-7.65637
▁-	-7.662
▁kial	-7.6694
▁ĉio	-7.67074
aĵo	-7.67846
▁unua	-7.68062
▁tia	-7.68769
▁Unu	-7.69036
▁tuta	-7.6971
▁tute	-7.7035
▁Dankon	-7.70482
▁B	-7.7057
▁rigard	-7.70796
▁okaz	-7.71097
▁ĉiam	-7.72643
ojn	-7.72971
▁Rid	-7.73863
▁C	-7.74569
▁kon	-7.74641
gas	-7.75573
▁malpli	-7.76034
al	-7.77023
▁Nun	-7.77653
▁ek	-7.77899
▁jam	-7.78319
▁problemo	-7.78636
▁vin	-7.79075
iel	-7.7945
▁re	-7.79749
▁homa	-7.80261
▁milionoj	-7.80393
▁tem	-7.80545
▁ŝajn	-7.80686
iĝis	-7.80789
lt	-7.81502
simple	-7.81674
▁bakterioj	-7.81814
▁Bone	-7.81819
▁bona	-7.8213
▁kiom	-7.82237
▁nova	-7.82294
▁korpo	-7.82579
▁tra	-7.82581
▁ĉeloj	-7.82679
uloj	-7.8394
▁kred	-7.85273
gt	-7.86236
▁kontraŭ	-7.86257
▁ĉirkaŭ	-7.86322
▁nenia	-7.88089
▁kvin	-7.8824
to	-7.89261
▁maniero	-7.89425
▁poste	-7.89914
▁sufiĉ	-7.90126
▁diri	-7.9087
▁tiom	-7.91017
▁aferoj	-7.91124
▁Usono	-7.91527
am	-7.91608
▁tro	-7.92567
▁ideo	-7.92815
▁akvo	-7.92904
▁mal	-7.93065
–	-7.93344
▁ven	-7.93525
▁infanoj	-7.93841
▁cerbo	-7.94285
y	-7.952
▁estus	-7.95255
▁lerni	-7.96061
▁siaj	-7.96723
▁parto	-7.97448
▁pensi	-7.98533
▁k	-7.99501
▁Ho	-7.9954
▁paroli	-7.99813
isto	-8.00315
▁Por	-8.00977
▁sin	-8.0224
▁jaro	-8.03112
G	-8.03858
▁lumo	-8.04147
▁kompreni	-8.04584
▁kvar	-8.04889
▁ankoraŭ	-8.05009
▁ŝat	-8.0502
▁lingvo	-8.06292
eble	-8.06843
▁komenci	-8.072
aro	-8.07253
igis	-8.07372
▁P	-8.08594
▁sama	-8.09469
▁momento	-8.09734
▁for	-8.10438
A	-8.11226
▁insektoj	-8.11676
▁I	-8.11921
aĵoj	-8.12104
anta	-8.12778
▁proksim	-8.12816
▁sub	-8.12961
▁montr	-8.13126
ro	-8.13337
▁neniu	-8.13617
▁lia	-8.14223
▁T	-8.1503
kaŭ	-8.15125
▁rilat	-8.15227
▁nom	-8.1575
▁uzi	-8.16312
▁miaj	-8.16367
▁antaŭe	-8.16758
▁pren	-8.1706
▁homo	-8.17236
▁lando	-8.17337
▁okazi	-8.17495
▁montri	-8.17848
▁TED	-8.18213
▁Fak	-8.18224
▁lasta	-8.18356
▁kre	-8.18432
▁aĵoj	-8.19027
▁grandaj	-8.20073
▁manĝi	-8.21327
▁ŝanĝi	-8.21553
▁hodiaŭ	-8.21634
▁preni	-8.21903
▁angla	-8.23141
▁kreda	-8.23298
▁10	-8.2401
ujo	-8.24552
▁parol	-8.24585
itaj	-8.25011
foj	-8.2503
▁historio	-8.25119
▁malkovri	-8.25363
▁landoj	-8.25465
▁viv	-8.25593
▁signif	-8.26404
▁tuj	-8.26467
▁projekto	-8.27438
vas	-8.28073
iras	-8.28386
▁mil	-8.28671
▁labor	-8.29133
▁esper	-8.29406
do	-8.2961
ino	-8.29823
▁rapide	-8.29875
▁demando	-8.29915
▁komprenebl	-8.29962
▁vian	-8.30056
▁planedo	-8.30373
▁Eŭropo	-8.30729
antaj	-8.31105
ejo	-8.3189
▁ka	-8.32162
▁bildo	-8.32741
iĝo	-8.33097
▁Ebl	-8.33482
▁ekzista	-8.33488
▁krei	-8.34011
▁kune	-8.34141
▁Ti	-8.34249
▁ebl	-8.34249
▁fin	-8.34318
nove	-8.34496
▁kia	-8.34871
▁pres	-8.35366
jara	-8.35559
▁Afriko	-8.36209
▁ĝust	-8.36246
ege	-8.36462
▁i	-8.37065
▁doni	-8.37742
▁iam	-8.38286
ebla	-8.38979
apos	-8.39069
▁komenc	-8.39093
▁uz	-8.39583
ulo	-8.40434
▁20	-8.41012
▁ebla	-8.42045
▁tago	-8.42071
▁Tiel	-8.42188
iris	-8.42393
▁iri	-8.42787
▁tiaj	-8.43779
are	-8.44209
▁vorto	-8.44321
▁ses	-8.44391
▁uza	-8.44703
ume	-8.44998
K	-8.45099
▁Tia	-8.45375
▁vilaĝo	-8.45464
▁D	-8.45758
▁regulaĵoj	-8.45977
ion	-8.46264
▁homojn	-8.4627
▁video	-8.4629
istoj	-8.4689
▁kresk	-8.47076
▁sistemo	-8.47184
▁efektiv	-8.47345
▁medio	-8.4739
▁200	-8.47829
eto	-8.48157
▁simpla	-8.48164
▁spektantaro	-8.48164
▁haŭto	-8.48359
ĉ	-8.49258
▁iuj	-8.49639
▁stranga	-8.4975
antoj	-8.50301
▁rigardi	-8.50352
▁filmo	-8.51042
▁propra	-8.51044
▁ekzemple	-8.51413
▁situacio	-8.51461
▁diversaj	-8.51467
▁demandi	-8.51651
▁helpi	-8.5173
nta	-8.52234
▁energio	-8.52265
▁organoj	-8.52749
▁vortoj	-8.52849
▁2	-8.52907
▁rakonto	-8.52977
▁malsamaj	-8.53298
▁anstataŭ	-8.53313
▁prov	-8.53408
▁karto	-8.53612
▁virinoj	-8.54147
▁Post	-8.5473
▁Dum	-8.54853
▁Ok	-8.55132
▁Irano	-8.55218
▁pensa	-8.5533
▁mano	-8.55553
▁Mia	-8.55772
ata	-8.55923
▁nombro	-8.55964
▁rido	-8.56081
▁Kiu	-8.57027
ter	-8.57708
▁fariĝi	-8.58133
▁monatoj	-8.58511
▁ĝia	-8.58984
▁memor	-8.59041
▁libro	-8.59166
▁facile	-8.5945
▁faru	-8.59639
▁Tam	-8.59652
▁ia	-8.60079
▁ĉiutag	-8.60338
▁fariĝ	-8.60501
▁scii	-8.61171
▁vera	-8.61485
▁Biblio	-8.61787
▁sep	-8.61847
▁decidi	-8.62306
▁nenio	-8.62409
▁helpo	-8.62696
▁sola	-8.63298
▁dezir	-8.63646
000	-8.64045
▁sam	-8.64215
▁kartoj	-8.64284
▁L	-8.64338
▁materialo	-8.64633
▁dek	-8.64694
▁ricevi	-8.65003
▁Dio	-8.65517
▁Ciro	-8.65544
▁registaro	-8.65783
omete	-8.65879
▁kvanto	-8.66343
▁dua	-8.66455
▁elekti	-8.66816
h	-8.66853
▁domo	-8.6718
▁kompren	-8.67262
ĵoj	-8.6742
▁atingi	-8.67661
▁F	-8.68181
▁natur	-8.68748
▁ricev	-8.68761
roj	-8.68958
▁signifa	-8.69252
▁kvazaŭ	-8.69291
▁Aŭ	-8.69294
▁ofte	-8.69342
▁filo	-8.69344
▁estonteco	-8.69493
▁malfacila	-8.69746
▁aŭdi	-8.7054
▁enhavo	-8.70723
▁bela	-8.7101
▁bestoj	-8.71176
▁respondo	-8.71432
▁Tiuj	-8.71447
▁sperto	-8.71616
▁manĝ	-8.71766
▁eta	-8.71949
▁ekster	-8.72241
▁Ĉi	-8.72402
lo	-8.72417
▁ŝatu	-8.72647
▁bonaj	-8.72736
▁super	-8.72775
▁fakto	-8.72944
tamen	-8.73107
▁po	-8.73248
▁precize	-8.73334
▁Mich	-8.73416
▁ĵus	-8.73427
▁molekulo	-8.7346
▁dolaroj	-8.73778
ga	-8.74106
g	-8.74212
r	-8.74269
▁funkci	-8.74437
▁lernejo	-8.75173
▁krom	-8.75397
▁veni	-8.75523
▁diru	-8.75612
▁viaj	-8.76134
▁fino	-8.76616
▁usona	-8.7679
▁sent	-8.77306
▁provi	-8.77378
▁molekuloj	-8.77439
▁Google	-8.77458
▁Pri	-8.7747
▁radiado	-8.77479
▁rifuĝintoj	-8.77622
▁Ha	-8.77658
▁datumoj	-8.77873
▁Per	-8.78636
▁dank	-8.78696
▁jes	-8.78732
▁malgranda	-8.78761
▁mono	-8.78896
▁estu	-8.79109
▁grandega	-8.79232
▁eblig	-8.79381
▁plastoj	-8.79445
▁ilia	-8.8001
▁opini	-8.80013
▁iliaj	-8.80101
▁40	-8.80116
▁De	-8.80224
▁trov	-8.81313
loj	-8.81868
▁enir	-8.81958
nte	-8.82094
▁Tero	-8.82169
▁tagoj	-8.82183
▁miliardoj	-8.82403
▁studentoj	-8.82519
▁vidu	-8.82604
▁duono	-8.82726
▁scienco	-8.82784
0	-8.82827
la	-8.83131
econ	-8.83319
▁don	-8.83437
▁personoj	-8.83663
▁lin	-8.83705
▁aspekt	-8.83852
▁nu	-8.83974
▁uzis	-8.84321
▁elektro	-8.84947
▁ulo	-8.85092
▁virino	-8.85157
▁nomo	-8.86308
▁Kompren	-8.86351
▁viando	-8.86762
p	-8.86868
▁flanko	-8.86996
▁kapablas	-8.87112
▁iun	-8.87194
▁peco	-8.87302
▁suno	-8.87551
▁danko	-8.87748
▁solvo	-8.87922
▁mirinda	-8.88217
▁troviĝ	-8.88424
▁metodo	-8.88846
▁povo	-8.89351
▁rid	-8.89969
teni	-8.90024
ejoj	-8.90085
▁30	-8.90155
▁loko	-8.90238
men	-8.90286
▁profund	-8.90345
▁Neni	-8.90569
▁Alia	-8.90597
▁partoj	-8.90625
▁kiaj	-8.90892
▁cilindro	-8.91113
▁tutmondiĝo	-8.91135
angel	-8.91147
go	-8.91208
▁Laŭ	-8.91296
▁lern	-8.91362
▁baterio	-8.91437
▁procezo	-8.92042
▁celo	-8.92126
ra	-8.92126
ĝi	-8.92829
▁ok	-8.93034
▁popolo	-8.93107
▁ĉambro	-8.93345
▁longa	-8.93404
▁p	-8.93453
re	-8.93696
▁viro	-8.93741
▁novaj	-8.94051
▁ating	-8.94157
▁rest	-8.94686
▁Brit	-8.94687
▁temo	-8.94945
▁manĝa	-8.94981
▁ge	-8.95044
▁met	-8.95077
t	-8.95182
▁alta	-8.95628
ig	-8.96027
kzemple	-8.96075
▁50	-8.9609
▁Tem	-8.96136
▁nomata	-8.9617
▁reĝo	-8.96272
toj	-8.96423
▁familio	-8.96484
▁matematiko	-8.96519
▁sano	-8.96534
▁klare	-8.96727
▁steloj	-8.96812
▁irana	-8.9717
▁horoj	-8.97583
▁nek	-8.97683
▁metaloj	-8.97751
▁klaso	-8.98001
flanke	-8.98039
▁pasigi	-8.98174
▁ĉ	-8.98478
▁probable	-8.9869
▁Antaŭ	-8.9991
co	-9.00123
anoj	-9.00379
▁R	-9.0065
▁influ	-9.01415
▁spaco	-9.01472
▁Ver	-9.0152
▁sekvi	-9.01608
▁pezo	-9.01712
▁pluraj	-9.01855
aĵon	-9.01995
▁konsider	-9.02038
▁funkcia	-9.02202
▁damo	-9.02216
cio	-9.02288
de	-9.02448
▁atento	-9.0254
▁Mar	-9.02556
▁ratoj	-9.02773
▁teknologio	-9.03062
▁manko	-9.03264
▁sukcesi	-9.03541
▁pentraĵo	-9.03581
▁3	-9.03615
tempe	-9.03675
▁kapablo	-9.0369
▁faro	-9.03759
▁kva	-9.03845
tan	-9.0416
▁nomiĝ	-9.04166
▁simila	-9.04243
N	-9.04263
▁produkt	-9.0447
▁tutmond	-9.04524
▁Kie	-9.04619
▁morto	-9.04659
▁besto	-9.04771
▁malsama	-9.05056
▁enhav	-9.05079
▁manĝaĵo	-9.05154
▁fare	-9.05453
▁nekredebl	-9.05551
▁Ĉiu	-9.06135
▁amas	-9.0617
▁kutim	-9.06254
▁interesa	-9.06342
▁instru	-9.06364
▁formo	-9.06528
▁vivi	-9.06583
▁imagi	-9.0699
▁konduto	-9.07011
▁komenco	-9.07056
▁Du	-9.07096
adon	-9.0761
▁tut	-9.07624
▁planedoj	-9.07874
▁maŝino	-9.08061
ti	-9.08111
▁karbo	-9.08142
▁Ĉiuj	-9.08344
▁menso	-9.08479
▁t	-9.09052
2	-9.09162
▁neces	-9.09261
▁tutmonda	-9.09583
▁sento	-9.0985
▁dis	-9.09939
emaj	-9.10253
▁kreski	-9.10263
▁multo	-9.10395
▁unue	-9.10431
▁aĵo	-9.10489
▁labori	-9.10519
▁Re	-9.10813
▁reago	-9.11013
▁problemoj	-9.11086
▁aplaŭdo	-9.11563
▁legi	-9.11612
ega	-9.11809
igita	-9.12009
▁cel	-9.12256
▁prezent	-9.12319
dis	-9.12601
▁edzin	-9.12814
▁precip	-9.12814
▁ekzakt	-9.12815
▁transviola	-9.12815
▁temperaturo	-9.12815
▁Hind	-9.12817
▁politiko	-9.12818
▁finfin	-9.1282
▁pura	-9.12834
▁wa	-9.12836
c	-9.13001
▁Karo	-9.13033
▁100	-9.13163
▁ree	-9.13194
yl	-9.13195
▁komunumo	-9.13208
▁vivoj	-9.13256
▁laboro	-9.13283
▁fumi	-9.13443
▁propraj	-9.13471
▁malalta	-9.13563
▁punkto	-9.13775
vo	-9.1386
▁aplaŭdoj	-9.14295
▁naŭ	-9.14404
plene	-9.14434
▁evoluo	-9.14534
▁strukturo	-9.14578
▁Nur	-9.14583
▁G	-9.14757
▁bildoj	-9.14884
▁resti	-9.14936
▁konstrui	-9.14947
▁lum	-9.15111
ismo	-9.15156
▁elcento	-9.15184
▁sekva	-9.15186
9	-9.15269
▁deziro	-9.1552
▁esploro	-9.1562
▁Ĉio	-9.15633
▁ekzemplo	-9.15671
▁testo	-9.15793
▁Par	-9.16252
▁vojo	-9.16679
▁kreis	-9.16854
▁akiri	-9.17148
▁cert	-9.174
▁prefer	-9.17402
▁akcepti	-9.17487
▁kal	-9.17847
▁natura	-9.18453
▁skribi	-9.18648
▁homaj	-9.18663
▁malaper	-9.18719
▁Anstataŭ	-9.19064
▁oksigeno	-9.19071
▁genoj	-9.19336
▁ekonomio	-9.19416
▁Ĉini	-9.1959
▁Nov	-9.19611
▁vojaĝo	-9.19657
▁loĝantaro	-9.19741
▁farita	-9.19781
▁preta	-9.19837
ube	-9.20036
k	-9.2017
▁Al	-9.20214
▁kosto	-9.20356
▁procentoj	-9.20424
nkam	-9.20543
das	-9.20741
▁knabinoj	-9.20787
▁aĉeti	-9.20842
▁defio	-9.20883
igo	-9.21152
▁imag	-9.21294
▁limoj	-9.21327
▁ŝia	-9.21354
▁grav	-9.21567
ton	-9.21573
tas	-9.21669
▁starigi	-9.21805
▁ŝanĝ	-9.21864
▁intenc	-9.22042
via	-9.22135
▁paciento	-9.22197
▁respondi	-9.22351
▁eksperimento	-9.22372
▁manĝo	-9.2242
▁12	-9.22541
▁Tie	-9.22543
▁grupo	-9.22915
▁mort	-9.23175
▁sukces	-9.23273
▁glaci	-9.23349
▁amaso	-9.23401
▁konservi	-9.23705
▁speco	-9.23798
▁demand	-9.23808
▁strukturoj	-9.23885
▁bakterio	-9.23937
▁pet	-9.24584
▁Nia	-9.24696
▁unuaj	-9.24793
ataj	-9.24811
▁ĉie	-9.24825
▁meti	-9.24865
▁kredi	-9.25011
▁19	-9.25224
da	-9.25285
▁gravaj	-9.25382
▁produkti	-9.25718
▁taŭga	-9.25719
▁Biosfero	-9.25731
▁patrino	-9.25738
bio	-9.25773
▁hepato	-9.2592
▁Sam	-9.25972
▁kreskigi	-9.26166
▁procedo	-9.26202
▁ig	-9.26225
▁egal	-9.26243
▁ene	-9.26369
▁esenc	-9.26537
iĝi	-9.26606
▁U	-9.26739
▁kaŭz	-9.26995
ĝis	-9.27037
▁elektra	-9.27248
anto	-9.2769
maniere	-9.27793
▁korpoj	-9.27803
▁laboris	-9.27882
▁rajt	-9.27939
▁ordo	-9.27965
maro	-9.28208
▁savi	-9.28216
▁koro	-9.28486
▁ŝanĝoj	-9.28936
▁ĉelo	-9.28972
▁Via	-9.29016
▁sana	-9.29069
▁eksterordinara	-9.29338
▁malbona	-9.2946
▁eraro	-9.29543
▁ho	-9.29568
▁foj	-9.29585
B	-9.29616
li	-9.29683
certe	-9.29909
▁foto	-9.29986
▁Je	-9.30796
▁amason	-9.31049
▁aŭto	-9.31087
▁demandoj	-9.31164
igitaj	-9.31186
same	-9.32058
5	-9.32126
▁star	-9.32154
▁15	-9.32533
▁kialo	-9.32573
▁Brown	-9.32874
▁jardeko	-9.32877
▁specife	-9.3296
▁atmosfero	-9.32985
▁organismoj	-9.33012
▁unuafoj	-9.33013
▁teamo	-9.33045
▁forges	-9.33194
▁O	-9.33452
▁form	-9.33558
▁uzata	-9.33707
▁kalkul	-9.33731
▁jarcento	-9.33893
▁tasko	-9.34324
▁in	-9.34354
▁amikoj	-9.34458
▁nekredebla	-9.34692
▁produktado	-9.34795
▁arto	-9.34855
▁materialoj	-9.35009
▁certa	-9.35238
▁ekstere	-9.35334
istino	-9.35561
▁manĝaĵoj	-9.35607
kaz	-9.35667
▁ideoj	-9.3572
▁fru	-9.35808
▁taksi	-9.35926
▁montro	-9.36397
▁Ali	-9.36507
▁aparta	-9.36551
▁normala	-9.36604
▁socia	-9.36634
▁si	-9.37157
▁pacientoj	-9.37209
▁amuz	-9.37332
malpli	-9.37375
▁eliri	-9.37467
▁lernejoj	-9.37482
▁scienca	-9.37679
▁organo	-9.37935
▁sukceso	-9.37997
▁miloj	-9.38022
▁videbla	-9.3821
▁eltrovi	-9.38291
▁aldon	-9.38294
▁veraj	-9.38324
▁m	-9.38418
▁proteino	-9.38503
sto	-9.38535
▁instruisto	-9.38773
▁pentraĵoj	-9.38827
▁Pers	-9.38843
▁serĉ	-9.3902
▁supoz	-9.39066
▁sekve	-9.39392
ema	-9.39839
▁fojo	-9.39871
▁respond	-9.40158
▁trans	-9.40233
ego	-9.40536
▁Etiopio	-9.40566
▁Tri	-9.40589
▁ĝusta	-9.40602
▁Pli	-9.40619
▁prezenti	-9.40672
▁fakultato	-9.40684
▁turni	-9.40975
▁bazo	-9.40981
dono	-9.40981
▁hejme	-9.41256
▁parola	-9.41307
▁speciala	-9.41356
▁lernado	-9.41372
▁solvi	-9.41404
▁imperio	-9.41463
▁reguloj	-9.41467
▁rimarkinda	-9.41583
okej	-9.41704
▁laboratorio	-9.4171
▁rigarda	-9.41933
▁kilogramoj	-9.42028
▁papero	-9.42082
iloj	-9.42251
▁histo	-9.42259
▁baza	-9.42282
▁okuloj	-9.42297
▁semajnoj	-9.42337
▁socioj	-9.42537
▁samtemp	-9.42774
▁reven	-9.42894
▁rezulto	-9.42921
▁manieroj	-9.42925
▁longe	-9.43001
▁potenca	-9.43361
▁rekon	-9.43716
▁kaŭzo	-9.43908
▁konstru	-9.44021
▁igi	-9.44046
▁eltrovis	-9.44049
▁biosfero	-9.44049
▁telefon	-9.44244
▁movado	-9.44345
▁fi	-9.44421
▁malfacile	-9.44436
▁25	-9.44497
▁decid	-9.44498
▁akvon	-9.44512
▁Pro	-9.44606
▁minutojn	-9.44755
▁programo	-9.44829
▁konsent	-9.44894
▁Spektanto	-9.44981
igante	-9.4504
▁mult	-9.45214
▁Ja	-9.45216
▁penso	-9.45216
▁rimarki	-9.45282
I	-9.45337
▁sociaj	-9.45371
▁studi	-9.45479
▁kresko	-9.45486
▁miliono	-9.45511
ge	-9.45534
▁persono	-9.4554
▁5	-9.45544
▁malriĉ	-9.45646
C	-9.45651
▁sekvas	-9.45852
R	-9.45869
▁komuna	-9.4605
▁fanto	-9.46056
▁forta	-9.46082
patroj	-9.46119
▁nevidebla	-9.46386
▁politika	-9.46431
▁lingvoj	-9.46506
▁rapida	-9.46741
▁infano	-9.46801
▁eltrovo	-9.46819
▁demandojn	-9.47057
▁tria	-9.47112
▁rakonti	-9.47259
▁mov	-9.47325
▁proksima	-9.4733
▁iloj	-9.47394
▁simile	-9.47407
▁fojoj	-9.47526
▁regiono	-9.47594
▁preter	-9.47666
▁ajna	-9.47747
▁laboron	-9.47807
▁maldekstr	-9.47831
▁reveni	-9.47862
▁nivelo	-9.47998
▁spekt	-9.48275
oro	-9.48438
▁ekscii	-9.48596
oni	-9.48649
▁rakontoj	-9.48715
▁zorg	-9.4878
▁ambaŭ	-9.489
▁Eŭropa	-9.489
▁plafono	-9.489
▁interpret	-9.48901
▁voĉo	-9.48901
▁revolucio	-9.48914
▁epoko	-9.48919
▁karoa	-9.48932
▁angulo	-9.48937
▁muro	-9.48943
▁universo	-9.4896
▁disting	-9.49004
▁Kelkaj	-9.49012
▁edukado	-9.49014
▁kontinento	-9.49063
▁kulturo	-9.49063
▁krizo	-9.49081
▁kompato	-9.49131
▁surfaco	-9.49149
▁regeneriĝ	-9.49308
▁ekscit	-9.4935
▁verŝa	-9.4937
▁rekt	-9.49401
b	-9.49435
▁suda	-9.49514
▁milito	-9.49534
▁tero	-9.49595
▁certigi	-9.49612
▁senco	-9.49818
▁konduk	-9.49936
▁centoj	-9.49969
▁nuntemp	-9.49973
▁80	-9.50003
▁sekundoj	-9.50196
uste	-9.5023
▁pika	-9.50408
▁90	-9.5044
▁reag	-9.50463
▁regionoj	-9.50539
▁em	-9.50713
ala	-9.50797
▁monda	-9.5082
▁ĉef	-9.50947
tojn	-9.51113
nabino	-9.51454
▁kalkuli	-9.51469
▁sun	-9.51836
▁art	-9.5203
▁efik	-9.52445
▁aldoni	-9.525
ma	-9.52621
kon	-9.52717
T	-9.52723
▁Art	-9.52758
▁morti	-9.52945
▁alt	-9.52982
▁elekt	-9.53122
▁asert	-9.53157
▁sinteno	-9.53321
▁minutoj	-9.53365
▁aper	-9.5339
▁likva	-9.53393
eca	-9.53421
▁plasto	-9.53715
tra	-9.53977
▁konstruis	-9.54051
▁elmontr	-9.54114
▁taŭg	-9.54225
▁r	-9.54497
Homoj	-9.54536
bri	-9.5465
▁religio	-9.54658
O	-9.54658
▁aŭd	-9.54671
ej	-9.54878
▁4	-9.54938
▁verkis	-9.54981
▁strategio	-9.55095
4	-9.551
▁ŝalt	-9.55117
▁etaj	-9.55452
▁Ka	-9.55647
▁koncepto	-9.5584
▁ie	-9.56036
▁Cl	-9.56068
ze	-9.56104
▁diferenco	-9.56148
▁ali	-9.56161
▁sid	-9.56292
▁ĉefa	-9.56328
koj	-9.56488
D	-9.56732
▁bal	-9.56742
▁malsimpla	-9.56745
iga	-9.56761
tp	-9.57386
▁ŝanco	-9.5759
duk	-9.57607
uton	-9.5767
▁Plej	-9.57717
▁DNA	-9.57991
▁Mezorient	-9.57991
▁Rigard	-9.57991
▁apud	-9.57991
▁kunteksto	-9.57991
▁tuberkulozo	-9.57994
▁buŝo	-9.58006
▁grundo	-9.58018
▁sunenergi	-9.58027
▁The	-9.5807
▁pinto	-9.58073
▁Babilono	-9.58119
▁enmigrado	-9.58131
▁Jam	-9.58151
▁grado	-9.58155
▁vento	-9.58189
▁kunig	-9.58213
▁klopod	-9.58325
▁luno	-9.58422
▁portilon	-9.58751
uo	-9.58918
▁rekompenco	-9.58991
▁ĉiaj	-9.59021
▁instrui	-9.59031
▁cifera	-9.59116
▁maldekstra	-9.59179
▁duon	-9.5961
▁spert	-9.59717
▁ĉirkaŭaĵo	-9.59782
1	-9.59829
▁malnovaj	-9.60157
▁propon	-9.603
▁grand	-9.60335
▁He	-9.60372
▁kapabli	-9.60715
▁ebleco	-9.60787
▁publika	-9.61211
▁lokoj	-9.61493
▁vido	-9.61598
pre	-9.61724
▁rimark	-9.61814
▁amuza	-9.62075
▁informo	-9.62211
▁filmoj	-9.62447
▁desegni	-9.62526
▁Kapelo	-9.6256
eblaj	-9.6274
▁pra	-9.62863
▁amo	-9.62881
▁kreskig	-9.62984
▁rakont	-9.63066
ko	-9.63115
zo	-9.63273
▁klarig	-9.63352
▁komputilo	-9.63369
▁kontrol	-9.63389
ry	-9.63647
▁help	-9.63677
▁mirindaj	-9.63853
▁vund	-9.64177
▁taks	-9.64266
▁rezultoj	-9.64449
▁specifa	-9.64536
▁distanco	-9.64538
ri	-9.6469
▁rilato	-9.64716
▁perdo	-9.64888
ofte	-9.64987
7	-9.65177
▁lanĉi	-9.6525
di	-9.65531
▁koloro	-9.65559
▁pi	-9.65583
▁modelo	-9.65929
▁bazaj	-9.65979
▁loĝ	-9.66084
▁manoj	-9.66136
▁absolut	-9.66185
▁ripet	-9.66962
lon	-9.67052
▁ŝanĝiĝ	-9.67122
▁pozitiva	-9.67546
etoj	-9.67629
▁70	-9.67665
▁eniri	-9.67971
edaŭrind	-9.67985
▁UV	-9.6799
▁Vermeer	-9.6799
▁manradiko	-9.6799
▁ekzisti	-9.67991
▁vendredo	-9.67992
▁Kvin	-9.67994
▁filino	-9.67995
▁Virino	-9.67997
DO	-9.67999
▁aparte	-9.68003
▁riĉa	-9.68009
LA	-9.68009
▁trink	-9.68012
▁150	-9.68013
▁sku	-9.68022
▁pardon	-9.6806
▁period	-9.68061
▁AB	-9.68077
▁H	-9.68147
▁haŭtpigmento	-9.68218
▁atend	-9.68223
▁vid	-9.68277
▁sekureco	-9.68306
w	-9.6831
▁evoluado	-9.68348
▁pretig	-9.68399
▁komunikado	-9.684
▁datumejo	-9.68406
▁akir	-9.68438
▁dekstra	-9.68459
▁bombono	-9.68471
▁juna	-9.68547
▁moderna	-9.68641
▁tavolo	-9.68689
▁fald	-9.68697
▁ko	-9.68778
▁principo	-9.68821
▁vivantaj	-9.69012
▁duona	-9.69064
ano	-9.6912
▁Tut	-9.69209
ia	-9.69272
▁fungoj	-9.69364
▁prav	-9.69635
▁Dar	-9.69775
▁efika	-9.69883
▁nomi	-9.69897
▁plen	-9.70006
▁nacia	-9.70585
▁serĉi	-9.70687
▁koloroj	-9.70688
▁ju	-9.70724
▁plur	-9.70806
▁Sal	-9.70811
▁supren	-9.70825
▁varma	-9.71134
▁uloj	-9.71181
▁kutimoj	-9.71194
▁interesiĝ	-9.71241
vi	-9.7144
▁N	-9.71586
▁specio	-9.71595
▁elir	-9.71872
▁glacio	-9.71941
▁risko	-9.7201
inta	-9.72018
▁Homo	-9.72076
▁meze	-9.72107
▁produktoj	-9.72163
longe	-9.72178
▁patro	-9.72208
▁iĝi	-9.72237
sence	-9.72274
sistemo	-9.72416
▁proviz	-9.72609
▁fizika	-9.72707
▁7	-9.72733
▁reprezent	-9.72743
▁film	-9.72903
▁protekti	-9.73115
▁dividi	-9.73416
▁send	-9.73613
gi	-9.74088
▁novaĵo	-9.74177
▁statistiko	-9.74222
▁bakteria	-9.74383
▁popoloj	-9.74655
▁risk	-9.74821
▁c	-9.74968
▁Fin	-9.75039
▁okaza	-9.75419
8	-9.75438
▁malgrandaj	-9.75616
▁mank	-9.75709
J	-9.75846
▁eroj	-9.75871
▁vok	-9.76017
▁temoj	-9.76164
▁arbo	-9.76217
▁dieto	-9.76276
oble	-9.76283
▁a	-9.76324
▁Ek	-9.76511
▁grave	-9.76518
▁agado	-9.76606
▁kovr	-9.76651
vid	-9.76658
lando	-9.76927
▁miriga	-9.7696
▁mar	-9.76966
▁reprezenta	-9.77033
▁atingo	-9.77045
▁reg	-9.77246
▁socio	-9.77251
▁ero	-9.77262
▁reiri	-9.77381
▁postlas	-9.77394
▁ĉeest	-9.77599
▁klarigi	-9.78004
enda	-9.7806
▁Imag	-9.78172
▁kelk	-9.78184
▁kost	-9.78259
▁nepr	-9.7847
▁vesper	-9.78586
▁aĝa	-9.78814
▁malhel	-9.7897
▁frap	-9.79012
▁inkluziv	-9.79078
▁Muzeo	-9.79102
▁inĝeniero	-9.79102
▁laŭliter	-9.79102
tablo	-9.79102
▁16	-9.79102
▁antikva	-9.79104
▁konsistas	-9.79104
▁malsukceso	-9.79105
▁Unio	-9.79106
▁sango	-9.79106
▁11	-9.79108
▁anti	-9.79112
▁selekt	-9.79114
bano	-9.79114
▁ekest	-9.79121
▁konsekvencoj	-9.79182
▁siria	-9.79186
▁laŭvort	-9.79187
▁tradicia	-9.79238
diaŭ	-9.79251
▁Granda	-9.79259
▁tun	-9.79265
▁eviti	-9.79325
▁numero	-9.79325
▁nubo	-9.79415
▁toksoj	-9.7944
▁tendenco	-9.79538
▁silko	-9.79547
ron	-9.79566
▁memorig	-9.79596
▁gu	-9.796
▁alfronti	-9.79679
▁ade	-9.79684
▁mallonga	-9.7969
▁malsupren	-9.79811
ey	-9.79878
▁lud	-9.80056
▁Lon	-9.80062
▁vend	-9.80099
▁rubo	-9.802
▁parolado	-9.80353
▁specimenoj	-9.80432
▁klimato	-9.80468
▁forlasi	-9.80468
▁kap	-9.80475
▁kolego	-9.80527
▁esplori	-9.80571
▁psikologi	-9.80609
ĵo	-9.80631
ial	-9.80658
▁esplor	-9.80722
▁potenco	-9.80748
▁pripensi	-9.80882
▁kuracisto	-9.80984
▁hejmo	-9.80997
▁Kun	-9.81387
▁ŝanĝo	-9.81484
▁malbon	-9.81839
ka	-9.81901
▁test	-9.81907
▁enmeti	-9.82216
▁reto	-9.8222
▁avinoj	-9.82284
▁kutima	-9.82424
▁Nenio	-9.82455
onta	-9.82622
▁plena	-9.82655
▁skrib	-9.82761
▁Bel	-9.82908
nic	-9.82942
▁ter	-9.83007
▁konsci	-9.83054
▁vero	-9.83111
▁rolo	-9.83248
ĝo	-9.8342
▁nuna	-9.83567
▁malsame	-9.83581
mo	-9.83637
▁meta	-9.83643
▁ekhavi	-9.83695
▁oceano	-9.83754
ulino	-9.83878
▁gajni	-9.83973
▁valoro	-9.84126
▁ŝatata	-9.84238
▁mensoj	-9.84424
▁f	-9.84449
daŭ	-9.84506
▁interesaj	-9.84887
goj	-9.84898
91	-9.84912
uro	-9.84963
▁viziti	-9.84971
eroj	-9.85268
▁uzant	-9.85529
▁evoluigi	-9.85567
▁fako	-9.85678
▁muskolo	-9.85768
▁pruvi	-9.85877
▁iĝ	-9.85922
▁perspektivo	-9.86141
▁divid	-9.86295
▁b	-9.86395
▁Vid	-9.86471
prelego	-9.86483
▁finiĝ	-9.86582
▁komputiloj	-9.86672
▁aŭskult	-9.8683
▁reveno	-9.86845
vort	-9.86855
ferenco	-9.86918
H	-9.86954
▁subten	-9.87004
▁supre	-9.87122
▁partopren	-9.87226
antan	-9.87261
▁kart	-9.87536
▁sendi	-9.8758
▁ci	-9.87767
▁metalo	-9.87858
▁kamerao	-9.87862
▁nombroj	-9.87953
▁komerc	-9.88001
▁ludo	-9.88198
▁havu	-9.88307
▁avino	-9.88389
▁nuntempa	-9.88409
▁malantaŭ	-9.88456
▁18	-9.88586
E	-9.88601
▁fonto	-9.88605
▁mencii	-9.88738
▁alven	-9.88846
▁konserv	-9.88856
▁domoj	-9.88967
▁malmulte	-9.89009
▁internacia	-9.89137
▁rivel	-9.89171
▁akcept	-9.89209
▁vizaĝo	-9.89242
▁similaj	-9.89248
okaz	-9.89616
▁leg	-9.89856
▁fascin	-9.89884
▁venonta	-9.89931
ero	-9.90103
▁danĝera	-9.90212
▁cent	-9.90336
▁komuniki	-9.90613
▁serioz	-9.907
▁uzo	-9.90834
tikoj	-9.90903
▁fum	-9.90956
▁ha	-9.90999
▁liaj	-9.91072
▁500	-9.91093
▁Iu	-9.91248
▁23	-9.91251
able	-9.91338
▁pel	-9.91423
▁letero	-9.91602
▁likvometala	-9.91602
▁rimedo	-9.91602
▁scenejo	-9.91602
▁ekzerc	-9.91602
▁profesor	-9.91602
▁generacio	-9.91602
▁Simple	-9.91604
▁babilona	-9.91604
▁Kvar	-9.91605
▁Papo	-9.91607
▁AP	-9.91623
▁Film	-9.91625
▁beleco	-9.91626
▁klara	-9.9163
▁evoluinta	-9.91647
▁teknikaro	-9.91649
▁trefa	-9.91679
▁neatendita	-9.91704
▁Ŝajn	-9.91728
▁organizoj	-9.91736
▁ŝateg	-9.91751
▁leĝo	-9.91752
▁Teherano	-9.91774
▁bonege	-9.91818
▁13	-9.91822
▁sukero	-9.91857
IS	-9.91857
▁triono	-9.91861
wi	-9.91904
▁24	-9.91908
▁demokratio	-9.91962
▁Siksta	-9.91968
▁evolu	-9.92006
▁stok	-9.92037
▁Naci	-9.9205
▁dopamino	-9.92071
▁daŭra	-9.92078
▁entuta	-9.92114
▁Natur	-9.92116
▁alfrontas	-9.92149
▁just	-9.92176
▁hont	-9.92201
▁landlimoj	-9.92203
▁rakontis	-9.92235
ido	-9.9225
▁ilo	-9.92306
▁g	-9.92328
▁portreto	-9.92334
▁klak	-9.92335
▁tage	-9.92366
▁motivo	-9.92378
man	-9.92407
▁postul	-9.92409
▁19-	-9.92435
▁forte	-9.92453
▁predanto	-9.92466
▁regado	-9.9258
▁kompare	-9.92615
▁scivol	-9.92646
▁konkludi	-9.92686
▁agoj	-9.92713
▁rondo	-9.9274
gajn	-9.9278
▁stato	-9.92816
▁Ven	-9.92886
▁moviĝ	-9.92919
▁individuoj	-9.92989
▁kondiĉoj	-9.93109
▁Tre	-9.93169
▁rifuz	-9.93195
▁mesaĝo	-9.93197
▁bred	-9.93277
▁ruĝaj	-9.9331
▁konstat	-9.93319
▁biologio	-9.93433
▁postlasi	-9.93646
▁kulp	-9.93672
ĉi	-9.93707
▁1	-9.93725
▁ver	-9.93781
▁karbono	-9.93801
▁daŭre	-9.94032
ca	-9.94046
▁plenkreskulo	-9.94058
▁pordo	-9.94101
▁eventoj	-9.9413
▁mez	-9.94182
▁urbo	-9.94188
▁dividita	-9.94258
▁malferma	-9.94523
▁Iuj	-9.94524
▁timo	-9.9457
▁servo	-9.94619
▁ecoj	-9.94661
▁pensu	-9.94731
▁iru	-9.94734
▁malfermi	-9.94788
voj	-9.94997
iri	-9.95087
▁ĉefaj	-9.95173
▁instruistoj	-9.95199
▁efiko	-9.954
▁artisto	-9.95467
▁perfekta	-9.95499
iĝ	-9.95512
▁depend	-9.95667
▁atendi	-9.95755
▁batal	-9.95829
▁abunda	-9.95837
▁pruv	-9.95866
gon	-9.95947
▁sorb	-9.96148
▁valora	-9.96245
elo	-9.96299
▁altaj	-9.96313
▁senti	-9.96514
▁forto	-9.96556
▁nov	-9.96627
▁forigi	-9.96673
▁analizo	-9.96729
ilon	-9.96754
▁me	-9.96813
▁tuko	-9.97024
▁instigi	-9.97027
▁kontrolo	-9.97078
▁menstru	-9.97101
▁J	-9.97201
▁sciencisto	-9.9726
▁publikigi	-9.97306
▁tim	-9.97364
▁celi	-9.9766
▁instruis	-9.9768
fo	-9.97759
▁instali	-9.9789
▁di	-9.98089
▁kunlabor	-9.98246
▁fama	-9.98396
▁malkovro	-9.98442
▁espero	-9.98488
▁prelego	-9.9849
▁pere	-9.98622
▁lev	-9.98642
▁ferm	-9.98751
▁evoluis	-9.99008
▁malnova	-9.99046
▁halt	-9.9909
ho	-9.9917
ez	-9.99195
▁Pe	-9.99226
▁enten	-9.99333
▁No	-9.9941
▁inspira	-9.99464
▁Sekv	-9.99774
▁vico	-9.99814
▁stud	-9.99917
▁rigardant	-9.99936
▁figuro	-9.9999
▁estaĵoj	-10.0002
▁malsana	-10.0006
mi	-10.0006
▁araba	-10.001
▁gajn	-10.001
▁bonega	-10.0031
du	-10.0038
▁anstataŭigi	-10.0039
▁farant	-10.0042
akvo	-10.0075
▁aparato	-10.0103
▁komenciĝ	-10.012
▁medi	-10.013
▁malsupre	-10.0143
kup	-10.0145
▁interag	-10.0147
▁traf	-10.0153
ilo	-10.016
▁lerna	-10.0161
▁kreita	-10.0163
▁loka	-10.0166
▁regulaĵo	-10.017
▁formoj	-10.0194
▁alveni	-10.0197
▁fluo	-10.0198
▁signalo	-10.02
▁sekvo	-10.0202
▁momentoj	-10.0229
ur	-10.0245
▁knabino	-10.0257
▁polu	-10.026
fluo	-10.0264
▁reprodukti	-10.0277
▁ĝu	-10.0281
▁aperi	-10.0282
▁esprim	-10.0287
▁amiko	-10.03
nombr	-10.0313
▁aso	-10.0323
▁korpa	-10.0333
▁kalkulo	-10.0344
▁debato	-10.0351
gita	-10.0362
▁televid	-10.0366
▁atent	-10.0376
▁semajno	-10.0378
▁tekniko	-10.0379
▁Dek	-10.0388
▁Okcident	-10.0389
▁fundament	-10.0393
▁averaĝ	-10.0395
▁peti	-10.0414
▁procento	-10.0422
▁mon	-10.0424
prelegoj	-10.0428
▁okulo	-10.0429
▁fido	-10.0434
▁ape	-10.0505
▁60	-10.0505
▁simil	-10.0507
▁minoj	-10.052
▁feliĉ	-10.0522
tu	-10.0523
▁sufer	-10.0525
▁baterion	-10.0527
▁esprimo	-10.054
▁Bru	-10.0557
▁elekto	-10.0557
▁reen	-10.0562
it	-10.0562
▁kondutoj	-10.0568
▁An	-10.0573
con	-10.0574
▁ludi	-10.0577
▁kruel	-10.0589
▁Infano	-10.0589
▁Kepler	-10.0589
▁Nudpiedula	-10.0589
▁Universitato	-10.0589
▁arkitekto	-10.0589
▁biomaterialo	-10.0589
▁emblemo	-10.0589
▁evidenta	-10.0589
▁fenomeno	-10.0589
▁haŭtkoloro	-10.0589
▁hebrea	-10.0589
▁heredaĵo	-10.0589
▁kognitiv	-10.0589
▁reciprok	-10.0589
▁simbolo	-10.0589
▁sinsekv	-10.0589
▁ŝlosil	-10.0589
▁Chris	-10.0589
▁sorĉ	-10.0589
▁Bakteri	-10.0589
▁drato	-10.0589
▁Monda	-10.0589
▁mirinde	-10.0589
▁ununura	-10.0589
▁petrol	-10.0589
▁stamp	-10.0589
▁okupiĝ	-10.0589
▁kilometroj	-10.0589
▁praĉeloj	-10.0589
▁ŝok	-10.0589
▁lerta	-10.059
▁malrapid	-10.059
▁historia	-10.0591
▁Joh	-10.0591
▁donaco	-10.0591
▁salo	-10.0591
uziko	-10.0591
▁Adam	-10.0591
▁Judoj	-10.0592
▁malsano	-10.0592
▁201	-10.0593
▁monataĵo	-10.0593
▁falsa	-10.0593
gaga	-10.0594
▁firmao	-10.0594
▁elektron	-10.0595
imetro	-10.0596
▁komputilprodukt	-10.0596
▁belega	-10.0597
▁mortintoj	-10.0599
▁Georgo	-10.0603
po	-10.0604
▁bedaŭrind	-10.0604
▁elpensi	-10.0604
▁aliuloj	-10.0605
▁prezo	-10.0606
▁teĥnikaro	-10.0606
▁memori	-10.061
▁medioj	-10.0611
▁agnosk	-10.0612
▁grandeco	-10.0619
▁escept	-10.0619
▁kosma	-10.0639
▁miksaĵo	-10.0639
▁bezono	-10.0641
ce	-10.0647
▁plantaĵoj	-10.0649
amen	-10.0652
▁modo	-10.0652
▁utili	-10.066
▁Kora	-10.0661
▁lingv	-10.0662
▁samaj	-10.0665
▁elektronoj	-10.0666
▁kortekso	-10.067
▁kultura	-10.067
▁Irako	-10.067
▁And	-10.0678
▁pas	-10.0681
▁Ku	-10.0685
▁kazo	-10.0686
kultivado	-10.0689
▁scipovo	-10.0697
▁edzo	-10.0703
▁kapablu	-10.0709
▁konata	-10.071
▁litero	-10.0713
▁vestaĵoj	-10.0715
▁plimulto	-10.0721
▁gvidanto	-10.0722
▁hundo	-10.0725
▁multa	-10.0731
▁pigmentitaj	-10.0737
▁aero	-10.0738
▁eŭropaj	-10.074
▁ministro	-10.0745
▁inteligenta	-10.0747
▁kunlaboro	-10.0759
▁sekvanta	-10.0759
▁unika	-10.0774
▁fremda	-10.0784
ian	-10.0785
▁liberig	-10.0788
bro	-10.0791
▁sono	-10.0794
▁kor	-10.0805
▁voĉdon	-10.0819
ŝipo	-10.0821
6	-10.083
▁danĝeraj	-10.0833
▁venontaj	-10.0839
inda	-10.0846
▁tuŝi	-10.0847
▁Sci	-10.085
▁vasta	-10.085
▁kuirej	-10.0856
▁permes	-10.0868
▁loĝis	-10.0878
or	-10.088
▁mezuri	-10.0887
▁energi	-10.0888
▁prem	-10.0893
▁komputila	-10.0897
▁manĝado	-10.0898
▁Go	-10.0911
▁pasinta	-10.0918
▁kapti	-10.0929
▁diferencoj	-10.093
riko	-10.0936
▁ar	-10.094
▁version	-10.0944
▁inventi	-10.0947
▁voĉdono	-10.0948
▁pagi	-10.0952
▁verko	-10.0961
▁produkta	-10.0969
antaro	-10.0999
▁profundaj	-10.1009
▁ŝerco	-10.102
kvanto	-10.1025
▁subi	-10.1026
▁lernanto	-10.1028
▁Ju	-10.1028
▁projektoj	-10.1045
▁specoj	-10.1052
▁analiz	-10.1075
▁biologia	-10.1087
▁movo	-10.1096
▁ŝajna	-10.1099
▁modeloj	-10.1102
▁miksita	-10.1103
▁grando	-10.1117
▁14	-10.1118
tis	-10.1123
▁Pa	-10.113
▁protekt	-10.1145
▁konekt	-10.1174
▁pentri	-10.1197
▁scivolema	-10.1207
▁daŭrigebla	-10.1231
ika	-10.1256
▁koncentriĝ	-10.1262
preni	-10.127
▁artist	-10.127
gvidi	-10.1272
▁horo	-10.1273
▁jene	-10.1294
▁ĉesi	-10.1297
▁uzanto	-10.1298
mon	-10.1299
▁dungi	-10.1327
▁virinojn	-10.1343
▁ret	-10.1358
▁aktiv	-10.137
va	-10.1395
by	-10.1403
▁reakir	-10.1403
▁zorgi	-10.1412
▁renkonti	-10.1455
▁aserti	-10.1457
▁ekstrem	-10.146
▁provo	-10.1461
ebleco	-10.1463
▁biologi	-10.1469
▁ega	-10.1482
▁kialoj	-10.1491
▁haltigi	-10.1494
▁regi	-10.1502
▁ag	-10.1505
▁hodiaŭa	-10.1507
▁televida	-10.151
▁trovita	-10.1511
▁furor	-10.1528
▁strange	-10.1538
▁imago	-10.1539
▁apliki	-10.1542
▁8	-10.1543
▁Mars	-10.1547
sciencistoj	-10.1549
▁videoj	-10.1563
▁frua	-10.157
▁stel	-10.1579
▁ekhav	-10.1588
▁pripens	-10.1596
▁ripeta	-10.1599
▁gvid	-10.1611
▁eksperimentoj	-10.1616
▁abund	-10.162
▁knabo	-10.1646
▁rezult	-10.1651
▁grandioza	-10.1661
▁brita	-10.1662
▁vitamino	-10.1666
▁lasi	-10.1684
▁kinaĵo	-10.1689
ĥ	-10.169
dita	-10.1693
▁fo	-10.1693
▁ordon	-10.1696
▁spuro	-10.1703
▁fajro	-10.1703
▁kompar	-10.1726
▁paŝ	-10.1746
▁vizit	-10.1746
▁male	-10.1748
povo	-10.1753
etu	-10.177
iru	-10.1791
▁argument	-10.1793
▁teknologioj	-10.1802
▁par	-10.1811
produktado	-10.1812
▁rato	-10.1819
▁Mal	-10.1823
▁verki	-10.1824
speci	-10.1842
▁ekonomia	-10.1861
eliro	-10.1866
▁preciza	-10.1876
▁limigita	-10.1881
▁vintr	-10.1886
▁kuir	-10.1889
ak	-10.1889
▁libroj	-10.1905
▁elstara	-10.1912
▁porti	-10.1915
▁maldikiĝ	-10.1918
ver	-10.1927
L	-10.1928
▁kilogramo	-10.1932
tima	-10.1936
▁tipo	-10.1956
▁ten	-10.1968
▁kampo	-10.1968
▁util	-10.1972
▁studento	-10.1973
nivelo	-10.1975
▁pasio	-10.198
v	-10.1995
▁raporto	-10.1999
▁necesa	-10.2008
▁kopirajta	-10.2017
▁kontakt	-10.2017
art	-10.2018
zio	-10.2018
▁osto	-10.2036
▁reala	-10.2037
▁dolaro	-10.2043
▁miks	-10.2052
▁imun	-10.2052
▁malmulta	-10.2053
▁muzik	-10.2055
▁For	-10.2069
▁196	-10.2074
▁ĉel	-10.2085
▁last	-10.2088
eno	-10.2088
▁monato	-10.2088
▁disvolvi	-10.2094
▁vilaĝoj	-10.2094
landoj	-10.2107
▁Esti	-10.211
▁dorm	-10.2111
▁feliĉa	-10.2126
▁komenciĝi	-10.2126
▁ĉiutaga	-10.2133
▁rekoni	-10.2148
▁plan	-10.2158
▁uzebla	-10.2163
erson	-10.2177
▁donaci	-10.2193
inte	-10.2194
▁dekstr	-10.2197
▁ruĝa	-10.2211
pet	-10.2214
▁limig	-10.2215
▁kontrast	-10.222
jaraj	-10.2221
signo	-10.224
ber	-10.2247
▁Van	-10.2255
▁Apple	-10.2255
▁Eklezio	-10.2255
▁NASA	-10.2255
▁William	-10.2255
▁altruismo	-10.2255
▁korpopezo	-10.2255
▁propagand	-10.2255
▁rekomen	-10.2255
▁rememori	-10.2255
▁sigeli	-10.2255
▁drama	-10.2255
▁konsisti	-10.2255
▁Evident	-10.2255
▁regulaĵemo	-10.2255
▁Japan	-10.2255
▁Nederland	-10.2255
▁negativa	-10.2255
▁sceno	-10.2255
▁semajnfino	-10.2255
▁malsukcesi	-10.2255
▁grafeo	-10.2256
▁poŝo	-10.2256
▁difina	-10.2256
▁amoniak	-10.2256
▁kontribu	-10.2256
▁amaskomunikil	-10.2256
▁ruza	-10.2256
▁Multaj	-10.2256
▁hemisfero	-10.2256
▁Usona	-10.2256
▁Juli	-10.2257
▁elsendoj	-10.2257
▁funtoj	-10.2259
inkluziviganta	-10.2259
▁ritoj	-10.2259
▁infanaĝ	-10.2259
93	-10.2259
▁vegetarano	-10.2262
▁atest	-10.2262
▁surhav	-10.2263
▁pasinteco	-10.2265
▁Kolo	-10.2267
orko	-10.2268
monat	-10.2269
▁magiisto	-10.227
▁ekde	-10.227
▁prilaborita	-10.2271
▁islamisma	-10.2273
▁naskiĝis	-10.2273
▁Kvan	-10.2276
▁interese	-10.2278
▁prezidanto	-10.2278
▁grandskal	-10.2282
▁Pov	-10.2282
▁fono	-10.2282
▁atak	-10.2283
▁salajroj	-10.2288
▁14-	-10.2289
▁rezist	-10.2289
▁nuklea	-10.2291
▁ŝtofo	-10.2291
▁fenestro	-10.2291
▁entuziasm	-10.2292
▁scivolemo	-10.2292
▁fabriko	-10.2293
▁identeco	-10.2293
▁brul	-10.2294
cere	-10.2296
▁Angl	-10.2297
▁hazarde	-10.2299
▁blanka	-10.2302
▁iaspeca	-10.2303
▁facila	-10.2305
▁Suno	-10.2305
▁trajtoj	-10.2308
▁interreto	-10.231
▁notoj	-10.2316
ako	-10.2317
▁folio	-10.2319
▁muskolaj	-10.2319
maso	-10.2325
▁kompleksa	-10.2326
▁odoro	-10.2329
▁anim	-10.233
▁malsato	-10.2332
▁ekrano	-10.2334
▁urinveziko	-10.2336
▁kunven	-10.2338
▁signifoplena	-10.2338
▁12-	-10.2338
▁malfacilaĵoj	-10.2342
▁Viro	-10.2344
▁stelo	-10.2344
▁ŝ	-10.2345
▁Ro	-10.2349
▁toleremaj	-10.2352
▁samo	-10.2358
▁Nece	-10.2362
bord	-10.2366
▁permesu	-10.2376
▁vet	-10.2379
▁universitato	-10.238
▁centro	-10.2387
▁impreso	-10.2389
▁plejmult	-10.2393
▁vesti	-10.2396
▁bar	-10.2404
▁pilko	-10.2412
▁Dua	-10.2412
▁strebo	-10.2413
▁Ter	-10.2419
▁plejparto	-10.2424
▁indikoj	-10.2428
▁manĝebla	-10.2434
▁giganta	-10.2434
▁Far	-10.2435
▁ideogramoj	-10.2439
▁ordinar	-10.2442
▁dokumento	-10.2444
▁cetero	-10.2447
cher	-10.2453
▁internaj	-10.2454
▁muzeo	-10.2454
▁repreni	-10.246
▁kompreno	-10.2465
▁teorio	-10.2466
▁mapigi	-10.2467
▁malantaŭen	-10.249
▁evoluanta	-10.2493
▁Antaŭen	-10.2493
▁Ris	-10.2496
▁percepto	-10.2498
▁medicin	-10.2503
▁verk	-10.2519
▁antaŭa	-10.252
▁materio	-10.2522
▁ĉeesto	-10.2523
▁sciencfikcia	-10.2525
▁montru	-10.2532
▁et	-10.2542
▁fak	-10.2549
▁respekto	-10.2555
▁spektanto	-10.2561
▁beboj	-10.2569
▁Ge	-10.2569
pp	-10.2569
▁usonan	-10.2583
▁konekti	-10.2586
ing	-10.2596
▁inspekti	-10.2596
▁menci	-10.26
▁konversacioj	-10.2607
▁interrilato	-10.261
▁elstaraj	-10.2618
ntaj	-10.2622
▁pensado	-10.2622
▁industrio	-10.2632
▁aĝo	-10.2636
▁Ru	-10.2648
▁densa	-10.2651
▁daŭrigi	-10.2652
ve	-10.2653
▁interno	-10.267
ĵon	-10.2676
vojo	-10.2681
▁areoj	-10.2682
▁konstruita	-10.2692
▁ŝtato	-10.2701
▁estigi	-10.2713
▁ŝtelrigardi	-10.2723
▁trovo	-10.2744
▁ŝpar	-10.2751
▁malsata	-10.2754
▁vari	-10.276
racia	-10.2767
▁proteinoj	-10.2775
▁Dan	-10.2778
▁rajto	-10.2788
▁Be	-10.279
▁planoj	-10.2797
▁permeso	-10.2807
▁l	-10.2811
▁ĝoj	-10.282
▁kaŝi	-10.282
▁detru	-10.2833
▁ignor	-10.2834
▁sankta	-10.2835
er	-10.2838
▁ve	-10.284
andi	-10.2841
▁premi	-10.2854
▁valor	-10.2854
▁komun	-10.2861
▁verda	-10.2867
eblan	-10.288
▁venigi	-10.2887
prenis	-10.2891
▁Jer	-10.2894
▁distancoj	-10.2894
▁aplik	-10.2905
▁terura	-10.2912
▁kuraĝ	-10.2917
▁Rem	-10.293
▁jar	-10.2932
▁leviĝ	-10.2933
▁malsimpl	-10.2943
▁iluzioj	-10.2959
▁frenez	-10.2976
▁malsam	-10.2979
poj	-10.3006
▁konsideri	-10.3018
▁blu	-10.3027
▁Na	-10.304
▁nokt	-10.3047
▁diranta	-10.3057
▁turn	-10.3058
▁kredo	-10.3086
▁eltir	-10.3096
▁kunigi	-10.3104
▁memoro	-10.3122
iĝu	-10.3139
▁ŝanĝu	-10.3149
▁altiri	-10.3153
▁paŝo	-10.316
▁emo	-10.3164
gen	-10.3218
▁plejpart	-10.3229
▁tromp	-10.3232
ch	-10.3236
▁sintenoj	-10.3249
▁plia	-10.3253
▁sciu	-10.3262
▁rezultojn	-10.3262
▁stabil	-10.3266
▁konduki	-10.3272
▁desegn	-10.3274
▁ekzemploj	-10.3276
▁rol	-10.3281
▁venk	-10.3285
▁kreskanta	-10.3288
▁klarigo	-10.3297
mojn	-10.3298
▁dirant	-10.3309
▁plenigi	-10.3314
▁sperti	-10.3324
▁perdi	-10.3338
▁blua	-10.3389
▁amasa	-10.3393
▁6	-10.3396
stas	-10.3401
▁intenca	-10.3402
▁normal	-10.3407
kunlabori	-10.3408
▁junul	-10.3409
▁streb	-10.3413
▁movadon	-10.3413
▁hejm	-10.3415
ĉe	-10.343
tro	-10.343
▁Ta	-10.3435
▁direkt	-10.3436
ger	-10.3436
▁aranĝ	-10.3438
▁mastrum	-10.3456
▁planto	-10.3457
▁iluzio	-10.3462
▁eventa	-10.3482
parte	-10.3495
▁ekologia	-10.3503
▁mastrumad	-10.3506
ha	-10.3511
▁malo	-10.3512
▁sistemoj	-10.3514
▁liver	-10.3527
▁longaj	-10.3552
izo	-10.3554
▁revenig	-10.356
▁spirito	-10.3564
▁kaŝ	-10.3578
▁flu	-10.3581
▁rigardo	-10.3591
▁Ve	-10.3608
ento	-10.3616
aniere	-10.3617
▁malproksima	-10.3619
▁iĝa	-10.3628
▁hejma	-10.3629
taga	-10.3633
▁recepto	-10.3649
▁vidpunkto	-10.3658
umi	-10.3679
▁perfekt	-10.3681
dik	-10.3681
▁Ko	-10.3703
▁hom	-10.3708
▁ideal	-10.3708
turo	-10.3716
▁havebla	-10.3719
post	-10.3733
▁pe	-10.3739
▁magio	-10.3741
▁skemo	-10.3743
▁700	-10.3754
▁ku	-10.3756
▁inf	-10.3761
▁versio	-10.3765
▁iĝo	-10.3778
▁damaĝ	-10.3778
▁sufiĉa	-10.3786
▁Tra	-10.3789
kam	-10.379
aĝo	-10.3804
olta	-10.383
▁ripeti	-10.3831
▁flanke	-10.3833
▁trakt	-10.3837
▁venu	-10.3842
era	-10.386
doj	-10.3863
junulo	-10.3866
▁liveri	-10.3873
jarcent	-10.3875
▁aliro	-10.388
▁miksi	-10.3881
▁peza	-10.3888
3	-10.3896
industrio	-10.3897
▁evento	-10.3898
maten	-10.3912
▁areo	-10.3914
lingva	-10.3916
▁avantaĝo	-10.3918
▁informoj	-10.3923
U	-10.3929
▁paper	-10.393
opini	-10.3932
▁300	-10.3973
ŝ	-10.3976
▁fermi	-10.3976
▁Da	-10.3985
▁te	-10.3989
▁komunik	-10.3995
inde	-10.3995
▁kemia	-10.4
▁taskoj	-10.4003
▁alparol	-10.4004
▁okcidenta	-10.4013
▁oft	-10.4013
lingvo	-10.4015
▁mapo	-10.4044
▁ĥemi	-10.4044
▁pigmentita	-10.4046
▁maro	-10.4046
▁faktoro	-10.4048
▁spir	-10.4055
▁bebo	-10.407
▁ordinara	-10.4071
▁financa	-10.4077
▁novaĵ	-10.409
coj	-10.4092
▁bonvol	-10.4136
▁glu	-10.4141
▁alloga	-10.415
into	-10.4155
▁ebligi	-10.4159
▁Ar	-10.4165
▁ekz	-10.4169
▁greft	-10.4174
ntoj	-10.4178
ografio	-10.4178
▁intenco	-10.4181
▁rez	-10.4187
▁atenti	-10.42
▁malmult	-10.4202
▁fid	-10.4207
▁op	-10.4217
0-	-10.4218
▁malaperi	-10.4226
▁retro	-10.4231
dire	-10.4235
▁El	-10.4235
▁mikro	-10.4238
▁ŝtel	-10.424
▁detekt	-10.4244
▁evidente	-10.4247
▁profesi	-10.4248
▁Grand	-10.4253
▁hele	-10.4253
▁magneta	-10.4255
arĥitekt	-10.4255
molekula	-10.4255
▁Anatom	-10.4255
▁DV	-10.4255
▁Instruisto	-10.4255
▁Israel	-10.4255
▁Jerusalemo	-10.4255
▁Kristnask	-10.4255
▁Philip	-10.4255
▁altruisma	-10.4255
▁amigdalo	-10.4255
▁arkitektur	-10.4255
▁ateliero	-10.4255
▁celulozo	-10.4255
▁efekto	-10.4255
▁entrepreno	-10.4255
▁inĝenierarto	-10.4255
▁magnezi	-10.4255
▁malkaŝ	-10.4255
▁malsanulejo	-10.4255
▁mikrofono	-10.4255
▁plezuro	-10.4255
▁restoracio	-10.4255
▁salsolvo	-10.4255
▁substrek	-10.4255
▁teleskopo	-10.4255
▁Obama	-10.4255
▁danĝere	-10.4255
▁intelekt	-10.4255
▁sablo	-10.4255
▁skeptik	-10.4255
▁skulpta	-10.4255
▁ŝmink	-10.4255
▁englut	-10.4255
▁sterko	-10.4255
▁termino	-10.4255
▁ŝpin	-10.4255
▁Siera	-10.4255
▁Rakont	-10.4255
▁invit	-10.4255
▁mallumo	-10.4255
▁Danke	-10.4255
▁Darvin	-10.4255
▁mojosa	-10.4255
▁Sved	-10.4255
▁nederlanda	-10.4256
▁vart	-10.4256
▁ventoturbino	-10.4256
▁artefarita	-10.4256
▁Turk	-10.4256
▁ĉefministro	-10.4256
▁normo	-10.4256
▁abrupt	-10.4256
▁blind	-10.4256
erte	-10.4256
▁malluma	-10.4256
▁malsatego	-10.4256
▁pastro	-10.4256
▁serio	-10.4256
▁preterpas	-10.4256
▁regenera	-10.4257
▁vivostilo	-10.4257
▁oficejo	-10.4257
▁bonhava	-10.4257
▁Ceter	-10.4257
algraŭ	-10.4257
▁ekrigardi	-10.4257
▁ĥaos	-10.4257
mp	-10.4257
▁kreemo	-10.4258
leono	-10.4258
▁forkur	-10.4258
▁grafikaĵo	-10.4258
rmani	-10.4259
▁trejnado	-10.4259
▁Interes	-10.4259
▁miskompren	-10.4259
▁ekzisto	-10.4259
▁kerna	-10.4259
▁Bebo	-10.4259
▁pensmaniero	-10.426
arato	-10.4261
▁antaŭvidi	-10.4262
▁sekura	-10.4262
▁flava	-10.4262
▁ŝtonum	-10.4264
▁kafo	-10.4264
▁medikamento	-10.4264
▁ekvid	-10.4264
▁inteligenteco	-10.4265
▁terpec	-10.4265
▁diverseco	-10.4268
▁Denove	-10.4269
▁Franc	-10.427
▁Pra	-10.427
▁senpag	-10.4271
▁manĝantoj	-10.4272
▁saĝeco	-10.4273
▁pritrakti	-10.4274
▁stratoj	-10.4274
▁respondeco	-10.4275
▁fruktoj	-10.4275
▁Jim	-10.4278
▁gam	-10.428
ston	-10.4281
▁akcel	-10.4281
▁venki	-10.4282
▁eksa	-10.4283
▁ĉesigi	-10.4283
▁dolĉa	-10.4283
▁transformi	-10.4284
▁islamanoj	-10.4285
▁radikal	-10.4285
▁trejni	-10.4285
▁Krom	-10.4285
▁ŝprucoj	-10.4286
▁Bir	-10.4287
▁altruistoj	-10.4289
▁kontraŭpersonaj	-10.4289
▁politikistoj	-10.4289
▁mikroboj	-10.4289
▁resum	-10.429
▁Stan	-10.429
▁kaŝita	-10.4292
▁ponto	-10.4294
▁trukartoj	-10.4295
▁Okaz	-10.4295
▁mortantaj	-10.4296
▁klasik	-10.4296
▁matematikisto	-10.4297
▁demeti	-10.4298
▁fu	-10.4299
▁artikolo	-10.43
▁Fakultato	-10.43
▁preleganto	-10.43
andro	-10.4304
▁muso	-10.4305
▁fingro	-10.4306
▁plialtigi	-10.4308
▁poluso	-10.4308
▁perdita	-10.4313
▁latin	-10.4314
▁spekti	-10.4319
▁ŝtelita	-10.4319
mbio	-10.4323
▁esplorado	-10.4323
▁renkont	-10.4323
▁Ant	-10.4323
solvaĵo	-10.4324
▁terorismo	-10.4326
▁filmis	-10.433
▁kreema	-10.4332
▁solidaj	-10.4333
▁poentoj	-10.4333
▁preferata	-10.4334
▁vekiĝ	-10.4335
▁fandiĝ	-10.4335
▁sud	-10.4335
▁progreso	-10.4335
▁klopodo	-10.4337
▁maltrankviliĝ	-10.4337
▁Tuj	-10.4338
▁konvinki	-10.4338
▁Grav	-10.434
▁reno	-10.4341
▁serĉado	-10.4341
▁procent	-10.4341
▁konkludo	-10.4343
ringo	-10.4344
▁hejmlando	-10.4345
▁institu	-10.4349
▁konfliktoj	-10.435
▁identaj	-10.4351
▁prezentita	-10.4351
▁skribaĵoj	-10.4352
▁Rom	-10.4356
▁fuzia	-10.4362
▁Dam	-10.4364
▁integriĝo	-10.4365
▁falas	-10.4368
▁morala	-10.437
▁Afganuj	-10.4371
▁konstant	-10.4373
▁sinjoro	-10.4375
▁pozicio	-10.4376
▁bonvolu	-10.4381
▁elprovi	-10.4382
tika	-10.4385
▁instruado	-10.4388
▁fini	-10.439
▁van	-10.439
tempaj	-10.4392
▁linio	-10.4398
▁inspiro	-10.4399
teco	-10.4404
▁malvarmaj	-10.4405
▁plifortig	-10.4413
▁revid	-10.4417
gante	-10.442
▁ĝenerala	-10.4423
▁konsiderata	-10.4424
▁oportuno	-10.4426
▁proporcio	-10.4426
eton	-10.4427
▁nutri	-10.443
▁diskut	-10.4434
▁Bona	-10.4435
lerneja	-10.444
anko	-10.4442
olo	-10.4444
▁publiko	-10.4451
vendejo	-10.4451
▁depende	-10.4453
kado	-10.4457
▁serioza	-10.4457
▁tegmentoj	-10.4462
▁uzado	-10.4462
▁sidiĝi	-10.4465
▁proceso	-10.4467
▁pensig	-10.4467
iĝintaj	-10.4468
urboj	-10.4475
▁kunmet	-10.4484
▁postenoj	-10.4488
▁Sir	-10.4489
▁perd	-10.4489
▁junaĝo	-10.449
▁ekzameno	-10.4491
▁20-	-10.4494
retrovi	-10.4496
▁disvolviĝo	-10.4503
▁malaltiĝ	-10.4506
▁nutraĵoj	-10.4506
▁muziko	-10.4508
▁disponebla	-10.4509
▁vida	-10.4512
▁kemiaj	-10.452
viv	-10.4524
▁submar	-10.4527
▁faktoroj	-10.453
▁elspezi	-10.453
▁magia	-10.4533
▁10-	-10.4534
▁devig	-10.4536
▁Vide	-10.4539
▁moviĝanta	-10.4539
▁inform	-10.4541
▁ban	-10.4541
▁averaĝa	-10.4542
▁prif	-10.4546
▁kadavroj	-10.455
▁Okcidento	-10.4551
▁mapoj	-10.4563
gh	-10.4564
▁sekundon	-10.4576
▁kopirajtaj	-10.4586
ac	-10.4595
▁elementoj	-10.4599
▁rivero	-10.4603
▁grande	-10.4618
▁esenca	-10.4625
▁realec	-10.4636
▁listo	-10.4638
▁surpriza	-10.4651
▁verkoj	-10.4666
▁eduka	-10.467
▁historioj	-10.4672
▁riveli	-10.4673
▁75	-10.4675
▁kaverno	-10.4676
▁maldikiĝo	-10.4683
▁projekti	-10.4684
▁instig	-10.4687
▁transform	-10.4688
▁teknikoj	-10.4691
▁pentr	-10.4691
▁internaciaj	-10.47
▁raportoj	-10.4703
▁Ame	-10.4703
▁oceanoj	-10.4711
▁dirado	-10.4717
▁bend	-10.4726
▁surp	-10.4732
umo	-10.474
▁radiko	-10.474
▁mirigaj	-10.4743
▁anonc	-10.4745
igni	-10.4748
▁kompari	-10.4758
▁Gan	-10.4759
▁plenumi	-10.476
fe	-10.4767
▁ellasi	-10.4768
▁funkciis	-10.4779
▁kunporti	-10.4781
▁malriĉa	-10.4786
▁Send	-10.4794
▁damaĝo	-10.4804
▁levi	-10.4805
▁aŭskulti	-10.4813
▁malpliig	-10.4816
▁sentu	-10.4823
▁interes	-10.4824
▁konsilo	-10.4833
plena	-10.4836
ret	-10.4844
ltu	-10.485
▁argumento	-10.485
▁esploristo	-10.4853
▁ekonomiaj	-10.4854
▁Sk	-10.4858
z	-10.4875
▁daŭr	-10.4877
DA	-10.4885
▁plenaj	-10.4907
▁ekle	-10.4908
tino	-10.491
▁rapid	-10.4911
▁urb	-10.4913
▁politikaj	-10.4913
▁niveloj	-10.4915
ael	-10.4918
▁dioj	-10.4925
▁privata	-10.4929
▁eltrovoj	-10.4931
▁Brituj	-10.4932
ndaj	-10.4935
▁ĉia	-10.4937
▁mensog	-10.494
▁agi	-10.4945
▁utilo	-10.4952
▁traduki	-10.4954
▁17	-10.4954
▁skribita	-10.4958
▁emocio	-10.4964
▁Jun	-10.4975
▁zorgu	-10.4985
▁9	-10.4994
▁lanĉ	-10.4996
▁ligita	-10.4996
ell	-10.5005
▁sukcesa	-10.5017
raŭ	-10.5021
igu	-10.503
▁realig	-10.5046
▁kolekti	-10.5051
▁Hi	-10.5058
,5	-10.507
▁produkto	-10.5077
horon	-10.5081
▁paren	-10.5082
aze	-10.5085
▁malsan	-10.509
▁Le	-10.51
▁kolekt	-10.5117
▁reakira	-10.512
▁foraj	-10.5123
▁komencu	-10.5138
▁konscia	-10.5144
▁aranĝi	-10.5147
▁trafi	-10.5167
▁genetika	-10.5172
▁elpren	-10.5182
▁estaĵo	-10.5196
sci	-10.5199
▁Prov	-10.5215
▁gigant	-10.5222
▁Klare	-10.5223
▁elmontri	-10.5224
▁taŭgaj	-10.524
▁transiri	-10.5244
uel	-10.5247
▁admir	-10.5295
ente	-10.5303
▁muskoloj	-10.5307
▁mediojn	-10.5312
rdo	-10.5314
dojn	-10.5318
▁120	-10.5319
▁meza	-10.5322
▁ofteg	-10.5326
▁rilatoj	-10.533
estro	-10.5347
age	-10.5379
▁eksterordinar	-10.5394
preta	-10.5398
▁metodoj	-10.54
▁cerboj	-10.5402
▁praa	-10.541
▁revo	-10.5416
ario	-10.5429
▁grup	-10.543
▁fizik	-10.5437
igon	-10.544
▁suna	-10.5453
▁apartaj	-10.5458
▁Co	-10.546
▁pentris	-10.5472
▁forir	-10.5473
cia	-10.5481
▁probabl	-10.5484
▁scipov	-10.5484
▁Speci	-10.55
▁55	-10.5501
▁Inter	-10.5502
aron	-10.5513
▁naturaj	-10.5523
▁multeg	-10.5524
▁respekt	-10.555
▁sentoj	-10.5557
▁potenc	-10.5561
▁eltiri	-10.5569
manĝ	-10.5581
▁malkovr	-10.5582
paroli	-10.5588
▁ĝeneral	-10.5593
▁belaj	-10.5602
▁fadeno	-10.5605
▁novaĵoj	-10.5614
▁enspir	-10.5623
▁forma	-10.5627
▁eraroj	-10.5636
▁teo	-10.5652
vere	-10.5672
sono	-10.5681
pra	-10.5691
ludilo	-10.5691
peco	-10.5699
f	-10.5718
ocieto	-10.5726
▁novig	-10.5732
▁naci	-10.5732
▁silent	-10.5736
▁lok	-10.5738
▁dependa	-10.5747
ontaj	-10.5753
▁aktual	-10.5759
▁ingo	-10.5763
▁povi	-10.5786
▁brulig	-10.5789
▁plenig	-10.5793
▁nekonato	-10.5799
▁loĝa	-10.5814
tukoj	-10.5824
▁altir	-10.5828
isma	-10.5842
inoj	-10.5844
▁mortiga	-10.5846
▁alte	-10.5849
▁eduk	-10.5854
▁ruĝiĝ	-10.5855
▁rezonad	-10.5859
▁dung	-10.587
▁orient	-10.5887
unamo	-10.5892
▁bon	-10.5907
las	-10.5911
ĝu	-10.5915
ven	-10.5918
▁eblo	-10.5925
▁interparola	-10.5929
▁traduk	-10.5938
▁sugest	-10.5945
▁part	-10.5953
▁starig	-10.5967
▁freneza	-10.5973
▁ruĝ	-10.5979
▁ŝato	-10.5983
▁600	-10.5986
▁konsum	-10.5986
▁eŭropa	-10.5988
ris	-10.5988
refa	-10.5998
uza	-10.6002
igilo	-10.6009
▁renvers	-10.601
▁ti	-10.6014
▁prenu	-10.6024
▁gra	-10.6025
S	-10.6029
▁afiŝi	-10.604
procent	-10.604
▁minaco	-10.6045
▁informero	-10.6047
▁Tim	-10.6059
▁ŝtelrigard	-10.6064
vaj	-10.6071
▁enplant	-10.6077
▁ĝiaj	-10.6087
▁orel	-10.6094
▁rekono	-10.6094
▁enmet	-10.6096
▁optika	-10.6104
▁mond	-10.6116
pe	-10.6123
don	-10.6132
▁alternativa	-10.6151
konscio	-10.6153
▁fluidaĵo	-10.6155
▁Tiun	-10.6156
▁universala	-10.6157
▁korp	-10.616
▁anonci	-10.616
iro	-10.6161
▁ĉina	-10.6162
▁fotilo	-10.6172
▁pinta	-10.6179
scienco	-10.6193
▁teksaĵo	-10.62
vatar	-10.6203
▁teknologia	-10.6206
▁lampo	-10.6207
▁ekstero	-10.6211
▁malple	-10.6211
pi	-10.6213
▁elektr	-10.6219
▁Memor	-10.6222
sti	-10.6241
▁multekosta	-10.6246
▁evoluon	-10.6251
▁disfal	-10.6253
▁ŝanĝon	-10.6264
▁deven	-10.6266
iĝinta	-10.627
▁detalo	-10.6277
▁datum	-10.6278
▁ruin	-10.6291
▁ceter	-10.6291
atoj	-10.6292
kulo	-10.6295
▁biblio	-10.6295
fond	-10.6303
kvant	-10.6305
▁loĝant	-10.6315
zi	-10.6316
peza	-10.632
▁ir	-10.6332
▁Bon	-10.6336
ciklo	-10.634
▁materi	-10.6344
▁analog	-10.6358
fik	-10.6365
inversig	-10.6365
▁malĝusta	-10.6368
M	-10.6371
▁rezulta	-10.6373
▁Jo	-10.6379
▁surprize	-10.6381
▁gaj	-10.6384
kancero	-10.6388
surprize	-10.6397
truoj	-10.6398
▁funkciig	-10.6399
▁malproksime	-10.6399
▁ben	-10.6404
▁neebla	-10.6408
leviĝ	-10.6411
▁kapt	-10.6412
▁malvarm	-10.6418
▁eksperiment	-10.6418
▁konversacio	-10.6424
rifuz	-10.6425
▁kaŭzi	-10.6425
▁199	-10.6425
ŝa	-10.6426
cifera	-10.6427
maniero	-10.6431
maŝino	-10.6432
ĉeloj	-10.644
▁origin	-10.6442
▁dika	-10.6463
▁substanco	-10.6468
▁pentraĵon	-10.6472
monde	-10.6477
lanke	-10.6477
▁malŝalta	-10.6478
hav	-10.6482
▁freneze	-10.6483
▁fina	-10.6484
nca	-10.6484
gilo	-10.6486
▁puŝ	-10.6488
simila	-10.649
▁fot	-10.6493
▁tegmento	-10.6497
▁merkato	-10.6501
▁ampleks	-10.6516
▁limo	-10.6517
▁lingva	-10.6517
ĵet	-10.652
▁teksto	-10.6533
▁vivanta	-10.654
cele	-10.654
▁fam	-10.6543
▁moviĝi	-10.6549
linio	-10.655
▁Boneg	-10.656
ktoro	-10.6563
▁malbonaj	-10.6569
▁Ga	-10.6574
▁Pre	-10.6576
organiza	-10.6578
▁situ	-10.6607
▁antaŭen	-10.6608
▁fungo	-10.661
▁batali	-10.6611
▁bele	-10.6615
▁malfacilaj	-10.6628
▁spiri	-10.6642
ĉoj	-10.6647
le	-10.6648
▁kvantoj	-10.6654
▁varm	-10.6664
▁merkat	-10.6671
redo	-10.6671
vado	-10.6674
▁rok	-10.668
ĉambro	-10.6686
▁posteno	-10.669
▁maten	-10.6693
granda	-10.6695
fokus	-10.6711
▁punktoj	-10.6717
▁trakti	-10.6718
▁prezid	-10.672
putoj	-10.6728
▁norma	-10.6729
▁21	-10.6729
aĉo	-10.6733
za	-10.6737
ŝance	-10.6742
▁senvi	-10.6748
jarulo	-10.6748
rganizo	-10.6751
poko	-10.6753
onvolu	-10.6755
▁Kevlar	-10.6755
pidemio	-10.6755
▁Nekred	-10.6755
ozambik	-10.6755
▁AIDS	-10.6755
▁Aŭskult	-10.6755
▁Black	-10.6755
▁Hollywood	-10.6755
▁ONE	-10.6755
▁Tradici	-10.6755
▁atleto	-10.6755
▁bicikla	-10.6755
▁bifsteko	-10.6755
▁cikatr	-10.6755
▁cingula	-10.6755
▁dimensio	-10.6755
▁griz	-10.6755
▁horloĝo	-10.6755
▁instinkt	-10.6755
▁kamizolo	-10.6755
▁koridoro	-10.6755
▁malfrua	-10.6755
▁niĝeria	-10.6755
▁nudeloj	-10.6755
▁obsed	-10.6755
▁parfumo	-10.6755
▁raportis	-10.6755
▁retpaĝaro	-10.6755
▁rozkolora	-10.6755
▁stompita	-10.6755
▁ŝirmi	-10.6755
▁Germanio	-10.6755
▁Ocean	-10.6755
▁bongust	-10.6755
▁digest	-10.6755
▁drogoj	-10.6755
▁ekipaĵo	-10.6755
▁ekkompreni	-10.6755
▁kruc	-10.6755
▁reĝimo	-10.6755
▁satur	-10.6755
▁uretro	-10.6755
▁ŝuld	-10.6755
senofo	-10.6755
vokato	-10.6755
▁Super	-10.6755
▁eksmoda	-10.6755
▁komputa	-10.6755
▁baziĝ	-10.6755
▁fleksebl	-10.6755
▁senlima	-10.6755
▁Forlasi	-10.6755
▁honeste	-10.6755
▁kariero	-10.6755
▁lunĉej	-10.6755
▁enorma	-10.6755
▁karito	-10.6755
▁nekonata	-10.6755
▁eben	-10.6755
▁enzimo	-10.6756
▁interspecia	-10.6756
▁staplo	-10.6756
▁mezorienta	-10.6756
▁pompa	-10.6756
▁kritika	-10.6756
▁forpuŝi	-10.6756
sponso	-10.6756
▁Origin	-10.6756
▁plurkultura	-10.6756
▁ĉirkaŭvolvi	-10.6756
▁Ofic	-10.6756
▁ĉokoladkuko	-10.6756
▁templo	-10.6756
▁ekkonsci	-10.6756
▁altvalora	-10.6756
▁ĉerp	-10.6756
▁fazo	-10.6756
▁homeopati	-10.6756
▁Svis	-10.6756
▁loĝĉambro	-10.6756
▁malpura	-10.6756
▁ĉefverko	-10.6756
▁malbonodora	-10.6756
▁fosi	-10.6756
▁Ekzi	-10.6756
▁starpunkto	-10.6756
▁ekaper	-10.6756
▁Bush	-10.6756
▁elektronika	-10.6756
▁kontenta	-10.6756
▁ombr	-10.6757
▁kvorumsensado	-10.6757
▁Fondaĵo	-10.6757
▁hero	-10.6757
▁mok	-10.6757
▁marakvo	-10.6757
▁kvartalo	-10.6757
▁Tom	-10.6757
▁geartistoj	-10.6757
▁litroj	-10.6757
▁denuncantoj	-10.6757
▁eklum	-10.6757
▁engaĝiĝi	-10.6757
▁kontraŭbatal	-10.6757
ford	-10.6757
▁187	-10.6757
▁flamoj	-10.6757
▁notujo	-10.6758
▁48	-10.6758
arkto	-10.6758
▁servistino	-10.6758
▁dramo	-10.6758
▁montet	-10.6758
▁allogi	-10.6758
kolora	-10.6758
▁estinteco	-10.6758
▁regulpunkto	-10.6758
▁lerteco	-10.6758
▁kuracilo	-10.6759
akso	-10.6759
▁batatoj	-10.6759
▁cira	-10.6759
▁38	-10.6759
▁Dicke	-10.6759
▁sap	-10.6759
▁eksplik	-10.6759
▁negoc	-10.6759
▁motor	-10.676
▁trakur	-10.676
nbru	-10.676
▁tradicio	-10.6761
▁denseco	-10.6761
▁abel	-10.6761
▁sonoril	-10.6762
▁ekpe	-10.6762
cize	-10.6762
▁kvadratmetro	-10.6762
bec	-10.6763
liza	-10.6763
▁juda	-10.6763
▁komparebla	-10.6764
▁psikul	-10.6764
▁satelita	-10.6764
▁human	-10.6765
▁golf	-10.6766
▁membro	-10.6766
▁Sur	-10.6767
▁rezultig	-10.6767
▁antaŭdir	-10.6769
▁investado	-10.6769
▁gard	-10.677
▁Prem	-10.6772
▁enmigrintoj	-10.6772
▁kontrakto	-10.6773
▁prilaborado	-10.6775
▁kaĝo	-10.6775
▁orf	-10.6775
rusa	-10.6775
▁New	-10.6776
teko	-10.6776
▁ekstera	-10.6776
termo	-10.6777
▁libera	-10.6777
▁Eduk	-10.6778
▁dissekcado	-10.6779
▁inventaĵo	-10.6779
▁persone	-10.6781
▁survoj	-10.6782
▁lasero	-10.6783
pensu	-10.6783
▁tereno	-10.6784
▁laborantaj	-10.6785
sfero	-10.6785
supro	-10.6786
▁altnivela	-10.6787
▁orbit	-10.6788
▁indi	-10.6789
▁22	-10.6791
▁historie	-10.6792
▁surb	-10.6793
▁agrikultura	-10.6794
▁distanciĝ	-10.6794
▁ĝardeno	-10.6795
leks	-10.6795
▁ekdeziro	-10.6796
▁larĝa	-10.6796
▁kontraŭdiraj	-10.6797
▁priskribo	-10.6797
vesto	-10.6798
raj	-10.6798
▁malsupro	-10.68
vetero	-10.68
▁Fla	-10.6802
▁poseda	-10.6803
▁matematikum	-10.6805
▁malbel	-10.6806
▁varmiĝo	-10.6806
▁varoj	-10.6807
hop	-10.6809
▁observ	-10.6809
▁ekuzi	-10.681
▁saĝ	-10.6811
▁plano	-10.6813
▁hok	-10.6814
▁reaktoro	-10.6814
▁panelo	-10.6814
▁adekvat	-10.6814
▁bazita	-10.6814
▁prononc	-10.6814
libereco	-10.6816
▁struktura	-10.6816
▁legom	-10.6818
▁ĉokolado	-10.6825
▁barb	-10.6825
▁honor	-10.683
▁senp	-10.6831
▁frandaĵo	-10.6833
kemio	-10.6833
▁plasta	-10.6833
stin	-10.6834
▁purig	-10.6836
▁laborejo	-10.6838
▁kanton	-10.684
▁arterioj	-10.6841
▁ekspedicioj	-10.6841
▁magnetoj	-10.6841
▁sanigiloj	-10.6841
▁minindustrio	-10.6841
▁viktimoj	-10.6841
▁Plejpart	-10.6842
▁sp	-10.6842
▁kadr	-10.6843
dw	-10.6844
▁afrikaj	-10.6846
▁neŭron	-10.6849
▁fek	-10.6852
▁ondoj	-10.6853
▁centra	-10.6857
▁helena	-10.6857
▁sursceneje	-10.6857
▁dezerto	-10.686
▁misio	-10.686
▁ligno	-10.686
▁ŝtalo	-10.6861
migranto	-10.6861
▁vivmedio	-10.6862
monio	-10.6862
▁somero	-10.6862
▁gazetaro	-10.6862
▁anĝeloj	-10.6865
▁perforto	-10.6865
oje	-10.6865
ier	-10.6869
▁donacita	-10.6869
▁bu	-10.6872
▁titoli	-10.6873
▁sekso	-10.6874
▁teĥnika	-10.6874
tavo	-10.6874
▁ŝancojn	-10.6876
▁kvalifikita	-10.6878
▁donitaĵoj	-10.6879
▁pelto	-10.6879
▁postvivo	-10.6879
RI	-10.6881
titaj	-10.689
▁liberalaj	-10.6893
▁homaro	-10.6895
▁ceteraj	-10.6899
▁pirat	-10.69
monto	-10.6903
▁100-	-10.6906
▁elektrodoj	-10.6906
▁Sufi	-10.6906
▁realo	-10.6911
▁Lasta	-10.6911
▁nomita	-10.6911
▁aviadiloj	-10.6914
▁sekcio	-10.6916
▁mallongigo	-10.6917
▁interne	-10.692
▁longdaŭra	-10.692
▁delfeno	-10.6921
▁deklaro	-10.6921
kur	-10.6923
▁foriri	-10.6925
▁dikiĝo	-10.6926
▁festo	-10.6927
▁hispana	-10.6927
▁trikoto	-10.6928
▁gener	-10.693
▁disvolviĝ	-10.6932
▁logiko	-10.6938
▁Vidi	-10.6946
▁dezajno	-10.6949
▁gramo	-10.6953
▁difekti	-10.6955
septembro	-10.6955
▁venen	-10.6958
▁blov	-10.6964
programi	-10.6966
▁inĝenieriaj	-10.6969
▁ĉeval	-10.698
▁interkonsent	-10.6983
▁provoki	-10.6985
▁ciklon	-10.6988
▁lecionoj	-10.6988
▁laborpostenoj	-10.6989
▁Afrikan	-10.6991
▁ordigi	-10.6992
▁komentoj	-10.6994
▁najbaroj	-10.6997
▁varmo	-10.6998
▁defendant	-10.6999
kiel	-10.6999
bo	-10.6999
▁fasoni	-10.7
rgi	-10.7
▁surprizita	-10.7001
▁submetita	-10.7004
hi	-10.7004
adaptiĝ	-10.7006
▁serviloj	-10.7006
▁pico	-10.7008
▁poz	-10.7011
▁frazoj	-10.7022
▁brilaj	-10.7024
▁renkontiĝo	-10.7025
▁metroj	-10.7031
▁ski	-10.7046
▁humuro	-10.7047
▁anatomio	-10.7047
enspezo	-10.7055
▁tekstoj	-10.7079
▁vetu	-10.7081
▁rizo	-10.7084
▁vizio	-10.7085
▁Avino	-10.7085
▁defia	-10.7089
▁kur	-10.709
▁Bi	-10.7094
▁Har	-10.7097
▁Trum	-10.7107
▁daŭrigebl	-10.7107
▁akrido	-10.7126
tute	-10.7128
▁pruvo	-10.7128
speca	-10.7129
▁fundamenta	-10.713
▁atendu	-10.7132
gento	-10.7136
▁cifereca	-10.7137
▁kontakto	-10.7141
▁brakoj	-10.7144
▁detektiloj	-10.7147
▁verkita	-10.7148
▁linioj	-10.715
▁matematika	-10.715
▁pentrita	-10.7152
ontan	-10.7152
▁retmesaĝoj	-10.7155
▁renoj	-10.7165
prez	-10.7167
▁ligilo	-10.7167
▁floroj	-10.7171
▁Kristana	-10.7176
▁konspiro	-10.7181
▁fiŝo	-10.7185
▁nulo	-10.7186
▁bildig	-10.7195
▁konstati	-10.7207
▁Or	-10.7208
▁enketo	-10.7211
▁antaŭvida	-10.7212
▁San	-10.7218
▁prisem	-10.722
spiro	-10.7221
▁toksa	-10.7229
▁insist	-10.7234
▁ostoj	-10.7236
dum	-10.7236
▁tipoj	-10.7244
▁lastjar	-10.7249
umoj	-10.7249
▁mallarĝa	-10.725
▁poŝtelefono	-10.7253
▁Venu	-10.7255
manĝo	-10.726
▁elektu	-10.7263
▁decidoj	-10.7266
▁im	-10.7271
▁ĉiel	-10.7274
▁brut	-10.7275
▁malkresk	-10.7287
▁gara	-10.7289
cel	-10.7297
▁multekostaj	-10.7297
▁realaj	-10.7299
▁sunelektrigi	-10.7302
De	-10.7303
▁plibonig	-10.7303
▁decido	-10.7305
▁truoj	-10.7307
▁pliiĝo	-10.7312
▁biblioj	-10.7317
▁kancero	-10.7335
id	-10.7337
vidata	-10.7338
lh	-10.7346
▁restu	-10.7346
angle	-10.7347
blas	-10.735
▁debatoj	-10.7354
orgo	-10.7354
▁detaloj	-10.7355
▁efektivigi	-10.7356
artistoj	-10.7358
▁disigi	-10.7365
fin	-10.7369
▁jon	-10.737
▁teknika	-10.7374
▁solvita	-10.7375
▁fotis	-10.7383
▁malŝalti	-10.7384
▁malsanoj	-10.7394
▁fadenoj	-10.7411
▁speguli	-10.7412
▁videbl	-10.7415
mm	-10.7416
▁nura	-10.742
▁religiaj	-10.7425
▁esprimoj	-10.7433
▁favor	-10.7435
▁elektrost	-10.7445
▁flar	-10.7447
▁skemoj	-10.7453
fas	-10.7461
▁orelo	-10.7463
▁modeli	-10.7471
▁funkciigi	-10.7475
▁ejo	-10.7479
▁flug	-10.7483
▁apartigi	-10.7485
▁neceso	-10.7486
▁arboj	-10.7513
▁estro	-10.7514
dependeco	-10.7516
▁karbon	-10.752
▁agadoj	-10.7532
tersurfac	-10.7543
▁avantaĝoj	-10.7544
▁forigo	-10.7545
▁fortika	-10.7546
▁trovebl	-10.7547
▁ad	-10.7551
▁deziroj	-10.7551
majn	-10.7554
ent	-10.7557
▁incizo	-10.7559
▁komerca	-10.757
▁inversa	-10.7592
▁disig	-10.7608
▁rikolti	-10.7615
rnis	-10.7621
▁plend	-10.7628
▁profiti	-10.7636
fida	-10.7638
epoka	-10.7641
▁inspiri	-10.7654
▁psikopati	-10.7655
▁forĵet	-10.7658
▁ŝalti	-10.7665
▁strategioj	-10.7672
▁ĝui	-10.7683
▁Tu	-10.7684
tio	-10.7686
▁optikaj	-10.7688
umin	-10.7695
▁nesci	-10.7701
▁konceptoj	-10.771
▁celoj	-10.7711
3-	-10.7729
▁ĉielo	-10.7735
▁rezonado	-10.774
ada	-10.775
▁telefono	-10.7751
tala	-10.7754
at	-10.7762
▁surmet	-10.7766
▁forĵeti	-10.7777
▁signaloj	-10.7777
jaraĝ	-10.7779
▁praktik	-10.7781
▁ark	-10.779
▁malsaniga	-10.7803
▁provu	-10.7806
▁legant	-10.7814
▁Dir	-10.7815
▁esploris	-10.7818
▁vaskula	-10.7838
▁spiritoj	-10.7845
▁pordoj	-10.7852
▁lastatemp	-10.7864
gle	-10.7885
nombri	-10.7886
▁reflekta	-10.7916
ob	-10.793
▁Fo	-10.7932
▁ekologiaj	-10.7936
▁korpaj	-10.7936
▁signifaj	-10.7947
▁reklam	-10.7949
▁konsideru	-10.7955
▁rajtoj	-10.7956
▁aparaton	-10.7968
log	-10.7979
▁oceanon	-10.7999
▁Gu	-10.8007
▁scipovi	-10.8009
▁movoj	-10.8012
▁furora	-10.8012
▁pluiri	-10.8019
▁helpa	-10.804
riĉeco	-10.8042
ele	-10.8047
▁ago	-10.8054
et	-10.8067
▁larĝe	-10.8078
▁stelul	-10.8079
▁konstruad	-10.8094
▁malproksim	-10.8109
▁psikopatiul	-10.811
ol	-10.8112
▁forig	-10.8118
▁eldir	-10.8121
cy	-10.8125
▁helpant	-10.813
konduk	-10.8133
▁bank	-10.8164
▁27	-10.8165
▁paro	-10.8182
▁Lia	-10.8184
▁bru	-10.8186
▁statistikoj	-10.8187
▁koncern	-10.8247
▁gigantaj	-10.8258
▁eksplodi	-10.8284
▁Lev	-10.8309
▁troviĝi	-10.8325
▁tutsimpl	-10.8327
▁talent	-10.8339
rizo	-10.8343
▁instruant	-10.8345
▁loĝi	-10.8347
rekona	-10.8349
▁priparol	-10.836
▁varmig	-10.8364
kla	-10.8382
tri	-10.8383
▁regul	-10.8392
▁reakiri	-10.8393
▁povint	-10.8398
▁pla	-10.8399
▁individue	-10.84
▁tuŝ	-10.8403
▁brilan	-10.842
▁akord	-10.8426
▁larĝ	-10.8448
▁publik	-10.8503
▁dezajn	-10.8523
▁repren	-10.8534
▁robota	-10.8581
▁kutimo	-10.8586
elaĵo	-10.8597
▁biosferoj	-10.8598
▁Ca	-10.8599
▁provoj	-10.8601
▁posta	-10.8607
▁koncentriĝi	-10.8611
▁kora	-10.8624
mel	-10.8626
▁unuigi	-10.8634
▁genetik	-10.8639
▁kera	-10.8645
▁grandegaj	-10.8646
▁solv	-10.8651
fluaĵ	-10.866
▁kat	-10.8669
▁ambici	-10.8693
▁haltig	-10.8693
▁komputil	-10.8714
▁san	-10.8718
▁program	-10.8724
▁instal	-10.8731
hal	-10.8744
▁movi	-10.8747
▁sekv	-10.8747
▁publikig	-10.875
▁speci	-10.8756
kva	-10.8757
▁sentem	-10.8764
▁evoluig	-10.8768
▁malferm	-10.8775
▁profit	-10.8792
▁spur	-10.8799
▁diven	-10.8802
kan	-10.8805
▁anstataŭig	-10.8819
▁volont	-10.8824
▁malmultekosta	-10.8852
▁malsanig	-10.8855
▁intens	-10.8874
band	-10.8875
▁efikoj	-10.8875
▁elturniĝ	-10.8877
▁redifin	-10.8884
▁pasi	-10.8908
▁transir	-10.8909
▁popular	-10.8922
▁Mur	-10.8923
sisteme	-10.893
▁miliardo	-10.8931
▁malsat	-10.8931
▁sankt	-10.8932
▁Spektant	-10.8949
▁Gate	-10.8957
▁detrui	-10.8966
▁spertoj	-10.8968
▁elĉerp	-10.8968
▁dispon	-10.8976
▁metita	-10.898
▁duobliĝ	-10.8992
▁sekundo	-10.9004
igantaj	-10.9011
salti	-10.9021
▁surpriz	-10.9052
▁ŝerc	-10.9058
▁premio	-10.9074
cent	-10.9082
▁elspez	-10.9084
▁brila	-10.9087
and	-10.9094
▁entut	-10.9099
▁Kiuj	-10.9106
ski	-10.9111
▁defioj	-10.9116
ale	-10.9117
eniri	-10.9137
ki	-10.9143
▁sensi	-10.915
▁studo	-10.9163
▁kviet	-10.9171
gis	-10.9173
▁reprezenti	-10.9176
▁trian	-10.9189
▁diet	-10.9193
fa	-10.92
stelulo	-10.9214
analizi	-10.9219
nomis	-10.9223
▁rev	-10.9233
▁best	-10.9235
ku	-10.9235
▁ŝtat	-10.9251
▁fla	-10.9264
rno	-10.9269
▁faritaj	-10.9281
graf	-10.9282
▁solvoj	-10.9307
▁fiera	-10.9312
▁reir	-10.9315
▁komunikada	-10.9316
ludo	-10.9323
▁plenum	-10.9328
▁bild	-10.9341
arto	-10.9347
ovo	-10.935
▁Bu	-10.9359
▁ellas	-10.936
▁alport	-10.9376
▁kavern	-10.9379
▁ekonomik	-10.9382
▁profesiulo	-10.9383
▁hist	-10.9389
▁lobo	-10.9394
▁astronom	-10.9395
dub	-10.9395
▁urĝ	-10.9406
▁superan	-10.9424
eman	-10.9432
▁poŝtelefon	-10.9435
▁sek	-10.9453
▁flor	-10.9454
intaj	-10.9454
melan	-10.9457
▁inspekt	-10.9464
▁rub	-10.9471
▁Supre	-10.9483
00	-10.9485
▁verd	-10.9487
▁adultulo	-10.9489
▁lumbildo	-10.9489
▁temporala	-10.9489
▁fibro	-10.9489
▁nombr	-10.9496
▁elemento	-10.9503
▁kapabloj	-10.951
▁dia	-10.9512
▁sugesto	-10.9512
▁indik	-10.9519
▁sciencfikci	-10.9526
▁tuto	-10.9537
▁montranta	-10.9537
org	-10.954
lito	-10.9547
▁plant	-10.955
▁substanc	-10.9558
▁seĝo	-10.9558
▁konstruaĵo	-10.9563
far	-10.9566
pam	-10.957
korpa	-10.9573
▁mensa	-10.9574
▁intuici	-10.9575
▁brako	-10.9575
lara	-10.9577
rio	-10.958
▁silk	-10.9589
▁milit	-10.9589
▁veturilo	-10.959
harmoni	-10.9591
▁modifi	-10.9597
▁psikolog	-10.9598
▁artaĵo	-10.96
▁interrilat	-10.9601
▁fremd	-10.9603
▁ide	-10.9606
▁eksci	-10.9613
dio	-10.9619
▁religia	-10.9624
▁insekto	-10.9631
▁financ	-10.9637
▁profito	-10.9644
▁klimat	-10.9644
▁retmesaĝo	-10.9647
▁alproksimiĝ	-10.9652
▁logik	-10.9654
oceana	-10.9655
▁akr	-10.9656
▁imperi	-10.9657
dek	-10.966
▁supozi	-10.9664
▁prevent	-10.9668
P	-10.9669
▁silka	-10.9669
▁pridemand	-10.9673
▁procez	-10.9674
mergi	-10.9675
forno	-10.9676
▁Kal	-10.9677
rilat	-10.9679
▁erar	-10.9687
punkto	-10.9689
emo	-10.969
arbar	-10.9694
anojn	-10.9697
▁religi	-10.97
parto	-10.9701
▁kampanjo	-10.9705
▁mezur	-10.9707
amento	-10.971
faritaj	-10.9722
▁individuo	-10.9725
depend	-10.9729
▁detektilo	-10.9732
vizaĝ	-10.9736
pont	-10.9737
▁Ad	-10.9738
▁profunda	-10.9738
▁utila	-10.9739
vintr	-10.9743
rivero	-10.9744
▁ministr	-10.9745
malsano	-10.9747
▁demokrat	-10.9747
ins	-10.9748
▁nutraĵo	-10.9748
puŝ	-10.9748
bur	-10.9748
homa	-10.975
▁submeti	-10.9754
grupo	-10.9758
plimulto	-10.976
signalo	-10.9762
loĝantaro	-10.9765
procezo	-10.9769
▁strang	-10.9769
▁vestaĵo	-10.9772
▁Nova	-10.9773
homo	-10.9773
▁bonfart	-10.9776
bra	-10.9776
forma	-10.9781
20	-10.9783
F	-10.9784
▁okul	-10.9792
▁etendiĝ	-10.9799
rapid	-10.9801
▁koncept	-10.9801
▁impres	-10.9804
ezo	-10.9806
▁maksimum	-10.9809
dosi	-10.981
verko	-10.9811
▁klopodi	-10.9811
▁fung	-10.9817
▁asoci	-10.982
semajn	-10.9829
ŝanĝa	-10.9836
▁distr	-10.9836
formo	-10.9838
▁infekt	-10.984
devena	-10.984
▁redukti	-10.9842
alerio	-10.9844
▁salt	-10.9846
▁mezlernej	-10.9848
▁utilig	-10.9852
▁leciono	-10.9855
▁frazo	-10.9857
▁malantaŭa	-10.9859
▁aviadil	-10.9864
▁reagi	-10.9867
▁egalec	-10.9873
homaj	-10.9878
▁font	-10.9881
▁fra	-10.9881
▁supraĵ	-10.9883
ekstre	-10.9887
fino	-10.9888
vorto	-10.9891
▁komento	-10.9897
▁seksallog	-10.9898
▁integri	-10.9904
▁malkompon	-10.991
kiĝi	-10.9912
▁Ke	-10.9914
▁statistik	-10.9916
stroj	-10.9921
▁mod	-10.9922
▁etern	-10.9922
isch	-10.9922
▁Gra	-10.9923
▁haŭt	-10.9924
▁kombin	-10.9927
▁Fi	-10.993
▁lun	-10.9931
▁okcident	-10.9932
der	-10.9933
▁pravi	-10.9934
▁kompleks	-10.9937
▁knabin	-10.994
▁mor	-10.9943
histori	-10.9943
▁konvink	-10.9944
mur	-10.9944
doni	-10.9945
fend	-10.9946
▁surscenej	-10.9949
▁hel	-10.9951
▁aplaŭd	-10.9953
pilko	-10.9958
▁sta	-10.9959
metroj	-10.9963
▁dissekc	-10.9964
▁referen	-10.9965
▁agr	-10.9967
▁mangrov	-10.9967
▁divers	-10.9973
▁vizaĝ	-10.9976
tradici	-10.9976
▁tolerem	-10.9983
stato	-10.9983
ĝoj	-10.9988
keto	-10.9992
pozitiv	-10.9994
uŝo	-10.9995
lande	-10.9996
▁trud	-11.0016
▁teks	-11.0016
▁stari	-11.0021
puriga	-11.0026
▁250	-11.0027
▁akv	-11.0027
▁injekt	-11.0028
▁Pla	-11.0028
▁supra	-11.003
▁Lern	-11.0032
stjar	-11.0033
▁malantaŭe	-11.0036
▁pikaj	-11.0039
▁Kelk	-11.0041
medio	-11.0048
forme	-11.0049
▁Ŝa	-11.0051
▁bedaŭr	-11.0053
▁agnos	-11.0053
parko	-11.0054
▁nervo	-11.0054
▁45	-11.0058
▁disp	-11.0059
ker	-11.0062
▁reale	-11.0064
▁fest	-11.0064
▁eksp	-11.0068
▁civi	-11.0074
▁Ĉe	-11.0075
dimensia	-11.0076
▁hidro	-11.0078
▁32	-11.0078
hip	-11.008
▁integriĝ	-11.0081
▁Wi	-11.0081
glob	-11.0084
▁kvadrat	-11.0084
mova	-11.0084
specifaj	-11.0084
kvator	-11.0085
fektiv	-11.0085
rando	-11.0085
▁funkcii	-11.0087
▁trejnis	-11.0087
▁denunc	-11.0087
ermesu	-11.0088
ifer	-11.0088
ormigi	-11.0089
▁komiks	-11.0089
▁altkvalit	-11.0089
▁hospitalo	-11.0089
ŝranko	-11.0089
▁Elisabet	-11.0089
▁Gronlando	-11.0089
▁HIV	-11.0089
▁Hemisfero	-11.0089
▁Malthus	-11.0089
▁Repovum	-11.0089
▁Saturno	-11.0089
▁Sukces	-11.0089
▁Vas	-11.0089
▁aflikto	-11.0089
▁alternativo	-11.0089
▁aventuro	-11.0089
▁aŭtobuso	-11.0089
▁bizara	-11.0089
▁cirkonstanco	-11.0089
▁eminenta	-11.0089
▁eŭroj	-11.0089
▁famkonata	-11.0089
▁feminism	-11.0089
▁hibrido	-11.0089
▁kartilag	-11.0089
▁klimatŝanĝiĝo	-11.0089
▁kokaino	-11.0089
▁komforta	-11.0089
▁konsistanta	-11.0089
▁lipbalzamo	-11.0089
▁malfeliĉ	-11.0089
▁malglata	-11.0089
▁matur	-11.0089
▁miniatura	-11.0089
▁netoksa	-11.0089
▁obstakloj	-11.0089
▁okulvitroj	-11.0089
▁pankreaso	-11.0089
▁penicilino	-11.0089
▁pigmentado	-11.0089
▁pigmento	-11.0089
▁plejŝatata	-11.0089
▁postdoktoroj	-11.0089
▁primitiva	-11.0089
▁prokrasti	-11.0089
▁putr	-11.0089
▁samseks	-11.0089
▁sandaloj	-11.0089
▁senkompar	-11.0089
▁submarŝipeto	-11.0089
▁superstimulo	-11.0089
▁ĉapitro	-11.0089
▁ĉeltipoj	-11.0089
▁ĉimpanzoj	-11.0089
▁ĵurnalo	-11.0089
▁Kontrol	-11.0089
▁Orienta	-11.0089
▁administra	-11.0089
▁ekkresk	-11.0089
▁elig	-11.0089
▁faŭlto	-11.0089
▁gazeto	-11.0089
▁hidra	-11.0089
▁naskiĝtago	-11.0089
▁relativ	-11.0089
▁streso	-11.0089
▁Ĉirkaŭ	-11.0089
▁SOLE	-11.0089
▁adoleska	-11.0089
▁armeo	-11.0089
▁biografio	-11.0089
▁ekbrulig	-11.0089
▁emfaz	-11.0089
▁kontentig	-11.0089
▁kruro	-11.0089
▁pluvarbaro	-11.0089
▁sklav	-11.0089
▁sopir	-11.0089
▁subjekto	-11.0089
▁sving	-11.0089
▁trankvil	-11.0089
▁transpasi	-11.0089
▁adopt	-11.0089
▁horizont	-11.0089
▁minimum	-11.0089
▁ŝarĝ	-11.0089
▁fatala	-11.0089
▁viruso	-11.0089
▁ĉelnombro	-11.0089
▁Venecio	-11.0089
▁disŝir	-11.0089
▁grek	-11.0089
▁kolizi	-11.0089
▁Tudor	-11.0089
▁mejloj	-11.0089
▁Movado	-11.0089
▁kanzono	-11.0089
▁definitiv	-11.0089
▁fortranĉ	-11.0089
▁Secur	-11.0089
▁diametro	-11.0089
▁konstern	-11.0089
▁kristanoj	-11.0089
▁Urĝ	-11.0089
▁sporoj	-11.0089
▁ekmaterialo	-11.0089
▁korteg	-11.0089
▁valvo	-11.0089
▁deficito	-11.0089
▁fajrero	-11.0089
▁malprofunda	-11.0089
ktorinan	-11.0089
▁inklin	-11.0089
▁prizorg	-11.0089
baston	-11.0089
▁Prezidanto	-11.0089
▁gloro	-11.0089
▁front	-11.0089
▁vortografio	-11.0089
▁realisma	-11.0089
statu	-11.0089
▁modesta	-11.0089
▁fraponto	-11.0089
▁fratino	-11.0089
DOPA	-11.0089
▁termostato	-11.0089
▁geinfanoj	-11.0089
▁granuloj	-11.0089
dekkelk	-11.0089
▁Ital	-11.0089
▁Konsil	-11.0089
▁tragik	-11.0089
tikigi	-11.0089
▁Demand	-11.0089
▁citaĵo	-11.0089
▁sesdekaj	-11.0089
▁traĥe	-11.0089
▁paco	-11.0089
▁1990-	-11.0089
▁manplato	-11.0089
off	-11.0089
▁komisi	-11.0089
omali	-11.0089
▁novspeca	-11.0089
▁ideologio	-11.0089
hindu	-11.0089
ajstro	-11.0089
▁implic	-11.0089
▁travidebl	-11.0089
▁kokono	-11.0089
▁Mondo	-11.0089
burĝon	-11.0089
▁munt	-11.0089
▁paŭz	-11.009
▁duiliono	-11.009
▁plaĝo	-11.009
▁Aŭstr	-11.009
▁orkestr	-11.009
▁unuhor	-11.009
▁Scienc	-11.009
▁riĉul	-11.009
▁rul	-11.009
▁fandiĝinta	-11.009
▁polenantoj	-11.009
german	-11.009
▁ferment	-11.009
▁maleblig	-11.009
▁katastrofo	-11.009
▁kalorioj	-11.009
▁noca	-11.009
▁multobli	-11.009
▁Sekret	-11.009
▁antaŭenpuŝa	-11.009
alento	-11.009
▁Juĝo	-11.009
▁murdisto	-11.009
▁dekreto	-11.0091
▁53	-11.0091
▁Uz	-11.0091
▁dizajno	-11.0091
▁plastindustri	-11.0091
▁vazaro	-11.0091
▁tomato	-11.0091
▁laborforto	-11.0091
▁salamandro	-11.0091
tabak	-11.0091
▁malkonstru	-11.0091
▁formort	-11.0092
▁konsisto	-11.0092
▁ĝen	-11.0092
▁agantem	-11.0092
▁rastilo	-11.0092
▁juntoj	-11.0092
▁Fajr	-11.0092
cinoj	-11.0092
▁57	-11.0093
▁graso	-11.0093
▁triangulo	-11.0093
▁eldonisto	-11.0093
▁Norda	-11.0093
▁ekvator	-11.0093
▁tumoroj	-11.0093
ritre	-11.0093
▁krabo	-11.0094
▁ŝut	-11.0094
▁remet	-11.0094
▁Eden	-11.0094
▁malvarmigado	-11.0094
▁fiask	-11.0094
▁globa	-11.0094
▁posedi	-11.0094
▁sekreta	-11.0094
▁ŝtatestro	-11.0095
▁transformiĝo	-11.0095
▁prilumita	-11.0095
▁romano	-11.0095
▁pak	-11.0095
▁mamul	-11.0095
▁satelito	-11.0096
sini	-11.0096
▁butonoj	-11.0096
▁prikonsci	-11.0097
▁vor	-11.0098
▁maldika	-11.0098
▁vak	-11.0098
▁tele	-11.0098
▁monujo	-11.0098
▁memorinda	-11.0098
panjo	-11.0098
▁luktado	-11.0099
▁izoli	-11.0099
▁botelo	-11.0099
▁Malgraŭ	-11.0099
▁koler	-11.0099
▁malesper	-11.01
▁manskribado	-11.01
▁skalo	-11.01
▁hidrogen	-11.01
puta	-11.01
▁malkreskanta	-11.01
▁saga	-11.01
▁volforto	-11.0101
▁alkuri	-11.0101
▁strukturigi	-11.0101
erfekt	-11.0101
▁enfermita	-11.0102
▁serĉant	-11.0103
▁genaro	-11.0103
▁kompanio	-11.0103
minato	-11.0103
▁ekven	-11.0104
▁ekstrakt	-11.0104
▁etoso	-11.0104
▁piedir	-11.0104
▁senĉe	-11.0105
ek	-11.0105
emulo	-11.0107
ganoj	-11.0107
▁mirindaĵoj	-11.0107
▁piedoj	-11.0107
Donald	-11.0107
tipa	-11.0108
▁malraci	-11.0108
▁pumpilo	-11.0108
▁kreitaĵo	-11.0109
▁pritrakta	-11.0109
▁organika	-11.0109
leĝ	-11.0109
▁Ĉeval	-11.011
▁estonto	-11.011
87	-11.011
▁lernada	-11.0111
▁priluma	-11.0112
▁Cha	-11.0112
▁populareco	-11.0112
tikulo	-11.0113
▁kaptitaj	-11.0113
▁personecig	-11.0114
▁fosto	-11.0115
traŭkvorumsensaj	-11.0115
▁konkurantoj	-11.0116
▁alkutimi	-11.0117
▁malbeleco	-11.0117
▁Tutmond	-11.0117
▁Elektro	-11.0118
▁kapsulo	-11.0118
▁empati	-11.0118
▁reuz	-11.0118
vard	-11.0118
▁renoviĝ	-11.0119
puro	-11.0119
▁mol	-11.0119
▁Verda	-11.0121
▁Rice	-11.0121
▁kant	-11.0124
▁Kenn	-11.0124
kuko	-11.0125
avio	-11.0126
▁nuda	-11.0127
▁tabulo	-11.0128
kultivejo	-11.0129
▁gustum	-11.0129
▁arbar	-11.0129
▁kunvok	-11.0129
▁oranĝa	-11.013
▁Ph	-11.013
▁fokuso	-11.0131
▁kont	-11.0131
▁montoj	-11.0132
▁22-	-11.0135
▁21-	-11.0135
▁templa	-11.0135
▁Map	-11.0136
▁enterig	-11.0138
▁kontraŭdiroj	-11.0139
▁Amiko	-11.0139
ndaĵoj	-11.014
▁Fald	-11.014
▁elegant	-11.0141
hr	-11.0141
▁forĵetata	-11.0141
▁dozo	-11.0142
▁parolantaj	-11.0142
▁gastig	-11.0144
▁strebado	-11.0145
▁Lernejo	-11.0146
▁flustr	-11.0147
pa	-11.0148
tempo	-11.0148
▁amu	-11.0148
tradiciaj	-11.0149
▁Tro	-11.015
▁pretervi	-11.0151
▁Mont	-11.0151
▁flank	-11.0153
▁spektro	-11.0155
▁manskribita	-11.0157
sani	-11.0157
▁konfuz	-11.0158
▁dekoracio	-11.016
▁penetri	-11.016
▁aĝiĝ	-11.0162
psi	-11.0163
okrat	-11.0165
▁ekzil	-11.0165
▁formul	-11.0166
.000	-11.0167
▁promen	-11.0168
▁aplikata	-11.0168
▁Nacioj	-11.017
▁haroj	-11.017
▁nazo	-11.017
▁sintez	-11.0171
avide	-11.0173
▁malamikoj	-11.0173
▁gen	-11.0173
▁kongru	-11.0174
▁teatro	-11.0174
▁inĝenierad	-11.0174
▁geavoj	-11.0174
▁ĝentil	-11.0174
▁miksado	-11.0176
▁kuvo	-11.0177
▁polic	-11.0177
kalo	-11.0177
▁paĝo	-11.0178
▁familianoj	-11.0178
▁mineraloj	-11.0179
▁krudmaterialoj	-11.0179
▁ŭathoroj	-11.0179
▁danco	-11.0179
▁respondeca	-11.0179
▁malkovra	-11.018
ensa	-11.018
▁Bil	-11.0181
▁surfaca	-11.0181
▁veturi	-11.0182
▁fotograf	-11.0183
▁mister	-11.0188
holo	-11.0188
▁dietado	-11.019
▁eksterteran	-11.019
▁aĉa	-11.019
▁momente	-11.0191
▁18-	-11.0192
▁milda	-11.0193
▁koton	-11.0195
▁kompetentoj	-11.0196
krista	-11.0197
▁malriĉeco	-11.0197
▁antaŭenigi	-11.0198
▁frato	-11.0199
▁taksado	-11.0199
idaj	-11.0203
▁facil	-11.0203
▁ekzistanta	-11.0205
▁prosper	-11.0205
▁Ten	-11.0207
▁kleraj	-11.0207
central	-11.0208
▁pliaĝ	-11.0213
▁kulmino	-11.0213
▁etapo	-11.0214
▁kuneca	-11.0215
asint	-11.0216
istorio	-11.0216
revig	-11.0216
▁disput	-11.0216
▁forlasu	-11.0217
▁ĵetist	-11.0218
inga	-11.0218
▁geografi	-11.022
▁individuaj	-11.0222
▁dinamikaj	-11.0223
▁civitanoj	-11.0227
▁aŭtismo	-11.0229
▁gesto	-11.0229
▁dorso	-11.023
▁porka	-11.0235
▁kunlaboranto	-11.0237
▁Aldon	-11.0237
▁diabl	-11.024
▁programita	-11.024
▁Sinjor	-11.0242
▁kodo	-11.0242
▁likvo	-11.0242
▁4-	-11.0243
▁fuzi	-11.0246
▁vejnoj	-11.0249
▁partoprenado	-11.025
▁nigra	-11.0251
▁ungoj	-11.0252
▁aplikoj	-11.0252
amata	-11.0256
▁uzitaj	-11.0256
▁Bal	-11.0259
▁reciklig	-11.026
▁Male	-11.0261
▁kra	-11.0264
▁necertec	-11.0266
▁bo	-11.0268
▁priparoli	-11.027
▁disreviĝi	-11.0273
▁pligrandigi	-11.0275
▁funkcianta	-11.0277
pag	-11.028
▁lukto	-11.0281
aldekstr	-11.0282
▁fundo	-11.0282
▁kopiita	-11.0282
▁logika	-11.0283
▁skatolo	-11.0284
▁salikokoj	-11.0284
▁kreiva	-11.0285
▁tener	-11.0292
▁seksallogaj	-11.0292
▁senkonsci	-11.0295
▁urĝa	-11.0298
tmo	-11.0298
▁situa	-11.0299
ly	-11.0302
▁nord	-11.0303
▁konvena	-11.0304
▁Tuta	-11.0308
lms	-11.0309
▁kunmetaĵo	-11.031
▁nevideblig	-11.031
propr	-11.0311
▁dikiĝ	-11.0313
▁top	-11.0313
▁unuopa	-11.0314
▁portreti	-11.0316
▁teĥniko	-11.0317
▁ĉemizo	-11.0323
▁kapital	-11.0323
▁profeto	-11.0325
▁datumo	-11.0326
▁suferanta	-11.0328
▁plumoj	-11.033
▁ciferoj	-11.033
▁af	-11.0331
▁Elir	-11.0333
▁kirurgio	-11.0336
▁dinamikoj	-11.0337
▁genio	-11.0337
frapanta	-11.0339
▁majstro	-11.0339
▁prezentata	-11.0341
▁barilo	-11.0342
▁mezo	-11.0342
nacia	-11.0349
▁konfid	-11.035
▁inspir	-11.035
▁suben	-11.0352
▁15-	-11.0355
▁pozitivaĵo	-11.0355
▁malkomponiĝ	-11.0358
▁planita	-11.0363
▁rubaĵo	-11.0363
▁disiĝo	-11.0363
▁afiŝ	-11.0366
▁Fl	-11.0366
▁katoj	-11.0366
▁30-	-11.0367
estat	-11.0367
▁malapero	-11.0368
▁insulo	-11.0368
▁fali	-11.0374
▁surbendigita	-11.0378
▁efektiva	-11.038
▁mortigi	-11.0386
▁infektoj	-11.0387
▁ekzilita	-11.0388
▁eksteraĵo	-11.0391
falo	-11.0393
ati	-11.0394
▁okazanta	-11.0398
minuta	-11.04
AT	-11.0405
▁akompani	-11.0411
▁bonfarto	-11.0412
▁trarigard	-11.0412
▁Videbl	-11.0415
▁es	-11.0417
▁arbaro	-11.0418
▁protektat	-11.0423
tigo	-11.0427
▁konscienc	-11.0433
▁alvoki	-11.0437
kh	-11.0441
▁kreskado	-11.0442
▁fidindaj	-11.0449
▁printilo	-11.045
▁Park	-11.0453
▁kompatema	-11.0453
▁ŝpruc	-11.0458
firma	-11.0459
▁aŭtoro	-11.0465
▁feliĉe	-11.0467
▁gusto	-11.0476
▁regulo	-11.0477
▁va	-11.0477
▁Kev	-11.0483
▁televide	-11.0484
ĉin	-11.0485
▁atendo	-11.0485
elcent	-11.0485
▁enua	-11.0486
▁agu	-11.0502
▁bur	-11.0503
▁timiga	-11.0505
▁postuloj	-11.0514
▁rompiĝ	-11.0521
▁Fr	-11.0522
▁trejniĝ	-11.0525
▁kurenton	-11.0529
▁bomb	-11.0534
▁amplekso	-11.0534
▁koloni	-11.0538
▁ĵurnalistoj	-11.0538
▁komponaĵoj	-11.0539
▁reduktiĝ	-11.054
▁origino	-11.0541
▁rekompenc	-11.0542
▁nudo	-11.0547
konsumado	-11.0547
▁kredind	-11.0548
voki	-11.0548
▁militist	-11.056
▁sala	-11.0568
▁eduko	-11.0572
▁kultivi	-11.0572
▁ma	-11.0574
▁delikat	-11.0577
▁malriĉeg	-11.0579
▁subskribi	-11.0582
nton	-11.0596
▁interŝanĝ	-11.0599
▁postvivi	-11.0599
▁soci	-11.0602
▁oferi	-11.0603
procenta	-11.0604
▁modifita	-11.0606
▁kovrita	-11.0606
▁laŭte	-11.0608
nco	-11.061
▁ekonomi	-11.061
▁ofic	-11.0614
▁industria	-11.0624
▁mielo	-11.0627
▁robotoj	-11.0632
▁komunikilo	-11.0638
▁mieno	-11.0644
▁venko	-11.0644
▁malĝustaj	-11.0653
▁rolulo	-11.0669
▁kompletigi	-11.0671
▁aŭskultant	-11.0674
▁radi	-11.0674
▁kontroli	-11.0675
▁vojaĝ	-11.068
TA	-11.068
▁sve	-11.0681
▁timaj	-11.0682
▁nekonatoj	-11.0682
▁bul	-11.0693
▁Antaŭe	-11.0697
embro	-11.0705
▁pripensad	-11.0708
▁kuraĝo	-11.0712
▁ink	-11.0715
▁reklamoj	-11.0718
planti	-11.0718
ci	-11.0726
▁Mos	-11.0733
▁juĝ	-11.0735
▁triumfo	-11.0741
filme	-11.0747
▁Fe	-11.0754
▁formal	-11.0754
▁persona	-11.0758
▁ĉela	-11.0768
▁parad	-11.0774
neglektind	-11.0776
preno	-11.0777
ato	-11.0777
▁Pad	-11.078
orto	-11.078
▁absoluta	-11.0797
▁tub	-11.0797
▁krak	-11.0798
mata	-11.0806
eblo	-11.0808
▁kuntr	-11.0811
▁helpu	-11.0816
▁ĉirkaŭiri	-11.082
▁investo	-11.0821
▁ripetiĝa	-11.0822
▁noti	-11.0827
▁konsumant	-11.0831
lan	-11.0832
▁loboj	-11.0835
▁familia	-11.0838
▁malantaŭaj	-11.0845
▁kontrolanta	-11.0847
▁plaĉa	-11.0849
▁veturiloj	-11.0849
uzan	-11.0851
▁trair	-11.0856
▁forpasinta	-11.0857
▁profesiuloj	-11.0861
▁merkatoj	-11.0863
cioj	-11.0876
▁Rob	-11.0881
imuna	-11.0883
▁etendiĝi	-11.0894
▁alporti	-11.0897
▁sole	-11.0897
▁preĝi	-11.0897
ay	-11.0898
ranoj	-11.0903
▁financaj	-11.0907
▁transskribi	-11.0909
▁duobl	-11.0911
diĝ	-11.0913
▁reagu	-11.0921
▁planeda	-11.0925
▁okcidentaj	-11.093
paŝ	-11.0934
instanco	-11.0935
▁aspekto	-11.0943
▁nekonaton	-11.0943
▁plonĝo	-11.0945
▁Rest	-11.0947
▁malŝpar	-11.0964
igaj	-11.0968
▁telefonoj	-11.0971
▁precizaj	-11.0972
▁veneno	-11.0976
▁testi	-11.098
▁varmiga	-11.098
▁limigitaj	-11.0982
▁Sh	-11.0984
▁akcepta	-11.0991
nterreto	-11.1002
▁surbendigi	-11.1004
▁prefere	-11.1018
▁sol	-11.1022
▁etendi	-11.1024
▁ridet	-11.1031
▁Jon	-11.1034
▁semoj	-11.1037
▁kri	-11.1052
ort	-11.106
▁malnov	-11.1067
▁funkcioj	-11.107
▁stult	-11.1071
▁aktivi	-11.1071
▁ki	-11.1072
▁reakirata	-11.1077
▁teror	-11.1077
ien	-11.1078
ngoj	-11.1096
intoj	-11.1096
caj	-11.1101
il	-11.1101
▁trejnita	-11.1105
ligi	-11.1107
nternacia	-11.111
▁kurac	-11.1118
▁promeso	-11.1126
▁graveg	-11.1134
▁perdiĝ	-11.1135
▁eksterlanda	-11.1135
▁am	-11.1148
▁dono	-11.1157
▁daŭro	-11.1158
▁vidigi	-11.116
▁emocia	-11.1161
▁kread	-11.1163
▁informeroj	-11.1168
forto	-11.1168
▁magion	-11.117
▁praktiko	-11.1171
▁devigi	-11.1172
▁minacoj	-11.1174
▁Malmult	-11.1176
▁intereso	-11.1185
raĵo	-11.1191
▁memkuniĝa	-11.1199
tanta	-11.12
verŝ	-11.1209
▁kritiki	-11.121
azi	-11.1231
▁kampoj	-11.1233
vaĵo	-11.1239
▁kolekto	-11.1245
▁ricevant	-11.1247
▁ĵeti	-11.1253
▁kapabl	-11.1268
▁regis	-11.1268
alvenantaj	-11.127
▁transdoni	-11.1274
▁fidoj	-11.1275
▁suspekti	-11.128
▁signifoj	-11.1281
▁reproduktiĝ	-11.1282
▁kar	-11.1286
▁konataj	-11.1288
▁kameraoj	-11.1289
▁diskaparato	-11.1304
taks	-11.1308
▁inversig	-11.1312
▁videbli	-11.1314
▁partopreni	-11.1321
▁ŝtop	-11.1322
banano	-11.1334
▁vizaĝoj	-11.1345
▁Ab	-11.1367
▁fontoj	-11.137
▁funebra	-11.1373
spekt	-11.1374
▁tropeza	-11.1375
▁mala	-11.1377
▁lagoj	-11.1378
▁Case	-11.1384
▁populara	-11.1391
▁veniga	-11.1392
▁dikaj	-11.1395
▁Pu	-11.1411
egoj	-11.1431
▁tenanta	-11.1433
th	-11.1435
▁antaŭnelong	-11.1444
▁86	-11.1458
▁leganto	-11.1469
▁Hu	-11.147
bor	-11.1472
tomoj	-11.1476
▁ador	-11.1477
▁forĵetaĵ	-11.1488
▁reuzi	-11.1489
temp	-11.1494
▁sekvaĵo	-11.1498
▁malmultekost	-11.1498
▁Ĉie	-11.15
▁bakteri	-11.1505
▁fe	-11.151
▁Iĝa	-11.1512
▁dietoj	-11.1516
▁provizo	-11.1518
▁aspekti	-11.1519
▁intensa	-11.1528
esta	-11.1528
gu	-11.1551
idojn	-11.1554
tempa	-11.1564
▁laborist	-11.1593
SA	-11.1601
▁produktis	-11.1605
▁halti	-11.1611
ul	-11.1613
▁ŝipe	-11.1616
▁ba	-11.1617
▁suferi	-11.164
▁varmaj	-11.1663
▁pluv	-11.1673
▁cele	-11.1699
▁silenta	-11.17
▁interago	-11.1709
voku	-11.1758
▁iran	-11.176
▁fleg	-11.1765
▁aktuala	-11.1768
▁Patr	-11.1772
▁organizi	-11.1782
▁konsil	-11.1785
omoj	-11.1815
▁studio	-11.1818
▁tag	-11.1819
▁konektita	-11.1827
▁vendo	-11.1835
▁nomu	-11.1837
▁religioj	-11.1839
iĝantaj	-11.1841
▁manĝig	-11.1843
▁lumi	-11.1844
▁eldiri	-11.1854
nokt	-11.1863
▁noviga	-11.1925
▁nevideblaj	-11.1926
▁vivaj	-11.1951
▁efektivaj	-11.197
▁vojaĝi	-11.1984
▁komplet	-11.1988
ida	-11.1996
labora	-11.2031
kupo	-11.2035
▁specifaj	-11.2043
▁hejmaj	-11.2061
▁fortaj	-11.207
▁ekstremo	-11.2073
▁kaŭzita	-11.2086
▁material	-11.2087
▁uzu	-11.2102
laj	-11.2105
▁magi	-11.2112
▁protest	-11.2115
▁mireg	-11.2119
▁prepari	-11.2136
▁stabila	-11.2137
▁Aplaŭd	-11.2137
▁sciencaj	-11.2158
▁ludil	-11.2161
▁superi	-11.2176
▁trompi	-11.2183
▁perspektivon	-11.2187
▁danke	-11.2203
▁ser	-11.2212
▁transport	-11.2213
▁necesoj	-11.2228
▁aprob	-11.2242
tulo	-11.2244
▁efikaj	-11.2247
.0	-11.2248
▁hipotez	-11.2265
ard	-11.227
▁ĉiutagaj	-11.2273
▁skribo	-11.2283
▁krem	-11.2303
▁daŭrigeblaj	-11.2308
▁hipoteza	-11.2312
▁sidi	-11.2313
▁fotoj	-11.2335
▁absurda	-11.2354
62	-11.236
▁akordi	-11.236
studoj	-11.2366
▁kromaj	-11.2367
▁ekscitiĝ	-11.237
▁real	-11.239
rt	-11.2396
▁pasia	-11.2398
tere	-11.2411
▁Res	-11.2413
▁Kapelon	-11.2438
▁luma	-11.2477
▁ludant	-11.2487
▁alveno	-11.2489
▁vojoj	-11.2497
malkresko	-11.2505
▁lito	-11.2507
▁interesega	-11.2514
spekta	-11.2515
▁efektivig	-11.2518
▁koni	-11.2523
▁lerno	-11.2531
▁amon	-11.2549
▁admiri	-11.2553
▁mark	-11.2557
pl	-11.2569
▁vivu	-11.2574
▁protesta	-11.2575
▁mezuro	-11.2576
iko	-11.2577
▁serv	-11.2598
▁deter	-11.26
forpren	-11.2601
▁Bie	-11.2602
▁robo	-11.2624
ara	-11.2624
dro	-11.2642
▁prok	-11.2645
▁stimul	-11.2678
▁invest	-11.2707
▁fame	-11.2732
▁energia	-11.2746
▁Ste	-11.2753
amin	-11.2771
difekt	-11.2772
▁toks	-11.2794
86	-11.282
▁malfort	-11.2825
ĝus	-11.2829
donado	-11.2832
▁nokto	-11.2833
ologio	-11.2844
▁reflekt	-11.2858
epok	-11.2873
▁rega	-11.2876
▁sufera	-11.2878
ngl	-11.2883
▁etiked	-11.2888
▁vaskul	-11.294
▁provizad	-11.2951
cojn	-11.2953
▁peto	-11.2969
▁tuja	-11.2973
▁klasoj	-11.2975
centro	-11.3011
lern	-11.3012
kule	-11.3012
▁Bea	-11.3015
▁NS	-11.3026
egaj	-11.3029
▁stulta	-11.3056
ult	-11.3062
marko	-11.3074
▁Kai	-11.3079
▁regula	-11.3079
▁Nuntemp	-11.308
▁alŝut	-11.3085
95	-11.3086
▁sensalig	-11.3098
roverbo	-11.3109
gitaj	-11.3111
▁mirakl	-11.3114
▁ĉambroj	-11.3115
▁kopi	-11.3118
legoj	-11.3139
▁reuza	-11.3148
▁model	-11.3152
▁kuraĝigi	-11.3161
▁Car	-11.3165
▁reprodukt	-11.3168
estroj	-11.3172
▁etend	-11.3181
▁antaŭnelonga	-11.3204
▁robot	-11.3216
bl	-11.3227
neca	-11.3241
▁okazaĵo	-11.3252
▁bruliga	-11.3253
ic	-11.3257
▁Hel	-11.3263
rab	-11.3266
▁pasint	-11.3266
▁Ma	-11.328
boj	-11.3297
ŝpruc	-11.3302
anco	-11.3308
▁organiz	-11.332
▁prudent	-11.3348
▁ŝtopi	-11.3349
▁denaska	-11.3355
▁privat	-11.3357
▁bovin	-11.3367
ŝu	-11.3368
▁fri	-11.3368
▁ridi	-11.3368
▁rikolt	-11.337
▁pup	-11.337
▁suspekt	-11.34
▁promes	-11.3404
spuroj	-11.3411
▁apartig	-11.3415
▁surbendig	-11.3419
▁konstata	-11.342
▁vegetaĵ	-11.342
aturo	-11.3433
▁nutr	-11.3442
igiloj	-11.3453
▁transdon	-11.3461
▁Islam	-11.3467
▁herb	-11.3472
▁mikroskop	-11.3476
super	-11.3484
▁noci	-11.3489
▁inciz	-11.3494
agon	-11.3513
puli	-11.3518
▁aĉet	-11.3523
▁aer	-11.3529
▁Malmulta	-11.3551
▁plibon	-11.3554
kita	-11.3563
▁progres	-11.3617
aljuniĝa	-11.3632
▁krim	-11.364
▁ludoj	-11.365
▁proponi	-11.366
▁Spekt	-11.3682
mer	-11.3686
ok	-11.3689
▁malalt	-11.369
▁favora	-11.3694
vu	-11.3695
reto	-11.3704
▁pag	-11.3712
gra	-11.3713
▁kunport	-11.3714
▁kvara	-11.3725
▁entrepreni	-11.3737
▁preĝ	-11.375
kremo	-11.3752
arke	-11.3764
▁alirebl	-11.3768
valora	-11.3775
lionoj	-11.3781
▁eksterland	-11.3787
▁laboroj	-11.3797
fali	-11.3805
▁kundivid	-11.3812
▁kunirig	-11.3812
▁poli	-11.3824
▁plonĝ	-11.3828
▁Home	-11.3837
▁inteligent	-11.3873
▁eltrov	-11.391
▁timi	-11.3914
▁hazard	-11.392
mil	-11.3943
zia	-11.3971
▁gar	-11.3976
▁kultiv	-11.3986
▁forpasint	-11.3998
▁rano	-11.4009
ŝanĝi	-11.4018
▁Lu	-11.4033
▁esplorant	-11.4039
star	-11.404
▁mallarĝ	-11.4046
▁interesata	-11.4047
▁pliig	-11.4058
volo	-11.4072
▁perda	-11.4077
bla	-11.4099
▁gla	-11.4101
▁triumf	-11.4106
semit	-11.4129
▁kana	-11.413
▁kuraĝig	-11.4144
▁kulpa	-11.4151
▁kovri	-11.417
▁havebl	-11.418
▁ofer	-11.4188
▁Kristan	-11.4193
▁long	-11.4195
▁forlas	-11.4197
estigant	-11.4197
programo	-11.4212
▁laboratorioj	-11.4218
▁sof	-11.4218
▁plurf	-11.4227
▁scienc	-11.4228
kra	-11.423
▁liber	-11.4249
▁aldonan	-11.4251
▁Ĉiel	-11.4262
gata	-11.4263
▁kontinua	-11.4263
▁ciferec	-11.4271
gvido	-11.4282
ĝa	-11.4289
▁kvina	-11.4298
encoj	-11.4312
▁breda	-11.4314
metr	-11.4316
▁konspir	-11.4318
▁supera	-11.4324
▁listig	-11.4335
▁fiŝ	-11.4352
▁paŝi	-11.4353
▁kadavro	-11.4357
▁ornam	-11.436
▁malŝalt	-11.437
▁Avin	-11.4374
kono	-11.438
▁specimeno	-11.4388
▁ĵurnalisto	-11.4394
▁komponaĵo	-11.4396
▁troa	-11.4399
ĵaj	-11.4409
▁muze	-11.4412
▁teknologi	-11.4418
kas	-11.4422
parolant	-11.4425
▁ekzamen	-11.4433
flu	-11.4435
▁adori	-11.4437
▁anatomi	-11.4455
▁humur	-11.4458
ŭ	-11.4458
flanka	-11.4463
▁ideogramo	-11.4465
▁stu	-11.4466
▁fabrika	-11.4468
▁detal	-11.447
▁Iranoj	-11.4474
▁funkcio	-11.4476
varmigo	-11.4476
ab	-11.4481
85	-11.4483
▁blo	-11.4485
▁retrov	-11.4491
▁firm	-11.4491
▁lernolibro	-11.4494
▁ekvacio	-11.4494
traĵa	-11.4495
▁eŭropan	-11.4508
▁maljun	-11.4509
eri	-11.4511
▁spertulo	-11.4513
▁medicinaĵo	-11.4513
▁avantaĝ	-11.4518
▁taso	-11.4521
har	-11.4521
▁civita	-11.4524
merik	-11.4528
▁junaĝ	-11.4532
▁adapti	-11.4537
programoj	-11.4538
▁disponebl	-11.4542
tus	-11.4544
▁beb	-11.455
enspez	-11.4559
distanca	-11.456
▁malfermita	-11.4572
▁Afrika	-11.4572
▁praktika	-11.4575
▁laborposteno	-11.4578
▁maŝin	-11.4581
▁kurento	-11.4582
rgo	-11.4586
▁kuŝa	-11.4591
▁poker	-11.4594
▁sekc	-11.4596
▁ple	-11.4598
mesaĝoj	-11.4598
vala	-11.46
▁edziĝ	-11.4605
▁oportun	-11.4607
▁servilo	-11.461
▁serĉanta	-11.4613
▁teori	-11.4613
▁bonŝanc	-11.4621
familia	-11.4623
▁rond	-11.4623
studio	-11.4629
kampo	-11.463
▁postuli	-11.4633
▁vendej	-11.4634
▁tranĉ	-11.4636
kontrol	-11.464
▁manifest	-11.4642
mark	-11.4649
progresigi	-11.4654
▁portilo	-11.4656
▁proced	-11.4659
aŭt	-11.4659
▁percepti	-11.466
▁stern	-11.4662
▁registar	-11.4669
▁kancer	-11.467
kapabla	-11.4672
premio	-11.4673
Fil	-11.4673
▁mens	-11.4674
trakti	-11.4675
trinkebla	-11.4677
fund	-11.4681
kosmo	-11.4681
ĝejo	-11.4682
▁percept	-11.4683
▁reklamo	-11.4684
renversi	-11.4685
▁kosmoŝipo	-11.4685
kuniĝ	-11.4687
vesper	-11.4687
kiĝ	-11.4689
temo	-11.469
pur	-11.4692
sperti	-11.4699
▁disdoni	-11.4703
▁migra	-11.4705
ptembro	-11.4706
ulaj	-11.4706
▁cifero	-11.4707
supo	-11.4708
▁kondiĉo	-11.4711
organizi	-11.4712
▁optik	-11.4715
barilo	-11.4717
ĉemizo	-11.4717
kapital	-11.4717
perspektivon	-11.4718
punktoj	-11.472
gusto	-11.4721
kompreno	-11.4721
pendi	-11.4721
▁motiv	-11.4721
▁fidinda	-11.4722
blov	-11.4723
▁rep	-11.4724
religiaj	-11.4726
kampanjo	-11.4727
▁ĉam	-11.4732
skribita	-11.4732
funkcii	-11.4733
mallongigo	-11.4734
aparaton	-11.4736
proceso	-11.4736
▁registra	-11.4737
konduka	-11.4737
diskut	-11.474
raportoj	-11.4742
frap	-11.4743
▁proporci	-11.4744
60	-11.4744
pozicio	-11.4746
kost	-11.4747
sinjoro	-11.4748
renkonti	-11.4748
taskoj	-11.475
okcidenta	-11.475
66	-11.4751
mortiga	-11.4752
ŝajn	-11.4752
kultura	-11.4754
▁Sufia	-11.4754
konstru	-11.4754
kortekso	-11.4755
Irako	-11.4755
libro	-11.4755
konserv	-11.4758
regado	-11.4759
▁Afgan	-11.4759
aliro	-11.476
kapablo	-11.476
interesiĝ	-11.4761
pentraĵoj	-11.4763
pacientoj	-11.4764
▁konversaci	-11.4765
18	-11.4765
venon	-11.4766
bazo	-11.4767
solvi	-11.4767
miliono	-11.4769
normala	-11.4771
flanko	-11.4771
ĝ	-11.4771
bestoj	-11.4772
scienca	-11.4772
bezono	-11.4773
▁radio	-11.4773
viando	-11.4773
instrui	-11.4773
ekzista	-11.4774
unua	-11.4774
▁kreint	-11.4775
batal	-11.4776
problemo	-11.4779
viro	-11.4779
tavolo	-11.478
kutim	-11.4781
▁vilaĝ	-11.4781
horoj	-11.4782
kvar	-11.4784
▁najbaro	-11.4784
probleme	-11.4785
taĵo	-11.4785
danĝera	-11.4785
uzis	-11.4788
socio	-11.4789
▁liberala	-11.479
▁regeneri	-11.4792
▁apartiga	-11.4792
lernado	-11.4792
▁pira	-11.4793
manĝado	-11.4795
▁seks	-11.4797
pump	-11.4798
▁landlimo	-11.4802
estonteco	-11.4804
▁patr	-11.4808
▁prototip	-11.4811
listo	-11.4812
▁hormon	-11.4814
▁atom	-11.4814
▁plenkresk	-11.4814
▁inĝenieri	-11.4816
finita	-11.4823
konstitu	-11.4824
ologie	-11.4831
fari	-11.4831
▁flugig	-11.4838
▁kompat	-11.4838
▁afrik	-11.4839
direktan	-11.4841
▁Kana	-11.4841
▁elektrodo	-11.4842
▁rifuĝinto	-11.4844
▁defend	-11.4844
rolulo	-11.4845
▁debat	-11.4849
Po	-11.485
▁gazetar	-11.485
▁preti	-11.485
▁kolorigi	-11.4852
kampoj	-11.4852
▁maltrankvil	-11.4854
klo	-11.4857
supr	-11.486
▁dopamin	-11.4865
hej	-11.4867
kondiĉoj	-11.487
fason	-11.4875
▁ĵusa	-11.4881
▁laŭt	-11.4882
esploris	-11.4882
provizo	-11.4882
vano	-11.4884
benda	-11.4886
ander	-11.4887
ŝi	-11.4889
▁terorism	-11.489
▁kava	-11.4891
igata	-11.4893
kroĉi	-11.4904
▁virin	-11.4906
▁disk	-11.491
lor	-11.4911
▁Sikst	-11.4913
▁pentraĵ	-11.4916
▁polen	-11.492
▁paranormal	-11.4921
▁modern	-11.4922
▁potencial	-11.4923
stoko	-11.4924
▁skatol	-11.4924
▁blank	-11.4925
stitua	-11.4929
▁rom	-11.493
▁organ	-11.4931
torio	-11.4931
▁redukt	-11.4931
igado	-11.4933
▁lign	-11.4939
▁signifoplen	-11.4941
nivel	-11.4945
finit	-11.4945
▁fason	-11.4947
▁ŝtal	-11.4948
▁Profes	-11.4952
▁amik	-11.4955
▁koncentri	-11.4955
▁tolerema	-11.4955
▁malamik	-11.4956
kroskopi	-11.4958
▁Med	-11.496
▁manskrib	-11.4962
▁subpremita	-11.4963
leto	-11.4964
▁malvarma	-11.4965
mem	-11.4965
▁estingi	-11.4966
pedi	-11.4968
aba	-11.497
kondiĉ	-11.4973
punkt	-11.4973
imio	-11.4973
▁klasi	-11.4973
▁liter	-11.4975
izi	-11.4982
azo	-11.4983
▁emocie	-11.4986
▁interret	-11.4994
kapta	-11.4995
rigardi	-11.4996
▁somer	-11.4997
stalo	-11.5009
▁skribaĵo	-11.5011
kto	-11.5012
▁direkto	-11.5013
preciz	-11.5014
kosta	-11.5015
jaroj	-11.5016
ork	-11.5017
▁konflikto	-11.5017
▁Sun	-11.5021
rigita	-11.5023
tnivela	-11.5023
makuloj	-11.5024
▁Preci	-11.5024
▁diagnoz	-11.5025
elpens	-11.5026
ius	-11.5027
▁dinamiko	-11.5027
▁pug	-11.5028
▁danc	-11.5032
▁strat	-11.5034
ntisto	-11.5035
lite	-11.5035
▁frukt	-11.5036
kultivad	-11.5039
komence	-11.504
▁vapor	-11.504
tabli	-11.5042
lego	-11.5042
reska	-11.5043
manko	-11.5044
mpatio	-11.5046
▁lumra	-11.5049
nstitu	-11.5052
gnostik	-11.5053
▁Rip	-11.5054
por	-11.5054
▁toler	-11.5056
diplom	-11.5058
spur	-11.506
▁dign	-11.5061
sentem	-11.5061
kir	-11.5064
ĉambr	-11.5065
▁hum	-11.5065
▁ridind	-11.5066
laborita	-11.5068
grund	-11.507
▁vegetara	-11.507
umita	-11.5072
▁karakteriza	-11.5074
▁popula	-11.5075
▁Ple	-11.5077
spektaklo	-11.5077
revoluci	-11.5079
olfo	-11.508
iluzi	-11.508
botel	-11.5081
laboratori	-11.5081
elsendo	-11.5082
sekund	-11.5082
▁1,	-11.5082
oksigen	-11.5083
trange	-11.5083
ivan	-11.5083
reci	-11.5084
mba	-11.5084
▁lerte	-11.5084
butono	-11.5086
brak	-11.5086
▁neatend	-11.5086
kal	-11.5086
nkoraŭ	-11.5087
▁plasti	-11.5087
rojekto	-11.5088
meopati	-11.5088
oritat	-11.5088
evolucio	-11.5088
▁Silk	-11.5088
zur	-11.5088
doloro	-11.5088
▁doktor	-11.5089
onsidera	-11.5089
sekrete	-11.5089
▁manpl	-11.5089
▁Ĝene	-11.5089
alifor	-11.5089
▁Twitter	-11.5089
▁Wall	-11.5089
▁epizodo	-11.5089
▁mediprotekta	-11.5089
▁neevitebla	-11.5089
▁pejzaĝo	-11.5089
▁plezuri	-11.5089
▁rezervujo	-11.5089
▁surmerkat	-11.5089
▁suspens	-11.5089
▁telefonalvoko	-11.5089
alaksioj	-11.5089
ekskre	-11.5089
ekvilibri	-11.5089
helpaj	-11.5089
kompromis	-11.5089
roniklo	-11.5089
sembleo	-11.5089
transliterebla	-11.5089
▁Bangalor	-11.5089
▁Bridge	-11.5089
▁Demokrati	-11.5089
▁Embaras	-11.5089
▁Klarigo	-11.5089
▁Kompanio	-11.5089
▁Losanĝeleso	-11.5089
▁Mediteraneo	-11.5089
▁Nobelpremi	-11.5089
▁Pacifik	-11.5089
▁Rezult	-11.5089
▁Rimark	-11.5089
▁TOMS	-11.5089
▁Vatikana	-11.5089
▁Vatikano	-11.5089
▁Vaŝington	-11.5089
▁Walt	-11.5089
▁arĝent	-11.5089
▁bioluminesk	-11.5089
▁birdo	-11.5089
▁biskvito	-11.5089
▁blablaaĵo	-11.5089
▁buĝeto	-11.5089
▁cirkulado	-11.5089
▁danĝero	-11.5089
▁duavica	-11.5089
▁ekskluziva	-11.5089
▁elefanto	-11.5089
▁elektromagneta	-11.5089
▁elokvent	-11.5089
▁embaras	-11.5089
▁enprizonigo	-11.5089
▁eruptant	-11.5089
▁evangeliisma	-11.5089
▁fajrobrigad	-11.5089
▁febliĝo	-11.5089
▁filozofi	-11.5089
▁fosforoj	-11.5089
▁frakciiĝ	-11.5089
▁fromaĝo	-11.5089
▁frostigita	-11.5089
▁gefiloj	-11.5089
▁geopolitika	-11.5089
▁gvat	-11.5089
▁haltŝilda	-11.5089
▁halucinoj	-11.5089
▁hamburgaĵo	-11.5089
▁implika	-11.5089
▁infrastrukturo	-11.5089
▁instrukcio	-11.5089
▁kiloŭat	-11.5089
▁kirurgo	-11.5089
▁konkord	-11.5089
▁koresponda	-11.5089
▁kramfoj	-11.5089
▁laborsesioj	-11.5089
▁laŭmezur	-11.5089
▁logotipo	-11.5089
▁maldungita	-11.5089
▁mazdaanoj	-11.5089
▁memevident	-11.5089
▁mondmilito	-11.5089
▁monpuno	-11.5089
▁nanosekundoj	-11.5089
▁naztruoj	-11.5089
▁neantaŭspertita	-11.5089
▁obskura	-11.5089
▁organgrefto	-11.5089
▁pacientpropraj	-11.5089
▁plilarĝiĝi	-11.5089
▁politikista	-11.5089
▁pseŭdoscienc	-11.5089
▁psikanalizisto	-11.5089
▁radioricevilo	-11.5089
▁rebonigo	-11.5089
▁redistribuaj	-11.5089
▁reintegriĝo	-11.5089
▁remiksa	-11.5089
▁retiriĝo	-11.5089
▁rifuĝinta	-11.5089
▁riĉlanda	-11.5089
▁sankliniko	-11.5089
▁singarda	-11.5089
▁skarlat	-11.5089
▁skelet	-11.5089
▁spekulaci	-11.5089
▁superbazaro	-11.5089
▁superdozo	-11.5089
▁tapiŝo	-11.5089
▁teatraĵo	-11.5089
▁tekno	-11.5089
▁telepati	-11.5089
▁terapio	-11.5089
▁trajektorio	-11.5089
▁trembril	-11.5089
▁vafloj	-11.5089
▁Ŝabato	-11.5089
▁ŝraŭbo	-11.5089
▁ŝtuparo	-11.5089
▁Duobla	-11.5089
▁akredit	-11.5089
▁dissendi	-11.5089
▁eksterĉela	-11.5089
▁evidentig	-11.5089
▁lernoplano	-11.5089
▁paradoks	-11.5089
▁persekut	-11.5089
▁svarm	-11.5089
▁Ĉielarko	-11.5089
faldita	-11.5089
repelig	-11.5089
▁Amazon	-11.5089
▁ESP	-11.5089
▁Evolu	-11.5089
▁Hispan	-11.5089
▁Invers	-11.5089
▁Jeff	-11.5089
▁Komision	-11.5089
▁Medicin	-11.5089
▁Menstru	-11.5089
▁Micros	-11.5089
▁Psikolog	-11.5089
▁Spacostacio	-11.5089
▁akumul	-11.5089
▁ambigua	-11.5089
▁arakid	-11.5089
▁averti	-11.5089
▁basbal	-11.5089
▁boben	-11.5089
▁dentradoj	-11.5089
▁drink	-11.5089
▁fingrum	-11.5089
▁flankenlasi	-11.5089
▁forbala	-11.5089
▁forbrul	-11.5089
▁glora	-11.5089
▁klubo	-11.5089
▁kogna	-11.5089
▁koincida	-11.5089
▁kompili	-11.5089
▁kompoŝt	-11.5089
▁kudri	-11.5089
▁kunkreskig	-11.5089
▁malkoncentri	-11.5089
▁malsoci	-11.5089
▁malzorg	-11.5089
▁megaŭat	-11.5089
▁parkum	-11.5089
▁parodiaĵo	-11.5089
▁penvalor	-11.5089
▁rendevu	-11.5089
▁respegula	-11.5089
▁reverenc	-11.5089
▁skafandr	-11.5089
▁sufoki	-11.5089
▁trostreĉi	-11.5089
▁vidmaterialo	-11.5089
▁ĉielarko	-11.5089
▁ĝemel	-11.5089
▁ŝultro	-11.5089
eknaboj	-11.5089
plomb	-11.5089
▁Kompar	-11.5089
▁dorlotbest	-11.5089
▁ekregi	-11.5089
▁interaktiv	-11.5089
▁invada	-11.5089
▁kondensi	-11.5089
▁ekmovi	-11.5089
▁forpel	-11.5089
▁hejmvide	-11.5089
▁kreditkart	-11.5089
▁pruntepreni	-11.5089
▁simbioz	-11.5089
▁ĉagreniĝ	-11.5089
▁apostoloj	-11.5089
▁rekombin	-11.5089
▁Intel	-11.5089
▁ekzistu	-11.5089
▁eŭf	-11.5089
▁hipera	-11.5089
▁kurioz	-11.5089
▁priatent	-11.5089
▁Ĝeneral	-11.5089
▁alglui	-11.5089
▁bilanco	-11.5089
▁iraka	-11.5089
▁tutgloba	-11.5089
klusiv	-11.5089
▁aliplaneda	-11.5089
▁bieno	-11.5089
▁celodoro	-11.5089
▁gimna	-11.5089
▁impotent	-11.5089
▁kunpremi	-11.5089
▁senĉeligita	-11.5089
▁truko	-11.5089
uther	-11.5089
▁ciferigi	-11.5089
▁interplekt	-11.5089
▁moknom	-11.5089
▁ĉifonoj	-11.5089
rikotgrafitio	-11.5089
▁Matt	-11.5089
▁arbitra	-11.5089
▁kolapso	-11.5089
▁tableto	-11.5089
mpuls	-11.5089
▁betono	-11.5089
▁fleksiĝ	-11.5089
▁senminig	-11.5089
▁kondamni	-11.5089
▁konjekt	-11.5089
▁manĝadperturbo	-11.5089
▁tagnokt	-11.5089
▁biomaso	-11.5089
▁inici	-11.5089
▁veteran	-11.5089
▁informfonto	-11.5089
▁superŝut	-11.5089
▁Komunik	-11.5089
▁ritaroj	-11.5089
▁Imperi	-11.5089
▁anonim	-11.5089
▁freŝdata	-11.5089
▁revizio	-11.5089
ilegio	-11.5089
enkresk	-11.5089
▁McDonald	-11.5089
▁enradi	-11.5089
▁kolumo	-11.5089
▁martir	-11.5089
▁opinisond	-11.5089
▁tatuo	-11.5089
▁kerosen	-11.5089
▁naiva	-11.5089
▁humil	-11.5089
▁sekretema	-11.5089
▁karakteroj	-11.5089
▁rendonac	-11.5089
▁fornosimila	-11.5089
▁metafor	-11.5089
pleksi	-11.5089
▁eksek	-11.5089
▁patrina	-11.5089
▁polimer	-11.5089
▁Dolĉ	-11.5089
racie	-11.5089
▁Sankta	-11.5089
▁datumbazo	-11.5089
▁malkonsent	-11.5089
▁dediĉ	-11.5089
▁konced	-11.5089
▁ladurbo	-11.5089
▁azil	-11.5089
▁kristanaj	-11.5089
▁ribel	-11.5089
▁aŭtonom	-11.5089
▁ŝtip	-11.5089
digit	-11.5089
▁radioondoj	-11.5089
▁rekonstrui	-11.5089
▁demonstr	-11.5089
▁prirajta	-11.5089
▁ĉirkaŭira	-11.5089
▁stakig	-11.5089
▁malvarmiga	-11.5089
▁interretumi	-11.5089
▁konsult	-11.5089
▁etskala	-11.5089
▁monument	-11.5089
▁konfes	-11.5089
▁metabolismo	-11.5089
▁radiobild	-11.5089
ekspozici	-11.5089
▁supervivi	-11.5089
▁vezik	-11.5089
▁diskonigi	-11.5089
▁gejser	-11.5089
▁krieg	-11.5089
▁doktoriĝon	-11.5089
▁haltŝildo	-11.5089
▁traŭm	-11.5089
▁distribu	-11.5089
▁maltolerem	-11.5089
moviĝu	-11.5089
▁kapdoloro	-11.5089
▁ekipi	-11.5089
▁grandaĝulo	-11.5089
▁supernatura	-11.5089
▁plumbo	-11.5089
▁muta	-11.509
▁littuko	-11.509
▁dislok	-11.509
▁kamion	-11.509
▁malĉeest	-11.509
▁Hall	-11.509
▁Larĝ	-11.509
▁tigr	-11.509
▁hipok	-11.509
▁ŝvit	-11.509
▁vaskulplen	-11.509
▁manikoj	-11.509
▁duonmiliono	-11.509
▁observada	-11.509
▁kosmetik	-11.509
anzani	-11.509
▁sunlum	-11.509
litiĝ	-11.509
▁altrud	-11.509
▁urino	-11.509
▁elŝut	-11.509
▁profan	-11.509
▁kampul	-11.509
▁ŝanceli	-11.509
▁apartamento	-11.509
▁heredonto	-11.509
▁kodigi	-11.509
▁okazintaĵo	-11.509
pafis	-11.509
▁elstariĝ	-11.509
nciklopedio	-11.509
oserĉanto	-11.509
▁vivstilo	-11.509
▁Princ	-11.509
▁aliform	-11.509
▁promenad	-11.509
▁Manio	-11.509
▁senhont	-11.509
▁parlament	-11.5091
▁supermeti	-11.5091
▁akvumi	-11.5091
▁naft	-11.5091
okupata	-11.5091
▁Alveni	-11.5091
eltenebla	-11.5091
▁reĝino	-11.5091
▁volumeno	-11.5091
pope	-11.5091
▁transskribaĵoj	-11.5091
▁Petro	-11.5091
▁remontri	-11.5091
egorio	-11.5091
ŝildo	-11.5091
▁1600	-11.5091
▁Tiloni	-11.5091
▁dekunua	-11.5091
▁ofenda	-11.5091
▁montrocel	-11.5091
▁Atlantik	-11.5091
alluma	-11.5091
▁festeno	-11.5091
▁fosili	-11.5092
▁Klerismo	-11.5092
nibal	-11.5092
▁tritiko	-11.5092
▁nerva	-11.5092
▁kosmovetur	-11.5092
▁procesilo	-11.5092
▁hinda	-11.5092
▁judaismo	-11.5092
▁invado	-11.5092
▁rubofluo	-11.5092
▁sangofluo	-11.5092
▁strangol	-11.5092
▁naŭjarulo	-11.5092
▁ampolo	-11.5092
▁studenta	-11.5092
▁disvastigi	-11.5092
▁fasko	-11.5092
▁malgajni	-11.5092
▁artaĵaro	-11.5092
▁dormigilo	-11.5092
▁disvastiga	-11.5093
▁antaŭfr	-11.5093
ebru	-11.5093
▁forrab	-11.5093
rso	-11.5093
kwa	-11.5093
▁kreiveco	-11.5093
angula	-11.5093
▁silkraŭpo	-11.5093
▁aminda	-11.5093
▁fulm	-11.5093
▁laŭgrad	-11.5093
difini	-11.5093
malaj	-11.5093
▁laŭvol	-11.5093
▁moviĝad	-11.5093
▁bonveno	-11.5094
▁Avinjo	-11.5094
▁malkomponebla	-11.5094
▁plastaĵoj	-11.5094
▁adaptiĝema	-11.5094
▁postrest	-11.5094
▁konkreta	-11.5094
▁funkcipova	-11.5094
ermer	-11.5094
▁ŝelo	-11.5094
▁ledo	-11.5095
skala	-11.5095
▁statuoj	-11.5095
▁primok	-11.5095
▁traflu	-11.5095
1,3	-11.5095
▁Ilu	-11.5095
registri	-11.5095
ularo	-11.5096
▁vivmaniero	-11.5096
▁Montr	-11.5096
▁Reven	-11.5096
▁elprem	-11.5096
▁kunlig	-11.5096
▁hararo	-11.5096
▁Mem	-11.5096
▁ironi	-11.5097
nadl	-11.5097
▁Flor	-11.5097
▁malvarmigo	-11.5097
▁malĝoj	-11.5097
▁aliĝi	-11.5097
▁apotek	-11.5097
▁Florenc	-11.5097
▁diplomat	-11.5097
▁obe	-11.5098
biloj	-11.5098
▁rabd	-11.5098
▁tajpa	-11.5099
▁makuleto	-11.5099
▁solidarec	-11.5099
▁kamel	-11.5099
▁protonoj	-11.5099
flosa	-11.5099
ortreta	-11.5099
▁ilaro	-11.51
▁alimaniere	-11.51
▁malhav	-11.51
▁Diet	-11.51
rotokolo	-11.5101
▁Dub	-11.5101
▁ĉefrol	-11.5101
rdin	-11.5101
▁tridek	-11.5101
elektroprodukt	-11.5102
▁Wil	-11.5102
▁ekosistemo	-11.5102
▁zonoj	-11.5102
▁spiona	-11.5102
▁framo	-11.5103
▁elĵetaĵo	-11.5103
▁akceptebla	-11.5103
▁traviv	-11.5103
▁bek	-11.5103
▁karakterizaĵo	-11.5103
▁ekologi	-11.5103
▁malsanuloj	-11.5104
▁malsamecoj	-11.5104
▁ekstar	-11.5104
yste	-11.5104
▁aspir	-11.5104
▁dokumentari	-11.5105
▁Pic	-11.5105
▁presti	-11.5105
▁bildaro	-11.5105
▁frapegi	-11.5105
▁amp	-11.5106
▁spektakloj	-11.5106
▁filtrilo	-11.5106
▁feri	-11.5107
antagonis	-11.5107
▁distranĉi	-11.5107
▁estanteco	-11.5107
▁nudpied	-11.5107
bit	-11.5107
▁sekuro	-11.5107
▁provoka	-11.5107
▁senrilat	-11.5107
▁prestiĝ	-11.5108
▁pluviv	-11.5108
▁revivi	-11.5108
▁papili	-11.5108
▁murdi	-11.5108
▁malkomponiga	-11.5108
▁eluzita	-11.5108
▁senlabor	-11.5109
▁sojlo	-11.5109
▁tridimensi	-11.5109
▁Portu	-11.5109
▁Dian	-11.5109
▁Parol	-11.5109
▁dispeci	-11.511
▁limba	-11.511
▁penig	-11.511
▁tamila	-11.511
▁Of	-11.511
▁pliiĝ	-11.511
▁movebla	-11.5111
▁vetlud	-11.5111
▁enigm	-11.5111
▁trikado	-11.5111
▁diplomit	-11.5111
▁luksa	-11.5111
▁kelkcent	-11.5112
▁evidenteco	-11.5112
▁minada	-11.5112
▁dudek	-11.5112
▁konkur	-11.5113
▁ekfar	-11.5113
▁Cir	-11.5114
landa	-11.5114
▁retroir	-11.5114
▁admirinda	-11.5115
▁stand	-11.5116
resko	-11.5116
▁peko	-11.5116
▁plirapidigita	-11.5116
▁Kultur	-11.5116
▁destino	-11.5117
akse	-11.5117
▁edukitaj	-11.5117
▁identigi	-11.5117
▁pene	-11.5117
rd	-11.5117
▁kuracado	-11.5118
▁multĉeleco	-11.5118
▁digneco	-11.5118
ostulo	-11.5119
▁dron	-11.5119
▁elektema	-11.512
▁konvenci	-11.5121
▁venonttemp	-11.5121
▁cimoj	-11.5121
▁fokusiĝ	-11.5121
lacio	-11.5121
▁geko	-11.5122
lu	-11.5123
▁estraro	-11.5123
▁netaŭga	-11.5123
▁severa	-11.5124
▁vermoj	-11.5124
▁195	-11.5124
▁produktejo	-11.5124
▁konat	-11.5125
▁King	-11.5125
iproĉ	-11.5125
almo	-11.5126
▁manĝad	-11.5127
▁Ang	-11.5127
▁Dim	-11.5127
▁Motor	-11.5128
▁malkomponanta	-11.5128
▁Malkompon	-11.5128
▁damna	-11.5129
▁sensenca	-11.513
▁kombinaĵo	-11.513
kvalito	-11.513
vortoj	-11.513
▁afabl	-11.5131
▁bonus	-11.5131
mikrob	-11.5133
▁instrumentoj	-11.5133
▁misinform	-11.5133
▁erao	-11.5134
▁naskiĝ	-11.5135
▁mani	-11.5135
▁enskatol	-11.5135
▁multĉel	-11.5136
▁kuirf	-11.5136
▁ruinigita	-11.5136
▁estonte	-11.5137
tenoj	-11.5137
▁1953	-11.5137
▁tranĉi	-11.5138
▁aten	-11.5138
ukad	-11.5138
▁interligi	-11.5139
▁partikloj	-11.5139
▁kontoristo	-11.514
▁komponisto	-11.514
▁malbonfa	-11.514
▁pilo	-11.514
▁videa	-11.5141
▁Dr	-11.5143
▁psika	-11.5145
▁AC	-11.5145
▁makul	-11.5145
▁karb	-11.5145
▁realaĵo	-11.5146
▁nervoz	-11.5146
▁Gaga	-11.5146
muŝo	-11.5147
▁45-	-11.5148
▁televidilo	-11.5148
▁aliloke	-11.5149
▁glata	-11.5149
▁kub	-11.515
▁pugno	-11.515
▁asociado	-11.5151
▁spiral	-11.5151
kursoj	-11.5152
▁diagnozata	-11.5153
▁signoj	-11.5153
kape	-11.5153
▁Mc	-11.5154
▁rektatemp	-11.5154
kani	-11.5154
▁klinik	-11.5154
▁oraj	-11.5155
▁pruntedonita	-11.5155
▁translokiĝ	-11.5155
colo	-11.5156
▁florado	-11.5157
▁kunhav	-11.5157
▁tord	-11.5157
migrado	-11.5159
▁provtub	-11.5159
▁najbaraj	-11.5161
▁pretend	-11.5161
▁resanig	-11.5161
▁veki	-11.5163
▁Kred	-11.5164
▁glas	-11.5164
▁Brand	-11.5168
vali	-11.5168
▁ekzota	-11.5168
▁mirige	-11.5169
▁evoluad	-11.517
▁minaca	-11.517
andel	-11.5172
aaa	-11.5173
▁malvol	-11.5173
▁reteni	-11.5173
▁leviĝanta	-11.5173
▁sepdek	-11.5174
oksi	-11.5174
▁bret	-11.5175
▁tabu	-11.5177
dhi	-11.5177
LM	-11.5177
▁spuri	-11.5178
▁Plejmult	-11.5178
▁gust	-11.518
▁geni	-11.5181
▁Alte	-11.5183
▁etega	-11.5183
▁kontraŭdiraĵo	-11.5183
▁tiurilat	-11.5184
▁revado	-11.5185
▁cen	-11.5185
antaŭeniga	-11.5186
▁fiks	-11.5186
▁Neebl	-11.5186
▁marm	-11.5186
▁forĵetita	-11.5186
▁Preciz	-11.5187
▁longeco	-11.5187
▁agad	-11.5187
▁hi	-11.5188
▁verdir	-11.5188
▁tor	-11.5188
▁Irland	-11.5189
▁injekti	-11.5189
▁Dav	-11.519
▁bibliaj	-11.5191
iganta	-11.5194
▁komencan	-11.5195
▁Marl	-11.5196
volvitaj	-11.5196
▁demografi	-11.5197
▁modera	-11.5198
▁nefinita	-11.5199
▁klerulo	-11.5199
▁opi	-11.5199
avig	-11.5201
▁malseka	-11.5202
▁floro	-11.5202
eganta	-11.5203
▁Aga	-11.5203
▁elŝ	-11.5203
tein	-11.5203
ltekosta	-11.5204
▁objektoj	-11.5206
tato	-11.5207
▁afrikano	-11.5207
▁2500	-11.5209
elpu	-11.521
▁vivuloj	-11.521
▁ofert	-11.5211
▁trudis	-11.5212
▁nano	-11.5215
late	-11.5215
▁jupo	-11.5216
▁subpremitaj	-11.522
donac	-11.522
omaĝo	-11.522
arigita	-11.5221
pri	-11.5221
vastigi	-11.5222
▁Brula	-11.5222
her	-11.5223
aŭgura	-11.5227
▁Profesi	-11.5227
▁feliĉeco	-11.5228
▁estingiĝ	-11.523
▁Jaro	-11.5231
rajn	-11.5232
ktoj	-11.5232
▁perman	-11.5233
▁malebl	-11.5236
rinojn	-11.5238
▁dissekco	-11.5241
▁akcioj	-11.5242
▁libere	-11.5242
▁poŝt	-11.5242
▁cirkvit	-11.5243
▁altteĥnika	-11.5243
▁freŝ	-11.5243
▁akcidento	-11.5243
▁diboĉ	-11.5243
▁antaŭjuĝ	-11.5243
▁kriterio	-11.5243
▁spertita	-11.5244
▁diluvo	-11.5244
▁Camp	-11.5244
▁difino	-11.5246
▁honesta	-11.5246
▁moneroj	-11.5246
▁angio	-11.5247
dilo	-11.5248
▁ŝuoj	-11.5248
▁kemiaĵoj	-11.525
▁naski	-11.5251
▁landar	-11.5253
▁stilo	-11.5253
9-	-11.5257
▁enkalkul	-11.5257
▁pasig	-11.5258
▁salato	-11.5259
▁potencialaj	-11.5259
▁paranormalaj	-11.5259
▁interagado	-11.5262
▁reklamilo	-11.5263
▁instalita	-11.5265
▁Gar	-11.5265
plan	-11.5267
▁celsi	-11.5269
▁ŝargo	-11.5269
▁cirklo	-11.5271
▁menuo	-11.5271
▁23-	-11.5273
▁malkontento	-11.5274
▁matrico	-11.5274
▁membrano	-11.5274
▁kabineto	-11.5274
▁departemento	-11.5274
magazinoj	-11.5276
▁elprovo	-11.5278
▁seka	-11.5279
▁aktoro	-11.528
▁alivest	-11.5282
▁roboto	-11.5282
▁Gaso	-11.5285
▁retejo	-11.5286
kad	-11.5288
▁trompata	-11.5288
vendata	-11.5289
▁mastrumata	-11.5289
▁ricevitaj	-11.5289
▁Str	-11.5289
roman	-11.529
▁mangrovoj	-11.529
▁neŭrol	-11.5291
▁pasanta	-11.5292
▁menciita	-11.5292
▁sensa	-11.5299
▁Meksiko	-11.53
▁59	-11.53
aŭre	-11.5301
vaskularo	-11.5301
▁formiĝ	-11.5306
▁geologi	-11.5307
▁Magn	-11.5309
▁gajnebla	-11.531
▁promesaj	-11.5312
▁mari	-11.5314
▁insidaj	-11.5316
▁ondolongoj	-11.5316
▁mekanismoj	-11.5316
▁prioritatoj	-11.5316
▁cerbaj	-11.5319
ojiga	-11.5319
▁filmado	-11.5319
▁ekspl	-11.5319
▁sensencaĵoj	-11.5321
venigu	-11.5325
▁sociologi	-11.5326
▁Gag	-11.5329
▁grefti	-11.533
▁komunika	-11.533
eandertal	-11.5331
▁ebri	-11.5332
▁start	-11.5333
▁markita	-11.5338
fiksi	-11.5344
▁judoj	-11.5344
▁komplikaj	-11.5344
▁plialt	-11.5344
▁Hur	-11.5345
▁Iran	-11.5346
▁neimageblaj	-11.5347
unsistemo	-11.5347
▁sensoj	-11.5348
▁anteno	-11.5349
▁agrokulturaj	-11.5351
▁bubaj	-11.5351
▁kolektivaj	-11.5352
produktoj	-11.5352
▁jarcent	-11.5353
▁vivmedi	-11.5353
▁Hero	-11.5355
▁kapabla	-11.5355
▁fund	-11.5357
▁fondi	-11.5358
▁sanga	-11.5359
▁ŝafoj	-11.536
▁enkonduka	-11.5362
▁traktado	-11.5362
▁Sensa	-11.5367
▁eternaj	-11.5371
▁depreno	-11.5371
▁hormona	-11.5371
▁atoma	-11.5372
▁ridinda	-11.5374
▁il	-11.5375
▁Fre	-11.5378
ordan	-11.538
▁islaman	-11.5382
grafit	-11.5386
▁Gene	-11.5393
▁dekomenc	-11.5393
▁rata	-11.5393
▁futo	-11.5395
▁spin	-11.5398
▁tutkorp	-11.5399
tudento	-11.54
igebla	-11.5402
▁Cel	-11.5402
▁preparo	-11.5405
▁fidi	-11.541
ranĉi	-11.541
▁kuniĝ	-11.5411
ameco	-11.5412
▁abs	-11.5412
▁abunde	-11.5417
▁dilu	-11.5419
▁kombiniĝ	-11.5422
▁savo	-11.5422
▁sepultaĵ	-11.5426
▁distraĵo	-11.5429
gaŭ	-11.5429
▁mensogoj	-11.5433
▁regno	-11.5436
▁emocieg	-11.5436
▁allogaĵo	-11.5436
▁operacio	-11.5436
▁rezistan	-11.5438
▁Bat	-11.5439
land	-11.5439
▁impon	-11.5441
telo	-11.5443
▁streĉit	-11.5447
▁rekta	-11.5449
▁divenoj	-11.5449
▁eliga	-11.5449
▁Ia	-11.545
▁vaporiĝ	-11.545
dega	-11.545
▁registrar	-11.5456
▁semajn	-11.5469
ondi	-11.547
▁babil	-11.547
▁pump	-11.5479
▁kantoj	-11.548
▁hej	-11.5481
▁fizikisto	-11.5482
▁videe	-11.5486
▁kolorigita	-11.5487
▁sekiĝ	-11.5488
▁tagaj	-11.5489
▁Sala	-11.549
▁supo	-11.5491
▁indiko	-11.5491
▁surter	-11.5494
disdonilo	-11.5495
idiĝ	-11.5495
geno	-11.55
▁glut	-11.5503
▁civitan	-11.5503
▁gasoj	-11.5505
▁kontrolata	-11.5506
centrism	-11.5506
▁produktita	-11.5507
▁ĝoji	-11.5508
▁rad	-11.551
ire	-11.551
▁malamo	-11.5511
▁niĉo	-11.5511
▁mezlerneja	-11.5517
▁Los	-11.5517
▁simi	-11.5522
▁vivdaŭr	-11.5526
demandi	-11.553
sferoj	-11.5535
▁aŭdata	-11.5536
▁ciklo	-11.5538
▁kosmo	-11.5538
▁sterniĝ	-11.5545
▁tranĉo	-11.5547
▁pliboniĝ	-11.5548
▁Kul	-11.5549
ielo	-11.555
▁sekco	-11.5552
▁manifestiĝ	-11.5555
▁supraĵa	-11.5556
▁Po	-11.5558
▁restrukturi	-11.5558
▁malvarmiĝ	-11.5558
▁konektoj	-11.5559
▁konsumiĝ	-11.5559
▁kaŭzoj	-11.5562
He	-11.5562
▁maksimuma	-11.5564
▁Sep	-11.5567
▁trinkebla	-11.557
domo	-11.5573
▁ujon	-11.5574
dpovo	-11.5576
azon	-11.5578
▁roko	-11.5581
▁uzeblaj	-11.5584
▁amato	-11.5585
▁ĉijar	-11.5586
biblia	-11.5593
▁polura	-11.5596
▁prototipo	-11.5596
▁edziĝo	-11.5597
▁glaso	-11.5603
duo	-11.5604
lly	-11.5607
▁bonŝanco	-11.561
▁pokero	-11.5612
▁Imago	-11.5615
▁kuŝant	-11.5615
▁laŭmod	-11.5617
▁varbi	-11.5624
▁ekko	-11.5625
▁ripari	-11.5626
▁rekrei	-11.5629
▁neeblo	-11.5631
▁disvastiĝi	-11.5639
▁tuttag	-11.564
kio	-11.5641
▁elspiri	-11.5644
▁Blank	-11.5646
▁daŭrig	-11.565
ova	-11.5654
kolo	-11.5657
pla	-11.5658
▁inu	-11.5662
▁ŝton	-11.5666
▁tutcert	-11.5668
▁mikroskopo	-11.5678
af	-11.568
▁pulsa	-11.5681
▁ebriiĝi	-11.5682
oft	-11.5684
▁startigi	-11.5686
▁malfacil	-11.5686
▁pago	-11.5689
he	-11.5693
▁ŝajnig	-11.5694
▁gravaĵo	-11.57
▁blok	-11.5701
ft	-11.5707
▁alko	-11.5712
ludoj	-11.5713
▁inteligento	-11.5714
hipio	-11.5718
▁ekvacioj	-11.572
irantaj	-11.572
▁lernolibroj	-11.5721
▁despo	-11.5732
kri	-11.5733
▁medicinaĵoj	-11.5735
ezio	-11.5739
▁seksa	-11.5742
▁kosmoŝipoj	-11.5745
▁radiaj	-11.5747
▁ami	-11.5747
▁altaro	-11.575
reĝejo	-11.5752
top	-11.5755
▁spertuloj	-11.5759
okoj	-11.5763
▁perfort	-11.5765
▁malfermitaj	-11.5766
porti	-11.5768
▁vigl	-11.5769
▁suprenir	-11.5773
kontraŭdiro	-11.5773
tenda	-11.5778
▁plas	-11.5779
menton	-11.5784
▁kompenso	-11.5791
pig	-11.5792
▁entenanta	-11.5794
▁marŝi	-11.5797
▁apartigo	-11.5798
▁alojo	-11.5798
▁demonstracio	-11.5799
▁pasinto	-11.5807
▁mergi	-11.5807
centono	-11.5813
▁Kre	-11.5817
▁konker	-11.5823
lerio	-11.5824
aci	-11.5824
▁bat	-11.5838
▁stultaĵ	-11.5839
▁oceana	-11.584
▁funkciado	-11.5842
lasko	-11.5843
edukita	-11.5844
▁lukti	-11.5845
▁komenti	-11.5849
orges	-11.5852
▁Besto	-11.5859
ow	-11.5862
▁trasperto	-11.5862
▁tabelo	-11.5866
ald	-11.5867
▁kliento	-11.5867
▁latitudo	-11.5869
▁poeto	-11.5869
▁superstiĉo	-11.5869
▁klasĉambro	-11.587
▁sangovaskulo	-11.587
ornamaĵo	-11.5873
▁Atent	-11.5877
▁alkroĉ	-11.5885
▁harmoni	-11.5894
▁varmiĝi	-11.5901
▁Baz	-11.5906
▁Parad	-11.5907
kvo	-11.5908
▁tasoj	-11.591
▁eki	-11.5921
arlament	-11.5924
▁Kunig	-11.5924
▁kisi	-11.593
▁poluaĵo	-11.593
▁plata	-11.593
▁dio	-11.5937
▁listigi	-11.5938
▁partoprenanta	-11.5939
▁preterir	-11.5941
▁devigu	-11.5952
traktita	-11.5957
▁anstataŭigo	-11.5958
▁Tree	-11.5962
▁fascinaj	-11.5964
▁preventebl	-11.5965
▁kurbo	-11.5969
▁alvoko	-11.5972
▁renkontu	-11.5976
▁alproksimiĝo	-11.5976
▁fabrikada	-11.598
fero	-11.5981
▁kontinu	-11.5986
▁Ekst	-11.5986
▁intuicio	-11.5988
▁ete	-11.5989
kola	-11.5995
acio	-11.5997
▁Ir	-11.5998
aldo	-11.6003
tante	-11.6005
▁certiĝi	-11.6012
▁sporta	-11.6014
▁ensor	-11.602
▁trovata	-11.6021
▁longtempa	-11.6024
▁ruinig	-11.6032
▁vendita	-11.6039
▁senartifika	-11.6043
ncelad	-11.6056
▁Kons	-11.6057
▁eldiro	-11.607
▁elspezo	-11.6071
legis	-11.6073
▁urĝo	-11.6077
▁sciaro	-11.6086
▁serĉantaj	-11.6088
▁Fil	-11.6088
▁radioj	-11.6097
▁dietant	-11.6101
▁vesperaj	-11.6112
specif	-11.6117
akran	-11.6123
▁ekfal	-11.6127
▁disigo	-11.6132
▁kampanjoj	-11.6149
▁temporalaj	-11.615
▁adultuloj	-11.6151
▁lumbildoj	-11.6151
lumigi	-11.6158
▁malakcepti	-11.6159
▁Supren	-11.6162
▁senvalor	-11.6169
▁seĝoj	-11.617
▁Trac	-11.6174
▁konstruaĵoj	-11.618
▁incit	-11.6187
▁fuŝi	-11.6225
hazarda	-11.6232
difektitaj	-11.6235
▁apogi	-11.6243
▁filmisto	-11.6247
ranga	-11.6251
▁foriro	-11.6252
▁kunmeto	-11.6252
▁balot	-11.6253
▁teĥnikaĵo	-11.6261
▁montrantaj	-11.6264
▁ĥemiaĵo	-11.6265
▁interven	-11.6276
▁pul	-11.6281
▁gajnoj	-11.6289
idoj	-11.629
▁miliardon	-11.6295
▁objekt	-11.6299
▁malpermesi	-11.6301
▁delas	-11.6302
aĝe	-11.6311
▁malkomforta	-11.6319
▁mateno	-11.6321
▁Skrib	-11.6323
meti	-11.6324
▁fibroj	-11.6334
▁medit	-11.6337
▁disfalo	-11.6341
▁puŝo	-11.6347
besta	-11.6364
prilabor	-11.6397
ropo	-11.6406
etis	-11.6411
▁Memorig	-11.6415
▁profitoj	-11.6421
▁mensaj	-11.6424
▁artaĵoj	-11.643
ensu	-11.644
▁alti	-11.644
paŝi	-11.646
▁gajno	-11.6466
ner	-11.6466
▁silkaj	-11.6471
▁zorgoj	-11.6474
▁izo	-11.6479
▁vort	-11.6482
▁mikroskopi	-11.6483
ando	-11.6497
▁nutra	-11.6498
▁forceja	-11.6503
acido	-11.6503
▁lampoj	-11.6508
ligra	-11.651
▁paŝt	-11.651
▁garantii	-11.6511
▁presilo	-11.6513
▁flugigi	-11.652
taroj	-11.6523
▁akceptu	-11.6524
▁nulig	-11.6533
▁sidint	-11.6535
▁kundividi	-11.6547
▁kunirigi	-11.6547
▁kvaron	-11.6548
▁komunikad	-11.6551
▁gastiganta	-11.6557
ham	-11.6563
▁pintaj	-11.6575
▁alŝuti	-11.6577
50	-11.6579
▁fier	-11.6583
▁forno	-11.6586
▁fotiloj	-11.6588
fi	-11.6593
▁universalaj	-11.6595
▁nacio	-11.6597
▁bonvenigi	-11.6599
▁fluidaĵoj	-11.6599
eksplodo	-11.6606
▁sema	-11.6609
▁alternativaj	-11.6611
ves	-11.6613
igoj	-11.6613
▁kulmina	-11.6621
net	-11.663
▁fora	-11.6635
▁dik	-11.6638
▁malplen	-11.664
ntreprenisto	-11.6646
venantaj	-11.6655
▁teksaĵoj	-11.6657
▁vizito	-11.6657
mento	-11.6661
▁manĝejo	-11.6664
▁ab	-11.6681
subteno	-11.6702
▁protekto	-11.6706
osmo	-11.6708
kovrilo	-11.6708
▁investi	-11.6708
iala	-11.6712
▁Ci	-11.6724
hin	-11.6726
ck	-11.6735
tano	-11.6736
lum	-11.6738
▁envi	-11.674
ŝprucan	-11.6756
▁fadenon	-11.676
ŭtomobilo	-11.677
▁substancoj	-11.6772
kvieti	-11.679
▁fun	-11.6796
▁pez	-11.6797
▁misa	-11.6806
▁memorigi	-11.6814
▁ava	-11.6816
sie	-11.6816
▁sesio	-11.6828
▁aganto	-11.6834
psikopatia	-11.6842
▁normalo	-11.6857
▁rakontant	-11.6859
▁teknologiaj	-11.6863
▁facilig	-11.6868
natoj	-11.6874
▁elĵeti	-11.6876
▁idealigi	-11.6894
▁renkontiĝ	-11.6896
▁malŝpari	-11.6897
▁malakcept	-11.6899
▁akiru	-11.6911
▁montrata	-11.6922
▁krimo	-11.6937
fest	-11.6943
▁sekvig	-11.6954
bli	-11.6986
▁iriga	-11.6987
▁malkreski	-11.7
▁aliroj	-11.701
▁disponig	-11.7019
▁flugant	-11.7021
unga	-11.7021
▁mikrocirkvita	-11.7026
▁nocio	-11.7033
▁strukturit	-11.7034
▁Ale	-11.7034
▁solec	-11.7045
▁progresigi	-11.706
▁vidpunktoj	-11.7064
cigi	-11.7067
▁aperu	-11.7067
▁surprizi	-11.707
serĉi	-11.7074
▁All	-11.7077
▁eksplod	-11.7087
▁recepton	-11.7095
▁farti	-11.7128
▁malhelpo	-11.714
▁kopii	-11.7142
▁pupo	-11.7154
▁bovino	-11.7157
▁respekta	-11.7158
▁malabunda	-11.7161
▁nelegipova	-11.7167
▁venkanta	-11.7176
▁herbo	-11.7177
▁eŭropano	-11.7192
▁truo	-11.7198
▁strebi	-11.7206
▁deirpunkt	-11.7214
▁malbonaĵo	-11.7216
strukturig	-11.7221
▁supozita	-11.7225
▁elĉerpa	-11.7232
aŭze	-11.7233
▁aga	-11.7243
▁amasprodukt	-11.7269
▁aĉe	-11.7271
▁sensenc	-11.7298
aĉoj	-11.73
▁Dis	-11.7302
esto	-11.7307
▁Sp	-11.7312
▁trib	-11.7312
doma	-11.7322
tre	-11.7329
▁kla	-11.7333
▁tuŝad	-11.7339
▁Timo	-11.7345
▁kuirant	-11.7345
▁malfacili	-11.7353
konscie	-11.7368
mado	-11.7405
rit	-11.7417
▁vojaĝad	-11.7435
▁elturniĝi	-11.7439
▁redifini	-11.7444
▁vegetaĵa	-11.7446
▁198	-11.7455
▁turment	-11.7476
geni	-11.7525
▁renversi	-11.7526
▁grandiozaj	-11.7536
▁britaj	-11.7537
▁mirakla	-11.7538
▁duobliĝi	-11.7539
8-	-11.7556
▁event	-11.7558
lato	-11.7567
▁Her	-11.7568
▁fajroj	-11.7577
▁vitaminoj	-11.7579
▁aperig	-11.7591
▁kinaĵoj	-11.7594
aŭtomatigi	-11.7594
▁fantomo	-11.7601
▁reakirebl	-11.7603
▁knaboj	-11.7608
▁streĉ	-11.7609
tone	-11.761
kte	-11.7619
gia	-11.7625
▁ariĝ	-11.7643
▁salto	-11.7644
▁strukturi	-11.7653
▁har	-11.7655
▁konsilant	-11.7657
▁farenda	-11.7669
▁minuto	-11.7678
gfolio	-11.7704
▁ĝeneralig	-11.771
▁dezajnis	-11.773
konduki	-11.775
▁pasioj	-11.7765
igenda	-11.7768
avaj	-11.7784
▁eliĝanta	-11.7785
▁sensaliga	-11.7786
▁arkeo	-11.7792
▁vundi	-11.7799
▁team	-11.7801
▁facilaj	-11.7802
▁malmulteg	-11.7802
laborado	-11.7807
urego	-11.7829
sent	-11.7836
▁niĉ	-11.7843
▁ambicia	-11.788
karbona	-11.7902
▁vast	-11.792
▁koment	-11.7924
orienta	-11.7985
▁malforta	-11.8007
▁zo	-11.8008
▁figuroj	-11.8018
▁kul	-11.8025
▁kunlaborant	-11.8029
▁perturbo	-11.8056
▁rilatig	-11.8064
▁kredit	-11.8088
▁etikedi	-11.809
▁arabaj	-11.8107
▁ri	-11.8127
▁malpr	-11.8147
▁Harr	-11.8151
roko	-11.8156
regilo	-11.818
▁elflua	-11.8189
eldon	-11.8189
▁dog	-11.819
▁kompleta	-11.8214
▁urba	-11.8231
▁stimuli	-11.8241
▁zorgo	-11.8242
▁enspiri	-11.8252
ump	-11.8257
protektilo	-11.826
▁malŝata	-11.826
▁Clas	-11.8287
▁emoci	-11.8293
sistemoj	-11.8311
▁prudenta	-11.8328
▁estiĝo	-11.8335
▁triki	-11.8341
▁instiga	-11.8353
talaj	-11.8361
▁Gel	-11.8371
▁ruĝiĝi	-11.8382
irebla	-11.8401
▁kreitaj	-11.8419
▁ŝanĝiĝo	-11.8425
▁alfront	-11.8457
▁sugesti	-11.8474
gal	-11.8487
▁bonegaj	-11.8491
▁disiĝ	-11.8495
rogramo	-11.8503
gant	-11.8512
▁protektita	-11.8514
vivaĵoj	-11.8523
▁intertemp	-11.8528
▁malpliiĝ	-11.8571
▁iĝu	-11.8607
▁likv	-11.8621
uf	-11.8628
▁nebula	-11.8635
▁ventr	-11.8637
▁televidaj	-11.8642
enton	-11.8662
▁kuŝi	-11.8686
▁konsento	-11.8688
▁fetora	-11.871
infin	-11.8728
igan	-11.8749
dion	-11.8772
▁vaste	-11.8776
nger	-11.8781
ivoj	-11.8788
▁prepar	-11.8788
▁man	-11.8791
trakto	-11.8804
▁eniron	-11.8808
▁montriĝ	-11.8811
▁absurd	-11.8823
▁alpren	-11.8824
▁talenta	-11.8829
planado	-11.8832
▁trairi	-11.8832
kondukita	-11.8854
ripetaj	-11.8855
ondaĵo	-11.8863
▁studon	-11.8879
▁materiala	-11.8888
loko	-11.8908
gramo	-11.8911
▁timigi	-11.8931
▁neebl	-11.8937
▁praktikan	-11.895
gener	-11.8981
▁Levi	-11.8982
▁foruz	-11.8984
metro	-11.8987
▁povoj	-11.8995
▁gal	-11.8995
▁intereseg	-11.9011
jebr	-11.9021
▁aprobi	-11.9034
▁reklami	-11.9041
▁okjar	-11.9068
celad	-11.9083
▁rekompencan	-11.9087
▁transporti	-11.9093
▁kunvid	-11.9094
▁urso	-11.9142
25-	-11.9176
esio	-11.9191
▁fetor	-11.92
viva	-11.9213
▁liveris	-11.9219
kuŝis	-11.9231
sana	-11.9239
▁malŝpara	-11.9241
ank	-11.9315
▁koncerna	-11.9339
▁turnigi	-11.9359
edon	-11.9364
▁nebul	-11.937
▁konsciiĝ	-11.937
70	-11.9423
▁revenigi	-11.9429
referenca	-11.9484
▁opiniu	-11.9503
rigard	-11.9504
rego	-11.9507
▁konservita	-11.9512
zorgig	-11.9518
▁analiza	-11.9576
▁invers	-11.9586
rest	-11.9657
▁trovu	-11.9658
▁proksimiĝ	-11.9666
▁malŝat	-11.9692
▁rekompenci	-11.9702
ingon	-11.9739
▁dinamika	-11.9767
▁malakcepta	-11.9778
fuĝ	-11.9797
▁vizitant	-11.9801
▁proku	-11.9856
▁reĝ	-11.9856
▁eksciti	-11.9869
▁streĉa	-11.9915
▁komplike	-11.9954
▁Henr	-11.9955
regule	-11.9957
multegaj	-11.9966
▁scivolem	-11.9972
▁lega	-11.9979
artist	-11.9986
ndan	-12.0007
▁menstrui	-12.0015
folio	-12.0021
▁varmigi	-12.0023
iero	-12.0038
▁seku	-12.004
laĵo	-12.0055
▁teama	-12.0062
▁Sekvi	-12.0073
▁ĉirkaŭanta	-12.0078
▁voĉdoni	-12.0154
rig	-12.0215
▁envolvi	-12.0253
▁bril	-12.028
trakta	-12.0283
legistino	-12.0283
pol	-12.0284
▁nekonsci	-12.0304
adre	-12.0335
▁sav	-12.0354
centoj	-12.0369
rompiĝ	-12.0377
▁fol	-12.0383
▁fonda	-12.0403
mont	-12.0403
▁mara	-12.0406
▁14,	-12.0418
truon	-12.0427
ovokvanto	-12.0442
serĉ	-12.0452
sekur	-12.05
▁aŭtomat	-12.0511
▁37	-12.0546
vendis	-12.0557
elan	-12.0565
▁lip	-12.0624
▁devint	-12.0668
▁turmenti	-12.0668
▁186	-12.0699
▁malpermesa	-12.074
▁kunmeti	-12.0743
enon	-12.0784
▁terur	-12.0812
▁aĉ	-12.0815
lenatent	-12.0832
▁ignori	-12.0896
▁rekompenca	-12.091
▁mortint	-12.0915
▁180	-12.092
▁radia	-12.0922
▁funebr	-12.0947
▁okazig	-12.0954
▁tropez	-12.0963
▁mastrumada	-12.0978
grad	-12.0983
kta	-12.101
▁lokig	-12.1033
▁Knab	-12.1041
kuracebl	-12.1073
▁nelegipov	-12.1101
trabo	-12.1108
▁malabund	-12.1112
▁diskaparat	-12.1125
dividiĝ	-12.1132
faĵo	-12.1134
atrino	-12.1136
normale	-12.1158
▁fal	-12.1222
▁farend	-12.1262
▁kontrolit	-12.1306
▁mikrocirkvit	-12.131
▁ĝoja	-12.131
▁rigardata	-12.1316
▁direkti	-12.1328
▁varia	-12.1343
▁Naŭ	-12.1365
kritikis	-12.1368
eksp	-12.1379
uzita	-12.1391
▁elvok	-12.1406
▁malhelp	-12.1409
▁memkuniĝ	-12.1414
prenita	-12.1417
▁kuiri	-12.1422
irpunktoj	-12.1428
aluto	-12.145
loke	-12.1452
▁dom	-12.1454
▁centre	-12.1479
▁forti	-12.1501
igna	-12.154
▁kulmin	-12.1567
▁ŝpari	-12.1573
▁matematik	-12.1575
65	-12.1582
ĵetis	-12.1583
akcela	-12.1591
▁teknik	-12.1604
tewa	-12.1637
▁interparol	-12.1641
surfaco	-12.165
▁venena	-12.1669
▁nul	-12.17
▁farado	-12.1718
aŭtomobil	-12.1721
▁invent	-12.1742
▁elĵet	-12.1744
▁kria	-12.1806
renaj	-12.1862
▁loki	-12.1877
ŝip	-12.1899
▁spegul	-12.1907
▁angl	-12.1916
ektitaj	-12.1929
▁projekt	-12.1951
▁bonvenig	-12.1984
ridis	-12.1991
provizado	-12.1995
▁volv	-12.2004
ler	-12.2009
kore	-12.2016
▁radik	-12.2035
listoj	-12.2039
fido	-12.2043
tingi	-12.2053
▁planed	-12.2054
film	-12.2057
ivaj	-12.2078
detale	-12.2082
▁kler	-12.2085
▁kalkulad	-12.2116
senta	-12.2117
▁garanti	-12.2131
moz	-12.2135
nstanc	-12.2141
▁forcej	-12.2145
▁transforma	-12.2165
donaj	-12.2185
ĝe	-12.219
sunsistem	-12.2204
dezirita	-12.2214
▁transskrib	-12.222
▁alvok	-12.2223
▁impo	-12.2235
ava	-12.2256
objekto	-12.227
▁kol	-12.2276
▁famili	-12.2308
▁dokument	-12.2333
▁bata	-12.2411
▁flara	-12.2436
▁malkomfort	-12.2465
▁malk	-12.2491
▁industri	-12.251
▁aĝ	-12.2531
premoj	-12.2535
▁senviva	-12.2543
rang	-12.2598
▁person	-12.2607
▁neglekti	-12.2618
▁teĥnik	-12.2631
rekon	-12.2632
▁gastigant	-12.2632
▁fuŝ	-12.2639
▁postviv	-12.2658
▁referenc	-12.2667
▁sorbi	-12.2693
▁nevidebl	-12.2712
sorb	-12.2712
▁lukt	-12.2718
▁sunelektrig	-12.2726
forte	-12.2729
ĥemiaĵoj	-12.2746
orbita	-12.2761
▁sendepend	-12.2771
tubo	-12.2779
rilatigo	-12.2792
▁paŝti	-12.2797
iĝanta	-12.2806
molekulo	-12.2822
agantoj	-12.2834
▁insista	-12.286
enig	-12.2882
rf	-12.2929
ardi	-12.2959
▁kontraŭdir	-12.2964
haro	-12.2977
▁senartifik	-12.2977
▁Fra	-12.2985
▁pol	-12.2991
medicinaj	-12.2993
▁plenkreskul	-12.3007
owd	-12.302
facila	-12.3032
prudentaj	-12.3035
▁sport	-12.3035
▁salajr	-12.3046
▁incita	-12.3051
omence	-12.3061
▁estonta	-12.3067
▁longtemp	-12.3086
sukceso	-12.3101
multaj	-12.314
▁kuracist	-12.3144
ofici	-12.3145
longa	-12.3151
▁enket	-12.3164
ord	-12.317
▁ligil	-12.3182
grand	-12.3211
▁vetur	-12.3211
br	-12.3222
minejo	-12.323
▁difektita	-12.3235
orda	-12.3244
fraz	-12.325
▁Tru	-12.3257
▁delikata	-12.326
malsaniĝ	-12.3264
briiga	-12.3268
▁konklud	-12.3271
▁bomba	-12.3273
▁devigit	-12.3281
meteo	-12.3287
▁bibli	-12.3293
zono	-12.3311
▁klasĉambr	-12.3319
▁sangovaskul	-12.332
▁superstiĉ	-12.332
▁latitud	-12.3321
▁klient	-12.3323
▁tabel	-12.3325
▁Ap	-12.3329
▁malfermant	-12.333
onstituci	-12.3335
cha	-12.3339
▁teĥnikaĵ	-12.3359
lok	-12.3359
▁akrid	-12.3368
▁uni	-12.3377
iĝema	-12.3384
▁Aten	-12.3389
▁traspert	-12.3394
kolonio	-12.3398
▁defi	-12.34
rakoj	-12.3406
▁koleg	-12.3416
instaliĝ	-12.3425
onkerint	-12.3439
supre	-12.3439
trino	-12.3442
int	-12.3454
▁demonstraci	-12.3463
▁varmiĝ	-12.3465
spec	-12.3475
daŭran	-12.3477
▁kompens	-12.3478
▁kurb	-12.3479
▁apog	-12.3506
▁esplorist	-12.3552
produkto	-12.3552
kovro	-12.3578
▁Best	-12.3589
▁novem	-12.3594
▁lernej	-12.3595
ezepoka	-12.3597
▁special	-12.3616
▁mapig	-12.3616
▁Plu	-12.3618
▁dunga	-12.3627
lov	-12.3666
▁realte	-12.3668
▁portret	-12.3669
▁hipi	-12.3681
veno	-12.3695
veni	-12.3717
▁printil	-12.3718
▁hund	-12.3723
▁kroĉ	-12.373
▁plaĉ	-12.3733
▁ekzili	-12.3744
fabrik	-12.3755
▁elprov	-12.3758
ll	-12.3791
▁Last	-12.3796
disvolviĝi	-12.3813
▁disvastiĝ	-12.382
▁rekre	-12.3826
▁ripar	-12.3827
▁marŝ	-12.3827
▁varb	-12.3833
prenu	-12.3833
▁ordig	-12.3834
medi	-12.3836
▁agant	-12.3836
▁akompan	-12.3843
▁subskrib	-12.3847
interkonsento	-12.3854
▁princip	-12.3865
▁rimarkind	-12.3876
▁kompatem	-12.3876
moda	-12.3879
vivmedia	-12.389
vidi	-12.3899
minut	-12.3926
▁Dig	-12.3928
edzoj	-12.3938
surfaca	-12.3939
parol	-12.3941
▁vigle	-12.3948
▁elspir	-12.3949
spero	-12.3954
udorient	-12.3961
ĉelaj	-12.3993
▁plifort	-12.4
▁universitat	-12.402
▁trab	-12.4059
▁river	-12.4064
▁startig	-12.4069
▁predant	-12.4074
▁kv	-12.4077
ternulo	-12.4078
▁apo	-12.4084
▁pluir	-12.4086
tim	-12.4091
▁neŭro	-12.4093
▁majstr	-12.411
▁kirurgi	-12.4116
▁insul	-12.4125
proksim	-12.414
▁hispan	-12.4141
▁komunum	-12.4143
porto	-12.4145
lud	-12.4146
▁pic	-12.4152
▁profet	-12.4169
▁servis	-12.417
▁interrilati	-12.4173
▁trikot	-12.4175
▁delfen	-12.4178
▁longdaŭr	-12.4178
▁fuz	-12.4184
amatora	-12.4188
▁agrokultur	-12.4188
▁deklar	-12.4191
▁Pl	-12.42
▁vizi	-12.4213
97	-12.4218
subten	-12.4226
▁kunul	-12.4228
ploj	-12.4231
ive	-12.4231
▁priskrib	-12.4238
produkt	-12.4249
ŝtono	-12.4257
pilk	-12.426
▁tuk	-12.4266
▁moder	-12.4272
▁rakontan	-12.4273
proviz	-12.4277
dukita	-12.428
▁sepult	-12.4295
24	-12.4311
uraĵoj	-12.4312
▁konsumad	-12.4313
▁Stud	-12.4313
▁pr	-12.4315
centra	-12.4317
lakilo	-12.4319
luita	-12.4325
aper	-12.4334
▁denask	-12.4336
▁najbar	-12.4339
▁vegeta	-12.435
▁disreviĝ	-12.4352
▁pligrandig	-12.4353
▁gl	-12.4353
bi	-12.4355
agi	-12.4356
lini	-12.4359
▁sekci	-12.4362
opaj	-12.4368
tomo	-12.4371
▁urinvezik	-12.4387
vespera	-12.4403
forgesi	-12.4404
▁recikli	-12.4405
▁donitaĵo	-12.4413
▁necert	-12.4415
mpiĝinta	-12.4416
esplori	-12.4418
▁moral	-12.4419
ŝprucig	-12.4422
▁eduki	-12.4424
▁titol	-12.4433
▁mesaĝ	-12.4434
ekranoj	-12.4435
▁odor	-12.4439
▁animis	-12.4442
▁ungo	-12.4443
▁Sennom	-12.446
aĵaro	-12.4462
▁proces	-12.4463
spirad	-12.4468
injorino	-12.4474
▁detektil	-12.4475
▁vejno	-12.4491
ricevo	-12.4498
fr	-12.4499
erion	-12.4501
bat	-12.4502
▁dezert	-12.4503
misi	-12.4504
▁tendenc	-12.4504
pensado	-12.4514
▁solida	-12.4516
diveno	-12.4519
mini	-12.4519
▁cerba	-12.4524
▁muskola	-12.4527
▁Ol	-12.4528
fakul	-12.4529
▁babila	-12.4529
tage	-12.4529
deziroj	-12.4529
▁neimagebla	-12.453
▁ondolongo	-12.4531
▁insida	-12.4531
▁mekanismo	-12.4531
▁prioritato	-12.4532
kalkuli	-12.4533
▁bombon	-12.4533
▁kosmoŝip	-12.4533
▁islama	-12.4535
ĵ	-12.4542
multe	-12.4543
▁aŭtism	-12.4544
▁pec	-12.4544
▁kosm	-12.4546
▁kolektiv	-12.4546
▁salikoko	-12.4547
sudan	-12.4554
▁prototipa	-12.4557
▁pap	-12.4561
▁sensencaĵo	-12.4562
estolingv	-12.4562
▁komplika	-12.4562
program	-12.457
▁dors	-12.4576
▁sociolog	-12.4578
kap	-12.458
daŭro	-12.4582
▁inĝenieria	-12.4583
▁malkompo	-12.4583
akord	-12.4584
kul	-12.4586
▁konflikt	-12.4586
litis	-12.459
lernejo	-12.4591
bul	-12.4591
▁lernant	-12.4593
merkato	-12.4597
skatol	-12.4601
▁fajr	-12.4607
▁magneto	-12.4607
▁ekspedicio	-12.4607
▁arterio	-12.4609
▁viktimo	-12.4611
▁inci	-12.4613
▁judo	-12.4613
modelo	-12.4615
mapo	-12.4617
rling	-12.4623
▁fiŝa	-12.4623
▁koncer	-12.4623
kalkul	-12.4626
mirig	-12.4628
▁operaci	-12.4629
▁departement	-12.463
▁identa	-12.463
▁kabinet	-12.463
▁matric	-12.463
▁malkontent	-12.463
▁magazin	-12.4631
▁membran	-12.4632
▁hejmland	-12.4633
▁aktor	-12.4634
▁trajto	-12.4635
▁cirkl	-12.4637
▁Meksik	-12.4638
tiko	-12.4638
▁movad	-12.464
▁ŝafo	-12.464
▁hepat	-12.4647
bild	-12.4648
▁sunelektr	-12.4649
sensaliga	-12.4651
pova	-12.4654
▁sanigilo	-12.4655
ganta	-12.4661
agad	-12.4662
▁konfi	-12.4664
irlanda	-12.4667
▁ŝarg	-12.467
artaĵo	-12.4672
serv	-12.4673
▁bateri	-12.4676
▁merk	-12.4676
util	-12.4676
▁pole	-12.4678
▁retej	-12.4679
akordig	-12.468
radioj	-12.4681
difino	-12.4683
fibroj	-12.4684
mpleksa	-12.4685
▁kvalifiki	-12.4685
energia	-12.4686
fleg	-12.4686
opan	-12.4687
▁malbe	-12.4689
patro	-12.4689
ili	-12.4691
dinamiko	-12.4692
rezist	-12.4692
▁ĉokolad	-12.4694
operacio	-12.4694
marŝi	-12.4695
ovu	-12.4696
▁minindustri	-12.4698
honesta	-12.4698
potenc	-12.4699
rg	-12.47
sukces	-12.47
taŭga	-12.4702
liber	-12.4702
▁fabrikad	-12.4703
pasanta	-12.4703
Camp	-12.4704
kriterio	-12.4704
kemiaĵoj	-12.4705
akcidento	-12.4705
diboĉ	-12.4705
freŝ	-12.4705
antaŭjuĝ	-12.4705
cirkvit	-12.4705
altteĥnika	-12.4705
▁malam	-12.4705
vaporiĝ	-12.4706
karb	-12.4706
vapor	-12.4707
organ	-12.4707
redukt	-12.4707
skribaĵo	-12.4708
islaman	-12.4708
ĉiele	-12.4708
stilo	-12.4709
▁retmesaĝ	-12.471
angio	-12.471
babil	-12.471
ciita	-12.471
kolorigi	-12.4711
akcioj	-12.4711
▁Mag	-12.4712
etiked	-12.4712
celsi	-12.4714
▁aparat	-12.4716
efikaj	-12.4717
moneroj	-12.4718
▁bub	-12.4718
▁diferenc	-12.4718
farado	-12.4718
vaskula	-12.4719
▁kinaĵ	-12.4719
kuraĝigi	-12.472
aktuala	-12.472
reklamo	-12.4721
▁ŭathoro	-12.4721
▁krudmaterialo	-12.4721
▁mineralo	-12.4721
poŝt	-12.4721
konspir	-12.4722
somer	-12.4724
registar	-12.4725
ensig	-12.4726
militist	-12.4726
plenig	-12.4727
Hero	-12.4729
studi	-12.4729
prezent	-12.473
konscia	-12.473
tabu	-12.4731
datumo	-12.4731
proporci	-12.4731
direkt	-12.4732
veturi	-12.4733
komunikilo	-12.4733
aŭskultant	-12.4735
▁plantaĵo	-12.4735
fidindaj	-12.4736
instig	-12.4736
respondeca	-12.4738
praktik	-12.4738
nevideblig	-12.4738
▁haŭtpigment	-12.4738
korp	-12.4738
veturilo	-12.4739
fotograf	-12.4739
15-	-12.474
ĝentil	-12.474
geavoj	-12.474
▁emocii	-12.474
kongru	-12.4741
disput	-12.4741
kurenton	-12.4741
teatro	-12.4741
funkcianta	-12.4742
inĝenierad	-12.4742
▁ondo	-12.4742
diluvo	-12.4742
prevent	-12.4742
▁menu	-12.4742
mort	-12.4742
▁task	-12.4743
atendo	-12.4743
▁lecion	-12.4743
herb	-12.4744
plenum	-12.4744
▁biosfer	-12.4744
struktura	-12.4744
▁avin	-12.4745
80	-12.4745
etendiĝ	-12.4745
▁situaci	-12.4745
▁venont	-12.4746
avantaĝoj	-12.4747
malproksima	-12.4747
energio	-12.4748
fadenoj	-12.4748
▁radiog	-12.4749
profito	-12.475
▁libr	-12.4751
kuvo	-12.4753
tromp	-12.4754
interno	-12.4755
poz	-12.4755
inspekt	-12.4755
konsum	-12.4756
havaj	-12.4756
bazita	-12.4756
anĝeloj	-12.4756
prononc	-12.4756
adekvat	-12.4756
reaktoro	-12.4756
panelo	-12.4757
frandaĵo	-12.4757
reprezent	-12.4757
koton	-12.4757
devig	-12.4758
honor	-12.4758
ŝtata	-12.4759
konataj	-12.4759
publiko	-12.4759
▁teksaĵ	-12.476
organo	-12.4761
valoro	-12.4762
teknikoj	-12.4762
evoluig	-12.4762
ruĝiĝ	-12.4763
600	-12.4764
paĝo	-12.4764
ludi	-12.4765
ŝtel	-12.4765
kreskanta	-12.4765
preleganto	-12.4765
Fakultato	-12.4765
rdigi	-12.4766
17	-12.4766
artikolo	-12.4766
poentoj	-12.4766
montri	-12.4766
konversacio	-12.4769
imila	-12.4769
orado	-12.4769
entuziasm	-12.477
signifoplena	-12.477
eksperiment	-12.4771
identeco	-12.4771
nuklea	-12.4771
kart	-12.4771
fenestro	-12.4771
damaĝ	-12.4771
▁spi	-12.4772
ŝtofo	-12.4772
miksi	-12.4772
publika	-12.4772
kanton	-12.4773
analizo	-12.4773
▁regulaĵ	-12.4773
escept	-12.4773
afiŝ	-12.4773
aŭteroj	-12.4774
bazaj	-12.4774
eŭropaj	-12.4775
portreto	-12.4775
plialtigi	-12.4776
laboris	-12.4776
disiĝ	-12.4777
mapigi	-12.4777
kulturo	-12.4778
subi	-12.4778
sukero	-12.4778
time	-12.4779
urĝ	-12.4779
verki	-12.4779
movadon	-12.478
instruistoj	-12.478
▁sim	-12.478
urbo	-12.478
apartig	-12.4781
bank	-12.4781
material	-12.4781
19-	-12.4781
pripensi	-12.4781
fonto	-12.4783
koncepto	-12.4784
rakontoj	-12.4784
regiono	-12.4784
rimarki	-12.4785
kontinento	-12.4785
esploro	-12.4785
rakonti	-12.4785
hejme	-12.4786
filmo	-12.4786
turni	-12.4786
proteino	-12.4786
limo	-12.4787
organismoj	-12.4787
Angl	-12.4787
malsupre	-12.4787
ŝanĝoj	-12.4788
koloroj	-12.4788
facile	-12.4788
▁tekst	-12.4789
ŝto	-12.4789
traktado	-12.4789
antaŭvid	-12.479
perfekt	-12.479
profund	-12.479
protekti	-12.4791
krei	-12.4791
glaci	-12.4792
natur	-12.4792
strukturo	-12.4792
Irano	-12.4792
eviti	-12.4792
probable	-12.4792
numero	-12.4793
metodo	-12.4793
infanoj	-12.4793
▁fand	-12.4793
kolekt	-12.4793
komprenebl	-12.4794
mara	-12.4794
angla	-12.4795
Ĉ	-12.4795
ordinar	-12.4795
nubo	-12.4795
krizo	-12.4796
kvin	-12.4797
ricevi	-12.4797
sekureco	-12.4797
penetr	-12.4798
▁aĵ	-12.4799
▁kvalifik	-12.48
posed	-12.48
▁partoprenad	-12.4801
sinteno	-12.4801
▁anĝelo	-12.4801
▁pripen	-12.4801
▁afer	-12.4802
erto	-12.4802
▁popol	-12.4802
eraroj	-12.4802
▁klera	-12.4803
intenc	-12.4803
▁konfuzi	-12.4804
malalta	-12.4804
▁diab	-12.4805
▁spac	-12.4806
▁dietad	-12.4807
aĝulo	-12.4808
22	-12.4809
fakt	-12.4811
▁arab	-12.4813
kapti	-12.4814
planed	-12.4815
elekt	-12.4815
okuloj	-12.4816
▁eksterter	-12.4818
ŝtone	-12.482
pika	-12.482
ekonomi	-12.4821
moment	-12.4822
rilatoj	-12.4823
kodo	-12.4823
ksimum	-12.4824
kartoj	-12.4824
metaloj	-12.4826
prezenti	-12.4828
▁estaĵ	-12.4829
▁komb	-12.483
produktis	-12.4831
ŝuoj	-12.4831
▁loĝantar	-12.4832
▁varo	-12.4833
92	-12.4833
▁kompetento	-12.4835
signifa	-12.4837
▁kontraŭpersona	-12.4845
▁politikisto	-12.4845
▁altruisto	-12.4845
▁atmosfer	-12.4845
bend	-12.4845
fandiĝa	-12.4846
▁fakultat	-12.485
▁ĉirkaŭaĵ	-12.485
utilo	-12.4851
bezone	-12.4853
▁tavol	-12.4854
ritelir	-12.4855
rfajro	-12.4855
▁grandskala	-12.4856
▁mikrobo	-12.4857
▁Lec	-12.4857
▁salikok	-12.4857
usona	-12.486
tru	-12.4861
▁ĝarden	-12.4864
malkovr	-12.4865
▁kopirajt	-12.4867
tamino	-12.4868
▁poento	-12.4868
bildig	-12.4868
▁ŝaf	-12.4868
▁Babilon	-12.4869
▁dekoraci	-12.4869
▁kadavr	-12.4871
▁agrikultur	-12.4871
uzebl	-12.4872
fingro	-12.4872
teorio	-12.4876
ekti	-12.4876
▁Teheran	-12.4878
▁fantom	-12.488
atingi	-12.4882
▁intensi	-12.4884
artaĵoj	-12.4884
dolĉ	-12.4886
potenco	-12.4886
▁Bibli	-12.4887
▁faden	-12.489
merkatoj	-12.4895
kaĵo	-12.4895
▁artaĵ	-12.4896
muso	-12.4897
papero	-12.4897
komprenig	-12.4897
ekonomio	-12.4899
▁kompetent	-12.4901
agado	-12.4902
mikoj	-12.4903
mensa	-12.4903
▁familiano	-12.4904
▁fer	-12.4904
reala	-12.4907
▁sekurec	-12.491
pretenda	-12.491
malgrand	-12.491
▁afrika	-12.4914
▁infekto	-12.4915
ekta	-12.4916
elcenta	-12.4917
▁oranĝ	-12.4919
▁pruntedon	-12.4921
▁foti	-12.4922
▁semo	-12.4923
▁trukart	-12.4923
menstruan	-12.4923
tub	-12.4924
haltigi	-12.4924
flugu	-12.4925
komprena	-12.4926
ativa	-12.4928
ĉeesta	-12.4928
▁insekt	-12.4928
▁konst	-12.493
▁malob	-12.4932
frazo	-12.4934
▁islamism	-12.4934
stria	-12.4935
▁servil	-12.4936
▁fidind	-12.4937
modeloj	-12.4938
momente	-12.4938
rezista	-12.4939
tetoj	-12.494
mografi	-12.494
▁serĉad	-12.494
▁Georg	-12.4941
mapoj	-12.4942
▁transloki	-12.4944
▁resani	-12.4945
▁forpasi	-12.4945
bal	-12.4945
revena	-12.4945
▁klini	-12.4948
Soci	-12.495
▁kompon	-12.4952
▁pied	-12.4955
ibroj	-12.4956
▁sendepende	-12.4957
W	-13.8662
Ŝ	-13.8663
!	-13.8664
Ĝ	-13.8665
V	-13.8666
—	-13.8667
)	-13.8668
:	-13.8669
?	-13.867
q	-13.8671
&	-13.8672
,	-13.8673
