<unk>	0
<s>	0
</s>	0
▁,	-2.91512
▁.	-3.14425
t	-3.6363
▁	-3.83836
▁on	-3.93786
d	-3.98642
s	-4.28581
▁ja	-4.28972
;	-4.5191
▁&	-4.53383
▁et	-4.54351
e	-4.5497
quo	-4.60237
b	-4.61764
i	-4.6972
▁see	-4.85735
da	-4.90175
a	-4.92407
st	-4.94104
ks	-4.96563
le	-5.02597
l	-5.06044
▁kui	-5.06959
ga	-5.08053
n	-5.10984
▁ei	-5.12931
ne	-5.14367
id	-5.1534
vad	-5.17008
me	-5.21682
▁me	-5.2745
▁ma	-5.28472
▁mis	-5.28874
nud	-5.32295
lt	-5.40355
▁See	-5.43444
▁Ja	-5.47543
▁selle	-5.48503
▁seda	-5.54857
te	-5.59319
gi	-5.60203
▁?	-5.67496
▁oli	-5.70242
▁oma	-5.71236
ma	-5.74268
▁mida	-5.81231
▁:	-5.82902
▁või	-5.88899
-	-5.89401
▁nad	-5.92199
u	-5.93776
▁Ma	-5.95264
▁ka	-5.99293
▁siis	-5.99792
▁-	-6.04867
(	-6.06163
▁)	-6.06163
▁ta	-6.09384
sid	-6.15582
▁nii	-6.1561
tud	-6.17194
sin	-6.19647
▁väga	-6.26062
▁kes	-6.26769
▁meie	-6.26879
ta	-6.29483
▁sa	-6.32107
▁ole	-6.338
▁Me	-6.36579
▁nagu	-6.38124
▁need	-6.39983
▁palju	-6.40216
se	-6.41493
ning	-6.42679
des	-6.4488
▁Kui	-6.45133
▁nende	-6.48011
es	-6.48849
▁pea	-6.50122
ti	-6.52855
▁pole	-6.53572
▁aga	-6.53894
▁te	-6.58451
▁meil	-6.59235
ki	-6.6022
sse	-6.60285
▁minu	-6.60776
mine	-6.60921
na	-6.61068
▁kõik	-6.61391
kuidas	-6.62009
▁mitte	-6.62146
▁välja	-6.62185
▁üks	-6.63251
▁Na	-6.63547
is	-6.63898
▁A	-6.66995
mise	-6.67269
▁Aga	-6.72611
▁Naer	-6.73641
▁kus	-6.74231
▁siin	-6.74606
ni	-6.76351
▁neid	-6.7698
▁kõige	-6.79327
▁midagi	-6.80646
sest	-6.80914
▁kasuta	-6.82103
▁mul	-6.82346
▁elu	-6.83741
▁—	-6.83914
m	-6.85535
▁Nii	-6.88387
v	-6.88449
▁teha	-6.8921
▁aasta	-6.89394
▁saa	-6.90378
h	-6.9501
▁vaid	-6.9525
takse	-6.95793
▁inimesed	-6.96001
▁sellest	-6.97413
.	-6.97516
de	-6.9762
▁ise	-6.98653
▁võib	-7.00471
▁tea	-7.01953
sime	-7.0268
▁üle	-7.0392
ke	-7.04177
▁tagasi	-7.04455
▁Kuid	-7.04642
ge	-7.05025
▁oleme	-7.05045
▁maailma	-7.05161
▁kogu	-7.05594
▁rohkem	-7.05596
▁olen	-7.06715
el	-7.07593
▁mu	-7.08728
▁kohta	-7.0962
sti	-7.09653
▁näe	-7.1003
▁Ta	-7.12883
▁tegeliku	-7.12947
▁neil	-7.13756
ku	-7.14147
▁olla	-7.14785
▁nüüd	-7.15194
▁oleks	-7.15707
▁kuna	-7.16205
▁mille	-7.16869
▁kas	-7.18903
eid	-7.23603
▁ühe	-7.23856
ega	-7.24058
k	-7.25311
▁iga	-7.2575
▁jaoks	-7.26822
va	-7.27044
em	-7.27159
▁inimeste	-7.27322
si	-7.28238
▁tule	-7.28575
▁ütle	-7.29288
▁taha	-7.29712
▁läbi	-7.29724
▁veel	-7.2979
▁olid	-7.30172
▁kuid	-7.30381
us	-7.30695
plaus	-7.32478
▁olnud	-7.34274
▁osa	-7.34689
▁sama	-7.35229
▁ära	-7.35481
▁ainul	-7.35486
▁teil	-7.35837
▁ela	-7.36643
▁aastat	-7.37102
▁N	-7.37324
▁Selle	-7.37347
mist	-7.37886
as	-7.3796
ud	-7.39003
▁enda	-7.39212
▁tema	-7.39582
▁Kas	-7.3964
o	-7.39773
▁lihtsal	-7.40679
ed	-7.41739
▁neis	-7.42072
▁Need	-7.42403
▁vaja	-7.42548
▁seal	-7.43706
ja	-7.45586
▁suuda	-7.46313
▁kokku	-7.46444
r	-7.46572
er	-7.47534
▁teise	-7.494
▁juhtu	-7.4972
▁selles	-7.50334
▁aastal	-7.51388
line	-7.51863
▁tee	-7.53251
▁rääki	-7.53271
▁jooksul	-7.54149
▁näha	-7.54268
▁saab	-7.54465
apos	-7.54879
▁S	-7.55277
▁p	-7.57349
▁enam	-7.58389
gu	-7.5849
asi	-7.58601
test	-7.59187
ing	-7.59563
▁ütles	-7.60367
▁pärast	-7.60476
ri	-7.60901
▁saada	-7.61737
an	-7.62077
▁muutu	-7.6277
▁suur	-7.63246
▁töö	-7.637
▁sellise	-7.64081
▁vaata	-7.64793
eks	-7.65035
▁teie	-7.65325
▁aju	-7.65593
▁muut	-7.65713
▁aru	-7.65733
▁Nüüd	-7.65781
▁ajal	-7.66189
▁inimese	-7.66406
▁tei	-7.66607
▁!	-7.66607
▁asju	-7.66608
▁Meil	-7.66897
▁On	-7.67477
▁Siin	-7.67485
▁lapse	-7.67507
▁eest	-7.67903
▁vastu	-7.67985
▁toidu	-7.68186
%	-7.68281
▁saame	-7.68676
▁just	-7.68739
▁lähe	-7.68939
▁Mis	-7.6962
▁olema	-7.69891
▁umbe	-7.71715
▁inimesi	-7.71715
▁O	-7.71874
▁kaks	-7.72
mas	-7.72495
▁K	-7.7356
▁mõtle	-7.74561
▁korda	-7.7486
tu	-7.75066
▁tähenda	-7.75271
sed	-7.75421
dest	-7.75713
▁all	-7.76058
ka	-7.76087
▁asja	-7.76246
▁laste	-7.76247
▁P	-7.76318
▁Te	-7.76422
▁hea	-7.76573
est	-7.76853
▁üles	-7.77441
▁tehnoloogia	-7.77886
▁Üks	-7.78023
▁koos	-7.78525
▁praegu	-7.78541
▁ehita	-7.80143
ide	-7.80354
▁kuni	-7.80516
▁olemas	-7.81117
▁vahel	-7.81412
▁20	-7.81488
▁sul	-7.81709
▁kasva	-7.81808
▁mina	-7.81833
▁k	-7.81836
▁võime	-7.81844
▁jõud	-7.82266
▁peale	-7.82764
▁erineva	-7.83363
▁hakka	-7.8338
ra	-7.83697
▁mind	-7.84758
▁jub	-7.85463
▁Niisii	-7.85717
selt	-7.86036
▁näite	-7.86175
▁idee	-7.86281
▁maailmas	-7.87748
ust	-7.88092
▁...	-7.89869
▁Sa	-7.90238
▁Mul	-7.90271
▁tõesti	-7.90946
▁terve	-7.91139
▁räägi	-7.91359
▁leid	-7.92175
▁tööta	-7.9221
ist	-7.92387
▁naise	-7.92421
▁aja	-7.92862
olla	-7.93119
▁Sest	-7.93134
▁nime	-7.93456
▁viis	-7.93489
ksime	-7.93728
▁öelda	-7.9422
▁miks	-7.94242
▁Täna	-7.95237
▁parem	-7.95493
K	-7.96418
▁hästi	-7.96471
▁peame	-7.96473
use	-7.96647
▁E	-7.96804
▁luua	-7.96827
▁millest	-7.96938
▁küsi	-7.97376
▁arva	-7.9744
▁tal	-7.97451
▁lõpu	-7.98401
▁edasi	-7.98631
▁enne	-7.98679
tus	-7.99116
liku	-8.0066
▁keegi	-8.0092
▁mõned	-8.02048
▁aega	-8.02747
▁õige	-8.03287
▁tuli	-8.03292
ksid	-8.03589
in	-8.03603
▁näita	-8.03617
tes	-8.04132
▁täpse	-8.04321
ini	-8.04396
▁keha	-8.04587
▁ema	-8.04638
tel	-8.05128
▁ette	-8.05544
ult	-8.05576
–	-8.05711
▁täna	-8.058
▁selli	-8.06142
▁Seda	-8.0696
▁poole	-8.06962
▁ümber	-8.08196
▁toitu	-8.08595
▁alla	-8.09102
▁tunne	-8.09279
p	-8.09313
▁asjad	-8.09656
▁teist	-8.09899
▁lugu	-8.09978
▁kiire	-8.10066
mad	-8.1035
▁näi	-8.10974
▁vähem	-8.11629
▁L	-8.11704
alati	-8.11854
▁üsna	-8.12043
mood	-8.12057
▁juurde	-8.12091
▁ilma	-8.12097
▁võimalik	-8.12314
▁arvan	-8.12627
▁pane	-8.12862
▁end	-8.13122
▁kirjuta	-8.13246
▁täiest	-8.13358
▁õppi	-8.13498
▁kolm	-8.13566
lik	-8.14033
▁jaga	-8.14283
▁teine	-8.14395
▁10	-8.14641
y	-8.14802
▁olin	-8.15002
▁meeldi	-8.15173
pi	-8.15344
▁nägi	-8.15528
▁näete	-8.15837
▁mõista	-8.16326
▁Mida	-8.16337
▁uue	-8.16347
▁kaasa	-8.165
▁elus	-8.17726
▁saavad	-8.18101
▁T	-8.18311
õ	-8.18758
▁000	-8.18802
▁sai	-8.18894
▁Minu	-8.18986
▁probleem	-8.19432
▁B	-8.19926
▁Kõik	-8.2006
▁asemel	-8.20247
▁ju	-8.20423
mi	-8.2049
▁Või	-8.20631
or	-8.20655
▁teid	-8.21993
▁mil	-8.22219
▁võiks	-8.22721
▁teiste	-8.22752
▁su	-8.22754
tele	-8.23019
teks	-8.23066
▁tegema	-8.23092
del	-8.23582
▁auto	-8.2401
▁var	-8.24475
▁küll	-8.24605
▁puhu	-8.24707
▁küsimus	-8.24826
▁peaks	-8.25
▁loo	-8.25081
▁pida	-8.25552
re	-8.25757
▁võta	-8.25889
▁sisse	-8.26005
▁mingi	-8.26083
▁hetke	-8.26737
▁teevad	-8.27281
ad	-8.27448
▁endale	-8.27662
▁päeva	-8.28119
iselt	-8.28137
▁viimase	-8.28266
▁jõua	-8.28295
tega	-8.28537
▁teeme	-8.28763
▁päris	-8.28779
▁sel	-8.28966
▁paljud	-8.29002
▁kultuuri	-8.2906
▁vali	-8.29466
al	-8.29864
pärast	-8.30105
▁hoopis	-8.30667
▁esimese	-8.3071
▁inimest	-8.30778
dega	-8.30809
▁R	-8.30935
▁sinu	-8.31068
▁jää	-8.31126
▁aeg	-8.32122
▁teada	-8.32613
eeri	-8.32652
▁tegele	-8.33646
▁samu	-8.33973
▁igal	-8.34044
▁toimub	-8.34232
▁nimeta	-8.3438
▁miljardit	-8.34388
▁raske	-8.34602
▁tead	-8.35047
▁ühes	-8.35205
▁hilj	-8.35496
▁Meie	-8.35603
▁kuul	-8.35678
aegu	-8.37357
il	-8.37945
kord	-8.37983
▁kahe	-8.3848
ele	-8.38503
▁mitme	-8.38775
▁liht	-8.38784
▁mängi	-8.3881
▁Mu	-8.39011
▁arvuti	-8.39037
▁erit	-8.39045
▁Kuida	-8.39064
äh	-8.39709
▁ühte	-8.39833
▁kutsu	-8.40035
▁oluli	-8.40133
▁H	-8.4018
▁maa	-8.40504
▁keda	-8.40672
▁suure	-8.40798
▁usu	-8.40821
▁hoid	-8.40837
▁pool	-8.40951
▁ees	-8.41008
▁käi	-8.41636
▁30	-8.42038
▁polnud	-8.42347
▁Ei	-8.42481
▁minna	-8.42604
▁õpeta	-8.42827
maks	-8.42844
seks	-8.43447
▁50	-8.43805
▁mõne	-8.43919
▁veidi	-8.4421
▁riigi	-8.44642
ndi	-8.4497
▁mõjuta	-8.45035
▁vee	-8.45116
▁küsimuse	-8.45739
▁raha	-8.45924
▁panna	-8.46058
▁valiku	-8.46095
▁mõelda	-8.46485
▁naer	-8.46498
▁maailm	-8.46892
▁toimi	-8.47069
dele	-8.47216
▁an	-8.47247
abil	-8.4729
▁tehtu	-8.47525
▁järgi	-8.47816
▁piisaval	-8.47871
▁Siis	-8.4803
▁ühel	-8.48125
▁kõike	-8.48389
▁projekti	-8.48915
▁mõju	-8.49103
▁vale	-8.49268
▁kolme	-8.49503
▁too	-8.49507
▁saavuta	-8.49552
▁Mitte	-8.49695
ksin	-8.49855
▁võtta	-8.50208
▁soovi	-8.50716
▁juures	-8.50906
▁uuri	-8.51505
▁võimalda	-8.51613
aasta	-8.52257
aja	-8.5262
▁tekita	-8.53088
▁masina	-8.53369
▁head	-8.53403
▁otsusta	-8.5347
mata	-8.53517
▁poolt	-8.54241
▁söö	-8.54376
▁pidi	-8.54603
▁energia	-8.54854
▁taga	-8.54935
▁aita	-8.5514
▁leia	-8.55458
▁tundu	-8.5556
▁vii	-8.55659
▁sinna	-8.55663
▁miljonit	-8.55822
▁ikka	-8.55905
▁Ait	-8.55927
▁vasta	-8.561
▁kooli	-8.56196
▁Mik	-8.56351
▁läks	-8.56494
▁sellel	-8.56667
▁väikese	-8.57071
▁teema	-8.57542
▁info	-8.57594
▁proovi	-8.57617
▁saan	-8.57776
ju	-8.57874
tada	-8.57884
▁sellist	-8.57895
▁naiste	-8.58061
▁maha	-8.58086
on	-8.58338
ik	-8.58382
▁15	-8.58496
▁esime	-8.59051
▁seotu	-8.59539
▁tegi	-8.59847
CA	-8.59881
▁lõpeta	-8.59957
eni	-8.60135
▁No	-8.60279
▁kindla	-8.60321
▁sõna	-8.60591
▁mõte	-8.61161
▁vaadata	-8.61206
▁ko	-8.61454
ve	-8.61456
▁vana	-8.61593
ehk	-8.61712
▁M	-8.61735
▁jälle	-8.61825
▁inimene	-8.61831
▁Tegelik	-8.61879
▁muidu	-8.61882
iga	-8.62466
▁mängu	-8.62478
▁mingit	-8.62511
▁ruumi	-8.62788
▁la	-8.62878
▁USA	-8.63096
▁muu	-8.63436
▁parema	-8.6361
▁asjade	-8.6373
▁väike	-8.6376
▁tööd	-8.63885
▁teate	-8.63894
▁protsent	-8.63999
▁Ühe	-8.63999
▁juhtus	-8.64
▁peaksi	-8.64187
▁nai	-8.64824
ar	-8.64838
▁otsi	-8.64975
▁alusta	-8.65043
jad	-8.6515
g	-8.65305
▁liig	-8.65334
▁meist	-8.65417
▁mõttes	-8.65441
▁õpi	-8.6557
▁uuest	-8.65697
▁saad	-8.65875
▁sure	-8.66005
▁mööda	-8.66341
vate	-8.66435
▁põhjus	-8.66539
▁kaota	-8.66572
▁muuda	-8.66793
▁usun	-8.67286
▁päeval	-8.67748
kui	-8.67821
▁kõigil	-8.68156
▁arvu	-8.68426
▁Näit	-8.68494
▁tänu	-8.68494
lised	-8.6863
▁mehe	-8.69235
▁nädala	-8.69562
▁tulemuse	-8.69981
▁kasvata	-8.70033
▁i	-8.70068
ha	-8.70141
▁huvitav	-8.70467
▁edu	-8.70571
▁äri	-8.70659
▁luba	-8.7082
▁mõlema	-8.70822
▁üldse	-8.70852
▁süü	-8.71006
▁koha	-8.71069
▁filmi	-8.71128
am	-8.71325
▁kellel	-8.72013
▁Ka	-8.725
▁Maa	-8.73118
▁vett	-8.733
▁kala	-8.73309
▁saaksi	-8.73332
▁arvates	-8.73665
▁ringi	-8.73791
▁aine	-8.74097
▁abi	-8.74187
tsi	-8.7471
▁linna	-8.74778
▁anna	-8.7484
▁vastas	-8.75143
▁lei	-8.7515
▁lapsi	-8.75332
▁töötab	-8.75484
▁Suur	-8.75519
▁kõigi	-8.75538
▁võimalus	-8.75569
▁Inimese	-8.75646
▁rahu	-8.75728
▁selge	-8.75782
hallutsinatsioon	-8.7581
▁teisi	-8.75818
▁Sama	-8.75889
pa	-8.75989
▁arene	-8.76106
▁teooria	-8.76161
poolest	-8.76253
▁kelle	-8.76357
▁taju	-8.7638
▁kunsti	-8.76516
▁Ole	-8.76682
▁üh	-8.76838
▁Olen	-8.77145
▁surma	-8.77168
▁tohutu	-8.77514
▁raamatu	-8.77653
vat	-8.77875
▁tulemus	-8.78012
▁püüa	-8.78041
▁tahavad	-8.78155
▁usku	-8.78326
▁40	-8.78416
lu	-8.78438
mini	-8.7844
▁ennast	-8.7845
▁Mina	-8.78748
▁liigu	-8.78869
▁I	-8.79132
▁ainu	-8.79335
▁miljardi	-8.79494
mis	-8.79723
▁armasta	-8.80141
▁kohe	-8.80271
▁isa	-8.80288
▁kõrge	-8.8042
▁ookeani	-8.80704
2	-8.80808
▁kontrolli	-8.80812
▁näide	-8.80944
seid	-8.80949
▁näidata	-8.80974
▁avasta	-8.81047
▁põhjusta	-8.81053
▁pa	-8.81109
▁siia	-8.81125
▁rääkis	-8.81588
c	-8.81834
▁anda	-8.81845
lise	-8.82014
▁valmis	-8.82022
▁toit	-8.82053
▁koostöö	-8.822
▁Va	-8.82266
atud	-8.82327
▁istu	-8.82401
▁taht	-8.82539
▁paar	-8.82555
▁vaba	-8.82947
w	-8.82971
▁inim	-8.8318
▁tõsi	-8.83252
▁inimestel	-8.83321
▁100	-8.83354
▁ilmsel	-8.83438
▁pere	-8.83487
▁lõhna	-8.83543
▁eks	-8.83548
▁kodu	-8.83781
▁pan	-8.83853
▁millega	-8.84035
▁ühenda	-8.84041
▁puuduta	-8.8405
▁ilu	-8.84165
ro	-8.84295
liste	-8.84312
▁esimest	-8.84416
S	-8.84616
▁kõiki	-8.84708
▁valmista	-8.84887
▁räägin	-8.84889
ü	-8.85031
unud	-8.85084
▁uus	-8.85139
▁üht	-8.8541
▁miski	-8.85474
▁tund	-8.85723
▁tõtt	-8.85798
kas	-8.85816
▁jälgi	-8.86038
▁ürita	-8.86038
▁Nende	-8.86038
▁mõni	-8.8606
ine	-8.86384
▁vanema	-8.8642
▁kord	-8.86543
▁dollarit	-8.86802
▁süsteemi	-8.86803
▁milles	-8.86836
hi	-8.87175
▁käes	-8.87194
▁riikides	-8.87627
▁sain	-8.87775
▁võt	-8.87828
▁Võib	-8.87983
▁mõel	-8.88089
▁nimel	-8.882
▁nelja	-8.88523
▁silma	-8.88526
▁korra	-8.8857
▁moel	-8.88816
▁kerge	-8.88877
▁haka	-8.89119
▁osta	-8.89177
▁pani	-8.89236
▁päev	-8.89292
ul	-8.89943
ng	-8.89996
▁parim	-8.89998
▁tõe	-8.90101
▁ala	-8.90429
▁viisi	-8.90441
0	-8.90706
▁mõtte	-8.90886
▁lisa	-8.90975
matu	-8.90989
▁pilt	-8.90995
▁suurema	-8.91201
ab	-8.91302
▁puudu	-8.91496
▁oska	-8.91674
▁Neil	-8.91679
▁uut	-8.91696
▁ava	-8.91733
▁said	-8.92099
▁ideed	-8.92332
järel	-8.92408
ksite	-8.92684
▁tüüpi	-8.92971
▁suhtes	-8.93058
▁maja	-8.93149
ala	-8.93164
▁G	-8.93471
▁minuti	-8.93785
suse	-8.94007
▁ravi	-8.94238
list	-8.94388
▁millise	-8.9455
▁kuhu	-8.94614
▁kulu	-8.94626
▁hakkab	-8.94664
▁toot	-8.94906
▁suut	-8.95085
▁taba	-8.95505
▁loodus	-8.95536
▁Iga	-8.95764
▁muutus	-8.95812
▁hakkama	-8.95868
▁mees	-8.96189
▁vastus	-8.96448
▁C	-8.96564
▁õigus	-8.96735
▁Ameerika	-8.9674
▁Sel	-8.96938
▁natuke	-8.96997
▁Pea	-8.97035
oo	-8.9727
9	-8.97392
▁hulk	-8.97644
▁ükskõik	-8.97651
▁neli	-8.97656
▁tahaksin	-8.9777
▁probleemi	-8.97829
▁esine	-8.97927
▁hoia	-8.98063
▁saaks	-8.98206
▁disaini	-8.98255
▁asu	-8.98463
▁tegin	-8.98582
▁lii	-8.98617
▁uusi	-8.98701
▁üksteise	-8.98755
▁mõtlema	-8.9879
loo	-8.98804
▁oleksid	-8.98831
▁koolis	-8.99005
▁arv	-8.99079
jate	-8.99104
▁seose	-8.99472
▁samal	-8.99533
▁järgmise	-9.00047
▁last	-9.00159
▁pildi	-9.00267
vast	-9.00447
▁Esi	-9.00448
▁tuhande	-9.00596
▁tahame	-9.00656
▁koht	-9.00764
▁HIV	-9.00769
▁Vaadake	-9.00769
▁alate	-9.00937
isut	-9.00991
▁õpetaja	-9.01048
▁suurem	-9.01068
▁täis	-9.01088
▁muusika	-9.01181
▁tervise	-9.01298
▁aida	-9.01491
▁silmas	-9.01504
3	-9.01536
▁parima	-9.01557
▁energiat	-9.01624
▁tänapäeva	-9.01707
▁järele	-9.01857
▁keskkonna	-9.0204
▁annab	-9.02081
▁pööra	-9.02356
▁kuu	-9.02527
▁tul	-9.02562
▁määra	-9.03145
os	-9.03255
▁kõne	-9.03818
▁New	-9.03992
▁keskendu	-9.03995
▁tihti	-9.04
▁nimi	-9.04002
▁m	-9.04002
▁kasu	-9.04033
▁paranda	-9.04047
▁looma	-9.04081
▁kuidagi	-9.04162
▁värvi	-9.04237
▁suurepära	-9.04297
ru	-9.04355
▁levi	-9.04505
▁lase	-9.0461
▁samas	-9.04653
▁kuju	-9.04792
▁lihtsa	-9.04904
▁Mõned	-9.04931
▁igane	-9.05087
▁re	-9.0512
▁vähemal	-9.05132
aastase	-9.05224
▁otse	-9.05283
▁sõja	-9.05373
▁käe	-9.05456
▁sünni	-9.05463
likku	-9.05938
▁liiku	-9.0619
▁täieliku	-9.06229
▁luge	-9.06283
kse	-9.06298
▁paku	-9.06407
▁keel	-9.06521
pu	-9.06545
▁lahenda	-9.06669
▁fakt	-9.07252
▁arenda	-9.07329
▁Seal	-9.07331
▁kõla	-9.0739
▁jätka	-9.07394
▁juhu	-9.07514
▁loe	-9.07588
▁Teine	-9.07842
▁lood	-9.08185
▁D	-9.0838
▁Tema	-9.0854
▁heli	-9.08665
▁püüd	-9.09088
▁sajandi	-9.09092
▁kinni	-9.09332
▁järgmi	-9.09342
uti	-9.09627
▁toeta	-9.09711
▁tekki	-9.0978
▁Oli	-9.10501
▁kujuta	-9.10576
▁surnu	-9.10647
▁ime	-9.10736
▁tähelepanu	-9.10772
▁Vaata	-9.10801
▁seleta	-9.1084
▁läksi	-9.10913
▁kuule	-9.11267
udu	-9.11333
võrd	-9.11472
▁teeni	-9.11538
▁müü	-9.11547
▁80	-9.11767
▁otsa	-9.11834
▁tugeva	-9.1185
▁kuus	-9.12319
▁tähti	-9.12341
▁uuringu	-9.1241
▁millel	-9.12566
▁Lo	-9.1266
▁käib	-9.1277
ena	-9.13119
▁juhi	-9.13452
▁alg	-9.13495
▁põ	-9.13921
ise	-9.13939
▁kuula	-9.1412
▁päevas	-9.14313
▁Teise	-9.14356
5	-9.14494
▁sarnase	-9.14553
▁2	-9.14706
▁tulevad	-9.14751
▁peal	-9.14764
ko	-9.14785
▁loomuliku	-9.15214
▁foto	-9.15237
▁tõelisel	-9.15238
▁elektri	-9.15361
tav	-9.15405
▁Min	-9.15556
▁Su	-9.15558
▁võtt	-9.16153
▁kohale	-9.16386
▁halva	-9.16402
▁projekt	-9.16558
▁milli	-9.16626
ap	-9.16702
z	-9.1681
▁teh	-9.16962
▁protsessi	-9.17025
▁ai	-9.17097
▁kahju	-9.17121
▁miljoni	-9.17196
▁galaktika	-9.17319
▁bioloogia	-9.17338
▁tulevik	-9.17544
ur	-9.17638
äär	-9.17692
▁lange	-9.17927
▁huvi	-9.17928
▁U	-9.17958
▁25	-9.18049
▁mäleta	-9.18052
▁statistika	-9.18052
▁tumeaine	-9.18052
▁ellu	-9.18055
▁Rio	-9.18058
▁video	-9.18177
▁minema	-9.1828
▁Lõuna	-9.18432
▁vi	-9.1854
▁arusaama	-9.18817
▁gravitatsiooni	-9.18838
▁suurt	-9.1889
ho	-9.18905
▁looda	-9.18913
▁enamik	-9.1906
▁endi	-9.19077
▁võin	-9.19239
▁Selli	-9.1927
▁Et	-9.19464
▁suurene	-9.1949
▁au	-9.19769
▁järel	-9.19858
▁V	-9.19883
▁noor	-9.201
▁puu	-9.20221
▁3	-9.20418
91	-9.20477
▁poleks	-9.20587
ub	-9.20665
▁kodus	-9.20755
▁viima	-9.2092
00	-9.20977
▁pe	-9.21115
▁kand	-9.21139
▁tõenäolise	-9.21675
▁ideede	-9.21838
▁Muusika	-9.21898
▁poliitika	-9.21898
▁mitu	-9.21924
▁ülejäänu	-9.21925
▁rakenda	-9.22013
▁tõsise	-9.22017
▁võimalust	-9.22018
misel	-9.22052
▁vahe	-9.22152
▁hävita	-9.22206
▁õhtu	-9.22207
▁osas	-9.2228
▁eduka	-9.22385
▁sealt	-9.22397
ite	-9.22433
▁esita	-9.22451
▁looduse	-9.22474
▁andme	-9.22484
▁vähene	-9.22591
▁planeedil	-9.22708
▁märka	-9.22807
▁tahtsi	-9.22935
C	-9.22955
▁universumis	-9.23172
▁juhti	-9.23217
▁TED	-9.23429
▁vahet	-9.23444
▁teadlase	-9.23528
▁imeli	-9.23659
▁4	-9.23738
▁loomade	-9.2402
▁sotsiaalse	-9.24226
▁firma	-9.24242
▁kohal	-9.24422
▁suurte	-9.24451
▁tegutse	-9.24478
▁teen	-9.24627
▁vastuse	-9.24629
▁kirjelda	-9.24686
▁katse	-9.24949
tis	-9.25119
▁pead	-9.25481
▁arengu	-9.25482
▁valik	-9.25497
▁huvita	-9.25519
▁mõõt	-9.25562
▁paista	-9.25901
▁ülesande	-9.25953
▁seksi	-9.2608
▁kogukonna	-9.26097
▁rõõmu	-9.2616
▁dollari	-9.26234
▁esile	-9.26239
▁hinna	-9.26307
▁Pol	-9.26361
▁Mi	-9.26388
▁vahend	-9.26508
▁miljard	-9.2651
geli	-9.26518
ll	-9.26664
tava	-9.26711
▁hakkasin	-9.26811
▁kohtu	-9.26814
▁mõtlesin	-9.26861
▁lähemal	-9.26924
öö	-9.27281
▁jät	-9.27304
▁internet	-9.27329
gem	-9.27916
▁hakkas	-9.28542
▁millele	-9.28582
▁sekundi	-9.286
lis	-9.289
ndates	-9.29175
ori	-9.29558
▁Esime	-9.29647
▁kõrval	-9.29886
▁tipp	-9.30036
93;	-9.30065
▁väljakutse	-9.30065
▁omavahel	-9.30066
▁perekonna	-9.30075
▁õnnestu	-9.30087
▁Kuna	-9.30166
▁meedia	-9.30169
▁tuleviku	-9.30169
miili	-9.30252
▁Kee	-9.30284
▁ruumis	-9.30297
▁informatsiooni	-9.30338
▁jõu	-9.30365
▁pi	-9.30404
▁seis	-9.30505
▁öeld	-9.30518
▁enama	-9.30525
▁lähedal	-9.30583
tulla	-9.30662
▁põhimõttel	-9.3067
▁vähe	-9.30951
osa	-9.31293
▁moraalse	-9.31345
▁paari	-9.31651
usi	-9.31687
▁tegu	-9.31792
aal	-9.31845
▁kunst	-9.31894
▁viib	-9.31899
▁tarbi	-9.32134
▁uudis	-9.32755
▁suunas	-9.32784
▁astu	-9.33058
▁suhte	-9.33239
tamise	-9.3339
▁keskmise	-9.33411
▁millegi	-9.33457
▁pakku	-9.33662
▁oota	-9.33814
▁halb	-9.33815
umi	-9.33898
▁tegid	-9.34128
▁võimaluse	-9.34162
▁joo	-9.34165
▁Po	-9.34174
▁Video	-9.34411
▁Näe	-9.34413
▁reisi	-9.34428
▁öel	-9.34449
▁vähenda	-9.34484
▁toimu	-9.34485
▁Tõ	-9.34504
▁ra	-9.3455
▁alga	-9.34614
▁suurenda	-9.34624
▁arvesta	-9.34744
▁tundi	-9.34869
ot	-9.34926
▁laps	-9.3507
▁ütlesid	-9.35199
õttu	-9.35254
▁kasvu	-9.35256
▁tegevus	-9.35423
▁ajast	-9.35471
▁kogemus	-9.35617
▁muud	-9.35705
▁süsteem	-9.35711
▁loodu	-9.35892
▁Ju	-9.36042
täh	-9.36079
▁ajaloo	-9.36096
tavad	-9.36292
▁saime	-9.36304
▁ligi	-9.36373
akse	-9.36401
▁võimalusi	-9.36461
▁teab	-9.36477
4	-9.36748
j	-9.36782
ame	-9.37411
▁kindlast	-9.37624
▁haridus	-9.37698
▁hulga	-9.37851
▁alguses	-9.37908
▁haigus	-9.38183
▁60	-9.38274
pe	-9.38331
▁200	-9.38369
mm	-9.38403
▁kuue	-9.38491
lo	-9.38665
▁Las	-9.38826
▁puhta	-9.38958
▁Aasta	-9.38961
▁mõninga	-9.38965
▁nõus	-9.38977
▁Lisa	-9.38983
▁ülikooli	-9.38983
▁Taha	-9.39163
▁võimu	-9.3918
▁kind	-9.3925
▁kümne	-9.39303
▁liha	-9.39321
▁Tule	-9.3934
▁matemaatika	-9.39373
▁rahvastiku	-9.39386
▁Tei	-9.39436
▁kaua	-9.39453
▁valu	-9.39606
▁lahendus	-9.39884
aks	-9.39938
▁oskus	-9.39956
▁hulgas	-9.40037
▁laus	-9.40062
▁6	-9.40084
▁õppima	-9.40107
▁otsustasi	-9.40135
▁suurima	-9.40214
1	-9.40225
▁tegime	-9.40241
töö	-9.40349
tame	-9.40394
▁eri	-9.40552
poole	-9.40552
▁huvitava	-9.40587
▁väiksema	-9.40645
iks	-9.40728
▁La	-9.4078
▁miljon	-9.40893
▁kuluta	-9.40905
f	-9.40952
ev	-9.41274
▁taas	-9.41306
8	-9.41379
▁meeste	-9.4143
▁tööle	-9.41439
▁kesk	-9.41502
R	-9.41543
▁pääse	-9.41713
oni	-9.41888
▁materjali	-9.41929
▁lõi	-9.4196
▁väikse	-9.4198
▁sajandil	-9.42025
▁hetk	-9.42094
▁toode	-9.42133
▁tu	-9.42269
nes	-9.42385
▁F	-9.42647
igem	-9.42788
▁sammu	-9.42842
▁universumi	-9.42862
▁värv	-9.4288
▁sõbra	-9.43029
ce	-9.43197
▁Selles	-9.43252
▁selgita	-9.43258
▁karda	-9.43397
▁teed	-9.43423
▁võrra	-9.43696
▁Charles	-9.4372
▁Väga	-9.4372
▁läi	-9.4372
▁sisalda	-9.4372
▁vihma	-9.4372
▁lahti	-9.43721
▁Veel	-9.43721
▁kallal	-9.43728
▁24	-9.43732
▁inimkonna	-9.43732
▁12	-9.43735
▁Hea	-9.4375
▁18	-9.43781
▁jätkuval	-9.43837
▁igaü	-9.43843
▁kõikjal	-9.43851
▁põllumajandus	-9.43984
▁sõltub	-9.44112
▁poeg	-9.44129
▁sissetuleku	-9.44177
▁internetis	-9.44187
▁sisu	-9.44223
▁valikute	-9.44276
kku	-9.44387
▁põhi	-9.44614
lase	-9.44619
▁tol	-9.44705
ndus	-9.44732
im	-9.44877
▁ajus	-9.44973
▁Sellel	-9.45087
ndatel	-9.451
po	-9.45101
▁seisa	-9.45121
▁keerulise	-9.45424
▁tahe	-9.45651
▁kuulu	-9.45962
▁liigi	-9.45993
▁maini	-9.46056
▁erinevus	-9.46207
▁näitan	-9.46275
▁Sam	-9.46336
▁5	-9.46362
7	-9.46427
kus	-9.46465
▁riik	-9.46575
▁luu	-9.46579
▁sündi	-9.46606
▁olulise	-9.46659
ahes	-9.46704
uta	-9.46909
▁loomi	-9.46912
▁kuud	-9.47306
▁kellele	-9.47368
▁vaheta	-9.47462
▁sii	-9.47609
▁uskumatu	-9.4762
like	-9.47916
▁valeta	-9.47971
▁soo	-9.48121
▁teadus	-9.48316
▁sin	-9.48433
fi	-9.48493
▁liiguta	-9.48546
▁1	-9.48599
▁India	-9.48622
lus	-9.48657
▁hiljuti	-9.48706
▁pöördu	-9.4871
▁jäi	-9.4872
▁tõmba	-9.4872
▁Muidu	-9.48725
▁Rootsi	-9.48725
nägema	-9.48728
▁11	-9.4873
▁tõi	-9.48732
▁kaheksa	-9.48741
▁Olgu	-9.48754
▁võrdse	-9.48769
▁seitse	-9.48896
▁ülesanne	-9.48899
▁ääre	-9.48939
▁suri	-9.48994
▁võimsa	-9.4904
▁moodusta	-9.49084
▁tunni	-9.49117
▁evolutsiooni	-9.49203
▁tulevikus	-9.49297
▁And	-9.49358
▁Ise	-9.49406
▁mõõtme	-9.49437
▁kellegi	-9.49508
▁üleval	-9.49514
▁suured	-9.4961
▁kust	-9.49665
▁viie	-9.49708
▁eelmise	-9.49716
▁16	-9.49717
▁kivi	-9.49763
▁kujutada	-9.49896
▁kaitse	-9.49934
▁täiskasvanu	-9.49981
▁majandus	-9.50301
▁mäng	-9.50367
▁ide	-9.50437
▁Tal	-9.50565
mu	-9.50589
▁protsess	-9.50757
▁hämmastava	-9.50853
▁USAs	-9.5086
▁saama	-9.51014
▁nõu	-9.51032
▁turu	-9.51427
▁väärtus	-9.51473
E	-9.51787
pidi	-9.5185
▁seas	-9.52181
▁sü	-9.52217
used	-9.52375
▁Paljud	-9.52387
▁möödu	-9.52451
▁arusaam	-9.52476
▁teisel	-9.52563
▁olulisem	-9.52634
hk	-9.52707
▁tahab	-9.52737
rge	-9.52766
lugu	-9.52852
▁tõus	-9.52915
ude	-9.52942
▁käitu	-9.5297
▁tegemise	-9.53014
ool	-9.53029
▁tähtsa	-9.53121
▁põhjuse	-9.53173
▁põhjust	-9.53312
rite	-9.5333
▁metsa	-9.5334
lla	-9.53547
▁õhu	-9.53592
▁uudise	-9.53624
▁stiimul	-9.53944
▁Einstein	-9.53983
▁Google	-9.53983
▁Panbanisha	-9.53983
▁väida	-9.53983
▁Mõelge	-9.53984
▁tarkvara	-9.53984
▁Enamik	-9.53999
▁käigus	-9.54001
▁analüüsi	-9.54001
▁viha	-9.54009
▁kuku	-9.54049
▁kaugemal	-9.54088
▁fakti	-9.54112
▁sort	-9.54115
▁hääl	-9.54171
▁palu	-9.54231
ata	-9.54303
laste	-9.54398
▁vaadat	-9.54419
▁tõesta	-9.5442
deks	-9.54594
▁majanduse	-9.54609
▁tõend	-9.54661
▁laua	-9.54665
▁ettevõtte	-9.54671
lisel	-9.54671
▁seisne	-9.54741
▁kätte	-9.54864
▁koge	-9.54915
▁tasu	-9.54961
▁küla	-9.55001
▁maksa	-9.55002
▁kõigis	-9.55143
▁viita	-9.55323
▁lisaks	-9.55341
enda	-9.5543
▁aastas	-9.55548
▁tõsta	-9.55595
▁kõrvale	-9.55707
ade	-9.55839
P	-9.55853
▁otsuse	-9.56074
▁suuna	-9.56292
uste	-9.56476
▁jäta	-9.56519
▁ve	-9.56574
ili	-9.56623
▁olulisema	-9.56798
A	-9.56865
▁selliste	-9.56867
▁interneti	-9.57037
▁kasv	-9.57045
▁meelest	-9.57047
▁las	-9.57228
sõna	-9.57374
aalse	-9.57486
▁Praegu	-9.57521
▁käsi	-9.57623
ol	-9.57786
▁pu	-9.58008
süsteemi	-9.58074
▁andmete	-9.58098
▁heaks	-9.58328
▁maitse	-9.58344
▁tähtsam	-9.58362
▁investeeri	-9.58601
▁rahva	-9.58606
▁tavali	-9.58651
▁leiuta	-9.58653
▁toote	-9.58682
▁olukord	-9.58746
lisi	-9.58802
▁otsese	-9.58867
viisil	-9.58896
▁ilmu	-9.59169
stada	-9.59202
▁sugu	-9.5923
▁keele	-9.59357
▁o	-9.5942
▁revolutsiooni	-9.59439
▁eesmärk	-9.59452
▁Üle	-9.595
▁tõenäosus	-9.59539
▁vaeva	-9.5954
▁äärmisel	-9.5954
▁ometi	-9.5954
▁toime	-9.59541
▁eesmärgi	-9.59542
▁kahte	-9.59553
▁35	-9.59555
▁Euroopa	-9.59567
▁tuua	-9.59568
▁eba	-9.5962
▁joon	-9.59716
▁virtuaalse	-9.59747
▁pideval	-9.59783
▁reaalse	-9.59827
sadu	-9.59831
▁raku	-9.5984
▁täit	-9.59841
▁haara	-9.59864
▁meenuta	-9.59894
▁sõda	-9.60008
▁sõnum	-9.60067
▁vahukommi	-9.60106
▁tööstus	-9.60248
▁pilti	-9.60309
▁jah	-9.60338
kust	-9.60501
kirja	-9.60557
▁teadliku	-9.60605
▁kadu	-9.60665
▁kasti	-9.60769
▁kii	-9.60788
▁ilus	-9.60917
▁to	-9.60978
▁massi	-9.61012
op	-9.61159
▁sobi	-9.61188
▁pikk	-9.61207
▁pärisel	-9.61282
kond	-9.61347
malt	-9.61718
▁probleemide	-9.6175
▁kirja	-9.61792
▁tunneta	-9.61849
nik	-9.62272
▁praktilise	-9.62413
▁7	-9.62456
▁näida	-9.62541
▁Aafrika	-9.62554
▁keelt	-9.626
▁Sellise	-9.62728
▁sõnu	-9.62842
▁molekuli	-9.6313
▁jääb	-9.63263
▁kultuur	-9.63286
pealt	-9.63533
▁riigis	-9.63728
konna	-9.63802
ö	-9.63849
▁Ho	-9.63872
▁võrreld	-9.63961
▁hind	-9.63976
▁esinda	-9.63994
▁19	-9.6428
luse	-9.64473
▁vajame	-9.6457
▁saja	-9.64768
iiv	-9.64785
▁hakata	-9.64816
▁Kus	-9.64878
▁kel	-9.6488
▁suurepärase	-9.65023
vaid	-9.6525
▁fenomen	-9.65421
▁sarnane	-9.65421
▁keeruka	-9.65421
▁minge	-9.65437
▁osale	-9.65445
▁kujutle	-9.65454
▁suru	-9.65472
▁valge	-9.65472
▁Kujutle	-9.65485
▁mure	-9.65787
▁pika	-9.6579
▁mõistma	-9.65898
▁eelda	-9.659
▁ülemaailmse	-9.65907
▁viia	-9.65945
▁ammu	-9.65951
▁füüsika	-9.65961
▁aastate	-9.66033
lane	-9.66132
▁võitle	-9.66216
▁meele	-9.66233
▁peamisel	-9.66266
▁seadme	-9.6642
▁sõit	-9.66435
▁Ro	-9.66461
▁tegemi	-9.66498
▁kur	-9.66531
▁nägu	-9.66603
▁kasutama	-9.66609
▁vo	-9.66613
ndu	-9.66852
▁hinda	-9.66929
▁lahku	-9.67006
▁sina	-9.67052
▁tekkis	-9.6725
▁öö	-9.67264
▁kirjutas	-9.67267
▁võtsi	-9.67399
▁leidu	-9.6745
▁avatu	-9.67611
▁Bon	-9.67729
▁püsi	-9.67847
▁he	-9.67877
▁ühiskonna	-9.6788
▁sõi	-9.67909
▁suhtu	-9.67949
▁milleks	-9.68123
▁keeruli	-9.68285
una	-9.68524
ses	-9.68536
▁bonobo	-9.68799
▁seaduse	-9.68805
▁looduses	-9.68851
▁videomängud	-9.68909
▁Kesk	-9.68991
▁J	-9.69346
6	-9.69428
▁eel	-9.69474
▁ha	-9.69526
▁f	-9.69746
▁raja	-9.6976
pp	-9.69784
▁õ	-9.69803
▁mõist	-9.69922
▁Aafrikas	-9.70079
▁Hiina	-9.70158
▁meeld	-9.70232
▁haiguse	-9.70318
▁meeles	-9.70413
▁Teat	-9.70525
▁planeedi	-9.70574
▁arvuta	-9.70785
▁küsis	-9.70835
▁sõprade	-9.71018
▁seadus	-9.71372
punkt	-9.71438
▁seitsme	-9.71612
▁tavalise	-9.71617
▁raadio	-9.71671
▁kätke	-9.71671
▁Kanzi	-9.71671
▁eksperiment	-9.71671
▁Chris	-9.71671
▁nano	-9.71673
▁joonista	-9.71678
▁laienda	-9.71678
▁Palu	-9.71681
▁vanaema	-9.71686
▁positiivse	-9.71687
▁uju	-9.71689
▁väljaspool	-9.71691
▁roni	-9.71698
▁tore	-9.71704
▁osakese	-9.71707
▁üheksa	-9.71735
▁pärit	-9.71738
▁lülita	-9.71803
▁mere	-9.71835
▁pih	-9.71845
▁aplaus	-9.71848
pool	-9.71867
▁punkti	-9.71932
▁kleepi	-9.71945
▁kuskil	-9.71988
▁tehakse	-9.72021
▁õnne	-9.72142
▁digitaalse	-9.72198
▁korralda	-9.72271
▁leidma	-9.72317
▁tundsin	-9.72364
▁võimatu	-9.72475
▁rolli	-9.7252
▁soov	-9.72629
▁ühise	-9.72637
▁lehe	-9.7269
▁liik	-9.72761
▁Kes	-9.72985
▁määr	-9.73071
▁Peale	-9.73124
▁konkreetse	-9.73167
▁viga	-9.73288
▁metsas	-9.73336
▁kellega	-9.73395
▁Enn	-9.73428
▁tapp	-9.73564
▁aseta	-9.73599
sama	-9.73664
za	-9.73829
▁Oma	-9.74145
▁millist	-9.74458
▁seade	-9.74653
▁erinevat	-9.74699
▁ilusa	-9.74832
▁toob	-9.75124
▁masin	-9.75195
▁enamus	-9.75257
▁erinev	-9.75381
▁vajadus	-9.75449
D	-9.76113
▁toetu	-9.76118
juures	-9.76152
▁unusta	-9.76221
andis	-9.76241
▁ruum	-9.76355
▁mõiste	-9.76402
jagu	-9.76587
▁orgaanili	-9.76612
▁soovita	-9.76838
▁võimaliku	-9.76929
▁vaatama	-9.77138
▁noore	-9.77269
▁avaliku	-9.77269
▁eksisteeri	-9.77287
▁valitse	-9.7731
▁tüdruku	-9.77367
▁imelise	-9.77383
▁tunnista	-9.77488
▁ennusta	-9.77543
▁rääkima	-9.77554
▁silmade	-9.77589
▁70	-9.779
▁paljude	-9.77979
▁rahvaarv	-9.78052
▁tera	-9.78219
▁tase	-9.78266
▁uute	-9.78295
▁ost	-9.78309
▁enese	-9.78316
oomuliku	-9.7833
▁prügi	-9.7833
▁Wo	-9.78337
▁Biosfäär	-9.78338
▁kahekordistu	-9.78338
▁tagajärje	-9.78338
▁Kõige	-9.78338
▁pilgu	-9.78339
▁Alusta	-9.7834
▁kolmanda	-9.7834
erson	-9.7834
▁julge	-9.78341
▁demokraatia	-9.78342
▁õhku	-9.78343
▁muretse	-9.78348
▁Mille	-9.78351
▁avastus	-9.78371
▁andnud	-9.78375
▁sipelga	-9.78381
▁toimus	-9.78424
sel	-9.78438
▁kaardista	-9.78495
▁paberi	-9.78553
▁karjääri	-9.78578
lin	-9.78653
ikud	-9.78679
▁kaastunde	-9.78815
▁majanduslik	-9.78849
▁pesu	-9.78886
▁päästa	-9.78887
▁suudaks	-9.78985
no	-9.79335
useks	-9.79365
▁lootuse	-9.79502
▁igas	-9.79529
▁8	-9.79576
▁Euroopas	-9.79634
▁Co	-9.79697
▁sügaval	-9.79826
▁Pan	-9.79843
▁andsi	-9.79876
▁Tu	-9.79947
▁tekitas	-9.8011
▁Var	-9.80123
▁laial	-9.80221
▁teel	-9.80293
▁igasuguse	-9.804
▁mill	-9.80464
▁kellest	-9.80553
▁programmi	-9.80589
▁Just	-9.80763
▁mudeli	-9.81016
▁testi	-9.81116
▁tooda	-9.81248
▁150	-9.814
▁asuva	-9.81479
▁kon	-9.81631
ood	-9.81775
▁nägemis	-9.8179
▁teistel	-9.81798
▁uudiste	-9.81824
▁omadus	-9.81833
▁alt	-9.8196
▁De	-9.82056
▁tunde	-9.82151
▁kuulda	-9.82188
▁täht	-9.82337
▁hämmastav	-9.82478
▁jätkusuutlik	-9.82538
▁loomise	-9.82566
▁olevat	-9.82606
▁paljudes	-9.82734
▁Võt	-9.82737
▁väit	-9.82894
▁nälja	-9.82904
▁kombe	-9.82988
ris	-9.8302
▁õnnelik	-9.83261
probleem	-9.83329
võime	-9.83355
▁suhtle	-9.83486
▁tervishoiu	-9.8365
▁eralda	-9.83934
mbe	-9.84202
▁vägivald	-9.84375
▁grupp	-9.84378
▁teadvus	-9.84763
▁sissetulek	-9.84791
▁puutu	-9.8489
▁struktuuri	-9.84948
▁pinna	-9.84983
▁süsinik	-9.85001
od	-9.85078
kki	-9.85079
▁taim	-9.8508
liseeri	-9.85111
plaan	-9.85322
▁jätku	-9.85449
▁tänava	-9.85461
▁madala	-9.85463
▁lahuta	-9.85481
▁täienda	-9.85481
▁kavanda	-9.85481
▁nähtamatu	-9.85481
▁tõde	-9.85481
▁mateeria	-9.85481
▁seisukoha	-9.85484
▁kerki	-9.85484
▁viska	-9.85487
▁1960	-9.85489
▁mõnda	-9.85492
▁17	-9.85493
▁tekivad	-9.85503
▁kogukond	-9.8552
▁Ainu	-9.85536
▁vesi	-9.85539
▁moodustu	-9.85567
▁aimu	-9.85609
▁erinevate	-9.85618
▁loova	-9.85664
▁helista	-9.85671
▁muru	-9.85674
▁märga	-9.85676
▁samm	-9.85692
▁Loodus	-9.85712
▁nälg	-9.85732
▁professor	-9.85738
▁90	-9.85753
▁suuri	-9.8577
tuks	-9.85826
▁püü	-9.8585
▁koostis	-9.85884
▁iseenda	-9.85893
▁r	-9.85917
eeritu	-9.85934
sele	-9.85967
▁seos	-9.85981
▁Kuul	-9.86081
▁oodata	-9.86082
▁ellujäämise	-9.86114
▁ühtlas	-9.86139
▁konteksti	-9.86189
▁Darwini	-9.8622
õhk	-9.86227
▁anti	-9.86241
▁teeks	-9.86263
▁tonni	-9.86304
▁rõhuta	-9.86351
▁kõ	-9.86453
▁külge	-9.86515
▁Mo	-9.8656
▁Kasuta	-9.86596
▁säilita	-9.86833
▁õpilase	-9.86849
oore	-9.86946
▁teadmis	-9.87139
▁linnas	-9.87156
▁molekul	-9.87295
itsioon	-9.87296
▁lõppe	-9.87325
▁Teis	-9.87344
▁tohutul	-9.87355
▁tähendus	-9.87399
▁arsti	-9.87521
▁võtma	-9.87543
▁võetu	-9.87545
▁300	-9.87653
▁linnu	-9.87724
▁kasulik	-9.87777
▁alguse	-9.8806
▁näo	-9.88101
▁rea	-9.88316
▁Ida	-9.88559
▁järgmisel	-9.88625
▁loome	-9.8876
pea	-9.89017
▁tun	-9.8902
▁ajaloos	-9.89056
▁eksponentsiaal	-9.89149
atsiooni	-9.89198
▁Ameerikas	-9.89282
▁piiri	-9.89473
▁Li	-9.89509
▁nais	-9.89525
▁riski	-9.89569
pära	-9.89675
▁silmi	-9.89725
võ	-9.89743
▁mõistus	-9.89779
▁Pr	-9.89827
ras	-9.89828
▁saata	-9.89835
▁tehisintellekti	-9.90014
▁lai	-9.90121
ure	-9.90134
▁vaat	-9.90136
av	-9.90206
ca	-9.90224
siooni	-9.90236
▁enamuse	-9.90317
▁naeru	-9.90703
▁näitas	-9.90708
▁Kal	-9.9073
▁hääle	-9.90746
tehnoloogia	-9.90793
▁moraal	-9.90811
▁aset	-9.90867
▁kõvast	-9.90881
H	-9.90953
,	-9.90989
▁hariduse	-9.91025
▁Car	-9.91044
metsa	-9.91046
▁fotod	-9.91245
▁evolutsioon	-9.91283
▁esi	-9.91416
▁Suure	-9.91587
▁suhe	-9.91671
▁õhus	-9.91748
▁linn	-9.91767
▁kohtades	-9.918
▁lõbus	-9.91806
▁kana	-9.91838
▁tööriist	-9.91931
mal	-9.91938
▁kanna	-9.91954
▁avastasi	-9.92066
▁tasemel	-9.92094
▁koosne	-9.92166
▁suurim	-9.92231
▁sise	-9.92257
▁järjest	-9.923
alt	-9.92703
▁paik	-9.92873
▁kohvi	-9.92897
▁mängude	-9.92949
▁sündis	-9.92976
▁sõb	-9.93133
▁tohi	-9.93161
▁lääne	-9.93168
▁Aurora	-9.93173
▁Põhja	-9.93173
▁manipuleeri	-9.93173
▁vägivalla	-9.93173
▁sääst	-9.93173
▁kehti	-9.93173
▁detail	-9.93174
▁härra	-9.93176
▁tagajärg	-9.93179
▁eseme	-9.93184
▁Koh	-9.93185
▁poja	-9.9319
▁21	-9.93192
▁takista	-9.93193
▁45	-9.93196
▁kaitst	-9.93198
▁abielu	-9.932
▁ärge	-9.93201
▁kaupa	-9.93206
▁Kor	-9.93209
▁roosa	-9.93212
▁tekib	-9.93215
▁mujal	-9.93228
▁püsti	-9.93249
▁ehitus	-9.93264
▁suremus	-9.93265
▁korja	-9.93276
▁käivita	-9.93276
▁lahe	-9.93294
▁Lõpu	-9.93309
▁meest	-9.93311
sad	-9.93332
▁kena	-9.93337
▁järs	-9.93355
▁Ol	-9.93394
▁seni	-9.93399
▁Kah	-9.93443
▁varusta	-9.93487
▁hoone	-9.93509
▁asenda	-9.9354
▁visuaalse	-9.93549
CO	-9.93627
▁si	-9.93672
▁klassi	-9.93682
siis	-9.93718
▁reegli	-9.93749
▁märgi	-9.93753
▁arvutus	-9.93832
▁arvamus	-9.9389
▁Hal	-9.93903
puu	-9.93934
▁eemale	-9.93941
▁era	-9.94052
▁keskkonda	-9.94058
▁kohas	-9.94059
▁Järgmise	-9.94073
▁Vi	-9.94143
▁välti	-9.94155
▁täp	-9.94218
▁asteroidi	-9.94242
▁olukorda	-9.94294
▁erinevates	-9.94331
▁de	-9.94405
▁jätt	-9.94424
▁kujunda	-9.94469
▁vastuta	-9.94527
▁suletu	-9.94541
▁grupi	-9.94572
▁tuleta	-9.94736
▁revolutsioon	-9.94963
▁Teil	-9.94988
▁puude	-9.95031
▁slummi	-9.95039
▁arves	-9.9517
▁suhete	-9.95282
▁võid	-9.95438
eli	-9.95459
▁tuntu	-9.95558
▁kutsun	-9.9564
▁isiklik	-9.9564
▁pist	-9.95694
▁ületa	-9.95798
▁tapa	-9.95824
▁loonud	-9.95883
▁pisikese	-9.95911
süsteem	-9.96021
▁liikuma	-9.9605
ppi	-9.96107
▁jäävad	-9.96205
▁juhusliku	-9.96251
▁maali	-9.96253
kogu	-9.96315
▁armastus	-9.96443
tades	-9.96579
päeva	-9.9659
▁käima	-9.96761
▁kolleegi	-9.96811
▁sööma	-9.96875
▁esma	-9.96942
▁kõrgema	-9.97053
▁kasvandus	-9.97129
▁jõe	-9.97331
▁kau	-9.97345
eksponentsiaalse	-9.97365
▁tugev	-9.97421
▁hinga	-9.97478
▁alus	-9.97486
ry	-9.97779
▁taimed	-9.97907
juh	-9.9793
▁paljudel	-9.98035
▁jala	-9.98244
▁mõtlemise	-9.98252
▁keskmi	-9.98416
▁hooli	-9.98493
emad	-9.98532
▁2008	-9.98605
▁kaugusel	-9.98739
ker	-9.98777
▁otsas	-9.98938
▁hirm	-9.99162
▁küsimuste	-9.99193
▁langes	-9.99221
▁sattu	-9.99267
▁tüdruk	-9.99274
kohal	-9.993
läbi	-9.99334
▁kättesaadav	-9.99343
aat	-9.99389
▁poolel	-9.99396
▁jumal	-9.99487
▁ettevõte	-9.99509
▁galaktikate	-9.99555
▁vaatan	-9.99633
▁taime	-9.99656
▁alustasi	-9.99673
▁müüa	-9.99686
▁endas	-9.99698
mehe	-9.99701
▁pand	-9.99709
▁üli	-9.99799
▁ajastu	-9.99966
valt	-10.0011
▁laul	-10.0011
▁Tead	-10.002
▁Igal	-10.0025
▁To	-10.0031
etava	-10.0047
▁külg	-10.006
▁kogemuse	-10.0066
aeg	-10.0067
▁taimede	-10.0068
▁hari	-10.0069
▁arutelu	-10.007
▁van	-10.0071
▁ühele	-10.0072
▁Emma	-10.0079
▁hä	-10.0087
▁oll	-10.0088
▁Mars	-10.009
▁Ku	-10.0102
▁samad	-10.0105
▁hullu	-10.0107
▁piir	-10.0118
▁poliitilis	-10.0128
▁kir	-10.0137
▁käte	-10.0144
▁keskkond	-10.0146
▁arvata	-10.0147
▁Arva	-10.0151
▁nafta	-10.0151
▁Neumann	-10.0151
▁kummali	-10.0151
▁kõrbe	-10.0151
▁lõhe	-10.0151
▁põranda	-10.0151
▁tühja	-10.0151
▁nutika	-10.0151
▁kujutlusvõime	-10.0151
▁osuta	-10.0151
▁iial	-10.0151
▁päikeseenergia	-10.0151
▁DNA	-10.0151
▁pudeli	-10.0151
▁Mõtle	-10.0151
▁eeskuju	-10.0151
▁Di	-10.0152
▁hoolitse	-10.0152
▁mõõda	-10.0152
▁Terve	-10.0152
▁14	-10.0152
▁tutvusta	-10.0152
▁küsisi	-10.0153
▁Alat	-10.0154
▁tudengite	-10.0155
▁vanuse	-10.0155
▁kaalu	-10.0156
▁ühine	-10.0159
▁kogus	-10.016
▁suuruse	-10.016
▁jaluta	-10.016
▁käär	-10.0161
▁lennuki	-10.0162
▁närvi	-10.0162
▁põhine	-10.0162
▁kapitali	-10.0163
▁vanemate	-10.0169
▁töötle	-10.017
▁peetaks	-10.0171
▁Kujuta	-10.0172
▁kaasas	-10.0172
▁vastavalt	-10.0173
▁ühist	-10.018
▁meeskond	-10.0183
▁koer	-10.0183
▁kiiruse	-10.0184
▁Viimase	-10.0187
▁murd	-10.019
päeval	-10.0197
võr	-10.0202
▁kasvas	-10.0205
▁edasta	-10.0209
▁kih	-10.021
▁eemalda	-10.0211
▁leviku	-10.0218
▁avalda	-10.0228
▁piiratu	-10.0229
▁süda	-10.0234
▁pildil	-10.0236
▁konflikti	-10.0253
▁suurus	-10.0259
▁küljes	-10.0259
▁korral	-10.0267
▁globaalse	-10.0272
▁Osa	-10.0305
▁lasta	-10.0317
▁kalu	-10.0321
▁oskuse	-10.0325
▁arvate	-10.0329
▁algata	-10.0343
▁mõnes	-10.0354
▁kart	-10.0359
▁paras	-10.0374
▁kinnita	-10.0388
▁teaduse	-10.0391
▁igapäevase	-10.0399
ainsa	-10.04
▁raamat	-10.0402
▁ümbritseva	-10.0405
▁tõst	-10.0406
▁uurima	-10.0409
▁söövad	-10.041
▁meelte	-10.0414
▁paigas	-10.0414
▁põhja	-10.0415
▁täielik	-10.0439
▁feminist	-10.0441
▁oletus	-10.0445
▁kao	-10.0449
▁mi	-10.0449
▁kalade	-10.0458
▁Esimese	-10.0464
▁laboris	-10.0469
▁plaani	-10.047
▁Võta	-10.0483
▁välis	-10.0484
▁näh	-10.0497
▁tehisintellekt	-10.0506
▁sõnumi	-10.0506
▁sada	-10.0511
▁nä	-10.0518
▁kohaliku	-10.052
▁nägime	-10.0523
▁tehnoloogiat	-10.0526
▁istuta	-10.0529
▁praeguse	-10.0546
▁valitsus	-10.0571
▁sööda	-10.0575
▁mõtlemis	-10.0579
riis	-10.0592
▁teistega	-10.0599
▁aluse	-10.0615
▁kool	-10.0624
▁andm	-10.0632
▁organismid	-10.0641
▁riikide	-10.0676
teadus	-10.0698
▁keskkonnas	-10.0703
▁puhas	-10.0721
▁kaugel	-10.0724
▁signaali	-10.0734
▁põhjal	-10.077
ver	-10.0773
▁Bo	-10.0776
▁kauge	-10.0778
▁kogemust	-10.0797
▁para	-10.0809
▁sead	-10.0828
▁põnev	-10.0835
▁varu	-10.0837
kaitse	-10.0837
N	-10.0841
vähem	-10.0842
▁juht	-10.0843
▁võimaluste	-10.0849
▁numbri	-10.0855
▁usk	-10.0857
programm	-10.0864
arv	-10.0866
▁tarbija	-10.0867
een	-10.0878
▁arenenu	-10.0883
▁ain	-10.0885
▁kümnendi	-10.0888
▁lisamõõtme	-10.0891
▁igasugu	-10.093
impansi	-10.095
▁hapnik	-10.0956
▁vaatas	-10.0961
sk	-10.0963
▁mõtet	-10.097
▁sõid	-10.0977
▁tänase	-10.0988
▁olukorra	-10.0995
▁seist	-10.1008
▁Lii	-10.101
ndo	-10.1012
▁elava	-10.1029
samas	-10.1038
▁presiden	-10.1044
▁programmeeri	-10.1046
▁kaardi	-10.1048
robleem	-10.1051
▁numb	-10.1053
▁süstla	-10.1053
▁ladviku	-10.106
▁kliima	-10.106
▁mälu	-10.106
▁Tänu	-10.106
▁lühike	-10.106
▁abikaasa	-10.106
▁ebola	-10.106
▁politsei	-10.106
▁reageeri	-10.106
▁valguskiir	-10.106
▁värske	-10.106
▁voola	-10.106
▁tuvasta	-10.106
▁meetri	-10.106
▁piirkond	-10.106
▁unistus	-10.106
▁lõpmatu	-10.106
▁vaade	-10.106
▁kavatse	-10.1061
▁1,	-10.1061
▁naha	-10.1061
▁ootus	-10.1061
▁2005	-10.1062
▁arhitektuur	-10.1062
▁Thom	-10.1066
▁ohusta	-10.1067
▁vastupidi	-10.1068
▁vaadake	-10.107
väär	-10.107
▁suhkru	-10.1072
▁atmosfääri	-10.1073
▁nimekirja	-10.1074
▁Ent	-10.1074
▁Vastu	-10.1075
▁kutsus	-10.1076
▁rakendus	-10.1077
▁Eelmise	-10.1079
MI	-10.108
▁õie	-10.1083
▁käitumise	-10.1085
▁tasakaalu	-10.1086
▁pommi	-10.1087
poolt	-10.1091
▁paikades	-10.1092
▁lõuna	-10.1093
▁paiguta	-10.1093
▁pime	-10.1098
▁keskmes	-10.1103
▁raam	-10.1106
▁TEDi	-10.1107
▁tähele	-10.111
▁süsti	-10.1111
▁mesilase	-10.1112
▁vilja	-10.1112
▁22	-10.1113
▁vormi	-10.1123
▁ökosüsteemi	-10.1124
▁tarkus	-10.1138
▁rohu	-10.114
tasandil	-10.1141
▁perspektiivi	-10.1149
▁pildista	-10.1151
▁sõpradega	-10.1157
▁sündinud	-10.1158
▁nõua	-10.1165
kei	-10.1171
▁televisiooni	-10.1172
▁Maailmas	-10.1181
▁talu	-10.1184
▁15-	-10.1193
▁lask	-10.1193
▁sea	-10.1222
▁langeta	-10.1224
▁seosta	-10.1229
▁lisamõõtmete	-10.1231
ou	-10.1232
▁hirmu	-10.1232
▁võtsin	-10.1233
▁endise	-10.1235
▁vajaliku	-10.1237
▁paika	-10.124
▁kujune	-10.1241
▁kaugele	-10.1248
▁vaada	-10.125
▁kunstniku	-10.1253
▁tõuse	-10.1264
▁kohtle	-10.127
▁mehi	-10.1275
▁liitu	-10.1284
▁järgmist	-10.1291
▁bioloogias	-10.1298
▁keskel	-10.1302
▁tõhusa	-10.1306
▁püüan	-10.131
▁õpetajate	-10.1311
▁osalise	-10.1311
▁naist	-10.1317
▁so	-10.1327
▁osade	-10.1328
▁juhib	-10.1337
▁toita	-10.1338
▁bio	-10.134
▁oleva	-10.1344
▁teosta	-10.1353
▁hääleta	-10.1356
▁odava	-10.1371
▁bioloogilise	-10.1377
igu	-10.1387
▁kaunis	-10.1394
▁aitas	-10.1408
▁puhasta	-10.141
▁kahel	-10.1412
▁hool	-10.1416
▁valguse	-10.1446
▁jätkusuutliku	-10.1447
vahetus	-10.1458
▁lõpp	-10.1469
▁Tegi	-10.1472
tasime	-10.1475
▁tähtsama	-10.1478
▁vaktsiinid	-10.1492
▁mingis	-10.1492
▁väärtuse	-10.1492
eg	-10.1502
▁pikka	-10.1508
laine	-10.1529
tööd	-10.1537
▁mõistuse	-10.1551
▁olulist	-10.1564
▁tabas	-10.1564
last	-10.1573
▁ehitis	-10.1577
▁kiirene	-10.1581
vel	-10.1601
▁kõrg	-10.1602
▁loob	-10.1617
▁vaesus	-10.1618
▁lähenemis	-10.162
misse	-10.1638
▁alal	-10.1656
▁viimaste	-10.166
▁pidama	-10.1662
nuk	-10.1663
ajal	-10.1674
▁veen	-10.1689
▁protsendi	-10.169
har	-10.1704
▁geen	-10.171
maailma	-10.1714
▁lähen	-10.1725
▁bioloogili	-10.1726
▁rahvus	-10.1736
▁pisike	-10.1741
▁tööriistad	-10.1748
▁väikest	-10.1766
gur	-10.1767
▁ratsionaal	-10.1781
O	-10.1783
▁kasutan	-10.1791
ndad	-10.1793
▁planeeri	-10.1798
▁kuulus	-10.18
▁sotsiaal	-10.1802
▁roheli	-10.1807
▁eksi	-10.1812
heli	-10.1818
▁jõ	-10.1827
▁ku	-10.183
teooria	-10.1841
▁tootmise	-10.1852
▁Jumal	-10.1867
▁kätt	-10.1891
▁vaese	-10.19
▁tap	-10.1906
vet	-10.1912
▁aastakümne	-10.1914
▁muusikat	-10.1925
▁vält	-10.1926
▁surm	-10.1939
▁rän	-10.1946
▁piisa	-10.1952
▁sisul	-10.1955
▁lemmik	-10.1959
▁väärt	-10.1959
▁töötas	-10.1962
▁jäätme	-10.1989
▁alusel	-10.1991
suguse	-10.1993
▁kohalik	-10.2001
▁nalja	-10.2001
▁tootmis	-10.2001
▁sõõr	-10.2016
eeru	-10.2025
▁ring	-10.203
▁paremat	-10.2032
▁konkurentsi	-10.2034
▁val	-10.2035
▁projektide	-10.2037
▁finants	-10.2046
▁hullem	-10.2047
▁tuuma	-10.2055
kangela	-10.2055
▁veendu	-10.2058
äkki	-10.2059
▁kasvuhoone	-10.2059
▁usaldus	-10.2059
▁John	-10.2059
▁Lääne	-10.206
▁Täpse	-10.206
▁Wal	-10.206
▁mikro	-10.206
▁paradigma	-10.206
▁patsiendi	-10.206
▁poliitiku	-10.206
▁pruugi	-10.206
▁sambla	-10.206
▁stringiteooria	-10.206
▁tõlki	-10.206
▁üpris	-10.206
▁Otsustasi	-10.206
▁konkureeri	-10.206
▁ründa	-10.206
▁osutu	-10.206
▁tähista	-10.206
▁naudingu	-10.206
▁uhke	-10.206
▁võlu	-10.206
▁tumeenergia	-10.206
▁läbipaistvus	-10.206
▁häiri	-10.206
▁jutusta	-10.206
▁olgu	-10.206
▁Mario	-10.206
▁Brasiilia	-10.206
▁süstal	-10.206
▁tarvi	-10.206
▁kusagil	-10.206
▁segadus	-10.2061
▁Kogu	-10.2062
▁kul	-10.2062
▁serva	-10.2063
▁tuha	-10.2064
▁määratle	-10.2066
▁vältimatu	-10.2066
▁küllalt	-10.2066
Cola	-10.2067
▁publiku	-10.2067
voolu	-10.2069
▁empaatia	-10.2072
▁saagi	-10.2074
▁Tööta	-10.2075
▁tingi	-10.2078
▁üksikisiku	-10.2078
ilise	-10.2079
▁nakatu	-10.2081
▁Uus	-10.2081
▁graafiku	-10.2081
▁allikas	-10.2081
▁kõrvut	-10.2081
▁tütar	-10.2086
▁kosmose	-10.2089
▁Enamus	-10.209
▁väljenda	-10.2093
▁mehhanism	-10.2097
▁hommiku	-10.2097
▁limonaadi	-10.2101
orgis	-10.2102
ndate	-10.2104
▁mustri	-10.2105
▁asus	-10.2105
▁Franki	-10.2108
▁peitub	-10.2109
▁ärka	-10.2111
▁Kuu	-10.2112
▁Universumi	-10.2126
▁mõistsin	-10.2126
▁raamatus	-10.2127
▁süsiniku	-10.2128
▁olukorras	-10.2131
oon	-10.2134
▁kohviku	-10.2143
▁Lähe	-10.2144
▁robot	-10.2145
▁langenu	-10.2149
▁südame	-10.2151
▁vaesema	-10.2165
▁noot	-10.2168
▁müügi	-10.2176
▁tahaks	-10.2182
▁ennustada	-10.2182
kesi	-10.2184
käigu	-10.2188
▁kohutava	-10.2192
▁kiirus	-10.2197
▁sarnast	-10.2204
▁ühiskondliku	-10.2211
▁Lapse	-10.2212
▁tegemis	-10.222
▁innovatsiooni	-10.2221
▁muutuma	-10.2226
▁laiu	-10.2234
▁kuulsa	-10.2237
▁plastmassi	-10.2238
▁kor	-10.2243
▁laulu	-10.2247
▁piirangute	-10.2256
▁Don	-10.2259
▁õnnetus	-10.226
▁arvasin	-10.2261
▁muuse	-10.2268
▁struktuur	-10.2269
▁maad	-10.227
vaks	-10.227
8.	-10.2281
▁mulli	-10.2283
▁lao	-10.2289
▁hoolimat	-10.2292
▁poodide	-10.2298
▁Sin	-10.2301
▁märki	-10.2302
▁järgneva	-10.2306
▁põhineva	-10.2307
▁loovuse	-10.2328
▁reaalsuse	-10.2329
▁ratsionaalse	-10.2346
oomi	-10.2356
▁pilve	-10.2361
▁eelista	-10.2363
org	-10.2375
▁võttes	-10.2391
▁toimiva	-10.2398
▁organisatsiooni	-10.2406
▁õppimise	-10.2416
uur	-10.2426
▁taseme	-10.2431
▁Too	-10.2441
tavalt	-10.2443
▁tarbimise	-10.2444
▁valitsuse	-10.246
▁erili	-10.2462
▁aur	-10.2468
▁restorani	-10.2469
▁laiene	-10.2469
▁probleemid	-10.2502
korda	-10.2511
▁toimuva	-10.2519
10	-10.2521
▁500	-10.2526
▁toodete	-10.2539
▁suuremat	-10.2545
▁risk	-10.2563
▁töötan	-10.2568
▁toa	-10.2574
▁toon	-10.2589
▁Jo	-10.2603
olu	-10.2611
▁muude	-10.2617
pra	-10.2621
▁rikku	-10.2622
▁Go	-10.2629
▁sõida	-10.2657
▁mitmekesisus	-10.2677
▁Erit	-10.2682
▁autot	-10.2686
▁arengumaades	-10.2699
▁levinu	-10.2705
▁ehitama	-10.2723
aia	-10.2723
üksi	-10.2731
▁aastast	-10.2738
▁levita	-10.2741
▁gr	-10.2753
▁Eks	-10.2773
▁väikeste	-10.2776
▁feministi	-10.2792
▁suu	-10.2799
▁paiga	-10.2836
I	-10.284
▁hüp	-10.2862
▁Loo	-10.2875
▁reaalsus	-10.2879
kasutuse	-10.2882
▁ühiskond	-10.2889
T	-10.2891
▁erakordsel	-10.2896
▁valgus	-10.2897
▁puud	-10.2901
▁teismelis	-10.2901
ruumi	-10.2936
▁loovus	-10.2943
öelda	-10.2944
▁kõrva	-10.2945
M	-10.2946
piiri	-10.2946
Euroopa	-10.2948
mõju	-10.2952
▁loominguli	-10.2957
kommunikatsiooni	-10.2969
võrk	-10.2972
▁eemal	-10.2977
▁Sii	-10.2984
tavate	-10.2994
kulu	-10.3017
▁kõikides	-10.3018
▁põhimõtte	-10.3024
▁kohutav	-10.3025
▁hoo	-10.3028
▁valgu	-10.3032
▁mängima	-10.3036
kultuuri	-10.3036
▁organisatsioon	-10.3048
isõnu	-10.3062
▁külje	-10.3066
▁Maailma	-10.3068
port	-10.3072
▁ooda	-10.3086
▁pääst	-10.3086
▁kaas	-10.3086
▁joone	-10.3096
▁j	-10.3096
▁piirid	-10.3096
▁aed	-10.3116
▁teadmise	-10.312
nimetat	-10.3127
▁pop	-10.3138
▁korras	-10.3143
▁pär	-10.3151
▁rühm	-10.3155
▁lennu	-10.3156
▁juu	-10.3161
▁usalda	-10.3163
▁emotsioon	-10.3163
▁ressurss	-10.3163
petaja	-10.3167
▁196	-10.3171
▁seisukoht	-10.3171
▁ameerik	-10.3171
▁jäet	-10.3171
▁vaatenurga	-10.3171
▁ähvarda	-10.3171
aktiivsuspuhangu	-10.3171
roject	-10.3171
▁Indoneesia	-10.3171
▁Käisi	-10.3171
▁Räägi	-10.3171
▁dünaamili	-10.3171
▁eksperimendi	-10.3171
▁keemiku	-10.3171
▁kodanike	-10.3171
▁meelelahutus	-10.3171
▁superintellekt	-10.3171
▁tõrju	-10.3171
▁õppetund	-10.3171
▁üllatu	-10.3171
▁Barbie	-10.3171
▁Smith	-10.3171
▁nägemus	-10.3171
▁saladus	-10.3171
▁tehnika	-10.3171
▁kahtlus	-10.3171
▁voodi	-10.3171
▁absoluutse	-10.3171
▁senti	-10.3171
▁198	-10.3171
▁sündroom	-10.3171
▁treeni	-10.3171
▁Vaikse	-10.3171
▁pähe	-10.3171
▁mõõde	-10.3172
▁keskkooli	-10.3172
▁Coca	-10.3172
▁nahk	-10.3172
▁osakeste	-10.3172
▁Lihtsa	-10.3172
▁varasta	-10.3173
▁neljanda	-10.3173
▁teistsugune	-10.3173
▁köögivilja	-10.3175
▁jätkusuutlikkus	-10.3175
▁olemasolu	-10.3176
▁pausi	-10.3176
▁tohiks	-10.3176
▁naudi	-10.3176
▁prototüüp	-10.3177
▁Mõni	-10.3178
▁kaasaegse	-10.3178
▁ressursside	-10.3179
▁salvesta	-10.3179
▁tassi	-10.3179
▁stiimulite	-10.3179
▁ratas	-10.318
▁Kolm	-10.3181
pelgal	-10.3182
ill	-10.3184
▁Vasta	-10.3184
▁vastutus	-10.3185
▁sõltuvus	-10.3185
misi	-10.3186
▁California	-10.3186
▁preemia	-10.3186
▁efektiivse	-10.3186
▁aus	-10.3187
▁seemne	-10.3187
▁Bar	-10.3187
▁2000	-10.3187
▁tiheda	-10.3188
▁Kõ	-10.3191
▁harv	-10.3192
▁vaimu	-10.3193
▁õde	-10.3195
▁valikuvõimalus	-10.3195
▁graafika	-10.3196
▁suund	-10.3198
▁arusaadav	-10.3199
▁liiki	-10.3201
kooli	-10.3203
▁päikese	-10.3205
▁vajuta	-10.3208
▁pealt	-10.3209
▁ilmne	-10.3211
▁kohane	-10.3213
osas	-10.3214
▁arvatava	-10.3216
▁külasta	-10.3217
▁lapsevanema	-10.3218
▁maisi	-10.3219
▁pü	-10.3222
▁suutsi	-10.3223
▁intelligent	-10.3223
▁lahendust	-10.3224
▁kolla	-10.3228
▁Pariisi	-10.323
▁pese	-10.3232
▁liial	-10.3235
▁jne	-10.3237
▁palun	-10.3238
▁eas	-10.324
▁hall	-10.3241
▁Ilu	-10.3242
▁kirjandus	-10.3242
▁reaktsioon	-10.3247
▁kaasne	-10.3247
▁igaves	-10.3253
▁tervis	-10.3255
▁ühiskonda	-10.3256
▁kingi	-10.3263
▁venna	-10.3267
▁silmad	-10.3269
▁hulluks	-10.3272
▁Washingtoni	-10.3272
▁pimeda	-10.3277
▁taastu	-10.3277
▁moonuta	-10.3279
▁suhel	-10.3279
elu	-10.3282
▁ülemus	-10.329
▁satu	-10.3292
▁Mingi	-10.33
▁noorte	-10.3308
▁ideaal	-10.331
▁mõtles	-10.3311
▁kaduma	-10.3313
▁uskuma	-10.332
▁nähtava	-10.3321
▁Naise	-10.3325
▁õnneliku	-10.3329
▁osaleja	-10.3332
▁töötama	-10.3333
▁molekulide	-10.3337
▁veda	-10.3338
▁ehitamise	-10.3338
▁kanali	-10.3341
▁nu	-10.3343
▁Millise	-10.3347
▁ameti	-10.3347
▁võimekus	-10.3349
▁saatus	-10.3351
▁valitsev	-10.3356
▁kasumi	-10.3361
▁religiooni	-10.3366
aastaselt	-10.3373
▁lõbu	-10.3375
alade	-10.3381
▁aeglase	-10.3402
▁ülima	-10.3409
▁tugevus	-10.3423
▁kaksiku	-10.3423
▁seo	-10.3426
▁kasvav	-10.3426
▁kõnele	-10.3427
▁seisab	-10.3429
▁armastan	-10.343
▁linnades	-10.3439
gust	-10.3441
▁vai	-10.3443
▁pre	-10.3452
▁Hiinas	-10.3452
▁uskumatul	-10.3458
▁küsimust	-10.3468
▁kättesaadava	-10.3471
maal	-10.3479
▁uurimis	-10.3483
ner	-10.3485
tööstuse	-10.3495
▁üksiku	-10.3497
▁read	-10.3499
juks	-10.351
▁pinnase	-10.3523
▁vangla	-10.3526
▁kirjeldas	-10.3528
▁võideld	-10.3538
▁Sou	-10.3541
▁ahvi	-10.3543
▁teadmiste	-10.3545
▁jõudu	-10.3548
viisi	-10.3575
▁soovin	-10.358
▁parve	-10.359
▁vestlus	-10.3591
▁sõltu	-10.3592
▁pesumasinat	-10.3604
▁kõvera	-10.3617
▁nimetan	-10.3623
▁kujutise	-10.3635
▁raiskami	-10.3639
▁ahv	-10.3645
▁tundus	-10.3656
▁autori	-10.3656
▁peaksin	-10.3673
▁muid	-10.3675
▁tark	-10.368
rra	-10.3687
▁koli	-10.3708
firma	-10.3709
haa	-10.3709
▁transistori	-10.3711
ly	-10.3713
▁reeglite	-10.3713
korra	-10.3714
▁maastik	-10.3716
▁haigla	-10.372
jaga	-10.3737
▁Eri	-10.374
▁looduslik	-10.379
usse	-10.3797
▁lenda	-10.3799
▁nähtus	-10.3803
▁kultuurist	-10.3804
▁vastand	-10.3805
venda	-10.3813
▁null	-10.3814
▁plahvatus	-10.3822
▁merevee	-10.3824
▁Lu	-10.3826
▁kogune	-10.3829
▁Hom	-10.383
▁ligipääs	-10.3857
aadi	-10.3858
ärast	-10.3865
keel	-10.3868
illi	-10.3871
▁vastust	-10.3885
▁biosfääri	-10.3905
▁otsima	-10.3912
Aafrikas	-10.3916
▁püsiva	-10.3921
poe	-10.3921
▁sobiva	-10.3931
▁Jaapanis	-10.3951
▁vähese	-10.3955
▁raskus	-10.397
rikas	-10.3972
▁klassikali	-10.3981
kol	-10.3987
▁pidev	-10.3989
▁võet	-10.4004
▁majandusliku	-10.4005
▁San	-10.4009
▁hoi	-10.4014
▁odav	-10.4014
▁miljonite	-10.4036
tub	-10.4037
▁piire	-10.4044
▁viirus	-10.4045
▁dollar	-10.4046
vara	-10.4056
▁tähenduse	-10.4074
▁arst	-10.4078
▁tööriista	-10.4079
▁liikumise	-10.4088
▁muutma	-10.4091
▁rünna	-10.4102
▁elektrit	-10.4105
▁tervislik	-10.411
▁järgne	-10.4118
▁isiku	-10.412
muse	-10.413
▁pr	-10.4134
tunne	-10.4146
▁disain	-10.4159
▁reegl	-10.4177
▁küsima	-10.4179
lapse	-10.4188
ahela	-10.419
projekt	-10.4198
▁mõ	-10.4199
vahend	-10.4203
väga	-10.4204
ikka	-10.4207
jäänu	-10.4217
▁hai	-10.4219
▁kaart	-10.4221
▁piirangu	-10.4224
ork	-10.4224
▁arengumaad	-10.4241
▁üllatav	-10.4242
▁areng	-10.425
lises	-10.4253
▁talunik	-10.4255
▁toimuvat	-10.4258
▁mahu	-10.4261
▁mürgi	-10.4272
▁Järgmi	-10.4273
▁videomäng	-10.4274
▁mudel	-10.428
▁rõhu	-10.4283
▁tsiteerin	-10.4286
▁samade	-10.4288
▁võtaks	-10.4295
▁skaalal	-10.4299
▁õpp	-10.4299
▁eh	-10.4303
▁palus	-10.4304
▁seksuaal	-10.4308
▁keeles	-10.4309
▁üld	-10.4311
▁pärine	-10.4317
▁juhus	-10.4318
oloog	-10.4318
▁üllata	-10.4319
rja	-10.4319
ppe	-10.432
▁avalik	-10.4326
▁tunnete	-10.4333
▁lõpe	-10.4334
▁Gr	-10.4344
▁Or	-10.4356
▁ajas	-10.4359
▁sõdade	-10.4362
▁tasand	-10.437
likkuse	-10.437
▁Ilm	-10.4377
▁tähe	-10.438
mendi	-10.438
▁kell	-10.4387
▁mõnel	-10.4388
oks	-10.4405
▁kõikide	-10.4405
jah	-10.441
▁vägista	-10.4414
▁püh	-10.4414
▁rootslas	-10.4414
▁füüsilise	-10.4416
indlast	-10.4417
▁IBM	-10.4421
▁keemia	-10.4421
▁mootor	-10.4421
▁motiveeri	-10.4421
▁mässa	-10.4421
▁uppumise	-10.4421
operatsioon	-10.4421
▁Alzheimeri	-10.4421
▁Ameeriklas	-10.4421
▁NASA	-10.4421
▁Projekti	-10.4421
▁Vikipeedia	-10.4421
▁Wright	-10.4421
▁aktiivse	-10.4421
▁betooni	-10.4421
▁demokraatlik	-10.4421
▁käsikirve	-10.4421
▁müstili	-10.4421
▁osariigi	-10.4421
▁palmiõli	-10.4421
▁paratamatu	-10.4421
▁sõpru	-10.4421
▁täida	-10.4421
▁Ütle	-10.4421
▁koopia	-10.4421
▁lamba	-10.4421
▁optimis	-10.4421
▁ütlus	-10.4421
▁maailmavaade	-10.4421
▁surve	-10.4421
▁eraldi	-10.4421
▁keerle	-10.4421
▁rinna	-10.4421
▁ettevõtmi	-10.4421
▁õppekava	-10.4421
▁eelarve	-10.4421
▁99	-10.4421
▁Katari	-10.4421
▁alternatiiv	-10.4421
▁unista	-10.4421
▁kavatsus	-10.4421
▁kunstiteos	-10.4421
▁hanki	-10.4421
▁keera	-10.4421
▁Linna	-10.4421
▁otsingu	-10.4421
▁ranna	-10.4421
▁taipasi	-10.4421
▁soorita	-10.4421
▁edenda	-10.4421
▁Juhtu	-10.4421
▁kõhu	-10.4421
▁1990	-10.4421
▁teistsugust	-10.4422
▁innusta	-10.4422
▁reaalaja	-10.4422
▁päritolu	-10.4422
▁seletus	-10.4422
▁kilo	-10.4422
▁kujutluspil	-10.4422
▁nõnda	-10.4422
keskus	-10.4422
▁kipu	-10.4422
▁Parim	-10.4422
▁Koos	-10.4422
▁Newton	-10.4423
▁2,	-10.4423
ajastu	-10.4423
▁Kunst	-10.4423
▁Uuri	-10.4423
▁reklaami	-10.4423
▁Paar	-10.4423
▁tehnili	-10.4423
▁75	-10.4423
▁haigestu	-10.4423
▁leppi	-10.4424
▁ajalehe	-10.4425
▁nali	-10.4425
▁mürkide	-10.4425
ago	-10.4426
▁andmetöötluse	-10.4426
▁kingitus	-10.4427
▁leht	-10.4427
▁liiklus	-10.4427
▁Igaü	-10.4427
▁taevas	-10.4428
summa	-10.443
▁uuendus	-10.4431
▁koostööl	-10.4431
▁Inim	-10.4432
▁põhjaliku	-10.4432
▁tagant	-10.4433
▁Pro	-10.4433
▁tantsu	-10.4434
▁teekond	-10.4434
▁bakter	-10.4435
▁teleri	-10.4437
▁Söö	-10.4438
▁Pida	-10.4439
▁Tähend	-10.4441
▁süüdista	-10.4442
▁Neis	-10.4444
▁Selgu	-10.4445
▁pilk	-10.4445
▁Selliste	-10.4446
▁gaasi	-10.4452
▁musta	-10.4454
▁katastroofi	-10.4454
▁rooli	-10.4454
▁sügava	-10.4456
▁õun	-10.4457
▁ühenduse	-10.4458
▁väidetava	-10.4458
▁soola	-10.446
üsimus	-10.4461
▁terviku	-10.4463
▁Ben	-10.4463
▁Põ	-10.4465
▁tõmmata	-10.4466
▁ilmselge	-10.4467
▁tulema	-10.4469
▁Pet	-10.447
▁saaste	-10.4473
▁sideme	-10.4473
▁kütt	-10.4473
▁sõnumit	-10.4475
▁versiooni	-10.4475
▁liikumine	-10.4478
▁saba	-10.448
▁erilis	-10.4485
▁seljata	-10.4487
▁tungi	-10.4488
▁tükkide	-10.4489
▁Mõte	-10.4489
▁mõistmise	-10.449
▁Sain	-10.4493
▁lille	-10.4495
▁halvema	-10.4498
▁lindude	-10.4501
▁5-	-10.4502
▁juhtme	-10.4505
▁kodudes	-10.4512
stama	-10.4515
▁saadik	-10.4525
▁tootja	-10.4526
▁kumb	-10.4526
▁usund	-10.4526
▁vanad	-10.453
▁perioodi	-10.4531
▁ameeriklase	-10.4534
▁sisene	-10.454
▁Are	-10.454
▁Ilmsel	-10.4542
▁rohelist	-10.4542
▁nurga	-10.4544
▁hulgal	-10.4545
▁ütlema	-10.4547
▁hakkasime	-10.4551
▁sulge	-10.4557
▁nõustu	-10.4559
hüü	-10.4559
▁tuttava	-10.456
▁tänavatel	-10.456
▁ulatuse	-10.4561
▁islami	-10.4561
▁õpila	-10.4562
▁kümme	-10.4562
▁lootust	-10.4565
▁elanik	-10.4568
▁ameeriklaste	-10.4569
▁löö	-10.4574
▁visa	-10.4575
▁kirg	-10.4577
▁juhtimise	-10.4599
▁jagu	-10.4602
▁argument	-10.4603
▁ilmus	-10.4614
▁naabri	-10.4619
▁objekt	-10.4624
▁eksisteerib	-10.4627
▁kohalikk	-10.463
▁koor	-10.4634
▁rahvast	-10.4639
▁pühi	-10.464
rdi	-10.4642
▁Vaja	-10.4644
raadi	-10.4644
▁liikide	-10.4654
▁võim	-10.4655
▁ahela	-10.4657
▁lõputu	-10.4665
▁Jumala	-10.4673
matki	-10.4677
▁rikkama	-10.4681
▁pro	-10.4684
▁rohelise	-10.4685
▁suudaksi	-10.4692
▁käia	-10.4695
▁vägivaldse	-10.4701
▁arengut	-10.4704
▁Ter	-10.4708
▁võnku	-10.471
▁jooks	-10.4715
▁10-	-10.4718
eerimise	-10.4721
▁vil	-10.4726
▁Tor	-10.4743
▁Pa	-10.4748
▁võrrelda	-10.4749
▁Angelese	-10.4751
lehe	-10.4761
▁Cha	-10.4764
▁ingli	-10.4766
▁komplekti	-10.4782
▁loodusliku	-10.4792
▁Dr	-10.4804
▁vabatahtliku	-10.4805
▁kallis	-10.4812
kordse	-10.4822
▁Palju	-10.4825
fa	-10.483
ens	-10.4832
▁sõltuva	-10.4854
▁ühikut	-10.4856
▁kõva	-10.4857
▁Kar	-10.4861
võtte	-10.4863
▁juhtum	-10.4865
▁jutt	-10.4868
▁loomu	-10.4869
kriisi	-10.4871
▁sadade	-10.4876
ay	-10.4882
▁tänaval	-10.4882
▁sekundis	-10.4894
▁kriisi	-10.49
▁saamise	-10.49
valdkonnas	-10.4901
▁looja	-10.4906
imate	-10.4908
▁kaugelt	-10.4913
tükk	-10.4917
▁protsendil	-10.4928
▁teose	-10.4937
gra	-10.4944
▁põhilise	-10.4954
kaup	-10.4969
käiku	-10.4969
▁inspireeri	-10.4979
▁vea	-10.4988
▁peene	-10.4997
▁maal	-10.5002
▁juhtiva	-10.5011
▁Vii	-10.5015
▁muna	-10.5024
▁galaktikat	-10.5047
▁värvide	-10.5047
▁teenuse	-10.5065
▁Vo	-10.508
▁elektron	-10.5089
sside	-10.5092
▁küü	-10.5098
▁peen	-10.5105
▁rikka	-10.5151
ktor	-10.5152
▁valimis	-10.5161
oli	-10.5165
▁algus	-10.5166
▁videomängu	-10.5176
▁peid	-10.519
▁kasutus	-10.5195
▁TEDil	-10.52
▁13	-10.5237
▁lagune	-10.5239
▁küpseta	-10.5244
▁mitmete	-10.5249
▁poolest	-10.5252
▁suhtumi	-10.5254
▁vaktsiini	-10.5268
▁laienemi	-10.5282
▁haridust	-10.5285
▁kujutis	-10.5296
▁kaetu	-10.5299
▁kujundi	-10.5302
▁ajukoore	-10.5318
▁telefon	-10.532
▁kartul	-10.5324
▁suuru	-10.5332
of	-10.5333
▁evolutsioonili	-10.5337
▁kujund	-10.534
▁plaanis	-10.5341
▁aatomi	-10.5344
▁reeg	-10.5351
▁maksta	-10.5358
▁üleüld	-10.5367
▁erinevuse	-10.5373
▁aias	-10.5374
▁käisi	-10.5378
▁kannatus	-10.5388
▁noh	-10.5395
▁vabatahtlik	-10.5413
▁suurel	-10.5425
▁täiuslik	-10.5426
▁möödus	-10.5434
▁kannata	-10.544
▁võrgustik	-10.5444
▁süsteemis	-10.5449
▁kasutamise	-10.5468
kaaslase	-10.5482
▁lahenduse	-10.5485
▁enamiku	-10.5498
▁tavalisel	-10.5532
▁varju	-10.5534
▁pakkus	-10.555
▁ekraanil	-10.5552
onid	-10.5559
toitu	-10.5563
sena	-10.5567
▁rahvusvaheli	-10.5576
▁suh	-10.558
▁kü	-10.5589
▁parves	-10.5594
▁roh	-10.5601
▁sajand	-10.5608
Aasia	-10.5613
majanduse	-10.5615
jõu	-10.5616
▁kiirust	-10.5617
▁Miguel	-10.5621
raamatu	-10.5623
G	-10.5625
▁Milli	-10.5652
oskus	-10.5656
▁selgus	-10.5662
▁vanem	-10.5662
▁lihtsam	-10.5677
▁võnkumis	-10.5683
▁elan	-10.5688
▁avalikku	-10.5694
▁fantastili	-10.5697
laadi	-10.5703
▁kriis	-10.5703
▁roll	-10.5704
▁taasta	-10.5708
▁avaldas	-10.5716
▁materjal	-10.5719
kuul	-10.5729
▁moodus	-10.574
▁roo	-10.5746
▁Aja	-10.5747
▁uks	-10.5748
▁reaktsiooni	-10.5751
▁halba	-10.5753
▁Läh	-10.5756
▁tõelise	-10.5762
▁põllu	-10.5767
are	-10.5768
samad	-10.5786
▁vahepeal	-10.5799
▁selja	-10.5805
▁nähtu	-10.5817
▁Enam	-10.5818
▁südames	-10.5819
▁vajan	-10.583
▁piima	-10.5833
ambri	-10.5836
salvest	-10.5839
upp	-10.5842
▁lähtu	-10.5844
signaal	-10.5845
tõhus	-10.5846
▁Iraa	-10.5847
▁põleta	-10.5849
▁triljon	-10.5849
▁filtreeri	-10.5849
▁1945	-10.5849
▁2020	-10.5849
▁2050	-10.5849
▁Austraalia	-10.5849
▁DVD	-10.5849
▁Hiljuti	-10.5849
▁Palestiina	-10.5849
▁Rosling	-10.5849
▁biomimikri	-10.5849
▁kommenteeri	-10.5849
▁kõikvõimalik	-10.5849
▁lüka	-10.5849
▁oktoob	-10.5849
▁paberrätiku	-10.5849
▁plahvata	-10.5849
▁privaat	-10.5849
▁põlvkonna	-10.5849
▁reguleeri	-10.5849
▁televiisori	-10.5849
▁tsitaat	-10.5849
▁äsja	-10.5849
▁ümbruskonna	-10.5849
▁üritus	-10.5849
▁Mäleta	-10.5849
▁Põhjus	-10.5849
▁detsentralis	-10.5849
▁ignoreeri	-10.5849
▁meditsiini	-10.5849
▁primaadi	-10.5849
▁pühendu	-10.5849
▁superarvuti	-10.5849
▁täiusta	-10.5849
enesestmõistetav	-10.5849
▁abiellu	-10.5849
▁arendus	-10.5849
▁kahanda	-10.5849
▁korall	-10.5849
▁ebavõrdsus	-10.5849
▁filtri	-10.5849
▁süvene	-10.5849
▁ürg	-10.5849
▁Sõja	-10.5849
▁individuaalse	-10.5849
▁kõndima	-10.5849
▁uudishimu	-10.5849
▁koondu	-10.5849
▁raputa	-10.5849
▁hiir	-10.585
▁kahtle	-10.585
▁loogika	-10.585
▁kõnni	-10.585
▁raketi	-10.585
▁elektroonili	-10.585
▁Vahel	-10.585
▁orbiidil	-10.585
▁Uskumatu	-10.585
▁fookus	-10.585
▁asjatundja	-10.585
▁asukoha	-10.585
▁igapäevaelu	-10.585
häire	-10.585
▁pikema	-10.585
trans	-10.585
▁nõudlus	-10.585
▁Obama	-10.585
▁Tavalise	-10.585
▁mõõdu	-10.585
▁uskumus	-10.585
▁salaja	-10.585
▁Inimeste	-10.585
▁1950	-10.585
▁Mark	-10.585
▁eelneva	-10.5851
▁nauti	-10.5851
▁muster	-10.5851
▁vääri	-10.5851
▁komp	-10.5851
▁ajutegevus	-10.5852
▁luku	-10.5853
▁linnapea	-10.5853
▁toru	-10.5853
▁targa	-10.5853
▁meeskonna	-10.5853
▁sirge	-10.5853
▁vallanda	-10.5853
▁kirjanik	-10.5853
▁teistsuguse	-10.5854
▁vaatleja	-10.5855
▁elemen	-10.5855
▁Lõpp	-10.5855
▁23	-10.5855
▁250	-10.5855
▁2010	-10.5855
▁heaolu	-10.5856
▁ootamatu	-10.5856
▁Jack	-10.5856
▁kuninga	-10.5857
▁jalgade	-10.5857
▁haige	-10.5857
▁ajakirja	-10.5858
▁Puu	-10.5858
▁tõestus	-10.5858
▁mõistliku	-10.5858
▁kangelase	-10.5858
▁Küsi	-10.5858
▁farmi	-10.5859
fotograafia	-10.5859
▁tausta	-10.5859
▁õpilaste	-10.586
▁paha	-10.5861
▁maapinna	-10.5861
evin	-10.5862
▁teadla	-10.5862
▁kunstliku	-10.5863
▁kiirendus	-10.5863
eesia	-10.5864
▁nina	-10.5866
▁nõel	-10.5866
▁mõrvade	-10.5868
▁paljasta	-10.587
▁tüübi	-10.587
▁käitumist	-10.587
▁1000	-10.587
▁lendas	-10.5871
kohus	-10.5871
▁sageduse	-10.5871
▁soja	-10.5871
▁teguri	-10.5873
▁eesmärkide	-10.5874
▁meeletu	-10.5877
▁defineeri	-10.5881
▁koristaja	-10.5881
▁samasugust	-10.5882
▁kla	-10.5882
▁loogili	-10.5882
▁inimaj	-10.5883
▁tunnistaja	-10.5883
▁augu	-10.5883
▁lähi	-10.5884
▁kunstnik	-10.5884
▁relva	-10.5885
▁tõeli	-10.5886
▁ühesuguse	-10.5888
▁olendi	-10.5892
▁suutlikkus	-10.5893
ron	-10.5894
▁liigutus	-10.5897
▁peegel	-10.5897
▁laeva	-10.5897
▁julgusta	-10.5899
▁kursi	-10.5901
▁kirjeldus	-10.5905
▁artikli	-10.5906
▁tantsi	-10.5912
ional	-10.5916
▁katuse	-10.5919
▁erinevatel	-10.5924
▁emotsionaalse	-10.5926
▁ökoloogilise	-10.5928
▁eluaasta	-10.5939
▁heit	-10.594
▁kaamera	-10.5941
▁maandu	-10.5943
▁tunnetus	-10.5944
▁panuse	-10.5944
▁armu	-10.5948
▁võrrandi	-10.5949
▁objektid	-10.5953
▁samasuguse	-10.5955
▁Viima	-10.5959
▁aeda	-10.5962
▁nimetus	-10.5965
▁Mängu	-10.5966
▁Idee	-10.5966
aparaa	-10.5971
või	-10.5972
▁pärineb	-10.5974
▁meeli	-10.5974
▁imesta	-10.5977
▁ühend	-10.5977
▁vabasta	-10.5978
▁slaidi	-10.5984
▁leidsime	-10.5988
▁uurides	-10.5989
▁vaimse	-10.5993
▁vabadus	-10.5994
▁naljaka	-10.5995
▁hinge	-10.5997
▁Laste	-10.5997
▁Väikese	-10.5998
▁Facebooki	-10.6002
▁tsiteeri	-10.6007
▁neljas	-10.6007
▁kuuluva	-10.6014
3-	-10.6014
▁topsi	-10.6016
▁Suurbritannias	-10.602
▁nõuab	-10.6028
▁kahjusta	-10.6031
▁tundma	-10.6034
▁kanad	-10.6038
▁narratiiv	-10.6041
▁mürgise	-10.6044
▁võõra	-10.6045
▁orgaanilist	-10.6051
▁retsepti	-10.6053
vahendite	-10.6055
▁saabus	-10.6055
▁erista	-10.6066
▁riiki	-10.6067
▁Inglismaal	-10.6069
▁efekti	-10.6075
▁olemuse	-10.6078
sõbraliku	-10.6082
▁olevate	-10.6082
▁side	-10.6083
aabu	-10.6083
▁600	-10.6087
▁muutmise	-10.6117
▁laia	-10.6117
▁kohalike	-10.6118
▁viin	-10.6121
▁radikaalse	-10.6126
▁ukse	-10.6126
iivse	-10.6129
▁turule	-10.6135
urid	-10.6138
▁elavate	-10.6142
▁keerulist	-10.6142
▁märk	-10.6144
▁haiglate	-10.6148
▁ida	-10.6149
▁loomingulise	-10.6149
▁pakun	-10.6154
▁söögi	-10.6157
▁rakk	-10.6158
▁telli	-10.6159
allika	-10.6163
▁hal	-10.6168
▁sil	-10.6176
▁loa	-10.6179
che	-10.6181
▁Pane	-10.6189
itsi	-10.6198
▁austa	-10.6202
▁Aeg	-10.6207
▁öko	-10.6215
▁lo	-10.6217
▁Ah	-10.6224
rünnaku	-10.6231
▁metafoori	-10.6241
▁geenius	-10.6248
▁eelarvamuste	-10.6248
▁Lood	-10.6263
▁halbade	-10.6263
▁uurimuste	-10.6267
▁võrgustiku	-10.6269
▁keemilis	-10.6271
▁tänan	-10.6272
com	-10.6273
▁liikumist	-10.6276
▁liit	-10.6278
▁täiusliku	-10.6291
▁pikkus	-10.6292
▁otsesel	-10.6299
kera	-10.6321
▁vaesuse	-10.6333
▁pöör	-10.6345
▁kasuliku	-10.6351
graafi	-10.6355
lab	-10.636
▁toetuse	-10.6363
▁top	-10.6367
kordsel	-10.6369
▁lõppu	-10.6371
▁Oh	-10.6378
atsioon	-10.6382
65	-10.6389
▁tava	-10.639
▁komb	-10.6392
▁merel	-10.6397
▁väärtusta	-10.6402
▁haiglas	-10.6407
▁kartuli	-10.6408
▁väite	-10.6408
▁telefoni	-10.641
▁otsust	-10.6419
rikk	-10.6441
▁vallas	-10.6457
▁juhtis	-10.646
▁koodi	-10.6469
▁Jaapani	-10.6473
▁par	-10.6477
▁generatsioon	-10.6498
▁isik	-10.6498
▁töötaja	-10.6505
▁vasakul	-10.6506
▁haiguste	-10.6507
▁mobiiltelefonid	-10.6512
arajast	-10.6532
▁vorm	-10.6533
▁mitmekesisuse	-10.6536
▁mõistame	-10.6538
▁viisid	-10.6546
▁viiside	-10.6552
▁andes	-10.6563
▁plahvatuse	-10.6601
▁veeda	-10.6606
▁toid	-10.6612
▁uurimus	-10.6615
teema	-10.6617
▁muutust	-10.6618
▁päevi	-10.6619
▁terava	-10.6625
▁hirmutav	-10.6632
▁igav	-10.6638
▁küsin	-10.664
▁praktili	-10.6655
tuur	-10.6658
▁teadsi	-10.6676
▁Du	-10.6697
▁Tõenäo	-10.6705
kaar	-10.6706
▁lendava	-10.6707
ley	-10.6708
▁arengumaade	-10.6727
9.	-10.6744
▁igaühe	-10.6746
▁prants	-10.6752
uurija	-10.6764
co	-10.6773
▁tegelik	-10.6785
▁vasaku	-10.6793
▁organismi	-10.6827
▁tüüpili	-10.6828
▁Ap	-10.6829
▁viimast	-10.684
▁raiska	-10.6846
liinil	-10.6868
▁ohtu	-10.689
▁kasutuse	-10.6893
▁juhuslik	-10.6901
▁kauni	-10.6904
und	-10.691
▁ühiskonnas	-10.6911
▁õigu	-10.6912
▁So	-10.6917
▁üksteis	-10.6933
▁pesumasina	-10.6933
vahetuse	-10.6934
▁väärtuste	-10.6945
▁film	-10.6951
lund	-10.6956
▁tudeng	-10.6959
▁loom	-10.6971
eldes	-10.6974
▁juure	-10.6974
ego	-10.6987
mängija	-10.6997
▁piiride	-10.6999
▁kalli	-10.7011
mäng	-10.7037
▁ulatu	-10.7049
▁eelarvamus	-10.7065
tööstus	-10.7065
▁Angeles	-10.7083
▁valija	-10.7094
▁Kü	-10.7097
▁trend	-10.7117
▁satelliit	-10.7121
kama	-10.7122
▁tuul	-10.7129
▁ohu	-10.714
▁ohtlik	-10.715
▁päevade	-10.7165
▁ranniku	-10.7166
▁pinnas	-10.7172
▁aia	-10.7175
▁Kuni	-10.7184
▁haid	-10.7197
▁põhimõte	-10.7202
verd	-10.7214
▁tehis	-10.7217
▁religioon	-10.7223
▁sõnade	-10.7224
tree	-10.7235
tegija	-10.7257
▁hiiglaslik	-10.7262
materjal	-10.7267
koos	-10.7267
▁vapustav	-10.727
ettevõtte	-10.7271
▁partner	-10.7274
matuse	-10.7276
tüki	-10.7281
▁amet	-10.7281
liin	-10.7281
äkit	-10.7282
adina	-10.7284
laua	-10.7288
vilja	-10.7288
▁uuring	-10.7293
ennast	-10.7297
▁teos	-10.7299
palju	-10.7299
inimesed	-10.73
L	-10.7302
tagasi	-10.7304
struktuuri	-10.7308
oleva	-10.7308
▁rumal	-10.7317
▁valima	-10.7323
▁imelik	-10.7329
▁tuttav	-10.7333
juht	-10.7344
▁Is	-10.7365
▁matemaatik	-10.737
▁ameeriklast	-10.7371
▁söödava	-10.7378
ug	-10.7379
▁maj	-10.7383
▁harju	-10.7384
jõudu	-10.7407
▁loov	-10.7411
▁enn	-10.742
▁tegevuse	-10.7423
▁organism	-10.7425
▁tükki	-10.7428
▁perekond	-10.743
▁oht	-10.7435
sugune	-10.7449
sõidu	-10.745
▁suud	-10.7451
▁tühi	-10.7455
▁kõrgem	-10.7458
▁järjekord	-10.746
▁post	-10.746
loom	-10.7461
▁sära	-10.7466
▁teadlas	-10.7468
peale	-10.747
▁defin	-10.7479
▁kaastun	-10.7481
revolutsiooni	-10.7486
▁tüüp	-10.7487
farm	-10.7487
▁standardi	-10.749
▁pisi	-10.7496
▁süüdi	-10.7497
▁Nime	-10.7501
▁sisenes	-10.7502
▁Töö	-10.7503
spekt	-10.7508
▁progress	-10.7509
analüüs	-10.751
▁kondoom	-10.7512
iirus	-10.7513
▁norm	-10.7514
▁Päike	-10.7515
stuudio	-10.7516
▁kleebi	-10.7516
▁riietu	-10.7516
▁Apophis	-10.7516
▁Kermit	-10.7516
▁MTÜ	-10.7516
▁Mehhiko	-10.7516
▁Nyota	-10.7516
▁Robert	-10.7516
▁Sinclair	-10.7516
▁Võrrel	-10.7516
▁aastatuhande	-10.7516
▁anagramm	-10.7516
▁asukoht	-10.7516
▁dünaamika	-10.7516
▁eelkäija	-10.7516
▁fänn	-10.7516
▁gangsta	-10.7516
▁geneetilise	-10.7516
▁genotsiid	-10.7516
▁hiilgav	-10.7516
▁iseseisva	-10.7516
▁kriitika	-10.7516
▁küpsist	-10.7516
▁mikroskoobi	-10.7516
▁mälestus	-10.7516
▁oimusagara	-10.7516
▁planktoni	-10.7516
▁stimuleeri	-10.7516
▁stsenaariumi	-10.7516
▁sõdurite	-10.7516
▁sümbol	-10.7516
▁transpordi	-10.7516
▁vaatepunkti	-10.7516
▁vähi	-10.7516
▁välgumihk	-10.7516
▁Tyler	-10.7516
▁autoriõiguse	-10.7516
▁entusias	-10.7516
▁imiteeri	-10.7516
▁joonisfilm	-10.7516
▁jutustuse	-10.7516
▁kahekordista	-10.7516
▁rippu	-10.7516
▁õitse	-10.7516
▁Face	-10.7516
▁ennustus	-10.7516
▁keerukus	-10.7516
▁leevenda	-10.7516
▁sõrm	-10.7516
▁sünteetili	-10.7516
▁keeruta	-10.7516
▁seadeldis	-10.7516
▁Steph	-10.7516
▁aeglustu	-10.7516
▁Kolmanda	-10.7516
▁põlve	-10.7516
▁akna	-10.7516
▁identse	-10.7516
▁hullumeel	-10.7516
▁kindlusta	-10.7516
▁patsientide	-10.7516
▁luksu	-10.7516
▁Prantsusmaa	-10.7516
▁elukutse	-10.7516
▁lennat	-10.7516
▁häbi	-10.7516
▁aspekti	-10.7516
▁kuvand	-10.7516
▁tarbe	-10.7516
▁sündmuse	-10.7516
▁klaveri	-10.7516
▁veerand	-10.7516
ramiid	-10.7516
▁lagukultuuri	-10.7516
▁kavatsen	-10.7516
▁impuls	-10.7517
▁maitsva	-10.7517
▁integreeri	-10.7517
▁Kõigi	-10.7517
▁komme	-10.7517
▁kõndimi	-10.7517
▁elektrood	-10.7517
▁poisi	-10.7517
▁värava	-10.7517
▁paigalda	-10.7517
▁variandi	-10.7517
▁Kanada	-10.7517
▁palka	-10.7517
lampi	-10.7517
▁piina	-10.7517
▁sunni	-10.7517
▁pühenda	-10.7517
▁vaadelda	-10.7517
▁nägemispuu	-10.7517
▁kajasta	-10.7517
▁helisignaal	-10.7518
▁inimõigus	-10.7518
▁raport	-10.7518
▁ettekanne	-10.7518
▁muuseumi	-10.7518
▁häbistami	-10.7518
▁idamai	-10.7518
▁iseloomusta	-10.7518
▁Proovi	-10.7518
▁Paul	-10.7518
ministri	-10.7518
▁disaineri	-10.7518
▁3,	-10.7519
▁panusta	-10.7519
▁hüppa	-10.7519
▁tsentr	-10.7519
▁ajakirjandus	-10.7519
▁teadmatuse	-10.7519
▁Küll	-10.7519
▁kontsentreeri	-10.7519
▁põlvkonda	-10.7519
▁harjumus	-10.7519
▁riide	-10.7519
▁veidra	-10.752
▁lehtede	-10.752
▁tähtsuse	-10.752
▁rahulda	-10.752
▁võitlus	-10.752
▁masendu	-10.752
▁27	-10.752
▁haista	-10.752
▁toitaine	-10.7521
▁Heli	-10.7521
▁Tark	-10.7521
keerd	-10.7521
▁mesilaste	-10.7522
▁külluses	-10.7522
▁vilets	-10.7522
▁Surmaor	-10.7523
▁rikaste	-10.7523
▁vabadusest	-10.7523
▁spektr	-10.7524
▁lasteaia	-10.7524
andmetöötlus	-10.7524
▁Uue	-10.7524
▁rassi	-10.7525
▁keeldu	-10.7525
▁for	-10.7525
▁uuenda	-10.7525
▁hiid	-10.7526
▁Fre	-10.7527
galerii	-10.7527
▁kiriku	-10.7528
▁emotsioonide	-10.7528
▁raba	-10.7528
▁usaldamatus	-10.7529
kuses	-10.7529
▁naerata	-10.7529
▁lapsepõlv	-10.7532
▁kulge	-10.7533
▁Brit	-10.7534
farmer	-10.7534
▁riikliku	-10.7534
▁Esma	-10.7535
▁pealkirja	-10.7536
▁pisiku	-10.7536
▁kulla	-10.7536
▁tuleneb	-10.7536
▁Asja	-10.7537
▁hoiatus	-10.7539
▁sinise	-10.754
▁tulekahju	-10.754
▁rahuliku	-10.7544
▁analoogi	-10.7547
▁niiskus	-10.7548
▁epifüüti	-10.7548
▁karja	-10.7548
sagedus	-10.755
ifer	-10.755
▁Har	-10.755
▁lakka	-10.7554
▁linnade	-10.7555
▁Bal	-10.7557
protsess	-10.7557
▁ühendust	-10.7559
▁arutle	-10.7559
▁epideemia	-10.756
▁liberaal	-10.7562
kaval	-10.7563
▁Elu	-10.7563
▁õrna	-10.7565
▁õud	-10.7567
▁Seni	-10.7568
▁slummides	-10.757
▁ekso	-10.7572
▁ohvri	-10.7572
▁jaota	-10.7573
töödelda	-10.7574
▁hoiaku	-10.7574
▁Han	-10.7575
▁lastekasvatus	-10.7577
▁feminismi	-10.758
▁teleskoop	-10.7583
▁poes	-10.7584
▁õigusta	-10.7585
▁võistle	-10.7586
▁loomingulisuse	-10.7589
▁unenägu	-10.759
▁rahvaarvu	-10.7593
▁Her	-10.7593
▁omanda	-10.7596
temperatuuri	-10.7598
▁korr	-10.7598
▁kasutusele	-10.76
õigus	-10.76
▁Tip	-10.7607
▁Kon	-10.7608
▁tugi	-10.7609
▁populaar	-10.761
ür	-10.7614
▁19.	-10.7614
▁eriala	-10.7615
▁Nin	-10.7616
▁tuhandete	-10.7616
▁Olu	-10.7617
▁arvutite	-10.7629
▁Päeva	-10.7629
▁punase	-10.7632
▁tõenäolisem	-10.7634
▁piisav	-10.7639
▁Aju	-10.7639
▁Ühendriikides	-10.764
▁veres	-10.7641
▁kodumaa	-10.7643
▁standard	-10.7643
▁saavutamise	-10.7648
sõltlase	-10.7652
▁avatari	-10.7654
▁negatiivse	-10.7657
▁tolmu	-10.7657
veri	-10.7657
▁1998	-10.7658
▁eluvorm	-10.7663
▁Emmale	-10.7669
▁vaatle	-10.7679
▁seintel	-10.7684
▁tõelist	-10.7688
▁koosoleku	-10.7691
samm	-10.7692
▁selgitan	-10.7699
▁kumariini	-10.7701
▁saare	-10.7705
▁tööstusliku	-10.7712
▁järjesta	-10.7717
sondi	-10.7717
▁intellektuaalse	-10.7719
▁rumala	-10.7719
▁valetaja	-10.7721
▁matemaatilise	-10.7722
muses	-10.773
▁tü	-10.7735
piirkonnas	-10.7736
tsüklit	-10.7736
▁veeta	-10.7739
▁vaesuses	-10.774
▁kardame	-10.7741
▁avalikkuse	-10.7749
▁dimensiooni	-10.7752
▁tume	-10.7757
▁käski	-10.7763
▁trum	-10.7764
▁meemide	-10.7767
▁tüki	-10.7772
umise	-10.7776
▁töötamise	-10.7778
▁haruldase	-10.7783
▁isiklikul	-10.7784
▁Migueli	-10.7793
▁vähemus	-10.7801
▁neurotead	-10.7802
▁laadi	-10.7803
▁sidu	-10.7808
valdav	-10.781
▁Islandil	-10.7813
▁tabeli	-10.7814
▁Aasia	-10.7816
▁teemade	-10.7826
▁funktsiooni	-10.7836
▁sisaldu	-10.7843
▁kasutaja	-10.7844
▁lehmad	-10.7845
▁normaalse	-10.7848
▁kaarte	-10.7849
▁dinosaurus	-10.7863
▁taluniku	-10.7863
ohutu	-10.7864
▁2-	-10.787
▁lahendamise	-10.7878
▁ravime	-10.7889
▁favelas	-10.7891
▁kunstilis	-10.7893
taju	-10.7893
▁oi	-10.7897
▁pettus	-10.7903
▁natukene	-10.7907
fordi	-10.7913
▁jäätmete	-10.7923
▁Van	-10.7929
rti	-10.7934
taseme	-10.7939
▁muutuste	-10.7961
▁püüdma	-10.7984
firmade	-10.7989
ktsi	-10.7993
korras	-10.7994
▁füüsilisel	-10.7995
▁ekraani	-10.7997
▁endasse	-10.8004
EP	-10.8006
▁uurimuse	-10.8015
▁surr	-10.8035
▁viiruse	-10.8038
▁tingimuse	-10.8039
oes	-10.8057
Ameerika	-10.8071
▁muutsid	-10.8074
▁evolutsioonis	-10.8079
õnda	-10.8079
▁Fe	-10.8089
30	-10.8092
▁kuuluta	-10.8094
▁lugemis	-10.8097
▁20-	-10.81
▁Ann	-10.8101
ock	-10.8127
▁parimate	-10.8147
▁aatomite	-10.8148
linnu	-10.8159
▁leidmise	-10.8165
▁kohti	-10.8173
▁tegutsemis	-10.8175
▁näljase	-10.8177
▁võti	-10.8179
▁reh	-10.8204
paika	-10.8228
▁valimise	-10.8233
▁paelu	-10.8237
▁põhili	-10.8242
▁näitaja	-10.8245
▁algust	-10.8247
▁tüdrukute	-10.8276
▁park	-10.8298
▁torma	-10.8321
▁unustage	-10.8343
pesa	-10.8347
▁vajalik	-10.8347
▁identiteedi	-10.8356
rjas	-10.8356
▁toimuma	-10.8357
ph	-10.8359
▁õiguste	-10.8359
töötaja	-10.8375
▁autor	-10.8403
▁geeni	-10.8409
▁nulli	-10.841
▁mõttetu	-10.8411
▁2009	-10.8414
▁maastikk	-10.842
▁alanda	-10.8437
▁rämpstoi	-10.8455
▁veetsi	-10.8466
▁raisat	-10.8477
oori	-10.8477
▁vajaduse	-10.8478
▁Roo	-10.8508
▁elektro	-10.8509
▁kasvanduse	-10.8516
▁hoolima	-10.8518
▁liike	-10.8528
▁noori	-10.8542
▁metsade	-10.8568
▁sünnipäev	-10.8578
▁mööduva	-10.8592
▁vormis	-10.8594
▁nõude	-10.8596
▁kood	-10.8598
▁26	-10.8605
▁torm	-10.8619
▁kiirema	-10.863
▁5000	-10.8634
hil	-10.8663
▁metsades	-10.8674
▁võimeka	-10.8684
▁potentsiaal	-10.8719
▁geenid	-10.8727
▁valdkonna	-10.8765
▁br	-10.8766
▁vestluse	-10.877
▁mobiiltelefoni	-10.881
▁vihka	-10.8812
▁näol	-10.8814
▁eluviis	-10.8822
ull	-10.8877
▁vanglas	-10.888
▁ilm	-10.8887
viis	-10.8891
▁firmade	-10.8892
▁suve	-10.8907
▁sega	-10.8909
B	-10.8916
programmid	-10.8918
▁järeldus	-10.892
▁igapäeva	-10.893
aatori	-10.8935
▁loodussäästlik	-10.8956
▁ümbritse	-10.8959
kiri	-10.8985
▁gruppi	-10.9003
▁konkreet	-10.9019
▁teoreetili	-10.9037
▁tervema	-10.9052
▁kraat	-10.9053
pü	-10.906
▁osav	-10.9064
▁gravitatsioon	-10.9067
▁nägude	-10.9108
jaama	-10.9117
▁säili	-10.9122
kultuur	-10.9124
▁otsus	-10.913
▁saavutus	-10.9131
▁silm	-10.9131
välja	-10.9149
õnnetuste	-10.9151
▁plastmass	-10.9151
▁vaikse	-10.9161
▁kognitiiv	-10.9162
▁vastava	-10.9165
▁Islandi	-10.9166
▁inseneri	-10.917
järgu	-10.9183
▁harulda	-10.9187
evus	-10.9193
võimalus	-10.9199
▁meelt	-10.9199
▁globaal	-10.9213
▁minn	-10.9222
▁retsept	-10.9224
▁universum	-10.9225
▁meemid	-10.9233
▁juhtide	-10.9246
suhte	-10.9258
▁olemus	-10.9258
▁kõver	-10.9261
▁efekt	-10.9276
pargi	-10.9276
meerika	-10.9277
▁hävi	-10.928
kümme	-10.9285
keskkond	-10.9286
maastik	-10.9288
kanali	-10.9288
F	-10.9294
hetke	-10.9294
energia	-10.9296
seadme	-10.9296
Lõuna	-10.9296
täis	-10.9296
▁Darwin	-10.9298
hästi	-10.9299
kohas	-10.9299
puhu	-10.93
▁kohvik	-10.93
tööstuses	-10.93
▁erakord	-10.9303
▁Väike	-10.9306
▁visata	-10.9308
▁rahvastik	-10.9319
tunni	-10.932
linn	-10.9326
▁suitsetam	-10.9335
▁Mõ	-10.9341
▁lõhn	-10.9346
▁valmi	-10.9346
▁iseloomu	-10.9348
põ	-10.9348
▁põhinev	-10.9354
jäätmete	-10.9356
▁Para	-10.9356
▁mingisugu	-10.9356
▁koolide	-10.9359
▁tööstuslik	-10.9366
▁Ühendriikide	-10.9367
▁informatsioon	-10.9375
▁vere	-10.9384
▁halvem	-10.939
▁lehekatus	-10.9391
muna	-10.9392
▁tundsi	-10.9401
▁laasta	-10.9402
▁kuulat	-10.9403
▁tuleva	-10.9407
▁mesila	-10.9413
▁puna	-10.9413
2-	-10.9416
intelligents	-10.9419
▁asend	-10.9424
▁Maailm	-10.9431
pidamis	-10.9432
▁iseend	-10.9433
▁Frank	-10.9434
vil	-10.9435
aegsel	-10.944
asja	-10.9441
▁minevik	-10.9441
amast	-10.9442
▁elektromagne	-10.945
Ida	-10.9454
▁väide	-10.9455
▁piinlik	-10.9455
ndamise	-10.946
maani	-10.9464
▁Kell	-10.947
▁ruu	-10.947
▁Muuse	-10.9473
▁madal	-10.9474
▁kaeva	-10.9477
▁lahus	-10.9482
imus	-10.9482
tõusu	-10.9485
▁Vähem	-10.9485
▁palja	-10.9487
▁traditsioon	-10.9493
▁Rah	-10.9493
bioloogi	-10.9498
rre	-10.9498
edia	-10.9498
Tub	-10.9499
tõenäoli	-10.9499
▁paindu	-10.9502
▁konkurent	-10.9502
▁sukeldumi	-10.9507
üdruk	-10.951
ülikool	-10.9511
▁195	-10.9512
stringide	-10.9512
universaal	-10.9513
kraani	-10.9514
▁sõjavä	-10.9515
▁jälje	-10.9515
kaubandus	-10.9516
algoritm	-10.9516
▁kommerts	-10.9516
arhitekti	-10.9516
äratav	-10.9516
▁arreteeri	-10.9516
▁kollektiivse	-10.9516
▁väärtushinnangu	-10.9516
▁Üht	-10.9516
entsüklopeedia	-10.9516
kvaliteedi	-10.9516
steerium	-10.9516
▁Amazon	-10.9516
▁Gapminder	-10.9516
▁Huvitav	-10.9516
▁Hämmastav	-10.9516
▁Jõudsi	-10.9516
▁Londoni	-10.9516
▁Läksi	-10.9516
▁Richard	-10.9516
▁Starbucks	-10.9516
▁apelsinimahl	-10.9516
▁aritmeetika	-10.9516
▁artistid	-10.9516
▁astronoom	-10.9516
▁deflatsioon	-10.9516
▁demonstreeri	-10.9516
▁diabee	-10.9516
▁elementaar	-10.9516
▁fantaasia	-10.9516
▁genoomi	-10.9516
▁kampaania	-10.9516
▁kesklinnas	-10.9516
▁kombinatsioon	-10.9516
▁käitumismall	-10.9516
▁leksigramm	-10.9516
▁lõkke	-10.9516
▁mäda	-10.9516
▁mügar	-10.9516
▁painuta	-10.9516
▁pisara	-10.9516
▁põrnika	-10.9516
▁ressursi	-10.9516
▁rindejoone	-10.9516
▁räpp	-10.9516
▁soojene	-10.9516
▁süsivesiku	-10.9516
▁tehnoloogilise	-10.9516
aakri	-10.9516
▁Arves	-10.9516
▁diagnoos	-10.9516
▁fokusseerim	-10.9516
▁gammakiir	-10.9516
▁karkass	-10.9516
▁kokkusattumus	-10.9516
▁kristall	-10.9516
▁litsents	-10.9516
▁naaber	-10.9516
▁ohoo	-10.9516
▁prügikastide	-10.9516
▁sissetungija	-10.9516
▁taaskasuta	-10.9516
▁üleujutus	-10.9516
▁Püha	-10.9516
▁Scott	-10.9516
▁kodulinna	-10.9516
▁varasema	-10.9516
harmooni	-10.9516
kontsert	-10.9516
▁beebi	-10.9516
▁kraam	-10.9516
▁kursori	-10.9516
▁nuppu	-10.9516
▁ettekujutus	-10.9516
▁katkesta	-10.9516
▁põrku	-10.9516
▁taristu	-10.9516
▁inimloomus	-10.9516
▁juhenda	-10.9516
▁söögiriist	-10.9516
▁ebamugav	-10.9516
▁vastukaja	-10.9516
▁elustiili	-10.9516
▁kaootili	-10.9516
▁peegl	-10.9516
▁voorus	-10.9516
▁vetika	-10.9516
puhang	-10.9516
▁kohustus	-10.9516
▁mahla	-10.9516
▁Julia	-10.9516
▁maailmasõja	-10.9516
▁Parema	-10.9516
▁ammoniaa	-10.9516
▁magnet	-10.9516
▁parfüümi	-10.9516
tunnusta	-10.9516
▁koonda	-10.9516
▁rakett	-10.9516
▁lahke	-10.9516
▁Steve	-10.9516
▁trell	-10.9516
▁Soome	-10.9516
▁Gates	-10.9516
▁finantssektori	-10.9516
▁improviseeri	-10.9516
▁hülga	-10.9516
▁pehme	-10.9516
okeeri	-10.9516
▁nanoosakes	-10.9516
▁sertifi	-10.9516
-1-	-10.9517
▁vibratsioon	-10.9517
▁toiduaine	-10.9517
▁Lahe	-10.9517
▁vastik	-10.9517
▁rätiku	-10.9517
NA	-10.9517
▁toimetaja	-10.9517
▁lubaduse	-10.9517
▁parasiit	-10.9517
▁romaan	-10.9517
▁leiutis	-10.9517
▁1970	-10.9517
▁vahemaad	-10.9517
▁tõb	-10.9517
▁äärmuslik	-10.9517
▁rasva	-10.9517
▁hingetõmbe	-10.9517
▁redeli	-10.9517
▁hinnangul	-10.9517
vuhoonegaaside	-10.9517
▁kilomeetri	-10.9518
▁kõndisi	-10.9518
▁hüve	-10.9518
▁ülesehitus	-10.9518
▁seisundi	-10.9518
▁tõsiasja	-10.9518
▁sekku	-10.9518
vahva	-10.9518
▁ajakirjanik	-10.9518
▁iseenesest	-10.9518
▁metall	-10.9518
▁vedelik	-10.9519
▁vanaisa	-10.9519
▁korduva	-10.9519
▁teadvustama	-10.9519
▁karjakasvatus	-10.9519
▁kukku	-10.9519
▁tavatse	-10.9519
▁Tahtsi	-10.9519
▁ratta	-10.9519
▁objektiiv	-10.9519
▁laiema	-10.952
▁Iraagis	-10.952
▁uudislugu	-10.952
▁2007	-10.952
▁vabanda	-10.9521
▁võrdsus	-10.9521
▁tehisliku	-10.9521
▁kavala	-10.9521
▁ohtra	-10.9521
▁tähtede	-10.9522
▁esitle	-10.9522
▁napi	-10.9522
võrkude	-10.9522
ametniku	-10.9522
särgi	-10.9522
revett	-10.9522
▁eksistentsi	-10.9522
lehekülg	-10.9523
▁kõndid	-10.9523
▁Täh	-10.9523
▁tõstata	-10.9523
▁käsitle	-10.9524
▁haju	-10.9524
▁Appl	-10.9524
▁jalgratta	-10.9524
▁Erineva	-10.9524
low	-10.9524
▁sigade	-10.9525
▁29	-10.9525
vähk	-10.9525
▁She	-10.9525
▁languse	-10.9525
▁alandus	-10.9526
▁kevade	-10.9526
▁Mõist	-10.9527
▁liitri	-10.9527
▁sisesta	-10.9527
▁Times	-10.9527
▁Afganistani	-10.9528
▁Paist	-10.9528
▁elektronide	-10.9528
▁võrdu	-10.9529
kingad	-10.953
▁Üleval	-10.9531
▁inspiratsiooni	-10.9532
▁köögi	-10.9532
▁tagasiside	-10.9532
▁Lõpet	-10.9533
kaevandus	-10.9533
▁mahtu	-10.9534
▁läbirääkimis	-10.9535
▁Tulemus	-10.9536
▁võrdlem	-10.9538
▁tekiks	-10.9539
▁kogukondade	-10.9539
▁ent	-10.9539
▁lükka	-10.9542
riikides	-10.9542
▁Kool	-10.9544
▁naerab	-10.9544
▁varise	-10.9546
▁verelible	-10.9546
▁populatsiooni	-10.9546
▁kontseptsioon	-10.9546
▁professionaalse	-10.9546
nurk	-10.9547
▁peamiste	-10.9547
▁piirkondades	-10.9547
▁jogurti	-10.9548
▁reede	-10.9549
▁muljet	-10.9549
▁Rahu	-10.955
▁Lee	-10.9551
▁veere	-10.9551
▁juuni	-10.9552
▁peitu	-10.9552
▁presidendi	-10.9553
▁lind	-10.9553
▁Nimeta	-10.9554
▁rebi	-10.9554
▁haise	-10.9556
▁Gan	-10.9559
▁Evolutsiooni	-10.956
indade	-10.956
▁sügavamal	-10.9561
▁tsivilisatsioon	-10.9562
▁turvalisus	-10.9562
▁toiduvaliku	-10.9562
▁Tre	-10.9562
▁pingutada	-10.9563
▁naeratus	-10.9564
▁korraliku	-10.9564
alast	-10.9565
▁imeliste	-10.9565
▁lähedase	-10.9566
▁puit	-10.9567
▁õli	-10.9567
Gui	-10.9572
▁pesi	-10.9573
▁pliiatsi	-10.9573
▁katki	-10.9573
▁sildi	-10.9574
▁rongi	-10.9574
▁investeeringu	-10.9575
▁Tuli	-10.9581
▁kolmandiku	-10.9581
õlgu	-10.9582
▁muudatus	-10.9584
ory	-10.9585
▁elekt	-10.9587
▁postri	-10.9589
▁minevikus	-10.9592
▁Tundu	-10.9594
▁Hei	-10.9596
▁alkoholi	-10.9596
iseerimi	-10.9596
▁poiss	-10.9599
▁ainuke	-10.9601
▁lilla	-10.9603
▁insul	-10.9603
▁veebis	-10.9604
▁sujuv	-10.9606
▁pöörata	-10.9607
▁seostu	-10.9608
▁kodeeri	-10.9609
▁neuroni	-10.9612
▁viibiva	-10.9613
▁pala	-10.9613
mängu	-10.9614
▁järjekor	-10.9615
▁passi	-10.9619
▁vangi	-10.9623
▁tasku	-10.9626
▁partneri	-10.9626
▁restoranides	-10.9627
▁mulla	-10.9627
▁rohke	-10.9631
▁Ras	-10.9632
instituudi	-10.9633
▁majanduskriis	-10.9634
▁keskuse	-10.9636
▁palga	-10.9637
▁jalgpalli	-10.9637
▁Raamatu	-10.9643
▁sügavus	-10.9644
▁lõika	-10.9644
▁Mõnes	-10.9647
▁kõrgeima	-10.9648
▁daam	-10.965
▁veid	-10.9652
▁Hispaania	-10.9653
▁lehekatusel	-10.9653
▁vaikus	-10.9655
▁18-	-10.9655
▁klaasi	-10.9655
▁rakkude	-10.9656
▁CD	-10.9657
▁saadetaks	-10.9659
ühingu	-10.9659
astmel	-10.9662
▁rohi	-10.9666
▁mass	-10.9669
▁kriitilise	-10.9671
▁kasvatamise	-10.9674
▁harjuta	-10.9675
haru	-10.9677
▁koorma	-10.9683
▁etapi	-10.9686
▁mõistsi	-10.969
▁rühma	-10.9694
▁tehno	-10.9694
▁ilme	-10.9695
rooni	-10.9697
▁kvaliteetse	-10.9698
▁laast	-10.9699
▁suitsetama	-10.9701
▁sõltumatu	-10.9702
▁võrgustike	-10.9704
▁traditsioonili	-10.9708
▁palli	-10.9708
▁langetamise	-10.9709
▁ühiskondlik	-10.9709
▁ster	-10.9714
▁keskaja	-10.9714
▁sugulas	-10.9717
▁jagune	-10.9721
▁skaala	-10.9722
▁lemmiku	-10.9732
▁õed	-10.9735
▁häda	-10.9739
▁Per	-10.9739
▁toidujäätmete	-10.9751
atust	-10.9752
võimsus	-10.9754
▁surema	-10.9756
▁Kõikide	-10.9759
▁loobu	-10.9759
▁hapniku	-10.9762
▁kogemusest	-10.9765
▁molekulaar	-10.9771
▁Liibüas	-10.9776
▁simulatsiooni	-10.9779
simu	-10.978
Aafrika	-10.9781
▁loengu	-10.9782
aalsus	-10.9785
▁imp	-10.9789
▁Tege	-10.9798
kala	-10.9802
▁kütus	-10.9804
▁madalama	-10.9814
▁põnevama	-10.9816
▁potentsiaali	-10.9821
▁ootame	-10.9824
▁iseka	-10.9829
▁tootjate	-10.9837
▁hiiglasliku	-10.9837
▁tunnistama	-10.984
▁süle	-10.9843
▁tingimuste	-10.9856
programmi	-10.9857
▁kultuurilise	-10.9862
▁Vana	-10.9872
▁ulatuva	-10.9877
▁leiutaja	-10.9878
▁tarbimis	-10.9888
▁selgu	-10.99
▁50-	-10.9901
ristuse	-10.9903
▁tõmbum	-10.9909
▁rohkemat	-10.991
▁maastiku	-10.9923
▁põneva	-10.9926
▁rahvusvahelise	-10.9929
▁vastamis	-10.9931
▁Ülikoolis	-10.9932
cis	-10.9933
▁pakitu	-10.9936
▁pereplaneerimis	-10.9949
rannikul	-10.9958
▁tapmis	-10.9962
▁üllatava	-10.9997
▁teineteise	-10.9999
▁Päris	-11.0004
▁portreed	-11.0023
▁numbrite	-11.0026
▁trendid	-11.0026
tseerit	-11.0027
▁öös	-11.0029
▁kohanemis	-11.0038
▁sihtmärki	-11.0041
▁teismeliste	-11.0046
▁otsuste	-11.005
▁auhin	-11.0052
▁sooviksi	-11.0058
▁vaiksel	-11.0076
▁Kongos	-11.0079
▁õnnelikuma	-11.0081
ubag	-11.0083
foo	-11.0083
▁piltidel	-11.0087
▁kontakti	-11.0092
▁arvude	-11.0098
väärtuslik	-11.0099
▁loodussäästliku	-11.0109
uca	-11.0118
▁Saja	-11.0118
käitumi	-11.012
▁kiir	-11.0127
▁õigustatu	-11.0132
▁oskuste	-11.0133
aator	-11.0144
▁Carl	-11.0148
▁hüpa	-11.0148
▁insenerid	-11.0151
▁avaldu	-11.0153
▁mentori	-11.0153
▁külmutatu	-11.0155
ibu	-11.0161
▁turul	-11.0163
▁tuule	-11.0166
▁järelduse	-11.0166
▁võidaks	-11.0175
▁mingisugus	-11.0181
▁tarbijate	-11.0183
▁võõr	-11.0206
▁kannatuse	-11.0241
▁kauguse	-11.0257
tiin	-11.0259
▁kemikaali	-11.0266
▁kandu	-11.0274
ales	-11.0279
lava	-11.0279
▁käsits	-11.0281
▁erakordse	-11.0294
▁tundlik	-11.0309
▁vajalikk	-11.0312
▁raskuste	-11.0314
▁süsteemide	-11.032
▁signaalid	-11.0324
ratsiooni	-11.0346
▁lihtsate	-11.0352
▁turgu	-11.0383
▁sattusi	-11.0391
▁teadlaste	-11.0401
▁une	-11.0407
▁kasvatama	-11.0413
▁saatsi	-11.0447
öör	-11.046
▁arm	-11.0472
▁ellujäämi	-11.0475
▁masinates	-11.0479
▁labori	-11.0488
▁ajukoores	-11.0496
itama	-11.0498
▁mär	-11.053
toidu	-11.0538
▁Do	-11.0539
oluli	-11.0546
▁bonobode	-11.0569
▁merevees	-11.0595
gelda	-11.0606
▁ehitise	-11.0614
▁liikumises	-11.0616
▁biosfääris	-11.0618
▁ratastoolis	-11.0631
▁kõverdu	-11.064
▁seaduste	-11.0646
▁igaühel	-11.0648
oksi	-11.0663
▁hingamis	-11.0688
Ameerikas	-11.0688
▁mitmekesi	-11.0689
▁ratastooli	-11.0747
ringi	-11.0754
▁tehta	-11.0771
tulemuse	-11.0773
müü	-11.0782
▁kok	-11.0803
aegse	-11.0806
▁väärtustam	-11.0813
▁raskem	-11.0815
▁kolleeg	-11.0822
▁tulemuste	-11.0843
▁restoran	-11.0861
▁tingimus	-11.0864
▁pöörase	-11.0893
saka	-11.0915
▁generatsiooni	-11.0918
▁levik	-11.0919
rikkus	-11.0929
▁armastuse	-11.0934
▁hirmuta	-11.0944
▁õe	-11.0949
▁platvormi	-11.0953
tegemise	-11.0966
▁rais	-11.0983
▁lend	-11.0991
▁väli	-11.0998
▁alumi	-11.1022
▁planeet	-11.1024
▁lähenemi	-11.1027
ükke	-11.1031
▁valla	-11.1041
uska	-11.1051
ograafia	-11.1053
▁un	-11.1088
▁sotsiaalsete	-11.1098
▁avar	-11.1108
tapja	-11.1108
▁materjalide	-11.1126
▁teatav	-11.1128
▁kemikaal	-11.1129
▁külmiku	-11.1134
▁ühiku	-11.115
hinna	-11.1158
▁Mõne	-11.1168
▁Ko	-11.1171
▁naeruväär	-11.1178
▁sügav	-11.1214
joon	-11.1221
▁osades	-11.1229
▁Sudaani	-11.1229
▁pilv	-11.1245
▁mentor	-11.1254
▁Teem	-11.1294
ff	-11.1307
▁komplekt	-11.1307
▁füüsili	-11.132
üüa	-11.1323
▁kontakt	-11.1323
▁Nõ	-11.1323
▁metafoor	-11.133
▁Kongo	-11.1337
▁uuringute	-11.1343
▁täiskasvanute	-11.1346
▁liikumis	-11.1351
▁lootus	-11.1353
▁paki	-11.1355
institutsioonide	-11.1372
▁Hakkasi	-11.1394
▁kirjutamise	-11.1418
fr	-11.1427
▁teenus	-11.1448
elaua	-11.1455
▁tegevuses	-11.1462
oran	-11.1481
revolutsioon	-11.15
▁täitma	-11.1507
▁log	-11.1509
kriis	-11.1515
▁uurimise	-11.1521
järg	-11.1537
▁loomus	-11.156
▁ande	-11.1579
▁innovatsioon	-11.1592
meetodi	-11.1594
▁eelistus	-11.1604
lustuse	-11.1605
▁unustama	-11.1661
eose	-11.1662
▁läh	-11.1663
▁neuro	-11.167
▁narratiivi	-11.1671
isele	-11.1672
auto	-11.1674
tsükli	-11.1681
▁fundamentaal	-11.1683
▁ligikaud	-11.1684
kütuse	-11.1685
▁insener	-11.1685
▁televisioon	-11.1688
▁nähtav	-11.169
▁õnn	-11.1692
▁Põhimõt	-11.1692
▁psühholoogi	-11.1697
▁vaim	-11.1697
▁matemaatili	-11.1702
▁intellektuaal	-11.1707
▁islam	-11.1723
▁parv	-11.1725
olekul	-11.1727
▁400	-11.1729
kümne	-11.1731
▁kumariin	-11.1734
▁majanduslikus	-11.1737
ühendus	-11.1742
▁nägemise	-11.1743
▁varajas	-11.1753
jäätis	-11.1754
▁killu	-11.1755
▁edas	-11.1762
▁sein	-11.1772
▁toidujäätme	-11.1772
homo	-11.1774
palli	-11.1776
kandja	-11.1776
▁märkasi	-11.1778
organism	-11.178
nõude	-11.1781
perioodi	-11.1781
võrgustik	-11.1785
tegevus	-11.1785
▁digitaal	-11.1787
▁Milj	-11.1788
vabadus	-11.1788
teenuse	-11.1788
venna	-11.1789
robot	-11.1789
uuringute	-11.1791
klassi	-11.1791
poodide	-11.1793
füüsika	-11.1794
hulga	-11.1795
keha	-11.1795
käe	-11.1795
V	-11.1797
õhtu	-11.1797
kõne	-11.1798
ravi	-11.1798
haridus	-11.1798
materjalide	-11.1799
õpetaja	-11.1801
▁Mäng	-11.1803
mudel	-11.1805
kokku	-11.1806
sõltla	-11.1807
▁biosfäär	-11.181
▁Tunne	-11.181
▁konverentsil	-11.1816
pesu	-11.1817
umba	-11.1822
püha	-11.1827
▁nõ	-11.1831
uude	-11.1833
oll	-11.1835
noot	-11.1836
▁rõõm	-11.1836
▁tonn	-11.1838
▁traditsioonilis	-11.1842
kingi	-11.1842
paar	-11.1846
▁suuremate	-11.1848
▁meenu	-11.1848
kõike	-11.1851
löök	-11.1855
▁klaas	-11.1865
filmi	-11.1867
võimalusi	-11.1868
▁välj	-11.1869
▁põnevam	-11.1871
▁hull	-11.1871
▁variant	-11.1876
▁anorgaanili	-11.1878
▁tants	-11.1879
masina	-11.1883
▁hõlma	-11.1897
▁lineaar	-11.1897
▁kleep	-11.19
▁olemasoleva	-11.1908
joones	-11.1909
▁juurd	-11.191
▁AIDS	-11.1912
▁instinkt	-11.1913
kuju	-11.1916
neuronite	-11.1916
▁feminism	-11.1917
▁akadeemi	-11.1917
▁tõmm	-11.192
liha	-11.1926
▁alkohol	-11.1926
▁hü	-11.1929
▁vaju	-11.1929
▁hinnata	-11.1931
ettevõtete	-11.1931
▁pesumasin	-11.1933
▁Ide	-11.1942
ärkava	-11.1944
▁korista	-11.1946
▁madalam	-11.1952
▁organi	-11.1954
tarbimi	-11.196
pomm	-11.196
▁Katse	-11.1968
▁mangroovi	-11.1975
▁mahe	-11.1983
viga	-11.1983
▁ameerikla	-11.1984
ich	-11.1985
aamid	-11.1989
▁jaapan	-11.1989
▁huk	-11.1991
▁juhata	-11.1995
▁Afganista	-11.2001
mulje	-11.2003
tutvus	-11.2011
reklaam	-11.2012
oonia	-11.2012
mobiil	-11.2012
sündinu	-11.2012
nüü	-11.2013
▁Georg	-11.2014
esmärk	-11.2014
▁kiirtoi	-11.2014
▁Wil	-11.2015
▁orbii	-11.2016
sfäär	-11.2016
▁Prantsu	-11.2016
▁ümar	-11.2016
▁Ühendrii	-11.2016
rüü	-11.2016
▁Pyth	-11.2016
▁mõnusa	-11.2016
▁põhjend	-11.2016
tsooni	-11.2016
▁ettevaatliku	-11.2016
▁hamba	-11.2016
▁pereliikme	-11.2016
▁psühhopaat	-11.2016
▁tsiviil	-11.2016
Meremaa	-11.2016
agentuuri	-11.2016
eerimisprotsess	-11.2016
geneetik	-11.2016
geomeetria	-11.2016
ipcar	-11.2016
minutilis	-11.2016
sarvikrai	-11.2016
sentimeetri	-11.2016
vantmehaanika	-11.2016
▁2011	-11.2016
▁Auschwitzi	-11.2016
▁Cornell	-11.2016
▁Daniel	-11.2016
▁Egiptus	-11.2016
▁Ettevõte	-11.2016
▁Geographic	-11.2016
▁Iisraeli	-11.2016
▁Jää	-11.2016
▁Kibera	-11.2016
▁Läbi	-11.2016
▁Lühi	-11.2016
▁Maailmapanga	-11.2016
▁Mässu	-11.2016
▁Napoleon	-11.2016
▁Philip	-11.2016
▁Rwanda	-11.2016
▁Sihtasutus	-11.2016
▁Twitter	-11.2016
▁Täie	-11.2016
▁Vabadus	-11.2016
▁Watson	-11.2016
▁alandliku	-11.2016
▁aminohappe	-11.2016
▁barjäär	-11.2016
▁brokkoli	-11.2016
▁dokument	-11.2016
▁dramaatili	-11.2016
▁eBay	-11.2016
▁ebaselge	-11.2016
▁ebaõnnestus	-11.2016
▁elegant	-11.2016
▁ettearvamatu	-11.2016
▁fossiilkütus	-11.2016
▁fütoplankton	-11.2016
▁füüsikaseadus	-11.2016
▁haljastus	-11.2016
▁homoseksuaalse	-11.2016
▁iisraellas	-11.2016
▁intervjueeri	-11.2016
▁ioonajam	-11.2016
▁keemiatehnoloog	-11.2016
▁kolmnurga	-11.2016
▁kromosoom	-11.2016
▁kvartali	-11.2016
▁küpsise	-11.2016
▁lämmata	-11.2016
▁lääts	-11.2016
▁lühiajali	-11.2016
▁massitranspordi	-11.2016
▁mäe	-11.2016
▁narko	-11.2016
▁nihuta	-11.2016
▁optimeeri	-11.2016
▁passiivse	-11.2016
▁pingutus	-11.2016
▁politoloog	-11.2016
▁printer	-11.2016
▁publitseeri	-11.2016
▁refleks	-11.2016
▁repertuaari	-11.2016
▁rohulible	-11.2016
▁sandlipuu	-11.2016
▁satelliidi	-11.2016
▁sigarett	-11.2016
▁skaneerimis	-11.2016
▁soengu	-11.2016
▁sõrmeotste	-11.2016
▁sünteesi	-11.2016
▁süsihappegaas	-11.2016
▁tekstuuri	-11.2016
▁termodünaamika	-11.2016
▁tumedanahali	-11.2016
▁tuunikala	-11.2016
▁tõlke	-11.2016
▁tüütu	-11.2016
▁vaatenurka	-11.2016
▁väsi	-11.2016
▁võnke	-11.2016
▁ägeda	-11.2016
▁ämblik	-11.2016
▁õiglus	-11.2016
▁õppetunni	-11.2016
▁üksikasjades	-11.2016
▁üledoosi	-11.2016
▁ülekandekiirus	-11.2016
▁üüratu	-11.2016
lümpia	-11.2016
▁Ebola	-11.2016
▁Jonathan	-11.2016
▁Puhas	-11.2016
▁Todmordeni	-11.2016
▁Witten	-11.2016
▁ambitsiooni	-11.2016
▁atolli	-11.2016
▁domineeri	-11.2016
▁erectus	-11.2016
▁esilekerki	-11.2016
▁hääbu	-11.2016
▁hõlju	-11.2016
▁imeilusa	-11.2016
▁indiviid	-11.2016
▁kärbu	-11.2016
▁laguun	-11.2016
▁lemmiknäi	-11.2016
▁majanduskasv	-11.2016
▁modern	-11.2016
▁pumpa	-11.2016
▁röövlooma	-11.2016
▁sosista	-11.2016
▁sümboliseeri	-11.2016
▁taimetoitla	-11.2016
▁toiduvalmistami	-11.2016
▁tooraine	-11.2016
▁triibu	-11.2016
▁ussikes	-11.2016
▁viljele	-11.2016
▁üleilmse	-11.2016
vaakumlambi	-11.2016
veoauto	-11.2016
▁Baricelli	-11.2016
▁MIT	-11.2016
▁Meenuta	-11.2016
▁Rohelise	-11.2016
▁kodaniku	-11.2016
▁komandoülema	-11.2016
▁kuhja	-11.2016
▁putuka	-11.2016
▁seltskond	-11.2016
▁soojend	-11.2016
▁sät	-11.2016
▁sõdi	-11.2016
▁südameläheda	-11.2016
▁taaselusta	-11.2016
▁toimetulek	-11.2016
▁vääv	-11.2016
▁äkili	-11.2016
▁ülal	-11.2016
▁Kogemus	-11.2016
▁isoleeri	-11.2016
▁järglaste	-11.2016
▁kopsu	-11.2016
▁Gogh	-11.2016
▁Harvard	-11.2016
▁Hüva	-11.2016
▁Janeiro	-11.2016
▁Kasvandus	-11.2016
▁Millal	-11.2016
▁algoritmilis	-11.2016
▁alumiiniumi	-11.2016
▁eetri	-11.2016
▁kinnisvara	-11.2016
▁saasteaine	-11.2016
laadset	-11.2016
▁2012	-11.2016
▁Nicol	-11.2016
▁garant	-11.2016
▁orkestr	-11.2016
▁pursk	-11.2016
▁situatsioon	-11.2016
▁vibreeri	-11.2016
▁hoolekand	-11.2016
▁huumorimeel	-11.2016
▁kohalolek	-11.2016
▁skeemi	-11.2016
▁toiduvaru	-11.2016
▁aktiveeru	-11.2016
▁koopa	-11.2016
▁koopamaalingu	-11.2016
▁suhtlus	-11.2016
▁lukuauk	-11.2016
▁elutruu	-11.2016
▁pikaajalis	-11.2016
▁sekstöötaja	-11.2016
▁soojuse	-11.2016
▁tuhni	-11.2016
▁lahing	-11.2016
▁naabruskon	-11.2016
▁laenu	-11.2016
▁mälumah	-11.2016
▁0,	-11.2016
▁klooni	-11.2016
▁komposti	-11.2016
▁automaat	-11.2016
▁erutu	-11.2016
▁hädavajalik	-11.2016
▁viirastu	-11.2016
▁üleliigse	-11.2016
kiirguse	-11.2016
▁kontori	-11.2016
▁päikesevalgus	-11.2016
▁südamehaigus	-11.2016
▁tihedus	-11.2016
vaenlas	-11.2016
▁tuuliku	-11.2016
▁konsult	-11.2016
▁pitsa	-11.2016
▁riistad	-11.2016
▁vaielda	-11.2016
▁joogive	-11.2016
fondi	-11.2016
▁aktsepteeri	-11.2016
▁kolju	-11.2016
▁konserv	-11.2016
▁asjakohase	-11.2016
▁Masters	-11.2016
▁Nelja	-11.2016
sõlm	-11.2016
▁vundamendi	-11.2016
▁kavandi	-11.2016
▁Põhili	-11.2016
▁Sisul	-11.2016
▁Avastasi	-11.2016
▁kaitsma	-11.2016
▁puhka	-11.2016
ward	-11.2016
▁Street	-11.2016
▁riskant	-11.2016
▁vastavus	-11.2017
▁sünge	-11.2017
▁märkmik	-11.2017
▁lennujaama	-11.2017
▁staatus	-11.2017
registri	-11.2017
▁homm	-11.2017
▁Ehita	-11.2017
▁sümptom	-11.2017
▁truu	-11.2017
▁Willi	-11.2017
▁lepingu	-11.2017
▁Valge	-11.2017
▁tomati	-11.2017
▁inimteadvus	-11.2017
▁vaeste	-11.2017
▁aeglusta	-11.2017
▁Alles	-11.2017
▁neutraalse	-11.2017
▁Bioloogi	-11.2017
▁täpikes	-11.2017
▁loomeprotsess	-11.2017
▁raadiojaama	-11.2017
korilaste	-11.2017
▁uhu	-11.2017
▁ebatõenäoli	-11.2017
▁värise	-11.2017
▁Feminis	-11.2017
riif	-11.2017
▁juustu	-11.2017
▁veebileh	-11.2017
▁juhuslikkuse	-11.2017
▁jäljenda	-11.2017
▁Green	-11.2017
oolsaare	-11.2017
▁nisu	-11.2017
▁ladus	-11.2017
▁tolmeldajate	-11.2017
▁kaldu	-11.2017
▁Videomängu	-11.2017
▁nägemiskeskus	-11.2017
▁tähendusrikas	-11.2017
▁Koko	-11.2017
▁hangi	-11.2017
▁vastuolus	-11.2017
▁kandidaa	-11.2017
▁läänemaailma	-11.2018
▁Davi	-11.2018
▁läbimur	-11.2018
▁tervikliku	-11.2018
▁tegelase	-11.2018
▁Juhus	-11.2018
▁kaadr	-11.2018
▁tilga	-11.2018
▁edene	-11.2018
jaoskon	-11.2018
▁moodsa	-11.2018
▁kutse	-11.2018
▁algoritmid	-11.2018
▁tegevuspai	-11.2018
▁Gua	-11.2018
▁juurdepääs	-11.2018
▁kino	-11.2019
pangandus	-11.2019
▁riiulitel	-11.2019
polii	-11.2019
▁Super	-11.2019
▁Viirus	-11.2019
▁lõpptulemus	-11.2019
▁jooksuta	-11.2019
▁seondu	-11.2019
▁prügila	-11.2019
lihtsusta	-11.2019
▁koomik	-11.202
▁arvutimängu	-11.202
▁mõtteviisi	-11.202
ntides	-11.202
▁1980	-11.202
▁innuka	-11.202
▁tähelepanuväär	-11.202
▁Martin	-11.202
▁kunstiprojekt	-11.202
▁katsu	-11.202
veitsi	-11.202
▁Austin	-11.202
▁ajaperioodi	-11.202
▁hiin	-11.202
▁bioloogiliste	-11.202
▁fail	-11.2021
▁Shaker	-11.2021
▁Surm	-11.2021
▁tütre	-11.2021
▁kõrgusel	-11.2021
▁193	-11.2021
▁inetu	-11.2021
▁teaduslike	-11.2021
▁Ven	-11.2021
▁ajukahjustus	-11.2021
▁eemaldu	-11.2021
▁ruudu	-11.2022
▁ajajärgu	-11.2022
▁190	-11.2022
viden	-11.2022
▁rand	-11.2022
▁turunduspõhi	-11.2022
▁Tung	-11.2022
▁2004	-11.2022
▁1900	-11.2023
▁näituse	-11.2023
▁hägus	-11.2023
▁kohanda	-11.2024
▁etendus	-11.2024
▁klientide	-11.2024
▁Internet	-11.2024
▁heida	-11.2024
▁jaotus	-11.2025
▁Annan	-11.2025
ogeen	-11.2025
▁ületarbimi	-11.2026
▁trep	-11.2026
▁digi	-11.2027
▁rahvusliku	-11.2027
ohkem	-11.2027
▁piirdu	-11.2029
▁32	-11.2029
▁Lugu	-11.2029
▁Mitme	-11.2029
▁elevil	-11.203
▁usundite	-11.203
▁iseseisvu	-11.203
▁bakterite	-11.203
▁viienda	-11.203
▁andmestik	-11.2031
▁infomajandus	-11.2031
▁vägistamist	-11.2032
▁tapjate	-11.2032
▁Igaühel	-11.2032
▁imetle	-11.2033
ssand	-11.2033
▁lõplik	-11.2034
▁aimata	-11.2034
pressi	-11.2034
▁paindumise	-11.2034
▁väärikus	-11.2035
▁vahendaja	-11.2035
▁süstlavahetus	-11.2035
▁Kla	-11.2036
▁juukse	-11.2036
▁pilli	-11.2037
▁juhataja	-11.2037
▁lõuendil	-11.2038
▁Cau	-11.2038
▁Mc	-11.2038
▁tormide	-11.2039
▁vabatahtlikku	-11.204
haava	-11.2042
▁algatus	-11.2043
▁valgustus	-11.2043
▁toidutootmis	-11.2043
▁laigu	-11.2045
▁teekonna	-11.2045
ör	-11.2046
ublik	-11.2046
▁kaubaliigi	-11.2046
▁teatri	-11.2047
evahel	-11.2047
▁sensori	-11.2047
▁hinnang	-11.2048
▁herilase	-11.205
▁vaimusta	-11.2052
▁Jose	-11.2052
▁Ope	-11.2052
mps	-11.2053
▁mastaa	-11.2054
kompleks	-11.2054
▁kiv	-11.2055
▁jaapanlas	-11.2055
▁akadeemilist	-11.2056
pito	-11.2057
▁intellekti	-11.2058
▁põrun	-11.2059
▁loomulik	-11.2059
▁neuroloogilis	-11.206
▁metsik	-11.2061
▁ökoloogilist	-11.2061
mardika	-11.2062
▁boraanid	-11.2062
▁raide	-11.2062
▁klassiruum	-11.2062
▁tundmatu	-11.2063
cia	-11.2063
▁nutt	-11.2064
▁viljakus	-11.2067
▁elamu	-11.2068
▁kaevanda	-11.2069
▁rahasta	-11.207
▁jõulise	-11.207
cha	-11.2073
sõnu	-11.2073
▁edasiminek	-11.2074
▁tõlgenda	-11.2074
▁Muut	-11.2074
veidrik	-11.2074
lthus	-11.2075
pimedus	-11.2075
▁akadeemilise	-11.2076
▁lühema	-11.2077
patsient	-11.2078
▁valj	-11.2078
▁lõike	-11.2081
▁kiud	-11.2081
taguse	-11.2082
▁Bru	-11.2083
lõp	-11.2083
▁füüsiku	-11.2084
▁sundis	-11.2085
häkk	-11.2086
sedeli	-11.2087
▁mustus	-11.2088
võetav	-11.2088
elli	-11.2088
▁turg	-11.2092
▁saksa	-11.2093
▁piinlikku	-11.2095
▁Singapuri	-11.2096
▁Sõltumat	-11.2096
▁intensiivse	-11.2098
sektori	-11.2098
beri	-11.2101
▁poliitilisel	-11.2102
▁preventsiooni	-11.2106
▁lill	-11.2109
▁psühholoogia	-11.2109
▁vahepealse	-11.211
▁tabu	-11.2112
▁küüru	-11.2112
▁mugavus	-11.2113
▁targem	-11.2115
▁narkomaanide	-11.2116
▁põde	-11.2118
▁AIDSi	-11.2121
▁kalle	-11.2124
poolkera	-11.2125
▁võetaks	-11.2125
▁transportid	-11.2127
keskse	-11.2129
▁vastutuse	-11.213
▁Leidsi	-11.213
▁olemasolevate	-11.2133
▁jahti	-11.2133
▁eelis	-11.2134
▁Dun	-11.2141
▁energiakasutus	-11.2143
▁koheldaks	-11.2145
▁mõistetava	-11.2145
▁seaduslik	-11.2146
▁kliimamuutuse	-11.2154
▁töökoht	-11.2154
▁anorgaanilise	-11.2156
▁tulista	-11.2156
tingim	-11.2157
▁varianti	-11.2158
▁perekonda	-11.216
▁mahuti	-11.216
▁oru	-11.2161
▁võtmise	-11.2166
▁ladvikurinde	-11.2168
▁lähisuh	-11.2168
▁toitmise	-11.2172
▁avastamise	-11.2173
▁külma	-11.2173
tion	-11.2183
▁pettuses	-11.2187
▁hooma	-11.219
▁ebatavalise	-11.2192
▁sooja	-11.2197
▁ajaloolise	-11.22
eetilise	-11.2203
▁kokk	-11.2204
▁pealkir	-11.2205
▁üldisel	-11.2209
▁ärimaailm	-11.2211
▁sirgjoone	-11.2216
varustus	-11.2217
▁Cal	-11.2224
imetlus	-11.2226
oolimat	-11.2231
▁aitamise	-11.2236
▁toimimise	-11.2239
▁Püü	-11.2248
▁üksik	-11.2249
▁lahkuse	-11.2251
▁instinktid	-11.2257
▁psühholoogilis	-11.2257
mahuka	-11.226
▁seksuaalse	-11.226
▁inimlikkus	-11.2269
▁koodis	-11.2276
▁Oo	-11.2282
▁telg	-11.2282
Korea	-11.2283
▁varajaste	-11.2289
▁läbikukkumise	-11.2291
own	-11.2294
▁ins	-11.2304
▁fantastilise	-11.2304
▁ohjelda	-11.2306
▁Gen	-11.2308
▁suuteli	-11.231
▁kabineti	-11.2316
▁varjat	-11.2326
väljendus	-11.2326
▁esteetilise	-11.2327
▁vananemi	-11.2328
▁kirjanduses	-11.2331
▁konverentsi	-11.2331
▁arusaamade	-11.2342
▁tõuke	-11.2343
kahjustus	-11.2359
▁segase	-11.2362
ideed	-11.2363
▁Leia	-11.2369
▁Bangladeshi	-11.2372
▁põgenike	-11.2382
▁sõnasta	-11.2383
▁mõtesta	-11.2385
▁kinnitu	-11.2387
neelata	-11.2395
▁teadvuses	-11.2395
omandi	-11.2396
▁orgasmi	-11.2403
▁teadlik	-11.2412
▁Beachil	-11.2412
▁tooli	-11.2428
▁aastakümnete	-11.2433
▁partnerite	-11.2433
▁rep	-11.2434
▁valku	-11.2435
▁asutasi	-11.2445
▁puutumat	-11.2448
▁geomeetrilis	-11.2452
▁motivatsiooni	-11.2456
▁meetod	-11.2457
▁Teadus	-11.2464
▁eelistuste	-11.2464
▁lõigata	-11.2485
▁nimekir	-11.2486
▁investeerimis	-11.2487
uber	-11.2494
▁imeliku	-11.2501
▁valitsuste	-11.2503
▁kasutajaliidese	-11.2504
▁mugav	-11.2523
▁Br	-11.2525
▁Eisenhoweri	-11.2526
▁tõhusama	-11.2531
▁saavutuste	-11.2532
▁Cli	-11.2536
▁kommentaari	-11.2544
▁värin	-11.256
iff	-11.2562
▁printsiipi	-11.2562
▁lihtsama	-11.2571
▁põhimõtete	-11.2571
▁kaugete	-11.259
▁Pär	-11.2622
▁ohtliku	-11.2629
▁ostet	-11.2632
▁tehislikk	-11.2632
▁Küsisi	-11.2637
▁bussi	-11.2659
▁evolutsioonilis	-11.2659
▁alatoitumuse	-11.2664
▁teoreetilise	-11.2668
▁rikkalik	-11.269
▁kestva	-11.2717
▁potentsiaalse	-11.2718
▁esindaja	-11.2718
▁sümmeetri	-11.2743
▁valk	-11.2756
▁õhuta	-11.2758
▁söömise	-11.2763
▁lahkunu	-11.278
▁tuleneva	-11.2818
▁suhtlemis	-11.2823
▁saged	-11.2836
▁rik	-11.2837
▁tabaja	-11.285
▁kalori	-11.2859
▁korralikk	-11.2861
▁omi	-11.2862
▁külalis	-11.2863
oopi	-11.2865
▁avalikul	-11.2885
liig	-11.2901
pideva	-11.2908
▁naeruväärse	-11.2928
tudengi	-11.2941
▁toetaja	-11.2951
oolis	-11.2971
▁üleüldise	-11.2974
▁valemi	-11.2995
▁vihkamis	-11.2999
▁aiandus	-11.3012
▁klassikalise	-11.3025
üüri	-11.3027
▁seisu	-11.3057
laborite	-11.3074
▁nutm	-11.3086
▁Praeguse	-11.3092
▁planeeti	-11.3117
osakonna	-11.3117
▁teo	-11.312
▁töötu	-11.3129
▁katseta	-11.314
lumisel	-11.3145
▁Lei	-11.3166
vastasel	-11.3182
▁gruppide	-11.3188
▁lahkumis	-11.322
matute	-11.3326
▁otsesema	-11.3359
oktor	-11.3365
ribal	-11.3388
▁osapool	-11.3418
▁tegel	-11.3437
▁ravimi	-11.3441
sammul	-11.3454
▁valede	-11.3476
tarku	-11.3479
▁Lask	-11.3502
teemali	-11.3511
▁surmade	-11.3549
▁õpetamise	-11.3572
▁saatmis	-11.3602
▁vend	-11.3602
▁kõverdumi	-11.3613
▁tegude	-11.3634
▁kaasla	-11.3638
teadla	-11.3648
▁valdkondade	-11.3684
▁seente	-11.3686
▁aegla	-11.3712
▁transistor	-11.372
pööret	-11.3724
▁riba	-11.3741
▁tõhusam	-11.378
▁töölise	-11.3784
▁esmal	-11.389
▁nägemi	-11.3903
▁hoolimatu	-11.3939
▁paeluv	-11.3949
valv	-11.3981
▁väärtusliku	-11.4019
▁romanti	-11.4036
▁tapet	-11.4047
▁Saaks	-11.4051
tööliste	-11.4061
aianduse	-11.4115
▁199	-11.4191
▁õppija	-11.4208
▁lok	-11.4238
saadet	-11.4259
agara	-11.4279
▁külmuta	-11.4289
▁kalor	-11.429
▁värvilis	-11.4293
avaldus	-11.4317
AS	-11.4339
▁õppimis	-11.4375
▁leiduva	-11.441
▁teostami	-11.4429
kool	-11.4469
▁sihtmärk	-11.4476
ach	-11.4488
▁portree	-11.4503
▁alatoitumus	-11.4512
ford	-11.4536
▁teineteis	-11.4564
▁kartsi	-11.458
▁looming	-11.4614
▁turva	-11.4638
▁spetsiifilis	-11.464
tulemus	-11.4647
▁Ülikooli	-11.4647
▁lehma	-11.467
▁radikaal	-11.4671
▁funktsioon	-11.4688
osakes	-11.47
▁normaal	-11.4716
oloogia	-11.4733
▁hing	-11.475
▁naabr	-11.4784
▁tabel	-11.4791
▁poodi	-11.4796
vormi	-11.4797
▁Laps	-11.4799
inimeste	-11.4816
▁Beachi	-11.4824
sarnaste	-11.4827
▁asteroid	-11.4837
▁kogema	-11.4841
▁põgenik	-11.4861
▁Bangladesh	-11.4875
asutaja	-11.4884
▁tõuk	-11.4912
stein	-11.4912
▁esteetili	-11.4915
▁küür	-11.4932
▁võnkumi	-11.4944
▁vahukomm	-11.4965
▁Facebook	-11.4968
urek	-11.4982
põhise	-11.4987
nurgal	-11.4994
▁slaid	-11.501
▁vaik	-11.501
▁Washington	-11.5015
▁tööjõu	-11.5017
▁Inglismaa	-11.5031
▁ülemaailm	-11.5038
ehnoloogia	-11.5066
dollarili	-11.5066
▁huv	-11.5073
▁piirkonn	-11.5076
▁kriitili	-11.5079
▁ökosüsteem	-11.509
▁ajukoor	-11.5091
märkus	-11.5095
▁platvorm	-11.51
▁Bro	-11.5101
▁nädal	-11.5103
toote	-11.5106
Man	-11.5107
parve	-11.5108
Hispaania	-11.511
rohke	-11.511
rakkude	-11.5112
vajalik	-11.5112
tolmu	-11.5115
partner	-11.5115
▁õnnelikum	-11.5116
dimensiooni	-11.5117
CD	-11.5117
Inglismaal	-11.5117
kaamera	-11.5117
võrrandi	-11.5118
rühm	-11.5118
varju	-11.5119
lindude	-11.512
ühiskond	-11.5121
märgi	-11.5123
▁aj	-11.5125
toodete	-11.5125
vägivald	-11.5126
mõõt	-11.5127
suuruse	-11.5127
ühiskonna	-11.5127
vajadus	-11.5129
sarnase	-11.513
kirjandus	-11.513
võimu	-11.5132
millest	-11.5133
▁sõnnik	-11.5133
olekut	-11.5134
rahu	-11.5135
poeg	-11.5139
mulli	-11.5142
haara	-11.5143
uudis	-11.5145
näha	-11.5145
kivi	-11.515
ardiini	-11.5154
▁külm	-11.5167
otüüp	-11.5171
ungil	-11.5181
▁kohelda	-11.5185
tootmi	-11.5186
▁reaal	-11.5188
▁lapsevanem	-11.5191
▁küberkiusami	-11.5197
bioloogias	-11.52
▁virtuaal	-11.5201
▁õigla	-11.5202
▁avatar	-11.5203
▁veebi	-11.5204
▁sünd	-11.5213
osariikides	-11.5221
▁Jaapan	-11.5223
▁super	-11.5227
▁ümbritsev	-11.5229
ühin	-11.5232
▁tavapära	-11.5234
▁kolmandik	-11.5234
õnumite	-11.5234
▁päike	-11.5235
▁maksim	-11.5247
▁Lõp	-11.5254
▁katastroof	-11.5255
▁investeering	-11.5257
▁lühem	-11.5265
misoskus	-11.5265
▁pinguta	-11.5266
▁toiduvalik	-11.5268
apidaja	-11.5273
▁möö	-11.5285
oloogilise	-11.529
gers	-11.5295
platsi	-11.5297
▁kaubalii	-11.5307
sensor	-11.5308
pääs	-11.5311
temporaal	-11.5315
ärg	-11.5315
detektor	-11.5316
kaaluk	-11.5321
▁filosoof	-11.5321
▁ausalt	-11.5323
mõõd	-11.533
▁publik	-11.5331
usuuringu	-11.5332
langus	-11.5334
töötlus	-11.5335
▁darvinis	-11.5336
▁büro	-11.5337
▁mürk	-11.5338
▁klient	-11.5338
▁Intern	-11.5339
positiiv	-11.5339
ick	-11.534
ettekuju	-11.5341
▁audit	-11.5341
põlvkond	-11.5343
▁nõrg	-11.5343
▁Shake	-11.5343
ülita	-11.5344
ütre	-11.5344
printi	-11.5344
iikides	-11.5345
▁parfümeer	-11.5345
uleviku	-11.5346
▁Usun	-11.5346
mõõtmelise	-11.5347
ristlik	-11.5347
▁Sün	-11.5347
värav	-11.5348
▁tolmelda	-11.5348
▁Disain	-11.5348
ahvastiku	-11.5349
okolaadi	-11.5349
arfüüm	-11.5349
▁turundus	-11.5349
▁põrgu	-11.5349
▁subjekti	-11.5349
▁kuriteg	-11.5349
▁läbipaist	-11.5349
▁kolled	-11.5349
äänemaailm	-11.5349
▁KIPP	-11.5349
▁ebakindla	-11.5349
▁infrapuna	-11.5349
▁küborgi	-11.5349
▁lühida	-11.5349
▁maguskartul	-11.5349
▁opereeri	-11.5349
▁spinatit	-11.5349
ANI	-11.5349
Itaalias	-11.5349
Virginia	-11.5349
abbaleeni	-11.5349
askurät	-11.5349
australopiteekus	-11.5349
graanuli	-11.5349
kalkulatsiooni	-11.5349
keskkonnamürkide	-11.5349
liblika	-11.5349
läbikäiguseaduse	-11.5349
monteeri	-11.5349
mägede	-11.5349
relatiivsus	-11.5349
rivaali	-11.5349
räpi	-11.5349
sponsor	-11.5349
tõrje	-11.5349
ässmuusik	-11.5349
▁Arizona	-11.5349
▁Arvuta	-11.5349
▁BPA	-11.5349
▁Barbara	-11.5349
▁Beyon	-11.5349
▁Biomimikri	-11.5349
▁Chicago	-11.5349
▁Cooper	-11.5349
▁Darfur	-11.5349
▁Etioopia	-11.5349
▁Floridas	-11.5349
▁Fransisco	-11.5349
▁GPS	-11.5349
▁Grounds	-11.5349
▁Hanifaru	-11.5349
▁Hawaii	-11.5349
▁Hawk	-11.5349
▁Hollandis	-11.5349
▁Hollywood	-11.5349
▁Hurmav	-11.5349
▁Häbi	-11.5349
▁Kirjuta	-11.5349
▁Kolumbias	-11.5349
▁Kurzweil	-11.5349
▁Kyoto	-11.5349
▁Lizzi	-11.5349
▁Microsoft	-11.5349
▁Mosambiigi	-11.5349
▁Nägemi	-11.5349
▁Objekt	-11.5349
▁PVC	-11.5349
▁Pakistani	-11.5349
▁Plastmass	-11.5349
▁Ratsionaal	-11.5349
▁Rosalie	-11.5349
▁Rääki	-11.5349
▁Sarajevo	-11.5349
▁Spock	-11.5349
▁Süsteem	-11.5349
▁Vicodin	-11.5349
▁Visuaalse	-11.5349
▁Väikse	-11.5349
▁aastatepikkus	-11.5349
▁aatompommi	-11.5349
▁abstraktse	-11.5349
▁absurdse	-11.5349
▁ahistamise	-11.5349
▁ajalehtede	-11.5349
▁antibiootikumi	-11.5349
▁assimileeri	-11.5349
▁astronau	-11.5349
▁basseini	-11.5349
▁biifstee	-11.5349
▁bulgaarla	-11.5349
▁ebaseaduslik	-11.5349
▁ebaõnnestunu	-11.5349
▁eetika	-11.5349
▁elektroonika	-11.5349
▁elusolendi	-11.5349
▁eriarvamus	-11.5349
▁esivanema	-11.5349
▁fragmendi	-11.5349
▁helikopteri	-11.5349
▁heroiin	-11.5349
▁homoseksuaalsus	-11.5349
▁hoolealuse	-11.5349
▁hõbe	-11.5349
▁hõiva	-11.5349
▁illusioon	-11.5349
▁illustreeri	-11.5349
▁immuunsus	-11.5349
▁infrastruktuur	-11.5349
▁inimgrupp	-11.5349
▁inkubaator	-11.5349
▁innovaatili	-11.5349
▁irratsionaal	-11.5349
▁jalajälje	-11.5349
▁järjekindl	-11.5349
▁kaaperda	-11.5349
▁kalakasvandus	-11.5349
▁kannusta	-11.5349
▁kompetents	-11.5349
▁kritiseerim	-11.5349
▁külgetõmbejõud	-11.5349
▁laboratooriumi	-11.5349
▁laiaulatuslik	-11.5349
▁laohoone	-11.5349
▁lokavoor	-11.5349
▁malaaria	-11.5349
▁materiaalse	-11.5349
▁mikrolaineahjus	-11.5349
▁millenniumi	-11.5349
▁miniatuur	-11.5349
▁mitteturundus	-11.5349
▁moslemi	-11.5349
▁murettekitav	-11.5349
▁mässu	-11.5349
▁mõrtsuka	-11.5349
▁nakkushaiguste	-11.5349
▁natsism	-11.5349
▁neutroni	-11.5349
▁näljahäda	-11.5349
▁nõiaring	-11.5349
▁penitsilliin	-11.5349
▁perfektse	-11.5349
▁plastikut	-11.5349
▁privileeg	-11.5349
▁problemaatili	-11.5349
▁propageeri	-11.5349
▁protesteeri	-11.5349
▁pruun	-11.5349
▁pöördepunkt	-11.5349
▁raudtee	-11.5349
▁ringhääling	-11.5349
▁rohttaimed	-11.5349
▁räpa	-11.5349
▁röntgen	-11.5349
▁seadusandluse	-11.5349
▁serotoniin	-11.5349
▁sihtmärgi	-11.5349
▁skaneeringu	-11.5349
▁skulptuur	-11.5349
▁sperma	-11.5349
▁stressi	-11.5349
▁supermarket	-11.5349
▁suurejooneli	-11.5349
▁säde	-11.5349
▁säherdu	-11.5349
▁tajuelamus	-11.5349
▁taksojuh	-11.5349
▁tibatilluke	-11.5349
▁trajektoor	-11.5349
▁troopiliste	-11.5349
▁tsitaadi	-11.5349
▁tsunami	-11.5349
▁täide	-11.5349
▁tõrva	-11.5349
▁ultraviolet	-11.5349
▁umbkaud	-11.5349
▁vaatepilt	-11.5349
▁valikuvariant	-11.5349
▁varbaküüne	-11.5349
▁vasakpool	-11.5349
▁vastuvõetamatu	-11.5349
▁vihje	-11.5349
▁viltpliiatsi	-11.5349
▁vurise	-11.5349
▁zooplankton	-11.5349
▁Ürita	-11.5349
▁ülejääk	-11.5349
onditsioneeri	-11.5349
spetsialisti	-11.5349
troopilise	-11.5349
ähvardus	-11.5349
▁Black	-11.5349
▁Moskva	-11.5349
▁Päästa	-11.5349
▁Religioo	-11.5349
▁Toyota	-11.5349
▁Välja	-11.5349
▁advokaat	-11.5349
▁algupära	-11.5349
▁biootili	-11.5349
▁dominant	-11.5349
▁ebaolulise	-11.5349
▁efektiivsus	-11.5349
▁ettevõtja	-11.5349
▁golfi	-11.5349
▁grammati	-11.5349
▁hobusesaba	-11.5349
▁hoogsa	-11.5349
▁hõimu	-11.5349
▁interaktsioon	-11.5349
▁juhthoo	-11.5349
▁juhtmevaba	-11.5349
▁jäseme	-11.5349
▁kehtesta	-11.5349
▁kirjutis	-11.5349
▁kitsas	-11.5349
▁kiusatus	-11.5349
▁kristlus	-11.5349
▁kõrgkunst	-11.5349
▁metoodika	-11.5349
▁müksa	-11.5349
▁pagenda	-11.5349
▁palestiinlas	-11.5349
▁parapähkli	-11.5349
▁pidusöö	-11.5349
▁proteiin	-11.5349
▁provints	-11.5349
▁redigeeri	-11.5349
▁rütmi	-11.5349
▁sarnasus	-11.5349
▁soodusta	-11.5349
▁sünergia	-11.5349
▁tabletti	-11.5349
▁tantsiskle	-11.5349
▁tegevjuh	-11.5349
▁terror	-11.5349
▁toiduraiskamis	-11.5349
▁tõlgit	-11.5349
▁unikaal	-11.5349
lüüsi	-11.5349
▁1650	-11.5349
▁Kiire	-11.5349
▁Somaali	-11.5349
▁UNI	-11.5349
▁Valitsus	-11.5349
▁banaani	-11.5349
▁esteetika	-11.5349
▁homse	-11.5349
▁industrialiseer	-11.5349
▁istandus	-11.5349
▁järjel	-11.5349
▁kategooria	-11.5349
▁külmutus	-11.5349
▁lumepall	-11.5349
▁pestitsiid	-11.5349
▁pikenda	-11.5349
▁preestri	-11.5349
▁põhjapanev	-11.5349
▁robotseade	-11.5349
▁seltskonna	-11.5349
▁supermassiiv	-11.5349
▁tuumarelva	-11.5349
▁väet	-11.5349
▁üliõpilas	-11.5349
mosaii	-11.5349
▁Molekulid	-11.5349
▁erutav	-11.5349
▁metroo	-11.5349
▁rõiva	-11.5349
▁vaevu	-11.5349
▁halvene	-11.5349
▁hetero	-11.5349
▁inimajaloo	-11.5349
▁jäädvust	-11.5349
▁kaameli	-11.5349
▁kasutegur	-11.5349
▁lobise	-11.5349
▁masinavär	-11.5349
▁piiblis	-11.5349
▁suvalisel	-11.5349
▁tööandja	-11.5349
▁vasakukäelis	-11.5349
▁hammas	-11.5349
▁juurvilj	-11.5349
▁produktiivs	-11.5349
▁pudelikor	-11.5349
▁väljundi	-11.5349
▁alateadvuse	-11.5349
▁animatsioon	-11.5349
▁heiduta	-11.5349
▁loputa	-11.5349
▁nakkav	-11.5349
▁äärelinna	-11.5349
kildude	-11.5349
turismi	-11.5349
▁hambaarst	-11.5349
▁huul	-11.5349
▁häälepaela	-11.5349
▁timmi	-11.5349
▁tobeda	-11.5349
▁tross	-11.5349
▁Auto	-11.5349
▁aedikut	-11.5349
▁marssi	-11.5349
▁nihke	-11.5349
▁ninja	-11.5349
▁piiramatu	-11.5349
▁põrke	-11.5349
▁vihja	-11.5349
▁konservatiivide	-11.5349
▁Riigi	-11.5349
▁Saksamaa	-11.5349
▁kiirabi	-11.5349
▁koostisaine	-11.5349
▁motoorse	-11.5349
tahvli	-11.5349
▁virna	-11.5349
sündmuste	-11.535
▁Jeesus	-11.535
▁ajutormi	-11.535
▁kariloom	-11.535
▁lõhku	-11.535
▁nuputad	-11.535
puhkuse	-11.535
▁Piisa	-11.535
▁Keemiku	-11.535
▁koonus	-11.535
▁segune	-11.535
2013	-11.535
▁aedikus	-11.535
▁kindlustu	-11.535
▁Prints	-11.535
▁kokkuleppe	-11.535
▁põrgumasina	-11.535
pikendus	-11.535
sühhopaadi	-11.535
▁Sahara	-11.535
▁flamingo	-11.535
▁isikustamis	-11.535
▁kapitaliseeri	-11.535
▁küber	-11.535
▁külva	-11.535
▁polümeer	-11.535
▁rahvakoosoleku	-11.535
▁tõug	-11.535
▁äravisat	-11.535
▁tempo	-11.535
▁Armast	-11.535
▁klikki	-11.535
▁koputa	-11.535
▁nakkus	-11.535
▁pesitseva	-11.535
▁äratundmi	-11.535
taksonoom	-11.535
▁purse	-11.535
spordi	-11.535
▁kuritegevus	-11.535
▁kuumuta	-11.535
▁niisutus	-11.535
▁Uuringu	-11.535
▁purj	-11.535
▁valluta	-11.535
▁vigastuse	-11.535
▁võrdluse	-11.535
▁ärimudeli	-11.535
▁hobi	-11.535
okolaadifirma	-11.535
▁lähistel	-11.535
▁kommertsseksi	-11.535
▁mitmemõttelisus	-11.535
▁Venemaa	-11.535
▁Tõsiselt	-11.535
▁aluspinna	-11.535
▁ahta	-11.535
▁imiku	-11.535
▁nõbu	-11.535
▁antropoloogia	-11.535
▁söövita	-11.535
▁Koraan	-11.535
▁autojagamis	-11.535
▁etanool	-11.535
▁piiramise	-11.535
▁ulata	-11.535
▁kannatliku	-11.535
▁Ford	-11.535
▁ehituskivi	-11.535
▁põruta	-11.535
▁seksuaalkäitumi	-11.535
▁doktori	-11.535
▁kahaneva	-11.535
▁rasedus	-11.535
raham	-11.535
eeringut	-11.535
▁kodara	-11.535
▁Allah	-11.535
▁nihe	-11.535
▁Söödava	-11.535
ljel	-11.535
▁erasektori	-11.535
▁tühimik	-11.535
▁kosmosejaama	-11.535
▁elevandi	-11.535
▁maksimaalse	-11.535
▁vestlesi	-11.535
▁otseülekan	-11.535
staari	-11.535
valdkond	-11.535
▁logiraamat	-11.535
vahetuskaubandus	-11.535
▁lindista	-11.535
▁Keha	-11.535
▁Singer	-11.535
▁majaomaniku	-11.535
▁kamp	-11.535
OL	-11.535
▁stabiilsuse	-11.535
▁majandusteadla	-11.535
▁allvee	-11.535
▁tänavu	-11.535
▁erksa	-11.535
▁kodulehel	-11.535
▁varieeruv	-11.535
komponen	-11.535
▁kuldreegli	-11.535
▁Luth	-11.5351
▁surmanuhtlus	-11.5351
▁käsklus	-11.5351
▁ühendteooria	-11.5351
töökoja	-11.5351
▁Kongressi	-11.5351
rect	-11.5351
▁uurimustööd	-11.5351
▁moto	-11.5351
▁filosoofia	-11.5351
▁haavatav	-11.5351
▁kaasajasta	-11.5351
▁septembri	-11.5351
▁hipi	-11.5351
▁rohelus	-11.5351
▁psühhootili	-11.5351
kstremism	-11.5351
▁sipelgalii	-11.5351
▁tragöödia	-11.5351
▁välimus	-11.5351
▁ripu	-11.5351
▁paigus	-11.5351
▁mobiilse	-11.5351
▁teadusharu	-11.5351
▁peremees	-11.5351
psast	-11.5351
▁jaotumis	-11.5351
▁tagumise	-11.5351
▁Susan	-11.5351
▁Johnson	-11.5351
▁noodi	-11.5351
▁loomaliha	-11.5351
▁kuumus	-11.5351
▁nõuanne	-11.5351
▁kakao	-11.5351
▁Arsti	-11.5352
▁linki	-11.5352
▁naase	-11.5352
▁harta	-11.5352
▁vanaproua	-11.5352
▁elementide	-11.5352
▁tõendusmaterjal	-11.5352
identiteeti	-11.5352
▁neljakümne	-11.5352
▁juurte	-11.5352
▁kolmemõõtmelise	-11.5352
kõnnak	-11.5352
▁ürdi	-11.5352
▁salvestus	-11.5352
▁Sead	-11.5352
okumendi	-11.5352
▁Sündi	-11.5352
▁Ric	-11.5352
▁kroonik	-11.5352
▁toiduabi	-11.5353
▁liigtarbimi	-11.5353
▁stiili	-11.5353
▁eheda	-11.5353
▁seiklus	-11.5353
▁kunstivorm	-11.5353
▁197	-11.5353
▁looderanniku	-11.5353
aralleel	-11.5353
▁Georgia	-11.5353
▁Kollase	-11.5353
▁üksilda	-11.5353
▁hariduskultuuri	-11.5353
▁Puudu	-11.5353
▁mobiili	-11.5353
▁kunstitar	-11.5353
▁ööpäeva	-11.5353
▁Tekkis	-11.5353
▁Avalik	-11.5353
▁koolitoidu	-11.5353
▁kõrveta	-11.5353
▁1930	-11.5353
▁Usundi	-11.5353
▁õla	-11.5353
▁puista	-11.5353
▁trüki	-11.5353
▁omailma	-11.5354
▁hüppe	-11.5354
väljavaate	-11.5354
▁jurist	-11.5354
▁tahke	-11.5354
▁köök	-11.5354
▁universaalse	-11.5354
▁pluss	-11.5354
▁kristlik	-11.5354
▁PET	-11.5354
ronite	-11.5355
▁eelmiste	-11.5355
▁Laure	-11.5355
▁seik	-11.5355
▁karista	-11.5355
▁iludus	-11.5355
▁parfümeeria	-11.5355
▁sõiduta	-11.5355
▁moon	-11.5355
▁tuime	-11.5355
▁doktriinide	-11.5355
▁töökaaslaste	-11.5355
▁membraanide	-11.5355
▁virtuaalmaailm	-11.5355
fli	-11.5355
▁II	-11.5355
opper	-11.5355
▁Atla	-11.5355
▁selgitust	-11.5355
▁hirmsa	-11.5356
▁spontaan	-11.5356
rinde	-11.5356
▁partnerlus	-11.5356
▁seisukohtade	-11.5356
▁depressioon	-11.5356
▁looduskaitse	-11.5356
▁teadaoleva	-11.5356
▁maatüki	-11.5356
▁kompoti	-11.5356
ander	-11.5356
▁kõhtu	-11.5356
▁populaarsem	-11.5356
▁heategevus	-11.5357
▁käsitöö	-11.5357
okkupuutepunkt	-11.5357
▁andeka	-11.5357
▁Kuld	-11.5357
▁ajahetke	-11.5357
▁irooni	-11.5357
▁peremehe	-11.5357
▁inimkeel	-11.5358
▁tüüri	-11.5358
tamiin	-11.5358
▁ettekujuta	-11.5358
▁analüütilise	-11.5358
▁ametliku	-11.5358
▁Araabia	-11.5359
▁küünla	-11.5359
▁nooruses	-11.5359
▁sendi	-11.5359
▁38	-11.536
▁31	-11.536
▁lameda	-11.536
▁elujõul	-11.536
▁kuusnur	-11.536
▁millioni	-11.536
▁Liha	-11.536
▁Hong	-11.536
▁menuka	-11.536
toodangus	-11.5361
▁koleda	-11.5361
▁lõuendit	-11.5361
▁piiritle	-11.5361
▁noa	-11.5361
▁Maria	-11.5361
▁rahulol	-11.5361
▁kirgliku	-11.5362
▁tühjenda	-11.5362
▁nüüdisaegse	-11.5362
▁pöördumatu	-11.5362
▁oote	-11.5363
▁darvinistlik	-11.5363
▁termin	-11.5365
▁niisugust	-11.5365
▁hämm	-11.5365
ropo	-11.5366
▁külmutamise	-11.5366
acit	-11.5366
▁sarv	-11.5366
▁esteetiliste	-11.5367
▁elev	-11.5367
▁inform	-11.5367
▁pöörise	-11.5367
▁üürik	-11.5367
▁koristajatel	-11.5367
▁kiirenda	-11.5368
▁trükki	-11.5368
▁erimunakaksiku	-11.5368
ootide	-11.5368
▁ettepaneku	-11.5368
tuumapomm	-11.5369
cker	-11.5369
▁laba	-11.537
karika	-11.537
▁häkkim	-11.537
▁rootslastel	-11.537
▁kohtumisel	-11.537
▁alustala	-11.537
▁põletava	-11.5371
bürood	-11.5371
▁õue	-11.5371
▁paisat	-11.5371
▁essee	-11.5371
▁keskea	-11.5372
▁haruldaste	-11.5373
▁jahmata	-11.5373
▁kahekordse	-11.5373
▁juuri	-11.5373
▁kassett	-11.5373
▁tulipunkt	-11.5373
katse	-11.5373
magneetilise	-11.5374
▁magamist	-11.5374
▁Surnu	-11.5374
▁kuldse	-11.5374
▁hoolika	-11.5374
▁hariliku	-11.5375
▁laena	-11.5376
tervishoiunohiku	-11.5376
▁vesinik	-11.5377
▁nurj	-11.5377
chi	-11.5377
▁gl	-11.5378
landamiskultuuri	-11.5378
▁spektroskoop	-11.5378
proua	-11.5379
▁nukke	-11.5379
▁teadusliku	-11.538
▁viirusetase	-11.5381
▁iP	-11.5381
▁Luge	-11.5382
▁kätevärin	-11.5382
ervi	-11.5382
▁kangas	-11.5382
omeedi	-11.5382
▁võimenda	-11.5383
▁detektori	-11.5383
▁nuku	-11.5383
▁niiske	-11.5383
▁tippaeg	-11.5383
▁arutlus	-11.5383
▁seitsmekümnenda	-11.5384
▁temporaals	-11.5384
rman	-11.5385
kümnendate	-11.5385
▁Fin	-11.5386
▁tootlikkus	-11.5386
okkupõrge	-11.5387
Nature	-11.5387
▁paarisuh	-11.5387
▁Toit	-11.5388
▁mäh	-11.5388
▁Viimaste	-11.5389
▁okste	-11.5389
▁toidusüsteemi	-11.5389
▁pöörleva	-11.5389
▁lähtuval	-11.5391
▁töölaagr	-11.5391
▁Astu	-11.5391
▁liimi	-11.5392
▁laulmas	-11.5392
▁täpsus	-11.5392
▁veendumus	-11.5392
▁UK	-11.5393
ahvatu	-11.5393
▁hoonestam	-11.5394
▁kahjuliku	-11.5394
▁aedvilj	-11.5394
▁nü	-11.5394
pere	-11.5394
▁hukku	-11.5394
▁tö	-11.5394
▁väljud	-11.5394
▁pagas	-11.5394
▁tahtmatu	-11.5395
▁varases	-11.5395
ultuur	-11.5395
▁soetam	-11.5396
▁eelajaloolises	-11.5396
▁iidse	-11.5397
petami	-11.5397
▁tavatu	-11.5399
▁Inte	-11.54
▁küüni	-11.54
▁papi	-11.5403
ngar	-11.5405
▁Vähe	-11.5405
▁pakilise	-11.5406
▁ebaefektiivse	-11.5407
▁robootilis	-11.5408
▁kru	-11.5408
orden	-11.5409
▁paranemi	-11.5409
▁inimliku	-11.541
▁nipp	-11.541
▁tahtliku	-11.541
▁kartell	-11.541
▁lahustu	-11.5412
entsiaal	-11.5413
▁Baja	-11.5416
▁omavalitsus	-11.5421
▁tsemen	-11.5423
▁aimuste	-11.5423
▁arutam	-11.5425
▁logaritmilisel	-11.5425
▁arengueesmärk	-11.5425
▁hoov	-11.5426
▁bar	-11.5426
▁Indiaan	-11.5426
▁esmatäht	-11.5428
▁epi	-11.543
▁Joo	-11.5431
▁rut	-11.5434
relv	-11.5434
roovi	-11.5436
punaste	-11.5437
▁põleva	-11.5437
▁käsiraamatu	-11.5439
▁saastava	-11.544
▁sobitu	-11.544
▁karjamaa	-11.544
▁vesti	-11.5441
elektromagnetjõu	-11.5445
▁elamis	-11.5447
tarkade	-11.5447
▁tillukese	-11.545
kõlb	-11.5452
programmeerimis	-11.5452
terites	-11.5453
rikkal	-11.5455
▁seeria	-11.5458
▁särava	-11.546
▁hullemat	-11.5461
atch	-11.5461
▁fotograaf	-11.5463
▁päeviku	-11.5465
hävitus	-11.5468
▁jõujaam	-11.5474
▁maavärin	-11.5475
▁superstringi	-11.5476
▁Cro	-11.5482
opsi	-11.5491
▁palliatiivse	-11.5492
▁õiglase	-11.5499
▁tugined	-11.5502
iandus	-11.5502
▁küberkiusamise	-11.5504
▁siira	-11.5508
▁märkimisväärse	-11.5511
sõõri	-11.5515
▁lineaarsel	-11.5518
▁vabanemi	-11.5523
kaaslaste	-11.5523
▁surnukeh	-11.5524
▁kurvas	-11.5525
▁Kokk	-11.5527
▁käive	-11.5531
▁turvalise	-11.5531
▁rikkaim	-11.5535
▁eeldatava	-11.5548
interaktiivse	-11.5549
▁käsku	-11.5553
▁mittetulundus	-11.5555
ET	-11.5562
▁kõrgtehnoloogi	-11.5565
sissetung	-11.5568
▁vaeseima	-11.5569
▁toidupo	-11.5569
▁arengumaailm	-11.5572
▁Kellel	-11.5581
▁sisend	-11.5584
▁koolikaaslas	-11.5584
▁laskud	-11.5595
▁lapselaps	-11.5602
kanne	-11.5614
väljak	-11.5619
▁viljatu	-11.5619
▁ettekirjutus	-11.5629
▁kaastundliku	-11.5629
▁soolise	-11.5638
▁ekstr	-11.5641
▁leegi	-11.5668
▁vanainimes	-11.5672
iljard	-11.5674
eetili	-11.5675
▁tavapärase	-11.5693
▁rentid	-11.5715
▁saabuva	-11.5715
tähenduslikkus	-11.5718
▁värk	-11.5722
▁vägev	-11.5729
▁aruteludel	-11.573
lakat	-11.5741
arsruu	-11.5753
peenra	-11.5754
▁veenva	-11.5756
▁tegevusala	-11.5768
kriitiku	-11.578
▁kuuldu	-11.5788
▁intervjuu	-11.5789
▁usutava	-11.5809
▁ajaloolist	-11.5811
impansitel	-11.5818
▁när	-11.582
▁teatasi	-11.5821
▁ligikaudse	-11.5831
▁fundamentaalse	-11.5832
▁turvali	-11.5836
▁orgaanilisel	-11.5845
▁Tim	-11.5863
itsev	-11.5892
▁Margar	-11.59
▁vapusta	-11.5908
▁rohkematel	-11.5909
paneeli	-11.5935
▁energiatase	-11.5938
korv	-11.5971
asutuse	-11.5994
koheld	-11.6021
▁sõltumat	-11.6032
pill	-11.6035
PC	-11.6087
pidav	-11.6131
planeerija	-11.6187
riiklik	-11.621
alco	-11.6216
▁eraldatu	-11.6219
▁eos	-11.622
▁käelis	-11.6243
▁kõv	-11.6255
▁Hakka	-11.6284
osmoseteleskoobi	-11.6305
▁Selts	-11.6305
▁lagundava	-11.6306
rvishoiusüsteem	-11.6359
▁üksind	-11.6367
ihti	-11.6369
▁mark	-11.6369
kasvatuse	-11.6402
uurepära	-11.6423
valimiste	-11.644
▁hooldam	-11.6441
▁Ajakir	-11.6477
▁allakäik	-11.65
karb	-11.6517
varjupaik	-11.6529
▁tõstmis	-11.6544
▁segamin	-11.656
▁ahvide	-11.6587
nohiku	-11.6595
▁õpet	-11.6602
▁rahvuslikk	-11.665
▁ostmis	-11.6651
▁usaldusväär	-11.6691
▁suurusjär	-11.6695
rajatis	-11.6721
▁hooliv	-11.6783
▁heteroseksuaal	-11.6857
▁mõteld	-11.6892
▁väärtuslikum	-11.6923
ubli	-11.6931
ukogude	-11.6975
▁varude	-11.7017
astumise	-11.7021
ohtude	-11.7048
isikute	-11.7057
▁Tur	-11.7057
▁muudaksi	-11.7111
▁lagunemis	-11.7115
küpsetatu	-11.7116
▁kard	-11.7149
▁ostsi	-11.7156
▁testimis	-11.7187
kliinikus	-11.7209
▁Keskmis	-11.7221
direktori	-11.7255
valdkondades	-11.7345
otas	-11.7372
küün	-11.7488
▁ellujää	-11.7553
▁eksamit	-11.7572
▁rämps	-11.7573
retk	-11.7637
arth	-11.7646
ravimite	-11.7719
taolis	-11.7797
identiteedikriis	-11.7823
▁läk	-11.7859
▁alandami	-11.7901
õpetus	-11.7906
okk	-11.7954
▁sõjalis	-11.7962
kiirte	-11.7968
kiirendi	-11.797
▁inspireeritu	-11.8008
karistus	-11.8052
nädalas	-11.8057
▁kolisi	-11.8109
▁samasugu	-11.819
▁strateegi	-11.8193
turgude	-11.8261
▁elukäik	-11.8424
▁toidet	-11.8458
usaldusväärse	-11.8482
arbi	-11.853
▁keemili	-11.8746
▁pettu	-11.8761
▁slumm	-11.8791
värvi	-11.8834
▁eelistatu	-11.8851
▁argumen	-11.8952
▁lagunda	-11.8959
utatsioon	-11.8985
värina	-11.8993
▁buss	-11.9034
õhna	-11.9064
▁nõustami	-11.9113
▁printsiip	-11.9207
▁käsk	-11.9215
▁kommentaar	-11.9243
▁grup	-11.9274
tõmbu	-11.9284
▁kasutajaliides	-11.9321
argumentide	-11.9325
▁motivatsioon	-11.9416
pääsemise	-11.9445
ack	-11.946
▁väljend	-11.9491
▁orgasm	-11.9521
valgus	-11.9551
▁neela	-11.9552
rdamis	-11.9561
▁labor	-11.9564
▁mõrva	-11.957
▁energiasäästlik	-11.957
ikates	-11.9579
▁küpse	-11.959
▁Liibüa	-11.9627
▁vär	-11.964
intervjuude	-11.967
▁väg	-11.9685
▁kabinet	-11.9699
▁lüli	-11.9716
▁kosmoloogi	-11.9731
▁läbikukkumi	-11.975
▁kontekst	-11.9756
▁perspektiiv	-11.9763
▁moonut	-11.9782
kohti	-11.98
▁mobiiltelefon	-11.9802
ammutam	-11.9812
ühele	-11.9831
suhete	-11.9833
▁kvaliteet	-11.9836
▁negatiiv	-11.9865
ööstusriikide	-11.9871
jäätme	-11.9887
▁alustamis	-11.9899
▁ettekirjut	-11.9908
▁kaastundlik	-11.9909
▁hallutsin	-11.9915
▁jär	-11.9918
pteerit	-11.9921
▁ökoloogili	-11.9928
▁kõrv	-11.9935
jäämis	-11.9947
▁Universum	-11.9953
▁peituva	-11.9956
▁Päev	-11.9958
talunike	-11.9958
sugust	-11.9959
▁ekraan	-11.9961
film	-11.9962
▁ebatavali	-11.9962
▁Raamat	-11.9988
▁kannatami	-12.0002
kõik	-12.0002
tähtsa	-12.0004
▁vaktsiin	-12.0005
uper	-12.0009
▁ladvikurin	-12.0014
istuse	-12.0019
▁interaktiiv	-12.0031
allos	-12.0032
▁emotsionaal	-12.0033
▁Pariis	-12.0034
panu	-12.0039
▁kliimamuutus	-12.0044
▁rakend	-12.0051
▁visuaal	-12.0051
▁rituaal	-12.0052
▁lõikava	-12.0061
emperatuur	-12.0063
pinnas	-12.0086
▁graafik	-12.0087
unenägudes	-12.0091
▁versioon	-12.0092
▁limonaad	-12.0099
teleskoop	-12.0102
transporti	-12.0103
põhine	-12.0106
konverentsil	-12.0107
▁palg	-12.0108
külg	-12.0109
▁loomingulisus	-12.0111
sõdade	-12.0111
kodeeri	-12.0115
poiss	-12.0116
avatari	-12.0117
liike	-12.0117
koodi	-12.0119
standardi	-12.0119
efekti	-12.012
kirjeldus	-12.012
artikli	-12.012
liikumist	-12.012
vallas	-12.0121
objekt	-12.0122
piirangu	-12.0122
rohelise	-12.0122
evolutsiooni	-12.0123
kõrva	-12.0124
ehitus	-12.0124
hommiku	-12.0125
mehhanism	-12.0125
▁Kujut	-12.0125
noorte	-12.0126
paiguta	-12.0126
lõuna	-12.0126
▁narkomaanid	-12.0127
19.	-12.0127
teadvus	-12.0127
karjääri	-12.0127
pildi	-12.0128
meeskond	-12.0128
professor	-12.0128
fotod	-12.0128
ülesanne	-12.0129
planeedi	-12.0129
rolli	-12.013
süsti	-12.013
rääki	-12.013
oovis	-12.0131
tugev	-12.0131
kohtu	-12.0131
millegi	-12.0132
küljel	-12.0132
elektri	-12.0132
hääl	-12.0132
arusaama	-12.0132
arengu	-12.0132
seitse	-12.0132
galaktika	-12.0133
püüd	-12.0134
asuva	-12.0134
muutus	-12.0134
küll	-12.0134
video	-12.0134
mõte	-12.0135
haigus	-12.0135
mööda	-12.0135
kõige	-12.0136
kogukonna	-12.0138
tundlik	-12.0138
küsimuse	-12.0139
silmas	-12.0142
▁julgust	-12.0143
▁nalj	-12.0143
▁tervik	-12.0146
ärmi	-12.0153
▁paber	-12.0155
▁kosmo	-12.0157
heit	-12.0161
mustri	-12.0162
▁kontroll	-12.0162
▁string	-12.0166
▁Sõltu	-12.017
▁tasakaal	-12.0174
levinu	-12.0175
▁õrn	-12.0178
lask	-12.0182
▁pliiats	-12.0186
utuses	-12.0187
▁rong	-12.0187
▁tilluke	-12.0188
kaalulis	-12.0194
▁ärk	-12.0202
atsient	-12.0211
▁minimaal	-12.0211
▁kõig	-12.0218
▁tõlgend	-12.0219
psia	-12.0222
▁Evolutsioon	-12.0222
▁kerg	-12.0229
teenust	-12.023
▁logaritmilis	-12.0234
▁epifüü	-12.0235
▁lakk	-12.0237
▁boraan	-12.0246
▁üksikisik	-12.0246
▁neuroloogi	-12.025
▁Kummali	-12.0252
suuna	-12.0255
apitalist	-12.0255
meediumi	-12.0262
▁relevant	-12.0265
▁tihe	-12.0269
unkt	-12.0269
▁empaati	-12.0273
▁lõuend	-12.028
kaardil	-12.0288
▁enesekesk	-12.0289
▁Fran	-12.0295
äbirääkimiste	-12.0295
oidupoe	-12.0296
▁rüh	-12.0301
kasvataja	-12.0301
mõtestami	-12.0303
üksus	-12.0305
▁enesekind	-12.0307
▁müür	-12.0311
▁prototüü	-12.0318
▁ettepanek	-12.0318
ektsioon	-12.0322
▁humanitaar	-12.0324
▁jalgrat	-12.0327
▁nüüdisaeg	-12.0329
▁ebaõnnestumi	-12.0333
raabia	-12.0335
aasaegset	-12.0335
▁maapin	-12.0336
emaatili	-12.0337
▁tilk	-12.0338
▁membraan	-12.034
▁doktriin	-12.034
▁innu	-12.0341
▁kontsentr	-12.0343
▁artik	-12.0343
rüki	-12.0343
▁riiuli	-12.0343
elefoni	-12.0344
▁Liht	-12.0344
atastroof	-12.0345
eksistents	-12.0345
ilomeetri	-12.0345
ontsentreeri	-12.0345
osmose	-12.0345
emokraatia	-12.0345
▁religio	-12.0345
▁täiel	-12.0346
▁hiigla	-12.0346
misharjumus	-12.0346
rasiilia	-12.0347
▁intuit	-12.0347
▁lõhu	-12.0347
ipelga	-12.0347
neutraal	-12.0347
nuhtlus	-12.0348
suurend	-12.0348
rätik	-12.0348
▁stabiil	-12.0348
omaniku	-12.0348
õbra	-12.0348
elfiinid	-12.0348
sjatundja	-12.0348
▁inter	-12.0348
fitseeri	-12.0348
▁sümbioo	-12.0348
▁Valgus	-12.0348
rganismid	-12.0349
nustage	-12.0349
ploki	-12.0349
▁Institu	-12.0349
▁psühho	-12.0349
▁polü	-12.0349
▁Soov	-12.0349
kilpkonnad	-12.0349
▁individua	-12.0349
▁huumori	-12.0349
formatsiooni	-12.0349
produkt	-12.0349
▁Taksonoom	-12.0349
▁antropoloog	-12.0349
ricelli	-12.0349
tensiivse	-12.0349
▁räsi	-12.0349
▁sünkrooni	-12.0349
koloogilist	-12.0349
ngiogeneesi	-12.0349
teoriidikraatri	-12.0349
ussikiirtranspor	-12.0349
▁1838.	-12.0349
▁Arvuti	-12.0349
▁Ellujäämise	-12.0349
▁Firma	-12.0349
▁Investeeri	-12.0349
▁Jälle	-12.0349
▁Järgneva	-12.0349
▁Jätkusuutlikk	-12.0349
▁Mitchell	-12.0349
▁Piirangu	-12.0349
▁Psühholoogi	-12.0349
▁Radio	-12.0349
▁Süsinik	-12.0349
▁binaar	-12.0349
▁blasarite	-12.0349
▁demokratiseeri	-12.0349
▁diplomaati	-12.0349
▁diskreetse	-12.0349
▁distantsi	-12.0349
▁eksootilise	-12.0349
▁fanaatilise	-12.0349
▁gravitoni	-12.0349
▁human	-12.0349
▁hüperaktiivse	-12.0349
▁illegaalse	-12.0349
▁immuunse	-12.0349
▁inimolemus	-12.0349
▁intiimse	-12.0349
▁jämed	-12.0349
▁järjepid	-12.0349
▁kaaviari	-12.0349
▁kardinaalse	-12.0349
▁katoliikl	-12.0349
▁keskpaiga	-12.0349
▁kinnipeetava	-12.0349
▁kondenseer	-12.0349
▁kosjasobitaja	-12.0349
▁kujuteldamatu	-12.0349
▁kurikuulsa	-12.0349
▁kuulmispuu	-12.0349
▁kvarkide	-12.0349
▁käitumisteadus	-12.0349
▁kärs	-12.0349
▁kõhutunde	-12.0349
▁lahvatas	-12.0349
▁lehmakoo	-12.0349
▁lähiümbrus	-12.0349
▁momendi	-12.0349
▁motiivid	-12.0349
▁nahkhiir	-12.0349
▁nirvaana	-12.0349
▁piraatluse	-12.0349
▁plaati	-12.0349
▁prootoni	-12.0349
▁putukamür	-12.0349
▁päikse	-12.0349
▁põrandapesemise	-12.0349
▁riikidevahelis	-12.0349
▁süsinikujalajäl	-12.0349
▁taasavasta	-12.0349
▁tuletõrjuja	-12.0349
▁umbus	-12.0349
▁uuendusaltima	-12.0349
▁väiketootjate	-12.0349
ahtplast	-12.0349
akretsiooniketta	-12.0349
alduspoliitika	-12.0349
deklaratsioon	-12.0349
ehhovi	-12.0349
ekonstru	-12.0349
esapalliväljakul	-12.0349
innovaatori	-12.0349
jandussurutis	-12.0349
kindlustuse	-12.0349
kontserdi	-12.0349
kraatia	-12.0349
kromato	-12.0349
laulja	-12.0349
maalingu	-12.0349
nferotemporaalse	-12.0349
ofessionaliseeri	-12.0349
olmedimensionaal	-12.0349
olokaust	-12.0349
omisjoni	-12.0349
ostuhind	-12.0349
puhastuse	-12.0349
reeklas	-12.0349
sõidurestoranid	-12.0349
tutvumist	-12.0349
uberteedi	-12.0349
udisteportaalide	-12.0349
ukerberg	-12.0349
unstifilosoofi	-12.0349
välgatuse	-12.0349
workshopi	-12.0349
üsinikdioksiid	-12.0349
üüginumbr	-12.0349
▁1835	-12.0349
▁1915	-12.0349
▁1920	-12.0349
▁360	-12.0349
▁Arengumaad	-12.0349
▁Asteroid	-12.0349
▁Berkeley	-12.0349
▁Bieberi	-12.0349
▁Boulder	-12.0349
▁Britannica	-12.0349
▁Chopin	-12.0349
▁Demograafilise	-12.0349
▁EEG	-12.0349
▁Ecuadori	-12.0349
▁Fabian	-12.0349
▁Friedman	-12.0349
▁Fukushima	-12.0349
▁Galactica	-12.0349
▁Haiglas	-12.0349
▁Hirm	-12.0349
▁Insener	-12.0349
▁Jakarta	-12.0349
▁Jersey	-12.0349
▁Jätk	-12.0349
▁Kalakasvandus	-12.0349
▁Kalifornia	-12.0349
▁Kuldvillak	-12.0349
▁Käsikirve	-12.0349
▁Käsk	-12.0349
▁Libeeria	-12.0349
▁Lokavoor	-12.0349
▁Madureira	-12.0349
▁Majanduslikus	-12.0349
▁Maldiivide	-12.0349
▁Manchesteri	-12.0349
▁Manhattani	-12.0349
▁Massachus	-12.0349
▁Märka	-12.0349
▁Pepsi	-12.0349
▁Planeedi	-12.0349
▁Reagan	-12.0349
▁Rutgers	-12.0349
▁Seitse	-12.0349
▁Senegali	-12.0349
▁Shanghai	-12.0349
▁Simulatori	-12.0349
▁Sotsiaalse	-12.0349
▁Sputnik	-12.0349
▁Stringiteooria	-12.0349
▁Stuudiokooli	-12.0349
▁Superintellekt	-12.0349
▁Sydney	-12.0349
▁Tehisintellekt	-12.0349
▁Terviseuuringu	-12.0349
▁Theodor	-12.0349
▁Tumeaine	-12.0349
▁Vahukomm	-12.0349
▁Varssavi	-12.0349
▁Värin	-12.0349
▁Värv	-12.0349
▁Warcraft	-12.0349
▁ahistamist	-12.0349
▁ahvatlev	-12.0349
▁aistingu	-12.0349
▁ajavahemike	-12.0349
▁ajavahemiku	-12.0349
▁akumul	-12.0349
▁albatrossi	-12.0349
▁allveelaev	-12.0349
▁anatoomi	-12.0349
▁andmesalvestus	-12.0349
▁anonüümse	-12.0349
▁aprilli	-12.0349
▁astroloogia	-12.0349
▁biljon	-12.0349
▁biokeemia	-12.0349
▁blasarisüsteemi	-12.0349
▁bränd	-12.0349
▁diagnosti	-12.0349
▁ebaõigl	-12.0349
▁eetikakursus	-12.0349
▁eksemplari	-12.0349
▁eksponeeri	-12.0349
▁eliitkunst	-12.0349
▁elukvaliteet	-12.0349
▁ettekande	-12.0349
▁ettekääne	-12.0349
▁fantasmagooria	-12.0349
▁fotosünteetilis	-12.0349
▁fragmentide	-12.0349
▁galaktilise	-12.0349
▁geeniteraapia	-12.0349
▁haigusetekitaja	-12.0349
▁hambapasta	-12.0349
▁heliportree	-12.0349
▁hiigelsuure	-12.0349
▁hospiitside	-12.0349
▁hulpim	-12.0349
▁hunnik	-12.0349
▁häbimärgistami	-12.0349
▁hävingut	-12.0349
▁igivana	-12.0349
▁imetlusväärse	-12.0349
▁inimmõistus	-12.0349
▁innovatiivse	-12.0349
▁intressi	-12.0349
▁irvita	-12.0349
▁isemajandava	-12.0349
▁jalajälg	-12.0349
▁jänese	-12.0349
▁järeltulija	-12.0349
▁jääkülm	-12.0349
▁jõupingutuste	-12.0349
▁kaelarihma	-12.0349
▁kaubamärgi	-12.0349
▁kilobaidi	-12.0349
▁klahvistik	-12.0349
▁koduperenais	-12.0349
▁kohmaka	-12.0349
▁kokkupõrke	-12.0349
▁kolumnist	-12.0349
▁komöödiat	-12.0349
▁konfiguratsioon	-12.0349
▁konsortsium	-12.0349
▁koolitoit	-12.0349
▁koordineerimis	-12.0349
▁korporatiivse	-12.0349
▁korporatsiooni	-12.0349
▁kortsuta	-12.0349
▁kosmoselaev	-12.0349
▁kriidijoonistus	-12.0349
▁kristalliseeru	-12.0349
▁krõpsupaki	-12.0349
▁kummitus	-12.0349
▁kunstinäitus	-12.0349
▁kuritarvita	-12.0349
▁kurjategija	-12.0349
▁kössita	-12.0349
▁köögiviljaturis	-12.0349
▁külaelanik	-12.0349
▁külmkapi	-12.0349
▁lageraie	-12.0349
▁lahjen	-12.0349
▁ligitõmbav	-12.0349
▁lisaväärtus	-12.0349
▁lohista	-12.0349
▁loomariigi	-12.0349
▁lõksu	-12.0349
▁lühen	-12.0349
▁lühisõnumi	-12.0349
▁mainekapital	-12.0349
▁meloodia	-12.0349
▁modelleeri	-12.0349
▁modifitseeri	-12.0349
▁mõtiskle	-12.0349
▁mõõdulindi	-12.0349
▁müslibatoon	-12.0349
▁müsteeriumi	-12.0349
▁naeluta	-12.0349
▁narkootikum	-12.0349
▁narkosüstija	-12.0349
▁netikasutaja	-12.0349
▁ninasõõrme	-12.0349
▁nukleiinhap	-12.0349
▁olümpiamängud	-12.0349
▁ooperi	-12.0349
▁originaalse	-12.0349
▁otsekohes	-12.0349
▁paanika	-12.0349
▁palvetasi	-12.0349
▁pappkarp	-12.0349
▁parasvöötme	-12.0349
▁parkimisplats	-12.0349
▁patendiameti	-12.0349
▁pealisehitus	-12.0349
▁pealtvaataja	-12.0349
▁peatänava	-12.0349
▁perearstikeskus	-12.0349
▁perfokaartide	-12.0349
▁pintsli	-12.0349
▁pisiasjade	-12.0349
▁pjedestaali	-12.0349
▁plaksuta	-12.0349
▁portaali	-12.0349
▁positsioonil	-12.0349
▁praktika	-12.0349
▁praktiseeri	-12.0349
▁primaar	-12.0349
▁puudujäägi	-12.0349
▁põhiolemus	-12.0349
▁põletusosakon	-12.0349
▁põliselanik	-12.0349
▁põrmu	-12.0349
▁pürgimus	-12.0349
▁rafineeri	-12.0349
▁regulaarse	-12.0349
▁regulatsioon	-12.0349
▁resolutsioon	-12.0349
▁riietes	-12.0349
▁rinnapiima	-12.0349
▁sektordiagramm	-12.0349
▁seriaal	-12.0349
▁serveeri	-12.0349
▁sigaretis	-12.0349
▁silmapaistva	-12.0349
▁skandaal	-12.0349
▁skeptiku	-12.0349
▁solvangu	-12.0349
▁soojustus	-12.0349
▁spageti	-12.0349
▁spektromeetri	-12.0349
▁spetsialiseeru	-12.0349
▁stagn	-12.0349
▁statistilis	-12.0349
▁struktur	-12.0349
▁suguvõsa	-12.0349
▁sukeldud	-12.0349
▁surmaläheda	-12.0349
▁särk	-12.0349
▁südametunnistus	-12.0349
▁sügavamõtteli	-12.0349
▁sülearvuti	-12.0349
▁sündmuskoh	-12.0349
▁teleskoobi	-12.0349
▁territoorium	-12.0349
▁toidufanaatik	-12.0349
▁traali	-12.0349
▁trapetsi	-12.0349
▁tselluloos	-12.0349
▁turistide	-12.0349
▁tutvusringkon	-12.0349
▁tuuleturbiinid	-12.0349
▁tuumaallveelaev	-12.0349
▁tätoveerin	-12.0349
▁tõkke	-12.0349
▁töökindla	-12.0349
▁tööpakkumi	-12.0349
▁tühjus	-12.0349
▁türkiis	-12.0349
▁uhiuu	-12.0349
▁ummiku	-12.0349
▁usujuhtide	-12.0349
▁vaenulik	-12.0349
▁vanadekodu	-12.0349
▁vanaduspõlve	-12.0349
▁vannitoa	-12.0349
▁vastastikkuses	-12.0349
▁vastuolulisem	-12.0349
▁vastuvõtlikum	-12.0349
▁veebiserveri	-12.0349
▁verstaposti	-12.0349
▁viktoriin	-12.0349
▁vulkaanipurs	-12.0349
▁väljamõeld	-12.0349
▁väänamis	-12.0349
▁väärkasuta	-12.0349
▁võõrustaja	-12.0349
▁Ühendemiraatide	-12.0349
▁Ühendkuningrii	-12.0349
▁Üldi	-12.0349
▁äraviskamise	-12.0349
▁ärev	-12.0349
▁ärritav	-12.0349
▁õhtusöögi	-12.0349
▁õhtusöök	-12.0349
▁õppeainete	-12.0349
▁õõnesta	-12.0349
▁öötaeva	-12.0349
▁ühendriigi	-12.0349
▁ülejäägi	-12.0349
▁ümarlauda	-12.0349
▁ümmarguse	-12.0349
megatonni	-12.0349
▁Congo	-12.0349
▁Simon	-12.0349
▁apelsin	-12.0349
▁elutubades	-12.0349
▁ikooni	-12.0349
▁lähtepunkt	-12.0349
▁mõõk	-12.0349
▁pisiasju	-12.0349
▁plastmasstopsi	-12.0349
▁rõve	-12.0349
▁sireeni	-12.0349
▁uhkust	-12.0349
▁uudistevoo	-12.0349
bamäärasuse	-12.0349
ekordiomanik	-12.0349
kaubitseja	-12.0349
konteineri	-12.0349
kstisõnumitel	-12.0349
lumiinium	-12.0349
obleemipüstituse	-12.0349
ornaado	-12.0349
sõidutulistamis	-12.0349
viibimist	-12.0349
ümfooniaorkestri	-12.0349
▁Abielu	-12.0349
▁Borla	-12.0349
▁Hommikus	-12.0349
▁Joonista	-12.0349
▁Kashgari	-12.0349
▁Kasungu	-12.0349
▁Kirjeld	-12.0349
▁Mayflower	-12.0349
▁NEC	-12.0349
▁Parempool	-12.0349
▁Ratastool	-12.0349
▁Suundum	-12.0349
▁Uudiste	-12.0349
▁Võrdle	-12.0349
▁abinõu	-12.0349
▁ajaskaala	-12.0349
▁anarhia	-12.0349
▁antennid	-12.0349
▁atraktiiv	-12.0349
▁autistlikkus	-12.0349
▁dogma	-12.0349
▁elavhõbe	-12.0349
▁energianappus	-12.0349
▁epidemioloogil	-12.0349
▁fraktaal	-12.0349
▁geniaalsus	-12.0349
▁hargnev	-12.0349
▁healoomulis	-12.0349
▁higista	-12.0349
▁himusta	-12.0349
▁hoolekanne	-12.0349
▁hübriid	-12.0349
▁jutuajami	-12.0349
▁kaitsmise	-12.0349
▁kiusamis	-12.0349
▁kolesterooli	-12.0349
▁kooskõlas	-12.0349
▁kultuuriülese	-12.0349
▁kummardam	-12.0349
▁kvalifi	-12.0349
▁kvasari	-12.0349
▁köite	-12.0349
▁külaloll	-12.0349
▁küpsus	-12.0349
▁lahutus	-12.0349
▁laptopi	-12.0349
▁leekides	-12.0349
▁läbikukkunu	-12.0349
▁maailmanägem	-12.0349
▁maatükkide	-12.0349
▁manuaal	-12.0349
▁miinimumi	-12.0349
▁moment	-12.0349
▁mustanahali	-12.0349
▁noogutas	-12.0349
▁pahaendelist	-12.0349
▁patsuta	-12.0349
▁petetaks	-12.0349
▁pidurda	-12.0349
▁prognoos	-12.0349
▁purgis	-12.0349
▁põrkasi	-12.0349
▁põrnitse	-12.0349
▁radioaktiiv	-12.0349
▁regiooni	-12.0349
▁surfa	-12.0349
▁suupiste	-12.0349
▁taastöötle	-12.0349
▁teoreemi	-12.0349
▁tossike	-12.0349
▁tsölibaa	-12.0349
▁tulihingeli	-12.0349
▁tõsielusa	-12.0349
▁tööjuhend	-12.0349
▁vanavanema	-12.0349
▁vastastikuste	-12.0349
▁vastutustunde	-12.0349
▁viivitamat	-12.0349
▁võhivõõra	-12.0349
▁võrdõiguslikkus	-12.0349
▁äpardus	-12.0349
MAO	-12.0349
▁Fotograafi	-12.0349
▁Märgist	-12.0349
▁Perekonna	-12.0349
▁Schwar	-12.0349
▁absorptsioon	-12.0349
▁akvaarium	-12.0349
▁amatöör	-12.0349
▁anaeroob	-12.0349
▁draama	-12.0349
▁elusloodus	-12.0349
▁haihtus	-12.0349
▁krediidi	-12.0349
▁krimina	-12.0349
▁masturbeeri	-12.0349
▁omaksvõtmi	-12.0349
▁omandipõhise	-12.0349
▁ostukeskus	-12.0349
▁postkasti	-12.0349
▁postmodernis	-12.0349
▁propaganda	-12.0349
▁ruumimõõtme	-12.0349
▁sportlas	-12.0349
▁trotsi	-12.0349
▁vahaja	-12.0349
▁vastuvõtu	-12.0349
▁vireemia	-12.0349
▁õpipoisi	-12.0349
▁õppevahend	-12.0349
▁õunapuu	-12.0349
▁Maryland	-12.0349
▁Tervise	-12.0349
▁aimdus	-12.0349
▁dieet	-12.0349
▁dirigeeri	-12.0349
▁elukoht	-12.0349
▁emakaru	-12.0349
▁harjumuspärase	-12.0349
▁hüpotee	-12.0349
▁kassipoeg	-12.0349
▁kopeeri	-12.0349
▁kuulrongi	-12.0349
▁lavastaja	-12.0349
▁lähtekood	-12.0349
▁maffia	-12.0349
▁matuseprojekt	-12.0349
▁polügaam	-12.0349
▁sirgu	-12.0349
▁stuudiokooli	-12.0349
▁taskukohase	-12.0349
▁tervishoid	-12.0349
▁turutõr	-12.0349
▁tõekspidamis	-12.0349
▁krabi	-12.0349
▁masendav	-12.0349
-13	-12.0349
ktuaalse	-12.0349
ndelkeha	-12.0349
uuuu	-12.0349
veepaagi	-12.0349
▁Defin	-12.0349
▁Kristin	-12.0349
▁Riiklik	-12.0349
▁Türgi	-12.0349
▁agressiiv	-12.0349
▁ahnus	-12.0349
▁akende	-12.0349
▁ebaloomuliku	-12.0349
▁esikaan	-12.0349
▁korallrahul	-12.0349
▁lohaka	-12.0349
▁millisekundi	-12.0349
▁mitteametlik	-12.0349
▁pakendi	-12.0349
▁raevu	-12.0349
▁telefonikõnede	-12.0349
▁terapeut	-12.0349
▁traum	-12.0349
▁ülekandu	-12.0349
greeni	-12.0349
misnupp	-12.0349
ringkon	-12.0349
sähvatus	-12.0349
▁Delhis	-12.0349
▁ajendi	-12.0349
▁häbene	-12.0349
▁kalkuni	-12.0349
▁kriidi	-12.0349
▁lehemassi	-12.0349
▁lõõ	-12.0349
▁sobivuse	-12.0349
▁sooritus	-12.0349
▁tõrk	-12.0349
▁ülisuur	-12.0349
▁debati	-12.0349
▁kaitsva	-12.0349
▁seadusandlik	-12.0349
▁teavita	-12.0349
▁väljaõpe	-12.0349
▁hotell	-12.0349
▁punaverelible	-12.0349
eskkonnateadlike	-12.0349
▁Dennis	-12.0349
▁Islam	-12.0349
▁Kivi	-12.0349
▁Tulemustasu	-12.0349
▁ahmi	-12.0349
▁horison	-12.0349
▁kaugeleulatuva	-12.0349
▁keisri	-12.0349
▁korallrahud	-12.0349
▁logiraamatutes	-12.0349
▁personaal	-12.0349
▁piiksu	-12.0349
▁purusta	-12.0349
▁puulatv	-12.0349
▁ruupia	-12.0349
▁rööv	-12.0349
atuuril	-12.0349
▁Child	-12.0349
▁Giuss	-12.0349
▁kaljuse	-12.0349
▁kasutuselevõt	-12.0349
▁läbiviid	-12.0349
▁organiseeri	-12.0349
trium	-12.035
▁Burmas	-12.035
▁Kavatse	-12.035
▁ballis	-12.035
▁ebatasa	-12.035
▁habeme	-12.035
▁halvim	-12.035
▁rihma	-12.035
kirurg	-12.035
orporat	-12.035
▁Hetke	-12.035
▁akva	-12.035
▁maaharimi	-12.035
▁paindlikkuse	-12.035
▁trollimis	-12.035
▁taimekasvatuses	-12.035
õuaperioodi	-12.035
▁anglo	-12.035
▁dement	-12.035
▁vangistuse	-12.035
superstaar	-12.035
▁Comp	-12.035
▁Pööra	-12.035
▁heldus	-12.035
▁julguse	-12.035
▁lootustandvama	-12.035
▁perioodilisus	-12.035
▁reove	-12.035
▁Bridge	-12.035
▁Eritrea	-12.035
▁hõr	-12.035
▁loomaaeda	-12.035
▁müts	-12.035
▁seinatäi	-12.035
lüps	-12.035
otimaal	-12.035
voldist	-12.035
▁Haridus	-12.035
▁alistas	-12.035
▁ehtsa	-12.035
▁kuristik	-12.035
▁merikilpkonna	-12.035
▁prillid	-12.035
▁õnnistus	-12.035
kontode	-12.035
▁Alguse	-12.035
▁album	-12.035
▁kosmili	-12.035
▁mannetu	-12.035
▁rüüsta	-12.035
▁starti	-12.035
▁Narko	-12.035
▁eputa	-12.035
▁kruvi	-12.035
▁pakendat	-12.035
▁infokild	-12.035
▁laagrites	-12.035
▁subjektiiv	-12.035
▁toidupank	-12.035
pähkl	-12.035
rikorder	-12.035
▁patent	-12.035
▁preeria	-12.035
▁sõnumineeri	-12.035
okatsiooni	-12.035
▁käimalükkami	-12.035
▁libis	-12.035
▁lõdv	-12.035
▁udukogu	-12.035
▁veebikaamera	-12.035
▁Teooria	-12.035
▁Hinna	-12.035
▁Sagedus	-12.035
▁haardes	-12.035
▁natside	-12.035
▁lehtsalati	-12.035
▁plastili	-12.035
▁rullu	-12.035
▁Küber	-12.035
▁Moraal	-12.035
▁karvas	-12.035
▁kosmeeti	-12.035
produtseeri	-12.035
▁üldistus	-12.035
▁Darwinistliku	-12.035
▁Kohaliku	-12.035
klipp	-12.035
▁Inc	-12.035
▁hinne	-12.035
▁lipu	-12.035
▁pankuri	-12.035
laengu	-12.035
▁jazz	-12.035
J	-13.0143
U	-13.0145
W	-14.2606
!	-14.2607
Ü	-14.2608
—	-14.2609
)	-14.261
:	-14.2611
?	-14.2612
q	-14.2613
&	-14.2614
ä	-14.2615
