<unk>	0
<s>	0
</s>	0
▁,	-3.03674
▁.	-3.07535
n	-3.58664
a	-3.70871
ko	-3.99893
▁eta	-4.06023
ak	-4.06919
k	-4.31335
;	-4.33638
▁	-4.33679
ot	-4.37633
▁&	-4.37917
qu	-4.39193
▁da	-4.47333
▁bat	-4.51674
▁ez	-4.77958
an	-4.88333
z	-4.91427
-	-4.9386
▁Et	-4.99944
en	-5.10629
ean	-5.13951
▁izan	-5.22948
▁egin	-5.35277
go	-5.37357
ren	-5.41592
tzen	-5.4757
▁zen	-5.5107
▁?	-5.51803
▁behar	-5.56324
▁:	-5.72237
ra	-5.76151
etan	-5.77922
▁ere	-5.78039
▁dira	-5.78665
rik	-5.81559
▁—	-5.81566
▁zuen	-5.81824
tik	-5.8471
▁egiten	-5.85516
▁)	-5.8799
▁hau	-5.8803
(	-5.88307
▁du	-5.88892
aren	-5.90108
▁nahi	-5.90374
▁dut	-5.92525
▁beste	-5.94161
i	-5.94366
▁hori	-5.98388
▁ari	-6.00915
ik	-6.04903
▁edo	-6.0581
ri	-6.07442
o	-6.08581
▁nuen	-6.09012
▁bere	-6.10473
▁urte	-6.12012
▁nire	-6.12536
▁dugu	-6.13064
▁esan	-6.1425
ek	-6.15823
ekin	-6.16593
tu	-6.1718
▁den	-6.2139
▁Baina	-6.21972
▁oso	-6.22287
▁gauza	-6.28806
▁gure	-6.28899
▁Ez	-6.31642
▁ba	-6.34633
▁baina	-6.35196
▁asko	-6.37505
▁dute	-6.38911
ta	-6.4071
la	-6.42081
▁guzti	-6.4261
▁Bera	-6.45249
u	-6.49524
▁dela	-6.51652
▁zuten	-6.52892
▁nintzen	-6.53442
▁dago	-6.57576
rekin	-6.58249
▁baino	-6.59069
ez	-6.59131
▁zer	-6.60609
▁Barre	-6.61035
▁hitz	-6.63603
▁ikuste	-6.6382
▁Hau	-6.65824
▁diren	-6.66086
▁ziren	-6.6641
▁bezala	-6.67349
ei	-6.67752
▁gehiago	-6.68214
▁baten	-6.77352
▁ni	-6.79383
▁uste	-6.80493
eko	-6.81253
▁lan	-6.81587
▁mundu	-6.82203
▁genuen	-6.83887
tzat	-6.84046
▁bizi	-6.8501
▁ikusi	-6.86571
▁egun	-6.87223
tan	-6.87729
▁bi	-6.88313
t	-6.90904
▁ideia	-6.9926
▁duen	-6.99697
▁hauek	-6.99948
▁horiek	-7.00645
e	-7.00714
▁zerbait	-7.02561
▁nola	-7.02819
▁berri	-7.02928
▁Txaloak	-7.05764
▁gero	-7.07071
▁arazo	-7.07787
era	-7.07914
ki	-7.09178
▁buruz	-7.1045
▁bera	-7.12013
▁dugun	-7.12346
▁daude	-7.12466
▁joan	-7.12504
▁dena	-7.12685
▁zela	-7.13381
ela	-7.13718
arekin	-7.13946
▁naiz	-7.14131
▁hemen	-7.14302
▁eman	-7.14391
▁modu	-7.14397
▁batzuk	-7.15546
▁ditugu	-7.16079
gati	-7.16735
▁milioi	-7.17267
▁O	-7.18572
▁hasi	-7.18658
▁E	-7.18893
▁egon	-7.18966
ari	-7.1973
▁pertsona	-7.20305
▁orain	-7.20722
▁Hori	-7.21387
▁gu	-7.21824
▁esate	-7.22167
etik	-7.22383
▁gizarte	-7.22923
▁ditu	-7.23745
▁Nire	-7.25337
▁gara	-7.26686
▁ahal	-7.26736
▁beneta	-7.27637
▁bizitza	-7.27842
▁honeta	-7.28043
▁daiteke	-7.28878
.	-7.29068
▁egite	-7.29327
▁duzu	-7.30607
▁hizkuntza	-7.32017
tzeko	-7.32514
▁hain	-7.32627
▁alde	-7.32756
▁datu	-7.33077
▁;	-7.34069
▁emakume	-7.34252
▁batera	-7.3447
etako	-7.34909
rako	-7.35108
▁gabe	-7.35284
▁Zer	-7.3602
▁direla	-7.36752
▁batek	-7.37158
▁al	-7.37453
%	-7.38161
ten	-7.38238
▁duten	-7.38785
▁emate	-7.38911
▁zure	-7.39607
▁gerta	-7.39711
▁A	-7.41576
▁aukera	-7.41632
▁non	-7.41848
▁izatea	-7.43347
▁azken	-7.43786
▁zehar	-7.43845
▁dituzte	-7.44039
▁gaur	-7.45524
▁zegoen	-7.45604
▁duela	-7.45956
▁Orain	-7.46505
▁soil	-7.47095
▁gai	-7.47135
zen	-7.47957
▁burua	-7.48052
▁horrela	-7.48377
▁txiki	-7.48629
▁I	-7.48728
▁bada	-7.49959
▁-	-7.50063
▁gutxi	-7.50159
▁ezin	-7.5143
▁erabiltze	-7.52747
▁ondo	-7.53045
▁jendea	-7.53106
▁esker	-7.53141
▁bai	-7.53382
▁baita	-7.53572
▁Esan	-7.53622
▁erabili	-7.53811
▁guztia	-7.54134
▁lehen	-7.54731
▁hor	-7.55573
▁handia	-7.55663
▁zituen	-7.56018
▁era	-7.56437
▁sortu	-7.568
ago	-7.57654
▁artean	-7.5816
▁berta	-7.5821
▁inguru	-7.58416
▁mila	-7.58769
ok	-7.58956
▁dudan	-7.5914
▁irudi	-7.60039
▁herri	-7.60239
▁inoiz	-7.60298
▁gertatu	-7.60802
▁gizon	-7.61141
▁nahiko	-7.61364
▁horrek	-7.6198
tako	-7.62015
▁izate	-7.62071
▁lagun	-7.62198
▁duzue	-7.62209
.000	-7.6239
▁zidan	-7.62864
ro	-7.62917
▁etxe	-7.63201
▁zein	-7.63373
▁jakin	-7.63877
▁denbora	-7.6389
▁arte	-7.65735
▁hartu	-7.67155
▁aurre	-7.67165
▁!	-7.6764
in	-7.68226
▁Os	-7.69318
▁argi	-7.70178
▁honen	-7.70187
▁honek	-7.70303
▁talde	-7.71111
▁zituzten	-7.71571
rduan	-7.72048
▁zera	-7.72496
▁zuzen	-7.72901
▁sortze	-7.73287
▁leku	-7.73582
▁jende	-7.75121
▁lortu	-7.75511
▁hiru	-7.75602
▁bakar	-7.75726
▁pentsatu	-7.75739
▁Mundu	-7.78106
▁zati	-7.78106
1	-7.78573
▁Z	-7.78614
▁dituzten	-7.79353
s	-7.79417
▁musika	-7.79508
▁erakutsi	-7.79788
▁erakuste	-7.79803
▁aldatu	-7.82061
▁behin	-7.82658
▁hartze	-7.83379
▁S	-7.83572
▁zergati	-7.83705
▁B	-7.84098
▁familia	-7.84156
▁izateko	-7.84161
▁hala	-7.84371
▁lortze	-7.85384
▁dugula	-7.85617
zko	-7.85647
▁mundua	-7.86169
▁nituen	-7.8645
▁galdera	-7.86493
▁dezakegu	-7.8653
▁orduan	-7.86834
▁herrialde	-7.87022
▁K	-7.88718
▁genituen	-7.88788
ka	-7.90037
▁handi	-7.90943
▁&#9	-7.91151
▁Hemen	-7.91151
▁&#93;	-7.91151
▁dezagun	-7.91154
▁beti	-7.91156
▁nago	-7.9133
▁Zerga	-7.91691
▁gabeko	-7.91943
▁nuke	-7.92754
▁ikus	-7.92885
▁diru	-7.93586
▁aldiz	-7.93855
▁haiek	-7.93894
▁ona	-7.93968
te	-7.94151
▁zuela	-7.9426
▁jo	-7.94368
▁Nik	-7.94427
▁eure	-7.94941
▁erabaki	-7.951
▁D	-7.95154
▁ume	-7.95938
▁Gure	-7.96105
▁zirela	-7.96142
▁ginen	-7.96272
▁gora	-7.97735
▁har	-7.97834
▁jaso	-7.98258
▁egitea	-7.98589
▁10	-7.98622
▁...	-7.9866
▁eraman	-7.98662
▁Bai	-7.98821
▁P	-7.99076
▁hon	-7.99524
▁ezer	-7.9955
▁hil	-7.99675
▁joate	-7.99895
▁luke	-8.00979
▁aurkitu	-8.0133
dik	-8.0203
du	-8.02337
keta	-8.02529
▁berak	-8.02829
etara	-8.03072
▁Ba	-8.03183
▁bakoitza	-8.0321
▁hiri	-8.03504
▁makina	-8.03822
▁nion	-8.04057
eta	-8.04232
▁3	-8.04599
▁pentsatze	-8.05058
tasun	-8.05178
ditut	-8.05474
▁5	-8.05805
▁G	-8.06566
▁energia	-8.06827
▁entzun	-8.06854
▁ikasi	-8.06925
▁dizuet	-8.06937
▁adibide	-8.07179
tza	-8.07535
▁utzi	-8.07871
▁ditugun	-8.07897
▁duguna	-8.0809
▁bakarra	-8.08388
izik	-8.08501
▁jarri	-8.08986
▁gehien	-8.09398
▁dagoen	-8.09401
▁duena	-8.09476
▁hura	-8.09626
▁etorri	-8.09629
▁dituen	-8.09734
▁arteko	-8.09962
▁Beste	-8.0998
▁sartu	-8.09982
▁batzueta	-8.10191
▁esku	-8.10501
▁garrantzitsua	-8.10654
▁mota	-8.10804
▁dei	-8.11534
▁dutela	-8.12228
▁haluzinazio	-8.12325
▁bost	-8.12415
▁litzateke	-8.12564
▁lau	-8.12569
▁agi	-8.12582
▁Eskerrik	-8.1259
▁bihurtu	-8.12613
▁Horrela	-8.12687
▁horren	-8.13222
▁Ben	-8.13415
▁hamarkada	-8.13428
▁desberdin	-8.14292
▁e	-8.14329
tzako	-8.14767
▁soinu	-8.15016
▁lehenengo	-8.15607
▁ama	-8.15767
zio	-8.1581
▁inor	-8.15898
▁modua	-8.16375
garria	-8.16477
▁dezake	-8.17554
▁dauden	-8.17743
▁maila	-8.18467
dugu	-8.18684
▁parte	-8.18705
▁Hala	-8.18793
▁teknologia	-8.19398
▁20	-8.19765
▁Bere	-8.20013
▁Gauza	-8.21958
▁oraindik	-8.22041
▁sentitze	-8.22765
▁eragin	-8.2284
▁web	-8.22852
▁sistema	-8.23351
▁edozein	-8.24389
▁politiko	-8.24489
tzea	-8.25044
▁noski	-8.25288
▁Ikus	-8.25354
▁zion	-8.2553
▁Mila	-8.25647
▁ondoren	-8.25673
▁horieta	-8.25821
▁ezagutze	-8.26491
▁lana	-8.2655
▁arabera	-8.26618
▁pasa	-8.27211
▁bezalako	-8.27359
▁egia	-8.28062
arren	-8.28166
▁zu	-8.28655
▁zenbat	-8.28716
▁hurrengo	-8.2873
▁ados	-8.28733
▁galdetu	-8.28783
▁zenbait	-8.28852
▁eskatu	-8.28864
▁jartze	-8.28963
atu	-8.30142
le	-8.31612
▁une	-8.32378
▁pare	-8.32639
▁auto	-8.32691
▁aste	-8.32861
▁horretan	-8.34248
ar	-8.35684
▁Uste	-8.36005
▁bakarr	-8.36029
▁Ezin	-8.36178
re	-8.3624
▁aldaketa	-8.36249
▁badakizue	-8.36433
▁konpontze	-8.36521
▁kasu	-8.36523
ena	-8.36929
▁badago	-8.37118
▁entzute	-8.37164
▁Hor	-8.3726
▁argazki	-8.37294
▁guztiek	-8.37312
▁eskola	-8.37322
xe	-8.3751
▁pentsa	-8.37813
▁daitezke	-8.38485
▁tamaina	-8.38602
▁aldatze	-8.38769
▁ateratze	-8.39023
▁ia	-8.39157
▁TED	-8.39639
▁laguntza	-8.39781
▁gisa	-8.39849
▁itzuli	-8.39849
▁berandu	-8.3986
▁Nola	-8.3986
▁bigarren	-8.39901
▁sentitu	-8.39982
▁egoera	-8.40012
▁bidez	-8.40044
▁zara	-8.40175
▁Gu	-8.40674
▁neska	-8.40733
▁informazio	-8.41372
▁gutxiago	-8.41408
y	-8.41446
▁bihurtze	-8.41967
r	-8.42207
▁g	-8.42221
oak	-8.42222
▁seme	-8.42257
▁ezberdin	-8.42822
▁buru	-8.42842
▁gain	-8.43172
dun	-8.43478
▁batez	-8.43531
ia	-8.43563
▁Europa	-8.43675
atzen	-8.43802
▁zerrenda	-8.43851
▁iritsi	-8.43856
▁aztertu	-8.43917
▁begiratu	-8.44114
▁osoa	-8.44359
▁daudela	-8.44786
▁zaila	-8.44955
da	-8.45037
▁arrazoi	-8.45043
▁liburu	-8.45144
▁Bi	-8.45196
▁15	-8.45337
▁balio	-8.45385
▁galdu	-8.4553
▁handiagoa	-8.45993
▁aurrera	-8.46048
ma	-8.46313
▁garen	-8.47361
▁guraso	-8.4754
▁han	-8.47896
▁eskala	-8.48146
▁bide	-8.48277
▁ninduen	-8.48314
▁aurretik	-8.48333
g	-8.48627
▁nengoen	-8.48652
▁dagoela	-8.48813
▁bitarte	-8.49288
▁M	-8.49937
▁bidea	-8.50215
gu	-8.51078
▁erabil	-8.51122
nik	-8.51154
▁garbi	-8.52227
▁nuela	-8.52365
▁garai	-8.52366
▁Estatu	-8.52368
▁Gaur	-8.52368
▁azaldu	-8.5238
▁ditzakegu	-8.52523
▁etab	-8.52588
▁duzun	-8.52811
▁erlijio	-8.5294
▁horrelako	-8.53147
▁atera	-8.5343
tuta	-8.53673
▁doa	-8.53811
▁orri	-8.53902
▁huts	-8.54036
▁zarete	-8.54056
▁erre	-8.54124
▁funtzionatze	-8.54171
▁saiatze	-8.54303
▁mende	-8.54486
▁hezkuntza	-8.55107
▁Ondo	-8.55649
▁horien	-8.55762
▁eguzki	-8.55965
▁Edo	-8.56411
▁behera	-8.56482
▁harta	-8.56703
▁Adibide	-8.5691
▁12	-8.57463
▁begira	-8.57537
▁ze	-8.57587
▁batzuek	-8.57606
▁argia	-8.57608
▁C	-8.57668
▁erdia	-8.57805
▁garatu	-8.58253
▁gainbehera	-8.58304
▁dio	-8.58391
▁buruzko	-8.58665
▁T	-8.5883
▁gorputz	-8.5912
bat	-8.59152
ezazue	-8.59173
▁India	-8.59404
▁askota	-8.59428
▁dutenak	-8.59433
▁gizaki	-8.59473
▁Ni	-8.59758
▁jotze	-8.59851
▁digu	-8.60111
▁kontua	-8.60136
▁di	-8.60181
▁elkar	-8.61216
▁Horre	-8.61228
▁geure	-8.61237
▁barne	-8.61469
▁ura	-8.61527
▁New	-8.61628
▁Guzti	-8.6167
▁bezela	-8.61672
▁garela	-8.61678
▁ditudan	-8.61696
▁zoriontsu	-8.61697
▁ulertu	-8.61732
▁nolabait	-8.61732
▁ost	-8.6183
kuntza	-8.619
▁liteke	-8.62038
ote	-8.62456
▁H	-8.62698
▁aztertze	-8.62778
tasuna	-8.63049
▁baduzu	-8.63299
▁sartze	-8.6333
txe	-8.6342
▁garun	-8.63697
▁haste	-8.63785
▁garrantzi	-8.63815
▁bakoitz	-8.63871
▁ikaste	-8.64134
▁badut	-8.64258
ork	-8.65056
M	-8.65254
gai	-8.65337
▁40	-8.65464
▁ur	-8.65555
▁ekonomia	-8.65902
▁ulertze	-8.65957
▁espero	-8.66672
▁posible	-8.66675
▁hazi	-8.66702
▁hainbat	-8.66741
▁inola	-8.66772
▁gaixotasun	-8.66839
▁egindako	-8.66928
apos	-8.66934
▁istorioa	-8.67026
▁begiratzen	-8.67179
▁aita	-8.67239
▁handiena	-8.67257
▁zeuden	-8.67268
▁N	-8.67353
▁haien	-8.67396
▁eraiki	-8.67524
▁dituzue	-8.67646
▁Azken	-8.67956
▁on	-8.68497
▁berria	-8.68546
▁goi	-8.6879
▁nagusi	-8.68863
▁deitu	-8.68945
S	-8.69201
▁duzuen	-8.69367
▁antzeko	-8.69695
taz	-8.69797
▁ordu	-8.69828
▁moduko	-8.70141
▁ondorio	-8.70142
▁egunean	-8.70229
▁berriz	-8.7024
▁ezberdintasun	-8.70299
▁amaitu	-8.70725
zki	-8.70991
▁berezi	-8.71193
engan	-8.71201
▁de	-8.71271
▁dit	-8.71531
▁iheslari	-8.7165
▁uzte	-8.71707
▁sekula	-8.71909
▁hilabete	-8.71934
▁hainbeste	-8.71944
▁gatazka	-8.71946
▁Gero	-8.71953
▁Agi	-8.71994
▁gerra	-8.72026
▁jarraitu	-8.72116
▁datozen	-8.72175
▁ospitale	-8.72215
▁naizen	-8.72293
▁lotura	-8.72646
▁Izan	-8.72699
▁txarra	-8.72999
▁berdin	-8.73105
ba	-8.7312
▁nor	-8.7324
▁gazte	-8.73578
▁m	-8.73758
▁etorkizun	-8.73947
▁haur	-8.74014
▁horreta	-8.74334
▁ar	-8.74341
▁hona	-8.74517
▁Hitz	-8.74701
▁d	-8.74783
▁aurka	-8.74861
▁jarraitze	-8.75273
▁informazioa	-8.75311
▁estatu	-8.75584
▁dudana	-8.75655
lan	-8.75764
▁indarkeria	-8.7596
K	-8.76122
▁dezakezue	-8.76276
▁Berri	-8.76277
▁bait	-8.76418
▁hasiera	-8.76548
▁zuek	-8.77035
▁ekonomiko	-8.77225
▁istorio	-8.77229
▁heldu	-8.77452
▁bezain	-8.77489
▁pixka	-8.77495
▁jada	-8.77508
▁berbera	-8.77526
▁tresna	-8.77555
▁konturatu	-8.77597
▁ibili	-8.77606
▁forma	-8.77671
m	-8.77712
▁Horrek	-8.77966
▁mezu	-8.7802
▁irten	-8.7809
▁Beneta	-8.78189
▁toki	-8.78719
▁ikerketa	-8.7876
▁seguru	-8.79002
▁ikusmen	-8.79107
▁p	-8.79195
▁sozial	-8.79707
▁dirudi	-8.79764
▁kultura	-8.79871
▁berrir	-8.79913
▁beharrezkoa	-8.79944
▁1	-8.80051
▁gela	-8.80131
▁Ch	-8.80794
gun	-8.81445
▁babes	-8.81574
▁fisiko	-8.81814
▁nau	-8.82004
,	-8.82138
▁genuke	-8.82184
▁neure	-8.82251
000	-8.82322
▁bakoitze	-8.82432
▁konpainia	-8.82663
▁idatzi	-8.83274
▁giza	-8.83284
▁maite	-8.83372
▁Google	-8.83387
▁bildu	-8.83398
▁ezagutu	-8.83534
▁lagundu	-8.83556
▁sei	-8.83695
▁bete	-8.83706
▁ikas	-8.83818
▁su	-8.83874
▁irakasle	-8.8402
▁horta	-8.84153
▁aurkitze	-8.84167
▁luze	-8.84229
▁behe	-8.84241
▁espezie	-8.84412
▁itxura	-8.84415
▁gaitasuna	-8.84427
▁hari	-8.84431
▁badir	-8.84501
▁Di	-8.84501
▁gaude	-8.84697
▁indar	-8.84794
▁daukagu	-8.84871
on	-8.8488
▁kontu	-8.85064
▁Hona	-8.8525
l	-8.85537
iko	-8.85545
▁Irudi	-8.86019
▁zida	-8.86699
▁diote	-8.86712
▁Bat	-8.86798
▁zuri	-8.86958
▁onena	-8.87042
▁puntu	-8.87082
▁arazoa	-8.87276
▁soziala	-8.87341
▁elkarrekin	-8.87519
▁Amerika	-8.87546
▁proiektu	-8.87598
▁erakunde	-8.87607
▁dezaket	-8.87839
▁bate	-8.87913
▁erantzuna	-8.8826
▁ezta	-8.88269
az	-8.88406
▁kontra	-8.88438
▁heltze	-8.88588
▁gau	-8.88614
▁Den	-8.88785
▁ditzake	-8.88839
▁Zure	-8.88958
▁historia	-8.88987
▁hitzaldi	-8.89065
▁oroitzapen	-8.89229
▁jasotze	-8.89306
▁Musika	-8.89367
▁badakigu	-8.89623
▁nintzela	-8.89625
▁ongi	-8.89632
▁badaude	-8.89646
▁Zein	-8.89679
▁Bideo	-8.89691
▁saiatu	-8.897
▁gelditu	-8.89709
▁onartu	-8.89725
▁erosi	-8.8975
▁urrun	-8.8987
▁be	-8.89922
▁erabat	-8.9003
▁ireki	-8.9009
▁eragite	-8.90169
▁gailu	-8.90467
pen	-8.90687
ziki	-8.91004
▁elkarrizketa	-8.91027
▁umea	-8.9109
▁barre	-8.91268
▁etxera	-8.9149
erako	-8.92239
tzaile	-8.92799
▁zioten	-8.92939
ere	-8.93214
▁eremu	-8.9324
▁arrazoia	-8.93353
▁Zu	-8.93379
▁diot	-8.93501
▁irakurtze	-8.93628
▁kide	-8.93742
▁azaltze	-8.93759
▁barrua	-8.93874
▁berdintasun	-8.93974
▁die	-8.94102
▁ezaugarri	-8.94317
▁ate	-8.94763
▁izugarri	-8.95035
▁noiz	-8.95157
▁alda	-8.95249
▁100	-8.95286
▁aldi	-8.95385
▁zait	-8.9585
▁Mo	-8.95939
▁eredu	-8.96072
▁urteko	-8.96209
▁herrixka	-8.96288
▁minutu	-8.96289
▁axola	-8.96289
▁sekuentzia	-8.9629
▁Lehenengo	-8.96292
▁metro	-8.96351
▁zaituzte	-8.96366
▁bueltatu	-8.96379
▁garrantzitsuena	-8.96426
▁faktore	-8.96433
▁sineste	-8.96526
lki	-8.96623
▁prozesu	-8.96635
▁Emakume	-8.96753
▁poz	-8.96761
▁delako	-8.96783
▁h	-8.96793
▁hilekoa	-8.96796
▁naizela	-8.97044
▁agertze	-8.97171
▁kolore	-8.97376
▁bidaia	-8.9738
▁geratze	-8.97493
▁populazioa	-8.97543
▁daitekeen	-8.97794
▁pasatze	-8.98004
▁seinale	-8.9855
▁norbait	-8.98576
▁etorkizune	-8.98698
▁zentzu	-8.98716
▁gaixo	-8.98748
▁itzultze	-8.98793
▁aurpegi	-8.98797
les	-8.99429
▁benetako	-8.99465
▁dolar	-8.99514
▁emaitza	-8.99788
▁s	-9.00075
▁daukate	-9.00156
tara	-9.0018
▁ikuspuntu	-9.00906
▁norbaite	-9.01041
▁kalte	-9.01136
▁harreman	-9.01221
▁Hone	-9.01245
▁Batueta	-9.01287
▁ohi	-9.01337
▁egunero	-9.01559
▁aurreko	-9.01701
▁bidal	-9.01708
▁berdina	-9.01811
▁kontrola	-9.02081
▁sakon	-9.02252
▁galdetze	-9.02256
▁azkar	-9.02295
▁lanera	-9.02362
▁laguntze	-9.02532
▁dezakezu	-9.02682
▁modernoa	-9.02745
eure	-9.02871
▁kotxe	-9.02977
▁am	-9.03167
▁osasun	-9.03217
tuko	-9.0327
▁eduki	-9.03431
▁zigun	-9.03436
▁dauzkagu	-9.03444
▁Begira	-9.03452
▁alderdi	-9.03453
▁desagertu	-9.03493
▁ekarri	-9.03511
▁ohartu	-9.03519
▁merkatu	-9.03554
▁hazte	-9.0379
▁esperientzia	-9.03857
▁Jane	-9.0388
▁goaz	-9.0395
▁dituela	-9.04052
▁aldizkari	-9.04073
▁lotuta	-9.04103
▁arropa	-9.04289
al	-9.04584
▁harrigarria	-9.04738
▁neske	-9.04778
agoa	-9.05093
▁ezinezkoa	-9.05104
sarrer	-9.05264
algar	-9.05284
▁ordez	-9.05359
▁200	-9.05555
▁badu	-9.05909
▁atal	-9.0592
▁horretara	-9.05994
▁erdi	-9.0608
▁beharra	-9.06092
▁ehun	-9.06178
▁garrantzitsu	-9.06401
▁eskura	-9.06473
▁haurra	-9.06526
▁identitate	-9.06603
▁Ne	-9.06796
▁50	-9.06804
▁publiko	-9.06904
▁belaunaldi	-9.07139
▁konparatu	-9.0751
▁Badakizu	-9.07855
▁Lehen	-9.08242
pa	-9.08396
▁erraza	-9.08821
▁zaren	-9.08875
▁amona	-9.08992
▁mahai	-9.09012
▁oihan	-9.09217
▁beraien	-9.09463
▁handiago	-9.0953
▁gainera	-9.09549
▁hobe	-9.09598
enez	-9.09616
▁garapen	-9.09702
▁biztanle	-9.09745
▁urruti	-9.09831
▁jaio	-9.10002
▁ondorioz	-9.1029
mo	-9.1034
▁eraso	-9.1042
▁biktima	-9.10904
▁hurbil	-9.10906
▁honetara	-9.10943
▁gogor	-9.11116
▁Deah	-9.11123
▁Groenlandia	-9.11123
▁bizilagun	-9.11123
▁foku	-9.11124
▁mantendu	-9.11133
▁14	-9.11138
▁epe	-9.11147
▁aipatu	-9.11155
▁tarte	-9.11168
▁ezkerre	-9.11176
▁janari	-9.11187
▁dudala	-9.11231
▁berrikuntza	-9.1127
▁Egun	-9.11313
▁eroste	-9.1134
▁batzuen	-9.11365
▁Ha	-9.11389
▁adierazte	-9.11571
A	-9.11623
▁Du	-9.11763
▁inguruko	-9.11778
▁txiroen	-9.12208
▁izen	-9.12218
▁Lan	-9.1257
▁mugitze	-9.12614
▁erantzun	-9.12837
▁Mendebalde	-9.13026
▁onartze	-9.13251
ditugu	-9.13289
▁oro	-9.13306
▁telebista	-9.13307
▁aurrezte	-9.13344
▁gogoratze	-9.13467
▁makil	-9.13503
▁hobea	-9.13667
▁polizia	-9.13748
▁luza	-9.13899
▁Har	-9.14
▁ikasle	-9.14475
▁bizitzako	-9.14877
▁atze	-9.14915
▁zuena	-9.1494
▁zeu	-9.15206
▁Gizon	-9.15275
▁dizu	-9.15586
▁heriotza	-9.15709
ts	-9.15827
▁ingurumen	-9.15893
rak	-9.15922
▁arriskua	-9.1602
2	-9.16183
▁ber	-9.16238
▁teoria	-9.16407
▁bila	-9.16448
▁2	-9.16672
▁bilatze	-9.16819
▁komunitate	-9.17035
uz	-9.17185
▁menpe	-9.17265
▁gustoko	-9.17312
zia	-9.17339
▁argazkilari	-9.17353
▁etortze	-9.17493
▁igortze	-9.17663
▁ikuspegi	-9.17871
▁eragina	-9.17962
▁Montana	-9.18
▁handiko	-9.18056
▁Hon	-9.181
▁iragarki	-9.18203
▁guzi	-9.18242
zioa	-9.18288
▁guztieta	-9.18395
▁ala	-9.1859
▁dezakete	-9.187
▁ordenagailu	-9.18756
▁30	-9.18782
▁Unibertsitate	-9.19079
▁beldur	-9.1926
▁hazkundea	-9.19382
bergentzia	-9.19387
▁gaitu	-9.19388
▁lo	-9.19388
erezi	-9.19423
▁onura	-9.19445
▁Bonnet	-9.19456
▁LED	-9.19456
▁John	-9.19457
▁lirateke	-9.19457
▁pistola	-9.19457
▁zituela	-9.19457
▁borroka	-9.19457
▁konfiantza	-9.19457
▁batezbesteko	-9.19458
▁enpresa	-9.19458
▁Hiru	-9.19473
▁Alde	-9.19478
▁helburu	-9.1948
▁2.000	-9.1951
▁geratu	-9.19511
▁Txina	-9.1952
▁izeneko	-9.19578
▁txalo	-9.19639
▁Ho	-9.19746
▁Japonia	-9.19751
▁konektatu	-9.19763
▁Hain	-9.19824
▁Honela	-9.19887
▁Asko	-9.19912
▁hobetu	-9.2008
bide	-9.20086
▁Gain	-9.20164
eraz	-9.20304
▁honta	-9.20318
▁populazio	-9.20487
▁garbitzaile	-9.20623
▁zehatz	-9.2066
▁eskubidea	-9.207
▁maitasun	-9.20915
▁bikaina	-9.21054
▁beraiek	-9.21105
▁egotea	-9.21149
▁soinua	-9.21157
▁erraz	-9.21339
▁eskolara	-9.21524
▁z	-9.21643
▁eguneroko	-9.21756
▁Afrika	-9.21812
▁mantentze	-9.21859
▁dutena	-9.22345
▁lotze	-9.22348
▁dida	-9.22575
▁garaia	-9.23159
▁izena	-9.2317
▁Badaki	-9.23219
▁egitera	-9.23739
▁eztabaida	-9.23741
▁idazte	-9.23787
▁lege	-9.23818
▁badute	-9.23907
pena	-9.24298
▁esatera	-9.24442
▁zute	-9.24465
▁interesgarria	-9.24603
▁ehuneko	-9.24615
▁zaio	-9.24772
c	-9.25077
▁ikustea	-9.25155
kin	-9.25289
▁garuna	-9.25373
▁dituena	-9.25416
▁zahar	-9.25548
▁sare	-9.25616
▁momentu	-9.25741
▁kanpo	-9.258
bo	-9.25954
▁beharreko	-9.25991
▁Hiri	-9.26304
lgar	-9.26384
▁80	-9.26439
▁8	-9.26614
▁F	-9.26646
▁zaie	-9.26656
▁azpi	-9.26834
▁honela	-9.26845
▁ondorioa	-9.27076
▁hartzea	-9.2715
behera	-9.27182
▁oinarri	-9.27334
▁zelula	-9.27585
garri	-9.27616
arteko	-9.2769
▁mutil	-9.27736
▁Eur	-9.27865
▁gida	-9.28057
▁90	-9.28102
▁uharte	-9.28223
▁jasan	-9.28252
▁neur	-9.28267
▁lankide	-9.28398
▁Ur	-9.28416
alde	-9.28436
▁Titus	-9.28491
▁Siftable	-9.28499
▁Pertsona	-9.28547
▁Gizarte	-9.28547
▁esparru	-9.28547
▁Oinustu	-9.28548
▁erantzute	-9.28548
▁Steve	-9.28548
▁jasate	-9.28549
▁begi	-9.28549
▁laster	-9.28549
▁baliabide	-9.2855
▁bukatu	-9.2855
▁Nazio	-9.2855
usor	-9.28553
▁zazpi	-9.28553
▁txertatu	-9.28553
▁Bigarren	-9.28561
▁biziraupen	-9.28565
▁negozio	-9.28568
▁ezkondu	-9.28569
▁kontatu	-9.28572
▁gay	-9.28575
genu	-9.28598
▁dakit	-9.28622
▁normal	-9.28624
▁agertu	-9.28625
▁harrigarri	-9.28636
▁neurtze	-9.28643
▁Urte	-9.28679
▁lankidetza	-9.28727
▁Pentsatu	-9.28774
▁zien	-9.2878
▁dizkizue	-9.28895
▁joera	-9.28904
▁erabilera	-9.29093
▁gogorra	-9.29172
▁indarra	-9.29201
▁portaera	-9.29227
▁erabiltzeko	-9.2936
▁neurona	-9.29391
▁haurren	-9.29683
▁ekonomikoa	-9.29841
▁abar	-9.29893
▁dituztela	-9.30267
▁hobet	-9.30443
▁beteta	-9.30518
▁zeintzu	-9.30568
enak	-9.30702
▁zoragarria	-9.30818
▁liburua	-9.31026
▁kaxa	-9.31078
▁itsu	-9.31116
▁martxa	-9.31209
▁gaitez	-9.31275
▁etorkizuna	-9.31305
▁Haie	-9.31397
▁in	-9.31562
▁unibertsitate	-9.31653
▁kon	-9.31858
▁bider	-9.32112
▁atsegin	-9.32177
ngi	-9.32193
▁bateko	-9.32307
▁Al	-9.33028
▁San	-9.33091
▁sinple	-9.33314
▁Lo	-9.33836
▁gobernu	-9.33992
kiko	-9.34038
▁zabal	-9.34046
▁arau	-9.34182
▁kezka	-9.34331
ur	-9.34371
▁egokitze	-9.34554
▁lekua	-9.34769
▁kopurua	-9.34806
▁mailako	-9.3482
▁jabe	-9.3497
▁Ziur	-9.35192
▁gizartearen	-9.35799
p	-9.36028
▁aukeratu	-9.3604
▁60	-9.36456
▁arrunt	-9.36479
▁ingeniari	-9.36711
▁funtsezko	-9.36748
loi	-9.36848
tzera	-9.36884
I	-9.37108
▁ziur	-9.37149
▁diferente	-9.37272
▁garbitzailea	-9.37346
▁kasua	-9.3736
▁erlazio	-9.37539
▁gaitasun	-9.37739
▁nolako	-9.37752
▁gor	-9.37762
▁garunare	-9.37791
▁faltsu	-9.379
▁Jende	-9.38197
▁zerikusi	-9.38244
▁gustat	-9.3826
▁natura	-9.38295
▁programa	-9.38504
▁arrakasta	-9.38515
▁Hego	-9.38522
▁BPG	-9.38548
▁sinetsi	-9.38548
▁ipini	-9.38548
▁falta	-9.38548
▁gezi	-9.38549
▁Eskola	-9.38549
▁ahaztu	-9.38549
▁usain	-9.38551
▁elementu	-9.38553
▁litera	-9.38554
▁erronka	-9.38555
▁klima	-9.3856
▁genion	-9.38563
▁hirugarren	-9.38574
▁1,	-9.38575
▁biologia	-9.38585
▁alegia	-9.38597
▁txikia	-9.38599
▁espazio	-9.38622
▁asmatu	-9.38626
▁arreta	-9.38636
▁sentimendu	-9.3864
▁trebetasun	-9.38642
0	-9.38657
▁zaitezte	-9.3866
▁prestatu	-9.38684
▁irakurri	-9.3869
▁balu	-9.38696
ed	-9.38724
▁Bizitza	-9.38751
lako	-9.38765
▁eramate	-9.38772
▁Egin	-9.38879
▁azkarrago	-9.38889
▁bilakatu	-9.38889
▁bitxia	-9.3894
▁oinarria	-9.39305
▁desberdintasun	-9.39484
▁ero	-9.39576
▁elkartu	-9.39592
▁atzera	-9.39615
▁gainazal	-9.39766
▁lerro	-9.40044
▁funtse	-9.40357
▁ardura	-9.40876
▁bitartez	-9.40949
▁areto	-9.40956
▁idei	-9.41103
uen	-9.41112
hi	-9.41127
▁zenuke	-9.41216
▁umeen	-9.41254
▁gen	-9.41321
▁nagusia	-9.41421
tea	-9.41466
▁edonor	-9.41469
▁sormen	-9.41671
er	-9.41677
▁jendearen	-9.41677
▁iragane	-9.4175
▁eskaintze	-9.41788
▁R	-9.41801
▁zenute	-9.4187
▁zain	-9.42154
▁Gusta	-9.42203
▁aurkako	-9.42219
▁barru	-9.42335
▁artea	-9.4238
▁komunitatea	-9.42423
▁aktiba	-9.42522
▁Makina	-9.42595
▁eserit	-9.42786
▁arrisku	-9.42886
alaba	-9.42918
▁Bada	-9.42957
▁Batzu	-9.43093
▁hartuta	-9.4312
▁iheslarien	-9.4316
▁4	-9.43174
▁froga	-9.43226
▁islatze	-9.43283
▁150	-9.43347
▁Tir	-9.43408
▁okerra	-9.43829
▁amaiera	-9.43879
erra	-9.43892
▁guztio	-9.44009
▁Zueta	-9.44108
▁doan	-9.4438
▁zatia	-9.44457
▁iritzi	-9.4446
tutako	-9.44735
etz	-9.44743
▁Ekialde	-9.4501
▁espektro	-9.45323
▁diseinu	-9.45347
▁gene	-9.45362
▁gauzeta	-9.45752
▁iriste	-9.45913
▁existitze	-9.45996
▁haren	-9.46025
▁amaitze	-9.46179
▁dauka	-9.46321
▁digute	-9.46579
▁diogu	-9.46661
5	-9.46688
▁interesa	-9.46743
▁Mendebaldea	-9.46926
▁zuelako	-9.46932
▁segurua	-9.46932
▁zoragarri	-9.46935
▁Herri	-9.46962
▁nano	-9.46976
▁gune	-9.46979
▁gauz	-9.47202
▁bikain	-9.4754
bait	-9.47604
▁La	-9.47814
▁makila	-9.47857
▁eskubide	-9.48146
▁7	-9.48331
▁zut	-9.48378
▁Zuek	-9.48479
▁beharre	-9.48585
har	-9.48714
▁zit	-9.48751
▁nindu	-9.48755
▁lur	-9.48792
▁bloke	-9.49048
▁dator	-9.49142
▁zibil	-9.49284
▁politika	-9.49311
▁Pentsa	-9.4938
▁po	-9.49484
▁bilaka	-9.49568
▁Londres	-9.49658
▁Facebook	-9.49659
▁multzo	-9.49659
▁musulman	-9.49659
▁prentsa	-9.49659
▁Denbora	-9.49659
▁zigute	-9.49659
▁jakite	-9.49659
▁gehiegi	-9.49661
▁Giza	-9.49661
▁etengabe	-9.49664
▁konpondu	-9.4967
▁arlo	-9.49671
▁2050	-9.49672
▁zegoela	-9.49673
▁Ameriketa	-9.49675
▁tolest	-9.49685
▁bagar	-9.49688
▁sermoi	-9.49689
▁gainditu	-9.49693
▁nazioarte	-9.49694
▁kazetaritza	-9.49695
▁azalpen	-9.49728
▁Zerbait	-9.49736
▁segurtasun	-9.49748
▁genezake	-9.49752
▁Beh	-9.49787
▁base	-9.49803
▁dizuedan	-9.49813
▁amets	-9.49845
▁banu	-9.49869
▁bezalakoa	-9.49895
▁abiadura	-9.49952
▁orokorra	-9.49955
▁mugikorra	-9.50091
▁Handia	-9.50214
▁badakit	-9.50271
▁tratatze	-9.50313
▁zeharka	-9.50314
▁lehenago	-9.50335
▁sortzea	-9.50389
▁zaretela	-9.50436
▁hara	-9.50479
▁gauzen	-9.50623
▁zaharr	-9.507
▁laburre	-9.5079
▁arrakastatsua	-9.50878
▁Ideia	-9.50918
▁antzerako	-9.5094
gailu	-9.50955
▁zin	-9.51008
so	-9.51047
▁musikari	-9.51131
▁nigan	-9.51205
tasunaren	-9.51367
▁algoritmo	-9.51368
▁alaba	-9.51369
▁larri	-9.51582
▁elkarren	-9.51592
▁Hizkuntza	-9.51711
▁konponbide	-9.51742
▁Etxe	-9.51974
▁guri	-9.521
▁Aizu	-9.52325
▁memoria	-9.52345
▁hirien	-9.52543
▁Erlijio	-9.52707
▁ibiltze	-9.52803
▁handitu	-9.52899
▁jarrita	-9.52957
▁garena	-9.52961
▁Bos	-9.53224
▁material	-9.53488
▁ezberdintasuna	-9.53954
▁jar	-9.54061
▁hauetako	-9.54076
▁zuk	-9.544
▁desberdina	-9.54449
eran	-9.54533
▁hiltze	-9.54545
aldia	-9.5457
▁horre	-9.54676
▁aldeko	-9.54688
▁ma	-9.54806
▁burura	-9.54873
▁norvegiarre	-9.54885
▁gradu	-9.5498
▁Bet	-9.55012
▁balit	-9.55163
all	-9.55411
▁berde	-9.55445
▁batzu	-9.55856
ox	-9.56524
▁kontrol	-9.56652
eb	-9.56662
▁Ja	-9.56712
sarrera	-9.56977
ino	-9.5702
▁urdina	-9.57041
▁i	-9.572
8	-9.57288
▁egoki	-9.57341
▁eur	-9.57518
▁eraikitze	-9.57545
ke	-9.5808
▁entzutea	-9.58347
▁doaz	-9.58368
▁behi	-9.58543
▁zuhaitz	-9.58551
arazte	-9.58587
▁esatea	-9.58637
tsu	-9.58653
bi	-9.58671
id	-9.58677
▁aberats	-9.58908
▁hegazkin	-9.58916
apen	-9.58966
▁zaigu	-9.59132
▁b	-9.59242
▁Jakin	-9.59364
▁deza	-9.59513
▁natural	-9.59521
▁Erre	-9.59543
de	-9.59562
▁gorde	-9.5963
▁truke	-9.5994
▁guztien	-9.60079
▁oinarrituta	-9.60103
d	-9.60118
▁gizartea	-9.6014
▁nabari	-9.60269
▁jarrai	-9.60377
▁argitaratu	-9.60393
▁erlijioa	-9.60412
▁prest	-9.60531
▁6	-9.60791
▁kokatu	-9.60904
▁familiak	-9.61188
▁interes	-9.61219
zue	-9.61304
▁gori	-9.61357
▁joko	-9.61363
▁gaine	-9.61483
▁haueta	-9.61536
▁25	-9.61692
▁harri	-9.61768
▁handikoa	-9.6191
▁erru	-9.62044
▁Gerta	-9.621
▁ugari	-9.62158
▁Erantzun	-9.62159
▁Interneta	-9.62159
▁grafika	-9.62159
▁diplomazia	-9.62159
▁litzaidake	-9.6216
▁deskribat	-9.62162
▁kendu	-9.62163
▁Amira	-9.62165
▁emozional	-9.62165
▁23	-9.62165
▁esanahi	-9.62166
▁Norbait	-9.62167
▁27	-9.62167
▁ezagutza	-9.6217
▁suntsitu	-9.62177
▁ezarri	-9.62183
▁jardun	-9.62187
▁The	-9.62191
▁Hasi	-9.62206
oski	-9.6222
▁zabaldu	-9.62239
▁oinarrizko	-9.62257
▁erruki	-9.62263
▁zitzaidan	-9.62267
▁hazkunde	-9.62272
▁ezkontza	-9.6232
▁Datu	-9.62354
▁ministro	-9.62442
▁70	-9.62477
lah	-9.62485
▁zerikusirik	-9.62557
▁etika	-9.62557
hots	-9.62568
▁dabiltza	-9.62604
▁Suedia	-9.62669
▁gizona	-9.62722
▁elektriko	-9.62742
▁xa	-9.6275
▁bilatu	-9.6276
▁Joan	-9.6279
▁gustatu	-9.62862
▁grafiko	-9.62864
▁okerrago	-9.62885
es	-9.62946
▁hizketa	-9.62953
▁Egia	-9.63047
son	-9.63052
▁min	-9.63056
▁Nor	-9.63148
▁Ma	-9.6317
iente	-9.63337
▁irudikatze	-9.63382
▁moderno	-9.63403
maila	-9.63413
▁izandako	-9.63643
▁goren	-9.63645
▁planeta	-9.6367
tin	-9.63817
▁zeki	-9.6385
▁komunikazio	-9.63878
▁Am	-9.6388
▁oker	-9.63885
▁nahastu	-9.6389
▁igo	-9.63947
▁sarrera	-9.64238
▁emakumeek	-9.64322
▁mina	-9.6434
▁Dema	-9.64446
▁baldin	-9.64477
▁kale	-9.64477
6	-9.64491
▁izugarria	-9.64504
▁gako	-9.64532
▁zenbaki	-9.64675
▁hauen	-9.64811
▁instrumentu	-9.64904
▁ditugula	-9.65021
▁kanpoko	-9.65082
▁bidaltze	-9.65335
uak	-9.65387
▁unitate	-9.65474
▁kanpaleku	-9.65535
▁gainerako	-9.65548
▁diseinua	-9.65951
▁senarra	-9.65997
▁lotu	-9.66057
▁Dena	-9.66138
vo	-9.66192
▁Han	-9.66272
▁hizkuntz	-9.66862
us	-9.67006
▁pareta	-9.67093
▁guztietako	-9.6715
▁berdintasuna	-9.67175
▁Su	-9.67234
izueke	-9.67263
▁proba	-9.67265
▁lurr	-9.67273
▁eskuine	-9.6733
gandi	-9.67422
▁galtze	-9.67636
h	-9.677
▁sekretu	-9.67819
▁ohiko	-9.68087
▁estudioa	-9.68126
▁aire	-9.68132
▁erabiltzea	-9.68305
▁bideo	-9.68427
▁konpara	-9.68554
▁emakumeen	-9.68868
muturr	-9.6903
tsi	-9.6908
egia	-9.69138
▁estatue	-9.69495
▁ingurune	-9.69506
▁neurria	-9.69527
▁ohartze	-9.69696
goa	-9.69868
▁kontrolatze	-9.69875
▁bil	-9.69915
▁beterik	-9.69966
▁ezberdina	-9.70098
uko	-9.70162
▁ditzakete	-9.70342
▁eseri	-9.70562
pe	-9.70568
▁Batu	-9.70581
ton	-9.70872
▁mugimendua	-9.70913
▁dion	-9.71
talde	-9.71339
▁eskatze	-9.71386
eria	-9.71502
rantz	-9.71667
ista	-9.71774
▁Ga	-9.7215
aitezke	-9.72206
nere	-9.7223
▁saio	-9.72368
▁Ar	-9.72482
▁zaude	-9.72729
arengana	-9.72827
tzuk	-9.72878
▁polita	-9.73007
▁profesional	-9.73144
▁asmo	-9.73237
▁lurra	-9.73427
▁murriztu	-9.73496
▁diegu	-9.73573
▁adi	-9.73793
▁gauden	-9.74114
▁Bar	-9.74443
▁gurasoen	-9.74465
▁dezakezuen	-9.74642
▁Britainia	-9.74717
▁Afganistane	-9.74722
▁esanda	-9.74753
▁sor	-9.74761
▁neu	-9.74775
▁bana	-9.74787
▁zapata	-9.74942
▁gorputza	-9.74978
▁argazkia	-9.75082
▁arraro	-9.75083
zarete	-9.75096
▁askoren	-9.75189
▁adina	-9.75218
lema	-9.75234
4	-9.75314
su	-9.75329
▁kontzientzia	-9.75331
▁ja	-9.75419
▁datoz	-9.75547
▁daukat	-9.75659
▁ben	-9.75992
▁besteen	-9.76055
▁Ipar	-9.76412
▁2016	-9.76444
▁David	-9.76444
▁ELGA	-9.76444
▁Energia	-9.76444
▁Herrixka	-9.76444
▁Itxaro	-9.76444
▁haurtzaroa	-9.76444
▁museo	-9.76444
▁tekniko	-9.76444
▁Eremu	-9.76444
▁Liburu	-9.76444
▁likido	-9.76444
▁pausu	-9.76444
▁lasai	-9.76444
▁helmuga	-9.76445
▁zihoa	-9.76445
▁bertsio	-9.76445
▁Leku	-9.76445
▁Razan	-9.76446
▁dagokione	-9.76447
▁topatu	-9.76448
▁berehala	-9.76448
▁nituela	-9.76448
▁kirol	-9.76448
▁marrazki	-9.76451
▁Ikerketa	-9.76459
estazio	-9.76464
▁armada	-9.76466
▁gonbidatu	-9.7647
▁bisita	-9.7647
▁Behar	-9.76479
▁Asia	-9.76482
▁zeregin	-9.76488
▁zizkida	-9.7649
▁izaki	-9.76491
▁AB	-9.765
zaizkidan	-9.76524
▁praktika	-9.76529
▁jabetza	-9.76538
▁hartzaile	-9.76541
▁garbitze	-9.76546
▁erritmo	-9.76568
▁irrati	-9.7657
▁dizkigute	-9.76573
▁tradizional	-9.76575
▁For	-9.76593
▁indartsu	-9.76604
▁norbera	-9.76618
di	-9.76675
▁zioen	-9.76714
orrot	-9.7672
▁dantza	-9.76769
▁u	-9.76783
▁isiltasun	-9.76783
▁ezusteko	-9.76802
▁atari	-9.76805
w	-9.76809
▁bazen	-9.76848
▁geni	-9.76848
▁zitekeen	-9.76851
etariko	-9.76859
▁Neure	-9.76866
▁kantitate	-9.76873
▁paper	-9.76909
▁hildako	-9.76913
▁adimena	-9.76943
▁sortutako	-9.76977
▁presio	-9.77007
▁19	-9.77096
▁sindromea	-9.77105
▁ordaintze	-9.77114
▁sinesmen	-9.77134
▁sekularr	-9.77144
▁iheslariek	-9.77257
▁zinen	-9.77285
▁enprese	-9.77293
▁antolatu	-9.77323
▁bizidun	-9.77346
zeko	-9.77424
oi	-9.7759
▁oroimen	-9.77666
▁aritu	-9.77742
▁doazen	-9.77786
▁orokorre	-9.77818
▁guda	-9.77835
gan	-9.77883
▁esperimentatze	-9.78125
00.	-9.78292
▁zeukan	-9.78371
▁ha	-9.78445
zuen	-9.78448
▁tiro	-9.78472
▁gaituzten	-9.78532
▁arriskutsua	-9.78584
▁iman	-9.78648
▁bota	-9.78733
▁ederra	-9.78796
▁dutenek	-9.78803
▁Amerikar	-9.78817
▁zaitu	-9.78831
▁telefono	-9.78855
▁pi	-9.78876
itxaropena	-9.78959
▁es	-9.79002
▁ingelese	-9.79014
▁dituzun	-9.79108
▁Zenba	-9.79343
ze	-9.79581
kor	-9.79858
▁pertsonen	-9.79865
▁berari	-9.79867
▁Se	-9.80014
▁sa	-9.8007
▁zabaltze	-9.80086
▁garrantzitsuago	-9.80086
▁gehiengo	-9.80153
▁sabatikoa	-9.80207
▁politikoa	-9.80247
▁digital	-9.80267
arra	-9.80472
▁horr	-9.80828
dan	-9.80953
▁ile	-9.80981
▁jarr	-9.80992
▁itxit	-9.81051
▁zentzua	-9.81342
txo	-9.81435
areki	-9.81515
▁bageni	-9.81536
▁Bain	-9.81559
sio	-9.81585
▁nukeen	-9.81815
katu	-9.81955
▁eskua	-9.81987
▁hasierako	-9.82105
▁beltz	-9.82124
dazue	-9.82161
▁guztion	-9.82218
▁ezagun	-9.82391
▁erlijioen	-9.82571
▁urdin	-9.82749
urrengo	-9.82779
▁kopuru	-9.82878
▁tipo	-9.8293
▁siniste	-9.83016
▁oraingo	-9.83073
or	-9.83091
et	-9.83186
enik	-9.83203
▁batetara	-9.8322
▁idazkera	-9.83245
▁aurkitzea	-9.83272
▁airea	-9.83483
▁azkarra	-9.83515
▁daukaten	-9.83641
▁Ze	-9.83901
▁demokrazia	-9.84073
▁prob	-9.84087
▁55	-9.84351
tzailea	-9.8444
▁neurri	-9.84457
▁eskaera	-9.84693
▁lanbide	-9.84856
▁hama	-9.8492
ing	-9.85002
ola	-9.85032
tatu	-9.85225
bete	-9.854
▁tira	-9.85424
▁unibertsitatea	-9.85495
▁J	-9.85595
▁gertu	-9.85602
▁aberastasuna	-9.85614
▁Argi	-9.85873
▁landa	-9.86204
▁dioten	-9.86368
▁Batzue	-9.86472
▁gelditze	-9.86529
▁Era	-9.86885
lo	-9.87115
▁bideoa	-9.87168
▁animalia	-9.87244
▁tra	-9.87476
sistema	-9.87547
▁des	-9.87857
▁daukagun	-9.87978
atzeko	-9.8808
▁hamarkad	-9.88155
▁logo	-9.88282
itu	-9.88356
▁altua	-9.88467
etxe	-9.88582
▁ab	-9.88606
▁Argazki	-9.88619
▁digitala	-9.88776
▁konplexua	-9.88818
ezko	-9.88911
ber	-9.88925
▁larria	-9.89037
▁Mundua	-9.89264
gana	-9.89458
itza	-9.89493
▁sendo	-9.89568
▁ditzakezue	-9.89666
▁imajinatze	-9.89694
▁hobetze	-9.89977
B	-9.90002
to	-9.9005
▁ohe	-9.90119
zten	-9.9021
C	-9.90233
▁nahas	-9.90261
▁aberatsen	-9.90306
▁konexio	-9.90374
▁pobre	-9.90383
etsita	-9.90575
reko	-9.90674
▁global	-9.90678
▁garatze	-9.90746
▁9	-9.90918
▁apurtu	-9.91009
▁Hezkuntza	-9.91021
▁500	-9.91085
▁ahalmen	-9.91358
▁ateo	-9.91416
7	-9.91465
▁antzera	-9.9155
▁inportante	-9.91648
ezina	-9.91711
T	-9.91739
▁iraultz	-9.91743
▁erlijioek	-9.9175
▁senti	-9.91763
▁berezia	-9.91794
▁mezua	-9.91799
▁euri	-9.91838
bada	-9.91849
liteke	-9.91872
ketak	-9.91967
2-	-9.91976
▁Or	-9.92194
▁daukazu	-9.92262
▁zehaz	-9.92267
▁igotze	-9.92334
▁nora	-9.9244
▁lehor	-9.92471
▁pribatu	-9.92477
▁Kong	-9.92688
▁Bali	-9.92722
azpiko	-9.92788
▁motel	-9.92833
▁ulertzea	-9.92837
▁eroso	-9.92871
▁dituzu	-9.92871
▁espiritu	-9.92898
▁gehiagok	-9.92983
▁diseinatze	-9.93003
▁arabi	-9.93012
rozesu	-9.93086
osible	-9.93095
▁emozio	-9.93105
garren	-9.93109
▁je	-9.9311
▁Gehien	-9.93111
▁Alzheimer	-9.93111
▁Ekonomia	-9.93111
▁Hegoafrika	-9.93111
▁Keith	-9.93111
▁Txernobil	-9.93111
▁bizikleta	-9.93111
▁demokratiko	-9.93111
▁lapurreta	-9.93111
▁naiteke	-9.93111
▁ondasun	-9.93111
▁psikoterapia	-9.93111
▁soldadu	-9.93111
▁trumoi	-9.93111
▁xehetasun	-9.93111
▁Ilargia	-9.93111
▁Teoria	-9.93111
▁jakinduria	-9.93111
▁liberal	-9.93111
▁Etorkizun	-9.93111
▁altzairu	-9.93111
▁diplomatiko	-9.93111
▁jardute	-9.93111
▁kondenatu	-9.93111
▁hutsune	-9.93112
▁estrategia	-9.93112
▁suertat	-9.93112
DR	-9.93112
▁jorratze	-9.93112
▁opari	-9.93112
▁identifikatu	-9.93113
▁arrosa	-9.93113
▁printzipio	-9.93113
▁GKE	-9.93114
▁Aukera	-9.93114
▁esperimentu	-9.93115
▁existitu	-9.93115
▁Garai	-9.93115
▁pantaila	-9.93115
▁zinateke	-9.93117
▁Momentu	-9.93118
▁konputazio	-9.93119
▁itsasgarri	-9.9312
▁Une	-9.93121
▁kartzela	-9.93121
▁Mandela	-9.93121
▁errepide	-9.93122
▁estresagarria	-9.93122
▁bikoiztu	-9.93123
▁hein	-9.93127
▁osagai	-9.93128
▁geunde	-9.93135
▁erlijiosoa	-9.93136
▁litza	-9.93137
▁ahalegin	-9.93137
▁partekatu	-9.93149
▁zeremonia	-9.93152
▁arraza	-9.93154
▁1994	-9.93161
▁izaera	-9.93164
▁aberatsagoa	-9.93164
▁tinta	-9.93166
▁Soin	-9.9317
▁ahots	-9.93174
▁mugitu	-9.93182
▁eskaini	-9.9319
dirudi	-9.93192
▁esperimentatu	-9.93196
▁anaia	-9.93205
▁are	-9.93207
▁inon	-9.93213
▁instituzio	-9.93228
▁piztu	-9.93241
▁Oinarri	-9.93242
▁euskar	-9.93252
▁segundu	-9.93259
▁abantaila	-9.93261
▁aplikatu	-9.9327
▁200.000	-9.9327
gabe	-9.93272
▁aske	-9.93272
▁errepikatu	-9.93273
▁produktu	-9.93281
▁alderatu	-9.93295
▁biratu	-9.93299
▁boto	-9.93301
▁baliatu	-9.93308
▁maiz	-9.93333
▁esteka	-9.93359
▁zaitezke	-9.93362
▁hoberena	-9.93376
▁Bizi	-9.93378
▁handitzea	-9.9341
▁aurreztu	-9.93422
▁11	-9.93423
▁kultural	-9.93446
▁zaizkio	-9.9346
▁humanitario	-9.93482
▁harro	-9.93504
iragazki	-9.93506
▁mendebalde	-9.93516
▁elite	-9.93548
▁iturri	-9.93582
▁barneratze	-9.93607
▁militarra	-9.93676
▁komunikatze	-9.93705
▁kab	-9.93713
▁Ro	-9.93733
esia	-9.93733
▁eboluzionat	-9.93737
▁izanda	-9.93738
▁txart	-9.93759
▁gogorarazte	-9.93763
▁fi	-9.93774
▁Lau	-9.93814
aga	-9.9385
▁ikusle	-9.93871
▁Aurkitu	-9.93915
riak	-9.93921
▁adine	-9.93951
doa	-9.93974
▁urriko	-9.9399
▁proposatu	-9.94031
▁nekien	-9.94056
▁funtzio	-9.94074
▁perfektua	-9.94144
▁ziurtatze	-9.94183
▁lekutan	-9.94262
▁antz	-9.94275
▁jan	-9.94282
▁dis	-9.94299
▁Sei	-9.94352
▁konpaini	-9.94419
▁kanpora	-9.94479
istema	-9.94502
▁irtete	-9.94514
▁zaizu	-9.94524
▁kontatze	-9.94673
▁300	-9.94735
▁hilerokoa	-9.94758
▁fine	-9.94765
▁geu	-9.94768
▁zeinek	-9.9493
▁AEB	-9.94941
▁bultzatze	-9.9519
▁irabazte	-9.9522
raino	-9.9534
▁zientifiko	-9.95356
▁harrapatze	-9.95515
▁sin	-9.95581
▁ahalmena	-9.9566
▁tr	-9.95714
▁harritu	-9.95785
▁luzera	-9.95946
▁haieta	-9.96004
ris	-9.96018
▁desagertze	-9.96056
▁Park	-9.96073
▁kutxa	-9.96094
▁magia	-9.96095
▁Enpresa	-9.96098
bilera	-9.96148
▁diet	-9.96237
▁Kontua	-9.96574
▁imajina	-9.96649
▁amaren	-9.96766
aina	-9.96778
and	-9.96856
tasa	-9.96922
▁betetze	-9.96932
▁adin	-9.96963
keria	-9.96994
▁idazteko	-9.97146
dos	-9.97284
▁ezker	-9.97534
▁abia	-9.97554
▁ikasketa	-9.97636
▁Berria	-9.9764
▁pieza	-9.97729
ura	-9.97763
▁gel	-9.97767
▁mediku	-9.9782
enetariko	-9.97939
▁interesgarri	-9.98034
▁hegazkine	-9.98161
▁Lane	-9.98175
ortzi	-9.9819
▁dezate	-9.98314
biltzen	-9.98421
▁estres	-9.98424
▁eralda	-9.98502
atzea	-9.98513
▁elektrizitatea	-9.98557
sta	-9.98618
eraino	-9.98627
▁babeste	-9.98663
▁Jo	-9.98774
▁uki	-9.98812
▁harremana	-9.98894
▁eskueta	-9.99122
▁antolatze	-9.99323
▁magnetiko	-9.99406
▁hiltzaile	-9.99544
▁langile	-9.99683
▁andrea	-9.99863
rengan	-9.99942
lari	-9.99944
▁bir	-10.0006
▁irakur	-10.002
▁azal	-10.0091
▁isolatu	-10.0094
▁euria	-10.0094
▁krisi	-10.0113
▁ehunekoa	-10.0137
▁iritzia	-10.0138
▁o	-10.0142
▁zeru	-10.0162
▁eska	-10.0165
ay	-10.0172
egi	-10.0179
▁Conor	-10.018
ntzako	-10.0189
▁baxu	-10.0207
▁diozu	-10.0216
▁Ema	-10.0233
▁ematea	-10.0237
▁ditzaket	-10.024
▁sal	-10.025
▁boterea	-10.026
▁indarkeriare	-10.0283
▁banatze	-10.0287
▁lor	-10.0303
▁berdea	-10.0304
▁emaitz	-10.0306
▁So	-10.0318
▁baxua	-10.0319
pat	-10.0364
▁zoro	-10.0368
▁Ume	-10.0379
▁gradua	-10.0384
ch	-10.0403
▁identitatea	-10.0419
▁zorionar	-10.0444
▁gogo	-10.0447
▁handik	-10.046
▁ikaragarri	-10.048
os	-10.0482
▁etxea	-10.0488
ti	-10.0498
▁ehund	-10.0516
▁198	-10.0518
▁aditu	-10.0574
ero	-10.059
riko	-10.061
▁Berta	-10.0615
▁seinalea	-10.0618
▁Dirua	-10.0623
▁emazte	-10.0633
▁pa	-10.0634
▁erlijioare	-10.0649
▁egitura	-10.0663
▁hileko	-10.0666
antza	-10.0667
▁iragan	-10.0671
▁Zora	-10.0674
▁irudia	-10.068
▁sar	-10.0683
ntzat	-10.0685
▁albiste	-10.0708
▁dakizu	-10.0745
ratzen	-10.0751
▁dituzuen	-10.076
▁Brasile	-10.0793
arazi	-10.0812
▁sormena	-10.0832
▁Funtse	-10.0834
f	-10.0835
pea	-10.0844
tua	-10.0855
▁et	-10.0863
▁ga	-10.0873
▁erreal	-10.0874
▁iraun	-10.0874
gina	-10.0885
▁errepika	-10.0894
▁18	-10.0904
▁dakigu	-10.0917
azio	-10.0919
▁harrigarrien	-10.092
den	-10.0921
▁film	-10.0922
▁bero	-10.0933
▁eraikin	-10.0934
▁linka	-10.095
▁parad	-10.0953
▁gorroto	-10.0959
▁oinez	-10.0964
▁Utzi	-10.0965
▁zaudete	-10.0967
▁goiz	-10.0968
▁ibil	-10.0973
▁itxaropen	-10.0976
dala	-10.0979
▁unibertsala	-10.0981
▁etsai	-10.0985
▁nengoe	-10.0998
▁Ame	-10.1004
▁hilero	-10.1008
▁Si	-10.1016
giten	-10.1018
▁gaituzte	-10.102
▁Eska	-10.1025
oaren	-10.1029
▁bidai	-10.1032
▁buelta	-10.1039
▁elkarreki	-10.1039
▁banatu	-10.1043
▁zientifikoa	-10.1044
▁onen	-10.1044
alaben	-10.1046
▁mil	-10.1047
▁zerbaiten	-10.1051
▁ditza	-10.1055
▁daki	-10.1056
▁irabaz	-10.106
ntzia	-10.1075
▁Lab	-10.1077
▁pro	-10.1077
▁badakizu	-10.1079
▁osa	-10.1079
▁irakaslea	-10.1083
uhin	-10.1096
▁lituzke	-10.1096
▁Espainia	-10.1096
as	-10.11
▁Iza	-10.1101
▁haserre	-10.1107
▁orrialde	-10.1109
▁margo	-10.1111
▁gehi	-10.1122
▁buruzagi	-10.1131
▁Istorio	-10.1131
itatea	-10.1133
▁zaidan	-10.1133
▁erro	-10.1134
eukan	-10.1139
▁baztertu	-10.1139
▁Ko	-10.114
▁elika	-10.1141
▁elektroniko	-10.1146
▁mugikor	-10.1151
▁faltsua	-10.1156
ir	-10.1159
suma	-10.1159
▁zuzena	-10.1161
▁irekitze	-10.1162
▁Europar	-10.1178
noiz	-10.1179
▁plan	-10.118
▁diseinatu	-10.1184
▁mi	-10.1185
▁istripua	-10.1188
▁pu	-10.1202
▁txar	-10.121
▁militar	-10.1224
▁galde	-10.1228
▁lukete	-10.1228
▁txakur	-10.1237
▁kas	-10.1237
▁adimen	-10.124
artean	-10.1247
▁beso	-10.1264
ekonomia	-10.1266
▁irri	-10.1266
ga	-10.1268
▁Amai	-10.1273
▁duzuena	-10.1289
▁paisaia	-10.1292
▁lehia	-10.1299
▁epai	-10.13
▁bio	-10.1301
▁erabilgarria	-10.1302
keriaren	-10.1308
▁Esper	-10.1309
▁zalantza	-10.1311
▁Arrazoi	-10.1311
▁Brazil	-10.1311
▁Erroma	-10.1311
▁Rosalie	-10.1311
▁arkitekto	-10.1311
▁aspektu	-10.1311
▁editore	-10.1311
▁errefuxiatu	-10.1311
▁injineru	-10.1311
▁inuit	-10.1311
▁makineri	-10.1311
▁partaide	-10.1311
▁pentsamendu	-10.1311
▁sentsazio	-10.1311
▁EEBBeta	-10.1311
▁Elkarrizketa	-10.1311
▁HIES	-10.1311
▁Harvard	-10.1311
▁erloju	-10.1311
▁gurpil	-10.1311
▁isuri	-10.1311
▁segundo	-10.1311
▁urrats	-10.1311
obietar	-10.1311
▁organismo	-10.1311
▁Frantzia	-10.1311
▁Oihan	-10.1311
▁Teknologi	-10.1311
▁letra	-10.1311
▁siriar	-10.1311
▁Puntu	-10.1311
▁krimen	-10.1311
▁moldatze	-10.1311
▁optimista	-10.1311
▁Arazo	-10.1311
▁basati	-10.1311
▁preso	-10.1311
▁txunditu	-10.1311
▁esponentzial	-10.1311
▁metxa	-10.1311
▁neurologiko	-10.1311
▁kafe	-10.1311
▁prozesua	-10.1311
▁zaindari	-10.1311
▁Ehun	-10.1311
▁ugal	-10.1311
▁aparkaleku	-10.1311
▁autoeraikuntza	-10.1311
▁Garapen	-10.1311
▁termino	-10.1312
▁aluminio	-10.1312
▁Ateismo	-10.1312
▁Tom	-10.1312
▁Zach	-10.1312
▁indize	-10.1312
▁Zenbait	-10.1312
zapi	-10.1312
▁erortze	-10.1312
▁Elur	-10.1312
▁medikuntza	-10.1312
▁laino	-10.1312
▁malgu	-10.1312
▁igel	-10.1312
▁gatoz	-10.1313
▁Odol	-10.1313
▁hegoalde	-10.1313
▁aplikazio	-10.1313
▁daitez	-10.1313
▁apal	-10.1313
▁idazle	-10.1313
▁gertakizun	-10.1313
▁NB	-10.1314
▁ipintze	-10.1314
▁eszena	-10.1314
▁16	-10.1314
▁miloi	-10.1314
▁Lagun	-10.1314
▁hamar	-10.1314
▁oreka	-10.1315
▁trebatu	-10.1315
▁kimiko	-10.1316
▁nagoelako	-10.1316
▁diezaieke	-10.1317
▁galera	-10.1317
▁gatazke	-10.1317
▁adierazpen	-10.1317
▁Aste	-10.1318
2,5	-10.1318
▁saldu	-10.1318
▁edozer	-10.1318
▁aurkezpen	-10.1319
majinat	-10.1319
▁oparotasun	-10.1321
▁biztanleria	-10.1321
▁Ka	-10.1322
beragoa	-10.1322
▁Roman	-10.1323
▁21	-10.1323
▁Cas	-10.1324
▁nonbait	-10.1324
panel	-10.1325
▁denboraldi	-10.1325
▁susmo	-10.1326
▁kalitate	-10.1326
▁aparte	-10.1327
▁bereganatu	-10.1328
▁estatubatuarr	-10.1328
▁kontsumo	-10.133
▁partekatze	-10.133
▁17	-10.133
▁salbatu	-10.1331
▁adiskide	-10.1331
▁aholkularitza	-10.1331
▁mugatu	-10.1333
eak	-10.1333
▁euste	-10.1334
▁azpimarratu	-10.1334
▁ninduela	-10.1336
▁neuka	-10.1337
▁programazio	-10.1338
akeria	-10.1338
▁jatorrizko	-10.1339
▁sarri	-10.1339
▁Buru	-10.134
▁goza	-10.134
▁inpaktu	-10.1343
eratu	-10.1344
▁Musica	-10.1344
xika	-10.1345
▁Ezer	-10.1347
▁babeski	-10.1349
▁zieten	-10.1349
▁zitzaien	-10.1349
▁gehitu	-10.1351
▁negarr	-10.1352
bul	-10.1353
▁estali	-10.1355
▁badirela	-10.1357
▁deritzon	-10.1357
▁Neska	-10.1357
▁erlazionatuta	-10.136
▁danborra	-10.1363
▁amerikarra	-10.1364
▁begiratzea	-10.1364
▁mehatxu	-10.1365
▁irakaste	-10.1366
▁Alda	-10.1366
▁er	-10.1369
▁herria	-10.1371
▁Non	-10.1372
▁bultzatu	-10.1374
▁ohitu	-10.1377
▁Bit	-10.1378
kaldea	-10.1386
NA	-10.1389
▁Sal	-10.139
▁batzue	-10.1392
▁zibila	-10.1392
▁famili	-10.1395
▁erres	-10.1396
▁gaixotasuna	-10.1396
nioke	-10.1406
▁emakumezko	-10.1406
▁lortutako	-10.1408
▁mental	-10.1413
▁diodana	-10.1416
▁tradizioa	-10.1417
▁inperio	-10.1418
▁gorren	-10.1421
▁biktim	-10.1422
▁benetazko	-10.1426
▁kortex	-10.143
▁13	-10.1435
▁istripu	-10.1436
▁egurr	-10.1438
agarria	-10.1438
▁azpiegitura	-10.1439
▁kalera	-10.1445
▁harrapatu	-10.1447
▁Harritu	-10.146
▁zidala	-10.1462
▁ospa	-10.1468
▁hautatu	-10.1472
▁gorrotoa	-10.1488
▁betea	-10.1493
▁gorrotoz	-10.1495
3	-10.15
▁hautsi	-10.1503
▁datorren	-10.1504
▁mez	-10.1505
▁Paz	-10.1508
▁behartu	-10.1509
▁konektatze	-10.1509
▁tasa	-10.1509
▁Conorre	-10.1509
zama	-10.1512
▁arraroa	-10.1515
▁klik	-10.1517
▁arma	-10.1518
▁zapat	-10.1532
▁tuberkulosia	-10.1544
rren	-10.1545
▁ahula	-10.1547
▁ezartze	-10.1554
▁txa	-10.1555
tze	-10.1559
▁Ju	-10.1567
▁unibertsitatera	-10.1569
▁eten	-10.1583
▁arbasoe	-10.1586
▁industria	-10.1592
▁burutu	-10.1594
▁hiriaren	-10.1596
oazen	-10.1599
▁konplexu	-10.1632
▁tenporale	-10.1634
▁barregarri	-10.164
▁maitagarri	-10.1641
v	-10.1643
deratz	-10.1666
▁filma	-10.167
▁lurrera	-10.1676
▁luketen	-10.1679
▁murrizt	-10.1684
▁nazional	-10.1686
▁zeude	-10.169
▁gaituen	-10.1697
▁berr	-10.1704
▁badituzu	-10.1713
▁pertsonal	-10.1718
▁ikuspegia	-10.1727
▁lineal	-10.1731
ea	-10.1731
▁akademiko	-10.1737
▁gordetze	-10.1748
▁zaudeten	-10.1749
▁Norvegia	-10.1791
▁Mar	-10.1795
▁honelako	-10.1803
▁ezberdineta	-10.1817
▁zaigun	-10.1838
▁naturala	-10.1841
▁sendatze	-10.1842
▁nauen	-10.185
▁zibilizazioa	-10.1869
▁askatasuna	-10.1889
▁gustokoen	-10.1904
▁zabala	-10.191
▁ondorengo	-10.1911
▁daukan	-10.1914
▁bali	-10.1919
▁erdiko	-10.1931
▁pasibo	-10.194
ve	-10.194
▁oihana	-10.1947
▁konturatze	-10.1949
▁geldi	-10.1957
man	-10.1964
▁Siriar	-10.1978
▁azpiko	-10.1991
▁daitezkeen	-10.2016
▁amaitzea	-10.2019
bel	-10.2033
dela	-10.2037
atik	-10.2047
▁egokitz	-10.2051
▁Diru	-10.2051
▁txikiagoa	-10.2058
▁pertsonek	-10.2065
▁zerama	-10.2101
▁ekartze	-10.2106
▁pena	-10.211
▁batenga	-10.2126
tuz	-10.213
etaz	-10.2136
▁Aurrera	-10.2139
▁Co	-10.2145
▁txinatarra	-10.2153
byte	-10.2165
▁gastat	-10.2186
▁propioa	-10.2206
bui	-10.2213
▁ikaragarria	-10.2217
0.	-10.2245
▁kezkatu	-10.2248
▁eran	-10.225
▁jokatze	-10.2279
▁dezaketen	-10.2285
▁ikasgaia	-10.2288
▁aurki	-10.2293
▁dizue	-10.2293
▁sinplea	-10.2294
▁sistemak	-10.231
▁bizitz	-10.2329
▁l	-10.2337
▁Umeen	-10.2339
▁bihur	-10.2358
ol	-10.2374
ore	-10.2387
nto	-10.2392
ow	-10.2399
hat	-10.2413
kortasuna	-10.2414
agai	-10.2441
▁Pa	-10.2442
▁funtzionamendua	-10.2443
▁beldurr	-10.2464
▁Batasuna	-10.2466
▁na	-10.2479
▁izatearen	-10.2481
▁ilun	-10.2495
han	-10.2506
▁zail	-10.2508
ozer	-10.2527
iak	-10.2539
▁denek	-10.2543
uzten	-10.2558
ost	-10.2561
▁dibertigarria	-10.2592
▁publikoa	-10.2594
▁gogoa	-10.2595
▁Leona	-10.2601
me	-10.2652
▁haie	-10.2653
▁Bur	-10.2654
ash	-10.2654
▁erraldoia	-10.2659
▁eraikita	-10.2671
▁txiro	-10.2687
▁sen	-10.2696
▁Gogor	-10.2716
▁atz	-10.2723
▁Lehena	-10.2725
zuetako	-10.273
th	-10.2749
▁muga	-10.275
▁hauste	-10.2754
iek	-10.2757
▁ger	-10.2763
▁krisia	-10.2768
▁hutsa	-10.2805
▁fabrika	-10.2841
grafia	-10.2845
kortex	-10.287
aldaketa	-10.2873
we	-10.2896
▁orria	-10.2901
▁propietatea	-10.2904
▁aldea	-10.2905
▁altxatze	-10.2906
▁altu	-10.2919
▁osatze	-10.2931
▁burmuin	-10.2954
▁Ti	-10.297
takoa	-10.2973
▁ezazu	-10.2997
gen	-10.3015
▁populazioar	-10.3018
▁itxi	-10.3032
▁batengan	-10.3037
▁sala	-10.3065
▁espeziea	-10.3103
▁aurkezte	-10.3129
utako	-10.3136
gaia	-10.3145
pit	-10.3148
▁sabatiko	-10.3151
▁saihest	-10.3154
▁asper	-10.3183
dio	-10.3198
rrak	-10.32
he	-10.3205
▁bur	-10.3207
▁txikiago	-10.3207
▁iheslarie	-10.321
kada	-10.3241
▁astero	-10.3241
▁Hur	-10.3246
▁laburra	-10.3247
▁baitu	-10.3255
▁bihotzeko	-10.3273
▁ku	-10.3285
od	-10.3289
▁zenbakia	-10.3295
▁Handi	-10.3298
▁irte	-10.3307
▁jokabide	-10.3318
▁funts	-10.3323
ekien	-10.3327
▁bizitze	-10.3349
▁kar	-10.335
bizi	-10.3352
amendu	-10.3389
▁orde	-10.3395
dozein	-10.3401
at	-10.3409
el	-10.341
▁batzuetara	-10.3412
yn	-10.3414
▁hega	-10.3444
▁Aita	-10.3455
▁fede	-10.3457
▁nabarmen	-10.3481
▁Haur	-10.3483
▁eske	-10.3491
txoa	-10.3498
▁korapiloa	-10.35
▁dirudite	-10.3504
▁Gor	-10.3506
▁agintari	-10.3507
▁orokor	-10.3509
▁dakizue	-10.3512
lak	-10.3522
▁iz	-10.3531
▁ziurr	-10.355
▁ikusmena	-10.3554
▁familiako	-10.3555
▁Ikas	-10.3558
▁kanp	-10.3563
elektrifikatu	-10.3566
asun	-10.357
▁kaleeta	-10.3591
F	-10.3618
▁ieza	-10.3618
▁geroa	-10.362
sti	-10.3638
eskuratu	-10.3643
izazioa	-10.3644
▁li	-10.3647
fluxu	-10.3655
▁merke	-10.3657
▁suta	-10.3659
barre	-10.3663
▁Internete	-10.3666
haluzinazio	-10.3672
inak	-10.3674
zuten	-10.3674
N	-10.3676
P	-10.3677
prozesu	-10.3677
zegoen	-10.3679
▁eraginkorra	-10.3682
▁zaintze	-10.3682
▁bale	-10.3684
monik	-10.3685
▁epi	-10.3688
▁zeuka	-10.3691
▁gurasoek	-10.3702
agun	-10.3705
alian	-10.3706
▁iradoki	-10.3718
dur	-10.3721
bidea	-10.3721
▁paziente	-10.3726
▁albo	-10.3726
▁bitxi	-10.3731
▁auzo	-10.3741
▁apur	-10.3742
▁begieta	-10.3751
kretu	-10.3754
▁dauzkate	-10.3756
▁europar	-10.3759
mota	-10.3763
dura	-10.3765
▁tril	-10.3784
▁erizain	-10.3789
teknologia	-10.3789
▁itxaro	-10.379
▁Eskerr	-10.3796
▁bihotz	-10.3798
▁arr	-10.38
▁kazetari	-10.3802
▁1960	-10.3804
lix	-10.3807
▁lekuko	-10.3807
▁arnas	-10.3807
▁gose	-10.3807
fla	-10.3808
▁zaitez	-10.381
▁bortizk	-10.3811
▁xurga	-10.3811
Iraultza	-10.3811
zeimerra	-10.3811
▁Angeline	-10.3811
▁Erakutsi	-10.3811
▁Ezberdintasun	-10.3811
▁Francisco	-10.3811
▁Komunitatea	-10.3811
▁Konpainie	-10.3811
▁Oxford	-10.3811
▁Polizia	-10.3811
▁Portugal	-10.3811
▁Shanghai	-10.3811
▁Smith	-10.3811
▁alfabeto	-10.3811
▁arratoi	-10.3811
▁artikulua	-10.3811
▁audientzia	-10.3811
▁barkamen	-10.3811
▁dexente	-10.3811
▁eleberri	-10.3811
▁emergente	-10.3811
▁hodei	-10.3811
▁identifikatze	-10.3811
▁igaro	-10.3811
▁kutsadura	-10.3811
▁molekula	-10.3811
▁nuklear	-10.3811
▁software	-10.3811
▁tximu	-10.3811
▁ugaztun	-10.3811
▁ziurtagiri	-10.3811
▁zuhur	-10.3811
▁Eskozia	-10.3811
▁Inperio	-10.3811
▁Praktika	-10.3811
▁Tunisia	-10.3811
▁Zaharra	-10.3811
▁agenda	-10.3811
▁berreraiki	-10.3811
▁desadostasun	-10.3811
▁errespetu	-10.3811
▁hauteskunde	-10.3811
▁katedral	-10.3811
▁kontsumi	-10.3811
▁landetxe	-10.3811
▁lanpostu	-10.3811
▁mendebaldarre	-10.3811
▁teknika	-10.3811
▁Azter	-10.3811
▁Nigeria	-10.3811
▁Prentsa	-10.3811
▁hiztun	-10.3811
▁iruzur	-10.3811
▁kontaktua	-10.3811
▁kontsolamendu	-10.3811
▁nezake	-10.3811
▁Britania	-10.3811
▁aldarrika	-10.3811
▁buzti	-10.3811
▁errespetat	-10.3811
▁ertain	-10.3811
▁ezinbestekoa	-10.3811
▁ezkutatu	-10.3811
▁objektu	-10.3811
▁poltsiko	-10.3811
▁2.0	-10.3811
▁Erakunde	-10.3811
▁kaligrafia	-10.3811
▁okupa	-10.3811
▁196	-10.3811
▁auzi	-10.3811
▁Zentzu	-10.3811
▁sufrimendua	-10.3811
▁urduri	-10.3811
▁eskailer	-10.3811
▁erradikal	-10.3811
▁zirkuitu	-10.3811
▁interakzio	-10.3811
▁ezkutatze	-10.3811
▁susper	-10.3811
▁leher	-10.3811
▁parke	-10.3811
▁akats	-10.3811
▁taula	-10.3811
▁genituzke	-10.3811
▁testu	-10.3811
▁muntatze	-10.3811
▁heziketa	-10.3811
▁99	-10.3811
▁Marrazki	-10.3811
ness	-10.3811
▁jorratu	-10.3811
▁kexa	-10.3811
▁zirkunboluzio	-10.3812
▁konfidantza	-10.3812
▁opera	-10.3812
▁nindoa	-10.3812
▁arkitektura	-10.3812
▁antzema	-10.3812
▁egutegi	-10.3812
▁maitatze	-10.3812
▁genuela	-10.3812
▁ordaindu	-10.3812
exek	-10.3812
▁Txinatar	-10.3812
▁tratamendu	-10.3812
▁metal	-10.3812
▁eragozte	-10.3812
▁Erdi	-10.3812
ity	-10.3812
▁Badir	-10.3812
▁ikertzaile	-10.3812
▁Kasu	-10.3812
▁korrika	-10.3812
▁1986	-10.3813
▁hoieta	-10.3813
▁Eraso	-10.3813
▁edertasuna	-10.3813
II	-10.3813
▁ikutze	-10.3813
▁garaikide	-10.3813
▁zarrabete	-10.3813
▁gustukoen	-10.3813
▁murgildu	-10.3813
▁ahuldu	-10.3813
▁eraikuntza	-10.3814
▁garestia	-10.3814
▁tal	-10.3814
▁psiko	-10.3814
txip	-10.3814
▁tabu	-10.3814
▁2008	-10.3814
▁aurkezle	-10.3814
▁segida	-10.3815
▁1970.	-10.3815
▁ekite	-10.3815
▁Txor	-10.3815
▁egunkari	-10.3816
▁astebete	-10.3816
▁It	-10.3816
▁Neal	-10.3816
▁transmiti	-10.3817
▁zituztela	-10.3817
▁Irakasle	-10.3817
▁Maite	-10.3817
▁Amazonia	-10.3817
▁neba	-10.3817
▁Film	-10.3817
▁laurden	-10.3817
gintza	-10.3817
▁hausnartu	-10.3818
▁semealaba	-10.3818
▁irudimena	-10.3818
▁jatetxe	-10.3819
▁aktore	-10.3819
▁kezkagarri	-10.3819
nozoa	-10.382
▁abiatu	-10.3821
arestia	-10.3821
▁ekitaldi	-10.3821
▁txertatze	-10.3821
▁tratatu	-10.3821
▁doktrina	-10.3821
▁hargailu	-10.3822
▁inklusi	-10.3822
▁eskualde	-10.3823
▁pribatutasun	-10.3823
▁zentzumen	-10.3823
▁inguratu	-10.3823
▁ekosistem	-10.3823
▁aldendu	-10.3824
almart	-10.3825
▁sakabanatu	-10.3825
amp	-10.3826
▁gogoeta	-10.3827
▁Anaia	-10.3827
▁aparta	-10.3828
▁Harrigarri	-10.3828
▁kudeatze	-10.3829
▁postu	-10.3829
▁industrializatu	-10.3829
▁jarraitzaile	-10.383
▁Maitasun	-10.383
▁itsusi	-10.3831
▁zirkulu	-10.3832
▁monumentu	-10.3833
▁hurbildu	-10.3835
▁metodo	-10.3836
▁karrera	-10.3836
▁izugarrizko	-10.3836
▁ohar	-10.3837
▁erakusketa	-10.3837
▁News	-10.3838
▁Post	-10.3839
▁zitzaion	-10.3839
daukagu	-10.384
▁anten	-10.384
▁Normal	-10.3842
▁omen	-10.3842
▁oihuka	-10.3842
▁Zeha	-10.3842
ult	-10.3843
▁alderatuta	-10.3846
▁erresona	-10.3846
▁antza	-10.3849
▁kentze	-10.385
▁aitortze	-10.3851
▁hezte	-10.3852
lazioa	-10.3853
▁bozka	-10.3855
▁gehigarri	-10.3855
▁alderantziz	-10.3855
▁idatzitako	-10.3858
▁eliza	-10.3858
▁hunkigarri	-10.3858
▁interpretatze	-10.3859
▁barneratu	-10.386
etri	-10.386
▁gogoratu	-10.386
▁matematika	-10.386
▁zebile	-10.3861
▁sailka	-10.3861
▁biziraun	-10.3862
▁ekidin	-10.3862
▁lotsagarri	-10.3863
▁etxebizitz	-10.3863
orratz	-10.3866
▁arabiarra	-10.3868
oa	-10.3869
▁esna	-10.387
▁azkene	-10.387
▁suntsitzailea	-10.387
▁gaile	-10.387
▁salatu	-10.3873
superhidrofobiko	-10.3874
roteina	-10.3875
▁Galdetu	-10.3877
▁Erabat	-10.3882
▁hobeagoa	-10.3888
▁egokirik	-10.3892
intuen	-10.3894
▁emakumea	-10.3897
▁autoek	-10.3898
▁ateratako	-10.39
▁gidari	-10.3904
iboa	-10.3905
▁ezindu	-10.3908
▁Oker	-10.3908
iz	-10.3909
ry	-10.3911
▁ego	-10.3914
▁izpi	-10.3919
▁metatu	-10.3919
▁kode	-10.3923
ide	-10.3927
▁jolaste	-10.3927
▁Kongo	-10.3928
▁sentikorr	-10.3932
▁kontzeptua	-10.3935
▁zoaz	-10.3937
▁ontzi	-10.3937
50	-10.3939
▁hortz	-10.3942
▁osatu	-10.3945
▁indiar	-10.3945
▁herritar	-10.3946
iet	-10.3947
▁egiazko	-10.3949
▁osasunaren	-10.3951
▁0	-10.3955
▁inbertsio	-10.3956
▁gin	-10.3957
▁elkarri	-10.3958
▁Time	-10.3961
▁kate	-10.3963
▁gizonek	-10.3963
▁Entzun	-10.3965
▁Badirudi	-10.3966
▁berritzaile	-10.398
▁goizeko	-10.3983
▁hitzegite	-10.3985
nekien	-10.3989
▁hiriek	-10.399
▁inter	-10.3992
▁taldea	-10.3995
▁sendatu	-10.3998
▁dabilen	-10.4011
mena	-10.4013
▁aipa	-10.4017
▁Ber	-10.4018
▁Galde	-10.403
▁Esatera	-10.4033
▁elikatze	-10.4036
▁kam	-10.4044
▁geldiaraz	-10.4044
▁Adin	-10.4052
▁inkesta	-10.4052
▁premia	-10.4052
mehat	-10.4053
ocke	-10.4059
▁lurrare	-10.4059
ikoa	-10.406
▁Ohart	-10.4068
▁Erabil	-10.4079
alabek	-10.4081
▁txarragoa	-10.4089
steko	-10.409
▁erritu	-10.4093
▁odol	-10.4093
▁aitaren	-10.4096
▁and	-10.4098
▁haize	-10.4113
zun	-10.4116
▁dagoki	-10.4127
vel	-10.4129
una	-10.4129
▁prestatze	-10.413
▁65	-10.4132
▁zerbitzu	-10.4138
▁islatu	-10.4143
▁ditzate	-10.4157
▁para	-10.4162
▁zorion	-10.4163
▁gogoko	-10.4165
▁hartzera	-10.4169
▁neuk	-10.4177
din	-10.4178
van	-10.4187
▁betebeharr	-10.4189
▁pasatu	-10.4189
inako	-10.419
dor	-10.4197
▁suntsipena	-10.4198
▁argitaratuta	-10.4203
▁Titusen	-10.421
▁estatusa	-10.4211
▁integratua	-10.4215
▁trafikoa	-10.4219
▁aitzina	-10.422
▁pertsonaia	-10.4224
▁Ate	-10.4234
sia	-10.424
▁250	-10.4244
▁jaiotze	-10.4251
▁bakea	-10.4272
▁Utz	-10.4273
▁oinarritutako	-10.4274
ztapen	-10.4276
oinetako	-10.4278
▁iraunkor	-10.428
▁pertson	-10.4285
▁Brasil	-10.4289
ll	-10.429
▁link	-10.4304
▁Ras	-10.431
▁mintzatze	-10.4316
▁historiko	-10.4322
aski	-10.4328
▁autoa	-10.4331
▁dezakeen	-10.4335
▁zatitu	-10.4335
▁zareten	-10.4337
▁kur	-10.4347
tazio	-10.4348
ratu	-10.4349
uta	-10.4365
▁Dene	-10.4368
▁esaldi	-10.4373
▁legez	-10.4384
▁onar	-10.4393
▁Jar	-10.4398
▁Bata	-10.4399
▁eskuz	-10.4401
▁emaile	-10.4406
▁Ab	-10.4407
▁elurr	-10.441
▁Batua	-10.4412
▁aiz	-10.4413
ey	-10.4416
▁Ten	-10.4419
rry	-10.442
▁airez	-10.442
▁zauden	-10.4429
▁beharr	-10.443
▁bikote	-10.4435
▁aldia	-10.4444
sona	-10.445
▁zailago	-10.445
▁argitu	-10.4464
▁sabai	-10.4467
▁gosetea	-10.4467
▁bis	-10.4468
ozenak	-10.4471
▁txarr	-10.4471
▁ditzakezu	-10.4474
▁zaizkie	-10.4494
istan	-10.4496
▁eboluzio	-10.4502
itate	-10.4504
▁ordura	-10.4507
▁ulertzera	-10.452
gorra	-10.4527
▁berezko	-10.4538
▁arduratu	-10.4539
▁1900	-10.4543
▁ekintza	-10.4552
▁artista	-10.4562
▁dinamika	-10.4572
sten	-10.4573
▁gorria	-10.4579
▁banan	-10.4584
karrik	-10.4588
fa	-10.4594
▁lekuaren	-10.4595
▁hotza	-10.4597
▁mordoa	-10.4598
▁bilobe	-10.4602
topo	-10.4602
ldi	-10.4612
▁Indiara	-10.4615
sela	-10.4638
▁Gutxi	-10.4639
▁haurdunaldia	-10.4652
▁bu	-10.4676
▁idaztea	-10.4683
▁aurrez	-10.4687
zteko	-10.4718
▁lehena	-10.473
▁iker	-10.473
▁pisua	-10.4738
▁lehengo	-10.4742
▁jate	-10.4762
▁legea	-10.4767
tiko	-10.4769
▁media	-10.4772
posa	-10.4774
▁24	-10.4793
▁baldintza	-10.4808
▁komertzial	-10.4822
▁gertakari	-10.4833
zientzia	-10.4838
▁zerga	-10.4839
aldi	-10.4842
▁Horreta	-10.4846
▁Irudika	-10.4855
land	-10.4855
▁arra	-10.4857
▁erabilgarri	-10.49
zka	-10.4903
▁fabrikatze	-10.4911
▁lehentasun	-10.4913
▁serio	-10.4916
idate	-10.4923
▁dakizuen	-10.4927
arrak	-10.4973
▁iruditu	-10.4975
▁araua	-10.4978
doazela	-10.4986
kur	-10.5013
▁zeri	-10.5014
ita	-10.5039
▁Cha	-10.5041
▁Au	-10.5044
▁zar	-10.5047
▁zare	-10.5069
idazue	-10.5079
zulo	-10.5089
▁Gogo	-10.5096
gindako	-10.5103
▁aberastasun	-10.511
▁erraldoi	-10.5112
osa	-10.5135
gela	-10.5135
▁heriotz	-10.5143
ema	-10.5156
▁finantza	-10.5157
▁isla	-10.5163
▁mendeko	-10.5167
elako	-10.5171
gi	-10.5193
▁bestela	-10.5203
▁hormigoi	-10.5203
rrera	-10.5214
▁apara	-10.5216
ina	-10.5219
tez	-10.5238
▁f	-10.5243
▁Esku	-10.5247
▁Kon	-10.526
▁bikoizte	-10.527
▁bala	-10.5274
tariko	-10.5277
latu	-10.5277
▁bitarteko	-10.5278
▁eremua	-10.5285
ude	-10.5295
▁isil	-10.5315
▁lanbidea	-10.5315
atea	-10.5333
▁terrorista	-10.5336
lea	-10.5336
▁botere	-10.5343
▁handien	-10.5353
toki	-10.5358
▁zaharra	-10.5374
▁moz	-10.5378
▁mo	-10.5382
eki	-10.5397
▁beldurtze	-10.5425
▁txarren	-10.543
▁CD	-10.5445
▁arduratze	-10.5449
▁digun	-10.5451
▁Ireki	-10.5457
▁Ken	-10.5466
▁boteretsua	-10.549
▁esandakoa	-10.5495
▁4.	-10.5503
arte	-10.5503
ho	-10.5512
▁etsi	-10.5539
▁kostua	-10.5541
▁saia	-10.5544
▁esk	-10.5556
▁presidentea	-10.5569
▁ziklo	-10.5574
▁dakar	-10.5583
laria	-10.5584
▁indi	-10.5588
▁diseinatzaile	-10.5592
▁armairu	-10.5606
op	-10.5613
▁Ia	-10.5623
▁poster	-10.5625
▁azkarr	-10.5632
▁medikua	-10.5642
ologia	-10.565
▁ekonomi	-10.5654
▁Lurr	-10.5667
iarrak	-10.5673
▁sentitzea	-10.5676
▁bad	-10.569
▁funtziona	-10.5698
▁araberako	-10.5703
▁graba	-10.5712
▁Kont	-10.5713
intz	-10.5723
▁berez	-10.5728
▁zirudie	-10.5745
▁t	-10.576
▁bulego	-10.5765
teko	-10.5773
▁banizue	-10.5776
est	-10.5776
▁altxa	-10.5784
etak	-10.5797
nituzke	-10.581
▁beltza	-10.5816
▁aurpegia	-10.5816
▁liskarr	-10.5823
▁ekar	-10.5834
do	-10.5837
▁joka	-10.5843
▁daitekeena	-10.5843
▁magnetikoa	-10.5896
▁gertakaria	-10.5915
▁egokitu	-10.5928
▁gehiagoko	-10.5934
▁trukatze	-10.5983
▁ametseta	-10.6011
ziora	-10.6021
▁motako	-10.6043
▁luzea	-10.6045
ster	-10.6048
▁gehiagoren	-10.6054
▁hank	-10.6072
▁Banku	-10.6077
▁haurdunaldi	-10.608
alak	-10.6092
▁manten	-10.6119
urrun	-10.612
▁Atz	-10.6135
▁hotz	-10.6151
tzi	-10.6157
asi	-10.6178
▁Erlijioe	-10.6183
▁ke	-10.6189
atze	-10.6189
▁ilea	-10.6193
▁Neanderthalek	-10.6194
ukete	-10.6202
▁Azkene	-10.6206
▁erreakzio	-10.6211
▁aurrerapena	-10.6214
▁Esa	-10.6216
▁zibilizazio	-10.6222
▁Artea	-10.6237
▁antola	-10.6241
▁uda	-10.6246
▁geografia	-10.6257
▁zi	-10.6272
▁eraginkor	-10.6278
▁Mart	-10.6283
▁igor	-10.629
▁efektua	-10.6296
beste	-10.63
hartze	-10.6306
▁txiroek	-10.631
▁aulkia	-10.6313
pide	-10.6334
ztatu	-10.6335
▁geroz	-10.6338
▁dien	-10.6341
▁mailak	-10.6353
oek	-10.6357
▁liluragarria	-10.6358
▁sarea	-10.6364
▁ikusita	-10.6369
sa	-10.6389
▁Go	-10.6404
▁Txakur	-10.6419
▁do	-10.6422
▁amerikar	-10.6427
▁genuena	-10.6433
kide	-10.6442
▁aurkezt	-10.6445
▁so	-10.6483
▁lurzorua	-10.6496
D	-10.65
nazionala	-10.6511
▁maitasuna	-10.6523
eo	-10.6543
sare	-10.6549
▁zaintz	-10.6558
▁ekoiz	-10.6567
▁egote	-10.657
tuna	-10.6571
oia	-10.6577
▁ir	-10.6578
▁Gai	-10.658
gaixotasun	-10.6581
5.000	-10.6583
▁to	-10.6587
▁Aurk	-10.6594
zi	-10.6595
▁ai	-10.66
lde	-10.6604
▁Je	-10.6608
il	-10.6621
▁betebeharre	-10.6641
▁zeramat	-10.6645
▁Neanderthal	-10.6651
▁ask	-10.6652
▁Grezia	-10.6655
mutur	-10.6677
5.	-10.6712
▁hego	-10.6713
▁Ing	-10.6727
▁uharteeta	-10.6727
▁familiari	-10.6731
engana	-10.6736
▁dem	-10.6754
▁arrakastatsu	-10.6757
▁Noiz	-10.6774
▁odo	-10.68
bilen	-10.6802
smo	-10.6821
▁Landet	-10.6835
▁oroimena	-10.6837
▁Seku	-10.6868
▁Adi	-10.6876
azpi	-10.6893
truk	-10.6902
berdina	-10.6922
▁adieraz	-10.6925
▁hal	-10.6933
nam	-10.6939
▁diguten	-10.6941
▁bueltatze	-10.6946
▁sai	-10.6947
der	-10.6948
▁trans	-10.6948
ilioi	-10.6949
▁dizkio	-10.695
banku	-10.697
▁hitza	-10.6976
▁inperioa	-10.6976
erkide	-10.6978
sukalde	-10.6986
txartel	-10.6987
dimentsio	-10.6993
▁nerabe	-10.6993
O	-10.6994
krisia	-10.6997
▁erasotze	-10.6997
ahalmen	-10.7002
orre	-10.7003
presio	-10.7003
dezaket	-10.7008
laguntza	-10.7011
▁jatorri	-10.7011
gizartea	-10.7013
tesi	-10.7015
▁Uganda	-10.7018
usteko	-10.7018
org	-10.7024
ndu	-10.7024
iozu	-10.7034
▁iris	-10.7038
▁estal	-10.7042
▁bortxa	-10.7042
▁linea	-10.7043
▁minare	-10.7049
mentu	-10.7051
▁danbor	-10.7053
ilik	-10.7055
▁dizkie	-10.7064
▁pasatzea	-10.7065
▁moto	-10.7067
▁baditu	-10.7067
▁Aldi	-10.707
▁ministroa	-10.707
▁bal	-10.7073
bonba	-10.7078
▁merkat	-10.7079
▁negar	-10.708
fikoa	-10.7082
▁erlazionatu	-10.7085
gizta	-10.7089
▁segur	-10.7089
▁ipar	-10.7089
▁arabiar	-10.709
▁fr	-10.7091
izpi	-10.7093
▁integra	-10.7094
▁beldurgarri	-10.7096
▁autobus	-10.7105
▁bezero	-10.7105
▁Parise	-10.7105
alat	-10.7109
▁Elkarr	-10.7109
▁sexu	-10.7111
▁dizkigu	-10.7112
▁kurios	-10.7115
▁Bide	-10.7116
alizazio	-10.7118
▁goiza	-10.7121
▁Ge	-10.7122
tarrek	-10.7123
▁mant	-10.7123
▁praktikatze	-10.7124
is	-10.7125
▁atxilot	-10.7126
▁testig	-10.7126
atoz	-10.713
▁iraka	-10.713
iskat	-10.7132
▁dauzka	-10.7134
hu	-10.7136
▁or	-10.7139
▁ju	-10.714
▁utz	-10.714
▁aholkulari	-10.7141
▁inp	-10.7141
▁ezeroso	-10.7141
▁nega	-10.7142
uhaitz	-10.7142
▁And	-10.7142
▁gustu	-10.7142
▁konfigura	-10.7143
dentitate	-10.7143
▁termi	-10.7144
▁Mugi	-10.7144
roitzapen	-10.7144
elebista	-10.7144
istentzia	-10.7144
oritxarre	-10.7144
▁Beethoven	-10.7144
▁Khalid	-10.7144
▁kolektiboa	-10.7144
larru	-10.7144
oamerikar	-10.7144
saldura	-10.7144
▁Atlanti	-10.7144
▁Aurpegi	-10.7144
▁Austria	-10.7144
▁Bureau	-10.7144
▁Diseinu	-10.7144
▁Famili	-10.7144
▁Garraio	-10.7144
▁Haluzinazio	-10.7144
▁Kazetari	-10.7144
▁Kolonbia	-10.7144
▁Konpainia	-10.7144
▁Kultura	-10.7144
▁Ladakh	-10.7144
▁MSFre	-10.7144
▁Ministroa	-10.7144
▁Ordenagailu	-10.7144
▁Robards	-10.7144
▁Shakespeare	-10.7144
▁agerraldia	-10.7144
▁ahizp	-10.7144
▁alkandora	-10.7144
▁bolondres	-10.7144
▁deskarga	-10.7144
▁enbaxad	-10.7144
▁erreputazio	-10.7144
▁erromesaldi	-10.7144
▁eserleku	-10.7144
▁eskoziar	-10.7144
▁espaloi	-10.7144
▁filantropia	-10.7144
▁filtro	-10.7144
▁fusiformea	-10.7144
▁hijab	-10.7144
▁hutsegite	-10.7144
▁ilob	-10.7144
▁ingenieri	-10.7144
▁institutu	-10.7144
▁kalkulat	-10.7144
▁kamixeta	-10.7144
▁katolikoa	-10.7144
▁kausalitate	-10.7144
▁kolapsa	-10.7144
▁konbentzit	-10.7144
▁konparti	-10.7144
▁kontaktatu	-10.7144
▁korronte	-10.7144
▁kristal	-10.7144
▁kristau	-10.7144
▁kudeaketa	-10.7144
▁libre	-10.7144
▁partehartzaile	-10.7144
▁prebenit	-10.7144
▁presentzia	-10.7144
▁sentsore	-10.7144
▁solairu	-10.7144
▁solasaldi	-10.7144
▁superstizio	-10.7144
▁tentsio	-10.7144
▁terapia	-10.7144
▁ubeldur	-10.7144
▁ustiatze	-10.7144
▁zirraragarri	-10.7144
erantzukizun	-10.7144
▁Erradiazio	-10.7144
▁Fundazio	-10.7144
▁Gorputz	-10.7144
▁Hilabete	-10.7144
▁Pacifica	-10.7144
▁Singapur	-10.7144
▁UCLA	-10.7144
▁agresibo	-10.7144
▁alkohol	-10.7144
▁arratsalde	-10.7144
▁arrazional	-10.7144
▁bizikletentza	-10.7144
▁gasolindegi	-10.7144
▁geometriko	-10.7144
▁germaniko	-10.7144
▁harropu	-10.7144
▁hondamendi	-10.7144
▁idazmahai	-10.7144
▁intxaurr	-10.7144
▁jarduera	-10.7144
▁kiribil	-10.7144
▁ratio	-10.7144
▁vikingo	-10.7144
elektromagnetiko	-10.7144
▁Clint	-10.7144
▁Droga	-10.7144
▁Platon	-10.7144
▁bazenute	-10.7144
▁curriculum	-10.7144
▁erreaktore	-10.7144
▁experiment	-10.7144
▁ezohizko	-10.7144
▁goapo	-10.7144
▁hizlari	-10.7144
▁libra	-10.7144
globo	-10.7144
▁astiro	-10.7144
▁bizimodu	-10.7144
▁gizabanako	-10.7144
▁hilobi	-10.7144
faktura	-10.7144
▁Adam	-10.7144
▁Buelta	-10.7144
▁Guardia	-10.7144
▁Nukak	-10.7144
▁eragotzi	-10.7144
▁gizateria	-10.7144
▁kognitibo	-10.7144
▁Saiatu	-10.7144
▁atxikimendua	-10.7144
▁aholkat	-10.7144
▁ausaz	-10.7144
▁kilometro	-10.7144
▁komeni	-10.7144
▁bosniar	-10.7144
▁Kirol	-10.7144
▁Super	-10.7144
▁ahazte	-10.7144
▁demografikoa	-10.7144
▁hexa	-10.7144
▁kliniko	-10.7144
▁komiki	-10.7144
▁zaitzakete	-10.7144
▁paralelo	-10.7145
ilabiko	-10.7145
▁Emazte	-10.7145
▁diskurtso	-10.7145
▁zetorre	-10.7145
▁robot	-10.7145
▁erregistrat	-10.7145
▁hosto	-10.7145
▁iraute	-10.7145
▁jauste	-10.7145
▁heroi	-10.7145
▁lepo	-10.7145
▁Bru	-10.7145
▁amorratue	-10.7145
▁erantzunkizuna	-10.7145
▁fidagarri	-10.7145
▁trauma	-10.7145
▁Lege	-10.7145
▁Garun	-10.7145
▁asilo	-10.7145
▁Gatazk	-10.7145
▁eragile	-10.7145
▁True	-10.7145
▁nanometro	-10.7145
▁Aretoa	-10.7145
▁Ekintza	-10.7145
▁izpiritu	-10.7145
▁kontserbadore	-10.7145
ashington	-10.7145
▁Jainkoa	-10.7145
▁Somalia	-10.7145
▁esertze	-10.7145
▁erresilientzia	-10.7145
▁apartamentua	-10.7145
▁interpretazio	-10.7145
▁kontrakzio	-10.7145
▁baserri	-10.7145
TE	-10.7145
▁entre	-10.7145
stilu	-10.7145
▁titula	-10.7145
▁genituela	-10.7145
▁auzokide	-10.7145
▁mehe	-10.7145
▁muntatu	-10.7145
▁perkusio	-10.7145
▁pertzepzioa	-10.7145
▁zientzialari	-10.7145
▁ezohiko	-10.7145
▁lider	-10.7145
▁natzai	-10.7145
▁higiene	-10.7145
esastre	-10.7145
▁ezezaguna	-10.7145
▁kalkulu	-10.7145
▁korrelazio	-10.7145
rtiller	-10.7145
▁deformatu	-10.7145
▁gabiltza	-10.7145
▁badituzte	-10.7145
▁errekurtso	-10.7145
▁klase	-10.7145
▁ebakuntza	-10.7145
▁genioke	-10.7145
▁Eragin	-10.7145
▁espetxe	-10.7145
▁Zapata	-10.7145
▁konpani	-10.7145
▁zezakete	-10.7145
▁burdin	-10.7145
▁berreskuratu	-10.7145
▁kaskarra	-10.7145
▁Indar	-10.7145
▁ezabatu	-10.7145
▁zale	-10.7145
▁orkest	-10.7145
▁tinte	-10.7145
▁atzerri	-10.7145
▁afrikar	-10.7145
▁predikzio	-10.7145
▁zihurtat	-10.7145
▁Parlamentu	-10.7145
▁nanismo	-10.7145
▁prototipo	-10.7145
▁Talks	-10.7145
▁tumore	-10.7146
▁Tinta	-10.7146
▁konferentzia	-10.7146
▁tonu	-10.7146
identzia	-10.7146
▁harridura	-10.7146
▁sektor	-10.7146
▁ebazpene	-10.7146
▁2010	-10.7146
▁lehenbiziko	-10.7146
▁tripa	-10.7146
▁Txiro	-10.7146
▁hautagai	-10.7146
▁mesede	-10.7146
▁leun	-10.7146
▁kolpekatze	-10.7146
▁karratu	-10.7146
rabaki	-10.7146
▁liburutegi	-10.7146
▁spr	-10.7146
ig	-10.7146
▁adeit	-10.7146
eremonia	-10.7146
▁motor	-10.7146
▁Mende	-10.7146
▁urbanizazio	-10.7146
▁plaza	-10.7146
▁Pasa	-10.7147
olvo	-10.7147
▁Hill	-10.7147
▁iP	-10.7147
▁dorre	-10.7147
▁erail	-10.7147
▁intentsi	-10.7147
▁ahalbiderat	-10.7147
▁etsipen	-10.7147
▁herdoildu	-10.7147
fizial	-10.7147
▁193	-10.7147
▁diezaio	-10.7147
▁Hirugarren	-10.7147
▁bideragarria	-10.7147
avia	-10.7147
▁Luze	-10.7147
▁editat	-10.7148
▁ibilgailu	-10.7148
▁tranp	-10.7148
▁hondatu	-10.7148
▁aitona	-10.7148
erson	-10.7148
▁larrialdi	-10.7148
▁saskibaloi	-10.7148
▁Ikusmen	-10.7148
▁eraikuntze	-10.7148
▁masail	-10.7148
▁fax	-10.7148
ekonomiko	-10.7149
▁Esne	-10.7149
▁Tama	-10.7149
▁Zaila	-10.7149
▁sozio	-10.7149
▁interaktibo	-10.7149
rect	-10.7149
▁just	-10.7149
▁dirudiene	-10.7149
▁zizkioten	-10.7149
▁saltzailea	-10.7149
▁loturiko	-10.715
▁Sare	-10.715
▁biologiko	-10.715
▁sortzailea	-10.715
▁Dani	-10.715
▁belarri	-10.715
▁gozo	-10.715
▁bortxaketa	-10.715
▁baliotsua	-10.715
▁agintea	-10.715
▁ex	-10.7151
▁hipo	-10.7151
▁instituzional	-10.7151
ktikoa	-10.7151
mail	-10.7151
ismoa	-10.7151
▁anitz	-10.7151
▁Chem	-10.7151
▁argiztapen	-10.7152
▁ausarta	-10.7152
▁askatu	-10.7152
▁Gune	-10.7152
▁Sam	-10.7152
▁Makil	-10.7152
▁kutsu	-10.7152
▁Sarri	-10.7152
▁azterketa	-10.7152
▁alferrik	-10.7152
▁kolonia	-10.7153
▁dezakedan	-10.7153
▁tanke	-10.7153
lick	-10.7154
rdainsari	-10.7154
▁Masai	-10.7154
ferentzia	-10.7154
▁zuzendaritz	-10.7154
▁Zortzi	-10.7154
▁Talde	-10.7154
▁Edita	-10.7155
tem	-10.7155
▁kaltegarri	-10.7155
▁mingarria	-10.7156
▁bazekie	-10.7156
▁erlijiosoe	-10.7156
▁pisat	-10.7156
batuta	-10.7157
erehala	-10.7157
▁1960.	-10.7157
▁aberea	-10.7157
▁nekazari	-10.7157
▁didazu	-10.7157
▁heren	-10.7158
arrabete	-10.7158
▁sarbide	-10.7158
▁2000	-10.7159
▁zizu	-10.7159
▁fresk	-10.7159
▁marrazte	-10.7159
▁191	-10.716
▁otomandarra	-10.7161
▁bakarti	-10.7161
▁imitat	-10.7161
▁lagi	-10.7162
▁Sch	-10.7162
▁dakartza	-10.7162
▁atxilotu	-10.7163
▁testigu	-10.7163
▁Sc	-10.7163
▁arrain	-10.7163
▁Antzeko	-10.7164
▁Siftables	-10.7164
▁zoru	-10.7165
▁kg	-10.7165
the	-10.7165
▁ordezkari	-10.7166
▁kideengan	-10.7166
▁erabiltzailea	-10.7166
▁Senarra	-10.7166
alismo	-10.7167
▁ziurtatu	-10.7168
▁gutun	-10.7168
▁bideratu	-10.717
▁zergen	-10.717
▁Antz	-10.7171
▁kata	-10.7171
▁sailkapen	-10.7171
matiko	-10.7171
▁soluzionatze	-10.7173
▁Guda	-10.7174
▁akabatu	-10.7175
tiopia	-10.7175
▁tximino	-10.7175
▁sakatu	-10.7176
▁putzu	-10.7177
▁sinistu	-10.7177
▁militarre	-10.7177
▁sinesgarri	-10.7178
▁baliogarria	-10.7178
▁Gerra	-10.7178
▁afari	-10.7179
▁zenezake	-10.718
▁jazarpena	-10.718
▁sasoi	-10.718
▁graffiti	-10.718
▁Pat	-10.718
▁lezake	-10.7181
▁hidrofobikoa	-10.7181
▁konfigurazioa	-10.7181
▁doi	-10.7183
▁Paris	-10.7185
▁Lib	-10.7185
▁zitzaigu	-10.7187
inpaktua	-10.7187
▁kopiatu	-10.7187
▁Dar	-10.7187
▁deus	-10.7188
karri	-10.7189
▁zubi	-10.7189
▁bazar	-10.719
▁xu	-10.7191
▁piztuta	-10.7192
▁dakiguke	-10.7192
▁ene	-10.7193
▁toxiko	-10.7194
▁gerriko	-10.7195
zeano	-10.7195
▁mal	-10.7196
▁iragazte	-10.7196
▁janzte	-10.7196
▁hilgarria	-10.7197
▁Jaun	-10.7198
▁haluzinazioa	-10.7198
▁gener	-10.7201
▁aho	-10.7201
▁integratuta	-10.7202
stro	-10.7204
▁motelago	-10.7205
entzumen	-10.7206
▁zentro	-10.7206
▁imaginatu	-10.7209
▁esa	-10.7209
▁estu	-10.721
▁foto	-10.7211
▁ahaltsuen	-10.7212
▁etnia	-10.7212
fur	-10.7212
▁Inor	-10.7214
plantea	-10.7214
▁mantentzea	-10.7218
▁europarren	-10.7218
▁balor	-10.7218
▁erreil	-10.7218
▁erosotasun	-10.7219
▁Esate	-10.7219
▁dakigula	-10.7221
▁truk	-10.7222
▁Aldiz	-10.7222
▁marra	-10.7222
▁gabezia	-10.7222
him	-10.7224
▁jokatu	-10.7225
▁zori	-10.7225
▁eskein	-10.7226
▁espiritual	-10.7227
▁elkartea	-10.7232
▁bainu	-10.7232
▁bananduta	-10.7233
▁estua	-10.7236
▁ironia	-10.7238
▁psikologikoa	-10.7239
▁ipurdia	-10.7239
▁afaltze	-10.7241
▁Amaitu	-10.7244
▁humanitarioaren	-10.7252
▁aberatsek	-10.7252
▁altza	-10.7252
▁poltsa	-10.7254
▁gaituela	-10.726
oman	-10.7265
pertsonalizazioa	-10.7266
poa	-10.7267
▁euro	-10.7271
koitza	-10.7273
▁moraltasuna	-10.7274
▁baimen	-10.7274
▁Jendea	-10.7278
▁txakurra	-10.7278
▁iparraldeko	-10.7278
▁konplexutasun	-10.7278
▁Nahiko	-10.7278
▁Berdintasun	-10.7281
plata	-10.7284
▁gainditze	-10.7287
aritza	-10.729
▁Gab	-10.7291
diegu	-10.7292
▁Medi	-10.7294
▁behartsu	-10.7294
95	-10.7297
▁mon	-10.7298
▁Mal	-10.7301
▁Musikari	-10.7302
▁dimentsio	-10.7305
▁niretza	-10.7308
▁sukalde	-10.7309
86	-10.7311
▁teknologiko	-10.7313
▁saria	-10.7313
tar	-10.7315
ID	-10.7317
▁gertatutako	-10.7318
▁Gre	-10.7318
▁Unibertsitatea	-10.7318
▁sail	-10.7322
▁daitezkeela	-10.7322
▁maia	-10.7326
▁bazin	-10.7328
▁ani	-10.733
zea	-10.7331
▁Mor	-10.7336
tanda	-10.7346
▁zeharkatu	-10.7346
▁zintzoa	-10.7346
▁trebatze	-10.7349
▁zenuen	-10.7351
▁erraztu	-10.7354
▁la	-10.7354
▁osatuta	-10.7355
▁hirietara	-10.7356
sua	-10.7359
tzaileen	-10.7359
▁Ord	-10.7364
roge	-10.7365
▁erradiazioa	-10.7368
▁Handiaren	-10.7372
▁eraginkorrak	-10.7377
▁zatiak	-10.7378
ha	-10.7378
▁bare	-10.7381
▁bueltatzeko	-10.7382
▁diseinatuta	-10.7385
▁familiaren	-10.7387
▁Tuhin	-10.7387
▁Zuen	-10.7393
▁Lin	-10.7396
45	-10.7399
gin	-10.7408
▁Ang	-10.7408
▁Kab	-10.7411
▁tren	-10.7411
fe	-10.7412
▁nahaste	-10.7414
▁hitzegi	-10.7415
▁Edono	-10.7416
▁denda	-10.7417
▁daukatela	-10.7419
▁larriena	-10.7419
▁haserrea	-10.742
zinezkoa	-10.7425
▁bigun	-10.7427
kidan	-10.7429
ekuentzia	-10.7431
▁Ruanda	-10.7431
leek	-10.7432
ituen	-10.7443
▁suma	-10.7445
▁herrialdeek	-10.7445
erri	-10.7446
▁besteengan	-10.7447
▁beldurgarria	-10.7447
▁Mail	-10.7473
▁ebakuatu	-10.7473
▁motza	-10.7484
▁erlazioa	-10.7486
▁apai	-10.7487
▁aurretiko	-10.7488
▁dohain	-10.7491
▁laburbiltze	-10.7491
elektrifikatuta	-10.7496
▁sartzea	-10.7499
▁bikoitz	-10.7502
karra	-10.7502
▁emakumek	-10.7503
▁arrunta	-10.7503
ill	-10.7505
litatea	-10.7507
ray	-10.751
▁eginda	-10.7513
uaren	-10.7518
▁sufritu	-10.7523
▁eskuzko	-10.7523
▁orrialdeak	-10.7524
mente	-10.7529
korrak	-10.7531
▁perspektiba	-10.7533
▁landu	-10.7537
▁lituzkete	-10.754
▁Pri	-10.7543
▁Aurki	-10.7544
men	-10.7553
▁diguna	-10.7557
▁bueltak	-10.7558
kofa	-10.7559
▁Europarr	-10.7561
dar	-10.7565
edia	-10.7565
▁zenbatu	-10.757
nal	-10.757
▁pila	-10.7572
▁zelul	-10.7586
▁Streete	-10.7591
▁txartel	-10.7592
▁ekonomiaren	-10.7597
oro	-10.7601
▁Afganistan	-10.7601
▁koka	-10.7602
▁bestelako	-10.7609
▁mintzatu	-10.7611
▁Gurutz	-10.7613
▁itzel	-10.7616
▁menstruazioa	-10.7618
▁dieten	-10.7619
▁errazago	-10.7625
mia	-10.7627
▁korridore	-10.763
▁infekzio	-10.763
▁izenburu	-10.763
im	-10.7634
▁onuragarri	-10.7634
▁Alemania	-10.7636
▁agindu	-10.7637
▁Aurreko	-10.7647
▁Greziar	-10.766
▁minbizia	-10.7663
mailako	-10.7664
▁fedea	-10.7668
▁errege	-10.7673
▁diruditen	-10.7674
▁hegal	-10.7685
tsua	-10.769
▁dakiten	-10.7696
▁bidezkoa	-10.7702
▁gaia	-10.7705
▁Hurbil	-10.7707
esede	-10.7708
▁etsaieki	-10.7723
ler	-10.7736
▁txinatar	-10.7737
ator	-10.7739
▁iragarkia	-10.7741
▁ekoiztu	-10.776
▁Karr	-10.7764
▁dakigun	-10.7778
▁hi	-10.7781
non	-10.7783
▁lotsatu	-10.7785
▁beha	-10.7787
▁sistemaren	-10.7794
▁interesgarrien	-10.7801
▁konplikatu	-10.7807
▁Zoriona	-10.781
datu	-10.781
▁pizt	-10.7815
pin	-10.7824
ce	-10.7829
ste	-10.7829
▁ohea	-10.783
▁per	-10.7833
▁75	-10.7834
rek	-10.7838
▁soldat	-10.7841
▁amerikarre	-10.7852
▁teknologiaren	-10.7859
zazue	-10.7859
▁pik	-10.7859
▁zineten	-10.7867
▁ikastea	-10.7869
▁familien	-10.7883
▁saiheste	-10.7889
▁baliagarri	-10.7902
ezkoen	-10.7911
oriontsu	-10.7921
▁erditze	-10.7929
mint	-10.7933
netariko	-10.7942
▁gizarteek	-10.7951
ztasuna	-10.7952
x	-10.7953
▁fluxu	-10.7953
▁genukeen	-10.7954
nolako	-10.7971
▁salbuespena	-10.7972
▁propaganda	-10.7972
▁mat	-10.7975
▁Demo	-10.7979
▁hiritarr	-10.7997
▁Nan	-10.8001
▁autoen	-10.8008
▁irudipen	-10.801
▁jabetze	-10.8011
kabea	-10.8012
▁lehorra	-10.8013
▁15-	-10.8015
ikar	-10.8015
▁tri	-10.8019
▁badidazu	-10.8025
▁Jakina	-10.803
▁soine	-10.8031
▁liluragarri	-10.8037
▁Gertatu	-10.8038
b	-10.8043
▁199	-10.8063
ic	-10.8073
▁amaituta	-10.8086
▁aulki	-10.8089
▁diegun	-10.8098
▁horma	-10.8098
maile	-10.8115
▁ondorioeta	-10.8119
▁Lana	-10.812
zaile	-10.8128
▁lurre	-10.8132
▁Irak	-10.8139
▁analisia	-10.8145
tz	-10.8157
onturatu	-10.8158
▁teilatua	-10.8159
▁Hann	-10.8163
▁erreakzioa	-10.8174
▁Hiria	-10.818
▁grad	-10.8187
▁za	-10.8197
▁menpeko	-10.8201
▁margotu	-10.8215
▁Ta	-10.8219
baso	-10.8221
tzu	-10.8234
▁ezkontze	-10.8235
▁imaginatze	-10.8237
▁goize	-10.8244
▁moral	-10.8253
tegia	-10.8268
▁oroitz	-10.8273
ndorioz	-10.8284
▁hilekoareki	-10.8293
▁Arte	-10.8321
▁zoriona	-10.8322
▁gobernuare	-10.8326
ut	-10.8326
▁osasuntsu	-10.833
▁argiago	-10.8332
▁hartz	-10.8334
ux	-10.834
estruktura	-10.834
▁mozte	-10.8343
azalera	-10.835
▁ezaugarria	-10.8355
▁kontratu	-10.8356
▁nabarmentze	-10.8356
▁aldera	-10.8364
▁diogun	-10.8367
▁Goiz	-10.8373
▁gazteen	-10.8391
▁bereganatze	-10.8392
▁400	-10.8396
▁Nazional	-10.8426
▁lurreta	-10.8429
▁sartzera	-10.8431
itsi	-10.8431
▁hiria	-10.8431
▁badiot	-10.8444
▁imana	-10.846
▁no	-10.8473
min	-10.8484
▁Gel	-10.85
ida	-10.8508
lesko	-10.8508
▁zutena	-10.8509
▁Ziurtat	-10.8517
▁eskuratze	-10.8518
▁Informazio	-10.852
▁eskuzabaltasun	-10.8537
tilo	-10.854
▁interesatu	-10.8541
▁ailegatzea	-10.8542
argatuta	-10.8543
▁logoa	-10.8548
ula	-10.855
▁propietate	-10.8559
▁proiektua	-10.8561
▁Oste	-10.8566
▁baliatze	-10.8577
egon	-10.8578
ezin	-10.8585
arengan	-10.86
▁oztopat	-10.8606
rarazte	-10.8624
ets	-10.8644
▁trukatzea	-10.8655
▁itxurako	-10.8656
▁teori	-10.8659
sei	-10.8666
▁erakargarri	-10.8668
▁trisomiko	-10.8668
▁Eguzki	-10.867
▁onarpen	-10.8672
▁erasotzaile	-10.8677
▁ondorioztat	-10.8682
▁Oraingo	-10.8683
▁buruzkoa	-10.8689
▁nen	-10.8694
iztu	-10.8702
▁el	-10.8706
▁ingurugiro	-10.8707
▁errudun	-10.8708
▁jarioa	-10.8711
▁itzulpena	-10.8721
▁errugabea	-10.8722
▁logik	-10.8723
▁mugimendu	-10.8726
▁sakonagoa	-10.8726
▁ed	-10.873
▁eredua	-10.8735
zaguna	-10.8737
iezaio	-10.8738
▁bulegoa	-10.8743
▁dizkiete	-10.8748
▁osasunareki	-10.8749
▁espektroa	-10.8755
▁pake	-10.876
▁mark	-10.8773
▁aldatzea	-10.8777
▁jasangarria	-10.8783
▁hausnarketa	-10.8789
▁nanopartikul	-10.8794
biltzeko	-10.8803
▁zor	-10.8812
▁zaion	-10.8817
▁hirieta	-10.882
▁azkarrena	-10.8824
▁epaile	-10.8841
▁pal	-10.8843
ografia	-10.8893
▁pusk	-10.8905
▁matematikoa	-10.8913
▁Es	-10.8938
▁Argia	-10.8938
▁ikertze	-10.8949
▁potentziala	-10.8969
▁honako	-10.8974
▁Lurra	-10.8984
▁aurkez	-10.8991
ff	-10.8994
▁zikloa	-10.9003
▁gizakio	-10.9013
▁ariketa	-10.9014
▁Ait	-10.9018
▁txirotasuna	-10.9024
▁digitaliza	-10.9025
uan	-10.9033
▁arima	-10.9057
▁urri	-10.9073
▁oparoa	-10.9078
▁dezakezun	-10.9081
▁Angelese	-10.9096
▁aplika	-10.9097
▁saka	-10.9099
va	-10.9106
▁Guraso	-10.9111
▁gerturat	-10.9113
para	-10.9113
▁Ama	-10.9149
diko	-10.9166
▁Aurre	-10.9171
▁zoroa	-10.9173
▁fa	-10.9183
tutu	-10.9198
▁dirudien	-10.9201
▁pertsonentza	-10.9204
dioak	-10.9261
tapen	-10.9264
tzak	-10.9283
▁txinatarr	-10.9289
▁iluna	-10.932
▁erreko	-10.9324
▁trukea	-10.9333
▁terrorist	-10.9348
▁amaierari	-10.9373
▁belaunaldia	-10.9383
90	-10.9391
▁iraupen	-10.9397
▁Tx	-10.9399
muturre	-10.9424
▁eztabaid	-10.9426
▁Eg	-10.9443
▁tip	-10.9457
line	-10.948
▁horietara	-10.9481
korra	-10.9481
▁ingurugiroa	-10.9485
▁gogamene	-10.9488
▁san	-10.9509
▁me	-10.9512
▁zo	-10.9526
berri	-10.9531
▁dolarre	-10.9536
aile	-10.9539
▁erretze	-10.9555
▁ingurunea	-10.9555
▁man	-10.956
▁Ir	-10.9566
▁joatea	-10.957
▁Gurasoe	-10.9576
▁duenaren	-10.9583
aila	-10.959
▁probatze	-10.964
▁ezagu	-10.9652
sen	-10.9657
▁Ai	-10.9657
talak	-10.966
▁estudio	-10.9664
▁frog	-10.9668
enga	-10.968
orrago	-10.9681
▁senda	-10.9687
▁hone	-10.9692
▁horienga	-10.9696
abiadura	-10.9724
▁apar	-10.9727
▁kultur	-10.9728
▁potentzial	-10.9735
▁pultsu	-10.9745
▁Alt	-10.975
▁protest	-10.9753
▁norabide	-10.9754
▁Proiektu	-10.9757
▁ikasgai	-10.9759
▁ol	-10.9765
▁isolatua	-10.9765
▁txirotasun	-10.9773
▁sekretua	-10.9775
▁ideiaren	-10.9778
dez	-10.9779
▁ekialde	-10.9799
ontzia	-10.9801
▁monitariza	-10.9803
▁beharrezko	-10.9815
kate	-10.9818
▁Man	-10.9827
▁AEBeta	-10.986
▁aktib	-10.9866
▁inspira	-10.9876
lu	-10.9883
▁bilaketa	-10.9924
▁teknologi	-10.993
▁Li	-10.9934
gune	-10.9946
▁ongizatea	-10.9961
▁matematiko	-10.9984
▁marka	-10.9989
▁lotsa	-10.9993
eneko	-11.0008
maren	-11.0012
▁ateratzea	-11.0027
genitu	-11.0049
▁erruduna	-11.0056
▁andre	-11.0057
▁Eguzkia	-11.0059
▁trisomikoa	-11.0061
▁erakargarria	-11.0062
▁onarpena	-11.0062
▁zio	-11.0063
▁erasotzailea	-11.0066
▁atsegina	-11.009
duko	-11.0118
gabea	-11.0138
▁Erresona	-11.0142
▁inbertitz	-11.0147
▁indarre	-11.015
▁haser	-11.0174
tzia	-11.0177
▁hiltzailea	-11.018
txa	-11.0182
nian	-11.0258
▁luzatze	-11.0278
duan	-11.0288
▁posterr	-11.0294
▁ka	-11.0301
▁pisu	-11.0311
▁trukat	-11.032
mi	-11.0343
▁galtzea	-11.0346
▁lodi	-11.0356
▁mug	-11.0357
▁kax	-11.0358
ila	-11.0371
▁espezializatu	-11.0375
gira	-11.0379
iako	-11.0394
▁gainbeher	-11.0396
▁Goize	-11.0411
hartara	-11.0414
kapena	-11.0417
▁azpimarrat	-11.0422
▁Siria	-11.0422
▁beregana	-11.0426
▁aurrezpena	-11.0436
turiko	-11.044
▁ideiari	-11.0442
▁eder	-11.0478
▁Ser	-11.0489
▁imagina	-11.049
eraginkortasun	-11.0496
▁bes	-11.0502
▁weba	-11.0507
▁autop	-11.0514
▁pareko	-11.0537
▁eboluzioa	-11.0542
▁egokia	-11.0548
▁elkartze	-11.0551
▁zaizki	-11.0551
▁zenez	-11.0594
gel	-11.0607
▁ezaguna	-11.061
▁askatasun	-11.0628
▁Lu	-11.0632
▁gal	-11.0638
▁besteeki	-11.0642
▁herrialdea	-11.0643
▁kanpalekueta	-11.065
▁unitatea	-11.0675
▁azter	-11.0677
▁teilatu	-11.0678
mendua	-11.0682
▁bo	-11.0688
▁margotze	-11.0717
tor	-11.0751
▁ideologiko	-11.0751
▁ordezka	-11.0754
▁dokumental	-11.0756
▁egi	-11.0762
▁Be	-11.0764
▁Sa	-11.0764
▁eskol	-11.0766
▁saltze	-11.0771
▁Ima	-11.0773
▁badi	-11.0786
inatu	-11.0793
▁balia	-11.0815
▁ezinezko	-11.0832
31	-11.0836
▁zul	-11.0839
▁iza	-11.0844
▁eraikina	-11.0851
▁Suediar	-11.0853
▁bikotea	-11.0862
▁iheslarientza	-11.0869
ny	-11.0872
▁kontura	-11.0876
▁zigor	-11.088
▁zitzai	-11.0881
▁hel	-11.0888
▁elur	-11.0903
▁nesken	-11.0909
sterik	-11.0929
▁mintza	-11.094
nago	-11.094
▁defini	-11.0944
▁irudipena	-11.0964
0.000	-11.0978
▁esaldia	-11.0978
oniko	-11.0979
adi	-11.0979
▁Ke	-11.0982
▁kons	-11.0993
▁Entzu	-11.1001
▁Mut	-11.1004
▁bazter	-11.1017
endatu	-11.1018
▁mugi	-11.1023
apel	-11.1036
▁laborantza	-11.1078
▁gabea	-11.1082
▁desberdintasuna	-11.1084
▁dizut	-11.1087
▁nabarmena	-11.1097
▁Ad	-11.1098
ratutako	-11.1102
rtuta	-11.1115
ain	-11.1143
sto	-11.1144
een	-11.1154
E	-11.1156
sho	-11.1163
▁lab	-11.1174
▁Bre	-11.1174
▁abstra	-11.1175
▁Iheslarie	-11.1188
orporazio	-11.1201
▁email	-11.1206
▁kolorez	-11.1225
rreak	-11.123
▁Me	-11.1247
liburu	-11.1262
rill	-11.1265
▁fluxua	-11.127
hertz	-11.1278
▁jai	-11.1281
▁Best	-11.1283
▁gine	-11.1288
▁sak	-11.1288
▁gur	-11.1291
▁adibidea	-11.1292
▁zehatza	-11.1293
▁konpon	-11.1293
ther	-11.1297
▁Interes	-11.1302
zifra	-11.1311
▁adierazgarria	-11.1312
▁botatze	-11.132
elo	-11.133
20	-11.1346
▁komunikazioa	-11.1351
▁hunki	-11.137
▁Australia	-11.1387
▁Alemaniar	-11.1389
zaroa	-11.1398
▁gorako	-11.1414
ale	-11.1423
▁arrop	-11.143
▁ekip	-11.1436
▁zerbitzua	-11.1439
▁aurreratu	-11.1443
▁konbina	-11.1466
▁metakorra	-11.1475
▁susta	-11.1486
▁Nesk	-11.1487
▁haiz	-11.1493
keela	-11.1498
ati	-11.15
ekonomi	-11.1506
▁beh	-11.1512
▁ondorengoa	-11.1527
▁abarr	-11.1541
▁erectusa	-11.1546
▁sufri	-11.1555
▁okertze	-11.1573
▁35	-11.1574
▁fe	-11.1589
tzaren	-11.1621
▁herrialdeko	-11.1631
landia	-11.1632
▁emankor	-11.1636
garritasun	-11.1638
▁badizu	-11.1643
▁komunitateeta	-11.1649
▁arb	-11.1658
▁Ask	-11.1667
zelai	-11.167
urte	-11.168
▁inguruk	-11.1693
kopuru	-11.1694
intezke	-11.1694
gene	-11.1694
irudi	-11.1694
tokia	-11.1705
▁Gert	-11.171
hesi	-11.1713
▁Re	-11.1716
▁Emakumea	-11.1719
atari	-11.1724
mma	-11.1726
▁Bir	-11.1727
▁denentz	-11.1738
alab	-11.1746
▁komun	-11.1747
urik	-11.1772
kostu	-11.1776
pl	-11.1776
urreko	-11.1789
▁erradiazio	-11.179
einu	-11.1797
keen	-11.18
▁grafikoa	-11.1812
▁proposa	-11.1825
eti	-11.1831
▁ailegat	-11.1835
▁uzt	-11.1837
leku	-11.1839
tibo	-11.1839
▁humanitarioa	-11.1843
▁ater	-11.1846
▁kontsul	-11.1847
▁se	-11.1848
▁desagert	-11.185
▁Le	-11.1853
▁diodan	-11.1854
▁gosete	-11.1856
enteen	-11.1862
▁jolas	-11.1865
▁kontzeptu	-11.1868
▁Idaz	-11.1868
ely	-11.1874
▁kli	-11.1881
▁Beraie	-11.1884
9	-11.1888
▁onart	-11.1894
erio	-11.1902
▁interneta	-11.1903
▁diete	-11.1905
kame	-11.1908
izuet	-11.1909
ahastuta	-11.1909
rea	-11.1911
▁dabil	-11.1915
bana	-11.1928
▁Neske	-11.1929
▁Nahi	-11.193
▁iparralde	-11.193
▁oparo	-11.1934
▁Teknik	-11.1936
▁horm	-11.1939
▁kutsatu	-11.1941
▁ageri	-11.195
▁Egi	-11.1951
uzue	-11.1953
iar	-11.1958
entzia	-11.196
▁Mediku	-11.196
bizitza	-11.1961
bila	-11.1969
top	-11.1969
istor	-11.1969
depend	-11.1972
kortasun	-11.1972
▁Txalo	-11.1973
gorri	-11.1974
▁Tal	-11.1977
ikus	-11.1989
▁klikat	-11.199
▁hegazkina	-11.1991
pribatue	-11.1992
istorio	-11.1994
tipoa	-11.1996
sartzea	-11.1998
mehatxu	-11.2
mendebalde	-11.2002
▁ana	-11.2002
▁irakas	-11.2002
▁super	-11.2002
J	-11.2002
▁ide	-11.2004
atsegin	-11.2004
oihana	-11.2004
puntu	-11.2005
paper	-11.2005
elite	-11.2005
enetako	-11.2005
txura	-11.2005
ordenagailu	-11.2006
▁Pi	-11.2007
▁meta	-11.2007
G	-11.2008
R	-11.2009
industria	-11.2009
faktore	-11.2009
urreratu	-11.201
seguru	-11.201
handiko	-11.201
dearen	-11.201
guzti	-11.2011
struktura	-11.2011
eskola	-11.2012
80	-11.2012
energia	-11.2012
40	-11.2012
inguru	-11.2012
eskala	-11.2013
zirela	-11.2013
emaile	-11.2013
hiru	-11.2018
▁jantzi	-11.2019
▁hauts	-11.2021
▁hilda	-11.2022
hor	-11.2022
tra	-11.2023
emaitza	-11.2024
▁banandu	-11.2025
▁gardena	-11.2026
▁arm	-11.2033
▁Te	-11.2033
sus	-11.2034
▁txal	-11.2035
▁interpretat	-11.2037
▁bakteri	-11.2038
edo	-11.2043
niar	-11.2045
12	-11.2046
aizue	-11.2052
tegieta	-11.2053
Fi	-11.2053
▁zaiola	-11.2054
▁ingur	-11.2055
ci	-11.2055
▁gutxik	-11.2059
▁Kanp	-11.206
▁entzuna	-11.2061
▁Berdin	-11.2062
adak	-11.2066
▁datorre	-11.2066
▁eros	-11.2068
rrati	-11.2073
▁manipula	-11.2081
▁itsas	-11.2089
uel	-11.2092
▁elektronik	-11.2093
torkigu	-11.2093
olomo	-11.2093
▁putz	-11.2093
▁garra	-11.2094
▁bl	-11.2094
▁monument	-11.2095
▁salba	-11.2096
▁apunt	-11.21
rne	-11.2104
sek	-11.2104
bira	-11.2106
▁nazi	-11.2106
▁erakuts	-11.2107
▁dokumenta	-11.2108
trala	-11.2112
▁inposat	-11.2112
▁Berr	-11.2113
▁espazioa	-11.2113
migra	-11.2114
▁pairat	-11.2115
▁alfabetat	-11.2118
▁bazaitu	-11.2121
q	-11.2124
ndemi	-11.2126
▁Hir	-11.2127
▁zauri	-11.2127
▁inteligent	-11.2129
▁estandariza	-11.2129
asunez	-11.213
▁Amazon	-11.2131
▁zuzendari	-11.2132
▁toles	-11.2133
▁erreplika	-11.2135
▁1970	-11.2137
▁trebe	-11.2137
▁kopia	-11.2139
ologo	-11.2139
sagar	-11.214
lternatiba	-11.214
dorio	-11.2141
nimalia	-11.2141
fidantza	-11.2141
▁Eske	-11.2141
rronka	-11.2141
smatu	-11.2141
▁konputa	-11.2142
▁erregula	-11.2142
xotxongilo	-11.2142
inateke	-11.2142
arraskari	-11.2142
eskribat	-11.2143
▁transparent	-11.2143
tserba	-11.2143
antaila	-11.2143
idazu	-11.2143
eskub	-11.2143
plex	-11.2143
atematika	-11.2143
▁segi	-11.2143
oluntario	-11.2143
▁belaun	-11.2143
lonia	-11.2143
tzuli	-11.2143
ixka	-11.2143
ugimendu	-11.2144
atezbesteko	-11.2144
uberkulosia	-11.2144
partamentu	-11.2144
▁atse	-11.2144
ham	-11.2144
tuzkete	-11.2144
mantikoa	-11.2144
▁ipu	-11.2144
arrebe	-11.2144
▁promozio	-11.2144
▁zabiltza	-11.2144
flexio	-11.2144
▁Burmuina	-11.2144
▁Ekonomist	-11.2144
▁Gilbert	-11.2144
▁ISAF	-11.2144
▁Jurveston	-11.2144
▁Microsoft	-11.2144
▁Sortzailea	-11.2144
▁UNICEF	-11.2144
▁aldamio	-11.2144
▁aspaldi	-11.2144
▁badauzkate	-11.2144
▁birziklatu	-11.2144
▁deskribapena	-11.2144
▁diagnosi	-11.2144
▁diagnostikat	-11.2144
▁eskimal	-11.2144
▁fluoreszente	-11.2144
▁hektarea	-11.2144
▁indibidu	-11.2144
▁konstituzio	-11.2144
▁laborategi	-11.2144
▁lesbian	-11.2144
▁makurdura	-11.2144
▁monitorizat	-11.2144
▁neketsua	-11.2144
▁obeso	-11.2144
▁oholtza	-11.2144
▁palestinar	-11.2144
▁sarraskia	-11.2144
▁sexy	-11.2144
▁solidari	-11.2144
▁suediar	-11.2144
antrop	-11.2144
banjelioa	-11.2144
bsesio	-11.2144
eads	-11.2144
elektrifikatze	-11.2144
grafo	-11.2144
hierarkia	-11.2144
kodifikat	-11.2144
prezipitazioa	-11.2144
ucatango	-11.2144
▁2133	-11.2144
▁Atsegin	-11.2144
▁Biktim	-11.2144
▁Bularreko	-11.2144
▁Columbi	-11.2144
▁Errugabe	-11.2144
▁Gehiegi	-11.2144
▁Gobernu	-11.2144
▁Gosetea	-11.2144
▁Herbie	-11.2144
▁Inbentagarri	-11.2144
▁Institut	-11.2144
▁Kanbodia	-11.2144
▁Klebold	-11.2144
▁Kolore	-11.2144
▁Kolpatu	-11.2144
▁Konponbide	-11.2144
▁Kontrol	-11.2144
▁Lankidetza	-11.2144
▁Lineal	-11.2144
▁Lurzorua	-11.2144
▁Mendebaldarre	-11.2144
▁Musulmane	-11.2144
▁Muteferrika	-11.2144
▁Nabarmen	-11.2144
▁Oporto	-11.2144
▁Palestina	-11.2144
▁Police	-11.2144
▁Presidente	-11.2144
▁Soluzio	-11.2144
▁Tradizio	-11.2144
▁Txinpantze	-11.2144
▁Zuckerberg	-11.2144
▁afganiarre	-11.2144
▁ahaide	-11.2144
▁alemaniar	-11.2144
▁anpli	-11.2144
▁arkeolog	-11.2144
▁asfaltatu	-11.2144
▁asoziazio	-11.2144
▁atomiko	-11.2144
▁audizioa	-11.2144
▁aukezpen	-11.2144
▁autentikotasun	-11.2144
▁autoestimua	-11.2144
▁basamortu	-11.2144
▁begirune	-11.2144
▁berrazter	-11.2144
▁berregituratze	-11.2144
▁bolumen	-11.2144
▁borondate	-11.2144
▁britainiar	-11.2144
▁derrigorre	-11.2144
▁diagnostiko	-11.2144
▁diagrama	-11.2144
▁diezadake	-11.2144
▁distiratsua	-11.2144
▁dizdira	-11.2144
▁dokumentu	-11.2144
▁dotorea	-11.2144
▁enplegat	-11.2144
▁enplegua	-11.2144
▁eragozpen	-11.2144
▁erdieroale	-11.2144
▁errefuxatu	-11.2144
▁errepresenta	-11.2144
▁esfortzu	-11.2144
▁eskritura	-11.2144
▁espezifikazio	-11.2144
▁exekuzio	-11.2144
▁filosof	-11.2144
▁fosil	-11.2144
▁frantses	-11.2144
▁garestieneta	-11.2144
▁homogeneo	-11.2144
▁hondakine	-11.2144
▁inpultso	-11.2144
▁instrukzio	-11.2144
▁iparrorratza	-11.2144
▁islamofobia	-11.2144
▁itzultzaile	-11.2144
▁kasualitate	-11.2144
▁katilua	-11.2144
▁klasiko	-11.2144
▁klitori	-11.2144
▁kolapso	-11.2144
▁kolpatua	-11.2144
▁korapilatsu	-11.2144
▁leiho	-11.2144
▁marroi	-11.2144
▁metaforikoa	-11.2144
▁mikroeraso	-11.2144
▁mikrofonoa	-11.2144
▁multi	-11.2144
▁orbain	-11.2144
▁original	-11.2144
▁ostiral	-11.2144
▁partitura	-11.2144
▁pediatra	-11.2144
▁personalizatua	-11.2144
▁personalizazioa	-11.2144
▁petrolio	-11.2144
▁pijama	-11.2144
▁plastiko	-11.2144
▁primarioa	-11.2144
▁sarraskitu	-11.2144
▁seduzit	-11.2144
▁seinalatu	-11.2144
▁sendagile	-11.2144
▁sinapsi	-11.2144
▁subertsibo	-11.2144
▁sugestio	-11.2144
▁sukaldari	-11.2144
▁taberna	-11.2144
▁tamania	-11.2144
▁taupad	-11.2144
▁tinbalak	-11.2144
▁trantsizio	-11.2144
▁udazkene	-11.2144
▁ustiagarri	-11.2144
▁zezakeen	-11.2144
▁zientzilari	-11.2144
▁zinemagile	-11.2144
▁zirriborro	-11.2144
▁zizkigu	-11.2144
▁1.4	-11.2144
▁2014	-11.2144
▁Alex	-11.2144
▁Dakigun	-11.2144
▁Egipto	-11.2144
▁Finantza	-11.2144
▁League	-11.2144
▁Magazine	-11.2144
▁Minneapolise	-11.2144
▁Monthly	-11.2144
▁Teilatu	-11.2144
▁Zalantza	-11.2144
▁berreskuratze	-11.2144
▁errefusatze	-11.2144
▁errendimendu	-11.2144
▁eskuindarra	-11.2144
▁igartze	-11.2144
▁karranpa	-11.2144
▁kontestua	-11.2144
▁koordinatze	-11.2144
▁linguistika	-11.2144
▁pragmati	-11.2144
▁primera	-11.2144
▁txinpantze	-11.2144
▁zorigaizto	-11.2144
autxua	-11.2144
jordania	-11.2144
soiltze	-11.2144
▁Aizto	-11.2144
▁Chicago	-11.2144
▁Desberdintasun	-11.2144
▁Diplomatiko	-11.2144
▁Espazio	-11.2144
▁Hileroko	-11.2144
▁Jaungoikoa	-11.2144
▁Komunika	-11.2144
▁Turkia	-11.2144
▁aforismo	-11.2144
▁angelu	-11.2144
▁aprobetxatze	-11.2144
▁asaldatu	-11.2144
▁atomo	-11.2144
▁deprimitze	-11.2144
▁detekta	-11.2144
▁diapositiba	-11.2144
▁dihardu	-11.2144
▁frenetikoa	-11.2144
▁gurutziltzat	-11.2144
▁hetero	-11.2144
▁hierarkiko	-11.2144
▁identiko	-11.2144
▁ildo	-11.2144
▁jaurti	-11.2144
▁kanpamentu	-11.2144
▁kapital	-11.2144
▁konprometitu	-11.2144
▁kontzentratu	-11.2144
▁krudele	-11.2144
▁lehendabizi	-11.2144
▁longitude	-11.2144
▁makurtu	-11.2144
▁oporr	-11.2144
▁pubertaro	-11.2144
▁smartphone	-11.2144
▁tamal	-11.2144
▁traktore	-11.2144
▁txundigarri	-11.2144
▁unibertso	-11.2144
▁zapuztu	-11.2144
▁zentralizatu	-11.2144
etaedro	-11.2144
▁Bakteri	-11.2144
▁Nabari	-11.2144
▁Trans	-11.2144
▁US	-11.2144
▁daramagu	-11.2144
▁desafi	-11.2144
▁estereotip	-11.2144
▁inaugura	-11.2144
▁inurri	-11.2144
▁litezke	-11.2144
▁maltzurr	-11.2144
▁orientat	-11.2144
▁portatil	-11.2144
▁posibilitate	-11.2144
▁terapeut	-11.2144
▁txosten	-11.2144
▁zintzilik	-11.2144
▁Belaun	-11.2144
▁Edukia	-11.2144
▁Philip	-11.2144
▁ahuntz	-11.2144
▁asiarrek	-11.2144
▁ebidentzia	-11.2144
▁hotele	-11.2144
▁igurtz	-11.2144
▁isurtze	-11.2144
▁itsatsita	-11.2144
▁jakitun	-11.2144
▁nekiela	-11.2144
▁kamioi	-11.2144
▁printze	-11.2144
alkman	-11.2144
ireportu	-11.2144
▁1759	-11.2144
▁Stalin	-11.2144
▁Zorte	-11.2144
▁dardara	-11.2144
▁partid	-11.2144
▁zapaltzailea	-11.2144
▁Hileko	-11.2144
▁Izugarri	-11.2144
▁Mexikar	-11.2144
▁erreprimitu	-11.2144
▁konkista	-11.2144
▁zerbitza	-11.2144
ikipedia	-11.2144
▁Albania	-11.2144
▁Bildu	-11.2144
▁Eskailer	-11.2144
▁ureztatze	-11.2144
▁zorabia	-11.2144
▁astindu	-11.2145
▁posizio	-11.2145
▁Urrutia	-11.2145
▁itzaltze	-11.2145
▁zainzuri	-11.2145
▁barkatze	-11.2145
▁fisiologia	-11.2145
▁hedatu	-11.2145
▁Gaixotasun	-11.2145
▁Oliver	-11.2145
▁Zientzia	-11.2145
▁tailer	-11.2145
▁masibo	-11.2145
▁zabor	-11.2145
▁argudi	-11.2145
▁hiztegi	-11.2145
▁Kanada	-11.2145
▁Merkatua	-11.2145
▁abokatua	-11.2145
▁areagotu	-11.2145
▁erromantiko	-11.2145
▁txirrista	-11.2145
▁ilargia	-11.2145
▁Carolin	-11.2145
▁motiba	-11.2145
▁patente	-11.2145
▁Beldur	-11.2145
▁ekologiko	-11.2145
▁genitzake	-11.2145
▁hezitua	-11.2145
▁musu	-11.2145
abilitate	-11.2145
▁Arroz	-11.2145
▁bereizmen	-11.2145
▁gaizto	-11.2145
▁murriztatzaile	-11.2145
▁Bizirau	-11.2145
▁palanka	-11.2145
▁protestante	-11.2145
▁Diskoetxe	-11.2145
▁estimula	-11.2145
▁kostaldea	-11.2145
▁negoziazio	-11.2145
▁kokaleku	-11.2145
▁amild	-11.2145
▁erregistro	-11.2145
▁gabon	-11.2145
▁besarka	-11.2145
▁grina	-11.2145
▁prezio	-11.2145
▁Arrain	-11.2145
▁legoke	-11.2145
konpontzaile	-11.2145
produzit	-11.2145
▁Dave	-11.2145
▁britaniarr	-11.2145
▁diezazueke	-11.2145
▁gripe	-11.2145
▁jauzi	-11.2145
▁txapel	-11.2145
▁gaitzakete	-11.2145
▁Ezagutu	-11.2145
▁hezita	-11.2145
▁Biblia	-11.2145
▁praktiko	-11.2145
krimina	-11.2145
▁ondarea	-11.2145
urdy	-11.2145
▁ahalbidetu	-11.2145
▁galanta	-11.2145
▁Lanpetu	-11.2145
eminista	-11.2145
▁izebe	-11.2145
▁kritikat	-11.2145
▁Juli	-11.2145
▁Beharrezko	-11.2145
▁bukaera	-11.2145
▁berrerabil	-11.2145
▁biradera	-11.2145
▁existentzia	-11.2145
▁Papua	-11.2145
▁daimon	-11.2145
mendieta	-11.2145
▁miragarri	-11.2145
▁ezezagune	-11.2145
▁mikro	-11.2145
▁txinpa	-11.2145
▁atentzio	-11.2145
▁favel	-11.2145
▁mezkita	-11.2145
▁Unibertso	-11.2145
▁autismo	-11.2145
▁abiapuntu	-11.2145
▁astintze	-11.2145
▁infragorri	-11.2145
▁inskripzio	-11.2145
alista	-11.2145
▁mugiarazi	-11.2145
▁helarazi	-11.2145
▁komandante	-11.2145
ografiko	-11.2145
▁bazkide	-11.2145
onpromezua	-11.2145
▁desatsegin	-11.2145
▁proiektatu	-11.2145
▁analizat	-11.2145
▁komunikabidee	-11.2145
▁jasandako	-11.2145
▁tribua	-11.2145
▁plazerra	-11.2145
▁busti	-11.2145
imula	-11.2145
▁erraila	-11.2145
▁maisua	-11.2145
▁desegin	-11.2145
▁Fede	-11.2145
▁izakera	-11.2145
▁mandala	-11.2145
▁zenidatela	-11.2145
▁igorrita	-11.2145
▁new	-11.2145
▁zentsura	-11.2145
rvey	-11.2145
▁ditzazke	-11.2145
▁nintzai	-11.2145
▁Trum	-11.2145
▁Auzolan	-11.2145
▁taktika	-11.2145
▁cl	-11.2145
▁Korea	-11.2146
▁kilo	-11.2146
▁asteburua	-11.2146
▁agerpen	-11.2146
▁auzotarr	-11.2146
▁boluntario	-11.2146
▁irain	-11.2146
▁plazaratu	-11.2146
▁aizto	-11.2146
▁Kalifornia	-11.2146
zilar	-11.2146
▁tekla	-11.2146
▁egitasmoa	-11.2146
▁isolatze	-11.2146
▁sinestezin	-11.2146
▁Orokor	-11.2146
idegurutze	-11.2146
▁islami	-11.2146
▁moraltasune	-11.2146
▁sortzaileen	-11.2146
▁konfi	-11.2146
▁Gambia	-11.2146
▁akondroplasia	-11.2146
▁Ulert	-11.2146
▁demografia	-11.2146
▁erretratu	-11.2146
▁lehiakortasun	-11.2146
▁xarmagarria	-11.2146
▁iradokizun	-11.2146
▁sendabide	-11.2146
▁transparentzia	-11.2146
▁Kongresu	-11.2146
▁sinbol	-11.2146
▁Trab	-11.2146
▁ozeano	-11.2146
▁umezur	-11.2146
▁doinua	-11.2146
▁zinema	-11.2146
▁Belar	-11.2146
▁iragazgai	-11.2146
idake	-11.2146
▁trop	-11.2146
▁Akats	-11.2146
▁geuden	-11.2146
▁prozesatu	-11.2146
▁topaketa	-11.2146
mpresa	-11.2146
▁elkarrenkintz	-11.2146
▁Kuba	-11.2146
cks	-11.2146
▁ilar	-11.2147
▁lehenego	-11.2147
ribatuar	-11.2147
▁Laugarren	-11.2147
▁tenp	-11.2147
▁karraskari	-11.2147
▁psikotiko	-11.2147
▁Mutil	-11.2147
▁Sinc	-11.2147
▁97	-11.2147
▁Txotxongilo	-11.2147
▁pilot	-11.2147
utokonfidantza	-11.2147
▁izozt	-11.2147
ght	-11.2147
ington	-11.2147
▁Israel	-11.2147
▁mega	-11.2147
▁Sortze	-11.2147
ovak	-11.2147
▁izutu	-11.2147
▁kantua	-11.2147
▁dezateke	-11.2147
▁petson	-11.2147
▁ukrain	-11.2147
▁online	-11.2147
▁Tele	-11.2147
▁zizkie	-11.2147
▁mihi	-11.2148
▁Ahalmen	-11.2148
▁mistiko	-11.2148
▁irail	-11.2148
▁akord	-11.2148
▁arrotz	-11.2148
▁Antzerako	-11.2148
▁ezkutu	-11.2148
▁analogi	-11.2148
▁tele	-11.2148
▁erregulazio	-11.2148
itzika	-11.2148
▁bermatze	-11.2148
▁erratza	-11.2148
▁informatikari	-11.2148
▁FT	-11.2148
▁lanpetu	-11.2148
▁Dagoen	-11.2148
▁Glas	-11.2148
▁biolent	-11.2149
▁Austen	-11.2149
▁galdetzailea	-11.2149
inete	-11.2149
▁Eskerrikasko	-11.2149
▁daukadan	-11.2149
▁jauna	-11.2149
▁ezabatze	-11.2149
▁azaroa	-11.2149
npon	-11.2149
▁birtual	-11.2149
▁paperezko	-11.2149
▁handinahi	-11.2149
▁botika	-11.2149
▁Onar	-11.2149
▁lokatza	-11.2149
▁ditzuten	-11.2149
▁desp	-11.215
▁heze	-11.215
▁Irail	-11.215
▁zurrun	-11.215
▁Eskuine	-11.215
▁sindromedun	-11.215
▁Les	-11.215
▁Konp	-11.215
▁ahalbidetze	-11.215
▁Jaso	-11.215
▁zoritxarreko	-11.215
▁iraganaldi	-11.215
▁behatzea	-11.215
▁Biologia	-11.215
▁gorrotat	-11.215
▁jasanezina	-11.215
▁Sudan	-11.215
ikuntza	-11.215
▁Jordania	-11.215
▁goibel	-11.215
▁erlatib	-11.215
▁bukatze	-11.215
▁emandako	-11.215
▁hondatze	-11.2151
▁aurreikus	-11.2151
▁parekotasun	-11.2151
▁korear	-11.2151
▁barruti	-11.2151
▁hondar	-11.2151
▁Pres	-11.2151
osimetro	-11.2151
▁hormona	-11.2151
▁menpekotasun	-11.2151
▁ezerosotasun	-11.2151
▁ordezkaritza	-11.2151
▁esnea	-11.2151
▁erailketa	-11.2151
▁mingarrien	-11.2151
aginlari	-11.2152
▁Txikia	-11.2152
▁ebaki	-11.2152
▁Andre	-11.2152
▁Hargailu	-11.2152
pitale	-11.2152
▁tente	-11.2152
fada	-11.2152
▁Kotxe	-11.2152
▁moldatu	-11.2152
oktore	-11.2153
▁kamis	-11.2153
▁paregabea	-11.2153
▁zizkio	-11.2153
▁burutazio	-11.2153
▁koherent	-11.2153
▁arkua	-11.2153
apuak	-11.2153
▁inbadit	-11.2153
▁Aberria	-11.2153
nteligent	-11.2153
lementu	-11.2154
▁miliat	-11.2154
▁distante	-11.2154
▁trinko	-11.2154
▁gidaritza	-11.2154
▁lig	-11.2154
▁immune	-11.2154
▁kobazu	-11.2154
▁Bihotz	-11.2154
raindi	-11.2154
▁Triste	-11.2155
▁arnasketa	-11.2155
▁marin	-11.2155
▁ap	-11.2155
▁neskato	-11.2155
▁narama	-11.2155
▁barreiatze	-11.2155
▁Aurrezte	-11.2155
ival	-11.2156
▁kosta	-11.2156
▁frogapen	-11.2156
▁eskale	-11.2156
co	-11.2156
▁instalazio	-11.2156
▁2002	-11.2156
▁ixte	-11.2156
▁Desa	-11.2157
▁Rio	-11.2157
▁Oroi	-11.2157
▁eskulana	-11.2157
▁arduraduna	-11.2157
igeri	-11.2158
sexualitatea	-11.2158
▁zorro	-11.2158
estu	-11.2158
▁graduazio	-11.2158
▁generiko	-11.2158
rizatu	-11.2158
▁fam	-11.2159
▁hipno	-11.2159
zkion	-11.2159
▁gutxiengo	-11.2159
▁bizkorra	-11.216
▁portu	-11.216
▁erdialde	-11.216
▁Telefono	-11.216
mahi	-11.216
▁Kate	-11.216
▁mespretxu	-11.2161
▁MI	-11.2161
▁Hegoalde	-11.2161
▁Dantza	-11.2161
▁estandarizatua	-11.2161
▁alkate	-11.2161
▁Mina	-11.2161
datzi	-11.2162
▁Gazte	-11.2162
▁kontraste	-11.2162
▁kokapena	-11.2162
▁erretiratu	-11.2162
▁eztei	-11.2162
▁olio	-11.2162
ikatza	-11.2163
kizun	-11.2163
▁Ferrari	-11.2163
▁zaizkizue	-11.2163
▁pazienteengan	-11.2163
▁inteligente	-11.2163
▁Ingur	-11.2164
▁Arma	-11.2164
cy	-11.2165
▁Fre	-11.2165
▁adierazle	-11.2165
▁hauskortasun	-11.2165
▁lurralde	-11.2165
▁Jee	-11.2166
▁garbiketaren	-11.2166
▁Haiti	-11.2166
▁tratua	-11.2167
▁zezate	-11.2167
▁May	-11.2168
▁engai	-11.2169
laziarr	-11.217
▁ekonomist	-11.2171
ndutako	-11.2171
kezu	-11.2171
▁daramatza	-11.2171
▁modeloa	-11.2172
▁Per	-11.2172
▁bisual	-11.2172
▁alfabetatze	-11.2173
▁oinezkoen	-11.2173
▁adarr	-11.2173
▁pegat	-11.2173
▁Amsterdamen	-11.2174
ogei	-11.2174
for	-11.2174
▁erakarri	-11.2175
▁ikastetxe	-11.2175
▁ditudala	-11.2175
▁kargu	-11.2175
▁zailetara	-11.2175
enetarikoa	-11.2175
lebi	-11.2175
Global	-11.2178
tsatu	-11.2178
▁ardi	-11.2179
▁kapaza	-11.2179
idaia	-11.218
row	-11.218
antz	-11.218
▁Kur	-11.218
▁Baso	-11.2181
▁zauritu	-11.2183
▁Ohio	-11.2183
▁lehiaketa	-11.2183
▁lurrin	-11.2183
▁Joera	-11.2184
▁Mas	-11.2184
▁kontzertu	-11.2184
▁Kanpora	-11.2185
▁sinestu	-11.2185
▁EB	-11.2185
posatu	-11.2186
usse	-11.2188
▁borobil	-11.2188
▁sofistikatu	-11.2188
▁bereizgarri	-11.2189
miliatu	-11.2189
▁apuntatu	-11.2189
▁debekatu	-11.2191
▁heldutasun	-11.2191
▁2001	-11.2191
aixo	-11.2191
▁zorte	-11.2192
▁pairatu	-11.2192
▁erabakitzaile	-11.2192
▁inposatu	-11.2193
▁Etxea	-11.2193
▁Fe	-11.2194
▁kurioso	-11.2194
▁berrez	-11.2194
▁Eseri	-11.2194
aranja	-11.2194
▁estalkiare	-11.2195
▁zenioke	-11.2196
▁zentrala	-11.2197
▁zetorki	-11.2198
▁aplikatzeko	-11.2198
▁paisai	-11.2199
▁egile	-11.2199
▁aurreratze	-11.2199
▁itsaso	-11.22
▁bisio	-11.22
▁mist	-11.22
▁Kanpo	-11.22
▁badaukat	-11.2201
▁desio	-11.2202
▁Elkarri	-11.2203
▁soluzioa	-11.2204
▁Estu	-11.2204
▁aipatutako	-11.2205
▁nai	-11.2205
izkidazu	-11.2205
▁darabilte	-11.2206
▁berber	-11.2206
▁banaka	-11.2206
▁abiatuta	-11.2206
▁antzez	-11.2206
▁Kezkatze	-11.2208
▁zailtasun	-11.2208
▁nahitanahiez	-11.2208
▁aztarna	-11.2208
▁fenomeno	-11.2208
▁titulua	-11.2208
▁kontziente	-11.2208
▁manipulatu	-11.2208
▁autobusentza	-11.2209
▁plangintza	-11.2209
▁bezeroentza	-11.2209
▁Holo	-11.2211
tune	-11.2212
▁afinatze	-11.2212
▁inprimatze	-11.2212
▁estra	-11.2213
irrista	-11.2213
▁bihar	-11.2214
loku	-11.2214
▁gurutzatze	-11.2214
ordoia	-11.2214
▁Pre	-11.2215
▁Mac	-11.2215
▁soluzioaren	-11.2215
▁Send	-11.2216
▁mekani	-11.2218
rami	-11.2218
▁zaizkigu	-11.2218
▁Mezua	-11.2218
▁erreplikazio	-11.2219
rabiar	-11.222
▁Gau	-11.2223
▁pol	-11.2224
▁finkat	-11.2226
▁margolana	-11.2226
▁asmatze	-11.2228
▁soka	-11.2228
▁jolastu	-11.2228
▁kapa	-11.2228
tudea	-11.2228
▁zitza	-11.2228
▁sustatu	-11.2229
▁Opa	-11.2229
▁psikologia	-11.223
▁as	-11.2232
▁20.	-11.2233
▁eraikitzaile	-11.2233
▁erreferentzi	-11.2233
▁egondako	-11.2234
▁akab	-11.2235
errek	-11.2235
▁zekar	-11.2235
yor	-11.2235
isten	-11.2238
▁medio	-11.2238
▁artelan	-11.2238
usi	-11.224
rtak	-11.224
▁bularrekoa	-11.224
kaezina	-11.2241
▁barra	-11.2242
▁datozela	-11.2243
▁zikin	-11.2244
▁prozesatze	-11.2244
▁igorpena	-11.2245
▁Eskua	-11.2248
▁irrikit	-11.225
▁kurs	-11.2251
▁Oli	-11.2254
arraitu	-11.2255
rdia	-11.2255
▁egokiago	-11.2255
▁bonb	-11.2256
cci	-11.2257
▁sendaket	-11.2257
▁gizakiaren	-11.2257
tetxe	-11.226
uts	-11.226
▁garrantzizko	-11.2262
▁Donn	-11.2264
▁garden	-11.2264
▁etiko	-11.2264
▁Historia	-11.2267
▁altxatu	-11.2267
▁interptretatze	-11.2268
▁hurbileko	-11.2268
ilaren	-11.2269
▁zedi	-11.227
▁muti	-11.2271
▁oinarritua	-11.2271
rriztatzailea	-11.2272
▁filmatu	-11.2273
goria	-11.2274
▁alternatiba	-11.2275
▁dauzkatela	-11.2276
▁sines	-11.2277
▁mut	-11.2278
▁umeengana	-11.2278
▁bereizte	-11.2278
▁aktibo	-11.228
▁Beira	-11.2281
▁trafikatzaile	-11.2283
▁haundit	-11.2285
▁funtzionala	-11.2286
▁kohe	-11.2288
▁zoriontasun	-11.2288
tera	-11.2288
▁Artis	-11.2289
▁jakintza	-11.2289
▁dakarren	-11.229
▁horni	-11.2296
▁misi	-11.2296
itona	-11.2296
ordea	-11.2299
▁Balio	-11.23
egin	-11.23
iratu	-11.2303
▁auzokoe	-11.2304
tizatu	-11.2305
▁nabil	-11.2306
▁ho	-11.2306
▁berritxu	-11.2307
olata	-11.2307
▁haserretu	-11.2308
▁goril	-11.231
kostua	-11.231
tatea	-11.231
▁anplifika	-11.2311
▁Conn	-11.2312
▁depend	-11.2314
▁oinarriturik	-11.2315
▁edan	-11.2316
▁mediko	-11.2317
▁haiengan	-11.2317
▁Gustu	-11.2319
▁gidatu	-11.2319
▁Ohi	-11.232
▁Altxa	-11.232
palm	-11.2321
▁pazienteen	-11.2322
▁Txart	-11.2322
upa	-11.2323
▁Euska	-11.2333
iguzu	-11.2337
▁v	-11.2339
▁motorra	-11.234
▁Kro	-11.234
▁Pis	-11.2341
letara	-11.2342
▁gehiagotara	-11.2344
aramatza	-11.2344
▁herrialdetako	-11.2345
▁maitemin	-11.2345
▁badiezu	-11.2345
▁altuera	-11.2349
▁jantzita	-11.235
▁Th	-11.235
▁Osab	-11.235
funda	-11.2351
▁Gorrot	-11.2351
ine	-11.2351
▁kutsatuta	-11.2353
▁Tekniko	-11.2358
▁banaketa	-11.2358
▁iradokiz	-11.2359
▁dituzula	-11.2361
▁deritz	-11.2361
▁Hotza	-11.2362
▁demokraziaren	-11.2367
xa	-11.2369
▁Entzute	-11.2372
▁Are	-11.2374
▁20-2	-11.2375
▁erabilpen	-11.2375
ech	-11.2376
zinez	-11.2378
dazkera	-11.238
▁badiozu	-11.2385
▁bularr	-11.2388
▁haz	-11.2388
▁ageriko	-11.239
▁albora	-11.2393
▁lauki	-11.2394
▁ditzateke	-11.2396
▁nerabeen	-11.2396
▁zaiolako	-11.2396
▁blokeatu	-11.2397
▁iraunkorra	-11.2407
▁kaxatik	-11.2408
kopurua	-11.2416
▁Dato	-11.2422
tiboa	-11.2422
▁harritzen	-11.2423
▁garraia	-11.2425
▁proz	-11.2427
▁zehaztu	-11.2429
▁milioeta	-11.2429
▁bateratze	-11.2429
dim	-11.243
▁medikuen	-11.2435
▁dezifrat	-11.2436
ord	-11.2436
▁banku	-11.2437
▁konpainien	-11.2443
▁puz	-11.2444
▁iragar	-11.245
▁kontsulta	-11.2451
▁mai	-11.2456
▁ihes	-11.2457
▁dom	-11.2457
ribu	-11.2457
▁Krist	-11.2458
engabe	-11.2458
▁daukazuen	-11.2458
▁liluratu	-11.246
▁91	-11.2468
presa	-11.247
▁dizkiote	-11.247
RA	-11.2472
▁bosteko	-11.2477
▁dist	-11.2478
▁kontrolera	-11.2478
▁komuna	-11.2481
▁zuzendu	-11.2487
yc	-11.2494
ztatuta	-11.2496
namendu	-11.2499
▁Ana	-11.2503
▁merkeen	-11.2504
▁pribatua	-11.2505
konbergentzia	-11.2505
▁latz	-11.2513
▁hiritartu	-11.2513
▁zientzia	-11.2521
▁mire	-11.2522
▁turist	-11.2527
marra	-11.2528
▁herr	-11.2528
▁saihes	-11.253
▁bizitakoa	-11.2533
smoa	-11.2534
Bot	-11.2543
▁bilio	-11.2547
▁oroitzapena	-11.2548
izia	-11.2555
▁Aro	-11.2556
ite	-11.2556
▁okerren	-11.256
▁aplikatzea	-11.2564
▁dezakeena	-11.2566
▁suaren	-11.2568
otsua	-11.257
▁Fl	-11.2572
▁gainditzera	-11.2573
▁nintzateke	-11.2574
dena	-11.2576
▁erregi	-11.2576
nintz	-11.2576
▁Judutarre	-11.2578
▁kongo	-11.2578
izioa	-11.258
▁desi	-11.2586
▁konplexuen	-11.2588
esan	-11.259
▁gatzai	-11.2592
▁demo	-11.2592
▁exekutat	-11.2593
onek	-11.2593
▁baie	-11.2594
tzela	-11.2597
▁Fi	-11.2598
iso	-11.26
▁gonbidatze	-11.2601
vat	-11.2612
▁maitatua	-11.2614
▁esanguratsua	-11.2615
▁ebaz	-11.2616
odul	-11.2618
sl	-11.2622
▁sistemati	-11.2623
▁Politika	-11.2625
betea	-11.2633
▁Do	-11.2636
▁Dei	-11.2645
▁iraultzen	-11.2646
entura	-11.2648
sita	-11.2651
▁suntsitze	-11.2658
▁liluratze	-11.2661
▁uhin	-11.2675
▁lagunek	-11.2676
aho	-11.2677
900	-11.268
aradisua	-11.2684
▁Ikon	-11.2684
▁errusiar	-11.2687
▁gobernuen	-11.2688
▁ito	-11.2705
▁mole	-11.2706
▁bill	-11.2707
▁zoratu	-11.2715
▁zaiena	-11.272
▁Ku	-11.2724
▁sinpleen	-11.2726
▁Handiko	-11.2729
▁mendera	-11.2731
▁mutilen	-11.2735
enuen	-11.2737
genoz	-11.274
erbiar	-11.2743
ilen	-11.2745
▁gogai	-11.275
diogu	-11.2753
dioa	-11.2756
▁pat	-11.2766
liburueta	-11.2777
▁erectus	-11.2779
▁mugako	-11.2781
engua	-11.2786
▁daukagula	-11.2789
gaixotasune	-11.279
▁edono	-11.2792
▁Iron	-11.2793
▁Cole	-11.2793
ger	-11.281
dizuet	-11.2811
▁Gh	-11.2814
▁Luza	-11.2816
▁mona	-11.2821
loak	-11.2823
▁baika	-11.2836
usa	-11.2836
ikatu	-11.2838
▁ingurugiroareki	-11.2842
ezia	-11.2846
muturra	-11.2849
istika	-11.2849
▁konbinatu	-11.286
▁Arl	-11.2863
▁ekologiste	-11.2864
▁hunkitu	-11.2866
▁agintarie	-11.287
▁arruntena	-11.2877
▁Gorr	-11.2877
▁laburr	-11.2897
▁id	-11.2902
▁industrializa	-11.2911
▁esta	-11.2916
▁Land	-11.2923
▁Mez	-11.2928
dit	-11.2929
▁gorien	-11.293
▁Nesken	-11.2938
liza	-11.2944
▁Afrikak	-11.2948
▁salt	-11.295
berak	-11.2959
▁kideen	-11.2967
▁aurkari	-11.2972
▁gizakie	-11.2974
pekoa	-11.298
lly	-11.298
entea	-11.298
▁erlazionatze	-11.299
ile	-11.2998
darik	-11.3001
ron	-11.3009
▁zona	-11.3011
▁zeuk	-11.302
▁azkenald	-11.3023
▁Kap	-11.3027
razio	-11.3029
makila	-11.3031
▁Errez	-11.3031
▁faltsuen	-11.3036
ioke	-11.3039
▁hizkuntzari	-11.3042
olako	-11.3043
▁hacke	-11.3045
pasabide	-11.3046
▁adierazgarri	-11.3059
▁Interesa	-11.3063
▁jendetza	-11.3064
mailak	-11.3075
dirudiela	-11.3078
▁arrazoiren	-11.3097
▁apurtuta	-11.3104
▁nabaritze	-11.3113
bidaia	-11.3121
▁badiren	-11.3128
kazioa	-11.313
▁diferenteen	-11.3132
▁Mu	-11.3137
▁Oin	-11.3157
▁Luth	-11.3158
▁eguneta	-11.3164
ants	-11.3171
▁unibertsal	-11.3172
▁Grafik	-11.3174
▁sakonena	-11.3177
▁Korporazi	-11.3184
▁Eskan	-11.3195
▁birak	-11.3197
▁pertsonari	-11.3197
zimendu	-11.3198
tas	-11.3205
▁bakartu	-11.3206
▁Ast	-11.3207
▁hautatze	-11.3207
abstrak	-11.3215
▁ti	-11.3217
▁32	-11.3219
istak	-11.3228
▁Australiar	-11.3259
▁galtzeko	-11.3261
▁gogora	-11.3268
▁hedatzea	-11.3281
gener	-11.3289
▁jana	-11.3294
▁biztanleen	-11.3297
▁galdekat	-11.3297
▁lurzoru	-11.33
▁Montanak	-11.33
▁ikon	-11.33
▁txikiek	-11.3306
▁Ero	-11.3308
▁int	-11.3319
▁fasea	-11.332
▁narrazioa	-11.3327
stoi	-11.3331
laborantzare	-11.3334
▁fet	-11.3336
▁zabalagoa	-11.3337
▁Hitzaldia	-11.3338
▁tx	-11.3339
▁Amerikarr	-11.3343
▁ingeniaria	-11.3348
▁logela	-11.335
▁piezareki	-11.335
▁Bu	-11.3352
▁erra	-11.3359
▁funtsezkoa	-11.3365
▁Errepika	-11.3365
▁jokabidea	-11.3365
zaldia	-11.3375
iran	-11.3376
▁noren	-11.3376
▁Zur	-11.3382
▁baztertze	-11.3383
▁Mil	-11.3392
▁eriet	-11.3403
▁Ag	-11.341
atzera	-11.3413
▁suhiltzaileen	-11.3426
▁Londone	-11.343
▁1800	-11.3442
▁Ap	-11.3444
▁zora	-11.3452
▁egiaz	-11.3455
▁Manhattane	-11.3467
▁gogoraraz	-11.3469
ntsiko	-11.3471
▁Jon	-11.3481
▁lotsatze	-11.3492
▁Edoze	-11.3498
▁mugatze	-11.3505
hen	-11.3512
▁sendoa	-11.3516
▁ut	-11.3523
lineala	-11.3525
▁zintu	-11.3525
▁generoa	-11.3531
▁ziurra	-11.3531
▁jasotzea	-11.3542
▁neuretza	-11.3545
▁eguzkia	-11.3551
▁Indiak	-11.3557
raiki	-11.3565
ntz	-11.3575
▁zigortze	-11.3588
berdintsuago	-11.3598
▁gordina	-11.3606
▁Eman	-11.3607
▁erretiroa	-11.3614
▁enpreseta	-11.3622
▁irudikapena	-11.3629
titu	-11.3647
▁aurrekoa	-11.3656
▁gauzetara	-11.366
steroide	-11.3677
mart	-11.3679
▁Funts	-11.3684
▁polit	-11.3692
gaitasuna	-11.3698
fal	-11.3703
nell	-11.3704
▁orok	-11.371
urtzea	-11.372
▁aberatsene	-11.3726
▁aspertu	-11.3732
▁eskerrik	-11.3737
rgentzia	-11.3749
▁sustatze	-11.3751
ph	-11.3755
▁ideologikoa	-11.3756
▁Po	-11.3768
ne	-11.3768
▁efektu	-11.3769
▁taldearen	-11.3782
iaren	-11.3783
▁geografi	-11.3783
▁historiala	-11.379
▁dokumentala	-11.3792
nic	-11.382
▁best	-11.3827
reki	-11.3834
des	-11.3841
▁berarentza	-11.3846
▁ikaslee	-11.3851
▁Mai	-11.3871
▁To	-11.3892
▁herritarr	-11.3899
logia	-11.3904
esio	-11.3923
▁egiaztat	-11.3923
agunea	-11.3934
▁argazkilaria	-11.3935
98	-11.3937
▁Sun	-11.3943
errill	-11.3955
turik	-11.3967
▁jaz	-11.3987
▁bateria	-11.3992
▁aurrerapen	-11.3996
dia	-11.4004
▁Arn	-11.4014
▁edozeinen	-11.4014
▁erabakigarri	-11.4031
▁ezkon	-11.4041
▁ikerl	-11.4042
ica	-11.4046
eroko	-11.4047
steri	-11.4064
migrazio	-11.4078
▁oroit	-11.4084
▁zaien	-11.4099
▁zerbaitek	-11.4105
▁guregan	-11.4105
lez	-11.4107
guna	-11.4123
opa	-11.4124
▁albisteeta	-11.4136
▁txorie	-11.4137
zertxo	-11.4138
▁azpimarr	-11.414
▁Bankuar	-11.417
si	-11.4184
itugu	-11.4193
iezazkizueke	-11.4197
▁aurrezpen	-11.4204
kiak	-11.4205
rrealitate	-11.4216
▁Sin	-11.4224
▁Ton	-11.4233
▁gauzari	-11.4234
sozial	-11.4239
▁etortzea	-11.4239
60.	-11.4242
▁Gorria	-11.4251
▁AEBta	-11.4262
▁Jan	-11.4263
▁minbiziare	-11.427
atago	-11.4271
▁maileta	-11.4278
▁txikiaren	-11.4308
▁egitur	-11.4309
▁ontasun	-11.4335
▁momentuta	-11.4342
aketak	-11.4348
▁nagusien	-11.4349
▁Lis	-11.4361
oragarria	-11.4362
burg	-11.4372
▁burmuine	-11.4409
▁emaztea	-11.4422
radioaktibitatea	-11.4423
▁amatat	-11.4429
▁Tok	-11.4437
oizbehin	-11.4464
eleta	-11.4471
naiz	-11.4482
igarri	-11.4515
lego	-11.4532
maitza	-11.4537
▁arbasoa	-11.4537
kaslea	-11.4543
▁baz	-11.4545
ge	-11.4551
▁animali	-11.4558
abe	-11.4571
berdinatsun	-11.4592
▁posterrea	-11.4597
lau	-11.461
▁gaztea	-11.4612
▁inbertit	-11.4625
▁bizitzak	-11.4632
▁kok	-11.4638
▁zentzuz	-11.4652
▁ikuspuntua	-11.4658
▁atalak	-11.4659
▁kolpe	-11.466
tomatiko	-11.4676
▁giltz	-11.4692
emokrazia	-11.4713
▁iristea	-11.4719
▁zuzene	-11.472
ian	-11.4729
▁ingurumene	-11.4732
▁lurrareki	-11.4733
rab	-11.4734
▁ner	-11.4737
▁okerr	-11.4741
▁5-	-11.4749
▁berotze	-11.4763
ituzke	-11.4784
▁geleta	-11.4796
mugikortasuna	-11.4796
▁ulermena	-11.4805
▁babushka	-11.4806
dunen	-11.4808
▁latitudea	-11.4809
▁fanatismoa	-11.4811
▁klimatikoa	-11.4812
▁digutena	-11.482
eremua	-11.482
▁konbinazioa	-11.482
▁it	-11.4834
▁ne	-11.4835
▁Zibilizazio	-11.4838
psia	-11.4839
▁horizontal	-11.4839
▁aditue	-11.4843
wei	-11.4844
aster	-11.4844
▁tropikal	-11.4844
▁deseroso	-11.4845
▁Oroimen	-11.4849
▁kritiko	-11.4849
▁bordoi	-11.4851
daberri	-11.4852
mon	-11.4852
▁irtenbide	-11.4863
▁goiztiarr	-11.4867
▁Pen	-11.4872
▁motz	-11.4872
▁kronikoa	-11.4905
▁Hegazkinet	-11.4912
moa	-11.4912
raman	-11.4913
eztu	-11.4913
▁ongizate	-11.4919
▁mirest	-11.4924
▁has	-11.4924
▁ikustezin	-11.4941
▁Neanderthala	-11.4945
▁bakterio	-11.4951
▁nukleo	-11.4958
▁balaztak	-11.4983
▁zirudi	-11.4986
ira	-11.5017
▁liburueta	-11.5026
um	-11.5027
ioa	-11.503
▁semea	-11.5032
▁Hazkundea	-11.5033
▁hezkuntzak	-11.5034
▁grabatze	-11.5034
▁Ezkerre	-11.5057
▁pas	-11.5071
korrena	-11.5072
tela	-11.5074
▁amon	-11.5075
▁zeruar	-11.5094
▁nir	-11.5106
ama	-11.5109
▁polizi	-11.511
mur	-11.5124
▁bilaket	-11.5124
biadura	-11.5127
▁ezberdine	-11.5138
▁Ekialdea	-11.5154
ldia	-11.5183
▁politikari	-11.5185
▁ekialdea	-11.5186
▁800	-11.52
letik	-11.5203
bakarreko	-11.5214
▁jainko	-11.5219
▁dag	-11.5224
ente	-11.5226
ami	-11.5227
▁txikitu	-11.5254
agu	-11.5261
▁Proiektua	-11.5269
▁norabidea	-11.5271
▁armairua	-11.5291
▁tera	-11.5302
▁puntua	-11.5303
▁Iheslarien	-11.5312
▁diseinatzailea	-11.5328
ya	-11.537
▁globalizazio	-11.5378
▁presidente	-11.5388
▁antzekoa	-11.5411
▁Ra	-11.5459
▁gehiena	-11.5477
▁gizoneki	-11.548
▁Ingeles	-11.5481
▁liskar	-11.5498
aba	-11.5498
▁mugatzea	-11.5504
▁gehieno	-11.5536
▁Za	-11.5555
▁Gar	-11.5568
▁Txi	-11.5571
ilu	-11.5574
arazo	-11.5576
▁boteretsu	-11.5598
▁gezur	-11.5606
▁dibertigarri	-11.5609
▁Leonar	-11.5624
▁Eu	-11.5624
▁ateratzeareki	-11.563
metabolikoa	-11.5642
▁aretota	-11.5651
tsuago	-11.5664
▁Jok	-11.5679
▁saioeta	-11.568
iltegira	-11.5684
▁Tiro	-11.5693
ismo	-11.5696
ostu	-11.5696
natuta	-11.5698
▁zehaztasun	-11.5702
isol	-11.5714
▁zaretene	-11.5718
mbr	-11.5722
▁gogamen	-11.5732
▁zituena	-11.5747
▁senar	-11.5759
▁ekonomiara	-11.5765
uzte	-11.5772
azioa	-11.5774
cha	-11.5807
▁aurr	-11.5827
goaz	-11.5848
▁txiroe	-11.5857
▁korapiloar	-11.586
▁Honeta	-11.5868
▁disfuntzio	-11.5871
▁pent	-11.5874
▁tiratze	-11.588
▁isila	-11.5895
▁mugikortasunar	-11.5898
▁iraupena	-11.5901
▁Ji	-11.5908
dependentzia	-11.5919
ric	-11.5922
oki	-11.5922
▁urtekoa	-11.5928
▁Auto	-11.5929
▁kostu	-11.594
▁baldintz	-11.5953
▁Ig	-11.5959
li	-11.5967
▁transform	-11.5967
▁Zen	-11.5973
▁Hitza	-11.5987
wa	-11.5988
▁erasotua	-11.6
arazoe	-11.6001
atokia	-11.603
▁eskaer	-11.6046
funtzional	-11.6051
▁Amona	-11.6051
▁erreta	-11.6063
▁gertaer	-11.6068
▁ahaltsu	-11.608
▁Egon	-11.6105
nte	-11.6109
3.	-11.6141
▁funtzionamendu	-11.6163
▁eskar	-11.6187
osl	-11.6193
▁Sue	-11.6198
▁bikoiztea	-11.6209
▁landatze	-11.6222
▁por	-11.6237
83.	-11.6251
▁Ac	-11.6263
▁Rem	-11.6303
▁Hu	-11.6331
▁Zi	-11.6332
ailu	-11.6337
rand	-11.6339
▁Bakarr	-11.6348
▁zehaztasunar	-11.6356
gunera	-11.6364
▁metaboli	-11.6386
nahi	-11.6395
▁hormigoia	-11.6406
▁gezurr	-11.6425
▁garrantzia	-11.6434
▁zego	-11.6438
jale	-11.6463
▁Angeles	-11.649
▁Ri	-11.6504
pila	-11.652
▁transforma	-11.6529
goera	-11.6535
ritu	-11.6553
▁independent	-11.6553
▁azale	-11.6556
▁Ingelese	-11.6565
▁finantz	-11.6603
harte	-11.6621
▁industri	-11.6624
egit	-11.6673
▁tradizior	-11.6674
globalizazioaren	-11.6682
daude	-11.6686
▁gizakiek	-11.6705
▁minbizi	-11.6728
▁Amon	-11.6766
▁medi	-11.6782
definitu	-11.6794
▁idazkerari	-11.6803
ins	-11.6825
▁jainkoaren	-11.6829
▁mugikortasun	-11.6835
earen	-11.6854
tegi	-11.6857
otiko	-11.6871
pos	-11.6874
▁piez	-11.6874
▁gar	-11.6896
surde	-11.6909
kimen	-11.6912
▁galduta	-11.6922
▁zere	-11.6933
▁osasuna	-11.695
▁internet	-11.6955
duna	-11.6962
50.000	-11.6986
▁dakart	-11.7002
mugikortasun	-11.7006
▁sinist	-11.7016
eremu	-11.7024
▁nizu	-11.7031
▁ag	-11.7039
maten	-11.7041
▁puskat	-11.7076
▁Ezkerr	-11.7077
▁Hazkunde	-11.7081
san	-11.7095
nspiratzailea	-11.7095
▁hauta	-11.7102
DC	-11.7112
▁Afrikar	-11.7119
▁propio	-11.7122
▁balazta	-11.7143
be	-11.7175
ragarri	-11.718
▁probatzea	-11.7186
arenga	-11.721
▁utzita	-11.7216
▁esandako	-11.7221
▁uzta	-11.7224
▁Hegazkin	-11.7232
ali	-11.7233
▁gast	-11.7237
▁Kontu	-11.7239
▁Makin	-11.7248
▁kl	-11.7252
▁tamainako	-11.726
▁gaixotu	-11.7265
▁korapilo	-11.7269
▁nukleoa	-11.7288
▁itzulpen	-11.7301
▁errugabe	-11.7307
▁bordoia	-11.7308
▁kritikoa	-11.7309
▁Oroimena	-11.731
▁jasangarri	-11.7311
▁erasotu	-11.7313
▁deserosoa	-11.7314
▁tropikala	-11.7315
▁horizontala	-11.7321
▁mires	-11.7322
rdefinitu	-11.7322
▁Zibilizazioa	-11.7323
▁irtenbidea	-11.7326
▁jario	-11.7338
▁terab	-11.7339
▁goiztiarra	-11.7347
ontzi	-11.7353
▁kroniko	-11.7354
▁fanatismo	-11.7357
▁bakterioa	-11.7357
▁latitude	-11.736
▁konbinazio	-11.7362
▁klimatiko	-11.7363
▁babushk	-11.7363
▁ulermen	-11.7366
▁politikaria	-11.7373
▁Berez	-11.7382
▁kond	-11.7382
▁dez	-11.7388
▁ikustezina	-11.7394
uten	-11.7409
▁itzultzea	-11.7416
▁sakonago	-11.7454
▁eskuin	-11.7462
urria	-11.7466
▁gutxiagoko	-11.7475
▁Zorion	-11.748
▁Demokra	-11.7482
lineal	-11.7485
▁diguzu	-11.7493
▁langilee	-11.7503
▁giltza	-11.751
▁telefonoeta	-11.7516
ter	-11.7523
more	-11.7527
koki	-11.7534
▁kolpea	-11.7549
▁serioa	-11.7563
▁oztop	-11.7572
yte	-11.7584
▁dizkiet	-11.7599
riek	-11.76
▁Batasun	-11.7605
▁eureta	-11.7618
rbui	-11.762
▁komertziala	-11.7632
▁Ca	-11.7638
rg	-11.7647
.-	-11.7654
behin	-11.768
▁lotua	-11.7682
bur	-11.7715
▁Bill	-11.772
ble	-11.7724
▁badie	-11.7728
▁norvegiarr	-11.773
▁eskuzabaltasuna	-11.7736
▁Tirok	-11.7753
tzan	-11.7769
▁Informazioa	-11.7777
berdinatsuna	-11.7786
akete	-11.7803
ver	-11.7818
pak	-11.7845
46	-11.7854
▁Esai	-11.7856
leto	-11.7866
▁erradioaktib	-11.7873
agailu	-11.7888
▁altxatzea	-11.7893
▁Hai	-11.7899
oitz	-11.7904
▁ekintz	-11.7911
▁Pazient	-11.792
▁konp	-11.7926
iki	-11.7928
▁materiale	-11.7956
▁Karg	-11.7959
kua	-11.798
use	-11.8005
erabilgarritasun	-11.8005
▁Nazionale	-11.802
▁orma	-11.8042
▁azkarren	-11.8046
▁morala	-11.8079
bu	-11.8085
▁zieza	-11.809
imanek	-11.8095
kein	-11.8097
▁mak	-11.8098
ab	-11.8106
▁estim	-11.8113
▁hanka	-11.8122
▁elektrizitate	-11.8151
eskoleta	-11.8155
▁Gust	-11.8199
03	-11.8219
▁ait	-11.8232
▁estresa	-11.8233
▁zai	-11.8261
▁ailegatze	-11.8271
▁De	-11.8275
▁txori	-11.8286
utxiagota	-11.8293
▁Bih	-11.8296
▁gorputzek	-11.8323
gaitu	-11.8331
▁politik	-11.8345
▁osasuntsua	-11.8347
▁herritarre	-11.8351
▁martx	-11.8356
azki	-11.8407
▁telebist	-11.8409
makilak	-11.8411
▁Gela	-11.8419
▁Sen	-11.8422
▁enpresen	-11.8427
▁Iheslari	-11.8437
▁bilob	-11.8437
▁zaharre	-11.8452
▁aurreratzea	-11.8459
osia	-11.8495
igrazioa	-11.8515
▁jok	-11.8516
▁hiritar	-11.8521
opi	-11.8523
▁mordo	-11.8549
▁dinamik	-11.8551
▁Gorri	-11.8558
menezko	-11.8571
▁Batue	-11.8575
▁artist	-11.8589
diente	-11.859
tzordea	-11.8592
fi	-11.8594
▁diezazkizu	-11.8597
▁hob	-11.8612
▁zureki	-11.866
gentzia	-11.8699
▁senarr	-11.8706
ast	-11.873
▁analisi	-11.8752
▁eliz	-11.8753
▁Oh	-11.8773
▁eginbeharr	-11.8775
sel	-11.8781
po	-11.8819
ip	-11.8831
▁bereiz	-11.8839
eros	-11.885
▁aldeeta	-11.8867
daka	-11.8889
▁besteek	-11.8912
▁esti	-11.8915
▁pen	-11.8938
▁memori	-11.8943
tari	-11.8945
▁Polit	-11.8949
▁ikasket	-11.8967
ald	-11.897
▁fl	-11.8974
hw	-11.8994
▁abi	-11.8995
▁daudeneki	-11.8997
▁badio	-11.8999
▁soin	-11.9029
▁ikerket	-11.9037
spirazio	-11.9051
▁haute	-11.9052
▁irudikapen	-11.9101
▁erretiro	-11.9107
itz	-11.9117
▁Norvegiar	-11.9117
▁indarkeri	-11.9119
▁gordin	-11.9127
dera	-11.9133
tx	-11.9143
▁elkarrizketatu	-11.9153
▁Hamar	-11.9158
▁ekintzek	-11.9171
kideek	-11.9197
uazio	-11.9202
▁estatua	-11.9209
▁instrumentuaren	-11.922
▁nesk	-11.9222
00	-11.9228
▁salbuespen	-11.9247
▁propagand	-11.9247
▁Lehene	-11.9322
▁Manhattan	-11.9359
ozi	-11.9363
▁eskaintz	-11.9363
▁harrapa	-11.9363
artara	-11.9385
▁akademikoa	-11.9408
▁murriz	-11.9424
▁London	-11.9424
▁suhiltzailee	-11.943
▁genero	-11.944
▁Nir	-11.947
▁gorri	-11.9473
▁Er	-11.9474
erre	-11.949
▁saioa	-11.9494
indu	-11.9517
ioz	-11.9523
izue	-11.9526
▁gurasoeki	-11.9534
▁amo	-11.9541
untz	-11.9557
▁kontratua	-11.9559
▁gosetee	-11.9561
▁zinetene	-11.9563
uria	-11.9564
▁konponbidea	-11.9581
▁autori	-11.9587
▁lehorr	-11.9597
bidai	-11.9601
▁Hizkuntz	-11.9612
▁narrazio	-11.9612
▁fase	-11.9621
kabe	-11.9623
▁logel	-11.9623
▁Hitzaldi	-11.9623
▁soldata	-11.9643
▁Irake	-11.9659
▁ohikoa	-11.9675
▁hedatze	-11.9692
▁bieta	-11.9706
▁ingeles	-11.9712
▁auker	-11.9728
atzailea	-11.9736
▁gra	-11.974
▁konplikatua	-11.9749
▁Enpres	-11.9752
▁Has	-11.9756
▁ast	-11.9759
▁kutx	-11.9762
urre	-11.9776
▁magi	-11.978
endu	-11.9805
urbildu	-11.9823
▁historikoa	-11.9832
bal	-11.9862
▁histori	-11.9863
▁oin	-11.9864
▁burueta	-11.9881
▁bizitzea	-11.9884
rtz	-11.9887
▁berdintsua	-11.9945
92	-11.9952
oitza	-11.996
▁maitagarria	-11.9962
bas	-11.9985
▁tenporal	-12.0001
▁bultza	-12.0027
▁ager	-12.0027
▁integratu	-12.0034
▁aitzin	-12.0036
▁trafiko	-12.0044
▁tokia	-12.0048
▁Menstru	-12.0051
goritmoetara	-12.006
▁bazenit	-12.008
▁arriskutsu	-12.0098
▁Mes	-12.0098
alitatea	-12.01
rafikoa	-12.0108
▁niregan	-12.012
▁aber	-12.0122
cker	-12.0138
▁antolatz	-12.014
▁suntsipen	-12.0141
▁lerroa	-12.0143
▁baliagarria	-12.0144
▁zabalago	-12.0156
▁eginbehar	-12.016
▁Tituse	-12.0162
jokoa	-12.0162
todo	-12.0173
▁eba	-12.0192
fizi	-12.0194
omen	-12.0205
ney	-12.0207
▁lilura	-12.0234
▁del	-12.0249
alduta	-12.0274
▁konekta	-12.0278
▁mugak	-12.0286
tsita	-12.029
roni	-12.029
▁desager	-12.0296
▁par	-12.0301
▁aurrezt	-12.0304
▁tirok	-12.0308
▁800.	-12.031
▁erlaziona	-12.0312
▁hast	-12.0315
▁agindua	-12.0319
dari	-12.0319
▁infekzioa	-12.0326
▁izenburua	-12.0327
▁korridorea	-12.0327
▁Lar	-12.0329
▁estatus	-12.033
▁dakite	-12.0338
▁pe	-12.0349
ikoek	-12.0359
tero	-12.0365
▁menstruazio	-12.0367
▁itzela	-12.0378
rutze	-12.0382
▁salat	-12.0382
▁negu	-12.0397
▁onuragarria	-12.0399
▁sabair	-12.04
▁esperimenta	-12.0421
▁ederre	-12.0425
▁jarraia	-12.0426
▁Garbit	-12.0429
▁parekoa	-12.0434
mina	-12.0435
igor	-12.0453
rd	-12.0456
▁Street	-12.0457
▁eskain	-12.0465
mes	-12.0467
str	-12.049
▁sust	-12.0497
▁ekologist	-12.05
▁Idei	-12.0518
▁zabaltz	-12.0524
▁ahul	-12.0525
▁tuberkulosi	-12.055
▁berekoa	-12.0557
▁norvegiar	-12.056
sabaia	-12.057
▁estat	-12.06
iaz	-12.0617
▁amone	-12.063
ib	-12.0639
plan	-12.0647
▁mail	-12.0657
itasuna	-12.0657
▁perspektib	-12.0659
dagarri	-12.0674
▁gorpu	-12.068
▁kalea	-12.0696
metro	-12.0722
▁lotur	-12.0724
▁erabilita	-12.0725
paratu	-12.0727
tro	-12.0755
▁gogait	-12.0764
ritual	-12.0779
▁lapurt	-12.078
esdun	-12.0782
bet	-12.0783
lep	-12.0788
lba	-12.079
▁uler	-12.0796
▁liskarra	-12.08
eh	-12.0809
▁aldizkaria	-12.0817
gal	-12.0819
▁industrial	-12.0822
udan	-12.0839
▁neuron	-12.084
▁aip	-12.0842
▁inkest	-12.0843
▁mintz	-12.0861
▁ebakuatue	-12.0872
▁errusi	-12.088
▁suntsi	-12.0906
publika	-12.092
avo	-12.0927
▁aitari	-12.0938
stema	-12.0941
▁Ol	-12.095
kontua	-12.095
▁dohai	-12.0952
▁air	-12.0954
▁ald	-12.096
rioz	-12.0968
▁premi	-12.097
▁interb	-12.0978
▁funtzioa	-12.0985
▁biren	-12.1014
▁Ruandar	-12.1024
▁esanguratsu	-12.1029
▁maitatu	-12.1033
▁meha	-12.1037
▁gonbida	-12.1037
▁portaer	-12.1037
▁mas	-12.1039
lia	-12.1042
izazio	-12.1045
bol	-12.106
▁exekut	-12.108
▁os	-12.1093
▁gaindi	-12.11
▁laburbil	-12.1104
onda	-12.1104
▁badauka	-12.1105
▁etor	-12.1106
▁Judutar	-12.1112
▁nintzatekee	-12.1119
▁osp	-12.1136
etxek	-12.1137
ly	-12.1198
▁Tuhinek	-12.1206
rarekin	-12.1212
leko	-12.1222
▁beldurgarriek	-12.1229
▁azpiegitur	-12.1236
▁Eli	-12.1236
▁kal	-12.1237
▁St	-12.1239
▁esperientzi	-12.124
▁egur	-12.1244
▁perfektu	-12.1249
▁diseina	-12.1264
▁matematik	-12.1275
▁mol	-12.1287
▁zuenga	-12.1292
▁deritzo	-12.1295
rtasuna	-12.1296
▁treba	-12.1307
dul	-12.131
▁Tr	-12.131
▁bularre	-12.1319
▁ospitaleeta	-12.1322
etsi	-12.1322
ock	-12.1326
▁zintzo	-12.1341
▁gaitze	-12.1342
▁milio	-12.1342
▁bit	-12.1345
▁lehentasuna	-12.135
formazio	-12.1353
grafi	-12.1354
▁gerri	-12.1369
▁Abe	-12.1372
rra	-12.1376
▁autoerai	-12.1396
boli	-12.141
▁ordain	-12.1412
▁Diber	-12.1414
▁independ	-12.1416
bateko	-12.1423
kondar	-12.143
▁sinesmena	-12.1434
tsiko	-12.1434
▁El	-12.1439
okatu	-12.1441
▁sindrome	-12.1447
▁elektrikoa	-12.1448
ld	-12.1452
ikusi	-12.1454
ondoa	-12.1458
udi	-12.1458
etea	-12.1465
▁Austral	-12.1478
▁gizakia	-12.1482
▁Erra	-12.1484
▁Bie	-12.1485
▁zint	-12.149
negua	-12.1492
lbo	-12.1499
▁sekularra	-12.151
▁trata	-12.1519
11	-12.152
entzio	-12.1525
eskole	-12.1527
24	-12.1535
▁ziurta	-12.1538
▁mentala	-12.1543
sfer	-12.1544
ort	-12.155
▁nanotek	-12.1559
▁egoer	-12.1559
▁etapa	-12.1561
▁ard	-12.1561
▁Ru	-12.1565
▁Kli	-12.1565
▁dizkizu	-12.1566
skal	-12.1567
bitzaile	-12.1574
▁nahita	-12.1577
▁inbertsioek	-12.1577
ropa	-12.158
▁iragaz	-12.1582
ich	-12.1588
▁diezazki	-12.1591
aindu	-12.1597
▁Kris	-12.1598
▁Japon	-12.1602
zur	-12.1609
▁haurre	-12.1609
proiektu	-12.1616
▁konta	-12.1617
▁entzu	-12.162
azien	-12.162
▁Gi	-12.1623
▁Art	-12.1624
hidrofobikoa	-12.1637
lezake	-12.1638
fund	-12.1639
sc	-12.1644
▁Mer	-12.1658
▁direneki	-12.1661
metri	-12.1662
resa	-12.1665
amar	-12.1668
▁ezberdintsu	-12.1669
are	-12.1681
kimi	-12.1681
zaten	-12.1682
tresn	-12.1683
▁garrai	-12.1685
kantitatea	-12.1695
igorpen	-12.1697
▁poltsak	-12.1699
▁Lehe	-12.1699
▁Uni	-12.171
etsu	-12.1712
herrialde	-12.1713
rrituta	-12.1717
▁turis	-12.173
nplifikazio	-12.1731
tiar	-12.1735
artele	-12.1738
xatzea	-12.1739
raztea	-12.1741
inpaktu	-12.1741
▁diplom	-12.1743
▁form	-12.1754
biltzan	-12.1755
ntura	-12.1755
▁diferentea	-12.1756
▁ipurdi	-12.176
▁afal	-12.176
abar	-12.1761
▁psikologiko	-12.1764
tipo	-12.1767
▁Sh	-12.1773
olitiko	-12.1773
▁soluzio	-12.1778
▁karg	-12.1781
▁biktimek	-12.1783
arrizko	-12.1786
▁sinis	-12.1792
,0	-12.1793
▁Lur	-12.1795
▁pla	-12.1796
trafikatzailee	-12.18
▁uztar	-12.1803
▁Berdintasuna	-12.1804
▁zoriontasu	-12.1809
pare	-12.1809
estek	-12.1811
▁leh	-12.1818
▁Prot	-12.182
▁alternatib	-12.1829
▁Beir	-12.183
▁ironi	-12.1832
▁nabile	-12.1835
▁interptreta	-12.1836
aitemindu	-12.1839
▁Histori	-12.1839
erantz	-12.184
pres	-12.1841
▁zitekee	-12.1845
▁bizirau	-12.1847
rdua	-12.185
▁erizainek	-12.1852
▁ekidi	-12.1854
zazu	-12.1856
intsu	-12.186
abil	-12.186
▁top	-12.1861
▁asmat	-12.1861
▁kap	-12.1862
▁herritarrek	-12.1863
▁zituzte	-12.1863
▁seri	-12.1868
datz	-12.1871
lip	-12.1871
▁fio	-12.1872
▁err	-12.1878
abet	-12.1878
ferentzi	-12.1878
▁ziete	-12.1883
finituk	-12.1888
▁10.00	-12.1891
skatu	-12.1892
▁inbertsioa	-12.1894
▁irudika	-12.19
▁Music	-12.19
▁orai	-12.19
▁oiha	-12.19
▁informa	-12.1901
▁iturria	-12.1904
▁alderantzi	-12.1908
tere	-12.1912
▁inbe	-12.1912
▁antzer	-12.1916
▁etni	-12.1919
sexual	-12.1921
ondoko	-12.1922
biltz	-12.1927
suntsitzaile	-12.1928
▁aitort	-12.1932
ordu	-12.1933
▁komunika	-12.1933
▁toxi	-12.1942
▁haurrek	-12.1944
▁gizonez	-12.1949
skopi	-12.195
garriena	-12.1951
▁ulert	-12.1953
arrek	-12.1955
▁erakus	-12.1959
▁pertsonaliza	-12.1961
▁bateri	-12.1961
iturria	-12.1962
nukleo	-12.1966
dizkiet	-12.1966
ifra	-12.1966
▁oihu	-12.1968
unt	-12.1969
▁gurutzat	-12.1969
▁mis	-12.1973
sikologo	-12.1973
egokia	-12.1974
▁inprimat	-12.1974
psikologia	-12.1974
purua	-12.1975
▁afinat	-12.1975
karrera	-12.1976
ditu	-12.1976
kronikoa	-12.1977
jabea	-12.1978
giaz	-12.1978
▁zel	-12.1982
prozesatze	-12.1983
kontziente	-12.1983
titulua	-12.1983
aztarna	-12.1983
fenomeno	-12.1983
nahitanahiez	-12.1983
eraikitzaile	-12.1983
erreplikazio	-12.1983
plangintza	-12.1984
▁materia	-12.1984
hizkuntzari	-12.1986
▁doha	-12.1988
ondorengoa	-12.1988
15	-12.1989
muga	-12.1991
komun	-12.1991
jolas	-12.1992
barra	-12.1993
jasangarria	-12.1995
abestu	-12.1995
marka	-12.1995
aurrerapena	-12.1995
proba	-12.1996
banaketa	-12.1997
graffiti	-12.1997
jazarpena	-12.1998
konfigurazioa	-12.1998
sasoi	-12.1998
liluragarria	-12.1998
izi	-12.2
zubi	-12.2001
irudien	-12.2001
efektua	-12.2001
▁zirku	-12.2002
gertakaria	-12.2002
▁gusto	-12.2003
kopia	-12.2003
▁Politikak	-12.2003
premia	-12.2003
rua	-12.2003
mordoa	-12.2003
fabrika	-12.2004
pertsonal	-12.2004
bitxi	-12.2005
▁tradizionale	-12.2006
gidari	-12.2006
antolatze	-12.2007
Mac	-12.2007
▁tru	-12.2007
metodo	-12.2007
Mil	-12.2008
amerikarra	-12.2008
▁Ah	-12.2008
kontsumo	-12.2008
aholkularitza	-12.2008
adiskide	-12.2009
mendeko	-12.2009
▁emailea	-12.201
joka	-12.201
eskaera	-12.2011
instituzio	-12.2011
produktu	-12.2011
segundu	-12.2011
harreman	-12.2011
abantaila	-12.2011
natural	-12.2011
kontzientzia	-12.2012
erritmo	-12.2013
populazio	-12.2013
aulki	-12.2013
lehena	-12.2013
espiritual	-12.2014
zitzaidan	-12.2014
kanpoko	-12.2014
emindu	-12.2014
gabezia	-12.2014
genezake	-12.2014
pasatze	-12.2014
zentro	-12.2015
gehiagok	-12.2015
trebetasun	-12.2015
neurri	-12.2015
programa	-12.2016
argazkilari	-12.2016
piztu	-12.2016
▁estatubatuar	-12.2016
▁tximin	-12.2016
normal	-12.2016
500	-12.2016
zelula	-12.2017
berbera	-12.2017
mundua	-12.2017
elkarrizketa	-12.2018
jartze	-12.2018
hamarkada	-12.2018
lege	-12.2018
forma	-12.2019
begiratu	-12.2019
badakizue	-12.202
erakusketa	-12.202
Edo	-12.2021
esker	-12.2022
▁migraz	-12.2022
standarr	-12.2022
lukete	-12.2023
daiteke	-12.2023
30	-12.2023
ehun	-12.2024
adibide	-12.2025
momentu	-12.2025
zaio	-12.2026
kolore	-12.2026
▁Eser	-12.2026
zituzten	-12.2026
egilea	-12.2026
▁suntsitzaile	-12.2027
▁garb	-12.2027
imana	-12.2027
hartuta	-12.2027
▁debekat	-12.2028
sentimendu	-12.2028
▁Hega	-12.2028
▁prozes	-12.2029
txiki	-12.2029
jakin	-12.203
bigarren	-12.203
mental	-12.2032
▁8.	-12.2032
buruz	-12.2032
eskubidea	-12.2032
▁umil	-12.2032
▁post	-12.2033
▁sofistika	-12.2033
borobila	-12.2034
▁piz	-12.2035
kultura	-12.2036
pi	-12.2038
hone	-12.2038
gaitz	-12.2041
urriko	-12.2041
▁Indiar	-12.2042
pareta	-12.2043
tore	-12.2043
▁kontzert	-12.2044
garr	-12.2047
▁umeengan	-12.2048
pal	-12.2048
▁kudeat	-12.2049
lerro	-12.2049
▁Arti	-12.2052
rgailu	-12.2056
ideia	-12.2057
zuzen	-12.2058
antolatu	-12.2059
orik	-12.2061
▁Glob	-12.2064
▁inperi	-12.2064
gatazk	-12.2064
▁algoritm	-12.2064
erdia	-12.2065
▁goiztiar	-12.2066
▁sakabanat	-12.2066
▁nolabai	-12.2066
▁soluzionat	-12.2067
▁Amsterdam	-12.2069
bab	-12.207
berezi	-12.2072
pint	-12.2074
▁Col	-12.2074
17	-12.2076
▁euska	-12.2076
▁labur	-12.2076
▁otomandar	-12.2077
▁txert	-12.2078
egiten	-12.2079
buruetara	-12.2079
▁erliji	-12.2081
8.	-12.2081
ezkatu	-12.2081
xur	-12.2082
kuiz	-12.2082
zaituzte	-12.2082
▁Hit	-12.2082
▁Erreg	-12.2083
▁fisik	-12.2083
maji	-12.2083
klusio	-12.2084
▁Senar	-12.2085
doktrin	-12.2085
▁irekia	-12.2087
▁Harri	-12.2087
▁loge	-12.2088
▁hip	-12.209
4.	-12.2091
ekitaldia	-12.2091
▁daramat	-12.2092
senti	-12.2094
burua	-12.2096
gertu	-12.2096
pol	-12.2097
reba	-12.2099
▁erretirat	-12.2099
deetako	-12.2099
▁metakor	-12.21
iberia	-12.21
▁zaur	-12.2101
▁esp	-12.2101
▁telefon	-12.2101
▁erakar	-12.2101
▁sermo	-12.2102
oogleatze	-12.2102
▁mespretx	-12.2103
▁hausnar	-12.2103
▁aktorea	-12.2103
▁diezaie	-12.2104
▁psik	-12.2104
▁Telefon	-12.2105
▁itxu	-12.2105
azal	-12.2106
dazu	-12.2106
▁ministr	-12.2108
▁adar	-12.2108
▁istori	-12.2109
▁Test	-12.2109
▁arrisk	-12.2109
rritu	-12.2109
▁negozi	-12.2109
▁Gazt	-12.211
▁laurdena	-12.211
▁jatetxea	-12.211
raganeko	-12.211
▁egiazkoa	-12.2111
▁bizkor	-12.2112
▁espazi	-12.2112
▁elkarre	-12.2112
▁Irakaslea	-12.2112
eve	-12.2112
▁elit	-12.2112
▁alfer	-12.2113
▁susm	-12.2114
▁transmi	-12.2114
▁hauskor	-12.2115
▁gobern	-12.2115
▁idazke	-12.2115
beto	-12.2115
▁instala	-12.2115
▁3.0	-12.2116
▁mehatx	-12.2116
ndustri	-12.2116
▁konplex	-12.2116
▁irits	-12.2116
▁tratatua	-12.2117
▁kolon	-12.2117
zeremoni	-12.2118
dimentsi	-12.2119
▁Ezker	-12.2119
▁potentzia	-12.212
▁immun	-12.2121
▁belar	-12.2121
iltzeko	-12.2122
▁Proiek	-12.2123
▁Trist	-12.2123
spiritual	-12.2125
▁produk	-12.2125
ifikatutako	-12.2126
rakusketa	-12.2126
Hol	-12.2126
lement	-12.2126
azken	-12.2127
▁ausar	-12.2127
tziatuta	-12.2127
▁seku	-12.2127
▁jend	-12.2127
▁Azkar	-12.2127
▁idazl	-12.2128
▁ix	-12.2128
▁saihe	-12.2129
▁masai	-12.213
askibaloiareki	-12.213
▁proiek	-12.213
▁Jordan	-12.213
xu	-12.213
▁zoritxarr	-12.213
▁Iker	-12.2131
idazkera	-12.2131
▁Funt	-12.2131
mic	-12.2131
▁adiskid	-12.2131
▁estre	-12.2131
▁energ	-12.2132
aktiboen	-12.2132
▁murgil	-12.2132
▁Us	-12.2132
▁Britain	-12.2132
tiba	-12.2133
▁Fer	-12.2133
erakust	-12.2134
▁herdoil	-12.2134
▁Aurrezt	-12.2135
▁ebolu	-12.2135
ktibitate	-12.2135
jak	-12.2135
lase	-12.2136
▁urbaniza	-12.2136
espena	-12.2136
irrati	-12.2137
kundea	-12.2138
bilpen	-12.2138
Mend	-12.2138
jasa	-12.2138
▁Ahal	-12.2139
plikazio	-12.2139
ung	-12.2139
joa	-12.2139
▁Zerbai	-12.2139
rdun	-12.2139
▁globaliza	-12.214
▁goizti	-12.214
▁Ingele	-12.214
ongresu	-12.214
monia	-12.214
▁elektro	-12.214
▁xarma	-12.214
▁itsa	-12.2141
lfabetatze	-12.2141
▁Ul	-12.2141
kondroplasia	-12.2141
▁predik	-12.2141
ihurt	-12.2141
▁afr	-12.2141
kitaldi	-12.2141
▁pix	-12.2141
rres	-12.2141
rkitektura	-12.2141
xistitu	-12.2141
aliforniar	-12.2141
luminio	-12.2141
armen	-12.2141
ambia	-12.2141
zart	-12.2141
egazkine	-12.2142
opulazio	-12.2142
▁Parad	-12.2142
giroa	-12.2142
itzakete	-12.2142
sionatu	-12.2142
rrisku	-12.2142
orapilo	-12.2142
fektu	-12.2142
▁model	-12.2142
irkunboluzio	-12.2142
kurtso	-12.2142
agusi	-12.2142
onbidatu	-12.2142
anborrare	-12.2142
▁inporta	-12.2142
alkulu	-12.2143
▁konprom	-12.2143
ropaganda	-12.2143
izkidate	-12.2143
ertzepzioa	-12.2143
nfragorri	-12.2143
nskripzio	-12.2143
omandantea	-12.2143
rintzipio	-12.2143
rofesional	-12.2143
bertsoa	-12.2143
igiene	-12.2143
nterpretazio	-12.2143
tomandar	-12.2143
nbertsio	-12.2143
purtuta	-12.2143
nportante	-12.2143
tsasgarri	-12.2143
▁erresilient	-12.2143
elburu	-12.2143
gitasmo	-12.2143
serbadoreen	-12.2143
radoki	-12.2143
eformatu	-12.2143
▁zibiliza	-12.2143
inplea	-12.2144
aterial	-12.2144
ildako	-12.2144
orroka	-12.2144
▁printzip	-12.2144
▁autis	-12.2144
▁amorr	-12.2144
ponentzial	-12.2144
ragilea	-12.2144
▁aholku	-12.2144
orpor	-12.2144
ausnartu	-12.2144
bilizazio	-12.2144
▁Auzo	-12.2144
▁optimi	-12.2144
erkusio	-12.2144
▁fisiolo	-12.2144
▁profesio	-12.2144
rogapen	-12.2144
okraziaren	-12.2144
▁obje	-12.2144
▁progr	-12.2144
▁Uga	-12.2144
higien	-12.2144
orrelazio	-12.2144
resp	-12.2144
▁kogni	-12.2144
erapeute	-12.2144
▁Urru	-12.2144
▁posibili	-12.2144
nderthale	-12.2144
▁UN	-12.2144
lapurr	-12.2144
garkia	-12.2144
▁britan	-12.2144
ISA	-12.2144
LA	-12.2144
▁hidro	-12.2144
ntropia	-12.2144
skular	-12.2144
▁Zirkun	-12.2144
ifikazioa	-12.2145
Tube	-12.2145
bli	-12.2145
inamika	-12.2145
obus	-12.2145
▁zapaltz	-12.2145
idorea	-12.2145
imizat	-12.2145
▁kru	-12.2145
ulli	-12.2145
bitat	-12.2145
ologiko	-12.2145
primit	-12.2145
eraktibo	-12.2145
mid	-12.2145
▁erradi	-12.2145
adem	-12.2145
▁humani	-12.2145
▁Phil	-12.2145
▁kontsola	-12.2145
arkatz	-12.2145
▁Afr	-12.2145
positib	-12.2145
lazerra	-12.2146
ogram	-12.2146
mografiar	-12.2146
termin	-12.2146
▁magn	-12.2146
sentatze	-12.2146
▁diezazu	-12.2146
▁Printz	-12.2146
uruzagi	-12.2146
▁eraiku	-12.2146
edito	-12.2146
arlamentu	-12.2146
iekete	-12.2147
▁proto	-12.2147
gnet	-12.2147
iztanle	-12.2147
▁erli	-12.2147
▁perf	-12.2147
sperientzia	-12.2147
rrezkoa	-12.2147
▁Konf	-12.2148
derno	-12.2148
▁Disko	-12.2148
probetx	-12.2148
▁korri	-12.2148
▁aberast	-12.2148
gutegi	-12.2148
▁Afg	-12.2148
orieta	-12.2148
sibi	-12.2149
▁2,	-12.2149
▁argaz	-12.2149
▁kontserba	-12.2149
prezi	-12.2149
KE	-12.2149
imista	-12.2149
iezaioke	-12.2149
▁tuber	-12.2149
▁atxiki	-12.2149
erritu	-12.215
▁zaharraren	-12.215
filo	-12.215
▁Zap	-12.215
▁homo	-12.215
▁hizku	-12.215
▁1,1	-12.215
trina	-12.2151
inutu	-12.2151
▁petro	-12.2151
sperimentu	-12.2151
slam	-12.2151
zept	-12.2151
tilak	-12.2151
zkutua	-12.2152
leloa	-12.2153
opo	-12.2153
rmea	-12.2153
BB	-12.2153
▁197	-12.2153
rum	-12.2153
pedia	-12.2153
pif	-12.2153
srael	-12.2154
▁kort	-12.2154
▁komunita	-12.2154
itzetara	-12.2154
▁mendebal	-12.2154
izil	-12.2154
▁175	-12.2154
ntarioa	-12.2155
▁biz	-12.2155
▁of	-12.2155
mod	-12.2155
ehiago	-12.2156
rlazio	-12.2156
rgazkigintza	-12.2156
olpe	-12.2157
▁hautes	-12.2157
▁inf	-12.2157
▁sub	-12.2157
▁organ	-12.2157
elef	-12.2157
rretratu	-12.2158
iatra	-12.2158
ifere	-12.2159
▁fina	-12.2159
▁deser	-12.2159
by	-12.2159
ekazari	-12.2159
sort	-12.216
▁Brit	-12.216
▁sis	-12.216
aino	-12.216
zkarragoa	-12.216
onb	-12.216
kasu	-12.2161
hand	-12.2161
afari	-12.2161
haztu	-12.2161
tifikatutako	-12.2162
ietate	-12.2163
▁anima	-12.2163
▁Fil	-12.2163
amazio	-12.2164
samo	-12.2164
lom	-12.2164
utopi	-12.2165
▁Rob	-12.2165
▁Leo	-12.2166
zaugarri	-12.2166
▁boti	-12.2166
karagarri	-12.2166
▁espe	-12.2167
xola	-12.2168
▁Fran	-12.2168
▁Begi	-12.2168
isiko	-12.2168
▁zirkul	-12.2168
▁def	-12.2168
ish	-12.2169
itzazke	-12.2169
inatzailea	-12.2169
rdintasuna	-12.217
xik	-12.217
▁dif	-12.217
anismo	-12.217
▁txin	-12.2171
aits	-12.2172
▁sute	-12.2172
▁sol	-12.2172
▁Ferra	-12.2172
iora	-12.2172
namen	-12.2173
mentatu	-12.2174
nfo	-12.2174
tzikeri	-12.2175
ume	-12.2175
onektatu	-12.2176
ldizkaria	-12.2176
parralde	-12.2177
▁badit	-12.2179
ritasunez	-12.2179
▁fre	-12.2179
kostal	-12.2179
▁kir	-12.2179
▁Ilar	-12.218
labo	-12.2181
tex	-12.2181
segura	-12.2182
▁inba	-12.2183
akurra	-12.2183
▁kong	-12.2184
▁mir	-12.2184
eritzon	-12.2185
▁EE	-12.2186
okrat	-12.2186
▁kezkagarria	-12.2186
Din	-12.2188
▁gobernuek	-12.2188
eff	-12.2189
feno	-12.2189
▁nekaza	-12.219
▁Ib	-12.219
▁espi	-12.2191
olin	-12.2192
ming	-12.2192
ilma	-12.2193
▁Kir	-12.2193
▁bozk	-12.2194
eseki	-12.2195
▁ukra	-12.2195
▁kali	-12.2195
hau	-12.2196
estigu	-12.2196
▁HI	-12.2197
liber	-12.2198
ndante	-12.22
oskopio	-12.22
▁Pap	-12.2201
onts	-12.2201
ves	-12.2201
▁errend	-12.2202
piko	-12.2203
▁Bel	-12.2205
atema	-12.2206
ngile	-12.2206
ifi	-12.2206
▁oineta	-12.2207
▁jainkoa	-12.2209
xaloa	-12.221
▁bald	-12.2211
▁txu	-12.2214
▁eskubi	-12.2214
▁zaleta	-12.2215
▁kartz	-12.2215
uster	-12.2216
▁hig	-12.2217
katxo	-12.2218
▁errebe	-12.2218
▁No	-12.2219
▁Ph	-12.222
albidera	-12.222
datutako	-12.2221
tario	-12.2221
met	-12.2222
▁prak	-12.2223
▁intel	-12.2224
xoen	-12.2224
ezue	-12.2227
rrepikapen	-12.2228
15-	-12.2228
bor	-12.2228
makina	-12.2229
sika	-12.2229
atzaileek	-12.223
ezagu	-12.223
▁alf	-12.2231
stau	-12.2231
▁Hama	-12.2236
▁gald	-12.2236
kuntz	-12.2238
▁Ex	-12.224
ogia	-12.224
7.	-12.224
▁hizk	-12.2242
!	-13.5963
#	-13.5964
U	-13.5965
L	-13.5966
)	-13.5967
Z	-13.5968
—	-13.5969
:	-13.597
?	-13.5971
H	-13.5972
j	-13.5973
&	-13.5974
