<unk>	0
<s>	0
</s>	0
▁.	-3.30287
▁،	-3.36654
▁و	-3.60111
▁که	-3.70164
▁می	-3.87272
▁در	-3.90398
▁به	-3.90781
ی	-4.03486
▁این	-4.08974
▁از	-4.17559
▁را	-4.21699
ه	-4.2923
;	-4.58631
▁&	-4.60188
ot	-4.61175
qu	-4.6129
▁	-4.6415
▁است	-4.65458
▁ما	-4.766
▁یک	-4.82281
▁من	-4.87245
▁با	-4.93178
▁برای	-5.11077
▁آن	-5.18439
م	-5.2016
▁ها	-5.24863
▁های	-5.37965
▁بود	-5.46314
▁شما	-5.52765
▁رو	-5.57838
▁؟	-5.65706
▁تا	-5.68355
▁هم	-5.7797
ش	-5.80949
▁)	-5.81212
(	-5.81302
▁آنها	-5.83796
▁اما	-5.85376
▁کار	-5.90996
▁کنیم	-5.92346
▁ای	-5.93144
▁:	-6.03114
▁یا	-6.06052
▁او	-6.07976
▁شده	-6.08414
▁ی	-6.11647
▁همه	-6.13921
▁نمی	-6.15429
▁کنم	-6.15509
ند	-6.17284
▁کنند	-6.18982
▁هر	-6.19779
▁خیلی	-6.20047
▁سال	-6.20654
▁—	-6.20754
▁اگر	-6.23041
▁فکر	-6.25455
▁چیزی	-6.26174
▁هستند	-6.26882
▁کنید	-6.2702
ن	-6.28452
د	-6.28772
ها	-6.30279
▁انجام	-6.31723
▁کند	-6.33946
▁شد	-6.37867
▁بر	-6.38397
ى	-6.38713
▁اون	-6.40011
▁باید	-6.40415
▁چه	-6.4074
▁کرد	-6.42069
های	-6.43195
▁پس	-6.45311
ي	-6.45696
▁وقتی	-6.50458
▁شود	-6.50525
▁دو	-6.53149
▁دارد	-6.53723
▁وجود	-6.53945
ان	-6.56569
▁روی	-6.56817
▁بسیار	-6.57677
▁یه	-6.60132
▁زندگی	-6.62302
▁اینکه	-6.63663
▁کردم	-6.63905
ت	-6.64392
▁هست	-6.64686
▁خوب	-6.65288
▁نیست	-6.66161
▁خود	-6.66235
▁مورد	-6.68373
▁استفاده	-6.69165
ا	-6.70391
▁كه	-6.7086
▁کردن	-6.71808
▁مردم	-6.72492
▁بیشتر	-6.73017
▁بعد	-6.7306
▁حال	-6.75241
▁کرده	-6.75887
▁خنده	-6.7591
یم	-6.77165
▁مثل	-6.7828
▁درباره	-6.82248
▁ولی	-6.83264
▁فقط	-6.8437
▁باشد	-6.84459
▁اند	-6.84882
▁داریم	-6.85183
▁چون	-6.8564
▁واقع	-6.88298
▁نه	-6.88443
▁داشته	-6.89023
▁دیگر	-6.90298
▁دست	-6.90781
▁پیش	-6.91405
▁تنها	-6.93414
▁شروع	-6.94773
▁دارند	-6.95196
▁تر	-6.95287
▁اینجا	-6.97145
▁نظر	-6.97796
ید	-6.98451
▁یکی	-6.98937
▁قرار	-7.0163
ِ	-7.02102
«	-7.02361
▁هیچ	-7.02687
▁اين	-7.03113
▁داده	-7.03131
▁»	-7.03328
▁حالا	-7.03929
▁تو	-7.04094
▁چند	-7.04148
▁کردیم	-7.05178
▁نگاه	-7.05809
شان	-7.08655
▁چیز	-7.08897
و	-7.096
▁جهان	-7.1093
▁زمان	-7.11189
▁واقعا	-7.11394
ین	-7.12162
▁بزرگ	-7.1385
ر	-7.1441
▁روز	-7.17184
▁تغییر	-7.17586
▁خب	-7.1762
▁هایی	-7.18003
▁ام	-7.18335
▁بین	-7.18339
▁چرا	-7.18846
▁تشویق	-7.19763
▁بی	-7.21018
▁تمام	-7.21088
▁بودم	-7.21742
▁گفت	-7.2261
▁افراد	-7.25922
▁نشان	-7.26231
▁بودند	-7.26252
▁داشت	-7.26325
▁خواهد	-7.27149
ات	-7.2746
▁راه	-7.27745
▁زیادی	-7.28185
اً	-7.28574
▁دهد	-7.28694
▁دارم	-7.29052
▁صحبت	-7.29664
▁کردند	-7.30024
▁پیدا	-7.30108
▁بنابراین	-7.30495
▁شوند	-7.30784
▁درست	-7.31227
▁آیا	-7.31489
▁داد	-7.32237
ست	-7.33108
▁همین	-7.33176
مان	-7.33177
▁عنوان	-7.33226
▁سر	-7.33533
▁حت	-7.34948
▁آب	-7.36428
▁شاید	-7.36661
▁کسی	-7.37256
▁کاری	-7.37904
▁نیاز	-7.39336
▁سه	-7.39501
▁مي	-7.4041
▁کمک	-7.41459
▁امروز	-7.41553
▁نفر	-7.43342
▁داره	-7.43955
▁مغز	-7.44408
انه	-7.44754
▁بچه	-7.47027
▁شدن	-7.49258
▁کنه	-7.49959
ل	-7.50418
▁زمین	-7.50575
▁چطور	-7.51452
▁طور	-7.52681
▁دنیا	-7.52827
ک	-7.53593
▁بار	-7.53641
ب	-7.53912
▁انسان	-7.54487
▁زمانی	-7.54641
▁ایده	-7.55505
▁دیگری	-7.55962
▁اولین	-7.56072
▁آنچه	-7.56399
▁هستیم	-7.56651
▁دوست	-7.57106
تون	-7.57124
▁اونها	-7.57685
▁درصد	-7.57749
س	-7.58537
▁توانیم	-7.58565
▁اتفاق	-7.5863
▁ب	-7.59319
▁ایجاد	-7.5939
-	-7.59586
▁بدون	-7.59647
شون	-7.59687
▁جایی	-7.59947
▁همان	-7.60025
▁دهند	-7.60884
▁باز	-7.61019
▁جا	-7.61099
▁یاد	-7.61657
▁ایم	-7.62353
▁دهیم	-7.6247
▁مهم	-7.63019
▁قبل	-7.63534
▁خواهم	-7.63623
▁نام	-7.64579
▁مى	-7.65073
▁حضار	-7.65299
▁شکل	-7.65425
▁جدید	-7.65989
▁چگونه	-7.66027
▁کوچک	-7.6622
▁باشه	-7.66399
تان	-7.66513
▁سیستم	-7.67273
▁پر	-7.68126
▁کمی	-7.68599
▁بالا	-7.68895
▁صورت	-7.69491
تر	-7.69859
▁بخش	-7.70057
▁مشکل	-7.70435
▁هنوز	-7.70868
▁تواند	-7.71691
▁اندازه	-7.71891
▁اطلاعات	-7.72518
▁غیر	-7.727
▁توانید	-7.73043
که	-7.73418
▁باشند	-7.73442
▁داستان	-7.73499
▁البته	-7.73644
▁دلیل	-7.73706
▁وقت	-7.73771
▁قابل	-7.74022
▁٬	-7.7459
ۀ	-7.75272
▁هستم	-7.75486
▁مانند	-7.7602
▁اول	-7.76255
▁اش	-7.76349
▁موضوع	-7.76532
▁ترین	-7.76546
▁توسط	-7.77055
▁بازی	-7.77188
▁بوده	-7.77233
▁بودن	-7.77897
▁دور	-7.78138
▁دیگه	-7.78173
▁میشه	-7.78247
▁ممکن	-7.78328
▁بلکه	-7.78433
▁برنامه	-7.78591
▁دادن	-7.79078
▁باشید	-7.79086
▁حدود	-7.79418
▁بدن	-7.79534
▁آنجا	-7.7959
▁الان	-7.80194
▁,	-7.80544
▁!	-7.81201
▁دوباره	-7.81725
▁حقیقت	-7.81795
▁تولید	-7.82551
▁کشور	-7.83083
▁♫	-7.83279
ق	-7.83866
▁گرفته	-7.84437
.	-7.85005
▁اینها	-7.85045
▁-	-7.86222
▁کاملا	-7.86464
▁احساس	-7.86856
▁نوع	-7.87025
ز	-7.87328
▁خانه	-7.87402
▁حرکت	-7.8754
▁بهتر	-7.87557
▁باشیم	-7.8833
▁طول	-7.88401
▁آینده	-7.88752
▁شرکت	-7.88913
▁انتخاب	-7.89007
▁شدم	-7.89039
▁کم	-7.89562
▁خاطر	-7.89781
▁خودم	-7.90349
▁حل	-7.90489
▁اجازه	-7.90644
▁ن	-7.91544
▁روش	-7.91682
▁شبیه	-7.9193
▁بیرون	-7.91987
▁باعث	-7.92794
▁گذشته	-7.92826
▁مثال	-7.92863
ف	-7.92947
▁دارید	-7.93719
▁توجه	-7.93772
▁نتیجه	-7.93796
▁همچنین	-7.93909
▁زنان	-7.93956
▁شهر	-7.94445
▁سمت	-7.94586
▁جهانی	-7.94628
▁گروه	-7.94818
▁کننده	-7.94857
▁خواهیم	-7.95783
▁تبدیل	-7.96883
▁تصور	-7.97078
▁تصمیم	-7.9781
▁طراحی	-7.97828
▁خواهند	-7.97963
▁تلاش	-7.98238
▁شدند	-7.98722
▁میلیون	-7.99121
▁جای	-7.99345
▁بعضی	-7.99413
▁جمع	-7.9952
▁چی	-8.00183
▁رشد	-8.00192
▁بینید	-8.00209
▁ساده	-8.00564
▁همیشه	-8.01296
▁م	-8.01786
▁زیرا	-8.02024
▁جامعه	-8.02215
▁نیز	-8.02355
▁پول	-8.02408
▁يك	-8.02552
ون	-8.02621
▁اگه	-8.02636
▁حرف	-8.02771
▁انرژی	-8.02917
▁قدرت	-8.0332
▁سپس	-8.03333
▁صدای	-8.03703
▁داشتم	-8.04187
ع	-8.04227
▁ارتباط	-8.04356
▁دنبال	-8.04893
يم	-8.04928
هایی	-8.05087
▁تجربه	-8.05115
▁سوال	-8.05206
▁بیشتری	-8.05243
▁کل	-8.05453
▁نبود	-8.05456
▁وارد	-8.05602
▁تعداد	-8.05696
▁ببینید	-8.05927
▁خُب	-8.06065
▁بیش	-8.06245
▁حس	-8.06437
▁کنار	-8.07206
▁کتاب	-8.07925
▁چیزهایی	-8.08317
▁گفتم	-8.08331
▁گونه	-8.08554
▁اجتماعی	-8.08879
▁باور	-8.09649
▁واقعی	-8.09743
▁خانواده	-8.09745
▁زیر	-8.09994
▁بتوان	-8.10295
▁قادر	-8.10343
▁زبان	-8.10589
▁داخل	-8.10754
▁جنگ	-8.10998
▁تصویر	-8.11042
گی	-8.11195
▁دهم	-8.11346
▁پروژه	-8.11401
▁مختلف	-8.11475
▁یعن	-8.11485
▁متوجه	-8.12304
▁بیماری	-8.12733
يد	-8.13033
ار	-8.13447
▁درک	-8.13948
▁عکس	-8.14151
▁دهید	-8.14169
▁ساعت	-8.14499
▁العاده	-8.14513
▁ست	-8.14882
▁مرد	-8.15031
▁برابر	-8.1516
▁توانند	-8.1526
▁عمل	-8.15587
▁متفاوت	-8.15614
▁طریق	-8.16004
▁آمریکا	-8.17044
▁تکنولوژی	-8.17437
▁فیلم	-8.17561
▁موسیقی	-8.18081
▁سطح	-8.18519
ای	-8.18538
▁؛	-8.18607
▁آموزش	-8.18882
▁زن	-8.19011
▁ماشین	-8.19226
▁اونا	-8.19646
▁جالب	-8.1969
▁چشم	-8.19728
▁دلار	-8.19775
ال	-8.19829
▁ا	-8.2001
▁چهار	-8.20296
▁خوبی	-8.20597
▁کامل	-8.20952
▁طرف	-8.21136
▁مدرسه	-8.21406
▁فوق	-8.21733
a	-8.2179
▁برخی	-8.2197
▁ساخته	-8.22119
▁تک	-8.22216
▁ده	-8.22311
▁میکنم	-8.22395
▁نا	-8.22428
▁بسیاری	-8.22507
▁چنین	-8.22735
▁مواد	-8.22747
▁خودش	-8.22886
▁تماشاگران	-8.23201
▁ساخت	-8.23267
▁معنی	-8.23313
▁نور	-8.23314
▁سخت	-8.23356
▁نسبت	-8.23454
▁محیط	-8.23497
▁ندارد	-8.23841
▁کنترل	-8.24227
▁رنگ	-8.24398
▁ادامه	-8.25053
▁بهترین	-8.25158
ور	-8.25452
▁پایین	-8.25463
▁حاضرین	-8.26062
▁میان	-8.26148
مون	-8.26302
▁سعی	-8.26343
▁بد	-8.26821
▁لحظه	-8.27351
▁کنی	-8.27663
▁...	-8.27689
▁لازم	-8.27694
▁پاسخ	-8.28307
▁درون	-8.28581
▁شان	-8.2917
▁چقدر	-8.29364
▁یافت	-8.2954
▁بطور	-8.2976
▁همراه	-8.29883
▁هنگامی	-8.30492
▁پا	-8.30634
▁مدت	-8.30902
▁شگفت	-8.30912
▁تقریبا	-8.31452
▁پنج	-8.31625
▁شه	-8.31825
▁ارزش	-8.31831
▁زیاد	-8.31855
▁هرگز	-8.31962
▁پشت	-8.32361
گ	-8.32479
▁خارج	-8.32537
▁آمد	-8.327
ك	-8.32725
▁بعدی	-8.32976
▁ماه	-8.3358
▁فرد	-8.3398
▁خواهید	-8.34019
▁کسانی	-8.34184
▁اینه	-8.34211
▁توان	-8.34213
▁اکنون	-8.34279
▁سلول	-8.34433
▁سرعت	-8.34532
▁دید	-8.34812
▁نزدیک	-8.3487
▁جواب	-8.35008
▁میکنند	-8.3507
▁ف	-8.35449
▁دنیای	-8.35555
▁برا	-8.35631
رو	-8.35641
▁خوش	-8.35806
▁هدف	-8.3593
▁دولت	-8.36184
به	-8.36246
▁صدا	-8.36906
▁افزایش	-8.36989
▁هفته	-8.37142
▁بله	-8.37634
▁کجا	-8.37963
▁اصلی	-8.38322
▁همانطور	-8.38502
▁کمتر	-8.38673
▁ان	-8.38791
▁سازمان	-8.38927
▁کافی	-8.39571
▁دادم	-8.39671
▁میکنه	-8.39691
▁شب	-8.39733
را	-8.39763
▁توانست	-8.39823
▁توی	-8.40114
▁چیزهای	-8.4019
▁ساله	-8.40222
▁نشون	-8.4044
▁هزینه	-8.40784
▁هستید	-8.40796
▁مرگ	-8.40876
▁مرا	-8.40988
ام	-8.41025
▁آوری	-8.41136
ين	-8.4151
▁دی	-8.41535
▁شرایط	-8.41749
▁گیری	-8.4192
▁شبکه	-8.42023
▁گرفتم	-8.42062
▁دهه	-8.42241
▁کن	-8.42437
▁منطق	-8.42472
یک	-8.42575
▁متشکرم	-8.42871
▁افتاد	-8.42932
▁دریافت	-8.43411
▁گرفت	-8.43564
▁اینترنت	-8.43651
ترین	-8.43677
▁دانش	-8.44276
▁زیست	-8.44877
▁بودیم	-8.44891
▁خط	-8.44954
▁ذهن	-8.45138
▁طبیعی	-8.45475
▁دوم	-8.45517
▁توسعه	-8.4582
▁دیده	-8.45979
▁ر	-8.46091
▁آدم	-8.46481
▁دادیم	-8.46779
خ	-8.46856
▁نقطه	-8.46864
▁داشتند	-8.47043
▁زنده	-8.47535
▁تاریخ	-8.47545
پ	-8.47559
▁حاضر	-8.47577
▁بگویم	-8.47941
▁احتمالا	-8.48025
▁گوش	-8.48073
▁افرادی	-8.48087
▁اطراف	-8.48155
▁آزمایش	-8.4832
▁بشه	-8.48757
▁داشتن	-8.48761
▁نیستند	-8.49096
▁مادر	-8.49518
▁مان	-8.49679
▁رفت	-8.49886
▁باشم	-8.49967
▁تمامی	-8.50078
▁اتفاقی	-8.5008
▁خودمان	-8.50273
▁سرمایه	-8.50286
▁صرف	-8.50343
▁اتاق	-8.50548
▁مشکلات	-8.5094
▁دسترس	-8.50986
▁بزرگی	-8.51248
▁تاثیر	-8.51334
▁ال	-8.51339
▁رفتار	-8.51382
▁سراسر	-8.51519
▁سفر	-8.51751
▁بررسی	-8.51887
یت	-8.5224
▁مجبور	-8.52254
▁واقعیت	-8.52493
▁داشتیم	-8.5293
▁هزار	-8.52945
ایی	-8.53001
▁نکته	-8.5312
▁بخشی	-8.53459
1	-8.53625
▁سازی	-8.53637
▁پی	-8.53699
▁قسمت	-8.53712
▁نمونه	-8.53744
ح	-8.53799
▁کنن	-8.53839
▁پایان	-8.53975
▁قرن	-8.54384
▁سریع	-8.54529
▁کودکان	-8.54532
▁میلیارد	-8.54663
▁میکنیم	-8.54967
▁کلی	-8.54998
▁نو	-8.55109
▁اسم	-8.55144
▁بعنوان	-8.55253
▁پیشرفت	-8.55653
▁كار	-8.55755
▁تحت	-8.55907
لی	-8.55968
▁درمان	-8.56135
▁دیگران	-8.56362
▁دادند	-8.56368
▁گاه	-8.56799
ده	-8.57149
▁مسیر	-8.57185
▁میکند	-8.57187
▁مقابل	-8.5744
▁طی	-8.57471
▁اثر	-8.57602
▁رفتن	-8.57603
▁تشخیص	-8.57692
▁اونجا	-8.57777
▁تون	-8.57891
▁زده	-8.58167
▁رخ	-8.5828
▁مصرف	-8.58356
▁نوعی	-8.58381
▁روشن	-8.58481
▁غذا	-8.5874
▁گذاری	-8.58913
▁بحث	-8.59396
▁ت	-8.59407
▁مربوط	-8.59409
گاه	-8.5948
▁کشف	-8.59801
▁ممکنه	-8.60086
▁دستگاه	-8.60564
▁عوض	-8.60637
▁مقدار	-8.60659
▁دختر	-8.6067
▁گفته	-8.60785
▁میزان	-8.6089
▁مشخص	-8.6093
▁میشود	-8.61083
▁اید	-8.61099
▁خاص	-8.61253
▁دقیقا	-8.6146
▁رفتم	-8.61471
▁امکان	-8.61575
▁گرفتن	-8.61791
از	-8.61817
ج	-8.6185
▁۲۰	-8.61974
ط	-8.6247
تونه	-8.62497
ری	-8.62561
▁آید	-8.62602
چه	-8.62733
▁کاهش	-8.62758
▁عالی	-8.629
▁دانشگاه	-8.62937
▁سن	-8.63145
▁اقتصادی	-8.63303
▁بلند	-8.6333
▁آخر	-8.63416
▁بینی	-8.63613
▁مدل	-8.63668
حتی	-8.63733
▁س	-8.638
▁اساس	-8.63928
▁موجود	-8.64027
▁شویم	-8.64136
▁۱۰	-8.64348
▁اهمیت	-8.6435
▁انگیز	-8.64472
چ	-8.64609
▁نیم	-8.64697
▁دار	-8.652
▁قانون	-8.65271
e	-8.65318
▁مسئله	-8.65414
▁زمینه	-8.6545
▁پیچیده	-8.65613
▁تغییرات	-8.65687
▁چالش	-8.65705
▁رابطه	-8.66213
▁بگم	-8.66234
▁حد	-8.66362
▁خبر	-8.66366
▁پدر	-8.66367
▁نهایت	-8.66397
▁صفحه	-8.66561
▁جوان	-8.66626
▁کشورهای	-8.66696
▁توضیح	-8.66699
▁شخصی	-8.6671
▁هوا	-8.66743
▁سی	-8.66783
▁رسید	-8.66938
▁جمعیت	-8.67007
▁چیزها	-8.6705
▁ارائه	-8.67087
▁ببینیم	-8.67299
▁سوم	-8.6751
▁کلمه	-8.67673
بر	-8.67899
▁چیست	-8.68086
▁آ	-8.6814
▁محل	-8.68385
▁خودشان	-8.68515
٫	-8.68669
▁مطالعه	-8.68669
▁برد	-8.68671
▁علاقه	-8.68876
▁آفریقا	-8.69073
▁مردان	-8.69123
▁سیاره	-8.6935
▁توانایی	-8.69425
▁تفاوت	-8.69916
▁جدیدی	-8.69941
▁جلو	-8.70268
▁دقیقه	-8.70401
▁دانید	-8.70527
▁آغاز	-8.70721
▁نمایش	-8.70731
▁رود	-8.70751
▁ترس	-8.70821
▁بدست	-8.70831
▁پرواز	-8.70875
▁بده	-8.7089
▁نسل	-8.71179
▁بگذارید	-8.71797
▁منظورم	-8.71844
▁بدم	-8.71852
▁اقتصاد	-8.72079
▁طبیعت	-8.72212
▁نگه	-8.72459
▁همینطور	-8.72823
▁سیاه	-8.72974
▁رسد	-8.72999
▁علم	-8.73051
▁تلفن	-8.73294
▁روند	-8.73545
▁عمومی	-8.738
▁زدن	-8.73839
اب	-8.7417
▁جان	-8.74181
▁چین	-8.74399
▁اشتباه	-8.7464
وس	-8.74644
▁بقیه	-8.74646
▁توانم	-8.74832
▁کر	-8.7492
▁خلق	-8.74959
▁نقشه	-8.7516
▁هند	-8.7521
ول	-8.75567
▁سرطان	-8.75627
▁حالت	-8.75635
▁مشاهد	-8.7564
▁هنر	-8.76173
▁دیدم	-8.76345
▁فضا	-8.76456
▁دیدن	-8.76744
▁گوید	-8.7704
▁فرهنگ	-8.77165
▁نشده	-8.77303
▁آماد	-8.77322
▁آنرا	-8.77342
▁مرکز	-8.77399
▁طولانی	-8.77485
▁کارهای	-8.77596
▁دانیم	-8.77658
▁بخاطر	-8.77773
▁بدین	-8.77808
▁راجع	-8.77933
▁سیاسی	-8.77956
▁دارن	-8.78131
▁موفق	-8.78545
▁برخورد	-8.78666
▁شش	-8.79033
ره	-8.79068
▁۰۰۰	-8.791
▁جهت	-8.79377
▁دوره	-8.79382
گر	-8.79426
▁مکان	-8.79435
▁آورد	-8.79471
▁ماده	-8.79559
▁اصل	-8.79663
▁خطر	-8.79708
▁آمده	-8.79729
▁ک	-8.79773
▁نقش	-8.79969
▁طرح	-8.80016
▁گیرند	-8.80204
در	-8.80289
▁ندارند	-8.80373
▁تازه	-8.80455
▁همون	-8.80588
▁شدیم	-8.80738
▁شوید	-8.80746
▁ساختمان	-8.80995
▁صد	-8.81099
▁عاشق	-8.81231
▁رفته	-8.81335
▁کدام	-8.81345
▁مثلا	-8.81514
▁ابزار	-8.81632
▁باقی	-8.8186
▁اضاف	-8.81918
▁گویند	-8.82013
▁آزاد	-8.82174
▁جریان	-8.82181
▁بیان	-8.82224
▁&#93;	-8.82323
▁موقع	-8.82654
▁کی	-8.82719
▁سو	-8.82766
▁اس	-8.82797
ما	-8.82826
▁افتد	-8.82925
▁&#9	-8.8299
▁تعریف	-8.83158
▁گفتند	-8.83361
▁تیم	-8.83411
▁جدا	-8.83646
▁سخنرانی	-8.83737
▁نجات	-8.83831
▁متحده	-8.84095
▁اغلب	-8.84169
▁قصد	-8.84266
▁میده	-8.84295
▁هیجان	-8.84687
▁اینطور	-8.8475
▁بزرگترین	-8.84901
▁کامپیوتر	-8.8494
▁منابع	-8.8502
▁لباس	-8.852
▁تحقیق	-8.8563
دار	-8.86212
▁باره	-8.86282
▁فناوری	-8.86373
▁امید	-8.86557
گان	-8.86814
▁پوست	-8.87184
▁ج	-8.87282
▁بهش	-8.87301
▁انداز	-8.87388
▁خواستم	-8.87437
▁پسر	-8.87527
▁حقوق	-8.87968
▁قبلا	-8.88119
▁مطمئن	-8.88204
▁حیوانات	-8.88527
▁سپاسگزارم	-8.8855
▁گسترش	-8.8871
▁بگیرید	-8.89423
▁براي	-8.89449
▁خورد	-8.90503
▁بینیم	-8.90508
▁انسانی	-8.90541
▁آخرین	-8.90571
▁محدود	-8.90608
▁زیبا	-8.90631
ض	-8.90641
▁مو	-8.90705
▁قوانین	-8.90821
▁کودک	-8.91
▁بگیریم	-8.91095
▁لذت	-8.91183
▁حق	-8.91191
▁چ	-8.912
▁شاهد	-8.91598
▁عشق	-8.9173
▁كنيم	-8.91743
▁راست	-8.91784
▁مشابه	-8.91945
▁بشر	-8.91987
کی	-8.92083
▁سوی	-8.92129
سی	-8.92295
لا	-8.92392
▁مجموعه	-8.9248
▁تکامل	-8.92647
اس	-8.92658
▁پزشکی	-8.92834
▁شخص	-8.92851
▁اجرا	-8.93061
▁درسته	-8.9337
▁كنند	-8.93375
▁خوام	-8.93393
▁انتظار	-8.93441
▁اعتماد	-8.93573
▁خشونت	-8.93573
▁آمریکایی	-8.93591
▁هاي	-8.93725
▁شیوه	-8.939
▁کریس	-8.93936
▁بازار	-8.93995
▁آور	-8.94038
▁داری	-8.9406
▁فعالیت	-8.94078
▁جور	-8.94125
▁ایالات	-8.94133
▁ساختن	-8.94182
يت	-8.94297
▁کلاس	-8.94312
▁خواست	-8.94416
▁ترتیب	-8.94508
تا	-8.94531
▁درس	-8.94718
▁رسانه	-8.94737
▁قلب	-8.95048
ص	-8.95056
▁محلی	-8.95116
▁آبی	-8.95211
▁قدیمی	-8.95284
▁شکست	-8.95344
یل	-8.95369
آ	-8.95465
▁آسیب	-8.96021
▁مقایس	-8.96023
▁چپ	-8.96099
▁نوشته	-8.96203
▁کس	-8.96249
▁بندی	-8.9626
▁آزمایشگاه	-8.96435
یا	-8.9646
▁موفقیت	-8.96626
▁جنگل	-8.96783
▁پرسش	-8.9698
▁هزاران	-8.97195
بی	-8.97397
▁شامل	-8.97575
▁ستاره	-8.97762
غ	-8.97821
▁اولیه	-8.97868
▁مناسب	-8.97964
من	-8.98207
▁شغل	-8.98223
▁علمی	-8.98229
▁بدیم	-8.98592
▁اروپا	-8.98696
▁بزرگتر	-8.98785
لو	-8.98895
▁۵	-8.9895
▁مواجه	-8.99119
▁فشار	-8.9912
کس	-8.99135
یست	-8.99152
▁رد	-8.99367
▁میاد	-8.99377
▁عجیب	-8.99559
▁همکاری	-8.99692
با	-9.00185
▁مت	-9.00222
▁پذیر	-9.00231
▁احتمال	-9.00271
▁مشغول	-9.00306
تونید	-9.00472
▁حساب	-9.00511
▁دارای	-9.00675
▁قوی	-9.0075
▁پرسید	-9.00807
▁عمیق	-9.01067
▁صحنه	-9.01106
▁مایل	-9.01277
▁وسیله	-9.01323
▁درآمد	-9.01728
▁ترک	-9.01771
▁افتاده	-9.0194
وی	-9.02167
▁تشکیل	-9.0252
▁TED	-9.0252
▁نداشت	-9.02547
اد	-9.0256
▁سنگ	-9.02618
▁نگران	-9.02749
▁نرم	-9.02775
▁راهی	-9.02862
▁سبز	-9.03134
▁نقاشی	-9.03279
نگ	-9.03305
▁دوستان	-9.03327
▁فرصت	-9.03434
▁۲۰۰	-9.03514
▁شناسی	-9.03792
▁ساختار	-9.03855
▁فعال	-9.0392
▁خون	-9.04023
▁ش	-9.04059
▁جنسی	-9.041
▁قدم	-9.04384
▁ماست	-9.04431
▁ملی	-9.04559
▁میدهد	-9.04813
▁زد	-9.04905
▁صبح	-9.04992
▁ملاقات	-9.04992
▁دیدگاه	-9.05029
▁گل	-9.05126
▁ساز	-9.0516
▁بصورت	-9.05208
▁یکدیگر	-9.05268
گونه	-9.05508
▁برقرار	-9.0563
▁دکتر	-9.05715
▁مالی	-9.0573
▁نحوه	-9.05881
▁فضای	-9.05938
▁واکنش	-9.0604
▁شکلی	-9.06147
▁هفت	-9.06152
▁میدان	-9.06317
▁قطعه	-9.06738
▁نیویورک	-9.06886
▁پیشنهاد	-9.06886
▁بسته	-9.06993
ذ	-9.06997
است	-9.07031
نی	-9.07097
▁کشید	-9.07493
▁سیاست	-9.07534
▁نیروی	-9.07638
▁دهنده	-9.07965
▁معمولا	-9.08076
▁شدت	-9.0821
▁مرحله	-9.08225
▁حمایت	-9.08385
▁احساسات	-9.08527
▁مادرم	-9.08553
▁عقب	-9.08601
▁گرم	-9.08852
▁آی	-9.08973
نا	-9.09108
▁تصاویر	-9.09152
ود	-9.09204
▁ابتدا	-9.09252
▁تمرکز	-9.09253
▁بیایید	-9.09275
▁دانم	-9.0954
▁اشار	-9.09762
▁منظور	-9.09844
▁اصلا	-9.09954
تی	-9.10103
pos	-9.10126
▁شن	-9.10658
▁اساسی	-9.10791
▁امتحان	-9.11008
▁نفت	-9.11539
▁گیرد	-9.11617
▁صدها	-9.11964
▁نداره	-9.12125
تو	-9.1216
▁بیمار	-9.12284
▁پیام	-9.12334
▁یادگیری	-9.12365
تونیم	-9.12441
▁سالم	-9.12547
▁حداقل	-9.12571
▁جمله	-9.12571
▁موقعیت	-9.12691
▁انواع	-9.12796
▁جوامع	-9.12796
▁طوری	-9.12922
▁ثانیه	-9.13115
▁زیبایی	-9.13174
▁قرمز	-9.13248
▁کوتاه	-9.13696
▁خرید	-9.13868
▁گفتن	-9.13927
▁سایت	-9.14051
▁عبور	-9.1416
▁ل	-9.14197
▁بدهم	-9.14329
▁جو	-9.14335
▁پرداخت	-9.14429
یز	-9.14529
▁ع	-9.14646
▁دیوار	-9.14857
▁دوران	-9.15102
▁درجه	-9.15142
▁زندان	-9.1534
▁۳۰	-9.15499
▁شانس	-9.15785
▁امنیت	-9.15805
▁معلم	-9.15829
▁آزادی	-9.15986
▁يا	-9.16089
▁بالای	-9.16145
▁راحت	-9.16175
هاي	-9.16184
▁فن	-9.16224
▁انتقال	-9.16237
▁گرفتیم	-9.16254
▁فهمید	-9.16284
▁دقیق	-9.16321
▁درخت	-9.16482
o	-9.16491
▁منجر	-9.16715
▁نامه	-9.16802
▁سوخت	-9.16961
▁موارد	-9.16991
▁دسته	-9.17166
▁سفید	-9.17175
▁تن	-9.17317
▁گو	-9.17366
▁حمل	-9.17619
▁متفاوتی	-9.1778
▁مون	-9.17839
وا	-9.17872
وم	-9.18314
▁میخوام	-9.1836
▁قیمت	-9.1836
▁وضعیت	-9.18376
▁درگیر	-9.18395
▁حالی	-9.18402
کار	-9.18483
▁ثبت	-9.18598
▁خیابان	-9.18613
▁هوش	-9.18729
▁ترکیب	-9.18817
▁حفظ	-9.18837
▁ری	-9.18859
▁لا	-9.19084
▁فاصل	-9.19087
یر	-9.19097
▁تان	-9.19399
▁یخ	-9.1955
▁ضرب	-9.19886
ث	-9.19888
▁عملکرد	-9.20052
▁شهری	-9.20074
▁خواب	-9.20086
اف	-9.20244
▁ثابت	-9.20528
▁پخش	-9.20528
▁چيز	-9.20543
▁تحقیقات	-9.20642
▁خودتان	-9.20727
▁مسائل	-9.20773
▁نداریم	-9.20865
کر	-9.21154
▁کوچکی	-9.21177
▁هستن	-9.21195
انی	-9.212
▁خ	-9.2132
▁خونه	-9.21352
▁سلامت	-9.2148
▁مساله	-9.21508
▁عادی	-9.21516
▁دا	-9.21607
▁پای	-9.21691
▁مبارز	-9.21754
▁رشته	-9.21758
▁بالاتر	-9.2181
▁کربن	-9.22502
▁حیات	-9.22505
▁اینکار	-9.22542
▁هشت	-9.22734
▁گر	-9.22826
▁خورشید	-9.22858
▁معلوم	-9.22995
▁نباید	-9.22995
▁فرا	-9.23005
توانیم	-9.23031
▁فرض	-9.23167
اى	-9.23222
▁مطرح	-9.23244
▁تری	-9.23246
▁بسازیم	-9.23251
▁۲	-9.23258
▁بهتری	-9.23306
▁دانشمندان	-9.23351
▁هی	-9.23362
نت	-9.23537
▁شدید	-9.23562
▁شخصیت	-9.23579
▁دچار	-9.23746
▁اوقات	-9.23747
▁مناطق	-9.23775
▁اقیانوس	-9.23854
اک	-9.23861
▁ماهی	-9.23942
▁متوقف	-9.23998
▁قدرتمند	-9.24116
▁۳	-9.2412
▁چاپ	-9.24238
▁الهام	-9.24254
▁بوجود	-9.24254
▁نکرده	-9.24321
▁عظیم	-9.24543
▁نظری	-9.24577
▁بدهیم	-9.24612
▁دارو	-9.2495
▁اشتراک	-9.25012
▁متوسط	-9.25267
▁قبول	-9.25269
نده	-9.25374
▁فراهم	-9.25532
▁عصبی	-9.2565
▁بدهید	-9.25738
▁قطع	-9.25914
▁بتوانی	-9.26015
▁بتون	-9.26039
▁خيل	-9.26046
▁۵۰	-9.26291
▁خانم	-9.26494
▁پایه	-9.26509
▁۱۰۰	-9.26579
▁تونی	-9.266
▁۴	-9.26666
▁سری	-9.26673
▁اونو	-9.26688
▁دقت	-9.26812
▁نقل	-9.26908
▁گزارش	-9.2702
▁جنبش	-9.27038
▁گیر	-9.27112
▁مصنوعی	-9.27157
▁ویدئو	-9.27159
▁خدمات	-9.27332
▁کردید	-9.27433
▁نخواهد	-9.27478
▁عدد	-9.27505
▁دونید	-9.27639
▁آدمها	-9.2781
ء	-9.27817
▁ازدواج	-9.27855
▁اخیر	-9.27878
▁خدا	-9.28006
▁میشد	-9.28006
▁بیمارستان	-9.28123
▁آیند	-9.28241
▁فقر	-9.28324
▁پل	-9.28521
▁نداشته	-9.28562
▁وزن	-9.28683
▁دل	-9.28761
▁فردی	-9.28798
▁ندارم	-9.2891
▁عمر	-9.2902
▁ببینم	-9.29051
▁حمله	-9.29113
▁خوشحال	-9.2918
▁شوم	-9.29185
▁میکنید	-9.29189
▁دوربین	-9.29223
▁کلمات	-9.29442
▁لای	-9.295
▁بکار	-9.29529
▁ظاهر	-9.2957
▁گرفتند	-9.29765
▁بهداشت	-9.29781
گو	-9.29999
▁مدیریت	-9.3
▁مرتبط	-9.30254
▁فضایی	-9.30416
▁بدی	-9.30442
▁تجارت	-9.30523
شو	-9.30544
▁عامل	-9.30584
▁فهمیدم	-9.30596
اری	-9.3082
▁فر	-9.3084
▁سالگی	-9.30918
▁گویم	-9.3119
▁لحاظ	-9.31322
▁روابط	-9.31322
▁ابر	-9.31516
▁فراموش	-9.31594
▁آتش	-9.31594
▁ماند	-9.31716
▁اساسا	-9.31752
▁محصول	-9.31765
▁كردن	-9.32139
▁همچنان	-9.32139
s	-9.32221
▁بیماران	-9.32353
▁نتایج	-9.32413
▁مراقبت	-9.32462
▁جلوی	-9.32666
▁فروش	-9.32756
▁گفتگو	-9.32763
▁ویژه	-9.3284
▁چیه	-9.32877
له	-9.32902
▁هایشان	-9.33155
▁رسیدن	-9.33175
ژ	-9.33211
▁نمودار	-9.33274
▁ایستاد	-9.33325
▁فرزند	-9.33371
▁لی	-9.3342
خواهم	-9.33449
نس	-9.33579
▁مردمی	-9.33621
▁فیزیکی	-9.33661
کا	-9.33764
▁بهبود	-9.33815
▁گرد	-9.3382
▁انگلیسی	-9.33883
▁جنوب	-9.33898
▁مدار	-9.33962
▁جدی	-9.33974
▁نامید	-9.34005
▁کارهایی	-9.3406
▁تکرار	-9.34073
▁مشترک	-9.34102
▁خاصی	-9.34438
ئی	-9.34626
▁گذاشته	-9.34634
▁هنگام	-9.34875
▁مریخ	-9.34918
▁پلیس	-9.34941
▁انقلاب	-9.34967
▁كنم	-9.34996
▁روزنامه	-9.35231
▁بکنیم	-9.35308
▁تفکر	-9.35396
▁برق	-9.35408
▁پ	-9.35484
▁گسترد	-9.3579
▁ریزی	-9.35874
▁اینجاست	-9.35905
▁آر	-9.35911
▁بافت	-9.35935
▁ژن	-9.36044
▁اخلاقی	-9.36276
سال	-9.36442
▁كند	-9.36461
▁غذایی	-9.36496
▁شک	-9.36568
▁متصل	-9.36616
▁برمی	-9.36757
۵	-9.36763
▁۱۵	-9.36765
▁چهره	-9.36828
▁د	-9.36856
کش	-9.36866
▁منبع	-9.36904
▁برداشت	-9.36965
هاى	-9.37058
تن	-9.37093
▁تعدادی	-9.37125
▁موجودات	-9.37133
▁كرد	-9.37147
▁منتشر	-9.37189
▁مقیاس	-9.3719
▁تونم	-9.37193
▁۶	-9.37413
اش	-9.37441
▁وسط	-9.37567
▁پدرم	-9.37698
▁رنج	-9.37772
▁گروهی	-9.37796
زی	-9.37983
▁آرام	-9.38031
▁وب	-9.38074
▁..	-9.38088
▁نیستم	-9.38111
▁امیدوارم	-9.38287
▁خودشون	-9.38287
▁واضح	-9.38347
i	-9.38538
▁سختی	-9.39073
▁منتظر	-9.3952
▁سود	-9.39571
▁مد	-9.39611
▁خودرو	-9.39634
▁طرز	-9.39819
▁رها	-9.3985
▁درد	-9.40089
کل	-9.40099
او	-9.40227
▁جعب	-9.40407
▁تماس	-9.40414
▁اي	-9.40441
▁میگه	-9.40489
▁کسب	-9.40495
▁گری	-9.40573
▁معمولی	-9.40876
دو	-9.40878
▁اختراع	-9.40924
▁نفس	-9.41003
▁هدایت	-9.41003
▁ویروس	-9.41003
▁آشنا	-9.41171
▁تهی	-9.41312
کن	-9.41319
▁كنيد	-9.41321
کو	-9.41337
▁رسیده	-9.41441
آن	-9.41442
▁متر	-9.41496
▁مشکلی	-9.41517
▁عصر	-9.41602
▁میشوند	-9.41634
▁بفهمیم	-9.41695
▁لو	-9.41797
▁بنا	-9.42012
▁روبرو	-9.42208
▁همزمان	-9.42302
▁ریشه	-9.42332
▁پرورش	-9.4249
▁تصویری	-9.42507
َ	-9.42645
▁قدر	-9.42651
▁قابلیت	-9.42666
▁ق	-9.42715
▁دموکراسی	-9.42812
▁مشارکت	-9.42812
▁کیلومتر	-9.42812
اق	-9.42923
▁۱	-9.42935
رس	-9.43638
▁تمایل	-9.43641
▁بسيار	-9.4373
▁گوگل	-9.43733
▁فكر	-9.43739
▁ناگهان	-9.43838
▁بو	-9.43864
▁المللی	-9.43945
فر	-9.44015
▁موثر	-9.44111
▁زود	-9.44147
▁جرم	-9.44211
▁سایر	-9.44244
▁صلح	-9.44346
▁چوب	-9.44356
▁نيست	-9.44457
▁برده	-9.44518
▁بايد	-9.44541
▁حدس	-9.44617
▁افزار	-9.44649
▁داخلی	-9.4467
▁خصوصی	-9.44747
▁روزی	-9.44814
▁A	-9.44847
▁اختیار	-9.44966
▁حضور	-9.44966
▁کو	-9.45067
▁میتونیم	-9.45183
▁نوشتن	-9.45236
▁نشسته	-9.45285
▁محصولات	-9.45394
▁باکتری	-9.45589
▁عین	-9.45592
▁صنعت	-9.45733
رد	-9.45935
▁آهنگ	-9.4612
▁معروف	-9.46219
▁شی	-9.46246
▁فرو	-9.46365
▁همگی	-9.46449
یس	-9.46457
▁کوه	-9.46523
▁نسخه	-9.46534
▁فقیر	-9.46828
▁گاز	-9.46949
▁گم	-9.47069
▁علوم	-9.47168
▁پیوند	-9.47177
▁اکثر	-9.47462
▁بحران	-9.47486
▁ارتش	-9.47488
سا	-9.47503
▁انگیزه	-9.47643
▁روبات	-9.47784
▁خودمون	-9.47796
▁مفهوم	-9.47992
▁هموار	-9.48014
▁انسانها	-9.48173
ً	-9.48387
▁جالبی	-9.4839
▁آره	-9.48424
▁شنیده	-9.48514
▁کارت	-9.48559
▁مهارت	-9.4856
▁درواقع	-9.48724
▁توانستم	-9.4875
▁والدین	-9.48772
▁پیاد	-9.4883
▁شناخته	-9.48875
دم	-9.48968
▁معرفی	-9.49013
▁رفتیم	-9.49098
▁کیفیت	-9.49103
▁میتونید	-9.49191
▁شماره	-9.49248
▁بال	-9.493
۷	-9.49378
▁خلاص	-9.4942
▁میز	-9.49441
▁بگیرند	-9.49487
▁حرفه	-9.49506
▁بیست	-9.49549
▁روشی	-9.49623
▁نشانه	-9.49655
▁کشورها	-9.49676
▁باد	-9.49721
▁واحد	-9.49744
▁میتواند	-9.49815
ئ	-9.4994
▁میشن	-9.50017
▁جز	-9.50067
▁هوشمند	-9.50156
▁جی	-9.50392
▁جذاب	-9.50399
▁منتقل	-9.50399
▁ضد	-9.50403
▁علت	-9.50405
دی	-9.50431
▁باشی	-9.50434
▁کارها	-9.50612
▁جستجو	-9.50653
▁رایانه	-9.50802
▁بنیادی	-9.50821
۸	-9.50993
▁هوایی	-9.51059
▁سلولهای	-9.51144
▁M	-9.5115
▁مثبت	-9.51389
▁انگار	-9.51408
▁نوآوری	-9.51421
▁بيشتر	-9.516
▁ربات	-9.51643
▁شناس	-9.51698
▁تقسیم	-9.51722
وت	-9.51819
▁دریا	-9.5202
▁هنری	-9.52105
▁غرب	-9.5212
▁بند	-9.52143
▁يک	-9.52426
▁بدید	-9.52613
▁موش	-9.52618
▁دختران	-9.52636
▁بارها	-9.52783
وری	-9.52851
▁کهکشان	-9.53083
▁راستش	-9.53182
▁الگوی	-9.53245
▁میتوانید	-9.53281
▁برنده	-9.53341
▁سنت	-9.53352
▁مسئول	-9.53363
▁دم	-9.53374
▁دن	-9.53428
▁محافظت	-9.53432
▁خصوص	-9.53521
▁جنب	-9.53663
▁آورده	-9.53696
▁آوردن	-9.53713
▁دعوت	-9.53738
▁کاغذ	-9.53738
▁فرق	-9.53794
▁ممنون	-9.53872
▁تماشا	-9.54017
▁گذاشت	-9.54091
▁مانده	-9.54174
▁معنای	-9.54234
ظ	-9.54263
▁تعامل	-9.5432
▁خواند	-9.54477
▁بیاید	-9.54535
▁نشد	-9.54575
c	-9.5458
▁فرزندان	-9.546
▁آنان	-9.54675
▁فرهنگی	-9.54707
▁مولکول	-9.54762
تونم	-9.54927
▁طبقه	-9.5493
▁تونست	-9.55013
▁خطرناک	-9.55106
بار	-9.5524
▁فرآیند	-9.55451
▁هایمان	-9.55452
▁پنهان	-9.55452
▁دروغ	-9.55453
▁ز	-9.55488
▁مدارس	-9.55556
▁فهم	-9.55558
▁دانند	-9.55621
▁کد	-9.5574
▁شیر	-9.55919
▁میکرد	-9.55989
▁اسمش	-9.56006
▁گمان	-9.56012
سون	-9.56139
▁نقاط	-9.56144
▁سگ	-9.56248
▁تجاری	-9.56326
▁خالی	-9.56344
اج	-9.56346
▁كرده	-9.56402
▁اعتقاد	-9.56422
▁گام	-9.56568
▁بدهند	-9.56641
دن	-9.56749
▁ضبط	-9.56842
▁مورچه	-9.56851
▁گ	-9.56854
▁اداره	-9.56866
▁ریز	-9.57013
فت	-9.57087
▁گیاهان	-9.57317
▁مدرن	-9.57552
▁نرخ	-9.57559
▁اطلاعاتی	-9.57586
▁ارتباطات	-9.57598
▁بنابر	-9.57609
▁کنین	-9.57634
▁وصل	-9.57904
▁شیمیایی	-9.57967
▁برگشت	-9.57967
▁بروید	-9.58013
▁تعجب	-9.58253
▁پیر	-9.58318
▁کا	-9.58349
▁بگیرم	-9.58374
▁سا	-9.58379
▁بریم	-9.58388
▁تعیی	-9.58447
▁ممنونم	-9.58467
▁تحصیل	-9.58535
▁شعر	-9.58609
▁مستقیم	-9.58622
▁پایدار	-9.58702
وز	-9.58856
▁۱۹	-9.5901
▁کشیده	-9.59112
نو	-9.59178
▁یافتن	-9.59216
▁مقال	-9.5929
▁رقص	-9.59311
▁علاوه	-9.59325
▁آمار	-9.59481
▁جراحی	-9.59751
ُ	-9.59824
▁پارک	-9.59847
▁بدتر	-9.59849
▁قضیه	-9.60045
▁مبتلا	-9.60045
▁میبینید	-9.60047
▁آقای	-9.60189
▁جوری	-9.60223
▁آسان	-9.60233
▁برداری	-9.60307
▁نخواه	-9.6042
يل	-9.60425
▁اينجا	-9.60498
۳	-9.6054
▁آل	-9.60574
▁بزنم	-9.60676
▁معماری	-9.60805
▁جفت	-9.60828
▁مع	-9.60862
▁چگونگی	-9.60864
▁پدیده	-9.60874
▁جاده	-9.60931
▁علیه	-9.6102
▁C	-9.61229
▁سیم	-9.6127
▁اعلام	-9.61502
▁تهدید	-9.61502
▁موتور	-9.61503
▁باهوش	-9.61508
▁آسمان	-9.61536
▁فراتر	-9.61569
p	-9.61602
جا	-9.61659
▁شهرها	-9.6174
▁خودتون	-9.61831
▁سالها	-9.61888
▁کشاورزی	-9.61956
▁عضو	-9.62003
▁عد	-9.62197
▁تولد	-9.62284
▁منو	-9.62434
A	-9.62451
▁قانونی	-9.62546
▁اعضای	-9.62681
▁درمانی	-9.62785
▁هاست	-9.6279
▁مهمی	-9.62849
▁پوشش	-9.62869
▁تامین	-9.62924
▁وابست	-9.62954
پا	-9.6297
▁صبر	-9.62991
▁موج	-9.63094
چرخه	-9.6313
▁برند	-9.63177
▁دشوار	-9.63181
d	-9.63223
▁دیوان	-9.63355
▁سرد	-9.63563
▁برویم	-9.63592
سازی	-9.63664
▁ناشی	-9.63751
▁معنا	-9.63757
▁معتقد	-9.63935
▁شمال	-9.6397
▁دریایی	-9.64325
▁نداشتم	-9.64358
▁بدان	-9.64554
▁میکردم	-9.64708
▁تد	-9.64788
▁تاریک	-9.64804
▁تنظیم	-9.64861
▁تلویزیون	-9.64901
▁مختلفی	-9.64902
▁آموزشی	-9.65098
▁اومد	-9.65114
▁خیر	-9.65149
▁خاک	-9.65259
▁بعدش	-9.65325
۲	-9.65338
۹	-9.65401
▁شر	-9.65439
▁جنوبی	-9.65483
▁اف	-9.65502
▁حاصل	-9.65625
▁ارسال	-9.6563
٠	-9.65679
▁سراغ	-9.66006
▁برم	-9.66025
▁رهبران	-9.66126
▁معتقدم	-9.66179
▁فیزیک	-9.66186
▁آگاهی	-9.66327
▁نش	-9.66328
▁عرض	-9.66335
این	-9.66458
▁۸	-9.66744
وان	-9.66759
▁شفقت	-9.66776
▁نژاد	-9.66776
▁سنتی	-9.66867
▁بجای	-9.66885
▁یابد	-9.66945
▁صفر	-9.67112
▁احتیاج	-9.67164
▁تحلیل	-9.67164
▁تغذیه	-9.67165
▁ایالت	-9.67271
▁قول	-9.67293
▁۱۲	-9.67427
▁کودکی	-9.67495
▁مهندسی	-9.67734
▁کشیدن	-9.6784
▁معمول	-9.67938
▁سادگی	-9.67944
▁سل	-9.67996
▁آنقدر	-9.68073
▁آمدند	-9.68142
▁10	-9.6821
▁برادر	-9.68258
▁انجامش	-9.68332
▁وسایل	-9.68337
▁فرایند	-9.68342
▁شناسایی	-9.68359
▁کپ	-9.68427
▁گذشت	-9.68586
▁بیاد	-9.68627
▁درحال	-9.6866
▁بفهم	-9.6876
▁روح	-9.68807
t	-9.68938
▁هستی	-9.69084
وه	-9.69084
▁بیدار	-9.69116
▁جذب	-9.69125
▁همدیگر	-9.69174
▁بگذار	-9.69452
▁سبک	-9.69522
▁ديگر	-9.69628
▁ذهنی	-9.69708
▁آه	-9.69726
▁خوردن	-9.69843
▁رقابت	-9.6992
▁رئیس	-9.6992
▁مجله	-9.69922
۱	-9.70173
▁فرستاد	-9.70208
يه	-9.70309
▁بالاخره	-9.70383
▁بگوید	-9.70399
▁مغزی	-9.70476
▁غذای	-9.70485
▁دراز	-9.70568
▁گذر	-9.70683
▁ویژگی	-9.70713
▁۱۸	-9.70776
▁مر	-9.71069
پر	-9.71098
▁درمورد	-9.71126
يك	-9.71182
er	-9.71237
▁گرا	-9.71307
▁رهبری	-9.71319
▁ثروت	-9.71327
▁انتخابات	-9.71465
S	-9.71491
▁درخواست	-9.71499
▁بنابراين	-9.7153
▁خودت	-9.71582
▁ندید	-9.71619
▁نکنید	-9.71621
▁امر	-9.71681
▁نویس	-9.71781
▁کمتری	-9.71801
g	-9.71808
▁رانندگی	-9.71936
▁بدهد	-9.72054
▁مک	-9.72079
فه	-9.72168
▁تی	-9.72223
▁کشته	-9.72358
کت	-9.72367
▁گذار	-9.72485
▁متن	-9.72525
▁بمب	-9.72631
▁اقدام	-9.72644
▁بردن	-9.72649
جو	-9.72653
▁بانک	-9.72681
▁پوش	-9.72737
▁نصف	-9.72754
▁علاقمند	-9.72757
▁خوان	-9.72782
▁اندازی	-9.72966
▁۴۰	-9.73032
زا	-9.73077
▁۶۰	-9.73123
▁گیریم	-9.73174
▁مرتب	-9.73216
▁گوشه	-9.73245
▁محدودیت	-9.73245
▁احساسی	-9.73348
▁آمیز	-9.7336
مین	-9.73373
▁عبارت	-9.73403
▁بایست	-9.73473
سو	-9.73507
▁چنان	-9.73579
▁بازسازی	-9.73634
▁ازش	-9.73671
▁میگن	-9.73756
▁فرار	-9.73813
▁۷	-9.73956
▁ظرف	-9.73965
▁هویت	-9.7402
▁زیستی	-9.74052
▁داريم	-9.74091
▁جایگزین	-9.74164
▁بنام	-9.74248
▁اطمینان	-9.74411
▁واژه	-9.74422
▁دونم	-9.74436
▁فوت	-9.7447
▁موزه	-9.7447
▁طراح	-9.74518
▁کشتی	-9.7465
▁عادت	-9.74861
▁برود	-9.74876
لین	-9.74889
▁نشست	-9.75003
▁قص	-9.75035
▁ایست	-9.75156
▁كردم	-9.75205
▁قطب	-9.75237
▁خورشیدی	-9.75238
▁بکنم	-9.75273
▁بنظر	-9.75389
▁روانی	-9.754
▁ار	-9.75408
▁دانشمند	-9.75502
▁متاسف	-9.75546
▁آنهایی	-9.75573
▁خیال	-9.75672
n	-9.75677
▁جورایی	-9.75716
▁تقریباً	-9.7572
▁زنگ	-9.7594
▁احترام	-9.76095
▁مفید	-9.76095
▁لمس	-9.76101
▁خرج	-9.76109
▁ضعیف	-9.76172
▁دومین	-9.76267
▁صنعتی	-9.76326
▁ژنتیکی	-9.76344
▁گرده	-9.76364
▁تمرین	-9.76398
▁نخست	-9.76469
▁خدمت	-9.7652
▁دفاع	-9.76524
▁محله	-9.76534
▁اینو	-9.76613
▁میدهند	-9.76634
▁حسی	-9.76697
▁هواپیما	-9.76711
اند	-9.76815
▁دان	-9.76887
▁دین	-9.76983
▁گوشت	-9.76998
▁بگیرد	-9.76999
▁آموزان	-9.77107
▁مدیر	-9.77176
▁شکاف	-9.77264
▁بریتانیا	-9.77377
▁اعمال	-9.77408
▁۹	-9.77448
▁مجدد	-9.7749
▁مال	-9.77615
▁ریاضی	-9.77697
▁بودجه	-9.77804
▁نم	-9.77809
▁خارق	-9.77819
▁كل	-9.77825
▁هنرمند	-9.77868
▁غربی	-9.77897
▁فصل	-9.77936
▁ساختیم	-9.77945
▁نیستیم	-9.77945
▁بگذارم	-9.7801
▁پزشک	-9.78084
▁چشمان	-9.78227
▁تئوری	-9.78241
▁خلاقیت	-9.78262
▁انها	-9.78268
▁20	-9.78303
▁عدالت	-9.7834
اتی	-9.78468
توانند	-9.78574
▁چندان	-9.7859
▁اهداف	-9.78706
▁خارجی	-9.78726
ساز	-9.78842
▁منطقی	-9.78998
▁اینست	-9.79083
▁مشهور	-9.79112
▁ساحل	-9.79114
▁اينكه	-9.79117
فی	-9.79189
سل	-9.79191
▁S	-9.79229
وب	-9.79239
▁مدتی	-9.7928
▁هرچه	-9.79318
▁تار	-9.79327
بو	-9.79475
▁شواهد	-9.79551
▁دیدیم	-9.79629
▁قطعا	-9.79679
▁مردی	-9.79818
▁جایز	-9.79968
▁سرتاسر	-9.79991
▁ذرات	-9.80054
▁چهارم	-9.80231
▁نگار	-9.80297
▁كن	-9.80348
رن	-9.80388
▁ویدیو	-9.80468
▁بن	-9.80632
زار	-9.80672
▁خراب	-9.80769
▁گزینه	-9.80871
▁موسسه	-9.80881
▁چرخ	-9.80905
▁بزنید	-9.80934
▁استخوان	-9.80941
▁اصول	-9.80993
▁جنس	-9.81174
▁دنیایی	-9.81225
▁آورند	-9.81285
سر	-9.81322
▁پرتاب	-9.81337
ونی	-9.81361
▁مرکزی	-9.81563
اور	-9.81616
▁استاد	-9.81802
▁ایمیل	-9.81922
جه	-9.81939
▁دولتی	-9.81994
▁باهاش	-9.82009
▁تونستم	-9.82017
▁نبوده	-9.82056
اید	-9.82065
▁مسابق	-9.82137
▁خرد	-9.82191
▁ناحیه	-9.82224
▁صادق	-9.82224
▁چيزي	-9.82262
▁دفتر	-9.82266
▁مسئولیت	-9.82271
▁پاک	-9.82286
▁کشت	-9.82311
I	-9.82314
▁شهروندان	-9.82334
▁گذاشتن	-9.82343
▁سلامتی	-9.82381
▁امن	-9.8241
▁نیمه	-9.826
▁محاسب	-9.82601
▁زنی	-9.82617
▁دلایل	-9.8276
▁شادی	-9.8276
▁خست	-9.82765
▁مانع	-9.82848
▁لیست	-9.82893
▁میکنن	-9.82907
▁افکار	-9.82917
▁شون	-9.82941
▁خواهی	-9.82993
▁آموخت	-9.8304
▁۲۵	-9.83099
▁اُ	-9.83118
▁الگوریتم	-9.83131
▁تنوع	-9.8314
▁توصیف	-9.83153
بل	-9.83182
▁خواندن	-9.83184
▁شاد	-9.83307
۴	-9.83478
▁آموز	-9.8353
▁وسیع	-9.8359
▁بایستی	-9.83852
▁میدن	-9.8392
▁روزانه	-9.83997
▁نگهداری	-9.83999
▁ورزش	-9.84039
▁نظرم	-9.84041
▁قایق	-9.84046
▁لذا	-9.84046
▁اشکال	-9.84073
▁راحتی	-9.84159
▁مخصوص	-9.8416
▁مذهبی	-9.84249
خور	-9.8435
▁حالیکه	-9.84451
▁قالب	-9.84507
▁افغانستان	-9.84508
▁بومی	-9.84791
گرد	-9.84843
▁عملی	-9.84886
▁افتخار	-9.8497
▁استعداد	-9.8497
▁ماجرا	-9.84995
▁رفتند	-9.85049
▁مهمترین	-9.85255
▁نوشت	-9.85262
▁مقداری	-9.85293
▁اینقدر	-9.85428
▁برسد	-9.85438
▁مخفی	-9.85443
▁مجازی	-9.85459
▁باشن	-9.8546
▁مرده	-9.85521
▁رسیدیم	-9.85832
▁اهل	-9.85912
۰۰۰	-9.86095
▁گشت	-9.86125
▁بینم	-9.8613
▁فرم	-9.86165
▁جلب	-9.86249
بان	-9.86252
▁داستانی	-9.86369
▁ابعاد	-9.86372
▁منحصر	-9.86374
▁کارخانه	-9.8655
▁خوبه	-9.86612
▁تونن	-9.86712
▁بل	-9.86808
▁تعادل	-9.86843
▁برزیل	-9.86844
▁ریسک	-9.86873
▁بشن	-9.86884
▁بگویید	-9.86894
▁توپ	-9.87004
▁کلید	-9.87052
▁گردد	-9.87165
▁دانست	-9.87202
اپ	-9.87268
▁نسبتا	-9.87405
▁۸۰	-9.87411
▁حجم	-9.87425
▁بين	-9.8757
▁بره	-9.87666
▁سؤال	-9.87793
▁آگاه	-9.87871
▁مهمتر	-9.88084
▁گران	-9.88103
▁پیشرفته	-9.88255
▁خاموش	-9.88275
▁نکن	-9.88585
▁کف	-9.88606
ران	-9.88661
▁سخن	-9.8874
▁استخدام	-9.88754
▁میدونید	-9.88881
▁بگذاریم	-9.88899
▁گی	-9.89056
▁بروند	-9.89111
▁اینطوری	-9.8921
▁معرض	-9.89243
▁حشرات	-9.89277
▁ِ	-9.89491
▁آمدن	-9.89565
▁الگو	-9.8961
C	-9.89692
▁الکتریکی	-9.89721
▁حفاظت	-9.89721
▁آنلاین	-9.89723
▁تابستان	-9.89726
▁اجتماع	-9.89799
5	-9.89812
▁وار	-9.89844
▁ثروتمند	-9.89965
▁سوالات	-9.90142
▁حکومت	-9.90209
▁مربع	-9.90209
▁قهرمان	-9.90228
▁نخستین	-9.90308
▁پرو	-9.90369
اي	-9.90445
۰	-9.90478
سه	-9.90556
▁کامپیوتری	-9.90627
ارت	-9.90639
▁علامت	-9.90699
▁میمون	-9.907
▁مصاحب	-9.90702
▁ربط	-9.90704
▁غلط	-9.90714
▁هیچوقت	-9.90742
▁کنندگان	-9.90809
▁نظامی	-9.90829
▁نابود	-9.90946
توانستیم	-9.91022
لي	-9.91044
▁محیطی	-9.91053
پی	-9.91063
▁روان	-9.91076
▁لطفا	-9.91092
▁شا	-9.91136
▁اخبار	-9.91192
▁ترجیح	-9.91192
▁بخصوص	-9.91197
▁تمیز	-9.91198
وار	-9.91205
▁شرح	-9.91217
▁بالایی	-9.91255
▁مس	-9.91283
▁سوار	-9.91398
▁وحشتناک	-9.9143
▁غیره	-9.91461
▁گرایی	-9.91626
▁روزها	-9.91694
▁پشه	-9.91694
▁چک	-9.91705
▁شهرهای	-9.91726
▁صندلی	-9.91837
▁بوسیله	-9.91842
▁متخصص	-9.91925
▁اوه	-9.91967
برد	-9.91978
▁هاى	-9.91993
▁باغ	-9.92
▁اجرای	-9.92065
▁باران	-9.92127
▁ماهواره	-9.92186
▁پیچیدگی	-9.92189
▁فراوان	-9.92197
▁جوانان	-9.92364
▁پیوست	-9.92524
▁حیوان	-9.92564
▁پيش	-9.92576
▁پار	-9.926
▁شور	-9.92607
▁تأثیر	-9.92684
▁آشکار	-9.92685
▁فلج	-9.92685
▁آزمون	-9.92691
▁جزئیات	-9.92733
▁برگردیم	-9.92736
▁پرنده	-9.92798
▁E	-9.92963
▁مارک	-9.93097
▁پنجر	-9.93126
ير	-9.93161
وک	-9.93178
▁ناراحت	-9.93181
▁کارم	-9.93186
▁سوراخ	-9.93188
▁حلقه	-9.93191
▁انگیزی	-9.93217
▁دانشجویان	-9.93289
▁بعدا	-9.93519
▁فهمیدن	-9.93528
ایل	-9.93638
▁متمرکز	-9.93693
نه	-9.93722
▁نهاد	-9.93739
▁گربه	-9.93742
2	-9.93787
▁یادم	-9.93918
▁شناخت	-9.93941
▁یکبار	-9.93995
▁وا	-9.94004
▁نر	-9.94199
▁ذخیر	-9.94202
▁پائین	-9.94204
▁شیشه	-9.94207
▁دفع	-9.94273
▁صورتی	-9.9428
▁چکار	-9.94314
▁وجه	-9.94421
دا	-9.94461
▁مرز	-9.94468
رم	-9.94489
▁مخالف	-9.9454
▁مح	-9.9455
▁پژوهش	-9.94707
▁لندن	-9.94714
▁قهو	-9.94723
▁بازگشت	-9.94725
▁نیازمند	-9.94802
▁تست	-9.94812
▁3	-9.94816
▁آلمان	-9.94936
▁کور	-9.94989
▁درختان	-9.95111
▁بتونی	-9.95111
▁مهمه	-9.95192
تیک	-9.95267
▁بي	-9.95267
▁بخواهید	-9.95284
▁تع	-9.95451
▁دیجیتالی	-9.95486
يي	-9.95574
▁D	-9.95629
▁تکان	-9.95645
▁روستا	-9.95649
▁باورنکردنی	-9.95738
▁دبیرستان	-9.95738
▁سازد	-9.9587
▁سالن	-9.95891
یدن	-9.95984
▁حتما	-9.96183
▁اخیرا	-9.9621
▁وقوع	-9.96257
▁میگم	-9.96314
شن	-9.96419
▁وحشت	-9.96429
ستان	-9.9664
▁مستقل	-9.9678
▁حوزه	-9.96782
u	-9.96786
m	-9.96809
▁خلاف	-9.9681
▁لول	-9.96945
▁خواسته	-9.9695
▁خواهر	-9.96994
▁شمالی	-9.97014
سن	-9.9703
▁شنا	-9.97031
▁۱۱	-9.97109
▁رژیم	-9.97301
▁عراق	-9.97307
▁فروشگاه	-9.97336
▁آفریقایی	-9.97427
▁تاب	-9.97485
▁تصادفی	-9.97529
▁دادگاه	-9.97566
▁سلولها	-9.976
▁زندگي	-9.97816
▁اشیاء	-9.97833
▁سوء	-9.97856
▁هو	-9.97888
▁بکنید	-9.97918
▁افته	-9.97926
▁جمهور	-9.98003
▁نمود	-9.9808
زن	-9.98201
▁دهی	-9.98217
▁موافق	-9.98218
▁انتشار	-9.98356
▁زا	-9.98387
▁زند	-9.98466
▁سکس	-9.98492
▁ذهنم	-9.9858
▁عصب	-9.98611
▁راز	-9.98643
▁چرخه	-9.98646
▁زنند	-9.98664
▁میکردند	-9.98683
▁بینند	-9.98757
▁استاندارد	-9.98837
▁آلود	-9.98876
▁اعصاب	-9.98888
▁تغيير	-9.98888
▁عقیده	-9.9889
▁نادید	-9.98891
▁رقم	-9.98891
▁همين	-9.98958
▁معناست	-9.98981
▁آرزو	-9.9902
▁يه	-9.99024
▁رهبر	-9.99042
ئو	-9.99095
▁جستجوی	-9.99169
▁نورون	-9.99192
▁کوچکتر	-9.99236
▁نظام	-9.99287
▁امتیاز	-9.99423
▁مطالعات	-9.99423
▁محکم	-9.99423
▁اعداد	-9.99424
▁سای	-9.99425
▁پشتیبان	-9.99431
▁مراسم	-9.9944
ستر	-9.99569
▁حافظه	-9.99597
▁نباشد	-9.99619
فا	-9.9964
▁دربار	-9.99711
▁ذر	-9.99743
0	-9.9977
▁صاحب	-9.99908
▁اصلاح	-9.99931
▁نفوذ	-9.9996
▁نداشتند	-10.0002
▁پردازش	-10.0006
▁خواستند	-10.0007
▁قراره	-10.0038
▁وضع	-10.0047
▁DNA	-10.005
▁شامپانزه	-10.005
▁نویسنده	-10.0052
▁برسیم	-10.0057
▁تحمل	-10.0058
▁روشهای	-10.008
يس	-10.0081
▁شنیدم	-10.0085
▁ديد	-10.0091
▁رودخان	-10.0091
▁محور	-10.0101
▁ارتباطی	-10.0109
▁سالهای	-10.0112
▁ببریم	-10.0115
▁احتمالاً	-10.0127
▁بروم	-10.0143
▁چینی	-10.0146
▁توزیع	-10.0159
▁زباله	-10.0159
گیر	-10.016
زه	-10.0168
▁طبق	-10.017
▁امسال	-10.0174
▁چراغ	-10.0185
▁نمي	-10.0196
▁گاو	-10.0197
▁ارتفاع	-10.0214
▁سقوط	-10.0214
▁اواخر	-10.0214
▁برجست	-10.0218
▁ات	-10.0223
▁T	-10.0247
▁نبودند	-10.0252
۶	-10.027
▁نباش	-10.0272
▁P	-10.0275
▁همانند	-10.0285
▁یکسان	-10.0302
▁مشتری	-10.031
▁کشی	-10.0315
▁دستور	-10.0318
▁گوناگون	-10.0325
▁انگلستان	-10.0325
ملل	-10.0325
▁جلوگیری	-10.0326
▁خشک	-10.0331
▁خم	-10.0341
▁خدای	-10.0344
▁دیجیتال	-10.0352
▁شماست	-10.0356
جی	-10.0359
▁خلاق	-10.0373
▁حذف	-10.0381
▁برام	-10.0386
▁ابزارهای	-10.0387
▁آواز	-10.0388
▁کدوم	-10.0401
▁نت	-10.0409
▁ارزان	-10.0411
r	-10.0411
▁ابتدایی	-10.0412
▁میره	-10.0423
▁انگشت	-10.0424
▁پذیری	-10.0424
▁اطلاع	-10.043
ِر	-10.0432
▁گیاه	-10.0435
▁اوتیسم	-10.0437
▁نظیر	-10.0437
مو	-10.0439
▁بشود	-10.0439
▁برید	-10.044
▁تور	-10.0443
طرف	-10.0453
▁جالبه	-10.0454
▁سابقه	-10.0468
▁تاریخی	-10.0478
▁دایره	-10.0478
▁رسیدم	-10.0483
▁تلسکوپ	-10.0493
▁کالیفرنیا	-10.0493
▁استدلال	-10.0493
▁چسب	-10.0494
▁مقاومت	-10.0497
▁اندرسون	-10.0497
▁گذارد	-10.0497
▁بس	-10.0512
انس	-10.0528
▁شیمی	-10.0533
▁نمیش	-10.0534
▁جمعی	-10.0545
▁آسیا	-10.0547
گری	-10.0549
وف	-10.0549
▁تقویت	-10.055
▁قطر	-10.0551
▁آزار	-10.0554
▁دورتر	-10.0555
▁بخواهیم	-10.0562
▁نهایی	-10.0572
▁نی	-10.0573
▁ذات	-10.0584
▁جاهایی	-10.0588
▁متولد	-10.0607
▁مخدر	-10.0609
▁ملت	-10.0611
▁تنهای	-10.0611
رز	-10.0613
▁مکانی	-10.0617
▁داند	-10.0624
▁حواس	-10.0628
▁سرم	-10.0634
▁معادل	-10.0634
▁ایران	-10.0648
تری	-10.0654
▁منفی	-10.0659
▁ايد	-10.0661
▁انفجار	-10.0665
▁منافع	-10.0665
▁دانه	-10.0667
▁دانستم	-10.0671
▁ببرید	-10.0673
▁آهست	-10.0675
▁پرت	-10.0678
▁۱۴	-10.068
▁بیا	-10.0688
▁چیزیست	-10.0696
▁موضوعات	-10.0701
▁زدم	-10.0702
▁ابداع	-10.0723
▁دهان	-10.0725
▁اتم	-10.0728
▁زنم	-10.0731
▁بخور	-10.0746
▁ح	-10.0757
▁زنها	-10.0757
▁گذاشتم	-10.0758
▁دلیلی	-10.0759
▁اصطلاح	-10.0772
▁عوامل	-10.0781
▁افسان	-10.0781
▁مجموع	-10.0783
▁قبلی	-10.0785
▁بزنیم	-10.079
▁ریاضیات	-10.0795
▁نداد	-10.08
▁رساند	-10.0804
▁کش	-10.081
▁هل	-10.0811
▁غل	-10.0816
▁سازند	-10.0823
▁قطعات	-10.0824
▁خرس	-10.0828
يا	-10.0836
▁موبایل	-10.0839
▁ترسناک	-10.0839
▁۷۰	-10.0843
ar	-10.0844
▁سازنده	-10.0849
▁نوشتم	-10.0849
▁مقدس	-10.0856
▁عملیات	-10.0858
▁ایدز	-10.0859
عل	-10.0863
▁پو	-10.0864
صد	-10.087
▁هایش	-10.0876
▁خودکار	-10.0877
▁همکاران	-10.0889
▁چطوری	-10.0892
▁سریعتر	-10.0897
اصل	-10.0897
▁برگشتم	-10.0897
▁ژنوم	-10.09
▁تجربیات	-10.0901
▁عمده	-10.0901
▁برو	-10.091
▁خواستی	-10.091
▁پست	-10.0913
▁جایگاه	-10.0914
▁بدانید	-10.0917
▁کلیدی	-10.0918
▁وای	-10.0919
▁سیب	-10.0923
▁مردها	-10.0943
بین	-10.0947
▁نهایتا	-10.0948
▁اسکن	-10.0948
▁سرانجام	-10.0958
▁زندگیم	-10.0963
▁دقیقاً	-10.0978
▁کفش	-10.0994
▁آم	-10.1001
▁سلام	-10.1006
▁نکرد	-10.1009
▁الگوهای	-10.1012
▁اتومبیل	-10.1017
▁واکسن	-10.1017
▁ایستگاه	-10.1019
▁کیلو	-10.1021
▁خطا	-10.1022
▁رسمی	-10.1027
h	-10.105
کردن	-10.1051
▁داستانهای	-10.1059
▁سنگین	-10.1065
▁ژ	-10.1065
▁همسر	-10.1067
هاست	-10.1073
▁5	-10.1074
▁تازگی	-10.1077
▁تشکر	-10.1078
▁مرغ	-10.1081
▁رمز	-10.1083
▁ببینند	-10.109
P	-10.1099
▁متحد	-10.1103
▁عالیه	-10.1134
▁شفاف	-10.1136
داشت	-10.1137
▁اتصال	-10.1137
▁اسرائیل	-10.1137
▁همونطور	-10.1138
▁سرخ	-10.1157
▁نیروهای	-10.1158
D	-10.1158
▁اوج	-10.1159
▁میلیونها	-10.1195
▁مادربزرگ	-10.1198
▁زرد	-10.1199
T	-10.1211
l	-10.1214
ننده	-10.122
6	-10.1221
▁اسلح	-10.1258
▁پروتئین	-10.1258
▁اسباب	-10.126
▁ندارید	-10.1266
▁قلبی	-10.1267
▁دوستانم	-10.1284
▁بدترین	-10.1287
دان	-10.1287
▁افسردگی	-10.1302
▁هنرمندان	-10.1312
▁زياد	-10.132
▁جنین	-10.1325
▁درستی	-10.1329
▁بگوییم	-10.1331
▁اح	-10.1338
4	-10.1346
وپ	-10.1356
نامه	-10.1362
▁مشابهی	-10.1372
روی	-10.1378
▁امریکا	-10.1379
▁2	-10.1379
▁کنفرانس	-10.1382
▁امواج	-10.1382
▁خطوط	-10.1382
▁برگ	-10.1383
▁لحظات	-10.1383
▁محض	-10.1383
▁برن	-10.1397
گیری	-10.1414
▁بردار	-10.1415
▁ته	-10.1421
▁برف	-10.1421
▁شو	-10.1421
▁تش	-10.143
▁گوییم	-10.1431
▁سرزمین	-10.1444
▁متقاعد	-10.1444
▁نصب	-10.1444
▁کالج	-10.1444
▁جلسه	-10.1445
▁تومور	-10.1448
▁وادار	-10.1453
▁برگزار	-10.1454
▁خواهي	-10.1472
▁مسن	-10.1482
▁مخ	-10.1494
▁وظیفه	-10.1506
▁اخلاق	-10.1507
▁۱۷	-10.1508
▁تخت	-10.1513
▁نکنیم	-10.1523
▁حساس	-10.1528
▁فرضی	-10.1529
▁غار	-10.1542
▁جاهای	-10.1543
▁ص	-10.155
▁میداد	-10.1553
▁تخم	-10.156
▁مجسم	-10.1569
▁پنجاه	-10.157
▁ماموریت	-10.1571
▁بوی	-10.1572
▁وضوح	-10.1574
▁گیج	-10.158
▁جزیره	-10.1581
▁کشوری	-10.1597
▁سوالی	-10.1598
in	-10.1602
گذار	-10.161
▁توانی	-10.1626
▁بگو	-10.1629
▁اشتیاق	-10.1632
▁ايجاد	-10.1632
▁سقف	-10.1632
▁برانگیز	-10.1632
00	-10.1659
▁اندکی	-10.1666
▁وال	-10.1672
▁حقیقتا	-10.1672
▁ستون	-10.1679
رت	-10.168
پل	-10.168
▁اختلال	-10.1688
▁طلا	-10.1694
▁سلاح	-10.1696
▁حباب	-10.1696
▁نانو	-10.1697
گا	-10.1702
▁نویسی	-10.1703
▁باری	-10.1709
▁حین	-10.1712
▁بپرسید	-10.1715
▁ايم	-10.1716
▁کلاه	-10.1721
R	-10.1727
▁تل	-10.1733
▁بست	-10.1737
▁عظیمی	-10.175
▁آثار	-10.176
▁علائم	-10.176
▁متعلق	-10.176
▁کوچولو	-10.176
▁بالقو	-10.176
▁قضاوت	-10.176
▁نبودم	-10.1762
▁بسازند	-10.1763
▁نگرانی	-10.1763
▁گیرید	-10.1763
▁بگویند	-10.1764
▁عهد	-10.1766
▁كرديم	-10.1767
▁قو	-10.1775
▁ورود	-10.1783
▁اندیش	-10.1796
▁ببرم	-10.1814
▁اولی	-10.1815
▁مصر	-10.1819
▁میگفت	-10.1821
▁حرکات	-10.1825
▁بطری	-10.1825
▁هيچ	-10.1825
▁منظوم	-10.1825
▁قاره	-10.1825
▁ظرفیت	-10.1829
▁موجب	-10.1834
▁دام	-10.1835
▁پلاستیک	-10.1845
▁داروهای	-10.1849
ارغ	-10.185
▁50	-10.1854
it	-10.1855
▁غریبه	-10.1856
▁ببر	-10.1859
گذاری	-10.187
al	-10.1875
▁پیچ	-10.1879
▁شنیدن	-10.1881
▁اسلاید	-10.189
▁انعطاف	-10.189
▁وزیر	-10.1893
▁بستگی	-10.1893
▁دمای	-10.1893
ایش	-10.1896
▁تحصیلات	-10.1903
▁اور	-10.1906
▁مگر	-10.1909
▁4	-10.191
▁کشد	-10.1911
▁نابرابری	-10.1917
▁اتفاقات	-10.1919
▁لبه	-10.1921
▁بیل	-10.1943
▁دلاری	-10.1952
▁خوشبختان	-10.1968
▁همسرم	-10.1972
▁بشریت	-10.1976
▁آمدم	-10.198
▁اندام	-10.1982
E	-10.1988
▁مالیات	-10.1999
▁میدهیم	-10.2004
وایی	-10.201
▁براش	-10.2014
▁سواری	-10.2014
▁محرک	-10.2021
▁احمقانه	-10.2025
▁قربانی	-10.2029
لان	-10.204
▁نوار	-10.2043
▁میکنی	-10.2052
زد	-10.2052
▁دراین	-10.2058
▁تاریکی	-10.206
▁اینجوری	-10.2078
▁شوی	-10.2083
وش	-10.2084
▁تشويق	-10.2087
▁ناخالص	-10.2087
▁ناپدید	-10.2087
▁تموم	-10.2088
▁دعا	-10.2088
▁شلیک	-10.2088
▁کیس	-10.209
۰۰	-10.2093
▁اد	-10.2096
▁کارایی	-10.21
▁هوای	-10.2108
▁شرق	-10.212
▁انتهای	-10.2123
▁حدی	-10.2124
▁پاهای	-10.2128
▁ادعا	-10.214
▁فیل	-10.2142
▁اب	-10.2144
▁نخواهی	-10.2144
▁توجهی	-10.2146
▁زندانی	-10.215
▁تجزیه	-10.2154
▁بسازید	-10.2154
▁بسازم	-10.2154
▁تروریست	-10.2154
▁جشن	-10.2155
an	-10.2158
▁نبرد	-10.2159
▁روزمر	-10.2167
▁مایع	-10.2174
▁شام	-10.2177
▁۵۰۰	-10.2181
▁کاربرد	-10.2188
▁مور	-10.2211
▁محبوب	-10.2221
▁تکنیک	-10.2221
▁شرط	-10.2224
▁ارزیاب	-10.2225
▁خبری	-10.2227
▁سان	-10.2229
▁زمینی	-10.2231
or	-10.224
▁اکسید	-10.224
▁راستی	-10.2243
▁۱۳	-10.2246
▁هیچکس	-10.225
لز	-10.2252
▁شناختی	-10.2253
▁دانستن	-10.2263
لند	-10.2269
3	-10.227
▁مبنای	-10.2278
▁سینه	-10.2285
قل	-10.2287
▁رستوران	-10.2288
▁سطوح	-10.2288
▁مالاریا	-10.2288
▁پوشیده	-10.2289
▁آهن	-10.2294
▁رسند	-10.2304
▁تایید	-10.2312
▁كردند	-10.2316
▁ژاپن	-10.2318
▁امیدوار	-10.2319
قابل	-10.232
گي	-10.2323
▁۹۰	-10.2337
▁دیدید	-10.2349
▁30	-10.2349
▁قد	-10.2351
▁لغت	-10.2356
▁مطلب	-10.2356
▁پیرامون	-10.2356
▁پاداش	-10.2357
▁مدرک	-10.2357
▁حاضران	-10.2369
▁فروخت	-10.2374
▁واین	-10.2376
▁انداخت	-10.2385
برگ	-10.2385
▁خر	-10.2385
▁آرزوی	-10.2391
▁مست	-10.2396
نش	-10.2398
▁یو	-10.2423
▁سپتامبر	-10.2425
▁نياز	-10.2425
▁کوچیک	-10.2426
▁میتونست	-10.2427
▁راهنمایی	-10.243
▁خام	-10.2431
همه	-10.245
▁۱۶	-10.2462
▁رز	-10.2464
8	-10.2465
▁گویی	-10.2474
▁روي	-10.2481
آور	-10.2481
▁طلب	-10.2494
▁فرانسه	-10.2494
فل	-10.2495
▁متنفر	-10.2496
بن	-10.2496
▁6	-10.2499
▁میخواهیم	-10.2507
▁فرمان	-10.2532
▁بینایی	-10.2537
دل	-10.2542
M	-10.255
▁كم	-10.2551
▁سیگنال	-10.2553
▁اوضاع	-10.2563
▁صندوق	-10.2563
▁همسایه	-10.2563
▁میدم	-10.2568
▁سکوت	-10.257
▁مه	-10.257
▁بکنند	-10.2571
▁فردا	-10.2576
▁مق	-10.2578
▁بشری	-10.2583
en	-10.2586
▁مادران	-10.2586
▁کردی	-10.2587
ینه	-10.2594
▁نحوی	-10.2604
▁پذیرفت	-10.2605
داد	-10.2605
▁وحشی	-10.2613
ینگ	-10.2614
▁جادو	-10.2623
▁۲۴	-10.2623
▁طوفان	-10.2633
▁انبوه	-10.2633
▁کارکنان	-10.2633
▁ترجمه	-10.2634
▁کمپانی	-10.2634
▁تحریک	-10.2636
▁نشین	-10.2637
▁نیو	-10.264
▁تخیل	-10.2645
گن	-10.2666
▁شناسان	-10.2671
▁بودید	-10.2674
▁آوریم	-10.2674
▁چاق	-10.2676
▁اسب	-10.2678
▁نمایی	-10.2686
▁قسمتی	-10.2692
▁تدریس	-10.2704
▁حرارت	-10.2704
▁چیزیه	-10.2706
▁سرش	-10.2716
▁برابری	-10.2725
پس	-10.2726
▁گذاشتیم	-10.2729
▁ترسید	-10.2734
▁شرقی	-10.2747
▁40	-10.2748
لت	-10.2753
خواهد	-10.276
▁اهدا	-10.277
▁بيمار	-10.2775
▁پيدا	-10.2775
▁میبینیم	-10.2776
▁غرق	-10.2777
▁كمك	-10.2779
▁نظارت	-10.278
▁کالا	-10.2783
▁مرجان	-10.2785
▁بردم	-10.2799
▁دنيا	-10.28
▁غریب	-10.2811
▁تصادف	-10.2815
ادی	-10.282
وند	-10.2821
▁دخترها	-10.2822
▁گوشی	-10.2826
▁سلولی	-10.2827
▁گه	-10.2832
▁کاوش	-10.2834
▁کشند	-10.2841
▁رحم	-10.2842
▁ادراک	-10.2846
▁فهرست	-10.2846
▁استرالیا	-10.2846
▁مکزیک	-10.2846
▁تمدن	-10.2846
▁مراحل	-10.2847
▁زانو	-10.2847
▁ایمنی	-10.2852
▁تخمین	-10.2856
▁همچین	-10.2861
کاری	-10.2883
▁بشم	-10.2885
▁15	-10.2885
▁طیف	-10.2898
▁شهروند	-10.2904
▁سرباز	-10.2906
▁كوچك	-10.2918
▁استخراج	-10.2918
▁پدربزرگ	-10.2918
▁بازیافت	-10.2921
▁نگرفت	-10.2922
▁استرس	-10.2929
▁مدا	-10.2929
خانه	-10.2933
▁نظم	-10.2934
▁ساختم	-10.2943
▁خو	-10.2957
▁پن	-10.2962
خت	-10.2985
▁باهم	-10.2985
▁انجمن	-10.299
▁فاجع	-10.299
▁شتاب	-10.299
▁قطار	-10.299
▁هرچند	-10.2991
▁حیاتی	-10.2991
▁تجهیزات	-10.2991
▁مگس	-10.2994
▁زمين	-10.2994
▁بزن	-10.2994
▁دستان	-10.3002
▁شکار	-10.3019
▁دیر	-10.3034
▁زودی	-10.3046
▁هوشیاری	-10.305
on	-10.3056
▁صحیح	-10.3063
▁ناامید	-10.3063
▁غير	-10.3064
▁اِ	-10.307
▁مرور	-10.3072
▁طرفدار	-10.3074
جر	-10.3077
▁نیرو	-10.3078
▁جنسیت	-10.3092
▁عملا	-10.3093
▁دونیم	-10.3096
▁گذارند	-10.3101
يز	-10.3105
ائ	-10.3108
کرد	-10.3109
▁مشتاق	-10.3114
▁معما	-10.3116
▁التحصیل	-10.3137
▁تعهد	-10.3137
▁عمق	-10.3138
هاشون	-10.314
▁مطمئنم	-10.3144
▁فشرده	-10.3155
▁همکار	-10.3156
▁شیرین	-10.3156
▁مسلمان	-10.316
لد	-10.3163
▁تند	-10.3165
چی	-10.3169
▁سازه	-10.3172
▁شرکتهای	-10.3186
▁استراتژی	-10.3198
▁اسپ	-10.3201
سم	-10.3201
▁تحول	-10.3203
▁نکردم	-10.3204
▁فریاد	-10.3211
اسه	-10.3227
ندگان	-10.3231
▁گرسنگ	-10.3232
▁عرضه	-10.3239
كر	-10.3246
▁مذهب	-10.3252
▁N	-10.3262
▁سیر	-10.3262
▁نوزاد	-10.3271
▁کارو	-10.3277
▁نان	-10.3285
▁برآورد	-10.3286
▁ارزشمند	-10.3287
▁ناپذیر	-10.3288
▁شايد	-10.329
▁نادرست	-10.329
▁آمریکای	-10.3291
دست	-10.3291
▁خواه	-10.3305
▁100	-10.3309
▁دستگیر	-10.3323
▁بوک	-10.3324
▁بنیاد	-10.3325
كار	-10.3326
پذیر	-10.333
▁فرود	-10.3332
▁جمهوری	-10.3336
چاله	-10.3344
▁وقتي	-10.3352
▁بلاف	-10.3354
أ	-10.3355
▁کنون	-10.3359
▁اتوبوس	-10.3361
▁بشیم	-10.3361
▁رویکرد	-10.3376
▁قرارداد	-10.3377
▁گیرم	-10.338
▁نمایان	-10.339
▁مطمئنا	-10.3403
000	-10.3404
▁صداهای	-10.3406
▁ورودی	-10.3414
▁الکترونیکی	-10.3431
▁جديد	-10.3438
▁خانوادگی	-10.3438
▁گرایش	-10.3439
▁صرفا	-10.3441
▁ببیند	-10.3451
رک	-10.3452
▁شاخه	-10.346
▁پردازی	-10.347
▁ابتدای	-10.347
دانید	-10.3471
▁زنجیره	-10.3489
▁جوانی	-10.349
▁درگیری	-10.3496
گرا	-10.3511
▁تجدید	-10.3513
▁تخریب	-10.3513
▁فساد	-10.3513
▁شوهر	-10.3514
▁خوشحالم	-10.3517
▁جادویی	-10.3517
دام	-10.3522
▁بصری	-10.3532
ایت	-10.3538
▁قبیله	-10.354
▁پرده	-10.3543
▁برخوردار	-10.3544
▁جوی	-10.3548
▁کاربردی	-10.356
▁پلاستیکی	-10.3565
▁مادرش	-10.3566
▁داروین	-10.3572
es	-10.3577
▁دانشجو	-10.3579
▁زخم	-10.359
▁عالم	-10.359
▁بدنبال	-10.3592
▁ضروری	-10.3599
▁جاي	-10.3619
▁امور	-10.3623
▁نخ	-10.3636
▁ترکیبی	-10.3638
▁غم	-10.3644
باز	-10.3654
▁هدی	-10.3659
▁تلویزیونی	-10.3659
▁سوئد	-10.3667
▁توقف	-10.3667
▁پت	-10.367
▁هاشون	-10.3671
▁سازیم	-10.369
▁بدانیم	-10.3694
اون	-10.3696
▁روانشناسی	-10.3696
▁بک	-10.3698
▁یابی	-10.3708
▁شمار	-10.3716
▁رادیو	-10.3725
روز	-10.3727
▁ایمان	-10.373
▁پي	-10.373
▁کاشت	-10.3745
يش	-10.3745
▁اشخاص	-10.3745
▁تجاوز	-10.3745
▁واسطه	-10.3746
▁مریض	-10.3746
▁برچسب	-10.3748
▁میخواست	-10.3749
▁کلیک	-10.3763
▁دندان	-10.3764
▁ساختند	-10.3765
▁مقام	-10.3765
▁ردیاب	-10.3768
▁روایت	-10.3786
▁آشپز	-10.3798
رنگ	-10.3806
▁سازگار	-10.3808
▁فیس	-10.3819
▁اجداد	-10.3824
▁موزیک	-10.3826
▁روستایی	-10.3827
▁شریک	-10.3831
▁میتونی	-10.3837
▁کارتون	-10.3842
▁عموم	-10.3843
▁میدونم	-10.3865
▁بسوی	-10.3868
▁رسم	-10.3875
▁آدمهای	-10.3878
▁I	-10.3881
▁امکانات	-10.3885
▁گیره	-10.3891
▁پادشاه	-10.3904
▁توافق	-10.3904
▁حقیقی	-10.3904
▁تاکنون	-10.3904
رای	-10.3905
▁جهش	-10.3906
▁اختصاص	-10.3922
ارد	-10.3926
▁بیت	-10.393
▁محقق	-10.3959
▁فعلی	-10.3964
▁بابت	-10.3968
▁برایم	-10.3971
شناس	-10.3975
▁ظهور	-10.3984
▁قشر	-10.3984
▁ریخت	-10.3984
اسی	-10.3989
▁ارا	-10.3991
▁سپر	-10.4004
▁چشمگیر	-10.4021
▁گره	-10.4022
نز	-10.4026
ریت	-10.4035
بخش	-10.4045
▁1	-10.4048
نتیجه	-10.4048
▁میکروب	-10.405
▁مراقب	-10.405
▁عزیز	-10.405
▁عصبانی	-10.405
▁عام	-10.4051
زاد	-10.4058
▁حیرت	-10.4064
▁جاذب	-10.4064
▁خلاقانه	-10.4073
▁بذار	-10.4082
▁دهيم	-10.4094
▁بفهمم	-10.4095
▁علی	-10.4103
اره	-10.4107
▁کجاست	-10.4114
▁چرخش	-10.4118
▁بگیره	-10.4134
▁مناسبی	-10.4138
▁آزمایشات	-10.414
▁برش	-10.4144
▁مغاز	-10.4145
▁قانع	-10.4145
▁اسکلت	-10.4145
▁کامیون	-10.4145
▁آغوش	-10.4146
▁گناه	-10.4146
▁سرنوشت	-10.4147
▁مهاجرت	-10.4152
▁نوجوانان	-10.4162
قبال	-10.4167
▁غ	-10.4168
▁200	-10.4168
▁دارویی	-10.4171
▁میتوان	-10.4187
▁ودر	-10.4189
▁نداشتیم	-10.4194
▁درسی	-10.42
▁اشیا	-10.4226
▁صخره	-10.4227
▁فلسف	-10.4227
▁بیاوریم	-10.4227
▁میانگین	-10.4228
▁بگه	-10.4228
▁متنوع	-10.4228
▁محسو	-10.4229
▁کانال	-10.423
▁مدنی	-10.4232
▁نمایشگاه	-10.4238
▁خاطرات	-10.4257
▁ابزاری	-10.4258
▁طراحان	-10.4265
▁7	-10.4267
▁کمپین	-10.4277
▁تبلیغات	-10.429
▁آنهاست	-10.429
▁جوش	-10.4299
شناخته	-10.4301
ونه	-10.4304
▁حادث	-10.431
▁پتانسیل	-10.431
▁لامپ	-10.431
▁خواد	-10.4311
▁همدیگه	-10.4314
▁خویش	-10.4316
▁فراگیر	-10.4331
قط	-10.4334
▁پزشکان	-10.4339
▁جنگی	-10.4345
بد	-10.4347
▁درونی	-10.4352
▁نامیم	-10.4357
هايي	-10.4365
▁رت	-10.4365
▁کوانتومی	-10.437
▁شنید	-10.4375
▁روزهای	-10.4379
▁ناسا	-10.4379
▁اکتشاف	-10.4385
▁گردن	-10.4385
▁شکم	-10.4385
▁اعتراض	-10.4393
▁ترافیک	-10.4393
▁اکسیژن	-10.4393
▁سیگار	-10.4396
▁اراد	-10.4397
▁بالغ	-10.4397
▁آيا	-10.4397
▁محاسبات	-10.4398
رها	-10.4398
▁منزل	-10.4401
▁R	-10.4401
▁مستند	-10.4419
▁سیل	-10.4422
▁گور	-10.4432
▁کنیا	-10.4437
▁معمار	-10.4447
▁شغلی	-10.4449
▁کارگر	-10.4449
▁ریخته	-10.4453
▁هماهنگ	-10.4454
▁مکالم	-10.4467
▁ياد	-10.447
▁تقلید	-10.4477
▁۱۹۹	-10.4478
▁فریب	-10.4478
▁نمره	-10.4481
▁تماشای	-10.4486
▁افق	-10.4487
▁نوری	-10.449
▁عربی	-10.4493
▁رایج	-10.4502
▁یافتم	-10.4524
▁كش	-10.453
▁محافظه	-10.4536
▁جراح	-10.4541
▁دشمن	-10.4543
▁پیرو	-10.4548
▁اختلاف	-10.4552
▁تصمیمات	-10.4559
▁اثبات	-10.4562
▁اکوسیستم	-10.4562
▁پیغام	-10.4562
▁تعمیر	-10.4562
▁مزرع	-10.4562
▁دردناک	-10.4562
▁پیانو	-10.4563
▁توالت	-10.457
▁نده	-10.4576
▁دستم	-10.4579
▁معمولاً	-10.458
▁کتابهای	-10.4584
▁12	-10.4601
▁رفتاری	-10.4613
خوان	-10.4614
▁خوشبختی	-10.4615
▁ماندن	-10.4616
▁آرامش	-10.4619
▁وام	-10.4623
▁معلمان	-10.4626
▁آوردیم	-10.4627
▁مخصوصا	-10.4627
▁نما	-10.463
▁منفجر	-10.4648
▁دیوید	-10.4648
▁هرکس	-10.4649
▁خور	-10.465
▁ميكن	-10.4656
▁برعکس	-10.466
▁اروپایی	-10.4661
▁سازمانده	-10.4664
▁لطف	-10.4665
عه	-10.4665
▁رویا	-10.4671
▁کلا	-10.4679
▁کارآفرین	-10.4682
▁سرو	-10.4686
▁آنجلس	-10.4691
رفت	-10.4692
▁رسه	-10.4699
گل	-10.47
بود	-10.47
▁داروها	-10.4701
▁گن	-10.4707
▁شرم	-10.4707
▁نوه	-10.4711
▁روحی	-10.4714
9	-10.4721
▁کول	-10.4728
▁تحقیقاتی	-10.4731
▁تریلیون	-10.4734
▁دکمه	-10.4734
▁بشوند	-10.4734
▁بيرون	-10.4734
▁شاخص	-10.4735
▁خداوند	-10.4735
▁زاوی	-10.4736
▁کیهان	-10.4736
▁بستر	-10.4737
هایشان	-10.474
▁اکثریت	-10.474
▁میرسه	-10.4742
▁آفریقای	-10.4744
▁خند	-10.4746
▁فهمیدی	-10.4756
وال	-10.4769
▁امروزی	-10.4793
▁مهندس	-10.4796
▁ازای	-10.4798
اخ	-10.4798
▁توده	-10.4799
▁شجاع	-10.4803
▁آنتی	-10.4803
▁مستقیما	-10.4817
▁کانادا	-10.4818
▁لب	-10.4818
▁بیستم	-10.482
▁لبخند	-10.4821
▁منحنی	-10.4821
▁فوتبال	-10.4821
▁باشيد	-10.4823
▁قله	-10.4825
▁دومی	-10.4829
▁زنبور	-10.484
▁حکم	-10.4843
▁رویداد	-10.4843
▁فرصتی	-10.4859
▁رس	-10.4861
لر	-10.4863
▁داشتید	-10.4876
▁موردش	-10.4881
▁غالب	-10.4882
▁پولی	-10.4887
▁عجیبی	-10.4888
▁ریو	-10.4896
7	-10.4897
,	-10.4899
▁مقاوم	-10.4904
▁هشدار	-10.4909
▁تروریسم	-10.4909
▁قرآن	-10.4909
▁امضا	-10.491
▁هتل	-10.491
▁شناسیم	-10.4911
▁بشوی	-10.4914
▁دوستی	-10.4926
▁سربازان	-10.4931
▁بزنند	-10.4933
▁پوند	-10.4942
▁انسانیت	-10.4943
▁آوردم	-10.4945
▁ماشینی	-10.4946
▁دیم	-10.4948
▁سابق	-10.4949
▁شکسته	-10.4958
▁میلیاردها	-10.4983
گویند	-10.4985
یتی	-10.4985
▁کمپ	-10.499
▁توصی	-10.4993
▁آمازون	-10.4997
▁آپارتمان	-10.4997
▁معجزه	-10.4997
▁ممكن	-10.4997
▁یادآوری	-10.5
▁شفافیت	-10.5001
▁مطلق	-10.5007
▁جین	-10.5008
▁همجنس	-10.501
▁شكل	-10.5011
▁اعتبار	-10.5012
▁برداشته	-10.5019
▁دونست	-10.502
ic	-10.5025
▁ترانه	-10.5036
▁كس	-10.5041
▁هرچیز	-10.505
▁قبیل	-10.5055
▁آوردند	-10.5072
▁یهودی	-10.5074
▁نقص	-10.5086
▁خودکشی	-10.5087
▁درخشان	-10.5088
▁ساکت	-10.5088
▁غول	-10.5088
▁عسل	-10.5088
▁کوتاهی	-10.5089
▁خشن	-10.5089
▁مایکل	-10.5091
▁میگیره	-10.5091
▁فسیلی	-10.5095
▁رایگان	-10.51
▁کارکرد	-10.5109
نویس	-10.5116
▁۳۰۰	-10.5132
▁میدانیم	-10.5139
▁ویدئوی	-10.5146
▁گفتگوی	-10.5147
▁ره	-10.5165
راق	-10.5169
▁حشر	-10.5169
لانه	-10.5173
▁معلول	-10.5174
▁يعن	-10.5176
▁کاریکاتور	-10.5176
▁زمستان	-10.5177
▁قتل	-10.5177
▁زیرساخت	-10.5178
▁گردش	-10.5183
▁حتا	-10.5186
▁شناور	-10.5188
▁تاسیس	-10.5195
▁تواني	-10.5206
▁نماد	-10.5207
افت	-10.5207
▁رویم	-10.524
▁دگرگون	-10.5254
▁الی	-10.5256
▁شست	-10.5261
خواستم	-10.5265
▁19	-10.5266
▁تحسین	-10.5267
▁متقابل	-10.5269
▁غنی	-10.5269
▁رسانی	-10.527
▁اتحادی	-10.5271
▁مارتین	-10.5271
▁لوح	-10.5273
تس	-10.5275
▁فور	-10.5278
▁سام	-10.5282
▁کتابی	-10.5284
▁محققان	-10.5286
▁بفهمید	-10.5289
انگ	-10.529
▁بيا	-10.5291
۵۰	-10.5306
▁بازو	-10.5318
▁پیشین	-10.5318
▁سخنران	-10.5319
▁زندگ	-10.5334
▁داوطلب	-10.5334
▁دانشجوها	-10.5334
▁آدمهایی	-10.5341
▁ارتقا	-10.5359
▁حزب	-10.5359
▁حقایق	-10.5359
▁داغ	-10.5359
▁بازدید	-10.536
▁دهکد	-10.536
▁فلا	-10.536
▁کمبود	-10.5363
▁بپوش	-10.5363
▁آلودگی	-10.5364
▁اشعه	-10.5364
▁کنگر	-10.5372
▁داروی	-10.5377
▁آورید	-10.5377
▁نگرش	-10.5378
▁نوجوان	-10.5383
▁بگیم	-10.5384
یسم	-10.5386
▁ببرند	-10.5389
▁بپرسی	-10.5391
▁....	-10.5397
▁۲۱	-10.5406
يشه	-10.5414
▁پسرم	-10.5441
▁جسم	-10.5444
▁مفاهیم	-10.5452
▁کارآمد	-10.5452
کنم	-10.5452
▁اولویت	-10.5452
▁خشم	-10.5452
▁نماینده	-10.5453
▁دوتا	-10.5453
رغم	-10.5458
▁پاها	-10.5459
▁وقف	-10.5462
▁سطحی	-10.5465
▁پراکند	-10.5467
▁لس	-10.5468
▁اچ	-10.5469
▁بخواهم	-10.5469
داری	-10.5481
▁موضوعی	-10.5489
▁دانستیم	-10.5491
▁رویای	-10.5502
▁حو	-10.5503
▁گفتار	-10.5503
چر	-10.5507
▁کان	-10.5518
توانم	-10.5521
تل	-10.5523
▁برج	-10.5524
ریک	-10.5533
ch	-10.5536
▁احمق	-10.5539
خلاف	-10.5542
▁بدهی	-10.5542
▁تزریق	-10.5545
▁تطبیق	-10.5545
▁تفسیر	-10.5545
▁توليد	-10.5545
▁یخچال	-10.5545
▁عناصر	-10.5545
▁جهات	-10.5546
▁همدلی	-10.5546
▁مواقع	-10.5547
▁نوبت	-10.5547
▁بپرس	-10.5547
▁نمای	-10.5552
▁فنی	-10.5553
خا	-10.5554
شنب	-10.5556
ارگان	-10.5559
▁فاید	-10.5561
بینی	-10.5562
▁دانشجوی	-10.557
▁مسلما	-10.5582
ِل	-10.5583
▁مغناطیسی	-10.5586
▁پسران	-10.5591
▁صف	-10.5592
▁مم	-10.5604
▁میکردیم	-10.5615
▁نیستید	-10.5619
زده	-10.5623
گذر	-10.5634
▁صنایع	-10.5639
▁موانع	-10.5639
▁قائل	-10.564
▁ناهار	-10.564
▁رفتارهای	-10.5651
▁تدریج	-10.5658
▁شگفتی	-10.5669
▁بیماریهای	-10.5673
ُر	-10.5704
▁چیزایی	-10.5706
▁هستيم	-10.5709
اساس	-10.5712
▁کنجکاو	-10.5717
▁نمیخوا	-10.5718
▁عمو	-10.5724
▁مشكل	-10.5727
▁شکر	-10.5731
▁تبعیض	-10.5735
▁قاعدگی	-10.5735
▁نفع	-10.5735
▁مسخر	-10.5735
▁بخوا	-10.5735
▁8	-10.5737
▁سیارات	-10.5738
▁ماهیت	-10.5747
▁سم	-10.5751
دونستم	-10.5752
▁شاه	-10.5763
▁خوک	-10.5763
▁مدیران	-10.5778
▁آزمایشی	-10.5784
▁برایش	-10.5789
▁سرطانی	-10.5798
رین	-10.5805
▁باب	-10.5809
at	-10.5819
▁استثنا	-10.5828
▁صوتی	-10.5828
▁مخلوط	-10.5831
▁موسسات	-10.5831
▁فرگشت	-10.5831
▁قرص	-10.5832
▁زشت	-10.5832
▁دليل	-10.5833
▁مربی	-10.5834
▁شهردار	-10.5843
▁خاورم	-10.585
مس	-10.586
▁نزد	-10.5864
▁راضی	-10.5867
▁اهمیتی	-10.5873
▁بدانم	-10.5875
▁نباشه	-10.5875
▁مکانهای	-10.5876
▁میرند	-10.5877
▁معیار	-10.5885
▁اومده	-10.5887
▁چندتا	-10.5906
تز	-10.5909
▁رابط	-10.591
▁شیو	-10.5911
▁لر	-10.5914
▁میتونن	-10.5917
▁مهار	-10.5917
جم	-10.5921
▁هندی	-10.5924
▁دیدار	-10.5927
▁ثبات	-10.5928
▁میراث	-10.5928
▁آفتاب	-10.5928
▁پاریس	-10.593
هایمان	-10.5932
▁زوج	-10.5933
▁پرونده	-10.5933
▁دلیلش	-10.594
یانه	-10.594
▁بازیگر	-10.5943
▁تم	-10.5946
▁دارا	-10.5954
▁چيزهاي	-10.5955
▁نگفت	-10.5956
▁دوستش	-10.5963
▁فضاهای	-10.5964
▁راهنما	-10.5965
زمان	-10.5965
▁همکارانم	-10.5967
▁کارمند	-10.5969
دین	-10.5976
▁پشیمانی	-10.5983
▁جامع	-10.5988
▁پد	-10.5989
▁پیکر	-10.5991
▁شمس	-10.5993
▁خاطره	-10.5996
▁بینش	-10.6007
▁دائم	-10.6013
▁سیستمهای	-10.6025
▁تضاد	-10.6026
▁بازخورد	-10.6026
▁فیزیکدان	-10.6027
▁بیفتد	-10.6031
اده	-10.6038
▁عمدتا	-10.6044
▁بلوک	-10.6055
▁فعل	-10.6055
▁گذاریم	-10.6056
▁جن	-10.6057
▁زیباست	-10.6062
گز	-10.6063
▁برسه	-10.6064
گرم	-10.6067
▁افتادن	-10.607
▁بز	-10.6071
▁کود	-10.6076
▁باحال	-10.6085
▁انداختن	-10.6086
▁مدارک	-10.6089
▁تپه	-10.6095
▁گرایان	-10.6097
▁صداها	-10.6105
▁موس	-10.6106
▁بردیم	-10.6111
روم	-10.6116
▁گردند	-10.6123
شما	-10.6123
▁اجتناب	-10.6125
▁تعصب	-10.6125
▁تقلب	-10.6125
▁بیاورید	-10.6125
▁کاش	-10.6127
▁ملک	-10.6129
▁بگید	-10.6134
▁نادر	-10.6136
▁نکنم	-10.6142
▁حدودا	-10.6143
رات	-10.6155
گوید	-10.6157
پو	-10.6157
▁کرم	-10.616
▁جر	-10.6162
▁پذیرش	-10.6174
▁ظاهرا	-10.6176
▁ایمن	-10.6178
▁تب	-10.6183
▁دانل	-10.6185
▁زنبورها	-10.6192
کان	-10.6202
▁ببین	-10.6208
ریل	-10.6214
▁ساکن	-10.6215
▁کلام	-10.622
▁محکوم	-10.6222
▁یکپارچ	-10.6223
▁شباهت	-10.6225
▁مراکز	-10.6225
▁مراجع	-10.6225
فزایند	-10.6225
▁مداوم	-10.6227
▁صفحات	-10.6227
چنين	-10.6227
▁شراب	-10.6229
▁انبار	-10.6232
▁کاربران	-10.6239
▁ضمن	-10.6244
خته	-10.6251
▁نقاش	-10.6253
▁کنونی	-10.6262
▁رم	-10.6265
ترين	-10.6265
▁ملکول	-10.6269
کننده	-10.6277
▁هامون	-10.6278
▁بذاری	-10.6287
▁حرکتی	-10.6287
▁گرانش	-10.6289
▁محو	-10.6292
▁مواردی	-10.6306
الت	-10.6307
▁سخته	-10.6307
▁دلایلی	-10.6309
▁سهم	-10.631
▁سند	-10.6312
▁كامل	-10.6316
▁نمیتوان	-10.6316
▁کلیسا	-10.632
▁شلوغ	-10.6326
▁فیسبوک	-10.6326
▁میکروسکوپ	-10.6326
▁خاتم	-10.6326
▁فرانسوی	-10.6326
▁عکسها	-10.6326
▁ردیف	-10.6326
نام	-10.6327
▁فرانک	-10.6327
▁تایمز	-10.6327
▁جدول	-10.6327
▁شکایت	-10.6327
▁بیولوژی	-10.6329
▁غنا	-10.6329
▁قلمرو	-10.6329
▁دیروز	-10.633
▁نرفت	-10.6332
▁ابراز	-10.6333
▁بادی	-10.6339
▁گلخان	-10.6344
▁نوزادان	-10.6348
▁قربانیان	-10.635
▁روید	-10.6351
ندرت	-10.6354
▁اسلام	-10.6355
▁کیف	-10.6357
▁زور	-10.6367
▁مکانیکی	-10.637
▁نمیدون	-10.6372
▁نظرات	-10.6374
▁دزد	-10.6381
▁بمون	-10.6382
▁بدو	-10.6383
▁لپ	-10.6383
▁سهام	-10.6386
▁میدونیم	-10.6391
▁گرما	-10.6391
▁اثرات	-10.6398
▁جزئی	-10.6421
▁نابینا	-10.6423
▁اطفال	-10.6428
▁المپیک	-10.6428
▁تصوير	-10.6428
▁بنزین	-10.6428
▁حامل	-10.6428
▁نقد	-10.6428
▁نامرئی	-10.6428
▁امشب	-10.6429
▁برسند	-10.6429
▁پاکستان	-10.6429
▁مشت	-10.643
▁جزء	-10.6431
نیا	-10.6437
▁اونقدر	-10.6438
▁اریک	-10.6439
▁بالین	-10.644
▁تف	-10.6442
▁رضایت	-10.6447
▁دنبالش	-10.6449
▁بازده	-10.645
▁25	-10.6452
▁رسيد	-10.6453
▁معادله	-10.6467
▁جون	-10.6468
▁بیم	-10.6474
▁تك	-10.6474
▁نواحی	-10.6475
▁بروز	-10.6491
▁کورش	-10.6492
▁بیند	-10.6496
▁گیت	-10.6496
وقت	-10.6501
▁بمیر	-10.6504
▁سرگرمی	-10.6506
عت	-10.6515
▁پرستار	-10.6516
▁معامل	-10.6521
▁اسکی	-10.6526
▁جابجا	-10.6528
▁انتقاد	-10.6531
▁ظریف	-10.6531
▁لاتین	-10.6531
▁اعدام	-10.6531
▁یابند	-10.6533
خواهید	-10.6537
▁نیک	-10.6541
▁سوپر	-10.6578
▁ورق	-10.6584
ِن	-10.6596
▁شیم	-10.6608
▁استیو	-10.6628
▁قلم	-10.6633
▁اعتراف	-10.6635
▁تعلق	-10.6635
▁حاش	-10.6637
▁فرودگاه	-10.6638
▁روسیه	-10.6638
▁جیمز	-10.6639
▁پرندگان	-10.6642
▁زودتر	-10.6644
▁دریاچ	-10.6647
▁رسیم	-10.6651
▁لازمه	-10.6656
▁میدیم	-10.6659
▁تکی	-10.6679
▁خوار	-10.6681
گران	-10.6682
▁برگردم	-10.6684
▁زنیم	-10.6697
▁باستان	-10.6714
▁دستش	-10.6715
▁میدونی	-10.6718
▁امیدواری	-10.6718
▁نمیده	-10.6722
راس	-10.6726
▁مترو	-10.6734
▁غذاهای	-10.6739
▁اضطراب	-10.6741
▁ملحق	-10.6741
▁18	-10.6741
▁مداخل	-10.6741
▁شایع	-10.6742
▁وحش	-10.6744
▁میرود	-10.6745
▁استعار	-10.6745
▁بلد	-10.6748
▁میدون	-10.6749
▁بت	-10.6753
شل	-10.6756
▁پیشگیری	-10.6758
▁ط	-10.6766
▁پخت	-10.6769
▁يكي	-10.6779
▁توانمند	-10.6781
▁بپرسم	-10.6802
▁منظره	-10.6809
▁عمرم	-10.6821
▁پدید	-10.6822
▁بلا	-10.6824
▁سي	-10.6834
▁آژانس	-10.6847
▁عقل	-10.6847
▁دستیابی	-10.6852
▁حیوانی	-10.6854
▁آینه	-10.6861
▁خواهان	-10.6863
▁آدمی	-10.6866
▁عمیقا	-10.6867
▁بماند	-10.6869
▁سنجش	-10.6872
اك	-10.6872
▁حول	-10.6873
▁سرگرم	-10.688
▁دانی	-10.6889
خواهند	-10.69
▁فا	-10.6907
زو	-10.6911
▁دائمی	-10.693
▁اشتباهات	-10.694
ولت	-10.6952
▁ایا	-10.6953
▁چارچوب	-10.6954
▁آناتومی	-10.6954
▁قاضی	-10.6954
▁ژانویه	-10.6954
▁سرزنش	-10.6954
▁بیاورند	-10.6955
▁دما	-10.6956
▁صاف	-10.6956
▁کابل	-10.6956
نمود	-10.6966
▁احیا	-10.6971
يان	-10.6971
▁کنجکاوی	-10.6974
▁نکردنی	-10.6976
▁يكى	-10.6982
▁دارایی	-10.6992
▁خطی	-10.6997
▁بدنم	-10.7002
▁گذرد	-10.7013
▁دخترم	-10.7016
▁شوخی	-10.7016
عد	-10.702
▁نواز	-10.7032
▁وقتها	-10.7032
▁بیاب	-10.7045
▁معکوس	-10.7063
▁انحصار	-10.7063
▁پرچم	-10.7063
▁ادیان	-10.7064
▁تاکید	-10.7064
اطه	-10.7064
▁مزیت	-10.7066
▁گبی	-10.7067
▁بکشید	-10.7068
▁رییس	-10.7073
▁سیاستمداران	-10.7074
▁سیستمی	-10.7078
▁خیابانها	-10.708
▁نحو	-10.7081
▁بدیهی	-10.7082
▁کلیپ	-10.7084
▁تغییری	-10.7098
▁ژنتیک	-10.711
▁ببرد	-10.7112
▁پروس	-10.7117
▁بردند	-10.7123
▁پرسیدیم	-10.713
▁میخوان	-10.7137
▁مجددا	-10.7144
▁بدل	-10.7147
▁خونی	-10.7148
▁ترسیم	-10.7161
بت	-10.7163
▁فلز	-10.7165
▁طريق	-10.7173
▁ملاحظ	-10.7173
▁نیجری	-10.7173
▁تنفس	-10.7173
▁كهكشان	-10.7173
▁طنز	-10.7173
▁كو	-10.7174
▁بامزه	-10.7174
▁قفل	-10.7174
▁رادیویی	-10.7177
▁مجازات	-10.7178
▁درآورد	-10.7178
▁طلایی	-10.7179
▁زيرا	-10.7184
▁ناشناس	-10.7184
▁انکار	-10.7193
اتور	-10.7194
▁صدم	-10.7194
▁فروشی	-10.7196
▁9	-10.7201
▁بقا	-10.7206
▁پیروزی	-10.7208
▁دیدند	-10.7211
▁بوم	-10.7214
▁بخر	-10.7227
▁تونستی	-10.723
▁۲۰۰۰	-10.7237
▁نمک	-10.7244
▁اجزای	-10.7249
▁موقعیتی	-10.7254
رون	-10.7264
▁ابد	-10.7271
▁تضمین	-10.7284
▁تفریح	-10.7284
▁حوادث	-10.7284
▁رؤیا	-10.7284
▁ریچارد	-10.7284
▁زحمت	-10.7284
▁فاقد	-10.7284
▁هاروارد	-10.7284
▁مراتب	-10.7284
▁ميليون	-10.7285
▁دموکراتیک	-10.7285
▁مجانی	-10.7285
▁کلینیک	-10.7286
تيج	-10.7291
میخواد	-10.7292
▁کتابخان	-10.73
▁وعده	-10.7318
▁رنگی	-10.7322
▁قور	-10.7324
▁پاپ	-10.7326
کتور	-10.7327
▁اضافی	-10.7334
▁گلول	-10.7336
▁دود	-10.7339
▁۱۵۰	-10.7342
جلس	-10.7346
۳۰	-10.7351
فور	-10.7354
▁بردارید	-10.7359
▁ارز	-10.7364
▁تایپ	-10.7371
re	-10.7374
▁جیب	-10.7378
▁افراطی	-10.7387
▁انجیل	-10.7397
▁خجالت	-10.7397
▁ضرر	-10.7397
▁بسازد	-10.7397
▁آسایش	-10.7397
▁منظم	-10.7398
▁وکیل	-10.7399
▁شیفت	-10.7399
▁خوند	-10.74
▁موشک	-10.7406
▁بگن	-10.7406
▁ميشه	-10.7413
▁راهکار	-10.7419
▁یازده	-10.7426
▁بکند	-10.7428
▁دائما	-10.7437
يست	-10.7449
▁کت	-10.7451
▁انتها	-10.7453
▁ميده	-10.7457
▁اينها	-10.7467
▁شناسم	-10.7469
▁نتوان	-10.7472
▁نامم	-10.7472
كس	-10.748
▁هوشمندان	-10.7482
▁پوسته	-10.7502
▁شبه	-10.7507
▁ارقام	-10.751
▁خیانت	-10.751
▁سفارش	-10.751
▁واشنگتن	-10.751
▁دوازده	-10.751
▁حروف	-10.751
▁بیولوژیکی	-10.7512
▁قطبی	-10.7514
▁سرویس	-10.7515
▁بخود	-10.7515
▁بنشین	-10.7515
کال	-10.7515
▁بیایند	-10.752
▁اوست	-10.7521
▁کارگاه	-10.7523
▁ببند	-10.7525
▁کشاورزان	-10.7526
▁هایتان	-10.7529
▁تق	-10.753
▁اصلاحات	-10.753
▁نتوانست	-10.7531
▁هواپیمای	-10.7532
ریز	-10.7533
▁بشناس	-10.7536
▁کشتن	-10.7557
▁دونه	-10.7561
▁کارگران	-10.7562
عا	-10.7564
▁باتری	-10.7566
▁۲۲	-10.7579
▁شي	-10.7584
▁هایم	-10.7588
▁نوازند	-10.759
▁اع	-10.76
▁کاس	-10.7609
▁گازهای	-10.762
شته	-10.7623
▁ظهر	-10.7625
▁متعهد	-10.7625
▁مطالب	-10.7625
▁جمجم	-10.7625
▁معنوی	-10.7625
▁توماس	-10.7625
▁شکارچی	-10.7626
▁يافت	-10.7629
▁تعطیلات	-10.7629
▁پایگاه	-10.7634
▁بتونن	-10.7635
▁اختلالات	-10.764
▁مسافرت	-10.7641
عکس	-10.7644
▁تاپ	-10.7649
▁نکردیم	-10.7649
▁دهندگان	-10.7663
▁میدهم	-10.7663
▁سنگی	-10.7669
▁جاست	-10.767
▁سوزن	-10.7672
▁باشین	-10.7675
▁نشستن	-10.7675
فون	-10.7678
ايي	-10.7685
برای	-10.7694
▁عده	-10.7716
گویید	-10.7725
▁بازه	-10.7725
▁نفرت	-10.7732
▁عقاید	-10.7741
▁شنوند	-10.7742
▁ابرها	-10.7743
▁گذاشتند	-10.7745
َن	-10.7745
▁سوسک	-10.7747
▁فیلتر	-10.7751
▁مامان	-10.776
▁سرود	-10.7763
فروش	-10.7766
▁شکلات	-10.779
▁ساختارهای	-10.7794
▁افت	-10.7797
▁قرض	-10.78
وطه	-10.7803
▁برخ	-10.7804
▁مسیحی	-10.7804
▁عکاسی	-10.7806
٠٠	-10.7814
▁تیر	-10.7818
کنید	-10.7826
▁۱۹۶	-10.7829
▁غد	-10.7831
▁مگ	-10.7842
▁خوشحالی	-10.7853
▁برگرد	-10.7853
▁ابتکار	-10.7859
▁دقيق	-10.7859
▁لیبرال	-10.7859
▁انداخته	-10.7859
▁بشوم	-10.7859
▁اردوگاه	-10.786
▁هیگز	-10.786
▁ختم	-10.786
▁کارش	-10.7864
▁موقت	-10.7864
▁بفروش	-10.7864
▁گان	-10.7868
▁مسیری	-10.7875
▁زی	-10.7878
et	-10.7882
▁سینما	-10.7887
غیر	-10.7887
▁رساندن	-10.7888
▁کاوشگر	-10.7892
▁بزرگتری	-10.7893
▁منته	-10.7894
▁نداده	-10.7898
▁میرفت	-10.7902
▁نخورد	-10.7902
▁بحال	-10.7906
▁دختری	-10.7913
▁گذاران	-10.7915
▁آلت	-10.7916
▁مهربان	-10.7922
▁خروج	-10.7923
گير	-10.7924
▁مردمان	-10.7927
▁بلو	-10.7929
▁پرش	-10.7929
▁کمترین	-10.7932
▁فروشند	-10.7932
▁نهادهای	-10.7942
ژه	-10.7944
▁آک	-10.7948
▁کنگو	-10.7954
▁برداریم	-10.7954
▁عملاً	-10.7956
هامون	-10.7957
رق	-10.796
ائی	-10.7964
▁خشکی	-10.7965
▁نخاع	-10.7978
▁ارشد	-10.7978
▁شلوار	-10.7979
▁تماشاچی	-10.7979
▁متحرک	-10.7981
▁ماشين	-10.7981
▁عکسی	-10.7983
▁بیابیم	-10.7996
▁شم	-10.8003
▁خواندم	-10.8008
▁گذراند	-10.8027
▁زنید	-10.8034
▁دادید	-10.8036
اگ	-10.8043
▁s	-10.8045
▁زندگیشان	-10.8052
▁اکسی	-10.8054
▁معدن	-10.8056
▁غر	-10.8068
طور	-10.807
زنده	-10.8089
▁میکرو	-10.8089
▁پارا	-10.8092
▁تناقض	-10.8099
▁تحویل	-10.8099
▁استراحت	-10.8099
▁مقدم	-10.8099
▁میگیرد	-10.81
▁حفر	-10.81
▁میگیریم	-10.8101
بور	-10.8105
▁میفته	-10.8109
▁رسیدند	-10.8115
چون	-10.8116
▁گلف	-10.8118
▁خورند	-10.8126
▁مشتریان	-10.8135
▁مردن	-10.8135
سکی	-10.8138
ينه	-10.8138
▁کارمندان	-10.8139
▁کمال	-10.8149
▁اِی	-10.8154
فورد	-10.8157
▁کاربر	-10.8165
▁صحرا	-10.8169
st	-10.8172
▁ماری	-10.8184
▁انقلابی	-10.8197
▁درحالی	-10.8206
▁مشاور	-10.8207
یوم	-10.821
▁یکسر	-10.8218
▁ارکستر	-10.8221
▁مؤثر	-10.8221
▁مسلح	-10.8221
▁انباشت	-10.8221
▁اسرار	-10.8221
▁سبب	-10.8221
▁موز	-10.8221
▁شعب	-10.8221
▁العمل	-10.8222
▁بشین	-10.8222
▁میرسد	-10.8222
▁مناظر	-10.8222
▁مالکیت	-10.8222
▁خانگی	-10.8223
▁آرایش	-10.8223
▁فار	-10.8226
▁توسین	-10.8226
▁نيز	-10.8227
▁حقيقت	-10.8228
us	-10.8233
▁کلاسیک	-10.8236
▁سنجی	-10.824
▁یافتیم	-10.825
خص	-10.8256
▁جلوتر	-10.8258
▁دوام	-10.8265
▁دکترها	-10.8269
كنون	-10.8269
▁سرنگ	-10.827
▁عینک	-10.8274
▁جنسیتی	-10.8275
▁بگیری	-10.8276
▁دارین	-10.828
▁نهنگ	-10.8283
گردان	-10.8287
بون	-10.8287
▁برپا	-10.8289
▁بخوام	-10.829
وگرافی	-10.8292
▁زدیم	-10.8293
▁کامپیوترها	-10.8296
تار	-10.8314
حال	-10.8316
▁شورش	-10.832
▁ندارن	-10.8325
▁جیم	-10.8333
▁مذاکر	-10.8334
▁یونانی	-10.8336
▁مکانیک	-10.8341
▁فاضلاب	-10.8344
▁مباحث	-10.8344
▁متعجب	-10.8344
▁شیطان	-10.8344
▁رفاه	-10.8344
▁قاتل	-10.8344
▁استودیو	-10.8344
خود	-10.8344
▁پرسند	-10.8344
▁مبلغ	-10.8345
▁بکنه	-10.8345
▁تابلو	-10.8347
▁پارچه	-10.8349
▁پدیدار	-10.835
▁بیار	-10.835
▁حریم	-10.8353
▁متری	-10.8357
▁بکشیم	-10.8359
▁جاری	-10.8362
▁زنانی	-10.8362
▁توهم	-10.8364
▁کلیه	-10.8364
▁برقی	-10.8369
▁شخصا	-10.8371
▁قارچ	-10.8377
▁هماهنگی	-10.8379
▁نهفت	-10.8381
▁سالیانه	-10.8382
لف	-10.8387
le	-10.8389
▁جانبی	-10.8395
▁صحرای	-10.8398
▁خوای	-10.8398
▁مسیح	-10.8402
پوش	-10.8407
▁کاف	-10.8418
▁آقا	-10.842
▁بگذر	-10.8423
▁میتوانست	-10.8431
▁برگرداند	-10.8434
▁هردو	-10.8452
▁شهرت	-10.8456
▁دوستم	-10.8457
▁مرزهای	-10.8464
▁آفرین	-10.8466
▁پهن	-10.8469
▁آلزایمر	-10.8469
▁اتمسفر	-10.8469
▁حداکثر	-10.8469
▁فیلسوف	-10.8469
▁مدفوع	-10.8469
▁مطلع	-10.8469
▁مشوق	-10.8469
▁طعم	-10.8469
▁پمپ	-10.8469
▁بلكه	-10.8469
▁توجیه	-10.8469
▁بکشم	-10.8469
▁تلقی	-10.8469
▁حقوقی	-10.847
▁آيند	-10.847
▁خالص	-10.847
▁۱۹۷	-10.8471
▁اعما	-10.8473
▁بخرید	-10.8479
▁ماهیچه	-10.8482
▁برمیگرد	-10.8493
▁شناسید	-10.8493
▁۴۰۰	-10.8493
▁فعالان	-10.8496
▁اقدامات	-10.8503
▁ایکس	-10.8507
▁آشپزخ	-10.851
▁هلند	-10.8517
▁تصاویری	-10.8527
▁تنش	-10.8532
▁خال	-10.854
▁سنج	-10.8546
▁تقاضا	-10.8547
لک	-10.8548
يدن	-10.8572
▁ژنها	-10.8572
▁دانشگاهی	-10.8576
▁شدیدا	-10.8579
▁آورم	-10.8586
▁تخته	-10.8588
▁تبلیغ	-10.8588
▁فلو	-10.8588
▁وبا	-10.8591
اگر	-10.8595
▁اخراج	-10.8596
▁مشاغل	-10.8596
▁بیاورد	-10.8596
▁خنک	-10.8596
▁معتاد	-10.8596
▁پارکینگ	-10.8597
▁کوهستان	-10.8598
▁مجرم	-10.8598
▁باشيم	-10.8599
▁الکل	-10.8604
▁کلونی	-10.8605
▁بابل	-10.8606
▁افشا	-10.8606
▁متان	-10.8619
▁معین	-10.8627
▁کام	-10.8627
▁کوین	-10.863
▁نوک	-10.8631
▁تس	-10.8631
▁گذارم	-10.864
▁مفهومی	-10.8649
▁برداشتن	-10.8649
▁بگذارد	-10.8655
▁60	-10.8661
نشین	-10.8665
▁پدرش	-10.8685
▁پیت	-10.8687
▁بهشت	-10.8694
▁دونی	-10.8694
▁بارداری	-10.8694
▁ادار	-10.8701
▁مسافر	-10.8706
شود	-10.8706
راه	-10.8712
▁زير	-10.8714
▁کیت	-10.8719
▁تاثیرات	-10.8723
▁انقراض	-10.8724
▁تجسم	-10.8724
▁خیابون	-10.8724
▁مصالح	-10.8724
▁خاکستری	-10.8724
▁متغیر	-10.8725
▁عمودی	-10.8725
▁روحانی	-10.8728
▁آسون	-10.873
يكه	-10.8739
ing	-10.8746
▁آرمان	-10.8755
خون	-10.8763
▁پیامک	-10.8765
▁نزدیکی	-10.8769
▁متخصصان	-10.8769
▁ازاین	-10.8773
▁نورد	-10.878
▁آشنایی	-10.8781
▁ساختاری	-10.8782
▁عمد	-10.8786
▁حاکم	-10.8798
فتی	-10.8801
▁باردار	-10.8808
▁باستانی	-10.8812
▁آماری	-10.8834
▁کمان	-10.8836
▁خواننده	-10.8836
▁چارل	-10.885
▁الکتریسیت	-10.8854
▁تبادل	-10.8854
▁عواقب	-10.8854
▁هورمون	-10.8854
▁ابولا	-10.8854
▁ديگه	-10.8854
▁پنگوئن	-10.8854
▁کنسرت	-10.8854
▁تکمیل	-10.8854
▁بکشد	-10.8854
▁حظ	-10.8855
▁سرشار	-10.8859
▁نیافت	-10.886
▁شانسی	-10.886
▁عفونت	-10.8862
▁فایل	-10.8862
▁چمن	-10.8864
▁گال	-10.8874
▁نباشید	-10.8875
▁رگ	-10.8876
▁معنایی	-10.8877
▁گرمای	-10.8879
صورت	-10.8881
▁شبک	-10.8884
▁بوس	-10.8885
▁بیگان	-10.8896
▁تیک	-10.8898
▁پنجم	-10.8899
▁دلم	-10.89
▁همتا	-10.8902
▁جانب	-10.8909
▁میدید	-10.8914
رانه	-10.8917
▁۳۵	-10.8921
▁نمیدونم	-10.8924
▁فرست	-10.8935
▁جاها	-10.8935
▁خف	-10.894
سک	-10.8941
▁انگلیس	-10.8944
▁چي	-10.8946
▁بدونید	-10.8971
▁قهرمانان	-10.898
▁بیافت	-10.8982
▁محروم	-10.8983
▁ساندویچ	-10.8985
▁اشغال	-10.8985
▁تحمیل	-10.8985
▁تهاجم	-10.8985
▁اوباما	-10.8985
▁خلیج	-10.8985
▁تراشه	-10.8987
▁ناراحتی	-10.8987
▁جرج	-10.8988
▁پوشیدن	-10.8991
▁اتمی	-10.8993
▁وابستگی	-10.8996
▁میگیرند	-10.8996
▁كنار	-10.8998
▁مواز	-10.8999
▁آگاهانه	-10.9002
▁برتر	-10.9005
▁شنوید	-10.9007
▁متخصصین	-10.9008
▁بیابان	-10.9009
▁سد	-10.9011
وع	-10.9023
▁مخالفت	-10.9029
▁كا	-10.9033
▁نواختن	-10.9034
▁موقعی	-10.9036
وج	-10.9036
▁راههای	-10.9039
▁فراز	-10.9039
تکب	-10.9041
▁اشک	-10.9046
▁نکند	-10.9047
▁بزند	-10.9048
▁وحشتناکی	-10.9054
▁ملا	-10.9062
▁تح	-10.9063
▁مامور	-10.9069
el	-10.907
▁گریز	-10.9071
▁ناگهانی	-10.9071
▁گیاهی	-10.9076
▁ابزارها	-10.9076
▁زم	-10.908
▁خوردم	-10.9091
۲۰	-10.9098
▁پرتو	-10.9111
▁پیروز	-10.9113
▁جايي	-10.9114
th	-10.9118
▁بازنشستگی	-10.9119
▁غیرممکن	-10.9119
▁کثیف	-10.9119
▁کاندوم	-10.9119
▁دستشویی	-10.9119
▁سنسور	-10.9119
▁شنوایی	-10.9121
▁انگل	-10.9122
▁بنواز	-10.9122
▁كشور	-10.9123
▁زیبای	-10.9123
▁میافته	-10.9123
ُن	-10.9136
▁جمعیتی	-10.914
▁داشتنی	-10.9145
▁سازگاری	-10.9148
▁یخی	-10.9148
▁۱۹۴	-10.9157
باشد	-10.9163
▁همسرش	-10.9168
▁ساختمانها	-10.9172
▁قفسه	-10.9174
▁چاقو	-10.9177
▁دنیاست	-10.9177
▁گردیم	-10.9178
▁۴۵	-10.9182
اسیون	-10.9182
▁پیشرو	-10.9188
is	-10.9192
▁ژاپنی	-10.9194
پار	-10.9199
▁خانمها	-10.9201
▁چيزها	-10.921
▁گستر	-10.9212
▁گزار	-10.9213
نج	-10.9215
▁الکترو	-10.9228
▁سوت	-10.9232
▁ناتوانی	-10.9232
▁القا	-10.924
▁آمیزی	-10.925
▁تئاتر	-10.9254
▁دستورالعمل	-10.9254
▁عنكبوت	-10.9254
▁شعار	-10.9254
▁نروژ	-10.9254
▁بغل	-10.9254
▁بیاورم	-10.9254
▁۱۹۸	-10.9256
▁حاو	-10.9256
▁لیوان	-10.9257
▁بواسط	-10.9257
▁پارسال	-10.9258
▁شبيه	-10.9264
▁میزنه	-10.9264
▁اتفاقاتی	-10.9266
▁کلیسای	-10.927
▁اشتباهی	-10.9276
▁لکه	-10.9283
▁فقرا	-10.9285
▁نیازهای	-10.9292
▁فرستادن	-10.9305
بال	-10.9305
▁ديگري	-10.9308
▁ویران	-10.931
▁روانشناس	-10.9317
▁خوراکی	-10.9317
▁بابا	-10.9326
گویی	-10.9332
▁عروس	-10.9338
▁نقلی	-10.9347
▁دامنه	-10.9348
▁تاثیرگذار	-10.9348
شناسی	-10.9349
▁تخصص	-10.9353
▁مچ	-10.9367
ستون	-10.9384
▁گذران	-10.9385
▁بپیوند	-10.9391
▁عوارض	-10.9391
▁وقایع	-10.9391
▁شصت	-10.9391
▁وبلاگ	-10.9391
▁مبتن	-10.9391
▁بازتاب	-10.9391
▁منصف	-10.9391
▁۲۰۱۰	-10.9391
▁مایکرو	-10.9391
▁مسایل	-10.9392
▁ارث	-10.9394
▁فرمول	-10.9395
▁بوستون	-10.9397
▁شکستن	-10.9401
▁میزبان	-10.9401
▁بزرگسالان	-10.9401
ـ	-10.9405
▁طب	-10.9415
▁داريد	-10.942
▁انسانهای	-10.9443
▁گير	-10.9444
▁عکاس	-10.9453
▁شاعر	-10.9453
خونه	-10.9458
▁میلادی	-10.9464
▁بشک	-10.9486
نر	-10.9492
▁پلی	-10.9507
▁همجنسگرا	-10.9509
▁پرید	-10.951
▁ساق	-10.952
▁دوستانه	-10.9526
▁بشدت	-10.953
▁تصميم	-10.953
▁سيستم	-10.953
▁نشنید	-10.953
▁روغن	-10.953
▁بخوب	-10.9532
▁بانکی	-10.9532
▁مرض	-10.9534
▁آدام	-10.9534
▁ببخشید	-10.9536
▁شوک	-10.9536
▁اپل	-10.9536
▁کوش	-10.9536
▁بخواهند	-10.9537
▁بينيد	-10.9538
▁بپردازیم	-10.954
▁بزرگراه	-10.9542
▁سوریه	-10.9543
▁جلد	-10.9544
▁آلی	-10.9544
▁سریال	-10.9546
▁بزار	-10.955
▁روشنایی	-10.9551
▁الکترون	-10.9554
▁خل	-10.9558
▁برنج	-10.956
▁آسانی	-10.9561
▁بالاست	-10.9567
▁دوش	-10.9569
▁بپذیر	-10.957
▁متاسفم	-10.9571
▁حملات	-10.9578
▁بروی	-10.958
▁دولتها	-10.9582
▁حسگر	-10.9587
▁خوایم	-10.9591
بای	-10.9602
▁حقه	-10.9604
▁نابودی	-10.9605
▁کشاورز	-10.9618
▁مهندسین	-10.9619
▁۷۵	-10.9621
▁نوین	-10.9625
un	-10.9627
▁مز	-10.9641
▁آپ	-10.9645
▁پویا	-10.9647
ur	-10.9651
▁بوت	-10.9652
▁افسرد	-10.9653
▁حركت	-10.967
▁رکورد	-10.967
▁فرکانس	-10.967
▁مقادیر	-10.967
▁حبس	-10.967
▁دِرِ	-10.967
▁مکعب	-10.967
▁بخار	-10.967
▁استقلال	-10.967
▁بیفته	-10.9671
▁یکسانی	-10.9671
▁17	-10.9671
▁بشید	-10.9671
▁سندرم	-10.9671
▁توالی	-10.9673
▁آدمای	-10.9673
▁جوهر	-10.9674
▁دردسر	-10.9674
▁خمیر	-10.9675
▁هشتاد	-10.9677
نظر	-10.968
▁ارگان	-10.9681
▁یادداشت	-10.9682
▁پیامدهای	-10.9685
▁زو	-10.9686
▁کهنه	-10.9686
▁سایز	-10.9687
▁زدای	-10.9689
رك	-10.9691
ُل	-10.9695
عات	-10.9705
▁موافقت	-10.9707
▁گوي	-10.9711
▁تنگ	-10.9713
▁خردمند	-10.9714
N	-10.9715
▁برداشتم	-10.9726
▁لزوما	-10.973
▁آنطور	-10.9736
▁عاطفی	-10.9745
▁تویتر	-10.9749
▁تابش	-10.9753
▁سک	-10.9766
▁میشم	-10.9771
بعد	-10.9777
▁خاصیت	-10.9781
گرایی	-10.9783
زان	-10.98
▁سئوال	-10.9813
▁ضعف	-10.9813
▁مقررات	-10.9813
▁همیشگی	-10.9813
▁دفن	-10.9813
▁مقصد	-10.9814
▁سرکوب	-10.9818
▁اقلیم	-10.9822
▁خودخواه	-10.9825
▁هک	-10.984
ad	-10.985
▁متهم	-10.9852
▁مزایای	-10.9853
▁برونو	-10.9853
▁مری	-10.986
تاری	-10.9877
▁بدنش	-10.9877
▁فعالیتهای	-10.9878
▁آیین	-10.9884
▁بکنی	-10.9892
▁نوجوانی	-10.9892
▁داستانها	-10.9913
▁بور	-10.9916
▁ناتوان	-10.993
▁اعضا	-10.993
▁افسر	-10.9938
بانی	-10.994
▁میاره	-10.9948
▁مرزها	-10.9954
▁انیمیشن	-10.9958
▁متحول	-10.9958
▁متداول	-10.9958
▁اسناد	-10.9958
▁بفرد	-10.9958
▁ویتنام	-10.9958
▁لیزر	-10.9958
▁تربیت	-10.9958
▁محمد	-10.9959
▁تحرک	-10.9959
▁وسواس	-10.9959
▁مجوز	-10.9959
▁تردید	-10.9959
▁جابجایی	-10.9962
▁دوبرابر	-10.9964
▁شل	-10.9965
▁نشود	-10.9967
▁سهیم	-10.9967
▁نرسید	-10.9969
▁پسرها	-10.9973
▁هدر	-10.9976
▁کمدی	-10.9977
▁میفهم	-10.998
▁پرسیدن	-10.9983
چین	-10.9988
▁محافظ	-10.999
▁خروجی	-11.0026
ساخت	-11.0028
▁سوزان	-11.0028
▁ایفا	-11.0038
▁لاین	-11.0048
▁نگر	-11.0052
▁عکسهای	-11.0058
▁۲۳	-11.0061
▁اسلامی	-11.0063
یابیم	-11.0068
▁کین	-11.0071
▁عرب	-11.0078
▁نشت	-11.0079
▁خرده	-11.0084
▁سمی	-11.0089
▁آفريقا	-11.0105
▁ادغام	-11.0105
▁متناسب	-11.0105
▁هیدروژن	-11.0105
▁ابریشم	-11.0105
▁كودك	-11.0105
▁ذوب	-11.0105
▁تعلیم	-11.0105
▁دوقلو	-11.0105
▁استنفورد	-11.0105
▁مبهم	-11.0106
▁اسکاتلند	-11.0106
▁بذر	-11.0106
▁بیلیون	-11.0108
▁ترمیم	-11.0109
▁جزییات	-11.011
▁فولاد	-11.0111
▁جویی	-11.0112
▁آروم	-11.0114
▁بخشیدن	-11.0115
▁بخت	-11.0116
▁اينطور	-11.0116
▁خار	-11.0125
▁زنبورهای	-11.0126
▁نکردن	-11.0132
▁محتمل	-11.0134
▁11	-11.0136
گون	-11.0141
▁صدق	-11.0141
▁هز	-11.0144
▁آرا	-11.0147
▁کوچ	-11.0147
▁خیریه	-11.0154
▁حتم	-11.0155
▁تیز	-11.0177
▁تأم	-11.0182
▁ببینی	-11.0186
▁نشینی	-11.0202
▁احتمالی	-11.0208
▁وری	-11.0209
▁مناطقی	-11.0237
▁بخشهای	-11.0238
خواه	-11.0244
▁اعتیاد	-11.0254
▁تسلط	-11.0254
▁عنصر	-11.0254
▁متشكرم	-11.0254
▁ناخوشایند	-11.0254
com	-11.0254
▁تسلیم	-11.0255
▁قشنگ	-11.0255
▁ذکر	-11.0255
▁نازک	-11.0255
▁بازاریابی	-11.0255
▁گرافیک	-11.0256
▁بچسب	-11.0256
▁نمیکنه	-11.0257
▁پستانداران	-11.0261
▁آستان	-11.0262
▁لنز	-11.0262
▁مهاجران	-11.0268
▁جداگان	-11.0268
دانستند	-11.0268
▁عادلان	-11.0272
▁اسکات	-11.0272
▁بجا	-11.0278
▁میریم	-11.0278
▁افتند	-11.0282
▁نیستن	-11.0288
▁ناچیز	-11.0295
▁میخوایم	-11.0302
ed	-11.0314
هزار	-11.0329
▁یادتون	-11.0333
▁میمونه	-11.0341
▁یافتند	-11.0352
▁۰	-11.0352
▁نوشتار	-11.0361
▁نداری	-11.0361
▁آلمانی	-11.0367
▁عضوی	-11.037
▁مج	-11.0382
توس	-11.0389
▁نزدیکتر	-11.0397
▁گند	-11.0403
▁تگزاس	-11.0406
▁زیرزمین	-11.0406
▁شارژ	-11.0406
▁طناب	-11.0406
▁فقدان	-11.0406
▁ماجراجویی	-11.0406
▁ناخودآگاه	-11.0406
▁هیچکدام	-11.0406
▁بخشید	-11.0406
▁نیامد	-11.0406
▁ناظر	-11.0406
▁اپرا	-11.0406
▁۲۰۱۲	-11.0407
▁مفصل	-11.0408
یقه	-11.0409
▁رواندا	-11.0411
▁بازداشت	-11.0418
▁بیاریم	-11.0421
▁شنیدید	-11.0423
▁بشنوید	-11.0425
بول	-11.0428
▁دگرگونی	-11.0428
▁میماند	-11.0432
▁تیره	-11.0445
مرد	-11.0451
حالیکه	-11.0454
▁بهترين	-11.0466
▁کلان	-11.0473
▁نکردند	-11.0479
نور	-11.048
سیم	-11.0489
▁شمارش	-11.0494
▁کاربری	-11.05
▁شرکتها	-11.0502
▁بگرد	-11.0506
▁کتابها	-11.0511
▁ماهیگیری	-11.0514
▁چسبید	-11.0517
▁گرسن	-11.0519
▁بانو	-11.0525
▁خیابانی	-11.0527
▁فک	-11.0538
حا	-11.0544
▁صادر	-11.055
مندان	-11.0559
▁زغال	-11.056
▁فيزيك	-11.056
▁وبسایت	-11.056
▁چهارچوب	-11.056
▁۲۰۱۱	-11.056
▁ارمغ	-11.056
▁انگيز	-11.056
▁تاثير	-11.056
▁سناریو	-11.056
▁شركت	-11.056
▁حیاط	-11.056
▁سایبری	-11.056
▁خوشایند	-11.056
▁آدرس	-11.0561
▁مجزا	-11.0561
▁ببينيد	-11.0562
▁دشت	-11.0563
▁ژوئ	-11.0564
▁ربا	-11.0564
▁ميان	-11.0564
▁ژنی	-11.0565
▁مارس	-11.0566
▁دوردست	-11.0569
▁اکس	-11.0573
▁نگهبان	-11.0581
▁ماهر	-11.0583
▁خواستار	-11.0584
▁گرفتار	-11.0591
▁سور	-11.0595
▁ریش	-11.0595
▁مهمانی	-11.0596
▁انگشتان	-11.0599
آنها	-11.0599
بز	-11.0599
▁بندر	-11.0599
▁زندانیان	-11.0602
▁نگ	-11.0603
▁پردازند	-11.0605
▁بخوانم	-11.0613
پرداز	-11.0614
▁برادران	-11.0615
▁پروان	-11.0618
موقع	-11.0618
▁تقاضای	-11.0619
▁80	-11.062
▁بخوان	-11.0622
▁ذاتا	-11.0626
▁دشواری	-11.0632
▁تصویربردار	-11.0645
چیزی	-11.0647
▁پرداز	-11.065
▁شکنند	-11.0659
▁بخوای	-11.0673
▁بعض	-11.0683
▁هیپ	-11.0686
▁هول	-11.0695
▁90	-11.0697
▁بریز	-11.0698
▁متعدد	-11.0698
▁مشترکی	-11.07
سیل	-11.0704
▁چنين	-11.0712
▁آکادمی	-11.0716
▁فدرال	-11.0716
▁پانزده	-11.0716
▁بجز	-11.0716
▁همدردی	-11.0716
▁حمام	-11.0716
▁ادبیات	-11.0716
▁فاکتور	-11.0716
▁رکود	-11.0717
▁بنای	-11.0717
▁خلبان	-11.0718
▁جغرافیایی	-11.0718
جان	-11.0719
▁میزنم	-11.072
▁چارلز	-11.0721
▁پز	-11.0721
▁تفنگ	-11.0721
▁بیاندازیم	-11.0726
▁پرسم	-11.0727
▁چنگ	-11.0727
▁جد	-11.0728
▁دند	-11.0731
▁آتی	-11.0732
▁توییتر	-11.0735
▁رسان	-11.0747
▁بهبودی	-11.0761
خوش	-11.0762
▁خصوصیات	-11.0762
▁برون	-11.0769
▁جست	-11.0775
▁همکارم	-11.0777
درصد	-11.0781
▁مالک	-11.0788
▁سین	-11.0789
▁فورا	-11.0793
▁پیک	-11.0794
▁تصورات	-11.0796
▁گول	-11.0796
▁خطرات	-11.0826
▁بنظرم	-11.0827
▁شاخ	-11.0838
▁انداختم	-11.0843
لیط	-11.0849
فتد	-11.0849
▁تصوی	-11.0852
▁ویدیوی	-11.0863
▁دانشک	-11.0869
ri	-11.0871
▁محتوای	-11.0873
▁تکثیر	-11.0875
▁اوگاندا	-11.0875
▁حامی	-11.0875
▁مکانیزم	-11.0875
▁طالب	-11.0875
▁دلسوز	-11.0875
▁وزارت	-11.0877
▁توقع	-11.0877
▁مسکن	-11.0877
▁عاشقش	-11.0878
▁ضایعات	-11.0878
▁مسافت	-11.0879
▁نیروگاه	-11.0879
▁بيش	-11.0879
▁اقتصاددان	-11.0879
▁شنود	-11.0883
▁میپرس	-11.0886
▁جسمی	-11.0889
▁بمانند	-11.0891
▁دامن	-11.0891
▁شنیدیم	-11.0898
▁دستکاری	-11.0898
▁جدایی	-11.0906
▁آموختم	-11.0907
▁تخصصی	-11.0918
▁میشیم	-11.0924
▁گردید	-11.093
▁بنگر	-11.0931
▁خانواد	-11.0938
▁فوری	-11.0939
▁هراس	-11.0955
▁تعبیر	-11.0956
اینکه	-11.0967
▁شدیدی	-11.097
▁خوردند	-11.0975
▁بقای	-11.0979
▁بگیر	-11.0985
▁خودروهای	-11.0989
▁حر	-11.099
▁رمان	-11.0997
▁میله	-11.1001
آر	-11.1001
▁مخاطب	-11.1011
▁رابرت	-11.1014
▁بپر	-11.1017
▁حرفهای	-11.1032
▁ماشینهای	-11.1032
▁ممنوع	-11.1033
▁اپیدمی	-11.1036
▁مطلوب	-11.1036
▁پروفسور	-11.1036
▁یوتیوب	-11.1036
▁اجاره	-11.1036
▁دلفين	-11.1036
▁بنویسم	-11.1036
▁ویرایش	-11.1036
▁نمیاد	-11.1039
▁مزه	-11.1043
▁ميزان	-11.1043
▁برگردون	-11.1064
▁شجاعت	-11.107
▁برسم	-11.1077
▁خوابید	-11.1079
▁نود	-11.1085
▁مادی	-11.1089
▁دال	-11.1091
▁كي	-11.1103
▁عبارتی	-11.1105
▁براست	-11.1107
▁۳۲	-11.1111
▁خوراک	-11.1125
▁میزد	-11.1127
▁مشاهدات	-11.113
▁باخت	-11.1132
سیس	-11.1142
▁خوانند	-11.1143
ویج	-11.1156
ED	-11.1188
▁پیتر	-11.1188
گشت	-11.1198
▁میگرفت	-11.1198
خط	-11.12
▁اظهار	-11.12
▁ارسطو	-11.12
▁بعلاو	-11.12
▁شطرنج	-11.12
▁خنث	-11.12
▁فسفر	-11.12
▁ناقص	-11.12
▁هیئت	-11.12
▁خشکسالی	-11.12
▁دیابت	-11.12
▁فاسد	-11.12
▁پايين	-11.12
▁مجهز	-11.12
▁تسلا	-11.1202
جد	-11.1203
▁غریز	-11.1203
▁تظاهرات	-11.1203
▁ویژگیهای	-11.1204
▁جعل	-11.1204
▁دستیار	-11.1207
▁مطابقت	-11.1211
▁اِن	-11.1212
▁قدیم	-11.1214
▁مشاوره	-11.1219
▁میگیم	-11.1227
▁برساند	-11.1229
▁دریافتیم	-11.1232
▁شوکه	-11.1233
▁خوشبین	-11.1234
ro	-11.1247
▁ببینه	-11.1257
▁دي	-11.1264
ئون	-11.1265
▁خریدار	-11.1276
▁ترکیبات	-11.1277
مراه	-11.1283
▁عج	-11.1284
▁بپرداز	-11.1284
گرفته	-11.1289
▁مختصر	-11.129
▁اقیانوسها	-11.1295
▁خودروها	-11.1307
▁ویکی	-11.1316
كى	-11.1322
▁پوستر	-11.1329
▁ترين	-11.1343
▁دیک	-11.1343
▁برگشته	-11.1346
▁الف	-11.1352
▁اتحاد	-11.136
▁باریک	-11.1364
▁شفا	-11.1366
▁الگوها	-11.1367
▁آشغال	-11.1367
▁تبديل	-11.1367
▁ترغیب	-11.1367
▁معقول	-11.1367
▁خرگوش	-11.1367
▁شایسته	-11.1367
▁زایمان	-11.1367
▁بنیان	-11.1367
▁۱۹۹۰	-11.1368
▁اذیت	-11.1368
▁سرماي	-11.1369
▁بچگی	-11.1369
▁افزاری	-11.1373
▁میروند	-11.1375
▁کارشناسان	-11.138
▁محاسباتی	-11.1385
▁توهمات	-11.1385
ir	-11.1391
▁پرسیدند	-11.1396
کاگو	-11.1397
▁مهندسان	-11.1399
▁آمادگی	-11.1399
▁آو	-11.1415
ac	-11.1416
▁کنيم	-11.1416
▁بذارین	-11.142
▁خدایان	-11.1424
▁هواپیماها	-11.1427
▁برگه	-11.1431
خواند	-11.1433
▁مُ	-11.1463
▁کسل	-11.1466
▁جایگزینی	-11.1466
▁نوآور	-11.1469
قدر	-11.147
▁لاک	-11.1483
▁همگان	-11.1491
▁جانور	-11.1501
▁ماسک	-11.1501
▁جاش	-11.1504
▁رویاهای	-11.1514
ra	-11.1531
▁اومدن	-11.1534
انتفاع	-11.1536
▁اصرار	-11.1536
▁انتزاعی	-11.1536
▁اکتبر	-11.1536
▁خداحافظ	-11.1536
▁رآکتور	-11.1536
▁سپاس	-11.1536
▁معتبر	-11.1536
▁ویلیام	-11.1536
▁دعوا	-11.1536
▁نتونست	-11.1536
▁گاراژ	-11.1536
▁شنویم	-11.1536
▁سياه	-11.1537
▁استادیوم	-11.1537
▁بدلیل	-11.1538
▁اتو	-11.1539
▁میبینم	-11.154
▁سانح	-11.1541
▁ورزشکار	-11.1541
▁۲۷	-11.1541
▁استثنایی	-11.1542
▁پله	-11.1547
IT	-11.1547
▁مخاطبان	-11.1553
نفر	-11.1554
▁ماندگار	-11.1556
خیلی	-11.1563
٠٠٠	-11.1571
▁گا	-11.1581
ol	-11.1587
▁گار	-11.1605
الا	-11.1606
▁۶۵	-11.1608
▁چسباند	-11.1619
▁فرستند	-11.1623
▁گیم	-11.1626
▁نبودیم	-11.1635
▁مشخصا	-11.1646
▁70	-11.1646
بیر	-11.1653
▁ناب	-11.1653
▁میخوای	-11.1654
▁گيري	-11.1655
▁بازارهای	-11.1659
▁ببینین	-11.1672
▁مهاجر	-11.1678
▁اعتباری	-11.168
نوع	-11.1692
▁چیزای	-11.1696
جن	-11.17
▁سنگاپور	-11.1709
▁بدبخت	-11.1709
▁زيبا	-11.1709
▁هشیار	-11.1709
▁سحر	-11.1709
▁تهویه	-11.1709
▁پناهجویان	-11.1709
▁بکشند	-11.1709
▁منجمد	-11.1709
▁اسپرم	-11.171
▁چاه	-11.171
▁بفرست	-11.171
▁جولیا	-11.1711
▁انقدر	-11.1711
▁کبد	-11.1712
▁فرمانده	-11.1714
▁برسان	-11.1715
▁بخوانید	-11.1719
▁شناختم	-11.172
▁همگانی	-11.172
▁فقیرترین	-11.1721
▁متعددی	-11.1728
▁۲۵۰	-11.1729
▁نمیکنند	-11.173
برت	-11.173
▁خوریم	-11.1734
▁زلزل	-11.1741
ارک	-11.1744
▁ادعای	-11.1744
▁بما	-11.1749
▁فهمم	-11.1756
▁پستان	-11.1761
▁چاله	-11.1765
▁فهمیم	-11.177
▁فاش	-11.1772
▁بیارم	-11.1787
▁دونین	-11.1806
▁بداند	-11.1807
▁عاشقان	-11.1812
▁چای	-11.1821
اکا	-11.1828
▁سپاسگزار	-11.183
▁اَ	-11.1837
▁سکو	-11.1857
▁کشه	-11.186
▁کتان	-11.1861
▁فسیل	-11.1869
▁امپراتور	-11.1884
▁ضرورت	-11.1884
▁غواص	-11.1884
▁آگوست	-11.1884
▁فيلم	-11.1884
▁مساوی	-11.1884
▁ژرف	-11.1884
▁تقاطع	-11.1884
▁ناشنوا	-11.1884
▁مساحت	-11.1884
▁نیفتاد	-11.1884
▁16	-11.1885
▁پناهگاه	-11.1886
باغه	-11.1886
▁گردآور	-11.1886
▁محتوا	-11.1886
▁بگير	-11.1887
▁پنیر	-11.1888
▁21	-11.189
▁کشتار	-11.1896
گفت	-11.1896
▁خودشو	-11.1898
▁کرو	-11.1903
▁موهای	-11.1905
اهو	-11.1905
▁کیک	-11.1907
▁احتمالات	-11.1915
▁مسابقات	-11.1918
▁سرهم	-11.192
▁بشنوم	-11.192
▁كسان	-11.1923
مور	-11.1929
▁داوطلبان	-11.1933
رسون	-11.1934
▁اسکا	-11.1934
▁سارا	-11.1941
▁آنجایی	-11.1941
▁شك	-11.1946
▁مقالات	-11.1955
سانی	-11.1972
اندن	-11.1973
▁دزدید	-11.1979
اکس	-11.1992
lo	-11.2
▁نیش	-11.2008
▁بخواب	-11.2018
عابد	-11.2026
▁گلو	-11.203
▁افتادم	-11.2032
سيل	-11.204
ائل	-11.2041
▁خبرنگار	-11.2045
گاری	-11.2058
▁صمیمی	-11.2059
▁آزمايش	-11.2063
▁آنفولانزا	-11.2063
▁اطلس	-11.2063
▁دخالت	-11.2063
▁ذغال	-11.2063
▁مزخرف	-11.2063
▁گوسفند	-11.2063
▁متشکل	-11.2063
▁طنین	-11.2063
▁بنفش	-11.2063
▁جسد	-11.2063
▁جلسات	-11.2063
▁علف	-11.2064
▁وفادار	-11.2064
▁میگویم	-11.2064
▁پسرش	-11.2065
▁آسم	-11.2068
▁معلولیت	-11.2068
▁امریکایی	-11.2072
▁غرور	-11.2073
▁امراض	-11.2076
▁نواخت	-11.2077
▁تبار	-11.2078
▁منشا	-11.208
▁محققین	-11.2082
▁اغ	-11.2088
▁کشاند	-11.2091
▁آبجو	-11.2091
▁پذير	-11.2103
ِت	-11.2115
▁مسلم	-11.2116
▁تونل	-11.2119
▁آسا	-11.2129
as	-11.2132
▁بستن	-11.2142
▁بخشد	-11.2143
▁خطاب	-11.2147
▁مثلث	-11.2148
لوت	-11.2162
▁اجباری	-11.2164
▁بردارم	-11.2168
▁ماورا	-11.2172
واسط	-11.2178
▁یکسال	-11.2199
▁نشانگر	-11.22
▁دستاورد	-11.22
▁عاد	-11.2212
▁بزنه	-11.2215
▁اسپانیای	-11.2216
▁لینک	-11.2221
▁اقامت	-11.2244
▁برانگیخت	-11.2244
▁تعقیب	-11.2244
▁سیلیکون	-11.2244
▁صعود	-11.2244
▁مغذی	-11.2244
▁غمگین	-11.2244
▁حوصل	-11.2244
▁لوازم	-11.2245
▁تصفی	-11.2245
▁زحل	-11.2245
▁198	-11.2245
▁قمر	-11.2245
▁ایراد	-11.2246
▁مترجم	-11.2246
▁شنوندگان	-11.2247
▁قدردان	-11.2247
▁پايان	-11.2249
▁شکوه	-11.2249
برا	-11.225
▁نوسان	-11.2251
▁شنوم	-11.2253
▁قیاس	-11.2257
▁بشنوند	-11.2258
▁آدما	-11.227
▁مونده	-11.2273
ابد	-11.2282
▁گروههای	-11.2285
▁بازیابی	-11.2286
▁آد	-11.2292
▁قوت	-11.2293
▁روستای	-11.2293
كو	-11.2297
▁چرخید	-11.2297
▁راکت	-11.2297
▁تبلیغاتی	-11.23
▁مركز	-11.2306
▁سواد	-11.2309
▁فون	-11.2316
▁عروسک	-11.2316
▁معدنی	-11.2329
خواسته	-11.2331
▁خواستن	-11.2333
نمایی	-11.2339
▁میدهید	-11.2349
▁مردند	-11.2355
▁ذرت	-11.2358
▁جک	-11.2358
▁رویایی	-11.2362
▁ماشینها	-11.2368
▁یکباره	-11.2382
▁قند	-11.2387
▁نداشتن	-11.2403
▁ایرانی	-11.2404
لینگ	-11.2408
▁قضا	-11.2427
▁انعکاس	-11.243
▁دسامبر	-11.243
▁سبزیجات	-11.243
▁سواحل	-11.243
▁ناموفق	-11.243
▁هرکدام	-11.243
▁بسپار	-11.243
▁فیبر	-11.243
▁شکوفا	-11.2431
▁مرجع	-11.2432
▁میرسید	-11.2433
▁لیبی	-11.2439
▁یونان	-11.2443
▁نامزد	-11.2444
▁الکترونیک	-11.2446
▁بیایی	-11.2455
▁دکترا	-11.2458
▁سفت	-11.2459
اهه	-11.246
▁خریدم	-11.2462
▁تولیدات	-11.247
▁مادرها	-11.2472
▁پاد	-11.248
شونو	-11.2491
▁نیت	-11.2492
▁چتر	-11.2494
▁بازگو	-11.2499
ویل	-11.2499
ولوژی	-11.2503
▁میکروبی	-11.2506
▁پاسخگوی	-11.251
▁درنظر	-11.2511
▁جادوگر	-11.2512
▁قسمتهای	-11.2513
▁مختص	-11.2516
کنند	-11.2516
▁دغ	-11.2535
▁راهرو	-11.2555
▁m	-11.2561
▁اولا	-11.2588
▁داديم	-11.2597
ut	-11.2606
▁کمر	-11.2606
وئل	-11.2612
▁آشفت	-11.2615
▁چیزا	-11.2615
▁جنایت	-11.2616
▁كتاب	-11.2618
▁معاصر	-11.2618
▁ميليارد	-11.2618
▁نارنجی	-11.2618
▁وظایف	-11.2618
▁مخترع	-11.2618
▁ناتالی	-11.2618
▁رفع	-11.2618
▁پالس	-11.2618
▁همسایگ	-11.2619
▁لرزش	-11.2619
▁نکات	-11.2619
▁نمايش	-11.2619
▁۱۹۸۰	-11.2619
▁متفکر	-11.2619
▁شکنج	-11.262
▁عكس	-11.262
▁کانکت	-11.2621
▁ایتالیایی	-11.2621
▁خندیدن	-11.2622
▁فیلیپ	-11.2626
▁بنداز	-11.2627
▁سیاستهای	-11.2628
▁هرج	-11.2634
▁افراط	-11.2635
▁خندید	-11.2637
▁درمیان	-11.2638
▁بیس	-11.2642
▁خلال	-11.2654
▁همینجا	-11.2655
▁بیاره	-11.2659
لسون	-11.2663
▁کاست	-11.2665
▁خز	-11.2668
▁پناهند	-11.2674
▁اندک	-11.2685
▁خان	-11.2691
▁بیلی	-11.2703
▁قاعده	-11.2705
مدت	-11.2706
استفاده	-11.2713
▁تلف	-11.2715
▁انتظارات	-11.272
صفر	-11.2721
▁ضربان	-11.2729
▁گویا	-11.2732
ul	-11.2734
▁سنین	-11.2738
▁كاري	-11.2738
ادو	-11.274
▁لوس	-11.2741
يج	-11.2742
▁پیدایش	-11.2745
▁2000	-11.276
▁الزام	-11.2764
▁شناسند	-11.2767
▁تایی	-11.279
امو	-11.2798
▁تماشاگر	-11.2808
▁دخترش	-11.2809
▁آکسفورد	-11.2811
▁افتتاح	-11.2811
▁انبساط	-11.2811
▁تناسلی	-11.2811
▁غیرقانونی	-11.2811
▁خواص	-11.2811
▁مستلزم	-11.2811
▁محيط	-11.2811
▁فامیل	-11.2811
▁محترم	-11.2811
▁کشمکش	-11.2811
▁همينطور	-11.2811
▁دستمزد	-11.2812
▁یقین	-11.2812
▁اتخا	-11.2812
▁مجری	-11.2813
▁بکارگیری	-11.2814
سلسله	-11.2815
▁فروتن	-11.2816
دغ	-11.2817
▁تلخ	-11.2817
▁قر	-11.282
▁جرق	-11.2821
▁بیو	-11.2821
▁خیز	-11.2821
▁نمایندگان	-11.2822
▁برگردید	-11.2826
▁نمیکنیم	-11.2829
▁کتک	-11.283
▁الکس	-11.2831
سیون	-11.2833
▁مکالمات	-11.2834
بسط	-11.2837
▁جری	-11.2837
▁سفرهای	-11.2841
▁توس	-11.2844
صدا	-11.2846
▁نگیر	-11.285
▁نرون	-11.2851
▁بیایم	-11.2855
▁گرمایش	-11.286
▁ديدن	-11.2864
▁میتونند	-11.2866
and	-11.2867
▁پیوستن	-11.2873
▁دهيد	-11.2875
ویژه	-11.2887
۶۰	-11.2894
ژن	-11.2896
قیق	-11.2896
▁تقريبا	-11.2906
▁بشکن	-11.291
▁خواهرم	-11.2919
▁رساناها	-11.2921
▁اسید	-11.2922
زش	-11.2924
▁کران	-11.2926
▁گذارید	-11.294
▁ساختمانهای	-11.2945
نما	-11.2949
شابه	-11.2951
سخ	-11.2955
▁اختصاصی	-11.296
▁دوستانش	-11.2962
داریم	-11.2962
▁نمیکرد	-11.2979
▁تقریب	-11.2981
▁بیانداز	-11.2985
▁مجاز	-11.299
▁عط	-11.2993
▁خانمان	-11.2996
▁مدلهای	-11.2998
▁ایتالیا	-11.3004
▁اورژانس	-11.3007
▁بازرگانی	-11.3007
▁سرچشم	-11.3007
▁متمایز	-11.3007
▁سرازیر	-11.3007
▁همبستگ	-11.3007
▁امتداد	-11.3007
▁معالج	-11.3007
▁رأی	-11.3007
▁آرتور	-11.3007
▁بهرحال	-11.3007
▁سرقت	-11.3007
▁واکسین	-11.3008
▁14	-11.3008
▁24	-11.3008
▁نابغ	-11.3008
▁تقلا	-11.301
بندی	-11.3013
▁استخر	-11.3014
▁صوت	-11.3014
▁صحت	-11.3015
▁بازیکن	-11.3016
▁اتمام	-11.3016
اطع	-11.3018
سازیم	-11.3018
▁چاپگر	-11.3022
▁مبل	-11.3023
▁بنویسید	-11.3023
▁آنجاست	-11.3028
▁تیتان	-11.3032
▁نیروها	-11.3035
▁۶۰۰	-11.3041
op	-11.3042
▁میبره	-11.3047
▁اسام	-11.3054
▁عمرش	-11.3054
▁چهارده	-11.3054
▁دویدن	-11.3057
▁ریختن	-11.3068
▁خوره	-11.3071
▁طبقات	-11.3073
▁کلیش	-11.3081
▁چربی	-11.3083
ویو	-11.3089
▁فهميد	-11.3105
▁دوسال	-11.3108
▁كمتر	-11.3108
قرض	-11.311
▁هستيد	-11.3118
▁سرپرستی	-11.3119
▁انجا	-11.3122
تلاف	-11.3127
▁تپ	-11.3129
ستیک	-11.3138
▁جف	-11.3138
▁نوشیدنی	-11.3156
il	-11.317
سافت	-11.3174
▁بشما	-11.3175
▁نسبی	-11.3185
▁ببين	-11.3201
▁کاندیدا	-11.3202
▁اتیوپی	-11.3207
▁بطرز	-11.3207
▁حاظر	-11.3207
▁ابتلا	-11.3207
▁بجنگ	-11.3207
▁ناچار	-11.3207
▁سطل	-11.3207
▁شگرف	-11.3207
▁متراکم	-11.3207
▁تراکم	-11.3207
▁محبت	-11.3208
▁برسید	-11.3208
▁نفهمید	-11.3208
▁غبار	-11.3209
▁میشویم	-11.3209
▁مطبوعات	-11.3211
▁حلزون	-11.3211
▁پاشید	-11.3211
▁وسوس	-11.3214
▁یادآور	-11.3214
▁نوبل	-11.3216
▁بیاندازید	-11.3216
▁میایند	-11.322
▁محمو	-11.3221
▁سامانه	-11.3221
▁دونن	-11.3222
▁کاخ	-11.3223
▁ملایم	-11.3225
▁گرداند	-11.3233
▁چیکار	-11.3235
▁فناور	-11.3238
▁بازگرداند	-11.3242
▁جراحان	-11.3242
▁مضر	-11.3243
▁بخرند	-11.3245
▁اکو	-11.3265
▁اندوه	-11.3273
زون	-11.3288
▁مهره	-11.3302
▁حی	-11.3331
ter	-11.3355
▁گردم	-11.3363
آب	-11.3374
▁ادب	-11.3378
▁کارشناس	-11.338
▁رسانا	-11.3384
ایان	-11.3385
▁شوي	-11.3386
▁بیاموز	-11.3399
▁سازید	-11.3401
▁برتری	-11.3405
ولوژي	-11.3411
▁برآمد	-11.3411
▁تحقیر	-11.3411
▁تصحیح	-11.3411
▁سانفرانسیسکو	-11.3411
▁شرايط	-11.3411
▁مسأل	-11.3411
▁آتشفشان	-11.3411
▁اينترنت	-11.3411
▁گواهی	-11.3411
▁ریسمان	-11.3411
▁منتقد	-11.3411
▁ادرار	-11.3411
▁منفعت	-11.3411
▁ایرلند	-11.3411
▁كيهان	-11.3411
,000	-11.3412
▁معدود	-11.3412
▁مُرد	-11.3412
▁نزديك	-11.3412
▁باقیماند	-11.3412
▁بامبو	-11.3413
▁تجمع	-11.3413
▁ریتم	-11.3413
▁خاك	-11.3414
▁اقلیت	-11.3414
ومتر	-11.3414
▁حفا	-11.3418
▁بكن	-11.342
▁تلفات	-11.342
▁قومی	-11.3422
▁بیندازیم	-11.3424
▁بیارید	-11.3426
▁مذاکرات	-11.3428
▁سوزی	-11.3434
▁بپردازند	-11.3437
▁سیتی	-11.3437
▁شمرد	-11.3441
▁اسپانیا	-11.3443
▁مبنا	-11.3444
▁آز	-11.3444
ثر	-11.3445
▁اسمیت	-11.3448
▁شیب	-11.3448
گاندی	-11.345
▁زایی	-11.3458
▁نیازمندیم	-11.346
▁بیوتیک	-11.3465
▁اسپری	-11.3468
▁هد	-11.3472
▁راستای	-11.3473
▁آوا	-11.3481
▁ژنهای	-11.3482
▁دلخواه	-11.3482
▁جزو	-11.3487
کوب	-11.3494
▁رسوم	-11.35
▁گذراندم	-11.3507
▁مهربانی	-11.3508
▁بتن	-11.3531
فکر	-11.3548
▁معماران	-11.3549
▁هرجای	-11.355
حص	-11.3551
▁فرستادند	-11.3552
▁فلسطینی	-11.3557
جمع	-11.356
ــ	-11.3571
▁آها	-11.3571
▁بدبین	-11.3573
دانیم	-11.3584
▁بگی	-11.3598
اژ	-11.3609
▁ببخش	-11.3611
▁آمريكا	-11.3619
▁اطاق	-11.3619
▁تجویز	-11.3619
▁فضاپیما	-11.3619
▁هالیوود	-11.3619
▁کمبریج	-11.3619
▁مقياس	-11.3619
▁آلبوم	-11.3619
▁خوشمزه	-11.3619
▁سفین	-11.3619
▁تعمیم	-11.3619
▁سودمند	-11.362
▁غافلگیر	-11.3621
▁نيرو	-11.3621
▁بلوغ	-11.3621
▁ايران	-11.3623
▁ممنوعیت	-11.3623
▁شوروی	-11.3626
▁سمع	-11.3626
▁تاکسی	-11.3627
▁اقل	-11.3627
خراش	-11.3627
▁عاری	-11.3628
▁بازگرد	-11.3631
▁هفتاد	-11.3632
▁فرصتهای	-11.3638
▁خبرنگاران	-11.3639
▁بیابید	-11.364
▁جانوران	-11.3645
▁اونوقت	-11.3654
▁اندرو	-11.3654
پول	-11.3659
▁طرفداران	-11.366
▁بچ	-11.366
▁بخوریم	-11.3666
لیندا	-11.3669
▁آفرینش	-11.3669
▁000	-11.3687
۱۳	-11.3697
▁لگو	-11.3702
▁پیج	-11.3714
رویم	-11.3718
▁فیت	-11.372
▁نهایتاً	-11.3725
▁تنفر	-11.3727
▁گزارشگر	-11.3729
▁بترس	-11.3732
يح	-11.3743
▁قفس	-11.3743
▁نشدم	-11.375
▁سکت	-11.3753
عمل	-11.376
▁بمن	-11.3764
▁اصولا	-11.3777
▁دوبار	-11.3785
▁پدران	-11.3806
گرفتن	-11.3813
▁آویزان	-11.3832
▁فروپاشی	-11.3832
▁قحط	-11.3832
▁مصمم	-11.3832
▁مصیبت	-11.3832
▁منحرف	-11.3832
▁۲۰۱۵	-11.3832
▁تخلی	-11.3832
▁سیناپس	-11.3832
▁عرص	-11.3832
▁متأسف	-11.3832
▁تشبیه	-11.3832
▁تکلیف	-11.3832
▁آنالیز	-11.3832
▁تبر	-11.3832
▁مجاور	-11.3833
▁فیلمبرداری	-11.3834
▁ریاضیدان	-11.3834
▁کابین	-11.3835
▁۹۹	-11.3835
▁مقول	-11.3837
▁مکانیسم	-11.3837
▁نشدنی	-11.3841
▁حساسیت	-11.3842
▁بالون	-11.3863
▁زیستگاه	-11.3867
▁طبيعت	-11.3868
▁یهودیان	-11.3868
▁عصبانیت	-11.3873
▁بشنوی	-11.3875
گشا	-11.3879
▁حک	-11.3884
▁ميخوا	-11.3885
▁پویای	-11.3888
▁۳۶	-11.3889
لیس	-11.3898
آل	-11.3901
▁دانان	-11.3917
▁چرخد	-11.392
▁۳۳	-11.3924
▁پاس	-11.3928
▁معیارهای	-11.3929
ساع	-11.3947
نواخت	-11.3952
▁کمیاب	-11.3952
▁مهر	-11.3954
شدن	-11.3955
▁خبرهای	-11.3957
▁خواهران	-11.3958
قاعده	-11.3977
ظره	-11.3979
▁سپرد	-11.4004
▁پاکساز	-11.4009
▁پرسی	-11.4012
▁میبایست	-11.4029
▁آمدید	-11.4031
▁مطابق	-11.4035
یابی	-11.4036
▁دزدی	-11.4038
▁پذیرد	-11.4038
▁سازمانهای	-11.4041
▁فیزیولوژی	-11.4049
▁آنتروپی	-11.4049
▁جملات	-11.4049
▁خسارت	-11.4049
▁سپاسگذارم	-11.4049
▁شعاع	-11.4049
▁عضلات	-11.4049
▁يكديگر	-11.4049
▁تانزانیا	-11.4049
▁مزارع	-11.4049
▁جهنم	-11.4049
▁مجلات	-11.4049
▁گودال	-11.4049
▁بسادگ	-11.4049
▁سرنخ	-11.4049
▁مستقر	-11.405
▁نمیدانم	-11.405
▁پیکسل	-11.405
▁اجزاء	-11.405
▁۱۹۷۰	-11.405
▁مجرد	-11.405
▁سکونت	-11.4051
▁بکشه	-11.4051
▁رعای	-11.4051
▁قاطع	-11.4053
▁شانزده	-11.4056
▁دستمال	-11.4058
▁توهین	-11.4058
▁گیتار	-11.4061
▁سرمای	-11.4063
▁زهر	-11.4063
▁لستر	-11.4065
▁تابع	-11.4065
▁دیوانگی	-11.4067
▁امداد	-11.4075
▁دیسک	-11.4075
▁اورست	-11.4077
جهان	-11.4084
▁معادلات	-11.4084
▁توییت	-11.4084
▁گشتم	-11.4085
▁بمان	-11.41
▁کنيد	-11.4108
توم	-11.4109
▁نگهدار	-11.4109
▁تمایلات	-11.4114
▁بزرگسال	-11.4138
ئي	-11.4156
▁نيم	-11.4163
▁آنوقت	-11.4171
▁تکون	-11.4171
▁بارون	-11.4181
▁فهمند	-11.4183
▁ارزانتر	-11.4185
▁تجربی	-11.4197
▁پناه	-11.4202
em	-11.4202
▁گرین	-11.4211
CM	-11.4223
▁بزرگسالی	-11.4226
▁مسیرهای	-11.4227
▁مرخصی	-11.4231
▁شنيد	-11.4258
▁آلن	-11.4263
▁فلوریدا	-11.4271
▁لعنتی	-11.4271
▁محاصر	-11.4271
▁مقصود	-11.4271
▁ادوارد	-11.4271
▁سانسور	-11.4271
▁مفرط	-11.4271
▁کلمبیا	-11.4271
▁معلق	-11.4272
▁نوزدهم	-11.4272
▁پازل	-11.4272
▁تلفیق	-11.4272
▁مكان	-11.4272
▁همبرگر	-11.4272
▁شاهزاد	-11.4272
▁انچ	-11.4273
▁سمبل	-11.4273
▁نویسندگان	-11.4273
▁۱۹۵۰	-11.4274
▁عرق	-11.4274
▁بخونی	-11.4274
▁چاره	-11.4276
▁قرون	-11.4277
▁نقر	-11.4277
▁پلنگ	-11.4282
▁جبران	-11.4284
▁فدا	-11.4285
عان	-11.429
ia	-11.4297
MS	-11.4301
▁جورج	-11.4305
▁ميتوني	-11.4305
▁طي	-11.4307
▁مارت	-11.4308
▁نزن	-11.4308
▁اسکنر	-11.431
بورگ	-11.431
▁انتظارش	-11.4312
دور	-11.433
▁خصوصا	-11.4333
▁بلندتر	-11.4334
▁بپردازم	-11.4346
la	-11.4346
▁بگذران	-11.435
▁فرشت	-11.4355
▁موشها	-11.4363
▁کج	-11.4368
▁پذیرفتن	-11.4372
▁گلها	-11.4375
▁شیلی	-11.4381
▁شاعران	-11.4395
آمیز	-11.4401
خورشید	-11.4401
▁لزوم	-11.4402
▁جنگلهای	-11.4404
ولیت	-11.4412
▁بیام	-11.4423
ريف	-11.4423
▁دربارش	-11.4426
نیست	-11.4431
دهنده	-11.4439
▁بپذیری	-11.4449
▁سوپ	-11.4467
▁فوریه	-11.4473
▁استیون	-11.4476
▁سریعا	-11.4476
▁بنویسی	-11.4482
کنیم	-11.4483
id	-11.4496
▁افغان	-11.4498
طاعت	-11.4499
▁بنگلادش	-11.4499
▁غیرعادی	-11.4499
▁مجذوب	-11.4499
▁مقطع	-11.4499
▁کروموزوم	-11.4499
▁مصون	-11.4499
▁جزایر	-11.4499
▁تنبیه	-11.4499
▁نكرد	-11.4499
▁اعطا	-11.4499
▁نُه	-11.4499
▁ارگانیسم	-11.4499
▁تعالی	-11.45
▁غروب	-11.45
▁فنجان	-11.45
▁کالری	-11.4501
▁عم	-11.4503
▁آجر	-11.4504
▁شاهکار	-11.4505
▁اسکناس	-11.4506
▁چرم	-11.4507
▁عادات	-11.4508
▁غارها	-11.4508
▁بگیرن	-11.4511
▁مرگبار	-11.4514
حل	-11.4517
▁بگردیم	-11.4517
▁پنل	-11.4517
▁نویز	-11.4519
▁نسبیت	-11.4523
خورید	-11.4523
▁جل	-11.4529
▁فول	-11.453
▁اینجور	-11.4532
▁صید	-11.4534
▁انرژ	-11.4537
▁انداختیم	-11.454
▁پولدار	-11.4553
▁صاحبان	-11.4559
نزل	-11.4581
▁فان	-11.4598
▁دِ	-11.46
▁تاریخچ	-11.4604
nt	-11.4614
▁کشش	-11.462
▁معرف	-11.4622
▁۱۲۰	-11.4629
▁اورد	-11.4636
▁منظر	-11.467
▁قدمت	-11.4674
ریج	-11.4674
ou	-11.4678
بط	-11.4679
▁فیلمهای	-11.468
▁تورم	-11.4681
▁خلا	-11.4686
رسوم	-11.4689
▁مهارتهای	-11.4692
▁کالی	-11.4703
افتد	-11.4717
▁رقصند	-11.4719
▁شاگرد	-11.472
▁سوز	-11.4721
▁مرج	-11.4722
▁کشم	-11.4723
▁مؤسس	-11.4724
▁بارور	-11.4726
▁آشامیدنی	-11.4731
▁ایدئولوژی	-11.4731
▁بسکتبال	-11.4731
▁تطابق	-11.4731
▁دیکتاتور	-11.4731
▁طلوع	-11.4731
▁عاقبت	-11.4731
▁مالاريا	-11.4731
▁متضاد	-11.4731
▁مشروب	-11.4731
▁معشوق	-11.4731
▁واشینگت	-11.4731
▁پيچيد	-11.4731
▁کوکاکولا	-11.4731
▁مبدل	-11.4731
▁موضع	-11.4731
▁نُت	-11.4731
▁معضل	-11.4731
▁بازنگری	-11.4731
▁جواهر	-11.4731
▁استعفا	-11.4731
▁نجوم	-11.4731
▁اردک	-11.4732
▁نهايت	-11.4733
▁سومالی	-11.4733
▁نیومد	-11.4733
▁پناهندگان	-11.4733
▁سروکار	-11.4734
▁نمو	-11.4736
▁کیفری	-11.4736
▁۲۰۰۴	-11.4738
▁قوط	-11.4738
▁شیء	-11.4739
▁منهتن	-11.474
▁بازماند	-11.4744
▁میزنند	-11.4746
▁شاگردان	-11.4746
▁برسانیم	-11.4748
▁آخ	-11.4751
▁نوشیدن	-11.4752
▁قطعیت	-11.4764
خواب	-11.4768
▁علا	-11.4768
▁گنج	-11.4771
▁زاده	-11.4774
▁آمدیم	-11.478
▁افریقا	-11.4782
▁کلاسهای	-11.479
▁بوش	-11.4791
واقع	-11.4792
▁بورس	-11.4794
▁مناقشه	-11.4796
▁تعاملات	-11.48
▁کلبه	-11.4806
▁بخورد	-11.4808
▁جغرافیا	-11.482
قر	-11.484
گار	-11.4865
حقیقت	-11.4872
▁کلین	-11.4873
نجا	-11.4876
▁نيستند	-11.4892
فتاد	-11.4905
▁موثرتر	-11.4914
▁500	-11.4931
▁عموما	-11.4938
▁سیاستمدار	-11.4945
وکا	-11.4947
▁بکنن	-11.4951
▁روزگار	-11.4959
▁پیامد	-11.4963
▁انیشتی	-11.4969
▁اهميت	-11.4969
▁ترتيب	-11.4969
▁تشخيص	-11.4969
▁تلوزیون	-11.4969
▁ضخامت	-11.4969
▁قواعد	-11.4969
▁مفتخر	-11.4969
▁ميبينيد	-11.4969
▁هنجار	-11.4969
▁رفیق	-11.4969
▁نوامبر	-11.4969
▁باشکوه	-11.4969
▁تسکین	-11.4969
▁دلفین	-11.4969
▁هضم	-11.497
▁غیرمنت	-11.497
▁199	-11.497
▁پرسيد	-11.497
▁وسعت	-11.497
▁کابوس	-11.497
▁جولای	-11.497
▁کمربند	-11.497
▁the	-11.4971
▁هیولا	-11.4972
▁مدير	-11.4975
▁بیندازید	-11.4978
▁مخابرات	-11.4979
▁مخف	-11.4981
▁یادبود	-11.4984
▁فعاليت	-11.4985
▁شوق	-11.4986
▁تونس	-11.4987
▁رباتیک	-11.4987
▁بندازیم	-11.4987
▁ترور	-11.4989
▁لن	-11.499
▁تقارن	-11.4992
▁اکتشافات	-11.4994
اما	-11.4996
▁همسان	-11.4998
▁معد	-11.5008
▁رک	-11.5016
▁اختر	-11.5018
▁جائی	-11.5018
▁آلات	-11.5021
رسي	-11.5022
▁اجتماعات	-11.5027
▁الزاما	-11.5028
▁دهلی	-11.5028
مفونی	-11.5029
▁هنگ	-11.5029
▁بیاین	-11.5036
مردم	-11.5037
▁بیشماری	-11.5045
قبل	-11.505
▁ارزشهای	-11.5055
▁غز	-11.5062
▁خواهش	-11.5065
▁پذیرند	-11.5071
▁ترق	-11.5106
▁چرخاند	-11.5116
▁برگردان	-11.5131
آنچه	-11.5131
▁تجرب	-11.5147
oo	-11.5156
▁حج	-11.5156
▁ميدان	-11.5171
▁مشخصات	-11.5174
▁جت	-11.5175
وازه	-11.5181
▁وفق	-11.5183
▁مطلقا	-11.5187
▁آلاینده	-11.5213
▁اجسام	-11.5213
▁ارتعاش	-11.5213
▁بنجامین	-11.5213
▁تحقق	-11.5213
▁توضيح	-11.5213
▁رقیب	-11.5213
▁طاقت	-11.5213
▁مسدود	-11.5213
▁نقض	-11.5213
▁کاپیتان	-11.5213
▁بسمت	-11.5214
▁ایسلند	-11.5214
▁ابهام	-11.5214
بدرستی	-11.5214
▁مارپیچ	-11.5214
▁دانمارک	-11.5215
▁مخزن	-11.5215
▁آیفون	-11.5216
▁لنگ	-11.5217
▁تغیر	-11.5218
▁مداوا	-11.5218
▁نیکول	-11.5218
▁غشا	-11.5218
▁آنزیم	-11.5219
▁تاريك	-11.5221
▁پیگیری	-11.5222
▁تقدی	-11.5222
▁تص	-11.5224
▁برگشتن	-11.5226
▁میامد	-11.5229
▁چيست	-11.5229
▁بمبار	-11.5234
▁Re	-11.5237
▁افسران	-11.5239
▁واگذار	-11.5239
▁فلزات	-11.5241
▁نارس	-11.5243
▁عفون	-11.5244
▁بخوانند	-11.5246
▁دادستان	-11.5246
▁برگردد	-11.5253
▁قیا	-11.5253
▁عجب	-11.5253
▁عزیزان	-11.5256
▁كسي	-11.5261
▁دشمنان	-11.5269
▁201	-11.5273
دفع	-11.5274
od	-11.5276
ig	-11.5279
▁خوندن	-11.5283
گرنه	-11.5285
▁پچ	-11.5286
▁الملل	-11.5297
▁هومو	-11.5312
▁پارس	-11.5318
▁سياس	-11.5337
باش	-11.534
▁تأ	-11.5341
دِن	-11.535
▁نظ	-11.5359
▁خیس	-11.536
▁جالبتر	-11.5367
سرعت	-11.5369
▁کاربردهای	-11.5372
▁آسانتر	-11.5376
نگو	-11.5378
دیگر	-11.5383
▁کوس	-11.5392
حالا	-11.5396
پز	-11.5397
▁آباد	-11.5397
▁لوک	-11.5399
▁متون	-11.5401
im	-11.5421
ودن	-11.5424
▁سس	-11.5426
▁تحری	-11.5439
▁میگیرن	-11.5447
▁بینداز	-11.5447
ویس	-11.5448
▁گياه	-11.5449
▁نمایندگ	-11.545
▁پرینت	-11.5451
▁تعطیل	-11.5454
20	-11.5457
▁سول	-11.5458
▁آرژانتین	-11.5463
▁بازنشسته	-11.5463
▁بُعد	-11.5463
▁درگذشت	-11.5463
▁صریح	-11.5463
▁مبحث	-11.5463
▁موعظ	-11.5463
▁ناکارآمد	-11.5463
▁پارکینسون	-11.5463
▁پهپاد	-11.5463
▁هولناک	-11.5463
▁خورشيد	-11.5463
▁سانتیمتر	-11.5463
▁محاکم	-11.5463
▁آرشیو	-11.5463
▁نیاورد	-11.5463
▁بشردوستان	-11.5463
▁منتخب	-11.5463
▁تاخیر	-11.5463
▁تداوی	-11.5463
▁نظرسنج	-11.5463
▁تأیید	-11.5463
▁صداقت	-11.5463
▁نشیمن	-11.5464
▁مشکوک	-11.5464
▁ديگردوست	-11.5464
▁عصا	-11.5465
org	-11.5466
▁گمراه	-11.5466
▁شمع	-11.547
▁نظار	-11.5471
▁داوو	-11.5472
▁ذهنیت	-11.5472
▁جزیی	-11.5479
▁نامگذاری	-11.5483
لوس	-11.5484
جایی	-11.5486
▁جرات	-11.5486
▁معاملات	-11.5488
▁روانشناسان	-11.5508
▁بخورید	-11.551
▁دماغ	-11.5513
▁فرستادیم	-11.5541
▁اجزا	-11.5543
▁ماهیگیر	-11.5549
صرف	-11.5567
▁بیکار	-11.5597
▁مداد	-11.5605
▁دونستن	-11.5616
▁تابو	-11.5626
▁بذارم	-11.563
▁بشمار	-11.5645
▁گرو	-11.565
▁الت	-11.565
▁چالشهای	-11.5653
▁حرا	-11.5668
▁ژو	-11.5688
▁فضانورد	-11.57
▁افتضاح	-11.572
▁انحراف	-11.572
▁دورافتاده	-11.572
▁سردرگم	-11.572
▁عظيم	-11.572
▁مبادل	-11.572
▁ملودی	-11.572
▁نامناسب	-11.572
▁ناهنجار	-11.572
▁آگهی	-11.572
▁آسانسور	-11.572
▁لغو	-11.572
▁کمونیست	-11.572
▁اینشتین	-11.572
▁چادر	-11.572
▁اهالی	-11.572
▁پزشك	-11.572
▁كجا	-11.572
▁سبیل	-11.572
▁بخند	-11.572
▁مغر	-11.572
▁عموزاد	-11.5721
▁مسجد	-11.5721
▁محشر	-11.5721
▁سريع	-11.5721
▁سلطه	-11.5722
▁گشود	-11.5722
▁مزمن	-11.5722
تایی	-11.5723
▁بوسنی	-11.5723
▁محرم	-11.5723
▁باشگاه	-11.5724
▁تمبر	-11.5724
▁میکروفون	-11.5725
▁مکرر	-11.5725
▁۲۹	-11.5727
▁فرماندار	-11.5728
▁نكن	-11.5728
▁هدفمند	-11.573
sh	-11.5733
اغه	-11.574
اینجا	-11.574
▁مشكلات	-11.5741
▁صفات	-11.5748
▁هکرها	-11.5752
▁نرمال	-11.5755
▁سیگنالهای	-11.5756
▁غلات	-11.5758
▁هرجا	-11.5761
بچه	-11.5764
▁بيست	-11.5766
▁نمایشگر	-11.5769
▁الهی	-11.5772
▁دفعات	-11.5785
▁اخلاقیات	-11.5791
▁جلبک	-11.5794
نیفر	-11.5798
▁نماید	-11.5803
▁کانز	-11.5816
▁گندم	-11.5819
▁تکنولوژیک	-11.582
▁میشین	-11.5828
▁شستشو	-11.5839
▁تفاوتهای	-11.5839
۴۰	-11.5846
50	-11.5847
▁مقا	-11.5853
ارواح	-11.5857
▁میارن	-11.5858
▁۹۵	-11.5869
طئ	-11.587
وانا	-11.588
▁سوزاندن	-11.5893
صاع	-11.5896
▁براون	-11.5927
▁جوک	-11.5928
▁پرتر	-11.5934
▁تانک	-11.594
▁پوستان	-11.5952
بینند	-11.5978
▁آپولو	-11.5983
▁اقتدار	-11.5983
▁دخیل	-11.5983
▁عظمت	-11.5983
▁عنکبوت	-11.5983
▁فضیلت	-11.5983
▁هلیکوپتر	-11.5983
▁۲۰۱۴	-11.5983
▁سوابق	-11.5983
▁تناسب	-11.5983
▁مضحک	-11.5983
▁آفرید	-11.5983
▁بنياد	-11.5983
▁تشدید	-11.5983
▁علایق	-11.5983
▁آستین	-11.5983
▁هجده	-11.5983
▁آزمود	-11.5983
▁جسور	-11.5983
▁ترفند	-11.5984
▁نمیتونست	-11.5984
▁مستمر	-11.5984
▁باکتریها	-11.5984
▁چگال	-11.5984
▁ساعات	-11.5984
▁نمرات	-11.5985
▁منفرد	-11.5985
▁میسازند	-11.5986
حیطه	-11.5986
▁احدا	-11.5987
▁گزین	-11.5989
▁۲۰۰۱	-11.5991
▁ميكنيم	-11.5993
▁جانشین	-11.5994
▁طرحهای	-11.5995
▁چاک	-11.5997
▁بوق	-11.5998
▁فضاي	-11.6001
▁جنگجو	-11.6003
▁بشناسید	-11.6005
▁400	-11.6005
▁زره	-11.6008
▁عين	-11.6009
▁كاملا	-11.601
▁اذ	-11.6017
▁قاط	-11.6019
بوس	-11.6026
▁هوشیار	-11.6032
▁معر	-11.6042
▁بنامیم	-11.6062
▁تفکرات	-11.6065
▁پارو	-11.6067
▁ديگران	-11.6078
▁لینو	-11.6099
▁پاسخگو	-11.6101
▁افسردگ	-11.6107
▁13	-11.6123
گيري	-11.6144
▁بلک	-11.6158
اندر	-11.6162
▁یخها	-11.6166
▁گذراندن	-11.6184
▁بخواهی	-11.6186
ie	-11.62
▁خاور	-11.6205
▁كمي	-11.6206
▁توضیحات	-11.6208
ئین	-11.6211
▁جوانتر	-11.6218
▁ترمو	-11.6237
▁سوزاند	-11.6237
اطی	-11.6247
دوست	-11.6251
▁قاچاق	-11.6253
▁شکسپیر	-11.6253
▁لئوناردو	-11.6253
▁مارمولک	-11.6253
▁محتاط	-11.6253
▁مخاطر	-11.6253
▁مزاحم	-11.6253
▁مشروط	-11.6253
▁نخبگان	-11.6253
▁بادکنک	-11.6253
▁ارجاع	-11.6253
▁تقویم	-11.6253
▁رادیکال	-11.6253
▁عجيب	-11.6253
▁لاغر	-11.6253
▁هجوم	-11.6253
▁سوئیس	-11.6253
▁تدوین	-11.6253
▁فرنگی	-11.6254
▁کوک	-11.6254
▁جاودان	-11.6254
▁مهیج	-11.6254
▁پرهیز	-11.6254
▁تدارک	-11.6254
▁آمیخت	-11.6254
▁اغوا	-11.6255
▁زيست	-11.6255
▁معبد	-11.6255
ـــــ	-11.6256
▁پُر	-11.6256
▁لجن	-11.6256
▁تبریک	-11.6257
▁آشفتگی	-11.6258
▁نامحدود	-11.6258
▁گمشد	-11.6259
▁سانتی	-11.6259
▁۱۹۵	-11.6259
▁ريز	-11.6262
▁پلاک	-11.6264
▁پورت	-11.6265
▁بينيم	-11.6272
▁ـــ	-11.6281
▁پردازد	-11.6287
▁پرستاران	-11.6294
▁میخواهی	-11.6302
▁قویتر	-11.6309
▁کارآفرینان	-11.6312
▁همسران	-11.6318
▁ملیت	-11.632
▁پنب	-11.6324
▁آرزوهای	-11.6324
▁اختراعات	-11.6325
▁تبت	-11.6331
▁فلسطین	-11.6335
▁جیل	-11.6335
▁کینگ	-11.6345
▁شتر	-11.6347
▁افزود	-11.6353
▁طبع	-11.6356
li	-11.6382
▁تعبی	-11.6398
▁کشیش	-11.6403
کارو	-11.6413
نهایت	-11.6415
حدود	-11.6424
▁خوردیم	-11.6441
ذاره	-11.6455
بحال	-11.6466
▁دایناسورها	-11.6469
▁کنای	-11.6497
.5	-11.6518
▁بریدن	-11.6525
▁کامرو	-11.6531
RNA	-11.6531
▁اسکیزوفرنی	-11.6531
▁اضطرار	-11.6531
▁اقوام	-11.6531
▁انتحاری	-11.6531
▁تثبیت	-11.6531
▁خرچنگ	-11.6531
▁لطیف	-11.6531
▁هيجان	-11.6531
▁کاتولیک	-11.6531
▁لیسانس	-11.6531
▁فاحش	-11.6531
▁ممتاز	-11.6531
▁پانصد	-11.6531
▁مسموم	-11.6531
▁پروستات	-11.6531
▁غريب	-11.6531
قبض	-11.6531
▁بیهوش	-11.6531
▁ماتریس	-11.6532
▁بسنج	-11.6532
▁منشاء	-11.6532
▁لاستیک	-11.6532
▁آلبرت	-11.6533
▁انفعال	-11.6533
▁نمیکند	-11.6534
▁Ch	-11.6534
▁سودآور	-11.6534
▁ساير	-11.6535
▁St	-11.6535
▁ببينيم	-11.6536
▁قضایی	-11.6536
▁خالق	-11.654
▁لهج	-11.6542
▁روبوت	-11.6542
▁طبل	-11.6544
▁بمانیم	-11.6547
▁خستگی	-11.655
▁روباتیک	-11.6553
▁بفرستیم	-11.6555
▁تتو	-11.6557
▁اختلافات	-11.6563
▁فراخوان	-11.6573
▁خريد	-11.658
▁برگردند	-11.6581
▁بازیگران	-11.6588
▁کارگردان	-11.6592
▁والتر	-11.6597
▁صفت	-11.6599
▁ادا	-11.6602
▁الج	-11.6605
▁سرکار	-11.6608
▁کوانتوم	-11.6611
گانگی	-11.6615
▁ساند	-11.6623
▁سع	-11.6624
▁شرت	-11.6633
كته	-11.6636
me	-11.6645
▁پاکت	-11.6651
▁مدیت	-11.6654
▁آفت	-11.6654
اگو	-11.6655
ادور	-11.6661
▁وارون	-11.6673
▁نتیج	-11.6679
▁پف	-11.6684
▁45	-11.6685
ap	-11.6686
▁ايست	-11.6696
▁دب	-11.6699
▁نرها	-11.67
▁برمیدار	-11.6711
▁شیئ	-11.6714
معمول	-11.6719
▁مقرو	-11.672
▁تورن	-11.6724
▁دگر	-11.6727
رهایی	-11.6732
▁قارچها	-11.6739
بایستی	-11.6744
▁مبتکر	-11.6747
کافی	-11.676
▁۴۴	-11.676
▁۲۸	-11.6765
▁هیر	-11.6769
▁اکر	-11.6779
ونریزی	-11.6784
▁پیشگام	-11.679
▁پیا	-11.68
▁تیپ	-11.6805
▁کیست	-11.6811
▁آسيب	-11.6817
▁اجساد	-11.6817
▁انطباق	-11.6817
▁حمايت	-11.6817
▁رطوبت	-11.6817
▁روانپزشک	-11.6817
▁ضریب	-11.6817
▁فیلادلفیا	-11.6817
▁مسکونی	-11.6817
▁گداخت	-11.6817
▁لغات	-11.6817
▁پالایش	-11.6817
▁پایتخت	-11.6817
▁تمایز	-11.6817
▁دلسرد	-11.6817
▁اندونزی	-11.6817
▁اژدها	-11.6817
▁سعودی	-11.6817
▁قاهر	-11.6817
▁نیاکان	-11.6817
▁کارولینا	-11.6817
▁تداوم	-11.6817
▁مخرب	-11.6817
▁لقب	-11.6817
▁شهامت	-11.6817
▁عالي	-11.6817
▁شانگهای	-11.6817
▁بحد	-11.6817
▁ناجور	-11.6817
▁امكان	-11.6817
▁بیچار	-11.6817
▁1990	-11.6817
▁تاسف	-11.6817
▁تائید	-11.6818
▁عیار	-11.6818
▁بیهود	-11.6818
▁لرزان	-11.6818
▁روشنفکر	-11.6819
▁دربیار	-11.682
▁بزود	-11.682
▁گالری	-11.6821
▁طرق	-11.6821
▁تجارب	-11.6821
▁بگيريم	-11.6822
▁1000	-11.6822
▁میبرند	-11.6825
▁بمانید	-11.6829
▁ستایش	-11.6831
▁بگويم	-11.6832
▁سعي	-11.6833
▁یورو	-11.6834
▁لانگ	-11.6835
▁کسری	-11.6845
ماندا	-11.6847
مبنی	-11.6849
▁ارج	-11.6854
▁فوتون	-11.6857
▁ساکنان	-11.6857
▁طو	-11.686
▁دانستید	-11.6872
▁اعتقادات	-11.6875
▁سیال	-11.6878
▁دایناسور	-11.6881
▁اوليه	-11.6896
▁رباتهای	-11.69
▁همانجا	-11.6928
▁In	-11.6932
▁گرگ	-11.6948
▁۸۵	-11.6949
یوتا	-11.6972
میرند	-11.6987
▁میفرست	-11.6991
▁اندامهای	-11.7
عوض	-11.7013
همچنین	-11.7013
مركز	-11.7013
▁دنياي	-11.7013
کدوم	-11.7014
رگزاری	-11.7017
▁۱۶۰	-11.7024
▁بلاگ	-11.7031
▁بیوتیکها	-11.7034
فوس	-11.7047
▁ضمنا	-11.7055
▁لوز	-11.7096
دادم	-11.7101
▁CRISPR	-11.7111
▁بصیرت	-11.7111
▁تشریح	-11.7111
▁مرطوب	-11.7111
▁واگیردار	-11.7111
▁تاريخ	-11.7111
▁چوپان	-11.7111
▁داعش	-11.7111
▁لبنان	-11.7111
▁اشعار	-11.7111
▁مدعی	-11.7111
▁آزاردهنده	-11.7111
▁فرانسیسکو	-11.7111
▁بسازه	-11.7111
▁ديوار	-11.7112
▁تشنج	-11.7112
▁عربستان	-11.7112
آزمایی	-11.7112
▁پیرمرد	-11.7112
کتوس	-11.7112
▁واتسون	-11.7112
▁مسطح	-11.7113
▁خانوم	-11.7113
▁اقرار	-11.7113
▁میرسیم	-11.7114
▁میگیرید	-11.7114
▁میکروف	-11.7114
▁تایلند	-11.7115
▁کانتی	-11.7115
▁کهنسال	-11.7116
▁مولد	-11.7117
▁توریست	-11.7118
▁مکث	-11.7118
▁نگهداشت	-11.7119
▁رصد	-11.7121
▁فمنیست	-11.7121
▁کاپ	-11.7122
▁مض	-11.7122
▁جانسون	-11.7125
▁آموزگاران	-11.7125
▁قبر	-11.7128
▁میومد	-11.7132
برداری	-11.7139
▁نمادین	-11.7141
▁بشکل	-11.7143
اندیش	-11.7145
▁Sh	-11.7147
▁تردست	-11.7151
▁شادتر	-11.7155
▁سگها	-11.7156
▁شکستگی	-11.716
▁هرحال	-11.7161
▁اسکیت	-11.7163
▁پریدن	-11.7168
▁جبر	-11.7174
بقی	-11.7178
گرایان	-11.7192
▁نشستیم	-11.7198
▁لیتر	-11.7201
▁بيان	-11.7205
▁Ro	-11.7207
▁ژنیت	-11.7208
▁تیل	-11.7211
▁پیشگامان	-11.7223
▁دیل	-11.7236
▁کوکا	-11.7245
▁دریاها	-11.7258
▁کارفرما	-11.7275
▁۸۰۰	-11.7295
▁افزودن	-11.7303
▁سیار	-11.7323
آیند	-11.7324
بندان	-11.7332
ادین	-11.7336
ربکا	-11.736
▁كاف	-11.7378
▁صح	-11.7409
▁دموکرات	-11.7411
▁آسفالت	-11.7414
▁اصالت	-11.7414
▁ذوق	-11.7414
▁راهپیمایی	-11.7414
▁رقاص	-11.7414
▁سفیدپوست	-11.7414
▁متعادل	-11.7414
▁ورشکست	-11.7414
▁کلکسیون	-11.7414
▁اميدوار	-11.7414
▁بروکلین	-11.7414
▁کبوتر	-11.7414
▁امثال	-11.7414
▁باارزش	-11.7414
▁تسهیل	-11.7414
▁جانداران	-11.7414
▁شهادت	-11.7414
▁واژگان	-11.7414
▁بخونم	-11.7414
▁شرکای	-11.7414
▁عاقل	-11.7414
▁علیرغم	-11.7415
▁پروتز	-11.7416
▁آبشار	-11.7416
▁اندیشیدن	-11.7418
▁آلفا	-11.7418
▁رسوند	-11.7419
▁بگيريد	-11.7419
▁سخنگو	-11.742
▁۲۰۰۶	-11.742
▁تنبل	-11.7421
شمول	-11.7422
باب	-11.7424
PS	-11.7427
هنگام	-11.7427
▁بندازید	-11.7429
▁نابینایی	-11.743
▁آسیایی	-11.743
▁پرینتر	-11.7431
▁كليد	-11.7435
لتراسا	-11.7439
▁تایپرها	-11.7442
▁بگین	-11.7442
▁بازیکنان	-11.7443
▁پیشبینی	-11.7447
▁شهود	-11.745
▁ندا	-11.7454
▁گيرد	-11.7456
▁مرخص	-11.7471
▁کرمهای	-11.7485
▁بانکدار	-11.7487
ard	-11.7487
▁شئ	-11.7489
▁نایک	-11.7503
▁غالبا	-11.7506
▁خدایا	-11.7506
زمه	-11.7521
▁بزرگنمای	-11.7527
وژن	-11.7532
▁نیای	-11.7537
▁اجبار	-11.755
▁سرپرست	-11.755
▁دين	-11.7551
هندسی	-11.7559
▁وکلا	-11.7565
▁پوز	-11.7572
▁معان	-11.7581
▁استفاد	-11.7591
▁ملکولها	-11.7593
▁300	-11.7612
▁بشنو	-11.7624
▁عبر	-11.764
پور	-11.765
▁میکروبها	-11.7671
▁بگویی	-11.768
▁شیرها	-11.7687
▁نمیتوانست	-11.7696
▁عذر	-11.7726
▁آذوق	-11.7726
▁الکترومغناطیس	-11.7726
▁تراژدی	-11.7726
▁صراحت	-11.7726
▁ماساچوست	-11.7726
▁مخارج	-11.7726
▁منطبق	-11.7726
▁مواظب	-11.7726
▁ناهموار	-11.7726
▁نبوغ	-11.7726
▁هیمالیا	-11.7726
▁خالکوبی	-11.7726
▁عبارات	-11.7726
▁هفده	-11.7726
▁متمایل	-11.7726
▁هنرپیش	-11.7726
▁کریستال	-11.7726
▁کُد	-11.7726
عضله	-11.7726
▁پناهجو	-11.7727
▁196	-11.7727
▁2008	-11.7728
▁سخاوتمند	-11.7728
▁وجدان	-11.7728
▁تالار	-11.7728
▁هکتار	-11.7729
▁برخاست	-11.773
▁رونق	-11.773
▁آپلو	-11.773
طبیع	-11.7731
▁منزوی	-11.7731
▁میبریم	-11.7732
ers	-11.7733
▁نداري	-11.7734
▁محتویات	-11.7735
▁فرسا	-11.7736
▁تیغ	-11.7737
▁تهر	-11.7737
▁کانادایی	-11.7737
▁سیلوی	-11.7738
▁کرایه	-11.7739
▁نوسانات	-11.774
▁الفبا	-11.774
▁پستال	-11.7742
▁هندوست	-11.7743
▁وطن	-11.7744
▁بزارید	-11.7748
تحریر	-11.7751
▁عطف	-11.7752
▁ژست	-11.7762
▁ابن	-11.7764
▁برسانند	-11.7764
▁تحولات	-11.7765
فرستیم	-11.7774
▁جمعيت	-11.7784
▁بنگ	-11.7789
▁گچ	-11.779
▁آهنگساز	-11.7798
زابت	-11.7809
▁مشتاقان	-11.7827
▁جوج	-11.7828
▁افشاگر	-11.7842
▁دیرین	-11.7844
▁حوال	-11.7845
▁حسابدار	-11.7853
▁حوا	-11.7857
PT	-11.7878
تاثر	-11.7914
▁علاق	-11.7915
▁کاو	-11.7916
نوشت	-11.7944
تمام	-11.7949
انجام	-11.7958
فصل	-11.7996
▁برقص	-11.7997
▁غای	-11.8033
▁محتوی	-11.804
▁سلیم	-11.8042
30	-11.8048
▁آتلانتی	-11.8049
▁آنچنان	-11.8049
▁انيشتين	-11.8049
▁بشقاب	-11.8049
▁بفرمایید	-11.8049
▁ترانزیستور	-11.8049
▁تسخیر	-11.8049
▁تکالیف	-11.8049
▁ديجيتال	-11.8049
▁سانتیگراد	-11.8049
▁شاغل	-11.8049
▁نصیحت	-11.8049
▁نژادپرست	-11.8049
▁پلاسما	-11.8049
▁تبعید	-11.8049
▁دونالد	-11.8049
▁ناسازگار	-11.8049
▁پرتقال	-11.8049
▁پیراهن	-11.8049
▁خشمگین	-11.8049
▁مرموز	-11.8049
▁زیربنای	-11.8049
▁ژنرال	-11.8049
▁موتزار	-11.8049
▁دكتر	-11.8049
▁اهرم	-11.8049
▁تداخل	-11.805
▁قلع	-11.805
▁تلفظ	-11.805
▁پوشانده	-11.805
▁فلش	-11.8051
▁کپلر	-11.8051
▁بسازي	-11.8053
▁میرسند	-11.8054
▁نمانده	-11.8054
▁تحقيقات	-11.8054
زابل	-11.8055
▁اورگان	-11.8056
▁خير	-11.8057
▁محکومیت	-11.8058
▁رحمان	-11.8058
▁سیارک	-11.8058
▁۴۸	-11.8058
▁کِی	-11.806
▁میخورد	-11.806
▁قاب	-11.8061
▁تنیس	-11.8061
▁استفان	-11.8063
▁برگردانیم	-11.8066
▁جنون	-11.8067
all	-11.8067
▁زیرکان	-11.8067
▁درامد	-11.8068
پیچی	-11.8068
▁ببخشیم	-11.8068
▁رقصیدن	-11.8069
▁کوهنوردان	-11.8069
▁کریستو	-11.8069
▁صادرات	-11.807
▁گنجاند	-11.807
▁دانيم	-11.8075
▁ایمپل	-11.8076
▁لاما	-11.8084
▁تخیلات	-11.8086
▁رسیدگ	-11.8089
▁کانر	-11.809
▁نیل	-11.809
▁لینکل	-11.8096
▁آنجائی	-11.81
▁دیتا	-11.8101
▁استراتژیک	-11.8105
▁مردگان	-11.8105
▁رگهای	-11.8105
▁بپا	-11.8106
ماندگی	-11.8114
▁كافي	-11.8115
ذاریم	-11.8117
يالات	-11.8127
▁پاول	-11.8131
▁گراف	-11.8138
▁زنجیر	-11.8153
▁ادیس	-11.8154
عمر	-11.8155
گال	-11.8155
▁تجار	-11.8186
▁بگذاري	-11.8192
یابید	-11.8193
▁150	-11.8202
▁طر	-11.8203
▁عاطف	-11.8206
▁هیج	-11.821
▁میلاد	-11.8215
▁۷۲	-11.8226
▁پیچید	-11.8247
▁تندتر	-11.8254
هیچ	-11.8261
گذاشت	-11.828
مقدس	-11.8284
ذرت	-11.829
خوب	-11.8296
اِی	-11.8311
ساعت	-11.8312
وتوب	-11.8322
▁طبيع	-11.8325
di	-11.8359
▁۹۰۰	-11.8363
چهار	-11.8377
▁خيابان	-11.8382
▁فمینیست	-11.8382
▁ملموس	-11.8382
▁نئوکورتکس	-11.8382
▁بنویسند	-11.8382
▁گسست	-11.8382
▁میلیمتر	-11.8382
▁متلاش	-11.8382
▁سیاتل	-11.8382
▁دیزنی	-11.8382
▁قریب	-11.8382
▁باطری	-11.8383
▁مینامیم	-11.8383
▁پلیمر	-11.8383
▁اسهال	-11.8383
▁میگذارند	-11.8384
▁دلگرم	-11.8386
▁۱۹۰۰	-11.8386
▁نوازندگان	-11.8387
▁اتکا	-11.8389
▁سبد	-11.839
▁توربین	-11.8391
▁وخیم	-11.8392
▁علي	-11.8393
▁بینهایت	-11.8395
▁آلیس	-11.8397
▁مخاطبین	-11.8401
▁نادان	-11.8402
▁بقایای	-11.8405
▁متکی	-11.8406
▁میاریم	-11.8407
وزون	-11.8408
▁فضانوردان	-11.8408
▁استانداردها	-11.8415
▁ارزون	-11.8418
▁بفرستند	-11.8422
▁مث	-11.8426
▁میارم	-11.843
▁نازی	-11.8435
▁شهاب	-11.8436
▁زیان	-11.8438
▁دستاوردهای	-11.8464
گامی	-11.8473
ho	-11.8477
▁دلال	-11.8478
▁تمرینات	-11.8481
▁اخت	-11.849
گروه	-11.8528
▁گرون	-11.853
▁گریس	-11.8542
▁شوخ	-11.8542
خدا	-11.8551
رانداز	-11.8571
قرار	-11.8576
▁مدرس	-11.86
سوز	-11.8611
افریقایی	-11.8652
فتح	-11.8655
▁۷۰۰	-11.8663
▁نرس	-11.8678
▁دفترچ	-11.8694
تراك	-11.8694
▁چراغها	-11.8697
▁بکر	-11.8701
▁آموزگار	-11.8715
کینز	-11.8718
▁مختل	-11.8724
وتکنولوژی	-11.8727
▁آتلانتا	-11.8727
▁احتياج	-11.8727
▁افزايش	-11.8727
▁بچرخان	-11.8727
▁تصدیق	-11.8727
▁حماقت	-11.8727
▁رختخواب	-11.8727
▁قلقلک	-11.8727
▁مارشملو	-11.8727
▁مافوق	-11.8727
▁منحصربفرد	-11.8727
▁پرفسور	-11.8727
▁اصیل	-11.8727
▁رجوع	-11.8727
▁كشاورز	-11.8727
▁مهبانگ	-11.8727
▁کالبدشکاف	-11.8727
▁موسيق	-11.8727
▁مانیتور	-11.8727
▁مرتع	-11.8727
▁کرتکس	-11.8727
▁ملخ	-11.8727
▁ماتریکس	-11.8727
▁اتریش	-11.8727
▁ویلچر	-11.8727
▁توانبخشی	-11.8727
توماتیک	-11.8728
▁محبوس	-11.8728
▁مستعد	-11.8728
▁ماوراء	-11.8729
▁عیب	-11.8729
▁اسنود	-11.873
▁هویج	-11.873
▁آداب	-11.873
▁متعارف	-11.873
▁پلکان	-11.873
▁مشروع	-11.873
▁بنوش	-11.8731
▁دفا	-11.8731
▁نیوتن	-11.8731
▁فرسایش	-11.8732
▁کشفیات	-11.8732
▁مملو	-11.8732
▁حوض	-11.8732
▁کُر	-11.8733
▁AI	-11.8733
عارض	-11.8734
▁میاورد	-11.8734
▁سرسخت	-11.8734
▁ربود	-11.8736
▁گرانبها	-11.8738
▁زیپ	-11.8738
▁شکاک	-11.8739
▁شكست	-11.874
▁کمیته	-11.874
▁فائ	-11.8741
▁الوار	-11.8742
▁داغون	-11.8743
▁بفرستید	-11.8745
▁بیاموزیم	-11.8748
▁پرورشگاه	-11.8749
▁سروتون	-11.8749
▁بكار	-11.8751
▁انرژي	-11.8751
▁كف	-11.8753
فیلد	-11.8753
▁نوپا	-11.8754
ine	-11.8755
▁میبرم	-11.8756
▁پروتون	-11.8764
▁پیکان	-11.8771
درتال	-11.8777
▁اصطلاحات	-11.8783
▁هیو	-11.8784
▁بریزی	-11.879
▁مبتکران	-11.8812
▁فاز	-11.8818
فرستد	-11.8839
▁نوآوران	-11.8842
▁زل	-11.8847
▁پوشا	-11.8876
▁سکان	-11.8877
▁حاک	-11.8877
▁نیکل	-11.8939
▁گین	-11.8947
▁دالای	-11.8958
▁تالاب	-11.8975
▁گرامی	-11.898
بسیار	-11.8987
▁بسو	-11.8991
▁جفر	-11.8993
فعال	-11.9002
▁۴۲	-11.9037
▁میزنن	-11.9068
لابی	-11.9078
کشور	-11.9082
▁انستیتو	-11.9084
▁تحصيل	-11.9084
▁تنظيم	-11.9084
▁حضرت	-11.9084
▁خاخام	-11.9084
▁دمکراسی	-11.9084
▁رمزنگاری	-11.9084
▁شایستگی	-11.9084
▁كامپيوتر	-11.9084
▁پنسیلوانیا	-11.9084
▁کامپوتر	-11.9084
▁کروموزم	-11.9084
▁یادگرفتم	-11.9084
▁احتیاط	-11.9084
▁احضار	-11.9084
▁تفکیک	-11.9084
▁جناح	-11.9084
▁فواصل	-11.9084
▁مسلط	-11.9084
▁نصیب	-11.9084
▁عروق	-11.9084
صابت	-11.9084
▁مصور	-11.9084
▁كنترل	-11.9084
▁درخشند	-11.9084
▁نپال	-11.9084
▁متناوب	-11.9084
▁برگزید	-11.9084
▁سیستماتیک	-11.9084
▁مشق	-11.9085
▁ترشح	-11.9085
▁اتهام	-11.9085
▁استروژن	-11.9086
▁۱۹۸۴	-11.9086
▁پيوند	-11.9086
▁پيشرفت	-11.9086
▁جهاد	-11.9087
▁رسوب	-11.9087
▁شریان	-11.9087
▁نگذاشت	-11.9088
▁دلپذیر	-11.9089
▁یواش	-11.909
▁معاین	-11.9091
▁میگذاریم	-11.9092
▁مشک	-11.9093
▁۳۷	-11.9095
▁یتیم	-11.9098
▁چرخدار	-11.9101
▁پیمای	-11.9102
▁هارل	-11.9103
▁گياهان	-11.9104
خفیف	-11.9105
▁ميخواهي	-11.9107
عطوف	-11.911
۳۹	-11.9111
ah	-11.9112
▁جوراب	-11.9115
▁کِن	-11.9125
▁5000	-11.9132
▁کیپ	-11.9133
▁معنادار	-11.9137
▁بادبان	-11.914
▁ويژ	-11.9143
est	-11.9146
▁خوشبخت	-11.9151
▁کوبا	-11.9174
▁۱۸۵	-11.9231
▁بیوشیمی	-11.9236
سوخ	-11.927
زندگی	-11.9295
▁۳۱	-11.9296
جبه	-11.9316
▁۱۰۰۰	-11.9319
▁جستجوگر	-11.9344
لیکس	-11.935
منظور	-11.9357
خوار	-11.9372
هستند	-11.9385
سپس	-11.9387
۹۸	-11.9434
▁قسم	-11.9445
▁MRI	-11.9455
▁اسراييل	-11.9455
▁الکتریست	-11.9455
▁تعویض	-11.9455
▁مشورت	-11.9455
▁کاستاریکا	-11.9455
▁کامبوج	-11.9455
▁سکولار	-11.9455
▁عذاب	-11.9455
▁فیزیوتراپ	-11.9455
▁مستطیل	-11.9455
▁نزاع	-11.9455
▁بخیر	-11.9455
▁والدين	-11.9455
▁نئا	-11.9455
▁جرایم	-11.9455
▁برسونیم	-11.9455
▁بعید	-11.9455
▁صرب	-11.9455
▁املاک	-11.9455
▁لرزید	-11.9455
▁همزیست	-11.9455
▁زیمبا	-11.9455
▁رمزگشا	-11.9455
▁لغز	-11.9456
▁انزوا	-11.9456
▁مقدماتی	-11.9457
▁جشنوار	-11.9458
▁شیمیدان	-11.9458
▁بیاندیشی	-11.9458
▁میگوییم	-11.9458
ion	-11.9459
▁جاشوا	-11.9459
▁سموم	-11.9459
▁بنیانگذار	-11.9459
▁ترمز	-11.9461
▁بگوئی	-11.9462
عزت	-11.9463
▁مؤسسات	-11.9466
▁یکپارچگی	-11.9466
▁ايستاد	-11.9468
▁برکلی	-11.9469
▁دویدم	-11.9469
▁سیرال	-11.9469
▁كشف	-11.9471
▁مهیا	-11.9472
▁ورزید	-11.9473
▁سرگردان	-11.9474
▁سرنشین	-11.9474
▁کادر	-11.9474
▁پسمانده	-11.9476
▁ضربدر	-11.9479
کراچ	-11.948
▁لایح	-11.9483
▁مشی	-11.9496
▁لئو	-11.9543
▁خرابکار	-11.9556
▁نخور	-11.9564
▁مدال	-11.9565
ome	-11.9571
شهر	-11.9596
▁كشت	-11.9605
احت	-11.9658
▁العاد	-11.9661
▁نواح	-11.9663
▁ژل	-11.9675
▁برونگرا	-11.9705
برابر	-11.9728
▁۹۶	-11.9731
ero	-11.974
▁۲۶	-11.9772
رساند	-11.9792
▁ضایع	-11.9831
▁پستاندار	-11.9834
▁سخاوت	-11.9837
▁آنالوگ	-11.9839
▁ازطریق	-11.9839
▁اصطکاک	-11.9839
▁امپراطور	-11.9839
▁انتقام	-11.9839
▁انفرادی	-11.9839
▁انقباض	-11.9839
▁اِوِرگلِیدز	-11.9839
▁تسلیحات	-11.9839
▁سزاوار	-11.9839
▁ضخیم	-11.9839
▁ظلم	-11.9839
▁مستحق	-11.9839
▁ناپایدار	-11.9839
▁کالبد	-11.9839
▁بنوبو	-11.9839
▁تیراندازی	-11.9839
▁رفقا	-11.9839
▁صابون	-11.9839
▁همکلاسی	-11.9839
▁اعزام	-11.9839
▁باتلاق	-11.9839
▁مسواک	-11.9839
▁صلیب	-11.9839
▁نقاب	-11.9839
▁قامت	-11.9839
▁بلعید	-11.9839
▁لهستان	-11.9839
▁واژگون	-11.9839
ation	-11.9839
▁حکایت	-11.984
▁197	-11.984
فظه	-11.984
▁بكش	-11.984
▁مدیون	-11.984
▁99	-11.984
▁دريافت	-11.9841
▁کوبید	-11.9841
▁پژوهشگران	-11.9841
▁بیضه	-11.9841
▁كپ	-11.9842
▁ورمر	-11.9842
▁آرنج	-11.9842
▁گِل	-11.9842
▁پشم	-11.9843
▁جنایتکار	-11.9844
▁متوال	-11.9845
ایروبی	-11.9845
▁نترس	-11.9847
▁پورن	-11.9847
▁سیزده	-11.9847
▁شجر	-11.9847
▁پک	-11.9849
▁پودر	-11.985
▁حاکمیت	-11.985
▁۴۷	-11.9851
▁فلک	-11.9852
▁پوشاندن	-11.9852
▁مرسی	-11.9854
رگه	-11.9861
▁بلندگو	-11.9865
▁اسیر	-11.987
▁آغ	-11.987
▁پیامبر	-11.987
گاس	-11.9874
۱۹	-11.9877
▁کانون	-11.9888
▁نوشید	-11.9905
▁35	-11.9923
▁لیگ	-12.004
متال	-12.0042
ill	-12.0085
شروع	-12.0138
منطق	-12.0141
آمریکایی	-12.0141
هزینه	-12.0142
▁3000	-12.0155
DA	-12.0159
غمه	-12.0189
۱۰	-12.019
▁کوهنورد	-12.0215
تعارف	-12.0236
▁فرانسیس	-12.0238
▁ارتجاع	-12.0239
▁ازدحام	-12.0239
▁تشكيل	-12.0239
▁تصاوير	-12.0239
▁تمسخر	-12.0239
▁دپارتمان	-12.0239
▁رستاخیز	-12.0239
▁صنوبر	-12.0239
▁عواطف	-12.0239
▁متناقض	-12.0239
▁مجروح	-12.0239
▁نعمت	-12.0239
▁نوروژنز	-12.0239
▁پيشنهاد	-12.0239
▁اخطار	-12.0239
▁تقلیل	-12.0239
▁قبایل	-12.0239
▁متحیر	-12.0239
▁متعصب	-12.0239
▁دراماتیک	-12.0239
▁ثمر	-12.0239
▁همجوشی	-12.0239
▁یادبگیر	-12.0239
▁خودآگاه	-12.0239
▁مشگل	-12.0239
▁درخشش	-12.0239
▁مرکب	-12.0239
▁تندرست	-12.0239
▁فنلاند	-12.0239
▁ویديو	-12.0239
▁لگد	-12.0239
▁التهاب	-12.0239
▁فرسود	-12.0239
▁بیسبال	-12.024
طالع	-12.024
▁ويدئو	-12.024
▁كاهش	-12.024
▁علفزار	-12.024
▁تبلت	-12.0241
▁مهلک	-12.0241
▁المثل	-12.0241
▁ارشم	-12.0241
▁گزید	-12.0241
▁تقص	-12.0244
▁میشناسیم	-12.0244
▁جسمانی	-12.0244
▁ویرجینیا	-12.0245
▁خشنود	-12.0245
▁مولف	-12.0245
▁واداشت	-12.0245
▁عقلانی	-12.0245
▁صمیم	-12.0247
▁رخداد	-12.0251
▁تقابل	-12.0251
▁بلایا	-12.0251
▁همانقدر	-12.0252
▁گُ	-12.0252
▁ویرانگر	-12.0252
▁احشا	-12.026
▁جونز	-12.0261
▁پهنای	-12.0263
▁بگذرون	-12.0266
▁بتهو	-12.0269
۸۰	-12.0304
▁بنیادگرای	-12.0319
▁سيار	-12.0322
▁بمبئ	-12.0335
▁سیدن	-12.0349
نواز	-12.0385
▁لوپ	-12.0393
پینگ	-12.0418
gle	-12.0419
▁پَ	-12.0436
▁نابرابر	-12.0483
DI	-12.0489
AT	-12.0504
▁حافظ	-12.0518
▁گرینل	-12.0553
آخر	-12.0558
میلیون	-12.0558
عرض	-12.0561
تصور	-12.0568
زاک	-12.0617
▁۵۲	-12.0625
▁تظاهر	-12.0648
وثی	-12.065
راضی	-12.0652
▁آترازین	-12.0656
▁اشتغال	-12.0656
▁غفلت	-12.0656
▁مروارید	-12.0656
▁نيويورك	-12.0656
▁نپرسید	-12.0656
▁The	-12.0656
▁ائتلاف	-12.0656
▁انصاف	-12.0656
▁شمشیر	-12.0656
▁محتاج	-12.0656
▁دریانورد	-12.0656
▁لیاقت	-12.0656
▁شراکت	-12.0656
▁هروئین	-12.0656
▁معادن	-12.0656
▁سالخورده	-12.0656
▁سیاهپوست	-12.0656
▁موهبت	-12.0656
▁اکولوژی	-12.0656
▁آیکون	-12.0656
▁زادگاه	-12.0656
▁كدام	-12.0656
▁مغل	-12.0656
▁هائیتی	-12.0656
▁شیلات	-12.0656
▁نزول	-12.0656
▁نکشید	-12.0656
▁اساتید	-12.0656
▁انگور	-12.0656
▁ناخن	-12.0656
▁مهاجم	-12.0656
▁عابر	-12.0656
▁عزم	-12.0656
▁جماه	-12.0656
▁نانومتر	-12.0657
▁ترحم	-12.0658
▁سردبیر	-12.0658
▁27	-12.0658
سیکلت	-12.0658
▁آشیان	-12.0658
▁کباب	-12.0658
▁رویاروی	-12.0658
▁23	-12.0658
▁مدفون	-12.0659
▁چسبوند	-12.0659
um	-12.066
▁خبرچین	-12.0661
▁سائو	-12.0662
▁تُن	-12.0662
▁عبد	-12.0662
▁اِلا	-12.0664
تروژن	-12.0665
▁محرومیت	-12.0666
▁مادامی	-12.0666
▁غیب	-12.0666
▁علاج	-12.0667
▁پاییز	-12.0677
▁پرستی	-12.0677
تکلم	-12.068
لاشه	-12.0702
تفرق	-12.073
▁يو	-12.0779
▁اَل	-12.0785
کوکو	-12.079
▁دایر	-12.0833
ger	-12.0836
▁ژئو	-12.0847
۱۶	-12.0853
▁تولیدکنند	-12.092
ابیش	-12.0944
▁صفح	-12.0954
▁بوسیل	-12.096
چسب	-12.0972
خصوص	-12.0984
وجود	-12.099
پذير	-12.0991
عدالت	-12.0994
حساب	-12.0994
▁عفو	-12.1012
▁بکشی	-12.1026
▁تحقيق	-12.1084
زامبی	-12.1087
▁مأمور	-12.1088
▁الجزایر	-12.1091
▁انزجار	-12.1091
▁ایزوتوپ	-12.1091
▁باكتري	-12.1091
▁تلويزيون	-12.1091
▁جماعت	-12.1091
▁رنسانس	-12.1091
▁صاریغ	-12.1091
▁مجتمع	-12.1091
▁مستراح	-12.1091
▁منعطف	-12.1091
▁نامعلوم	-12.1091
▁نوظهور	-12.1091
▁پروفایل	-12.1091
▁اپراتور	-12.1091
▁جسارت	-12.1091
▁جنایات	-12.1091
▁فقير	-12.1091
▁محصور	-12.1091
▁هرچقدر	-12.1091
▁پروتکل	-12.1091
▁آهنربا	-12.1091
▁تعدیل	-12.1091
▁خویشاوند	-12.1091
▁تماشگر	-12.1091
▁كوتاه	-12.1091
▁ویکتوریا	-12.1091
▁اجاق	-12.1091
▁هارمونی	-12.1091
▁سازوکار	-12.1091
▁شرمسار	-12.1091
▁سورتم	-12.1091
▁حرمت	-12.1091
▁خشك	-12.1091
▁معني	-12.1091
▁ارضا	-12.1091
▁1950	-12.1091
▁فیدل	-12.1091
▁قاچاقچی	-12.1091
ِوِر	-12.1091
رزیدنت	-12.1091
▁احمد	-12.1092
▁مسولیت	-12.1092
▁الماس	-12.1092
▁نابینایان	-12.1092
▁کپنها	-12.1092
▁بازرسی	-12.1092
▁افزون	-12.1092
▁شرمندگ	-12.1092
▁نجار	-12.1092
▁گورستان	-12.1093
▁واونها	-12.1094
▁ناتمام	-12.1094
ang	-12.1095
EC	-12.1095
▁۱۹۹۸	-12.1095
▁خلوت	-12.1096
▁تلاق	-12.1096
▁سونام	-12.1098
▁امیلی	-12.1099
▁ولفر	-12.11
▁باقي	-12.11
▁سانتا	-12.1101
▁کامیاب	-12.1104
▁میبیند	-12.1105
▁آواره	-12.1121
المع	-12.1122
فِس	-12.1133
▁عیس	-12.1134
▁نشنا	-12.1147
▁پوچ	-12.116
کایپ	-12.1215
▁طا	-12.1232
كربن	-12.1287
▁۱۸۰	-12.1311
SD	-12.1324
▁چرب	-12.1369
ذارم	-12.1372
ندازه	-12.1439
گفتند	-12.1441
▁همگام	-12.1444
لاخره	-12.1476
توانید	-12.1495
لیکن	-12.1508
▁نمایشنام	-12.1515
۱۲	-12.1543
▁تركيب	-12.1545
▁رفاقت	-12.1545
ISA	-12.1545
تخصیص	-12.1545
▁آریزونا	-12.1545
▁آلاباما	-12.1545
▁آمبولانس	-12.1545
▁اختصار	-12.1545
▁استقامت	-12.1545
▁حيوان	-12.1545
▁سرپناه	-12.1545
▁سوپرمارکت	-12.1545
▁عميق	-12.1545
▁متابولیسم	-12.1545
▁مدیرعامل	-12.1545
▁مسحور	-12.1545
▁مضطرب	-12.1545
▁معاشرت	-12.1545
▁نیوزلند	-12.1545
▁چجوری	-12.1545
▁آبراهام	-12.1545
▁خُرد	-12.1545
▁دینامیک	-12.1545
▁مبهوت	-12.1545
▁گستاخ	-12.1545
▁ثاني	-12.1545
▁ناکجا	-12.1545
▁رُز	-12.1545
▁عقرب	-12.1545
▁دلتنگ	-12.1545
▁زائد	-12.1545
▁پارامتر	-12.1545
▁آشتی	-12.1545
پائولو	-12.1545
▁فنآوری	-12.1545
▁نزديک	-12.1545
▁تعمق	-12.1545
/	-15.7985
ؤ	-15.7986
؛	-15.7987
#	-15.7988
♫	-15.7989
!	-15.799
٬	-15.7991
»	-15.7992
—	-15.7993
:	-15.7994
)	-15.7995
؟	-15.7996
&	-15.7997
q	-15.7998
،	-15.7998
