<unk>	0
<s>	0
</s>	0
▁.	-3.09265
▁,	-3.09428
n	-3.30679
a	-3.37843
▁	-3.89176
t	-4.03189
▁ja	-4.22092
▁on	-4.25724
;	-4.54261
▁&	-4.57957
quot	-4.62123
ä	-4.70179
en	-4.73154
i	-4.7557
mme	-4.90956
in	-5.02006
sta	-5.022
ssa	-5.0638
ta	-5.11306
▁että	-5.19056
▁se	-5.25734
s	-5.29261
▁ei	-5.44489
▁:	-5.46418
▁?	-5.49811
ksi	-5.50834
an	-5.52109
e	-5.54864
lle	-5.55564
▁—	-5.57729
ni	-5.58245
▁oli	-5.60619
u	-5.63071
vat	-5.65216
lla	-5.71053
stä	-5.72189
▁Se	-5.84229
tä	-5.85196
-	-5.87424
ja	-5.89027
▁ole	-5.90343
si	-5.92333
nen	-5.93905
▁Ja	-5.9987
▁)	-6.0277
(	-6.02921
▁joka	-6.05113
▁ovat	-6.05596
▁he	-6.07035
kin	-6.07537
ssä	-6.07644
ko	-6.08176
maan	-6.09175
h	-6.17687
▁hän	-6.18479
▁sen	-6.19765
▁kuin	-6.19836
▁mutta	-6.20772
sti	-6.231
▁voi	-6.23818
▁tai	-6.24253
o	-6.28784
▁kun	-6.34078
▁mitä	-6.34349
▁Mutt	-6.35156
▁vain	-6.38283
y	-6.40468
▁koska	-6.43943
än	-6.4447
▁jotk	-6.46164
r	-6.47049
▁sitä	-6.47359
▁jo	-6.48644
nut	-6.49771
▁niin	-6.51157
tta	-6.51617
llä	-6.52503
▁ne	-6.52653
▁Naurua	-6.55469
ista	-6.5802
▁Tämä	-6.58059
vät	-6.58213
▁nii	-6.59121
▁kaikki	-6.59783
lta	-6.60578
den	-6.61693
▁jos	-6.62006
▁tämä	-6.62241
▁Hän	-6.64978
pa	-6.66034
inen	-6.67393
▁paljon	-6.67782
nsa	-6.69422
la	-6.70303
▁me	-6.71948
neet	-6.73564
▁siitä	-6.77648
▁hyvin	-6.79293
▁olla	-6.81029
nne	-6.81722
on	-6.84493
▁tä	-6.85963
ti	-6.8616
et	-6.87722
▁Jos	-6.88057
▁myös	-6.88164
kä	-6.88755
l	-6.89953
te	-6.90861
▁S	-6.9105
▁sitten	-6.93227
▁itse	-6.94193
▁eivät	-6.94897
ku	-6.95422
li	-6.96046
▁tehdä	-6.96815
▁kanssa	-6.9767
istä	-6.98442
▁tämän	-6.99308
ille	-6.9936
ri	-6.99961
▁He	-7.00394
▁Joten	-7.0077
isi	-7.02808
ka	-7.03766
▁si	-7.04817
us	-7.05168
tte	-7.06177
▁olisi	-7.07674
va	-7.07844
ke	-7.10525
▁kut	-7.1055
▁nyt	-7.1147
▁saa	-7.11601
▁minu	-7.12181
▁ollut	-7.12182
ma	-7.12761
▁A	-7.14559
ut	-7.16165
eja	-7.16812
▁tulee	-7.17201
is	-7.17368
tu	-7.1798
▁yksi	-7.18021
▁mikä	-7.19433
▁todella	-7.19894
ki	-7.20485
minen	-7.20521
▁Kun	-7.2109
▁Tässä	-7.23449
m	-7.2427
tti	-7.24434
▁asia	-7.25974
k	-7.26065
▁koko	-7.26131
▁vuo	-7.27145
▁olemme	-7.27728
nyt	-7.28029
▁tuo	-7.28046
▁jossa	-7.29521
▁tässä	-7.29922
jä	-7.30085
vi	-7.30514
issa	-7.31618
▁enemmän	-7.32252
▁ihmiset	-7.32791
to	-7.33043
mään	-7.33226
▁En	-7.33571
pä	-7.33752
ra	-7.34935
kseen	-7.35159
ltä	-7.35644
mi	-7.35695
▁jonk	-7.36491
lo	-7.37492
▁sanoi	-7.37649
nna	-7.382
ita	-7.38331
sa	-7.39066
▁joita	-7.3994
▁miten	-7.40282
▁-	-7.40877
▁jotain	-7.41235
▁Mitä	-7.41484
▁jota	-7.42119
p	-7.42137
▁hyvä	-7.42264
▁osa	-7.42488
▁kuinka	-7.42733
taan	-7.43541
▁hänen	-7.4436
▁asiassa	-7.44404
nsä	-7.44527
▁Ne	-7.44717
▁olen	-7.44912
▁Ei	-7.45076
kaan	-7.45307
kaa	-7.46007
g	-7.4651
ten	-7.46533
ihin	-7.46972
d	-7.47871
▁T	-7.48153
▁tätä	-7.48249
▁eri	-7.50814
▁sano	-7.51052
▁puhu	-7.51277
▁en	-7.52765
▁meidän	-7.52794
ty	-7.53564
▁luo	-7.53582
▁aina	-7.53604
▁Kiitos	-7.54008
▁vuot	-7.54335
▁minulle	-7.55189
▁heidä	-7.55576
▁yli	-7.55727
▁kaksi	-7.55885
▁oikea	-7.57362
▁Si	-7.58185
▁On	-7.5899
▁P	-7.59143
illa	-7.59325
un	-7.60558
jen	-7.60575
▁nämä	-7.60972
▁Me	-7.61496
re	-7.61999
▁vuoden	-7.62219
ia	-7.62253
▁noi	-7.63081
▁olivat	-7.63264
kse	-7.63331
▁Olen	-7.63454
▁emme	-7.63871
▁kolme	-7.63944
sin	-7.6495
illä	-7.64954
le	-7.65014
sia	-7.65076
▁tuli	-7.65229
itä	-7.66262
ällä	-7.6724
me	-7.67284
van	-7.67361
▁maailman	-7.67387
sen	-7.6773
▁voimme	-7.67753
ro	-7.68253
▁ko	-7.68877
da	-7.68915
▁mitään	-7.6932
▁O	-7.69661
▁siihen	-7.70155
il	-7.70538
▁näi	-7.71026
it	-7.71392
▁asioi	-7.7144
massa	-7.73388
▁juuri	-7.73416
▁vielä	-7.73428
▁jälkeen	-7.73915
ttä	-7.7407
▁vaan	-7.74497
lu	-7.74585
ö	-7.7463
▁uusi	-7.75087
mista	-7.76481
▁käy	-7.7651
▁Aplod	-7.77212
nä	-7.77376
▁usko	-7.78959
▁minun	-7.79499
▁meill	-7.79562
▁ihmist	-7.79774
pi	-7.79809
1	-7.8017
ellä	-7.80692
apos	-7.80786
misen	-7.81382
kö	-7.815
kään	-7.82248
▁missä	-7.82541
pe	-7.82881
▁aikana	-7.83078
▁ihmisiä	-7.83759
▁näin	-7.84055
▁täytyy	-7.84344
lä	-7.84404
iden	-7.8468
▁sama	-7.85231
ttu	-7.85318
▁ennen	-7.86304
▁halua	-7.86515
een	-7.86817
▁ha	-7.86858
.	-7.87026
v	-7.87094
▁kuva	-7.87524
▁joten	-7.87549
▁siinä	-7.87652
malla	-7.87963
seen	-7.88226
▁iso	-7.88527
▁vuosi	-7.88528
▁Mi	-7.88715
man	-7.90026
▁tarvitse	-7.90173
de	-7.90296
oi	-7.90472
▁täysi	-7.91046
kseni	-7.9109
▁suuri	-7.91094
▁pitää	-7.91325
▁Tä	-7.91851
▁B	-7.92326
▁minä	-7.92547
essa	-7.92971
mä	-7.93088
ttava	-7.9369
▁tapahtuu	-7.9369
pu	-7.94176
min	-7.94596
▁E	-7.94727
▁sillä	-7.95041
▁väli	-7.95078
▁toimi	-7.95528
▁päivä	-7.95588
▁tei	-7.9603
▁ajan	-7.96216
▁tavalla	-7.96477
▁mukaan	-7.96914
▁kutsu	-7.97128
▁toise	-7.97292
iä	-7.97431
▁moni	-7.98021
kka	-7.9811
▁yhtä	-7.98119
ään	-7.98396
mise	-7.98717
▁ehkä	-7.98723
▁ma	-7.99199
▁aikaa	-7.99453
aan	-7.99535
sä	-7.99595
er	-7.99654
▁miksi	-7.99822
miseen	-7.9989
▁Ny	-8.00141
▁vähän	-8.00656
▁la	-8.0119
▁aika	-8.01257
▁takaisin	-8.01432
▁10	-8.01591
▁nähdä	-8.01609
▁saada	-8.01616
▁voisi	-8.02097
▁näyttää	-8.02155
▁ihmisi	-8.02199
▁tule	-8.02437
isen	-8.03476
teen	-8.03559
se	-8.03739
ve	-8.03787
▁tiedä	-8.04049
▁pois	-8.04067
or	-8.0423
tiin	-8.04295
▁voivat	-8.05226
▁katso	-8.05352
▁vaikka	-8.05359
▁sai	-8.0542
▁No	-8.05696
hin	-8.05898
▁sinu	-8.06019
▁alka	-8.06405
▁pieni	-8.07204
ho	-8.07256
▁olevan	-8.07829
▁siis	-8.07836
essä	-8.07841
▁kaiken	-8.08314
▁Jo	-8.08785
▁C	-8.09558
▁kertaa	-8.0989
▁maa	-8.09937
▁Olemme	-8.10081
j	-8.10211
kki	-8.10268
c	-8.10273
▁ka	-8.10699
▁olemassa	-8.10995
al	-8.1115
▁tutki	-8.11294
▁käyttää	-8.11801
sto	-8.1232
▁Yksi	-8.12617
▁jolla	-8.12771
▁kaiki	-8.12898
▁neljä	-8.13034
▁elämän	-8.13223
▁muutama	-8.13284
ne	-8.13691
▁jää	-8.14037
▁ra	-8.14205
es	-8.1425
▁pää	-8.14333
▁antaa	-8.14335
▁tunne	-8.14692
▁tähän	-8.14962
▁tapa	-8.15715
▁tarina	-8.15775
via	-8.15886
▁Koska	-8.16159
▁prosentti	-8.16323
ll	-8.1684
▁oikei	-8.17438
kei	-8.17971
▁olin	-8.17972
▁meille	-8.18433
ttaa	-8.19016
ee	-8.19433
▁K	-8.19521
mpi	-8.19534
ivat	-8.19558
▁maailma	-8.19829
ttiin	-8.20171
▁Minu	-8.20318
▁Nämä	-8.20705
▁tekevä	-8.2071
▁maailmassa	-8.2072
▁määrä	-8.2128
▁oma	-8.21719
▁tarkoitta	-8.22043
▁L	-8.22634
▁ettei	-8.2264
▁000	-8.22719
▁20	-8.22828
▁yhde	-8.23344
▁elämä	-8.2407
el	-8.24501
▁Itse	-8.24774
▁läpi	-8.24774
▁ongelma	-8.24925
han	-8.24974
▁te	-8.25074
▁ku	-8.25349
▁s	-8.25499
▁pitäisi	-8.25519
▁pysty	-8.25733
▁tällä	-8.26172
yhä	-8.2622
▁I	-8.26534
isin	-8.26693
▁Kaikki	-8.2688
▁siell	-8.27139
mo	-8.27192
imme	-8.27581
▁minulla	-8.27928
▁melko	-8.28296
▁p	-8.28536
▁syö	-8.29168
▁li	-8.29209
▁yhden	-8.29276
jo	-8.29616
▁J	-8.2979
▁käsi	-8.30148
utta	-8.30665
▁alkoi	-8.31208
ur	-8.31388
yt	-8.31627
▁meni	-8.31998
▁olet	-8.32456
▁ilman	-8.32543
▁kuka	-8.32614
▁k	-8.33069
▁muut	-8.33174
mis	-8.33267
▁työ	-8.3328
iksi	-8.33292
▁pu	-8.33321
▁meitä	-8.33696
f	-8.34033
▁vaikea	-8.34203
▁näitä	-8.34791
isia	-8.34921
op	-8.35375
▁kysymys	-8.35468
▁Meidän	-8.35733
▁no	-8.35786
set	-8.36148
▁tekee	-8.36509
▁Sitten	-8.36518
▁Mikä	-8.36932
vä	-8.36996
tö	-8.37283
▁ihan	-8.3731
▁Niin	-8.37645
▁Emme	-8.37654
▁...	-8.3808
▁muu	-8.38126
▁mahdollista	-8.38191
▁toinen	-8.38195
▁Al	-8.38396
▁tuleva	-8.38423
▁sähkö	-8.38483
▁oppi	-8.38562
tava	-8.38682
▁taha	-8.38893
▁pi	-8.39272
emme	-8.39661
▁Kuinka	-8.39671
▁pari	-8.39769
vaa	-8.4026
▁ase	-8.4106
neen	-8.41321
▁koulu	-8.41326
▁silloin	-8.41375
▁istu	-8.41547
▁hi	-8.41668
▁G	-8.41771
▁esimerki	-8.4211
enää	-8.42377
iin	-8.42477
uosionosoituksia	-8.42936
▁kyllä	-8.43027
kus	-8.43049
0	-8.4317
▁ymmärtää	-8.43421
▁kerto	-8.4352
▁Nii	-8.4364
▁miljardi	-8.43863
mu	-8.43875
▁sanoa	-8.4393
2	-8.4419
ys	-8.44469
he	-8.44659
mm	-8.44691
sten	-8.45064
▁seuraava	-8.45103
▁muuttaa	-8.45215
tus	-8.45299
▁lisää	-8.45369
▁päivänä	-8.45466
▁mennä	-8.45489
▁Va	-8.45692
▁hie	-8.45776
▁Sen	-8.45848
▁avu	-8.45926
issä	-8.4621
▁ympäri	-8.46274
▁Intia	-8.46483
▁aikaan	-8.46705
▁mone	-8.46763
teli	-8.46766
▁vastaan	-8.46918
▁mene	-8.46924
▁dollari	-8.47174
▁jott	-8.47178
▁erittä	-8.47334
▁ala	-8.4744
▁kirjoitta	-8.47562
▁ke	-8.47654
po	-8.4803
tään	-8.48093
▁vasta	-8.48245
▁tietää	-8.48248
▁muita	-8.4825
▁tunte	-8.48304
▁Olin	-8.48595
▁Mit	-8.48622
sesti	-8.48699
▁N	-8.48833
▁arvo	-8.48886
▁myöhem	-8.48928
▁näette	-8.49001
▁elä	-8.49003
▁F	-8.49133
▁Ku	-8.4925
▁asu	-8.49657
ot	-8.49685
▁Meill	-8.49717
▁M	-8.49772
▁kaikke	-8.49818
aivan	-8.49849
misesta	-8.50141
▁henkilö	-8.5018
▁pa	-8.50201
▁liitty	-8.50232
kan	-8.50281
oja	-8.50369
w	-8.50572
▁Haluan	-8.50767
▁ihmis	-8.51069
yn	-8.51246
▁ryhmä	-8.51314
lloin	-8.51513
▁tu	-8.51553
▁kertoa	-8.51586
▁piti	-8.51782
ly	-8.52128
▁kysy	-8.52219
▁kyse	-8.52261
▁lisä	-8.52411
▁uudelleen	-8.5252
▁ottaa	-8.52603
▁mistä	-8.52609
▁päästä	-8.52689
▁mu	-8.52764
▁kerro	-8.52823
▁miljoonaa	-8.53419
▁ero	-8.5345
▁Te	-8.53503
▁vai	-8.53594
os	-8.53974
▁sijaa	-8.54002
maa	-8.54014
▁30	-8.54163
▁re	-8.5427
▁hieno	-8.54438
▁käyttä	-8.54711
▁su	-8.54877
▁lapse	-8.54897
▁vaikutta	-8.55082
▁Siinä	-8.55337
▁Toin	-8.55427
▁Tuo	-8.55585
▁muuta	-8.55812
▁H	-8.5584
▁edes	-8.55896
▁200	-8.56243
▁samaa	-8.56285
mpaa	-8.56339
▁;	-8.56362
▁Voi	-8.56685
▁viime	-8.5726
▁kohtaa	-8.57283
▁auto	-8.57328
tetään	-8.57544
nti	-8.57716
oista	-8.57984
estä	-8.5825
▁aja	-8.58413
▁välillä	-8.58435
▁idea	-8.58509
▁keksi	-8.58719
▁toimii	-8.58769
▁syy	-8.59151
▁tänään	-8.59233
▁tulisi	-8.59818
ksia	-8.59821
ju	-8.59954
▁elämää	-8.60164
mma	-8.60231
▁teki	-8.60391
▁meidä	-8.60419
ilta	-8.60742
▁&#9	-8.61085
▁&#93;	-8.61085
▁taas	-8.61261
▁etsi	-8.61443
▁maailmaa	-8.6147
▁Minulla	-8.6159
uus	-8.62219
▁hu	-8.6225
▁50	-8.62329
▁sy	-8.62748
▁puoli	-8.62881
▁löytää	-8.63095
▁W	-8.63151
▁per	-8.63244
▁Ma	-8.6371
▁heitä	-8.63738
▁joiden	-8.63786
yy	-8.63827
▁kuvaa	-8.63887
jat	-8.64071
▁tärkeä	-8.64141
luvu	-8.64178
▁voima	-8.64181
tty	-8.64182
▁New	-8.64182
▁nopeasti	-8.64189
tel	-8.64216
ru	-8.64226
▁lu	-8.64242
▁Ka	-8.64271
▁tapahtui	-8.64424
▁tieto	-8.6468
▁lähes	-8.64721
▁et	-8.64747
▁hä	-8.64906
mässä	-8.65054
▁nimeltä	-8.65196
kk	-8.65337
▁15	-8.6542
▁sinä	-8.65591
▁tee	-8.6567
▁sanoo	-8.65718
mistä	-8.65838
ton	-8.65993
▁tapaa	-8.66096
▁tärkeää	-8.66163
▁yhteen	-8.66188
▁kuitenk	-8.662
▁kasvi	-8.66308
ettiin	-8.66418
▁D	-8.66523
kkaa	-8.6658
▁usei	-8.66893
▁ystävä	-8.67086
tuu	-8.67203
ksen	-8.67238
▁vähemmä	-8.67241
▁väärä	-8.67241
▁viisi	-8.67474
isesti	-8.67552
▁valtava	-8.67817
▁esi	-8.67915
▁nuo	-8.68061
▁rahaa	-8.6828
▁Afrika	-8.68671
▁ihmisen	-8.68841
▁tulo	-8.68963
▁matka	-8.691
▁ainoa	-8.69224
ng	-8.69289
▁minkä	-8.69419
▁Miks	-8.6947
A	-8.69491
▁tekemää	-8.69627
▁usein	-8.69747
eet	-8.6983
▁ainoastaa	-8.69871
▁muuttu	-8.69972
▁va	-8.70074
matta	-8.70123
▁laske	-8.70125
do	-8.70237
▁Tiedä	-8.70371
▁helppo	-8.70467
▁toivo	-8.70728
▁anta	-8.70987
▁ilma	-8.71171
▁ihmi	-8.71302
▁tapahtu	-8.71311
▁tuntu	-8.7136
lline	-8.71478
▁ki	-8.71486
▁asiaa	-8.7155
hän	-8.71891
▁liikku	-8.72037
▁aivo	-8.72233
▁Näin	-8.72237
▁suurin	-8.7244
▁Kut	-8.7248
ver	-8.72521
▁lopu	-8.72657
tettu	-8.72696
▁valo	-8.72922
▁yhteisö	-8.73402
8	-8.73406
▁tavoi	-8.73438
▁naise	-8.73538
▁tila	-8.73735
▁ajatella	-8.73823
usta	-8.73838
▁ympäristö	-8.73885
▁omi	-8.73949
hti	-8.73972
▁Jotk	-8.73983
▁video	-8.741
▁mies	-8.74234
uu	-8.74249
järjestelmä	-8.74265
▁kirja	-8.7427
▁joilla	-8.74305
▁luke	-8.74743
vo	-8.74755
kku	-8.74788
rin	-8.74931
▁CA	-8.74969
ker	-8.75018
5	-8.75092
▁Minä	-8.75112
▁kiinni	-8.75167
ky	-8.75207
▁monia	-8.75604
▁Voimme	-8.75819
uksen	-8.76039
▁mukana	-8.76154
▁pitkä	-8.763
▁kertoo	-8.76335
yr	-8.7636
▁selvi	-8.76548
▁al	-8.7659
▁käytä	-8.76956
mpia	-8.77183
lleen	-8.77206
isiin	-8.77236
▁huomaa	-8.7725
▁esimerkki	-8.77253
▁maan	-8.77285
mia	-8.77344
▁ro	-8.77416
▁tehtävä	-8.77437
llaan	-8.77464
tko	-8.77504
O	-8.77557
▁kasva	-8.77574
▁piene	-8.77635
ter	-8.77651
▁koke	-8.78018
▁100	-8.78071
▁teistä	-8.78155
mmä	-8.78272
▁vaati	-8.78436
▁aio	-8.78492
▁voidaan	-8.78535
▁taki	-8.78617
▁liian	-8.7883
iset	-8.78834
▁huono	-8.7909
oma	-8.79114
▁3	-8.792
▁tulla	-8.79381
▁Ha	-8.79541
sk	-8.79603
▁Ehkä	-8.79617
▁ulos	-8.79628
▁sisällä	-8.79721
▁kautta	-8.79739
▁luoda	-8.79786
▁toisen	-8.79882
▁ääne	-8.80137
▁josta	-8.80215
tettiin	-8.80754
tetaan	-8.81257
▁alu	-8.8128
▁huomio	-8.8142
▁alas	-8.81773
oita	-8.81833
▁johon	-8.82055
osa	-8.82139
▁pala	-8.82208
vasti	-8.82354
mman	-8.82568
siin	-8.82658
▁malli	-8.8269
▁vie	-8.83177
▁tietenk	-8.83296
▁halusi	-8.83541
3	-8.83712
▁oleva	-8.83882
▁muutta	-8.83914
siä	-8.84076
▁Y	-8.84079
▁ulko	-8.84214
▁kulu	-8.84439
elle	-8.84463
▁La	-8.84631
▁joista	-8.8482
▁Joka	-8.85308
▁Ke	-8.85335
ge	-8.85719
▁kerran	-8.85791
kas	-8.85857
ön	-8.85894
vettä	-8.86016
▁Tai	-8.86368
▁Ko	-8.86368
▁tien	-8.8644
▁auttaa	-8.86561
▁raha	-8.86709
▁ensimmäisen	-8.86936
▁minusta	-8.87034
staan	-8.87109
▁muista	-8.87192
dy	-8.87465
▁teill	-8.87806
uksia	-8.87984
▁ensimmäi	-8.88016
▁teemme	-8.88031
vel	-8.88088
▁val	-8.88164
▁vanha	-8.88337
▁laji	-8.88344
9	-8.88973
mmat	-8.89023
▁aiheutta	-8.8913
▁Onko	-8.89246
▁po	-8.89249
aika	-8.89306
▁jokaise	-8.8933
▁vi	-8.89347
▁haluavat	-8.89368
▁Vuo	-8.8938
▁osaa	-8.89582
▁so	-8.89593
▁silti	-8.89688
▁nime	-8.8999
▁kertoi	-8.90064
▁puu	-8.90077
▁Ra	-8.90185
▁pääse	-8.90217
▁Maa	-8.90332
essani	-8.90338
tys	-8.90355
simme	-8.90574
ivät	-8.90842
▁odotta	-8.91022
▁edelleen	-8.91027
▁suure	-8.91338
▁sivu	-8.91457
teitä	-8.91464
S	-8.91683
tyy	-8.9173
um	-8.9176
ttele	-8.91831
▁ratkaisu	-8.92089
viä	-8.92204
▁Su	-8.92298
▁epä	-8.92306
▁Tämän	-8.92363
▁tapauksessa	-8.92381
▁aiemmin	-8.92416
tila	-8.92481
▁perus	-8.92497
▁uutta	-8.92946
▁pysy	-8.93104
▁vesi	-8.9322
▁yksinkertai	-8.93282
▁kar	-8.93548
ttua	-8.93678
▁ylös	-8.93742
▁par	-8.9381
▁oikeastaan	-8.93812
▁totta	-8.94145
esti	-8.94153
▁tiedämme	-8.94188
▁kahden	-8.94323
▁ot	-8.94429
aali	-8.94464
4	-8.94483
tun	-8.94626
ch	-8.94844
▁Oli	-8.95012
ken	-8.95083
▁myy	-8.95152
▁kävi	-8.95152
▁mihin	-8.95195
▁ajatus	-8.9528
▁työn	-8.95315
▁paremmin	-8.95433
▁sana	-8.95457
7	-8.95887
M	-8.95982
sivat	-8.95984
▁paikka	-8.96052
▁Näi	-8.96055
▁energia	-8.96136
▁U	-8.96197
▁hullu	-8.9654
▁nykyään	-8.9657
ep	-8.96635
▁keho	-8.96706
▁Mu	-8.96716
▁Vai	-8.96735
essaan	-8.96833
▁TED	-8.96899
▁tietoa	-8.96911
vuotias	-8.97092
var	-8.97157
tää	-8.97165
▁muoto	-8.97536
▁lain	-8.97832
▁mieltä	-8.97992
ttävä	-8.97996
eltä	-8.98029
ul	-8.98033
▁silmä	-8.98158
▁f	-8.98195
▁lapsi	-8.9848
▁kaike	-8.98686
▁muutos	-8.98718
uh	-8.98721
isten	-8.98769
ejä	-8.98845
▁esittä	-8.98991
uutta	-8.99001
lei	-8.9902
▁saattaa	-8.99138
alais	-8.99311
kuva	-8.99388
▁tuhansi	-8.99418
▁yhteistyö	-8.99419
▁OK	-8.99453
▁tehnyt	-8.99466
▁kuvan	-8.99633
▁ajattele	-8.99635
▁elämässä	-8.9976
▁hyvi	-8.99788
▁ve	-8.99924
▁oman	-9.00016
▁prosessi	-9.00151
▁joissa	-9.00317
▁Sanoi	-9.00508
iten	-9.00728
▁ymmärrä	-9.00888
▁olleet	-9.00888
▁parempi	-9.00898
▁pikku	-9.00909
▁lopulta	-9.01069
▁näemme	-9.01333
▁Uskon	-9.01356
päin	-9.01631
tele	-9.01689
osi	-9.01695
▁hetkell	-9.01965
mällä	-9.02364
▁ymmärtä	-9.02404
▁ilmasto	-9.02422
▁alle	-9.02436
▁tunti	-9.02438
▁kala	-9.0258
▁alla	-9.02956
du	-9.0322
▁m	-9.03431
▁Kuka	-9.03673
ikinä	-9.0388
▁Kyllä	-9.03896
▁muovi	-9.03897
▁kaikkia	-9.04045
▁ääni	-9.04113
▁Ensimmäi	-9.04125
▁heidät	-9.04214
▁hetki	-9.04218
ssani	-9.04257
▁ky	-9.04453
▁mai	-9.04489
▁kasvu	-9.04536
I	-9.04922
▁pitä	-9.05128
▁mielestä	-9.05221
▁näkö	-9.05432
▁Hyvä	-9.05436
▁kuoli	-9.0545
▁elokuva	-9.05475
▁Kiina	-9.05482
▁tuon	-9.05579
kää	-9.05747
▁Mone	-9.05823
eista	-9.05844
▁itseä	-9.0586
ettu	-9.0624
▁pystyi	-9.06241
▁Viime	-9.06372
▁Lo	-9.06556
▁jokainen	-9.06608
kir	-9.06648
▁kirjan	-9.06735
bo	-9.06996
▁mahtava	-9.07004
▁isä	-9.07015
▁äiti	-9.0702
▁kehitykse	-9.07033
▁Sama	-9.07071
▁lii	-9.07153
ssään	-9.07285
▁Olet	-9.07337
näistä	-9.07465
▁har	-9.07508
▁hy	-9.07541
▁anna	-9.07558
mus	-9.07606
nes	-9.07716
▁sain	-9.07831
▁uuden	-9.08065
▁onko	-9.08305
▁var	-9.08528
▁Toise	-9.08536
▁numero	-9.08584
▁monta	-9.086
▁Ve	-9.08685
▁muiden	-9.08709
▁eli	-9.08758
▁viikko	-9.0878
▁kaveri	-9.08803
▁liha	-9.08858
▁kuvitella	-9.08978
▁teidän	-9.0903
▁kuusi	-9.09047
▁moraali	-9.09063
▁sanoin	-9.09351
▁maksa	-9.09414
▁Ju	-9.09463
voima	-9.09789
6	-9.10095
eksi	-9.10188
▁tarkoita	-9.10203
▁leikki	-9.10234
▁Mielestä	-9.10237
▁kovin	-9.10259
vin	-9.104
▁40	-9.1046
▁päässä	-9.10565
▁erilaisi	-9.10576
▁Ihmise	-9.10598
tui	-9.10626
▁koe	-9.10718
iltä	-9.11068
vän	-9.11092
seksi	-9.111
▁haluamme	-9.11154
▁ol	-9.11208
▁valtio	-9.11414
▁tekemä	-9.11474
▁otta	-9.11694
▁väärin	-9.11848
▁terve	-9.11851
▁osan	-9.11874
▁kii	-9.11923
▁tehty	-9.11939
▁nyky	-9.12111
▁Maan	-9.12405
vien	-9.12564
▁Et	-9.13033
▁Ki	-9.13046
ori	-9.13065
▁asti	-9.13093
▁suoraa	-9.13095
toja	-9.1311
▁saman	-9.13197
ok	-9.13281
▁helpo	-9.13342
aste	-9.13472
▁väri	-9.13509
▁osallistu	-9.13517
istu	-9.13537
▁tarpeeksi	-9.13767
ttää	-9.13768
▁materiaali	-9.13941
▁ensimmäise	-9.13973
▁Sai	-9.14043
▁luonnon	-9.14168
▁pienen	-9.14437
▁Ro	-9.14593
▁ruoka	-9.14807
D	-9.14869
▁koti	-9.14993
▁j	-9.15013
▁tehnee	-9.15083
▁eikö	-9.15152
▁hyväksy	-9.15206
arvo	-9.1525
▁kuule	-9.15266
▁kohti	-9.15274
▁raja	-9.15277
▁meri	-9.15287
▁12	-9.15287
▁loi	-9.15304
▁Entä	-9.15428
▁muutokse	-9.15477
oitu	-9.15608
▁paino	-9.15723
udu	-9.15839
▁ruokaa	-9.15905
▁voin	-9.15913
▁tutkimus	-9.16162
▁sisä	-9.16401
▁vastaus	-9.16458
▁keski	-9.16568
iti	-9.16582
▁tiesi	-9.16582
▁taso	-9.1684
▁Jumala	-9.16922
▁silmi	-9.16928
▁Heidä	-9.16956
▁elää	-9.16974
▁nuori	-9.17202
▁hänelle	-9.17251
▁tänä	-9.17532
▁toista	-9.17586
▁uskon	-9.17716
▁ensi	-9.1775
▁miehe	-9.18027
▁ette	-9.18174
▁Le	-9.18218
▁autta	-9.1825
▁olette	-9.1828
▁juo	-9.18562
▁vir	-9.18614
▁täynnä	-9.18676
▁omaa	-9.18727
▁18	-9.18754
▁kuvia	-9.18806
▁siirty	-9.18855
▁Eli	-9.18875
▁tekivät	-9.18926
▁projekti	-9.19027
▁V	-9.19183
▁kaikill	-9.19185
per	-9.19193
▁kulttuuri	-9.1936
▁oppia	-9.19416
▁loppu	-9.19725
▁kirjoit	-9.19738
▁rakasta	-9.19801
▁luki	-9.19803
▁vastaa	-9.19838
▁Kiito	-9.19964
uuden	-9.19967
▁kyky	-9.20018
▁asioista	-9.20019
▁vei	-9.20113
▁saisi	-9.20113
ansa	-9.2027
▁solu	-9.20461
▁Google	-9.20462
▁universumi	-9.20462
▁selittää	-9.20462
▁varten	-9.20548
▁kaupunki	-9.20671
▁juttu	-9.20694
▁ilo	-9.2075
▁keskustelu	-9.20782
▁valmis	-9.20798
▁yö	-9.20841
▁Voisi	-9.20857
▁tietävä	-9.20907
isti	-9.20956
▁vuodessa	-9.21103
▁Amerika	-9.21309
▁erilai	-9.21555
▁pian	-9.21695
kohta	-9.22057
▁nimi	-9.22208
▁paremma	-9.22282
▁asian	-9.22341
▁lasten	-9.22347
▁kuukau	-9.22375
▁todellisuude	-9.22406
nnut	-9.22407
▁metri	-9.2243
mmin	-9.2246
ella	-9.22645
▁hoito	-9.22653
taisiin	-9.23003
▁käyttävä	-9.23004
isiä	-9.23471
siltä	-9.23588
▁teen	-9.23645
▁tosi	-9.23773
▁järjestelmä	-9.23782
▁erityisest	-9.2389
K	-9.23944
▁pan	-9.23948
▁kasvaa	-9.23959
N	-9.23965
▁USA	-9.24132
▁öljy	-9.24132
▁antoi	-9.24135
etaan	-9.24207
ien	-9.24349
tuksen	-9.24361
llise	-9.24362
▁kaunis	-9.24405
▁käde	-9.24509
empi	-9.24579
▁evoluutio	-9.24591
00	-9.24852
▁yrittä	-9.24954
ologi	-9.25022
▁päivän	-9.2519
▁pidä	-9.25332
▁perustu	-9.25335
▁olo	-9.25388
kel	-9.25563
▁tiety	-9.25572
▁planeeta	-9.2568
▁keino	-9.25751
▁nosta	-9.258
ojen	-9.25879
eita	-9.25902
▁tuolla	-9.25946
▁Seuraava	-9.26018
▁työskentele	-9.26018
▁näkee	-9.26019
▁tullut	-9.26019
▁talous	-9.26042
▁kuulu	-9.26096
▁vaihee	-9.26113
▁käte	-9.26165
llisen	-9.26214
llisesti	-9.26417
▁kysyi	-9.2662
uri	-9.26703
▁miltä	-9.26854
▁Po	-9.26875
len	-9.26927
▁kasvatta	-9.27042
menee	-9.27121
▁saavat	-9.27163
▁paras	-9.27281
▁yhteyde	-9.27297
lleni	-9.27403
▁Hei	-9.27577
▁pur	-9.27581
tunut	-9.27687
▁talo	-9.27818
od	-9.279
etään	-9.27913
oin	-9.27938
▁nauru	-9.27942
▁viha	-9.27985
▁Vaikka	-9.27991
▁tapahtuma	-9.28007
▁seuraa	-9.2809
▁kerta	-9.28196
isivat	-9.28297
▁tilantee	-9.28447
▁valta	-9.28517
▁miljoona	-9.28529
▁päivää	-9.28888
▁sinun	-9.28932
▁tunni	-9.28981
▁kuukaude	-9.2903
▁luku	-9.29323
▁vuode	-9.29404
▁tulokse	-9.29405
ensä	-9.29407
▁lähte	-9.29449
▁näyt	-9.29462
ssaan	-9.2947
▁puole	-9.29619
yys	-9.29648
tävä	-9.29651
▁aloin	-9.29662
▁suur	-9.29827
▁alku	-9.29842
T	-9.29861
▁ehdot	-9.299
▁Esimerki	-9.29902
▁vara	-9.30129
▁eläime	-9.30199
ppi	-9.30251
▁kuuluu	-9.3027
miin	-9.30281
pö	-9.30319
▁voitte	-9.30359
▁seuraavan	-9.30478
▁Mo	-9.30587
▁samall	-9.3071
kko	-9.30866
▁Pi	-9.30873
▁pelkästä	-9.3102
▁Saa	-9.31091
▁tarinan	-9.31109
määrä	-9.31117
▁alue	-9.31368
▁keskell	-9.31399
▁kiinnostu	-9.31445
▁seitsemän	-9.31511
▁4	-9.31599
isimme	-9.31661
my	-9.31679
tiivi	-9.31814
vää	-9.31892
E	-9.31903
▁16	-9.31985
▁minuuti	-9.32049
▁tuke	-9.32098
toa	-9.32108
▁henki	-9.32226
▁kauan	-9.323
▁ru	-9.32354
▁todelli	-9.32356
▁elin	-9.32358
▁edessä	-9.32401
▁metsä	-9.32425
▁mahdollisuu	-9.32456
▁pol	-9.32489
iste	-9.32499
▁halu	-9.32545
▁itsensä	-9.32553
▁mielestän	-9.32555
▁varmaan	-9.32559
▁tällaisi	-9.32653
▁teoria	-9.32668
▁vähen	-9.32753
▁veden	-9.32949
▁teknologia	-9.32957
son	-9.32974
▁luonto	-9.33006
▁perhe	-9.33064
▁menettä	-9.33066
▁R	-9.33197
▁5	-9.33467
▁koo	-9.33572
▁tein	-9.33737
ing	-9.33741
▁simpanssi	-9.33943
▁normaali	-9.33945
▁verra	-9.33956
▁Katsokaa	-9.33993
▁varmasti	-9.34082
ensa	-9.34087
▁yliopisto	-9.34097
▁Puhu	-9.34112
▁tietysti	-9.3416
luvull	-9.34267
▁saatta	-9.34276
▁mielessä	-9.34411
▁ar	-9.34445
▁ilta	-9.34464
▁ensimmäistä	-9.34472
▁80	-9.34561
uuteen	-9.34562
▁Anna	-9.34614
▁arvioi	-9.34744
▁yrittää	-9.34908
▁osoitta	-9.3503
▁voisimme	-9.35044
▁suuren	-9.35176
▁kanta	-9.35493
▁vii	-9.35527
▁menesty	-9.3558
▁korkea	-9.3578
▁kokona	-9.35802
▁pel	-9.35804
▁pääti	-9.35839
▁nouse	-9.35839
▁tiedätte	-9.35929
timme	-9.35981
▁elävä	-9.35987
▁teh	-9.35992
jia	-9.3602
▁ennusta	-9.36033
▁lähi	-9.36047
▁rakentaa	-9.36107
C	-9.36123
▁luule	-9.36144
▁näytti	-9.36191
▁syvä	-9.36211
▁ympärillä	-9.36395
eli	-9.36633
yttä	-9.36662
▁epäonnistu	-9.3669
▁vahva	-9.36909
▁ilme	-9.37179
▁parhai	-9.37335
▁riippu	-9.37357
ard	-9.37458
▁puuttu	-9.37797
▁lait	-9.37801
▁paha	-9.38091
▁Kuvitelkaa	-9.38154
▁fosfori	-9.38154
▁globaali	-9.38154
▁nähnyt	-9.38154
▁yleensä	-9.38161
▁mennessä	-9.38162
▁muodostu	-9.38165
▁Lu	-9.38166
P	-9.38285
▁selvästi	-9.38298
▁verkko	-9.38321
neita	-9.38389
▁tuottaa	-9.38424
▁sala	-9.38451
▁maata	-9.38541
▁perhee	-9.38541
▁toi	-9.38576
▁kuole	-9.3858
kal	-9.38794
▁osta	-9.39018
▁eteenpä	-9.39089
▁ota	-9.39181
laiset	-9.3934
▁onnistu	-9.39357
misestä	-9.39412
▁haluaa	-9.39445
▁toiminta	-9.3953
▁lapsia	-9.39539
▁Vi	-9.39634
▁lopet	-9.39635
ry	-9.39861
▁perusta	-9.39887
▁lapsen	-9.39895
▁yleis	-9.39936
▁puolesta	-9.39971
llisia	-9.39973
▁kehitys	-9.39989
imi	-9.40065
▁Etelä	-9.40324
▁BKT	-9.40328
▁intohimo	-9.40328
▁miljooni	-9.40328
▁Yhdysvalloissa	-9.40331
▁kuolema	-9.40341
▁toisin	-9.40395
▁laittaa	-9.40432
▁takana	-9.40458
▁nuore	-9.40472
▁Re	-9.40667
▁tuota	-9.40724
▁maassa	-9.40751
▁hyönteisi	-9.40753
▁poika	-9.4095
▁tärkei	-9.41016
▁ulkopuolell	-9.41022
▁Hi	-9.41038
▁tunnista	-9.41085
tar	-9.41107
▁2	-9.41125
▁eläin	-9.41232
▁kuvi	-9.41278
▁Kaksi	-9.41348
▁maailmaan	-9.41442
▁koske	-9.41488
▁mietti	-9.41662
▁kone	-9.41761
stään	-9.41901
emmin	-9.42021
▁sin	-9.42128
stani	-9.42267
maton	-9.42299
▁Käy	-9.42312
▁muun	-9.42383
▁olisivat	-9.42423
▁bio	-9.42543
▁Ajatteli	-9.4255
▁sydäme	-9.4255
▁hauska	-9.42556
▁kieltä	-9.42574
▁päte	-9.42591
▁seiso	-9.42607
▁energiaa	-9.42684
ff	-9.42737
R	-9.42805
▁työtä	-9.42888
▁sata	-9.42917
▁haaste	-9.42983
▁liike	-9.43247
tettava	-9.43332
▁pitävä	-9.43509
▁kivi	-9.43521
▁yleisö	-9.43551
▁minuuttia	-9.43551
▁Tu	-9.43638
▁virhe	-9.43686
▁kuu	-9.4371
▁etu	-9.43719
▁tiede	-9.44115
▁kaikkiall	-9.44248
▁lisäänty	-9.44339
▁yhteis	-9.44377
▁Bo	-9.4456
det	-9.44629
▁kahdeksan	-9.44771
ide	-9.44798
▁aurinko	-9.44819
▁ba	-9.44822
▁koira	-9.44827
▁11	-9.44827
▁ollessa	-9.44829
▁aamu	-9.4483
▁kuvittele	-9.44839
▁Lopu	-9.44877
▁Silloin	-9.44958
▁naisi	-9.4498
osta	-9.45062
▁mahdollisi	-9.45263
▁mielenkiintoi	-9.45276
▁yksilö	-9.45327
▁ryhmi	-9.45374
▁kan	-9.45434
pal	-9.45478
▁ajattelin	-9.45503
▁Co	-9.45551
▁musta	-9.45588
▁Eikä	-9.45596
▁sosiaalise	-9.45772
tusta	-9.45864
▁puolella	-9.45865
▁Yorki	-9.46028
▁kokonais	-9.46051
▁saavut	-9.46068
▁maissa	-9.46179
eri	-9.46197
▁vali	-9.46202
kset	-9.46231
▁vaihtoehto	-9.46291
▁Val	-9.46367
▁selviä	-9.4664
▁aloi	-9.46662
▁jät	-9.47056
▁aivojen	-9.4714
▁vaimo	-9.47216
▁kenti	-9.47228
▁kuuli	-9.47261
▁201	-9.47293
▁yritykse	-9.47353
val	-9.47386
▁onnelli	-9.47434
ppu	-9.47456
▁Käytä	-9.47505
▁opettaja	-9.47686
llisi	-9.47698
▁Vie	-9.47724
▁verta	-9.47728
▁oh	-9.47778
▁mittaa	-9.47806
ettava	-9.47915
▁syystä	-9.47967
▁huija	-9.48032
▁Na	-9.48084
▁Ho	-9.48415
▁Sii	-9.48462
▁tuho	-9.4851
▁tot	-9.48691
▁kaupungi	-9.4892
▁toimia	-9.49021
▁puhui	-9.49063
▁Luo	-9.49096
▁Suuri	-9.49317
▁kasvo	-9.494
▁Yleisö	-9.4953
▁oksitosiini	-9.4953
▁kävele	-9.4953
ole	-9.49552
▁paina	-9.49612
▁päälle	-9.49626
mer	-9.49638
▁lähellä	-9.49652
▁keskitty	-9.49781
▁maailmasta	-9.49827
▁sisään	-9.49909
▁sanotaan	-9.49987
esi	-9.50055
em	-9.50083
▁muuten	-9.50255
▁kier	-9.50376
▁pelasta	-9.50444
▁eläimiä	-9.50583
▁mahdollisuude	-9.50614
▁viestin	-9.50691
▁hyvää	-9.50716
▁muodo	-9.50758
piir	-9.51128
▁Siis	-9.51168
▁viesti	-9.51218
▁Ensimmäise	-9.51599
oihin	-9.51791
▁pääsi	-9.51818
▁elämästä	-9.51843
G	-9.51907
▁25	-9.51964
▁merkittävä	-9.51974
▁koostu	-9.5199
▁verrattu	-9.52025
▁jatkuvasti	-9.52071
▁Toisin	-9.52185
sesta	-9.52218
▁uutisi	-9.52322
telu	-9.52373
▁soit	-9.52469
▁taju	-9.52491
▁jonkun	-9.5253
▁Halusi	-9.52567
laatu	-9.52594
▁tie	-9.52809
▁teknologiaa	-9.52965
▁mere	-9.52972
▁tiedon	-9.53043
▁kieli	-9.53045
▁näe	-9.53071
▁tasolla	-9.53198
eiden	-9.53238
▁aivot	-9.53289
▁johta	-9.53321
▁kotiin	-9.53342
▁elämään	-9.5343
▁opi	-9.53471
▁johtaja	-9.53562
kunna	-9.53748
▁saanut	-9.5376
▁sellai	-9.53779
▁kaunii	-9.53792
▁pohja	-9.53838
▁Aloi	-9.53843
▁valita	-9.53925
ikke	-9.53972
▁ikään	-9.54051
▁parissa	-9.54113
tetty	-9.54291
▁tarvi	-9.54314
▁Katso	-9.54343
▁jäljell	-9.54397
▁kokee	-9.54427
huolimatt	-9.54428
▁pah	-9.54447
▁Toivo	-9.54458
▁hankala	-9.54469
▁väittä	-9.54469
▁14	-9.5447
▁Maailma	-9.54471
▁sekunni	-9.54471
▁Siihen	-9.54472
▁lämpötila	-9.54477
▁pohti	-9.54501
▁lento	-9.54503
▁seura	-9.54503
▁melkein	-9.54506
ark	-9.5455
ettävä	-9.54552
▁syntyy	-9.54647
▁täydelli	-9.54755
▁viide	-9.54884
▁kasvoi	-9.54982
▁jättää	-9.55044
▁lasi	-9.55202
lje	-9.5528
▁suhteen	-9.55307
▁tietty	-9.55353
▁satoj	-9.55371
▁voisin	-9.55412
▁jatkaa	-9.55544
▁teimme	-9.55574
▁synty	-9.55716
▁löysi	-9.55738
▁pitkää	-9.55856
ttelu	-9.55911
▁tarpee	-9.55942
vuotiaan	-9.55978
▁energian	-9.56065
▁kur	-9.56165
▁uskoa	-9.56313
▁puhe	-9.56365
▁kahde	-9.56456
ster	-9.56518
▁ongelmia	-9.5655
▁6	-9.56554
▁di	-9.56568
▁pääty	-9.56618
▁kehittä	-9.56734
koulu	-9.56738
▁vede	-9.56773
▁da	-9.56822
▁jatka	-9.56834
kkee	-9.56914
▁köyhi	-9.5702
häiriö	-9.57033
▁Pohjois	-9.57033
▁Video	-9.57033
▁prosenti	-9.57033
▁Taputu	-9.57033
▁pyysi	-9.57036
▁pimeä	-9.5704
▁rauha	-9.57042
▁elo	-9.57081
▁Ru	-9.57113
▁löyd	-9.57133
▁tietoisuuden	-9.57148
▁luulta	-9.57164
▁tavoittee	-9.57308
▁suoja	-9.57328
▁ohi	-9.57331
▁toiste	-9.57348
▁suu	-9.57395
puoli	-9.57505
▁katsoi	-9.57843
din	-9.57997
tune	-9.58047
▁muodosta	-9.58209
aatio	-9.58291
▁ihmise	-9.58649
▁turva	-9.58655
▁neuro	-9.58714
▁tutkimuksen	-9.58719
▁tilaa	-9.58745
▁osoittaa	-9.5875
▁taka	-9.5882
▁7	-9.58854
ttoma	-9.5891
lkää	-9.58911
oli	-9.59018
▁jonkin	-9.59042
vista	-9.59074
▁kärsi	-9.59123
tuksi	-9.59256
dessa	-9.59337
sivät	-9.5937
tynyt	-9.59659
▁ratkaista	-9.59664
▁stressi	-9.59664
▁unelma	-9.59664
yd	-9.59676
▁kysyä	-9.59688
▁riski	-9.59689
▁Tutki	-9.59698
lehde	-9.59717
▁ilmiö	-9.59764
▁tekisi	-9.59785
▁tietokone	-9.59825
▁pitki	-9.5987
▁ajatukse	-9.59883
▁haluaisin	-9.59928
huone	-9.5996
▁hiili	-9.59994
masta	-9.6002
▁todennäköisest	-9.60055
▁käytti	-9.60136
▁itselle	-9.60152
▁etten	-9.60153
▁otti	-9.60243
mpää	-9.60289
sessa	-9.60416
▁paine	-9.60769
▁mieli	-9.60778
▁kuude	-9.60863
▁Hu	-9.6088
▁tyyppi	-9.60977
▁näyttävä	-9.61028
▁teksti	-9.61132
tua	-9.6118
logi	-9.61188
iv	-9.6151
▁vastaava	-9.616
ad	-9.61775
▁keske	-9.61794
▁kasv	-9.62023
▁käytännö	-9.62229
▁mehiläis	-9.62235
▁60	-9.62307
▁reagoi	-9.62367
▁upea	-9.62369
▁eräs	-9.62373
▁Nykyään	-9.62383
▁selvittää	-9.62393
▁Muutama	-9.62398
▁uskomattoma	-9.62405
▁töitä	-9.62411
▁Voit	-9.6247
▁näkyy	-9.62491
▁Tule	-9.62491
ven	-9.62571
sempi	-9.62596
▁määrää	-9.62757
▁määri	-9.6278
valta	-9.62834
▁mo	-9.62963
▁kaikenlaisi	-9.62975
kyky	-9.63103
▁yrit	-9.63123
maailma	-9.63128
▁kau	-9.63305
▁tarinoita	-9.63336
▁lähe	-9.63343
▁johtaa	-9.63404
▁nopea	-9.63406
▁näki	-9.63409
▁jakaa	-9.6345
▁viit	-9.63529
▁sellaista	-9.63691
▁opetta	-9.63875
▁hetke	-9.64025
elli	-9.64027
▁taloude	-9.64098
▁mielen	-9.64137
▁Yhdysvalt	-9.6417
▁maapallo	-9.64245
▁Usko	-9.64253
▁Useimm	-9.64288
▁tärkein	-9.64303
ykse	-9.64453
don	-9.64474
ajan	-9.64554
ukset	-9.64728
▁käyttö	-9.64822
▁katsoa	-9.64869
▁luu	-9.65011
llista	-9.65023
▁tasa	-9.65037
▁Mar	-9.65057
▁kysymyksen	-9.65058
▁sukupolve	-9.65145
▁vihreä	-9.65145
▁matkusta	-9.65145
▁Lapse	-9.65146
▁täytyi	-9.65148
▁paperi	-9.65149
▁hankki	-9.65154
▁tavara	-9.65154
▁Myö	-9.65164
▁valokuva	-9.6518
▁Japani	-9.65181
▁kolmanne	-9.65209
▁toisia	-9.6524
▁De	-9.65241
▁löytyy	-9.65266
▁viimeise	-9.65281
▁kirjoitti	-9.6536
▁kokeen	-9.65368
▁rakenne	-9.65398
▁tunsi	-9.65427
▁por	-9.65449
▁aluee	-9.65472
▁menevä	-9.65473
▁Eikö	-9.65519
▁tulevaisuude	-9.65521
▁viettä	-9.65531
▁Euroopa	-9.65588
eitä	-9.65598
▁kestävä	-9.65775
▁näyttä	-9.65934
▁miehi	-9.66072
kuun	-9.66136
▁suuntaan	-9.66367
▁ajatteli	-9.66483
▁viimeisen	-9.66486
▁Br	-9.66796
▁tuntee	-9.66846
tori	-9.66874
▁tutkija	-9.6691
imen	-9.67017
▁tyttö	-9.67183
▁teidä	-9.67218
▁jonkinlai	-9.67256
▁kehitty	-9.67291
▁väestö	-9.67388
päivä	-9.67434
▁muka	-9.67495
▁El	-9.67585
▁järjest	-9.67659
▁pal	-9.6771
▁katoa	-9.67723
▁Tänä	-9.67862
▁vapautta	-9.68002
▁Chris	-9.68002
▁naura	-9.68002
▁milloin	-9.68006
▁versio	-9.68014
▁molemm	-9.68014
▁salli	-9.68023
▁kirjaimellise	-9.68027
▁LG	-9.68035
▁tarvitaan	-9.68075
▁jne	-9.6808
▁valitse	-9.68113
▁liiku	-9.68121
▁näkemään	-9.68171
▁Var	-9.68172
▁Mies	-9.682
▁suurempi	-9.68218
▁sää	-9.68247
▁avaa	-9.68285
▁tilanne	-9.6831
▁planeettamme	-9.68315
▁Menin	-9.68336
▁mieti	-9.68381
▁käynyt	-9.68484
▁tietokonee	-9.68576
▁hyödy	-9.6883
▁Muut	-9.68933
▁pystyy	-9.69039
▁kova	-9.69091
▁vaikuttavat	-9.6912
▁ratkaise	-9.69154
▁konee	-9.69246
▁merkki	-9.69289
eilla	-9.69382
▁mitata	-9.69475
▁taakse	-9.69652
▁kannattaa	-9.69686
▁kilometri	-9.6971
▁eläimi	-9.69764
▁Mene	-9.69778
ryhmä	-9.69847
▁puheen	-9.70098
▁aiko	-9.70104
ointi	-9.70113
▁Kolme	-9.70128
▁Ai	-9.70234
tejä	-9.70303
kaise	-9.70317
uuri	-9.70464
▁sanon	-9.7047
mättä	-9.705
▁varma	-9.70551
▁Sano	-9.70638
▁kestä	-9.70681
koon	-9.70736
voi	-9.70762
▁selvä	-9.70788
▁aloittaa	-9.70788
ikko	-9.70789
▁ydin	-9.7088
▁pyrki	-9.70938
▁suunni	-9.70938
▁irti	-9.70944
▁parhaa	-9.70946
▁harjoit	-9.70949
▁syödä	-9.70951
vir	-9.7101
▁ver	-9.71109
▁saavuttaa	-9.71133
▁nähneet	-9.71137
▁monimutkai	-9.71182
▁toisii	-9.71218
▁vaikutus	-9.71223
▁haluat	-9.7125
▁riittävä	-9.71367
▁kehit	-9.71381
▁Olette	-9.71448
▁tavan	-9.71466
mattoma	-9.71533
▁taistelu	-9.71539
alue	-9.71544
▁piste	-9.71582
▁yhdistää	-9.71644
idi	-9.71648
▁Luulen	-9.71671
▁Pe	-9.71693
▁filosofi	-9.7176
▁Pää	-9.71832
▁Moni	-9.71921
▁yllä	-9.71967
▁hallitukse	-9.72036
▁kylä	-9.72049
▁yhtiö	-9.72096
▁rakent	-9.72126
isto	-9.72195
▁kuukausi	-9.7225
▁opin	-9.72363
▁tieteelli	-9.72379
▁apua	-9.724
▁jäi	-9.7265
▁tieteen	-9.72666
▁omista	-9.72749
▁joutu	-9.72784
▁ostaa	-9.72858
ppaa	-9.72924
fo	-9.72964
▁miehen	-9.73371
lma	-9.73389
▁hahmo	-9.73417
täjä	-9.73615
ill	-9.73616
▁tappa	-9.73634
co	-9.73681
ed	-9.73732
laisia	-9.73783
▁perusteell	-9.73804
▁kuull	-9.73811
▁tarkka	-9.73906
▁sanoisi	-9.73927
▁tietoisuu	-9.7396
▁hanhenmaksa	-9.73973
▁lähde	-9.73973
▁ideoita	-9.73974
▁hyöty	-9.73974
▁jälleen	-9.73978
▁Meksiko	-9.73985
▁suunnittele	-9.73991
▁ihmiskunna	-9.73997
▁astu	-9.74018
▁maailmankaikkeu	-9.74029
▁nainen	-9.74033
▁tosiaan	-9.74062
ris	-9.74067
▁kannalta	-9.74105
▁toimisto	-9.74204
▁Ed	-9.74204
▁taa	-9.74229
▁suunnittelu	-9.74272
▁aikuis	-9.74319
ce	-9.74344
▁vuotee	-9.74347
▁hilja	-9.74366
▁sula	-9.7437
▁tarjoa	-9.74381
▁yhtäkki	-9.74393
amp	-9.74421
▁planeetalla	-9.74522
kar	-9.74547
▁iki	-9.74564
eihin	-9.74635
▁uskonno	-9.74658
▁kylm	-9.74919
▁ensin	-9.74962
oissa	-9.74963
▁teho	-9.75041
▁pait	-9.75131
▁sinull	-9.75165
▁mur	-9.75203
▁päin	-9.75323
▁pysyvä	-9.75414
laise	-9.7547
itse	-9.75498
▁pien	-9.75704
jana	-9.75728
▁teko	-9.75734
▁tur	-9.75878
▁julki	-9.76138
kone	-9.76343
isku	-9.76378
▁kuvat	-9.76446
▁yle	-9.76661
▁onne	-9.76754
▁työkalu	-9.76815
ic	-9.76901
lly	-9.76993
▁kulje	-9.77004
▁500	-9.77004
▁bla	-9.77098
▁demokratia	-9.77098
▁symboli	-9.77098
▁vanhempi	-9.77098
▁tarkoitus	-9.77101
▁näkevät	-9.77101
▁Hyvi	-9.77101
ilmastonmuutokse	-9.77102
▁huoneessa	-9.77102
▁Indu	-9.77102
▁tarttu	-9.77104
▁selviyty	-9.77105
▁kotona	-9.77106
▁vierai	-9.77118
▁Ensinnä	-9.77131
▁toimiva	-9.77147
▁terä	-9.77167
▁Tarvitse	-9.77182
▁millä	-9.7725
▁tulos	-9.77299
▁tiedosta	-9.7735
▁muisti	-9.77393
suudesta	-9.77508
▁avaruude	-9.77599
▁tyhjä	-9.77605
▁ihme	-9.77606
▁pelko	-9.7769
▁Haluaisin	-9.77773
▁liikkee	-9.77813
▁kesti	-9.77968
▁lääkäri	-9.77998
▁pelkää	-9.78054
▁luova	-9.78079
▁katsoo	-9.78126
▁yhtey	-9.78167
ment	-9.78175
tojen	-9.78202
▁tulevaisuuden	-9.78209
tion	-9.78221
▁muist	-9.78257
▁soluj	-9.78333
▁kulke	-9.78341
▁yksinkertaisest	-9.78354
vaihe	-9.78387
▁tytö	-9.78482
▁Aion	-9.78505
▁historia	-9.78594
etty	-9.7866
▁esine	-9.78683
▁vuori	-9.78816
▁tarjo	-9.78844
▁erityis	-9.78908
▁Aika	-9.78921
isuus	-9.79084
▁meren	-9.79091
▁yksin	-9.79248
▁Tei	-9.79346
ero	-9.79429
▁yhteiskunna	-9.79493
km	-9.79762
▁huomasi	-9.79849
▁pelo	-9.79887
▁sija	-9.7995
▁mitta	-9.80149
▁avaruus	-9.80262
▁tietee	-9.80292
laboratorio	-9.80324
▁ilmastonmuutos	-9.80324
▁psykologi	-9.80324
▁opetus	-9.80324
▁geeni	-9.80327
▁käydä	-9.80335
▁jäsen	-9.80338
▁annetaan	-9.80346
▁ylä	-9.80348
▁olemassaolo	-9.8035
▁viiden	-9.80372
▁uskomaton	-9.80387
▁yritys	-9.80414
▁suunta	-9.80418
▁loppuun	-9.80475
▁Näytän	-9.80477
▁tällaist	-9.80549
▁asioihin	-9.80601
toon	-9.8064
▁Näemme	-9.80831
▁ajattelu	-9.80835
▁uude	-9.80988
▁toivon	-9.81065
mattomi	-9.81083
▁hinta	-9.81088
▁päällä	-9.81114
toimi	-9.81122
▁tutkimukse	-9.81322
▁aine	-9.81341
syys	-9.81348
▁Siksi	-9.81374
▁nykyise	-9.81379
▁kohde	-9.81384
▁sanottu	-9.81505
ltaan	-9.81531
össä	-9.81537
▁varsin	-9.81555
▁tuntui	-9.81611
▁kaltaise	-9.81824
▁laitta	-9.81827
▁vastaukse	-9.81933
▁biologi	-9.81953
▁hiuk	-9.82083
▁yhdeksän	-9.82084
▁muuttui	-9.82098
tyä	-9.82122
▁hoita	-9.82133
empää	-9.82147
▁vastuu	-9.82197
▁liittyvä	-9.82351
luku	-9.82377
▁esiin	-9.8243
▁miljoonan	-9.82666
kkiä	-9.82754
▁150	-9.8277
▁tapasi	-9.82842
kokemukse	-9.83124
▁kaltai	-9.83133
▁kipu	-9.83269
tulo	-9.83273
ttömä	-9.83284
▁Rakasta	-9.83299
▁jouko	-9.8333
ow	-9.83558
ineen	-9.83558
sarja	-9.83653
▁edisty	-9.83657
▁lyhye	-9.83657
▁DNA	-9.83658
▁kommunikoi	-9.83658
▁mahdoton	-9.83658
▁samoj	-9.83659
▁päätökse	-9.8366
▁maaperä	-9.8366
▁1900	-9.83667
otto	-9.83669
▁kuulostaa	-9.83674
▁Kutsu	-9.83675
▁innostu	-9.83681
▁uhka	-9.83697
▁yksityis	-9.83706
▁opiskel	-9.83707
▁jutu	-9.83711
▁sairaala	-9.83713
▁2000	-9.83786
▁edusta	-9.83811
▁maahan	-9.83824
▁henge	-9.8383
lliset	-9.83849
▁äärimmäise	-9.83899
▁kesä	-9.83916
▁vaikutti	-9.84004
▁informaatio	-9.8405
▁hallitus	-9.84061
▁välttämätt	-9.84092
▁vasemmall	-9.84103
insä	-9.84107
▁kehitystä	-9.8414
▁lista	-9.84162
▁halli	-9.84445
▁San	-9.8451
har	-9.84521
ismi	-9.8458
▁erilaise	-9.84617
▁kahdesta	-9.84664
▁kamera	-9.84697
solu	-9.84783
der	-9.84794
▁kal	-9.84877
▁lapsille	-9.84888
▁esille	-9.84937
▁ohjelma	-9.85056
kriisi	-9.85062
L	-9.85101
▁johd	-9.85122
▁löysin	-9.85181
▁laite	-9.8534
▁joihin	-9.85345
pallo	-9.85516
▁90	-9.85573
▁täsmäll	-9.85609
▁paikkaan	-9.85609
▁John	-9.85643
▁halun	-9.85682
▁valmiit	-9.8569
▁kriisi	-9.85704
▁suhtee	-9.8572
▁tö	-9.85779
▁pes	-9.85781
umi	-9.85781
llist	-9.85794
▁millai	-9.85931
▁kiertä	-9.86028
▁lasta	-9.86046
▁hetken	-9.86059
▁suo	-9.86126
▁kokemus	-9.86236
▁saavutta	-9.86296
dit	-9.86371
▁maat	-9.86555
▁saadakse	-9.86658
▁kauka	-9.867
▁Kan	-9.8675
mpiä	-9.86919
pl	-9.86954
▁ilmi	-9.86986
▁199	-9.87098
▁198	-9.871
▁sattu	-9.87101
▁pysähty	-9.87106
▁parempaa	-9.87106
▁muistuttaa	-9.87107
▁yhtälö	-9.87107
▁tahdo	-9.87107
▁Ota	-9.87111
▁tapoja	-9.87121
▁Näette	-9.87128
▁vaali	-9.87131
▁uudestaan	-9.87135
udesta	-9.87176
▁tajusin	-9.87191
evä	-9.87195
▁kokemuksi	-9.87206
▁Tähän	-9.87228
▁ah	-9.87251
▁aito	-9.87295
▁pro	-9.87314
▁aivoissa	-9.87345
▁yritti	-9.87357
▁käänty	-9.8736
▁liikaa	-9.87367
▁johtuu	-9.87419
▁tosiasia	-9.87419
▁Pal	-9.87437
usten	-9.87461
▁Tunne	-9.87478
taso	-9.87538
▁tapauksi	-9.87586
▁osuu	-9.87646
▁pika	-9.87653
▁Koko	-9.8769
▁ura	-9.87692
▁tilasto	-9.87692
▁julkaisu	-9.87771
▁Mistä	-9.87815
▁potilaa	-9.87856
gra	-9.87896
▁eläint	-9.87903
desta	-9.87933
▁Sinä	-9.8799
▁tark	-9.88077
▁erityisen	-9.88126
▁aloiti	-9.8813
▁nousu	-9.88158
▁sieni	-9.88244
▁arva	-9.88372
isuutta	-9.88396
sana	-9.8845
▁merkitse	-9.88573
tön	-9.88582
▁tekijä	-9.88648
▁muutti	-9.88667
▁c	-9.88667
▁mahdollise	-9.88757
▁Osa	-9.88802
mais	-9.88814
▁kokeva	-9.88893
jien	-9.8893
laisen	-9.89075
▁lähesty	-9.89167
▁milt	-9.89187
▁teo	-9.89338
▁menestykse	-9.89342
▁aisti	-9.89358
kirjoitukse	-9.89426
▁Voitte	-9.8943
▁vaiva	-9.89515
▁eroa	-9.89535
▁ongelman	-9.89627
yyttä	-9.89714
kausi	-9.8995
▁lähtie	-9.90033
▁haluaisi	-9.90072
auto	-9.90182
▁järke	-9.90267
▁vil	-9.90278
paikassa	-9.90435
ttömi	-9.90541
▁19	-9.90559
▁esiinty	-9.90639
▁Brasilia	-9.90677
▁ärsy	-9.90677
udio	-9.90678
▁media	-9.90679
▁rakensi	-9.90679
▁ennuste	-9.90684
▁yritämme	-9.90686
▁Haluamme	-9.90691
▁24	-9.907
▁ohjaa	-9.90704
▁Kirj	-9.90705
▁systeemi	-9.9074
▁pystyvä	-9.90885
▁Oikea	-9.90979
▁kive	-9.9098
▁tähti	-9.91066
▁laki	-9.91219
▁juttuja	-9.91246
lehti	-9.91269
▁muuttunut	-9.9127
reita	-9.91312
▁villi	-9.91347
▁kysymykseen	-9.91385
▁koulutukse	-9.91426
▁aloitta	-9.91486
▁kohden	-9.9152
▁puut	-9.9153
▁amerikkalaise	-9.91537
▁Noin	-9.91565
▁täyttä	-9.91727
▁maapallon	-9.91885
tom	-9.91933
▁kertova	-9.92048
▁muutamia	-9.92223
▁solut	-9.92233
H	-9.92398
▁tällaise	-9.9248
▁parantaa	-9.92492
tensa	-9.92517
▁viiva	-9.92536
▁jään	-9.9254
▁sopi	-9.92572
▁tekemise	-9.92599
▁nopeamm	-9.92711
▁sota	-9.92765
▁kai	-9.92817
illaan	-9.92873
▁väl	-9.92927
▁viikon	-9.92927
▁syntyi	-9.93035
▁Twitteri	-9.93163
▁Sinu	-9.93206
▁muistaa	-9.93225
▁lähet	-9.93243
▁sellaise	-9.93358
▁vaaralli	-9.93412
▁este	-9.93524
▁Luul	-9.93602
▁ihmeelli	-9.9367
ttivat	-9.93782
piste	-9.93856
▁joukko	-9.93868
▁etelä	-9.93913
▁Kysyi	-9.93946
▁lähetti	-9.93954
▁tällai	-9.93975
ittain	-9.93979
▁päivi	-9.94015
▁surulli	-9.94029
▁laaja	-9.94143
▁terveys	-9.94203
▁rahoi	-9.94315
▁Yrit	-9.94317
▁laula	-9.94327
▁ansiosta	-9.94381
▁yhtenä	-9.94381
▁HIV	-9.94381
▁inspiroi	-9.94381
▁lääke	-9.94381
▁Ruotsi	-9.94381
▁kortti	-9.94382
▁luonnolli	-9.94386
▁ilmakehä	-9.94388
▁Lisä	-9.9439
▁ruoan	-9.9439
▁sokea	-9.94394
▁Ensiksi	-9.94398
▁okei	-9.94404
▁ajoi	-9.94418
▁minne	-9.9442
▁loistava	-9.94429
▁innoissa	-9.94462
▁sokei	-9.94519
▁luomu	-9.94611
▁polttoainei	-9.94652
▁potilas	-9.94686
▁palata	-9.94698
▁viimein	-9.94734
▁Iso	-9.94776
▁hidasta	-9.94839
▁ruu	-9.94902
▁toiminna	-9.94921
▁kodi	-9.95122
ttäin	-9.95202
▁Israeli	-9.95213
laji	-9.95253
▁vakuutta	-9.95351
▁kasa	-9.95382
ger	-9.95396
▁kaivo	-9.95503
▁joki	-9.95786
▁useimm	-9.9585
▁kykene	-9.95879
▁miettiä	-9.95961
▁viljely	-9.96
▁lentä	-9.96017
▁kymmenen	-9.96076
▁hyödylli	-9.961
▁tulevaisuu	-9.96301
▁kohda	-9.96349
▁9	-9.96381
▁menet	-9.96428
▁Lait	-9.96435
▁olevi	-9.96441
▁samoin	-9.96515
▁tieteellise	-9.96594
▁vastasi	-9.96622
▁lopettaa	-9.96928
▁idean	-9.97098
▁vete	-9.97136
▁ylittä	-9.97226
aluee	-9.97292
▁törmä	-9.97293
suude	-9.97322
▁vastata	-9.97326
▁Tee	-9.97393
▁synny	-9.97469
▁voidakse	-9.97638
heimeri	-9.97766
kasta	-9.9784
▁vaara	-9.97857
kappale	-9.97893
▁happ	-9.97898
▁löyty	-9.98058
▁luotta	-9.98096
puu	-9.98127
▁hermo	-9.98167
▁ympäristön	-9.98209
▁vahingo	-9.98221
▁bakteeri	-9.98227
▁ryhty	-9.98227
▁George	-9.98228
▁sekunti	-9.98231
eille	-9.98234
▁länsimai	-9.98239
▁Vastaus	-9.98242
▁rooli	-9.98253
▁ollen	-9.98269
▁ajatuksi	-9.98276
▁Tapa	-9.98283
▁punai	-9.98285
▁Go	-9.98297
▁Mieti	-9.98323
▁hoitaa	-9.98377
▁havaitse	-9.984
▁hyödyntä	-9.98418
▁tietoisuutta	-9.98468
▁nousi	-9.98474
▁vetä	-9.98477
▁The	-9.98501
▁verko	-9.98515
▁käynni	-9.98557
▁loma	-9.98593
▁kuiva	-9.98621
▁meno	-9.98663
▁kohdalla	-9.98697
▁pinta	-9.98761
▁lämpö	-9.98834
aalto	-9.99042
▁yhdistä	-9.99107
▁itseni	-9.99131
▁luopu	-9.99168
▁reaktio	-9.9918
▁sairauksi	-9.99209
▁kahta	-9.9922
▁kysymyksiä	-9.99233
▁valtion	-9.99259
toihin	-9.99295
▁minuun	-9.99368
ville	-9.99395
▁kestää	-9.99472
pel	-9.995
▁Ihmis	-9.99548
▁kuullee	-9.99602
▁palvelu	-9.99608
▁historian	-9.9964
▁tekemi	-9.99648
▁omitui	-9.99663
▁sanaa	-9.99764
▁mie	-9.99826
▁aihe	-9.9985
▁kerron	-10.0002
yhteisö	-10.0017
teknologia	-10.0018
▁yhdestä	-10.0018
▁yrittävä	-10.0031
▁peit	-10.0034
▁kyl	-10.0036
▁kuk	-10.0043
▁kadu	-10.0044
▁palaa	-10.0055
▁teknologian	-10.0055
kauden	-10.0079
▁tietokoneen	-10.0092
▁ede	-10.0092
▁yksinkertaise	-10.0103
▁näet	-10.0108
▁70	-10.0112
olo	-10.0115
pol	-10.0121
tomia	-10.0126
▁sanoma	-10.0128
▁Muista	-10.0129
▁de	-10.0143
ruoka	-10.0147
sella	-10.0148
▁tarvitsi	-10.0152
▁johtu	-10.0192
▁super	-10.0194
▁näkemä	-10.02
uudesta	-10.0205
▁Esi	-10.0207
▁fuusio	-10.021
▁vääri	-10.0215
▁katse	-10.0216
▁virtuaali	-10.022
jel	-10.0222
▁aaviko	-10.0223
▁armeija	-10.0223
▁jälji	-10.0223
▁suklaa	-10.0223
▁Australia	-10.0223
▁selkeä	-10.0223
▁tyttäre	-10.0223
▁ylhääl	-10.0223
▁juure	-10.0223
▁määritelmä	-10.0223
▁hallitse	-10.0223
▁Ajattele	-10.0223
▁sydän	-10.0223
▁kiitos	-10.0223
▁outo	-10.0223
▁kahvi	-10.0223
▁huume	-10.0223
▁aurinkoenergia	-10.0223
▁sielu	-10.0224
▁jätä	-10.0224
▁huolehti	-10.0224
▁neuvo	-10.0224
▁toisista	-10.0224
▁jaka	-10.0225
▁sada	-10.0226
▁satu	-10.023
▁katsele	-10.0231
▁korvaa	-10.0238
yyden	-10.0242
▁näkymä	-10.0243
▁eliö	-10.0243
▁työskennellä	-10.0244
▁kol	-10.0245
▁yritän	-10.0252
▁koodi	-10.0254
▁Yli	-10.0255
▁todellisuut	-10.0257
▁näky	-10.026
▁yllättävä	-10.0261
▁sivilisaatio	-10.0262
▁seitti	-10.0267
▁kunno	-10.027
▁reaktori	-10.027
▁kirjailija	-10.0279
▁johti	-10.028
▁elokuvi	-10.0293
taulu	-10.0297
▁tieteilijä	-10.0305
▁kulta	-10.0306
▁verkosto	-10.0317
▁vakava	-10.0318
▁opettaa	-10.0324
kkäi	-10.0328
▁miele	-10.0331
▁rakentama	-10.0337
▁merkityst	-10.0338
▁mer	-10.034
asema	-10.0342
▁tuki	-10.0343
ooh	-10.0343
ttaisi	-10.0352
▁Eri	-10.036
▁kuuntele	-10.0375
▁syytä	-10.0379
▁valmista	-10.0386
ttämään	-10.0388
tteko	-10.0392
▁maatalous	-10.0395
mmät	-10.0395
▁syövä	-10.0433
tyyppi	-10.0436
▁Per	-10.0448
▁koulutus	-10.0454
▁ammatti	-10.0458
▁kiire	-10.0463
▁45	-10.0464
▁etteivät	-10.0474
▁eteen	-10.0487
▁puolen	-10.0488
▁jättä	-10.049
hua	-10.0499
▁käyttämä	-10.0507
▁toimintaa	-10.0513
▁tietä	-10.0529
▁laita	-10.0535
▁löytämä	-10.0546
50	-10.0558
▁vauva	-10.0562
mies	-10.0566
▁Aivo	-10.0571
vätkö	-10.0575
▁400	-10.0578
▁vamma	-10.0582
▁uskonto	-10.0595
▁todellise	-10.0602
▁kehon	-10.0622
▁pidän	-10.0626
oida	-10.0629
▁Yhdessä	-10.0639
▁hiilidioksidi	-10.0639
▁huippu	-10.0639
▁innovaatio	-10.0639
▁intuitio	-10.0639
▁jälki	-10.0639
▁jännittävä	-10.0639
▁televisio	-10.0639
▁lapsikuolleisuu	-10.0639
▁toteutta	-10.0639
▁tanssi	-10.0639
▁Neljä	-10.0639
▁häpeä	-10.064
▁ääre	-10.064
▁17	-10.064
▁edistä	-10.064
▁tasapaino	-10.064
▁vastusta	-10.064
▁Näyt	-10.064
▁poliisi	-10.064
▁tiimi	-10.064
▁lahja	-10.064
▁avain	-10.064
▁vapaa	-10.0642
▁taistele	-10.0643
▁YK	-10.0643
▁makea	-10.0643
▁pakko	-10.0643
▁Gr	-10.0643
▁käyttöön	-10.0644
▁kohtee	-10.0644
▁vankila	-10.0644
▁runo	-10.0648
▁valinta	-10.065
▁luuli	-10.0658
▁mui	-10.066
▁käyttäjä	-10.0671
▁pystymme	-10.0672
yttää	-10.0673
▁Isä	-10.0674
▁erikois	-10.0674
▁tauti	-10.0675
▁syöpä	-10.0679
▁yhteyttä	-10.068
isesta	-10.068
▁laitoi	-10.0685
▁katsokaa	-10.0685
eissa	-10.0688
▁päätti	-10.069
tkuu	-10.0691
▁Ennen	-10.0696
▁Alu	-10.0709
▁tuoda	-10.0719
▁maasta	-10.0721
▁synnyttä	-10.0724
▁isompi	-10.073
▁pitkän	-10.0732
▁elokuvan	-10.0734
▁molekyyli	-10.0735
▁300	-10.0738
▁kunnia	-10.0745
kkaita	-10.0752
enimmä	-10.0757
yydestä	-10.076
laitokse	-10.0766
▁tarkemm	-10.0771
▁taivaa	-10.0771
▁hal	-10.0775
▁ongelmi	-10.0777
▁aloita	-10.0785
▁kehittää	-10.0795
▁alueella	-10.0798
▁historiaa	-10.08
teeseen	-10.0802
▁sellaisena	-10.0808
▁kato	-10.0808
▁Kyse	-10.0827
▁maksaa	-10.0848
▁Kerron	-10.0856
B	-10.0859
pohja	-10.0868
Amerika	-10.0868
väline	-10.087
▁kansalais	-10.087
▁ottama	-10.0877
▁palo	-10.0883
▁näen	-10.0884
▁mahdollisuuksia	-10.09
▁perheen	-10.0907
▁tarinoi	-10.092
sivu	-10.0922
▁mieleen	-10.0925
▁haluatte	-10.093
▁asui	-10.093
▁englanti	-10.0931
▁elimi	-10.0932
▁turvallise	-10.0951
▁kiele	-10.0954
▁näytä	-10.0954
immista	-10.0956
▁TEDi	-10.0962
▁näytän	-10.0996
▁täyt	-10.1007
oiden	-10.1036
▁ajatteleva	-10.1043
yksiä	-10.1047
▁merkitykse	-10.106
utua	-10.1063
▁inno	-10.1063
▁biologia	-10.1065
markkinoi	-10.1074
▁Ajatelkaa	-10.1074
▁artikkeli	-10.1074
▁presidentti	-10.1074
▁Koraani	-10.1074
▁kirje	-10.1074
▁yhteiskunta	-10.1074
▁sähköposti	-10.1074
▁kerralla	-10.1074
▁Eräs	-10.1074
▁ruokki	-10.1074
▁Tiesi	-10.1074
▁Internet	-10.1075
▁vaihta	-10.1075
▁viedä	-10.1075
▁malleja	-10.1075
▁roska	-10.1075
▁uhri	-10.1076
▁tuuli	-10.1076
▁sitoutu	-10.1076
▁hallinto	-10.1077
▁painovoima	-10.1077
▁vähentää	-10.1078
▁22	-10.1079
▁vaikeu	-10.1079
▁estää	-10.1084
▁hämähäki	-10.1086
▁iho	-10.1088
▁Ihan	-10.1092
tuvat	-10.1092
▁älä	-10.1093
▁ikä	-10.1093
▁vuosisada	-10.1094
▁osti	-10.1096
▁suosi	-10.1097
▁hajo	-10.1098
ulo	-10.1098
laittei	-10.1107
▁korkei	-10.1111
▁puhuvat	-10.1112
▁rakastan	-10.1115
karhu	-10.1116
▁tunteita	-10.1117
▁uskoo	-10.1117
▁sattuu	-10.112
▁aikoina	-10.112
▁kuuma	-10.1122
▁Opi	-10.1129
▁herk	-10.1137
▁Aina	-10.114
▁hyönteise	-10.1141
▁tarkoitukse	-10.1143
uksessa	-10.1149
▁perä	-10.1151
▁laatiko	-10.1154
▁opiskelija	-10.1156
▁minuude	-10.1159
▁historiassa	-10.116
▁paljasta	-10.1175
▁onnellisuude	-10.1178
yksen	-10.1185
▁ongelmaa	-10.1194
▁aikoj	-10.1197
ilee	-10.1198
▁lasku	-10.1204
▁kilo	-10.1208
▁purka	-10.1217
▁syntymä	-10.1224
linja	-10.1229
▁saattaisi	-10.1234
▁poliitti	-10.1236
telee	-10.1242
puh	-10.1247
▁kyvy	-10.1251
gar	-10.1256
▁Pidän	-10.1257
org	-10.1267
tonta	-10.1273
▁valmistu	-10.128
hur	-10.1294
▁huomiot	-10.1302
öin	-10.1306
▁Jokaise	-10.1318
suunta	-10.1322
teita	-10.1333
▁sijoitta	-10.1349
▁järjestelmää	-10.1356
▁Aiv	-10.1365
▁työstä	-10.1369
▁alusta	-10.1376
▁turvalli	-10.138
▁sellaisi	-10.1381
vuotiai	-10.1382
▁julkaisi	-10.139
malli	-10.1392
▁mahdolli	-10.1392
▁arvio	-10.1393
uute	-10.1395
▁julkais	-10.1402
▁tarvitsevat	-10.1408
art	-10.1411
▁havait	-10.1421
▁arvosta	-10.1425
ksy	-10.1425
lalla	-10.1429
▁potilaan	-10.1435
▁8	-10.1436
▁havainto	-10.1474
▁tekni	-10.1477
▁Do	-10.1482
▁kulutta	-10.1484
▁lääketietee	-10.1484
ministeri	-10.15
▁lempi	-10.1508
▁ele	-10.1524
▁piilo	-10.1526
▁Yhdysvall	-10.1528
▁mikro	-10.1529
kumppani	-10.1529
▁NASA	-10.1529
▁Raamatu	-10.1529
▁fysiika	-10.1529
▁kasvihuonekaasu	-10.1529
▁löytänee	-10.1529
▁neurogeneesi	-10.1529
▁saatavilla	-10.1529
▁ymmärsi	-10.1529
▁Täytyy	-10.1529
▁Paljon	-10.1529
▁Pysty	-10.1529
▁Ainoa	-10.1529
▁Charl	-10.1529
maailmo	-10.1529
▁sijaitse	-10.153
▁äske	-10.153
▁todellisuus	-10.153
▁terveyde	-10.153
▁pyri	-10.153
▁rajoj	-10.153
▁Toisaal	-10.1531
▁harha	-10.1532
▁käsityksen	-10.1532
▁anteeksi	-10.1534
eillä	-10.1534
▁sulke	-10.1535
▁myöntä	-10.1538
▁henkilökohtai	-10.1539
▁Kenia	-10.1541
▁päähän	-10.1541
▁kuulo	-10.1543
▁metalli	-10.1543
▁pinnall	-10.1547
rgi	-10.155
iseen	-10.1551
▁vaikei	-10.1551
▁Yle	-10.1554
▁Tuli	-10.1555
▁Lii	-10.1556
▁kokeita	-10.1556
piiri	-10.1562
▁laaj	-10.1578
▁pakotta	-10.1579
▁riit	-10.1581
▁riittä	-10.1583
▁tuttu	-10.1584
▁Tom	-10.1592
▁päättää	-10.1592
▁ui	-10.1593
▁Pro	-10.1594
▁pyytää	-10.1601
▁uuti	-10.1602
▁pullo	-10.1603
▁Joku	-10.1605
▁mainit	-10.1609
▁kokemuksen	-10.161
▁neuroni	-10.1621
selle	-10.163
▁tulevaisuutee	-10.1631
▁kirjaa	-10.1633
▁pidi	-10.1638
▁suhde	-10.1642
▁digitaalise	-10.1644
▁suurimm	-10.1645
▁linnu	-10.166
▁tavoite	-10.1662
▁kilpailu	-10.1667
▁auringon	-10.1683
▁luonno	-10.1686
▁tap	-10.1702
▁yhteiskunnallis	-10.1706
▁samanlai	-10.1716
▁rakentee	-10.1719
mmista	-10.1724
▁syv	-10.1746
▁elektroni	-10.1753
▁York	-10.1755
▁varo	-10.1771
▁perinteise	-10.1782
miehe	-10.1798
▁kaupungin	-10.1799
viljely	-10.1799
henkilö	-10.18
▁valtavi	-10.1802
▁tyypi	-10.1807
▁sodan	-10.1815
musta	-10.1819
vesi	-10.1821
▁sellaisen	-10.1827
▁välitä	-10.1832
vuotiaa	-10.1833
▁saapu	-10.1837
ukko	-10.1851
rkit	-10.1852
▁mielenkiintoisi	-10.1853
oikeus	-10.1866
kieli	-10.187
peräis	-10.1879
▁Saata	-10.1882
▁luokse	-10.1887
▁kiloa	-10.1893
▁typ	-10.1899
▁antava	-10.1902
▁usea	-10.1902
▁käsittele	-10.1904
▁kielen	-10.1906
▁havainno	-10.1909
ttekö	-10.192
▁kasvava	-10.1923
▁erää	-10.1924
▁korv	-10.193
▁mielenkiintoise	-10.1935
mansa	-10.1948
▁vau	-10.195
▁sattuma	-10.196
▁keskus	-10.1963
▁merkit	-10.1976
▁Tällai	-10.198
▁kysymykse	-10.1982
▁taide	-10.1997
▁Näe	-10.1998
▁poltta	-10.2003
▁Kalifornia	-10.2005
▁analysoi	-10.2005
▁bonobo	-10.2005
▁kävely	-10.2005
▁professori	-10.2005
▁rakennukse	-10.2005
▁sukupolvi	-10.2005
▁vihdoin	-10.2005
▁Daavid	-10.2005
▁lähestymistapa	-10.2005
▁nauhoit	-10.2005
▁yksityiskohti	-10.2005
▁naimisi	-10.2005
▁mittakaava	-10.2005
▁nautti	-10.2005
▁isoäiti	-10.2005
▁huomata	-10.2005
▁sääntö	-10.2005
▁suunnitella	-10.2005
keskukse	-10.2005
▁suunniteltu	-10.2005
▁naista	-10.2006
▁vahvista	-10.2006
▁esimerkkejä	-10.2006
▁Uusi	-10.2006
▁matala	-10.2006
▁kuunnell	-10.2007
▁tuottavat	-10.2007
▁käyrä	-10.2008
▁sukupuuttoon	-10.2009
▁kehitysmai	-10.201
▁hö	-10.201
▁uskomattomi	-10.2011
▁muualla	-10.2012
▁21	-10.2015
▁varmista	-10.2019
▁kuullut	-10.2019
▁turha	-10.202
▁tuloksia	-10.202
▁erottaa	-10.2023
▁kuutio	-10.2023
▁julkaistu	-10.2024
enkä	-10.2024
▁Yritä	-10.2024
▁valko	-10.2025
▁kääntä	-10.2028
▁taika	-10.2029
▁tavaroi	-10.2038
▁organismi	-10.2041
▁vaikutukse	-10.2041
▁ruutu	-10.2041
▁epäile	-10.2058
▁pitämää	-10.2061
▁oletta	-10.2061
▁säästä	-10.2064
ttömäst	-10.2065
▁vuosikymmenen	-10.2069
▁tekemistä	-10.207
▁heikko	-10.2073
▁amerikkalaisi	-10.2074
▁tappaa	-10.2075
▁suurimman	-10.2076
▁katsoma	-10.2081
ruo	-10.2084
ikkaa	-10.2085
▁yrityksi	-10.2089
▁peli	-10.2098
▁karja	-10.2107
▁seitsemä	-10.2108
▁kiinnosta	-10.2127
dot	-10.2132
▁taloudellis	-10.2139
▁Usei	-10.2156
ttoman	-10.2157
ttyä	-10.2172
▁voittaa	-10.2181
▁itseltä	-10.2183
▁todistei	-10.2198
▁julkaise	-10.2201
tusti	-10.221
idä	-10.2216
▁aiheuttama	-10.2217
▁tuhoa	-10.2219
ld	-10.2222
▁hitaast	-10.225
▁sopiva	-10.225
▁poja	-10.2253
järjestö	-10.2254
▁ajattelemme	-10.2261
▁dataa	-10.2263
ohjelma	-10.2271
täkää	-10.2271
▁väline	-10.2271
uksesta	-10.2284
▁lintu	-10.229
muoto	-10.2299
▁todistaa	-10.23
vuode	-10.2301
▁englannin	-10.2303
▁Erään	-10.2304
▁pystyisi	-10.2307
▁Afrikkaa	-10.2308
▁tuote	-10.231
▁kilometrin	-10.2315
mö	-10.2317
uuhun	-10.2328
▁söi	-10.2337
utui	-10.2346
▁poliittise	-10.2359
▁merkitys	-10.2371
▁hämmästyttävä	-10.238
▁Tein	-10.2393
▁planeettaa	-10.2399
astetta	-10.2402
yön	-10.2412
▁tottu	-10.2414
▁rajoit	-10.2423
▁tode	-10.2438
▁osu	-10.2463
energia	-10.2475
olosuhte	-10.2483
laje	-10.2487
▁Tarvit	-10.2491
▁henkilökohtaise	-10.2496
Amerikka	-10.2498
ohjelmi	-10.2499
mieli	-10.2502
▁197	-10.2505
▁Aurinko	-10.2505
▁Ongelma	-10.2505
▁konservatiivi	-10.2505
▁löytänyt	-10.2505
▁suojella	-10.2505
▁pidetään	-10.2505
▁Antakaa	-10.2505
▁musiiki	-10.2505
▁oudo	-10.2505
▁lääkkei	-10.2505
▁rakkaude	-10.2505
▁objektiivis	-10.2505
▁sokeri	-10.2505
▁empatia	-10.2505
▁Irani	-10.2505
▁korti	-10.2505
▁Selvä	-10.2506
▁haasta	-10.2506
▁nimenoma	-10.2506
▁väre	-10.2506
▁ominaisuuksi	-10.2506
▁Kysymy	-10.2506
▁muutoksi	-10.2506
▁varaa	-10.2506
▁huomann	-10.2507
▁Istu	-10.2507
▁annoi	-10.2507
▁syrj	-10.2508
▁parantu	-10.2508
▁kaiva	-10.2509
▁otetaan	-10.251
▁ampu	-10.2511
▁vallan	-10.2513
iska	-10.2515
▁mennyt	-10.2516
▁nälkä	-10.2516
▁tällaisen	-10.2518
▁valvo	-10.2523
▁elime	-10.2524
▁jatkuva	-10.2528
▁saamaan	-10.253
▁itsestään	-10.253
immi	-10.2538
teollis	-10.2541
▁mahdollisuutta	-10.2546
▁poistu	-10.2548
▁puhelime	-10.2549
▁ilmaise	-10.2553
▁suru	-10.2563
▁tietokonei	-10.2565
▁kiehto	-10.2566
▁seinä	-10.2568
▁erään	-10.2571
▁näkökulmasta	-10.2571
tietee	-10.2572
▁käyttämään	-10.2575
▁siirtä	-10.2577
▁huomasin	-10.258
▁tausta	-10.258
▁kutsuttu	-10.2586
▁aikuise	-10.2593
▁arvoista	-10.2595
▁lähti	-10.2597
▁tuski	-10.2607
▁lähelle	-10.2613
▁kipua	-10.2615
▁joukossa	-10.2618
▁aivoja	-10.2634
▁kuollee	-10.2637
▁laittee	-10.2645
▁Aloiti	-10.2652
▁Asia	-10.2653
▁Har	-10.2661
▁julkise	-10.2662
▁kehittynee	-10.2686
järjestelmi	-10.2689
▁tapahtuva	-10.2697
▁jalka	-10.2698
totuus	-10.27
▁pidämme	-10.2712
▁positiivi	-10.2716
joita	-10.2717
▁pääasia	-10.273
▁suora	-10.2735
▁halv	-10.2749
▁pyörä	-10.2755
▁Kasv	-10.2768
kyvy	-10.277
▁Aasia	-10.2788
einä	-10.2789
▁myötätunto	-10.2792
▁kiitolli	-10.2806
alai	-10.2821
ongelmi	-10.2823
kulttuuri	-10.2825
yhtiö	-10.2826
V	-10.2828
▁alueen	-10.283
päivänä	-10.2833
rada	-10.2838
▁toime	-10.284
▁kuollei	-10.2844
▁lopetta	-10.2845
▁lopull	-10.2845
ngo	-10.2849
▁matkalla	-10.2862
▁kansainväli	-10.2869
▁Olisi	-10.2871
▁Oti	-10.2873
ivo	-10.2895
kuvia	-10.2903
▁nolla	-10.2903
▁kansallis	-10.2904
▁tietoise	-10.2906
▁Marsi	-10.2917
oksen	-10.2921
▁tiedettä	-10.2922
▁uudist	-10.2924
▁tajua	-10.2968
▁sijoit	-10.2969
▁hitaa	-10.2989
▁keskimäär	-10.2993
ph	-10.2997
▁keksiä	-10.3001
▁muistava	-10.3007
eistä	-10.3009
▁Facebooki	-10.3022
▁investoi	-10.3026
▁neliö	-10.303
▁masennus	-10.3031
▁Löysi	-10.3031
▁TEDTalk	-10.3031
▁Todella	-10.3031
▁fiksu	-10.3031
▁liberaali	-10.3031
▁mielikuvitukse	-10.3031
▁työskenteli	-10.3031
▁ystävien	-10.3031
▁auttoi	-10.3031
▁brändi	-10.3031
▁juhli	-10.3031
▁lämmit	-10.3031
▁resursse	-10.3031
▁ikkuna	-10.3031
▁rihmasto	-10.3031
magneetti	-10.3031
▁ohjelmisto	-10.3031
▁paikalle	-10.3031
▁käveli	-10.3031
▁ainutlaatuis	-10.3031
▁Ruutu	-10.3031
▁Voidaan	-10.3031
▁Mars	-10.3031
▁omaksu	-10.3032
▁muoka	-10.3032
▁Keskimaailma	-10.3032
▁paikan	-10.3032
▁valtamere	-10.3032
▁Kuule	-10.3032
▁huolestu	-10.3032
▁Elämä	-10.3032
▁tarkasti	-10.3032
▁Kuuli	-10.3032
▁toisille	-10.3032
▁rikko	-10.3033
▁kiihty	-10.3033
vastoin	-10.3034
▁älkää	-10.3035
levy	-10.3035
▁kannust	-10.3036
▁vaale	-10.3037
▁reilu	-10.3037
▁Anderson	-10.3037
▁Nuo	-10.3038
▁pelottava	-10.3038
▁käytetty	-10.3041
▁kulma	-10.3041
▁suunna	-10.3041
▁kättä	-10.3042
▁periaattee	-10.3042
▁kallo	-10.3043
▁saastu	-10.3046
▁myötä	-10.3051
▁haju	-10.3054
puhelin	-10.3059
ktio	-10.307
▁keitä	-10.3076
▁osoit	-10.3078
peli	-10.3085
▁lailla	-10.3088
▁katsotaan	-10.3091
päästö	-10.3091
▁menetelmä	-10.3095
teoria	-10.3097
oppi	-10.3097
▁aivoista	-10.3103
▁insinööri	-10.3106
▁tosissa	-10.3107
hdu	-10.3109
▁sisältää	-10.311
▁lause	-10.3117
▁heittä	-10.3117
che	-10.312
vaihd	-10.3128
▁hake	-10.3129
▁suunnitelma	-10.3129
eissä	-10.3131
▁tapahtumi	-10.3133
▁Britannia	-10.3141
▁huole	-10.3142
▁ratkaisuja	-10.3144
▁keskenä	-10.3161
▁yksinkertaisi	-10.3161
▁tääl	-10.3172
▁seurata	-10.3175
▁ajattelee	-10.3182
mätön	-10.3182
▁viimeiste	-10.3187
▁sosiaali	-10.3188
▁säilyttä	-10.32
▁fossiili	-10.3201
▁tarkastell	-10.3202
▁tarkk	-10.3219
▁lajei	-10.3225
▁haastee	-10.3225
▁mukava	-10.3233
▁ilmesty	-10.3238
▁fysiikka	-10.3243
▁järjestelmi	-10.3245
▁Viimeise	-10.3249
▁hom	-10.325
▁tutkimusta	-10.3252
▁Kuva	-10.3267
usk	-10.3273
▁pyydä	-10.3278
uksella	-10.3288
▁vah	-10.3297
▁laiva	-10.3299
▁muisto	-10.3304
▁sito	-10.3333
▁tuhat	-10.3337
tekijä	-10.3337
▁tytöt	-10.3345
▁kerätä	-10.3349
▁kanna	-10.3352
kkoja	-10.3377
▁jumala	-10.3406
merkki	-10.3407
▁säily	-10.3412
▁sotaa	-10.3417
▁pelkkä	-10.3429
teiden	-10.3444
▁aihee	-10.3459
llisuus	-10.3461
▁kysymyksi	-10.3494
▁ensimmäisi	-10.35
▁Kaik	-10.35
▁vieti	-10.3504
▁oven	-10.3505
vy	-10.3514
▁hidas	-10.3519
▁alueill	-10.3531
ttavissa	-10.3542
▁seurauksen	-10.3545
▁Ole	-10.3545
▁epätoivo	-10.3553
▁arvoitus	-10.3575
▁Tarkoit	-10.3577
q	-10.3585
▁nauti	-10.3587
kampanja	-10.3587
▁Bonica	-10.3587
▁Musiikki	-10.3587
▁Tiety	-10.3587
▁itsemurha	-10.3587
▁koralli	-10.3587
▁kromosomi	-10.3587
▁puolusta	-10.3587
▁suhtautu	-10.3587
▁vallankumoukse	-10.3587
▁Tiede	-10.3587
▁lähtö	-10.3587
▁moderni	-10.3587
▁puhdist	-10.3587
▁resurssi	-10.3587
▁hengittä	-10.3587
▁levittä	-10.3587
▁Smith	-10.3587
▁odota	-10.3587
▁Tarina	-10.3587
▁paikalla	-10.3587
▁opetti	-10.3587
▁päätöksi	-10.3587
▁näkemys	-10.3587
▁kaavio	-10.3587
▁ääri	-10.3587
▁tulkin	-10.3587
▁varhais	-10.3587
▁pilvi	-10.3587
▁aikaisemmi	-10.3587
▁ytime	-10.3588
▁uhre	-10.3588
▁Annoi	-10.3588
▁naisten	-10.3588
▁dodo	-10.3588
▁Yhtä	-10.3588
ational	-10.3588
▁Elämme	-10.3588
▁myydä	-10.3589
▁194	-10.3589
▁viere	-10.3589
▁valvonta	-10.359
▁hermostu	-10.359
▁herra	-10.359
▁27	-10.359
▁Idea	-10.359
▁kalvo	-10.3591
▁lähettää	-10.3591
▁valintoj	-10.3592
▁juna	-10.3593
▁velje	-10.3593
▁Art	-10.3594
▁etäisyy	-10.3594
▁Mah	-10.3595
▁napa	-10.3597
▁palautta	-10.36
▁hallinno	-10.36
▁keskity	-10.3607
▁viisa	-10.3609
▁asettaa	-10.3612
▁ikävä	-10.3614
▁tulevaisuutta	-10.3621
▁tietoisuudes	-10.3625
▁jätti	-10.3633
▁käytössä	-10.3633
▁antama	-10.3639
▁olosuhtei	-10.3641
▁lavall	-10.3644
▁60-	-10.3648
▁Kysy	-10.3652
▁väestöstä	-10.3655
▁kulkee	-10.3659
▁Brit	-10.3664
▁Valite	-10.3671
▁tuottama	-10.3672
▁herättä	-10.3672
▁pelaa	-10.3674
▁politiika	-10.3678
▁unohta	-10.3681
▁pila	-10.3686
▁taudin	-10.3688
▁päätty	-10.3695
▁koetta	-10.3718
▁kävellä	-10.3719
▁astee	-10.3722
▁helpost	-10.3729
aidan	-10.373
▁selvitä	-10.3743
▁tyypilli	-10.3744
▁kuoll	-10.3745
osiin	-10.375
▁50-	-10.3755
▁talle	-10.3755
▁halusivat	-10.3759
▁päästää	-10.376
▁pohjoise	-10.3763
hak	-10.3765
▁maailmanlaajuis	-10.377
▁rotta	-10.3775
eeseen	-10.3777
▁rap	-10.378
▁kokemusta	-10.3794
▁nous	-10.3799
▁parasta	-10.3801
▁Oh	-10.3804
iikka	-10.3805
veto	-10.3811
▁kiinnostava	-10.3818
▁todista	-10.382
laista	-10.3825
▁punaise	-10.3827
▁veny	-10.3834
▁savu	-10.3838
▁uudell	-10.3839
paikoissa	-10.384
▁perintei	-10.3856
▁luokka	-10.3878
▁seuraus	-10.3885
▁ajasta	-10.3888
▁kivun	-10.3896
kokonaisuu	-10.3908
▁voida	-10.3926
▁Afrikka	-10.3928
teltu	-10.3934
lauta	-10.3948
▁päätte	-10.3951
▁johdo	-10.3956
ahd	-10.3956
historia	-10.3956
▁ruumiin	-10.3957
palvelu	-10.3961
▁oppii	-10.3962
prosessi	-10.397
Afrika	-10.397
johtaja	-10.397
▁kuvio	-10.3987
isella	-10.3991
tieteilijöi	-10.4016
▁käsite	-10.4019
▁mahdollisuuksi	-10.4024
joiden	-10.4036
▁löydä	-10.4041
▁laiteta	-10.4063
▁prosess	-10.4065
dell	-10.4071
▁pyytä	-10.4082
▁kirjo	-10.4087
▁täyde	-10.4092
▁ympärille	-10.4096
▁ulkopuol	-10.4098
▁paikkoj	-10.4109
▁vanhemm	-10.4113
▁Ah	-10.412
▁Oikeasta	-10.4125
▁pyöri	-10.4134
▁tarkist	-10.4149
▁osalta	-10.4159
▁sato	-10.4163
▁tiedetä	-10.4167
▁kannatta	-10.417
nteeksi	-10.417
▁katu	-10.4171
ham	-10.4173
▁13	-10.4173
▁dokument	-10.4174
▁ilmoit	-10.4175
ambi	-10.4175
konferenssi	-10.4175
▁0,	-10.4175
▁Etiopia	-10.4175
▁Miettikää	-10.4175
▁Panbanisha	-10.4175
▁kemikaali	-10.4175
▁matemaatti	-10.4175
▁matematiika	-10.4175
▁potentiaali	-10.4175
▁proteiini	-10.4175
▁puoliväli	-10.4175
▁selkäytime	-10.4175
▁ulottuvuu	-10.4175
▁Saksa	-10.4175
▁juutalai	-10.4175
▁sankari	-10.4175
▁suojele	-10.4175
▁osavaltio	-10.4175
▁pidemmä	-10.4175
▁taistella	-10.4175
▁tarkoitti	-10.4175
▁Solly	-10.4175
▁Delhi	-10.4175
▁lopputulokse	-10.4175
▁pohdi	-10.4175
▁väkivaltais	-10.4175
▁saattoi	-10.4175
▁alhaal	-10.4175
▁kohtalo	-10.4175
▁leviä	-10.4175
▁Länsi	-10.4175
▁selitys	-10.4176
▁David	-10.4176
▁tuhanne	-10.4176
▁sotilas	-10.4176
▁ehdottoma	-10.4176
▁kuuluisa	-10.4176
▁1960	-10.4177
▁Kävi	-10.4177
▁Iraki	-10.4177
▁päädyi	-10.4177
▁ominaisuude	-10.4177
▁Maapallo	-10.4178
▁lähemmä	-10.4178
▁panosta	-10.4178
ohjimmilta	-10.4179
▁toki	-10.4179
▁1800	-10.4179
▁olleen	-10.4179
▁Aloitetaan	-10.4179
▁väki	-10.4179
erra	-10.4179
▁tyyli	-10.4179
▁1980	-10.4179
▁sorme	-10.4179
▁Pitää	-10.4181
▁maissi	-10.4181
▁vastakohta	-10.4182
▁valmistautu	-10.4184
▁rikkai	-10.4185
▁vasten	-10.4188
▁kuvaili	-10.4188
▁näyttämään	-10.4189
▁viittaa	-10.4189
▁Nyky	-10.419
▁kehittynyt	-10.4194
▁pilk	-10.4197
▁mielellä	-10.4198
▁juokse	-10.4202
▁tavallise	-10.4202
▁samanaikai	-10.4206
▁laakso	-10.4207
▁ohjat	-10.421
▁Syl	-10.4216
▁osia	-10.4217
▁järjestykse	-10.4218
▁jona	-10.422
▁ympyrä	-10.422
▁vakavast	-10.422
▁suositu	-10.4228
▁joudu	-10.4231
▁tuska	-10.4233
mestari	-10.4235
▁laskeutu	-10.4238
▁Evan	-10.4238
▁Tietoisuu	-10.4241
▁jatkoi	-10.4246
▁sul	-10.4266
▁kello	-10.427
▁myrsky	-10.4271
▁yhdisty	-10.4283
näkem	-10.4291
list	-10.4294
▁pienempi	-10.4297
▁kirjoja	-10.43
▁testaa	-10.43
ainetta	-10.4302
▁viiko	-10.4306
▁yhdellä	-10.4311
▁tutkijoi	-10.4313
▁muille	-10.4314
muksia	-10.4316
▁fyysise	-10.4322
▁kulutus	-10.4332
▁amerikkalai	-10.4339
▁isäni	-10.434
▁puoleen	-10.4345
▁sairaus	-10.4347
▁tyttöj	-10.4348
▁of	-10.436
▁Yhteis	-10.4378
emmän	-10.4384
▁testi	-10.4385
▁raska	-10.4389
elmi	-10.44
▁jatku	-10.441
▁tunnetu	-10.4414
▁englanni	-10.4419
▁vähä	-10.4428
▁paka	-10.4428
▁näitte	-10.4428
▁Silt	-10.4435
▁soda	-10.4439
kirjoitus	-10.444
▁syvällis	-10.4447
▁saari	-10.4467
▁hoido	-10.4479
▁valmii	-10.448
▁kehittyi	-10.4484
ydy	-10.4502
▁monimutkaisi	-10.4508
▁hampa	-10.451
▁interneti	-10.4542
▁saatu	-10.4548
ikäise	-10.455
▁paljastu	-10.4554
▁ilmestyi	-10.4563
▁kognitiivi	-10.4566
▁fyysis	-10.4575
▁tuoto	-10.4585
kaupungi	-10.4595
▁pii	-10.4599
lääk	-10.4608
tieto	-10.4615
▁köyhyy	-10.4624
raha	-10.4626
▁vuosikymmeni	-10.4642
▁Vau	-10.4644
luu	-10.4645
▁nähdäkse	-10.4655
▁luovi	-10.4665
▁polttoaine	-10.4667
▁tekniikka	-10.4685
▁salaisuu	-10.4697
▁negatiiv	-10.4713
▁Dr	-10.472
▁tau	-10.4728
shi	-10.4752
▁kap	-10.4764
▁tehokkaa	-10.4766
▁yllättä	-10.4768
▁todellisi	-10.4768
▁ihmet	-10.4774
▁We	-10.4785
▁tupakoi	-10.4796
viiva	-10.4798
maksu	-10.48
▁huomattava	-10.48
▁LHC	-10.48
▁dinosaurus	-10.48
▁labra	-10.48
▁naapuri	-10.48
▁nisäkkäi	-10.48
▁pöydä	-10.48
▁sopeutu	-10.48
▁tulkitse	-10.48
▁Tyttö	-10.48
▁radio	-10.48
▁ystäviä	-10.48
kymppi	-10.48
▁dynaami	-10.48
▁hassu	-10.48
▁robotti	-10.48
▁molempi	-10.48
▁Sahara	-10.48
▁harvinai	-10.48
▁kameli	-10.48
▁talve	-10.48
▁kahteen	-10.48
▁nukku	-10.48
▁tarve	-10.48
▁paljoa	-10.48
▁vaihto	-10.48
▁peili	-10.48
▁kivulia	-10.48
▁syyskuu	-10.48
▁muotoilu	-10.48
▁Näke	-10.4801
▁Toimi	-10.4801
▁kuoro	-10.4801
▁muistuttava	-10.4801
▁kaasu	-10.4801
▁tiedemiehe	-10.4801
▁tahto	-10.4801
▁suostu	-10.4802
▁keskustell	-10.4802
▁Kongo	-10.4802
▁Katsotaan	-10.4803
museo	-10.4803
▁Ilmasto	-10.4803
▁itke	-10.4804
▁lyö	-10.4804
▁opete	-10.4804
▁keskiarvo	-10.4804
▁tehdy	-10.4805
▁23	-10.4805
▁oppilaa	-10.4805
▁demo	-10.4806
▁Kevin	-10.4808
▁pako	-10.4808
▁atomi	-10.481
▁kadot	-10.4813
▁vetoa	-10.4813
▁palasi	-10.4813
▁ajatelle	-10.4815
▁entise	-10.4816
▁luonnollisesti	-10.4817
▁kahdeksa	-10.4818
ominaisuu	-10.4824
▁palkka	-10.4825
▁Otetaan	-10.4825
▁etene	-10.4827
▁poistaa	-10.483
▁saapui	-10.4831
▁esiintyy	-10.4833
▁kuollut	-10.4835
▁lauma	-10.4835
▁Oma	-10.4837
▁Työ	-10.484
▁sosiaalist	-10.4843
▁puhetta	-10.4847
▁sovi	-10.4854
▁Mary	-10.4854
▁kappalee	-10.4857
▁työkaluja	-10.4858
▁henkeä	-10.4866
▁löydämme	-10.4884
▁kansan	-10.4886
▁kopio	-10.4889
▁korvat	-10.4889
▁ajattelette	-10.489
▁geneetti	-10.49
▁voimakas	-10.4905
▁riippuvaisi	-10.4905
▁vaikutuksi	-10.4917
▁koskee	-10.4918
▁kylässä	-10.4922
▁lue	-10.4934
kaupp	-10.4936
▁tuotanto	-10.4942
▁pistee	-10.4944
▁törmää	-10.4956
▁hiljaisuude	-10.4956
▁jakso	-10.4958
▁luj	-10.4958
▁kuuluisi	-10.4962
▁polttoainee	-10.4963
kkojen	-10.4971
▁Mou	-10.4973
▁köyhyyde	-10.4979
▁aloitti	-10.499
▁toive	-10.4992
▁kärsivä	-10.4992
▁säännö	-10.5002
▁kaatu	-10.5008
▁Pel	-10.501
▁välttä	-10.5017
▁suuremma	-10.5019
▁Aloita	-10.502
▁siisti	-10.5026
▁Joh	-10.5042
▁kuolemaa	-10.5054
▁tarkall	-10.5068
▁nykyisi	-10.507
aine	-10.508
▁kysymystä	-10.5086
▁samoi	-10.509
▁lukio	-10.5091
▁kertoma	-10.5092
▁uni	-10.5108
▁tuntema	-10.5139
▁ajatel	-10.514
▁tutu	-10.5155
▁ottaisi	-10.516
raatio	-10.5177
▁uudenlai	-10.5185
▁Joo	-10.5186
▁positiivise	-10.519
▁ylläty	-10.5191
▁käyttäytymise	-10.5191
▁uusiutu	-10.5208
▁harmaa	-10.5215
▁sairau	-10.5216
▁Syy	-10.5244
liike	-10.5245
▁hoid	-10.5248
▁käyttäyty	-10.5249
toiminta	-10.5256
▁lapsista	-10.5258
kamera	-10.5262
▁pohjois	-10.5264
▁75	-10.5283
▁toipu	-10.5286
paino	-10.5286
▁maista	-10.5291
▁Dan	-10.5293
kymmentä	-10.5311
▁Keski	-10.5342
▁utelia	-10.5346
▁data	-10.5347
▁uskonnolli	-10.5359
▁tarkoituksell	-10.5361
▁Mal	-10.5369
▁vasemma	-10.5377
▁näkökulma	-10.5378
▁Los	-10.5384
▁Missä	-10.5405
▁komp	-10.5411
▁strategi	-10.5419
▁elävi	-10.5424
paikka	-10.5424
▁tunnu	-10.5426
▁sade	-10.5432
kirjoitusta	-10.5434
▁Kolma	-10.5455
▁käytö	-10.5457
▁samankaltai	-10.5461
▁rohke	-10.5464
▁aallo	-10.5464
▁Mielenkiintoi	-10.5467
▁googla	-10.5467
▁illuusio	-10.5467
▁ruokavalio	-10.5467
▁siitepöly	-10.5467
▁vuorovaikutukse	-10.5467
▁Hollywood	-10.5467
▁Raamattu	-10.5467
▁Washington	-10.5467
▁inhimilli	-10.5467
▁käsky	-10.5467
▁maailmansoda	-10.5467
▁vaihtelu	-10.5467
▁vetysulfidi	-10.5467
▁hyvinvoinni	-10.5467
▁korjata	-10.5467
▁Afganistani	-10.5467
▁Osoittautu	-10.5467
▁ihmiskunta	-10.5467
▁korjaa	-10.5467
▁muokkaa	-10.5467
▁hyvinvointi	-10.5467
▁sammu	-10.5467
▁Ystävä	-10.5467
▁ruoho	-10.5467
▁Ranska	-10.5467
▁määritellä	-10.5467
▁vanhoj	-10.5467
▁Steve	-10.5467
▁rakastu	-10.5467
▁yläpuolella	-10.5467
▁lakeja	-10.5467
▁siemen	-10.5467
▁puutarha	-10.5467
▁Tony	-10.5467
▁kokeilu	-10.5467
▁materiaale	-10.5467
▁talouskasvu	-10.5467
▁Kanada	-10.5467
▁esitellä	-10.5467
▁Erityise	-10.5467
▁lentokonee	-10.5467
▁köyhä	-10.5468
▁toisaal	-10.5468
▁julkaista	-10.5468
▁kohtei	-10.5468
▁nähdessä	-10.5468
▁kemiallis	-10.5468
▁kallii	-10.5469
▁avoin	-10.5469
▁terveellis	-10.5469
▁toimittaja	-10.5469
▁kyseenalai	-10.5469
▁Kerra	-10.547
▁tartunna	-10.547
iggs	-10.5471
ljoon	-10.5471
▁tuntemattomi	-10.5471
▁nappa	-10.5472
▁muinais	-10.5472
▁hermosto	-10.5473
▁ruudu	-10.5473
▁tullessa	-10.5473
▁valitsi	-10.5473
▁Muist	-10.5474
▁TV	-10.5474
▁Tosi	-10.5475
▁tonni	-10.5475
▁ylimääräi	-10.5475
▁ravintola	-10.5478
▁sitee	-10.5479
aikaise	-10.5481
▁jumi	-10.5481
▁jakautu	-10.5482
▁Odot	-10.5482
▁Oppi	-10.5483
▁onnellisia	-10.5486
▁jälje	-10.5486
▁Tunsi	-10.5488
▁pudot	-10.5488
▁katke	-10.549
▁liikettä	-10.549
▁päivittäi	-10.549
llisyyttä	-10.5499
▁repi	-10.5502
▁kuningatar	-10.5504
virra	-10.5505
▁suola	-10.5509
▁käsittee	-10.551
▁työntekijöi	-10.5514
▁säteily	-10.5518
skeli	-10.5519
▁osin	-10.5519
työntekijä	-10.552
▁tiedosto	-10.5522
▁summa	-10.5525
▁teette	-10.5526
▁käyttäytymistä	-10.5534
▁planeetta	-10.5536
▁tunnettu	-10.5543
▁tapahtumaa	-10.555
▁Halu	-10.5553
▁Tim	-10.5555
▁Vaikut	-10.5557
▁600	-10.5561
ily	-10.5576
eensa	-10.5579
imee	-10.5582
▁herkk	-10.5591
▁tarvitsisi	-10.5596
▁tulta	-10.5597
▁neurotietee	-10.56
80	-10.5606
luoka	-10.5608
▁paranta	-10.5611
▁suku	-10.5612
▁uutis	-10.5622
▁lentää	-10.563
▁lisätä	-10.5634
▁sosiaalisi	-10.5638
▁fossiilisi	-10.564
▁kaloj	-10.5641
▁monimutkaise	-10.565
▁Malta	-10.565
▁alkuperä	-10.5656
▁toiveen	-10.5659
▁päästäkse	-10.5671
▁tasolle	-10.5673
▁halk	-10.5678
▁vakavi	-10.5688
▁Tällaise	-10.569
nekas	-10.5693
▁pahin	-10.5696
▁vuosikymmen	-10.5707
▁erityi	-10.5708
▁lukemaan	-10.5715
siirto	-10.5715
▁huolissa	-10.5717
▁söisi	-10.5726
ley	-10.5742
neste	-10.575
▁luonnosta	-10.576
▁ympäröivä	-10.5764
▁Itä	-10.5783
▁kirjassa	-10.5789
▁Onneks	-10.5802
▁matkalle	-10.5813
▁muuttuvat	-10.5855
▁hallita	-10.587
▁seuraavi	-10.5881
▁tuottei	-10.5889
▁tavall	-10.5893
ottanut	-10.5902
▁näkisi	-10.5909
▁kiinnostunei	-10.5917
tuminen	-10.5935
▁Yhte	-10.594
▁tiedot	-10.5941
▁johtava	-10.5955
▁ranniko	-10.5959
juttu	-10.5971
▁sisältävä	-10.5972
lääkäri	-10.5974
F	-10.5975
poika	-10.5978
▁apu	-10.5979
▁leik	-10.599
lasku	-10.5994
▁todennäköisem	-10.5994
valo	-10.6003
▁jälke	-10.603
▁dramaattise	-10.6061
▁peruste	-10.6072
▁askel	-10.6074
dessä	-10.6076
▁kiehtova	-10.6093
▁taido	-10.6097
▁katoava	-10.6119
▁tyhjyy	-10.616
▁Kerro	-10.6169
▁kaupa	-10.6177
▁mikrobi	-10.618
asiantunti	-10.618
▁br	-10.6181
▁Obama	-10.6181
▁oivallu	-10.6181
▁persoonallisuu	-10.6181
▁sudenkorento	-10.6181
katastrofi	-10.6181
projekte	-10.6181
▁Eduardo	-10.6181
▁Englanni	-10.6181
▁Lähes	-10.6181
▁Ymmärsi	-10.6181
▁aktivoitu	-10.6181
▁biljoona	-10.6181
▁kamppailu	-10.6181
▁keskuudessa	-10.6181
▁noudattaa	-10.6181
▁oikeude	-10.6181
▁rakennus	-10.6181
▁simpansse	-10.6181
▁tarvepolku	-10.6181
▁tuijotta	-10.6181
▁venäläis	-10.6181
▁Darwin	-10.6181
▁Kuvittele	-10.6181
▁dollarei	-10.6181
▁optimisti	-10.6181
▁pikemmin	-10.6181
▁hengissä	-10.6181
▁väkivalla	-10.6181
▁analogi	-10.6181
▁ruoasta	-10.6181
▁sukelta	-10.6181
▁filmi	-10.6181
lamppu	-10.6181
▁palkkio	-10.6181
▁tyydy	-10.6181
▁mysteeri	-10.6181
▁jäädä	-10.6182
▁Oikei	-10.6182
▁auki	-10.6182
▁prototyyp	-10.6182
▁tutustu	-10.6182
hedelmä	-10.6182
▁siirry	-10.6182
▁rohkais	-10.6182
▁tehdessä	-10.6182
▁vihje	-10.6182
▁leiri	-10.6182
▁lopputulos	-10.6183
▁kytke	-10.6183
▁ladata	-10.6183
▁piele	-10.6183
▁japanilai	-10.6183
▁älylli	-10.6183
▁Suure	-10.6183
▁rasva	-10.6183
▁joustava	-10.6183
▁reuna	-10.6184
▁Hieno	-10.6184
▁suurenmoi	-10.6185
▁Ilma	-10.6185
▁tilaisuu	-10.6185
▁tapahdu	-10.6185
▁raivo	-10.6186
▁avaruut	-10.6186
▁Käsi	-10.6186
▁iske	-10.6186
▁rikas	-10.6186
▁paimen	-10.6187
iedustelupalvelu	-10.6188
▁opti	-10.6189
▁mainos	-10.619
▁palkit	-10.619
▁kiinalai	-10.6191
▁tarvittava	-10.6194
▁kaltaisia	-10.6194
▁AB	-10.6195
form	-10.6195
▁rakentamise	-10.6196
▁tähde	-10.6196
▁laski	-10.6197
▁saatamme	-10.6198
▁käsitellä	-10.6201
▁halpa	-10.6204
kurssi	-10.6204
▁lensi	-10.6204
▁Viisi	-10.6205
▁keskustele	-10.6206
▁linko	-10.6207
▁käänne	-10.6208
▁pyhä	-10.621
▁useampi	-10.6216
▁useammi	-10.6218
▁löydö	-10.6219
▁kolmas	-10.6219
haastattelu	-10.6219
▁nimet	-10.6221
▁tekniika	-10.6222
▁löysivät	-10.6222
▁pienemmä	-10.6224
nperin	-10.6234
▁tärkeimmä	-10.6235
▁keskimääräi	-10.624
▁haar	-10.6241
▁kymmeniä	-10.6248
▁koho	-10.6249
▁ranta	-10.6249
▁käytöstä	-10.6251
▁huoneeseen	-10.6253
▁tunnusta	-10.6255
▁hape	-10.6259
▁luontee	-10.6259
▁asukkai	-10.6261
▁mullist	-10.6265
▁Kaike	-10.6272
▁seurauksi	-10.6285
▁kansi	-10.6295
▁toimeen	-10.6312
▁rajoitta	-10.6314
uudessa	-10.6316
▁laukais	-10.632
▁rakastavat	-10.6332
▁pääos	-10.6332
▁puolelle	-10.6332
▁riippumatt	-10.6335
▁paljas	-10.6342
▁poissa	-10.6342
▁Ensin	-10.6343
▁mit	-10.6346
▁saare	-10.6353
yyli	-10.6358
▁Tois	-10.6358
▁musti	-10.6359
▁koki	-10.6361
▁hämmästyttävää	-10.6366
▁tutkimuksesta	-10.637
▁ongelmista	-10.6371
▁kuuluva	-10.6371
▁yritin	-10.6373
▁lentävä	-10.6374
▁pelkä	-10.6389
▁pelkkää	-10.639
▁Pian	-10.6399
▁paikallise	-10.6419
▁jumal	-10.642
▁Twitter	-10.6424
▁vastaanott	-10.6426
▁kaupalli	-10.6441
▁esitä	-10.6454
▁muodossa	-10.6461
▁pukeutu	-10.647
kudos	-10.648
▁internet	-10.6485
▁lumi	-10.6488
▁lääketieteellis	-10.6489
uudel	-10.6493
▁tuoli	-10.6496
▁paikalli	-10.6505
▁Heitä	-10.6507
▁ihmee	-10.6509
▁Vuosi	-10.6509
▁asiantuntija	-10.6518
▁Minkä	-10.6528
▁arvokas	-10.6532
▁kivu	-10.6534
▁mahdollisest	-10.6541
▁etenk	-10.6543
▁sill	-10.6552
▁visuaali	-10.6562
▁olentoj	-10.6569
▁Kerroi	-10.6569
▁Sellai	-10.657
ehdi	-10.6584
▁Pääsi	-10.6585
▁paikois	-10.6606
▁aktiivise	-10.6614
▁ympäröi	-10.6616
tuotanno	-10.6619
▁menetä	-10.6646
▁päätä	-10.6648
▁oppinee	-10.6661
▁ihmeellisi	-10.6663
mahta	-10.667
▁uskoisi	-10.6687
outu	-10.6697
▁maailmanlaajui	-10.67
▁monimuotoisuu	-10.6702
▁lap	-10.6719
20	-10.6724
asiassa	-10.6728
▁minuutti	-10.6734
taloude	-10.6743
ympäristö	-10.6744
materiaali	-10.6744
prosentti	-10.6746
metsä	-10.6746
video	-10.6755
▁perustuva	-10.6757
▁tulevi	-10.6759
▁kävell	-10.6768
▁kiist	-10.6774
▁kontrolloi	-10.6778
▁kiinnittä	-10.6801
▁kohd	-10.6801
▁moraalisi	-10.6807
▁yksittäi	-10.6818
tasolla	-10.6822
▁herät	-10.6837
▁onnellise	-10.6845
▁kär	-10.6853
gie	-10.6854
▁sivuu	-10.6855
▁päätyvä	-10.6873
tulost	-10.6876
▁kumma	-10.6882
▁puhelim	-10.6885
potila	-10.6886
todellisuu	-10.6887
▁havain	-10.6888
▁päättä	-10.6901
▁jättiläis	-10.6907
▁Puh	-10.6921
Eurooppa	-10.6927
▁historialli	-10.6928
laatikko	-10.6932
▁Todelli	-10.6937
▁185	-10.6942
▁diagnosoi	-10.6945
▁lyhyt	-10.6945
▁sairaa	-10.6946
▁800	-10.6949
mpatia	-10.6949
▁läsnä	-10.695
berg	-10.695
▁lääkärei	-10.695
▁oikeudenmukais	-10.695
▁verisuoni	-10.695
krokotiili	-10.695
▁Vasemma	-10.695
▁YouTube	-10.695
▁abstrakti	-10.695
▁ekosysteemi	-10.695
▁fyysiko	-10.695
▁hirveä	-10.695
▁kännykkä	-10.695
▁lehmä	-10.695
▁luuranko	-10.695
▁lyhyi	-10.695
▁löytäisi	-10.695
▁mahdottoma	-10.695
▁mielihyvä	-10.695
▁nisäkkää	-10.695
▁ohjelmoi	-10.695
▁pidempään	-10.695
▁tammikuu	-10.695
▁teknologioi	-10.695
▁tylsä	-10.695
▁vuorovaikutus	-10.695
▁ylläpitää	-10.695
▁ylpe	-10.695
▁organisme	-10.695
▁unelmoi	-10.695
▁vanhempa	-10.695
▁älykäs	-10.695
moottori	-10.695
▁vähite	-10.695
▁Venäjä	-10.695
▁vapautu	-10.695
▁irro	-10.695
▁meksikolai	-10.695
▁juusto	-10.695
paikasta	-10.695
▁ansaitse	-10.695
▁miljarde	-10.695
▁kulki	-10.695
proteesi	-10.695
▁luottamukse	-10.695
▁avoimi	-10.695
▁osittain	-10.695
▁kuidu	-10.695
▁valtameri	-10.695
▁käsitystä	-10.695
▁terveydenhuolto	-10.695
▁Jeesu	-10.6951
▁Syö	-10.6951
▁vaadi	-10.6951
▁palveli	-10.6951
▁pysäyttää	-10.6951
▁Melko	-10.6951
▁vaikuta	-10.6951
tettävissä	-10.6951
▁Norja	-10.6951
▁myöhä	-10.6951
▁Lähi	-10.6951
▁yhty	-10.6951
ielikuvitus	-10.6951
▁vaihtele	-10.6951
▁elinympäristö	-10.6951
▁Paul	-10.6951
▁kotoisi	-10.6951
▁merenpin	-10.6952
▁laittoi	-10.6952
▁upei	-10.6952
▁esitykse	-10.6953
palkinno	-10.6953
▁auko	-10.6953
▁tasku	-10.6953
▁taloute	-10.6953
▁huuta	-10.6955
▁1990	-10.6955
▁Mario	-10.6955
odia	-10.6955
▁kokeili	-10.6956
▁Potila	-10.6956
▁musiikkia	-10.6958
▁lupaa	-10.6958
▁piirtä	-10.6958
▁Tark	-10.6959
▁250	-10.696
▁otettu	-10.696
▁Näettekö	-10.696
▁pääsy	-10.6962
▁Naur	-10.6962
▁instituuti	-10.6962
▁Kertoja	-10.6963
▁putoa	-10.6963
▁luovuude	-10.6964
▁maanosa	-10.6967
▁Nime	-10.6967
▁Kolmanne	-10.6968
▁rakennettu	-10.6971
▁Bea	-10.6972
mainoks	-10.6973
▁välittävä	-10.6976
▁testata	-10.6978
▁näyttäisi	-10.6978
▁nykypäivän	-10.6979
▁oppimise	-10.6979
▁edellä	-10.698
▁Tosiasia	-10.6981
▁For	-10.6982
▁tietäisi	-10.6983
▁vieressä	-10.6984
▁sukupuol	-10.6984
▁nopeutta	-10.6986
▁ääntä	-10.6987
tehtävi	-10.6991
▁satee	-10.6992
▁todistee	-10.6993
▁lume	-10.6995
▁ellei	-10.6997
▁määrittä	-10.6999
▁merkin	-10.7004
▁esitti	-10.7008
▁raaka	-10.7011
▁asiakkaa	-10.7011
▁paikkansa	-10.7026
▁johtaji	-10.7032
▁järkevä	-10.7041
▁Bar	-10.7043
▁onnistui	-10.7044
▁suunnittelija	-10.707
▁kokonaisuude	-10.7074
▁kaikenlaist	-10.7079
aitsi	-10.708
▁tullee	-10.7085
▁sido	-10.7089
▁uteliaisuu	-10.7092
▁sisältä	-10.7094
▁tri	-10.7103
▁loukka	-10.7104
▁Pääti	-10.7109
▁Kiva	-10.7114
▁yleistä	-10.7117
rge	-10.7132
kaivos	-10.7141
▁huonoja	-10.7144
▁kokeile	-10.7157
▁kosketta	-10.7169
▁minuut	-10.7173
▁vero	-10.7192
ilanne	-10.7215
eroon	-10.722
▁Kar	-10.7226
▁arki	-10.7226
▁hoitaja	-10.7233
▁rum	-10.7235
▁lämpimä	-10.7242
▁sor	-10.7244
▁Muistatte	-10.7249
▁Browne	-10.7251
vamma	-10.7259
ahtaa	-10.7262
▁parhait	-10.7262
▁saalis	-10.7269
ipp	-10.7269
▁auttava	-10.727
▁Uud	-10.7285
▁samanlaisi	-10.7296
▁aktiivi	-10.7298
▁Ette	-10.7301
▁seurasi	-10.7312
▁pakolais	-10.7313
▁muistoj	-10.7314
▁kuvaile	-10.7318
▁työssä	-10.7326
▁Kuit	-10.7328
kahta	-10.7331
▁uusiutuva	-10.7334
▁tilaisuude	-10.7336
▁onnistunee	-10.7357
▁ottava	-10.7391
▁todiste	-10.7403
▁kymmene	-10.7408
▁hallusinaatio	-10.7417
▁pyör	-10.7429
alueelle	-10.7442
▁kykenevä	-10.7447
▁kunnoll	-10.7453
taito	-10.7454
▁mal	-10.7473
lkein	-10.7477
▁35	-10.7481
▁aivoihi	-10.7483
▁huoli	-10.7509
▁Jät	-10.7529
oidi	-10.7547
soida	-10.7549
▁myö	-10.7567
▁Ihmisi	-10.7568
ryhmi	-10.7569
hahmo	-10.757
tiede	-10.7574
elokuva	-10.7574
▁pääss	-10.7575
suhde	-10.7575
reaktio	-10.7576
jakso	-10.7577
lapse	-10.7582
laittee	-10.7587
▁onnettomuu	-10.7597
paida	-10.7597
tieteellis	-10.7605
▁epätodennäköis	-10.7614
▁ympäristössä	-10.762
▁Työskentele	-10.7631
▁tiedo	-10.7631
▁nimell	-10.7638
▁vapaaehtoi	-10.764
▁homma	-10.7643
alueella	-10.7654
hje	-10.7658
▁riippuvai	-10.7658
▁tarkastel	-10.7684
etkä	-10.7709
▁kuningas	-10.774
▁antaisi	-10.7742
▁hymy	-10.7752
▁annet	-10.776
▁muutami	-10.7761
kustannukse	-10.7771
▁rikkaa	-10.7772
nsuojelu	-10.7773
musiikki	-10.7775
▁rehellis	-10.7782
▁hämmästy	-10.7782
▁termi	-10.7783
▁INCRA	-10.7784
▁markkina	-10.7784
▁signaali	-10.7784
▁unohd	-10.7784
▁vallankumous	-10.7784
kapasiteetti	-10.7784
klinika	-10.7784
▁2030	-10.7784
▁Ajatellaan	-10.7784
▁Angelesi	-10.7784
▁Chicago	-10.7784
▁Einstein	-10.7784
▁Kuulostaa	-10.7784
▁LIGO	-10.7784
▁Robert	-10.7784
▁Uganda	-10.7784
▁laidun	-10.7784
▁ohimolohko	-10.7784
▁sovellu	-10.7784
▁sudenkorenno	-10.7784
▁terrorist	-10.7784
▁vähintään	-10.7784
▁krooni	-10.7784
▁nauroi	-10.7784
▁pesukone	-10.7784
▁pysähdy	-10.7784
▁rakkautta	-10.7784
hengitys	-10.7784
▁omena	-10.7784
▁synteetti	-10.7784
▁Bruno	-10.7784
▁huomen	-10.7784
▁väkivaltaa	-10.7784
▁Earth	-10.7784
periaate	-10.7784
▁indeksi	-10.7784
▁ajatellut	-10.7784
▁rakenna	-10.7784
▁ihmisaivo	-10.7784
▁klikka	-10.7784
▁Grand	-10.7784
▁markkinointi	-10.7784
▁Alec	-10.7784
▁unelmi	-10.7784
▁kannettava	-10.7784
▁Ehdo	-10.7784
opiskelijoiden	-10.7784
▁pätkä	-10.7784
▁rakasti	-10.7784
▁tupla	-10.7784
elsius	-10.7784
▁merkittävi	-10.7784
▁posteri	-10.7784
▁Koira	-10.7784
▁neurotieteilijä	-10.7784
▁kaksinkertais	-10.7784
▁tukiverk	-10.7784
▁hiukkase	-10.7784
▁erinomai	-10.7784
▁muova	-10.7784
▁ymmärrettävä	-10.7784
▁Conor	-10.7784
▁etukäte	-10.7785
▁laajenta	-10.7785
▁kenelle	-10.7785
▁Totta	-10.7785
▁taikuri	-10.7785
▁syvemmä	-10.7785
▁mahtavi	-10.7785
säätiö	-10.7785
▁viholli	-10.7785
▁maalaus	-10.7786
▁muoti	-10.7786
▁tuule	-10.7786
▁nettisivu	-10.7786
▁avasi	-10.7787
▁vauhti	-10.7787
▁ydinvoima	-10.7787
▁aido	-10.7787
▁kiusa	-10.7788
▁Loppu	-10.7788
▁pahoin	-10.7788
▁epäily	-10.7788
▁metro	-10.7789
▁varastoi	-10.7789
▁suosikki	-10.779
▁hädin	-10.779
▁kauas	-10.779
▁Tiedättekö	-10.7791
▁masentun	-10.7791
▁City	-10.7791
▁päätös	-10.7792
▁turhautu	-10.7792
▁puisto	-10.7792
▁vaikke	-10.7792
laulu	-10.7793
▁kämmen	-10.7795
▁kiitoks	-10.7796
laitoksi	-10.7796
▁pakkomielte	-10.7797
▁32	-10.78
▁harva	-10.7801
▁mehiläisiä	-10.7802
▁näkevän	-10.7803
▁Yhdistyn	-10.7803
▁virheelli	-10.7804
▁riko	-10.7805
▁arvioida	-10.7805
▁hämmen	-10.7806
▁osoitti	-10.7808
▁peloissa	-10.7809
▁joukkoon	-10.7811
▁ainut	-10.7811
▁romaani	-10.7812
▁viimeisin	-10.7812
▁and	-10.7813
▁kielellä	-10.7815
▁alkuun	-10.7818
▁Opet	-10.7818
▁merkityksellis	-10.782
▁ravinto	-10.7824
ife	-10.7824
▁yllätty	-10.7825
liitto	-10.7834
aattori	-10.7835
▁yliopistoon	-10.7838
▁valinnan	-10.7838
▁katsoessa	-10.7841
▁rotti	-10.7844
▁70-	-10.7847
▁Bell	-10.785
▁peto	-10.785
▁juoma	-10.7852
▁Tiedätte	-10.7852
▁Star	-10.7852
▁kenenkä	-10.7853
▁90-	-10.7857
▁avio	-10.7859
▁työpaika	-10.7864
▁raaja	-10.7868
▁ketä	-10.787
▁paikko	-10.7887
▁hyöntei	-10.7888
▁liikkeelle	-10.7892
▁alueit	-10.7895
▁menneisyyde	-10.7901
▁tyypillise	-10.7904
stetty	-10.7907
▁kilpail	-10.7912
▁kasvanut	-10.7913
▁kynä	-10.7914
▁keinoja	-10.7916
▁norsu	-10.7921
▁paikallisi	-10.794
▁kauemm	-10.7951
▁seuraukse	-10.7972
kkejä	-10.7975
▁visuaalisi	-10.7979
▁ikäänty	-10.8002
▁muuttuva	-10.8004
▁vety	-10.802
▁oirei	-10.8029
▁luovuut	-10.8047
▁kauniit	-10.8047
▁havaitsi	-10.8049
▁asukas	-10.8053
▁valinn	-10.8054
▁tarjosi	-10.8068
▁englantilai	-10.8069
▁Millai	-10.8072
▁95	-10.8095
▁rinn	-10.8107
▁katosi	-10.8139
▁kiitollisuu	-10.8159
metris	-10.8161
▁kerät	-10.8161
▁kerää	-10.8164
hallusinaatioita	-10.8164
▁ammattilais	-10.8166
käyttö	-10.8183
▁kuumi	-10.8189
▁teollise	-10.8206
▁virhei	-10.822
▁kansalaisi	-10.8231
▁uutise	-10.8235
▁alkuperäise	-10.825
▁hyönteist	-10.8262
▁toivotta	-10.8279
▁kuvailla	-10.829
▁järje	-10.8297
▁Haluat	-10.831
▁Pidä	-10.8323
▁ratkaiseva	-10.8324
▁pingviini	-10.8335
▁kuuntelema	-10.8348
▁teokse	-10.8364
käsityks	-10.8367
▁kiva	-10.8371
▁yrittänee	-10.8413
▁hiil	-10.8416
molekyyli	-10.8417
▁toistuva	-10.8432
▁läheise	-10.8436
▁liittä	-10.8466
▁lahjo	-10.8476
määri	-10.8477
verkosto	-10.8485
amerikkalai	-10.8485
pyörä	-10.8488
tiedettä	-10.849
kiele	-10.85
▁maine	-10.8502
▁tarkastele	-10.8505
▁epäonnistumise	-10.8524
▁teolli	-10.8527
hoito	-10.8536
▁Aio	-10.8542
▁muodostava	-10.8545
▁helpomm	-10.8549
jätkä	-10.8563
▁keräämä	-10.8578
▁sotku	-10.8587
ack	-10.8618
him	-10.8623
▁Goljati	-10.8626
planktoni	-10.863
vun	-10.8638
▁henke	-10.864
paine	-10.8655
▁Pari	-10.8672
▁edu	-10.8673
periaatte	-10.8674
▁lähettämä	-10.8686
▁keuhko	-10.8687
▁ymmärret	-10.8692
viljelijöi	-10.8693
▁Espanja	-10.8693
▁bakteerei	-10.8693
▁fantasti	-10.8693
▁ilmiselvä	-10.8693
▁löytö	-10.8693
▁syvänmeren	-10.8693
▁traagi	-10.8693
▁Harvardi	-10.8693
▁Malediiveill	-10.8693
▁Universumi	-10.8693
▁William	-10.8693
▁Ymmärrä	-10.8693
▁dinosaurukse	-10.8693
▁elintärke	-10.8693
▁graafi	-10.8693
▁häiritse	-10.8693
▁identiteetti	-10.8693
▁inflaatio	-10.8693
▁johdonmukai	-10.8693
▁konflikti	-10.8693
▁massiivi	-10.8693
▁matematiikka	-10.8693
▁metafora	-10.8693
▁planeettoj	-10.8693
▁poikkeava	-10.8693
▁päihitt	-10.8693
▁raportti	-10.8693
▁ruotsalai	-10.8693
▁sattumanvarais	-10.8693
▁seksuaali	-10.8693
▁tomaati	-10.8693
▁tyttöystävä	-10.8693
▁varustettu	-10.8693
▁Gayla	-10.8693
▁Täydelli	-10.8693
▁masennukse	-10.8693
▁mekanismi	-10.8693
▁poikkeus	-10.8693
▁älykkäi	-10.8693
▁Shadi	-10.8693
▁italialai	-10.8693
▁käsittely	-10.8693
▁raportoi	-10.8693
perustavanlaatui	-10.8693
▁Lääkäri	-10.8693
▁kollegan	-10.8693
▁lääkkee	-10.8693
▁onnellisuutta	-10.8693
▁Tajusi	-10.8693
▁linkittä	-10.8693
▁jalkoja	-10.8693
▁Puole	-10.8693
▁Perintei	-10.8693
▁Terve	-10.8693
▁valinnanvara	-10.8693
▁täytynyt	-10.8693
▁Huomasi	-10.8693
▁piirteitä	-10.8693
▁vapaude	-10.8693
▁puhdas	-10.8693
terapia	-10.8693
▁selkey	-10.8693
▁studio	-10.8693
▁kunnioitus	-10.8693
▁pilve	-10.8693
▁Yhden	-10.8693
▁puhtaas	-10.8693
▁Huono	-10.8693
▁huolta	-10.8693
▁pahoilla	-10.8693
▁sekoitta	-10.8693
▁Koulu	-10.8693
▁logiikka	-10.8693
▁apina	-10.8693
▁Coca	-10.8693
joukkotuho	-10.8693
▁vaattee	-10.8693
▁Arvo	-10.8693
▁rakkaus	-10.8693
▁rytmi	-10.8693
▁Väri	-10.8693
▁palkinto	-10.8693
▁arvele	-10.8693
▁196	-10.8694
▁vangit	-10.8694
▁onnellisuus	-10.8694
▁kaipaa	-10.8694
▁laser	-10.8694
▁sävel	-10.8694
▁identtis	-10.8694
lampu	-10.8694
▁tohtori	-10.8695
▁Hauka	-10.8695
▁Kuusi	-10.8695
▁kolmasosa	-10.8695
▁koiri	-10.8695
▁lelu	-10.8695
▁vanhoi	-10.8695
▁kärsimys	-10.8695
▁Timesi	-10.8695
▁matki	-10.8695
▁runsaa	-10.8695
que	-10.8696
▁muttei	-10.8696
▁vaihtu	-10.8696
▁hanhe	-10.8696
▁syksy	-10.8696
▁Toivottavast	-10.8697
▁vahvo	-10.8697
▁valikoi	-10.8697
▁tutkimuksia	-10.8698
▁totuutta	-10.8698
▁pohjautu	-10.8698
▁sisko	-10.8699
▁harvoi	-10.8699
▁kohtaus	-10.8699
▁Talo	-10.8699
▁ikuise	-10.87
steet	-10.8701
▁uraani	-10.8701
▁vanhemmat	-10.8703
▁sisar	-10.8703
▁sarjakuv	-10.8703
▁nähty	-10.8703
johto	-10.8704
▁maalaa	-10.8705
▁korkeampi	-10.8706
ijöi	-10.8706
▁esittele	-10.8707
teollisuuden	-10.8707
▁menetykse	-10.8708
▁varjo	-10.8709
▁parane	-10.8709
▁harkit	-10.871
▁auta	-10.8712
▁kehittynei	-10.8713
▁koulutettu	-10.8713
▁sormi	-10.8713
▁täydellisen	-10.8715
▁kohtasi	-10.8715
▁mikse	-10.8715
▁Tarkoitukse	-10.8723
▁metaani	-10.8725
▁suosittu	-10.8726
▁kumo	-10.873
▁kentä	-10.8732
▁levä	-10.8737
▁maistu	-10.8741
▁nouseva	-10.8743
▁tavata	-10.8747
▁pump	-10.8754
▁leiki	-10.8757
▁yhdist	-10.8758
▁kukki	-10.8758
▁haasteista	-10.8758
▁säätele	-10.8759
▁pidett	-10.876
▁miesten	-10.8764
▁autiomaa	-10.877
▁potilais	-10.8776
▁päätell	-10.8776
▁Pidi	-10.8796
heimer	-10.8806
▁vanno	-10.8806
▁hyp	-10.8806
▁tietoon	-10.8818
▁venee	-10.8819
▁estävä	-10.882
▁huijaamise	-10.8841
▁dramaatti	-10.8849
▁salaperäisyy	-10.887
▁kantasolu	-10.8874
▁kell	-10.8882
tuottee	-10.889
▁alkuperäis	-10.8891
▁kaukaisi	-10.8892
▁käyttäytymi	-10.8893
lkani	-10.8893
▁paini	-10.8896
▁Kone	-10.8898
▁kuoleva	-10.89
▁läheisi	-10.89
▁keskeyt	-10.891
▁kliinise	-10.8917
60	-10.8927
kaupall	-10.8932
kokoelma	-10.8942
▁siir	-10.8953
▁36	-10.8962
▁ove	-10.8971
▁taloudellise	-10.8981
ähtää	-10.8982
▁kansainvälise	-10.8986
▁kolma	-10.8997
▁virus	-10.9009
▁opisto	-10.9018
▁digitaali	-10.9025
▁Yhdysvaltoj	-10.9029
▁Jää	-10.9048
▁kognitiivisest	-10.9048
▁afrikkalai	-10.9049
työt	-10.9057
▁sav	-10.9081
aineita	-10.9084
ytämme	-10.9103
kehä	-10.9106
▁ohe	-10.9109
uck	-10.9112
▁millaisi	-10.9112
▁haitt	-10.9131
▁kyseise	-10.9132
▁kallis	-10.9135
▁65	-10.9139
▁kulkeva	-10.9165
▁tunteisii	-10.9169
▁kahdell	-10.9184
jiä	-10.9192
▁tietämättömyy	-10.9194
▁käyttäisi	-10.9225
▁Kasvo	-10.9226
▁pyyd	-10.9228
▁päättävä	-10.9242
▁Neuro	-10.9273
▁ymmärtävä	-10.9279
▁sairas	-10.9288
▁Brown	-10.9311
▁yhdistävä	-10.9341
▁haluta	-10.9361
▁mitat	-10.9364
onnistunut	-10.9415
tuotanto	-10.9426
▁vakuut	-10.9427
▁käyttäytyvä	-10.9437
miehiä	-10.9448
tieteilijä	-10.9452
▁Col	-10.9472
Britannia	-10.9483
Afrikkaa	-10.9484
tutkimukse	-10.9486
projekti	-10.9487
rakentee	-10.9487
ongelma	-10.9487
Intia	-10.9489
taistelu	-10.9497
kuvio	-10.9504
▁eks	-10.9519
▁tyytyväi	-10.9527
▁norsuj	-10.9529
▁salaperäi	-10.9534
▁Israel	-10.9541
tilantee	-10.9545
aihe	-10.9561
▁kymmeni	-10.9603
▁kork	-10.9606
▁torju	-10.9613
▁yhteiskunnalli	-10.9622
▁läpäis	-10.9626
▁piile	-10.9634
▁poliiti	-10.9638
▁vuosisadall	-10.9645
▁Wal	-10.966
▁tietoisi	-10.9663
standardi	-10.9674
▁Anders	-10.9681
▁Interneti	-10.9691
▁nöyr	-10.9692
juoksu	-10.9693
▁hypoteettis	-10.9693
▁kongressi	-10.9693
delfiini	-10.9693
epätasapaino	-10.9693
lisäulottuvuuksi	-10.9693
ofobi	-10.9693
▁2,5	-10.9693
▁Havaiji	-10.9693
▁Ihmemaa	-10.9693
▁MIT	-10.9693
▁Solomon	-10.9693
▁Suunnittel	-10.9693
▁Tansania	-10.9693
▁Tehdään	-10.9693
▁aavistu	-10.9693
▁demokraatti	-10.9693
▁ennennäkemättöm	-10.9693
▁galakse	-10.9693
▁galaksi	-10.9693
▁kartoitta	-10.9693
▁kategori	-10.9693
▁kirurgi	-10.9693
▁kolmiulottei	-10.9693
▁naurettava	-10.9693
▁peukalo	-10.9693
▁radikaali	-10.9693
▁radioaktiivi	-10.9693
▁rentoutu	-10.9693
▁tekstiviesti	-10.9693
▁vaihtoehdo	-10.9693
▁ymmärrykse	-10.9693
▁ymmärrys	-10.9693
▁AIDS	-10.9693
▁Barefoot	-10.9693
▁espanja	-10.9693
▁helveti	-10.9693
▁kollegoi	-10.9693
▁kriitti	-10.9693
▁kuvitelkaa	-10.9693
▁mielipide	-10.9693
▁perjantai	-10.9693
▁politiikka	-10.9693
▁potenssi	-10.9693
▁Windows	-10.9693
▁kamelei	-10.9693
▁myrkyll	-10.9693
▁ristiriita	-10.9693
▁aavikoitumis	-10.9693
▁paksu	-10.9693
▁toteutu	-10.9693
▁Tyypi	-10.9693
▁avoime	-10.9693
▁roboti	-10.9693
▁jäähdyt	-10.9693
▁High	-10.9693
▁rituaal	-10.9693
▁äärettömän	-10.9693
▁selitykse	-10.9693
▁haihtu	-10.9693
▁suoritus	-10.9693
▁tappoi	-10.9693
▁munuais	-10.9693
▁Päivä	-10.9693
▁Rica	-10.9693
ppejä	-10.9693
▁vapaus	-10.9693
▁kodittomi	-10.9693
▁Laulu	-10.9693
▁herää	-10.9693
▁tyhmi	-10.9693
▁altistu	-10.9693
▁eloonjäämis	-10.9693
▁kuvitteli	-10.9693
▁Tuuli	-10.9693
▁välittäjä	-10.9693
▁äidin	-10.9693
▁avautu	-10.9693
▁Yksinkertai	-10.9693
▁talvi	-10.9693
▁Scott	-10.9693
▁ihail	-10.9693
paikoilla	-10.9693
▁Pitäisi	-10.9693
juliste	-10.9693
▁kupla	-10.9693
▁piirre	-10.9693
▁hiukkasi	-10.9693
▁rikkau	-10.9693
▁Tiedätkö	-10.9693
▁Muovi	-10.9693
▁ulkomaalais	-10.9693
▁hiire	-10.9693
▁todennäköisyys	-10.9693
▁Bushi	-10.9694
▁muotoilijoi	-10.9694
▁Kuuntel	-10.9694
▁muistele	-10.9694
▁luottamusta	-10.9694
▁menneisyyt	-10.9694
▁nappi	-10.9694
piirtein	-10.9694
▁nuku	-10.9694
▁havainnollista	-10.9694
▁vahingoitta	-10.9694
▁tehokkuu	-10.9695
▁sotilai	-10.9695
▁staatti	-10.9695
▁kieltäyty	-10.9695
▁koski	-10.9695
▁löydetty	-10.9695
▁aikakaut	-10.9696
▁Pyri	-10.9696
▁haitalli	-10.9696
▁yksityiskohta	-10.9696
▁julm	-10.9696
▁pistemäärä	-10.9696
▁Näyttää	-10.9697
▁rohkeutta	-10.9697
▁85	-10.9697
▁peittää	-10.9697
▁193	-10.9697
▁ajanjakso	-10.9697
▁tallenta	-10.9697
▁Teidä	-10.9698
▁oksa	-10.9698
▁Samo	-10.9698
▁innostaa	-10.9698
▁sienet	-10.9698
▁ravintei	-10.9699
▁Science	-10.9699
▁Raha	-10.9699
▁turrut	-10.9699
▁pikkurui	-10.9699
▁varrell	-10.97
▁29	-10.97
▁huoneen	-10.97
vastus	-10.97
eettise	-10.97
▁hyväksyttävä	-10.9701
▁kuivi	-10.9701
▁luovuus	-10.9701
▁rauta	-10.9702
▁poimi	-10.9702
▁leikkaa	-10.9702
▁Miksei	-10.9702
kameroi	-10.9703
▁tuntemattoma	-10.9703
▁nopei	-10.9703
▁tunnelma	-10.9704
▁lippu	-10.9705
argumentti	-10.9707
▁häviä	-10.9707
▁Bill	-10.9708
▁auktoriteetti	-10.9709
▁Gore	-10.9711
▁ironi	-10.9713
▁varmo	-10.9714
▁Valtava	-10.9715
▁Katsotaanpa	-10.9715
▁välittää	-10.9716
▁hukkaa	-10.9717
▁asukkaa	-10.9718
▁lähempä	-10.972
onnet	-10.9721
▁tarpeisii	-10.9723
▁katseli	-10.9723
▁parann	-10.9723
▁Eurooppaa	-10.9724
▁Kaikke	-10.9727
▁kirjasto	-10.9731
▁kärje	-10.9731
▁liikentee	-10.9732
▁vatsa	-10.9734
▁kumpi	-10.9738
▁onnellisempi	-10.9738
▁Pariisi	-10.9738
▁monimutkaisempi	-10.9742
▁aivoje	-10.9745
▁mittari	-10.9745
▁kuningaskun	-10.9746
▁vasen	-10.9748
▁sijoituksi	-10.9751
▁työpaikk	-10.9751
▁tavallisi	-10.9754
▁lämpenemise	-10.9756
▁Mag	-10.9757
▁avata	-10.9759
rry	-10.9763
▁Goljat	-10.9766
▁onnekkai	-10.9767
▁paikalliste	-10.977
▁tietokonetta	-10.9773
▁perhettä	-10.9781
isyyttä	-10.9792
▁rivi	-10.9792
▁asunto	-10.9804
▁näytö	-10.9805
▁isomma	-10.9807
▁leikat	-10.9809
▁rakentava	-10.9815
▁pahemp	-10.982
pussi	-10.9821
▁eteläise	-10.9827
▁saavu	-10.9831
▁valkoise	-10.9842
▁Wall	-10.9845
▁askelee	-10.9847
▁Chi	-10.9856
▁tietynlai	-10.9857
▁Dar	-10.9872
▁ylle	-10.9888
▁yksittäisi	-10.9906
▁kokeilla	-10.9907
▁neuronei	-10.9923
▁kontrolloid	-10.9924
▁syömää	-10.9932
lähtee	-10.9938
▁onnettomuude	-10.9944
tsik	-10.9953
▁viikoll	-10.9986
▁tavallisest	-11.0002
▁luovutta	-11.0039
isuudessa	-11.0039
▁luonnollise	-11.005
▁vakaa	-11.0062
▁luovu	-11.0076
merell	-11.0082
▁vaihtoehtoj	-11.0085
▁point	-11.0089
▁kaupungei	-11.011
▁Harr	-11.0127
▁lintuj	-11.0154
▁vikaa	-11.0158
▁vastauksi	-11.016
▁fossiilist	-11.0164
tuhatta	-11.017
▁syylli	-11.0172
▁autoj	-11.0172
▁kovast	-11.0178
▁voimakkai	-11.0182
järjestelmässä	-11.0186
▁tekst	-11.0197
▁mitkä	-11.0208
▁murha	-11.0227
▁hermosoluj	-11.0232
▁Cha	-11.0233
▁painee	-11.0238
▁elektro	-11.0256
▁liikkumise	-11.0266
lson	-11.0269
▁ketju	-11.0279
jina	-11.0293
▁Kysee	-11.0304
▁amerikkalaist	-11.0315
▁epävarmuu	-11.0322
▁olennai	-11.0337
▁annetti	-11.035
▁esittävä	-11.0361
▁hiile	-11.0367
puolella	-11.0394
liikkeen	-11.0411
▁auringo	-11.0424
▁viall	-11.0427
päiväise	-11.0447
▁toimijoi	-11.0453
llisuuden	-11.0459
▁hylj	-11.0472
▁tuloste	-11.0477
▁useimmi	-11.0494
▁Ihmi	-11.0499
▁epätavalli	-11.0548
▁yksilölli	-11.0551
▁suunnitteli	-11.0563
▁pop	-11.0574
U	-11.0593
vaikutuksi	-11.0594
laatiko	-11.0594
suunnitelma	-11.0594
happ	-11.0595
kilpailu	-11.0595
opiskelija	-11.0595
suora	-11.0595
nousu	-11.0597
muodo	-11.0598
keskustelu	-11.0599
tutkija	-11.0599
▁pääst	-11.0623
ettäisiin	-11.0624
▁geneettise	-11.0624
▁kaiv	-11.0631
▁ilmeisest	-11.0654
lisoi	-11.0655
▁omaperäi	-11.0655
▁tutkimise	-11.067
▁lukema	-11.0678
▁hyväntekeväisyy	-11.0681
soluj	-11.0699
sivusto	-11.0716
henki	-11.072
▁äärimmäis	-11.0721
▁valuu	-11.0739
ksaa	-11.0748
▁osoittanee	-11.0751
▁tavoittei	-11.0754
metrin	-11.0755
▁risti	-11.0755
▁vahvuu	-11.0766
▁ahdist	-11.077
kertaise	-11.0775
instituut	-11.0786
temppu	-11.0787
▁vanki	-11.0799
▁teollisuus	-11.0803
▁IDEO	-11.0804
▁Francisco	-11.0804
kumppanei	-11.0804
molekyyle	-11.0804
▁Auringo	-11.0804
▁Grönlanni	-11.0804
▁Prakash	-11.0804
▁aliarvioi	-11.0804
▁kamppaile	-11.0804
▁kollektiivi	-11.0804
▁kunnianhimo	-11.0804
▁märkäpuvu	-11.0804
▁naapurei	-11.0804
▁pakkosyöt	-11.0804
▁purjehti	-11.0804
▁rabbi	-11.0804
▁sapiens	-11.0804
▁vuorovaikutta	-11.0804
epidemia	-11.0804
infrastruktuuri	-11.0804
▁Malediivi	-11.0804
▁Seitsemän	-11.0804
▁epämukava	-11.0804
▁genomi	-11.0804
▁golf	-11.0804
▁iPhone	-11.0804
▁klassi	-11.0804
▁koralliriuttoj	-11.0804
▁korrekti	-11.0804
▁kristinusko	-11.0804
▁kunnioittava	-11.0804
▁laidunkarja	-11.0804
▁maksoi	-11.0804
▁manipuloi	-11.0804
▁neliökilometri	-11.0804
▁perheväkivalla	-11.0804
▁ryhdy	-11.0804
▁seikkailu	-11.0804
▁siskontyttö	-11.0804
▁symbole	-11.0804
▁treffeill	-11.0804
▁trendi	-11.0804
▁tuberkuloosi	-11.0804
▁työskentely	-11.0804
▁ympyröi	-11.0804
▁ystäville	-11.0804
▁ällistyttävä	-11.0804
▁Natalia	-11.0804
▁arabi	-11.0804
▁fakta	-11.0804
▁intialaise	-11.0804
▁kohtuulli	-11.0804
▁läpinäkyvä	-11.0804
▁opettele	-11.0804
▁pärjä	-11.0804
▁tyhmä	-11.0804
▁hakukone	-11.0804
▁marssi	-11.0804
▁mikrofoni	-11.0804
▁naaraa	-11.0804
▁väestönkasvu	-11.0804
▁Nature	-11.0804
▁kärsimykse	-11.0804
▁väittee	-11.0804
▁Michelle	-11.0804
▁alhaise	-11.0804
▁suoriutu	-11.0804
tarinankertoja	-11.0804
▁ideoiden	-11.0804
▁talteen	-11.0804
▁äänestys	-11.0804
▁luonnonvaroj	-11.0804
▁maisemi	-11.0804
▁manterei	-11.0804
▁haavoittuva	-11.0804
▁heikenty	-11.0804
▁pohdiskel	-11.0804
▁heikentä	-11.0804
▁järvi	-11.0804
▁Huomat	-11.0804
▁itiöi	-11.0804
▁Tärkei	-11.0804
▁Lähd	-11.0804
▁geologi	-11.0804
▁hienovarais	-11.0804
▁nälän	-11.0804
▁yksikkö	-11.0804
▁hyppäsi	-11.0804
▁piirtee	-11.0804
▁potilaita	-11.0804
▁journalisti	-11.0804
▁merivede	-11.0804
▁ankara	-11.0804
▁potilaille	-11.0804
▁soturi	-11.0804
▁takuu	-11.0804
vauhdi	-11.0804
▁Miehe	-11.0804
▁sademetsä	-11.0804
▁vakio	-11.0804
▁lienee	-11.0804
▁ruokit	-11.0804
▁raketi	-11.0804
▁erämaa	-11.0804
▁kuunteli	-11.0804
▁lennät	-11.0804
▁Kioto	-11.0805
▁pelastu	-11.0805
▁loputtomi	-11.0805
sammakko	-11.0805
▁mieluu	-11.0805
▁kuilu	-11.0805
▁ruske	-11.0805
▁puolta	-11.0805
▁riske	-11.0805
▁Usea	-11.0805
▁vuosisata	-11.0805
▁huuli	-11.0805
▁ruusu	-11.0805
▁kuivu	-11.0805
▁valjasta	-11.0805
▁hanhi	-11.0806
▁lähettävät	-11.0806
▁Paras	-11.0806
▁vaelta	-11.0806
▁pakeni	-11.0806
▁Tietokone	-11.0806
▁heijast	-11.0806
▁mieletön	-11.0806
▁isoisän	-11.0806
▁Taas	-11.0806
▁paikat	-11.0806
▁väite	-11.0806
▁kohtele	-11.0806
▁yhdistetty	-11.0806
▁levinn	-11.0806
▁neliömetri	-11.0807
▁Micha	-11.0807
▁Saul	-11.0807
oppilaiden	-11.0807
▁loistavi	-11.0807
▁käynnisty	-11.0807
▁Uskomaton	-11.0807
▁Jack	-11.0807
▁puhal	-11.0808
▁EU	-11.0808
▁odotet	-11.0808
▁heimo	-11.0808
▁Antaa	-11.0808
▁hylly	-11.0808
▁sisällyt	-11.0809
▁maataloude	-11.0809
▁Giu	-11.0809
▁näkökyky	-11.0809
▁keräänty	-11.0809
▁satunnais	-11.0809
ennätyks	-11.0809
▁mielikuva	-11.081
tarvikkei	-11.0811
▁Katsel	-11.0811
▁rehelli	-11.0811
▁diagnosoida	-11.0811
▁Väit	-11.0811
▁vieraa	-11.0811
▁jääkarhu	-11.0812
▁täydentä	-11.0813
rannetta	-11.0813
▁entistä	-11.0814
▁kärki	-11.0815
▁tilantei	-11.0817
▁vuosikausi	-11.0817
merkkejä	-11.0817
▁mahtu	-11.0818
▁koillis	-11.0819
▁suurempaa	-11.0821
▁rikkaampi	-11.0822
kauppaan	-11.0823
▁ilmaantu	-11.0823
▁II	-11.0825
▁Facebook	-11.0825
▁kosmise	-11.0827
▁Asu	-11.0827
▁itsenäise	-11.0828
▁ympäristöön	-11.0829
▁sopimus	-11.083
▁pomo	-11.083
▁murto	-11.0831
▁etsintä	-11.0832
▁oppilas	-11.0832
afar	-11.0834
▁merkitty	-11.0835
▁havaittu	-11.0837
▁Arm	-11.0837
▁Kumpi	-11.084
▁kenkä	-11.0845
▁vastine	-11.0846
▁Hetki	-11.0848
▁yrittäjä	-11.0849
▁Luke	-11.085
▁hyväksikäyt	-11.085
▁työskennelle	-11.0851
▁metsi	-11.0852
▁rajoituksi	-11.0858
▁todennäköis	-11.0859
▁esinee	-11.0859
▁maagi	-11.086
▁vieras	-11.0864
▁katto	-11.0866
▁palase	-11.0866
▁palautu	-11.0867
▁tuntematon	-11.087
▁nimittäi	-11.089
▁voitto	-11.0899
▁parannus	-11.09
nnäköis	-11.0903
▁myi	-11.0904
▁vilkais	-11.092
▁Mark	-11.0921
▁Selam	-11.0925
▁sisäise	-11.0931
▁taloudellisest	-11.0934
▁pääsevä	-11.0936
▁yrittäji	-11.0937
▁ajautu	-11.0939
▁pino	-11.0941
▁Suurimma	-11.0965
▁insinööre	-11.0974
▁kaukaise	-11.0982
▁keskustaa	-11.1
▁mini	-11.1002
▁ihmisoikeu	-11.1008
▁eräänlaise	-11.1015
▁700	-11.1058
▁hyödyttä	-11.106
▁tyhjyyde	-11.106
iselta	-11.1062
▁pyörittä	-11.1064
▁kummalli	-11.1094
▁subjektiivis	-11.1099
kehi	-11.1102
▁huijaava	-11.1119
▁asiakkai	-11.1124
▁Välit	-11.1137
▁alkuaine	-11.1151
▁monimuotoisuude	-11.118
▁näyttee	-11.1192
▁israelilais	-11.1197
laitos	-11.121
▁auttaakse	-11.122
▁ikävi	-11.123
▁aikakaude	-11.1239
▁olenno	-11.1251
▁Cas	-11.1257
▁Erää	-11.1281
▁vastuullis	-11.1327
▁Konee	-11.1333
▁vammais	-11.1359
▁afrikkalaist	-11.1366
▁yhdiste	-11.1377
tuotteita	-11.1391
▁sähköise	-11.1393
▁Eivätk	-11.1396
▁alemp	-11.1407
▁jokaisell	-11.1428
Cola	-11.1429
▁ymmärtänee	-11.1439
▁vuosittai	-11.1522
▁hiljaisuu	-11.1576
▁saaste	-11.158
▁tyhj	-11.1583
▁rannikol	-11.16
tettavast	-11.1637
etyksi	-11.1645
▁keräävä	-11.1646
▁lääketieteelli	-11.1647
▁oire	-11.1719
eikkaus	-11.1758
▁ottee	-11.1775
kirjan	-11.1799
fic	-11.1808
▁kantasoluj	-11.181
hetki	-11.1811
politiika	-11.184
elokuvi	-11.184
kirjoja	-11.1845
myrsky	-11.1845
lämpö	-11.1846
Euroopa	-11.1847
pullo	-11.1849
tehtävä	-11.1849
hoido	-11.1849
W	-11.1849
ellus	-11.1857
tietokone	-11.1858
avaruude	-11.1861
▁eräänlai	-11.1873
▁ystävälli	-11.1875
haas	-11.1877
suhteita	-11.1877
▁tumm	-11.1906
▁ranskalai	-11.1913
▁muuttuma	-11.1983
tunnistus	-11.1984
▁fissio	-11.1996
kuvaukse	-11.2008
▁valitsemise	-11.201
▁Miele	-11.2028
▁sukupuutto	-11.2042
▁pysäytt	-11.2053
▁objekti	-11.2053
▁houkut	-11.2054
▁Frank	-11.2054
▁Florida	-11.2054
▁Ukraina	-11.2054
▁eksponentiaalis	-11.2054
▁kesämonsuuni	-11.2054
▁organisaatio	-11.2054
mikroskooppi	-11.2054
syndrooma	-11.2054
▁Colorado	-11.2054
▁alkoholi	-11.2054
▁alkuräjähdys	-11.2054
▁allekirjoitta	-11.2054
▁eBay	-11.2054
▁haavoittuvuude	-11.2054
▁intuitiivise	-11.2054
▁irrationaalis	-11.2054
▁kansalaishakker	-11.2054
▁lokakuu	-11.2054
▁mobilisoi	-11.2054
▁nurmiko	-11.2054
▁oikeute	-11.2054
▁passiivi	-11.2054
▁planetaaris	-11.2054
▁trooppi	-11.2054
▁vähemmistö	-11.2054
populaatio	-11.2054
▁Geographic	-11.2054
▁Huomaatte	-11.2054
▁Kahdeksan	-11.2054
▁Manhattani	-11.2054
▁Nobel	-11.2054
▁Pyydä	-11.2054
▁Stacey	-11.2054
▁Titanici	-11.2054
▁avoimuu	-11.2054
▁avustusjärjestö	-11.2054
▁design	-11.2054
▁dopamiini	-11.2054
▁dravida	-11.2054
▁entropia	-11.2054
▁epätäydelli	-11.2054
▁fysikaalis	-11.2054
▁johtopäätös	-11.2054
▁kierrätys	-11.2054
▁kimppuun	-11.2054
▁kondome	-11.2054
▁kortteja	-11.2054
▁kosmologi	-11.2054
▁löytävä	-11.2054
▁muotoilija	-11.2054
▁mustekala	-11.2054
▁myötätunno	-11.2054
▁pehmeä	-11.2054
▁perheväkivalta	-11.2054
▁polkupyörä	-11.2054
▁puolustus	-11.2054
▁robotte	-11.2054
▁runoilija	-11.2054
▁sähköposteja	-11.2054
▁säieteoria	-11.2054
▁taiteilija	-11.2054
▁tekniikoita	-11.2054
▁terrorismi	-11.2054
▁tutkimuksista	-11.2054
▁työpöydä	-11.2054
▁ulottuvill	-11.2054
▁vallitsee	-11.2054
▁väärennö	-11.2054
▁älykkää	-11.2054
▁Araljärv	-11.2054
▁Arvio	-11.2054
▁aplod	-11.2054
▁keskiverto	-11.2054
▁konkreettis	-11.2054
▁koripallo	-11.2054
▁kosmokse	-11.2054
▁lääkity	-11.2054
▁meduusa	-11.2054
▁näyttelijä	-11.2054
▁odotin	-11.2054
▁opiskelijoita	-11.2054
▁vertauskuva	-11.2054
▁Dylan	-11.2054
▁Thomas	-11.2054
▁autismi	-11.2054
▁matkustel	-11.2054
▁sisältö	-11.2054
▁terveydenhoito	-11.2054
▁vaahtokark	-11.2054
▁vihjaa	-11.2054
▁Tyhj	-11.2054
▁lähdi	-11.2054
▁huikea	-11.2054
▁voimakkaampi	-11.2054
▁Italia	-11.2054
▁alkukantai	-11.2054
▁hakutulos	-11.2054
▁hedelmi	-11.2054
▁kiinteä	-11.2054
▁osoittautuu	-11.2054
▁toimitusjohtaj	-11.2054
▁Kirjoiti	-11.2054
▁Jäljell	-11.2054
▁kopioida	-11.2054
▁logo	-11.2054
▁tekoäly	-11.2054
iodiversiteeti	-11.2054
▁naks	-11.2054
▁typerä	-11.2054
▁väittei	-11.2054
▁Hullu	-11.2054
▁Luonnon	-11.2054
▁houkutteleva	-11.2054
▁levey	-11.2054
▁jäätikö	-11.2054
▁väistämätt	-11.2054
▁banaani	-11.2054
▁toteamu	-11.2054
▁tuomittu	-11.2054
▁avaruuslento	-11.2054
▁pommit	-11.2054
▁selkäydinvamma	-11.2054
▁sovelta	-11.2054
▁Matkust	-11.2054
▁huomaisi	-11.2054
▁arvoitukse	-11.2054
▁eristyks	-11.2054
▁Haukka	-11.2054
▁Lapsi	-11.2054
▁linssi	-11.2054
▁Benjam	-11.2054
▁esiintyvyy	-11.2054
▁Tahdo	-11.2054
▁tarkkaile	-11.2054
▁murtautu	-11.2054
▁jännä	-11.2054
▁huipu	-11.2054
▁leijona	-11.2054
▁Tuntuu	-11.2054
▁Isoisä	-11.2054
▁hakkuu	-11.2054
▁tavanomais	-11.2054
landiss	-11.2054
▁tuhla	-11.2054
luettelo	-11.2054
▁käske	-11.2054
▁tulvi	-11.2054
▁aviomiehe	-11.2054
▁vertailu	-11.2054
▁puhtaan	-11.2054
▁löi	-11.2055
▁kauhea	-11.2055
▁kevye	-11.2055
▁käsitteli	-11.2055
▁muurahais	-11.2055
▁Opettaja	-11.2055
▁keksintö	-11.2055
▁kahtia	-11.2055
▁tuhka	-11.2055
▁hylätä	-11.2055
▁maanviljelijä	-11.2055
▁paradigma	-11.2055
▁turvallisuus	-11.2055
▁hämmentävä	-11.2055
▁Onnistu	-11.2056
▁luontaisest	-11.2056
▁viehät	-11.2056
▁aiheuta	-11.2056
▁näön	-11.2056
▁pyhi	-11.2056
▁tietämättä	-11.2056
▁litteä	-11.2056
paneeli	-11.2056
▁peruslak	-11.2056
▁pihvi	-11.2056
▁kohdistu	-11.2056
▁hurja	-11.2056
▁päällyst	-11.2056
▁visio	-11.2056
▁päällekkäi	-11.2056
▁psyykkis	-11.2057
▁lausu	-11.2057
▁kuitu	-11.2057
▁Laitetaan	-11.2058
▁1950	-11.2058
▁195	-11.2058
▁ohitse	-11.2058
▁kaunei	-11.2058
▁Jim	-11.2058
sektori	-11.2058
▁Pyysi	-11.2059
▁99	-11.2059
tulkoo	-11.2059
▁Pelkäs	-11.2059
▁Tulevaisuu	-11.2059
▁1970	-11.206
▁muukalais	-11.206
ford	-11.206
▁Gamma	-11.2061
▁lukemattomi	-11.2061
▁takaper	-11.2061
▁keuhkojen	-11.2061
▁Brian	-11.2062
▁valaise	-11.2062
▁tupakoinni	-11.2062
▁elämänmuoto	-11.2062
▁virtsa	-11.2062
▁haava	-11.2062
▁kiltt	-11.2063
▁Martin	-11.2063
▁Super	-11.2064
▁määrittele	-11.2064
▁erottelu	-11.2065
▁alakul	-11.2065
▁Woo	-11.2065
▁suunnattoma	-11.2065
▁investoida	-11.2066
▁aikakausi	-11.2067
▁kehitysmaa	-11.2068
▁37	-11.2069
▁Aihe	-11.207
▁tykkää	-11.207
▁paluu	-11.2071
▁taloutta	-11.2072
▁mutkik	-11.2072
▁Kokonai	-11.2072
▁kanava	-11.2075
▁syöttää	-11.2075
▁annettu	-11.2076
▁turvautu	-11.2079
▁löytämise	-11.208
▁Root	-11.2082
▁nuort	-11.2082
▁tyk	-11.2083
▁rouva	-11.2083
▁kenttä	-11.2089
▁sietä	-11.2089
menetelmi	-11.2091
kirjailijoi	-11.2092
▁nimitys	-11.2094
▁tutkimusmatka	-11.2094
▁Hetke	-11.2101
▁Nie	-11.2103
▁muuttunee	-11.2107
▁lonk	-11.2108
▁iässä	-11.2117
▁ravu	-11.2117
▁syleil	-11.2121
koneisto	-11.2121
uolimatt	-11.2126
ight	-11.2127
▁Teks	-11.2134
▁suunnittelijoi	-11.2148
▁hoitaji	-11.2151
ttomuude	-11.2153
▁totuude	-11.2159
▁käytöksen	-11.2165
▁Hoid	-11.2168
▁laajemm	-11.2192
▁käänsi	-11.2194
well	-11.2195
▁korkeamma	-11.2196
▁sisäpuole	-11.22
▁Rakast	-11.2202
▁loogisest	-11.2203
▁useamma	-11.2209
▁aino	-11.2216
▁vapaaehtoise	-11.2278
myöntei	-11.2279
▁afrikkalaise	-11.2279
▁tehokas	-11.2285
pituude	-11.2287
▁kummallise	-11.2288
EG	-11.2299
▁toimettom	-11.2334
▁epätavallise	-11.2352
▁Evoluutio	-11.2371
▁virukse	-11.2392
viruksi	-11.2392
▁Laji	-11.2402
tutkinto	-11.2417
äyttöön	-11.2423
▁ymmärtämise	-11.2433
▁sukulais	-11.2434
▁toipumise	-11.2436
▁toistu	-11.2442
▁parantamise	-11.2462
kerros	-11.2477
▁Viide	-11.251
▁lattia	-11.2513
ehr	-11.256
▁selkä	-11.2565
alueill	-11.2569
▁vakav	-11.2572
ajattelu	-11.2586
▁orj	-11.2609
▁sairastu	-11.2627
▁Maks	-11.2655
▁toisenlai	-11.2658
▁Line	-11.2688
▁Tavall	-11.27
▁samanlaise	-11.274
▁hermosolu	-11.2746
▁saavuttamaa	-11.2781
▁vähenty	-11.2847
soittaa	-11.2857
ilijoi	-11.2913
▁riist	-11.2915
▁pelastamise	-11.2934
▁hyökkä	-11.2959
▁varsinai	-11.2982
▁lattiall	-11.2992
▁tiettyj	-11.3001
▁säännöllise	-11.3017
▁sulava	-11.3063
kerronna	-11.3088
ikäis	-11.3111
▁kuvitell	-11.3113
▁vievä	-11.3129
kaudella	-11.314
▁Vuode	-11.3177
kysely	-11.323
▁huuto	-11.3251
mahdollisuuksi	-11.3272
insinööri	-11.3273
Y	-11.3274
kirjailija	-11.3274
sairauksi	-11.3275
yliopisto	-11.3277
ihmiset	-11.3278
J	-11.3284
kaveri	-11.3285
kasvu	-11.3286
▁tilastollise	-11.3287
▁elinkelpoi	-11.3323
▁monimutkaisuu	-11.3354
▁näkyvä	-11.3356
▁Amerikkalai	-11.3358
▁lämpenemi	-11.339
▁yrittämä	-11.3397
▁Lyhyest	-11.3404
▁kolk	-11.3408
▁tartu	-11.3412
▁nopeut	-11.3414
▁heitet	-11.3437
▁tarpei	-11.3439
nkaikkeudessa	-11.3455
systeem	-11.3456
reaktorei	-11.3463
suunnittelij	-11.3463
▁materia	-11.3481
▁hotelli	-11.3482
▁California	-11.3482
▁Neuvostoliito	-11.3482
▁korkeude	-11.3482
olumbia	-11.3482
puolue	-11.3482
▁Laboratorio	-11.3482
▁Pittsburghi	-11.3482
▁akvaario	-11.3482
▁hippokampukse	-11.3482
▁lämmö	-11.3482
▁rekvisiit	-11.3482
▁talvimonsuuni	-11.3482
efekti	-11.3482
field	-11.3482
profiili	-11.3482
sairaanhoitaj	-11.3482
sekvenssi	-11.3482
▁1,5	-11.3482
▁America	-11.3482
▁Carne	-11.3482
▁Epäonnistu	-11.3482
▁Jordania	-11.3482
▁Löydä	-11.3482
▁Professori	-11.3482
▁Rebec	-11.3482
▁Siirrytään	-11.3482
▁Simpanssi	-11.3482
▁Singapore	-11.3482
▁Vegasi	-11.3482
▁emotionaali	-11.3482
▁fossiile	-11.3482
▁fyysikko	-11.3482
▁hormon	-11.3482
▁kulttuureis	-11.3482
▁kustannuksi	-11.3482
▁käsittämättöm	-11.3482
▁käärme	-11.3482
▁lanseera	-11.3482
▁mallihakuisuu	-11.3482
▁mineraale	-11.3482
▁muokkasi	-11.3482
▁nopeudella	-11.3482
▁paratiisi	-11.3482
▁rekisteröi	-11.3482
▁signaale	-11.3482
▁sisällissot	-11.3482
▁tekonauru	-11.3482
▁ykkös	-11.3482
▁ylläpitävä	-11.3482
▁ystäviltä	-11.3482
influenssa	-11.3482
▁Apple	-11.3482
▁Canyon	-11.3482
▁Egypti	-11.3482
▁Fosfori	-11.3482
▁Parha	-11.3482
▁Pollock	-11.3482
▁Richard	-11.3482
▁Shoots	-11.3482
▁aavikko	-11.3482
▁bisnes	-11.3482
▁bussi	-11.3482
▁haavoittuvuus	-11.3482
▁heinäsirk	-11.3482
▁helmikuu	-11.3482
▁introvertt	-11.3482
▁kemikaale	-11.3482
▁kunnioitukse	-11.3482
▁paradoksi	-11.3482
▁performanss	-11.3482
▁pyörätuoli	-11.3482
▁pörssi	-11.3482
▁ryöstö	-11.3482
▁sängy	-11.3482
▁tukilanga	-11.3482
▁uhanalaisi	-11.3482
▁valehtele	-11.3482
▁velvollisuu	-11.3482
▁viikonloppu	-11.3482
▁väittely	-11.3482
▁yhdistelmä	-11.3482
skanneri	-11.3482
▁Verkko	-11.3482
▁blog	-11.3482
▁elanton	-11.3482
▁jalkojen	-11.3482
▁lumoutu	-11.3482
▁maaseudu	-11.3482
▁matkusti	-11.3482
▁matriisi	-11.3482
▁motivoi	-11.3482
▁paperinpala	-11.3482
▁vaatteita	-11.3482
nörtti	-11.3482
▁Tehtävä	-11.3482
▁Unoh	-11.3482
▁elinaikana	-11.3482
▁manteree	-11.3482
▁tosielämä	-11.3482
▁vakautta	-11.3482
▁viranomais	-11.3482
▁Tietenk	-11.3482
▁alkeelli	-11.3482
▁autotalli	-11.3482
▁halvempaa	-11.3482
▁jutteli	-11.3482
▁keittiö	-11.3482
▁lepako	-11.3482
▁Tehkää	-11.3482
▁kirkkaa	-11.3482
▁pronssi	-11.3482
▁rinnakkai	-11.3482
▁tuoksu	-11.3482
▁Franc	-11.3482
▁autisti	-11.3482
▁stigma	-11.3482
▁vanhene	-11.3482
▁käännyi	-11.3482
▁Hollanni	-11.3482
▁aikaväli	-11.3482
▁kiistanalai	-11.3482
▁suunnitelmi	-11.3482
rheilu	-11.3482
▁eroavaisuu	-11.3482
▁traum	-11.3482
▁pyydystä	-11.3482
▁ylläpitäm	-11.3482
▁lähestymistava	-11.3482
▁milj	-11.3482
vuotis	-11.3482
▁kehykse	-11.3482
▁pidempi	-11.3482
▁Pohdi	-11.3482
▁hämär	-11.3483
▁Ulko	-11.3483
▁ikivanh	-11.3483
▁jääpeit	-11.3483
▁suoritta	-11.3483
▁ahkera	-11.3483
▁markkinoinni	-11.3483
▁odotuks	-11.3483
▁läksy	-11.3483
▁vuokra	-11.3483
▁neutron	-11.3483
▁tomaatt	-11.3483
▁oppitunti	-11.3483
▁euro	-11.3483
▁akseli	-11.3483
▁sävy	-11.3483
▁avioliitto	-11.3483
▁lohdu	-11.3483
▁kielte	-11.3483
▁Carl	-11.3483
▁Austin	-11.3483
▁levinneisyy	-11.3483
▁surke	-11.3483
▁Beachi	-11.3483
▁vedä	-11.3483
▁Todist	-11.3483
▁leijoni	-11.3483
▁vahinko	-11.3483
▁kanssakäymi	-11.3483
▁luokituks	-11.3483
▁aiheutti	-11.3483
▁esitteli	-11.3483
▁nöyryyttä	-11.3483
▁Fysiik	-11.3483
▁kauneut	-11.3483
▁auringonvalo	-11.3483
▁tahdi	-11.3483
▁läsnäolo	-11.3483
▁muistutti	-11.3483
▁puhke	-11.3483
▁Palataan	-11.3483
▁masentav	-11.3483
▁järjestystä	-11.3483
▁uros	-11.3483
▁Toki	-11.3483
▁ennalta	-11.3484
▁ainesos	-11.3484
▁tarra	-11.3484
▁kukoistava	-11.3484
▁älykkyyde	-11.3484
▁merijää	-11.3484
▁luenno	-11.3484
▁valloit	-11.3484
▁laadu	-11.3484
▁poiki	-11.3484
▁paisu	-11.3484
▁kevyt	-11.3484
▁Syyria	-11.3484
▁Rakenn	-11.3484
▁liiketoiminta	-11.3484
▁Mummo	-11.3484
▁teollisuusmai	-11.3484
▁Paikallis	-11.3485
▁Markkinoi	-11.3485
▁pyrkimys	-11.3485
▁meditoi	-11.3485
▁trans	-11.3485
▁yksinäise	-11.3485
▁Tesla	-11.3485
▁pahante	-11.3485
▁laitteisii	-11.3485
▁Luria	-11.3486
▁Ghana	-11.3486
▁humala	-11.3486
▁keitto	-11.3486
▁Keske	-11.3486
▁litra	-11.3486
prinsess	-11.3486
▁tarkoitet	-11.3486
▁kääri	-11.3486
kenkiä	-11.3486
▁tiedemies	-11.3486
▁Venus	-11.3486
▁Hack	-11.3487
▁harjoittelu	-11.3487
▁hypätä	-11.3487
▁raaha	-11.3487
▁oppilait	-11.3487
▁84	-11.3487
▁rikki	-11.3487
▁kohtauksi	-11.3488
▁130	-11.3488
▁omistautu	-11.3488
▁leima	-11.3488
▁Kohta	-11.3488
▁touk	-11.3488
▁ilmapiiri	-11.3489
▁tärkeimmi	-11.3489
▁tuottamise	-11.3489
▁eläkkeell	-11.349
▁saaliin	-11.349
▁ylitykse	-11.3491
▁huvitta	-11.3491
▁monenlaisi	-11.3491
irtuaalikuoro	-11.3491
▁käännä	-11.3491
olminkertai	-11.3492
▁kakkos	-11.3492
tarkkailija	-11.3493
▁Kauni	-11.3494
▁iski	-11.3494
▁syvyyde	-11.3494
▁merkillis	-11.3496
▁tulva	-11.3496
▁annos	-11.3497
▁Ratkais	-11.3497
▁naama	-11.3497
profe	-11.3498
▁seksikäs	-11.3499
▁makseta	-11.3501
▁kaappa	-11.3503
▁toiminno	-11.3505
▁saksalais	-11.3505
tyhjiö	-11.3507
▁myönnet	-11.3507
▁sado	-11.3507
▁piiloutu	-11.3508
▁Todellisuude	-11.3509
▁tavattom	-11.351
taiteilijoi	-11.3513
▁liittolai	-11.3514
maalauksi	-11.3514
▁osio	-11.3515
▁Ennust	-11.3517
▁näht	-11.3517
▁katkais	-11.3518
▁miellyttävä	-11.3519
▁lännes	-11.3519
▁ydinase	-11.3519
▁norm	-11.3521
▁edustava	-11.3522
▁ammu	-11.3524
▁hiukkast	-11.3527
▁tuhoutu	-11.3532
▁purais	-11.3534
▁Pitkä	-11.3535
▁vanhanaikai	-11.3537
▁syvemmi	-11.3539
▁kiintei	-11.3543
▁kuljetukse	-11.3545
▁Auto	-11.3553
▁paket	-11.3554
▁poliitikko	-11.3563
▁Die	-11.3566
▁uskomuksi	-11.3568
▁kuluttaji	-11.3582
▁hävinn	-11.3582
rihma	-11.3586
▁yrittäjyy	-11.359
istivito	-11.359
▁laajemp	-11.3591
▁rannall	-11.3593
▁suhteellise	-11.3595
▁Piene	-11.3602
▁pitkäaikais	-11.361
rakastaa	-11.3611
▁lentäj	-11.3613
ompleksi	-11.3617
▁yksittäise	-11.3618
▁Dav	-11.3627
▁Amerikkalaise	-11.363
▁tiivii	-11.363
▁supist	-11.3632
▁koriste	-11.364
▁elinkelpoisuu	-11.3644
▁ranskalaise	-11.3647
▁sukellusvene	-11.3656
Korea	-11.3687
▁yhdistyvä	-11.3733
kallista	-11.3739
▁kirjallisuu	-11.374
kerroks	-11.3758
▁Geo	-11.3774
▁muill	-11.3797
▁oletukse	-11.3833
▁käsittelevä	-11.3848
▁mielenkiinto	-11.3891
▁tarpeellis	-11.3898
laskenta	-11.3955
▁vaarallist	-11.3957
▁toiminto	-11.3961
rkkitehti	-11.3994
▁täyttävä	-11.4052
▁Street	-11.4088
▁kasvillisuu	-11.4116
▁omaperäise	-11.4168
▁myötätuntoise	-11.4194
ketjun	-11.4209
▁kaupallise	-11.4217
kadulla	-11.4225
▁tietämättöm	-11.4258
jättee	-11.4345
▁kokenee	-11.4422
▁menestyvä	-11.4432
▁merkitsevä	-11.4476
sinise	-11.4492
▁Minkälai	-11.4549
▁kielellise	-11.4555
▁ylemp	-11.462
▁rajalli	-11.4631
▁aikui	-11.465
puolel	-11.4689
▁subjektiivi	-11.4709
▁kuolleisuu	-11.477
arvoise	-11.4773
▁Haluaisi	-11.4775
▁paremmi	-11.4776
▁huolellise	-11.4791
ttomuus	-11.4823
kaupunki	-11.4833
menetelmä	-11.4875
reaktori	-11.4906
kysymykse	-11.4924
keskus	-11.494
eläime	-11.494
yrityksi	-11.494
polttoainei	-11.4941
informaatio	-11.4942
väestö	-11.4942
rakenne	-11.4942
seitti	-11.4943
jouko	-11.4944
kutsu	-11.4948
▁loogi	-11.495
tutkimus	-11.4955
arvio	-11.4975
▁työskennell	-11.4984
silmä	-11.5014
▁kaupunke	-11.5014
▁sellaist	-11.5043
▁saavuteta	-11.5102
▁Yhdist	-11.5109
▁Kerto	-11.5124
argument	-11.5124
tiedustelu	-11.5131
▁Saavu	-11.5132
cience	-11.5139
▁länsi	-11.5145
ohtori	-11.5145
viljelijä	-11.5147
▁keräil	-11.5148
▁kvantti	-11.5149
▁britti	-11.5149
▁Periaattee	-11.5149
▁Kiinnosta	-11.5149
akteeri	-11.5149
animaatio	-11.5149
▁Beethoven	-11.5149
▁Newcastle	-11.5149
▁Shephelah	-11.5149
▁Tappajahai	-11.5149
▁Tavoite	-11.5149
▁ekologise	-11.5149
▁entsyyme	-11.5149
▁fysiologi	-11.5149
▁innovatiivis	-11.5149
▁kumppanuu	-11.5149
▁lannoittei	-11.5149
▁lehdistö	-11.5149
▁luotettavuu	-11.5149
▁pyyhkäis	-11.5149
▁rosoisuude	-11.5149
▁sydämi	-11.5149
▁teknologise	-11.5149
▁tropiiki	-11.5149
▁universumei	-11.5149
▁älykkyys	-11.5149
egeneratiivi	-11.5149
kierrätykse	-11.5149
millimetri	-11.5149
ografia	-11.5149
sukellukse	-11.5149
▁1700-	-11.5149
▁Arktise	-11.5149
▁Dorothy	-11.5149
▁Filosofi	-11.5149
▁Göring	-11.5149
▁Helppo	-11.5149
▁Historia	-11.5149
▁Island	-11.5149
▁Kenobi	-11.5149
▁Kepler	-11.5149
▁Lincoln	-11.5149
▁McDonald	-11.5149
▁Meegeren	-11.5149
▁Microsoft	-11.5149
▁Perjantai	-11.5149
▁Project	-11.5149
▁Rihmasto	-11.5149
▁Ryhdy	-11.5149
▁Shakespeare	-11.5149
▁Sudenkoren	-11.5149
▁Warby	-11.5149
▁Ympäristö	-11.5149
▁akromegalia	-11.5149
▁astronomi	-11.5149
▁aurinkopaneele	-11.5149
▁buddhalai	-11.5149
▁differentiaali	-11.5149
▁elefantt	-11.5149
▁ennakkoluulo	-11.5149
▁gavage	-11.5149
▁globalis	-11.5149
▁haavoitt	-11.5149
▁hehtaari	-11.5149
▁hiukkasfysiik	-11.5149
▁hurrikaani	-11.5149
▁huumorintaju	-11.5149
▁indikaattor	-11.5149
▁infektio	-11.5149
▁insula	-11.5149
▁jalkakäytäväll	-11.5149
▁kapitalismi	-11.5149
▁kasvissyöj	-11.5149
▁kauhistuttav	-11.5149
▁kekseliäi	-11.5149
▁kontrolli	-11.5149
▁korrelaatio	-11.5149
▁kreikkalais	-11.5149
▁kuoltua	-11.5149
▁käyttötarkoitu	-11.5149
▁liiketoiminna	-11.5149
▁luurango	-11.5149
▁läpimurto	-11.5149
▁maahanmuuttaji	-11.5149
▁mielipiteen	-11.5149
▁mielipiteitä	-11.5149
▁multiversumi	-11.5149
▁nälänhätä	-11.5149
▁orkesteri	-11.5149
▁paleontologi	-11.5149
▁perspektiivi	-11.5149
▁poikkeuksellis	-11.5149
▁presidenti	-11.5149
▁pysäköi	-11.5149
▁rakennuksi	-11.5149
▁rauhoittu	-11.5149
▁reaaliaikais	-11.5149
▁selkäranka	-11.5149
▁sienirihmasto	-11.5149
▁sinfonia	-11.5149
▁skepti	-11.5149
▁suljettu	-11.5149
▁sylinteri	-11.5149
▁tukahdutta	-11.5149
▁tunkeutu	-11.5149
▁työpöytä	-11.5149
▁umpikuja	-11.5149
▁uraauurtav	-11.5149
▁videopätkä	-11.5149
▁virkistysjuom	-11.5149
▁välinpitämättöm	-11.5149
▁äänimaisem	-11.5149
ehdokas	-11.5149
▁Feminist	-11.5149
▁Kermit	-11.5149
▁McC	-11.5149
▁Meggendorfer	-11.5149
▁Selvisi	-11.5149
▁Seuraavi	-11.5149
▁Vihreä	-11.5149
▁arkkitehtuuri	-11.5149
▁ekstrovert	-11.5149
▁hakkeri	-11.5149
▁hakutuloks	-11.5149
▁huonekalu	-11.5149
▁luotettavi	-11.5149
▁maakaasu	-11.5149
▁moottoripyörä	-11.5149
▁oireyhtymä	-11.5149
▁operaatio	-11.5149
▁planeetoi	-11.5149
▁protestoi	-11.5149
▁rakkaute	-11.5149
▁räjähdys	-11.5149
▁syntetisoi	-11.5149
▁säteile	-11.5149
▁tähtitaiva	-11.5149
▁Malawi	-11.5149
▁Yhtiö	-11.5149
▁arkeologi	-11.5149
▁kahtena	-11.5149
▁nolostu	-11.5149
▁oikeuksi	-11.5149
▁rannikko	-11.5149
▁syvyyksi	-11.5149
▁teatteri	-11.5149
▁Jerry	-11.5149
▁helvetti	-11.5149
▁kierrättä	-11.5149
▁raamatu	-11.5149
▁Black	-11.5149
▁avaimen	-11.5149
▁romanttis	-11.5149
▁sateenkaar	-11.5149
▁synkkä	-11.5149
▁relevan	-11.5149
▁säikei	-11.5149
▁ihmiskeho	-11.5149
▁julista	-11.5149
▁lapsuuden	-11.5149
▁logiika	-11.5149
▁tytär	-11.5149
▁vahvisti	-11.5149
▁College	-11.5149
▁juuttu	-11.5149
▁laajenemis	-11.5149
▁porkkana	-11.5149
▁lakiesity	-11.5149
cycl	-11.5149
▁Eddie	-11.5149
joukkuee	-11.5149
▁Pelkkä	-11.5149
▁itsetuhoi	-11.5149
▁nauha	-11.5149
▁odottel	-11.5149
▁rintama	-11.5149
tutkimuksissa	-11.5149
▁hyppää	-11.5149
tulivuor	-11.5149
▁vapaute	-11.5149
▁hämmästyttävi	-11.5149
▁muove	-11.5149
▁rokottei	-11.5149
▁olettamukse	-11.5149
▁ruoste	-11.5149
▁edistykselli	-11.5149
▁tämänkaltais	-11.5149
▁haarautu	-11.5149
▁nähtävä	-11.5149
▁sekoittu	-11.5149
▁suoritti	-11.5149
▁potilaiden	-11.5149
▁sopimukse	-11.5149
▁latina	-11.5149
▁posterei	-11.5149
▁selityksi	-11.5149
▁Kymmene	-11.5149
▁kehno	-11.5149
▁Adam	-11.5149
▁ruoanlaito	-11.5149
▁äidille	-11.5149
▁Alaska	-11.5149
▁neitsy	-11.5149
▁kuorma	-11.5149
▁mentaali	-11.5149
▁kupari	-11.5149
▁kvanttiteoria	-11.5149
▁epäselv	-11.5149
järve	-11.5149
▁ääripää	-11.5149
▁rahoja	-11.5149
▁banaane	-11.5149
▁suunnitelle	-11.5149
▁väsy	-11.5149
▁Tulokse	-11.5149
▁ajattelutapa	-11.5149
suoritin	-11.515
▁Ohio	-11.515
▁lauloi	-11.515
▁hoiva	-11.515
▁rauda	-11.515
▁heräsi	-11.515
▁tiheä	-11.515
▁varhain	-11.515
▁Vastaukse	-11.515
▁vastakkaisuu	-11.515
▁otsikoi	-11.515
▁taianomai	-11.515
▁ostettu	-11.515
▁epävaka	-11.515
Seelanni	-11.515
▁lahjoitta	-11.515
▁palikoi	-11.515
▁aivokuore	-11.515
▁eettisi	-11.515
▁selvittämise	-11.515
▁ennustu	-11.515
▁Franklin	-11.515
▁manner	-11.515
▁välttämätön	-11.515
▁Poika	-11.515
▁laskelmi	-11.515
▁masennuslääk	-11.515
▁Valkoise	-11.515
▁kertomuksen	-11.515
▁kuivuude	-11.515
▁varovaise	-11.515
▁lahjoitus	-11.515
▁Teoria	-11.515
▁täplä	-11.515
▁vuosisatoj	-11.515
▁koralle	-11.515
▁iskeyty	-11.515
▁vastusti	-11.5151
▁keltaise	-11.5151
ofonia	-11.5151
▁terveytee	-11.5151
▁jalkapallo	-11.5151
▁onnellisuute	-11.5151
▁tippu	-11.5151
▁koliko	-11.5151
▁innoitta	-11.5151
▁taisteli	-11.5151
pisara	-11.5152
▁mystis	-11.5152
▁loputtomast	-11.5152
▁hurji	-11.5152
▁kandi	-11.5152
▁aikei	-11.5152
▁murska	-11.5152
housu	-11.5152
keskos	-11.5153
▁retke	-11.5153
odotus	-11.5153
▁latinalais	-11.5153
▁Whit	-11.5153
▁Sivu	-11.5155
▁joukkosukupuut	-11.5156
▁havainnointi	-11.5156
▁Olka	-11.5156
▁putke	-11.5156
▁ponnist	-11.5156
▁kirkas	-11.5157
▁kulmi	-11.5157
▁itsenäisyy	-11.5157
▁istuskel	-11.5158
▁Käyttäe	-11.5158
▁Elvis	-11.5158
▁vastakkain	-11.5159
▁Kahde	-11.5159
aaliskuu	-11.5159
▁turvallisuut	-11.516
▁tyrk	-11.5161
▁matkoill	-11.5161
▁Piir	-11.5162
▁saalistaj	-11.5163
▁Vakava	-11.5164
hävittä	-11.5164
▁Seurat	-11.5166
▁Tulos	-11.5172
▁Krist	-11.5172
▁suuntautu	-11.5174
▁temppuj	-11.5175
▁vääristyn	-11.5179
▁pomp	-11.5183
▁mullistava	-11.5183
▁kesäkuu	-11.5184
▁saha	-11.5185
▁Venukse	-11.5186
▁mittasuhtei	-11.5191
▁leij	-11.5195
▁pituis	-11.5197
▁pukeutunei	-11.5206
▁moraalittom	-11.521
▁Pahi	-11.5216
▁luoteis	-11.522
▁yhtei	-11.5222
▁suojelu	-11.5223
▁hymyile	-11.5226
▁tärk	-11.523
▁tietokoneohjelm	-11.5232
▁Tunte	-11.5236
▁illall	-11.5237
▁saarekke	-11.5238
puvu	-11.524
▁todennäköisyyde	-11.5259
▁pettyn	-11.5261
▁halkais	-11.5261
▁apulais	-11.5273
verkkoj	-11.5273
▁turvattom	-11.5274
▁henkisest	-11.529
▁Satoj	-11.5292
▁kiiltäv	-11.5295
▁happam	-11.5303
▁perusteellise	-11.5328
kertaisest	-11.5336
▁Keskimäär	-11.5341
▁helm	-11.5349
▁fyysisest	-11.5358
▁etuoikeu	-11.5359
▁siirrett	-11.5402
▁alttii	-11.5409
▁ilmaisu	-11.5415
▁riippumattom	-11.5423
▁ihmismiel	-11.5425
liikennettä	-11.5516
▁löytäm	-11.5521
▁huonommi	-11.5522
tilaisuuteen	-11.5525
▁huijaami	-11.5537
▁viralli	-11.5565
▁huim	-11.5609
▁muuttuji	-11.5628
▁suuremmi	-11.5664
voimakkuu	-11.5715
▁suurimpa	-11.5754
▁pahoj	-11.5767
▁tavallist	-11.5817
▁lisääntyvä	-11.5823
▁sivustol	-11.5824
▁loppuj	-11.5829
▁ruumii	-11.5837
▁pingviin	-11.5868
havaintojen	-11.5883
herr	-11.5885
▁kyetä	-11.5892
▁osalli	-11.5893
▁kansall	-11.5898
▁kiinnost	-11.5919
aistimuksi	-11.5923
▁epävarm	-11.5942
▁hahmoj	-11.5959
atavu	-11.6036
▁lähettäm	-11.6061
▁ihmisyyde	-11.6085
▁maataloustuotan	-11.6125
▁biologisest	-11.6164
muutokse	-11.6177
▁selvittämä	-11.6205
▁syntyvä	-11.6273
▁Streetill	-11.6335
▁lämpimämp	-11.6382
rannikoll	-11.6405
▁skanna	-11.6461
kokoukse	-11.6511
▁pohj	-11.6521
käyttäytymisestä	-11.6522
▁kilpa	-11.6527
ivokuor	-11.6576
▁vaikutt	-11.6615
▁tekijöi	-11.6622
▁täydellisest	-11.6673
syynä	-11.6691
▁louk	-11.6739
lähetyks	-11.677
▁taudi	-11.6792
▁unoht	-11.6792
▁Kuol	-11.6868
▁nähd	-11.6894
▁järjestäyty	-11.6895
▁Tieto	-11.6909
huoneeseen	-11.6936
yhtey	-11.6938
aikoina	-11.6941
sivilisaatio	-11.6941
suunnittelu	-11.6942
vaikutus	-11.6943
kysymys	-11.6943
tapahtuma	-11.6944
kokemus	-11.6945
▁autio	-11.6972
▁kokoise	-11.6992
tavaroiden	-11.7004
▁aiemm	-11.708
▁miellyttä	-11.7097
▁näkev	-11.7101
▁jättei	-11.7108
sosasekunni	-11.7109
▁sosiaalityö	-11.7126
kirjaimell	-11.7132
osiaalise	-11.7145
aradigma	-11.7146
▁islam	-11.7146
▁Kehitys	-11.7148
allusinaatio	-11.7149
tarhaa	-11.7149
▁selkäydin	-11.7149
▁Afgan	-11.7149
▁toukokuu	-11.7149
konferenssei	-11.7149
▁Damaskokse	-11.7149
▁Feynman	-11.7149
▁Kuningatar	-11.7149
▁Maailmankaikkeu	-11.7149
▁Palestiina	-11.7149
▁Portugali	-11.7149
▁Stanfordi	-11.7149
▁Teknologia	-11.7149
▁alkeishiukkas	-11.7149
▁järjenvastaise	-11.7149
▁kadunkulm	-11.7149
▁kansallispuisto	-11.7149
▁liukene	-11.7149
▁mobiili	-11.7149
▁perussuure	-11.7149
▁pioneeri	-11.7149
▁pyramidi	-11.7149
▁raamattu	-11.7149
▁rakennuspalik	-11.7149
▁väkevä	-11.7149
aktivisti	-11.7149
ietojenkäsittely	-11.7149
kaulakoru	-11.7149
simulaatio	-11.7149
traditio	-11.7149
varainministeri	-11.7149
vyöhykke	-11.7149
▁Amsterdami	-11.7149
▁Auguste	-11.7149
▁Berkeley	-11.7149
▁Elokuvassa	-11.7149
▁Euroalue	-11.7149
▁Foundation	-11.7149
▁Göran	-11.7149
▁Hämmästyttävä	-11.7149
▁Jersey	-11.7149
▁Keskustelu	-11.7149
▁Kiehtov	-11.7149
▁Kuuba	-11.7149
▁Libya	-11.7149
▁Läheti	-11.7149
▁Materiaali	-11.7149
▁McKim	-11.7149
▁Nähdä	-11.7149
▁Oksitosiini	-11.7149
▁Parempi	-11.7149
▁Parkeri	-11.7149
▁Prosessi	-11.7149
▁Rattray	-11.7149
▁Sveitsi	-11.7149
▁Sydäme	-11.7149
▁Tavoittee	-11.7149
▁Verratkaa	-11.7149
▁Välimere	-11.7149
▁Yellowstone	-11.7149
▁aktivoida	-11.7149
▁altavastaaja	-11.7149
▁autenttis	-11.7149
▁avaruusolentoj	-11.7149
▁diabetekse	-11.7149
▁diagnoosi	-11.7149
▁ehdoll	-11.7149
▁fusiformi	-11.7149
▁geenejä	-11.7149
▁geometria	-11.7149
▁globaale	-11.7149
▁hirvittävä	-11.7149
▁holokausti	-11.7149
▁huumori	-11.7149
▁hypoteesi	-11.7149
▁hämähäkkilaji	-11.7149
▁höyhen	-11.7149
▁jalanjälj	-11.7149
▁johtopäätöksi	-11.7149
▁kaksois	-11.7149
▁kansanmurha	-11.7149
▁keskoskaapi	-11.7149
▁kiertoradall	-11.7149
▁kolibakteer	-11.7149
▁kolonoskopia	-11.7149
▁kommunikaatio	-11.7149
▁konsepti	-11.7149
▁korrupt	-11.7149
▁kuhiseva	-11.7149
▁kulkuväline	-11.7149
▁kännykä	-11.7149
▁lajitoveri	-11.7149
▁leksigramm	-11.7149
▁luokituslaitos	-11.7149
▁läpimurro	-11.7149
▁läpinäkyvyy	-11.7149
▁mahdottomi	-11.7149
▁mehiläishoitaja	-11.7149
▁mindfulness	-11.7149
▁mykoritsa	-11.7149
▁myrkyttä	-11.7149
▁ohjeita	-11.7149
▁opetteli	-11.7149
▁opiskelijoille	-11.7149
▁parannuskeino	-11.7149
▁pettymykse	-11.7149
▁pyyntö	-11.7149
▁rangaistu	-11.7149
▁rationaalis	-11.7149
▁ruohotasanko	-11.7149
▁räjäytti	-11.7149
▁sankarei	-11.7149
▁stimuloi	-11.7149
▁sukkulamato	-11.7149
▁tatuoinni	-11.7149
▁tietokoneanimoi	-11.7149
▁tiikeri	-11.7149
▁uskalia	-11.7149
▁uuvuttava	-11.7149
▁vaikutelma	-11.7149
▁valinnanvapaude	-11.7149
▁vanhetessa	-11.7149
▁verisuone	-11.7149
▁villieläin	-11.7149
komponentte	-11.7149
neutraali	-11.7149
päällikö	-11.7149
▁Breivik	-11.7149
▁Kuuluis	-11.7149
▁Lähetä	-11.7149
▁Musica	-11.7149
▁Pearl	-11.7149
▁Thaimaa	-11.7149
▁agnostik	-11.7149
▁anteliaisuu	-11.7149
▁antibioot	-11.7149
▁astronaut	-11.7149
▁diabetes	-11.7149
▁edistysaskel	-11.7149
▁ennennäkemätön	-11.7149
▁eurooppalai	-11.7149
▁generatiivis	-11.7149
▁hakkerei	-11.7149
▁harrastuks	-11.7149
▁hybrid	-11.7149
▁hölynpöly	-11.7149
▁ihmiselämä	-11.7149
▁kierroksell	-11.7149
▁kollageeni	-11.7149
▁kuningattare	-11.7149
▁kunnioitettav	-11.7149
▁lapsuuten	-11.7149
▁leivänpaahtime	-11.7149
▁lepakko	-11.7149
▁liberaale	-11.7149
▁lompakko	-11.7149
▁loppuelämä	-11.7149
▁luokitella	-11.7149
▁matemaatik	-11.7149
▁megawat	-11.7149
▁oksytosiini	-11.7149
▁paikoille	-11.7149
▁psykiatri	-11.7149
▁riippuvuus	-11.7149
▁ruohotasango	-11.7149
▁sekvensoi	-11.7149
▁selittäisi	-11.7149
▁seremonia	-11.7149
▁sirkukse	-11.7149
▁supermarket	-11.7149
▁symbioo	-11.7149
▁tahmea	-11.7149
▁tähtäime	-11.7149
▁universaali	-11.7149
▁viivästele	-11.7149
▁viivästely	-11.7149
imbabwe	-11.7149
ococcus	-11.7149
▁Naaras	-11.7149
▁Nick	-11.7149
▁Tehdessä	-11.7149
▁anagramm	-11.7149
▁fyysinen	-11.7149
▁jäljennö	-11.7149
▁kourallise	-11.7149
▁käsittämätön	-11.7149
▁lounaa	-11.7149
▁olkapää	-11.7149
▁osapuole	-11.7149
▁pippuri	-11.7149
▁roolileikki	-11.7149
▁sydänkohtaukse	-11.7149
▁tuulivoimala	-11.7149
▁väittele	-11.7149
▁äidiltä	-11.7149
pähkinä	-11.7149
▁Lokakuu	-11.7149
▁Rachel	-11.7149
▁heroiini	-11.7149
▁itsestäänselv	-11.7149
▁lapsuus	-11.7149
▁maaseutu	-11.7149
▁rock	-11.7149
▁söpö	-11.7149
▁testamentt	-11.7149
▁vanhentu	-11.7149
▁vapauta	-11.7149
njälki	-11.7149
▁ATLAS	-11.7149
▁Arveli	-11.7149
▁Mahdoton	-11.7149
▁Tyttäre	-11.7149
▁aakkosi	-11.7149
▁naamioi	-11.7149
▁päätöksenteko	-11.7149
▁uppo	-11.7149
▁virtsarako	-11.7149
▁Käveli	-11.7149
▁Vietnami	-11.7149
▁hautautu	-11.7149
▁korjaus	-11.7149
▁läntise	-11.7149
▁näköaivokuor	-11.7149
▁pakolaisleir	-11.7149
▁vihaposti	-11.7149
osambiki	-11.7149
▁Moraali	-11.7149
▁elinkaare	-11.7149
▁eläkeläis	-11.7149
▁erimielisyy	-11.7149
▁fotoni	-11.7149
▁Kokeili	-11.7149
▁maailmansota	-11.7149
▁tritium	-11.7149
▁tuomitsem	-11.7149
▁Montana	-11.7149
▁ateiste	-11.7149
▁ratkaisi	-11.7149
romahduks	-11.7149
stakkainasettelu	-11.7149
▁pidettävä	-11.7149
▁vihrei	-11.7149
▁Siirty	-11.7149
▁ihmisyyte	-11.7149
▁jääkaapi	-11.7149
▁Skype	-11.7149
▁juurtu	-11.7149
▁kehrä	-11.7149
▁puuhastel	-11.7149
▁sivisty	-11.7149
▁ateisti	-11.7149
▁sisällö	-11.7149
▁Herttakuninga	-11.7149
▁kauneude	-11.7149
▁nerokkuu	-11.7149
▁Unioni	-11.7149
▁edestakais	-11.7149
▁laimennet	-11.7149
▁kelpaa	-11.7149
▁moottoritie	-11.7149
▁odotti	-11.7149
▁vastaväit	-11.7149
▁Lucy	-11.7149
▁jättimäisi	-11.7149
▁makro	-11.7149
▁päinvastai	-11.7149
▁rasismi	-11.7149
Seelanti	-11.7149
▁Puoli	-11.7149
▁hylke	-11.7149
soisoisän	-11.7149
▁Kerala	-11.7149
▁sähköntuotanto	-11.7149
▁lyödä	-11.7149
▁pitemmä	-11.7149
lämpötiloj	-11.7149
▁Amanda	-11.7149
▁aistimukse	-11.7149
▁tähdi	-11.7149
▁palvele	-11.7149
▁savuttaji	-11.7149
▁vakuuttunei	-11.7149
▁viimeisimmä	-11.7149
▁lehte	-11.7149
▁syvyyte	-11.7149
▁Tutkimukse	-11.7149
▁englanninkielis	-11.7149
▁takajala	-11.7149
▁mielialaa	-11.7149
▁nurkka	-11.7149
kalenteri	-11.7149
▁Media	-11.7149
▁apinoi	-11.7149
▁päädymme	-11.7149
▁Kolleg	-11.7149
▁taipuvai	-11.7149
▁rautatie	-11.7149
▁määritteli	-11.7149
▁pelottavi	-11.7149
▁kamala	-11.7149
▁tekemisissä	-11.7149
▁koukku	-11.7149
▁raunioi	-11.7149
▁Jonkun	-11.7149
▁synnynnäis	-11.715
▁kehys	-11.715
▁näkemykse	-11.715
▁edeltävä	-11.715
▁keräsi	-11.715
▁alkuvaihee	-11.715
▁leikkasi	-11.715
▁Hilja	-11.715
▁arvoituksi	-11.715
▁avaruusmatk	-11.715
▁hopeis	-11.715
▁nähtävi	-11.715
▁tavu	-11.715
▁yhdenmukai	-11.715
▁Kokeva	-11.715
▁vastakkaisi	-11.715
▁tarjoili	-11.715
▁Kehitysmai	-11.715
tappelu	-11.715
▁antiik	-11.715
▁ruokailu	-11.715
▁kohtalaise	-11.715
▁vahvemp	-11.715
▁gramma	-11.715
▁sitkey	-11.715
▁rakentele	-11.715
▁kyydi	-11.7151
kalastukse	-11.7151
▁nerokas	-11.7151
▁uskomukse	-11.7151
▁erikoislaatui	-11.7151
▁makuuhuone	-11.7151
▁Päädyi	-11.7151
▁rasvahap	-11.7151
▁minkäänlais	-11.7151
häviö	-11.7151
▁näkemise	-11.7151
▁voimavaro	-11.7151
▁vaikutusvaltai	-11.7151
▁teoreetti	-11.7151
▁asteittai	-11.7151
▁maalaukse	-11.7152
▁sykkivä	-11.7152
▁alemma	-11.7152
▁novell	-11.7152
▁hitaude	-11.7152
▁kaikenkattav	-11.7152
realisti	-11.7152
▁nautinno	-11.7152
▁esitelm	-11.7152
▁Ammatti	-11.7153
▁Vähä	-11.7153
▁suoranaise	-11.7153
▁raketti	-11.7153
taipumus	-11.7153
▁innostava	-11.7154
▁cool	-11.7154
▁valintoihi	-11.7154
▁huomise	-11.7155
▁Eteläisell	-11.7155
▁sujuva	-11.7155
▁ammateis	-11.7155
▁laajentu	-11.7155
▁omaisuude	-11.7155
▁Tunnist	-11.7155
▁samankokoi	-11.7156
▁Osoit	-11.7156
▁merkill	-11.7156
▁monipuolis	-11.7156
▁hätätila	-11.7157
kursse	-11.7157
▁aallonpituu	-11.7157
▁voimakkaast	-11.7159
▁Molemm	-11.7159
▁köyhimmis	-11.716
pidellä	-11.7161
▁termiitt	-11.7161
▁aiheutu	-11.7161
▁sanakirja	-11.7163
▁Balill	-11.7163
▁Taistel	-11.7163
▁tunnisteta	-11.7163
▁aikomuksi	-11.7164
▁Maci	-11.7164
▁jänis	-11.7164
Bull	-11.7167
ähdyksi	-11.7168
▁Esittel	-11.7171
▁menehty	-11.7171
Carol	-11.7173
▁kaivautu	-11.7174
▁ihmismäis	-11.7175
▁keränn	-11.7178
▁kyselemä	-11.7178
▁sekoitet	-11.718
▁ensinnäk	-11.718
▁niuk	-11.7181
▁laulaji	-11.7185
▁nelivuotia	-11.7186
▁kansalaistoimin	-11.7194
▁liikuttama	-11.7197
arvoituslaatikko	-11.7197
arvaamattom	-11.7204
▁liekk	-11.7206
▁seittiproteiin	-11.7213
aloustieteilijät	-11.7216
kysymyksiä	-11.7231
▁muistikirj	-11.7232
▁ahdistukse	-11.7232
▁rukoil	-11.7235
tartuntoj	-11.7243
▁nykyhetk	-11.7245
pakkaus	-11.726
▁alapuolell	-11.726
▁kasvatukse	-11.7274
▁valppa	-11.7275
▁tehokkaammi	-11.7279
▁epätoivoise	-11.728
päivityks	-11.729
▁hurm	-11.7294
▁ulkopuolise	-11.7297
torjunta	-11.7318
▁soittama	-11.7329
▁liialli	-11.7366
▁saks	-11.7376
tasavalta	-11.7379
▁luonnonsuojel	-11.7396
▁sotkuise	-11.7403
eskilännes	-11.7437
▁negatiivise	-11.7454
joukkojen	-11.7463
▁sätee	-11.7465
▁kartall	-11.7466
huutokaup	-11.75
▁läheisyyt	-11.7521
▁Työskentel	-11.755
tekniikkaa	-11.7573
satelliitti	-11.7574
▁kuolemattomuu	-11.7611
▁ennall	-11.7667
▁jollaise	-11.7685
▁lopullisest	-11.77
▁ehdokk	-11.7771
tavoittee	-11.7814
▁varallisuu	-11.784
▁tuollaise	-11.7881
hyökkäykse	-11.7955
vustust	-11.8037
▁vuosituhat	-11.8051
▁digitaalist	-11.81
▁jättänee	-11.8132
▁Sellaist	-11.822
▁Tietee	-11.8282
▁yhdeksänvuotia	-11.8321
▁Tieteelli	-11.8361
▁Tavallise	-11.8403
aloittee	-11.8414
ottamatt	-11.8495
perheeseen	-11.8496
uontoäiti	-11.8527
▁peittee	-11.8529
▁pukeutunee	-11.8533
kaupungeissa	-11.8601
▁ilmaist	-11.8663
▁lämpiäm	-11.867
teknise	-11.8686
arkkiteht	-11.8767
▁hallituks	-11.8856
▁muotoise	-11.8856
ehdokkai	-11.8904
▁kliini	-11.9009
▁muuttanee	-11.9045
▁kilometr	-11.9068
▁satelliit	-11.9129
miljardis	-11.9386
laskenna	-11.9403
poliitti	-11.9436
tiedosto	-11.9438
säteily	-11.9439
ympyrä	-11.9439
Israelia	-11.944
vaikutukse	-11.9441
organismi	-11.9441
yritykse	-11.9443
yleisö	-11.9444
▁luomiskertomu	-11.9452
mittauks	-11.9465
▁nähnee	-11.9466
rajoittei	-11.9492
algoritmi	-11.95
mekanisme	-11.9556
hämähäkin	-11.9571
▁kiireellis	-11.9573
▁testosteroni	-11.961
todistukse	-11.9614
▁pakkomiel	-11.9618
osallistuja	-11.9625
mattomuute	-11.9629
▁psyyk	-11.9642
press	-11.9645
lahdella	-11.9647
▁Standard	-11.9648
irjaimellise	-11.9648
apsikuolleisuu	-11.9649
▁Jättiläi	-11.9649
▁amerik	-11.9649
▁ystävyy	-11.9649
irkonium	-11.9649
▁Henkilö	-11.9649
▁Mehiläi	-11.9649
vyöry	-11.9649
▁Bechdel	-11.9649
▁Mobile	-11.9649
▁Ympäri	-11.9649
▁aggressiivis	-11.9649
▁aivopuolisko	-11.9649
▁omahyväi	-11.9649
▁spontaani	-11.9649
▁takaisinkytken	-11.9649
▁yhdysvaltalais	-11.9649
delfiine	-11.9649
▁Antarktis	-11.9649
▁Broadway	-11.9649
▁Fransisco	-11.9649
▁Oregoni	-11.9649
▁Philadelphia	-11.9649
▁Taliban	-11.9649
▁Yliopisto	-11.9649
▁demokratioi	-11.9649
▁hengitykse	-11.9649
▁jännittävi	-11.9649
▁katsekontakti	-11.9649
▁kehruunysty	-11.9649
▁kontrasti	-11.9649
▁kreationis	-11.9649
▁käyttöliittym	-11.9649
▁nörti	-11.9649
▁painonpudot	-11.9649
▁preeria	-11.9649
▁sisällissoda	-11.9649
▁terapeut	-11.9649
▁terveydenhuollo	-11.9649
▁www	-11.9649
asvihuoneilmiö	-11.9649
historioitsija	-11.9649
kipedia	-11.9649
lbatrossi	-11.9649
omeopatia	-11.9649
otsalohko	-11.9649
päällikkö	-11.9649
tremadura	-11.9649
uihkukone	-11.9649
unajamehiläis	-11.9649
▁Aristotele	-11.9649
▁Arvatkaa	-11.9649
▁Barbara	-11.9649
▁Cambridge	-11.9649
▁Clarke	-11.9649
▁Demokratia	-11.9649
▁Ecuadori	-11.9649
▁Etelämantereell	-11.9649
▁Galileo	-11.9649
▁Gapminder	-11.9649
▁Hallituks	-11.9649
▁Honolulu	-11.9649
▁Hyönteis	-11.9649
▁Hämähäki	-11.9649
▁ISIS	-11.9649
▁Journal	-11.9649
▁Julkaisi	-11.9649
▁Järjestelmä	-11.9649
▁Kaupungi	-11.9649
▁Knievel	-11.9649
▁Korkea	-11.9649
▁Kuvitellaan	-11.9649
▁Kuwaiti	-11.9649
▁League	-11.9649
▁Libby	-11.9649
▁Maailmanpankki	-11.9649
▁Matthew	-11.9649
▁Moosekse	-11.9649
▁Mumbai	-11.9649
▁Museumi	-11.9649
▁Mustekala	-11.9649
▁ONE	-11.9649
▁PRISM	-11.9649
▁Painovoima	-11.9649
▁Pandora	-11.9649
▁Performanssi	-11.9649
▁Polttoaine	-11.9649
▁Psykologi	-11.9649
▁Saturn	-11.9649
▁Snowden	-11.9649
▁SolarCity	-11.9649
▁Sputnik	-11.9649
▁Tarkastellaan	-11.9649
▁Törmä	-11.9649
▁University	-11.9649
▁Vancouveri	-11.9649
▁Yhdeksän	-11.9649
▁Ymmärtä	-11.9649
▁aivolohko	-11.9649
▁alkuräjähdykse	-11.9649
▁analyysej	-11.9649
▁antropolog	-11.9649
▁bensiini	-11.9649
▁betoni	-11.9649
▁biofonia	-11.9649
▁biosfääri	-11.9649
▁diaesityksen	-11.9649
▁dinosauruksi	-11.9649
▁draama	-11.9649
▁edellytyks	-11.9649
▁eksootti	-11.9649
▁enemmistö	-11.9649
▁finanssi	-11.9649
▁fotosynteesi	-11.9649
▁fundamentalis	-11.9649
▁gliasolu	-11.9649
▁haavoittuvuutta	-11.9649
▁hienostuneemp	-11.9649
▁hitausliikkee	-11.9649
▁holografise	-11.9649
▁hologramm	-11.9649
▁homoseksuaali	-11.9649
▁hulvaton	-11.9649
▁humanitaari	-11.9649
▁hälytyskello	-11.9649
▁johtopäätökse	-11.9649
▁jännitys	-11.9649
▁järkyttyn	-11.9649
▁kestävyyttä	-11.9649
▁kivityökaluj	-11.9649
▁koekaniini	-11.9649
▁komplikaatioi	-11.9649
▁koralliriutoi	-11.9649
▁kulkuneuvo	-11.9649
▁kynttilä	-11.9649
▁kytkentärasia	-11.9649
▁kännyköitä	-11.9649
▁käyttökelpoi	-11.9649
▁käyttötapoja	-11.9649
▁käännökse	-11.9649
▁kömpelö	-11.9649
▁laihduttami	-11.9649
▁levottom	-11.9649
▁liberta	-11.9649
▁lineaarisest	-11.9649
▁lumihiutale	-11.9649
▁lyijy	-11.9649
▁läpitunkemattom	-11.9649
▁lävitse	-11.9649
▁löysä	-11.9649
▁meriahven	-11.9649
▁mieltymyksi	-11.9649
▁musertava	-11.9649
▁mustekalo	-11.9649
▁näppäimistö	-11.9649
▁oikopolku	-11.9649
▁oikotie	-11.9649
▁pahoinpitely	-11.9649
▁palveluntarjoaj	-11.9649
▁pankkiala	-11.9649
▁paranormaal	-11.9649
▁perheenjäsene	-11.9649
▁pikkuriikkis	-11.9649
▁pullonkorkk	-11.9649
▁pureskel	-11.9649
▁pyyhki	-11.9649
▁rasvaimuneste	-11.9649
▁republikaan	-11.9649
▁sademetsi	-11.9649
▁sininärh	-11.9649
▁sopraanostemma	-11.9649
▁stereotypi	-11.9649
▁stressaantun	-11.9649
▁suojeltu	-11.9649
▁suorakulmai	-11.9649
▁suunnannäyttäj	-11.9649
▁suuruusluok	-11.9649
▁sveitsiläi	-11.9649
▁sydäntäsärkev	-11.9649
▁takapihalle	-11.9649
▁tarkoituksiin	-11.9649
▁teleskoop	-11.9649
▁tieteiskirja	-11.9649
▁tunnustella	-11.9649
▁turbiini	-11.9649
▁vaatteisiin	-11.9649
▁vaurioitunee	-11.9649
▁vyötärö	-11.9649
▁vähempää	-11.9649
▁vääjäämätt	-11.9649
cocktail	-11.9649
neutriino	-11.9649
pankkiiri	-11.9649
▁Fyysiko	-11.9649
▁Globalisaatio	-11.9649
▁JAWS	-11.9649
▁Jäätikö	-11.9649
▁Kiinnostu	-11.9649
▁Kreikkaa	-11.9649
▁Rosalie	-11.9649
▁Ryhmä	-11.9649
▁Taloudellis	-11.9649
▁Tarjo	-11.9649
▁Traagis	-11.9649
▁Tyler	-11.9649
▁Viktoria	-11.9649
▁absorboi	-11.9649
▁aivokasvai	-11.9649
▁assosiaatio	-11.9649
▁diplom	-11.9649
▁ekosysteeme	-11.9649
▁epäröi	-11.9649
▁eriskummallis	-11.9649
▁hallusinoi	-11.9649
▁hirviö	-11.9649
▁huolehdi	-11.9649
▁keskeneräi	-11.9649
▁kokaiini	-11.9649
▁kvanttimekaniik	-11.9649
▁laajeneva	-11.9649
▁laihdutuskuuri	-11.9649
▁lempe	-11.9649
▁lietso	-11.9649
▁luonnonmullistu	-11.9649
▁maanpäällis	-11.9649
▁mestariteoks	-11.9649
▁nisäkäs	-11.9649
▁poimuttu	-11.9649
▁puolestapuhuj	-11.9649
▁rakkaimpa	-11.9649
▁regeneroi	-11.9649
▁reissu	-11.9649
▁ruokahalu	-11.9649
▁sedimentt	-11.9649
▁sekasorto	-11.9649
▁serotoniini	-11.9649
▁sponsoroi	-11.9649
▁sukupuolirool	-11.9649
▁säännönmukais	-11.9649
▁taltioi	-11.9649
▁todisti	-11.9649
▁toteutti	-11.9649
▁tryptofaani	-11.9649
▁vähittäi	-11.9649
▁vähäpätöisi	-11.9649
▁väistämätön	-11.9649
▁ystävysty	-11.9649
opedia	-11.9649
todistusta	-11.9649
▁Elektroni	-11.9649
▁Energia	-11.9649
▁Liberaal	-11.9649
▁MSF	-11.9649
▁Organi	-11.9649
▁asiantuntev	-11.9649
▁harmonia	-11.9649
▁hollanni	-11.9649
▁imeyty	-11.9649
▁kaatopaik	-11.9649
▁matkalaukku	-11.9649
▁nanoteknologi	-11.9649
▁parlament	-11.9649
▁pettymys	-11.9649
▁pistooli	-11.9649
▁puutarho	-11.9649
▁pystyakseli	-11.9649
▁sensuroi	-11.9649
▁suborbitaali	-11.9649
▁twiit	-11.9649
▁työmatka	-11.9649
▁tärkeyde	-11.9649
▁vahvistu	-11.9649
kyttyrä	-11.9649
▁kerrostumi	-11.9649
▁mustavalko	-11.9649
▁Avenue	-11.9649
▁Kokeile	-11.9649
▁Leonard	-11.9649
▁Medic	-11.9649
▁avaruuslenno	-11.9649
▁hyppy	-11.9649
▁innoitukse	-11.9649
▁isorokko	-11.9649
▁pitkäkestoi	-11.9649
▁raportte	-11.9649
▁shakki	-11.9649
kampanjoi	-11.9649
▁Aseistet	-11.9649
▁kiehu	-11.9649
▁sinivala	-11.9649
uolanpoisto	-11.9649
▁Arvele	-11.9649
▁asianmukais	-11.9649
▁elimistön	-11.9649
▁juhla	-11.9649
▁leveä	-11.9649
▁louhi	-11.9649
▁mätäne	-11.9649
▁raporti	-11.9649
▁salausmenetelm	-11.9649
▁etusivulla	-11.9649
▁tarvepolu	-11.9649
nnoittee	-11.9649
tietosanakirja	-11.9649
valmennus	-11.9649
▁Harbor	-11.9649
▁kynnyksel	-11.9649
monument	-11.9649
nauhuri	-11.9649
viesteistä	-11.9649
▁hajaantu	-11.9649
▁lahjoituksi	-11.9649
▁tukilank	-11.9649
▁länsimaalais	-11.9649
▁vihamielise	-11.9649
joogaa	-11.9649
nttikenttäteoria	-11.9649
▁keskinkertais	-11.9649
▁lampai	-11.9649
▁perehty	-11.9649
▁upotta	-11.9649
▁hätäänty	-11.9649
▁jäätelö	-11.9649
▁riskialtis	-11.9649
▁tylsi	-11.9649
▁Synny	-11.9649
▁puolueellis	-11.9649
▁kuunnelk	-11.9649
▁Yhteistyö	-11.9649
▁slummi	-11.9649
▁työelämä	-11.9649
▁perinnö	-11.9649
▁tölkki	-11.9649
▁Tanska	-11.9649
▁kanuuna	-11.9649
▁sokeutu	-11.9649
▁Muinaise	-11.9649
ansulatus	-11.9649
▁sovellet	-11.9649
▁Surulli	-11.9649
▁riemu	-11.9649
▁riippuvuut	-11.9649
▁sinilev	-11.9649
ekulaari	-11.9649
▁rannoill	-11.9649
▁Hippo	-11.9649
▁asiayhteydes	-11.9649
▁juoksumato	-11.9649
▁tiivisty	-11.9649
▁aikaansaamise	-11.9649
▁kätket	-11.9649
▁keskikokoi	-11.9649
▁Siunaus	-11.9649
▁trool	-11.9649
addikt	-11.9649
▁augmentoituj	-11.9649
▁valaistus	-11.9649
▁ohjee	-11.965
▁pakkaukse	-11.965
▁paljolt	-11.965
▁teurast	-11.965
▁brittiläis	-11.965
▁ilmiantaj	-11.965
▁ilmoittautu	-11.965
▁sperma	-11.965
ysteeri	-11.965
▁yleismaailmalli	-11.965
▁lupauksi	-11.965
▁poikaystäv	-11.965
▁hengail	-11.965
▁soveltu	-11.965
▁ikuisuu	-11.965
▁viihtee	-11.965
▁uhrau	-11.965
▁matelijoi	-11.965
haarniskaa	-11.965
▁jääkaapp	-11.965
äänestykse	-11.965
▁napapiirill	-11.965
▁jutell	-11.965
▁varmistetta	-11.965
▁roskapost	-11.965
▁Carr	-11.9651
säästö	-11.9651
▁Meksikonlahde	-11.9651
▁kauempa	-11.9651
▁puitteis	-11.9651
▁kiipeäm	-11.9651
keräilijä	-11.9651
kuormit	-11.9652
▁hypännee	-11.9652
▁tosiseik	-11.9652
▁kuvitelma	-11.9652
▁edeltäj	-11.9652
▁välttämättömä	-11.9652
▁onnettomi	-11.9653
ndrine	-11.9653
▁shokk	-11.9653
▁kalorei	-11.9653
▁mikrobiaalis	-11.9653
ansainväli	-11.9653
▁ylipainois	-11.9653
▁arktis	-11.9653
▁annokse	-11.9654
järjestely	-11.9654
▁tilavuu	-11.9654
▁ravintoketju	-11.9654
▁luonnontiete	-11.9656
▁villieläim	-11.9656
tutkimusretk	-11.9657
oikkeama	-11.9658
▁kuumemp	-11.9659
▁monenlaist	-11.9659
▁soluviljelm	-11.9659
▁laumoi	-11.9659
▁pitelemä	-11.9659
▁varoituks	-11.966
varustee	-11.966
▁heikomp	-11.966
▁saastuttami	-11.9663
▁mikroskopi	-11.9664
▁päätelmä	-11.9665
Nevada	-11.9667
▁reputt	-11.9667
kauneus	-11.9668
▁suoritet	-11.9669
▁lainaukse	-11.9669
▁edellisis	-11.967
ohjaukse	-11.967
▁samankaltaisuu	-11.9671
vanhimm	-11.9674
metsästäji	-11.9675
▁Lääk	-11.9677
käytäntö	-11.9678
▁lastenlast	-11.9683
▁sanomalehd	-11.9683
▁laillis	-11.9696
tandardimalli	-11.9699
▁rahoitukse	-11.9712
▁tapoihi	-11.9717
▁järjettöm	-11.9723
▁mönk	-11.9726
▁kiireellisyyde	-11.9728
npaloj	-11.974
kangas	-11.974
▁aikaisemp	-11.9741
vahvuuksista	-11.9742
▁fissiotuotte	-11.9774
▁lempikoht	-11.9781
▁Lyhye	-11.9796
▁käytännöllis	-11.98
▁liikkumattom	-11.9807
▁vaarallisemp	-11.9807
▁ihmissuhtei	-11.9821
suuruise	-11.9856
▁kaupunkeihi	-11.9863
tavoitteisiin	-11.9872
▁supernormaal	-11.9883
kailija	-11.9893
avustaja	-11.9907
vanhemmilta	-11.9913
▁vakaude	-11.9937
hyväntekeväisyys	-11.9951
järjestäytyvä	-11.9984
▁varastett	-12.0015
monimutkaisempaa	-12.0091
tyytyväisyy	-12.0111
todennäköisyyksi	-12.0224
uudistus	-12.0231
yöläi	-12.0248
jalostam	-12.0254
▁riippuvuude	-12.0256
▁väestömäär	-12.0262
▁selitetä	-12.0301
lahjoja	-12.032
ajattelijoi	-12.0335
▁visuaalisest	-12.0454
ystävällis	-12.0485
▁kuuluisuu	-12.0561
▁ruokailij	-12.0598
▁luettav	-12.0661
lämpiämise	-12.0737
▁teknisest	-12.1048
oiveajattelu	-12.1069
▁kasvatett	-12.1075
järjestykse	-12.1201
siantuntijaryhmä	-12.1357
▁yhdyskunt	-12.1468
murhaaj	-12.1487
situhattavoitte	-12.1549
fysiikkaa	-12.1557
▁israelilai	-12.1763
opistoon	-12.1775
▁proteiine	-12.194
▁osoittees	-12.2059
▁moraalisest	-12.2137
▁tietoliikenne	-12.2229
laukaisu	-12.2276
kuusivuotia	-12.2338
insinöörei	-12.2429
▁menneisyydess	-12.2465
normaaleja	-12.2666
ravintoaine	-12.2728
tekniika	-12.2772
kuningatar	-12.2772
laakso	-12.2773
yhteiskunna	-12.2776
julkaisu	-12.2776
filosofi	-12.2776
täytynee	-12.2781
▁auktoriteet	-12.2921
ermikuliitti	-12.293
ravinteis	-12.2961
viljelmi	-12.2968
ohjautuv	-12.2972
älykkyy	-12.2978
journalis	-12.2981
▁augmentoi	-12.2982
uudelleenjärjest	-12.2982
▁Irlanni	-12.2982
▁ihmisapinoi	-12.2982
▁ruohonjuuri	-12.2982
▁räjähdyks	-12.2982
▁välivuot	-12.2982
#	-12.2982
eivänpaahdin	-12.2982
indoeurooppalais	-12.2982
kristillis	-12.2982
yhteisymmärrykse	-12.2982
▁Disney	-12.2982
▁Valliriut	-12.2982
▁ahdistuneisuu	-12.2982
▁costaricalaisi	-12.2982
▁ennakkoasente	-12.2982
▁epäreilu	-12.2982
▁hankajalkais	-12.2982
▁hartioille	-12.2982
▁harvennushakku	-12.2982
▁hyväntahtoisuut	-12.2982
▁integroi	-12.2982
▁kidnappaaji	-12.2982
!	-13.7969
)	-13.797
b	-13.7971
—	-13.7972
?	-13.7973
:	-13.7974
&	-13.7975
,	-13.7976
