<unk>	0
<s>	0
</s>	0
;	-3.16818
▁,	-3.26584
&	-3.29465
apos	-3.30401
s	-3.32198
▁.	-3.37708
▁de	-3.65941
▁la	-4.32751
▁	-4.36286
▁et	-4.39909
▁est	-4.47409
▁que	-4.51662
▁le	-4.54141
▁à	-4.5662
▁les	-4.61915
▁l	-4.64466
▁un	-4.6709
▁d	-4.72305
▁en	-4.82775
▁des	-4.90007
▁une	-4.92084
▁a	-4.95473
e	-5.02092
▁nous	-5.03926
▁qui	-5.11297
▁vous	-5.13195
-	-5.16769
▁ce	-5.19721
▁dans	-5.20371
▁pour	-5.22052
▁pas	-5.2449
quot	-5.31444
▁&	-5.33522
▁il	-5.40483
▁Et	-5.40516
▁je	-5.44315
▁c	-5.47337
▁qu	-5.48799
▁du	-5.59265
▁plus	-5.63195
ment	-5.65402
▁n	-5.68132
▁ne	-5.69942
▁sur	-5.75523
▁?	-5.84218
▁ai	-5.84367
▁C	-5.87965
▁y	-5.88823
r	-5.89327
▁Il	-5.90023
▁j	-5.91174
▁on	-5.93514
▁sont	-5.96181
▁au	-5.96321
▁avec	-6.00378
▁:	-6.01635
▁par	-6.03097
▁se	-6.05758
▁fait	-6.07451
▁Je	-6.11075
t	-6.15389
▁ont	-6.16774
c	-6.18285
▁comme	-6.19176
▁ils	-6.20816
▁s	-6.2315
▁ces	-6.23207
▁cette	-6.23217
▁ça	-6.23533
▁—	-6.25285
▁était	-6.25297
▁avons	-6.2631
▁si	-6.27154
▁faire	-6.27551
é	-6.28476
▁)	-6.28913
(	-6.28988
’	-6.29297
▁mais	-6.3448
▁Nou	-6.36791
er	-6.37704
▁tout	-6.38246
▁Mais	-6.38309
▁ou	-6.39524
▁A	-6.40471
ent	-6.41577
▁leur	-6.44857
▁être	-6.50104
a	-6.52003
▁très	-6.52697
▁peut	-6.56196
▁bien	-6.56483
▁J	-6.58709
ant	-6.60234
nt	-6.60302
▁monde	-6.64362
▁o	-6.66428
es	-6.66784
▁gens	-6.67766
i	-6.71735
▁chose	-6.72035
▁même	-6.73025
▁me	-6.76321
▁Ce	-6.76674
▁elle	-6.77035
ù	-6.77904
▁cela	-6.78222
▁m	-6.78456
▁La	-6.80278
▁notre	-6.81605
ait	-6.82686
ons	-6.84983
▁dit	-6.86234
▁mon	-6.87305
▁quand	-6.87426
▁été	-6.87689
▁aux	-6.88133
▁suis	-6.88695
▁tous	-6.91559
«	-6.9189
▁Le	-6.91923
▁Vous	-6.92314
que	-6.92824
ce	-6.94206
▁aussi	-6.94272
▁»	-6.94379
▁beaucoup	-6.9625
▁vraiment	-6.96281
▁En	-6.96989
▁Les	-7.00133
▁donc	-7.01157
▁Don	-7.01781
▁autre	-7.02356
▁Rires	-7.0361
d	-7.03759
▁parce	-7.04345
▁vie	-7.05046
▁son	-7.05543
tre	-7.06764
▁deux	-7.07074
▁ans	-7.08114
▁ma	-7.08298
▁voir	-7.09049
▁choses	-7.09646
▁vo	-7.10243
▁nos	-7.12795
▁quelque	-7.13696
▁On	-7.15428
▁avait	-7.15455
▁là	-7.15679
▁entre	-7.16535
▁dire	-7.18395
▁autres	-7.19719
▁L	-7.21075
▁ici	-7.21627
▁avoir	-7.21746
▁peu	-7.23419
ont	-7.23442
▁temps	-7.24089
z	-7.2492
l	-7.25216
▁moi	-7.25892
▁♫	-7.26966
▁fois	-7.29785
ez	-7.3003
▁pouvez	-7.33084
ation	-7.33581
▁sa	-7.33777
▁Un	-7.34516
▁Si	-7.34984
▁comment	-7.36201
y	-7.39379
▁sommes	-7.4208
il	-7.42515
▁seule	-7.42868
lors	-7.43146
▁avez	-7.43554
▁pense	-7.44103
▁va	-7.44473
x	-7.44584
on	-7.47492
▁façon	-7.48149
▁Applaudissement	-7.48254
ux	-7.48309
▁personnes	-7.48349
▁encore	-7.48739
▁années	-7.49429
ur	-7.5453
aient	-7.55074
p	-7.56228
ci	-7.56869
▁maintenant	-7.56985
.	-7.57262
▁elles	-7.57435
▁besoin	-7.57762
▁Pour	-7.58212
▁hui	-7.58923
▁juste	-7.59232
▁alors	-7.60588
▁lui	-7.61063
▁pays	-7.62098
▁sans	-7.62111
ée	-7.63236
▁enfants	-7.6339
ra	-7.64475
être	-7.6549
▁toutes	-7.65498
▁cha	-7.65553
▁non	-7.66465
▁vais	-7.66548
▁système	-7.66699
▁histoire	-7.67153
ais	-7.67901
▁eu	-7.6794
▁jamais	-7.68195
▁pouvons	-7.68421
▁partie	-7.68541
▁idée	-7.68908
n	-7.69043
o	-7.70163
▁problème	-7.71863
▁quelques	-7.72369
▁après	-7.73697
▁mes	-7.74181
▁étaient	-7.74495
re	-7.74563
▁Elle	-7.74997
▁-	-7.74998
▁veux	-7.75054
▁grande	-7.76525
u	-7.77124
▁moins	-7.77422
▁aujourd	-7.7746
le	-7.77533
▁première	-7.77667
▁toujours	-7.77875
▁Voic	-7.78085
▁D	-7.79186
▁Merci	-7.79507
▁peuvent	-7.79892
▁grand	-7.80977
▁moment	-7.81382
ne	-7.82548
▁parler	-7.83269
▁exemple	-7.83543
▁technologie	-7.83638
▁re	-7.83773
us	-7.84753
▁jour	-7.85516
▁pendant	-7.85589
▁étais	-7.85776
▁savez	-7.86175
▁personne	-7.87392
▁question	-7.87925
▁soit	-7.88318
▁puis	-7.88525
vous	-7.89094
▁sorte	-7.90993
▁trois	-7.91116
▁point	-7.91128
▁manière	-7.91406
▁vers	-7.92003
té	-7.92372
▁voyez	-7.92453
▁quoi	-7.92461
▁toute	-7.92862
▁travail	-7.93148
▁%	-7.94245
▁avant	-7.94738
it	-7.95027
▁S	-7.95165
▁commencé	-7.95532
▁in	-7.95741
▁sûr	-7.96089
h	-7.96906
▁cet	-7.97246
▁car	-7.97628
▁important	-8.00071
m	-8.01043
▁Cela	-8.02378
▁Ç	-8.02704
▁avais	-8.02864
in	-8.04048
g	-8.04057
és	-8.04528
▁ses	-8.04627
▁eau	-8.04676
▁cas	-8.04734
▁!	-8.04854
▁êtes	-8.05017
▁jusqu	-8.05401
ions	-8.05861
▁tant	-8.06278
▁sous	-8.06284
suite	-8.07286
▁nombre	-8.07546
▁petit	-8.07637
▁bonne	-8.07934
▁eux	-8.07954
▁bon	-8.08205
▁T	-8.08821
▁depuis	-8.09243
▁vu	-8.09766
▁pourquoi	-8.10064
▁assez	-8.10217
▁rien	-8.10484
▁font	-8.11235
al	-8.11307
près	-8.11686
▁faut	-8.12614
▁pourrait	-8.13393
▁Quan	-8.13677
▁Dans	-8.1386
▁trouver	-8.14104
▁projet	-8.14187
tôt	-8.14246
▁aller	-8.14248
▁environ	-8.14785
▁Maintenant	-8.15086
▁cerveau	-8.15087
▁utiliser	-8.15547
tant	-8.15676
f	-8.15808
▁genre	-8.15811
▁passe	-8.15989
▁données	-8.16176
te	-8.17085
▁tu	-8.17094
▁10	-8.17132
▁travers	-8.17221
▁devons	-8.17401
quelle	-8.17494
ri	-8.18162
▁créer	-8.18392
▁20	-8.1865
▁expérience	-8.19139
la	-8.1918
▁passé	-8.19622
▁millions	-8.19701
ées	-8.19982
▁quelqu	-8.20966
▁appelle	-8.21113
ie	-8.21194
▁pouvoir	-8.21293
▁premier	-8.21869
▁dernière	-8.21936
▁plu	-8.2223
▁crois	-8.22592
▁nouveau	-8.22718
▁prendre	-8.22875
▁produit	-8.22907
▁comprendre	-8.23516
▁femmes	-8.24072
▁simple	-8.25594
▁avaient	-8.26553
▁...	-8.26623
ou	-8.26703
li	-8.27527
▁sens	-8.27635
▁année	-8.27721
▁peux	-8.27887
age	-8.28012
▁sais	-8.28176
▁dé	-8.28376
an	-8.29636
▁société	-8.30206
▁Parce	-8.30281
nous	-8.30625
ti	-8.30645
▁train	-8.30912
▁B	-8.31115
▁lorsqu	-8.31616
▁déjà	-8.31622
▁donner	-8.31642
ité	-8.32005
▁certaine	-8.32171
▁000	-8.32533
b	-8.32893
▁homme	-8.33477
▁fais	-8.33501
▁simplement	-8.33778
▁De	-8.34128
▁ensemble	-8.34253
▁vos	-8.34338
is	-8.34517
▁espace	-8.34633
▁fin	-8.35021
▁nouvelle	-8.35607
▁contre	-8.35659
▁montrer	-8.35754
▁chez	-8.36118
aux	-8.36791
ro	-8.37123
▁dis	-8.37244
▁corps	-8.37259
▁ceci	-8.37285
▁vrai	-8.37616
▁énergie	-8.38057
▁savoir	-8.38748
ette	-8.38915
▁difficile	-8.3897
tout	-8.39593
en	-8.40036
▁plupart	-8.402
▁côté	-8.40743
▁voiture	-8.40907
▁mettre	-8.41253
▁recherche	-8.41272
▁raison	-8.41602
▁F	-8.41663
▁voici	-8.41838
▁ceux	-8.4214
ion	-8.42285
▁part	-8.42449
▁E	-8.42502
▁agit	-8.42551
▁trop	-8.42656
▁compte	-8.42966
▁petite	-8.43072
fin	-8.43204
ement	-8.43342
▁Ma	-8.43349
▁Tout	-8.43745
▁Par	-8.43815
▁3	-8.43856
ir	-8.44077
▁Au	-8.44119
▁commence	-8.44194
▁possible	-8.44306
▁ré	-8.44549
▁changer	-8.44591
me	-8.44895
ch	-8.45003
▁ville	-8.45204
▁problèmes	-8.45226
▁Qu	-8.45361
▁ainsi	-8.45432
▁dollars	-8.45498
Unis	-8.45708
▁doit	-8.45851
▁forme	-8.45878
▁Comment	-8.45896
▁passer	-8.45907
▁incroyable	-8.45932
▁mieux	-8.46363
▁importe	-8.4657
là	-8.46999
▁jours	-8.47058
di	-8.47233
▁lieu	-8.4736
▁propre	-8.47384
▁maladie	-8.47501
▁P	-8.47503
▁pris	-8.48042
aire	-8.48051
même	-8.48153
▁veut	-8.48169
▁quel	-8.48209
▁gr	-8.48482
▁mal	-8.4854
quoi	-8.48542
▁serait	-8.48768
▁vont	-8.49076
▁argent	-8.49519
▁marché	-8.49689
▁image	-8.50894
▁penser	-8.51082
▁femme	-8.51162
▁santé	-8.51236
▁mois	-8.51302
▁pu	-8.51445
▁place	-8.51489
▁main	-8.51942
▁allons	-8.521
or	-8.52837
▁réalité	-8.53421
▁trouve	-8.53831
▁trouvé	-8.53866
▁cours	-8.5476
▁enfant	-8.54813
▁cause	-8.54941
▁endroit	-8.55649
lo	-8.55673
able	-8.55717
▁sujet	-8.55738
▁sera	-8.55769
▁con	-8.56247
▁certains	-8.56667
iez	-8.56959
ter	-8.57115
▁seul	-8.57331
▁différentes	-8.58048
ul	-8.58229
▁gros	-8.58856
▁souvent	-8.5887
▁an	-8.58943
▁autour	-8.59258
▁M	-8.59518
▁f	-8.59784
▁Afrique	-8.60078
▁t	-8.60273
▁début	-8.60646
▁planète	-8.60838
▁arrive	-8.61056
fois	-8.611
▁celui	-8.61217
tu	-8.61248
lé	-8.61261
eur	-8.61663
▁cellules	-8.6168
▁gouvernement	-8.61799
▁lumière	-8.62563
▁photo	-8.62965
▁G	-8.63062
ine	-8.63094
▁effet	-8.6334
▁nom	-8.63588
▁reste	-8.63641
▁école	-8.64051
▁tard	-8.64138
v	-8.64461
▁maison	-8.64523
▁esprit	-8.64813
▁public	-8.65035
▁mère	-8.65457
▁parle	-8.65485
▁celle	-8.6585
▁heure	-8.66061
▁mis	-8.66073
▁vue	-8.66137
▁aide	-8.66275
▁milliards	-8.66333
▁quatre	-8.66614
▁famille	-8.66836
A	-8.67149
▁air	-8.67257
▁également	-8.68159
▁probable	-8.68544
ing	-8.6868
▁changement	-8.68734
▁faisons	-8.69005
▁voulai	-8.6921
▁groupe	-8.69276
▁hommes	-8.69876
▁type	-8.70139
▁O	-8.70153
▁coup	-8.70154
ale	-8.70455
▁humain	-8.70477
▁niveau	-8.70561
▁montre	-8.70726
▁savons	-8.71075
▁presque	-8.71145
▁long	-8.71204
▁essayer	-8.71211
▁accord	-8.71251
▁Eh	-8.71297
▁réponse	-8.71995
▁environnement	-8.72187
▁époque	-8.72205
▁donne	-8.72274
▁rend	-8.72836
▁haut	-8.72933
▁aider	-8.73167
▁signifie	-8.73284
ton	-8.73365
de	-8.73433
▁Est	-8.73855
▁partir	-8.73859
▁terre	-8.73893
▁demandé	-8.73925
▁tellement	-8.74224
moi	-8.74238
▁guerre	-8.74468
▁travailler	-8.74713
▁co	-8.75413
▁donné	-8.75458
▁programme	-8.75478
elle	-8.75549
▁capable	-8.75913
urs	-8.76017
▁idées	-8.76019
▁capacité	-8.76227
▁peur	-8.76229
ré	-8.76431
▁Mon	-8.76433
▁importante	-8.7664
▁quelle	-8.76747
▁commencer	-8.76841
▁2	-8.77021
▁nature	-8.7725
▁allez	-8.77793
âc	-8.7781
▁nouvelles	-8.78002
▁Voilà	-8.78018
▁voulez	-8.78036
▁4	-8.78082
ve	-8.78133
▁100	-8.78436
▁aime	-8.78444
▁dernier	-8.78472
▁plusieurs	-8.78585
venir	-8.7891
▁intérieur	-8.78926
▁base	-8.79129
▁avions	-8.79384
▁fond	-8.79412
▁Bien	-8.79595
▁droit	-8.79823
tats	-8.80247
ill	-8.80253
▁Elles	-8.80483
▁différents	-8.8061
k	-8.80629
ar	-8.80655
▁30	-8.8081
▁Des	-8.80921
▁construire	-8.80924
▁faites	-8.80959
▁appris	-8.81047
▁plan	-8.81089
▁tête	-8.81179
▁5	-8.8121
▁politique	-8.81237
▁mesure	-8.81287
▁regarder	-8.81298
▁face	-8.81397
co	-8.81511
▁film	-8.81532
▁mort	-8.81569
▁Que	-8.81817
▁humains	-8.81867
▁énorme	-8.81933
▁intéressant	-8.82094
▁pouvait	-8.82169
▁état	-8.82216
▁N	-8.82231
▁meilleure	-8.82235
op	-8.8237
ig	-8.82587
▁aurait	-8.82629
▁demande	-8.82798
vi	-8.82847
▁ligne	-8.83201
▁Bon	-8.83344
▁Oui	-8.83465
▁50	-8.836
▁Terre	-8.83711
▁vient	-8.83823
▁I	-8.83978
▁bas	-8.83992
▁livre	-8.84308
▁moyen	-8.84389
▁science	-8.84679
▁b	-8.84691
▁marche	-8.8476
at	-8.84802
▁animaux	-8.84913
▁entendu	-8.85017
▁siècle	-8.85156
▁art	-8.85378
▁propos	-8.8552
▁apprendre	-8.85536
▁ordinateur	-8.85948
▁voilà	-8.86131
▁abord	-8.86201
▁créé	-8.86226
▁ni	-8.86247
▁cent	-8.86269
▁petits	-8.86319
▁devenu	-8.8656
▁mouvement	-8.86868
▁informations	-8.86977
▁complètement	-8.8705
▁process	-8.87376
▁regardez	-8.8771
▁culture	-8.88028
▁communauté	-8.88647
um	-8.88971
▁futur	-8.89177
2	-8.89189
▁1	-8.8927
▁Ces	-8.89481
▁économie	-8.89493
mi	-8.89564
▁mot	-8.89672
▁heures	-8.8988
▁vivre	-8.89903
▁New	-8.89993
▁cinq	-8.90383
▁équipe	-8.90414
▁développement	-8.90438
▁modèle	-8.90616
▁Comme	-8.90637
▁valeur	-8.90649
▁rendre	-8.90745
▁défi	-8.90863
▁chacun	-8.91154
ive	-8.91158
▁meilleur	-8.91214
ut	-8.91392
▁Ou	-8.91502
▁unique	-8.91575
▁population	-8.9167
▁vidéo	-8.91816
▁p	-8.91954
▁prend	-8.91997
▁arrivé	-8.92217
91	-8.92494
▁appelé	-8.92547
▁décidé	-8.92656
ombien	-8.92719
▁père	-8.92766
th	-8.92778
▁questions	-8.92929
▁yeux	-8.93089
▁centre	-8.93109
▁univers	-8.93154
im	-8.93209
isme	-8.93246
▁musique	-8.93367
▁physique	-8.93367
▁présent	-8.93665
▁mots	-8.93688
▁chance	-8.9373
lon	-8.93769
▁amis	-8.94083
▁nourriture	-8.94162
el	-8.94263
▁devez	-8.94964
▁structure	-8.95073
▁cancer	-8.95229
S	-8.95254
tte	-8.95348
▁information	-8.95381
▁exacte	-8.95513
▁loin	-8.95788
▁utilisé	-8.96135
▁pièce	-8.96172
M	-8.96197
▁millier	-8.96307
les	-8.96529
gu	-8.96768
▁fille	-8.96967
▁aucun	-8.97247
man	-8.97268
C	-8.97497
▁aucune	-8.97548
▁écrit	-8.9789
▁Non	-8.97923
▁TED	-8.97947
▁voit	-8.983
▁pensé	-8.98496
▁arriver	-8.98771
0	-8.99125
nd	-8.99205
▁comportement	-8.99549
▁découvert	-8.99608
▁rapport	-8.99896
▁allé	-8.9998
ma	-9.00189
ard	-9.00386
bo	-9.00399
▁choix	-9.00601
▁disent	-9.00625
▁ressemble	-9.00681
▁Inde	-9.00752
▁lequel	-9.01299
am	-9.01804
▁taille	-9.01893
res	-9.01902
▁jeu	-9.01952
▁15	-9.02024
▁existe	-9.02308
ance	-9.0241
insi	-9.02977
▁Tu	-9.02995
ta	-9.03031
▁jeunes	-9.03052
ante	-9.03432
▁porte	-9.0352
▁facile	-9.03558
je	-9.03871
ure	-9.04109
▁bâtiment	-9.04112
▁images	-9.04339
▁Puis	-9.04351
ork	-9.04414
hi	-9.04468
eurs	-9.04543
93;	-9.04645
ho	-9.04667
▁super	-9.04934
ff	-9.05158
mo	-9.05245
▁voulons	-9.05721
ique	-9.05731
▁voyons	-9.05832
▁fut	-9.05913
▁compris	-9.0613
▁semble	-9.0627
son	-9.06282
D	-9.06427
if	-9.06892
rait	-9.07003
eux	-9.07077
7	-9.07085
▁permet	-9.073
▁amour	-9.07334
w	-9.07436
ni	-9.07525
▁dois	-9.07542
▁pensez	-9.07703
un	-9.08012
▁sait	-9.08166
▁g	-9.08289
▁pro	-9.08478
ad	-9.0848
ver	-9.08918
▁Pas	-9.09053
▁rapidement	-9.09262
▁force	-9.09455
▁plein	-9.09525
▁milieu	-9.09634
▁grands	-9.09779
▁âge	-9.09786
▁sécurité	-9.09812
gé	-9.0984
▁minutes	-9.09965
▁R	-9.10008
▁échelle	-9.10097
▁salle	-9.102
▁machine	-9.10679
▁voyage	-9.11014
tes	-9.11381
▁contrôle	-9.1162
▁villes	-9.11734
▁Dieu	-9.11775
▁parents	-9.11915
▁changé	-9.12141
▁jouer	-9.12296
▁éducation	-9.123
▁nuit	-9.12311
▁différent	-9.12375
▁devant	-9.124
▁humaine	-9.12431
▁surface	-9.12459
▁région	-9.12619
▁règle	-9.12778
▁tour	-9.12796
▁longtemps	-9.13261
▁veulent	-9.13581
▁entier	-9.1359
mp	-9.13803
▁Chine	-9.14087
▁200	-9.14103
ol	-9.14209
mment	-9.14231
to	-9.14234
▁réellement	-9.14367
▁différence	-9.14517
▁appel	-9.14533
▁prix	-9.1458
▁particulier	-9.14715
po	-9.14924
▁mondiale	-9.14929
▁design	-9.15199
▁regarde	-9.15309
▁gauche	-9.1537
▁Internet	-9.1537
▁prêt	-9.15388
na	-9.15462
▁scientifiques	-9.1582
ème	-9.1614
▁dû	-9.16164
▁devrait	-9.16196
▁Ne	-9.16212
tra	-9.1628
▁fonctionne	-9.16509
▁demander	-9.16536
▁sol	-9.16651
▁rue	-9.16734
▁action	-9.16927
T	-9.1707
5	-9.17145
▁situation	-9.17191
▁40	-9.17241
▁histoires	-9.17323
▁oui	-9.17326
▁six	-9.17422
P	-9.17566
▁dessus	-9.17584
▁endroits	-9.18026
ner	-9.18532
▁utilise	-9.18535
sse	-9.1875
▁parlé	-9.18798
▁attention	-9.19046
▁deuxième	-9.1941
▁évolution	-9.1973
▁croissance	-9.1973
▁obtenir	-9.19731
dé	-9.2005
▁entreprise	-9.20073
▁6	-9.20083
▁inter	-9.2032
use	-9.20406
▁Amérique	-9.20417
▁couleur	-9.20444
▁finale	-9.20488
du	-9.20518
▁devient	-9.2061
▁aimerais	-9.20791
▁entreprises	-9.21109
▁étudiants	-9.2137
▁change	-9.21401
▁jeune	-9.21736
▁doivent	-9.21807
▁complexe	-9.21982
ot	-9.22233
né	-9.22394
▁noir	-9.22531
▁vite	-9.22711
vo	-9.22769
▁impression	-9.22859
▁puisse	-9.23194
▁venir	-9.23236
▁petites	-9.23281
▁voix	-9.23395
8	-9.23468
▁Cha	-9.23554
▁nouveaux	-9.23555
▁Oh	-9.2365
▁solution	-9.23704
▁prochaine	-9.2382
▁construit	-9.23854
▁vision	-9.24169
▁droite	-9.24496
tique	-9.24706
▁ex	-9.24723
▁génération	-9.24846
4	-9.24939
▁traitement	-9.25094
▁suite	-9.25128
▁réseau	-9.2513
▁h	-9.25307
ens	-9.2541
▁pratique	-9.25537
E	-9.25557
che	-9.25559
▁carte	-9.25564
▁W	-9.2558
▁confiance	-9.25736
▁réalisé	-9.2585
▁source	-9.25915
▁sortir	-9.2601
▁mer	-9.2603
▁imaginer	-9.26074
▁économique	-9.26191
▁pouvais	-9.26463
▁étions	-9.26481
ils	-9.26489
9	-9.26602
da	-9.26609
▁prise	-9.26634
▁voudrais	-9.26657
▁te	-9.26767
tri	-9.26928
▁rouge	-9.27016
▁Car	-9.27121
▁18	-9.27261
▁particulière	-9.27384
our	-9.27621
▁centaines	-9.27746
▁terme	-9.27862
ateur	-9.27924
▁quantité	-9.2795
urant	-9.28233
▁assis	-9.28268
▁certain	-9.28281
▁soin	-9.28475
▁extrême	-9.28687
▁message	-9.28692
▁but	-9.28695
▁bout	-9.28731
▁mauvaise	-9.28879
▁visage	-9.28893
▁regard	-9.28937
mêmes	-9.28999
▁moitié	-9.2963
rie	-9.29762
I	-9.29851
▁chemin	-9.29927
▁Ro	-9.3084
ère	-9.30845
bas	-9.31118
▁conférence	-9.31195
▁semaine	-9.31196
go	-9.31238
ac	-9.3124
ue	-9.31384
tenir	-9.31464
▁fil	-9.31499
▁tel	-9.31518
▁possibilité	-9.31539
▁K	-9.31705
▁Al	-9.31908
▁entière	-9.31928
▁réel	-9.32022
▁pré	-9.32251
▁extraordinaire	-9.32314
▁Sa	-9.32341
▁approche	-9.32718
▁H	-9.32883
▁7	-9.33082
lu	-9.33291
▁partager	-9.33426
▁large	-9.33536
▁derrière	-9.33544
▁matin	-9.33556
▁différente	-9.3361
▁étude	-9.33616
▁décision	-9.33881
▁montré	-9.3408
▁OK	-9.34089
▁laisser	-9.34163
▁tendance	-9.34279
▁classe	-9.34281
1	-9.34511
▁résoudre	-9.347
id	-9.34716
▁espèce	-9.3485
▁risque	-9.34851
▁qualité	-9.34932
▁Re	-9.34946
▁ta	-9.34947
▁seconde	-9.34957
▁vol	-9.35103
▁réussi	-9.3517
▁patients	-9.35313
▁rêve	-9.35358
▁appareil	-9.35473
▁voie	-9.35729
▁termes	-9.35759
▁sociale	-9.35777
▁océan	-9.35854
▁matière	-9.35875
▁pourrions	-9.36027
▁ADN	-9.36279
▁activité	-9.36403
▁semaines	-9.36438
▁photos	-9.36498
▁aura	-9.36574
▁soi	-9.36733
▁mur	-9.36807
▁telle	-9.36862
▁espère	-9.3689
iste	-9.36928
▁résultat	-9.3694
▁scientifique	-9.36982
taux	-9.37201
▁plante	-9.37274
▁produire	-9.37384
▁propres	-9.37586
and	-9.37639
▁résultats	-9.37651
▁lire	-9.37749
▁théorie	-9.3791
▁téléphone	-9.38211
no	-9.38239
▁technique	-9.38322
ront	-9.38332
▁avenir	-9.38358
▁rendu	-9.38685
▁Aujourd	-9.38735
▁matériau	-9.39027
ler	-9.3916
▁innovation	-9.39166
par	-9.39401
▁nombreuse	-9.39403
▁mètres	-9.3966
▁travaille	-9.39769
▁60	-9.39821
▁Peut	-9.39851
▁disait	-9.39871
ier	-9.39993
▁ami	-9.40065
qu	-9.40122
rai	-9.40187
▁essayé	-9.40267
▁accès	-9.40407
G	-9.40574
▁relation	-9.40596
▁po	-9.40612
▁impact	-9.40618
bi	-9.40698
▁attend	-9.40823
ag	-9.40952
▁pensent	-9.40976
pe	-9.41134
▁scène	-9.41254
▁filles	-9.41369
▁outils	-9.41455
B	-9.41542
▁pourraient	-9.41596
▁médecin	-9.41624
▁soient	-9.41676
▁vitesse	-9.41907
▁rencontré	-9.41959
▁route	-9.41979
▁rire	-9.42012
vec	-9.42072
6	-9.42269
▁livres	-9.42542
▁site	-9.42973
▁page	-9.43023
▁absolu	-9.43402
▁espoir	-9.43402
▁auto	-9.43423
▁parti	-9.43553
▁rôle	-9.4362
▁rapide	-9.43704
▁totale	-9.4376
ga	-9.43841
▁viennent	-9.44014
ables	-9.44137
est	-9.44274
▁allait	-9.44276
▁expliquer	-9.44364
▁période	-9.44494
3	-9.44688
ris	-9.45028
▁pensons	-9.45155
▁domaine	-9.453
▁ressources	-9.45535
▁parmi	-9.45568
▁objets	-9.45618
▁Etats	-9.45668
▁fils	-9.45803
ha	-9.45864
▁patient	-9.45997
▁Europe	-9.46266
▁troisième	-9.46278
▁8	-9.46305
au	-9.46356
▁ailleur	-9.465
▁perdu	-9.46504
▁Mo	-9.46512
ai	-9.46642
pa	-9.46645
▁général	-9.46687
▁raconter	-9.4669
▁objet	-9.46693
▁étape	-9.46714
▁journée	-9.46965
▁vois	-9.47053
▁Se	-9.47102
▁Musi	-9.47106
▁demi	-9.47193
dessus	-9.47246
▁ordinateurs	-9.47285
▁devrions	-9.47389
▁truc	-9.474
cu	-9.47532
▁instant	-9.47647
▁calcul	-9.47668
▁12	-9.47803
▁fini	-9.47812
▁gars	-9.47862
▁commun	-9.47868
▁utilisant	-9.47874
▁Ca	-9.479
▁fort	-9.47911
▁développer	-9.4803
be	-9.48092
▁crise	-9.48095
▁dur	-9.48244
▁arrière	-9.48297
▁bo	-9.48506
▁vérité	-9.48526
▁test	-9.4864
▁langage	-9.48755
▁concept	-9.48952
gi	-9.49031
▁raisons	-9.49216
▁soleil	-9.49218
▁espèces	-9.4924
▁courant	-9.49357
ap	-9.49393
▁pourriez	-9.49514
▁université	-9.49719
ca	-9.49722
cevoir	-9.49808
▁réfléchir	-9.49853
▁V	-9.49859
▁seront	-9.4995
▁développé	-9.49997
▁partage	-9.50364
▁étoile	-9.50371
▁Qui	-9.50384
mé	-9.50432
▁voulait	-9.50915
O	-9.50923
▁interne	-9.5097
▁sentiment	-9.51221
▁conscience	-9.51307
▁travaillé	-9.51311
▁modèles	-9.51352
▁belle	-9.51415
▁fonction	-9.51616
▁coût	-9.51658
▁animal	-9.51778
▁intérêt	-9.51778
▁bureau	-9.51781
▁longue	-9.51933
▁langue	-9.52252
▁lien	-9.52287
▁déc	-9.523
▁met	-9.52333
▁br	-9.52655
▁zone	-9.52937
ç	-9.52999
▁vraie	-9.53023
▁pire	-9.53039
▁industrie	-9.53113
▁80	-9.53263
étant	-9.53418
▁atteindre	-9.53548
▁haute	-9.53623
▁hôpita	-9.53685
▁reçu	-9.53685
▁chercher	-9.53906
tin	-9.54163
▁démocratie	-9.54168
▁continuer	-9.54273
ès	-9.54304
▁construction	-9.5441
▁papier	-9.5441
▁pensée	-9.54417
▁Notre	-9.54478
▁preuve	-9.54652
▁doute	-9.54772
▁CA	-9.54797
▁premiers	-9.54904
▁naturelle	-9.54917
▁arrêter	-9.5517
▁25	-9.55175
ud	-9.55228
▁code	-9.55271
▁11	-9.55305
▁points	-9.55652
▁génétique	-9.55875
▁objectif	-9.56122
▁origine	-9.56126
▁vivant	-9.56191
▁études	-9.56206
ia	-9.5627
▁laboratoire	-9.56368
▁vivent	-9.56456
▁mauvais	-9.5661
▁médicaments	-9.56967
▁micro	-9.57078
▁anti	-9.57104
▁principe	-9.57113
▁crée	-9.57133
▁moyenne	-9.57198
▁peine	-9.57372
▁fou	-9.57374
▁succè	-9.57394
▁rester	-9.57404
▁village	-9.57613
▁série	-9.57802
▁utilisent	-9.57859
▁U	-9.5786
▁bras	-9.58075
▁Ici	-9.58225
▁atteint	-9.58366
▁Imaginez	-9.58372
▁essai	-9.58491
up	-9.58494
▁principale	-9.58575
R	-9.58689
iques	-9.58789
▁compassion	-9.58871
▁écran	-9.58874
▁table	-9.58937
▁vies	-9.58963
od	-9.59042
ow	-9.59056
ck	-9.59127
▁connu	-9.59136
▁acheter	-9.59187
▁celles	-9.59224
▁représente	-9.59257
▁écrire	-9.59271
▁améliorer	-9.59297
ba	-9.59311
end	-9.5935
avant	-9.59356
▁pouvaient	-9.5938
▁erreur	-9.5938
pendant	-9.59459
rons	-9.59544
▁mains	-9.59552
▁découverte	-9.59647
▁climatique	-9.59652
uvre	-9.59749
▁aliment	-9.59882
L	-9.599
▁savent	-9.59925
▁social	-9.60016
▁direction	-9.60055
▁blanc	-9.60142
▁sept	-9.6015
bu	-9.60156
ns	-9.60315
▁robot	-9.60358
om	-9.60501
▁venu	-9.60572
▁meilleurs	-9.60654
▁garçon	-9.60662
▁directe	-9.60756
▁appelée	-9.60818
lin	-9.60849
▁suivante	-9.60886
▁million	-9.60934
▁groupes	-9.61152
▁terrain	-9.6118
▁Mars	-9.61183
▁mari	-9.61407
▁chanson	-9.6144
▁solaire	-9.61501
▁Certain	-9.61603
▁bactérie	-9.61685
▁extérieur	-9.61699
▁cellule	-9.61742
▁champ	-9.61775
▁marcher	-9.61776
▁révolution	-9.62219
▁Google	-9.62222
▁transport	-9.62313
▁lors	-9.62337
▁continue	-9.62443
▁trucs	-9.6248
▁réce	-9.62668
lan	-9.62689
▁com	-9.62734
▁libre	-9.62749
▁avère	-9.62752
▁publique	-9.62764
▁virus	-9.63012
▁découvrir	-9.63033
▁efficace	-9.63095
▁dépend	-9.63456
▁venai	-9.63531
▁formes	-9.63609
▁Ch	-9.63613
▁violence	-9.63645
▁impossible	-9.63808
▁vis	-9.63987
▁pa	-9.64007
tif	-9.64013
▁glace	-9.64074
▁or	-9.64261
et	-9.64334
▁numérique	-9.64342
▁Lorsqu	-9.64418
▁faisai	-9.64758
▁entendre	-9.65094
▁zones	-9.65181
vant	-9.65401
▁Même	-9.65418
▁magnifique	-9.65418
▁regardé	-9.65568
▁Ka	-9.65572
▁Quelle	-9.65757
▁Plus	-9.65772
tion	-9.65821
▁aspect	-9.65836
▁politiques	-9.65951
▁étrange	-9.65957
▁pauvres	-9.65976
▁né	-9.66214
▁poser	-9.66216
▁pétrole	-9.66234
▁réaliser	-9.66243
▁mode	-9.66321
▁sort	-9.6639
▁vit	-9.66406
▁faible	-9.66494
▁sociaux	-9.66507
▁capital	-9.66507
▁création	-9.66555
▁In	-9.66653
▁architecture	-9.6684
gne	-9.67078
▁adore	-9.67105
00	-9.67133
va	-9.6714
▁Quel	-9.67313
ang	-9.67331
▁étudier	-9.67332
▁Regardez	-9.67341
▁ouvert	-9.67406
▁90	-9.67651
▁suivr	-9.67717
ru	-9.67982
N	-9.68018
▁moderne	-9.68162
▁chef	-9.68163
▁199	-9.68291
em	-9.68402
▁compagnie	-9.6844
▁Nord	-9.68457
▁conception	-9.68503
▁éléments	-9.68637
▁production	-9.68721
ien	-9.68794
à	-9.68804
ise	-9.68809
do	-9.6909
▁Ha	-9.69204
▁position	-9.69241
▁véritable	-9.69281
▁service	-9.69357
▁manger	-9.69369
▁liberté	-9.69563
▁manque	-9.69669
▁dessin	-9.6969
▁conduit	-9.69845
▁Toute	-9.69966
br	-9.70002
▁radio	-9.70024
▁lit	-9.70152
euse	-9.7041
▁montagne	-9.70413
rès	-9.70469
ah	-9.7053
én	-9.70644
▁adulte	-9.70697
▁humanité	-9.70701
▁bio	-9.70712
▁importan	-9.70787
▁essentielle	-9.70818
▁continu	-9.70833
▁croire	-9.70984
▁Sur	-9.71081
▁fondamentale	-9.71242
▁pensais	-9.7127
▁arme	-9.71292
▁verre	-9.71294
▁types	-9.71441
land	-9.71451
▁changements	-9.71604
▁jeux	-9.71639
▁soir	-9.7164
▁Beaucoup	-9.71845
▁vent	-9.71886
lle	-9.72303
▁vécu	-9.72424
ger	-9.72431
ateurs	-9.72492
pi	-9.72498
▁claire	-9.7256
▁couche	-9.7259
▁avion	-9.72595
▁naturel	-9.72639
▁port	-9.72643
▁puissant	-9.72689
▁transformer	-9.72725
▁liste	-9.72858
▁permettre	-9.72903
▁vieux	-9.72954
▁nucléaire	-9.73006
▁deviennent	-9.73171
▁loi	-9.7321
ction	-9.73288
▁cher	-9.73384
ey	-9.73498
▁St	-9.73554
ille	-9.73578
▁Pendant	-9.73592
▁tâche	-9.73592
▁dimension	-9.73597
▁quartier	-9.73612
▁télé	-9.73902
▁relations	-9.73918
▁Sud	-9.74026
faisant	-9.74091
der	-9.74436
▁anglais	-9.74477
tor	-9.74588
▁clair	-9.74636
▁vert	-9.74677
▁religion	-9.74717
▁ancien	-9.74733
▁ayant	-9.74785
▁opération	-9.74792
▁répondr	-9.74907
▁cor	-9.74959
des	-9.74969
▁organisation	-9.7505
iser	-9.75095
▁note	-9.75207
F	-9.75288
ge	-9.75312
▁fi	-9.75381
▁version	-9.75454
ière	-9.75584
▁élevé	-9.75607
▁morceau	-9.7561
▁choisi	-9.75624
▁puissance	-9.75672
min	-9.75776
▁tas	-9.75852
▁peau	-9.75869
▁caméra	-9.75969
▁John	-9.75973
▁oiseau	-9.7601
▁70	-9.76029
ect	-9.7603
▁médecine	-9.76048
▁similaire	-9.76271
▁utilisons	-9.76304
nel	-9.76322
▁chien	-9.76478
▁littéralement	-9.76574
▁finir	-9.76878
▁conditions	-9.76897
▁No	-9.77084
▁sang	-9.77145
▁méthode	-9.7718
▁réaction	-9.7718
▁électricité	-9.7718
▁16	-9.77199
▁prenez	-9.772
▁beau	-9.77395
▁apprentissage	-9.77485
▁communication	-9.77485
▁kilomètres	-9.77681
▁mise	-9.77722
▁contact	-9.78097
▁pose	-9.78101
▁Di	-9.78129
▁article	-9.78405
▁contexte	-9.78405
▁grandi	-9.78568
vis	-9.78579
K	-9.78694
▁médias	-9.78703
▁Me	-9.78747
èrent	-9.78762
▁chiffres	-9.78928
▁feu	-9.7896
ica	-9.78988
▁chimique	-9.79023
▁citoyen	-9.79023
▁utile	-9.79023
▁fer	-9.79041
▁San	-9.79043
nce	-9.79057
rez	-9.79237
▁carbone	-9.79334
▁sein	-9.79428
▁ferme	-9.79528
ab	-9.79547
▁revenu	-9.79689
▁retour	-9.79919
▁gènes	-9.79959
▁respect	-9.79967
▁entend	-9.80086
▁potentiel	-9.8011
▁suivant	-9.80424
▁envoyé	-9.80586
▁informatique	-9.8059
▁désir	-9.80648
▁Ok	-9.80687
▁ét	-9.80779
▁durable	-9.81019
▁arbres	-9.81104
alité	-9.81156
▁moyens	-9.81219
▁devait	-9.81227
▁intéresse	-9.81241
▁mé	-9.81421
oir	-9.81525
▁dehors	-9.81536
▁Tou	-9.81713
▁bons	-9.81767
▁parfaite	-9.81785
▁savais	-9.81854
▁masse	-9.81868
▁pauvreté	-9.81873
▁traiter	-9.81939
▁lu	-9.82124
▁émotion	-9.82164
ienne	-9.82234
▁Sh	-9.82251
▁intelligence	-9.82494
▁disons	-9.82635
▁lancé	-9.82682
▁souvenir	-9.82819
▁police	-9.82845
▁gaz	-9.82848
▁machines	-9.82855
▁bi	-9.82865
iens	-9.83073
lement	-9.83144
mais	-9.83226
▁génial	-9.83268
og	-9.83297
com	-9.83311
wa	-9.83514
▁vivons	-9.83537
▁merci	-9.8356
▁conflit	-9.83859
▁personnel	-9.84035
▁effective	-9.84112
▁ordre	-9.84113
▁ingénieur	-9.84156
▁es	-9.84186
▁neurones	-9.84346
▁cour	-9.84354
▁personnage	-9.84438
▁merveilleux	-9.8445
▁essaie	-9.84493
▁prison	-9.84501
▁coin	-9.8453
out	-9.8473
▁peuple	-9.84767
delà	-9.84809
▁huit	-9.85087
iers	-9.85104
▁outil	-9.85276
▁9	-9.8534
▁faite	-9.85386
▁habitude	-9.85425
▁per	-9.85527
▁devenue	-9.85742
▁bord	-9.85773
▁forêt	-9.85788
▁protéger	-9.85843
ide	-9.85884
▁web	-9.86089
▁majorit	-9.86089
tro	-9.86135
▁Là	-9.86177
ran	-9.86319
▁services	-9.86368
▁nord	-9.86419
▁accident	-9.86422
née	-9.86432
▁prennent	-9.86441
▁mourir	-9.86462
▁marque	-9.86487
▁suivi	-9.86565
▁sentir	-9.86712
▁permis	-9.86755
▁dites	-9.86765
▁sauver	-9.86789
▁répondu	-9.86805
vé	-9.86888
bou	-9.86932
▁Ra	-9.8696
▁clinique	-9.87093
▁bleu	-9.87161
▁Ri	-9.87172
▁choisir	-9.87256
revenir	-9.87284
▁frère	-9.87429
▁opportunité	-9.87524
▁tôt	-9.8755
▁mi	-9.87591
▁affaires	-9.87658
▁normale	-9.87671
▁boîte	-9.87766
▁abeille	-9.87767
▁personnelle	-9.87872
▁professeur	-9.87875
▁forte	-9.87935
ite	-9.88013
▁perd	-9.8808
▁bonheur	-9.88105
▁inventé	-9.88115
▁14	-9.88132
▁trans	-9.8823
▁clé	-9.88336
▁Bo	-9.88353
raient	-9.88372
▁Mi	-9.88384
ence	-9.88427
▁contraire	-9.88446
▁logiciel	-9.88446
▁visite	-9.88468
▁pri	-9.88546
▁réseaux	-9.88556
▁proche	-9.88602
fu	-9.88776
▁envoyer	-9.88787
▁Vi	-9.88864
▁sorti	-9.88879
ay	-9.889
▁secteur	-9.88911
▁camp	-9.89091
▁allais	-9.8913
▁campagne	-9.89132
▁progrès	-9.89133
▁biologie	-9.89134
▁km	-9.8915
▁court	-9.89313
▁secret	-9.89473
▁travaillent	-9.89487
▁Co	-9.89503
▁individus	-9.89576
istan	-9.89582
▁nécessaire	-9.89636
▁connaissance	-9.89648
▁essaye	-9.89673
qui	-9.89695
▁plastique	-9.89818
▁critique	-9.89825
tat	-9.89928
▁bébé	-9.90006
▁combat	-9.9008
▁sé	-9.90102
▁robots	-9.90179
fi	-9.90229
istes	-9.90301
▁Be	-9.90512
▁débat	-9.90519
▁dép	-9.90824
▁client	-9.90863
▁concerne	-9.9087
cation	-9.90935
▁conçu	-9.91036
▁Mes	-9.91083
▁entrer	-9.91106
val	-9.91187
▁répond	-9.9119
▁intéressante	-9.91222
▁exemples	-9.91268
yn	-9.91455
ord	-9.91579
éro	-9.91593
▁milliard	-9.91836
▁500	-9.9187
▁chaîne	-9.91912
ade	-9.91961
▁collègues	-9.91985
pla	-9.91994
▁payer	-9.92014
▁tra	-9.92184
▁gagner	-9.92216
isant	-9.92219
ren	-9.92237
▁fallait	-9.92266
▁Personne	-9.92266
ry	-9.92391
▁passion	-9.92506
▁température	-9.9262
▁jambe	-9.9262
▁remarquable	-9.92631
▁17	-9.92653
▁profonde	-9.92689
▁écoles	-9.92899
▁bizarre	-9.92976
▁désor	-9.93052
qué	-9.93054
mer	-9.93133
▁rencontre	-9.93248
▁su	-9.93313
▁moteur	-9.93316
▁Vidéo	-9.93333
▁frontière	-9.93336
non	-9.93345
▁pl	-9.93349
elles	-9.93517
car	-9.93535
▁voisin	-9.93625
▁connais	-9.93641
▁essay	-9.93677
▁intéressé	-9.93692
▁ca	-9.93727
▁sign	-9.9389
▁post	-9.93938
har	-9.93982
per	-9.94154
▁voler	-9.9417
▁pourrais	-9.94246
▁pousser	-9.94372
▁biologique	-9.94415
uf	-9.94724
▁Laissez	-9.94774
▁rappelle	-9.94793
▁portable	-9.94808
▁mondial	-9.94873
▁ton	-9.94921
▁fabriquer	-9.95
▁avantage	-9.95088
naire	-9.95105
▁jou	-9.95113
▁expert	-9.95132
▁perspective	-9.95138
▁24	-9.9517
▁Br	-9.95256
▁noire	-9.95283
▁communautés	-9.95417
ex	-9.95439
▁distance	-9.95504
▁usine	-9.95505
▁utilisée	-9.95515
fo	-9.95776
ly	-9.95811
▁aurais	-9.95819
▁grosse	-9.95844
▁lois	-9.9586
▁merveilleuse	-9.95872
▁poids	-9.96238
▁utilisation	-9.96262
▁expression	-9.96273
▁soutien	-9.96431
nu	-9.96516
▁can	-9.96567
▁Con	-9.96584
▁devoir	-9.96599
▁réduire	-9.96607
▁coûte	-9.9671
▁Ba	-9.96785
▁mange	-9.96819
▁propriété	-9.96976
▁vide	-9.96991
▁tableau	-9.97093
▁perte	-9.97106
▁imp	-9.97185
cal	-9.97212
▁neuf	-9.9733
▁discour	-9.97349
▁laissé	-9.97361
▁solutions	-9.97445
▁pi	-9.97541
isation	-9.976
▁pleine	-9.97604
▁ciel	-9.97641
▁fantastique	-9.97721
▁phénomène	-9.97721
▁tourner	-9.9776
▁cré	-9.97827
▁sud	-9.97899
▁lancer	-9.97917
▁correspond	-9.98096
▁menace	-9.98096
▁spécifique	-9.98108
▁leçon	-9.98117
iv	-9.98281
▁écouter	-9.98344
▁morts	-9.98405
▁souris	-9.98428
▁génome	-9.98472
▁responsabilité	-9.98472
▁contenu	-9.98555
▁essayons	-9.98585
▁poisson	-9.98629
▁pied	-9.9863
ach	-9.98731
▁créature	-9.98849
mener	-9.99007
▁To	-9.99053
▁mission	-9.99291
▁voulu	-9.99378
os	-9.99398
▁étudiant	-9.99419
▁nation	-9.99453
he	-9.99459
▁échange	-9.99608
gue	-9.9966
▁profond	-9.99985
▁matériel	-9.9999
▁influence	-9.99991
▁terrible	-9.99991
▁Son	-10.0005
teur	-10.0006
▁faux	-10.0011
▁trouvent	-10.0027
▁final	-10.0035
▁évidem	-10.0037
▁attaque	-10.0044
▁laissez	-10.0044
▁lesquel	-10.0044
▁actuellement	-10.0044
▁Ho	-10.0053
▁chambre	-10.0076
▁dix	-10.0077
▁trou	-10.0079
▁tirer	-10.009
H	-10.0102
▁arrêt	-10.011
ub	-10.0111
▁identité	-10.0114
▁électronique	-10.0117
▁tomber	-10.0123
bre	-10.0123
▁fonctionner	-10.0127
▁viens	-10.0132
▁institutions	-10.015
▁membres	-10.0154
▁circul	-10.0155
▁aimer	-10.0162
fa	-10.0163
▁198	-10.0184
▁occasion	-10.0192
▁beauté	-10.0197
▁malade	-10.0197
dire	-10.02
lli	-10.0212
▁possède	-10.0231
▁américaine	-10.0243
▁films	-10.0244
▁garder	-10.026
▁familles	-10.0261
▁paix	-10.027
▁amène	-10.027
▁éviter	-10.0271
elon	-10.0278
▁appelons	-10.0296
▁publié	-10.0307
▁bruit	-10.031
rais	-10.0311
▁cartes	-10.0315
ron	-10.0323
atrice	-10.0326
▁bois	-10.0333
▁Chris	-10.0338
atif	-10.0339
▁atmosphère	-10.0349
▁appeler	-10.0351
▁imaginez	-10.0358
▁secondes	-10.0364
mar	-10.0376
▁cardiaque	-10.0389
▁célèbre	-10.0389
▁mémoire	-10.0389
▁pouvions	-10.0389
▁carrière	-10.0389
▁pot	-10.0397
▁passage	-10.0401
▁chinois	-10.0429
▁immédiate	-10.0455
io	-10.0468
▁conseil	-10.0468
▁inclu	-10.0469
▁ép	-10.0483
ium	-10.05
▁devraient	-10.0509
ule	-10.0514
av	-10.0521
V	-10.0543
▁devais	-10.055
mm	-10.055
▁profit	-10.0561
▁attendre	-10.0563
▁toi	-10.0566
hu	-10.0578
▁cuisine	-10.0584
▁cou	-10.0587
▁naissance	-10.059
▁titre	-10.059
▁habit	-10.0591
▁alimentaire	-10.0593
ka	-10.0599
▁sommet	-10.0608
▁v	-10.0625
▁Afghan	-10.063
▁pression	-10.063
▁numéro	-10.063
▁ancienne	-10.0636
▁courbe	-10.0637
▁signal	-10.0641
▁coeur	-10.0646
▁perdre	-10.0657
▁lié	-10.0664
▁envers	-10.0669
tan	-10.0671
▁VIH	-10.0671
▁agir	-10.0673
▁conversation	-10.0677
▁content	-10.0681
▁observer	-10.0693
▁Do	-10.0697
▁Pro	-10.0705
▁feuille	-10.0713
▁etc	-10.0722
▁vieille	-10.0725
ana	-10.0726
▁graphique	-10.0735
▁connecté	-10.0743
▁chant	-10.0744
▁rythme	-10.0753
main	-10.0756
▁charge	-10.0758
▁Po	-10.0761
▁voul	-10.0763
▁faisaient	-10.0767
▁signe	-10.077
▁compétence	-10.0795
▁singe	-10.0797
▁risques	-10.08
▁parfait	-10.0804
▁connexion	-10.0811
▁21	-10.0816
▁mett	-10.0823
▁tuer	-10.0825
gon	-10.0827
▁statistique	-10.0836
▁séquence	-10.0836
▁caractéristique	-10.0836
▁ouvrir	-10.0838
▁parlons	-10.0839
▁remarqué	-10.0846
▁affaire	-10.085
irait	-10.0853
▁armée	-10.0856
▁avis	-10.0857
▁observ	-10.0862
▁arrivent	-10.0865
▁infrastructure	-10.0878
▁étudié	-10.0878
▁côte	-10.0878
▁sexe	-10.0883
▁formation	-10.0883
▁pont	-10.0888
▁présente	-10.0889
▁emploi	-10.0892
▁arbre	-10.0893
▁contrôler	-10.0898
▁arrivée	-10.09
▁revenus	-10.0905
▁avance	-10.0916
▁Gr	-10.0917
▁Lond	-10.0919
▁compréhension	-10.092
▁souviens	-10.092
▁rivière	-10.092
▁hors	-10.092
▁heureuse	-10.0924
▁actuelle	-10.0935
▁Li	-10.0947
ative	-10.0951
venant	-10.0952
issent	-10.0953
è	-10.0955
▁stratégie	-10.0962
▁définition	-10.0962
▁investissement	-10.0963
riez	-10.0965
▁19	-10.1
▁décid	-10.1003
▁façons	-10.1022
pp	-10.1032
▁conséquences	-10.1054
▁arrêté	-10.1062
▁facilement	-10.1064
▁réelle	-10.1064
▁joue	-10.1064
▁mou	-10.1065
▁américain	-10.1071
▁paysage	-10.1077
don	-10.1087
▁phrase	-10.1089
▁rat	-10.1094
issant	-10.1098
▁revien	-10.1099
▁hé	-10.1106
▁départ	-10.113
▁douleur	-10.1132
▁parlai	-10.1136
▁médicament	-10.1157
▁apprend	-10.1174
▁échec	-10.1174
▁tué	-10.1175
▁permettent	-10.1187
mon	-10.1211
▁plaisir	-10.1218
▁fenêtre	-10.1218
▁cadre	-10.1218
▁active	-10.1238
▁Du	-10.125
▁tombe	-10.126
▁formidable	-10.1261
▁transformation	-10.1264
▁13	-10.1265
▁Cet	-10.1267
▁précis	-10.127
ible	-10.129
▁artiste	-10.1294
▁300	-10.1295
▁tonne	-10.1301
▁consommation	-10.1307
▁assurer	-10.1335
epuis	-10.1346
▁technologique	-10.1348
▁Nos	-10.1384
▁banque	-10.1392
▁héro	-10.1395
▁ignor	-10.1417
▁pieds	-10.1418
▁amené	-10.1419
▁travaill	-10.1421
▁mesurer	-10.1433
▁puissent	-10.1434
▁profondément	-10.1436
▁île	-10.1436
▁prenons	-10.1441
mère	-10.1446
▁offre	-10.1451
▁chat	-10.1468
▁minute	-10.1477
▁désert	-10.1481
▁passent	-10.1483
▁apporter	-10.1484
▁locale	-10.1489
▁dirigeant	-10.1504
▁course	-10.1522
▁créativité	-10.1525
▁dizaine	-10.1525
▁interaction	-10.1525
▁sombre	-10.1525
▁Dr	-10.1542
▁poissons	-10.1551
▁prochain	-10.1552
▁Mar	-10.1557
▁logique	-10.1569
▁nuage	-10.1571
▁parlent	-10.1588
▁Na	-10.16
▁limites	-10.1601
▁mathématiques	-10.1604
▁seraient	-10.1607
▁journal	-10.1611
▁historique	-10.1614
▁fasse	-10.1614
▁zéro	-10.1614
▁explorer	-10.1624
▁trait	-10.1649
▁augmenter	-10.1657
▁Ga	-10.1657
▁Pensez	-10.1659
▁classique	-10.1659
▁sent	-10.1659
voient	-10.166
▁utilisateur	-10.1664
▁électrique	-10.1665
▁imagination	-10.1665
chi	-10.1669
▁présenter	-10.1671
▁viv	-10.1673
▁acte	-10.168
▁sub	-10.1689
nique	-10.1691
▁comprend	-10.1694
▁réponses	-10.1703
▁bande	-10.1704
▁laisse	-10.1707
▁garde	-10.1709
▁double	-10.1712
ip	-10.172
eusement	-10.1722
▁direct	-10.1727
▁posé	-10.1739
▁suiv	-10.174
▁honnête	-10.175
▁compliqué	-10.1751
▁entrepreneur	-10.1752
▁géant	-10.1753
▁différences	-10.176
▁rare	-10.1763
▁chercheurs	-10.1764
men	-10.1768
▁lieux	-10.1776
▁impliqué	-10.178
▁océans	-10.1787
▁suffi	-10.1793
▁président	-10.1795
▁architecte	-10.1795
▁réduit	-10.1795
▁cercle	-10.1795
▁drogue	-10.1796
▁régime	-10.1796
▁légère	-10.1796
vers	-10.1813
▁présentation	-10.1818
nés	-10.1822
mat	-10.183
▁auraient	-10.1831
▁envie	-10.1838
▁intention	-10.1841
▁mélange	-10.1841
▁augmentation	-10.1843
▁sauf	-10.185
▁ressembler	-10.187
▁ère	-10.1872
antes	-10.1873
ber	-10.1876
▁fur	-10.1878
j	-10.1889
▁venue	-10.1889
▁bulle	-10.189
▁limite	-10.1901
▁donnent	-10.1905
▁pé	-10.1915
cité	-10.1924
▁Californie	-10.1934
▁Japon	-10.1934
▁Hu	-10.1944
▁Bu	-10.1948
▁forces	-10.1951
▁passant	-10.1952
▁cru	-10.1956
▁analyse	-10.1975
▁rayon	-10.198
▁vaut	-10.2003
▁vend	-10.201
▁Américains	-10.2012
▁mentale	-10.2018
▁dirige	-10.2023
avait	-10.2026
▁justice	-10.2027
▁pêche	-10.2027
▁notion	-10.2027
▁exposition	-10.2027
▁Da	-10.2031
▁sérieux	-10.2037
▁élément	-10.2039
▁riche	-10.204
ifi	-10.2047
▁bar	-10.2051
abilité	-10.2061
▁2000	-10.2064
▁aveugle	-10.2074
▁agent	-10.2077
▁molécules	-10.2092
ug	-10.2099
▁inf	-10.2101
▁ha	-10.2112
▁amusant	-10.2121
▁protection	-10.2121
▁échantillon	-10.2121
▁pensait	-10.2121
▁étranger	-10.2122
▁imagin	-10.2134
▁chasse	-10.2146
▁essentiel	-10.2148
▁for	-10.2158
▁climat	-10.2165
▁aviez	-10.2169
étique	-10.2171
▁passait	-10.2178
▁puissante	-10.2181
core	-10.2193
▁organismes	-10.2199
▁somme	-10.221
▁exposé	-10.2216
▁café	-10.2216
▁rencontrer	-10.2217
▁mène	-10.2224
▁inspiré	-10.2225
W	-10.2232
▁dedans	-10.2235
▁unité	-10.224
▁Man	-10.2243
▁verr	-10.2248
▁internationale	-10.2258
aine	-10.2258
▁app	-10.2259
▁agriculture	-10.2264
▁conscient	-10.2266
▁vague	-10.2272
▁accept	-10.2283
▁commençons	-10.2283
▁danger	-10.2296
bel	-10.2298
▁viol	-10.2309
▁forcé	-10.2312
▁nommé	-10.2316
▁mariage	-10.2317
▁ajouter	-10.2322
▁artistes	-10.2329
▁pe	-10.2329
▁malgr	-10.2333
ole	-10.2335
▁déplace	-10.2336
▁détails	-10.2337
▁tissu	-10.2339
fer	-10.2348
▁cerveaux	-10.2359
▁jardin	-10.236
▁hasard	-10.236
▁obtenu	-10.2365
▁saut	-10.2374
▁évident	-10.2378
ty	-10.2386
▁cri	-10.2393
▁disaient	-10.2394
▁servir	-10.2409
▁complexité	-10.2409
▁cycle	-10.2409
▁schéma	-10.2409
▁connaissez	-10.2409
▁Su	-10.2409
▁souche	-10.241
▁197	-10.241
▁regardons	-10.2437
▁vaccin	-10.2437
all	-10.2456
euses	-10.2467
▁local	-10.2475
▁mille	-10.2478
▁He	-10.2485
▁riches	-10.2488
▁labo	-10.2496
▁stimul	-10.2507
▁diversité	-10.2508
upar	-10.2512
▁produisent	-10.2518
▁panneau	-10.252
ata	-10.2522
▁porter	-10.2522
▁touche	-10.2526
nelle	-10.2528
▁continent	-10.2556
▁particules	-10.2556
▁civilisation	-10.2556
▁fonctionnent	-10.2556
pro	-10.2558
ali	-10.2578
▁individu	-10.2583
▁carré	-10.2596
omb	-10.2596
▁populaire	-10.2605
▁texte	-10.2605
▁déchet	-10.2606
▁morceaux	-10.2615
▁gagné	-10.2623
▁lignes	-10.2626
▁entrée	-10.2627
▁évolué	-10.2629
olo	-10.2632
▁rempli	-10.2636
▁Mal	-10.2641
▁déplacer	-10.2644
ture	-10.2645
ven	-10.2646
▁froid	-10.2654
▁mécanisme	-10.2655
▁musée	-10.2655
▁grave	-10.2656
ja	-10.2663
▁communiquer	-10.2665
▁gérer	-10.2666
▁spécial	-10.2671
▁fascinant	-10.2672
ak	-10.2677
▁Fa	-10.2689
▁bouger	-10.269
▁mené	-10.2696
▁400	-10.2698
▁David	-10.2705
▁immense	-10.2705
▁ressemblent	-10.2709
▁richesse	-10.271
ste	-10.2712
ification	-10.2716
ble	-10.2721
ert	-10.2739
▁colère	-10.2755
▁conduir	-10.2755
▁sérieuse	-10.2758
vent	-10.2763
▁CO	-10.2765
▁concentrer	-10.2769
▁inconnu	-10.2773
▁arrête	-10.2786
▁Deux	-10.2809
▁demandai	-10.2812
dy	-10.2815
▁former	-10.2843
▁rep	-10.2844
▁bateau	-10.2851
▁Facebook	-10.2857
▁militaire	-10.2857
▁ordinaire	-10.2857
gré	-10.2873
▁lis	-10.2879
â	-10.288
▁vidéos	-10.2901
▁stade	-10.2908
▁tiers	-10.2911
▁motif	-10.2912
▁tourne	-10.2918
▁normal	-10.292
▁dés	-10.2931
écrire	-10.2935
▁monter	-10.2942
▁décennies	-10.2944
▁Or	-10.2947
▁Leur	-10.2953
▁aidé	-10.2953
▁surprenant	-10.2959
▁tumeur	-10.2959
▁triste	-10.2961
▁bloc	-10.2963
▁insectes	-10.2963
▁travaillons	-10.2972
▁morale	-10.2998
▁actuel	-10.3
ov	-10.3002
ley	-10.3003
▁document	-10.3008
▁épidémie	-10.3011
▁équivalent	-10.3011
▁soldat	-10.3011
▁partenaire	-10.3011
▁existence	-10.3013
▁Asie	-10.3016
▁connaître	-10.3017
ster	-10.3023
▁toucher	-10.3032
▁cache	-10.3034
ifié	-10.3034
▁niveaux	-10.304
▁dos	-10.3041
▁sac	-10.3044
lait	-10.3049
î	-10.305
▁invisible	-10.3062
▁connaissons	-10.3063
▁fournir	-10.3063
▁augmente	-10.3068
▁souhait	-10.3079
▁transformé	-10.3087
▁ressent	-10.3098
▁construis	-10.3098
▁difficulté	-10.3114
▁fallu	-10.3114
▁horrible	-10.3114
▁suffisam	-10.3115
port	-10.3116
▁designer	-10.3117
▁terminé	-10.3121
▁organisations	-10.3122
▁tri	-10.3125
▁surprise	-10.3132
ttes	-10.3149
ell	-10.3152
▁Wi	-10.316
▁Ta	-10.316
han	-10.3167
▁concernant	-10.3169
▁reconnaître	-10.3172
▁moindre	-10.3172
▁écriv	-10.3183
▁dépense	-10.3185
▁loca	-10.3187
ari	-10.319
▁ouverte	-10.3203
▁adolescent	-10.3219
▁discussion	-10.3219
▁hypothèse	-10.3219
▁indique	-10.3219
▁enfance	-10.322
▁recul	-10.322
▁bouge	-10.3236
▁composé	-10.3238
.000	-10.3238
amp	-10.3239
vir	-10.3245
vier	-10.3252
▁sable	-10.3264
▁descend	-10.3264
▁chaud	-10.3269
▁dessous	-10.3271
▁oxygène	-10.3272
▁compt	-10.3277
▁batt	-10.3277
▁pain	-10.328
▁rappeler	-10.328
▁responsable	-10.3282
▁dynamique	-10.3291
▁balle	-10.3298
lisé	-10.3305
▁survivr	-10.3314
ib	-10.3314
▁lutte	-10.3316
▁usage	-10.3326
▁ch	-10.3327
▁presse	-10.3327
ani	-10.3339
ieux	-10.334
▁traditionnelle	-10.3343
▁quasi	-10.3349
cha	-10.3367
pre	-10.3367
▁sortie	-10.3369
▁auquel	-10.3372
▁privée	-10.3374
▁style	-10.3379
cher	-10.3383
▁intelligente	-10.3396
▁toit	-10.3401
▁basé	-10.3416
▁espér	-10.3421
▁traité	-10.3421
▁équilibre	-10.3433
▁invité	-10.3433
▁lycée	-10.3433
▁docteur	-10.3433
▁mortalité	-10.3435
▁nu	-10.3436
▁avancer	-10.3438
▁identifier	-10.344
▁réunion	-10.344
▁chiffre	-10.3449
▁nationale	-10.3454
▁différemment	-10.3487
▁télévision	-10.3487
▁pierre	-10.3487
▁oeuvre	-10.3487
▁Université	-10.3488
▁brut	-10.349
▁associé	-10.35
▁Ah	-10.3513
▁croyez	-10.3541
▁préoccup	-10.3541
▁devriez	-10.3541
▁allaient	-10.3541
▁bouche	-10.3541
▁microbe	-10.3543
▁ap	-10.3543
▁vendre	-10.3544
▁seuls	-10.3545
nom	-10.3547
▁siège	-10.3552
▁performance	-10.3556
uel	-10.3562
aille	-10.3582
▁tests	-10.3583
▁récompense	-10.3596
▁perception	-10.3596
▁référence	-10.3596
▁écart	-10.3596
▁150	-10.3602
▁privé	-10.3602
père	-10.3605
▁élèves	-10.3618
▁décider	-10.3618
rge	-10.362
▁ouvre	-10.3623
▁An	-10.3639
▁changent	-10.3639
nie	-10.3646
▁retourner	-10.3649
▁tradition	-10.365
▁extrait	-10.3658
erie	-10.3658
pin	-10.3664
▁acheté	-10.3669
▁pluie	-10.3675
▁sport	-10.3677
▁touché	-10.3683
▁excitant	-10.3683
▁lance	-10.3686
▁réchauffe	-10.3706
▁connaissent	-10.3707
▁obtenez	-10.3708
▁étiez	-10.3709
▁suppose	-10.3709
▁humaines	-10.3712
trait	-10.3719
▁vaste	-10.372
▁employés	-10.3726
ram	-10.375
avantage	-10.3751
▁magasin	-10.3762
▁stock	-10.3762
▁décrit	-10.3763
▁senti	-10.3778
▁second	-10.3787
▁permett	-10.3788
Uni	-10.3793
van	-10.3797
▁auteur	-10.3803
▁extra	-10.3812
▁Brésil	-10.3817
▁disparu	-10.3817
▁flux	-10.3818
▁commerce	-10.3819
ath	-10.3823
▁fier	-10.3825
▁Bill	-10.3831
▁centrale	-10.3837
▁trace	-10.3838
▁multi	-10.3867
▁sciences	-10.387
▁chimpanzé	-10.3874
▁dispositif	-10.3874
▁National	-10.3874
▁allée	-10.3874
▁journaliste	-10.3882
▁censé	-10.3885
▁ab	-10.389
▁k	-10.3902
▁conti	-10.3916
mba	-10.3918
▁réfléchi	-10.3926
▁planètes	-10.393
▁rapproch	-10.393
▁meurent	-10.3931
▁parc	-10.394
▁pan	-10.3948
▁formé	-10.3966
logue	-10.397
▁Irak	-10.3987
▁circuit	-10.3987
▁dispos	-10.3987
▁rentrer	-10.3992
▁option	-10.3993
nant	-10.3993
▁emp	-10.3995
▁mettez	-10.3996
▁dirais	-10.4003
▁survie	-10.4011
▁proches	-10.4021
▁quant	-10.4027
ain	-10.403
rage	-10.403
▁combinaison	-10.4044
▁vélo	-10.4044
▁visible	-10.4045
▁Iran	-10.4047
▁tort	-10.4059
ke	-10.4062
▁fabriqué	-10.4066
▁émissions	-10.4068
▁avancée	-10.4072
▁aiment	-10.4074
▁fera	-10.4088
▁Allema	-10.4102
▁souci	-10.4102
▁sites	-10.4107
▁raconte	-10.4109
ong	-10.4139
▁radicale	-10.4152
▁moments	-10.4157
▁considère	-10.4159
▁occuper	-10.4159
▁infini	-10.4161
▁chaleur	-10.4162
▁consommateur	-10.4166
▁considéré	-10.4172
▁domaines	-10.4179
▁consiste	-10.4204
▁Royaume	-10.4217
▁financier	-10.4217
▁plaît	-10.4217
▁créatif	-10.4218
▁liée	-10.422
▁restaurant	-10.4224
▁civile	-10.4225
▁domin	-10.4234
▁nourrir	-10.4237
▁arriv	-10.4239
▁cible	-10.4239
▁travaillai	-10.4247
▁coll	-10.4252
▁retrouver	-10.4259
net	-10.4267
▁muscle	-10.4276
▁essence	-10.4276
▁Aucun	-10.4276
▁gamin	-10.4276
▁stress	-10.4278
▁offrir	-10.4281
▁considérer	-10.4287
▁tiré	-10.4288
▁brûl	-10.4295
▁battre	-10.431
▁retrouve	-10.4324
▁condition	-10.4331
▁lettres	-10.4332
▁ancêtre	-10.4335
▁blanche	-10.4336
▁crime	-10.4338
▁semblait	-10.434
▁écriture	-10.434
▁maisons	-10.4356
▁Time	-10.4359
▁explique	-10.4366
▁téléphones	-10.4367
▁placé	-10.4394
▁jaune	-10.4394
▁Washin	-10.4395
▁photographie	-10.4395
▁devrais	-10.4395
▁sensible	-10.4397
▁apprenne	-10.44
▁joué	-10.4406
▁particip	-10.4411
▁auront	-10.4412
▁Ouais	-10.4415
▁visuel	-10.442
lever	-10.4422
lla	-10.4428
berg	-10.4431
ouch	-10.4442
▁pauvre	-10.4448
▁organisé	-10.4448
▁doigt	-10.445
▁foi	-10.4453
▁répét	-10.4453
▁boulot	-10.4453
▁favori	-10.4453
▁idéal	-10.4454
▁mérite	-10.4454
▁batterie	-10.4454
▁mouche	-10.4455
▁habitants	-10.4463
▁aimai	-10.4468
▁dépression	-10.4468
andis	-10.4468
mettent	-10.447
▁déterminer	-10.4471
ome	-10.4478
▁souhaite	-10.4479
disant	-10.4487
▁demandez	-10.449
▁ferait	-10.4497
▁défini	-10.4498
▁ver	-10.4499
▁empêcher	-10.4504
▁math	-10.4504
▁durée	-10.451
▁minuscule	-10.4513
▁angle	-10.4514
▁attente	-10.4514
▁dangereux	-10.4515
▁thé	-10.4516
▁poche	-10.4516
▁aurons	-10.452
▁membre	-10.452
▁organes	-10.4522
▁artificielle	-10.4526
▁Pa	-10.4527
▁publicité	-10.4529
▁malheureuse	-10.454
▁appréci	-10.4545
▁emplois	-10.4553
▁représentent	-10.4557
▁existent	-10.4569
▁génér	-10.4572
▁positif	-10.4574
▁satellite	-10.4574
▁septembre	-10.4574
▁Homme	-10.4574
▁enseignement	-10.4595
ologie	-10.4617
▁acteur	-10.4619
▁national	-10.4622
▁progress	-10.4626
▁forêts	-10.4628
▁directeur	-10.4629
▁musulman	-10.4634
▁supplémentaire	-10.4634
▁trouble	-10.4635
▁poème	-10.4637
▁lettre	-10.4644
▁gagne	-10.4645
▁quitter	-10.4647
▁compar	-10.4653
▁professionnel	-10.4668
▁américains	-10.4668
▁The	-10.4681
▁principal	-10.4684
▁augmenté	-10.4684
▁Twitter	-10.4695
▁charbon	-10.4695
▁cool	-10.4701
▁détermin	-10.4705
▁confi	-10.4708
▁marin	-10.471
▁pareil	-10.4713
▁participer	-10.4713
▁monte	-10.4715
▁Vo	-10.4726
▁juge	-10.4731
▁tester	-10.4743
▁ru	-10.4748
▁Prenez	-10.4757
▁écosystème	-10.4757
▁volonté	-10.4757
▁implant	-10.4757
▁goût	-10.4757
▁douce	-10.4757
▁victimes	-10.476
▁effort	-10.4764
▁concentr	-10.477
sol	-10.4786
▁réalis	-10.4791
▁étend	-10.4796
dio	-10.4811
▁explication	-10.4818
▁immeuble	-10.4818
▁symbole	-10.4818
▁brevet	-10.4818
▁Jo	-10.4818
▁majeure	-10.482
▁tombé	-10.4821
▁Lo	-10.4822
▁ri	-10.4822
▁Pe	-10.4823
▁magie	-10.4826
▁bus	-10.4832
rité	-10.4847
▁ba	-10.4852
▁précisé	-10.4859
ki	-10.4872
▁Mu	-10.4872
▁efforts	-10.4873
▁fourmis	-10.4875
▁pouviez	-10.488
▁bouteille	-10.488
▁faim	-10.488
▁peinture	-10.4881
▁galaxies	-10.4883
▁reven	-10.489
ssement	-10.4894
▁sacré	-10.4894
▁invention	-10.4896
agne	-10.4904
▁globale	-10.4936
▁semblent	-10.4938
▁Grande	-10.4941
▁résolu	-10.4942
▁caractère	-10.4943
▁interview	-10.4943
▁stupide	-10.4943
▁baleine	-10.4943
▁mâle	-10.4943
▁drôle	-10.4943
▁collective	-10.4944
uloir	-10.4944
▁debout	-10.4944
rent	-10.4946
▁joueur	-10.4956
▁pay	-10.496
▁écoute	-10.4969
▁ressentir	-10.4975
▁médicale	-10.4978
▁affecte	-10.4988
▁Quelqu	-10.4992
▁blog	-10.4997
▁intelligent	-10.5004
▁corruption	-10.5006
▁sauvage	-10.5006
▁foyer	-10.5007
▁Pr	-10.5008
▁verte	-10.5013
Votre	-10.5023
▁corde	-10.5031
▁commande	-10.504
nal	-10.5043
▁Ben	-10.5044
▁créée	-10.5045
▁équipement	-10.5054
tisme	-10.5055
▁trouvez	-10.5061
▁encourage	-10.5065
▁étudie	-10.5069
▁énormément	-10.5069
▁actif	-10.5069
▁vin	-10.5077
▁puce	-10.508
▁réfléchiss	-10.5082
▁préféré	-10.5094
ayez	-10.5097
▁disais	-10.5108
▁Chi	-10.5122
▁alternative	-10.5133
▁constamment	-10.5133
▁ballon	-10.5135
▁relative	-10.5136
▁générale	-10.5141
▁rou	-10.5149
▁organisme	-10.5157
▁auxquel	-10.5166
▁visuelle	-10.5169
▁pousse	-10.5174
▁vote	-10.5177
lam	-10.5178
▁opportunités	-10.5179
voir	-10.518
▁enseignants	-10.5183
cteur	-10.5196
▁financière	-10.5197
▁budget	-10.5197
▁convaincre	-10.5197
▁odeur	-10.5198
▁branche	-10.5198
rice	-10.5199
▁Dé	-10.5199
▁tient	-10.5199
▁tir	-10.52
line	-10.5219
ash	-10.5225
kin	-10.5246
den	-10.5248
▁éc	-10.5249
▁présenté	-10.5256
ham	-10.5258
▁liquide	-10.5261
▁croient	-10.5261
▁conclusion	-10.5262
▁station	-10.5263
▁quitté	-10.5263
▁obtient	-10.5264
▁Paul	-10.5267
▁copie	-10.5268
▁enregistré	-10.5271
▁Certaine	-10.5285
ième	-10.5289
éré	-10.5289
▁connaissances	-10.5293
▁observé	-10.5293
▁entrain	-10.5295
▁Ki	-10.5299
issons	-10.5302
▁nouvel	-10.532
▁mécanique	-10.5326
▁George	-10.5326
▁Richard	-10.5326
▁dinosaure	-10.5326
▁séparé	-10.5326
▁créent	-10.5326
▁ayons	-10.5328
IB	-10.5338
▁Peu	-10.5341
▁violent	-10.5348
▁Quelques	-10.5349
▁parcour	-10.5355
▁travailleur	-10.5357
▁cherche	-10.5363
▁retrouvé	-10.5376
art	-10.538
▁queue	-10.5389
▁Los	-10.539
▁compétition	-10.5392
▁gestion	-10.5392
▁Celui	-10.5392
▁Kenya	-10.5392
▁colonie	-10.5393
omprennent	-10.5394
▁détail	-10.5405
▁défense	-10.5409
▁lune	-10.5421
ati	-10.5421
▁application	-10.5424
▁disponible	-10.5424
▁fondation	-10.5429
▁intelligents	-10.5439
▁manqu	-10.5439
▁Ex	-10.544
▁sélection	-10.5442
▁bleue	-10.5444
▁For	-10.5446
▁établi	-10.545
▁terroriste	-10.5457
▁volontaire	-10.5457
▁viande	-10.5457
▁âme	-10.5458
▁joie	-10.5458
▁chute	-10.5458
▁secondaire	-10.546
▁toilette	-10.5465
▁degrés	-10.5467
ois	-10.5468
▁réussite	-10.5482
▁aurions	-10.5482
▁vêtement	-10.5486
▁prototype	-10.5487
▁comporte	-10.5489
▁intégré	-10.5489
▁mobile	-10.5492
▁tribu	-10.5494
▁mor	-10.5507
▁plat	-10.5514
▁aperçu	-10.5524
▁catégorie	-10.5524
▁Jusqu	-10.5526
▁doigts	-10.5528
lles	-10.553
eff	-10.5532
▁réussir	-10.5534
gramme	-10.5548
▁bébés	-10.5554
▁jouet	-10.5559
ssez	-10.5562
uve	-10.5565
▁apporté	-10.5574
▁sûrement	-10.5581
▁préserv	-10.559
▁Malheur	-10.559
▁convaincu	-10.559
▁croyance	-10.559
▁grippe	-10.559
▁bombe	-10.5591
▁camion	-10.5591
▁pointe	-10.5594
dame	-10.5601
ôt	-10.561
▁serre	-10.5616
▁accepter	-10.5616
activ	-10.5622
▁molécule	-10.5632
▁trous	-10.5633
▁pli	-10.5641
▁négoci	-10.5657
▁probabilité	-10.5657
▁énergétique	-10.5657
▁Juste	-10.5658
▁silence	-10.5658
▁entoure	-10.5658
▁aimons	-10.566
▁installation	-10.5661
▁représentation	-10.5662
▁souteni	-10.5664
▁trouvons	-10.5664
▁ferai	-10.567
▁remarquer	-10.5682
▁45	-10.5683
▁retourné	-10.5704
ya	-10.5705
▁âgée	-10.5711
▁basée	-10.5711
▁africain	-10.5712
▁profondeur	-10.5713
▁sensation	-10.5722
▁Chacun	-10.5725
▁volume	-10.5725
▁plonge	-10.5725
▁observation	-10.5735
▁industrielle	-10.5737
▁appellent	-10.5737
▁démo	-10.5738
▁médical	-10.5755
eil	-10.576
▁confronté	-10.5761
▁déf	-10.5761
▁sert	-10.5769
▁généralement	-10.577
▁Hé	-10.5772
▁protéines	-10.5778
▁Va	-10.5786
▁traverser	-10.5787
▁recev	-10.579
▁interface	-10.5793
▁opinion	-10.5793
▁ennemi	-10.5793
▁propag	-10.5793
▁Deuxième	-10.5793
▁rang	-10.5797
▁fixe	-10.5798
▁courage	-10.5798
▁portée	-10.5805
▁eaux	-10.5806
ène	-10.5809
▁oublié	-10.581
▁disponibles	-10.5827
▁parole	-10.5829
▁Art	-10.5831
▁reçoi	-10.5833
▁moral	-10.5842
gar	-10.5851
ouille	-10.5857
▁argument	-10.5862
▁métaphore	-10.5862
▁phase	-10.5862
▁posséd	-10.5862
▁parlant	-10.5864
▁frais	-10.5865
▁produis	-10.5867
▁oh	-10.5869
▁cap	-10.5872
▁lentement	-10.5876
▁date	-10.5881
▁Mont	-10.5895
10	-10.5901
cro	-10.5905
▁nulle	-10.5906
▁véhicules	-10.5911
▁pilote	-10.5912
dge	-10.5921
▁amie	-10.5925
▁transforme	-10.5927
▁sympa	-10.593
▁obstacle	-10.5931
▁Première	-10.5931
▁connue	-10.5931
▁fermé	-10.5933
▁bu	-10.5934
▁collaboration	-10.5935
ange	-10.5962
▁spéciale	-10.597
▁Sans	-10.5971
ndre	-10.5981
▁Pi	-10.5982
▁passée	-10.5985
▁instrument	-10.5986
▁artistique	-10.6
▁pensaient	-10.6
▁souffrance	-10.6
▁réparer	-10.6
▁devaient	-10.6001
▁fibre	-10.6001
▁vendu	-10.6003
her	-10.6003
▁rejet	-10.6009
▁implique	-10.6015
▁ramene	-10.6038
▁El	-10.6044
▁choisiss	-10.6046
▁pourra	-10.6049
marin	-10.6052
viez	-10.6058
gie	-10.6068
▁étonnant	-10.6069
▁Einstein	-10.607
▁fabrication	-10.607
▁télescope	-10.607
▁crucial	-10.607
▁thème	-10.607
▁salaire	-10.607
▁boule	-10.6074
▁déco	-10.6084
tiennent	-10.609
▁Go	-10.6101
▁intéressantes	-10.6112
▁achet	-10.6114
▁enseigner	-10.6128
▁investir	-10.6133
▁payé	-10.6133
▁effondr	-10.6138
unes	-10.6138
▁SIDA	-10.614
▁conséquent	-10.614
▁diagnostic	-10.614
▁efficacité	-10.614
▁exercice	-10.614
▁magique	-10.614
▁pile	-10.6141
▁devions	-10.6143
▁lourd	-10.6144
wi	-10.6156
▁exprimer	-10.6162
▁ingénierie	-10.6166
▁75	-10.6168
quant	-10.6171
▁Ré	-10.618
▁récit	-10.6183
▁auriez	-10.6185
▁sain	-10.6204
▁bibliothèque	-10.6211
▁fréquence	-10.6211
▁Isra	-10.6212
▁gravité	-10.6213
▁solide	-10.6214
▁mener	-10.6221
▁paire	-10.6223
▁compos	-10.625
ô	-10.6254
▁professeurs	-10.626
▁Ni	-10.6269
▁tourné	-10.6275
▁galaxie	-10.6279
▁Angeles	-10.6283
▁fête	-10.6283
▁magazine	-10.6283
▁sucre	-10.6283
▁citation	-10.6283
▁composants	-10.6283
▁résolution	-10.6283
▁correctement	-10.6285
▁global	-10.6291
▁collection	-10.6291
▁mettons	-10.6301
▁engagement	-10.6304
▁dure	-10.6308
▁coté	-10.6308
▁35	-10.6314
▁facteurs	-10.6315
▁Sp	-10.6315
bar	-10.6323
▁Ver	-10.6329
▁Jam	-10.6348
▁Angleterre	-10.6355
▁accessible	-10.6355
▁complet	-10.6355
▁dauphin	-10.6355
▁soyez	-10.6355
▁Canada	-10.6355
▁Occident	-10.6355
▁cheveux	-10.6355
▁scolaire	-10.6355
▁présence	-10.6355
▁atome	-10.6355
▁autorité	-10.6356
▁couverture	-10.6356
▁venez	-10.6357
▁équation	-10.6362
▁Gu	-10.6368
▁lever	-10.6375
▁Moi	-10.6419
▁fossile	-10.6427
▁intervention	-10.6427
▁aventure	-10.6427
▁standard	-10.6427
▁fausse	-10.643
▁refus	-10.6431
▁détecter	-10.6439
▁média	-10.6442
▁morte	-10.6443
▁accepté	-10.6443
▁gène	-10.6444
▁créateur	-10.6447
▁effrayant	-10.6455
arch	-10.6466
▁habitat	-10.6467
▁pal	-10.6468
▁surpris	-10.6476
gg	-10.6477
▁efficaces	-10.6477
▁regardent	-10.6479
▁gratuite	-10.6482
▁baisse	-10.6482
▁connaît	-10.6492
▁attaquer	-10.6495
▁Public	-10.65
▁bénéfice	-10.65
▁identique	-10.65
▁mammifère	-10.65
▁réflexion	-10.65
▁journaux	-10.65
▁obscur	-10.65
▁norme	-10.65
▁kilo	-10.65
▁sagesse	-10.6501
Orient	-10.6502
▁boite	-10.6503
oul	-10.6507
pie	-10.6512
▁réserve	-10.6513
▁câble	-10.6514
▁central	-10.6528
▁géo	-10.6531
▁connecter	-10.6531
▁sach	-10.6534
▁excité	-10.6537
▁ours	-10.6541
▁Ceux	-10.6547
▁tourn	-10.6547
▁abri	-10.655
▁institution	-10.6552
ifier	-10.6557
▁responsables	-10.656
▁talent	-10.6572
▁écologique	-10.6574
▁sanguin	-10.6574
▁repas	-10.6575
mit	-10.6579
▁chirurgien	-10.6584
▁bal	-10.6589
gen	-10.6592
▁cheval	-10.6594
▁terminer	-10.6595
▁complète	-10.6612
▁courte	-10.6622
▁fri	-10.6632
▁tente	-10.6639
PS	-10.6639
▁démocratique	-10.6648
▁examen	-10.6648
▁sphère	-10.6648
▁urgence	-10.6648
▁éléphant	-10.6648
▁éthique	-10.6648
▁éclat	-10.6648
▁capteur	-10.6648
▁amélioration	-10.665
▁souvenez	-10.6651
▁neige	-10.6653
eau	-10.6654
▁événement	-10.6658
▁coûts	-10.6669
J	-10.667
ât	-10.6671
▁total	-10.6672
ologique	-10.6675
▁minim	-10.6678
▁poussé	-10.6678
▁arc	-10.6678
▁bouton	-10.6682
▁culturelle	-10.6686
▁1000	-10.6697
▁ajout	-10.6701
▁jouent	-10.6706
▁chaussures	-10.6708
▁arrivai	-10.6715
▁rentré	-10.6716
▁Australie	-10.6722
▁enquête	-10.6722
▁optimiste	-10.6722
▁distribution	-10.6723
▁électriques	-10.6724
▁hier	-10.6727
▁étage	-10.6728
▁biais	-10.6733
▁procédé	-10.6735
▁instruments	-10.6738
▁égo	-10.6739
▁soie	-10.6741
▁écout	-10.6746
▁commençai	-10.6748
▁essayez	-10.6752
▁leaders	-10.6754
▁potentielle	-10.6761
▁découvr	-10.6764
royons	-10.6765
▁levé	-10.6771
▁hauteur	-10.6788
▁trava	-10.6793
▁comprends	-10.6797
▁Trois	-10.6797
▁MIT	-10.6797
▁opposé	-10.6797
▁paludisme	-10.6797
▁symptôme	-10.6797
▁infection	-10.6798
▁pourcentage	-10.6799
amas	-10.6799
▁quotidienne	-10.6801
let	-10.6803
▁exploration	-10.6804
▁agissait	-10.6804
▁ressemblait	-10.6806
▁déjeuner	-10.6824
▁éloigné	-10.6842
▁expériment	-10.6849
by	-10.6849
vin	-10.6855
▁aurez	-10.6864
▁onde	-10.687
▁portables	-10.6873
▁Permettez	-10.6873
▁Mexique	-10.6873
▁engagé	-10.6873
▁bataille	-10.6873
▁résistance	-10.6874
▁établir	-10.6882
ition	-10.6892
▁vache	-10.6899
▁exception	-10.6901
▁précédent	-10.6909
▁nécessaires	-10.6911
▁entré	-10.692
off	-10.6922
conque	-10.6932
▁économiques	-10.6934
ett	-10.6941
▁accumul	-10.695
▁quatrième	-10.695
▁théâtre	-10.695
▁évènement	-10.695
▁suggère	-10.695
▁illusion	-10.695
▁écras	-10.695
▁appliquer	-10.6951
▁racont	-10.6956
▁rev	-10.6961
▁observe	-10.6965
anche	-10.6968
▁véhicule	-10.6972
▁décennie	-10.6972
▁dollar	-10.6973
▁émotionnelle	-10.6975
rions	-10.699
▁dessiner	-10.6997
▁honte	-10.7004
▁rassembler	-10.701
▁22	-10.7014
▁variation	-10.7027
▁hôtel	-10.7032
▁forment	-10.7072
▁termin	-10.7072
▁individuelle	-10.7078
▁frappé	-10.7104
▁mystère	-10.7104
▁personnalité	-10.7104
▁positive	-10.7104
▁propriétaire	-10.7104
▁réfugié	-10.7104
▁terrorisme	-10.7104
▁isolé	-10.7104
▁prévu	-10.7104
▁détruit	-10.7104
▁donnée	-10.7113
▁autrement	-10.7119
▁Grand	-10.7122
ook	-10.7122
▁utilisez	-10.7143
▁explor	-10.7147
ko	-10.7166
▁serez	-10.7167
▁prépar	-10.717
▁conversations	-10.717
▁carburant	-10.7182
▁cinéma	-10.7182
▁Charles	-10.7182
▁retraite	-10.7182
▁préfère	-10.7182
▁scanner	-10.7183
▁Finale	-10.7184
▁99	-10.7184
ult	-10.7185
▁ouverture	-10.7186
▁remplacer	-10.7189
▁envoie	-10.719
▁relie	-10.7207
ball	-10.7209
▁engager	-10.7217
▁conserv	-10.7219
▁basse	-10.7221
ju	-10.7223
▁fondamental	-10.7223
▁via	-10.7227
midi	-10.7227
▁gris	-10.723
▁maman	-10.7231
▁élevée	-10.7235
▁support	-10.7243
▁Tom	-10.7255
oire	-10.7256
▁appartement	-10.7261
▁spectacle	-10.7261
▁typique	-10.7261
▁Moyen	-10.7261
▁détruir	-10.7261
▁So	-10.7265
▁Hi	-10.7272
▁construite	-10.7294
eh	-10.7301
▁provenan	-10.7303
ose	-10.7305
▁élections	-10.7309
▁excellent	-10.7316
▁chirurgie	-10.7329
▁avocat	-10.734
▁prédiction	-10.734
▁moustique	-10.734
▁nettoy	-10.734
▁inverse	-10.7341
▁tenu	-10.7343
ivité	-10.7345
▁2008	-10.7345
▁nage	-10.735
▁puisqu	-10.7356
▁conte	-10.7361
▁foie	-10.7373
icule	-10.7395
▁23	-10.74
▁concentré	-10.7402
▁fé	-10.7403
avions	-10.7404
▁installé	-10.7414
▁précise	-10.7416
▁ralenti	-10.7417
▁sauvé	-10.742
▁pomme	-10.742
▁Francisco	-10.742
▁Anders	-10.7421
▁reconnu	-10.7421
▁apparu	-10.7423
▁inspiration	-10.7423
▁organiser	-10.7435
▁mine	-10.7451
▁abandonné	-10.7452
▁récente	-10.7459
▁rentre	-10.7463
▁volant	-10.7467
▁quart	-10.7471
▁Dan	-10.7481
▁disparaîtr	-10.7499
itaire	-10.7501
▁champignon	-10.7501
▁français	-10.7501
▁physicien	-10.7501
▁existai	-10.7501
▁femelle	-10.7501
▁retard	-10.7501
▁folle	-10.7501
▁hiver	-10.7501
▁ministre	-10.7501
▁allant	-10.7501
▁neuro	-10.7504
▁front	-10.7508
▁Com	-10.7509
stéro	-10.7509
graphe	-10.7515
▁entends	-10.7517
▁sexuelle	-10.7528
▁pat	-10.753
▁commune	-10.7541
rtex	-10.7545
▁facteur	-10.7546
tage	-10.7566
▁écho	-10.7575
▁resté	-10.7581
▁goutte	-10.7582
▁inattendu	-10.7582
▁nécessite	-10.7582
▁déroule	-10.7582
▁Allez	-10.7582
▁montrant	-10.7582
▁empathi	-10.7583
▁venus	-10.7584
▁puissions	-10.7584
▁chao	-10.7586
▁vivante	-10.7591
atoire	-10.7595
▁beaux	-10.7598
▁épargne	-10.76
▁réunis	-10.7612
▁nano	-10.7614
▁prouver	-10.7617
▁tissus	-10.7618
▁émission	-10.7631
▁élève	-10.7635
▁original	-10.7638
▁0	-10.7648
▁Wal	-10.7662
▁occup	-10.7662
▁Darwin	-10.7664
▁implication	-10.7664
▁intitulé	-10.7664
▁motivation	-10.7664
▁autonome	-10.7664
▁franche	-10.7664
▁racine	-10.7666
▁requin	-10.7666
▁Harv	-10.7666
▁encourager	-10.767
▁tiens	-10.767
▁transmettre	-10.7672
▁précision	-10.7673
▁fonctionnement	-10.7676
organ	-10.7678
ny	-10.7679
▁pourrons	-10.7687
▁imm	-10.7688
▁saison	-10.7693
▁suffisant	-10.7695
▁ga	-10.7712
▁compter	-10.772
▁majeur	-10.7744
▁roman	-10.7746
▁exécut	-10.7747
▁Bonjour	-10.7747
▁indice	-10.7747
▁transition	-10.7747
▁sculpture	-10.7747
we	-10.7749
▁cadeau	-10.7754
▁répand	-10.7763
▁adapter	-10.7763
▁entendez	-10.7764
▁Big	-10.7771
U	-10.7784
▁traite	-10.7788
▁traditionnel	-10.7804
▁of	-10.7808
forme	-10.7809
▁étendue	-10.781
▁voudr	-10.7817
▁investi	-10.7821
▁Bar	-10.7823
▁fac	-10.7828
▁Institut	-10.783
▁médicaux	-10.783
▁conduis	-10.783
▁massive	-10.783
▁biologiste	-10.783
▁NAS	-10.7831
▁194	-10.7832
▁inégalité	-10.7834
▁extrair	-10.7835
▁représenter	-10.7835
▁vaisseau	-10.7842
▁chaise	-10.7846
hou	-10.7847
▁to	-10.7862
▁cérébrale	-10.7864
▁aimé	-10.7872
▁ressenti	-10.7873
▁passionné	-10.7876
▁prenai	-10.7887
embre	-10.7901
▁brillant	-10.7907
▁nerveu	-10.7909
▁couvert	-10.7913
▁appuy	-10.7914
▁destruction	-10.7914
▁multipli	-10.7914
▁reproduir	-10.7914
▁thérapie	-10.7914
▁génie	-10.7914
▁garanti	-10.7915
▁résume	-10.7915
▁manuel	-10.7915
▁métro	-10.7918
▁employ	-10.7924
▁intellectuelle	-10.793
▁reconnaiss	-10.7932
▁gér	-10.794
▁Mc	-10.7941
omi	-10.7946
▁pic	-10.7947
▁communiqu	-10.7949
▁donnez	-10.7974
fiction	-10.799
▁250	-10.7996
▁lendemain	-10.7999
▁église	-10.7999
▁Quoi	-10.7999
▁plage	-10.8006
▁inventer	-10.8013
▁métal	-10.8015
▁grain	-10.8019
ua	-10.8026
▁enregistrement	-10.8034
ville	-10.805
▁Pri	-10.8053
▁généré	-10.8062
▁pleur	-10.8066
▁supérieur	-10.8069
▁événements	-10.8073
▁comparé	-10.8075
▁Gal	-10.8075
▁600	-10.8076
▁quotidien	-10.808
▁tend	-10.808
▁miroir	-10.8084
▁France	-10.8084
▁métier	-10.8084
▁excuse	-10.8084
▁leadership	-10.8085
▁Voyons	-10.8085
▁sépare	-10.8086
▁modifier	-10.8094
▁comprenons	-10.8094
▁attraper	-10.8097
▁tenai	-10.8098
▁battu	-10.8099
▁axe	-10.8105
▁imagine	-10.8109
veillance	-10.8111
▁vaccins	-10.8121
▁calme	-10.8137
▁Gen	-10.8142
▁réalise	-10.8147
▁essayai	-10.8154
▁conséquence	-10.8155
flu	-10.816
▁affirm	-10.8164
▁correct	-10.8169
▁chimie	-10.8171
▁diplôme	-10.8171
▁emprunt	-10.8171
▁infirmière	-10.8171
▁musicien	-10.8171
▁poumon	-10.8171
▁Soleil	-10.8171
▁criminel	-10.8171
▁témoin	-10.8171
▁Super	-10.8172
▁explosion	-10.8183
▁récupérer	-10.8185
▁ras	-10.8193
égalité	-10.8195
▁foule	-10.8205
▁individuel	-10.8214
américain	-10.8218
▁aborder	-10.8218
▁Bi	-10.8223
▁parlez	-10.8235
▁aise	-10.8241
▁guéri	-10.8252
▁raconté	-10.8256
▁annonce	-10.8258
▁apparem	-10.8258
▁empreinte	-10.8258
▁interagir	-10.8258
▁mensonge	-10.8258
▁concert	-10.8258
▁provient	-10.8258
▁herbe	-10.8258
▁entouré	-10.8258
▁nôtre	-10.8258
▁plateforme	-10.8258
▁rose	-10.8259
▁drone	-10.8263
▁four	-10.8266
▁spécialiste	-10.8272
▁adapt	-10.8273
▁intégrer	-10.8274
▁espérons	-10.8275
▁paie	-10.8295
▁représenté	-10.8298
▁race	-10.8299
▁rendez	-10.8312
oh	-10.8313
▁tr	-10.8317
▁fan	-10.8321
▁casse	-10.833
▁connaissai	-10.8332
▁servi	-10.8336
▁urbain	-10.8341
▁roi	-10.8343
▁candidat	-10.8345
▁enceinte	-10.8345
▁iPhone	-10.8345
▁orbite	-10.8345
▁hyper	-10.8345
▁regret	-10.8345
▁pension	-10.8345
▁avéré	-10.8345
▁arabe	-10.8345
▁ombre	-10.8346
▁agence	-10.8346
▁étendr	-10.8346
▁faudrait	-10.8348
▁croit	-10.8349
▁gay	-10.8355
▁ajouté	-10.8363
▁âgé	-10.8364
▁spectre	-10.8365
▁constitue	-10.8367
▁Quelque	-10.8367
▁ira	-10.8374
▁émergent	-10.8375
▁trouvai	-10.838
▁caché	-10.8384
▁innov	-10.839
▁connect	-10.8391
▁vente	-10.8401
▁enregistre	-10.8405
▁divers	-10.8422
▁rassemble	-10.8424
▁souff	-10.8425
▁éclair	-10.8426
ération	-10.8432
▁autoroute	-10.8434
▁inévitable	-10.8434
▁moléculaire	-10.8434
▁Frank	-10.8434
▁savaient	-10.8434
rée	-10.8454
▁crédit	-10.846
▁suit	-10.8461
▁accomplir	-10.8468
▁longueur	-10.8473
trui	-10.8474
▁poste	-10.8475
▁assise	-10.8475
▁tomb	-10.8482
▁attirer	-10.8493
hip	-10.8498
▁sûre	-10.85
▁représent	-10.8518
▁Africain	-10.8523
▁anniversaire	-10.8523
▁attaché	-10.8523
▁britannique	-10.8523
▁spectaculaire	-10.8523
▁apparaiss	-10.8523
▁ennuye	-10.8523
▁navig	-10.8524
▁héritage	-10.8524
▁considérable	-10.8529
atique	-10.8539
▁préparer	-10.8543
▁intégr	-10.8553
▁prédir	-10.856
▁virtuel	-10.8568
▁avancé	-10.8569
▁adapté	-10.8573
▁appren	-10.858
Bret	-10.8581
▁développe	-10.8583
érer	-10.8585
idité	-10.8595
▁limité	-10.8597
▁automobile	-10.8613
▁barrière	-10.8613
▁défaut	-10.8613
▁inquiète	-10.8613
▁sophistiqué	-10.8613
▁fleurs	-10.8614
▁196	-10.8614
▁fleur	-10.8614
▁serons	-10.8615
▁Ru	-10.8615
▁écrivain	-10.8615
▁Alex	-10.8616
▁tube	-10.8641
▁grandir	-10.8643
▁dangereuse	-10.8643
▁accro	-10.8645
▁devin	-10.8648
▁Ed	-10.8649
▁chanter	-10.8655
▁oubli	-10.8658
▁virtuelle	-10.8659
▁cherché	-10.8663
dedans	-10.8667
▁répandu	-10.8686
▁Pakistan	-10.8704
▁dialogue	-10.8704
▁Prenons	-10.8704
▁achète	-10.8704
▁grotte	-10.8704
▁infecté	-10.8704
▁hydrogène	-10.8704
▁magnétique	-10.8706
▁impressionnant	-10.8706
▁Web	-10.8709
▁soudain	-10.871
haut	-10.871
▁comprenez	-10.871
▁centaine	-10.8711
▁degré	-10.8719
▁sortent	-10.8754
▁Fo	-10.8757
▁restent	-10.8757
▁collabor	-10.8777
▁évoluer	-10.8789
▁fonctionn	-10.8789
▁araignée	-10.8796
▁orchestre	-10.8796
▁personnalis	-10.8796
▁pollution	-10.8796
▁Lune	-10.8796
▁gliss	-10.8797
▁urbaine	-10.8801
▁Tra	-10.8806
▁supérieure	-10.8812
▁discuter	-10.8813
▁considér	-10.8815
▁créons	-10.8823
dit	-10.8842
▁applications	-10.8843
▁utilis	-10.886
▁Mari	-10.8868
▁affiche	-10.887
grès	-10.8874
▁tenter	-10.8876
▁obligé	-10.8888
▁substance	-10.8888
▁Guerre	-10.8888
▁colonne	-10.8888
▁agréable	-10.8888
▁apport	-10.8889
▁venons	-10.8889
▁reconnaissance	-10.889
▁analyser	-10.889
▁toile	-10.8895
tern	-10.8899
▁multiple	-10.89
▁commercial	-10.8905
ranch	-10.8908
▁remonte	-10.8919
▁sauter	-10.8922
Tube	-10.8929
▁Celle	-10.8931
▁barre	-10.8936
ina	-10.8936
▁accompli	-10.8946
▁bâti	-10.895
▁Gra	-10.8952
▁ressort	-10.8953
▁App	-10.8959
20	-10.896
▁Th	-10.8963
▁finance	-10.8968
▁aspir	-10.8976
▁orient	-10.8976
▁promet	-10.8977
▁acquis	-10.8982
▁scénario	-10.8982
▁semblable	-10.8982
▁animation	-10.8982
▁figure	-10.8982
30	-10.8982
▁apparten	-10.8982
▁plaque	-10.8982
▁microscope	-10.8982
▁roue	-10.8987
▁donnant	-10.8989
▁apprécier	-10.901
▁monté	-10.9015
▁définir	-10.9021
▁souffle	-10.9034
▁tapis	-10.904
▁transform	-10.9053
ack	-10.9054
▁brill	-10.9054
▁modifié	-10.9054
▁élimin	-10.9058
▁vérifi	-10.9059
▁Har	-10.9073
▁Russie	-10.9076
▁dirigé	-10.9076
▁expansion	-10.9076
▁inférieur	-10.9076
▁aéroport	-10.9076
▁converti	-10.9076
▁genou	-10.9076
▁lecture	-10.9077
▁dame	-10.9077
▁universitaire	-10.9078
▁chère	-10.9078
▁gentil	-10.9079
▁placer	-10.9079
▁voyager	-10.9089
▁thon	-10.9089
▁repose	-10.9091
▁destiné	-10.9093
▁couple	-10.9099
onnait	-10.9105
▁discut	-10.9111
asi	-10.9111
▁décoll	-10.9115
▁tap	-10.9119
ling	-10.9123
▁sonne	-10.9123
▁compren	-10.9139
▁organis	-10.9154
▁prête	-10.917
▁Pouvez	-10.9171
▁Michael	-10.9171
▁Mondiale	-10.9171
▁familier	-10.9171
▁fragment	-10.9171
▁ingrédient	-10.9171
▁proportion	-10.9171
▁admir	-10.9171
▁poulet	-10.9172
▁lointain	-10.9173
▁Corée	-10.9173
▁divise	-10.9174
▁exploitation	-10.9177
▁remettr	-10.9178
▁spatiale	-10.9181
▁ravi	-10.9185
urieux	-10.919
▁descendre	-10.9192
▁oreille	-10.9193
▁protéine	-10.9193
▁mathématique	-10.9193
▁insist	-10.9198
▁association	-10.9198
vor	-10.9214
gal	-10.9231
▁oreilles	-10.9246
▁arrivera	-10.9254
bby	-10.9267
▁transmis	-10.9268
▁maîtrise	-10.9268
▁négatif	-10.9268
▁poésie	-10.9268
▁applaudissement	-10.9268
ccéder	-10.9268
▁blague	-10.9268
▁peint	-10.927
videm	-10.9271
▁tire	-10.9277
▁libérer	-10.9277
▁fourniss	-10.9283
▁graines	-10.9285
▁approprié	-10.9288
oyons	-10.9289
▁Ve	-10.9314
▁algorithmes	-10.9321
▁amen	-10.9327
▁dépenser	-10.9332
▁examine	-10.9337
▁résistant	-10.934
ège	-10.9347
▁atterri	-10.9365
▁Regardons	-10.9365
▁agricole	-10.9365
▁catastrophe	-10.9365
▁honneur	-10.9365
▁miracle	-10.9365
▁ridicule	-10.9365
▁symétrie	-10.9365
▁trajet	-10.9365
▁market	-10.9365
▁Islam	-10.9365
▁geste	-10.9365
▁choc	-10.9365
▁pattes	-10.9367
▁serv	-10.937
▁vérifier	-10.9383
▁Sou	-10.939
▁chaude	-10.9391
cago	-10.9393
ino	-10.9399
▁prétend	-10.9401
▁prenant	-10.9414
▁piste	-10.9416
uin	-10.9418
▁Q	-10.942
▁terrestre	-10.9423
▁fau	-10.9425
chev	-10.9433
▁serais	-10.9433
▁roche	-10.9435
▁combin	-10.944
osité	-10.9448
▁adresse	-10.9448
tta	-10.9449
▁approch	-10.9455
pit	-10.9456
▁conten	-10.9458
▁manifeste	-10.9463
▁centimètre	-10.9463
▁conducteur	-10.9463
▁fauteuil	-10.9463
▁littérature	-10.9463
▁pollen	-10.9463
▁primaire	-10.9463
▁priorité	-10.9463
▁épaule	-10.9463
▁abstrait	-10.9463
▁supprim	-10.9463
▁désolé	-10.9463
▁vertical	-10.9463
▁réforme	-10.9465
▁lève	-10.9466
▁acier	-10.9467
▁simulation	-10.9469
péri	-10.9475
▁installer	-10.9476
▁trouverez	-10.9481
▁cesse	-10.9493
▁rac	-10.9494
▁disque	-10.9495
▁aimez	-10.9527
▁transparen	-10.953
▁stabili	-10.9536
illage	-10.9546
▁pure	-10.9547
▁chauff	-10.9551
▁Fin	-10.9554
ich	-10.9555
ologue	-10.9556
▁dictionnaire	-10.9562
▁démonstration	-10.9562
▁navire	-10.9562
▁urbanis	-10.9562
▁variété	-10.9562
▁aiguille	-10.9562
▁billet	-10.9562
▁organique	-10.9562
▁débarrasser	-10.9562
▁piano	-10.9562
▁réduction	-10.9563
▁créative	-10.9563
▁repouss	-10.9564
▁dieu	-10.9564
▁Thom	-10.9564
▁Bang	-10.9572
▁préfér	-10.9576
▁gratuit	-10.9587
eign	-10.9588
▁abus	-10.959
resse	-10.9592
▁passons	-10.9593
▁frappe	-10.9595
semble	-10.9613
▁contrôlé	-10.9617
dor	-10.9631
my	-10.9645
lage	-10.9648
issement	-10.9652
▁empêche	-10.9653
▁célébr	-10.9659
▁distribu	-10.9659
▁Obama	-10.9662
▁Pacifique	-10.9662
▁Voyez	-10.9662
▁disparaiss	-10.9662
▁promesse	-10.9662
▁absence	-10.9662
▁optique	-10.9662
▁formule	-10.9662
rry	-10.9663
ourir	-10.9664
▁péni	-10.9665
och	-10.9672
▁emmen	-10.969
▁habituelle	-10.9695
▁maire	-10.9698
▁affect	-10.9711
mont	-10.9718
cole	-10.972
▁prévoi	-10.9736
mètre	-10.9738
tech	-10.9749
▁concev	-10.9756
udi	-10.9758
▁accueil	-10.976
▁allemand	-10.9763
▁assurance	-10.9763
▁attitude	-10.9763
▁imprimer	-10.9763
▁inutile	-10.9763
▁prothèse	-10.9763
▁ultime	-10.9763
▁étrangère	-10.9763
▁atteign	-10.9763
▁dépassé	-10.9763
▁toxique	-10.9763
▁fermier	-10.9763
▁offert	-10.9763
▁tension	-10.9763
▁déteste	-10.9763
▁exige	-10.9765
▁froide	-10.9765
▁informe	-10.977
▁27	-10.9773
▁abandonner	-10.9777
▁rassemblé	-10.9786
oto	-10.9788
ète	-10.9789
▁ouvr	-10.979
▁attendez	-10.9795
▁dense	-10.9798
▁algorithme	-10.9808
▁rest	-10.9809
▁and	-10.981
▁diriger	-10.982
▁pardon	-10.9822
▁causé	-10.9839
▁croyai	-10.9843
▁Ti	-10.9848
rain	-10.9849
▁diapositive	-10.9865
▁vulnérable	-10.9865
▁blessé	-10.9865
▁studio	-10.9865
▁attiré	-10.9865
▁Heureuse	-10.9865
▁Aussi	-10.9865
▁discipline	-10.9865
▁densité	-10.9865
▁estimation	-10.9865
▁diapo	-10.9866
▁étonnante	-10.9866
Vraiment	-10.9866
oxyde	-10.9867
▁quelconque	-10.9868
▁ok	-10.9869
▁Ke	-10.9869
▁promen	-10.987
▁colle	-10.9876
▁religi	-10.9877
▁recon	-10.9882
▁Air	-10.989
▁exploit	-10.9912
▁expliqué	-10.9915
▁consomm	-10.9922
af	-10.9926
▁estime	-10.9929
▁laser	-10.9935
▁pren	-10.9935
▁politiciens	-10.9944
▁ouest	-10.9949
▁cherch	-10.9954
▁fondé	-10.9957
▁préparé	-10.9958
▁économistes	-10.9958
clé	-10.9967
▁collision	-10.9968
▁agrandi	-10.9968
▁agriculteur	-10.9968
▁blessure	-10.9968
▁instruction	-10.9968
▁mathématicien	-10.9968
▁Street	-10.9968
▁accent	-10.9968
▁cascade	-10.9968
▁récif	-10.9968
▁spécialisé	-10.9968
▁coincé	-10.9969
▁entraîne	-10.9972
▁polio	-10.9972
▁volé	-10.9973
▁méta	-10.9975
▁apprenons	-10.998
▁City	-10.999
▁occupe	-10.9993
▁joli	-11.0007
▁conçue	-11.0019
▁examin	-11.0029
▁apparaît	-11.0045
▁testé	-11.0054
▁découvre	-11.0058
culaire	-11.0059
▁filtre	-11.006
▁Steve	-11.0065
▁altitude	-11.0072
▁banlieue	-11.0072
▁domestique	-11.0072
▁désastre	-11.0072
▁improvis	-11.0072
▁initiative	-11.0072
▁télécharge	-11.0072
▁gaspill	-11.0072
▁dépensé	-11.0072
▁dîner	-11.0072
▁bref	-11.0072
▁procè	-11.0072
▁Voix	-11.0072
▁open	-11.0073
▁recueilli	-11.0073
▁collecte	-11.0073
▁emmené	-11.0074
▁déclin	-11.0082
▁léger	-11.0083
▁fruits	-11.0085
SA	-11.0089
ève	-11.0091
èce	-11.0097
▁appliqué	-11.0099
▁automatiquement	-11.01
hili	-11.0103
ano	-11.011
▁porc	-11.0118
▁invent	-11.0123
ock	-11.0124
▁réveille	-11.013
▁contrainte	-11.0132
▁détect	-11.0134
ommençons	-11.0135
ôle	-11.0148
▁occidentale	-11.0156
▁soudaine	-11.0171
édia	-11.0174
gène	-11.0176
▁exclu	-11.0177
▁Second	-11.0177
▁ampoule	-11.0177
▁trafic	-11.0177
▁bâton	-11.0177
▁plongé	-11.0177
▁paquet	-11.0177
▁vacance	-11.0177
▁rituel	-11.0177
▁existant	-11.0177
▁douzaine	-11.0177
▁démontre	-11.0177
▁Boston	-11.0177
▁humid	-11.0178
▁rationnel	-11.0178
▁élu	-11.0179
métrique	-11.0183
▁Apple	-11.0183
▁trouv	-11.0184
▁quantique	-11.0185
▁conclure	-11.0187
▁scan	-11.0189
▁Jim	-11.0189
arth	-11.0189
▁finiss	-11.0195
▁partagé	-11.0209
▁reçoive	-11.0221
mission	-11.0222
▁innovant	-11.0223
itude	-11.0224
▁enseigne	-11.0236
▁sembler	-11.0237
▁Nat	-11.0241
▁Wa	-11.0252
▁65	-11.0256
▁rarement	-11.0259
▁inject	-11.0261
▁plate	-11.0264
▁mètre	-11.0264
▁déclenche	-11.0284
▁japonais	-11.0284
▁éteint	-11.0284
▁parallèle	-11.0284
▁retirer	-11.0284
▁élabor	-11.0284
▁évidence	-11.0284
▁méchant	-11.0284
▁épuis	-11.0284
▁moelle	-11.0284
▁Avez	-11.0284
▁facilit	-11.0284
▁subtil	-11.0284
heimer	-11.0284
▁huile	-11.0285
▁remis	-11.0285
▁chauve	-11.0292
▁familial	-11.0304
leur	-11.031
▁combattre	-11.031
▁mentionné	-11.0327
▁remercie	-11.033
▁Sam	-11.0354
▁finit	-11.0356
▁cellulaire	-11.0359
voyait	-11.0361
▁occupé	-11.0367
▁boucle	-11.0391
▁business	-11.0391
▁diplômé	-11.0391
▁mythe	-11.0391
▁aléatoire	-11.0391
▁email	-11.0391
▁tentative	-11.0391
▁prospér	-11.0391
▁interagiss	-11.0391
▁pompe	-11.0392
▁stable	-11.0393
▁photographe	-11.0394
▁nécessairement	-11.0394
▁commerciale	-11.04
▁future	-11.0403
▁réfléchissez	-11.0403
èle	-11.0404
▁poli	-11.0407
DA	-11.0411
û	-11.0418
▁apparaîtr	-11.0419
▁connait	-11.0421
▁pur	-11.0422
niste	-11.0431
org	-11.0445
▁provoque	-11.0456
▁mondialis	-11.046
▁fabriqu	-11.0461
▁amélioré	-11.0476
culture	-11.0482
▁récupér	-11.0482
▁apporte	-11.0483
uck	-11.049
▁coopér	-11.0493
▁meurt	-11.0494
▁compliquée	-11.0497
▁inquiét	-11.0498
jo	-11.0498
▁chocolat	-11.05
▁extinction	-11.05
▁fréquent	-11.05
dignité	-11.05
▁parking	-11.05
▁comparaison	-11.05
▁cyber	-11.05
▁irré	-11.05
▁sonore	-11.0502
▁Nations	-11.0506
▁Ghan	-11.0507
▁PM	-11.0517
▁vivaient	-11.0525
▁Bre	-11.0528
▁nourriss	-11.053
▁international	-11.0531
▁réunir	-11.0542
▁fusion	-11.0545
▁réuni	-11.0546
▁épi	-11.0563
▁apprise	-11.0565
▁illustr	-11.0585
faire	-11.0585
▁déclaré	-11.0591
ula	-11.0594
▁simul	-11.0604
▁humili	-11.061
▁apparence	-11.061
▁chromosome	-11.061
▁golf	-11.061
▁infantile	-11.061
▁rejoindre	-11.061
▁significative	-11.061
▁susceptible	-11.061
▁trajectoire	-11.061
▁illégal	-11.061
▁maître	-11.061
▁contrat	-11.061
▁attache	-11.061
▁couloir	-11.0613
▁opér	-11.0613
▁développée	-11.0617
▁form	-11.0621
▁diminuer	-11.0622
▁retourne	-11.0627
▁statut	-11.0629
▁sentez	-11.0629
plan	-11.063
▁pique	-11.0664
▁supposé	-11.0664
▁tombée	-11.0666
▁offr	-11.0689
▁oublier	-11.0693
▁calculer	-11.0695
▁évolue	-11.0701
▁réserv	-11.0701
graphie	-11.0717
▁IRM	-11.0721
▁cognitive	-11.0721
▁gamme	-11.0721
▁introduit	-11.0721
▁refroidi	-11.0721
▁permanent	-11.0721
▁humanitaire	-11.0721
▁ultra	-11.0721
▁Allons	-11.0721
ligne	-11.0721
▁revue	-11.0722
▁nerf	-11.0724
▁gard	-11.0725
▁déclaration	-11.0726
▁récent	-11.0727
▁coopération	-11.0728
▁religieuse	-11.0729
▁Autre	-11.0729
▁grille	-11.0731
▁trompe	-11.0732
▁détecteur	-11.0737
▁décè	-11.0738
▁supporter	-11.0746
12	-11.0748
▁secour	-11.0751
▁ajoute	-11.0752
▁décor	-11.0758
▁Paris	-11.0761
▁financement	-11.0763
▁profiter	-11.077
▁collègue	-11.081
▁rappel	-11.0824
ibilité	-11.0826
▁flotte	-11.0826
▁Univers	-11.0831
▁circonstance	-11.0833
▁curiosité	-11.0833
▁glacier	-11.0833
▁juridique	-11.0833
▁squelette	-11.0833
▁survécu	-11.0833
▁record	-11.0833
▁Faites	-11.0834
▁prisonnier	-11.0834
▁envahi	-11.0834
▁poly	-11.0835
▁proposition	-11.0836
▁colline	-11.0836
▁abouti	-11.0837
▁Nature	-11.0839
▁superbe	-11.0839
▁2005	-11.0841
▁sourire	-11.0841
▁psychologique	-11.0842
▁Han	-11.0847
▁insta	-11.0855
▁imaginé	-11.0858
▁participant	-11.0869
▁transparent	-11.0872
▁respire	-11.0874
▁nid	-11.0882
tori	-11.0883
éral	-11.0887
▁transporter	-11.0909
▁perdue	-11.091
▁Pé	-11.0916
▁sage	-11.0926
▁Ph	-11.0928
▁cultiv	-11.093
▁concepteur	-11.0937
▁émett	-11.0942
50	-11.0943
▁aptitude	-11.0947
▁atelier	-11.0947
▁dégât	-11.0947
▁partenariat	-11.0947
▁philosophie	-11.0947
▁privilège	-11.0947
▁pyramide	-11.0947
▁rejoint	-11.0947
▁réputation	-11.0947
▁suicide	-11.0947
▁réacteur	-11.0947
▁Nouvelle	-11.0947
▁roulant	-11.0947
▁marqué	-11.0947
▁sondage	-11.0947
▁description	-11.0947
▁Italie	-11.0947
▁concour	-11.0948
▁vieillissement	-11.0948
▁interprétation	-11.0953
▁situé	-11.0955
▁asseoi	-11.0957
aliste	-11.0957
▁applique	-11.0964
▁exploiter	-11.0967
▁éco	-11.098
▁gel	-11.0982
▁mani	-11.0986
▁saine	-11.0991
▁Per	-11.0996
ney	-11.1003
▁perce	-11.1009
▁remonter	-11.1019
▁couper	-11.1025
▁emport	-11.1043
▁bénéfici	-11.1043
▁paraît	-11.1048
▁organe	-11.1053
▁investiss	-11.1053
▁descendu	-11.1055
▁horizon	-11.1062
▁Stanfor	-11.1062
▁compromis	-11.1062
▁féminin	-11.1062
▁instinct	-11.1062
▁manifestation	-11.1062
▁producteur	-11.1062
▁Science	-11.1062
▁légume	-11.1062
▁obési	-11.1062
▁parasite	-11.1062
▁recette	-11.1062
▁match	-11.1062
▁orange	-11.1063
▁espérance	-11.1064
▁portrait	-11.1066
▁remont	-11.1073
▁participation	-11.1075
▁élever	-11.1075
▁sentais	-11.1076
▁enlevé	-11.1079
▁diverses	-11.1081
▁adopté	-11.1101
nage	-11.1102
nière	-11.1124
▁géniale	-11.1131
▁fasciné	-11.116
▁exact	-11.1164
▁Nigeria	-11.1178
▁décharge	-11.1178
▁rétabli	-11.1178
▁élargi	-11.1178
▁antibiotiques	-11.1178
▁pensant	-11.1178
▁épouse	-11.1178
▁bourse	-11.1178
▁dérange	-11.1178
▁habitué	-11.1178
▁instantané	-11.1179
▁procédure	-11.1179
▁étroite	-11.1181
▁amateur	-11.1182
▁admettre	-11.1183
▁ralentir	-11.1183
▁recour	-11.1184
▁obtenons	-11.1185
▁attendai	-11.1189
▁sommeil	-11.1193
▁Dès	-11.1199
▁écri	-11.1204
▁engage	-11.1209
▁générer	-11.1211
▁culturel	-11.1214
▁propuls	-11.1215
▁constante	-11.1233
▁préférée	-11.1233
▁attrap	-11.1251
cine	-11.1256
enne	-11.1268
▁soirée	-11.1278
masse	-11.1283
▁civil	-11.1286
▁victime	-11.1289
▁cassé	-11.1289
▁enlève	-11.129
hattan	-11.1295
▁régulière	-11.1296
▁pertinent	-11.1296
▁World	-11.1296
▁crâne	-11.1296
▁immunitaire	-11.1296
▁paradigme	-11.1296
▁ramène	-11.1296
▁déménag	-11.1296
▁menacé	-11.1296
▁clavier	-11.1296
▁génère	-11.1296
▁procure	-11.1296
▁Micro	-11.1297
mandant	-11.1297
▁tremblement	-11.1297
ian	-11.1307
▁concentration	-11.1308
▁permettez	-11.131
▁feront	-11.1324
▁réagiss	-11.1326
▁comparer	-11.1328
▁développent	-11.1329
▁construisent	-11.1333
erra	-11.1342
▁indépendant	-11.1355
▁rap	-11.1357
ption	-11.1372
▁sexuel	-11.1374
▁32	-11.1389
▁régl	-11.1401
▁limitée	-11.1413
▁protège	-11.1415
▁inhabituel	-11.1415
▁modélis	-11.1415
▁costume	-11.1415
▁transmission	-11.1416
▁collectif	-11.1416
▁relié	-11.1418
▁mental	-11.1419
▁identifié	-11.1426
▁coupé	-11.1428
▁agisse	-11.1432
,000	-11.1432
▁fortement	-11.1433
▁environnemental	-11.1435
▁investisseur	-11.1446
▁accélér	-11.1452
▁porté	-11.1463
▁portent	-11.1476
▁salon	-11.1478
▁riv	-11.1479
▁rêv	-11.1484
imité	-11.1491
ttent	-11.1497
▁Mer	-11.1497
▁baisser	-11.1505
▁poursuivr	-11.1512
▁Ken	-11.1521
▁spatial	-11.1521
▁700	-11.1523
▁puni	-11.1524
▁intéresser	-11.1526
▁fourni	-11.1528
zo	-11.1533
▁Suède	-11.1535
▁pingouin	-11.1535
▁regroup	-11.1535
▁tragédie	-11.1535
soft	-11.1535
▁maternelle	-11.1535
▁drapeau	-11.1535
▁échoué	-11.1535
▁combustible	-11.1535
▁civique	-11.1535
▁isole	-11.1536
▁Indien	-11.1536
▁Robert	-11.1537
▁disposition	-11.1538
▁renouvelable	-11.1539
▁homo	-11.1541
▁kg	-11.1542
▁jeunesse	-11.1564
▁saisir	-11.1574
▁Ko	-11.1575
▁ailes	-11.1579
ung	-11.1593
▁proposé	-11.16
▁contribue	-11.1602
▁révélé	-11.161
▁800	-11.162
risé	-11.1625
▁reten	-11.1631
▁grimp	-11.164
▁montée	-11.1646
▁indien	-11.1653
souris	-11.1654
▁spirituel	-11.1657
▁tranquille	-11.1657
▁SMS	-11.1657
▁idiot	-11.1657
▁intuition	-11.1657
▁poitrine	-11.1657
▁stupéfiant	-11.1657
▁élite	-11.1657
▁gouvernance	-11.1657
▁archive	-11.1657
▁vallée	-11.1657
▁soigner	-11.1657
▁Adam	-11.1657
▁poussière	-11.1658
ight	-11.1658
▁pèse	-11.1658
▁diable	-11.1661
▁enseigné	-11.1663
▁rond	-11.1663
▁mesuré	-11.1664
▁exponentielle	-11.1664
▁donnons	-11.1664
▁exister	-11.1668
▁grandissant	-11.1669
▁adopter	-11.167
▁bla	-11.1676
▁star	-11.1676
▁lunette	-11.1676
▁assembler	-11.1678
▁industriel	-11.1683
hop	-11.1685
▁évi	-11.1694
ake	-11.1695
▁réagir	-11.1695
▁fiable	-11.1697
ota	-11.1701
▁constaté	-11.1701
▁libéra	-11.1729
bert	-11.1731
▁évidente	-11.1736
▁touch	-11.1737
▁Gar	-11.1742
▁dépasse	-11.1744
▁électro	-11.1745
DE	-11.1749
toi	-11.1767
▁vital	-11.1767
▁pub	-11.1776
▁diabète	-11.1781
▁messieurs	-11.1781
▁séduisant	-11.1781
▁Higgs	-11.1781
▁chapitre	-11.1781
▁recommand	-11.1781
▁pâte	-11.1781
▁immigr	-11.1781
▁prédateur	-11.1781
▁tropicale	-11.1781
▁étiquette	-11.1781
▁fusée	-11.1781
▁reconstruir	-11.1781
▁volcan	-11.1781
▁mangé	-11.1782
▁passionnant	-11.1782
▁cochon	-11.1782
▁boire	-11.1783
▁rendue	-11.1786
▁vouliez	-11.1787
▁2006	-11.1787
▁Juli	-11.1788
▁rappelez	-11.1788
▁aimant	-11.1788
▁2004	-11.1788
nier	-11.1793
▁fourmi	-11.1795
▁Min	-11.1811
▁Cinq	-11.1811
▁assure	-11.1819
▁War	-11.183
rène	-11.1834
poli	-11.1837
▁fragile	-11.1837
▁préci	-11.1846
▁cachée	-11.1852
▁voyant	-11.1865
▁sache	-11.1865
▁partagée	-11.1868
▁Mac	-11.1869
▁mini	-11.1874
▁fournit	-11.1875
▁statu	-11.1888
▁collect	-11.1896
▁handicap	-11.1899
ntarctique	-11.1906
▁ONG	-11.1906
▁escalier	-11.1906
▁permanence	-11.1906
▁productivité	-11.1906
▁quête	-11.1906
▁révèle	-11.1906
▁vôtre	-11.1906
▁biodivers	-11.1906
▁surmonter	-11.1906
▁chargé	-11.1906
▁psychologue	-11.1906
▁fassi	-11.1906
▁dossier	-11.1906
▁USA	-11.1908
▁pause	-11.1911
▁bière	-11.1915
▁36	-11.1919
▁robotique	-11.1923
▁économiser	-11.1923
▁régler	-11.1924
▁arrivons	-11.1926
▁agiss	-11.193
▁développ	-11.195
▁écouté	-11.1959
▁professionnelle	-11.1963
▁zoom	-11.1981
▁précédente	-11.1984
▁lecteur	-11.1988
▁Cong	-11.1992
▁voyai	-11.1995
venez	-11.1998
▁souri	-11.2002
▁universel	-11.2012
▁excit	-11.2024
▁vingt	-11.2032
▁annoncé	-11.2032
▁incapable	-11.2032
▁obsédé	-11.2032
▁radiation	-11.2032
▁simplicité	-11.2032
▁éducatif	-11.2032
▁hacker	-11.2032
▁Espagn	-11.2032
▁raisonnable	-11.2032
enfants	-11.2032
▁empire	-11.2033
▁soeur	-11.2033
coutez	-11.2034
▁Martin	-11.2034
▁évaluer	-11.204
▁corail	-11.2045
▁Mark	-11.2045
▁paraître	-11.2048
▁conservateur	-11.2049
▁remplir	-11.2049
▁lampe	-11.2054
▁terr	-11.2058
▁inspirer	-11.206
▁gagn	-11.2062
▁Soi	-11.2068
▁Rire	-11.2071
▁issue	-11.2085
bilité	-11.2088
▁120	-11.2088
▁ski	-11.2088
▁brique	-11.2096
▁diminue	-11.2105
▁artificiel	-11.2133
▁basique	-11.2138
▁restaur	-11.2147
▁distinct	-11.2151
▁rentr	-11.2151
▁interprét	-11.2154
▁pirat	-11.2154
▁renforce	-11.216
▁ONU	-11.216
▁Rwanda	-11.216
▁démarrer	-11.216
▁démontré	-11.216
▁plafond	-11.216
▁significatif	-11.216
▁basket	-11.2161
▁impulsion	-11.2161
▁perçu	-11.2161
▁retiré	-11.2161
▁mutation	-11.2161
▁récepteur	-11.2161
▁allions	-11.2161
▁poète	-11.2162
▁autorisé	-11.2162
▁psychologi	-11.2162
▁sauve	-11.2163
▁évaluation	-11.2164
▁protégé	-11.2164
▁papa	-11.2165
▁révéler	-11.2171
▁vivez	-11.2179
évité	-11.218
▁mourr	-11.2196
▁nager	-11.2199
▁fabrique	-11.2206
▁principa	-11.2207
▁mangent	-11.2209
▁Soy	-11.2209
▁commenc	-11.221
▁Mich	-11.2214
▁enseignant	-11.2225
tti	-11.2226
rude	-11.2226
▁intense	-11.2228
▁échapper	-11.2231
▁doué	-11.2233
old	-11.2235
▁canal	-11.2235
▁entraîner	-11.2264
▁section	-11.2265
▁conclu	-11.2277
▁reconnaissant	-11.2279
▁coupable	-11.2281
▁confort	-11.2283
▁apparue	-11.2286
▁tournée	-11.2289
▁perturb	-11.229
▁territoire	-11.229
▁Environ	-11.229
▁logement	-11.229
▁Island	-11.2291
▁algue	-11.2291
▁impôt	-11.2291
▁repart	-11.2292
▁export	-11.2293
▁dériv	-11.2293
▁constitué	-11.2294
▁ennui	-11.2294
▁oncle	-11.2295
spect	-11.2295
DH	-11.2298
▁26	-11.23
▁bain	-11.2301
▁inquiéter	-11.2311
▁explos	-11.2312
imer	-11.2314
▁install	-11.2315
▁Park	-11.2341
▁africaine	-11.235
▁subi	-11.2363
▁jugement	-11.2366
▁accroche	-11.2376
▁souffre	-11.2379
▁émotionnel	-11.2381
▁sale	-11.2393
▁identifi	-11.2393
ank	-11.2395
▁économis	-11.24
▁voter	-11.2405
▁effectué	-11.2411
▁remet	-11.2412
▁passez	-11.2413
▁mobil	-11.2414
llé	-11.2415
▁immobil	-11.2418
▁influencé	-11.2422
▁omniprésent	-11.2422
▁bidonville	-11.2422
▁enthousiaste	-11.2422
▁philosophe	-11.2422
▁préjugé	-11.2422
▁tunnel	-11.2422
▁policier	-11.2422
▁météo	-11.2422
▁variable	-11.2422
▁seuil	-11.2423
▁composition	-11.2423
▁cube	-11.2425
▁ignorance	-11.2426
▁poil	-11.2426
dessous	-11.2427
▁entité	-11.243
▁haine	-11.243
▁profil	-11.2433
▁riz	-11.244
▁trich	-11.2442
▁Rio	-11.2444
▁Acc	-11.2446
▁éliminer	-11.2447
▁absorbe	-11.2449
▁Sal	-11.245
▁lutter	-11.2452
▁représentant	-11.2452
ity	-11.2455
▁ressource	-11.2459
▁Hy	-11.2465
▁synthèse	-11.2466
▁neurone	-11.2466
▁serai	-11.2474
▁gagnant	-11.2476
▁diminué	-11.248
▁proposer	-11.2483
uk	-11.2487
itié	-11.2491
▁libéré	-11.2495
▁musicale	-11.251
▁Carol	-11.2517
▁automatique	-11.252
prendre	-11.2521
▁Histoire	-11.2555
▁abondance	-11.2555
▁dégoût	-11.2555
▁flèche	-11.2555
▁gigantesque	-11.2555
▁globe	-11.2555
▁imprimante	-11.2555
▁reflète	-11.2555
▁signifiait	-11.2555
▁supermarché	-11.2555
▁tempête	-11.2555
▁traduit	-11.2555
▁victoire	-11.2555
▁Bruit	-11.2555
▁artisan	-11.2555
▁reprise	-11.2555
▁cabine	-11.2555
▁découpe	-11.2556
licon	-11.2556
▁remède	-11.2557
▁moque	-11.2557
▁financé	-11.2557
▁acide	-11.2559
▁programmation	-11.2559
▁accueilli	-11.2559
▁lâche	-11.2562
▁manipul	-11.2565
▁confirm	-11.2565
▁gras	-11.257
▁gouverne	-11.2571
▁pouss	-11.2573
▁cuir	-11.258
del	-11.259
▁commença	-11.2597
▁abandonn	-11.2617
▁revoi	-11.2617
▁impliquer	-11.2621
▁dorm	-11.263
▁Américain	-11.2636
obi	-11.2636
▁rencontr	-11.2678
▁remplace	-11.2679
▁faudra	-11.2687
▁chronique	-11.269
▁régénér	-11.269
▁Chinois	-11.269
▁Oxford	-11.269
▁Philip	-11.269
▁contribution	-11.269
▁déplacé	-11.269
▁focalis	-11.269
▁négative	-11.269
▁réinvent	-11.269
▁curieuse	-11.269
▁esthétique	-11.2691
▁activiste	-11.2691
▁Bush	-11.2691
▁graisse	-11.2691
▁impose	-11.2692
▁intime	-11.2695
▁persist	-11.2695
▁Dites	-11.2697
▁guérir	-11.2698
▁Cap	-11.27
▁poul	-11.2714
▁soutenu	-11.2716
▁recherch	-11.272
▁prof	-11.2727
▁brillante	-11.2729
▁posée	-11.2732
▁tournant	-11.2735
▁attire	-11.2737
▁kilomètre	-11.2739
▁remarque	-11.2741
▁Del	-11.275
▁viendra	-11.2753
▁Plu	-11.2754
▁universelle	-11.2769
▁tasse	-11.2771
hall	-11.2775
▁Op	-11.279
▁affecté	-11.2794
▁emmene	-11.2797
blo	-11.28
▁moto	-11.2811
▁devienne	-11.2816
▁soumis	-11.2821
▁PDG	-11.2827
▁consacre	-11.2827
▁intrinsèque	-11.2827
▁moustiquaire	-11.2827
▁mystérieu	-11.2827
▁projection	-11.2827
▁visualise	-11.2827
▁divisé	-11.2827
▁club	-11.2828
▁sacrifi	-11.2828
▁confus	-11.2828
▁signification	-11.2829
▁dormir	-11.283
▁percevoir	-11.2831
▁cousin	-11.2832
▁devenai	-11.2833
▁couvre	-11.2837
▁surviv	-11.2837
▁95	-11.2839
▁Gand	-11.2844
temps	-11.2846
isser	-11.2865
onstitution	-11.288
▁élection	-11.2881
▁allu	-11.2894
▁déterminé	-11.2901
▁Pan	-11.2903
▁Mill	-11.2906
▁insu	-11.2913
▁jolie	-11.2915
▁exceptionnel	-11.2916
▁publication	-11.2919
▁noyau	-11.2935
▁coule	-11.2947
▁initiale	-11.2948
▁administr	-11.296
eng	-11.2962
▁2011	-11.2966
▁Texas	-11.2966
▁William	-11.2966
▁esclavage	-11.2966
▁pharmaceutique	-11.2966
▁analogie	-11.2966
▁traduir	-11.2966
▁football	-11.2966
▁peindr	-11.2966
▁métha	-11.2967
opée	-11.2967
▁piège	-11.2967
▁animé	-11.2967
▁engin	-11.2967
▁Tes	-11.2968
▁1960	-11.2968
phone	-11.2968
▁maintien	-11.2968
▁brisé	-11.2969
▁franchi	-11.2972
▁US	-11.2972
▁département	-11.2974
▁assemblé	-11.2974
▁électron	-11.2977
▁King	-11.2979
▁cherchons	-11.2981
▁publier	-11.2981
▁constater	-11.2982
▁déclar	-11.2984
▁pourcent	-11.2984
▁poursuiv	-11.2993
▁tuyau	-11.2997
▁dépasser	-11.3008
▁reprendr	-11.301
▁conserver	-11.3011
▁dict	-11.3019
▁satisfai	-11.3024
▁émerge	-11.3042
BM	-11.305
oût	-11.3052
▁anonyme	-11.3056
▁appliqu	-11.3075
q	-11.3079
▁défendr	-11.3084
▁dose	-11.309
crit	-11.3091
▁récolte	-11.3105
▁fédéral	-11.3107
▁icône	-11.3107
▁intestin	-11.3107
▁masculin	-11.3107
▁millénaire	-11.3107
▁printemps	-11.3107
▁éduque	-11.3107
▁prévision	-11.3107
▁audience	-11.3107
▁rurale	-11.3107
▁Faisons	-11.3107
▁soulève	-11.3107
▁flexible	-11.3107
▁Life	-11.3108
▁révélation	-11.3111
▁indienne	-11.3112
▁dépendance	-11.3114
▁précieuse	-11.3115
▁électrode	-11.3128
▁réaliste	-11.3138
érique	-11.314
▁consist	-11.314
issait	-11.3142
▁entraînement	-11.3157
▁contribuer	-11.3172
▁restée	-11.3189
▁My	-11.3205
uvr	-11.321
▁déplacement	-11.3212
▁roule	-11.3233
▁financer	-11.3241
▁enseign	-11.3244
▁contemporain	-11.325
▁Cambri	-11.325
▁cinquième	-11.325
▁couvrir	-11.325
▁neuroscience	-11.325
▁obligation	-11.325
▁subvention	-11.325
▁démographique	-11.325
▁expédition	-11.325
▁frein	-11.325
▁renvoy	-11.3251
▁comédie	-11.3251
▁taxe	-11.3252
▁paradi	-11.3252
▁195	-11.3252
▁conseiller	-11.3253
▁larme	-11.3257
▁uniform	-11.3269
▁brin	-11.327
▁accélérer	-11.3271
▁cultiver	-11.3272
▁servent	-11.3274
▁rendement	-11.3281
▁mienne	-11.3302
▁réagi	-11.3316
ousse	-11.3327
▁surveill	-11.3334
▁respir	-11.3336
▁format	-11.3353
▁Ann	-11.3355
écurité	-11.3371
▁institut	-11.3389
▁réparti	-11.3394
▁Européen	-11.3395
▁alcool	-11.3395
▁bête	-11.3395
▁djihad	-11.3395
▁faveur	-11.3395
▁maximum	-11.3395
▁téléphonique	-11.3395
▁harmonie	-11.3395
▁diagramme	-11.3395
▁Quatre	-11.3395
▁antenne	-11.3396
▁Norv	-11.3396
▁tranche	-11.3396
▁averti	-11.3397
bal	-11.3398
▁Valle	-11.3399
▁effondrement	-11.34
▁2001	-11.3403
▁patron	-11.3403
▁pirate	-11.3404
▁Tim	-11.3406
▁effectuer	-11.3406
▁souffrent	-11.3411
▁radical	-11.3413
▁accompagn	-11.3415
▁motive	-11.3416
▁invite	-11.3421
▁adorai	-11.3425
▁verrons	-11.3427
▁nourri	-11.3433
ordon	-11.3438
▁ignorer	-11.3452
BC	-11.3462
▁améliore	-11.3478
oyer	-11.3486
▁cérébral	-11.3491
▁légale	-11.3492
low	-11.3526
▁poster	-11.354
▁convention	-11.3542
▁céréales	-11.3542
▁extrémité	-11.3542
▁incendie	-11.3542
▁informé	-11.3542
▁résumé	-11.3542
▁serpent	-11.3542
▁terrifiant	-11.3542
▁tragique	-11.3542
▁élégant	-11.3542
▁escalad	-11.3542
▁mignon	-11.3542
▁égard	-11.3542
▁béton	-11.3542
▁spectateur	-11.3542
▁destination	-11.3542
▁Saint	-11.3542
▁déchir	-11.3543
▁annuel	-11.3543
▁lentille	-11.3544
▁tenté	-11.3544
▁mince	-11.3545
▁Centre	-11.3546
▁Sch	-11.3547
▁confortable	-11.355
ark	-11.3552
▁Port	-11.3552
▁MS	-11.3563
▁utilisaient	-11.3565
▁Star	-11.3568
▁rassembl	-11.3573
▁ample	-11.3573
vint	-11.3577
alisme	-11.3579
▁Rob	-11.3596
▁continuons	-11.3598
▁provoquer	-11.3602
▁envisager	-11.3603
▁troupe	-11.3607
▁Congo	-11.3615
▁score	-11.3619
▁cherchai	-11.3619
▁expliqu	-11.3627
▁leader	-11.3632
▁planche	-11.3632
▁satisfait	-11.3632
position	-11.3633
coloni	-11.3633
▁égal	-11.3636
▁mème	-11.3645
▁émet	-11.3648
▁abordable	-11.3675
▁consomme	-11.3677
▁refusé	-11.3684
▁profession	-11.369
▁mutuelle	-11.3691
▁pénétr	-11.3691
▁recrute	-11.3691
▁synchronis	-11.3691
▁Saturn	-11.3691
▁emplacement	-11.3691
▁enthousiasme	-11.3691
▁imprimé	-11.3691
▁linéaire	-11.3691
▁promouvo	-11.3691
▁prouvé	-11.3691
▁séparation	-11.3691
▁progressivement	-11.3691
▁assistance	-11.3691
▁ceinture	-11.3691
▁penche	-11.3691
scope	-11.3693
▁enrichi	-11.3695
▁craint	-11.3695
▁clar	-11.3696
▁Unies	-11.3698
▁prévenir	-11.3703
quin	-11.3717
▁défend	-11.3719
▁ventre	-11.3726
▁regardais	-11.3729
▁Rome	-11.3729
▁prox	-11.3749
▁allumer	-11.3751
▁parcouru	-11.3753
▁norma	-11.3758
▁capturer	-11.3762
▁Joe	-11.3767
▁indépendante	-11.3774
▁info	-11.3778
▁regardait	-11.3779
▁bat	-11.3779
▁issu	-11.3781
▁enlev	-11.3782
▁situe	-11.3784
▁permettra	-11.3787
▁repos	-11.3791
trouvait	-11.3798
▁violon	-11.3799
▁retourn	-11.3803
▁varie	-11.3826
▁merveille	-11.3836
▁protégée	-11.3839
▁socio	-11.384
▁the	-11.3841
▁Président	-11.3843
▁hélicoptère	-11.3843
▁licence	-11.3843
▁crevette	-11.3843
▁apparait	-11.3843
▁dévast	-11.3843
▁gâch	-11.3843
▁réduis	-11.3843
▁advers	-11.3843
▁Hollywood	-11.3843
jacent	-11.3843
▁conviction	-11.3843
▁préservatif	-11.3844
▁ajuste	-11.3844
▁sourd	-11.3844
▁médit	-11.3844
▁1950	-11.3845
▁révolutionnaire	-11.3846
▁suspend	-11.3846
▁2003	-11.385
▁combiné	-11.3851
▁affronter	-11.3854
tain	-11.3857
▁égale	-11.3858
▁intensif	-11.3858
▁fuite	-11.3859
▁33	-11.386
▁BG	-11.3861
▁administration	-11.3868
▁exprime	-11.3871
▁affich	-11.3871
▁amuser	-11.3876
▁session	-11.3877
▁contrôl	-11.3882
▁inspire	-11.3884
éran	-11.3918
lade	-11.3922
▁capture	-11.3925
▁28	-11.3925
▁vivai	-11.3938
▁restant	-11.3939
ning	-11.3943
▁frapper	-11.3945
▁tape	-11.3949
assemblage	-11.3963
▁succ	-11.3978
▁condamné	-11.3978
▁Atlanti	-11.3982
roi	-11.3983
▁lumine	-11.3987
▁vertu	-11.3995
hal	-11.3995
▁désesp	-11.3996
▁arrange	-11.3997
▁concurrence	-11.3997
▁famine	-11.3997
▁fossé	-11.3997
▁hectare	-11.3997
▁incertitude	-11.3997
▁pollinis	-11.3997
▁reproduction	-11.3997
▁déplaç	-11.3997
▁ramené	-11.3997
▁critère	-11.3997
▁optimisme	-11.3997
▁Banque	-11.3997
▁doctorat	-11.3997
▁ethnique	-11.3997
▁gosse	-11.3997
▁robe	-11.3997
▁dingue	-11.3997
▁décriv	-11.3997
▁Musée	-11.3997
▁clip	-11.3997
▁couteau	-11.3998
▁allumé	-11.3998
▁préventi	-11.3998
▁guide	-11.3998
▁russe	-11.4
▁totalité	-11.4002
▁obtienne	-11.4003
▁filet	-11.4004
▁vienne	-11.4006
▁réalisation	-11.4013
▁bateaux	-11.4015
▁voudrait	-11.4017
▁congé	-11.4019
gri	-11.4019
▁fondée	-11.4022
▁marée	-11.4024
▁Mary	-11.4027
▁écoutez	-11.4029
▁pleurer	-11.4029
▁Hol	-11.4036
▁dessinée	-11.4045
▁officielle	-11.4045
▁élev	-11.406
▁chanceux	-11.4063
▁confront	-11.407
▁accéléré	-11.4082
▁inconnue	-11.4097
▁éloigner	-11.4109
▁ingéni	-11.4131
80	-11.4137
▁réside	-11.4139
▁convi	-11.4152
▁Ouganda	-11.4153
▁apparition	-11.4153
▁attentivement	-11.4153
▁dilemme	-11.4153
▁esclave	-11.4153
▁inquiet	-11.4153
▁intermédiaire	-11.4153
▁seringue	-11.4153
▁appuie	-11.4153
▁primate	-11.4153
▁assuré	-11.4153
▁amitié	-11.4153
▁bloque	-11.4153
▁expose	-11.4153
▁indépendance	-11.4153
▁dispers	-11.4153
▁assembl	-11.4153
▁proviennent	-11.4154
▁interdit	-11.4155
▁diront	-11.4155
▁distribué	-11.4155
▁Gates	-11.4157
▁éclairage	-11.4157
estimé	-11.4158
▁documentaire	-11.4159
▁citer	-11.4162
▁activé	-11.4167
▁Norma	-11.4169
▁surveiller	-11.4172
▁Jack	-11.4178
oran	-11.4178
▁méga	-11.4181
▁chair	-11.4181
▁deviner	-11.4185
▁croyait	-11.4186
▁survol	-11.4195
▁plier	-11.4197
▁allume	-11.42
bras	-11.421
▁cherchent	-11.4212
▁dirai	-11.4221
▁employé	-11.4236
▁constat	-11.4237
▁connecte	-11.4238
▁remercier	-11.4243
▁transmett	-11.4254
▁examiné	-11.4263
▁chercheur	-11.4284
vrier	-11.4298
▁entraîné	-11.4307
ink	-11.4309
▁sincère	-11.4312
▁Revenons	-11.4312
▁ambitieu	-11.4312
▁astronomi	-11.4312
▁athlète	-11.4312
▁dommage	-11.4312
▁origami	-11.4312
▁réutilis	-11.4312
▁vibration	-11.4312
▁entropie	-11.4312
▁fluide	-11.4312
▁éprouv	-11.4312
▁efface	-11.4312
▁Révolution	-11.4312
▁Pays	-11.4312
▁assey	-11.4313
▁comète	-11.4313
▁protest	-11.4313
▁hydro	-11.4313
▁Coca	-11.4315
▁serviette	-11.4316
▁Peter	-11.4317
▁mouton	-11.4319
▁handicapé	-11.4321
▁mentor	-11.4321
▁gravi	-11.4322
▁encre	-11.4323
▁Jane	-11.4323
▁Bob	-11.4325
▁extension	-11.4325
▁fit	-11.4327
▁Mère	-11.4328
▁modifi	-11.4331
nnes	-11.4333
▁grossi	-11.4335
▁qualifié	-11.434
▁empêch	-11.435
▁fonctionné	-11.4351
▁matrice	-11.4358
▁caus	-11.4364
▁photographié	-11.4373
▁puit	-11.4376
▁répondent	-11.4386
RB	-11.4402
▁subir	-11.4409
riole	-11.4411
manda	-11.4412
▁retrouv	-11.4429
▁commis	-11.4442
▁abatt	-11.4463
▁européen	-11.4469
diffusion	-11.4473
▁actualité	-11.4473
▁communautaire	-11.4473
▁emmène	-11.4473
▁interactif	-11.4473
▁nutriments	-11.4473
▁planétaire	-11.4473
▁poignée	-11.4473
▁trottoir	-11.4473
▁éventail	-11.4473
▁pompier	-11.4473
▁adéquat	-11.4473
▁opposition	-11.4473
▁Green	-11.4473
▁vapeur	-11.4473
pouvant	-11.4474
▁Salut	-11.4475
▁2050	-11.4477
▁étal	-11.4478
▁vendredi	-11.4479
▁néan	-11.4479
▁aspiration	-11.4484
▁Brun	-11.4485
▁détection	-11.4489
▁collaborateur	-11.4493
▁masque	-11.4501
▁distinguer	-11.4505
▁Ford	-11.4506
▁fertil	-11.4507
▁connaissait	-11.4514
▁concerné	-11.4516
▁Christ	-11.4523
▁augmentent	-11.4531
▁récolter	-11.4547
way	-11.4549
▁gère	-11.4562
▁Wall	-11.4565
▁fusionn	-11.457
astro	-11.4571
▁systématique	-11.4576
ancé	-11.4592
▁silencieu	-11.4631
▁Pré	-11.4636
script	-11.4637
▁appartien	-11.4637
▁acquér	-11.4637
▁génocide	-11.4637
▁joindre	-11.4637
▁épisode	-11.4637
▁éteindr	-11.4637
▁précoce	-11.4637
▁astuce	-11.4637
▁failli	-11.4637
▁meuble	-11.4637
▁taxi	-11.4637
▁interroge	-11.4637
▁greffe	-11.4637
▁garage	-11.4638
▁pente	-11.464
▁Eric	-11.464
ciel	-11.4647
▁Eco	-11.4649
▁Ku	-11.4651
▁réalisateur	-11.4654
▁octo	-11.4655
▁inventeur	-11.4662
parents	-11.4677
▁vendeur	-11.4678
▁rocher	-11.4684
prime	-11.4691
▁pleu	-11.4693
▁survivant	-11.4693
▁éloigne	-11.4719
▁travaillez	-11.472
▁adopt	-11.4726
igna	-11.474
pper	-11.4743
▁tendre	-11.4751
igue	-11.4762
▁deviendra	-11.4764
▁publi	-11.4767
▁193	-11.4778
▁85	-11.4779
▁sculpt	-11.4802
▁étonnam	-11.4803
▁émerveill	-11.4803
▁Floride	-11.4803
▁Pouvons	-11.4803
▁Suisse	-11.4803
▁atomique	-11.4803
▁authentique	-11.4803
▁chrétien	-11.4803
▁commerciaux	-11.4803
▁divertissement	-11.4803
▁glamour	-11.4803
▁membrane	-11.4803
▁répète	-11.4803
▁signature	-11.4803
▁méduse	-11.4803
▁pouce	-11.4804
▁ressens	-11.4804
▁Central	-11.4804
▁vieilliss	-11.4804
▁écologie	-11.4804
▁écoule	-11.4805
▁descendant	-11.4806
▁grec	-11.4806
▁marchait	-11.4816
▁obs	-11.482
▁Voil	-11.4825
▁attaqué	-11.4825
▁nourrit	-11.4827
logie	-11.4832
▁Long	-11.4835
▁perdez	-11.4837
▁habitant	-11.4845
▁Parle	-11.4845
▁attendu	-11.4852
▁serions	-11.4861
▁parcouri	-11.4895
▁dessiné	-11.4905
voyaient	-11.4931
▁Lors	-11.4932
▁panne	-11.494
▁souven	-11.4948
▁fruit	-11.4951
▁processeur	-11.4955
▁occident	-11.4968
▁cosmo	-11.4969
▁Virgin	-11.4973
▁délicat	-11.4973
▁grenouille	-11.4973
▁nécessité	-11.4973
▁obsession	-11.4973
▁pathogène	-11.4973
▁provoqué	-11.4973
▁prévisible	-11.4973
▁sceptique	-11.4973
▁sévère	-11.4973
▁Smith	-11.4973
▁creuser	-11.4973
▁triangle	-11.4973
▁sèche	-11.4973
▁Disney	-11.4973
▁externe	-11.4973
▁tronc	-11.4973
▁Moore	-11.4973
▁afro	-11.4973
▁Parlons	-11.4974
▁balay	-11.4974
▁aérienne	-11.4975
▁pôle	-11.4975
▁rajout	-11.4976
▁flottant	-11.4976
▁siffle	-11.4976
▁sensibilité	-11.4977
▁adaptation	-11.4986
▁résident	-11.4988
▁loup	-11.4989
▁grandissent	-11.499
▁lésion	-11.4995
▁coton	-11.5
▁combiner	-11.5003
▁Arm	-11.5015
▁résist	-11.5019
▁consommer	-11.5035
sentent	-11.5035
▁Matt	-11.5039
▁rouler	-11.5045
▁déten	-11.5057
▁assoi	-11.5067
▁définiss	-11.5074
▁malin	-11.5076
viendrait	-11.508
▁enveloppe	-11.5082
▁donnai	-11.5084
▁55	-11.5084
métr	-11.5093
▁enregistr	-11.5103
▁rappelé	-11.5114
▁marqueur	-11.5114
Bay	-11.5116
▁internationa	-11.5118
▁Kh	-11.5122
▁psycho	-11.513
▁insecte	-11.5131
fli	-11.5137
▁associe	-11.514
▁accélère	-11.5145
▁briève	-11.5145
▁diagnostique	-11.5145
▁diplomati	-11.5145
▁hormone	-11.5145
▁imiter	-11.5145
▁minorité	-11.5145
▁spontané	-11.5145
▁synthétique	-11.5145
▁thermique	-11.5145
▁embryon	-11.5145
▁galerie	-11.5145
▁municipal	-11.5145
▁renverse	-11.5145
▁pilule	-11.5145
▁recouvr	-11.5145
▁coloré	-11.5146
▁géographique	-11.5146
▁Archi	-11.5146
▁traduction	-11.5146
▁fixé	-11.5146
▁prédit	-11.5147
▁chapeau	-11.5148
▁médiatique	-11.5148
▁Hong	-11.5148
▁féministe	-11.5149
▁viral	-11.5151
nny	-11.5151
▁flot	-11.5154
▁Center	-11.5156
▁Gore	-11.5157
▁mortel	-11.5157
▁orientation	-11.5158
▁Bell	-11.5159
▁désespérément	-11.5171
▁illustrer	-11.5175
▁cherchez	-11.5176
▁clic	-11.5179
în	-11.5181
▁fournisseur	-11.5183
▁bac	-11.5183
▁souhaitez	-11.5189
▁Egypt	-11.5193
▁mondia	-11.5196
▁feux	-11.5201
mbe	-11.521
▁Pat	-11.5243
▁Van	-11.5248
BI	-11.526
well	-11.5264
viennent	-11.528
▁applaudi	-11.5296
▁précéd	-11.5304
▁hôte	-11.5309
▁command	-11.5312
▁2,5	-11.5321
▁approfondi	-11.5321
▁ascenseur	-11.5321
▁contribué	-11.5321
▁déforestation	-11.5321
▁endommagé	-11.5321
▁interrupteur	-11.5321
▁souligner	-11.5321
▁syndrome	-11.5321
▁épreuve	-11.5321
▁division	-11.5321
▁repenser	-11.5321
▁tweet	-11.5321
▁Désolé	-11.5321
▁Golf	-11.5321
▁demandons	-11.5321
▁piéton	-11.5321
▁délicieu	-11.5321
▁monnaie	-11.5321
▁réclam	-11.5321
▁baissé	-11.5321
▁exagér	-11.5321
▁polaire	-11.5322
▁renseignement	-11.5322
▁réveillé	-11.5322
▁dédié	-11.5323
▁bassin	-11.5323
▁comprenai	-11.5327
▁mobilis	-11.5328
▁influe	-11.5329
▁rétro	-11.5331
▁bosse	-11.5333
▁oubliez	-11.5334
▁remarquez	-11.5335
▁Eu	-11.5342
▁exploser	-11.5345
▁meurtre	-11.535
▁assistant	-11.535
▁clou	-11.5359
▁durer	-11.5374
▁apportent	-11.5375
▁insulin	-11.5378
▁innocent	-11.5378
moins	-11.5386
▁import	-11.5389
▁3000	-11.5402
▁homosexuel	-11.5411
▁fondamenta	-11.5423
tendu	-11.543
atitude	-11.543
▁lég	-11.5433
▁Sara	-11.5436
nombr	-11.5452
venue	-11.5455
▁évolu	-11.5458
▁inviter	-11.5467
▁utilisai	-11.547
▁opéra	-11.5494
▁Amazon	-11.5497
▁trembl	-11.5497
▁guider	-11.5497
naître	-11.5499
▁éternelle	-11.5499
▁International	-11.5499
▁Parkinson	-11.5499
▁ambition	-11.5499
▁astronome	-11.5499
▁bénéfique	-11.5499
▁calorie	-11.5499
▁capturé	-11.5499
▁diagnostiqué	-11.5499
▁démarré	-11.5499
▁embarqu	-11.5499
▁fromage	-11.5499
▁indicateur	-11.5499
▁intersection	-11.5499
▁paradoxe	-11.5499
▁tsunami	-11.5499
▁tuberculose	-11.5499
▁voyagé	-11.5499
▁fraction	-11.5499
▁intimité	-11.5499
▁physiologi	-11.5499
▁Derek	-11.5499
▁parachut	-11.5499
▁redéfini	-11.5499
▁Sky	-11.5499
▁inquiétude	-11.5499
▁Brown	-11.5499
▁rayonnement	-11.5499
▁motivé	-11.55
▁marchandise	-11.55
▁promis	-11.55
▁achat	-11.55
▁avanç	-11.55
▁notam	-11.5501
▁dépose	-11.5503
ish	-11.5503
sky	-11.5504
▁caca	-11.5504
▁Tel	-11.5506
▁respiration	-11.5507
▁feriez	-11.5511
▁intégration	-11.5513
▁conservation	-11.5514
▁courageux	-11.5514
▁banal	-11.5514
▁29	-11.5515
▁Bat	-11.5515
▁anneau	-11.5516
▁continuelle	-11.5519
▁serveur	-11.5521
▁West	-11.5525
▁marge	-11.5526
▁bénéficier	-11.5529
▁impatient	-11.5532
▁centré	-11.5533
▁Vol	-11.5534
▁ouvrier	-11.5539
▁inspir	-11.555
cellulaire	-11.5553
considérons	-11.5555
▁ressentent	-11.5556
▁boue	-11.5567
▁créez	-11.5585
▁émerger	-11.5593
▁cibl	-11.5611
▁augment	-11.5634
▁II	-11.5645
▁tromper	-11.5663
▁échappe	-11.5663
ocyto	-11.5681
▁Scott	-11.5681
▁addition	-11.5681
▁corrélation	-11.5681
▁mammographie	-11.5681
▁paralysé	-11.5681
▁stratégique	-11.5681
▁théorique	-11.5681
▁visualisation	-11.5681
▁éditeur	-11.5681
▁décédé	-11.5681
shirt	-11.5681
▁souffrir	-11.5681
▁joyeu	-11.5682
▁sexy	-11.5682
▁heurt	-11.5683
▁divin	-11.5684
▁Syrie	-11.5688
▁suggérer	-11.5689
vasculaire	-11.5696
▁préparation	-11.5696
▁expérimentation	-11.5697
▁visité	-11.5699
▁Hel	-11.57
▁prédis	-11.5714
▁clique	-11.5715
▁Russe	-11.5719
▁usée	-11.5721
▁barbe	-11.5721
▁ressembl	-11.5751
gouvern	-11.5796
▁étendu	-11.5797
▁briser	-11.5803
▁Tha	-11.5803
▁mortelle	-11.5807
▁spécia	-11.5856
▁déploie	-11.5866
▁acoustique	-11.5866
▁bruyant	-11.5866
▁contradiction	-11.5866
▁faculté	-11.5866
▁humour	-11.5866
▁lucratif	-11.5866
▁prairie	-11.5866
▁rembours	-11.5866
▁sandwich	-11.5866
▁secrète	-11.5866
▁souple	-11.5866
▁traumatisme	-11.5866
▁diamètre	-11.5866
▁Savez	-11.5866
▁Droit	-11.5866
▁inscrit	-11.5867
▁détruis	-11.5867
▁impuissan	-11.5867
▁performant	-11.5867
▁autonomi	-11.5867
▁digne	-11.5868
▁intensité	-11.5868
▁bancaire	-11.5868
▁plomb	-11.5868
▁binaire	-11.5869
▁affichage	-11.587
▁expertise	-11.587
▁reviennent	-11.5871
▁européenne	-11.5871
▁modeste	-11.5871
▁Rock	-11.5875
▁voile	-11.5879
▁Steven	-11.588
ustin	-11.588
AR	-11.588
▁grimper	-11.5893
▁expérimenter	-11.591
▁rempliss	-11.5913
▁subit	-11.5932
ographie	-11.5935
▁suppos	-11.595
▁tribuna	-11.5952
heure	-11.5963
▁produir	-11.5972
▁cartographie	-11.6011
▁obten	-11.6017
▁42	-11.6027
émen	-11.6045
▁minu	-11.6051
▁bénévol	-11.6055
▁diarrhée	-11.6055
▁embarras	-11.6055
▁embouteillage	-11.6055
▁fabricant	-11.6055
▁falaise	-11.6055
▁improbable	-11.6055
▁pandémie	-11.6055
▁problématique	-11.6055
▁robuste	-11.6055
▁texture	-11.6055
▁LED	-11.6055
▁bonobo	-11.6055
▁rattrap	-11.6055
▁risqué	-11.6055
▁audition	-11.6055
▁pneu	-11.6055
▁Enfant	-11.6056
▁maquette	-11.6056
▁obtiendr	-11.6056
▁parfum	-11.6056
▁renonc	-11.6056
▁Brian	-11.6056
▁Nick	-11.6057
ligné	-11.6057
▁Numér	-11.6057
▁Papa	-11.6058
▁tortue	-11.6059
▁célébrité	-11.606
▁alerte	-11.6061
▁cerf	-11.6062
▁éclairé	-11.6066
voyant	-11.6073
▁diraient	-11.6076
▁économiste	-11.6078
▁blé	-11.6084
▁emporter	-11.6087
▁Ray	-11.6097
▁luxe	-11.6102
▁Faire	-11.6105
▁contienne	-11.6107
▁Clint	-11.6114
Q	-11.612
nçant	-11.6131
version	-11.6134
▁parvenu	-11.6135
▁donn	-11.6152
▁entrai	-11.6162
▁explosé	-11.6162
libération	-11.6169
▁Kev	-11.6189
▁Bibl	-11.6193
gypt	-11.6197
▁intellectuel	-11.6211
▁Noir	-11.6211
▁ES	-11.6221
acco	-11.6225
ébrouill	-11.6241
▁1,5	-11.6247
▁2015	-11.6247
▁Shangha	-11.6247
▁frustré	-11.6247
▁horloge	-11.6247
▁perçoi	-11.6247
▁protocellule	-11.6247
▁Blanche	-11.6247
▁approuv	-11.6247
▁chôm	-11.6247
▁Venez	-11.6247
▁cliché	-11.6247
▁dimanche	-11.6247
▁échouer	-11.6247
▁prostate	-11.6247
▁Whit	-11.6248
ncidence	-11.6248
▁gratte	-11.6248
nstruct	-11.6248
▁baby	-11.6248
▁cinquant	-11.6248
▁chéri	-11.6248
▁permission	-11.6249
quiert	-11.625
uther	-11.625
▁solitaire	-11.625
▁balance	-11.6251
▁Hawa	-11.6251
▁libère	-11.6252
▁adoption	-11.6252
▁fiche	-11.6258
▁opérateur	-11.6259
▁malari	-11.6261
▁expuls	-11.6261
▁pratiqu	-11.6262
▁entretien	-11.6263
▁intervenir	-11.6265
▁chauffeur	-11.6268
pile	-11.6272
▁Réce	-11.6275
▁doublé	-11.6276
▁épine	-11.6279
▁hésit	-11.628
▁gouvernementale	-11.6284
▁occidental	-11.6291
▁192	-11.6294
oléra	-11.6295
▁narrati	-11.6307
▁analysé	-11.6307
▁5000	-11.6312
chose	-11.6321
▁discuté	-11.6335
▁fume	-11.635
▁chanteur	-11.6353
vril	-11.6358
▁envisage	-11.6363
uillet	-11.6366
▁effray	-11.6367
▁Jamai	-11.6393
▁connection	-11.6398
▁amuse	-11.6402
▁restai	-11.6407
▁inquiétant	-11.6416
▁Regarde	-11.6436
▁mile	-11.6439
▁temporaire	-11.6443
▁astronaute	-11.6443
▁cancéreuse	-11.6443
▁chemise	-11.6443
▁déprimé	-11.6443
▁geek	-11.6443
▁inconscient	-11.6443
▁introduir	-11.6443
▁logistique	-11.6443
▁pensiez	-11.6443
▁poubelle	-11.6443
▁recouvert	-11.6443
▁remplacé	-11.6443
▁royaume	-11.6443
▁smartphone	-11.6443
▁synthétis	-11.6443
▁équipé	-11.6443
▁fichier	-11.6443
▁week	-11.6443
▁monsieur	-11.6443
▁sanitaire	-11.6443
▁rétine	-11.6444
▁horizontal	-11.6444
▁collège	-11.6444
▁modification	-11.6444
▁objective	-11.6444
▁Arcti	-11.6444
▁Shake	-11.6445
èbre	-11.6446
▁verbe	-11.6446
▁hurl	-11.6448
▁allié	-11.6451
▁élémentaire	-11.6452
phys	-11.6456
▁affirmation	-11.6458
▁recommencer	-11.6462
▁résister	-11.6464
▁dévoil	-11.6467
▁affre	-11.6468
▁cuisin	-11.6471
▁suivez	-11.6472
▁Hall	-11.6476
▁libér	-11.6481
▁coûteuse	-11.6493
▁suggéré	-11.6499
amie	-11.652
▁gain	-11.653
▁Berli	-11.6537
▁gardé	-11.654
▁Hill	-11.6549
▁mineur	-11.6552
▁programmé	-11.6556
▁Pai	-11.6589
▁associ	-11.6595
▁accompagné	-11.6616
▁recommenc	-11.6624
▁banc	-11.6642
▁accouple	-11.6643
▁Indonésie	-11.6643
▁discrimination	-11.6643
▁fidèle	-11.6643
▁gêne	-11.6643
▁iPod	-11.6643
▁iceberg	-11.6643
▁idéologie	-11.6643
▁injuste	-11.6643
▁intègre	-11.6643
▁officier	-11.6643
▁Andrew	-11.6643
▁Projet	-11.6643
▁endormi	-11.6643
▁craign	-11.6643
▁enfermé	-11.6643
▁arbitr	-11.6644
▁liaison	-11.6644
▁vibre	-11.6644
▁réussissent	-11.6644
▁Jésus	-11.6644
enjamin	-11.6644
saharien	-11.6644
▁avoue	-11.6644
▁terrifié	-11.6644
▁vingtaine	-11.6644
▁Troisième	-11.6644
▁ouvrière	-11.6645
▁Prince	-11.6645
▁logo	-11.6646
▁romantique	-11.6646
▁Disons	-11.6646
▁ruche	-11.6647
▁malheureu	-11.6647
▁Emma	-11.6649
▁classé	-11.6649
▁incite	-11.6653
anzanie	-11.6655
▁apprenez	-11.6658
▁composante	-11.6662
▁Newton	-11.667
▁PC	-11.6674
▁délai	-11.6691
▁cheva	-11.6697
▁admet	-11.671
nulle	-11.6722
sinon	-11.6726
▁boutique	-11.6728
▁légal	-11.6736
▁lente	-11.6748
▁récolt	-11.6756
▁Sol	-11.6761
oix	-11.6761
nsas	-11.6765
▁model	-11.6782
▁plateau	-11.6835
▁accouch	-11.6848
▁cohérent	-11.6848
▁concrète	-11.6848
▁délibéré	-11.6848
▁raffin	-11.6848
pprovisionnement	-11.6848
▁Bangladesh	-11.6848
▁Monsieur	-11.6848
▁Singapour	-11.6848
▁anecdote	-11.6848
▁chèvre	-11.6848
▁cigarette	-11.6848
▁cognitif	-11.6848
▁consacré	-11.6848
▁dopamine	-11.6848
▁encouragé	-11.6848
▁enzyme	-11.6848
▁gribouill	-11.6848
▁gâteau	-11.6848
▁philanthropi	-11.6848
▁primitive	-11.6848
▁périphéri	-11.6848
▁reportage	-11.6848
▁émergé	-11.6848
▁compress	-11.6848
▁engendre	-11.6848
▁rotation	-11.6848
▁transaction	-11.6848
▁fumée	-11.6848
▁hygi	-11.6848
▁naviguer	-11.6848
▁plaint	-11.6848
▁recrée	-11.6848
▁réplique	-11.6848
▁juif	-11.6848
▁prolong	-11.6848
▁raisonnement	-11.6848
▁Petit	-11.6848
▁rentable	-11.6848
concili	-11.6849
▁Tony	-11.6849
▁Albert	-11.6849
▁adoré	-11.6849
duction	-11.6851
▁Josh	-11.6851
▁souvienne	-11.6851
▁découle	-11.6852
▁doux	-11.6852
▁grossesse	-11.6854
▁panique	-11.6855
▁ordonn	-11.6859
▁artère	-11.6863
▁manage	-11.6865
▁natal	-11.6877
biotique	-11.688
▁hérit	-11.6897
activité	-11.6936
▁Monde	-11.6951
▁échapp	-11.6963
étail	-11.6966
▁brûlé	-11.6986
ku	-11.6992
lisent	-11.701
épit	-11.7029
▁douloureu	-11.7046
▁délivr	-11.7056
▁Fondation	-11.7056
▁attribut	-11.7056
▁banquier	-11.7056
▁configuration	-11.7056
▁conçoi	-11.7056
▁cosmique	-11.7056
▁cylindre	-11.7056
▁cérémonie	-11.7056
▁prononcé	-11.7056
▁relâche	-11.7056
▁résilien	-11.7056
▁souterrain	-11.7056
▁témoignage	-11.7056
▁texto	-11.7056
▁attentif	-11.7056
▁contraste	-11.7056
▁crayon	-11.7056
▁jalous	-11.7056
▁strict	-11.7056
▁marrant	-11.7056
▁hausse	-11.7056
▁neurologique	-11.7056
▁audacieu	-11.7056
▁italien	-11.7056
▁Conseil	-11.7056
▁flou	-11.7056
▁pénible	-11.7057
▁cloche	-11.7057
▁Titan	-11.7057
▁diriez	-11.7057
▁automn	-11.7058
▁jongl	-11.7061
▁immobilier	-11.7063
▁mentionner	-11.7065
▁repli	-11.7067
ctuellement	-11.7068
▁illustration	-11.7068
▁permettrait	-11.707
▁sensorielle	-11.7072
▁comparable	-11.7076
▁lutt	-11.7094
▁Souven	-11.7102
▁attrapé	-11.7105
▁mentir	-11.7108
prés	-11.7116
▁botte	-11.7119
jou	-11.7141
▁baril	-11.7156
▁cogn	-11.717
orth	-11.7184
olaire	-11.7186
▁reviendrai	-11.7202
▁admis	-11.7202
▁releve	-11.7207
▁dira	-11.7214
▁attaqu	-11.7223
▁massif	-11.7266
▁hypoth	-11.7269
▁Rappelez	-11.7269
▁Jupiter	-11.7269
▁anatomi	-11.7269
▁anxiété	-11.7269
▁argile	-11.7269
▁différenci	-11.7269
▁espagnol	-11.7269
▁familière	-11.7269
▁fardeau	-11.7269
▁horreur	-11.7269
▁hybride	-11.7269
▁hémisphère	-11.7269
▁module	-11.7269
▁mélangé	-11.7269
▁perfection	-11.7269
▁productive	-11.7269
▁soupçon	-11.7269
▁technicien	-11.7269
▁éduqué	-11.7269
▁électeur	-11.7269
▁chirurgica	-11.7269
▁humeur	-11.7269
▁interromp	-11.7269
▁épanoui	-11.7269
▁polaris	-11.7269
▁superficie	-11.7269
▁Trouv	-11.7269
▁désordre	-11.7269
▁Arabe	-11.7269
▁déposé	-11.7269
▁prospère	-11.7269
▁criminali	-11.7269
▁veille	-11.7269
▁épinière	-11.7269
▁métabolisme	-11.7269
▁Ethiopie	-11.727
▁demeure	-11.7272
▁exprimé	-11.7273
▁manipulation	-11.7279
▁croqu	-11.7284
oxy	-11.7284
▁44	-11.7287
uire	-11.7297
▁Hom	-11.7314
▁taba	-11.7317
connaitre	-11.734
▁immédiat	-11.7345
oudre	-11.74
poussent	-11.7409
▁analys	-11.7439
▁amélior	-11.7475
▁human	-11.7484
viendront	-11.7484
▁émis	-11.7486
▁Argentine	-11.7486
▁Attendez	-11.7486
▁Français	-11.7486
▁Vietnam	-11.7486
▁absurde	-11.7486
▁adolescence	-11.7486
▁album	-11.7486
▁disparition	-11.7486
▁festival	-11.7486
▁géométrie	-11.7486
▁incident	-11.7486
▁lèvre	-11.7486
▁millimètre	-11.7486
▁pantalon	-11.7486
▁prudent	-11.7486
▁rétréci	-11.7486
▁toxine	-11.7486
▁vétéran	-11.7486
▁America	-11.7486
▁chimiste	-11.7486
▁croyant	-11.7486
▁dramatique	-11.7486
▁démarche	-11.7486
▁guidé	-11.7486
▁intact	-11.7486
▁réparation	-11.7486
▁Black	-11.7486
▁Groen	-11.7486
▁temple	-11.7486
▁choqué	-11.7486
▁cristal	-11.7486
▁paramètre	-11.7486
▁soupe	-11.7486
▁légitim	-11.7486
▁censure	-11.7486
▁essor	-11.7487
▁effectu	-11.7487
▁préférence	-11.7487
▁voudriez	-11.7491
▁Souvenez	-11.7493
▁autorise	-11.7494
▁considérez	-11.7501
▁TV	-11.7503
▁distinction	-11.7503
▁fière	-11.7506
▁progression	-11.7516
▁révél	-11.7548
chemin	-11.7588
▁armé	-11.7606
ize	-11.7613
▁saura	-11.7621
▁fui	-11.7627
▁officiel	-11.7639
TI	-11.7644
▁affront	-11.7691
▁débarras	-11.7708
▁tolér	-11.7708
▁soigneuse	-11.7708
▁substitut	-11.7708
▁Mandela	-11.7708
▁croître	-11.7708
▁célibataire	-11.7708
▁frappant	-11.7708
▁frustration	-11.7708
▁mosquée	-11.7708
▁obèse	-11.7708
▁phénoménal	-11.7708
▁promotion	-11.7708
▁puzzle	-11.7708
▁tangible	-11.7708
▁transistor	-11.7708
▁utilité	-11.7708
▁définitive	-11.7708
▁flash	-11.7708
▁stylo	-11.7708
▁séquoia	-11.7708
▁pixel	-11.7708
▁soulage	-11.7708
▁combler	-11.7708
▁consensu	-11.7708
▁orteil	-11.7708
▁détaillée	-11.7708
▁infiltr	-11.7709
spear	-11.7709
▁marron	-11.7709
▁rock	-11.7709
▁asthm	-11.7709
▁posai	-11.7709
▁bijou	-11.771
▁déficit	-11.771
▁éolienne	-11.771
naissent	-11.7712
▁balade	-11.7712
▁tenant	-11.7712
▁prière	-11.7714
phie	-11.7717
▁tache	-11.7721
▁fouille	-11.7726
▁chameau	-11.7733
uisson	-11.7748
incol	-11.7752
Hey	-11.7795
▁orateur	-11.7799
▁Inter	-11.7801
terrestre	-11.7807
▁ratio	-11.7823
13	-11.7834
▁1900	-11.7866
▁350	-11.787
▁éga	-11.7899
▁appli	-11.7903
▁Barb	-11.7912
▁gare	-11.7913
▁remarqu	-11.7914
graphique	-11.7915
rado	-11.7921
▁foot	-11.7935
▁Anglais	-11.7936
▁CRISPR	-11.7936
▁Suppos	-11.7936
▁accessoire	-11.7936
▁cauchemar	-11.7936
▁certitude	-11.7936
▁embrasser	-11.7936
▁gentillesse	-11.7936
▁léopard	-11.7936
▁manuscrit	-11.7936
▁pacifique	-11.7936
▁pionnier	-11.7936
▁primordial	-11.7936
▁réconfort	-11.7936
▁symbolique	-11.7936
▁timide	-11.7936
▁urgent	-11.7936
▁émeute	-11.7936
▁évapor	-11.7936
▁Apollo	-11.7936
▁Indus	-11.7936
▁Watson	-11.7936
▁corporel	-11.7936
▁militant	-11.7936
▁rigide	-11.7936
▁ARN	-11.7936
▁simultané	-11.7936
▁spécul	-11.7936
▁adhér	-11.7936
▁centimes	-11.7936
▁marchant	-11.7936
▁alumin	-11.7936
▁automatis	-11.7936
▁Charli	-11.7936
▁intéressai	-11.7936
▁statique	-11.7936
▁diminution	-11.7936
▁osseuse	-11.7936
▁job	-11.7936
▁minéra	-11.7936
▁réservoir	-11.7937
plex	-11.7937
▁Mike	-11.7938
▁Jones	-11.7938
▁Amazonie	-11.7938
▁hanche	-11.7939
▁Henr	-11.794
▁planifier	-11.794
▁tapir	-11.7941
▁temporel	-11.7941
▁germe	-11.7942
▁autiste	-11.7943
▁Brad	-11.7944
▁enterre	-11.7944
▁douloureuse	-11.7947
▁nerveuse	-11.7955
▁valid	-11.7957
▁cartographi	-11.7989
RI	-11.8023
tête	-11.804
▁exprim	-11.8051
▁constant	-11.8063
▁prouve	-11.8073
▁émergen	-11.8076
▁enfui	-11.8123
▁900	-11.8144
étroit	-11.8164
▁Absolu	-11.8168
▁Nigéria	-11.8168
▁Observ	-11.8168
▁Taliban	-11.8168
▁abondant	-11.8168
▁alentour	-11.8168
▁assassin	-11.8168
▁assiette	-11.8168
▁bambou	-11.8168
▁camarade	-11.8168
▁capitaine	-11.8168
▁chimiothérapie	-11.8168
▁diffuser	-11.8168
▁digitale	-11.8168
▁fantôme	-11.8168
▁gloire	-11.8168
▁hiérarchie	-11.8168
▁interrogé	-11.8168
▁mélodie	-11.8168
▁néglige	-11.8168
▁oblige	-11.8168
▁pesticide	-11.8168
▁poignet	-11.8168
▁reconstruction	-11.8168
▁transfert	-11.8168
▁Wikipedi	-11.8168
▁chouette	-11.8168
▁Seatt	-11.8168
▁infime	-11.8168
▁carotte	-11.8168
▁extraterrestre	-11.8168
▁traîne	-11.8168
▁altér	-11.8169
▁partisan	-11.8169
▁facture	-11.8169
rizon	-11.8169
▁enterré	-11.817
▁dixième	-11.817
▁flor	-11.817
▁monument	-11.817
▁jugé	-11.8171
▁captiv	-11.8171
▁exalt	-11.8172
▁élevage	-11.8172
▁Colle	-11.8173
▁96	-11.8174
▁fabuleuse	-11.8176
ogène	-11.8181
▁South	-11.8183
▁soud	-11.819
▁générique	-11.8196
viv	-11.8198
▁paroi	-11.8205
▁injection	-11.8218
▁techno	-11.8266
EC	-11.8273
▁oublierai	-11.8273
▁réveil	-11.8273
▁gardien	-11.8338
▁buv	-11.8356
▁procéd	-11.8363
▁reconnait	-11.8368
▁désespéré	-11.8371
▁manipule	-11.8377
▁prenne	-11.8402
▁recueil	-11.8403
▁éradi	-11.8406
vraisemblable	-11.8406
▁humble	-11.8406
▁Brooklyn	-11.8406
▁Stephen	-11.8406
▁allongé	-11.8406
▁atténu	-11.8406
▁compagnon	-11.8406
▁domicile	-11.8406
▁détaché	-11.8406
▁fractur	-11.8406
▁inefficace	-11.8406
▁intitule	-11.8406
▁olympique	-11.8406
▁protocole	-11.8406
▁recyclage	-11.8406
▁reflet	-11.8406
▁registre	-11.8406
▁règne	-11.8406
▁slogan	-11.8406
▁bloqué	-11.8406
▁Irland	-11.8406
▁courrier	-11.8406
▁accroché	-11.8406
▁détache	-11.8406
▁Donnez	-11.8407
▁ménage	-11.8407
▁vocale	-11.8408
▁mandat	-11.8408
▁élan	-11.8409
▁repren	-11.8414
▁faiblesse	-11.8417
▁baie	-11.8418
anyon	-11.8422
▁intér	-11.8423
▁coca	-11.8428
▁doté	-11.8452
▁programm	-11.8456
▁sélectionné	-11.8462
▁190	-11.849
▁constitu	-11.8491
olly	-11.8507
▁brise	-11.8513
ologiste	-11.8518
▁130	-11.8539
▁impliqu	-11.8565
▁fascin	-11.8603
▁numéris	-11.865
eographic	-11.865
▁2014	-11.865
▁Messieurs	-11.865
▁Océan	-11.865
▁Olympique	-11.865
▁fatigué	-11.865
▁favorable	-11.865
▁hommage	-11.865
▁incitation	-11.865
▁microbienne	-11.865
▁polluant	-11.865
▁séjour	-11.865
▁tatouage	-11.865
▁thermo	-11.865
▁édition	-11.865
▁épaisseur	-11.865
▁étudions	-11.865
▁Soudain	-11.865
▁faciale	-11.865
▁hétéro	-11.865
▁noble	-11.865
▁étonné	-11.865
▁missile	-11.865
▁ordure	-11.865
éduire	-11.865
▁crabe	-11.865
▁Narrat	-11.8651
▁présume	-11.8651
encontre	-11.8651
▁connectome	-11.8651
▁jumeau	-11.8651
▁devenons	-11.8651
▁originaire	-11.8652
▁parlions	-11.8652
▁neutre	-11.8652
▁tracé	-11.8653
▁ruine	-11.866
▁Atlant	-11.8673
▁fonctionnelle	-11.8682
▁démoli	-11.8683
▁carreau	-11.8688
semblant	-11.8709
dresser	-11.8709
▁devien	-11.8715
roll	-11.8718
escence	-11.8724
lusieurs	-11.8733
▁conform	-11.8739
▁détenu	-11.8747
▁troupeau	-11.8796
bourg	-11.8815
▁habituel	-11.8819
▁narrat	-11.8826
corn	-11.883
▁commercialis	-11.8833
▁reconnaît	-11.8875
▁fabuleu	-11.8892
▁tempo	-11.8895
▁caractéris	-11.8899
▁éventuelle	-11.89
▁Femme	-11.89
▁ambassade	-11.89
▁controversé	-11.89
▁déchiffr	-11.89
▁empoisonn	-11.89
▁historien	-11.89
▁introduction	-11.89
▁ironie	-11.89
▁ironique	-11.89
▁judiciaire	-11.89
▁margina	-11.89
▁migraine	-11.89
▁migration	-11.89
▁remédier	-11.89
▁sécheresse	-11.89
▁vitamine	-11.89
▁vulnérabilité	-11.89
▁banane	-11.89
▁inaugur	-11.89
▁résonance	-11.89
▁Bronx	-11.89
▁allonge	-11.89
▁pigeon	-11.89
▁tigre	-11.89
▁estomac	-11.89
▁transfére	-11.89
▁hallucinations	-11.89
▁engrais	-11.89
▁étudiai	-11.89
▁bascule	-11.89
▁respiratoire	-11.89
probation	-11.8901
▁excè	-11.8901
▁conventionnelle	-11.8901
▁modér	-11.8901
▁Nike	-11.8901
▁tripl	-11.8903
▁segment	-11.8904
▁anéanti	-11.8905
▁disparaît	-11.8906
▁fortune	-11.8906
▁silencieuse	-11.891
▁donateur	-11.8913
▁Cyr	-11.8921
▁Rand	-11.8926
▁condamn	-11.893
▁filtr	-11.8953
▁ressortir	-11.8979
volant	-11.898
▁confond	-11.9056
▁oct	-11.9092
▁entraîn	-11.9114
▁doré	-11.914
▁relativ	-11.9144
dimensionnel	-11.9152
▁Premi	-11.9156
▁complément	-11.9156
▁nutrition	-11.9156
▁recyclé	-11.9156
▁Aristot	-11.9156
▁Ministère	-11.9156
▁Réfléchissez	-11.9156
▁calendrier	-11.9156
▁désaccord	-11.9156
▁emballage	-11.9156
▁flamme	-11.9156
▁fraude	-11.9156
▁injustice	-11.9156
▁législati	-11.9156
▁mâchoire	-11.9156
▁ouragan	-11.9156
▁primitif	-11.9156
▁province	-11.9156
▁restreint	-11.9156
▁réglementation	-11.9156
▁schizophréni	-11.9156
▁thèse	-11.9156
▁veuille	-11.9156
▁étagère	-11.9156
▁évacu	-11.9156
▁atterrissage	-11.9156
▁caillou	-11.9156
▁foncé	-11.9156
palestinien	-11.9156
▁propagande	-11.9156
Global	-11.9157
▁résolv	-11.9157
▁débit	-11.9157
▁irrig	-11.9157
▁bioluminescen	-11.9157
▁rebelle	-11.9157
▁suppl	-11.9157
▁ancré	-11.9157
▁ému	-11.9157
▁répétition	-11.9158
▁rigol	-11.9158
▁architecturale	-11.9158
▁baiser	-11.9159
▁Contrai	-11.916
▁Berk	-11.9161
▁intégrante	-11.9162
▁Change	-11.9163
▁ambigu	-11.9163
▁faille	-11.9165
▁douche	-11.9169
▁Presqu	-11.9172
burg	-11.9178
▁générateur	-11.9184
voila	-11.9247
▁intens	-11.9251
systématiquement	-11.9253
gression	-11.932
ançon	-11.9351
liquer	-11.9372
▁souten	-11.9376
fuir	-11.9381
▁reproduis	-11.9384
▁express	-11.9394
▁semblai	-11.9398
▁Reste	-11.94
▁convergen	-11.942
▁Alaska	-11.942
▁DVD	-11.942
▁Républicain	-11.942
▁biotechnologie	-11.942
▁comprimé	-11.942
▁concret	-11.942
▁corrompu	-11.942
▁détourne	-11.942
▁embauché	-11.942
▁envoyez	-11.942
▁fièvre	-11.942
▁fleuve	-11.942
▁fluorescen	-11.942
▁habillé	-11.942
▁hamburger	-11.942
▁inondation	-11.942
▁interprète	-11.942
▁justifier	-11.942
▁philosophique	-11.942
▁souvient	-11.942
▁soviétique	-11.942
▁vocabulaire	-11.942
▁équitable	-11.942
▁alarme	-11.942
▁coordinat	-11.942
▁folie	-11.942
▁sponsor	-11.942
▁Sommes	-11.942
▁Utilis	-11.942
▁aquatique	-11.942
▁cafard	-11.942
▁camera	-11.942
▁chariot	-11.942
▁scandale	-11.942
▁piscine	-11.942
▁jungle	-11.942
▁gorge	-11.942
▁contempl	-11.942
▁adorable	-11.942
▁étonne	-11.942
▁imposé	-11.942
▁levure	-11.942
▁désign	-11.942
▁Phila	-11.9421
▁orphelinat	-11.9421
▁Grec	-11.9421
▁Simple	-11.9421
▁ordonnance	-11.9421
▁poudre	-11.9421
▁éthan	-11.9422
▁lignée	-11.9422
▁viable	-11.9423
▁Gold	-11.9425
▁tabou	-11.9427
▁cosmologi	-11.9432
parleur	-11.945
▁structur	-11.9472
oyaux	-11.9524
▁relève	-11.9532
▁Harr	-11.9535
▁cueill	-11.9541
▁qualifi	-11.9568
tracte	-11.9576
▁zoo	-11.9594
▁savon	-11.9605
▁Wei	-11.9631
▁naît	-11.9687
▁reflét	-11.969
ductrice	-11.969
openha	-11.969
▁Essayons	-11.969
▁accusé	-11.969
▁alphabéti	-11.969
▁anticiper	-11.969
▁attraction	-11.969
▁concurrent	-11.969
▁contourner	-11.969
▁exemplaire	-11.969
▁extrémiste	-11.969
▁favela	-11.969
▁fractal	-11.969
▁guerrier	-11.969
▁lucioles	-11.969
▁magicien	-11.969
▁mammouth	-11.969
▁multitude	-11.969
▁placard	-11.969
▁plaign	-11.969
▁raccourci	-11.969
▁régulation	-11.969
▁synapse	-11.969
▁tambour	-11.969
▁vaincre	-11.969
▁échafaudage	-11.969
▁équité	-11.969
▁High	-11.969
▁LHC	-11.969
▁Wolf	-11.969
▁indiqué	-11.969
▁Exact	-11.969
▁existé	-11.969
▁royal	-11.969
▁symétrique	-11.969
▁tomate	-11.969
▁samedi	-11.969
▁encadr	-11.969
▁Craig	-11.969
▁débri	-11.969
▁baign	-11.969
▁exerce	-11.969
▁veine	-11.9691
▁éveillé	-11.9691
▁exigence	-11.9691
▁fonctionnalité	-11.9692
▁douz	-11.9692
▁réfrigérateur	-11.9693
▁Kong	-11.9694
▁rampe	-11.9694
▁dort	-11.9698
town	-11.9707
▁Bern	-11.9712
izz	-11.9756
▁retien	-11.976
▁évalu	-11.9762
kyo	-11.979
localisation	-11.9813
▁malheur	-11.9841
▁protége	-11.9895
▁souffrai	-11.9899
▁câbl	-11.9915
▁Compa	-11.9922
▁Luc	-11.9947
▁indépenda	-11.9953
▁Imagin	-11.9961
optimis	-11.9967
▁Croyez	-11.9968
▁high	-11.9968
▁oppress	-11.9968
▁Incroyable	-11.9968
▁Somalie	-11.9968
▁altruism	-11.9968
▁compréhensible	-11.9968
▁embête	-11.9968
▁gadget	-11.9968
▁imprévisible	-11.9968
▁indigène	-11.9968
▁israélien	-11.9968
▁libellule	-11.9968
▁maintenu	-11.9968
▁rupture	-11.9968
▁spirale	-11.9968
▁suggestion	-11.9968
▁sécurisé	-11.9968
▁indication	-11.9968
▁attentat	-11.9968
▁inflation	-11.9968
▁autorisation	-11.9968
▁résulte	-11.9968
▁Hawk	-11.9968
▁Rouge	-11.9968
▁Blue	-11.9968
▁collectivité	-11.9968
▁trente	-11.9968
▁clef	-11.9969
▁gangs	-11.9969
▁secoue	-11.9969
▁répartition	-11.9969
▁éteign	-11.9969
▁fatal	-11.9971
▁absent	-11.9971
▁valent	-11.9971
▁quinz	-11.9973
rdinateur	-11.998
rquie	-11.9984
▁empile	-11.9985
▁Mort	-11.9988
ncy	-12.0004
▁initial	-12.0005
▁explorateur	-12.0008
▁amende	-12.0026
ennis	-12.004
▁musical	-12.0064
tenons	-12.012
joutez	-12.0142
Ange	-12.0168
omparez	-12.0183
▁satur	-12.0192
▁équat	-12.0224
▁apercev	-12.0234
▁marchai	-12.0237
▁1,2	-12.0253
▁Objectif	-12.0253
▁School	-12.0253
▁Soviétique	-12.0253
▁altruiste	-12.0253
▁armure	-12.0253
▁cicatrice	-12.0253
▁contaminé	-12.0253
▁convaincant	-12.0253
▁cuivre	-12.0253
▁déclenché	-12.0253
▁décompose	-12.0253
▁démocratis	-12.0253
▁détérior	-12.0253
▁incertain	-12.0253
▁incorpore	-12.0253
▁ministère	-12.0253
▁multinationale	-12.0253
▁nanotechnologie	-12.0253
▁papillon	-12.0253
▁persuadé	-12.0253
▁pistolet	-12.0253
▁pénètre	-12.0253
▁restriction	-12.0253
▁équivaut	-12.0253
▁Alpha	-12.0253
▁charmant	-12.0253
▁courriel	-12.0253
▁épilep	-12.0253
▁choquant	-12.0253
▁détestai	-12.0253
▁exotique	-12.0253
▁bousier	-12.0253
▁absorbé	-12.0253
▁interactive	-12.0253
▁poison	-12.0254
▁éradiquer	-12.0254
▁décroch	-12.0254
▁arros	-12.0254
▁biosphère	-12.0254
▁notation	-12.0254
échauff	-12.0254
▁plantation	-12.0254
▁Allen	-12.0254
▁polymère	-12.0254
▁mûr	-12.0255
▁collaborative	-12.0255
ngulaire	-12.0255
▁tolérance	-12.0255
▁infecte	-12.0255
▁tremp	-12.0255
▁aîné	-12.0257
▁Libye	-12.0257
Septembre	-12.0265
brouillard	-12.0266
Tech	-12.0292
class	-12.036
vêtement	-12.0419
retour	-12.042
ssociation	-12.0435
▁absor	-12.0488
▁transpos	-12.0513
▁Sept	-12.0536
glise	-12.0545
▁renseign	-12.0545
▁Bouddha	-12.0548
▁Jérusalem	-12.0548
▁Pennsylvan	-12.0548
▁Sylvi	-12.0548
▁abstraction	-12.0548
▁authenticité	-12.0548
▁boulanger	-12.0548
▁cabane	-12.0548
▁catastrophique	-12.0548
▁catholique	-12.0548
▁clôture	-12.0548
▁compatissant	-12.0548
▁compétent	-12.0548
▁constructeur	-12.0548
▁cratère	-12.0548
▁crête	-12.0548
▁dégrade	-12.0548
▁habille	-12.0548
▁industrialis	-12.0548
▁marionnette	-12.0548
▁penché	-12.0548
▁prélevé	-12.0548
▁régulier	-12.0548
▁satisfaction	-12.0548
▁soulevé	-12.0548
▁subjective	-12.0548
▁symphonie	-12.0548
▁ticket	-12.0548
▁éruption	-12.0548
phobie	-12.0548
▁calotte	-12.0548
▁impasse	-12.0548
▁mammaire	-12.0548
▁plaindr	-12.0548
▁récession	-12.0548
▁remix	-12.0548
▁informaticien	-12.0548
▁Juif	-12.0548
▁déçu	-12.0548
▁valve	-12.0548
▁consulte	-12.0548
▁Phoe	-12.0548
▁Louis	-12.0548
▁géographie	-12.0548
▁acquisition	-12.0548
▁établissement	-12.0549
▁réception	-12.0549
▁rideau	-12.0549
▁vice	-12.0551
▁subsist	-12.0552
▁Colombie	-12.0553
▁teint	-12.0554
▁talentueu	-12.0555
▁déverse	-12.0556
▁azot	-12.0557
▁devra	-12.0559
▁Serg	-12.0581
▁Vinc	-12.0596
▁prélève	-12.0607
▁Probab	-12.0642
llusion	-12.0675
corps	-12.0723
pulsion	-12.0735
errière	-12.0762
▁magnét	-12.0844
▁franc	-12.0846
▁fraîche	-12.0851
▁perpétuel	-12.0851
▁promène	-12.0851
▁Elizab	-12.0851
▁Joseph	-12.0851
▁Organisation	-12.0851
▁attribué	-12.0851
▁brésilien	-12.0851
▁controverse	-12.0851
▁crochet	-12.0851
▁cybercriminel	-12.0851
▁glucose	-12.0851
▁impératif	-12.0851
▁incapacit	-12.0851
▁limitation	-12.0851
▁moustache	-12.0851
▁mycéli	-12.0851
▁paralysie	-12.0851
▁refuge	-12.0851
▁rejoign	-12.0851
▁remporté	-12.0851
▁récipient	-12.0851
▁séquençage	-12.0851
▁transféré	-12.0851
▁épicerie	-12.0851
▁bourdon	-12.0851
▁consentement	-12.0851
▁disparité	-12.0851
▁musculaire	-12.0851
▁redescend	-12.0851
▁corallien	-12.0851
▁pâté	-12.0851
▁tactique	-12.0851
élécommunication	-12.0851
▁Arabi	-12.0851
▁réorganis	-12.0851
▁Design	-12.0851
▁sexuali	-12.0851
▁dégage	-12.0851
jazz	-12.0851
▁Fried	-12.0851
▁écologiste	-12.0851
▁vagin	-12.0851
▁Babb	-12.0851
▁descente	-12.0851
▁sauvetage	-12.0851
▁Temp	-12.0851
▁moche	-12.0851
▁sauce	-12.0851
▁accomplissement	-12.0851
▁lobe	-12.0852
▁suspect	-12.0852
▁assume	-12.0853
▁sympathi	-12.0854
▁affin	-12.0854
▁sermon	-12.0856
▁quarant	-12.0862
▁serré	-12.0868
étention	-12.0871
ivergence	-12.088
▁origin	-12.094
▁insére	-12.0976
matériau	-12.1035
omination	-12.1089
▁sensoriel	-12.1139
▁spécifi	-12.1153
volution	-12.116
▁Wikip	-12.1163
▁immortali	-12.1163
▁sensibilis	-12.1163
▁Technolog	-12.1163
▁frustrant	-12.1163
▁incarcér	-12.1163
surrection	-12.1163
▁Démocrate	-12.1163
▁Départ	-12.1163
▁Développe	-12.1163
▁Léonard	-12.1163
▁Namibie	-12.1163
▁Square	-12.1163
▁affamé	-12.1163
▁ambulance	-12.1163
▁antérieur	-12.1163
▁aperçoi	-12.1163
▁aquarium	-12.1163
▁chagrin	-12.1163
▁coordonnée	-12.1163
▁déployé	-12.1163
▁emménag	-12.1163
▁explicite	-12.1163
▁façade	-12.1163
▁fécond	-12.1163
▁hostile	-12.1163
▁idéologique	-12.1163
▁inimaginable	-12.1163
▁linguistique	-12.1163
▁obligatoire	-12.1163
▁pathologie	-12.1163
▁pelouse	-12.1163
▁pragmati	-12.1163
▁rhino	-12.1163
▁rigoureu	-12.1163
▁ruban	-12.1163
▁suprême	-12.1163
▁textile	-12.1163
▁triomphe	-12.1163
préhensi	-12.1163
▁Wood	-12.1163
▁canapé	-12.1163
▁capitaux	-12.1163
▁crypt	-12.1163
▁sourcil	-12.1163
▁angoisse	-12.1163
▁compositeur	-12.1163
▁Power	-12.1163
▁sédiment	-12.1163
▁illimité	-12.1163
▁valoris	-12.1163
▁pilier	-12.1163
▁déploye	-12.1163
▁supposition	-12.1163
▁télévisé	-12.1163
▁lundi	-12.1164
▁Trop	-12.1164
▁devrons	-12.1164
pathie	-12.1164
▁Bleu	-12.1164
▁Lui	-12.1164
▁inversé	-12.1164
▁neuronal	-12.1164
▁marre	-12.1166
ompé	-12.1167
▁spectr	-12.118
écoulé	-12.1188
▁éloign	-12.1226
▁repére	-12.1243
▁pilot	-12.1248
III	-12.125
connexion	-12.1357
▁intégral	-12.1453
gyptien	-12.148
aillant	-12.1482
▁object	-12.1483
▁marchand	-12.1485
anormal	-12.1485
▁stand	-12.1485
▁Neandertal	-12.1486
▁Recherche	-12.1486
▁challenge	-12.1486
▁cimetière	-12.1486
▁conjoint	-12.1486
▁diamant	-12.1486
▁divorce	-12.1486
▁déconnecté	-12.1486
▁dépistage	-12.1486
▁escargot	-12.1486
▁fatigue	-12.1486
▁fusillade	-12.1486
▁inconvénient	-12.1486
▁islamique	-12.1486
▁maintenance	-12.1486
▁malnutri	-12.1486
▁microscopique	-12.1486
▁obsolète	-12.1486
▁pancréas	-12.1486
▁psychiatrique	-12.1486
▁pénurie	-12.1486
▁souverain	-12.1486
▁stérile	-12.1486
▁submergé	-12.1486
▁évasion	-12.1486
▁Tasmanie	-12.1486
▁assimil	-12.1486
▁bouilli	-12.1486
▁caverne	-12.1486
▁drogué	-12.1486
▁gamma	-12.1486
▁mémoris	-12.1486
invasive	-12.1486
▁Néanmoi	-12.1486
▁joint	-12.1486
▁prononce	-12.1486
▁relatif	-12.1486
▁coulisse	-12.1486
▁induit	-12.1486
▁bouchon	-12.1486
▁chuté	-12.1486
▁insensé	-12.1486
▁trompé	-12.1486
▁Bosnie	-12.1486
▁brosse	-12.1486
▁frott	-12.1486
▁optimiser	-12.1486
▁éponge	-12.1486
▁variante	-12.1486
fidéli	-12.1486
▁glande	-12.1486
▁tridimensionnel	-12.1486
▁insulte	-12.1486
▁Gius	-12.1486
▁livré	-12.1486
▁oeuf	-12.1486
▁régule	-12.1487
▁Cuba	-12.1488
▁souviendr	-12.149
Point	-12.1522
▁Médi	-12.1537
▁transmet	-12.1604
violence	-12.1691
éfense	-12.1729
▁familia	-12.1754
▁flexi	-12.1819
imbabw	-12.1819
orporation	-12.1819
▁Sibérie	-12.1819
▁Voulez	-12.1819
▁anomalie	-12.1819
▁attrayant	-12.1819
▁auditorium	-12.1819
▁compatible	-12.1819
▁persévér	-12.1819
▁portefeuille	-12.1819
▁possession	-12.1819
▁psychopathe	-12.1819
▁pétrolière	-12.1819
▁recharge	-12.1819
▁recycle	-12.1819
▁récupère	-12.1819
▁simplifié	-12.1819
▁squelettique	-12.1819
▁stéréotype	-12.1819
▁ultraviolet	-12.1819
▁végétal	-12.1819
▁végétati	-12.1819
▁énigme	-12.1819
▁SLA	-12.1819
▁blâm	-12.1819
▁dissimul	-12.1819
▁fût	-12.1819
▁hospitali	-12.1819
▁entrepôt	-12.1819
▁oppose	-12.1819
▁envoyons	-12.1819
▁implément	-12.1819
▁poupée	-12.1819
▁tyran	-12.1819
▁vieillir	-12.1819
▁Jordan	-12.1819
▁exclusive	-12.1819
▁tenez	-12.1819
▁égyptien	-12.1819
▁sollicit	-12.1819
▁juive	-12.1819
▁raisin	-12.1819
▁condens	-12.1819
▁surpasse	-12.1819
transcendan	-12.182
▁canadien	-12.182
▁Spécia	-12.182
▁digesti	-12.182
▁borne	-12.182
▁media	-12.182
▁percut	-12.182
▁banni	-12.182
▁méfian	-12.182
▁Intel	-12.1821
▁valable	-12.1821
▁Daniel	-12.1821
▁stagn	-12.1826
hhh	-12.1832
▁Agenc	-12.1838
euroscientifique	-12.1853
▁atteindr	-12.2015
point	-12.2037
ambie	-12.2056
▁0,0	-12.2113
onsidérons	-12.2146
▁orphelin	-12.2162
ollywood	-12.2163
▁1,3	-12.2164
▁affaibli	-12.2164
▁alphabet	-12.2164
▁analytique	-12.2164
▁cadavre	-12.2164
▁château	-12.2164
▁cocktail	-12.2164
▁flûte	-12.2164
▁infrarouge	-12.2164
▁irrationnel	-12.2164
▁mythologie	-12.2164
▁nocturne	-12.2164
▁pétition	-12.2164
▁rectangle	-12.2164
▁requête	-12.2164
▁typographi	-12.2164
▁épouvantable	-12.2164
▁félicit	-12.2164
▁légende	-12.2164
field	-12.2164
▁Snow	-12.2164
▁ascendan	-12.2164
▁Sydn	-12.2164
▁navette	-12.2164
▁dôme	-12.2164
▁diffère	-12.2164
▁arrache	-12.2164
▁accroîtr	-12.2164
▁Népal	-12.2164
▁aviaire	-12.2164
▁mousson	-12.2164
▁pivot	-12.2164
▁salut	-12.2164
▁copié	-12.2164
▁Portuga	-12.2165
▁percée	-12.2165
▁jumelle	-12.2165
▁solennel	-12.2165
▁enfoui	-12.2165
▁saumon	-12.2165
▁jailli	-12.2172
▁certificat	-12.2174
▁Costa	-12.2177
▁Nouveau	-12.2178
▁Birm	-12.2182
▁bactérienne	-12.2183
▁réjoui	-12.2189
▁excellen	-12.227
Mart	-12.2307
▁machin	-12.2317
normalité	-12.2378
déjeuner	-12.2392
ingénierie	-12.2392
▁construir	-12.2424
▁épargn	-12.2442
▁conscie	-12.2509
▁hallucin	-12.2521
▁cyclis	-12.2521
▁fréquem	-12.2521
▁suspens	-12.2521
gravitationnelle	-12.2521
▁Cambodg	-12.2521
▁Health	-12.2521
▁Himalaya	-12.2521
▁Jefferson	-12.2521
▁Kosovo	-12.2521
▁Panthéon	-12.2521
▁Pittsburgh	-12.2521
▁Ushahidi	-12.2521
▁anesthésie	-12.2521
▁anthropologue	-12.2521
▁bombarde	-12.2521
▁crocodile	-12.2521
▁dégradation	-12.2521
▁dépourvu	-12.2521
▁emballé	-12.2521
▁extrémisme	-12.2521
▁feedback	-12.2521
▁inacceptable	-12.2521
▁milliseconde	-12.2521
▁précurseur	-12.2521
▁psychiatre	-12.2521
▁pétrolier	-12.2521
▁rabbin	-12.2521
▁recensement	-12.2521
▁répertoire	-12.2521
▁sociable	-12.2521
▁symbolis	-12.2521
▁transplantation	-12.2521
▁édifice	-12.2521
▁éducateur	-12.2521
▁élévation	-12.2521
▁Stewar	-12.2521
▁Wright	-12.2521
▁attirant	-12.2521
▁maritime	-12.2521
▁paisible	-12.2521
▁prêch	-12.2521
▁adhésif	-12.2521
▁raciale	-12.2521
▁électromagnéti	-12.2521
▁Voyage	-12.2521
▁inédit	-12.2521
▁tribale	-12.2521
èdre	-12.2521
▁culpabili	-12.2521
▁routine	-12.2521
▁épingle	-12.2521
▁accabl	-12.2521
▁présidentielle	-12.2521
▁bougie	-12.2521
▁marteau	-12.2521
▁erroné	-12.2521
▁sucré	-12.2521
▁croix	-12.2521
▁phare	-12.2521
▁valise	-12.2521
▁mesurable	-12.2521
▁East	-12.2522
▁immersi	-12.2522
▁Direct	-12.2524
▁craindr	-12.2524
▁bonbon	-12.2524
▁Emil	-12.2526
▁manteau	-12.253
chouc	-12.2533
institutionnelle	-12.2665
estime	-12.2689
dynamique	-12.2763
épression	-12.2802
éjà	-12.2802
▁architectur	-12.2808
▁réfrigér	-12.2887
▁aérien	-12.2887
▁Demandez	-12.2891
▁Danemark	-12.2891
▁Edward	-12.2891
▁Palestine	-12.2891
▁Républi	-12.2891
▁afghan	-12.2891
▁agressif	-12.2891
▁chorale	-12.2891
▁complication	-12.2891
▁démocrate	-12.2891
▁glaciaire	-12.2891
▁globule	-12.2891
▁gênant	-12.2891
▁huître	-12.2891
▁interférence	-12.2891
▁isolation	-12.2891
▁nigérian	-12.2891
▁pharmacie	-12.2891
▁pornographi	-12.2891
▁prostitution	-12.2891
▁prématuré	-12.2891
▁supraconducteur	-12.2891
▁synonyme	-12.2891
▁timbre	-12.2891
▁trésor	-12.2891
▁viscéral	-12.2891
▁apprêt	-12.2891
▁bavard	-12.2891
▁invasion	-12.2891
▁Tibet	-12.2891
▁habile	-12.2891
▁évolutive	-12.2891
▁Lactée	-12.2891
▁autoritaire	-12.2891
▁appartiennent	-12.2891
▁illumine	-12.2891
▁Mexic	-12.2891
▁proclam	-12.2891
▁capsule	-12.2891
▁annonç	-12.2891
▁nettoie	-12.2891
▁trillion	-12.2891
▁routier	-12.2891
▁rumeur	-12.2891
▁peuplé	-12.2891
▁assign	-12.2891
▁branché	-12.2891
▁vecteur	-12.2892
▁bazar	-12.2892
▁auditeur	-12.2892
▁coussin	-12.2892
▁revendiqu	-12.2892
▁curseur	-12.2892
▁veste	-12.2892
▁cumul	-12.2892
▁copine	-12.2892
▁nociv	-12.2892
▁Ministr	-12.2893
▁iranien	-12.2893
▁colori	-12.2896
▁soumet	-12.2907
▁Stein	-12.2912
▁Plat	-12.2914
LP	-12.2942
lexique	-12.2966
▁ressemblai	-12.3051
fondre	-12.3089
ommandant	-12.3115
▁concern	-12.3147
synthèse	-12.3147
battre	-12.3156
▁poursuit	-12.3247
mède	-12.3272
▁inégal	-12.3273
▁éveil	-12.3274
rofesseur	-12.3275
▁dissémin	-12.3276
cellulose	-12.3276
▁Kepler	-12.3276
▁Remarquez	-12.3276
▁alternatif	-12.3276
▁analogique	-12.3276
▁arraché	-12.3276
▁biocarburant	-12.3276
▁caravane	-12.3276
▁cathédrale	-12.3276
▁compétitif	-12.3276
▁consultation	-12.3276
▁copyright	-12.3276
▁défavorisé	-12.3276
▁déformé	-12.3276
▁gobelet	-12.3276
▁honoré	-12.3276
▁iPad	-12.3276
▁intangible	-12.3276
▁librairie	-12.3276
▁maladroit	-12.3276
▁optimal	-12.3276
▁patrimoine	-12.3276
▁princesse	-12.3276
▁promoteur	-12.3276
▁reconstruit	-12.3276
▁recruté	-12.3276
▁rudimentaire	-12.3276
▁simpliste	-12.3276
▁supernova	-12.3276
▁végétaux	-12.3276
▁ébloui	-12.3276
▁échangé	-12.3276
▁déficience	-12.3276
▁funérai	-12.3276
▁horaire	-12.3276
▁stopper	-12.3276
▁tourbillon	-12.3276
▁chevauch	-12.3276
▁écossais	-12.3276
▁Oubli	-12.3276
▁Victor	-12.3276
▁agenda	-12.3276
▁disponibil	-12.3276
▁Gardez	-12.3276
▁Titanic	-12.3276
▁reporter	-12.3276
▁Saoudi	-12.3276
▁accuse	-12.3276
▁perfor	-12.3276
▁rivalise	-12.3276
▁incarne	-12.3276
▁hâte	-12.3276
▁modernis	-12.3277
▁réparé	-12.3277
▁pinceau	-12.3277
▁Humanit	-12.3277
▁tarte	-12.3277
▁balcon	-12.3278
▁Sérieu	-12.3278
▁Hubb	-12.3278
▁empare	-12.3282
▁venge	-12.3284
▁anthr	-12.3286
▁préleve	-12.3291
Dame	-12.3336
▁grandissai	-12.3356
▁prévoy	-12.3412
▁anonym	-12.3418
formant	-12.3442
▁2.0	-12.3532
▁doubl	-12.3546
suffisant	-12.3548
économique	-12.3548
▁odora	-12.3555
▁diminu	-12.3629
▁cérébra	-12.3651
▁entrepren	-12.3658
▁référ	-12.3676
illiard	-12.3676
mpossible	-12.3676
éerlandais	-12.3676
▁Chrétien	-12.3676
▁Empire	-12.3676
▁articulation	-12.3676
▁bénédiction	-12.3676
▁clandestin	-12.3676
▁compact	-12.3676
▁distraction	-12.3676
▁doctrine	-12.3676
▁efforce	-12.3676
▁emprisonné	-12.3676
▁engendré	-12.3676
▁excessive	-12.3676
▁faîtes	-12.3676
▁girafe	-12.3676
▁géniaux	-12.3676
▁implicite	-12.3676
▁incrédul	-12.3676
▁intrus	-12.3676
▁médaille	-12.3676
▁mémoria	-12.3676
▁météorologique	-12.3676
▁paradoxal	-12.3676
▁pulmonaire	-12.3676
▁radar	-12.3676
▁rafraîchi	-12.3676
▁rhume	-12.3676
▁réflexe	-12.3676
▁scotch	-12.3676
▁superstar	-12.3676
▁éducative	-12.3676
▁éternité	-12.3676
opernic	-12.3676
▁braconn	-12.3676
▁caritative	-12.3676
▁joign	-12.3676
▁prolifér	-12.3676
▁pâle	-12.3676
▁ravage	-12.3676
▁toxic	-12.3676
▁Found	-12.3676
▁Video	-12.3676
▁propice	-12.3676
▁reprogramm	-12.3676
▁contagieu	-12.3676
▁palmier	-12.3676
▁Image	-12.3676
▁vilain	-12.3676
▁lâché	-12.3676
▁métallique	-12.3676
▁bouleversé	-12.3676
▁loterie	-12.3676
▁meurtrier	-12.3676
▁pieuvre	-12.3676
▁potager	-12.3676
▁sanction	-12.3676
▁Géorgie	-12.3676
▁fosse	-12.3676
▁précipite	-12.3676
rétrovira	-12.368
▁migre	-12.3681
▁Full	-12.3681
sevel	-12.3691
▁giga	-12.3701
▁suggér	-12.3956
seconde	-12.3964
▁distingue	-12.4009
▁sociét	-12.4048
▁diverg	-12.4055
▁renouvel	-12.4079
▁littéral	-12.409
▁AIMS	-12.4093
▁Babylon	-12.4093
▁Columbi	-12.4093
▁Darfour	-12.4093
▁Génial	-12.4093
▁Système	-12.4093
▁antidépresseur	-12.4093
▁apiculteur	-12.4093
▁auditoire	-12.4093
▁calcaire	-12.4093
▁concierge	-12.4093
▁consultant	-12.4093
▁critiqué	-12.4093
▁crédible	-12.4093
▁dictature	-12.4093
▁emprisonne	-12.4093
▁enthousiasmé	-12.4093
▁fluctuation	-12.4093
▁gecko	-12.4093
▁génomique	-12.4093
▁interdiction	-12.4093
▁manchot	-12.4093
▁neurochirurgie	-12.4093
▁néfaste	-12.4093
▁pizza	-12.4093
▁projecteur	-12.4093
▁préfronta	-12.4093
▁renommé	-12.4093
▁ruisseau	-12.4093
▁sabbatique	-12.4093
▁spécimen	-12.4093
▁uranium	-12.4093
disciplinaire	-12.4093
▁Journal	-12.4093
▁murmure	-12.4093
▁Bureau	-12.4093
▁Lumière	-12.4093
▁Nombre	-12.4093
▁Pâque	-12.4093
▁accru	-12.4093
▁anthropologi	-12.4093
▁asiatique	-12.4093
▁contracter	-12.4093
▁préalable	-12.4093
▁Machine	-12.4093
▁atrocité	-12.4093
▁vénér	-12.4093
▁conceptuelle	-12.4093
▁réverb	-12.4093
▁Tunisie	-12.4093
▁berceau	-12.4093
dimbourg	-12.4093
ndroid	-12.4093
▁découpé	-12.4093
▁extrapol	-12.4093
▁Sénat	-12.4098
provision	-12.41
▁existentiel	-12.4114
Corp	-12.4153
▁laissai	-12.4177
osphère	-12.4273
▁fragil	-12.4328
▁mentionn	-12.4334
crédit	-12.4399
machine	-12.4399
semblerait	-12.4405
▁éolien	-12.4523
wood	-12.4527
▁indirecte	-12.4527
cohérence	-12.4527
cratch	-12.4527
▁Brother	-12.4527
▁DARPA	-12.4527
▁Massachusett	-12.4527
▁Médecin	-12.4527
▁Sortez	-12.4527
▁Suprême	-12.4527
▁autopsie	-12.4527
▁compense	-12.4527
▁concitoyen	-12.4527
▁conjugale	-12.4527
▁diplomate	-12.4527
▁déprimant	-12.4527
!	-13.8592
Ç	-13.8593
%	-13.8594
♫	-13.8595
»	-13.8596
)	-13.8597
—	-13.8598
:	-13.8599
?	-13.86
ê	-13.8601
,	-13.8602
