<unk>	0
<s>	0
</s>	0
s	-2.71018
▁.	-3.2187
▁,	-3.25933
▁que	-3.61167
▁a	-3.625
▁de	-3.81986
▁	-3.88753
▁o	-4.0784
▁e	-4.14539
o	-4.28946
t	-4.35453
;	-4.47375
n	-4.51786
▁&	-4.5305
quo	-4.54581
▁é	-4.70213
mos	-4.7475
▁un	-4.81488
▁E	-5.00232
a	-5.01999
▁non	-5.09162
▁unha	-5.09258
▁da	-5.10653
▁do	-5.21542
▁en	-5.22326
▁para	-5.22894
▁A	-5.23888
▁se	-5.25772
r	-5.35236
▁os	-5.47584
mente	-5.5233
ndo	-5.55215
▁máis	-5.56923
▁no	-5.59409
▁?	-5.66166
▁na	-5.67154
es	-5.72142
▁por	-5.77074
is	-5.83458
▁:	-5.83735
se	-5.88405
(	-5.91397
▁)	-5.91397
e	-5.91888
▁pode	-5.93289
como	-6.00593
▁con	-6.01696
▁O	-6.03261
u	-6.0474
▁son	-6.08435
en	-6.09006
▁á	-6.09186
▁ou	-6.13519
l	-6.1377
sí	-6.13988
▁ao	-6.16543
▁as	-6.1921
▁No	-6.20823
▁Per	-6.23573
ción	-6.27584
▁está	-6.29426
▁dos	-6.31434
▁hai	-6.34052
▁este	-6.36379
▁moi	-6.38115
▁xente	-6.39961
▁esta	-6.40363
▁facer	-6.41591
▁nos	-6.41971
▁súa	-6.42339
▁isto	-6.43351
▁cando	-6.43549
▁ser	-6.45784
▁seu	-6.46264
me	-6.47983
▁mundo	-6.48359
▁todo	-6.5043
▁anos	-6.50555
▁pero	-6.53365
nde	-6.54496
▁co	-6.60508
do	-6.63532
os	-6.65521
▁É	-6.66353
i	-6.67307
▁sobre	-6.67958
▁era	-6.70505
iso	-6.70857
▁só	-6.71243
ía	-6.73026
▁moito	-6.73375
▁porque	-6.73418
▁ver	-6.74991
▁...	-6.75679
▁Por	-6.75783
▁meu	-6.75855
▁teñ	-6.76156
▁ten	-6.76254
amén	-6.77297
▁d	-6.77555
▁—	-6.78151
▁vida	-6.81465
quí	-6.86045
▁nun	-6.86344
▁miña	-6.86353
▁nosa	-6.8653
▁tempo	-6.86743
idade	-6.86857
▁cousas	-6.89872
ron	-6.90337
▁algo	-6.9036
▁eu	-6.92372
da	-6.9287
▁sen	-6.95492
▁outra	-6.95747
des	-6.96354
▁noso	-6.9652
▁foi	-6.97017
▁Risa	-6.97125
▁Se	-6.9802
▁t	-6.99098
▁coa	-6.99441
▁están	-7.01865
vez	-7.02317
▁outro	-7.0281
nos	-7.03625
▁forma	-7.03674
de	-7.04145
ntón	-7.06012
▁parte	-7.06075
▁dun	-7.065
▁me	-7.06505
▁estaba	-7.06876
▁mesmo	-7.07134
▁día	-7.07161
lo	-7.07479
nda	-7.07747
▁temo	-7.08465
▁ó	-7.08821
▁esa	-7.09933
ou	-7.11322
ón	-7.11353
▁♫	-7.12372
▁todos	-7.13026
▁coma	-7.13123
▁lle	-7.13265
▁ben	-7.13979
én	-7.14084
▁aí	-7.14132
▁xa	-7.15687
▁ter	-7.1629
▁nó	-7.18079
mento	-7.18434
ca	-7.19021
▁agora	-7.193
.	-7.19919
▁polo	-7.20817
z	-7.20911
▁com	-7.21726
▁dicir	-7.22258
▁cada	-7.22508
▁persoas	-7.2266
▁cerebro	-7.22992
▁Esta	-7.24085
▁toda	-7.24127
on	-7.24689
▁historia	-7.2469
▁De	-7.24881
▁Aplausos	-7.25107
▁real	-7.25424
▁entre	-7.27616
an	-7.27821
▁ata	-7.29796
-	-7.31173
▁ese	-7.31954
¿	-7.32383
▁lugar	-7.32385
▁dunha	-7.324
▁problema	-7.33004
▁pola	-7.34849
▁idea	-7.3559
te	-7.36595
▁importante	-7.3811
nte	-7.38199
▁Ca	-7.39068
▁tipo	-7.40108
d	-7.4024
▁di	-7.40244
▁Ist	-7.42644
▁ve	-7.42744
▁dou	-7.42902
▁feito	-7.44152
as	-7.44509
▁maior	-7.44561
que	-7.44614
▁nunha	-7.4483
▁tan	-7.44883
▁sistema	-7.45517
vos	-7.48017
▁T	-7.48433
▁estamos	-7.49481
lle	-7.49518
ais	-7.50536
▁Hai	-7.50555
▁si	-7.50684
▁mellor	-7.51417
▁millóns	-7.51421
urante	-7.5193
ar	-7.52007
▁pouco	-7.52369
▁Os	-7.53419
▁Un	-7.54445
▁D	-7.55038
▁momento	-7.55104
▁tiña	-7.55797
▁despo	-7.55876
la	-7.559
▁grande	-7.56432
▁persoa	-7.56812
▁fai	-7.58048
▁Que	-7.59255
▁Este	-7.5955
gora	-7.60425
▁xeito	-7.6064
▁Pode	-7.60806
á	-7.61054
ei	-7.61448
▁vai	-7.61797
▁célula	-7.62286
▁sexa	-7.62542
▁min	-7.63072
▁sabe	-7.66096
▁estas	-7.66185
▁Com	-7.66282
▁humano	-7.6658
ba	-7.66676
▁cara	-7.66742
▁Ben	-7.66827
▁algún	-7.68311
▁auga	-7.68554
▁primeiro	-7.69156
▁traballo	-7.71962
▁nada	-7.73538
▁primeira	-7.73702
▁falar	-7.7479
▁En	-7.75269
▁medio	-7.76238
▁re	-7.76288
▁ano	-7.76601
▁novo	-7.76839
▁ca	-7.77531
▁moita	-7.778
▁M	-7.78293
▁nin	-7.78543
tres	-7.78565
▁calquer	-7.78576
▁realidade	-7.78643
▁muller	-7.79445
▁veces	-7.80469
ia	-7.80585
cia	-7.81171
▁menos	-7.81638
▁el	-7.82616
▁nova	-7.82717
▁mil	-7.82929
mo	-7.82985
▁S	-7.83223
▁cambio	-7.83466
▁hoxe	-7.83468
▁cos	-7.83598
▁mai	-7.84743
í	-7.85647
▁palabra	-7.86554
▁Grazas	-7.86591
▁Eu	-7.87383
▁gran	-7.87934
▁B	-7.88085
▁I	-7.88811
▁cento	-7.88967
▁comeza	-7.89372
▁exemplo	-7.89827
▁estar	-7.90607
▁nenos	-7.90628
res	-7.91888
▁te	-7.92074
logo	-7.92093
▁cousa	-7.92135
000	-7.92266
y	-7.92534
▁contra	-7.92826
▁simple	-7.93162
▁facelo	-7.93226
▁poder	-7.94428
▁in	-7.94597
▁cun	-7.9547
▁tecnoloxía	-7.95498
▁dixo	-7.96689
ra	-7.96965
▁man	-7.97013
▁pregunta	-7.97431
▁desta	-7.97689
▁Unha	-7.97784
▁tanto	-7.98037
▁dato	-7.99283
ín	-7.99446
▁so	-7.99506
▁razón	-8.00171
▁neste	-8.0018
les	-8.00249
▁quere	-8.00732
▁vostede	-8.01393
▁Todo	-8.01415
▁estou	-8.01493
▁pasa	-8.01875
▁ante	-8.02498
▁foto	-8.02582
▁imaxe	-8.02626
▁casa	-8.02743
dos	-8.02891
▁usa	-8.03432
ntes	-8.03461
▁pensar	-8.03838
▁enfermidade	-8.03875
▁C	-8.04664
úas	-8.04884
▁deste	-8.04977
▁algu	-8.0508
▁Ris	-8.05109
▁eles	-8.06042
lí	-8.06143
amos	-8.06578
▁ir	-8.0661
▁resposta	-8.07722
▁precisa	-8.07905
▁podería	-8.08298
emos	-8.08386
▁travé	-8.09053
▁canto	-8.09068
xe	-8.09083
▁anima	-8.09888
▁final	-8.10267
▁bo	-8.10353
▁familia	-8.10358
▁segundo	-8.10371
▁punto	-8.10372
▁algunha	-8.10387
sempre	-8.10466
co	-8.10728
h	-8.10877
▁pensa	-8.11347
▁mesma	-8.1174
▁pequena	-8.11746
▁poida	-8.11866
▁fan	-8.1222
no	-8.12927
▁case	-8.12944
▁nesta	-8.13094
▁10	-8.13196
▁conta	-8.13892
▁bacteria	-8.13928
▁xene	-8.14116
▁Quer	-8.14399
▁mal	-8.14784
▁Son	-8.14994
▁ti	-8.16125
▁home	-8.17408
▁lu	-8.17443
▁ela	-8.1747
▁túa	-8.17503
▁Para	-8.17504
▁sei	-8.18052
▁grazas	-8.18842
1	-8.19482
ntro	-8.19625
▁creo	-8.1982
▁crear	-8.20148
▁linguaxe	-8.20282
▁verdade	-8.20301
▁social	-8.20477
▁vo	-8.20753
▁G	-8.21114
ta	-8.21668
▁fin	-8.21916
ría	-8.22186
▁paciente	-8.23245
▁Está	-8.23251
▁xunto	-8.23348
▁van	-8.23432
▁200	-8.23638
▁significa	-8.24019
al	-8.24079
▁futuro	-8.24796
▁suposto	-8.24817
▁teu	-8.25134
▁face	-8.26282
▁morte	-8.26365
▁último	-8.26365
▁cal	-8.26407
ma	-8.26458
▁P	-8.26521
▁proxecto	-8.27468
▁petr	-8.27935
▁neurona	-8.28015
ble	-8.28063
go	-8.2819
▁diferentes	-8.28196
▁quero	-8.28504
▁médico	-8.29547
▁goberno	-8.29547
▁información	-8.29578
óle	-8.29722
nse	-8.29933
▁dar	-8.30307
▁baixo	-8.3071
▁mar	-8.31116
▁saúd	-8.31186
▁Is	-8.31555
▁vou	-8.31663
▁Te	-8.31862
trá	-8.32088
eza	-8.32232
ica	-8.32257
rán	-8.3231
▁basta	-8.32329
ina	-8.32581
▁cunha	-8.32863
▁pequeno	-8.32915
▁ollo	-8.3339
▁pod	-8.3341
lles	-8.3393
▁boa	-8.34024
▁lingua	-8.34546
▁catro	-8.34556
▁po	-8.36065
▁H	-8.36414
f	-8.36688
▁tive	-8.36947
▁funciona	-8.37031
▁leva	-8.3788
▁medicamento	-8.38032
▁inclus	-8.38237
er	-8.38556
ces	-8.38741
va	-8.38816
▁N	-8.39302
▁corpo	-8.39384
dade	-8.39406
▁usar	-8.39535
▁charla	-8.39812
▁penso	-8.39814
b	-8.39956
▁tal	-8.40354
▁paso	-8.40404
▁debe	-8.40542
▁país	-8.41279
▁parece	-8.41348
▁saber	-8.41422
▁cambiar	-8.41602
▁dólar	-8.4163
▁profesor	-8.41632
▁fillo	-8.41653
▁lado	-8.41684
▁política	-8.41689
▁atopar	-8.41853
▁hora	-8.42225
▁Xa	-8.42692
▁desenvolve	-8.42858
▁par	-8.43117
▁volta	-8.43494
▁grupo	-8.43566
▁Teñ	-8.43661
▁coche	-8.43923
▁mentr	-8.44085
▁mira	-8.4426
▁fixemos	-8.44275
los	-8.44301
il	-8.44336
▁crece	-8.44965
▁chega	-8.45104
ixón	-8.45341
▁relación	-8.45371
▁océano	-8.45387
▁efecto	-8.4545
▁certo	-8.45492
▁podía	-8.45722
▁cor	-8.46131
▁Mai	-8.46221
▁seguro	-8.46623
ado	-8.4691
▁univers	-8.4718
▁seguinte	-8.4736
▁entender	-8.4765
das	-8.4775
▁20	-8.48274
imos	-8.48461
▁Re	-8.48713
▁caso	-8.4879
▁meta	-8.49086
▁maneira	-8.49284
▁compa	-8.49326
▁aprender	-8.49333
▁proba	-8.49419
▁ocorre	-8.49526
▁qué	-8.4955
ban	-8.49588
▁fór	-8.49828
▁fala	-8.50072
▁xogo	-8.51252
▁cancro	-8.51253
▁Polo	-8.51287
▁fixo	-8.51388
m	-8.51514
za	-8.51782
▁Sabe	-8.51923
las	-8.52251
iro	-8.52633
▁fixe	-8.52942
▁pobre	-8.53277
▁proceso	-8.53293
▁interesante	-8.53306
▁especie	-8.5336
▁chamada	-8.53478
▁sería	-8.53559
▁escola	-8.53775
▁tes	-8.54035
C	-8.54187
▁diferente	-8.55056
ura	-8.55149
▁ós	-8.55169
▁vó	-8.55374
▁molécula	-8.55376
▁sociedade	-8.55376
▁quiz	-8.55378
▁incrible	-8.55378
▁capacidade	-8.55399
▁educación	-8.55409
▁fo	-8.55436
▁Estado	-8.55536
▁chamado	-8.55542
▁resultado	-8.55551
▁2	-8.55568
ión	-8.55618
▁músic	-8.56958
▁libro	-8.57505
▁esperanza	-8.5751
▁humana	-8.57549
▁Foi	-8.5758
▁peixe	-8.57612
▁normal	-8.57685
▁chama	-8.5799
▁media	-8.58335
▁m	-8.58439
▁causa	-8.58515
▁hab	-8.59135
▁diferenza	-8.59678
▁cantidade	-8.59678
▁liña	-8.59685
▁tód	-8.59715
▁estudante	-8.59846
▁países	-8.60101
▁p	-8.60304
▁traballa	-8.60321
tención	-8.60337
▁nome	-8.60583
▁pra	-8.60736
ando	-8.61121
▁debería	-8.61448
mono	-8.61609
edes	-8.61707
▁especial	-8.61849
▁probable	-8.61931
▁envellece	-8.61956
remos	-8.61958
▁Moita	-8.61969
▁atopa	-8.62268
▁global	-8.62495
▁L	-8.62867
che	-8.63131
▁Deu	-8.63316
▁Unidos	-8.63944
ada	-8.63972
▁experiencia	-8.64173
▁ferramenta	-8.64173
▁mensaxe	-8.64173
▁única	-8.64173
▁chegar	-8.6418
▁arredor	-8.64181
▁pense	-8.64214
▁xeo	-8.64391
▁estado	-8.6476
▁fose	-8.64909
io	-8.65623
▁vos	-8.65829
▁planeta	-8.66426
▁cabeza	-8.665
▁raza	-8.66503
▁longo	-8.66526
▁videoxogo	-8.66545
▁Si	-8.66579
▁sentido	-8.666
▁50	-8.66656
▁poboaci	-8.67063
▁pasar	-8.67207
gún	-8.67295
▁tam	-8.67461
iversidade	-8.67463
▁traballar	-8.68314
▁pro	-8.68456
c	-8.68669
▁inglés	-8.68879
▁plástico	-8.6888
▁dinosauro	-8.68881
▁enerxía	-8.68881
▁ordenador	-8.68881
▁control	-8.68885
▁semana	-8.68886
▁comunicación	-8.68911
▁propia	-8.68996
▁F	-8.69248
▁Lo	-8.69512
▁neno	-8.69541
▁pre	-8.70111
▁autis	-8.70227
ex	-8.70357
▁Con	-8.70593
frica	-8.71078
to	-8.71109
▁TED	-8.71321
▁cinco	-8.71322
▁forza	-8.71345
▁Co	-8.71385
▁dixe	-8.7142
▁ciencia	-8.71609
▁busca	-8.71693
ria	-8.72324
▁programa	-8.72401
▁for	-8.72465
bel	-8.72572
▁Ou	-8.72582
▁axuda	-8.72605
▁facemos	-8.72703
▁vi	-8.72813
lá	-8.72843
▁cultura	-8.73617
▁Só	-8.73654
▁rapa	-8.73693
▁&#9	-8.73818
▁difícil	-8.73818
▁&#93;	-8.73818
▁común	-8.73819
▁comunidade	-8.73822
▁nivel	-8.73908
▁metro	-8.74033
H	-8.74193
▁escoita	-8.74585
▁-	-8.74955
▁nai	-8.75102
apos	-8.75708
▁socia	-8.75985
▁quería	-8.76025
▁100	-8.76319
▁empresa	-8.76355
▁laboratorio	-8.76383
▁Europ	-8.76388
▁estudo	-8.76394
▁chan	-8.764
▁trata	-8.7659
▁cidade	-8.76606
▁Era	-8.7671
5	-8.77342
▁base	-8.77389
▁medo	-8.77476
ton	-8.78001
dores	-8.78157
▁intenta	-8.78246
▁único	-8.79014
▁igual	-8.79016
▁vídeo	-8.79018
▁ningu	-8.79027
▁física	-8.79046
▁xeración	-8.79076
almente	-8.79396
úsic	-8.79469
▁g	-8.80483
▁escoitar	-8.80856
▁dici	-8.8136
rá	-8.81586
▁perder	-8.81633
▁minuto	-8.81718
▁clase	-8.8172
▁noite	-8.8172
▁antibiótico	-8.81864
▁mes	-8.81899
▁v	-8.82039
riba	-8.82383
A	-8.82767
8	-8.82813
dor	-8.83148
▁natur	-8.8338
▁faga	-8.83385
▁mostra	-8.84061
▁Esa	-8.84222
▁materia	-8.84275
▁posible	-8.84496
▁ambiente	-8.84497
▁azu	-8.84527
▁presente	-8.84616
▁disto	-8.84649
▁sol	-8.84815
ches	-8.84969
▁soa	-8.86027
▁comezar	-8.86435
ve	-8.86843
▁segur	-8.86888
▁4	-8.86947
▁xust	-8.87232
p	-8.87348
▁científico	-8.87352
▁cámara	-8.87352
▁ningunha	-8.87352
▁área	-8.87354
▁Hoxe	-8.87361
▁forte	-8.87504
rse	-8.87539
▁material	-8.87578
▁solución	-8.87694
re	-8.879
▁sala	-8.87999
▁será	-8.88082
ismo	-8.88159
baixo	-8.88215
▁pais	-8.88748
ido	-8.8894
ter	-8.89345
▁fármaco	-8.90293
▁rápido	-8.90293
▁climático	-8.90293
▁éxito	-8.90293
▁montaña	-8.90294
▁vista	-8.90324
▁camiño	-8.90424
▁actividade	-8.9043
▁crea	-8.90593
▁adulto	-8.90599
▁30	-8.90669
▁mala	-8.91288
▁R	-8.9164
▁Estaba	-8.91916
▁mo	-8.92008
▁Na	-8.92147
use	-8.92191
▁demasiad	-8.92371
ir	-8.9241
▁actual	-8.92577
▁pai	-8.92634
▁neuro	-8.93268
ro	-8.93269
O	-8.9336
▁alucinación	-8.93361
▁rico	-8.93372
▁carto	-8.93414
▁campo	-8.93448
▁comezou	-8.93558
▁necesita	-8.93742
▁aprende	-8.93847
ire	-8.94116
▁observa	-8.94193
▁Creo	-8.94437
▁tivo	-8.94499
na	-8.94861
▁mi	-8.94938
isto	-8.95068
x	-8.95309
tica	-8.95728
2	-8.96097
▁le	-8.96239
▁conversa	-8.96254
▁arte	-8.96405
0	-8.96412
▁ADN	-8.96448
▁consciente	-8.96448
▁máquina	-8.96448
▁partícula	-8.96448
▁mañá	-8.96449
▁democracia	-8.9645
▁total	-8.96454
▁resto	-8.96462
▁Estou	-8.96478
▁consciencia	-8.96489
▁comida	-8.96515
▁valor	-8.96534
▁3	-8.96619
▁costa	-8.96999
▁vivir	-8.97023
▁Ten	-8.97164
▁deixar	-8.97235
aba	-8.97705
▁verde	-8.9783
▁i	-8.97997
▁X	-8.98062
olos	-8.98066
▁morre	-8.98539
▁mellore	-8.98622
▁90	-8.9876
▁tratar	-8.99155
▁Aí	-8.99444
▁público	-8.99674
▁espazo	-8.99675
▁Davi	-8.99679
▁condición	-8.99697
▁distinta	-8.99699
▁exacta	-8.99713
▁Desp	-8.99726
▁alto	-8.99733
▁tema	-8.99793
▁moral	-8.99873
▁conseguir	-8.99895
▁fora	-8.99905
▁segue	-8.9991
é	-9.00503
P	-9.0084
▁natural	-9.01188
▁din	-9.01312
▁porta	-9.01438
▁diso	-9.0176
▁construí	-9.018
▁cambia	-9.02411
eiro	-9.02431
N	-9.02497
ase	-9.0266
▁enorme	-9.02984
▁baixa	-9.02996
▁equipo	-9.03007
▁segunda	-9.03007
▁matemática	-9.03008
▁tamaño	-9.03008
▁cerebra	-9.03009
▁guerra	-9.03009
▁número	-9.03015
▁Terra	-9.03024
▁investigación	-9.03026
▁vello	-9.03044
▁distinto	-9.03067
▁foca	-9.03277
▁fondo	-9.03549
▁alta	-9.0365
▁contar	-9.03666
anse	-9.03709
▁colle	-9.03811
▁mirar	-9.04096
4	-9.04308
▁amigos	-9.04373
▁loita	-9.0489
▁K	-9.05039
▁pa	-9.051
R	-9.05147
▁levar	-9.05523
▁Pens	-9.06014
▁industria	-9.06211
▁mellorar	-9.06408
▁espera	-9.0643
▁rexión	-9.06456
▁habilidade	-9.06462
▁risco	-9.06496
▁estrutura	-9.06498
▁boca	-9.06658
▁polos	-9.06686
▁obxectivo	-9.06755
▁coller	-9.06935
pe	-9.07101
▁acontece	-9.07217
▁zona	-9.07248
▁ven	-9.07893
▁c	-9.08037
3	-9.08463
▁Cal	-9.09164
iño	-9.09453
▁preguntar	-9.09513
nto	-9.09854
▁corazón	-9.10027
▁cultivo	-9.10027
▁infección	-9.10027
▁segui	-9.10034
▁resistencia	-9.10044
▁comece	-9.10048
▁movemento	-9.10061
vo	-9.10073
▁propio	-9.1013
▁nese	-9.1014
▁entende	-9.10184
▁certa	-9.10187
▁imaxinar	-9.10453
▁voso	-9.10495
▁darlle	-9.10511
iña	-9.10547
▁terra	-9.1055
xénes	-9.10768
▁manter	-9.10898
▁haber	-9.10992
▁vivi	-9.11002
▁poñer	-9.11092
té	-9.11365
pasado	-9.11603
▁per	-9.12279
▁EE	-9.12877
▁cadra	-9.13574
▁película	-9.13731
▁hormona	-9.13731
▁particular	-9.13731
▁mecanismo	-9.13741
▁humanidade	-9.13742
▁intelixente	-9.13775
▁comportamento	-9.13832
▁desas	-9.13999
▁conduci	-9.14046
▁ha	-9.14229
▁tiñamos	-9.14237
▁acción	-9.14546
▁Aplauso	-9.14738
▁tras	-9.14811
ába	-9.14901
▁Mar	-9.15048
▁carn	-9.15073
▁uso	-9.15318
▁idade	-9.15431
ista	-9.15438
in	-9.15728
▁sub	-9.15825
ois	-9.15914
▁estive	-9.16102
▁teña	-9.16853
▁delas	-9.17053
ume	-9.17134
iñeiro	-9.17238
quera	-9.1727
▁aquel	-9.17341
▁principio	-9.17577
▁completa	-9.17577
▁taxa	-9.17578
▁gráfico	-9.17579
▁economía	-9.1758
▁preto	-9.17631
▁principal	-9.17652
▁medida	-9.17654
▁tarefa	-9.17705
osa	-9.17795
▁tomar	-9.17834
▁modo	-9.17846
▁Mira	-9.18054
▁vivo	-9.18119
▁viven	-9.18265
▁cre	-9.18366
▁El	-9.18493
▁sangu	-9.18616
▁vari	-9.18927
▁Sen	-9.1942
▁perde	-9.19499
▁xenia	-9.19572
▁compartir	-9.19803
▁vosa	-9.19871
▁produtos	-9.19885
ome	-9.20129
6	-9.20491
▁volver	-9.20752
G	-9.20792
▁fal	-9.21123
alas	-9.21387
redor	-9.21453
oría	-9.21576
▁espello	-9.21577
▁xenética	-9.21581
▁tarde	-9.21581
▁aplicación	-9.21613
▁tratamento	-9.21699
encia	-9.21762
▁elemento	-9.21785
▁saben	-9.21803
▁poderia	-9.22185
ran	-9.22247
B	-9.22356
▁Ve	-9.22679
▁vía	-9.22773
▁oportunidade	-9.22841
ándo	-9.23069
▁diante	-9.23181
▁saír	-9.23729
ga	-9.24408
▁existe	-9.24455
▁V	-9.24965
eime	-9.2502
▁Poi	-9.25023
igo	-9.25097
▁80	-9.25309
▁Precisa	-9.25744
▁edificio	-9.25744
▁mundia	-9.25744
▁profunda	-9.25744
▁última	-9.25744
▁século	-9.25744
▁medicina	-9.25746
▁dispositivo	-9.25748
▁córt	-9.25749
▁fotografía	-9.25757
▁afecta	-9.25785
▁papel	-9.25786
▁definición	-9.25788
▁acordo	-9.25795
▁clara	-9.2609
▁rúa	-9.26122
▁vexa	-9.26127
▁mercado	-9.26136
▁desenvolver	-9.26304
▁puide	-9.26387
▁marabillosa	-9.26521
▁existen	-9.26586
▁bi	-9.26627
▁descubrir	-9.26948
▁ceo	-9.27259
ito	-9.27424
▁ler	-9.27596
▁toma	-9.27689
▁Ru	-9.27963
▁deixa	-9.2829
és	-9.28346
▁comer	-9.2844
▁doente	-9.28702
▁Nat	-9.28749
▁Vou	-9.28789
▁seguir	-9.2881
▁amosar	-9.28937
S	-9.29113
▁empeza	-9.29204
▁coñece	-9.29241
▁usan	-9.29297
▁estrela	-9.29836
rnos	-9.29875
▁familiar	-9.30059
▁estadounidense	-9.30091
▁impacto	-9.30091
▁segredo	-9.30091
▁Internet	-9.30092
▁próximo	-9.30093
▁sitio	-9.30094
▁nalgún	-9.30095
▁insul	-9.30108
▁Primeir	-9.30113
▁dieta	-9.30114
▁nena	-9.30115
▁centro	-9.30125
▁brillante	-9.30149
▁aspecto	-9.30163
▁So	-9.30179
▁Tiña	-9.30186
▁contido	-9.30187
▁peor	-9.3022
▁obxecto	-9.30237
▁soño	-9.30243
▁canción	-9.30257
▁visual	-9.30262
▁negro	-9.30267
▁canta	-9.30514
▁mesmos	-9.30732
▁12	-9.30922
▁imaxina	-9.31005
▁ía	-9.31059
▁Vi	-9.31166
▁dá	-9.31194
▁lonxe	-9.31422
glic	-9.31485
ke	-9.31884
vexo	-9.31948
ste	-9.32145
▁recibi	-9.32154
9	-9.32373
ional	-9.32385
▁Ela	-9.32577
▁utiliza	-9.32582
▁serie	-9.32664
▁morrer	-9.32745
▁15	-9.33026
▁ex	-9.33091
xa	-9.33175
▁che	-9.33246
▁lonxev	-9.33263
qu	-9.3368
tiva	-9.33916
▁decidi	-9.34158
▁capa	-9.34227
ing	-9.34381
▁clínica	-9.34637
▁teléfono	-9.34637
▁cuestión	-9.34638
▁Outra	-9.34638
▁anaco	-9.3464
▁similar	-9.34641
▁recurso	-9.34641
▁doutra	-9.34666
▁telescopio	-9.34695
▁mozo	-9.34706
▁solar	-9.34768
▁Podería	-9.34801
▁función	-9.34831
▁conxunt	-9.34989
▁visión	-9.35105
▁produce	-9.35275
▁tede	-9.35433
▁fixera	-9.35562
▁serio	-9.35865
▁bio	-9.3605
ira	-9.36163
oloxía	-9.36182
▁illa	-9.36283
▁xen	-9.36319
▁Estas	-9.36363
▁plan	-9.36397
▁mercar	-9.36657
▁sabede	-9.36674
▁importa	-9.36748
▁inter	-9.36791
▁paga	-9.36793
▁marcha	-9.36888
▁Da	-9.37
pouco	-9.37321
▁J	-9.37458
▁amigo	-9.37471
▁tocar	-9.37519
ral	-9.37757
lla	-9.37838
▁sú	-9.3859
able	-9.38695
▁micro	-9.38795
▁comezo	-9.39039
▁demostra	-9.39148
▁funcionar	-9.39274
▁70	-9.3939
▁FOX	-9.39399
▁década	-9.39399
▁sabía	-9.39399
▁sinxelo	-9.39399
▁práctica	-9.39399
▁Goliat	-9.39399
▁Nó	-9.39416
▁caixa	-9.39424
▁morto	-9.3944
▁amor	-9.3949
▁permite	-9.39558
▁resulta	-9.39574
▁experimento	-9.39658
▁xogar	-9.39741
▁cómo	-9.39803
VI	-9.39808
▁fonte	-9.39868
▁sinal	-9.39879
▁car	-9.39891
▁axudar	-9.39909
▁protexer	-9.40031
▁Nun	-9.40161
▁nela	-9.40346
▁terceir	-9.40512
▁cremos	-9.40591
oh	-9.40596
orque	-9.40748
▁coidado	-9.40975
sta	-9.41104
▁lei	-9.41275
▁Cad	-9.41325
tes	-9.41449
▁aprendi	-9.41555
▁verá	-9.42039
▁fa	-9.42112
podo	-9.42142
M	-9.42303
bo	-9.42405
▁Nin	-9.42581
▁coñecer	-9.42723
ill	-9.43117
▁pel	-9.43146
▁pensade	-9.43217
▁marabillos	-9.4347
I	-9.43643
ían	-9.43877
▁atop	-9.43933
▁60	-9.4398
▁vin	-9.44368
▁favor	-9.44376
▁vén	-9.44398
argallada	-9.44399
▁receptor	-9.44399
▁suficiente	-9.44399
▁escenario	-9.44402
▁brazo	-9.44404
▁desexo	-9.44409
▁distancia	-9.44416
▁interior	-9.4442
▁ping	-9.44421
▁Toda	-9.44425
▁noticia	-9.44435
▁relato	-9.44464
▁habitación	-9.44473
▁falta	-9.44501
▁pegada	-9.44541
▁entorno	-9.44562
▁texto	-9.4458
▁Má	-9.44642
▁modelo	-9.44643
▁antiga	-9.44691
▁decisión	-9.44746
▁cale	-9.44966
▁mestre	-9.45088
▁observar	-9.45207
ey	-9.45254
▁ingresos	-9.45342
▁ensinar	-9.45743
▁dema	-9.45766
este	-9.45779
▁rede	-9.46082
▁infant	-9.46271
▁persoal	-9.46338
▁toca	-9.46435
▁comunicar	-9.46499
▁mostrar	-9.46546
▁ma	-9.46682
▁acaba	-9.46938
▁aparece	-9.46986
▁sufri	-9.46998
▁tra	-9.47159
ry	-9.47372
▁malo	-9.47395
▁intentar	-9.48028
AR	-9.48395
ela	-9.4943
▁can	-9.49571
▁científica	-9.49662
▁compañía	-9.49662
▁económico	-9.49662
▁esfera	-9.49662
▁árbore	-9.49662
▁físico	-9.49662
▁correcto	-9.49664
▁Algunha	-9.49664
▁bolsa	-9.49664
▁vermello	-9.49666
▁posibilidade	-9.49667
▁opción	-9.49668
▁aberto	-9.49676
▁emoción	-9.49679
▁Face	-9.49691
▁masa	-9.49701
▁gustaría	-9.49702
▁característica	-9.49704
▁libre	-9.49728
▁institución	-9.4974
▁peza	-9.49744
▁coñecemento	-9.49755
▁crise	-9.49963
▁xeral	-9.50017
tar	-9.50065
▁trans	-9.50073
axe	-9.5009
anme	-9.50113
fo	-9.50195
▁Fin	-9.50248
▁incentivo	-9.50365
▁nel	-9.50443
▁viaxa	-9.50459
▁vale	-9.50515
▁mellora	-9.50593
▁inf	-9.50793
▁W	-9.50919
▁evitar	-9.51001
▁produ	-9.51105
▁cá	-9.51125
▁mans	-9.51127
posición	-9.51415
zo	-9.51597
ñen	-9.51677
▁escala	-9.51689
for	-9.51821
▁Ese	-9.51828
tura	-9.51986
▁Ne	-9.52028
olly	-9.52052
án	-9.52755
▁obte	-9.5288
▁descubri	-9.52896
peto	-9.5294
áron	-9.52997
▁mover	-9.531
media	-9.53122
ámolo	-9.53135
▁Ga	-9.53279
tivo	-9.53579
▁funcion	-9.53745
▁tri	-9.5411
mi	-9.54138
▁rapaz	-9.54221
tor	-9.5427
▁bas	-9.54272
údo	-9.54322
▁millón	-9.54329
▁tería	-9.55063
▁visua	-9.55072
▁saí	-9.55204
▁fronte	-9.55208
▁adolescente	-9.55217
▁diagnose	-9.55217
▁hacker	-9.55217
▁interacción	-9.55217
▁político	-9.55217
▁química	-9.55217
▁sinxela	-9.55217
▁biolóxica	-9.5522
▁acceso	-9.55226
▁cadea	-9.55228
▁Algún	-9.5523
▁contexto	-9.55241
▁capital	-9.55249
▁análise	-9.55259
▁nesa	-9.55261
▁dixital	-9.55262
▁doutro	-9.55278
▁Gran	-9.55292
▁Vela	-9.55302
▁confia	-9.55311
▁hospital	-9.55313
▁semellante	-9.55314
▁erro	-9.55316
▁figura	-9.55408
▁frase	-9.55408
▁cativo	-9.55416
▁esencial	-9.55455
▁Neste	-9.55466
▁interpreta	-9.5547
▁lix	-9.55554
▁Pa	-9.5568
▁rematar	-9.5574
▁lume	-9.55846
▁super	-9.55866
▁xubila	-9.55896
▁1	-9.56017
▁pesar	-9.56074
▁acadar	-9.56082
▁mental	-9.56135
▁pé	-9.56244
net	-9.56278
diante	-9.56312
w	-9.56381
▁vir	-9.56584
▁Dix	-9.56618
aña	-9.56662
▁Vexa	-9.56887
íxen	-9.57167
tico	-9.57169
▁su	-9.57216
v	-9.57336
▁tenta	-9.5759
áis	-9.57871
▁volve	-9.5789
pa	-9.57933
-2	-9.58001
▁fe	-9.5811
qui	-9.58159
T	-9.58177
amento	-9.58511
▁visita	-9.58998
▁emprega	-9.59127
▁bar	-9.59178
▁estea	-9.59277
▁esper	-9.59404
▁estuda	-9.59464
▁cociña	-9.59499
▁vive	-9.59573
▁40	-9.59708
▁5	-9.59773
▁tira	-9.59814
llo	-9.59837
mpre	-9.60063
le	-9.60065
eira	-9.60085
bido	-9.60178
pón	-9.60457
▁escribir	-9.60671
▁arma	-9.60737
ama	-9.60927
▁Google	-9.611
▁arrecife	-9.611
▁derramamento	-9.611
▁diabete	-9.611
▁exercicio	-9.611
▁patrón	-9.611
▁respira	-9.611
▁Ár	-9.611
▁útil	-9.611
▁avó	-9.611
▁xenético	-9.61101
▁morea	-9.61102
▁tradición	-9.61102
▁dereito	-9.61102
▁noutro	-9.61104
▁sensación	-9.61107
▁Gustaría	-9.61108
▁bebé	-9.6111
▁esquerda	-9.61123
▁poderoso	-9.61128
▁cualificación	-9.61129
▁memoria	-9.61131
▁baseada	-9.61146
▁virtual	-9.61149
▁tecido	-9.6116
▁bosque	-9.6117
▁negra	-9.61173
▁cabo	-9.61177
▁veloci	-9.6118
▁cri	-9.61222
▁Colle	-9.6124
▁orixe	-9.61269
▁producir	-9.61331
▁espacio	-9.61354
▁membro	-9.61355
▁Moi	-9.61378
▁percepción	-9.61433
▁irmán	-9.61475
▁pesca	-9.61494
▁literal	-9.61516
▁levou	-9.61518
▁rodea	-9.61558
▁calidade	-9.61559
▁ce	-9.61677
nas	-9.61827
▁Joe	-9.61848
▁estudar	-9.61874
▁medir	-9.6195
▁Oh	-9.62195
ce	-9.62232
▁pensan	-9.62381
▁comprender	-9.62446
▁velo	-9.62517
▁correo	-9.62523
▁alimento	-9.62547
E	-9.62875
▁sa	-9.63009
nza	-9.63158
▁ba	-9.63162
stra	-9.63481
▁Imaxin	-9.63762
▁Par	-9.64598
▁test	-9.64706
▁25	-9.64768
▁determinar	-9.65012
▁varia	-9.65103
cha	-9.65188
▁senti	-9.65396
▁aumenta	-9.65399
▁depende	-9.65565
▁elas	-9.65744
▁compara	-9.66059
▁ax	-9.66114
▁consumi	-9.66218
▁activa	-9.66667
voa	-9.66713
▁mata	-9.66724
▁xigante	-9.6677
▁Cre	-9.67014
▁orixina	-9.67054
▁gusta	-9.67136
▁fun	-9.67227
▁absoluto	-9.6735
▁adolescencia	-9.6735
▁diapositiva	-9.6735
▁superfici	-9.6735
▁carreira	-9.6735
▁mazá	-9.6735
▁proteína	-9.6735
▁artigo	-9.6735
▁batalla	-9.6735
▁criatura	-9.67352
▁opinión	-9.67352
▁nuclear	-9.67353
▁punta	-9.67353
▁comprom	-9.67356
▁aplauso	-9.67358
▁Necesita	-9.67361
▁chegou	-9.67362
▁lista	-9.67371
▁viñeta	-9.67373
▁oído	-9.6738
▁sorprendente	-9.67382
▁interese	-9.67389
▁instalación	-9.67395
▁U	-9.67399
▁rato	-9.67409
▁obes	-9.67432
▁multi	-9.67662
rei	-9.67734
▁síntoma	-9.67818
▁reto	-9.67824
▁anti	-9.67836
▁verdadeira	-9.6785
▁prezo	-9.67917
▁salvar	-9.67991
▁fas	-9.67992
▁orde	-9.67995
▁Bon	-9.6825
▁Debe	-9.68274
émoslle	-9.68386
▁viaxe	-9.68393
▁director	-9.68513
▁regras	-9.68542
▁Do	-9.68608
▁viu	-9.68633
▁puidese	-9.68661
▁16	-9.68749
ur	-9.68923
▁la	-9.6919
ería	-9.69195
sión	-9.69466
stes	-9.69598
▁acto	-9.69628
▁vaia	-9.6965
▁Tive	-9.69956
▁custa	-9.69968
▁provoca	-9.69968
ña	-9.6999
▁marca	-9.69994
▁Sol	-9.70099
▁tivese	-9.70127
▁sucede	-9.70451
▁mill	-9.70658
▁có	-9.70793
▁segura	-9.70962
▁consum	-9.71071
xo	-9.71332
▁Quere	-9.71473
▁Sei	-9.71846
▁entra	-9.71992
presión	-9.72093
▁receita	-9.72191
▁Bu	-9.72263
▁vermes	-9.72423
▁xoga	-9.72742
ante	-9.72859
ple	-9.72869
▁8	-9.72926
▁Ro	-9.73271
ario	-9.73366
▁norma	-9.73557
▁camiña	-9.73594
▁termo	-9.73625
▁Esper	-9.73696
▁direc	-9.7392
▁senta	-9.74
▁Higg	-9.74016
▁Israel	-9.74016
▁concepto	-9.74016
▁concreto	-9.74016
▁hidróxeno	-9.74016
▁profundo	-9.74016
▁robot	-9.74016
▁situación	-9.74016
▁técnica	-9.74016
▁líquid	-9.74017
▁variedade	-9.74017
▁evento	-9.74017
▁necesaria	-9.74017
▁básica	-9.74017
▁propósito	-9.74017
▁decidí	-9.74017
▁pastor	-9.74018
▁responsable	-9.74018
▁asunto	-9.74018
▁Gracia	-9.74018
▁tradiciona	-9.74018
▁India	-9.74019
▁Quiz	-9.7402
▁fermoso	-9.74021
▁silencio	-9.74021
▁banco	-9.74023
▁liberdade	-9.74025
▁colega	-9.74032
▁anterior	-9.74039
▁ensino	-9.74044
▁recente	-9.7405
▁conferencia	-9.74061
▁tele	-9.74064
▁leopardo	-9.74078
▁branco	-9.74089
▁carbono	-9.7409
▁Tur	-9.74094
▁económica	-9.74101
▁médica	-9.74101
▁aumento	-9.74102
▁mortal	-9.74151
▁divertido	-9.74296
▁negocio	-9.74301
▁sinto	-9.74302
▁daquela	-9.74318
▁debuxo	-9.74339
ancia	-9.74347
▁xemelgo	-9.74404
claro	-9.74598
▁san	-9.74604
▁Wa	-9.74647
▁audi	-9.74667
▁Pod	-9.74672
▁obvia	-9.74691
ó	-9.74695
▁controlar	-9.74709
▁elimina	-9.74719
▁nove	-9.74767
▁premio	-9.7486
▁Vale	-9.74871
▁complexo	-9.74872
rés	-9.74885
▁axencia	-9.74911
▁significado	-9.74937
▁microbi	-9.74965
▁Comeza	-9.74975
▁amosa	-9.75053
▁Po	-9.75118
▁perda	-9.75153
▁xunta	-9.75176
▁reducir	-9.75244
▁chea	-9.7541
▁rapaza	-9.755
lia	-9.75536
▁vira	-9.75602
▁Tes	-9.75647
po	-9.75737
ck	-9.75849
ha	-9.75936
▁supervi	-9.76051
tos	-9.76077
▁deses	-9.76243
▁responder	-9.76279
▁dor	-9.76308
▁loitar	-9.76343
▁músico	-9.76353
▁Bar	-9.76669
▁libera	-9.76838
▁fase	-9.77096
ida	-9.77168
▁alimentar	-9.77227
ados	-9.77265
▁publica	-9.77357
▁bos	-9.77686
▁avanzad	-9.77988
bol	-9.78103
▁representa	-9.78164
▁est	-9.78296
eiras	-9.78424
▁escal	-9.78484
▁óso	-9.78486
▁subi	-9.7862
UU	-9.78983
▁puid	-9.79078
▁6	-9.79298
▁cura	-9.79442
▁queda	-9.79704
▁dicía	-9.79747
▁deseñado	-9.79835
▁sort	-9.80119
▁posta	-9.80497
or	-9.80614
▁analizar	-9.80674
▁sabed	-9.80808
fé	-9.80822
▁pe	-9.8098
g	-9.81053
▁alzhéimer	-9.81159
▁individuo	-9.81159
▁longa	-9.81159
▁límite	-9.81159
▁árabe	-9.81159
▁esforzo	-9.8116
▁require	-9.8116
▁método	-9.8116
▁consecuencia	-9.81161
▁factor	-9.81161
▁proxeri	-9.81162
▁televisión	-9.81165
▁fíxo	-9.81165
▁empezo	-9.81167
▁lavadora	-9.8117
▁cidadán	-9.81173
▁comentario	-9.81177
▁aproximada	-9.81186
▁Sam	-9.81188
▁trazo	-9.81195
▁24	-9.81203
▁enormes	-9.8122
▁houb	-9.8122
▁conserva	-9.81226
▁nutri	-9.81407
▁curso	-9.81497
▁Di	-9.81498
▁dobre	-9.8153
▁conversación	-9.81614
▁aves	-9.81629
▁ah	-9.81673
▁feliz	-9.81729
▁neve	-9.81762
▁tanta	-9.81825
▁motivo	-9.81893
▁Leva	-9.81932
▁Fai	-9.82099
▁investi	-9.82132
▁Unido	-9.82134
▁sae	-9.8221
ación	-9.82491
▁Be	-9.82621
▁Chin	-9.82797
▁Pensa	-9.82805
ú	-9.83054
▁indicador	-9.83134
▁19	-9.83239
▁k	-9.83286
nacional	-9.83321
▁saca	-9.83372
ial	-9.83433
▁Ton	-9.83447
▁presión	-9.83552
▁precisaba	-9.83724
▁contrari	-9.83816
50	-9.83961
nce	-9.84034
▁Dr	-9.84044
▁mesa	-9.84108
▁universidade	-9.84234
antes	-9.84406
▁casos	-9.84644
▁adapta	-9.84806
▁preguntas	-9.84935
▁dicirlle	-9.85332
▁Tor	-9.85688
▁compart	-9.85818
▁centra	-9.85895
▁Fo	-9.85966
▁parecer	-9.8624
▁vas	-9.8628
▁sacar	-9.86384
ense	-9.86386
▁Mart	-9.86696
▁pega	-9.86844
rdín	-9.86884
anza	-9.87031
▁fag	-9.87361
▁Ap	-9.87423
▁norte	-9.87848
ez	-9.88261
li	-9.88429
▁presen	-9.88622
lave	-9.88678
▁precis	-9.88683
rito	-9.8872
▁Chris	-9.88807
ectiva	-9.88818
gue	-9.88825
▁absoluta	-9.88852
▁axeitada	-9.88852
▁computador	-9.88852
▁dúbida	-9.88852
▁galaxia	-9.88852
▁porcentaxe	-9.88852
▁petición	-9.88852
▁reacción	-9.88852
▁meirande	-9.88852
▁cálculo	-9.88852
▁aforro	-9.88853
▁balea	-9.88853
▁policía	-9.88853
▁Charle	-9.88853
▁ensaio	-9.88854
▁Bret	-9.88855
▁propiedade	-9.88857
▁trastorno	-9.88857
▁superior	-9.88858
▁noutra	-9.8886
▁transmitir	-9.88862
▁Nick	-9.88863
▁Uli	-9.88866
▁probabilidade	-9.88867
▁cinta	-9.8887
▁compra	-9.88875
▁espiritual	-9.88879
▁explora	-9.88884
▁internacional	-9.88896
responsabilidade	-9.88904
dereita	-9.88911
▁servizo	-9.88933
▁combustible	-9.8895
▁completo	-9.8895
▁vulnerable	-9.8895
▁descubrimento	-9.8896
▁heroe	-9.88962
▁201	-9.88969
▁sector	-9.88978
▁lúa	-9.88989
▁Canto	-9.88994
▁persp	-9.89021
▁cós	-9.89063
▁formar	-9.8908
▁parque	-9.89121
▁partir	-9.89149
▁sentado	-9.89207
▁sur	-9.89285
▁complexa	-9.89299
▁saiba	-9.89372
▁cama	-9.89409
▁faría	-9.89457
▁abonda	-9.89459
▁protec	-9.89536
▁adem	-9.89553
▁recuperar	-9.89587
cilin	-9.89603
▁investigador	-9.89681
▁medi	-9.8981
▁intre	-9.89892
ook	-9.89896
▁grave	-9.90038
▁mono	-9.90054
▁vela	-9.90069
▁importan	-9.90105
▁Mand	-9.90157
▁lente	-9.90193
▁xera	-9.90222
▁amosarlle	-9.90252
▁cultural	-9.9038
rra	-9.90443
▁converteu	-9.90448
óns	-9.90453
▁empezar	-9.90482
ita	-9.90508
▁morren	-9.90537
▁mora	-9.90547
▁preciso	-9.90588
▁Fixe	-9.90653
idas	-9.90764
▁del	-9.90966
▁Su	-9.91121
▁nota	-9.91125
RA	-9.91167
▁UU	-9.91255
▁transformar	-9.9133
k	-9.91507
▁doado	-9.91521
▁Ma	-9.91567
▁sentir	-9.91616
man	-9.91946
▁aquela	-9.92163
ci	-9.92167
venci	-9.92207
prazo	-9.92672
▁pedir	-9.92943
▁move	-9.92966
▁avanza	-9.93091
bra	-9.93309
▁medrar	-9.93324
áns	-9.93339
▁al	-9.93446
dora	-9.93591
▁nace	-9.93651
▁lembrar	-9.93721
▁Nov	-9.93782
▁400	-9.93824
cu	-9.93974
▁considera	-9.94031
▁recoñece	-9.94044
cos	-9.94104
▁Ata	-9.94289
▁continua	-9.9439
▁And	-9.94418
00	-9.94436
unha	-9.94446
▁consegui	-9.94513
▁Vai	-9.94677
500	-9.94687
▁responde	-9.94692
uga	-9.94694
rme	-9.94842
▁cho	-9.94995
U	-9.94995
V	-9.95111
rkin	-9.95204
ide	-9.95279
base	-9.95313
▁cuart	-9.95327
▁Mire	-9.95331
▁b	-9.95357
▁Rei	-9.9538
▁doutor	-9.9544
▁pes	-9.9551
niso	-9.95534
▁auto	-9.95548
▁terá	-9.9566
vital	-9.95673
eb	-9.95795
ment	-9.95811
▁sup	-9.95955
orte	-9.96042
DA	-9.9622
xi	-9.96337
aría	-9.96367
7	-9.96376
pi	-9.96603
▁nive	-9.96897
▁chámase	-9.96973
▁fí	-9.96982
▁Fun	-9.97084
▁Ig	-9.97141
▁prima	-9.97145
▁remata	-9.97146
▁fenómeno	-9.97185
▁inmediata	-9.97185
▁núcleo	-9.97185
▁oculta	-9.97185
▁pantalla	-9.97185
▁próxima	-9.97185
▁usuario	-9.97185
▁vehículo	-9.97185
▁desigual	-9.97185
▁oficia	-9.97185
▁páxina	-9.97186
▁constante	-9.97186
▁temperatura	-9.97186
▁básico	-9.97186
▁letra	-9.97186
▁perfecta	-9.97187
▁díxo	-9.97188
▁fermosa	-9.97188
▁imposto	-9.97189
ixeria	-9.97189
▁peni	-9.9719
▁indica	-9.97191
méric	-9.97192
▁botón	-9.97193
▁duro	-9.97194
▁expresión	-9.97198
▁cega	-9.97204
▁dispoñible	-9.97205
▁resistente	-9.9721
▁calor	-9.97218
▁pouca	-9.97243
▁moza	-9.97251
▁detalle	-9.97257
▁ego	-9.97261
▁Pola	-9.97262
▁afastado	-9.97272
▁puxe	-9.97282
▁IN	-9.97286
▁consegue	-9.97293
▁rica	-9.973
▁auditorio	-9.97319
▁directa	-9.97338
▁Poderia	-9.97363
▁limpa	-9.97373
▁contacto	-9.97375
▁estatístic	-9.97396
▁relacionada	-9.97439
xeno	-9.9744
▁alma	-9.97448
▁Cháma	-9.97451
▁ouvinte	-9.97467
▁adoitaba	-9.97489
▁viru	-9.97516
▁existencia	-9.97521
▁medra	-9.97534
th	-9.97549
▁experto	-9.97586
▁escura	-9.9759
zer	-9.97639
▁fundamental	-9.97695
▁Adem	-9.97738
▁Ken	-9.97752
▁apoio	-9.97797
▁colleu	-9.97808
▁xove	-9.97826
▁escuro	-9.97842
▁desaparecer	-9.97901
landi	-9.97921
▁Segu	-9.98005
▁tío	-9.98063
▁Tre	-9.98095
▁conectado	-9.981
▁falla	-9.98112
cio	-9.98237
▁cae	-9.98265
▁fusión	-9.98282
▁Parece	-9.98306
▁secundario	-9.98314
▁dano	-9.98351
▁crer	-9.98361
▁americano	-9.98383
▁espí	-9.98396
▁estivera	-9.98479
▁13	-9.98534
▁explicar	-9.98747
▁diga	-9.9875
▁dis	-9.9882
▁Atopa	-9.98888
▁diría	-9.99617
▁levaba	-9.99715
▁experimentar	-9.99755
▁tivera	-9.99782
▁asegurar	-9.99888
▁acepta	-9.99917
tase	-10.0006
tro	-10.002
rios	-10.0026
destrador	-10.0046
iz	-10.0064
▁agarda	-10.0074
▁rec	-10.0081
▁Fala	-10.0083
▁identificar	-10.0088
▁come	-10.0095
▁levan	-10.0099
gra	-10.0113
▁Ti	-10.0125
posíbe	-10.0153
▁falo	-10.0156
▁Bos	-10.0163
▁desa	-10.019
▁aforra	-10.023
▁escoit	-10.0237
aniel	-10.0237
izar	-10.0248
▁La	-10.0261
▁queira	-10.0273
rre	-10.0278
▁veñ	-10.028
ert	-10.0284
entes	-10.0292
émolo	-10.0309
▁poñe	-10.031
rís	-10.031
idos	-10.0333
▁lembra	-10.0342
▁verme	-10.0349
▁recicla	-10.0358
▁facía	-10.036
▁escolle	-10.0361
ixáde	-10.0365
nnos	-10.0366
cre	-10.0378
omo	-10.0388
ame	-10.039
▁acelera	-10.0392
cer	-10.0408
ch	-10.0425
▁maxi	-10.0427
▁experimenta	-10.043
▁onda	-10.0438
zona	-10.0448
▁Men	-10.0471
▁Ob	-10.0477
pen	-10.0488
▁falan	-10.0496
▁transforma	-10.0534
gado	-10.0554
ine	-10.0569
▁coloca	-10.0571
▁cultiva	-10.0604
▁corre	-10.0607
▁esencia	-10.0624
▁roupa	-10.0628
alifornia	-10.0628
▁Públic	-10.0628
▁curiosidade	-10.0628
▁fácil	-10.0628
▁plataforma	-10.0628
▁tonelada	-10.0628
frío	-10.0628
▁Premio	-10.0628
▁agricult	-10.0628
▁imposible	-10.0628
▁conexión	-10.0628
▁oficina	-10.0628
▁tumor	-10.0628
▁arquitect	-10.0628
▁avance	-10.0628
▁frecha	-10.0628
▁combinación	-10.0628
▁discurso	-10.0628
▁hipoc	-10.0628
▁Gol	-10.0628
▁honest	-10.0628
▁gasolin	-10.0628
▁coñecido	-10.0628
▁volume	-10.0628
▁coñecida	-10.0628
▁doenza	-10.0628
▁vaca	-10.0629
▁celador	-10.0629
▁reserva	-10.0629
▁diferencia	-10.0629
▁profeta	-10.0629
sistencia	-10.0629
▁benestar	-10.063
▁Stein	-10.063
▁lesión	-10.063
▁paisaxe	-10.063
▁acumula	-10.063
▁relativa	-10.0631
▁exame	-10.0631
▁graci	-10.0632
▁artista	-10.0633
▁ecua	-10.0634
▁sofre	-10.0635
▁preparado	-10.0635
▁débeda	-10.0636
▁operación	-10.0638
▁menor	-10.0638
▁conflito	-10.0639
▁mutación	-10.0639
▁vella	-10.064
▁ciclo	-10.064
▁interesado	-10.0642
▁compañeiro	-10.0644
▁planta	-10.0644
▁acopl	-10.0645
ló	-10.0647
▁asociado	-10.0648
▁conciencia	-10.0653
▁esti	-10.0656
▁Pensade	-10.0658
▁ameaza	-10.0664
▁practica	-10.0665
▁estraño	-10.0667
▁Tal	-10.0667
▁orixinal	-10.0672
▁cen	-10.0673
▁moderno	-10.0674
fe	-10.0674
▁pu	-10.0682
▁Usa	-10.0683
▁pensamento	-10.0683
▁creación	-10.069
▁salva	-10.0697
▁Ge	-10.0714
▁Mut	-10.0716
▁Xen	-10.0723
ow	-10.0744
▁envia	-10.0753
adeira	-10.0755
▁informa	-10.0773
ork	-10.0774
▁apartamento	-10.078
▁beneficios	-10.0781
▁gris	-10.0797
▁fum	-10.083
▁cuarto	-10.0836
ente	-10.0843
▁clar	-10.0847
▁curar	-10.0864
▁volveu	-10.0864
▁199	-10.0867
ver	-10.0879
ética	-10.0881
elescopio	-10.0888
▁pensaba	-10.0889
▁creativo	-10.0895
▁ésta	-10.0898
▁extraer	-10.0901
▁escoll	-10.0903
▁Pro	-10.0911
titude	-10.0911
▁calcula	-10.0914
▁gañar	-10.0925
▁tirar	-10.0966
▁estaría	-10.0975
▁participa	-10.0981
vi	-10.1013
pareceu	-10.1022
▁cheo	-10.1034
▁capac	-10.1044
▁prot	-10.1054
cab	-10.1056
▁encontrar	-10.1095
nimo	-10.112
▁pagar	-10.113
au	-10.1151
▁correr	-10.1161
▁Park	-10.1173
▁gal	-10.1176
▁Imaxina	-10.1182
frontal	-10.1183
▁encontra	-10.1205
▁perd	-10.1232
▁18	-10.1254
▁creativ	-10.1255
cen	-10.1262
▁probar	-10.1274
▁Me	-10.1274
▁esc	-10.1274
▁actua	-10.1322
kin	-10.1356
▁Le	-10.1362
▁enviar	-10.1367
▁voce	-10.1368
cular	-10.1372
▁termina	-10.138
▁permitir	-10.1381
▁incluí	-10.1383
▁mire	-10.1391
nta	-10.1406
▁cola	-10.1412
D	-10.1412
ay	-10.1415
X	-10.1416
toria	-10.1423
▁deseña	-10.1427
▁levo	-10.1433
▁escrito	-10.1454
frontar	-10.1485
▁coñecí	-10.1508
ah	-10.151
▁menta	-10.1518
▁chis	-10.1524
ema	-10.1525
▁detecta	-10.1526
▁bel	-10.1531
▁Euro	-10.1547
ámoslle	-10.1547
▁pase	-10.1556
▁deixan	-10.1559
▁verdadeir	-10.1572
llada	-10.1597
▁ac	-10.1622
aria	-10.1623
úmero	-10.1625
▁escena	-10.1627
▁coopera	-10.1628
▁correcta	-10.1628
▁equilibr	-10.1628
▁humán	-10.1628
▁impulso	-10.1628
▁pública	-10.1628
▁relixión	-10.1628
▁residuo	-10.1628
▁riqueza	-10.1628
▁tarxeta	-10.1628
▁alumno	-10.1628
▁desgraza	-10.1628
▁filosof	-10.1628
▁ilumina	-10.1628
▁mutante	-10.1628
▁índice	-10.1628
▁órgano	-10.1628
▁específico	-10.1628
▁interface	-10.1628
▁paxaro	-10.1628
▁curto	-10.1628
▁Sudá	-10.1628
▁continúa	-10.1628
▁necesario	-10.1628
▁invern	-10.1628
▁río	-10.1628
▁xira	-10.1628
▁entrevista	-10.1628
▁felic	-10.1628
▁chamámoslle	-10.1628
▁vixil	-10.1628
lexio	-10.1628
▁fascinante	-10.1628
▁dalgunha	-10.1628
▁cuxa	-10.1629
▁XX	-10.1629
▁consello	-10.1629
▁fronteira	-10.1629
▁parecido	-10.1629
▁necesidade	-10.1629
▁empece	-10.163
▁cruza	-10.163
▁27	-10.163
▁poema	-10.163
▁misión	-10.163
▁lixeira	-10.1631
phi	-10.1631
▁dalgún	-10.1631
▁terrible	-10.1631
▁tendencia	-10.1631
▁Debería	-10.1633
▁mus	-10.1633
▁enteira	-10.1633
gu	-10.1633
▁pódes	-10.1633
▁tradución	-10.1634
▁Clar	-10.1635
▁organización	-10.1637
▁deberia	-10.1637
▁extraordinaria	-10.1638
▁investimento	-10.1639
▁atopei	-10.1639
poca	-10.164
▁viva	-10.164
▁estimula	-10.164
▁explicación	-10.1641
▁vacina	-10.1641
▁biolóxico	-10.1641
▁colectiva	-10.1642
ible	-10.1644
▁palestino	-10.1644
▁moderna	-10.1646
▁pico	-10.1649
▁cardíaca	-10.1649
▁díxen	-10.1651
▁Norte	-10.1652
tal	-10.1653
▁comparti	-10.1654
▁Moito	-10.1655
▁enteiro	-10.1657
▁composto	-10.166
▁conto	-10.166
▁Suec	-10.1661
▁dinámica	-10.1663
▁antigo	-10.1665
bro	-10.167
▁descrición	-10.1671
▁aumentar	-10.1677
▁pasei	-10.1678
▁procura	-10.1683
▁imaxinade	-10.1684
▁efectivo	-10.1688
▁Pe	-10.1689
rude	-10.1691
▁defecto	-10.1693
▁acr	-10.1697
▁activo	-10.1704
▁cu	-10.1716
▁recolle	-10.172
▁construir	-10.1721
▁extrae	-10.173
▁soci	-10.1732
▁levanta	-10.1732
▁gas	-10.1738
▁seguido	-10.1741
▁Voulle	-10.175
▁us	-10.1754
▁polar	-10.1755
fa	-10.1761
▁abre	-10.177
▁descubrí	-10.1771
▁fila	-10.1778
▁copia	-10.1789
▁lección	-10.1801
▁reduci	-10.1805
▁quente	-10.1825
terior	-10.1827
▁viña	-10.1828
▁estivese	-10.1833
▁unidade	-10.1844
▁wa	-10.1871
▁11	-10.1877
xista	-10.1879
▁li	-10.1885
▁Dou	-10.1887
▁abondo	-10.1898
▁cer	-10.1914
ic	-10.1916
▁contamina	-10.1916
▁ensina	-10.1929
▁sex	-10.1934
▁dependen	-10.195
▁gaña	-10.1956
▁Naciona	-10.198
▁engadir	-10.1983
anos	-10.1995
▁pon	-10.1996
dio	-10.2012
▁Fi	-10.202
▁veu	-10.2031
dura	-10.2055
▁vaso	-10.2056
▁peto	-10.2056
obert	-10.2059
▁pena	-10.2067
▁soube	-10.2078
ig	-10.2078
▁Mo	-10.2097
▁entrar	-10.2101
erior	-10.2107
▁w	-10.2112
der	-10.2112
el	-10.2114
omega	-10.2116
ell	-10.2126
▁abrir	-10.2127
▁violen	-10.2132
bilidade	-10.2135
volución	-10.2142
amp	-10.2151
▁custos	-10.2152
gar	-10.2154
▁funcionan	-10.2163
▁ide	-10.2188
▁unido	-10.2194
▁conecta	-10.2198
▁esp	-10.2216
▁mante	-10.2231
▁pi	-10.2232
deme	-10.2235
erson	-10.2273
profesional	-10.2273
▁estará	-10.2313
▁Jo	-10.2313
▁traballador	-10.2326
▁150	-10.2328
▁conectar	-10.2331
neiro	-10.2357
▁Al	-10.2368
▁implica	-10.2375
▁coida	-10.2388
loxía	-10.2403
▁hor	-10.2408
aban	-10.241
▁realiza	-10.2427
▁demostrar	-10.2429
bano	-10.2434
▁integr	-10.2435
rxía	-10.2439
dy	-10.2441
▁mor	-10.2465
▁amosan	-10.2466
ncia	-10.2468
▁converter	-10.2474
▁comezan	-10.248
▁aten	-10.2501
rte	-10.255
ub	-10.2555
ampo	-10.2574
▁bota	-10.2582
▁investir	-10.2584
▁Hab	-10.2592
onse	-10.2594
▁complicad	-10.2594
▁pá	-10.2595
▁revela	-10.2606
bola	-10.2606
▁Ningu	-10.2608
▁motor	-10.2635
quilo	-10.2638
▁etiqueta	-10.2662
▁convenc	-10.2674
▁chamou	-10.2681
ueno	-10.2704
▁300	-10.2706
tacto	-10.2713
▁perigo	-10.2722
hing	-10.2729
▁morta	-10.273
▁xorna	-10.2731
zos	-10.2733
▁taxi	-10.2734
▁Frank	-10.2739
▁refrixera	-10.2739
▁Vostede	-10.2739
▁agasall	-10.2739
▁alternativa	-10.2739
▁bacalla	-10.2739
▁crédito	-10.2739
▁específica	-10.2739
▁estratexia	-10.2739
▁furacán	-10.2739
▁guerreiro	-10.2739
▁interactua	-10.2739
▁intercambi	-10.2739
▁logro	-10.2739
▁micrófono	-10.2739
▁orgánico	-10.2739
▁pulmón	-10.2739
▁quórum	-10.2739
▁suxeito	-10.2739
▁axusta	-10.2739
▁enfermeir	-10.2739
▁William	-10.2739
▁fluorescente	-10.2739
▁surtidor	-10.2739
▁algoritmo	-10.2739
▁defensa	-10.2739
▁recibe	-10.2739
▁Existe	-10.2739
▁electric	-10.2739
▁secuencia	-10.2739
▁John	-10.2739
▁obstáculo	-10.2739
▁caricaturista	-10.2739
▁fantástico	-10.2739
▁convérte	-10.2739
▁competi	-10.2739
▁exceso	-10.2739
▁campaña	-10.2739
▁Anónimo	-10.2739
▁ocasión	-10.2739
embarg	-10.2739
▁volví	-10.2739
▁código	-10.2739
▁video	-10.2739
▁terapia	-10.2739
▁barreira	-10.274
▁procesa	-10.274
▁contento	-10.274
▁perfecto	-10.274
▁Kara	-10.274
▁Qué	-10.274
▁cliente	-10.274
▁mapa	-10.274
▁EEUU	-10.2741
▁aberta	-10.2741
▁instrución	-10.2741
▁Outro	-10.2741
▁altura	-10.2741
▁14	-10.2741
▁ruta	-10.2742
IP	-10.2742
▁producto	-10.2742
▁ritmo	-10.2743
▁vender	-10.2743
▁cadeira	-10.2744
▁condutor	-10.2745
▁sensat	-10.2745
▁Canad	-10.2746
▁dificultade	-10.2748
▁amplo	-10.2751
▁móbil	-10.2753
▁sincero	-10.2753
▁The	-10.2754
▁Stan	-10.2755
▁concerto	-10.2755
▁rapid	-10.2756
▁musica	-10.2756
▁intención	-10.2759
ontade	-10.2759
▁Hal	-10.2759
▁xornal	-10.276
▁zapato	-10.2761
bre	-10.2761
▁átomo	-10.2764
eogra	-10.2768
▁emerxente	-10.2772
▁ancián	-10.2773
▁cable	-10.2777
woo	-10.2777
▁relevante	-10.2783
▁localiza	-10.2783
▁reacciona	-10.2784
cima	-10.2787
▁viste	-10.2793
xido	-10.2793
▁sentimento	-10.2794
▁eficac	-10.2799
▁contig	-10.28
▁poderá	-10.2808
rd	-10.2812
▁alg	-10.2813
▁determina	-10.2819
by	-10.2821
▁sof	-10.2822
▁carga	-10.2827
rase	-10.2845
▁Kl	-10.2849
▁caza	-10.285
▁detectar	-10.2856
▁Póde	-10.2856
▁andar	-10.2859
▁Dá	-10.2861
▁actuar	-10.2864
▁evita	-10.2876
▁versión	-10.2876
▁Dixe	-10.2877
bil	-10.2879
▁Va	-10.2879
Mark	-10.2887
▁descubriu	-10.2888
▁apoia	-10.2907
▁Pasa	-10.2911
▁dicían	-10.2924
tido	-10.2931
▁cubrir	-10.2931
▁cero	-10.2934
▁enfronta	-10.2935
▁In	-10.2963
▁197	-10.2969
ño	-10.2976
▁pasaba	-10.2985
▁alimenta	-10.2986
be	-10.2998
▁coll	-10.3006
viron	-10.3013
▁7	-10.3015
▁causar	-10.3018
ima	-10.303
ceiro	-10.3045
▁queima	-10.3055
▁gasta	-10.3062
▁sina	-10.3066
id	-10.3096
▁ri	-10.3099
usas	-10.3102
ír	-10.3105
▁pou	-10.3123
▁dela	-10.3133
ades	-10.3136
▁Mund	-10.3149
par	-10.3152
ice	-10.3157
▁Car	-10.3166
▁pregunt	-10.317
cemento	-10.3194
▁recoñecer	-10.3203
▁parecía	-10.3216
▁23	-10.3217
▁etc	-10.3224
▁Estive	-10.3238
▁semente	-10.3247
émo	-10.3254
▁crean	-10.3256
eta	-10.3259
▁tentar	-10.3266
rio	-10.3272
▁im	-10.3276
▁ne	-10.3289
▁Ju	-10.3305
iza	-10.3313
iva	-10.3321
▁dura	-10.3328
ición	-10.3334
col	-10.3334
har	-10.3339
▁previ	-10.3344
▁oír	-10.3369
awa	-10.3381
ico	-10.3394
digo	-10.3421
▁altera	-10.3429
▁caer	-10.3438
colate	-10.344
▁viñ	-10.3465
rm	-10.3481
▁evoluciona	-10.3486
▁f	-10.3486
▁Matt	-10.3493
▁cham	-10.3508
▁representan	-10.3515
teli	-10.3525
bri	-10.3532
ráta	-10.3536
rol	-10.357
▁limita	-10.3571
iber	-10.359
▁funcione	-10.3613
▁permít	-10.3614
▁ouvi	-10.3622
▁chamar	-10.3624
▁produto	-10.3626
cía	-10.3632
▁olla	-10.3633
▁axude	-10.365
aquela	-10.3671
▁autor	-10.3698
▁luc	-10.3719
▁clasifica	-10.3727
▁deter	-10.3749
rig	-10.377
K	-10.3775
▁traballe	-10.3775
qué	-10.3783
▁mete	-10.3786
tanto	-10.3798
▁han	-10.3823
org	-10.3828
▁identifica	-10.3831
▁Val	-10.3869
ny	-10.3872
lóxico	-10.3898
▁litera	-10.3898
are	-10.3917
▁relaciona	-10.3925
mba	-10.394
▁presta	-10.3942
▁ocorrer	-10.3952
xiro	-10.3955
▁Gu	-10.3957
▁Díx	-10.3962
stas	-10.3967
▁hospita	-10.3972
▁habita	-10.3974
▁preocupa	-10.3976
▁intelixen	-10.3977
▁mencion	-10.3979
▁institu	-10.3981
antalóns	-10.3986
▁Norueg	-10.3989
▁sabia	-10.3989
ouTube	-10.3989
▁alcance	-10.3989
▁clínico	-10.3989
▁ecosistema	-10.3989
▁escáner	-10.3989
▁extraordinario	-10.3989
▁identidade	-10.3989
▁idiograma	-10.3989
▁mecánica	-10.3989
▁revé	-10.3989
▁sanguíneo	-10.3989
▁símbolo	-10.3989
▁tecnolóxica	-10.3989
▁rostro	-10.3989
▁sobreviven	-10.3989
▁valioso	-10.3989
▁hábito	-10.3989
▁pílula	-10.3989
▁avogado	-10.3989
▁categ	-10.3989
▁analoxía	-10.3989
▁chave	-10.3989
▁Supoñ	-10.3989
▁atributo	-10.3989
▁espectro	-10.3989
▁xefe	-10.3989
▁instrumento	-10.3989
▁etapa	-10.3989
▁químico	-10.3989
▁ambienta	-10.3989
▁potencia	-10.3989
▁codifica	-10.3989
▁sorpresa	-10.3989
▁paréce	-10.3989
riente	-10.3989
▁Texas	-10.3989
▁optimista	-10.3989
▁milmillonésima	-10.399
▁supoñ	-10.399
▁combate	-10.399
lzh	-10.399
▁Steve	-10.399
▁derradeir	-10.399
▁deixou	-10.399
▁Carder	-10.399
▁bonita	-10.399
▁casual	-10.3991
▁terror	-10.3991
▁funera	-10.3991
▁Chil	-10.3991
▁exposición	-10.3991
▁destino	-10.3991
▁violín	-10.3991
▁aterrador	-10.3991
▁Mag	-10.3991
▁talento	-10.3991
▁listo	-10.3992
▁raro	-10.3992
térmi	-10.3992
▁decatei	-10.3992
▁placa	-10.3992
▁morría	-10.3992
▁famoso	-10.3993
▁cego	-10.3995
▁definitiva	-10.3995
▁ampla	-10.3995
▁35	-10.3996
▁partido	-10.3996
▁visto	-10.3998
ísimo	-10.3998
▁Canta	-10.3998
▁22	-10.3999
▁ritual	-10.4
▁alcanzar	-10.4
▁cría	-10.4001
▁risa	-10.4001
▁suma	-10.4001
▁exército	-10.4002
▁puidera	-10.4003
▁emocionante	-10.4003
▁pobreza	-10.4003
▁teoría	-10.4003
▁Mary	-10.4003
ade	-10.4005
▁teatro	-10.4006
▁emocional	-10.4006
▁arranxar	-10.4008
▁1.	-10.4009
▁eléctrica	-10.401
▁dixéron	-10.4012
▁crucia	-10.4013
▁perna	-10.4013
▁mariña	-10.4013
▁entendía	-10.4014
▁escap	-10.4016
▁desenvolvido	-10.4016
▁recordo	-10.4018
▁conduta	-10.402
▁3.	-10.4023
ula	-10.4023
▁entrada	-10.4026
lección	-10.4029
untu	-10.4031
cere	-10.4034
▁tenden	-10.4037
▁descoñecido	-10.4037
▁comproba	-10.4041
▁acerca	-10.4041
▁nacemento	-10.4042
tina	-10.4044
▁Saú	-10.4045
▁evidencia	-10.4047
▁pista	-10.4048
▁roubo	-10.4049
▁retrato	-10.405
▁significativa	-10.4051
ármo	-10.4051
▁recordar	-10.4055
▁Medio	-10.4059
▁establecer	-10.406
▁disciplina	-10.4064
ling	-10.4065
▁sal	-10.407
▁Han	-10.407
▁doce	-10.407
▁resolver	-10.4073
▁actúa	-10.4074
▁Sc	-10.4074
▁lanza	-10.4075
▁Decid	-10.4076
▁incrementar	-10.4076
▁analiza	-10.4077
▁tola	-10.409
▁parede	-10.4099
▁suxire	-10.4108
▁deixalo	-10.4109
▁xigantes	-10.4114
▁creativa	-10.4121
▁gráfica	-10.4122
homa	-10.4125
▁converte	-10.4126
▁Gor	-10.4132
▁accidente	-10.4137
▁Cha	-10.4137
▁desexa	-10.4149
▁comen	-10.415
▁enxeñ	-10.4154
▁Quen	-10.4155
▁aprendí	-10.4157
▁pata	-10.4157
▁pedra	-10.4158
cial	-10.4164
▁fará	-10.4165
▁apar	-10.4176
km	-10.4176
▁ling	-10.4181
▁botar	-10.42
agan	-10.4204
▁modifica	-10.4215
ht	-10.4222
▁feix	-10.4222
▁xesto	-10.4232
▁obs	-10.4236
▁ataca	-10.4244
ime	-10.4245
deiro	-10.4249
▁preguntei	-10.425
▁lat	-10.4252
▁corda	-10.4256
▁ni	-10.4258
DE	-10.4281
▁proporciona	-10.4292
▁obra	-10.4305
▁mirade	-10.4309
▁cent	-10.4314
iñas	-10.4315
▁pr	-10.4329
▁aula	-10.4331
▁tr	-10.4345
▁enche	-10.4346
quina	-10.4346
cción	-10.4354
esmo	-10.4356
▁mando	-10.4371
▁meter	-10.4372
cro	-10.439
▁ra	-10.4424
quei	-10.443
▁rexeita	-10.4447
▁intent	-10.4458
▁Nas	-10.4469
▁Tende	-10.4476
▁45	-10.4478
▁Ste	-10.4478
eres	-10.4481
▁muda	-10.4504
▁navega	-10.451
▁198	-10.4522
▁Mi	-10.4535
▁chegan	-10.4537
▁forman	-10.4543
▁coidados	-10.4564
▁tolo	-10.4567
▁activar	-10.4587
dou	-10.4596
▁Mé	-10.4623
residente	-10.4629
pé	-10.4642
▁tenda	-10.4666
▁comprend	-10.467
▁traballan	-10.4677
▁deixe	-10.4699
▁custo	-10.4699
evolución	-10.4705
▁centrar	-10.4705
ización	-10.4733
▁achega	-10.4761
lmente	-10.4767
▁extra	-10.4778
▁comunica	-10.4801
▁public	-10.4814
ach	-10.4852
▁imaxin	-10.4857
▁Sa	-10.4862
▁med	-10.4874
▁xurdi	-10.4878
▁desaparece	-10.4883
▁desenvolveu	-10.4883
▁9	-10.4888
por	-10.4894
elo	-10.4906
vit	-10.493
▁mantén	-10.4932
▁sente	-10.4953
▁oportunidades	-10.4961
llar	-10.4985
▁ho	-10.4998
tas	-10.5019
▁far	-10.5032
ixo	-10.5034
ong	-10.5039
▁acontecer	-10.5072
▁facerlle	-10.5092
▁Ho	-10.5102
▁sai	-10.5103
ecido	-10.5108
wi	-10.5118
▁Tan	-10.5118
▁empat	-10.5145
▁val	-10.5157
▁conxela	-10.5166
▁culpa	-10.5186
guste	-10.5186
▁estiv	-10.5197
▁estación	-10.5201
▁Dis	-10.5202
,	-10.5205
L	-10.5208
▁Ch	-10.5209
▁h	-10.5212
▁result	-10.5238
rigo	-10.5241
▁chi	-10.5254
zar	-10.5269
▁ciber	-10.5274
gh	-10.529
▁sobe	-10.5302
▁acada	-10.5319
▁Pense	-10.5321
ald	-10.5322
itaria	-10.5322
▁Gre	-10.5331
ino	-10.5332
xerar	-10.5343
tel	-10.5348
▁ocorr	-10.535
ngeles	-10.536
▁adoita	-10.5365
▁tratan	-10.5368
▁procede	-10.5368
▁Parec	-10.5369
lina	-10.5386
▁fame	-10.5391
ago	-10.5392
▁empregar	-10.5392
▁ced	-10.5394
▁alucina	-10.5399
cicle	-10.54
▁simula	-10.5401
vera	-10.5404
▁orgullo	-10.5405
imple	-10.5406
rix	-10.5408
uropea	-10.5408
▁Incl	-10.5411
▁persona	-10.5414
▁converti	-10.5415
▁comprensi	-10.5415
ámola	-10.5416
nivers	-10.5416
▁Bibli	-10.5417
dimensiona	-10.5417
▁Comparti	-10.5417
▁Health	-10.5417
▁agrícola	-10.5417
▁alegr	-10.5417
▁capítulo	-10.5417
▁cualidade	-10.5417
▁financeira	-10.5417
▁fábrica	-10.5417
▁inconsciente	-10.5417
▁ingrediente	-10.5417
▁menciña	-10.5417
▁metáfora	-10.5417
▁molecular	-10.5417
▁profundidade	-10.5417
▁rexistro	-10.5417
▁síndrome	-10.5417
pantasma	-10.5417
▁Achéga	-10.5417
▁atópa	-10.5417
▁recibí	-10.5417
▁ridícul	-10.5417
▁admit	-10.5417
ndroid	-10.5417
▁camión	-10.5417
▁enfermo	-10.5417
▁curiosa	-10.5417
▁Considere	-10.5417
moníac	-10.5417
▁gobernamenta	-10.5417
▁baile	-10.5417
▁tellado	-10.5417
▁burato	-10.5417
▁emprego	-10.5417
▁enfoque	-10.5417
▁asombroso	-10.5417
▁avaliación	-10.5417
▁concentración	-10.5417
▁correlación	-10.5417
ustralia	-10.5418
▁moeda	-10.5418
▁aparello	-10.5418
▁hidro	-10.5418
▁láser	-10.5418
ulm	-10.5418
▁Bang	-10.5418
▁padrón	-10.5418
▁fiable	-10.5418
▁barato	-10.5418
▁diminúe	-10.5418
▁substitu	-10.5418
▁máster	-10.5418
▁sostible	-10.5418
vergoña	-10.5418
▁gracioso	-10.5418
▁disposto	-10.5418
▁invisible	-10.5418
▁asumi	-10.5418
▁febre	-10.5418
odil	-10.5418
▁electrónico	-10.5418
▁ensinanza	-10.5418
▁revista	-10.5419
▁eficiente	-10.5419
▁1960	-10.5419
▁17	-10.5419
▁Comece	-10.5419
▁civilización	-10.5419
ídeo	-10.5419
▁75	-10.5419
Lead	-10.542
▁nervioso	-10.542
cólogo	-10.542
▁regular	-10.5421
▁Azu	-10.5421
▁recorre	-10.5421
▁roda	-10.5422
▁debate	-10.5422
▁diagnóstic	-10.5422
▁equivalente	-10.5422
▁describir	-10.5423
gaga	-10.5423
▁troca	-10.5423
▁raí	-10.5424
▁reino	-10.5424
▁axudou	-10.5425
▁sincroniza	-10.5425
▁grao	-10.5426
▁máxico	-10.5426
▁ciru	-10.5427
puxo	-10.5427
▁froita	-10.5427
▁espada	-10.5428
▁sinta	-10.5428
▁encargado	-10.5429
▁ácido	-10.543
▁filla	-10.5432
▁descuberta	-10.5434
▁nega	-10.5434
▁estima	-10.5434
▁chiste	-10.5434
▁tremenda	-10.5436
▁colonia	-10.5436
▁léva	-10.5437
▁púxo	-10.5437
▁aventura	-10.5437
▁estándar	-10.5438
▁sensible	-10.5438
▁patoloxía	-10.5438
▁triste	-10.5438
▁quixe	-10.544
97	-10.544
▁español	-10.544
rismátic	-10.5441
▁fenda	-10.5442
▁aborda	-10.5442
▁diminuí	-10.5442
▁promove	-10.5443
áde	-10.5445
▁implicación	-10.5445
▁banda	-10.5446
▁pechado	-10.5446
▁aparente	-10.5449
ri	-10.5452
▁carta	-10.5454
▁Leo	-10.5455
▁maqu	-10.5457
▁adquiri	-10.5458
▁encaixa	-10.5458
▁estrada	-10.5459
cél	-10.546
lta	-10.5461
▁muro	-10.5466
▁visible	-10.5467
▁título	-10.5471
▁Institut	-10.5472
ios	-10.5473
kg	-10.5475
▁gara	-10.548
▁graxa	-10.5481
▁anuncios	-10.5483
▁conduce	-10.5484
▁casco	-10.5485
▁Nada	-10.5487
iger	-10.5489
▁durmi	-10.5493
▁Bla	-10.5493
▁poñendo	-10.5495
▁mestura	-10.5501
stán	-10.5501
otipo	-10.5503
▁preguntou	-10.5504
▁organismo	-10.5505
▁previa	-10.5506
ese	-10.5506
rque	-10.5509
▁xulga	-10.551
▁Result	-10.5512
▁limitado	-10.5514
▁cotián	-10.5517
▁rosa	-10.5518
▁Tra	-10.5521
▁privada	-10.5522
▁Has	-10.5523
▁cunca	-10.5526
▁rota	-10.5533
▁camiñar	-10.5534
▁pint	-10.5536
▁Neno	-10.5547
▁Li	-10.5549
▁pertence	-10.5551
▁lidera	-10.5553
▁queredes	-10.5564
▁armad	-10.5565
▁Sent	-10.5582
úa	-10.5583
▁importar	-10.559
▁coidar	-10.5591
▁intento	-10.5595
▁contarlle	-10.5606
▁usada	-10.5607
sistente	-10.5612
▁elección	-10.5616
▁quedan	-10.5617
▁iron	-10.5618
▁Viste	-10.5623
▁atravesa	-10.5625
▁grav	-10.5632
▁bebe	-10.5635
▁constru	-10.5637
▁poña	-10.5659
▁decatar	-10.5665
▁vaga	-10.5666
▁War	-10.5668
ed	-10.5673
▁falaba	-10.5677
▁considerar	-10.5695
uso	-10.5699
▁Traballa	-10.5707
▁trat	-10.5709
▁sinte	-10.5711
ip	-10.5713
▁cub	-10.5717
▁quilo	-10.5717
▁reb	-10.5719
▁ofrece	-10.5724
▁Vaia	-10.5727
▁inspira	-10.5734
▁programar	-10.5735
▁venda	-10.574
▁privad	-10.5745
▁sofisticad	-10.5761
marelo	-10.5761
▁Alg	-10.5768
▁inc	-10.5796
▁explica	-10.5802
ly	-10.5808
▁empregad	-10.5812
ona	-10.5814
▁toman	-10.5825
▁Dan	-10.5831
▁Segur	-10.5839
▁entenda	-10.5846
▁Nest	-10.5853
▁facían	-10.5865
astro	-10.5866
abondo	-10.5895
▁quitar	-10.5897
▁miraba	-10.5898
▁proxectos	-10.5919
▁Ah	-10.5921
F	-10.5937
cencia	-10.5938
arvar	-10.5943
▁Ra	-10.5955
oxo	-10.5964
mbo	-10.5986
eille	-10.5989
▁abo	-10.6009
▁ministr	-10.6019
▁president	-10.602
▁Sar	-10.6028
rek	-10.6032
▁traballaba	-10.6034
▁gañador	-10.6036
▁Veñ	-10.6045
▁prace	-10.6051
▁profesiona	-10.6061
▁financia	-10.6068
▁pan	-10.607
íron	-10.6089
ander	-10.6098
▁envía	-10.6111
▁vol	-10.6112
▁escribe	-10.6123
alos	-10.6129
▁Au	-10.6131
▁manda	-10.6159
▁form	-10.6168
▁xogador	-10.618
▁dig	-10.6203
▁medran	-10.6213
▁Cost	-10.6217
gall	-10.6219
▁merca	-10.6223
▁gañ	-10.6226
twa	-10.6227
cho	-10.6246
land	-10.6258
here	-10.6266
▁recibir	-10.6284
▁bon	-10.6293
▁Mu	-10.6294
▁Mat	-10.6341
iana	-10.6362
xto	-10.6366
util	-10.6367
▁supera	-10.6372
vía	-10.6375
▁racia	-10.6386
▁consumidor	-10.6408
ér	-10.6409
▁250	-10.6414
▁deixá	-10.6416
uit	-10.6457
xico	-10.6462
▁matar	-10.647
▁Van	-10.647
▁extrema	-10.6476
▁remate	-10.648
▁usaba	-10.6487
▁existi	-10.6494
▁Lond	-10.6497
▁engadi	-10.6499
porte	-10.6504
▁poñ	-10.6525
▁grava	-10.6529
▁vería	-10.6529
▁dirixi	-10.6532
▁aceptar	-10.6537
▁quedar	-10.6555
▁dia	-10.6564
ka	-10.6595
gás	-10.661
▁pesa	-10.663
ores	-10.6643
▁circula	-10.6654
ew	-10.6677
corre	-10.6689
▁Sha	-10.6692
dico	-10.67
▁semella	-10.6704
▁San	-10.6731
itas	-10.6741
cional	-10.6745
lóxica	-10.6751
torio	-10.6758
▁Vex	-10.6767
▁solo	-10.6777
▁Espa	-10.6787
anda	-10.6792
partamento	-10.6801
▁em	-10.6813
▁aproba	-10.6815
rame	-10.6818
▁Centra	-10.6826
bert	-10.6828
vis	-10.6833
▁cambian	-10.6833
▁Pre	-10.6837
fit	-10.6839
▁directo	-10.6841
▁tom	-10.6848
pedra	-10.6862
ciencia	-10.6864
▁fur	-10.6866
fusión	-10.6867
solución	-10.6873
fil	-10.6877
fonda	-10.6878
▁ruí	-10.6878
▁xu	-10.688
riz	-10.688
legal	-10.6883
fabrica	-10.6901
vidente	-10.6905
▁creado	-10.691
xica	-10.6911
▁protexid	-10.6929
ian	-10.6932
lin	-10.6952
ark	-10.6957
▁comuni	-10.6957
▁separa	-10.696
▁sacrific	-10.6965
▁increment	-10.6967
▁cotiá	-10.6967
▁entran	-10.697
▁am	-10.6977
▁Ita	-10.6981
cra	-10.6991
rece	-10.7
▁deseño	-10.7
embro	-10.7008
mbi	-10.7022
tude	-10.7025
▁dígo	-10.7029
▁fabrica	-10.7032
tono	-10.7035
▁irmá	-10.7036
gai	-10.7043
▁190	-10.7046
▁controla	-10.7058
▁recupera	-10.7059
▁pirate	-10.706
ólogo	-10.7064
ceu	-10.7066
▁opera	-10.7067
ara	-10.7068
▁Encá	-10.707
▁croc	-10.7076
ner	-10.7076
▁mergull	-10.7077
▁dé	-10.7077
▁adic	-10.7078
▁globa	-10.7078
▁él	-10.7082
bvia	-10.7083
▁IGF	-10.7084
▁inherente	-10.7084
ítrico	-10.7084
▁Meggendorfer	-10.7084
▁Michael	-10.7084
▁PostSecret	-10.7084
▁Shephela	-10.7084
▁Sinclair	-10.7084
▁Sistema	-10.7084
▁abraiante	-10.7084
▁académico	-10.7084
▁anomalía	-10.7084
▁automático	-10.7084
▁axeitado	-10.7084
▁británic	-10.7084
▁continuo	-10.7084
▁crítica	-10.7084
▁enferma	-10.7084
▁expedición	-10.7084
▁favela	-10.7084
▁fulano	-10.7084
▁homosexua	-10.7084
▁iPhone	-10.7084
▁insecto	-10.7084
▁inútil	-10.7084
▁parecida	-10.7084
▁popular	-10.7084
▁positivo	-10.7084
▁prosperidade	-10.7084
▁recompensa	-10.7084
▁afroamericano	-10.7084
▁conspira	-10.7084
▁distinción	-10.7084
▁estímulo	-10.7084
▁Neandert	-10.7084
▁curva	-10.7084
▁advers	-10.7084
▁breve	-10.7084
▁suave	-10.7084
▁curta	-10.7084
▁facéndo	-10.7084
▁abandono	-10.7084
▁refíre	-10.7084
▁xeonllo	-10.7084
▁tóxico	-10.7084
▁ombro	-10.7084
▁suxeri	-10.7084
▁estudio	-10.7084
▁curioso	-10.7084
▁Empeza	-10.7084
▁Afg	-10.7084
▁logra	-10.7084
▁refu	-10.7084
▁aldea	-10.7084
▁trauma	-10.7084
▁ducia	-10.7084
▁tarta	-10.7084
tárti	-10.7085
▁nalgunha	-10.7085
ágoa	-10.7085
▁fisc	-10.7085
▁reunir	-10.7085
▁baila	-10.7085
▁Dicía	-10.7085
▁reunión	-10.7085
dúce	-10.7085
▁biólogo	-10.7085
▁heroí	-10.7085
▁inflúe	-10.7085
▁ocupado	-10.7085
▁permití	-10.7085
▁imposíbe	-10.7085
▁transparente	-10.7085
▁neurolóxica	-10.7085
▁196	-10.7085
▁humor	-10.7086
▁intervi	-10.7086
▁compoñente	-10.7086
▁cómpre	-10.7086
▁transcrición	-10.7086
▁lámpada	-10.7086
▁comercial	-10.7086
▁vermella	-10.7086
▁dirixe	-10.7086
▁lenta	-10.7087
▁introduci	-10.7087
▁194	-10.7087
▁informe	-10.7088
▁independente	-10.7088
▁vibra	-10.7088
▁inxustiza	-10.7088
▁favorita	-10.7088
▁goza	-10.7088
▁aspiración	-10.7089
rimoni	-10.7089
▁Sacar	-10.7089
▁promo	-10.7089
▁inspirou	-10.709
▁folla	-10.7091
▁auténtica	-10.7091
▁Déixen	-10.7092
▁baseándo	-10.7092
▁densidade	-10.7092
arth	-10.7093
▁columna	-10.7093
▁elegan	-10.7094
▁desiguais	-10.7094
▁brote	-10.7095
▁escribi	-10.7096
▁lonxitude	-10.7096
▁imitación	-10.7097
▁feita	-10.7097
▁mirou	-10.7097
▁ruso	-10.7098
▁arteria	-10.7098
▁publicou	-10.7099
▁orgulloso	-10.7099
litro	-10.7099
crát	-10.71
ándal	-10.71
▁apel	-10.71
▁bomba	-10.7101
▁teito	-10.7102
▁moitísimo	-10.7104
▁impoten	-10.7106
▁imprimi	-10.7107
▁perigoso	-10.7107
▁reflexión	-10.7107
▁israelí	-10.7108
▁convencer	-10.7108
ctura	-10.7108
▁debuxante	-10.7109
▁determinada	-10.7109
róxeno	-10.711
▁Rí	-10.7113
▁fil	-10.7113
▁Algu	-10.7114
▁Jim	-10.7114
▁farmacéutica	-10.7114
▁radical	-10.7114
▁adventista	-10.7114
▁arroz	-10.7114
▁manada	-10.7116
▁defini	-10.7117
ntame	-10.7117
▁compartida	-10.712
▁espacia	-10.712
ectu	-10.712
▁demanda	-10.712
posto	-10.7122
▁solucionar	-10.7122
▁prisi	-10.7126
▁inclúe	-10.7128
▁Sva	-10.7129
▁corrente	-10.7132
▁fuxi	-10.7132
anceiro	-10.7133
▁fíxen	-10.7134
áronlle	-10.7137
▁prescrib	-10.7137
bard	-10.7138
▁manua	-10.714
▁lura	-10.714
▁America	-10.7141
▁conectada	-10.7141
▁separar	-10.7142
torno	-10.7145
arédes	-10.7146
▁plancto	-10.7148
▁vento	-10.7148
eth	-10.7149
▁Marg	-10.7152
leta	-10.7153
▁Angeles	-10.7153
▁conseguiu	-10.7155
▁autista	-10.716
▁urxencias	-10.7163
▁pesado	-10.7166
▁colga	-10.7169
▁funcionamento	-10.7172
pal	-10.7177
▁DO	-10.7182
am	-10.7182
▁acabo	-10.7183
▁monte	-10.7185
▁chamaría	-10.7189
▁seguía	-10.7189
▁celular	-10.7189
xustiza	-10.719
íodo	-10.7193
▁Liber	-10.7195
▁desastre	-10.7197
▁presentar	-10.7201
▁terzo	-10.7202
▁sé	-10.7208
ándolle	-10.7209
▁funda	-10.7209
▁subía	-10.7209
▁adiviña	-10.7214
▁Nese	-10.7215
▁destaca	-10.7216
garda	-10.7217
ivo	-10.7218
rusa	-10.7219
▁adoptar	-10.7221
▁Ever	-10.7228
▁remoto	-10.7229
▁padece	-10.7231
▁luxo	-10.7239
▁vivenda	-10.7244
▁Bur	-10.7246
▁siga	-10.7247
▁debuxa	-10.725
pita	-10.7253
▁poli	-10.7256
▁cibercrim	-10.7258
▁afectado	-10.7261
▁rem	-10.7262
▁extremo	-10.7265
▁fic	-10.7267
▁ponte	-10.7268
▁Prob	-10.7271
▁chamo	-10.7276
mula	-10.728
▁voto	-10.7283
SID	-10.7287
▁cuestionar	-10.7289
▁vivía	-10.7289
▁Toma	-10.7292
▁esperaba	-10.7297
▁encontro	-10.7297
▁pasara	-10.7308
▁complicada	-10.7313
▁veña	-10.7314
táde	-10.7326
▁asocia	-10.7329
xen	-10.7331
▁deporte	-10.734
▁miras	-10.734
▁entend	-10.735
▁deixaba	-10.7374
▁conte	-10.7374
▁mat	-10.7375
tivos	-10.7377
▁pos	-10.7382
▁dirixir	-10.7404
▁ergue	-10.7405
▁parada	-10.7406
▁incluía	-10.7418
▁atopalo	-10.7419
ruga	-10.7434
▁Wor	-10.7437
▁Asi	-10.744
▁consig	-10.7443
▁arque	-10.745
stancia	-10.7454
▁pegar	-10.7455
▁comparar	-10.7455
▁Fagámo	-10.7467
leste	-10.7468
▁bro	-10.7483
▁pide	-10.7483
▁audio	-10.7485
▁tomaba	-10.7546
mar	-10.7546
▁posto	-10.7549
▁brilla	-10.7556
ifica	-10.756
endedor	-10.7567
▁traduci	-10.7573
ler	-10.7574
▁golpea	-10.7578
▁Pu	-10.7583
yw	-10.76
▁praz	-10.7606
▁millo	-10.7608
hí	-10.761
orriso	-10.7615
paz	-10.7618
eneira	-10.7618
▁import	-10.764
oulle	-10.7655
ric	-10.7663
ciño	-10.7665
▁pelo	-10.7665
▁Har	-10.7666
▁funcional	-10.7669
ófic	-10.767
ámo	-10.7677
imba	-10.7684
▁post	-10.7685
▁terían	-10.7697
▁emocionad	-10.7722
▁Mostr	-10.7724
▁diagnosticar	-10.7728
▁gam	-10.7751
im	-10.7756
▁Gi	-10.7764
▁definir	-10.7765
▁convi	-10.7769
uta	-10.7771
▁caus	-10.7779
▁Centr	-10.7788
▁fl	-10.7793
cheguei	-10.7806
▁tort	-10.7807
▁convertir	-10.7821
▁dev	-10.783
erado	-10.7843
▁desc	-10.7853
▁180	-10.7907
▁ap	-10.7918
▁rel	-10.7924
▁utilizar	-10.7929
tóma	-10.7959
emia	-10.7969
▁provocar	-10.7982
▁esquecer	-10.7997
forme	-10.8001
▁cin	-10.8008
▁XI	-10.8019
▁arrastra	-10.8046
▁ignoran	-10.8061
▁preocupar	-10.8076
ard	-10.8114
▁acabar	-10.8134
▁naciona	-10.8154
▁agard	-10.8157
▁respect	-10.8182
▁liber	-10.819
▁bast	-10.8225
▁enví	-10.8235
aron	-10.8257
inda	-10.8273
nés	-10.8274
odia	-10.8298
▁observ	-10.831
ecer	-10.8313
uco	-10.8337
▁afronta	-10.8342
▁poñel	-10.8362
▁ventilad	-10.837
▁mudar	-10.8379
▁dixer	-10.8383
▁emerxe	-10.8394
▁viol	-10.8396
▁Ven	-10.841
▁Tam	-10.8415
▁unir	-10.8418
we	-10.842
em	-10.8432
mail	-10.8447
▁participar	-10.845
cir	-10.8454
▁mov	-10.8457
▁ras	-10.846
lema	-10.847
ccidente	-10.8482
▁bei	-10.8483
▁Hu	-10.849
dei	-10.8493
cla	-10.8494
▁Ban	-10.8495
▁domina	-10.8513
▁bat	-10.8517
▁chegue	-10.8522
ud	-10.8527
▁Atop	-10.8528
▁fó	-10.853
▁mir	-10.8531
ive	-10.854
▁abri	-10.8543
itude	-10.8545
hi	-10.8556
via	-10.8562
icos	-10.8573
inaria	-10.8586
cár	-10.8588
visión	-10.8595
deira	-10.8602
▁escolar	-10.8609
ano	-10.8619
▁saíd	-10.8625
▁equivoca	-10.8625
▁espi	-10.8634
ular	-10.8639
heri	-10.8659
▁contan	-10.866
▁Persoa	-10.8661
▁fú	-10.8682
▁Fa	-10.8689
▁complex	-10.8697
▁infan	-10.8699
▁organiza	-10.8708
prender	-10.8723
pro	-10.8727
ick	-10.8735
firma	-10.8744
▁déb	-10.8745
▁decata	-10.8751
rir	-10.8755
inme	-10.8766
▁informátic	-10.878
ack	-10.8783
▁buscas	-10.8783
▁Falo	-10.8794
dución	-10.8804
▁quenta	-10.8814
lar	-10.8821
▁Chamá	-10.883
▁premi	-10.8832
▁divin	-10.8836
berg	-10.8844
ferio	-10.8848
▁aplica	-10.8851
xencia	-10.8852
▁escur	-10.8852
▁Cent	-10.8854
▁ped	-10.8858
illas	-10.886
gam	-10.8861
▁Ter	-10.8863
▁aburrid	-10.8865
gráfica	-10.8866
zón	-10.8867
▁Chic	-10.8871
W	-10.8871
PA	-10.8879
▁tol	-10.8884
▁déix	-10.8886
▁amplia	-10.8889
▁Alo	-10.8898
▁600	-10.8902
▁almacena	-10.8903
adores	-10.8905
cultura	-10.891
tío	-10.8911
▁editor	-10.8912
cómod	-10.8917
▁hem	-10.8919
▁obxectiv	-10.892
▁tor	-10.8922
mega	-10.8923
▁síntom	-10.8927
▁conclu	-10.8927
▁submarin	-10.893
▁naquel	-10.8933
outra	-10.8941
▁gl	-10.8941
▁activara	-10.8947
▁soar	-10.8954
oven	-10.8972
cou	-10.8976
▁Th	-10.899
ty	-10.8991
▁excep	-10.8993
▁presenta	-10.8995
▁sobrevivir	-10.8998
stin	-10.9
▁rexistra	-10.9
ámetro	-10.9001
▁individual	-10.9028
▁local	-10.9029
▁colabora	-10.9034
▁recon	-10.9036
▁principa	-10.9041
ille	-10.9042
▁inicia	-10.9044
▁radica	-10.9047
▁captura	-10.9048
▁Mal	-10.9055
inson	-10.9055
ésemos	-10.9066
▁pasará	-10.9066
cidio	-10.9069
oma	-10.9069
ístico	-10.907
bul	-10.9073
▁expan	-10.9073
▁fusi	-10.9074
ático	-10.9074
▁1000	-10.9077
▁Vó	-10.9081
yne	-10.9082
áballe	-10.9082
▁radio	-10.9083
▁comentar	-10.9083
▁Gusta	-10.9083
▁blog	-10.9084
▁temper	-10.9084
▁Permít	-10.9084
▁expandir	-10.9084
clive	-10.9084
▁DVD	-10.9084
▁abundante	-10.9084
▁achéga	-10.9084
▁adquisición	-10.9084
▁alicerce	-10.9084
▁billón	-10.9084
▁bombeiro	-10.9084
▁cardiovascular	-10.9084
▁ciborg	-10.9084
▁cociniña	-10.9084
▁competencia	-10.9084
▁computación	-10.9084
▁déficit	-10.9084
▁electro	-10.9084
▁elefante	-10.9084
▁epidemi	-10.9084
▁fiestra	-10.9084
▁grego	-10.9084
▁habitual	-10.9084
▁ilusión	-10.9084
▁innovación	-10.9084
▁melodía	-10.9084
▁obvio	-10.9084
▁permanente	-10.9084
▁positiva	-10.9084
▁primitiv	-10.9084
▁proxección	-10.9084
▁rápida	-10.9084
▁segrega	-10.9084
▁táboa	-10.9084
▁Mozart	-10.9084
▁accesible	-10.9084
▁confuso	-10.9084
▁destreza	-10.9084
▁ideograma	-10.9084
▁proporción	-10.9084
▁refire	-10.9084
▁reimplanta	-10.9084
▁diverso	-10.9084
▁matemático	-10.9084
▁trillón	-10.9084
▁considere	-10.9084
▁escrita	-10.9084
▁innovador	-10.9084
▁músculo	-10.9084
▁buraco	-10.9084
▁constitu	-10.9084
▁inevit	-10.9084
mprov	-10.9084
▁eficaz	-10.9084
▁subxectiv	-10.9084
▁sueco	-10.9084
▁tóxica	-10.9084
▁Palestin	-10.9084
gaiola	-10.9084
▁retorna	-10.9084
▁define	-10.9084
▁pedímoslle	-10.9084
▁Berns	-10.9084
▁Richar	-10.9084
▁incendio	-10.9084
▁prefir	-10.9084
harmon	-10.9084
▁Paréce	-10.9084
▁perfecciona	-10.9084
▁ardendo	-10.9084
▁antrop	-10.9084
▁Funciona	-10.9084
▁neural	-10.9084
▁líder	-10.9084
▁precioso	-10.9084
▁vólve	-10.9084
▁potente	-10.9084
▁vertical	-10.9084
▁firme	-10.9084
▁botella	-10.9084
▁atavismo	-10.9085
▁baleira	-10.9085
▁acuario	-10.9085
▁saudable	-10.9085
▁Sínto	-10.9085
▁Presént	-10.9085
▁marrón	-10.9085
▁replica	-10.9085
▁xudeu	-10.9085
▁avión	-10.9085
▁cambie	-10.9085
▁vexeta	-10.9085
▁99	-10.9085
▁1,	-10.9085
▁substancia	-10.9085
▁museo	-10.9085
▁cuxo	-10.9085
▁exposto	-10.9085
▁influencia	-10.9085
▁Toc	-10.9085
▁extens	-10.9085
▁exemplar	-10.9086
▁bonito	-10.9086
▁intra	-10.9086
▁educativo	-10.9086
FR	-10.9086
▁militar	-10.9086
▁movéndo	-10.9086
▁roca	-10.9086
▁costeira	-10.9086
▁ubica	-10.9086
▁decatá	-10.9086
▁xornalista	-10.9086
▁flore	-10.9086
▁derrame	-10.9086
▁xoguete	-10.9086
▁pirateada	-10.9087
▁xuven	-10.9087
▁dividen	-10.9087
▁continente	-10.9087
▁apaixonada	-10.9087
▁nerviosa	-10.9088
▁financeiro	-10.9088
▁impactante	-10.9088
xplicou	-10.9088
▁derrete	-10.9088
▁antropólog	-10.9088
barata	-10.9088
▁favorito	-10.9088
▁Ommm	-10.9089
▁poeta	-10.9089
grama	-10.9089
▁remonta	-10.9089
▁cita	-10.9089
▁recrea	-10.909
▁fría	-10.909
mico	-10.909
▁enfrontar	-10.909
▁New	-10.909
▁Kuan	-10.9091
▁carece	-10.9091
▁donicela	-10.9091
▁virtude	-10.9092
▁aliña	-10.9092
▁tarda	-10.9092
▁destila	-10.9093
▁asento	-10.9093
▁señor	-10.9093
▁drama	-10.9093
▁fixar	-10.9094
ículo	-10.9094
▁referencia	-10.9095
▁Audi	-10.9095
▁adicto	-10.9095
▁baixar	-10.9095
▁revolución	-10.9096
▁chair	-10.9096
▁guión	-10.9097
▁diagnosticado	-10.9099
▁relixiosa	-10.9099
▁posibilita	-10.9099
▁aboia	-10.9099
icina	-10.9099
▁permitiu	-10.9099
▁concepción	-10.9099
▁póla	-10.9099
ulario	-10.9099
▁especula	-10.91
▁afirmación	-10.91
▁mariño	-10.9101
▁rocha	-10.9102
▁cerca	-10.9102
▁medica	-10.9104
▁aplicala	-10.9104
▁autoridade	-10.9104
▁probiótica	-10.9104
▁Mill	-10.9105
icidade	-10.9106
▁facia	-10.9107
▁asociación	-10.9109
▁currículo	-10.9109
▁fragmento	-10.911
▁Funda	-10.9112
▁lóbulo	-10.9113
▁servir	-10.9113
▁microbiana	-10.9113
▁depósito	-10.9114
tuber	-10.9115
ik	-10.9115
▁satisfac	-10.9116
rónico	-10.9117
▁engade	-10.9117
▁entendel	-10.9118
▁filos	-10.9118
▁frac	-10.9119
irám	-10.9119
▁neto	-10.912
▁disco	-10.912
▁plen	-10.9121
▁capturado	-10.9121
▁familiarizad	-10.9121
▁Her	-10.9121
▁abraiado	-10.9122
▁daquel	-10.9122
▁fita	-10.9122
▁desafío	-10.9124
▁sux	-10.9124
▁inicial	-10.9125
▁occidental	-10.9126
▁relacionado	-10.9127
▁poderosa	-10.9128
▁inimigo	-10.9129
▁crista	-10.9129
▁TO	-10.913
▁suf	-10.9131
ándoo	-10.9131
itán	-10.9134
▁permita	-10.9135
▁Sexa	-10.9135
igante	-10.9137
▁tren	-10.914
▁querido	-10.9141
▁tór	-10.9142
iki	-10.9148
▁representación	-10.9151
▁histórico	-10.9151
▁pape	-10.9155
▁descende	-10.9156
▁cargo	-10.9159
▁pagan	-10.916
ánd	-10.9161
oubo	-10.9162
▁liberal	-10.9162
▁inmune	-10.9163
▁incluído	-10.9163
▁bloquear	-10.9167
▁enlace	-10.9167
▁sobrevivi	-10.9171
▁ocorrería	-10.9171
▁ilustra	-10.9174
▁monta	-10.9175
▁reduce	-10.9178
▁preocupado	-10.9179
▁Levou	-10.9181
▁frea	-10.9182
▁Am	-10.9183
▁produci	-10.9184
▁magnética	-10.9184
▁canle	-10.9185
▁xur	-10.9187
▁cognitiv	-10.9188
▁respectar	-10.9189
▁prolonga	-10.919
▁alongar	-10.919
▁psicó	-10.9191
▁extrañ	-10.9195
▁enerxético	-10.9198
▁león	-10.9199
▁prega	-10.9204
ónica	-10.9211
▁estrelado	-10.9212
▁delincuen	-10.9215
ouna	-10.9221
rolóxic	-10.9221
ilidade	-10.9222
▁serve	-10.9223
▁Acab	-10.9224
▁Jam	-10.9229
▁Atopei	-10.9233
▁camiñaba	-10.9235
▁existente	-10.9238
ócrat	-10.9242
▁fer	-10.9244
▁reparar	-10.9254
▁ancho	-10.9255
▁axud	-10.9257
▁masivo	-10.9257
gular	-10.9257
▁conv	-10.9261
▁soben	-10.9263
▁estrat	-10.9267
▁extin	-10.9268
▁escribiu	-10.9281
▁sensor	-10.9285
▁protexida	-10.9287
▁mosquito	-10.9288
roga	-10.9288
▁investigar	-10.9291
▁oriental	-10.9294
versión	-10.9295
▁preocupe	-10.9298
festa	-10.9299
▁persegui	-10.9306
▁alia	-10.9306
▁beneficiosa	-10.9309
▁freg	-10.9316
▁Enca	-10.9318
ardo	-10.9327
▁dí	-10.9331
▁comprador	-10.9337
▁divino	-10.9343
▁aburrido	-10.9343
▁decidir	-10.9344
▁tro	-10.9345
▁déixa	-10.9346
utores	-10.9347
▁coñecen	-10.9374
▁liga	-10.9378
FB	-10.9379
NT	-10.9382
▁informático	-10.9397
pta	-10.9402
▁poñen	-10.9402
▁chin	-10.9424
vais	-10.9426
▁Dra	-10.9426
▁hon	-10.9441
uda	-10.9443
statina	-10.9451
▁europea	-10.9456
▁residente	-10.9463
▁Occident	-10.9463
▁coñecía	-10.9474
▁complementar	-10.9484
▁Poñe	-10.9513
▁Man	-10.9513
▁desfruta	-10.9522
ímol	-10.9534
íza	-10.9546
rcha	-10.958
▁levalo	-10.9583
▁lavan	-10.9586
▁Lu	-10.9598
ensa	-10.9615
▁decen	-10.9617
obre	-10.9621
um	-10.9632
▁Carl	-10.9638
▁Quería	-10.9643
▁extrem	-10.9646
▁Rede	-10.9648
bico	-10.9658
▁progresa	-10.9674
▁fix	-10.9675
▁bra	-10.9683
▁Vin	-10.9692
xon	-10.9729
puña	-10.9732
▁guste	-10.9733
▁comprende	-10.9745
ep	-10.9763
parecen	-10.9775
▁contou	-10.9795
▁demasiada	-10.9797
▁Walt	-10.9806
▁permanece	-10.9809
hei	-10.981
▁Sant	-10.9823
abilidade	-10.9834
▁pán	-10.9838
▁medioambienta	-10.9842
▁significativ	-10.9848
▁ventila	-10.9852
▁existir	-10.9854
▁choi	-10.9857
▁retira	-10.9874
▁Ver	-10.9879
▁pano	-10.988
▁Aten	-10.989
ber	-10.9898
ation	-10.993
▁Volve	-10.9935
▁obriga	-10.9937
▁animado	-10.9962
▁concordan	-10.9964
iedade	-10.9983
▁saia	-10.9984
▁Cr	-11
▁esf	-11.0014
▁ru	-11.0038
▁32	-11.0041
▁caro	-11.0045
hani	-11.0058
▁Segue	-11.006
▁elixi	-11.0062
usto	-11.007
▁falarlle	-11.0073
▁aforrar	-11.0075
▁fracas	-11.0081
atura	-11.0113
ónomo	-11.0116
▁quixer	-11.012
▁amosaba	-11.0122
emán	-11.0123
xía	-11.0125
▁manté	-11.0126
▁Ron	-11.0136
▁rab	-11.0146
lcol	-11.0148
▁viral	-11.0154
▁revelar	-11.0173
▁gale	-11.0201
cheste	-11.0203
▁ensinarll	-11.0209
ng	-11.0216
▁adestra	-11.0221
▁obtiv	-11.0222
ándoos	-11.0234
▁cortar	-11.024
▁deci	-11.0246
▁ambi	-11.025
▁sufrir	-11.0256
ai	-11.0284
tación	-11.0308
▁formado	-11.0319
▁suceder	-11.0339
dren	-11.0355
▁cl	-11.0356
gua	-11.0365
▁quix	-11.0366
▁Eh	-11.0371
cel	-11.0407
isco	-11.0408
dian	-11.0432
▁domin	-11.0449
▁xeno	-11.0452
▁pedi	-11.0468
etín	-11.0472
▁Brun	-11.0476
▁Bo	-11.0476
ríalle	-11.0483
gou	-11.0485
▁desenvolven	-11.049
▁Fale	-11.0491
▁financi	-11.0494
mb	-11.0505
▁transporta	-11.0512
▁tróuxo	-11.0538
▁cren	-11.0554
ato	-11.0556
▁pasan	-11.0574
▁Lembr	-11.0589
▁Volv	-11.0598
tru	-11.06
▁recu	-11.0601
▁xogan	-11.0606
alleira	-11.0608
▁mer	-11.0608
▁emociona	-11.061
▁NO	-11.0616
▁Tim	-11.0654
▁Escoite	-11.0666
ministra	-11.0688
minante	-11.0724
▁Pag	-11.0752
nim	-11.0761
▁diari	-11.0767
▁merc	-11.0769
▁nacer	-11.0772
▁describ	-11.0782
▁contesta	-11.0784
▁indi	-11.0799
▁viñe	-11.0803
▁sorri	-11.0812
CR	-11.0822
ior	-11.0823
▁selo	-11.0826
▁Uni	-11.0834
▁lama	-11.0843
▁brill	-11.0855
▁golpe	-11.0857
▁xer	-11.0861
úl	-11.0864
▁beneficio	-11.0872
strución	-11.0875
▁representar	-11.0891
▁Sand	-11.0893
▁Sub	-11.0912
terio	-11.0945
▁obt	-11.0964
▁senten	-11.0975
▁disposi	-11.098
▁rib	-11.0983
▁dirían	-11.0985
ánico	-11.0986
tein	-11.1017
▁trem	-11.1035
▁and	-11.1041
▁Rob	-11.1042
▁compartil	-11.1044
▁atende	-11.107
lén	-11.1081
▁necesit	-11.1085
▁barr	-11.1089
▁Franc	-11.109
▁gastan	-11.1099
robable	-11.1103
▁fund	-11.1104
▁visit	-11.1127
▁Tiv	-11.1145
paña	-11.1153
▁asegura	-11.1154
▁Fal	-11.1155
izado	-11.1156
▁aposta	-11.1163
▁Axuda	-11.1176
ue	-11.1183
▁defend	-11.1198
bios	-11.1205
ben	-11.121
▁consiste	-11.1212
▁aproxima	-11.1213
▁Pen	-11.122
▁incentiv	-11.1223
tipo	-11.1223
▁secundari	-11.1224
▁instala	-11.1228
▁rompe	-11.1228
▁fi	-11.1234
▁xéne	-11.1247
▁pecha	-11.1256
▁Mis	-11.1263
▁Cit	-11.1279
▁bal	-11.1286
▁Poñ	-11.1288
▁american	-11.1293
▁ví	-11.1294
▁Comez	-11.1299
▁adult	-11.1299
bore	-11.13
cti	-11.1306
▁persegu	-11.1307
▁priv	-11.1307
▁lexisla	-11.1308
▁remo	-11.1309
▁escas	-11.1314
pendente	-11.1317
colá	-11.1317
the	-11.1318
▁orienta	-11.1321
aparición	-11.1334
ús	-11.1354
▁Có	-11.1357
feliz	-11.1369
prezo	-11.137
conxunt	-11.1372
mercado	-11.1372
▁narra	-11.138
vexa	-11.1381
▁expresa	-11.14
▁interesa	-11.1402
presa	-11.1407
ebé	-11.1408
luxo	-11.1415
▁Medi	-11.1427
▁Mon	-11.1428
▁Pregunt	-11.1429
arca	-11.1437
tivera	-11.1439
ábe	-11.1439
▁europe	-11.1444
inistro	-11.1447
▁Bea	-11.1448
▁cogni	-11.1453
▁mare	-11.1454
rible	-11.1455
▁milagr	-11.1459
▁soste	-11.1462
▁camis	-11.1468
▁grax	-11.1468
▁establece	-11.1472
▁Ex	-11.1476
▁extern	-11.148
▁durm	-11.1483
▁negativ	-11.1484
cean	-11.1484
LL	-11.1487
▁mostr	-11.1495
assa	-11.1497
ham	-11.1505
porta	-11.1507
serva	-11.1507
▁industrial	-11.1509
▁Red	-11.1516
▁diminu	-11.1524
▁especia	-11.1527
▁adop	-11.1549
▁psico	-11.1557
▁excita	-11.1557
▁chu	-11.1559
▁roubar	-11.156
▁frecuen	-11.156
▁perfora	-11.1562
▁dixita	-11.1562
iguais	-11.1568
▁ST	-11.1569
▁oportun	-11.1573
rrada	-11.1573
▁amósa	-11.1575
ciona	-11.1578
▁privaci	-11.1578
▁profe	-11.1578
luír	-11.1578
▁electrón	-11.1579
▁preferi	-11.158
▁automati	-11.1582
roxecto	-11.1582
▁hiper	-11.1583
lobal	-11.1583
▁goberna	-11.1584
▁desfacer	-11.1584
▁reimplantá	-11.1584
▁acostuma	-11.1584
▁aprobou	-11.1584
▁malinterpret	-11.1584
▁afécta	-11.1584
▁almacén	-11.1584
▁atmosfera	-11.1584
▁atractivo	-11.1584
▁averigua	-11.1584
▁banqueiro	-11.1584
▁catastrófic	-11.1584
▁ceremonia	-11.1584
▁crítico	-11.1584
▁círculo	-11.1584
▁embrión	-11.1584
▁encripta	-11.1584
▁erróne	-11.1584
▁estudiar	-11.1584
▁fabulosa	-11.1584
▁fogueira	-11.1584
▁hipótese	-11.1584
▁incorrecta	-11.1584
▁instrumenta	-11.1584
▁italiano	-11.1584
▁machada	-11.1584
▁microscopio	-11.1584
▁nocturn	-11.1584
▁oculto	-11.1584
▁orgánica	-11.1584
▁percibe	-11.1584
▁petrolífera	-11.1584
▁prospera	-11.1584
▁razoable	-11.1584
▁rechamante	-11.1584
▁repercusión	-11.1584
▁restrición	-11.1584
▁smartphone	-11.1584
▁suxeita	-11.1584
▁traxedia	-11.1584
▁típico	-11.1584
▁voluntaria	-11.1584
tribúe	-11.1584
▁Galile	-11.1584
▁acústica	-11.1584
▁cincuenta	-11.1584
▁diabétic	-11.1584
▁inicio	-11.1584
▁inmediato	-11.1584
▁intelectual	-11.1584
▁universitario	-11.1584
ángulo	-11.1584
▁Coñecí	-11.1584
▁Phil	-11.1584
▁arraiga	-11.1584
▁contempla	-11.1584
▁examinar	-11.1584
▁fantasía	-11.1584
▁heli	-11.1584
▁quilómetro	-11.1584
▁sustenta	-11.1584
▁concreta	-11.1584
▁refuxio	-11.1584
▁requeri	-11.1584
▁sinónimo	-11.1584
▁acorda	-11.1584
▁asfalt	-11.1584
▁beneficiar	-11.1584
▁desafi	-11.1584
▁describiu	-11.1584
▁renunciar	-11.1584
▁soberana	-11.1584
▁amarela	-11.1584
▁montaños	-11.1584
▁pedazo	-11.1584
▁periodo	-11.1584
▁dicíndolle	-11.1584
▁hábitat	-11.1584
▁paquete	-11.1584
▁statu	-11.1584
▁actíva	-11.1584
▁cavila	-11.1584
▁práctico	-11.1584
▁xestiona	-11.1584
▁condenado	-11.1584
▁atascado	-11.1584
▁asasino	-11.1584
▁promesa	-11.1584
▁amiga	-11.1584
▁atún	-11.1584
▁carreteira	-11.1584
▁Intente	-11.1584
▁chámolle	-11.1584
▁contacta	-11.1584
▁equipa	-11.1584
▁regulación	-11.1584
▁caixeiro	-11.1584
▁circun	-11.1584
▁filtra	-11.1584
▁orella	-11.1584
▁escravitude	-11.1584
▁vantaxe	-11.1584
▁documenta	-11.1584
▁centímetro	-11.1584
MAN	-11.1584
▁xefa	-11.1584
millonario	-11.1584
▁sétim	-11.1584
▁vitamina	-11.1584
flexible	-11.1584
▁emiti	-11.1584
vara	-11.1584
ógrafo	-11.1584
▁prové	-11.1584
▁arrogan	-11.1585
▁psiqu	-11.1585
▁Viven	-11.1585
▁circuíto	-11.1585
▁vítima	-11.1585
▁catedra	-11.1585
▁profesión	-11.1585
▁filtro	-11.1585
▁meniño	-11.1585
▁activista	-11.1585
▁educativa	-11.1585
▁biopsia	-11.1585
▁estrea	-11.1585
drí	-11.1585
▁baséa	-11.1585
ilómetro	-11.1585
▁lector	-11.1585
▁kilo	-11.1585
▁dilata	-11.1585
▁Aaaaaa	-11.1585
▁coello	-11.1585
▁esaxera	-11.1585
▁contenta	-11.1585
▁inmers	-11.1585
▁sorrí	-11.1585
▁roubada	-11.1586
▁pró	-11.1586
▁nixerian	-11.1586
▁limpo	-11.1586
▁monólogo	-11.1586
▁torpe	-11.1586
▁impresión	-11.1586
psia	-11.1586
▁Resum	-11.1586
▁pelexa	-11.1586
▁albor	-11.1586
▁encarna	-11.1586
▁santuario	-11.1586
▁gana	-11.1586
▁bóla	-11.1587
▁achegou	-11.1587
▁outeiro	-11.1587
▁titula	-11.1587
▁devastadora	-11.1587
▁resistir	-11.1587
LA	-11.1588
▁Brit	-11.1588
▁intim	-11.1588
▁volva	-11.1588
▁desesperada	-11.1589
▁Occidental	-11.1589
▁intensi	-11.1589
▁xenoma	-11.1589
▁Live	-11.1589
▁simpátic	-11.1589
azz	-11.1589
▁diminuta	-11.159
▁Fox	-11.159
▁excelente	-11.159
▁impresionante	-11.159
phe	-11.159
críbe	-11.159
▁mudou	-11.159
▁chámanlle	-11.1591
▁escrav	-11.1591
▁cabal	-11.1591
ótica	-11.1591
▁Jean	-11.1591
▁posúe	-11.1592
▁parentes	-11.1592
▁Envia	-11.1593
▁convencido	-11.1593
▁RM	-11.1593
▁tráxic	-11.1593
▁palma	-11.1593
▁veciño	-11.1594
▁perdido	-11.1594
▁CD	-11.1595
▁imita	-11.1595
▁mergullar	-11.1595
▁Medica	-11.1595
▁pódo	-11.1596
órica	-11.1596
▁crecí	-11.1596
▁produza	-11.1596
nitor	-11.1597
▁analóxic	-11.1597
▁utilice	-11.1597
▁paralizad	-11.1598
▁Xú	-11.1598
▁feble	-11.1598
▁primario	-11.1598
▁asustada	-11.1598
▁cabelo	-11.1599
▁afortunad	-11.16
▁procedemento	-11.16
▁merece	-11.16
▁apropiada	-11.1601
▁presencia	-11.1601
▁larg	-11.1601
▁lazo	-11.1602
▁recoñecid	-11.1602
▁zoo	-11.1602
uerra	-11.1603
▁mancha	-11.1603
▁asilo	-11.1604
▁lavado	-11.1604
▁perdida	-11.1604
fiel	-11.1605
amá	-11.1605
▁pechada	-11.1605
▁Deixado	-11.1605
▁traxe	-11.1605
▁coloniza	-11.1605
▁compasiv	-11.1605
eynes	-11.1605
▁dándolle	-11.1606
ificado	-11.1606
▁mencionar	-11.1606
▁CI	-11.1606
▁contén	-11.1606
▁coincidi	-11.1608
▁fri	-11.1608
▁frecuente	-11.1608
▁restaura	-11.1608
▁protexelo	-11.1609
▁invitado	-11.1609
▁barrio	-11.161
▁proteica	-11.161
▁caricatura	-11.161
▁filme	-11.1611
▁expoñe	-11.1612
▁excepción	-11.1612
▁pregúnta	-11.1612
▁acoplar	-11.1614
▁obsesiona	-11.1614
▁decide	-11.1615
▁ensaia	-11.1615
▁fibr	-11.1615
▁acoplado	-11.1615
▁Puxe	-11.1616
▁ultim	-11.1616
▁quéro	-11.1616
▁cap	-11.1617
▁lida	-11.1617
▁area	-11.1617
▁indic	-11.1617
▁6.	-11.1618
▁saud	-11.1619
▁CO	-11.162
▁Wil	-11.1621
▁esgota	-11.1621
▁anual	-11.1622
▁reactor	-11.1622
▁pesada	-11.1622
ppi	-11.1623
▁pura	-11.1626
itch	-11.1628
▁simulación	-11.1628
▁notable	-11.1629
▁gasto	-11.1629
▁inglesa	-11.1629
▁definido	-11.163
▁democrático	-11.163
▁neurocientífico	-11.163
▁separado	-11.163
▁especifica	-11.1631
sani	-11.1631
verna	-11.1631
nka	-11.1631
▁agregad	-11.1631
▁ui	-11.1632
▁fortalece	-11.1632
▁estadio	-11.1632
▁Crec	-11.1633
▁candidato	-11.1633
▁falsa	-11.1633
▁Pr	-11.1634
▁necesitaba	-11.1634
▁SH	-11.1635
ek	-11.1636
▁estén	-11.1636
▁axente	-11.1637
▁enganar	-11.1637
▁instinto	-11.164
guei	-11.164
▁moribundo	-11.1641
▁Pasei	-11.1644
▁entidade	-11.1644
▁Comp	-11.1644
▁orbitan	-11.1646
▁separada	-11.1646
wart	-11.1649
baleiro	-11.165
alh	-11.1651
▁sorprendeu	-11.1651
▁sabid	-11.1654
▁sombra	-11.1655
▁sorprend	-11.1656
▁chamaba	-11.1657
Pix	-11.1658
▁transmis	-11.1658
▁nalg	-11.1659
▁personal	-11.1659
▁reg	-11.1661
▁percorre	-11.1662
▁interna	-11.1662
▁40.	-11.1663
▁preci	-11.1664
tario	-11.1667
▁cumprir	-11.1668
▁tráta	-11.1668
▁levei	-11.1669
▁baseado	-11.1669
viare	-11.167
▁respondi	-11.1671
▁Díxen	-11.1672
▁invento	-11.1675
▁novela	-11.1681
▁porto	-11.1681
▁permitiría	-11.1684
▁rematado	-11.1684
gual	-11.1684
▁concibi	-11.1685
▁variación	-11.1686
▁roto	-11.1688
▁50.	-11.1688
▁beber	-11.1688
▁xerado	-11.1689
▁fraud	-11.1689
ndador	-11.1689
▁bordo	-11.1692
estión	-11.1692
▁empregala	-11.1692
▁externa	-11.1693
▁Emprega	-11.1693
▁encanta	-11.1695
▁ámb	-11.1696
▁suceso	-11.1698
▁reflicte	-11.1698
▁neva	-11.1703
tua	-11.1706
piedade	-11.1707
▁preparar	-11.1707
▁dividido	-11.1708
▁cert	-11.171
▁policia	-11.1713
▁anuncia	-11.1718
▁ecolox	-11.1719
▁marc	-11.1721
▁transmitid	-11.1723
▁Move	-11.1729
▁Sir	-11.173
▁saco	-11.1732
▁pla	-11.1732
-1	-11.1732
▁centenario	-11.1739
▁surf	-11.1742
▁alf	-11.1742
▁empregan	-11.1743
▁íntimo	-11.1745
▁buc	-11.1745
▁mobil	-11.175
▁dubida	-11.175
▁mecanic	-11.1756
▁colocado	-11.1756
▁defender	-11.1759
▁mostrei	-11.176
▁mín	-11.1762
▁semellaba	-11.1766
▁Preguntá	-11.1767
▁700	-11.1767
▁Faga	-11.1772
▁expresar	-11.1773
íta	-11.1773
▁apur	-11.1775
▁pago	-11.1776
▁propost	-11.1778
▁construid	-11.178
▁alguna	-11.1781
▁tomada	-11.1781
▁observación	-11.1781
▁débe	-11.1782
▁chamouno	-11.1784
▁Esto	-11.1788
▁molesta	-11.1789
▁industrializad	-11.179
▁caucásico	-11.1793
▁She	-11.18
stral	-11.1802
▁cadrado	-11.1806
▁respiro	-11.1806
▁Naquel	-11.1807
▁Ku	-11.1809
▁migra	-11.1811
nosco	-11.1813
▁astr	-11.1814
▁Amai	-11.1818
▁créan	-11.1818
▁Terá	-11.1823
▁diá	-11.1824
▁almacenar	-11.1826
ixan	-11.183
▁comerci	-11.1832
íg	-11.1833
erta	-11.1833
tinta	-11.1834
▁acompaña	-11.1834
▁amosou	-11.1835
▁improvisa	-11.1838
▁infla	-11.1839
▁chamalo	-11.1839
▁ampliar	-11.1841
▁Recoñece	-11.1843
▁fisi	-11.1847
▁abril	-11.1849
▁tap	-11.1853
▁Cart	-11.1857
▁matri	-11.1857
cido	-11.1859
▁procrastinador	-11.186
▁Gag	-11.1864
▁estraña	-11.1865
▁educa	-11.1867
▁Ed	-11.1868
▁entusiasma	-11.187
▁programación	-11.1871
molo	-11.1875
ki	-11.1876
▁evidente	-11.1877
ína	-11.1888
▁garda	-11.1891
▁vinte	-11.1893
mai	-11.1894
▁aprenda	-11.1897
IS	-11.1901
▁tomando	-11.1906
salto	-11.191
▁calma	-11.1911
▁africano	-11.1915
caso	-11.1923
▁prexudica	-11.1925
crea	-11.1927
▁Desa	-11.1942
▁monstros	-11.1943
▁xeométricas	-11.1943
▁Len	-11.1943
▁Haber	-11.1949
▁sábe	-11.1951
rich	-11.1953
▁pediu	-11.1954
rever	-11.197
▁prés	-11.197
▁empe	-11.1972
▁metal	-11.1974
▁afirma	-11.1975
▁ignor	-11.1976
▁Mer	-11.1985
▁motora	-11.1988
▁organizar	-11.1989
▁experimente	-11.1994
▁Bot	-11.1999
escribía	-11.2004
oxe	-11.2014
▁manteñ	-11.2021
▁aprecia	-11.2032
30	-11.2033
owl	-11.2036
▁verba	-11.2038
íso	-11.204
▁Win	-11.2042
▁medre	-11.2044
▁legal	-11.2046
nth	-11.2049
▁programado	-11.2066
▁rende	-11.2073
ivi	-11.2084
▁fonda	-11.2087
nel	-11.2091
▁mili	-11.2107
▁alm	-11.2133
vención	-11.2135
▁aperta	-11.2143
ect	-11.2144
▁Franci	-11.2149
▁Escoita	-11.2156
▁lim	-11.2161
▁apunta	-11.2177
▁agardar	-11.218
▁misterios	-11.2185
▁Pensaba	-11.2186
xar	-11.2189
▁lanz	-11.2191
rara	-11.2192
uma	-11.2193
tismo	-11.2194
▁espallar	-11.2194
onada	-11.2201
▁paseo	-11.2202
rah	-11.2204
▁ub	-11.2213
▁Met	-11.2214
seguiu	-11.2227
▁apostar	-11.2228
▁remat	-11.2237
▁comenza	-11.225
▁2.0	-11.2252
▁romper	-11.2266
mia	-11.2285
▁ovo	-11.2285
cés	-11.2306
▁trin	-11.2308
cente	-11.2311
▁atrae	-11.2315
neta	-11.2324
▁Segui	-11.2328
▁Pon	-11.2329
▁preguntámo	-11.2331
strucción	-11.2332
corporal	-11.234
lanet	-11.2357
grafa	-11.2365
▁receitar	-11.2373
▁inventar	-11.2373
▁Cl	-11.2395
▁permíte	-11.24
▁be	-11.2402
SA	-11.2404
cisión	-11.2407
▁gui	-11.2416
▁cociñar	-11.2426
▁realizar	-11.2427
▁atoparon	-11.2428
▁ch	-11.243
▁extraodinari	-11.243
ON	-11.2439
lizar	-11.2439
▁funcionaba	-11.2451
and	-11.2458
▁escoitan	-11.2469
▁recicl	-11.2472
rche	-11.2475
▁Sk	-11.2476
cé	-11.2485
▁progreso	-11.2491
xam	-11.2506
trol	-11.2527
rama	-11.254
▁odia	-11.2541
▁apart	-11.2542
▁querer	-11.2544
▁construín	-11.2572
EG	-11.2589
▁continuar	-11.2594
into	-11.261
ebra	-11.2626
▁aqui	-11.2635
xil	-11.2636
▁rastrex	-11.2637
▁inviste	-11.2643
▁xurdir	-11.2663
▁dispara	-11.2705
▁aliment	-11.2713
ug	-11.2717
▁sair	-11.272
real	-11.2726
árono	-11.275
éxic	-11.2757
▁escrib	-11.2772
▁parvo	-11.2777
▁produtiv	-11.2778
▁levaría	-11.2779
▁trataba	-11.2803
▁loca	-11.2834
▁faino	-11.2844
▁mercan	-11.2856
▁transmit	-11.2859
▁her	-11.2889
▁progres	-11.2902
80	-11.2928
terra	-11.293
▁lembre	-11.2948
mbre	-11.296
▁suc	-11.296
▁predicir	-11.297
▁cree	-11.3002
▁coidador	-11.3029
presentación	-11.3032
irán	-11.3045
▁Min	-11.3047
▁pis	-11.3053
ística	-11.3055
▁gañan	-11.3062
ában	-11.3065
▁Edi	-11.3066
60	-11.3075
wai	-11.3093
▁foc	-11.3093
▁volverá	-11.3103
▁Hel	-11.3109
▁coñecera	-11.3112
ctor	-11.3135
▁raci	-11.3138
▁tende	-11.3145
II	-11.3152
▁esto	-11.3155
▁causan	-11.3156
▁intern	-11.3158
▁Je	-11.3172
dí	-11.3197
▁pl	-11.3199
perto	-11.32
▁visitar	-11.3202
▁marchar	-11.3202
▁témo	-11.3209
éndoo	-11.3213
▁manipula	-11.322
ince	-11.3237
▁coautor	-11.3245
▁dedica	-11.3261
▁esquece	-11.3268
▁Fan	-11.3282
▁Lei	-11.3284
onal	-11.3311
mpa	-11.3322
▁anx	-11.335
▁lanzar	-11.3372
▁Ni	-11.3373
▁elixir	-11.3382
▁Jun	-11.3393
actúa	-11.3415
ancha	-11.3431
▁custar	-11.3451
▁conect	-11.3457
▁ignora	-11.3457
▁parecían	-11.3461
món	-11.3464
▁corta	-11.3485
▁concord	-11.3517
ib	-11.3527
▁dispar	-11.3536
▁desenvolv	-11.3571
▁invent	-11.3592
▁afundi	-11.3595
graf	-11.3601
▁revel	-11.3613
▁rastrexa	-11.3614
ñan	-11.362
inste	-11.3623
exar	-11.3625
estable	-11.3627
▁Bra	-11.3647
▁Sab	-11.3654
rosa	-11.3656
▁rexeit	-11.367
▁determin	-11.3693
produtivo	-11.3698
▁mandar	-11.3703
▁espir	-11.3704
▁alter	-11.3708
xent	-11.3723
▁Abr	-11.3742
▁seco	-11.3746
irá	-11.3772
▁contaba	-11.3779
▁espalla	-11.3796
xado	-11.38
pez	-11.3809
ificar	-11.3827
▁gust	-11.3833
lly	-11.3865
rill	-11.3869
émola	-11.3881
▁predici	-11.3885
▁Wal	-11.3897
▁protexen	-11.392
▁té	-11.3922
▁Imp	-11.3935
dición	-11.394
ñ	-11.3941
▁apre	-11.3986
▁abandona	-11.3987
▁Cli	-11.399
udito	-11.3995
bur	-11.4013
▁produtor	-11.4014
▁cad	-11.4017
▁Lin	-11.4023
rey	-11.4028
▁pobo	-11.4035
▁independen	-11.4051
▁Bi	-11.4085
▁odiar	-11.4087
leto	-11.4101
▁Ida	-11.4101
▁misterio	-11.4137
▁andan	-11.4145
ger	-11.4145
95	-11.4146
▁louv	-11.415
▁reza	-11.4155
▁investiga	-11.4161
▁descubr	-11.4169
▁evolucion	-11.4178
ixi	-11.42
▁Traball	-11.4208
kh	-11.4216
▁plane	-11.422
▁regra	-11.4243
máis	-11.4246
▁ingreso	-11.4258
▁Hom	-11.4259
dit	-11.4279
▁chegaba	-11.4283
▁traducid	-11.4288
▁observado	-11.4295
crimina	-11.4299
▁afectar	-11.431
▁traball	-11.4313
fecto	-11.4319
▁activ	-11.432
▁Br	-11.4323
▁especta	-11.4331
▁namora	-11.4334
copias	-11.4336
ntar	-11.4345
perso	-11.4353
▁Sere	-11.4354
▁apert	-11.4374
▁achegá	-11.4374
▁regres	-11.4399
▁pó	-11.44
prime	-11.4402
fac	-11.4411
▁Fre	-11.4424
outro	-11.4428
pag	-11.443
20	-11.4433
▁enc	-11.4454
terminación	-11.4462
imitar	-11.4467
▁permiti	-11.4473
▁Cheg	-11.4479
▁camiñ	-11.448
▁controlan	-11.4484
▁alimentan	-11.45
▁retro	-11.4508
▁Qu	-11.4511
▁repeti	-11.4513
▁dexenera	-11.4522
▁asegur	-11.4523
▁lav	-11.4529
▁evitan	-11.4542
▁procrastina	-11.4546
▁mosquit	-11.4564
▁fallan	-11.4575
▁human	-11.4575
▁chám	-11.4584
viole	-11.4585
▁calque	-11.459
▁recuper	-11.4604
pile	-11.4606
arch	-11.4626
▁efectiv	-11.4627
gación	-11.4631
▁caucásic	-11.4633
▁adopta	-11.4639
table	-11.464
▁referí	-11.4641
izada	-11.4641
▁masiv	-11.4649
▁bur	-11.4653
▁desanim	-11.4658
▁cheir	-11.4659
sulta	-11.4668
ndía	-11.467
▁limo	-11.4673
▁pedín	-11.4674
cie	-11.4681
apur	-11.4681
orar	-11.4682
700	-11.4683
quita	-11.4684
▁xén	-11.4686
delincuen	-11.4687
disciplina	-11.469
viv	-11.4692
celular	-11.4692
organismo	-11.4694
▁íntim	-11.4698
cheira	-11.4701
conectado	-11.4701
▁cidad	-11.4703
▁garant	-11.4703
percepción	-11.4704
produtos	-11.4707
antibiótico	-11.4708
tecnoloxía	-11.4709
ebr	-11.4711
pesca	-11.4711
vari	-11.4718
▁african	-11.4719
▁roub	-11.4721
▁enerxétic	-11.4731
▁Coñe	-11.4731
▁model	-11.4733
deus	-11.4733
motivo	-11.4737
cida	-11.4742
videncia	-11.4748
▁retar	-11.475
▁retras	-11.475
cento	-11.4752
spacio	-11.4754
▁800	-11.4756
▁manía	-11.4762
▁transp	-11.4765
▁inmun	-11.4772
▁quit	-11.4776
▁divertid	-11.4784
▁pap	-11.4785
óso	-11.4788
vida	-11.4789
move	-11.4801
▁créa	-11.4803
▁anciá	-11.4803
gada	-11.4806
ducir	-11.4807
▁metr	-11.4808
▁administra	-11.4817
▁obsesi	-11.4819
▁prove	-11.4823
▁fixémol	-11.4832
raq	-11.4836
▁elabora	-11.4839
ionado	-11.4844
vidos	-11.4846
▁afasta	-11.4848
▁xest	-11.4856
ixe	-11.4862
▁asasina	-11.4864
▁Chama	-11.4867
wor	-11.4869
▁nov	-11.4869
▁gri	-11.487
lite	-11.4874
▁pol	-11.4875
nunciado	-11.4875
▁obxe	-11.4878
▁inxe	-11.4879
▁estandariza	-11.488
▁reun	-11.4881
▁Preguntar	-11.4881
▁traba	-11.4881
ferencia	-11.4881
tribu	-11.4882
▁ritua	-11.4885
▁3000	-11.4887
▁Deixa	-11.4888
▁Lad	-11.4889
ísima	-11.4893
▁cosm	-11.4893
▁individua	-11.4894
▁occidenta	-11.4894
formada	-11.4894
▁caracter	-11.4894
Fran	-11.4895
▁circ	-11.4897
poder	-11.4898
▁cualifica	-11.4898
▁asusta	-11.4898
▁acei	-11.4902
▁facil	-11.4903
xplor	-11.4903
▁relevan	-11.4903
ignifica	-11.4904
onicela	-11.4905
▁clic	-11.4905
édelo	-11.4907
▁repent	-11.4907
heguei	-11.4908
palm	-11.491
▁formular	-11.4912
sistir	-11.4913
▁devastado	-11.4913
▁discapaci	-11.4913
▁tolea	-11.4914
ífico	-11.4915
alore	-11.4915
▁quita	-11.4915
▁recom	-11.4915
ráfico	-11.4916
oberno	-11.4916
ietnam	-11.4916
rómpe	-11.4916
ngreso	-11.4916
▁asombr	-11.4917
onverteu	-11.4917
ímetro	-11.4917
salie	-11.4917
orrecto	-11.4917
▁televis	-11.4917
▁Absoluta	-11.4917
▁Avalokites	-11.4917
▁Desculp	-11.4917
▁accidental	-11.4917
▁adecuada	-11.4917
▁expandíndo	-11.4917
▁lémbra	-11.4917
▁perturbado	-11.4917
▁presiona	-11.4917
▁reconsider	-11.4917
cultade	-11.4917
▁Adoitaba	-11.4917
▁Escribiu	-11.4917
▁Procrastina	-11.4917
▁adecuado	-11.4917
▁alternativo	-11.4917
▁apegadizas	-11.4917
▁aplaudir	-11.4917
▁arrastre	-11.4917
▁atómico	-11.4917
▁beirarrúa	-11.4917
▁bíblic	-11.4917
▁búfalo	-11.4917
▁computaciona	-11.4917
▁conflicto	-11.4917
▁dermatólogo	-11.4917
▁desconcertante	-11.4917
▁dimensión	-11.4917
▁discusión	-11.4917
▁enderezo	-11.4917
▁enfocar	-11.4917
▁escondido	-11.4917
▁esforzar	-11.4917
▁estúpida	-11.4917
▁evolutiva	-11.4917
▁evolutivo	-11.4917
▁excesiva	-11.4917
▁excesivo	-11.4917
▁excluí	-11.4917
▁exhibi	-11.4917
▁exótico	-11.4917
▁fabuloso	-11.4917
▁floración	-11.4917
▁impulsa	-11.4917
▁insoportable	-11.4917
▁interactiva	-11.4917
▁irradia	-11.4917
▁labrego	-11.4917
▁manifestación	-11.4917
▁manifestar	-11.4917
▁mazadura	-11.4917
▁memorable	-11.4917
▁minúscula	-11.4917
▁mutua	-11.4917
▁organizá	-11.4917
▁petrolífero	-11.4917
▁prematuro	-11.4917
▁presénto	-11.4917
▁prexuízo	-11.4917
▁prodixio	-11.4917
▁prohibi	-11.4917
▁pulmon	-11.4917
▁radiación	-11.4917
▁reflecti	-11.4917
▁reflexa	-11.4917
▁reflexiona	-11.4917
▁resucitar	-11.4917
▁rexoub	-11.4917
▁sanguínea	-11.4917
▁sumidoiro	-11.4917
▁teclea	-11.4917
▁tecnolóxico	-11.4917
▁testemuña	-11.4917
▁tsunami	-11.4917
▁técnico	-11.4917
▁voluntario	-11.4917
▁válid	-11.4917
▁xardine	-11.4917
UCI	-11.4917
iátrico	-11.4917
▁amizade	-11.4917
▁bioluminiscen	-11.4917
▁conmemora	-11.4917
▁escanea	-11.4917
▁exitosa	-11.4917
▁manifestan	-11.4917
▁murmura	-11.4917
▁peculiar	-11.4917
burbulla	-11.4917
▁agrupa	-11.4917
▁anónima	-11.4917
▁aproveita	-11.4917
▁brinca	-11.4917
▁exitoso	-11.4917
▁golf	-11.4917
▁lexítim	-11.4917
▁pluricelular	-11.4917
▁rudimentari	-11.4917
▁valiosa	-11.4917
▁vínculo	-11.4917
▁arrepia	-11.4917
▁magnífico	-11.4917
▁refina	-11.4917
▁Descubr	-11.4917
▁bébed	-11.4917
▁espontáne	-11.4917
▁fornece	-11.4917
▁gratifica	-11.4917
▁simplifica	-11.4917
▁bailarín	-11.4917
▁engurra	-11.4917
▁impart	-11.4917
▁vulnerabilidade	-11.4917
▁Curios	-11.4917
▁desafortunad	-11.4917
▁existía	-11.4917
▁paleontólogo	-11.4917
▁permiso	-11.4917
▁sexual	-11.4917
▁groso	-11.4917
▁0,	-11.4917
▁busque	-11.4917
▁restrinx	-11.4917
▁devolta	-11.4917
▁resalta	-11.4917
Found	-11.4917
▁Actua	-11.4917
uménta	-11.4917
▁Graciñas	-11.4917
▁distribución	-11.4917
▁Present	-11.4917
▁Tumb	-11.4917
▁examine	-11.4917
▁viscera	-11.4917
▁úne	-11.4917
▁póster	-11.4917
▁biblioteca	-11.4917
▁Concert	-11.4917
▁acender	-11.4917
▁modula	-11.4917
▁regulador	-11.4917
▁Combin	-11.4917
▁conced	-11.4917
▁esquema	-11.4917
▁detector	-11.4917
▁coqueiro	-11.4917
▁repasa	-11.4917
▁interactivo	-11.4918
▁conseguí	-11.4918
▁excursión	-11.4918
▁deficien	-11.4918
▁reproduc	-11.4918
álise	-11.4918
▁Ingl	-11.4918
▁apagar	-11.4918
▁aparecía	-11.4918
▁dirixí	-11.4918
▁chimpa	-11.4918
▁franc	-11.4918
▁pediatr	-11.4918
▁sirena	-11.4918
▁sabor	-11.4918
▁arresta	-11.4918
▁caída	-11.4918
▁decatou	-11.4918
▁urina	-11.4918
▁fósil	-11.4918
▁blogue	-11.4918
▁neutrino	-11.4918
móve	-11.4918
▁sobreviva	-11.4918
▁voltou	-11.4918
▁matern	-11.4918
▁espont	-11.4918
▁impid	-11.4918
▁carbón	-11.4918
▁exclusiva	-11.4918
▁póden	-11.4918
▁Troux	-11.4918
▁graba	-11.4918
▁nocivo	-11.4918
▁prioridade	-11.4918
▁Señor	-11.4918
▁sáca	-11.4918
▁carteira	-11.4918
émica	-11.4918
▁denomina	-11.4918
▁chinesa	-11.4918
▁ganancia	-11.4918
tagonista	-11.4918
▁executivo	-11.4918
▁traxecto	-11.4918
▁fusiona	-11.4918
▁resolt	-11.4918
▁rebelde	-11.4918
▁capita	-11.4918
▁Programa	-11.4918
▁xanela	-11.4918
▁ventá	-11.4918
▁ul	-11.4918
▁convirte	-11.4918
▁inintelix	-11.4918
▁traves	-11.4918
▁disposta	-11.4918
▁Simon	-11.4918
▁democratiza	-11.4918
▁burocracia	-11.4918
▁cobrar	-11.4918
▁xurdí	-11.4918
▁latino	-11.4919
atarata	-11.4919
▁delgada	-11.4919
▁cómico	-11.4919
▁presentou	-11.4919
▁preñad	-11.4919
sibilidade	-11.4919
dited	-11.4919
▁Dalgunha	-11.4919
▁campión	-11.4919
▁xeada	-11.4919
▁Tictac	-11.4919
▁berra	-11.4919
ómica	-11.4919
edicina	-11.4919
▁lobo	-11.4919
▁multiplicar	-11.4919
▁asign	-11.4919
▁guapo	-11.4919
▁publicita	-11.4919
▁comercializ	-11.4919
▁descans	-11.4919
▁alonxa	-11.492
▁Nalgún	-11.492
▁debilit	-11.492
▁míra	-11.492
▁acudi	-11.492
▁crónico	-11.492
▁xeograf	-11.492
▁escea	-11.492
opte	-11.492
▁incapacidade	-11.492
ntáballe	-11.492
▁cumpre	-11.492
▁errado	-11.492
▁pegue	-11.492
▁Fixéche	-11.492
▁radiografía	-11.492
▁introduce	-11.492
▁politica	-11.4921
▁Jack	-11.4921
▁gásta	-11.4921
▁anestesia	-11.4921
▁esquez	-11.4921
▁safari	-11.4921
▁pene	-11.4921
▁involucrado	-11.4921
larm	-11.4921
▁Déronlle	-11.4921
▁rastro	-11.4921
▁electrónica	-11.4921
▁repit	-11.4921
▁enxeñosa	-11.4921
▁3,	-11.4921
▁Web	-11.4921
▁orfa	-11.4921
▁Paul	-11.4922
▁Quixe	-11.4922
▁abus	-11.4922
▁recomend	-11.4922
▁Dixéron	-11.4922
▁amputación	-11.4922
▁resonancia	-11.4922
▁concentrar	-11.4922
▁vocal	-11.4922
▁Vémolo	-11.4922
▁RK	-11.4922
▁innat	-11.4922
▁amable	-11.4923
cuberta	-11.4923
▁coherente	-11.4923
▁involucrar	-11.4923
▁domingo	-11.4923
▁reprodutivo	-11.4923
▁más	-11.4923
▁silic	-11.4923
▁sufría	-11.4923
▁auditiva	-11.4923
▁gústalle	-11.4923
▁extinguir	-11.4924
▁modest	-11.4924
réx	-11.4924
▁Sabia	-11.4924
▁universitaria	-11.4924
▁intensidade	-11.4924
▁destacable	-11.4924
▁xeneraliza	-11.4924
▁estendeu	-11.4924
▁Renu	-11.4924
oquímico	-11.4925
▁bé	-11.4925
▁Xoga	-11.4925
ER	-11.4925
king	-11.4925
▁candea	-11.4925
▁transformou	-11.4926
▁Boy	-11.4926
ahoo	-11.4926
▁equivocados	-11.4926
sotér	-11.4926
▁enfr	-11.4926
▁tradutores	-11.4926
▁Pal	-11.4927
▁Pantalóns	-11.4927
▁91	-11.4927
ptica	-11.4927
▁descart	-11.4927
residencia	-11.4927
▁batería	-11.4927
▁roubado	-11.4927
▁sufre	-11.4927
parella	-11.4928
▁dobrar	-11.4928
▁Corta	-11.4928
sini	-11.4928
▁Escol	-11.4929
lisiona	-11.4929
▁Hay	-11.4929
▁marcho	-11.4929
▁escada	-11.4929
mulación	-11.4929
▁diminuto	-11.493
▁uva	-11.493
▁sabio	-11.493
▁Grad	-11.493
NS	-11.493
orzo	-11.4931
▁personaliza	-11.4931
colaps	-11.4931
▁impreso	-11.4931
▁Aním	-11.4931
orida	-11.4931
▁alberga	-11.4931
▁Fíxen	-11.4932
endorf	-11.4932
▁escand	-11.4932
▁preparada	-11.4933
▁percibir	-11.4933
▁Dick	-11.4933
▁guion	-11.4933
▁vu	-11.4934
▁Desex	-11.4934
▁encantado	-11.4935
▁basada	-11.4935
▁perigosa	-11.4935
▁exquisita	-11.4935
▁Direi	-11.4935
▁tasa	-11.4935
▁intensa	-11.4935
proveito	-11.4935
▁tranquila	-11.4935
▁lento	-11.4935
ofre	-11.4936
▁há	-11.4936
▁Xor	-11.4936
ncho	-11.4936
▁Schw	-11.4937
▁oración	-11.4937
▁expande	-11.4937
▁auditivo	-11.4937
▁servi	-11.4938
▁virulen	-11.4938
▁motivación	-11.4938
▁debía	-11.4939
▁Adá	-11.4939
▁Spi	-11.4939
▁intentei	-11.4939
▁violenta	-11.494
▁Hawai	-11.494
▁propa	-11.494
▁consome	-11.494
▁afora	-11.4941
▁Roy	-11.4942
▁pranto	-11.4943
▁axúdan	-11.4943
▁empática	-11.4944
uther	-11.4944
ntoni	-11.4944
▁masaxe	-11.4945
▁Decatá	-11.4945
orxa	-11.4945
numera	-11.4946
ambula	-11.4946
ánica	-11.4946
▁neurocirurxián	-11.4946
aneament	-11.4946
▁variable	-11.4946
▁incorpora	-11.4946
▁7.	-11.4947
▁improvisación	-11.4948
▁ferida	-11.4948
▁perforación	-11.4948
▁ofrecerll	-11.4949
▁Medr	-11.495
▁poñía	-11.495
▁primer	-11.4951
terrán	-11.4951
▁Public	-11.4952
▁idéntica	-11.4953
▁metabólica	-11.4953
▁edita	-11.4953
umanidade	-11.4955
▁étnic	-11.4955
▁Invi	-11.4955
▁estandarizada	-11.4955
▁afastada	-11.4955
cepción	-11.4955
orporativo	-11.4955
▁excitante	-11.4955
▁Star	-11.4956
▁opac	-11.4957
ridge	-11.4957
▁adopte	-11.4958
▁Recordade	-11.4958
▁ensine	-11.4958
▁antepasado	-11.4959
▁empequenece	-11.496
▁enciclopedia	-11.496
▁enquisa	-11.496
▁danado	-11.4961
sual	-11.4962
▁empresaria	-11.4962
▁humilde	-11.4962
▁cativa	-11.4962
▁pretend	-11.4963
▁nalgu	-11.4963
▁direi	-11.4963
▁Ricc	-11.4964
▁adquiría	-11.4964
▁violento	-11.4964
▁sentou	-11.4964
▁ocupar	-11.4964
glob	-11.4965
▁piratear	-11.4965
▁deitar	-11.4966
▁sentíndo	-11.4966
culos	-11.4967
▁inmensa	-11.4967
▁achegándo	-11.4967
▁Rab	-11.4968
▁torre	-11.4968
▁Sabía	-11.4968
▁ascende	-11.4968
▁gravación	-11.4969
▁asasinado	-11.4972
▁raparig	-11.4973
rug	-11.4973
▁cifra	-11.4973
▁púxen	-11.4973
▁condiciona	-11.4973
▁Mide	-11.4973
▁soldado	-11.4974
▁convulsi	-11.4974
▁ONG	-11.4974
▁enxert	-11.4974
▁estreito	-11.4974
▁luminoso	-11.4974
▁pioneiro	-11.4974
py	-11.4974
▁aplicar	-11.4974
▁Sup	-11.4975
▁centífico	-11.4975
▁Entra	-11.4975
ulación	-11.4975
▁duradeir	-11.4975
▁presidencia	-11.4976
▁impo	-11.4976
▁pór	-11.4976
curio	-11.4976
▁CA	-11.4977
▁configura	-11.4977
▁pilot	-11.4977
▁Prote	-11.4977
▁gravada	-11.4978
▁Ram	-11.4979
▁comprensible	-11.4981
ásico	-11.4982
▁criado	-11.4983
▁Stu	-11.4983
▁contribuí	-11.4984
nect	-11.4984
▁Rid	-11.4984
ptor	-11.4985
pto	-11.4985
▁colosa	-11.4986
▁economic	-11.4987
▁desata	-11.4987
▁sentín	-11.4989
▁artística	-11.4989
ermo	-11.499
▁astronauta	-11.499
▁valid	-11.499
▁observaba	-11.4991
▁repentina	-11.4992
sáti	-11.4993
▁redondo	-11.4994
predí	-11.4994
lito	-11.4994
▁Certa	-11.4995
formida	-11.4996
▁MH	-11.4996
▁efectiva	-11.4999
▁amósano	-11.4999
▁fixéron	-11.5
▁lavar	-11.5001
▁cume	-11.5002
▁buscaba	-11.5007
librar	-11.5009
▁inva	-11.5009
▁exercit	-11.5011
▁chora	-11.5011
▁cóctel	-11.5011
tívo	-11.5012
▁tau	-11.5012
▁avisa	-11.5013
grafo	-11.5014
▁ecolóxica	-11.5014
▁votar	-11.5015
▁chámaselle	-11.5016
▁Olive	-11.5017
▁Vere	-11.5018
▁acontecemento	-11.5019
▁pregúnto	-11.5019
▁Aquel	-11.502
compoñer	-11.5022
▁suprimi	-11.5024
▁estafa	-11.5024
▁prever	-11.5027
▁chup	-11.5027
▁ult	-11.5027
▁anua	-11.5029
▁Observa	-11.5035
▁estanc	-11.5039
▁medición	-11.504
▁individualiza	-11.5042
▁exac	-11.5042
▁inxec	-11.5043
▁sacada	-11.5044
▁pasaxe	-11.5045
▁inmunitari	-11.5047
▁labor	-11.5051
▁convertér	-11.5051
▁mito	-11.5052
▁hom	-11.5052
▁resumi	-11.5054
▁palabraxe	-11.5055
▁administrado	-11.5056
▁traer	-11.5056
▁fundament	-11.5058
▁víra	-11.5059
▁bañ	-11.5062
dala	-11.5064
▁cultivado	-11.5065
▁facilitar	-11.5067
▁Analiza	-11.5068
▁Abrah	-11.5068
▁herb	-11.5068
▁comprimi	-11.507
parámetro	-11.507
▁Pá	-11.5071
▁reflicta	-11.5071
▁prob	-11.5072
▁viaxan	-11.5072
▁inesperado	-11.5074
▁xuízo	-11.5074
▁preco	-11.5075
▁deteriora	-11.5075
sonancia	-11.5076
UE	-11.5076
▁riva	-11.5078
▁camisa	-11.5084
▁contrato	-11.5084
▁Aprende	-11.5087
▁prestar	-11.5087
▁retrasar	-11.5088
ision	-11.5089
▁aero	-11.509
▁controlado	-11.5093
▁comete	-11.5095
▁sentía	-11.5095
▁expo	-11.5096
▁dic	-11.51
iquid	-11.5101
▁Carta	-11.5102
▁espos	-11.5106
▁Coñece	-11.5107
▁Saturn	-11.5108
▁recorda	-11.5109
▁preguntaba	-11.5109
▁ventr	-11.5114
▁bacteriana	-11.5114
▁Sí	-11.5115
▁Brand	-11.5117
▁infecta	-11.5117
▁sanitario	-11.5121
▁mudá	-11.5125
fica	-11.513
▁emprendedor	-11.5133
▁barra	-11.5134
▁glaciar	-11.5145
ibera	-11.5149
trip	-11.515
▁bote	-11.5151
▁propux	-11.5151
consell	-11.5152
▁crimina	-11.5153
▁desempreg	-11.5158
▁disl	-11.5161
▁Isla	-11.5162
hock	-11.5166
▁desenr	-11.5166
▁soster	-11.5166
▁repetir	-11.5168
▁primordial	-11.517
▁extende	-11.5175
▁neutr	-11.5176
▁Str	-11.5176
▁sacrificar	-11.5182
▁fotograf	-11.5184
▁decisi	-11.5186
cortina	-11.5188
▁Queda	-11.5188
▁arriscar	-11.5192
lación	-11.5193
regalo	-11.5195
33	-11.5197
▁respondí	-11.52
diac	-11.5204
▁Ari	-11.5204
imo	-11.5206
UN	-11.5208
▁inventad	-11.521
medio	-11.5213
vencer	-11.5214
▁penetra	-11.5217
▁hemo	-11.5219
spertaba	-11.5225
▁entr	-11.5228
issi	-11.5228
▁frear	-11.5229
▁choc	-11.5229
▁mola	-11.5234
bid	-11.5235
▁recorde	-11.5243
▁ficar	-11.5252
crania	-11.5255
ixen	-11.5256
▁regu	-11.5262
▁dourad	-11.5262
segúrovo	-11.5263
dena	-11.5265
arder	-11.5272
▁infrav	-11.5272
pectativa	-11.5275
▁xerm	-11.5275
▁aparición	-11.5277
▁clim	-11.5281
▁traza	-11.5282
▁esperta	-11.5282
▁alleo	-11.5282
▁pechar	-11.5288
▁resum	-11.5288
partida	-11.5291
▁bando	-11.5296
▁Consegui	-11.5303
▁botá	-11.5308
▁espa	-11.5311
▁sentír	-11.5317
▁Tar	-11.5321
vul	-11.5327
▁Chega	-11.5331
▁Cont	-11.5332
adoiro	-11.5332
▁Xes	-11.5333
char	-11.5344
▁medr	-11.5347
▁Falar	-11.5348
▁envolv	-11.5349
▁sensoria	-11.5349
▁Esc	-11.5354
▁morrería	-11.5354
▁lamentar	-11.5356
▁Core	-11.5356
▁oposto	-11.5361
▁crearía	-11.5363
▁variado	-11.5368
▁host	-11.5368
versi	-11.5369
▁embo	-11.5371
digan	-11.5374
farto	-11.5375
▁sáb	-11.5387
▁fracasar	-11.5393
▁Ning	-11.5398
▁ruín	-11.5407
▁xuntar	-11.541
▁calc	-11.5411
▁atrapad	-11.5414
▁Wo	-11.5415
▁narrador	-11.5415
▁convertiu	-11.5417
aret	-11.5435
▁protexe	-11.5435
atía	-11.5437
▁bloquea	-11.5441
▁escaso	-11.5441
▁fabricar	-11.5452
▁Estiv	-11.5452
▁salvo	-11.5459
▁semellar	-11.5459
▁intentou	-11.5464
có	-11.5469
▁corrixil	-11.5472
▁tiro	-11.548
▁senso	-11.548
árona	-11.5489
▁combin	-11.5494
▁Petr	-11.5499
▁delir	-11.5507
estar	-11.5512
fórma	-11.5518
▁meteu	-11.5522
andeira	-11.556
▁fura	-11.5564
BB	-11.5573
▁Gr	-11.5574
llei	-11.5576
▁causado	-11.5578
▁maníac	-11.5579
▁virtua	-11.5583
gade	-11.5589
▁piso	-11.5594
▁revisa	-11.5596
▁ON	-11.5597
▁manexa	-11.5597
mbia	-11.5599
▁saberá	-11.5606
▁traen	-11.5614
▁Moo	-11.5621
▁best	-11.5626
▁causada	-11.5628
▁quedará	-11.5648
▁Entende	-11.5657
vin	-11.5666
▁remot	-11.5678
mplica	-11.5679
▁escritor	-11.5682
▁gustar	-11.5685
▁Fl	-11.5697
▁leg	-11.5699
edar	-11.5702
▁falada	-11.5704
éñen	-11.5707
▁dependente	-11.5713
▁Gaña	-11.5714
▁atender	-11.575
▁got	-11.5757
▁unlla	-11.5763
▁vend	-11.5763
ímo	-11.5781
quivocada	-11.5784
▁Pap	-11.5785
▁metid	-11.5793
▁conseguil	-11.5802
▁deberíamo	-11.5815
▁Mellore	-11.5839
uteri	-11.5841
▁encántan	-11.5853
▁motiva	-11.5854
▁independ	-11.5856
▁permitira	-11.5876
inflamatori	-11.5893
Bri	-11.5894
▁Bel	-11.5898
▁debilidade	-11.5902
▁vaille	-11.5944
▁explota	-11.5954
▁circular	-11.5955
▁dirá	-11.5977
curso	-11.5979
▁estatu	-11.6015
▁lembr	-11.6036
mpos	-11.6043
▁describe	-11.6045
▁Queren	-11.6048
▁casc	-11.6052
▁emp	-11.6058
alla	-11.6096
▁Sevi	-11.6097
dent	-11.6128
igar	-11.6138
▁Mur	-11.6143
leito	-11.6149
▁contestar	-11.6156
irían	-11.6188
▁actualiza	-11.6207
▁cord	-11.6223
▁causaba	-11.6224
ustra	-11.6229
▁causal	-11.6232
▁empatiz	-11.6234
lamar	-11.6246
▁atopaba	-11.6257
▁sig	-11.6274
▁cón	-11.6288
▁Paso	-11.6294
▁coste	-11.6302
feno	-11.6307
ward	-11.6318
▁Allen	-11.6373
▁bacteriano	-11.6388
hai	-11.641
ece	-11.642
íren	-11.6431
▁Mir	-11.6489
▁desaparecera	-11.6518
posta	-11.6537
▁agrad	-11.6565
com	-11.6576
▁emerxen	-11.6578
▁tróuxomo	-11.6581
ábaa	-11.6606
renal	-11.6633
dicar	-11.6644
▁Xu	-11.6651
izz	-11.6665
▁lou	-11.6667
▁Lembra	-11.6674
utónomo	-11.6681
▁preguntába	-11.6734
alin	-11.6736
▁Bru	-11.6739
anzo	-11.6789
gn	-11.679
▁acad	-11.6799
▁deseguid	-11.6807
▁utili	-11.6808
▁engan	-11.6835
▁usado	-11.6843
▁artificia	-11.6866
▁provi	-11.6869
fundir	-11.6878
▁seria	-11.6892
nfí	-11.6898
▁implantar	-11.6906
▁Camb	-11.6917
ICE	-11.6921
udi	-11.6922
MP	-11.6928
alan	-11.6952
preocupación	-11.6955
decí	-11.7006
▁Var	-11.7008
▁Té	-11.7037
▁escu	-11.7063
▁cheira	-11.7098
iliza	-11.7125
▁Mali	-11.7139
▁discut	-11.7163
▁máxi	-11.7165
▁Tom	-11.7185
▁adaptar	-11.7195
▁treme	-11.7225
▁Inter	-11.7232
▁obtive	-11.7234
▁transmite	-11.7257
▁Hum	-11.7258
escente	-11.7278
▁Quent	-11.7283
presentan	-11.7285
ilar	-11.7295
imit	-11.7298
EF	-11.7312
▁deseñador	-11.7314
tiga	-11.7323
▁implanta	-11.7326
IC	-11.7333
▁infer	-11.7335
▁Alem	-11.7362
ife	-11.7369
▁papi	-11.7388
▁Conf	-11.7391
▁creador	-11.7406
▁argumenta	-11.7417
▁defendí	-11.7467
▁deriva	-11.7487
▁Monta	-11.7488
▁Far	-11.7496
▁evolucionar	-11.752
xina	-11.7529
nie	-11.7557
▁dividi	-11.756
▁artifici	-11.7571
▁frustra	-11.7595
▁penal	-11.7609
gur	-11.7618
umm	-11.7627
▁Tome	-11.7638
algún	-11.7649
▁conform	-11.7664
▁declar	-11.7683
umbo	-11.7722
▁virá	-11.7726
xudaría	-11.774
▁estábam	-11.776
▁Bud	-11.7799
▁apare	-11.7814
danan	-11.7823
▁traballase	-11.7832
▁invist	-11.7856
▁diagnostica	-11.7874
▁inestab	-11.7881
▁navegar	-11.7884
▁retirad	-11.7913
▁vivirá	-11.7946
▁loc	-11.7974
▁medioambient	-11.7984
▁aprend	-11.8012
▁dix	-11.8018
dwar	-11.8042
▁Rap	-11.8048
▁permanecer	-11.8059
▁xunt	-11.8104
▁Deb	-11.8105
▁falec	-11.8108
▁boli	-11.8164
war	-11.8186
minación	-11.8188
▁pronuncia	-11.8189
▁guia	-11.8198
▁transferi	-11.8213
▁viax	-11.8257
contado	-11.8269
100	-11.83
fisi	-11.8321
ransfórm	-11.8332
▁motiv	-11.8334
aterra	-11.8337
collido	-11.8353
hispa	-11.8415
▁explot	-11.8423
▁globaliza	-11.8425
scrición	-11.8426
rop	-11.8439
confi	-11.8445
▁Lev	-11.8449
Gil	-11.8467
▁inflama	-11.8508
▁esqui	-11.8509
▁instruc	-11.8524
▁aspir	-11.8533
▁fre	-11.8565
▁Mellor	-11.857
▁sofistica	-11.859
▁pid	-11.8596
tró	-11.8614
▁argument	-11.8626
▁proporcion	-11.8633
▁apoi	-11.8638
▁derrota	-11.8646
alización	-11.8658
▁inspir	-11.8668
▁deseñ	-11.8671
▁apunt	-11.8685
▁ofrec	-11.8699
▁inm	-11.8708
▁lev	-11.8737
▁desfrut	-11.8739
▁revis	-11.875
▁Cri	-11.8757
▁transform	-11.8758
▁Fix	-11.8774
entar	-11.8776
▁erguer	-11.8785
▁coñec	-11.8789
▁invers	-11.879
▁Gañ	-11.879
77	-11.8812
ouno	-11.8848
▁proxect	-11.8868
▁humil	-11.8871
▁mud	-11.8878
▁Dig	-11.8879
▁beb	-11.8881
▁modificar	-11.8886
▁predic	-11.8895
▁comenzar	-11.89
▁produc	-11.891
▁queixa	-11.892
▁cubri	-11.893
▁sentí	-11.893
▁pato	-11.8943
▁Agr	-11.8944
▁vag	-11.8946
▁marcado	-11.8948
▁erradica	-11.896
▁activado	-11.8978
▁afund	-11.9013
▁apreci	-11.9036
▁interésa	-11.9043
▁salient	-11.9045
▁antig	-11.9049
▁estrañ	-11.9057
▁corrixi	-11.9072
▁cabe	-11.9073
▁prote	-11.9079
▁entrega	-11.9085
▁atraves	-11.9088
ntra	-11.9099
▁parti	-11.9101
▁asoci	-11.9112
▁pré	-11.9123
▁inclu	-11.9128
zada	-11.9132
▁terre	-11.9132
▁monstro	-11.9146
▁xeométrica	-11.9146
▁distra	-11.915
▁prexudic	-11.9181
▁enxeñe	-11.9207
▁abond	-11.9233
inton	-11.924
▁viví	-11.9242
▁afront	-11.9244
▁enfront	-11.9251
▁xubil	-11.9255
▁andam	-11.9258
▁elimin	-11.9282
ético	-11.9298
▁Pód	-11.9299
▁destru	-11.9309
recía	-11.931
▁Facía	-11.9311
▁Tede	-11.9316
▁inef	-11.9325
▁romp	-11.9325
▁marabilla	-11.9337
tamo	-11.9343
▁US	-11.9345
EC	-11.935
▁madur	-11.935
lega	-11.936
▁compá	-11.9361
▁limit	-11.9366
din	-11.9367
▁cani	-11.9371
▁rot	-11.9374
▁repara	-11.9375
rcase	-11.9408
▁Sh	-11.9411
▁transport	-11.9431
▁padec	-11.9438
segur	-11.9438
▁demostr	-11.9444
ge	-11.9447
▁rode	-11.9449
▁molest	-11.9468
▁ergu	-11.9469
ciden	-11.947
▁traduc	-11.9475
taca	-11.9475
▁arrisca	-11.9484
ctividade	-11.9484
▁priva	-11.9495
spirou	-11.951
▁inmens	-11.9513
▁viaxei	-11.9517
▁primordia	-11.9518
▁adquir	-11.9529
▁mobili	-11.9531
▁Dal	-11.9538
estación	-11.9548
▁celebra	-11.9549
nuncia	-11.9549
berdade	-11.9553
▁xemelg	-11.9561
▁pequen	-11.9571
▁prepara	-11.9575
revisión	-11.9577
ixá	-11.9577
▁emprende	-11.9578
▁modern	-11.9578
▁descompoñe	-11.9581
▁Axud	-11.9581
▁centenar	-11.9584
▁estranxeir	-11.959
▁negr	-11.9596
▁element	-11.9597
▁asiátic	-11.96
▁preserv	-11.96
▁peix	-11.96
▁pecho	-11.9602
ronme	-11.9605
▁invita	-11.9606
itou	-11.9609
▁compr	-11.9612
psicótic	-11.9613
▁Satur	-11.9614
vial	-11.9616
iam	-11.9619
▁seguí	-11.9621
▁clásic	-11.9623
▁fascin	-11.963
feito	-11.9637
izándo	-11.9639
egable	-11.964
▁sospeit	-11.9643
fraud	-11.9645
eración	-11.9653
▁propi	-11.9654
▁negoci	-11.9655
▁encar	-11.9659
porto	-11.966
▁membr	-11.9661
▁artific	-11.9662
propia	-11.9663
▁tó	-11.9667
▁inesperad	-11.9667
▁xuíz	-11.9667
▁acerc	-11.9668
perta	-11.9671
éronlle	-11.9672
▁dirixid	-11.9674
fór	-11.9684
▁descoñecid	-11.9684
bordo	-11.9684
alimenta	-11.9688
magnética	-11.9689
enlace	-11.969
plancto	-11.9694
irmá	-11.9694
título	-11.9697
relevante	-11.97
▁chamá	-11.9701
▁confund	-11.9701
dinámica	-11.9701
pegar	-11.9703
DO	-11.9704
sentimento	-11.9704
nutri	-11.9705
obxecto	-11.9708
tarefa	-11.9708
director	-11.9708
especie	-11.971
grupo	-11.971
política	-11.9711
▁impedir	-11.9711
▁fronta	-11.9712
▁moto	-11.9714
96	-11.9715
texto	-11.9715
frase	-11.9723
▁enviá	-11.9724
fender	-11.9726
▁Reg	-11.9731
scendent	-11.9732
▁prec	-11.9735
ometeu	-11.9736
▁condut	-11.9738
pista	-11.9738
▁percorr	-11.9746
▁camp	-11.9751
▁simp	-11.9756
▁comportament	-11.9756
nvellece	-11.9758
▁desga	-11.9759
▁transm	-11.976
▁fut	-11.9765
▁sombr	-11.9766
▁intrínsec	-11.9767
▁MI	-11.9767
▁cru	-11.9767
▁óptic	-11.9768
▁exerc	-11.9768
▁elevad	-11.977
dicia	-11.9771
corpo	-11.9776
rbita	-11.9778
▁soluciona	-11.9782
▁ecolóxic	-11.9782
▁mantéñ	-11.9785
▁cardíac	-11.9786
racción	-11.9796
íches	-11.9797
ndida	-11.9797
▁suces	-11.9799
dú	-11.9801
▁relax	-11.9801
▁facilita	-11.9804
scrito	-11.9805
▁artístic	-11.9805
▁expert	-11.9807
gano	-11.9807
▁leve	-11.9808
▁farmacéutic	-11.9811
▁especific	-11.9813
▁ingles	-11.9816
igma	-11.9818
▁Entend	-11.9821
▁colectiv	-11.9828
▁esquec	-11.9833
▁Cert	-11.9837
▁repentin	-11.9844
▁novidos	-11.9846
▁mú	-11.9847
pp	-11.9854
spectiv	-11.9854
▁Engad	-11.9856
▁reside	-11.9856
▁após	-11.9856
▁espec	-11.9859
▁sorprende	-11.9861
▁aburr	-11.9861
▁contribu	-11.9862
cora	-11.9862
guía	-11.9866
tradi	-11.987
llia	-11.9871
▁posibili	-11.9872
óxeno	-11.9872
strada	-11.9874
▁subxace	-11.9877
q	-11.9878
fortuna	-11.9881
▁neces	-11.9881
érmo	-11.9882
▁deprimi	-11.9884
▁Haw	-11.9886
mocion	-11.9887
recipi	-11.9888
alk	-11.9888
▁internaciona	-11.989
▁Déix	-11.9891
▁canal	-11.9892
▁nervio	-11.9895
▁espiritua	-11.9895
▁hospi	-11.9895
▁equivale	-11.9895
▁patrocina	-11.9896
▁expli	-11.9898
85	-11.9899
▁dificil	-11.9899
▁involucr	-11.99
irurx	-11.99
ásica	-11.9901
proxim	-11.9902
ervizo	-11.9903
▁acum	-11.9904
▁excelen	-11.9905
▁cadr	-11.9905
▁devolv	-11.9906
alento	-11.9906
▁desespera	-11.9907
▁apaixona	-11.9907
▁centenari	-11.9908
▁duplic	-11.9909
ventu	-11.9909
nova	-11.9911
óm	-11.9911
▁imper	-11.9912
▁aterr	-11.9913
▁influen	-11.9913
millonésima	-11.9913
ermina	-11.9913
onaxe	-11.9913
▁brut	-11.9914
flúe	-11.9914
▁monó	-11.9914
víde	-11.9914
▁acce	-11.9914
▁impre	-11.9914
▁optimi	-11.9915
ómetro	-11.9915
▁Jac	-11.9915
úp	-11.9915
róximo	-11.9915
▁hipo	-11.9916
ndustrial	-11.9916
ermella	-11.9916
tografía	-11.9916
ítima	-11.9916
adrón	-11.9916
▁McK	-11.9916
▁patri	-11.9916
esponsable	-11.9916
añá	-11.9917
▁esvae	-11.9917
antástico	-11.9917
ED	-11.9917
bernamenta	-11.9917
habili	-11.9917
▁Occupy	-11.9917
▁angusti	-11.9917
▁escóit	-11.9917
▁evapóra	-11.9917
▁indu	-11.9917
▁Actíva	-11.9917
▁Escribí	-11.9917
▁Misericordios	-11.9917
▁Sorprende	-11.9917
▁amedrenta	-11.9917
▁arruina	-11.9917
▁avellenta	-11.9917
▁bautiz	-11.9917
▁beneficiá	-11.9917
▁confusa	-11.9917
▁discreta	-11.9917
▁esparexer	-11.9917
▁exponencial	-11.9917
▁implacable	-11.9917
▁inspíra	-11.9917
▁intrin	-11.9917
▁manifestou	-11.9917
▁mutilar	-11.9917
▁respalda	-11.9917
▁sacudir	-11.9917
▁substitúen	-11.9917
▁xesticula	-11.9917
clips	-11.9917
coñéce	-11.9917
doméstico	-11.9917
eivindica	-11.9917
gokgok	-11.9917
oeconómico	-11.9917
puxémolo	-11.9917
simétrica	-11.9917
vóca	-11.9917
xéralle	-11.9917
▁ATLAS	-11.9917
▁Chéga	-11.9917
▁Enfermidade	-11.9917
▁Ferrari	-11.9917
▁Indonesia	-11.9917
▁Intentou	-11.9917
▁Jeff	-11.9917
▁Marabill	-11.9917
▁Matthew	-11.9917
▁Mergull	-11.9917
▁Organiza	-11.9917
▁Sinfonía	-11.9917
▁Tiranosauro	-11.9917
▁White	-11.9917
▁admira	-11.9917
▁afgán	-11.9917
▁alfombra	-11.9917
▁antidepresivo	-11.9917
▁antirretrovira	-11.9917
▁arrefría	-11.9917
▁atractiva	-11.9917
▁bufanda	-11.9917
▁cambalea	-11.9917
▁cataloga	-11.9917
▁centrífuga	-11.9917
▁continenta	-11.9917
▁cúmulo	-11.9917
▁demográfico	-11.9917
▁descripción	-11.9917
▁desencadea	-11.9917
▁desorienta	-11.9917
▁desperdici	-11.9917
▁diluída	-11.9917
▁dinámico	-11.9917
▁disputa	-11.9917
▁doméstica	-11.9917
▁embarcar	-11.9917
▁empaquetado	-11.9917
▁encadeada	-11.9917
▁enchufe	-11.9917
▁ensinándolle	-11.9917
▁episodio	-11.9917
▁escintila	-11.9917
▁escéptico	-11.9917
▁estéril	-11.9917
▁estúpido	-11.9917
▁exhaustiv	-11.9917
▁fantástica	-11.9917
▁filántropo	-11.9917
▁fortaleza	-11.9917
▁gardería	-11.9917
▁gradiente	-11.9917
▁graduado	-11.9917
▁gradue	-11.9917
▁gratuíto	-11.9917
▁hamburguesa	-11.9917
▁hidrocarburo	-11.9917
▁hindú	-11.9917
▁iPad	-11.9917
▁idioma	-11.9917
▁improbable	-11.9917
▁infeccios	-11.9917
▁innecesari	-11.9917
▁insignificante	-11.9917
▁instantáne	-11.9917
▁intacta	-11.9917
▁invisíbe	-11.9917
▁irrespetuos	-11.9917
▁lúcid	-11.9917
▁mamífero	-11.9917
▁mecánico	-11.9917
▁mándanno	-11.9917
▁máscara	-11.9917
▁módulo	-11.9917
▁obstruí	-11.9917
▁oitenta	-11.9917
▁ondulación	-11.9917
▁picapau	-11.9917
▁pneum	-11.9917
▁precrastinador	-11.9917
▁prescindi	-11.9917
▁presunción	-11.9917
▁proclaman	-11.9917
▁prolifera	-11.9917
▁proverbi	-11.9917
▁recoñez	-11.9917
▁reformula	-11.9917
▁refuxiado	-11.9917
▁rexenera	-11.9917
▁robusta	-11.9917
▁robótic	-11.9917
▁rosquiña	-11.9917
▁rutineiro	-11.9917
▁rítmico	-11.9917
▁ríxida	-11.9917
▁simboli	-11.9917
▁sobresaínte	-11.9917
▁subestima	-11.9917
▁subsidi	-11.9917
▁subvencion	-11.9917
▁susceptible	-11.9917
▁triangula	-11.9917
▁típica	-11.9917
▁túnel	-11.9917
▁vergonzoso	-11.9917
▁xungla	-11.9917
rrrrrrrr	-11.9917
▁hipoteca	-11.9917
▁inusual	-11.9917
▁pescuda	-11.9917
▁petroleira	-11.9917
▁reforza	-11.9917
fréce	-11.9917
mélla	-11.9917
▁CEO	-11.9917
▁Cústa	-11.9917
▁Desenvolve	-11.9917
▁Provoca	-11.9917
▁aliménta	-11.9917
▁auricular	-11.9917
▁bloquéa	-11.9917
▁comuníca	-11.9917
▁cronolóxic	-11.9917
▁depresiv	-11.9917
▁derruba	-11.9917
▁desagrad	-11.9917
▁electora	-11.9917
▁empregáron	-11.9917
▁engáde	-11.9917
▁ensamblad	-11.9917
▁escondida	-11.9917
▁estructura	-11.9917
▁fágo	-11.9917
▁monumento	-11.9917
▁pesquería	-11.9917
▁reconstruí	-11.9917
▁simbólic	-11.9917
▁somerx	-11.9917
canceríxen	-11.9917
onomía	-11.9917
oscopio	-11.9917
árquic	-11.9917
▁Absor	-11.9917
▁Continu	-11.9917
▁Fíxo	-11.9917
▁Manhat	-11.9917
▁Preocup	-11.9917
▁abstrac	-11.9917
▁agresiv	-11.9917
▁aprénd	-11.9917
▁bancada	-11.9917
▁biomarcador	-11.9917
▁crónica	-11.9917
▁despedi	-11.9917
▁facémolo	-11.9917
▁femenin	-11.9917
▁glorifica	-11.9917
▁lastim	-11.9917
▁renuncie	-11.9917
▁utilizáse	-11.9917
▁védes	-11.9917
▁Facémo	-11.9917
▁acelere	-11.9917
▁acepto	-11.9917
▁amañar	-11.9917
▁detallado	-11.9917
▁distribuí	-11.9917
▁esforzá	-11.9917
▁examinad	-11.9917
▁inculca	-11.9917
▁inmorta	-11.9917
▁insuf	-11.9917
▁pirata	-11.9917
▁sagrado	-11.9917
▁textura	-11.9917
▁xorde	-11.9917
▁diversa	-11.9917
▁xordo	-11.9917
▁Comprob	-11.9917
▁Considera	-11.9917
▁aleatori	-11.9917
▁bancari	-11.9917
▁desgracia	-11.9917
▁enfád	-11.9917
▁esquizofrénic	-11.9917
▁reutiliza	-11.9917
alangre	-11.9917
▁Interésa	-11.9917
▁Xornal	-11.9917
▁engadí	-11.9917
osfera	-11.9917
ucker	-11.9917
▁Consegue	-11.9917
▁alugado	-11.9917
▁blanda	-11.9917
▁colóca	-11.9917
▁inhib	-11.9917
▁predecesor	-11.9917
▁recrut	-11.9917
tánea	-11.9917
ólica	-11.9917
▁fáb	-11.9917
▁territorio	-11.9917
pulsar	-11.9917
▁albergue	-11.9917
▁racionaliz	-11.9917
▁Fixéra	-11.9917
▁enfocad	-11.9917
▁poidera	-11.9917
aboleiro	-11.9917
▁cuberto	-11.9917
▁esixir	-11.9917
▁facér	-11.9917
▁iogur	-11.9917
▁vexetarian	-11.9917
▁Encontr	-11.9917
▁Viaxa	-11.9917
▁anticuad	-11.9917
▁cicatri	-11.9917
▁homicidio	-11.9917
▁prometedor	-11.9917
▁termine	-11.9917
▁turco	-11.9917
métrico	-11.9917
▁Baixo	-11.9917
▁devólve	-11.9917
▁dogma	-11.9917
▁presénta	-11.9917
▁Play	-11.9917
▁difama	-11.9917
▁dramátic	-11.9917
▁estampado	-11.9917
▁oleoso	-11.9917
nfant	-11.9917
▁billete	-11.9917
▁Utiliza	-11.9917
▁húmid	-11.9917
▁posesión	-11.9917
▁afeita	-11.9917
xún	-11.9917
▁intercon	-11.9917
▁Aaaa	-11.9917
▁levárono	-11.9917
▁reclus	-11.9917
▁despach	-11.9917
▁escolta	-11.9917
▁inexor	-11.9917
▁menospre	-11.9917
▁mét	-11.9917
▁diverx	-11.9918
▁Acept	-11.9918
▁Semella	-11.9918
▁iraní	-11.9918
▁irrita	-11.9918
▁concello	-11.9918
▁desacelera	-11.9918
▁examinan	-11.9918
▁parvada	-11.9918
▁reverti	-11.9918
▁simplic	-11.9918
epíte	-11.9918
licioso	-11.9918
ltipl	-11.9918
▁esboro	-11.9918
▁patóxen	-11.9918
▁Diferente	-11.9918
▁bólabot	-11.9918
▁secreta	-11.9918
▁sobrepeso	-11.9918
▁Sáca	-11.9918
omething	-11.9918
▁autodestruc	-11.9918
▁enról	-11.9918
▁minarete	-11.9918
▁abarca	-11.9918
▁entusi	-11.9918
▁esteriliza	-11.9918
▁estupend	-11.9918
▁gordo	-11.9918
▁soberano	-11.9918
▁bó	-11.9918
▁friki	-11.9918
▁moderad	-11.9918
▁Mensaxe	-11.9918
▁Aumenta	-11.9918
▁recordatorio	-11.9918
▁alimentici	-11.9918
▁rendi	-11.9918
▁nube	-11.9918
▁feitiño	-11.9918
▁analx	-11.9918
▁coñez	-11.9918
▁estrago	-11.9918
▁maravillosa	-11.9918
▁sintétic	-11.9918
▁empaca	-11.9918
▁tecn	-11.9918
▁amencer	-11.9918
▁cataliza	-11.9918
▁obxección	-11.9918
▁preced	-11.9918
▁pulso	-11.9918
▁expulsa	-11.9918
▁invadi	-11.9918
▁obsesionei	-11.9918
▁afli	-11.9918
▁intermitente	-11.9918
laranxa	-11.9918
▁antecesor	-11.9918
▁humida	-11.9918
▁resíste	-11.9918
▁abru	-11.9918
▁idóne	-11.9918
▁provincia	-11.9918
▁barbari	-11.9918
▁pesimis	-11.9918
▁ateigad	-11.9918
▁veleno	-11.9918
▁prevé	-11.9918
▁pedinlle	-11.9918
▁Problema	-11.9918
xacente	-11.9918
▁budis	-11.9918
▁caderno	-11.9918
▁disolv	-11.9918
▁pensá	-11.9918
▁lenzo	-11.9918
▁licenza	-11.9918
▁estrondo	-11.9918
▁sentimenta	-11.9918
▁corrup	-11.9918
▁feminin	-11.9918
▁pechadura	-11.9918
adir	-11.9918
▁oceánica	-11.9918
▁vomit	-11.9918
▁ausenta	-11.9918
▁castiga	-11.9918
▁aloxar	-11.9919
combína	-11.9919
▁Basta	-11.9919
▁cient	-11.9919
chelista	-11.9919
▁.....	-11.9919
▁disfr	-11.9919
arabi	-11.9919
▁costume	-11.9919
▁Smith	-11.9919
▁nomina	-11.9919
▁inclina	-11.9919
▁Frie	-11.9919
patriota	-11.9919
▁Prepar	-11.9919
▁filmar	-11.9919
▁confía	-11.9919
▁McKin	-11.9919
ERI	-11.9919
víta	-11.9919
▁Papua	-11.9919
▁interrómpe	-11.9919
▁enlaza	-11.9919
▁cabece	-11.9919
ágono	-11.9919
▁escavadora	-11.9919
defenso	-11.9919
▁Gúst	-11.9919
▁benign	-11.9919
▁viscos	-11.9919
▁reconcilia	-11.9919
▁referir	-11.9919
EL	-11.9919
▁Descart	-11.9919
▁maestr	-11.9919
▁Vietnam	-11.9919
▁PRE	-11.9919
▁carrexa	-11.9919
▁Escribir	-11.9919
▁Ensína	-11.992
▁distinguir	-11.992
▁nódu	-11.992
▁miráde	-11.992
▁agach	-11.992
▁intervención	-11.992
▁divaga	-11.992
▁involucrada	-11.992
▁hiperactiv	-11.992
▁corrección	-11.992
▁distante	-11.992
▁Fermoso	-11.992
▁gravita	-11.992
▁avali	-11.992
▁grose	-11.992
plexa	-11.992
▁ámbito	-11.992
▁pasivo	-11.992
▁exporta	-11.992
▁rectifica	-11.992
▁comenz	-11.992
▁atrasa	-11.992
▁autoim	-11.992
▁respetuos	-11.992
▁incert	-11.992
▁semellanza	-11.992
▁violación	-11.992
▁traslad	-11.9921
9,9	-11.9921
▁Entre	-11.9921
▁Practicam	-11.9921
▁conducta	-11.9921
▁Inver	-11.9921
▁propens	-11.9921
▁enviou	-11.9921
cífico	-11.9921
▁emblem	-11.9921
▁Coloque	-11.9921
▁brutal	-11.9921
▁saltase	-11.9921
▁Morre	-11.9921
▁Powe	-11.9921
▁Corp	-11.9921
▁sardiña	-11.9921
▁secuestra	-11.9921
untiño	-11.9921
▁enmascara	-11.9921
▁187	-11.9921
▁5,	-11.9921
▁comentarista	-11.9921
IL	-11.9921
▁Recom	-11.9922
▁esmaga	-11.9922
egro	-11.9922
▁concentr	-11.9922
uíu	-11.9922
▁ourizo	-11.9922
▁xulgue	-11.9922
▁repos	-11.9922
▁gozo	-11.9922
▁afro	-11.9922
▁posterior	-11.9922
▁macho	-11.9922
▁anónimo	-11.9922
adverti	-11.9922
ustria	-11.9922
▁Estí	-11.9922
▁ensinár	-11.9922
▁imperio	-11.9923
▁visualización	-11.9923
▁diagnosticáron	-11.9923
▁Berl	-11.9923
▁doloroso	-11.9923
▁renova	-11.9923
▁nesto	-11.9923
▁Abu	-11.9923
▁explosión	-11.9923
▁bolso	-11.9923
▁evol	-11.9924
▁conlev	-11.9924
▁pisada	-11.9924
▁Neuro	-11.9924
▁selecciona	-11.9924
EU	-11.9924
▁autoest	-11.9924
▁campá	-11.9924
▁comeun	-11.9924
▁dobla	-11.9924
▁entum	-11.9924
▁discapacitad	-11.9924
▁destruí	-11.9924
▁pérd	-11.9924
▁preguntándo	-11.9924
▁desculpa	-11.9924
▁rescat	-11.9925
▁Retroced	-11.9925
▁contiña	-11.9925
▁ferro	-11.9925
▁Jay	-11.9925
éndolle	-11.9925
rrump	-11.9925
▁albe	-11.9925
▁lím	-11.9925
▁egoís	-11.9925
▁ensínan	-11.9926
▁automatiza	-11.9926
▁Madi	-11.9926
▁pruden	-11.9926
▁cál	-11.9926
▁solapa	-11.9926
▁preferiría	-11.9926
▁chalado	-11.9926
▁mexican	-11.9926
▁decát	-11.9927
sustei	-11.9927
▁incin	-11.9927
aff	-11.9927
▁duplicar	-11.9927
multidisciplinar	-11.9927
▁formulario	-11.9927
attle	-11.9927
▁triple	-11.9927
▁toleara	-11.9927
▁encantadora	-11.9927
▁Fed	-11.9927
▁Golpe	-11.9927
etecta	-11.9927
▁amoroso	-11.9927
traído	-11.9928
tizan	-11.9928
▁gato	-11.9928
▁xapon	-11.9928
ébo	-11.9928
▁alcal	-11.9928
▁álbum	-11.9928
▁porteiro	-11.9928
▁Cicer	-11.9929
▁disparatad	-11.9929
▁comparativa	-11.9929
▁prendeu	-11.9929
▁expi	-11.9929
▁distingu	-11.9929
▁Vivi	-11.9929
▁reunificada	-11.9929
▁devolver	-11.9929
▁xeneros	-11.9929
▁convertíron	-11.993
▁Mitch	-11.993
▁outorg	-11.993
▁enviáron	-11.993
▁vitoria	-11.993
▁convertí	-11.9931
▁canela	-11.9931
▁vixia	-11.9931
▁chove	-11.9931
▁cegue	-11.9931
▁farmac	-11.9931
▁flotante	-11.9932
▁Coun	-11.9932
▁parcial	-11.9932
▁encántalle	-11.9933
▁vicio	-11.9933
▁cubría	-11.9933
vellez	-11.9933
▁achado	-11.9933
ucina	-11.9933
amin	-11.9933
▁fasc	-11.9933
▁apagad	-11.9933
éxo	-11.9934
▁cabaleiro	-11.9934
▁arqui	-11.9934
▁espallá	-11.9934
▁acoug	-11.9935
▁Podédel	-11.9935
▁critica	-11.9935
▁lixeiro	-11.9935
▁ámbar	-11.9935
▁bater	-11.9935
▁Up	-11.9935
▁recada	-11.9935
▁etano	-11.9935
ónimo	-11.9936
▁dificilísim	-11.9936
▁arrasando	-11.9936
▁combinar	-11.9936
ofu	-11.9936
▁volvéndo	-11.9936
▁acua	-11.9936
▁varía	-11.9937
▁desperta	-11.9937
▁exacto	-11.9937
▁causalidade	-11.9937
fast	-11.9938
▁patrocinador	-11.9938
petit	-11.9938
▁Xogue	-11.9939
TA	-11.9939
▁beira	-11.9939
polo	-11.9939
▁enzim	-11.9939
▁correspondente	-11.9939
▁doutorado	-11.9939
▁mingua	-11.9939
▁elexí	-11.994
▁Ló	-11.994
▁facilidade	-11.994
efír	-11.9941
▁cáus	-11.9941
▁cruce	-11.9941
▁borde	-11.9942
▁recuperaba	-11.9942
▁recoñecía	-11.9942
▁considerable	-11.9943
óuvol	-11.9943
▁neutrón	-11.9943
▁démo	-11.9943
▁crocante	-11.9944
▁esvaece	-11.9945
turi	-11.9945
▁desactiva	-11.9945
▁gardada	-11.9946
▁solteir	-11.9946
AS	-11.9946
▁propuxé	-11.9946
▁sonora	-11.9947
▁taxista	-11.9947
uete	-11.9948
árb	-11.9948
▁infinita	-11.9949
▁intencionada	-11.9949
▁compromete	-11.9949
▁opin	-11.9949
▁raio	-11.9949
▁Díg	-11.995
▁deprimida	-11.9951
▁Trata	-11.9951
▁Ji	-11.9951
▁Keny	-11.9952
regúnto	-11.9952
cket	-11.9953
▁estraga	-11.9953
▁afin	-11.9953
▁abane	-11.9953
▁puli	-11.9954
▁Christo	-11.9954
▁verificar	-11.9954
▁postrá	-11.9954
rexa	-11.9954
atchi	-11.9954
▁lingu	-11.9955
▁defrauda	-11.9956
▁Fixéron	-11.9956
▁West	-11.9956
▁escritorio	-11.9956
▁paus	-11.9956
▁recí	-11.9957
▁especialista	-11.9958
▁constat	-11.9958
▁aviso	-11.9958
óto	-11.9959
▁reactiv	-11.9959
ming	-11.9959
▁Xunt	-11.9959
▁Cambia	-11.9959
▁subxacente	-11.9959
▁chal	-11.9959
▁darllo	-11.996
▁gañaba	-11.996
▁axita	-11.996
bito	-11.9961
ió	-11.9962
▁executa	-11.9962
▁Levo	-11.9963
▁criminal	-11.9963
▁Giacom	-11.9964
istó	-11.9964
icidio	-11.9965
▁pedía	-11.9965
▁tub	-11.9966
▁Lémbram	-11.9966
▁aborre	-11.9967
▁Escolle	-11.9967
asivo	-11.9967
▁confirmado	-11.9968
▁Civ	-11.9968
ática	-11.9968
▁privación	-11.997
perg	-11.9971
▁Elix	-11.9971
▁revisada	-11.9971
▁silenciosa	-11.9971
▁pasándo	-11.9972
▁alarma	-11.9972
▁mafia	-11.9973
▁elaborada	-11.9973
▁Bosque	-11.9974
▁quitalo	-11.9974
▁devora	-11.9974
▁distrae	-11.9974
▁estrica	-11.9975
▁satura	-11.9976
▁Chamei	-11.9977
▁asentar	-11.9977
▁compartimento	-11.9977
▁Asum	-11.9978
▁agardaría	-11.9979
lisio	-11.9979
táculo	-11.998
▁derivado	-11.998
ndario	-11.998
▁conectiv	-11.9981
▁arbitrari	-11.9981
▁psicolóxic	-11.9983
▁impux	-11.9983
▁permítelle	-11.9985
▁sólid	-11.9985
éce	-11.9985
▁porcento	-11.9985
▁inxente	-11.9985
▁sigue	-11.9986
▁regresar	-11.9986
úsan	-11.9986
▁Necesi	-11.9987
▁granxa	-11.9988
▁Lévo	-11.9988
ístes	-11.9988
ncárg	-11.9988
▁soterrad	-11.9988
oviétic	-11.9988
onecta	-11.9989
▁Salo	-11.9989
▁canaliza	-11.9989
órne	-11.9989
▁volvémo	-11.9991
▁nomeada	-11.9991
▁Ensin	-11.9993
▁Benvido	-11.9993
▁descubríron	-11.9993
spéra	-11.9994
▁humorístic	-11.9994
▁satisf	-11.9994
ushi	-11.9996
▁finxi	-11.9997
▁preste	-11.9998
ificación	-11.9998
▁comprometid	-11.9998
▁necesitaría	-11.9999
▁elaborado	-11.9999
▁botou	-11.9999
▁suxir	-12
STR	-12.0002
▁roubarch	-12.0002
▁Fer	-12.0002
▁Fra	-12.0002
udir	-12.0003
▁Separ	-12.0003
▁prezad	-12.0003
alva	-12.0003
▁fogo	-12.0003
▁icon	-12.0003
▁saque	-12.0005
icipa	-12.0006
nteiro	-12.0007
uriña	-12.0008
▁lote	-12.0008
rixe	-12.0008
▁espallado	-12.0008
▁selectiv	-12.0009
ché	-12.001
▁supost	-12.0011
▁marche	-12.0011
▁miser	-12.0012
ubila	-12.0012
▁Kat	-12.0013
▁mandarll	-12.0013
▁credi	-12.0014
▁Saia	-12.0014
loxi	-12.0015
▁almacenalo	-12.0016
▁etern	-12.0017
▁rexistrada	-12.0018
▁botándo	-12.0019
▁Chamar	-12.002
ínter	-12.0023
▁minoría	-12.0023
▁píde	-12.0024
▁furado	-12.0024
▁polariza	-12.0025
▁confundir	-12.0025
▁Nev	-12.0026
▁acosado	-12.0026
▁consú	-12.0026
▁nacida	-12.0027
▁levará	-12.0028
▁cometa	-12.0029
afas	-12.0029
▁gardado	-12.003
▁inactiv	-12.003
mántic	-12.0031
▁repetitivo	-12.0032
▁promet	-12.0034
▁épico	-12.0034
▁agudo	-12.0038
▁deportivo	-12.0039
inxir	-12.0039
▁convidado	-12.0039
▁aditivo	-12.0039
▁aéreo	-12.0039
▁situado	-12.0039
▁perverso	-12.0039
▁confinado	-12.0039
▁intestino	-12.0039
▁microscópico	-12.0039
▁tranquilo	-12.004
▁emulsi	-12.0041
ocke	-12.0042
▁vestido	-12.0042
▁perdoa	-12.0043
▁primo	-12.0044
▁tropa	-12.0044
cy	-12.0044
▁puidése	-12.0045
▁sanguinari	-12.0045
▁atopará	-12.0045
poñe	-12.0046
▁amarra	-12.0048
ántico	-12.0048
▁Recorda	-12.0049
bsesioná	-12.0052
▁color	-12.0052
▁Bú	-12.0052
▁Vería	-12.0052
uír	-12.0053
▁horizonte	-12.0053
▁transmitía	-12.0054
taste	-12.0055
kon	-12.0057
▁12.	-12.006
▁pad	-12.006
▁Inspir	-12.0061
nauta	-12.0063
ofensiva	-12.0064
▁colaborador	-12.0064
▁estender	-12.0065
▁necesitámol	-12.0065
▁cumpriría	-12.0065
▁etiquetala	-12.0066
▁rexistrado	-12.0066
▁nacido	-12.0066
▁adquirida	-12.0066
xplicarei	-12.0066
▁Mc	-12.0066
▁fabricante	-12.0068
▁mantéñen	-12.0068
estrado	-12.0069
▁relaxa	-12.007
▁elevada	-12.007
▁novidosa	-12.007
▁intrínseca	-12.007
▁pila	-12.007
hhhh	-12.0071
confundi	-12.0073
▁resolve	-12.0075
▁marxe	-12.0077
xenér	-12.0077
uoso	-12.0079
iencia	-12.008
▁Vaite	-12.0083
▁sanitari	-12.0084
▁ralentiz	-12.0086
▁chamarlle	-12.0087
▁óptica	-12.0088
▁comprobada	-12.0091
▁procedente	-12.0092
▁Engadi	-12.0092
reparar	-12.0097
▁sho	-12.01
▁indicación	-12.0103
▁botalo	-12.0105
▁espido	-12.0105
▁destina	-12.0106
▁cargada	-12.0106
▁describía	-12.0109
▁arco	-12.0111
▁amosarll	-12.0111
▁preocupante	-12.0112
olat	-12.0113
▁implicada	-12.0114
▁respet	-12.0114
▁Fle	-12.0117
▁suda	-12.0117
▁Mende	-12.0118
▁Reno	-12.0121
años	-12.0122
▁dígovo	-12.0123
▁excepciona	-12.0123
▁candidata	-12.0123
▁comporta	-12.0123
▁impedi	-12.0127
▁escarva	-12.013
▁proveñ	-12.0131
▁incluída	-12.0134
▁Viol	-12.0134
▁Mante	-12.0135
▁Island	-12.0137
▁Léva	-12.0138
▁terap	-12.0143
nviámol	-12.0143
ILL	-12.0143
▁cardi	-12.0145
▁Puid	-12.0145
xada	-12.0146
▁dentad	-12.0147
▁naci	-12.0149
▁percatar	-12.0149
▁pilla	-12.0153
absorbe	-12.0154
erlle	-12.0155
▁reúno	-12.0156
semell	-12.0159
▁querería	-12.016
▁cintur	-12.016
▁organizado	-12.0163
▁estourar	-12.0164
▁enraiz	-12.017
▁fixémola	-12.017
▁balde	-12.0173
▁Tería	-12.0176
gasta	-12.0178
▁despraza	-12.0179
▁invitar	-12.0179
▁considerada	-12.0181
▁pará	-12.0182
▁pása	-12.0183
▁confirma	-12.0186
ofensiv	-12.0187
▁agradece	-12.0188
▁Preoc	-12.0189
▁xerada	-12.0191
▁convic	-12.0192
▁etiquetado	-12.0194
▁diaria	-12.0196
▁sospeitar	-12.0199
logan	-12.02
▁cimenta	-12.0202
▁morada	-12.0203
▁dicíalle	-12.0203
▁Pesa	-12.0204
▁descubriría	-12.0207
▁milagros	-12.0208
▁esvar	-12.0208
▁verted	-12.0209
▁reparador	-12.0212
▁Bal	-12.0212
istoria	-12.0213
▁interesaba	-12.0216
▁fascinad	-12.0217
▁Lem	-12.0223
planetario	-12.0224
▁pousa	-12.0228
▁Confundi	-12.0228
cúl	-12.0235
▁Leg	-12.0237
▁estu	-12.0238
▁enviado	-12.024
▁My	-12.024
munitario	-12.024
line	-12.0241
visible	-12.0242
▁rom	-12.0245
▁pechou	-12.0246
▁especializad	-12.0246
▁mirában	-12.0249
lexand	-12.0252
▁botaría	-12.0252
▁provocada	-12.0254
▁clásico	-12.0254
▁asiático	-12.0255
▁estranxeiro	-12.0255
▁inmenso	-12.0258
▁alivia	-12.0263
▁comparada	-12.0266
▁branquea	-12.0266
▁docente	-12.0268
▁fér	-12.0268
▁Debo	-12.0275
predador	-12.0276
▁negativa	-12.0278
▁collía	-12.0279
▁colon	-12.028
▁Estámol	-12.0282
▁supli	-12.0283
▁garantid	-12.0285
marquei	-12.0285
idón	-12.0294
▁celebrar	-12.03
▁pian	-12.0306
▁cálid	-12.0307
▁deixala	-12.0309
▁morde	-12.031
▁dividiu	-12.0312
éra	-12.0315
estabiliza	-12.0322
▁peguein	-12.0325
▁esperto	-12.0326
▁Pra	-12.0329
▁descompoñer	-12.0331
▁pegado	-12.0334
▁louc	-12.0334
eficac	-12.0337
▁eye	-12.0341
▁paranoi	-12.0341
cienc	-12.0341
índolle	-12.0342
ivado	-12.0344
aneta	-12.0346
estig	-12.0354
▁Sac	-12.0361
▁insid	-12.0362
▁vindeir	-12.0364
▁Dub	-12.0367
preserva	-12.0368
▁xeneti	-12.037
▁incu	-12.0374
metér	-12.0374
▁submarina	-12.0379
▁mudei	-12.0381
▁predispos	-12.0385
▁refería	-12.0385
celad	-12.0386
▁concluír	-12.0387
▁conteill	-12.0393
▁cli	-12.04
▁espectador	-12.0404
▁illada	-12.0404
▁naquela	-12.0404
▁provocador	-12.0406
urba	-12.0407
▁Greg	-12.0409
▁mur	-12.041
▁entendid	-12.0412
▁desanimad	-12.0416
▁toque	-12.0423
▁pip	-12.0431
▁adentr	-12.0433
▁editoria	-12.0437
▁construíla	-12.0439
▁Wh	-12.044
▁afectada	-12.0446
▁perdelo	-12.0451
▁empurran	-12.0457
▁Boa	-12.0459
▁estudado	-12.0466
▁Rou	-12.047
▁leván	-12.0472
▁dinam	-12.0473
▁Corre	-12.0476
epende	-12.0477
▁ocupan	-12.0478
▁cháman	-12.0482
▁deseñá	-12.0489
▁femi	-12.0494
▁xenera	-12.0502
nge	-12.051
▁Sacou	-12.0511
▁escacha	-12.0514
▁madura	-12.0525
▁euro	-12.053
▁marabillar	-12.0532
▁ergueit	-12.0535
kara	-12.0539
▁deposita	-12.0557
▁collelo	-12.0558
force	-12.0562
▁Facían	-12.0563
auta	-12.0566
páren	-12.057
▁desenvolví	-12.0572
▁lexislador	-12.0572
▁permitirá	-12.0573
▁trouxe	-12.0574
▁poñerlle	-12.0575
▁conforma	-12.0578
▁sosti	-12.058
ágan	-12.0581
atch	-12.0581
▁dinlle	-12.059
marca	-12.0592
▁Lar	-12.0599
▁Viro	-12.06
▁Probar	-12.0602
▁dexenerar	-12.0602
▁vila	-12.0609
▁poñela	-12.0615
▁poid	-12.0616
teles	-12.0618
▁descoidad	-12.0621
lberg	-12.0629
▁engorda	-12.0631
▁corresponden	-12.0639
▁Vaino	-12.0642
▁ditado	-12.0658
▁imitador	-12.066
▁alcanz	-12.0661
▁coinciden	-12.0678
▁Sibe	-12.0678
▁Vend	-12.0683
▁dobran	-12.0687
mpar	-12.0693
▁Permit	-12.0708
▁conectaba	-12.0712
▁Mete	-12.0715
▁fórm	-12.0715
▁soñ	-12.072
rtilla	-12.0726
itorio	-12.0727
▁orador	-12.074
▁enviaba	-12.074
▁deleit	-12.0756
▁regresa	-12.0763
▁actuase	-12.077
icken	-12.0774
▁arrefriar	-12.0781
anel	-12.0784
itache	-12.0791
ssett	-12.0793
▁axudalo	-12.0799
▁programalo	-12.0801
▁aproximar	-12.0805
úpe	-12.0813
▁Leona	-12.0813
▁escoitada	-12.0827
▁Frea	-12.083
▁desconecta	-12.0831
peira	-12.0833
▁burl	-12.0837
▁loitador	-12.0841
▁agocha	-12.0854
▁salienta	-12.0872
▁Cóm	-12.088
ntámo	-12.089
▁adestrar	-12.0893
▁interés	-12.0893
▁proxecta	-12.0896
▁Escoit	-12.0904
▁consideraba	-12.0904
▁Bol	-12.0906
chegába	-12.0915
instalado	-12.092
▁levouno	-12.0924
dixo	-12.0934
▁namorar	-12.096
▁lanzado	-12.097
▁erradicar	-12.0972
rémol	-12.1
turador	-12.1001
▁humill	-12.1002
agámolo	-12.1031
▁entregar	-12.1033
rteamerican	-12.1042
▁culpar	-12.1043
céntr	-12.1043
▁conxelado	-12.1051
▁cheg	-12.1072
úen	-12.1095
patolóxic	-12.1109
▁pia	-12.1117
▁manteña	-12.1128
opio	-12.1129
▁dirixiu	-12.113
ntiga	-12.1156
fúnde	-12.1191
▁defenda	-12.1193
▁rega	-12.1202
▁aspira	-12.1234
▁maxim	-12.125
▁adhe	-12.1269
▁Im	-12.1283
▁Ric	-12.1284
▁clasificador	-12.1291
rovi	-12.1291
labor	-12.1302
▁Trem	-12.1315
▁prescri	-12.1316
▁gústan	-12.133
teña	-12.1345
rrotada	-12.1369
▁Falou	-12.1389
▁millor	-12.1391
talia	-12.1403
▁Desc	-12.1419
▁font	-12.1433
▁colli	-12.1464
▁Mont	-12.1493
ordinar	-12.1494
édico	-12.1516
▁absorb	-12.1526
▁Vist	-12.1546
▁Diría	-12.1554
cólle	-12.1564
▁sitú	-12.1581
▁louva	-12.1589
▁Univers	-12.1595
▁achegar	-12.1615
▁metodi	-12.1634
▁metaf	-12.1639
▁votan	-12.1645
▁abandonar	-12.1646
▁rezar	-12.1656
PO	-12.1657
▁mantiv	-12.1683
▁ocurr	-12.1736
▁aumentará	-12.174
▁Marin	-12.1758
NA	-12.1763
▁integrad	-12.1766
▁inocen	-12.1774
púls	-12.1789
▁acelerado	-12.1799
▁Agá	-12.1803
▁Pé	-12.183
▁ouvir	-12.1848
▁maldi	-12.185
▁Crear	-12.186
▁Ill	-12.189
▁sard	-12.1912
manguei	-12.1953
▁transferid	-12.2039
emana	-12.2049
▁Subir	-12.2059
ball	-12.2083
emolo	-12.2086
▁implicar	-12.2101
▁Kh	-12.2116
esap	-12.2124
▁Lanz	-12.2142
fix	-12.2169
▁canin	-12.2195
▁recoll	-12.2208
ancet	-12.223
▁trop	-12.2249
hang	-12.225
▁Bei	-12.2266
▁distract	-12.2316
▁dividid	-12.2317
statístic	-12.2318
▁cambiaba	-12.2322
▁arg	-12.2327
▁apañ	-12.2344
▁pronunciad	-12.2393
▁limitad	-12.243
▁Traduc	-12.2441
▁Taiw	-12.2498
cargado	-12.2502
▁compost	-12.2559
▁fach	-12.2594
▁neu	-12.2647
apida	-12.2669
lianz	-12.2704
▁arranxa	-12.2797
▁respecta	-12.2835
▁defende	-12.2836
▁Interact	-12.2879
bral	-12.2898
▁frustrad	-12.2926
izos	-12.2938
▁Seri	-12.3064
pul	-12.3277
▁fracasa	-12.3405
tivér	-12.3422
▁morrerá	-12.3432
▁Conte	-12.3509
▁dirí	-12.3514
J	-12.9721
Q	-12.9916
#	-14.299
Á	-14.2991
♪	-14.2992
♫	-14.2993
—	-14.2994
É	-14.2995
)	-14.2996
:	-14.2997
?	-14.2998
&	-14.2999
