<unk>	0
<s>	0
</s>	0
▁,	-3.09861
▁.	-3.20444
▁	-3.53839
ים	-3.77309
ה	-3.80028
;	-4.0353
▁&	-4.07494
ot	-4.18985
qu	-4.19024
▁ה	-4.20091
ת	-4.28921
▁את	-4.40066
▁ב	-4.41892
▁ל	-4.47056
▁של	-4.53543
ות	-4.56756
ו	-4.75308
▁זה	-4.7663
י	-4.80913
▁לא	-4.89855
▁ו	-4.96757
▁על	-5.01807
▁מ	-5.07795
ם	-5.11684
▁ש	-5.13412
▁מה	-5.20205
ן	-5.41061
נו	-5.45693
▁אני	-5.4717
▁הוא	-5.51402
-	-5.58993
▁?	-5.61689
▁אבל	-5.64262
▁אז	-5.69986
▁כל	-5.70124
תי	-5.7655
▁הם	-5.83798
▁יותר	-5.862
▁או	-5.87018
▁עם	-5.8721
▁יש	-5.90288
▁כ	-5.94245
▁היא	-5.94525
▁:	-6.04487
▁היה	-6.05928
▁אנחנו	-6.05977
▁—	-6.05996
▁אם	-6.08638
▁)	-6.12131
(	-6.12184
▁וה	-6.13245
▁שה	-6.20303
▁הזה	-6.27272
ap	-6.28983
os	-6.29152
▁כמו	-6.31161
▁אתם	-6.33446
▁כך	-6.37828
▁שלנו	-6.39737
▁לי	-6.40029
▁אחד	-6.40755
▁שלי	-6.43674
▁כדי	-6.45492
▁רק	-6.45719
▁לנו	-6.45719
ית	-6.47719
▁יכולים	-6.48948
▁להיות	-6.50448
▁אנשים	-6.53558
▁נ	-6.56818
▁יכול	-6.57394
ר	-6.59257
▁לה	-6.62859
▁גם	-6.63075
▁א	-6.63164
▁לכם	-6.68248
אנחנו	-6.68421
▁לעשות	-6.68475
▁זו	-6.69122
▁צחוק	-6.7143
▁ול	-6.72484
▁הרבה	-6.73353
▁אנו	-6.74673
▁מאוד	-6.77049
▁היו	-6.79492
▁כמה	-6.80949
▁זאת	-6.81647
▁המ	-6.8184
▁עכשיו	-6.82187
▁וזה	-6.83321
▁כי	-6.845
▁אותו	-6.85531
▁וב	-6.89854
▁י	-6.9064
▁שזה	-6.91561
ך	-6.92618
▁שאני	-6.93184
▁איך	-6.94636
א	-6.95837
▁ואני	-6.96165
▁האלה	-6.99164
▁משהו	-6.99228
ג	-7.0173
▁שמ	-7.02657
▁שהם	-7.04245
▁ג	-7.04502
▁-	-7.04511
ס	-7.04832
תוך	-7.04838
▁טוב	-7.05779
▁שיש	-7.06682
▁הזו	-7.07102
▁בכל	-7.07382
▁כאן	-7.08297
ק	-7.09759
▁אותם	-7.11476
.	-7.12508
▁דבר	-7.13234
▁שלהם	-7.13635
▁לראות	-7.13916
▁ואז	-7.14029
▁לפני	-7.1461
▁שם	-7.14783
▁ביותר	-7.15292
▁למעשה	-7.15696
▁באמת	-7.16483
▁ת	-7.16537
▁שהוא	-7.16765
▁ממש	-7.16788
▁יודעים	-7.17138
▁ומ	-7.17428
▁עד	-7.19257
יות	-7.20742
ון	-7.21666
▁בו	-7.21988
▁להם	-7.2224
▁כפיים	-7.22576
נים	-7.23215
ט	-7.234
▁מחיאות	-7.23641
▁צריכים	-7.24262
▁פשוט	-7.24783
▁רוצה	-7.24982
ב	-7.25654
ל	-7.27089
ף	-7.2811
▁כש	-7.28294
▁האם	-7.28839
▁דברים	-7.29067
יה	-7.2968
▁שב	-7.29872
▁אל	-7.30039
פי	-7.30252
▁אחת	-7.30719
▁הית	-7.30841
אשר	-7.31056
▁העולם	-7.34374
אופן	-7.35495
ש	-7.37394
▁היום	-7.38221
▁בין	-7.38764
ני	-7.38766
▁הייתי	-7.38891
ע	-7.39194
▁לו	-7.40389
▁שנים	-7.40523
▁שלא	-7.40666
1	-7.41386
▁מי	-7.41673
▁דרך	-7.41911
ינו	-7.42399
ד	-7.42539
▁אולי	-7.42559
▁אין	-7.44016
▁אחר	-7.44384
▁חושב	-7.44915
▁בה	-7.45156
▁תודה	-7.4537
▁אלה	-7.45469
▁אמר	-7.45775
▁הן	-7.4661
▁מת	-7.46809
▁ידי	-7.46913
▁רואים	-7.47297
▁די	-7.48551
▁כן	-7.48582
▁אתה	-7.4901
▁אותה	-7.49024
▁בגלל	-7.49345
בי	-7.50519
כם	-7.51248
▁אפילו	-7.51477
▁חלק	-7.52905
▁אומר	-7.52918
ח	-7.53255
אך	-7.54141
▁אי	-7.54664
▁שאתם	-7.5585
▁עוד	-7.56418
▁זמן	-7.56509
▁שנה	-7.56919
▁אותי	-7.57727
▁ע	-7.57831
▁ואת	-7.58287
▁בעולם	-7.59269
▁הכי	-7.59533
▁מאד	-7.60928
▁והוא	-7.61054
משך	-7.61108
▁שני	-7.61616
▁שלו	-7.62468
▁למה	-7.62491
▁שלכם	-7.63036
ור	-7.63631
▁שאנו	-7.64269
▁צריך	-7.64778
▁עבור	-7.65514
מ	-7.65939
▁עושים	-7.66453
ין	-7.666
▁זהו	-7.67206
▁אחרי	-7.6721
כך	-7.68039
טי	-7.69017
▁והם	-7.69259
▁ק	-7.69617
ז	-7.69697
נה	-7.7011
▁פעם	-7.70721
▁לש	-7.70835
▁הדבר	-7.72435
▁ס	-7.72653
▁אדם	-7.73317
▁חיים	-7.73398
▁אלא	-7.74342
▁לכל	-7.74396
▁רוצים	-7.74412
מה	-7.75192
▁הללו	-7.75981
▁נכון	-7.76042
לי	-7.76906
▁שנ	-7.76947
יל	-7.77842
▁מספר	-7.77951
▁כבר	-7.78047
▁שהיא	-7.78302
▁נראה	-7.78591
פ	-7.78599
מו	-7.78705
צ	-7.79441
▁&#9	-7.7997
▁&#93;	-7.80018
▁האלו	-7.80493
▁סוג	-7.81847
▁לב	-7.82106
▁אלו	-7.82479
מי	-7.82698
▁הכל	-7.82873
▁גדול	-7.84684
▁ובכן	-7.85012
▁אפשר	-7.85858
▁ח	-7.86161
מים	-7.86645
▁ולא	-7.86752
▁הדברים	-7.86829
▁למ	-7.87053
▁יהיה	-7.87329
▁עדיין	-7.8734
▁שי	-7.88586
▁פי	-7.89718
▁בדיוק	-7.90442
▁הנה	-7.90641
▁קצת	-7.90821
▁שוב	-7.92084
▁האנשים	-7.92213
כן	-7.92618
אי	-7.92662
▁ליצור	-7.92845
▁לזה	-7.92872
▁אחרים	-7.93072
▁הזמן	-7.93106
גר	-7.93574
טר	-7.93582
ניתן	-7.93666
▁לך	-7.94153
▁מפני	-7.94607
בר	-7.94924
▁יום	-7.95231
נ	-7.95803
▁ר	-7.95986
▁ומה	-7.9689
נס	-7.97464
▁יודע	-7.98208
▁לדבר	-7.98358
▁הייתה	-7.9862
▁החיים	-7.98758
▁חשוב	-7.99089
▁מקום	-7.99185
▁הראשון	-7.99987
▁חושבים	-8.003
מת	-8.00667
כיוון	-8.0129
▁בני	-8.01644
ול	-8.02248
די	-8.03054
▁הא	-8.03333
▁עושה	-8.03933
▁בערך	-8.04063
▁להבין	-8.04078
▁מו	-8.04315
▁עומד	-8.04348
נות	-8.04476
▁רבה	-8.04568
▁לחשוב	-8.04849
▁הזאת	-8.04983
▁קשה	-8.05236
זוהי	-8.05861
▁שלך	-8.06525
▁אינ	-8.06579
פו	-8.07447
או	-8.07928
▁במקום	-8.08221
▁כשה	-8.08458
▁לגבי	-8.10169
▁במ	-8.10364
כ	-8.11484
וני	-8.11712
רי	-8.11713
▁אותנו	-8.11826
מר	-8.1225
▁תמיד	-8.12599
פר	-8.13089
▁פ	-8.13327
▁להשתמש	-8.13471
▁בעצם	-8.1352
▁בא	-8.1374
דר	-8.1565
מצוא	-8.15998
יר	-8.16199
▁מדי	-8.16343
▁ואם	-8.17013
▁שבו	-8.17051
▁לקחת	-8.172
▁ולה	-8.1721
▁ונ	-8.17257
▁הדרך	-8.17258
▁פחות	-8.17354
▁השני	-8.17724
▁היינו	-8.17808
▁קל	-8.17853
▁ויש	-8.18169
▁ללא	-8.18274
▁אחוז	-8.18483
▁הראשונה	-8.18633
וב	-8.19324
▁מערכת	-8.19333
▁בדרך	-8.19411
פה	-8.19909
ונים	-8.20199
▁לאחר	-8.20233
דה	-8.20352
▁שבה	-8.20499
יס	-8.20718
▁הולך	-8.20758
נת	-8.20821
▁כמובן	-8.21022
הפוך	-8.21242
▁אף	-8.21488
ום	-8.21526
▁והיא	-8.22076
▁כזה	-8.22104
כל	-8.22202
▁הש	-8.22235
▁בהם	-8.22277
▁וכ	-8.22366
▁כעת	-8.22418
▁מישהו	-8.22651
צורה	-8.22898
צר	-8.23216
▁המוח	-8.23303
סי	-8.23315
▁מידע	-8.24069
▁צ	-8.24305
▁מעט	-8.24821
▁כפי	-8.25344
קו	-8.25542
▁בזמן	-8.25683
▁רוב	-8.25982
מקום	-8.2641
רו	-8.26429
▁עליו	-8.26459
▁מזה	-8.2657
▁פה	-8.26761
פים	-8.26974
▁מהם	-8.27011
יו	-8.27017
▁אשר	-8.27075
▁ילדים	-8.27288
▁כולם	-8.27298
▁בסדר	-8.27452
▁שהיה	-8.27585
אנשים	-8.27829
▁בואו	-8.27851
קס	-8.28339
▁בזה	-8.28575
לה	-8.28649
▁קורה	-8.28804
▁לדעת	-8.2903
▁לאנשים	-8.2938
בל	-8.29463
▁הספר	-8.29625
▁כמעט	-8.29814
▁שת	-8.29896
▁שונים	-8.29994
יצד	-8.30183
גי	-8.30545
▁לקבל	-8.30616
רים	-8.31198
נראה	-8.3131
▁רבים	-8.315
▁ספר	-8.31569
לו	-8.31613
▁בלתי	-8.31652
כו	-8.32194
▁נעש	-8.32294
▁הנ	-8.32299
▁עובד	-8.3258
▁לעולם	-8.32795
צי	-8.33009
פת	-8.33084
▁מאשר	-8.33249
▁יוצר	-8.33615
▁כאילו	-8.3363
▁הארץ	-8.33985
▁בית	-8.34237
▁מספיק	-8.34256
▁הגדול	-8.34372
בו	-8.34656
עו	-8.34767
▁לומר	-8.34799
זה	-8.34961
▁הרעיון	-8.35186
▁מכל	-8.35226
▁10	-8.3531
▁קטן	-8.35346
▁לגמרי	-8.35408
נית	-8.35503
כי	-8.356
▁לכך	-8.35881
▁ד	-8.36047
גם	-8.36166
וד	-8.36508
▁נוכל	-8.36782
▁חדש	-8.37025
▁כדור	-8.37082
▁להת	-8.37247
▁מנס	-8.38008
▁דולר	-8.38238
▁יחד	-8.38286
▁שינוי	-8.38328
▁וכל	-8.38528
יק	-8.38544
כדי	-8.39171
על	-8.39303
▁מיליון	-8.39555
▁בשביל	-8.39779
יף	-8.39825
▁קרוב	-8.39974
▁מגיע	-8.40063
ווי	-8.40416
▁20	-8.40611
מות	-8.40732
▁רב	-8.41272
יט	-8.41405
▁...	-8.41454
▁פני	-8.4202
בה	-8.42461
▁מעל	-8.42903
רת	-8.43168
פס	-8.43283
▁שונה	-8.43362
ץ	-8.43465
▁באותו	-8.43656
▁אותן	-8.4368
▁שכל	-8.4379
רה	-8.43963
▁שאם	-8.43979
וס	-8.44125
יד	-8.44199
▁חי	-8.44446
דוע	-8.44551
▁קו	-8.45074
▁לעבוד	-8.45117
▁מחדש	-8.4523
גל	-8.45266
▁שום	-8.45314
▁וש	-8.45375
▁בבית	-8.45544
▁לשנות	-8.46174
▁שא	-8.46183
▁לתת	-8.46223
ומר	-8.46235
▁לבנות	-8.46382
▁עבודה	-8.4654
▁חייב	-8.46642
▁נשים	-8.47018
חזור	-8.47079
▁סיפור	-8.47145
▁משתמשים	-8.4734
רד	-8.47399
▁בר	-8.47517
▁להגיע	-8.47633
ער	-8.47642
▁בלי	-8.47767
כים	-8.48032
▁שיכול	-8.489
גו	-8.49419
תמונה	-8.49551
עד	-8.4967
▁ט	-8.49671
קי	-8.49769
מהלך	-8.50083
קה	-8.5023
כת	-8.50267
נק	-8.50319
▁לכן	-8.50363
▁וא	-8.50508
▁3	-8.50722
מרות	-8.50913
▁נמצא	-8.50966
אות	-8.51232
▁הבא	-8.51466
רח	-8.51516
▁שאתה	-8.51809
גישה	-8.51835
וק	-8.52032
שם	-8.52174
קר	-8.52231
▁שתי	-8.52293
▁בעלי	-8.52632
דו	-8.5269
▁היחיד	-8.52893
▁להראות	-8.52988
▁הולכים	-8.53155
ידי	-8.53609
כה	-8.537
▁העבודה	-8.53874
▁לח	-8.54129
▁אתכם	-8.5437
▁לוקח	-8.54937
יום	-8.5562
צו	-8.5571
▁סביב	-8.55802
▁ברור	-8.56355
וח	-8.56357
▁עצמי	-8.56377
▁ארבע	-8.56379
▁הס	-8.56478
▁היית	-8.56504
קל	-8.56578
יהם	-8.56682
▁שנקרא	-8.56944
▁כאלה	-8.57078
▁ללכת	-8.57105
רס	-8.57305
▁טובה	-8.57593
יג	-8.57844
▁כיום	-8.58313
▁האדם	-8.58441
▁אחרת	-8.58591
נא	-8.58734
▁השנים	-8.58765
ויות	-8.58949
▁בת	-8.59034
▁הבעיה	-8.59101
▁שש	-8.59301
▁אור	-8.60076
▁בש	-8.60587
כר	-8.60832
▁מס	-8.61021
נג	-8.61085
▁שאנשים	-8.61088
▁כולנו	-8.61313
קט	-8.61514
▁מתחיל	-8.61541
▁גר	-8.61663
▁מאות	-8.61682
▁מיליארד	-8.61804
▁כסף	-8.6197
צה	-8.62174
וט	-8.62374
לים	-8.62454
▁בצור	-8.62724
אר	-8.62729
▁קורא	-8.62809
▁בן	-8.63001
פעם	-8.63369
▁אוכל	-8.63684
יב	-8.6378
▁אומרים	-8.64379
קבוצה	-8.64574
▁הסיפור	-8.64969
חו	-8.65075
▁שלוש	-8.65452
מקומות	-8.65631
ווה	-8.65952
▁שכ	-8.66134
▁חיי	-8.66381
מן	-8.66391
▁חושבת	-8.66448
▁איש	-8.66531
▁ללמוד	-8.66581
▁גדולה	-8.66752
▁בטוח	-8.67103
▁חשבתי	-8.67269
▁המו	-8.67291
▁מכיר	-8.67399
מח	-8.67725
▁מכם	-8.67873
▁מהר	-8.67904
▁יהי	-8.68386
עי	-8.6848
▁המידע	-8.68609
▁תהיה	-8.68712
▁עשוי	-8.6889
▁מדהים	-8.69233
▁לס	-8.69371
גן	-8.69651
▁ואמר	-8.69694
▁לספר	-8.69785
▁מנת	-8.69811
▁באמצעות	-8.70112
סט	-8.70261
▁בעיה	-8.70269
▁כה	-8.70356
▁סי	-8.70453
מון	-8.70475
▁ילד	-8.70634
▁מחקר	-8.70701
▁מול	-8.70744
▁מאז	-8.70933
▁עליהם	-8.71116
▁להתחיל	-8.71152
דברים	-8.71384
▁השאלה	-8.71395
אורך	-8.71465
A	-8.71576
שר	-8.71876
▁עלי	-8.71884
▁הו	-8.71918
▁ממ	-8.72256
זר	-8.72277
▁עצמו	-8.72382
חת	-8.72631
▁הטוב	-8.72846
▁אפשרי	-8.72897
▁לפי	-8.72917
▁מרגיש	-8.72946
▁קרה	-8.73333
▁כלל	-8.73629
▁וזו	-8.73638
עת	-8.7369
נוגע	-8.73696
▁בעוד	-8.73739
▁ככל	-8.73903
▁הסיב	-8.74153
מש	-8.74425
▁שלושה	-8.74429
בים	-8.74599
▁שהיו	-8.74664
▁רעיון	-8.7472
יכן	-8.74777
וש	-8.7521
▁להי	-8.75235
▁מקבלים	-8.75574
▁בעזרת	-8.75773
עכשיו	-8.76135
טל	-8.76325
▁מחשב	-8.76349
בסוף	-8.76501
רות	-8.7658
▁האחרונות	-8.7664
דומה	-8.76714
▁אחרות	-8.76755
▁שונות	-8.7684
▁הילדים	-8.76874
▁אלפי	-8.77011
▁חייבים	-8.77184
זי	-8.77548
טו	-8.7768
,000	-8.77812
▁מעניין	-8.77929
▁וג	-8.77998
▁תוכל	-8.78162
הן	-8.78175
▁מדבר	-8.78322
▁מיני	-8.78361
ירה	-8.7851
▁רע	-8.78593
▁רבות	-8.78719
▁קודם	-8.78893
▁כוח	-8.78898
כמה	-8.78928
▁4	-8.78991
▁אוהב	-8.78992
▁להגיד	-8.79319
▁הג	-8.79403
אל	-8.79502
▁19	-8.79648
▁לגרו	-8.79672
▁במיוחד	-8.79752
נח	-8.79792
▁המחשב	-8.80114
▁תוך	-8.80458
e	-8.80627
▁רגע	-8.80986
▁בכך	-8.81094
פור	-8.81097
▁הגיע	-8.81144
למעשה	-8.81228
▁עבר	-8.81338
▁לחלוטין	-8.81349
▁הע	-8.81424
▁הר	-8.81458
▁מש	-8.81467
▁התחלתי	-8.81491
▁באות	-8.81641
▁צריכה	-8.81666
ונות	-8.81706
לא	-8.81883
▁חודשים	-8.81946
פות	-8.82277
▁מר	-8.82345
▁חדשה	-8.82683
כנס	-8.82804
▁מאיתנו	-8.82932
▁חדשות	-8.82968
רש	-8.82983
אן	-8.83255
שים	-8.83853
▁לנסות	-8.8414
▁כתב	-8.84218
אדם	-8.84423
▁מעבר	-8.84539
▁האו	-8.84588
הפך	-8.84666
בד	-8.8469
▁מתחת	-8.84778
▁לקח	-8.84837
▁ככה	-8.84901
▁האי	-8.85012
מס	-8.85087
קור	-8.85356
▁נכנס	-8.85484
▁ישנ	-8.85743
יי	-8.8585
▁30	-8.85994
▁מוצא	-8.86059
▁נפלא	-8.86401
▁רואה	-8.8646
▁המון	-8.86623
▁שמת	-8.86641
▁מסוגלים	-8.8707
פק	-8.87093
ספר	-8.87235
▁משנה	-8.87258
▁שזו	-8.87324
▁עובדים	-8.87359
▁חדשים	-8.87383
▁מדברים	-8.87434
ינ	-8.87592
▁איפה	-8.87665
2	-8.87684
▁מבינים	-8.87684
▁החל	-8.87715
ירות	-8.87827
סוף	-8.87861
חל	-8.87874
▁אצל	-8.88361
▁טובים	-8.88388
▁שאלה	-8.88585
▁לשם	-8.88641
▁שמו	-8.88886
▁נגד	-8.8891
▁מקוו	-8.88972
תראו	-8.89072
▁בעיקר	-8.89082
יש	-8.8912
▁טכנולוגיה	-8.89163
▁אוקיי	-8.89168
▁רצית	-8.89276
▁העיר	-8.89331
▁בשנה	-8.89437
▁לעזור	-8.89465
▁נקרא	-8.89562
3	-8.89585
▁קול	-8.90065
וע	-8.90404
▁ויותר	-8.90472
▁כשאנ	-8.90481
▁מתחילים	-8.90591
▁העובד	-8.9064
▁במקרה	-8.90704
▁שעות	-8.90867
ורים	-8.90983
וז	-8.90993
▁ביחד	-8.91078
▁ועל	-8.91095
▁משום	-8.91192
▁אמרו	-8.91251
▁שימוש	-8.91662
▁2	-8.91701
▁קטנה	-8.91938
אמ	-8.92003
▁למע	-8.92024
▁זקוק	-8.92087
הרבה	-8.92139
שו	-8.92283
▁מעולם	-8.92324
מצ	-8.92327
▁מדינות	-8.92396
אפילו	-8.9247
▁כשאת	-8.9257
▁למעלה	-8.92663
▁בכלל	-8.92718
▁החלק	-8.92863
▁בל	-8.92875
▁מסביב	-8.93371
▁בתור	-8.93409
▁מא	-8.93659
▁מלא	-8.93919
ולי	-8.93923
▁איזה	-8.93996
יז	-8.94022
▁בעל	-8.94029
אים	-8.94053
שה	-8.94124
▁המת	-8.94457
▁הק	-8.94526
בת	-8.94626
▁בפני	-8.94669
▁מצא	-8.94683
מל	-8.94906
▁מוח	-8.9515
▁האנושי	-8.95165
▁הח	-8.95227
אנרגיה	-8.95234
▁בעיות	-8.95319
אס	-8.95567
▁להשיג	-8.95852
וצ	-8.96016
▁האחרון	-8.96264
▁דקות	-8.9627
שאין	-8.96387
▁מוזיקה	-8.96663
▁קטנים	-8.96692
היכולת	-8.97001
מט	-8.97171
▁אחוזים	-8.972
לת	-8.97298
יותר	-8.97319
מידה	-8.9732
▁וי	-8.97411
▁מדובר	-8.97688
▁אנרגיה	-8.97702
▁15	-8.97858
▁וע	-8.97992
▁50	-8.98079
▁יודעת	-8.98097
▁החי	-8.98329
▁לפעמים	-8.98356
פט	-8.98392
לב	-8.98537
▁5	-8.9864
▁ממה	-8.98717
▁השנה	-8.98789
▁דוגמא	-8.98888
▁למשל	-8.99005
סו	-8.99339
▁האמת	-8.99344
בות	-8.99393
▁שאפשר	-8.9943
▁קשר	-8.99446
▁הטכנולוגיה	-8.99513
קהילה	-8.99555
▁אינו	-8.99578
▁לחיות	-8.99627
מד	-8.99722
ורי	-8.9974
▁חזק	-8.99909
▁חזרה	-9.00102
קבל	-9.00226
▁פעמים	-9.00247
קרוא	-9.0032
▁נמצאים	-9.0058
קים	-9.00623
▁תמונות	-9.00647
▁ואנו	-9.00948
▁יצא	-9.0132
▁יי	-9.01342
▁שאי	-9.01454
עה	-9.01567
פול	-9.01633
טלפון	-9.01685
▁הרי	-9.01691
וג	-9.02137
ינה	-9.02159
▁לבצע	-9.02161
נד	-9.02212
▁עצמם	-9.0232
▁מטר	-9.02921
בש	-9.03076
▁שקורה	-9.03144
▁נוסף	-9.03183
פל	-9.03213
חי	-9.03446
ונה	-9.03565
▁100	-9.03583
▁הט	-9.03693
▁גדל	-9.03793
דע	-9.03822
▁דו	-9.04132
לט	-9.04306
▁גדולים	-9.04394
▁קר	-9.04654
▁מצב	-9.04688
יני	-9.04776
צים	-9.04829
▁ביום	-9.04968
▁לפחות	-9.05119
▁אליו	-9.05143
▁שאינ	-9.05159
▁עליה	-9.05218
ייה	-9.05255
▁ושוב	-9.05269
▁יכולות	-9.05446
▁אותך	-9.0564
▁שניתן	-9.05882
שי	-9.05995
▁הפ	-9.06227
▁פעולה	-9.06271
▁התמונה	-9.0632
▁חש	-9.06376
כס	-9.06589
▁אומרת	-9.06618
▁הגוף	-9.06692
▁תו	-9.06745
▁ני	-9.06816
▁חברות	-9.06831
0	-9.06863
▁עולם	-9.06979
צורך	-9.07067
רחבי	-9.07219
צב	-9.07292
▁יו	-9.07295
ניות	-9.07303
▁ממנו	-9.07558
אלי	-9.07682
דים	-9.07686
▁אפריקה	-9.07814
▁בריאות	-9.07819
▁גרוע	-9.07855
צא	-9.07945
▁יפה	-9.08031
▁מכן	-9.08041
▁הברית	-9.08053
▁הופ	-9.08261
▁מסוגל	-9.08267
▁אמיתי	-9.08337
▁רו	-9.08387
אט	-9.08408
▁נתונים	-9.08577
▁מסתכל	-9.08735
▁אמור	-9.08753
לוט	-9.08829
דור	-9.08881
▁בס	-9.08974
של	-9.08998
▁ברגע	-9.09055
▁אמרה	-9.09352
כות	-9.09569
▁לק	-9.09641
▁ימים	-9.09643
▁מח	-9.09681
שת	-9.09879
▁הטבע	-9.09997
אב	-9.10059
▁לבית	-9.10096
כולם	-9.10231
▁בחיים	-9.10288
▁עיצוב	-9.10382
עשיתי	-9.10621
▁העתיד	-9.10689
▁לדוגמה	-9.10843
▁החברה	-9.10876
▁לעבור	-9.10924
▁עשו	-9.10932
וף	-9.1099
חבר	-9.11098
▁שחי	-9.11402
▁כולל	-9.11418
טים	-9.11485
▁דיבר	-9.11837
▁מחוץ	-9.11902
נטי	-9.12007
▁דרכים	-9.12046
אור	-9.12085
▁מוזר	-9.12294
לכן	-9.12311
▁החוצה	-9.12376
▁השתמש	-9.12453
I	-9.12477
▁מאוחר	-9.12652
▁TED	-9.12777
עבודה	-9.12783
▁אוהבים	-9.13061
טון	-9.13161
בול	-9.13265
▁חשב	-9.13292
▁מאמי	-9.13522
▁מראה	-9.13651
▁בהן	-9.13791
▁להביא	-9.1391
▁קשור	-9.14083
▁מושג	-9.14099
▁החדש	-9.141
▁חוק	-9.14188
▁מערכות	-9.14333
▁צעיר	-9.14336
אק	-9.14342
4	-9.14455
בא	-9.14704
▁ליד	-9.14877
▁לייצר	-9.1491
כול	-9.14939
דמי	-9.14956
9	-9.15003
זאת	-9.1504
סתבר	-9.15138
▁חמש	-9.15157
▁רעיונות	-9.15261
▁מין	-9.15506
סטר	-9.15517
▁משתמש	-9.15552
▁גבוה	-9.15615
▁תא	-9.16035
סל	-9.16166
חינוך	-9.16255
בע	-9.16476
נוכל	-9.1652
▁המדינה	-9.1657
בין	-9.16621
אני	-9.16657
▁מל	-9.16709
▁באר	-9.16781
עבר	-9.17371
קשר	-9.17388
טה	-9.175
▁במוח	-9.17516
▁קצר	-9.17591
▁מקבל	-9.17714
▁כיוון	-9.1775
▁יוצא	-9.17792
▁חברה	-9.17801
▁שעלי	-9.17883
▁ניסוי	-9.17993
▁נוצר	-9.18021
ילי	-9.18231
נט	-9.1828
▁עצמנו	-9.18344
גור	-9.18375
▁לג	-9.18431
מא	-9.18477
בור	-9.18492
▁מודל	-9.18581
▁עבד	-9.18616
▁הקו	-9.18711
▁לאחרונה	-9.18751
▁האור	-9.18752
מחלה	-9.18778
מובן	-9.1883
▁הצ	-9.18885
▁שאלות	-9.19025
נקודה	-9.19068
▁סוף	-9.19225
▁שנות	-9.1926
▁פועל	-9.19416
▁תחת	-9.1951
רכב	-9.19622
צל	-9.19682
▁ראש	-9.19805
מנו	-9.19847
▁הפר	-9.19913
▁לשאול	-9.19915
▁שבע	-9.19975
▁טבעי	-9.20023
אפשר	-9.20027
▁חוסר	-9.20057
▁להתמודד	-9.20093
▁נת	-9.20108
טפל	-9.2017
▁הפכ	-9.20178
▁שיר	-9.2023
דק	-9.20253
זו	-9.20477
▁מתכוון	-9.20485
עדיין	-9.20659
▁הכוח	-9.20727
▁לדמיי	-9.20768
▁גבוהה	-9.20879
▁וכש	-9.20889
▁הופכ	-9.20964
מישהו	-9.20977
▁משחק	-9.21363
▁עשה	-9.21381
▁התחיל	-9.21401
▁תאי	-9.21436
▁נהי	-9.21501
▁שאמר	-9.21555
▁אלי	-9.21765
▁שואל	-9.21839
▁מן	-9.22199
דות	-9.22503
▁קי	-9.22575
▁באזור	-9.22606
▁בהרבה	-9.22634
6	-9.22673
רעיונות	-9.22696
▁במהירות	-9.22798
ומים	-9.22811
סון	-9.22849
▁כלי	-9.22887
פח	-9.22962
▁ועוד	-9.23094
▁שאולי	-9.23208
▁מאפשר	-9.2322
▁בג	-9.2329
▁המחקר	-9.23432
▁גיל	-9.23666
▁וידאו	-9.23686
מצא	-9.23693
▁חצי	-9.2379
ראה	-9.23892
▁האינטרנט	-9.23918
▁בצד	-9.24052
יך	-9.24074
עשה	-9.24183
▁מגיעים	-9.24336
▁רחוק	-9.24609
שב	-9.2466
דת	-9.24721
▁יורק	-9.24856
▁המערכת	-9.24888
▁חוזר	-9.24986
-19	-9.25106
▁שהייתי	-9.25326
▁מק	-9.25396
▁קדימה	-9.25584
קש	-9.25685
▁הביתה	-9.25691
▁בגיל	-9.25719
▁אר	-9.25923
▁האמיתי	-9.25964
פיל	-9.26012
▁מכ	-9.26054
▁נותנ	-9.26126
▁הגדולה	-9.26135
▁לבד	-9.26212
▁מג	-9.26276
▁בד	-9.26298
ירים	-9.2638
ברי	-9.26512
▁להסתכל	-9.26545
▁בחיי	-9.26566
▁מיוחד	-9.26605
רגש	-9.26637
▁נשמע	-9.2673
לות	-9.26761
מערכת	-9.26768
ארי	-9.26851
▁ניו	-9.26898
▁קיבל	-9.27043
נשים	-9.27141
▁בי	-9.27243
▁נשאר	-9.27246
▁רצ	-9.2726
תקן	-9.27372
▁יכולת	-9.27396
▁ומת	-9.27422
▁שיהיה	-9.27449
ימים	-9.27528
▁בע	-9.27666
▁השמש	-9.27669
▁התחלנו	-9.27875
▁לחבר	-9.28082
▁בכ	-9.28121
דבק	-9.28131
▁מבט	-9.28142
▁6	-9.28168
▁במה	-9.2823
▁בשנות	-9.28335
▁שר	-9.28694
מגוון	-9.28718
מוס	-9.28917
רעיון	-9.28951
▁בחדר	-9.29053
חש	-9.29106
עיד	-9.29286
רק	-9.29324
▁חבר	-9.29356
▁חומר	-9.2938
▁תלוי	-9.29556
▁ועד	-9.29571
▁יוכלו	-9.29641
▁שנת	-9.29659
▁תהליך	-9.29722
צע	-9.29842
▁והמ	-9.29843
עש	-9.29884
▁לגלות	-9.29982
▁החלו	-9.30033
פג	-9.30057
שאר	-9.30228
▁גברים	-9.30431
▁בשבילי	-9.30489
▁נושא	-9.30543
▁לסי	-9.30572
▁החברתי	-9.30733
מכונית	-9.3087
חיל	-9.31025
▁מידה	-9.3105
▁בלבד	-9.31057
▁תת	-9.31081
▁חסר	-9.31253
i	-9.31405
▁החומר	-9.31414
רפואה	-9.31447
▁הילד	-9.31493
פצ	-9.31775
▁בעבר	-9.31954
▁בסופו	-9.31956
▁הבאה	-9.31985
▁יד	-9.32095
▁לפ	-9.32136
ניים	-9.32188
כמובן	-9.32317
▁לצאת	-9.32323
▁בב	-9.32398
▁הבית	-9.32442
▁ידע	-9.32512
▁בהחלט	-9.32522
קול	-9.32602
רוח	-9.32626
כנות	-9.32656
▁משמעות	-9.32738
▁המים	-9.32797
▁למטה	-9.32823
R	-9.32955
עם	-9.32987
▁לע	-9.33019
עור	-9.33102
▁ערך	-9.3312
▁גא	-9.33205
5	-9.33228
▁עולה	-9.33256
▁לכ	-9.33294
▁יכולתי	-9.33336
▁נע	-9.33357
תהליך	-9.3339
▁בנושא	-9.33398
▁באמצע	-9.33477
▁פתוח	-9.33499
▁הלא	-9.33691
▁שנמצא	-9.33735
עבור	-9.33831
▁40	-9.33878
▁העל	-9.3388
פרק	-9.33952
▁מזון	-9.34077
▁והנה	-9.34112
תחשבו	-9.34152
▁אינה	-9.34193
▁בתי	-9.34212
עוד	-9.34219
▁מאחורי	-9.34321
▁כזו	-9.34341
▁הלאה	-9.34396
▁לשני	-9.34402
▁אלוהים	-9.34631
▁תנו	-9.34641
ילד	-9.34733
▁לפתור	-9.3476
דל	-9.34845
▁מאי	-9.34943
▁רשת	-9.3508
▁ואולי	-9.35201
יפה	-9.35277
-20	-9.35347
00	-9.3536
▁נהדר	-9.35369
▁עמוק	-9.35399
▁שמש	-9.3541
▁שמה	-9.35423
נר	-9.35466
מתי	-9.3551
אד	-9.35532
o	-9.35738
מציא	-9.35785
▁שע	-9.35886
▁דוגמה	-9.35889
פרו	-9.35905
▁כמות	-9.35909
מין	-9.35913
▁עשינו	-9.36051
▁בראש	-9.36108
▁איתם	-9.3614
ספק	-9.36266
טכנולוגיה	-9.36393
▁בחלק	-9.36604
כתב	-9.36619
שום	-9.36652
▁200	-9.36699
▁מבחינ	-9.36723
אה	-9.36726
עצים	-9.36768
להמשיך	-9.36772
▁במצב	-9.36783
▁גורם	-9.37079
יץ	-9.37193
הלכתי	-9.37313
▁הנושא	-9.37337
▁ישנה	-9.37351
נתי	-9.37358
פתח	-9.37375
▁גל	-9.37384
לוג	-9.3741
▁סרטן	-9.37415
▁צבע	-9.37754
▁הלב	-9.37771
חוק	-9.37815
▁מאמינים	-9.37988
▁ידוע	-9.38
עצב	-9.3805
ורות	-9.3807
חות	-9.38092
שמע	-9.38101
▁האחרונה	-9.38121
▁בחזרה	-9.38135
▁שאומר	-9.3817
חים	-9.3827
רמה	-9.38363
▁בעיר	-9.38463
▁עניין	-9.38697
▁טיפול	-9.38708
נש	-9.38711
▁מתו	-9.3883
דבר	-9.3885
ימי	-9.38856
סטי	-9.38878
היינו	-9.38888
▁אזור	-9.38959
עולם	-9.39045
שאלה	-9.39054
טור	-9.3909
חשבתי	-9.39135
▁1	-9.39246
▁שמח	-9.39314
▁עתיד	-9.39387
▁ראשית	-9.39402
C	-9.39432
שתמש	-9.39506
ינים	-9.3951
▁המאה	-9.39618
▁העניין	-9.39618
▁ומו	-9.39645
▁החלל	-9.39703
▁באפריקה	-9.39883
▁מצ	-9.39925
▁החשוב	-9.40023
▁מצליח	-9.40023
צמיחה	-9.40026
מטרה	-9.40139
מית	-9.40269
קטן	-9.40318
טע	-9.40385
נדי	-9.40387
▁חוקי	-9.40534
▁מדעי	-9.40609
▁ספק	-9.40628
▁זר	-9.40705
▁התשובה	-9.40729
רוס	-9.40797
▁האיש	-9.40809
▁הבריאות	-9.40813
▁יושב	-9.40846
▁12	-9.40889
ירו	-9.40982
ודה	-9.41215
נוס	-9.41341
מידע	-9.41388
אז	-9.41393
▁הקול	-9.41415
▁ארה	-9.41479
צות	-9.41516
▁נוספת	-9.41628
7	-9.41656
▁החוק	-9.41813
▁דמיינו	-9.41869
סף	-9.41887
קלט	-9.42027
a	-9.42165
▁בח	-9.42181
תבונ	-9.42236
גדל	-9.42438
▁איתו	-9.42525
סיבה	-9.42525
פעל	-9.42605
▁מיד	-9.42632
▁בגודל	-9.42696
▁כלום	-9.42712
▁הודו	-9.42727
עצ	-9.4275
מבנה	-9.42789
יין	-9.42875
▁אבי	-9.42905
▁בסוף	-9.42933
▁יקרה	-9.43043
ילה	-9.43043
▁הנתונים	-9.43114
▁סיפורים	-9.43116
עסק	-9.4319
▁מכנ	-9.43256
סר	-9.43323
שפה	-9.43401
▁פנים	-9.43436
▁בשנת	-9.43452
חיים	-9.43537
▁פר	-9.43615
▁עיר	-9.43677
▁18	-9.43828
▁השינוי	-9.43883
▁פרוייקט	-9.4389
▁פרו	-9.43994
▁לד	-9.44002
▁חשבו	-9.44095
כבר	-9.44099
▁לעית	-9.44126
משיך	-9.44144
מפ	-9.44286
▁שקרה	-9.4436
גרם	-9.44428
▁הרשת	-9.44443
אג	-9.44457
▁ראיתי	-9.44519
▁ברשת	-9.44599
▁חוקר	-9.45006
▁הצליח	-9.45105
ביט	-9.45137
▁המח	-9.45251
נע	-9.45351
עים	-9.45355
▁למי	-9.4546
דג	-9.45642
▁ובכל	-9.45677
▁האנושית	-9.45809
ביל	-9.45995
▁בריא	-9.46029
▁עובר	-9.46209
▁פיס	-9.4627
▁הסביבה	-9.4632
▁היי	-9.46407
▁סדר	-9.46578
▁המדע	-9.46645
▁כרגע	-9.46653
חנות	-9.46845
חלק	-9.47085
נהג	-9.47183
יכם	-9.47192
▁צעירים	-9.47206
▁השראה	-9.47208
רע	-9.47209
לך	-9.47256
ביע	-9.47259
▁תפקיד	-9.47308
▁מב	-9.47436
▁שחור	-9.47498
הרגיש	-9.47523
▁בדרכ	-9.4757
▁טי	-9.47615
▁הלאומי	-9.47701
▁בחור	-9.47735
▁היקום	-9.47896
▁חולים	-9.47929
מור	-9.4793
▁אמא	-9.47938
▁הראשונים	-9.47959
גלגל	-9.48002
▁שומע	-9.4803
▁נוט	-9.4806
▁נח	-9.48135
שלוח	-9.48145
▁צי	-9.48194
מטר	-9.48298
דף	-9.4838
▁למדי	-9.48382
▁הולכת	-9.48466
קיבלתי	-9.48493
דרג	-9.48685
למדתי	-9.48766
▁אישה	-9.48846
▁עצמה	-9.48846
שלם	-9.4888
מתמטיקה	-9.48891
▁חיות	-9.48905
▁ואיך	-9.48906
S	-9.48953
▁בתחום	-9.49021
▁מודע	-9.49054
▁הדי	-9.49147
▁גילי	-9.49206
▁שצריך	-9.49227
t	-9.49255
בן	-9.49273
ממ	-9.49284
סרטון	-9.49487
▁יעיל	-9.49522
ולד	-9.49524
קריא	-9.49628
▁מכך	-9.49641
▁חברים	-9.49886
▁שבאמת	-9.5012
הפכו	-9.50153
רוב	-9.50187
▁קיים	-9.50217
פא	-9.50339
נם	-9.50354
▁לקרות	-9.50406
▁יחיד	-9.5049
▁ז	-9.50514
▁כוכב	-9.50526
▁נולד	-9.50612
▁שאל	-9.5062
קת	-9.50747
▁רצו	-9.5108
▁ידעתי	-9.51104
▁מביט	-9.51257
▁לבחור	-9.51418
▁הזדמנות	-9.51459
קחו	-9.5155
רצות	-9.51583
ורה	-9.51617
מני	-9.51736
פרט	-9.51806
▁וחצי	-9.51812
▁שהית	-9.51825
▁קרא	-9.5184
▁רכב	-9.51861
▁היד	-9.51977
▁לשמור	-9.5204
▁לעצמי	-9.52056
▁מדע	-9.52085
▁אנשי	-9.52151
▁באו	-9.52153
זמנ	-9.52184
▁הכ	-9.52194
▁מוכר	-9.52283
▁הגיוני	-9.52293
רופ	-9.52311
קדם	-9.52383
▁בשלב	-9.52388
▁מקרה	-9.52418
▁במרכז	-9.52612
▁כלשהו	-9.52693
אמן	-9.52698
▁שהו	-9.52704
▁קטנות	-9.5271
דם	-9.52791
T	-9.52798
▁בחוץ	-9.52831
בית	-9.52843
יא	-9.52923
כב	-9.52931
▁מכשיר	-9.52935
ניח	-9.53008
▁טובות	-9.53009
▁עור	-9.5303
תמיד	-9.53105
▁העיקרי	-9.53107
נז	-9.53141
▁במא	-9.53221
▁כשהיית	-9.53254
בקש	-9.53283
▁מסוים	-9.53319
סתם	-9.53331
▁יצור	-9.53495
▁מזל	-9.53805
ישה	-9.53836
▁גדולות	-9.53875
▁מדינה	-9.53887
▁הסרט	-9.53912
▁משל	-9.53953
מכונה	-9.54008
▁הבנתי	-9.54039
▁ורק	-9.54119
▁נחמד	-9.5412
▁לומדים	-9.54132
▁היטב	-9.54329
גז	-9.54334
▁גופ	-9.5437
▁מצד	-9.54415
▁ימי	-9.54523
▁הרוח	-9.54634
▁עמד	-9.54709
נן	-9.54787
▁אילו	-9.54818
חזק	-9.54828
▁מהמ	-9.5486
פרי	-9.54932
תרבות	-9.54934
▁בעיני	-9.54996
חדשנות	-9.55004
▁האוקיינוס	-9.55032
▁הדג	-9.5507
▁אישי	-9.55159
▁ביולוגי	-9.55165
צליח	-9.5521
s	-9.55308
▁להעביר	-9.55539
גע	-9.55559
▁המצב	-9.55593
▁במערכת	-9.55633
▁שעוש	-9.55649
▁דג	-9.55721
▁סו	-9.5581
▁ברי	-9.55839
▁מיליוני	-9.55853
▁אמריקה	-9.55879
לית	-9.55887
▁השניה	-9.55907
▁אק	-9.55971
עות	-9.56071
▁משמעותי	-9.56097
▁מחלות	-9.56106
חיות	-9.56123
פנה	-9.56133
▁7	-9.56197
▁טו	-9.56284
▁להסביר	-9.56334
▁שעבר	-9.56386
יקה	-9.56408
▁לחקו	-9.56458
אבולוציה	-9.56507
▁לשמוע	-9.56507
▁מפ	-9.56582
אם	-9.56692
▁הבה	-9.56697
רמות	-9.56903
מליון	-9.56968
דעתי	-9.56976
▁מהיר	-9.57054
▁מבחינת	-9.57117
▁שווה	-9.57184
▁קונ	-9.57248
▁ואומר	-9.57406
▁בסביב	-9.5748
▁בקשר	-9.57488
▁לקנות	-9.57687
▁הרגע	-9.57795
פיס	-9.57926
▁בארצות	-9.57946
▁בעתיד	-9.57952
בחר	-9.57955
▁שעשינו	-9.58073
▁בניו	-9.58117
▁הרגש	-9.58138
▁משת	-9.58166
החלטתי	-9.58323
▁מבין	-9.58363
ביטחון	-9.58463
▁שבועות	-9.58465
ימה	-9.58589
▁התחילו	-9.58592
שפע	-9.58631
התחלתי	-9.58774
קשה	-9.58924
▁מקור	-9.58946
▁לחלק	-9.59176
ונית	-9.59186
▁גו	-9.59243
▁לראשונה	-9.59244
▁מסוג	-9.5926
▁מנהל	-9.59329
▁רחב	-9.59341
▁מתי	-9.59368
לס	-9.59494
▁נוספים	-9.59598
▁A	-9.59603
איר	-9.59623
▁בקו	-9.59759
▁איזו	-9.5981
▁הכסף	-9.59812
ריס	-9.60015
▁שיח	-9.60027
גנים	-9.60172
▁בבקשה	-9.60209
וץ	-9.60223
▁יקר	-9.60224
אפ	-9.60284
▁למשהו	-9.60328
שעה	-9.60368
▁השטח	-9.6038
תחושה	-9.60414
▁לצפות	-9.60416
▁סרט	-9.60435
▁להציג	-9.60458
▁בשני	-9.60465
▁שמע	-9.60529
▁יתר	-9.60656
▁שעל	-9.60659
כש	-9.60659
▁פחד	-9.60664
שאל	-9.60689
▁מסויים	-9.607
▁המג	-9.60708
D	-9.60724
▁צעד	-9.60747
יית	-9.60875
חומר	-9.60879
▁מוגבל	-9.60921
▁מבנה	-9.60973
יקח	-9.60994
פרס	-9.60999
▁אגב	-9.61042
▁חברתית	-9.61072
▁עשיר	-9.61109
חזר	-9.61137
▁הגדולים	-9.61167
▁עלול	-9.61345
עשר	-9.61423
▁שעשיתי	-9.61605
▁תעש	-9.61651
▁תנועה	-9.61652
▁זי	-9.61655
▁חלו	-9.61676
▁הבעיות	-9.61776
▁מחשבים	-9.61887
▁לדוגמא	-9.61891
גברים	-9.61923
▁פל	-9.61956
▁מביא	-9.61962
ילו	-9.6198
▁11	-9.62115
▁החולים	-9.62196
▁סטודנט	-9.62214
טרי	-9.62229
▁דופן	-9.62232
▁בספר	-9.62268
כלל	-9.62285
▁מילים	-9.62463
▁הבחור	-9.62494
▁והא	-9.62643
איזה	-9.627
▁עני	-9.62728
רוג	-9.62878
▁עבודת	-9.62907
▁לפעול	-9.62947
מע	-9.62962
▁סוגי	-9.62965
▁מאו	-9.63054
▁60	-9.63104
▁שהיית	-9.63122
▁חווי	-9.63209
סק	-9.6322
גב	-9.63326
▁נהג	-9.63341
▁מתרחש	-9.63377
▁אחורה	-9.63386
▁יכלו	-9.63433
▁רוח	-9.63438
▁חשמל	-9.6345
▁תרופות	-9.63505
▁טע	-9.63511
▁הגיעו	-9.63566
▁במיל	-9.63633
כאן	-9.63654
▁המציאות	-9.63695
▁גידול	-9.63725
▁עץ	-9.63772
▁איתי	-9.63796
▁אהבה	-9.63847
טיב	-9.6399
לנד	-9.64002
▁אליהם	-9.64115
▁אודות	-9.64161
▁8	-9.64302
נסיון	-9.64389
▁הקר	-9.64485
יחסים	-9.64488
▁לוח	-9.64511
▁מספק	-9.64525
רבים	-9.64541
▁לספק	-9.646
מרחק	-9.6465
▁ראינו	-9.64666
▁שאר	-9.64699
▁ארוך	-9.6471
פנ	-9.64712
ביצוע	-9.64834
▁ראו	-9.64972
▁קהל	-9.65024
▁החלט	-9.6504
▁תמ	-9.65165
▁לקו	-9.65307
מחלות	-9.65417
חזיר	-9.65472
▁נראים	-9.65479
▁התהליך	-9.65488
ארבע	-9.65527
▁הדו	-9.65539
▁שבא	-9.65669
▁מניח	-9.65744
שלום	-9.65744
▁לעמוד	-9.65823
▁האישי	-9.66083
חול	-9.66095
▁מוכנים	-9.66109
שיר	-9.66147
▁מעולה	-9.66183
▁מכוניות	-9.6624
▁הנש	-9.66319
▁אמנות	-9.66384
▁מדהימה	-9.66385
▁גבר	-9.66405
עמד	-9.6656
▁מבלי	-9.66561
▁ברמה	-9.6661
▁המי	-9.66679
▁לשחק	-9.66808
סייע	-9.6681
▁בסיס	-9.66814
▁האתגר	-9.66949
▁כשהוא	-9.66974
שפר	-9.67014
▁עצום	-9.67019
▁בידי	-9.67059
▁שנתיים	-9.67219
▁לזהות	-9.67249
פתי	-9.67249
▁כמ	-9.67298
▁נא	-9.67343
8	-9.67356
▁הפעם	-9.67381
▁ואי	-9.67397
הביט	-9.67478
▁9	-9.67484
רב	-9.67507
נצ	-9.67546
▁מקומי	-9.67565
▁רפואי	-9.67614
וך	-9.67628
▁הנכון	-9.67682
▁פרי	-9.67702
לם	-9.67734
יסט	-9.67743
▁בשל	-9.67842
▁ערים	-9.67905
ניסיון	-9.68079
▁חוו	-9.68084
▁לחיים	-9.68141
גענו	-9.68227
▁לצ	-9.6823
▁C	-9.6828
▁התנהגות	-9.68296
▁עסק	-9.68311
▁שעברה	-9.68312
הבנה	-9.68404
▁ביו	-9.68427
הייתי	-9.6845
▁בשימוש	-9.68497
▁חד	-9.68519
▁לפתח	-9.68538
תכנון	-9.68646
▁העבר	-9.68655
רוע	-9.68661
▁התא	-9.68807
▁אג	-9.68851
0,000	-9.69064
▁עובדת	-9.69167
לכת	-9.69175
פוליטיקה	-9.69189
צד	-9.69287
יצירה	-9.69296
אחת	-9.69336
▁אד	-9.69374
▁נורא	-9.69407
▁25	-9.69427
▁אב	-9.69437
▁חדר	-9.69454
אש	-9.69461
▁דיגיטלי	-9.6947
▁מוביל	-9.69541
▁מצוי	-9.69542
פני	-9.69646
ונג	-9.69658
▁זכויות	-9.69698
▁אוהבת	-9.69766
▁הנקודה	-9.69829
▁תאים	-9.69918
▁לכתוב	-9.69933
וור	-9.70106
▁לחלוק	-9.70238
▁המשחק	-9.70261
▁המרכזי	-9.70261
▁העולמי	-9.70329
▁בטח	-9.70406
▁לנ	-9.70424
אוניברסיט	-9.70424
ינג	-9.70556
תאים	-9.70674
ריות	-9.70678
▁מרכז	-9.70698
▁ושל	-9.70856
▁ירוק	-9.7089
בחן	-9.70913
▁המשמעות	-9.70914
▁סביר	-9.70916
▁מאחר	-9.7111
▁גודל	-9.71159
יקו	-9.71167
קוד	-9.71172
▁להוציא	-9.71193
▁מהן	-9.71239
▁במקומות	-9.71247
▁וכו	-9.71261
צלם	-9.71281
P	-9.71284
▁רי	-9.71289
▁תוכנית	-9.71482
רגל	-9.71492
▁שמאפשר	-9.71539
▁נייר	-9.71595
▁ערב	-9.71672
רוד	-9.71712
מינים	-9.71717
▁ענק	-9.71774
רט	-9.71834
שמש	-9.71933
▁קבוצת	-9.71936
זור	-9.72002
חקלאות	-9.72013
▁בסיסי	-9.72024
▁יצר	-9.72031
קף	-9.72154
▁באי	-9.72167
▁מוקדם	-9.72183
▁ההבדל	-9.72213
▁לאפשר	-9.72248
▁אש	-9.72324
רוק	-9.72359
עביר	-9.72364
▁שכולנו	-9.72369
▁עוזר	-9.72375
אנג	-9.72378
▁עבורי	-9.72386
▁החו	-9.72464
תקווה	-9.72483
פיתוח	-9.72547
מאה	-9.72605
▁עקב	-9.72631
▁אלף	-9.72675
ואין	-9.72687
▁המקומי	-9.72693
▁המשפחה	-9.72704
טיס	-9.72712
▁השפעה	-9.72724
כלכלה	-9.72782
▁צוות	-9.72835
ובל	-9.72853
▁כריס	-9.72857
טבע	-9.72875
חור	-9.72908
דנ	-9.72922
בני	-9.72956
קופ	-9.72976
▁ממני	-9.73112
▁סופר	-9.73126
▁הקרח	-9.73232
▁סיפר	-9.7328
▁קיצוני	-9.7334
דרוש	-9.73349
▁סיכוי	-9.73352
▁חוץ	-9.73382
▁מוט	-9.73445
▁והדבר	-9.73455
אולם	-9.73528
ציפור	-9.73532
▁חשובים	-9.73558
ייצר	-9.7365
כיר	-9.73822
▁פחמן	-9.73833
שק	-9.73869
▁לכולם	-9.7387
▁שניים	-9.73899
▁אימ	-9.73968
▁לבוא	-9.74033
▁מד	-9.74067
פוס	-9.74086
תגובה	-9.74116
ידו	-9.74179
▁קבוצות	-9.74199
▁מגל	-9.742
ערך	-9.74274
כוכב	-9.74323
▁אדיר	-9.74338
▁הקרוב	-9.7439
▁כולו	-9.74394
▁הקטנ	-9.74401
▁נקודות	-9.74402
▁רגל	-9.74403
▁רווח	-9.7448
▁לשינוי	-9.74481
▁הקל	-9.7456
▁החדשות	-9.7463
גרס	-9.74645
▁הגבוה	-9.74668
▁שליטה	-9.74726
▁חופשי	-9.74773
▁וכמה	-9.7497
▁חברי	-9.74983
גון	-9.75074
ואה	-9.75135
בעיות	-9.75309
טיפוס	-9.75309
יחה	-9.75362
▁מעו	-9.75422
מנים	-9.75441
מעט	-9.75475
▁יוכל	-9.75521
רחב	-9.75536
ראיתי	-9.75562
נצח	-9.75626
קומ	-9.75652
▁במונח	-9.75658
▁האקלים	-9.75659
▁הפרוייקט	-9.75663
ארגונים	-9.75682
אזרחים	-9.75701
▁סין	-9.75709
▁הכר	-9.75827
▁התמונות	-9.7584
▁מנהיג	-9.75848
זל	-9.75873
▁במדינה	-9.75982
מוד	-9.75987
▁בודד	-9.76008
▁קוד	-9.761
פתוח	-9.76122
בוע	-9.76148
צור	-9.76369
▁המילה	-9.76414
▁הבסיסי	-9.76423
▁כחול	-9.76447
▁חול	-9.76501
סיפור	-9.76533
▁האזור	-9.7671
▁לילדים	-9.7676
▁הצלח	-9.76777
▁הרכב	-9.76783
▁נקודת	-9.7681
▁משו	-9.76858
▁שוק	-9.76882
כוח	-9.76929
▁מתא	-9.7696
גרפי	-9.76962
▁המשפט	-9.77008
▁תסתכל	-9.77104
מק	-9.77135
▁פנימה	-9.77174
הרגשתי	-9.77184
▁לחפש	-9.77259
קות	-9.77267
▁הגלובלי	-9.77272
חזית	-9.77443
תוצאה	-9.77626
▁מייצג	-9.77697
קרא	-9.77791
▁חברת	-9.77878
▁משא	-9.77907
ריח	-9.77982
סול	-9.78016
▁בהודו	-9.78035
יחס	-9.78086
שתה	-9.78116
▁סיבה	-9.78154
טרו	-9.78176
מבנים	-9.78177
▁נמצאת	-9.782
▁זוכר	-9.7822
לכה	-9.78262
▁הממוצע	-9.78331
▁האחרים	-9.78374
מחשב	-9.78376
▁בק	-9.78405
רגע	-9.78478
▁דלק	-9.78494
ומה	-9.78571
l	-9.78589
▁חשובה	-9.78601
דרך	-9.78603
פוט	-9.78607
▁הקש	-9.787
▁מצאתי	-9.78772
▁שמי	-9.78807
▁מבצע	-9.789
▁המטר	-9.78917
גודל	-9.7892
▁שג	-9.7898
יורק	-9.7905
▁הקשר	-9.79053
טלפונים	-9.79064
▁ההוא	-9.79073
▁סט	-9.79111
▁המזון	-9.79165
▁הבר	-9.79235
בנה	-9.79257
▁למו	-9.79331
▁האב	-9.79355
▁מיקרו	-9.7938
▁שעובד	-9.79412
▁לעומת	-9.79414
▁משפיע	-9.79422
נוח	-9.79466
▁מסע	-9.79493
זכות	-9.79538
▁כלכלית	-9.79563
▁טבע	-9.79567
E	-9.79641
▁אליה	-9.79653
לג	-9.79686
▁ואחד	-9.79707
בח	-9.79744
▁פול	-9.79762
▁חשמלי	-9.79764
רון	-9.80075
מדע	-9.80089
▁גזע	-9.80157
▁80	-9.8018
▁האדמה	-9.80182
כמות	-9.80184
דרכים	-9.80206
▁הממשלה	-9.80235
גורם	-9.80236
▁אכפת	-9.80291
קוף	-9.80514
▁תרבות	-9.80524
קהילות	-9.8053
▁הראש	-9.80556
▁פא	-9.80557
▁לאומי	-9.80628
חוץ	-9.80663
▁עסקים	-9.80669
רכיב	-9.80733
▁הממשל	-9.80759
▁שתהי	-9.80773
▁למרב	-9.80774
▁תקשורת	-9.80783
▁לעת	-9.80812
▁ניתוח	-9.80816
▁שמונה	-9.80825
גובה	-9.80838
יון	-9.80867
▁עוברים	-9.80912
▁אלינו	-9.80991
נטר	-9.81062
שיט	-9.81084
▁חלל	-9.81109
משחק	-9.81129
▁אמת	-9.81156
השפיע	-9.81206
▁אתגר	-9.81268
▁נות	-9.81313
רית	-9.81372
▁עצומה	-9.81476
אבד	-9.81512
▁ולאחר	-9.81626
▁שנרא	-9.81653
חשב	-9.81771
▁שכש	-9.81837
,	-9.81874
▁מגניב	-9.81881
▁מוצר	-9.81911
רדו	-9.81926
▁זול	-9.81938
▁עשרות	-9.81996
▁הכלל	-9.82032
▁דולרים	-9.82037
אלימות	-9.82169
▁מדענים	-9.8222
▁מופיע	-9.82262
▁המדינות	-9.8228
▁הסי	-9.82339
▁ואחרי	-9.82352
▁השימוש	-9.82372
ביר	-9.82389
▁ארצות	-9.82421
▁מזו	-9.82441
תחילה	-9.82453
▁ירד	-9.82465
▁לעצור	-9.82517
▁חודש	-9.82532
▁יא	-9.82555
▁מידי	-9.82609
גדר	-9.82736
▁האפשר	-9.82761
▁וכמו	-9.82786
▁משתנה	-9.82894
▁והיית	-9.82903
▁מסויימת	-9.82951
תמיכה	-9.82961
▁להיכנס	-9.82997
▁טכנולוגיות	-9.83001
▁כללי	-9.83027
▁התקשורת	-9.83029
▁תוצאות	-9.83112
▁ערכ	-9.83121
פועל	-9.83221
עמוד	-9.83257
סחר	-9.83292
מוזיאו	-9.8336
סור	-9.83438
▁נראית	-9.83469
שיג	-9.83491
לון	-9.83538
▁צדק	-9.8357
▁מעין	-9.83618
▁בט	-9.83621
▁שאת	-9.83727
▁חור	-9.83755
▁המזל	-9.83828
ענות	-9.83851
עיר	-9.83863
▁איי	-9.83922
M	-9.83945
עבדתי	-9.83947
▁כלשהי	-9.83957
▁האל	-9.84033
▁לל	-9.84133
▁ראשון	-9.84185
▁מהאנשים	-9.84188
▁מעורב	-9.84293
▁קני	-9.84327
▁בנ	-9.84364
▁בבוקר	-9.84369
▁נוח	-9.84396
עול	-9.84424
▁יורד	-9.84461
▁מרגש	-9.84513
חד	-9.84639
▁קיימת	-9.84639
▁מתכוונ	-9.84725
ציב	-9.84772
▁והיה	-9.84775
▁הבאות	-9.84786
מאות	-9.84831
▁מבוסס	-9.84863
▁לימוד	-9.8488
▁להגן	-9.84907
מלא	-9.84907
▁קור	-9.84941
▁תקופה	-9.84963
▁שאף	-9.85047
עריך	-9.85092
▁קיר	-9.85112
▁לכאן	-9.85113
שור	-9.85173
קח	-9.85209
▁מאושר	-9.8521
▁צל	-9.85226
▁לרגע	-9.85227
ורש	-9.85287
▁כאלו	-9.85319
▁החדשה	-9.85348
▁אח	-9.85356
טס	-9.85358
▁אמי	-9.85388
▁גרעיני	-9.8552
בוא	-9.85555
▁העיצוב	-9.85598
▁צורות	-9.85628
▁המר	-9.85638
חשוב	-9.85774
הורים	-9.85775
יפים	-9.85827
▁הבדל	-9.85848
▁ללמד	-9.85854
מנהיג	-9.8592
▁קבוע	-9.85929
▁בחברה	-9.85933
ובע	-9.85939
▁פשוטה	-9.85967
קב	-9.85978
לק	-9.85984
רגיש	-9.86009
▁היפ	-9.8601
אמצע	-9.86067
פתרון	-9.86123
להיות	-9.86281
▁לאכול	-9.86296
רוץ	-9.86307
זרים	-9.86317
▁שרוב	-9.86354
▁התאים	-9.86375
▁שבוע	-9.86422
▁שיהי	-9.86448
▁טיפ	-9.86555
▁ספרים	-9.86572
ריק	-9.86578
▁יצירת	-9.86582
▁מרא	-9.86615
ימו	-9.8662
▁תשומת	-9.86621
▁פעילות	-9.8663
▁מספרים	-9.86717
קבוצות	-9.86764
רתי	-9.86765
▁ומש	-9.86772
▁הז	-9.86843
מדינות	-9.86899
▁הגל	-9.86921
▁חוב	-9.86935
מאוד	-9.87049
▁לבדוק	-9.8705
מאבק	-9.87057
▁חייהם	-9.8714
פנו	-9.87187
▁שד	-9.87212
▁בהתחלה	-9.87253
▁באוניברסיט	-9.87267
▁הפרטי	-9.87302
▁ארגון	-9.87346
▁מסוימת	-9.87372
▁חומרים	-9.87383
נב	-9.87427
▁מור	-9.87455
וודאי	-9.87496
▁החווי	-9.87515
פחות	-9.87537
איש	-9.87579
זבל	-9.87607
▁עולמי	-9.87609
▁שלום	-9.87665
▁משנ	-9.87665
▁פיזי	-9.87701
▁בהיסטוריה	-9.8775
▁שנעש	-9.87769
חוש	-9.87781
▁מרכזי	-9.87944
פרוייקט	-9.87973
▁תלת	-9.87976
▁המודל	-9.88167
▁שיתוף	-9.8819
▁ממנה	-9.88237
עזר	-9.8827
▁הרע	-9.8827
▁חיובי	-9.88278
▁חברתי	-9.88287
▁16	-9.88297
תוכן	-9.88308
▁רגיל	-9.88372
▁נוגע	-9.88433
▁כח	-9.88475
▁טוע	-9.88488
▁איתכם	-9.88519
אמנות	-9.88552
מדנו	-9.88569
▁הטיפול	-9.88663
▁הקהל	-9.88671
מוח	-9.88715
למד	-9.88745
▁בוחר	-9.88777
פחת	-9.88855
▁אמיתית	-9.88917
▁לעבודה	-9.88957
▁להכניס	-9.89036
▁מוסיקה	-9.89041
▁ההיסטוריה	-9.89114
▁ילדה	-9.8912
בניינים	-9.89145
▁מרחב	-9.89197
▁לעצמכם	-9.89273
שנה	-9.89314
פשט	-9.89334
שאיר	-9.8941
▁השלישי	-9.89436
▁כלפי	-9.8959
פש	-9.89654
▁והיו	-9.89744
▁סובל	-9.89755
טוב	-9.89761
-3	-9.89769
בעצם	-9.89769
נגן	-9.89826
▁ישר	-9.8983
▁סנט	-9.89853
▁צפוי	-9.89873
יפות	-9.89875
▁תקווה	-9.89906
▁אנושי	-9.8992
בסופו	-9.89991
▁מורכב	-9.90011
▁צליל	-9.90012
▁שתוכל	-9.90045
▁עוסק	-9.90046
▁נמוכה	-9.9006
▁יחסי	-9.90063
▁מלחמה	-9.90134
חמישה	-9.90143
▁הצבע	-9.90161
▁פיתח	-9.90163
▁אבא	-9.90171
חדש	-9.90206
דמיון	-9.9027
▁ציבורי	-9.90281
כבד	-9.90284
▁חזקה	-9.90289
תייחס	-9.90424
▁הבניין	-9.90531
זמן	-9.90558
קע	-9.90583
▁נייד	-9.9061
▁מוציא	-9.90623
ספינ	-9.90631
קושי	-9.90633
▁בקרב	-9.9068
▁החליט	-9.9071
▁ההר	-9.90755
פעילות	-9.90781
▁מציע	-9.90859
▁צריכ	-9.90877
▁נקי	-9.90977
▁ארא	-9.91033
צבא	-9.91093
▁חיינו	-9.91219
▁נתחיל	-9.91235
▁נער	-9.91314
גיש	-9.91316
דמות	-9.91321
▁גוגל	-9.91326
מעולם	-9.9133
טפ	-9.91345
קני	-9.91474
▁חופש	-9.91482
▁מסר	-9.91503
פץ	-9.91601
שלוש	-9.91614
▁פרס	-9.91719
כביש	-9.91751
▁אופן	-9.9176
▁הטובים	-9.9178
קריירה	-9.91828
▁בעלות	-9.91844
ידע	-9.91847
▁משפחה	-9.9185
▁הגעת	-9.91924
▁14	-9.92
▁במעבדה	-9.92007
▁החלטות	-9.92021
▁ענ	-9.92086
▁האחר	-9.921
שיעור	-9.92125
פון	-9.92153
▁באמריקה	-9.92181
אתגר	-9.92207
דלק	-9.92257
פרש	-9.92385
▁איכות	-9.92388
▁מפחיד	-9.92414
▁כבד	-9.92415
▁במדינות	-9.92471
▁בפנים	-9.92537
▁רחבי	-9.92574
▁מעבד	-9.92626
מקור	-9.92632
דן	-9.9265
רשת	-9.92703
▁מילה	-9.92711
פטר	-9.92719
שתל	-9.9275
▁בלילה	-9.92772
▁90	-9.92794
נגד	-9.92813
טכנולוגיות	-9.92918
▁התוצאות	-9.92955
▁שולח	-9.92982
▁הרשו	-9.93025
▁מדהימים	-9.93188
▁המסו	-9.93295
▁פעיל	-9.93298
סתכל	-9.93305
▁האמריקאי	-9.93355
▁לרוב	-9.93378
▁אנג	-9.93449
▁נקודה	-9.93515
אהבה	-9.9354
וקר	-9.93563
▁שקי	-9.93624
ציפ	-9.93627
▁הביולוגי	-9.93682
▁שניות	-9.93726
▁כאב	-9.9374
שווקים	-9.93757
▁דורש	-9.93785
מסתכלים	-9.93789
▁פוליטי	-9.93816
▁הניסוי	-9.94012
▁הקוד	-9.94036
▁הגנ	-9.94087
▁השנייה	-9.94111
▁הנוכחי	-9.9415
רשימה	-9.94185
נטו	-9.94253
לוק	-9.94279
מיקרו	-9.94295
▁גורמים	-9.94348
▁בונים	-9.94371
▁בילי	-9.94373
▁פתאו	-9.944
▁המוצר	-9.94494
▁כלכלי	-9.94533
▁לנצח	-9.94576
▁מלמד	-9.94655
בצע	-9.94735
▁זכ	-9.94906
קסם	-9.94948
אמי	-9.94996
▁בבתי	-9.95146
▁מטוס	-9.95208
▁בוא	-9.95386
מקצוע	-9.95396
▁שכב	-9.95402
▁רופא	-9.95415
▁וכעת	-9.95448
▁לתאר	-9.95456
▁סל	-9.95465
שקע	-9.95511
▁להחלי	-9.9558
▁שמגיע	-9.95613
שילוב	-9.95665
▁העצמי	-9.95672
פיזיק	-9.957
כניס	-9.95708
▁לבחון	-9.95743
יתר	-9.95781
מכשיר	-9.95814
אחר	-9.95859
▁היסטורי	-9.95891
▁מחיר	-9.95912
שני	-9.95978
▁האהוב	-9.96027
▁הקרקע	-9.96135
גדיל	-9.96167
אבק	-9.96201
▁אירופה	-9.96201
▁ומי	-9.96413
▁התרחש	-9.96439
▁השחור	-9.96469
▁נתקל	-9.96493
מורה	-9.96521
▁מבקש	-9.9659
▁הפנים	-9.96629
▁עליי	-9.96637
שליטה	-9.96648
צח	-9.96671
▁בתמונה	-9.9671
▁שהמ	-9.96728
▁יחסית	-9.96734
▁24	-9.96745
▁ודאי	-9.96753
▁באינטרנט	-9.968
▁העסק	-9.96824
▁להציל	-9.96848
▁הקטנים	-9.96853
▁13	-9.96876
▁מאה	-9.96896
▁הכלכלה	-9.96922
▁גוף	-9.96931
▁בקנה	-9.9698
אינטרנט	-9.97061
▁האוויר	-9.97079
נוף	-9.97107
קוס	-9.97161
און	-9.97194
פייסבוק	-9.97261
▁כשמ	-9.97272
תרומ	-9.97285
צלח	-9.97294
צדק	-9.97321
▁גז	-9.97361
נכ	-9.9738
▁למד	-9.97416
▁לצד	-9.97428
גיל	-9.97446
▁אישית	-9.97449
▁התוצאה	-9.97477
▁המילים	-9.97559
עץ	-9.97636
חוסר	-9.97653
סביר	-9.97687
▁לעצב	-9.97718
▁בקלות	-9.97745
▁וזהו	-9.97806
פסל	-9.97823
טיל	-9.97831
▁ענקי	-9.97881
תכנן	-9.97905
וציא	-9.97914
-10	-9.97931
▁חלקים	-9.97988
▁המבט	-9.98038
▁בקהל	-9.98043
▁כותב	-9.98048
שלח	-9.98154
תחום	-9.98236
-2	-9.98301
▁האש	-9.98333
עזור	-9.98338
▁המלחמה	-9.98401
▁מחבר	-9.98407
▁במחשב	-9.98472
נדו	-9.98473
▁משחקים	-9.98531
▁הלילה	-9.98551
בחירה	-9.98636
ריון	-9.98647
מניע	-9.98658
▁הציבור	-9.98698
רגו	-9.98741
▁שיעור	-9.98812
▁זוכרים	-9.98857
▁אמונ	-9.99006
סרט	-9.99024
▁רגלי	-9.99024
▁ולראות	-9.9903
לוס	-9.99037
▁שטח	-9.99102
▁מעלה	-9.99212
▁למצב	-9.99316
תפוס	-9.9936
▁מוחלט	-9.99395
c	-9.99464
▁הרובוט	-9.99471
▁ישנו	-9.99478
TED	-9.99487
▁מחזיק	-9.99555
עניינים	-9.9956
חפש	-9.99583
▁חקר	-9.99664
▁הלכת	-9.99671
▁פליט	-9.99774
▁שאלו	-9.99814
▁וכשה	-9.99831
▁בשבוע	-9.99865
▁המין	-9.99892
▁הורי	-9.99961
זון	-10.0003
▁תר	-10.0011
▁עצמכם	-10.0021
ארכיטקטורה	-10.0028
ייט	-10.0029
מדוד	-10.0031
▁קיימים	-10.0039
▁דור	-10.0058
▁מדיניות	-10.0059
▁פרטי	-10.0061
▁הבלתי	-10.0067
פוץ	-10.0082
קוטב	-10.009
תרופה	-10.0093
ינת	-10.0093
תכונ	-10.0112
▁תרצו	-10.0121
מיקום	-10.0122
▁עצמאי	-10.0123
אוכלוסיה	-10.0125
חזיק	-10.0131
רצו	-10.0138
▁למישהו	-10.0148
▁לשתף	-10.0151
▁האחרונים	-10.0154
▁מעלות	-10.0159
▁להתא	-10.016
פלי	-10.0164
אית	-10.0165
לקח	-10.0171
השקעה	-10.0175
▁פתרון	-10.0182
פחד	-10.0182
▁רציני	-10.0191
▁חס	-10.0198
▁לזכור	-10.0213
N	-10.0214
מיני	-10.0215
דיון	-10.0217
בנוסף	-10.0218
קיפ	-10.0221
▁אפל	-10.0231
▁עצב	-10.0233
▁אמנ	-10.0234
▁DN	-10.0239
▁מחלק	-10.0246
שותפים	-10.0247
▁מאחור	-10.0252
▁וחבר	-10.0265
▁חשיבה	-10.0268
▁סיבות	-10.0273
▁וס	-10.0277
▁ריק	-10.0279
יצור	-10.0287
▁אמריקאי	-10.029
ריץ	-10.029
▁איכשהו	-10.0297
קטור	-10.0299
פורט	-10.03
▁לחץ	-10.0302
חה	-10.0309
תמונות	-10.0311
שהיא	-10.0314
▁היער	-10.0314
▁מוות	-10.0322
▁יצירתי	-10.0325
▁הסיפורים	-10.0328
▁אדמה	-10.0333
▁במדע	-10.0337
ציר	-10.0344
▁70	-10.0346
▁מפתיע	-10.035
שכונה	-10.0357
ומי	-10.036
▁ארוכה	-10.037
▁בניין	-10.0371
▁מציג	-10.0374
▁הער	-10.0378
עניין	-10.0388
▁שמאל	-10.0389
פסי	-10.0389
▁לאדם	-10.039
▁פרט	-10.0394
מראה	-10.0395
▁אפס	-10.04
▁להאמ	-10.04
גוף	-10.0402
▁להכיר	-10.0404
▁שינה	-10.0408
▁ראה	-10.0408
כולכם	-10.041
לח	-10.0411
וול	-10.0421
טיפול	-10.0422
▁התפ	-10.0424
סובב	-10.0426
ראיי	-10.0428
▁השיר	-10.0428
▁ייתכ	-10.0428
הגדרה	-10.0428
▁מתייחס	-10.0429
▁חישב	-10.043
▁התמ	-10.0435
▁ישירות	-10.0438
כמעט	-10.0438
▁שפ	-10.044
▁זמנ	-10.0441
B	-10.0443
עמיד	-10.0446
▁השיח	-10.0447
טח	-10.045
▁זכר	-10.0454
▁הסתכל	-10.0457
▁להר	-10.0459
וכח	-10.0461
▁כתוב	-10.0461
▁הוביל	-10.0467
▁שרק	-10.0469
התחלה	-10.0473
▁עתה	-10.0475
▁איבד	-10.0478
▁חמלה	-10.0481
לבוש	-10.0493
יסוד	-10.0504
10	-10.0508
▁בעיית	-10.051
▁מציאות	-10.0511
אפריקה	-10.0513
▁הצוות	-10.0514
▁חוש	-10.0514
צפה	-10.0514
שט	-10.0514
▁דר	-10.0517
▁מוכן	-10.0517
עצם	-10.0524
▁לילד	-10.0528
▁ואח	-10.053
▁שח	-10.053
חייה	-10.0532
▁יכל	-10.0534
▁ספציפי	-10.0549
קליט	-10.0556
▁עיני	-10.0558
▁נאמר	-10.0558
צופה	-10.0562
איי	-10.0563
ברור	-10.0566
ריאות	-10.0571
רווח	-10.0572
▁מסורתי	-10.0577
-1	-10.0582
▁לשימוש	-10.0584
אכיל	-10.0587
כבוד	-10.0594
▁תלמיד	-10.06
חולל	-10.06
▁מאמינה	-10.0606
סופר	-10.0617
▁בחלל	-10.0617
▁מוצרים	-10.0618
▁סקס	-10.0621
מץ	-10.0623
▁למנוע	-10.0626
טופ	-10.063
▁השג	-10.0639
▁בתחילת	-10.064
▁השאלות	-10.0642
▁ייחודי	-10.0645
▁התנועה	-10.0653
▁מתקשר	-10.0656
▁שירות	-10.0658
▁כימי	-10.0663
נשק	-10.0664
מדו	-10.0666
לחץ	-10.0667
▁בדרום	-10.0668
▁וח	-10.0673
▁הגבר	-10.0675
▁בקר	-10.0679
▁הדם	-10.0687
▁נכנסים	-10.0689
▁בוקר	-10.069
שוחח	-10.0709
אחד	-10.0709
מימון	-10.0712
פגע	-10.0717
מכונות	-10.0717
תעורר	-10.0725
▁החברות	-10.0725
טב	-10.0728
▁כמוני	-10.0729
התחלנו	-10.0736
▁מתח	-10.0738
▁לגדול	-10.0738
▁וחי	-10.0738
לווי	-10.0739
רץ	-10.074
u	-10.0742
▁איתנו	-10.0743
רך	-10.0745
▁ואחר	-10.0747
▁ברוב	-10.0748
▁קומ	-10.0748
▁לשלב	-10.0752
▁המסע	-10.0755
מכר	-10.0758
▁מלאה	-10.0761
▁צד	-10.077
גיב	-10.0771
▁ניסיתי	-10.0774
דרום	-10.0774
▁הרפואי	-10.0777
דאוג	-10.0779
▁שנוצר	-10.078
▁התיכון	-10.0782
▁ביקש	-10.0784
ייש	-10.0789
▁היחסים	-10.0789
רובוט	-10.0794
תחומי	-10.0796
▁ביני	-10.08
▁שאלתי	-10.0803
▁בטוחים	-10.0805
▁מראש	-10.0808
כנו	-10.0812
▁עצומ	-10.0823
▁ילדי	-10.0824
▁בשר	-10.0827
ריצ	-10.0833
▁אחי	-10.0846
▁מייל	-10.0852
רגיל	-10.0856
עמק	-10.0856
שינוי	-10.0857
▁בתוכ	-10.0857
▁הבנ	-10.0862
▁התפתח	-10.0864
▁בסרט	-10.087
▁שמעתי	-10.0876
▁סרטים	-10.0882
ציבור	-10.0889
מרפא	-10.0893
▁פתח	-10.0901
▁השונ	-10.0907
▁עמוד	-10.0915
סח	-10.0918
▁שהגיע	-10.0918
50	-10.0919
אנוש	-10.0921
▁דומ	-10.0923
▁קרח	-10.0928
▁שחורים	-10.0929
עזרו	-10.0931
▁סא	-10.0934
טוס	-10.0936
▁מעשי	-10.0938
▁לילה	-10.0938
סקר	-10.0943
תנועה	-10.095
▁חמיש	-10.0953
▁מטרים	-10.0962
p	-10.0963
▁מסוימים	-10.0964
טלסקופ	-10.0964
▁שלושת	-10.0966
מתח	-10.0971
יבר	-10.0972
▁דא	-10.0974
יפן	-10.0975
▁החינוך	-10.0979
▁סב	-10.0992
לוגי	-10.1
▁לאור	-10.101
▁נשק	-10.1014
ספיר	-10.1015
החליט	-10.1017
יזם	-10.1019
עקוב	-10.1022
▁יוצאת	-10.1027
▁קרי	-10.103
חנו	-10.1036
שוב	-10.1038
▁מעצב	-10.1051
▁מגדל	-10.1051
▁לבן	-10.1057
▁השפה	-10.1057
▁חזר	-10.1057
שורה	-10.106
▁האנושות	-10.106
▁חיבור	-10.1061
מלריה	-10.1063
▁נחשב	-10.1064
▁עמ	-10.1071
▁מכונית	-10.1071
הנדסה	-10.1073
▁שתיים	-10.1075
▁רצינו	-10.1084
▁הידע	-10.1086
▁מניע	-10.1091
-50	-10.1092
מיר	-10.1095
קיום	-10.1095
▁עזר	-10.1098
▁אפשרויות	-10.11
▁עשר	-10.11
▁אוויר	-10.1106
▁קרו	-10.1107
▁אחראי	-10.111
השקיע	-10.1112
▁צורת	-10.1113
▁בלה	-10.1116
▁חיה	-10.1119
▁רמת	-10.1122
▁להא	-10.1122
▁לקי	-10.1123
▁הציבורי	-10.1134
▁הצד	-10.1134
יוס	-10.1134
▁הקיר	-10.1148
▁השת	-10.1148
▁כוכבים	-10.116
▁איתה	-10.1167
נחש	-10.1174
▁אמצעי	-10.1179
שמיע	-10.1181
נהל	-10.1181
פלו	-10.1183
▁השוק	-10.1184
▁שלמה	-10.1188
▁שמעת	-10.1189
▁חסרי	-10.119
צבע	-10.1194
תקשורת	-10.1195
▁הפי	-10.1197
▁נושאים	-10.1201
סגנון	-10.1202
עוני	-10.1204
▁פותח	-10.121
▁מקו	-10.1214
מעניין	-10.1218
היבט	-10.122
▁הקי	-10.1223
▁המפתח	-10.1223
ביולוגי	-10.1225
כתוב	-10.1227
▁לעבר	-10.1229
קרו	-10.124
▁גורמ	-10.1245
▁במרחק	-10.1248
▁שעומד	-10.125
▁מעורר	-10.1252
ברו	-10.1254
איידס	-10.1258
▁להעלות	-10.1266
▁ממשל	-10.1267
▁הביטו	-10.1268
אמא	-10.127
מדהים	-10.1273
שבע	-10.1278
סדר	-10.128
▁ההרצא	-10.1282
▁סמ	-10.1284
▁שומר	-10.1289
קרב	-10.1291
זם	-10.1293
▁איננ	-10.1296
זין	-10.1309
סע	-10.131
▁רגילים	-10.1312
▁כדאי	-10.1317
▁התו	-10.1323
▁קמ	-10.1332
▁מוסרי	-10.1333
▁המכשיר	-10.1334
▁בגוף	-10.1337
יקים	-10.1342
בנות	-10.1348
▁עזרה	-10.1348
סופ	-10.1351
תלמידים	-10.1352
▁במספר	-10.1362
קרן	-10.1368
▁קטע	-10.1377
▁עצם	-10.1377
▁כנגד	-10.138
מחוז	-10.138
▁תש	-10.1381
▁האחד	-10.1382
▁אלימות	-10.1386
▁הפנימי	-10.1397
שחק	-10.1397
▁מודאג	-10.1399
▁נהנ	-10.1401
חצי	-10.1401
▁מכונות	-10.1403
▁מושלם	-10.1404
▁כשנ	-10.1413
▁נדיר	-10.1413
▁דעת	-10.1419
▁שיצר	-10.1425
בטא	-10.1426
פעיל	-10.143
ואל	-10.1431
נדל	-10.1434
▁בסין	-10.1441
▁השד	-10.1442
▁גור	-10.1444
▁17	-10.1444
▁הסיכוי	-10.1447
תהליכי	-10.1448
טות	-10.1452
ערכים	-10.1457
חשיבה	-10.1458
נדר	-10.1458
▁נהר	-10.1459
▁לעלות	-10.1463
▁שמר	-10.1463
▁ניתנ	-10.1466
חופש	-10.1475
וריד	-10.1475
ריד	-10.1476
▁מחפשים	-10.1478
רצף	-10.1479
▁שממש	-10.148
▁הזר	-10.1484
▁השמ	-10.1489
▁משאבים	-10.149
▁הכחול	-10.1491
▁במי	-10.1493
▁מודרני	-10.1496
▁מלחמת	-10.1499
▁תחושת	-10.1505
מוסדות	-10.1508
אצ	-10.1512
▁פתרונות	-10.1515
חב	-10.1518
▁בכית	-10.1521
אדמה	-10.1522
▁הירוק	-10.153
▁מקרי	-10.1534
מנע	-10.1534
ספ	-10.1536
▁המספר	-10.1536
▁יופי	-10.1537
▁הודע	-10.154
▁אהב	-10.1543
▁זעיר	-10.1546
▁דפוס	-10.1549
מונים	-10.1553
▁כולכם	-10.1566
פלג	-10.1568
▁הרגל	-10.1568
▁יצרנו	-10.157
▁ואלה	-10.1571
▁דוח	-10.1576
▁גבי	-10.1581
מדיניות	-10.1585
שמח	-10.1585
▁דגים	-10.1587
▁גלובלי	-10.1605
יכולות	-10.1606
סכום	-10.1607
▁כבוד	-10.1611
▁תור	-10.1614
▁לנהל	-10.1616
▁רובוט	-10.1626
▁מונע	-10.1631
▁המכונה	-10.1631
▁אינטרנט	-10.1639
▁בחירה	-10.1639
צפון	-10.1643
▁נפט	-10.1645
▁הרצא	-10.1646
▁להוס	-10.1648
חקר	-10.1648
▁גלי	-10.1648
תיכון	-10.1649
▁משני	-10.1652
ארג	-10.1656
ראיתם	-10.1659
▁אס	-10.1662
▁וק	-10.1665
▁ריצ	-10.1676
▁סבור	-10.1678
▁מימד	-10.1684
▁בצ	-10.1685
דש	-10.1686
רמת	-10.1687
שימור	-10.1689
צעד	-10.169
משפחה	-10.1699
▁לתקשר	-10.17
בקבוק	-10.1704
רז	-10.1705
▁הגר	-10.1707
▁אפשרות	-10.171
▁ייצור	-10.1714
חוב	-10.1718
יעשו	-10.172
▁פיתוח	-10.1722
▁הדיגיטלי	-10.1722
זכויות	-10.1724
פן	-10.1728
▁תופע	-10.1729
יזמים	-10.1729
▁בדק	-10.173
▁העור	-10.1738
תחבורה	-10.1738
▁שמתרחש	-10.1747
▁לימד	-10.1756
▁לבני	-10.1761
תבניות	-10.1761
פיע	-10.1774
נער	-10.1775
▁ראשי	-10.178
אטמוספירה	-10.178
▁נפגש	-10.1782
▁המערבי	-10.1789
▁בלב	-10.1795
▁העוני	-10.1797
פוצ	-10.1804
▁טס	-10.1806
▁נמוך	-10.182
▁לטיפול	-10.1824
▁M	-10.1826
▁תשע	-10.183
כור	-10.1831
חדשות	-10.1833
▁להתמקד	-10.1835
▁גלובלית	-10.1836
▁השתנה	-10.1838
▁הנפט	-10.1841
ספור	-10.1844
מפעל	-10.1844
התפתחות	-10.1846
▁בדי	-10.1846
▁ידענו	-10.1849
▁חכמים	-10.1855
חייב	-10.1864
▁התרבות	-10.1867
▁להשאיר	-10.187
▁ושם	-10.187
▁סקר	-10.1871
▁עצ	-10.1874
סרטן	-10.1878
▁מגיב	-10.188
נדה	-10.1882
מורים	-10.1882
▁באחד	-10.1886
▁נתנו	-10.1893
▁פגשתי	-10.1896
רצוני	-10.1896
▁הדור	-10.1897
חלוק	-10.1898
▁ההזדמנות	-10.1913
▁להפסיק	-10.1913
▁סוד	-10.1921
חמש	-10.1923
בעיה	-10.1924
▁בחר	-10.1929
▁צמח	-10.1933
▁הפחד	-10.1933
לפעמים	-10.1933
מחקר	-10.1947
ריקוד	-10.1948
ימות	-10.1949
מיד	-10.1955
▁מסיב	-10.1955
▁מוצלח	-10.1957
▁חיפוש	-10.1958
חמלה	-10.1959
▁מעגל	-10.1962
r	-10.1965
▁הביא	-10.1967
▁החשיב	-10.1969
▁עליהן	-10.197
▁נעים	-10.1973
▁הרגיל	-10.1975
בוט	-10.1977
▁סיכון	-10.1979
ענן	-10.1979
▁אנושית	-10.1983
▁ולעשות	-10.199
מזון	-10.1998
כוון	-10.1999
זיק	-10.2002
▁מהנדס	-10.2004
▁המדהימ	-10.2005
זיהוי	-10.2005
לקוחות	-10.2006
▁שרצית	-10.2007
חלומות	-10.2009
▁ווי	-10.2012
▁ושמ	-10.2013
▁רגשות	-10.2016
קונג	-10.202
▁מכיל	-10.2022
▁שחלק	-10.2023
▁ידעו	-10.2028
▁בהקשר	-10.2029
▁פגיע	-10.2031
▁השר	-10.2034
משקיעים	-10.2038
▁אינני	-10.2041
▁אחריות	-10.2044
▁ההי	-10.2046
▁חמור	-10.2048
▁באתר	-10.2052
▁דה	-10.2061
▁חיוני	-10.2061
עבד	-10.2063
▁הצע	-10.2068
▁להציע	-10.2071
עיל	-10.2077
עלות	-10.2077
▁לאתר	-10.2079
▁השיט	-10.2084
קשיב	-10.2085
יאה	-10.2088
נל	-10.2088
▁הבמה	-10.2088
▁ביד	-10.2089
אנה	-10.2091
▁נותר	-10.2098
סטית	-10.2099
בס	-10.2108
▁הסוג	-10.2109
תגובות	-10.211
▁הראשונות	-10.2112
עזוב	-10.2114
פארק	-10.2114
-200	-10.2114
אקטיבי	-10.2116
▁גילו	-10.2116
תמקד	-10.2118
▁הסמ	-10.2119
-30	-10.2133
▁לעיר	-10.2137
▁הערים	-10.214
▁משקל	-10.2143
ומות	-10.2143
הישג	-10.2152
עיני	-10.2153
ארץ	-10.2158
▁מינים	-10.2159
▁שיוצר	-10.2163
מוק	-10.2165
▁ציור	-10.2165
גוש	-10.2168
▁וואו	-10.2169
▁להש	-10.217
▁בקצב	-10.217
ארט	-10.2174
▁המדעי	-10.2178
▁משפט	-10.2178
▁מרק	-10.2179
▁וול	-10.2181
▁ורג	-10.2182
מחצית	-10.2183
▁התנ	-10.2183
ארד	-10.2183
▁אירוע	-10.2187
▁הכנס	-10.2198
▁בנק	-10.2201
▁צוחק	-10.2216
קיר	-10.222
צייר	-10.223
▁המכ	-10.2238
▁500	-10.2239
▁בכוח	-10.2244
▁רובוטים	-10.2245
מערכות	-10.2249
▁ההתנהגות	-10.2256
▁הגידול	-10.2259
▁בבני	-10.2261
לץ	-10.2262
סימטרי	-10.2268
▁ולש	-10.2273
▁הטבעי	-10.2279
▁הבאים	-10.2281
▁קיבלו	-10.2281
▁הבנו	-10.2282
▁העולמית	-10.2287
▁בצפון	-10.229
▁בגובה	-10.2291
ישן	-10.2295
▁מסכ	-10.2296
סכנה	-10.2297
▁מייצר	-10.2307
▁המוות	-10.2312
▁המקורי	-10.2315
▁מאת	-10.2316
ראש	-10.2316
▁הכדור	-10.2318
▁בינלאומי	-10.2323
▁יוצאים	-10.2325
טמפרטור	-10.2329
▁לחדר	-10.2329
▁נגמר	-10.2333
שלב	-10.2338
▁ליצירת	-10.234
אירוע	-10.2344
אותם	-10.2346
▁היצור	-10.2355
לול	-10.2356
יהן	-10.2359
▁חל	-10.2363
▁רגיש	-10.2368
▁חר	-10.237
גשם	-10.2371
▁מתמודד	-10.2371
▁S	-10.2373
▁מתאר	-10.2376
וושינגטון	-10.2377
▁ביקום	-10.2378
▁בקצה	-10.238
▁מודעות	-10.2381
▁העיניים	-10.2381
▁אפריקאי	-10.2381
ירידה	-10.2382
▁אסטרטגי	-10.2385
▁בדבר	-10.2385
▁הרופא	-10.2386
▁בפועל	-10.2388
▁חכ	-10.2393
▁מקל	-10.2406
▁השאר	-10.2406
ראות	-10.2408
▁מבו	-10.2412
▁נמל	-10.2413
▁ניס	-10.2416
▁ואף	-10.2416
▁מאמר	-10.242
פנים	-10.242
ציה	-10.242
▁מאבד	-10.2425
▁נוסע	-10.2436
.5	-10.2438
▁עול	-10.244
▁זוג	-10.2441
דוד	-10.2444
דריש	-10.245
זבוב	-10.2451
▁תוכנ	-10.2451
שמים	-10.2457
ייר	-10.2458
▁אספ	-10.2461
▁להניח	-10.2463
קנה	-10.2464
אושר	-10.247
גייס	-10.2475
▁דומים	-10.248
▁לכולנו	-10.2485
▁תע	-10.2488
▁עוש	-10.2491
לד	-10.2491
▁וחלק	-10.2494
מכון	-10.2495
▁מחר	-10.2495
▁מורכבות	-10.2498
▁התינוק	-10.2506
▁מני	-10.2515
▁האמי	-10.2516
▁הצעיר	-10.2517
▁נסע	-10.2521
▁אושר	-10.2522
סוג	-10.2524
▁החזק	-10.2524
n	-10.2526
יצו	-10.2527
▁ויכול	-10.2528
ניק	-10.253
▁משימ	-10.253
עצמה	-10.2539
אומנות	-10.2545
גידול	-10.2545
▁החברים	-10.2545
▁גנים	-10.2545
▁קריטי	-10.2547
▁ציו	-10.2552
▁קצב	-10.2557
▁חלקי	-10.2561
▁משק	-10.2564
▁בחו	-10.2566
▁קווי	-10.2568
קפל	-10.257
▁שראינו	-10.2571
ריג	-10.2573
▁המסר	-10.2574
▁שהכי	-10.2576
▁שער	-10.2586
▁המצא	-10.2588
שיתוף	-10.2589
▁למות	-10.259
▁שזהו	-10.2591
▁P	-10.2591
▁להודות	-10.2591
מאס	-10.2592
כנה	-10.2592
עתיד	-10.2594
▁בהכרח	-10.2596
▁כרטיס	-10.2596
▁בשלוש	-10.2603
▁מתקרב	-10.2604
▁בסי	-10.2606
▁מאדים	-10.2608
▁הוצא	-10.2608
▁B	-10.2614
הערכה	-10.2616
▁שבני	-10.2622
▁הנכונה	-10.2636
▁לגדל	-10.2636
▁סר	-10.2637
מייל	-10.2639
▁הרחוב	-10.265
▁לעצמנו	-10.2652
פילוסופי	-10.2652
▁מסוכן	-10.2652
פוא	-10.2652
מנה	-10.2654
▁הצל	-10.2654
צורות	-10.2658
חפצים	-10.2658
▁ניגש	-10.266
▁הצבא	-10.266
▁מעמד	-10.2669
▁מטופל	-10.2675
▁תפס	-10.2676
פעולה	-10.2682
ארכי	-10.2683
תואר	-10.2687
▁הזמנ	-10.2687
סיוע	-10.2691
▁נבנ	-10.2701
▁האוכל	-10.2704
▁ממשיך	-10.2706
אנגליה	-10.2709
▁חברתיות	-10.271
▁הנייד	-10.2711
▁לשרוד	-10.2716
▁משם	-10.2721
▁משרד	-10.2722
גלה	-10.273
▁לשבת	-10.273
▁לאחד	-10.2734
▁מתים	-10.2736
עיתון	-10.2745
בחינ	-10.275
▁שקיבל	-10.2751
▁עמיד	-10.2756
אוטובוס	-10.2764
▁רדיו	-10.2765
▁כתוצא	-10.2767
▁קילומטרים	-10.2769
▁להתחבר	-10.2773
▁ביחס	-10.2773
▁המסך	-10.2773
סטודנט	-10.2775
דחוף	-10.2775
▁פיל	-10.2781
רפא	-10.2788
▁באירופה	-10.2789
▁מעניינת	-10.279
▁מקרים	-10.2792
▁האר	-10.2792
er	-10.2795
▁שמצא	-10.2797
▁מעניינ	-10.2798
▁עברו	-10.2805
ארק	-10.2811
▁שרוא	-10.2812
▁תחום	-10.2819
שימפנז	-10.282
▁צודק	-10.282
▁לחזות	-10.2821
▁פלא	-10.2822
▁מרתק	-10.2823
▁גנטי	-10.2825
▁נראו	-10.2835
▁במחקר	-10.2842
יעיל	-10.2842
לכנו	-10.2844
גשת	-10.2845
▁הערב	-10.2848
▁הלימוד	-10.2853
ואר	-10.2857
▁לוודא	-10.2857
▁הכלכלי	-10.2858
קצב	-10.2859
אוכל	-10.2863
▁הגנו	-10.2864
▁נורמלי	-10.2865
▁קילומטר	-10.2868
▁מעצבים	-10.2868
▁בטבע	-10.2875
▁לרשת	-10.2878
תכונות	-10.2881
▁הקונ	-10.2881
▁משוגע	-10.2885
▁ממשיכים	-10.2886
▁קשים	-10.2891
▁האחורי	-10.2892
▁חוט	-10.2894
▁ואל	-10.2897
שיח	-10.2897
באמת	-10.2897
▁מעורבים	-10.2898
▁התרופות	-10.29
▁הצליל	-10.2901
וטו	-10.2903
▁להרש	-10.2909
▁משפחות	-10.2917
▁דוד	-10.2925
בגד	-10.2926
תוכנית	-10.2927
▁מיי	-10.2937
▁המתפתח	-10.2938
▁לאט	-10.2938
▁ספרי	-10.294
▁ספ	-10.2946
▁לפנות	-10.2949
פונ	-10.2951
כסף	-10.2952
▁תפיס	-10.2962
▁עבורנו	-10.2963
▁רחוב	-10.2971
▁ההור	-10.2977
▁הפשוט	-10.2977
▁ילדות	-10.2978
▁יצרו	-10.2979
מאמר	-10.299
▁מורכבים	-10.2992
▁שיוכל	-10.2992
▁ברצינות	-10.2993
▁העתיק	-10.2996
מספר	-10.3001
▁שגוי	-10.3002
מפגש	-10.3004
ימת	-10.3005
תכנית	-10.3005
לין	-10.3006
שקיע	-10.301
▁במשחק	-10.3011
▁יציב	-10.3011
לחם	-10.3015
▁פרויקט	-10.3017
▁עירוני	-10.3028
▁חייו	-10.3029
סיק	-10.3034
▁נאס	-10.304
זכרו	-10.3049
▁מסויימים	-10.3049
▁מחובר	-10.305
▁אנושיים	-10.3051
▁גבולות	-10.3052
▁להישאר	-10.3054
▁השלב	-10.3055
▁הדלת	-10.3055
מצאתי	-10.3057
מודעות	-10.3061
▁להכנס	-10.3064
נדס	-10.3067
▁נכונה	-10.3071
▁אנדרס	-10.3075
▁פרק	-10.3077
מעקב	-10.3078
▁הצמח	-10.3079
▁גב	-10.3087
▁הדת	-10.3087
▁שהדבר	-10.3092
שטח	-10.3095
▁כפול	-10.3096
ארגון	-10.31
שכב	-10.3106
פרסם	-10.3109
▁עצמך	-10.3112
אמהות	-10.3115
▁הופיע	-10.3115
שוויון	-10.3125
▁להוריד	-10.3126
פוח	-10.3129
▁מכר	-10.313
▁מכונת	-10.313
▁המחיר	-10.3131
▁להסת	-10.3135
אנס	-10.3139
▁הסטודנט	-10.3151
▁משמעותית	-10.3152
▁חרק	-10.3157
כולנו	-10.3165
אוסטרליה	-10.3166
רום	-10.3166
▁נוספות	-10.3166
▁מסלול	-10.3169
▁משטח	-10.3172
▁מצפים	-10.3173
▁הלך	-10.3179
▁אקראי	-10.318
▁בטכנולוגיה	-10.3184
▁הבינו	-10.3186
ייזר	-10.3187
▁איני	-10.3188
▁בנוי	-10.3196
▁המקור	-10.3205
לימוד	-10.3206
▁עבודות	-10.3209
▁מעביר	-10.322
אוקיינוס	-10.3223
עיבוד	-10.3225
▁והכל	-10.3226
▁להיראות	-10.3227
ציע	-10.3231
דמה	-10.3233
דביק	-10.3238
▁גשם	-10.3239
זן	-10.3242
קפיצ	-10.3253
▁בנות	-10.3254
▁תרופה	-10.3255
שער	-10.326
▁במשהו	-10.326
הרצא	-10.3262
▁ושה	-10.3266
שתתף	-10.3266
▁חתיכ	-10.3267
▁ברחוב	-10.3269
נושא	-10.3271
▁מנוע	-10.3273
קהילת	-10.3274
▁בשבילנו	-10.3281
▁מנקודת	-10.3282
זכוכית	-10.3284
▁עיוור	-10.3284
▁העליון	-10.3286
▁ביניהם	-10.3287
▁שאוכל	-10.3287
▁מרי	-10.3291
▁כשא	-10.3291
קיי	-10.3293
▁מצחיק	-10.3294
▁הפוטנציאל	-10.3295
מגבלות	-10.3297
פטי	-10.3301
היסטוריה	-10.3302
▁ראוי	-10.3302
שחיתות	-10.3306
יתרון	-10.3311
▁300	-10.3312
▁ואפשר	-10.3314
▁להחזיר	-10.3315
▁T	-10.3323
▁צר	-10.3328
בוס	-10.333
קרקע	-10.3331
▁הצלחה	-10.3331
מזרח	-10.3334
▁למידה	-10.3336
ערים	-10.3345
▁הנפלא	-10.3346
▁לצייר	-10.3349
▁תיק	-10.3355
▁מתאימ	-10.3357
▁לאחור	-10.3359
תחתית	-10.3361
▁עליך	-10.3362
אמריקאים	-10.3369
▁במים	-10.337
▁במעל	-10.3373
▁בעלת	-10.3378
▁להכי	-10.3383
▁המודרני	-10.3385
▁התקדמות	-10.3386
בוגר	-10.3389
▁שראיתי	-10.339
▁כוכבי	-10.3391
עבדו	-10.3392
▁בחודש	-10.3395
וואי	-10.34
▁ההיא	-10.3402
ייד	-10.3402
וכיח	-10.3402
▁הבינלאומי	-10.3403
▁להשתנות	-10.3407
▁עמית	-10.3411
▁הגבול	-10.3414
אול	-10.3415
▁אזרחי	-10.3416
▁תשובה	-10.3418
דתי	-10.3421
▁שלמדתי	-10.3424
▁להחזיק	-10.3425
דימוי	-10.3427
תשוקה	-10.3428
▁חקלאי	-10.3432
קנדה	-10.3434
יוצר	-10.3436
▁מורכבת	-10.3437
▁האוכלוסיה	-10.3439
▁להק	-10.3439
▁שרוצ	-10.3442
אחריות	-10.3443
▁שקט	-10.3444
▁ההשפע	-10.3452
▁משותף	-10.3454
▁וככל	-10.3456
▁וחו	-10.3456
▁הרגיש	-10.3458
קופסה	-10.3462
▁אתמול	-10.3463
מבו	-10.3466
▁צרכ	-10.3466
▁הבחירות	-10.3467
▁תוה	-10.347
▁צמחים	-10.3473
▁החבר	-10.3475
דליק	-10.3479
▁הבסיס	-10.3482
▁ופשוט	-10.3484
▁בוגר	-10.3487
פשטות	-10.349
▁הסיכון	-10.3491
▁ונת	-10.3493
▁השבוע	-10.3496
סטטיסטיק	-10.35
קוראים	-10.3505
מדיה	-10.3505
נפח	-10.3508
טוני	-10.3508
▁והסיב	-10.3509
מאדים	-10.3517
ננים	-10.3519
▁בעיקרו	-10.3522
▁לחלו	-10.3523
מדינה	-10.3526
▁רשתות	-10.3532
▁תופס	-10.3533
טכניק	-10.3533
▁תוכנה	-10.3534
-4	-10.3535
▁ואלו	-10.3537
רבי	-10.354
▁מבני	-10.3541
תקופה	-10.3546
▁חישוב	-10.3546
▁נפש	-10.3552
▁שימושי	-10.3553
▁שדה	-10.356
▁הבין	-10.3562
▁משמאל	-10.3573
קופים	-10.3578
▁I	-10.3582
פלא	-10.3585
▁שולט	-10.3589
חזרו	-10.3594
▁נמנע	-10.3602
▁שלפני	-10.3602
▁המשימ	-10.3604
צמחים	-10.3609
▁ניסי	-10.3609
▁היסוד	-10.3611
▁בצורת	-10.3611
▁סבל	-10.3613
▁תח	-10.3613
▁לבקר	-10.3615
▁מעוניינ	-10.3618
▁קא	-10.3619
▁באיזור	-10.3624
▁נשי	-10.3625
געת	-10.3629
סתובב	-10.363
▁אספר	-10.363
▁ממשלתי	-10.3634
▁אורגני	-10.3634
▁החול	-10.3636
▁שיחות	-10.3639
▁הגנטי	-10.3641
5,000	-10.3646
▁תחרות	-10.3648
▁אמריקאים	-10.3651
▁הנקרא	-10.3651
החוף	-10.3654
▁שגילי	-10.3658
מפרץ	-10.366
▁אנ	-10.3664
▁דאג	-10.3665
▁דרום	-10.3666
מגדר	-10.3667
▁מייצרים	-10.3668
▁הראו	-10.3672
רדיו	-10.3672
חיידק	-10.3673
▁הסופי	-10.3674
▁גמור	-10.3675
הניע	-10.3679
מלחמות	-10.3681
▁הקשור	-10.3685
משיכו	-10.3686
▁הגב	-10.3687
▁הענק	-10.369
▁לבנים	-10.3694
▁D	-10.37
▁דבור	-10.3702
▁בעד	-10.3715
▁תכנית	-10.3718
משמעות	-10.372
▁טור	-10.3728
▁שימו	-10.3736
▁כולה	-10.3739
▁שחשוב	-10.3746
▁למדע	-10.3748
▁תינוקות	-10.3754
▁הימים	-10.3768
גרמניה	-10.377
כדור	-10.3771
▁עוקב	-10.3771
עשייה	-10.3773
▁הזדמנויות	-10.3777
▁עתיק	-10.3778
מוצג	-10.3779
▁הצורך	-10.3783
מיזם	-10.3783
הארץ	-10.3784
▁10,000	-10.3784
חבל	-10.379
▁שחק	-10.3794
פיתרון	-10.3797
כפל	-10.3798
עושר	-10.3798
▁לשכנע	-10.3798
▁מושב	-10.3806
צרות	-10.3806
▁בכפר	-10.3807
בב	-10.3809
ודיע	-10.3815
מולקול	-10.3818
▁עיד	-10.3821
▁לשיר	-10.3825
חסכו	-10.3825
▁חולק	-10.3827
יבול	-10.3828
▁עשית	-10.3829
רוש	-10.383
▁שדיבר	-10.3834
▁כעל	-10.3837
סקו	-10.3837
▁עוני	-10.3838
יראה	-10.3839
▁בשטח	-10.384
נאי	-10.3844
▁מכאן	-10.3844
▁מבטיח	-10.3845
גרמו	-10.3846
▁קנה	-10.385
▁טרי	-10.3854
▁הצער	-10.3856
▁לתא	-10.3862
▁המדיה	-10.387
מנהל	-10.3873
פיץ	-10.3875
ותיהם	-10.3875
▁הראשי	-10.3882
תקבלו	-10.3883
שעון	-10.3884
▁חולה	-10.3893
דיכאון	-10.3896
▁אדום	-10.3896
מקסיקו	-10.3897
בקטרי	-10.3898
▁ברצונ	-10.3901
▁עובדות	-10.3902
▁אלקטרוני	-10.3904
▁החשמל	-10.3905
▁האמנות	-10.3906
▁לעתיד	-10.3913
▁בסוג	-10.3916
▁תבי	-10.3918
▁הנשיא	-10.3921
▁מימדי	-10.3924
ייצג	-10.3925
▁לנוע	-10.3925
▁למחשב	-10.3926
עוצמה	-10.3927
כותרת	-10.3928
פקוד	-10.3928
נהוג	-10.3929
פגיע	-10.3931
▁הצרכ	-10.3941
יער	-10.3941
יוון	-10.3941
יחיד	-10.3943
▁קולות	-10.3946
▁משבר	-10.3946
▁תעשיית	-10.3946
▁בשנים	-10.3948
שמו	-10.3952
▁בניגוד	-10.3957
▁באנגלית	-10.3959
חידוש	-10.3962
▁הפל	-10.397
יתרונות	-10.397
אינטרס	-10.397
הצליח	-10.3971
סבי	-10.398
▁סטיב	-10.3982
פרצ	-10.3986
▁באל	-10.3992
תינוק	-10.3993
▁N	-10.3993
▁בכדור	-10.3995
▁הסרטן	-10.3996
עבוד	-10.3997
▁המל	-10.3998
▁מכניס	-10.4002
סיכון	-10.4003
דוגמה	-10.4013
▁פנימי	-10.4013
הגיב	-10.4015
▁הכביש	-10.4016
▁דרמטי	-10.4023
מיקרוסקופ	-10.4023
▁פוגע	-10.4026
▁מפתח	-10.4027
פסג	-10.4027
מכוניות	-10.403
▁יעש	-10.4031
in	-10.4034
תוצאות	-10.4034
▁המס	-10.4036
לוואי	-10.4043
▁הנהר	-10.4044
▁משמע	-10.4045
▁מחס	-10.4045
▁הרווח	-10.4051
פסיק	-10.4063
שכונות	-10.4067
נקודת	-10.4068
מול	-10.4071
▁האמיתית	-10.4072
-80	-10.4076
▁מחפש	-10.4077
רנט	-10.4081
▁וממש	-10.4081
▁באור	-10.4083
מנט	-10.4084
תערוכ	-10.4087
▁מסתובב	-10.4088
▁לחברה	-10.409
▁בקול	-10.409
▁משמש	-10.4091
סבתא	-10.4091
▁הירח	-10.4096
▁זז	-10.4099
▁סופ	-10.4101
▁עכבר	-10.4101
תרופות	-10.4105
▁הזכר	-10.4106
▁מטרה	-10.4107
▁סימנ	-10.4109
כשל	-10.4109
רוט	-10.4114
חזה	-10.4119
מלח	-10.4123
מיליארד	-10.4124
קאר	-10.4126
500	-10.4134
20	-10.4135
▁חזרתי	-10.4143
שחזר	-10.4146
שנתיים	-10.4147
▁תגובה	-10.4149
שיש	-10.415
▁עשרה	-10.4151
▁ובגלל	-10.4151
נשימה	-10.4153
▁באוקיינוס	-10.4154
▁אקולוגי	-10.4154
▁נדרש	-10.4155
קהל	-10.4156
▁צילום	-10.4158
▁חיידקים	-10.4158
נסיעה	-10.4167
▁הבנק	-10.4172
▁מלבד	-10.4173
תחל	-10.4173
▁החדר	-10.4174
שימוש	-10.4179
▁טכני	-10.4179
▁מכתב	-10.4183
חודש	-10.4187
▁הנראה	-10.419
מנוע	-10.4191
▁עצמית	-10.4192
▁בעצמי	-10.4192
▁קילו	-10.4193
▁ובין	-10.4194
קליפ	-10.4204
גני	-10.4212
▁למכור	-10.4214
▁לבלו	-10.4219
▁לקראת	-10.4222
דווח	-10.4223
▁תכונות	-10.4223
▁להקים	-10.4223
הבנתי	-10.4228
▁חברתיים	-10.4229
▁תרא	-10.4232
▁לסוג	-10.4232
▁עיניים	-10.4235
▁הכללי	-10.4245
עצור	-10.4246
חצ	-10.4248
-40	-10.4253
חף	-10.4261
▁קרן	-10.4263
▁המהיר	-10.4268
▁פלסטיק	-10.4277
▁זוהר	-10.428
▁ארוחת	-10.4282
▁טריליו	-10.4283
▁חשיבות	-10.4284
▁טלוויזיה	-10.4285
מעגל	-10.4288
טק	-10.4291
ישון	-10.4296
טציה	-10.4298
▁להפעיל	-10.4302
אוזני	-10.431
▁בצבע	-10.4313
דא	-10.4314
ראשונה	-10.4316
▁כרי	-10.4316
▁נפרד	-10.4317
▁בסיפור	-10.432
▁שכן	-10.4329
▁מחזור	-10.4332
▁שמשהו	-10.4337
מסוכנ	-10.4339
▁לטעו	-10.4341
נוחות	-10.4342
▁במסע	-10.4346
▁מהסוג	-10.435
▁הכוכב	-10.4351
▁להשת	-10.4352
▁אהבתי	-10.4353
שכח	-10.4354
▁מיידי	-10.4354
דולר	-10.4355
ודד	-10.436
כתיבה	-10.436
-70	-10.436
▁הצעירים	-10.4363
▁פונ	-10.4365
▁בחומר	-10.4369
▁נסתכל	-10.4371
▁תוכניות	-10.4373
גינה	-10.4375
עקרו	-10.4376
עתק	-10.4382
הצביע	-10.4382
▁אומנות	-10.4383
▁פעמי	-10.4384
▁בדיק	-10.4386
▁משאיר	-10.4386
▁בקהילה	-10.4388
▁לבקש	-10.4394
סיס	-10.4394
▁לייש	-10.4401
▁מחיי	-10.4409
אנד	-10.4412
▁לנצל	-10.4418
▁הפוליטי	-10.4426
טכנולוגי	-10.4428
▁מסור	-10.4428
אדבר	-10.4429
מנתח	-10.443
▁ראשוני	-10.443
הנחה	-10.4431
בטחון	-10.4431
▁מאלה	-10.4433
▁שיני	-10.4434
▁מימין	-10.4435
▁מקצועי	-10.4435
▁ביצ	-10.4437
▁כשיש	-10.4438
▁מגע	-10.4443
▁שריר	-10.4446
פרנס	-10.4447
לידה	-10.4448
▁לנשים	-10.4457
▁יבש	-10.4457
▁רעב	-10.4459
▁להמציא	-10.446
▁סיר	-10.4465
▁E	-10.4471
חמד	-10.4472
▁כוחות	-10.4476
מבוגרים	-10.4478
▁בחי	-10.448
קונפליקט	-10.448
▁שירותי	-10.4481
▁המסורתי	-10.4482
▁נאלצ	-10.4482
▁הטכנולוגי	-10.4483
▁תרש	-10.4485
▁הבת	-10.4486
רופאים	-10.4487
▁תנאי	-10.4488
חלב	-10.4489
▁נהדרת	-10.4491
▁מזכיר	-10.4491
קנים	-10.4496
▁שיצא	-10.4498
▁להבח	-10.4498
-15	-10.4498
קרינה	-10.4502
▁בשד	-10.4503
סוס	-10.4505
פד	-10.4507
▁התפתחות	-10.451
ארוך	-10.4523
אורגניזמים	-10.4523
אנ	-10.4526
▁התאמ	-10.453
▁הפחמן	-10.4535
אסטרטגי	-10.4537
▁סביבתי	-10.454
חלקיק	-10.4547
▁מתברר	-10.4548
▁בעקבות	-10.4549
▁נוהג	-10.4549
קטע	-10.455
▁גדלתי	-10.4551
בזבז	-10.4552
מדענים	-10.4553
▁המוזיקה	-10.4553
▁נופל	-10.4553
▁העשיר	-10.4554
ווד	-10.4556
▁להבטיח	-10.4562
▁סיוע	-10.4563
בריטניה	-10.4564
▁להזיז	-10.4565
▁להקשיב	-10.4567
נגיד	-10.4568
משותף	-10.4571
▁שניהם	-10.4573
▁האח	-10.4573
▁ריי	-10.4578
סביבה	-10.4578
סלע	-10.4584
זיז	-10.4585
סתר	-10.4586
▁במקר	-10.4591
▁גבוהים	-10.4591
▁מטרות	-10.4594
נשיא	-10.4594
▁באה	-10.4595
קבע	-10.4602
קצת	-10.4613
▁הצלחתי	-10.4614
שופ	-10.4617
▁התפקיד	-10.4617
▁הצפוני	-10.462
יגוד	-10.4622
▁שבר	-10.4624
למידה	-10.4625
-60	-10.4627
▁נוכח	-10.4628
השוואה	-10.4635
נוסף	-10.464
▁קרב	-10.4644
מטבח	-10.4645
▁אימי	-10.4647
▁מפחד	-10.4647
▁הוכח	-10.4649
▁תפ	-10.465
▁מתמטי	-10.4654
▁איזור	-10.4656
קשב	-10.4661
▁טקסט	-10.4662
▁דלת	-10.4664
▁בבריטניה	-10.4667
▁הפעולה	-10.4667
פלטפורמ	-10.4683
זציה	-10.4684
▁להב	-10.4686
▁מועיל	-10.4689
גרו	-10.4694
ציטוט	-10.4695
▁צופים	-10.4706
▁מהירות	-10.4713
▁יערות	-10.4713
▁פוליטית	-10.4714
-90	-10.4716
אנשי	-10.4719
בטוח	-10.4721
▁אסור	-10.4723
▁הכוכבים	-10.4726
דאג	-10.4731
השפעה	-10.4732
▁איטי	-10.474
▁סוכר	-10.4741
▁נפוצ	-10.4741
▁בחירות	-10.4742
▁מצביע	-10.4743
ברג	-10.4745
▁2000	-10.4748
▁אנגלית	-10.4753
▁והש	-10.4753
טורי	-10.4754
▁מתכו	-10.4756
עיצוב	-10.4765
יחות	-10.4774
גישות	-10.478
or	-10.478
▁גנטית	-10.4782
▁לאזור	-10.4782
▁לחוש	-10.4782
▁למלא	-10.4784
▁שנש	-10.4787
▁שילד	-10.4787
▁תינוק	-10.4793
עט	-10.4794
▁סטי	-10.4797
▁אט	-10.4803
▁מתפתח	-10.4803
התנגדו	-10.4805
שולחן	-10.481
▁מחכ	-10.481
אוס	-10.4814
▁ובעל	-10.4814
▁מדד	-10.4818
פקיד	-10.482
פגוע	-10.4821
▁ודרך	-10.4829
▁לראש	-10.483
כנת	-10.483
▁החופש	-10.4831
ממש	-10.4832
בניין	-10.4833
▁ומצא	-10.4838
▁נפל	-10.4839
▁הרב	-10.4847
▁להתייחס	-10.4849
לל	-10.4851
דד	-10.4854
▁נור	-10.4858
קרח	-10.4872
תמודד	-10.4872
▁ראיי	-10.4875
▁רעש	-10.4878
השקעות	-10.4878
מסור	-10.488
▁המוני	-10.4881
▁מפעל	-10.4885
רנ	-10.4886
▁אקלים	-10.4887
השג	-10.4888
▁המז	-10.4889
▁בעצמם	-10.489
אוכלוסיית	-10.489
▁התעופ	-10.489
פף	-10.4894
▁נוראי	-10.4895
▁מרגישה	-10.4896
קפה	-10.4899
▁ובני	-10.49
▁יח	-10.4905
פוליטיקאים	-10.4905
מהנדס	-10.491
▁הכלב	-10.4911
שוק	-10.4911
▁מורה	-10.4912
▁החודש	-10.4918
▁חום	-10.4919
▁ההתחלה	-10.4923
▁ההחלט	-10.4928
▁להרוג	-10.493
עצמך	-10.4935
▁ביצע	-10.4939
▁המספרים	-10.4942
▁רופאים	-10.4946
▁ברחובות	-10.4946
▁מער	-10.495
▁פטרי	-10.4953
▁משוב	-10.4954
פלט	-10.4956
▁ובא	-10.4957
▁לנושא	-10.4957
▁הערך	-10.4957
▁מובנ	-10.4958
אוכלוסייה	-10.496
▁הימני	-10.4963
מתכת	-10.4965
▁שבכל	-10.4968
▁הבוקר	-10.497
אנט	-10.4974
▁באוויר	-10.4974
אלגוריתמ	-10.4977
60	-10.4978
▁משחקי	-10.4978
▁ודי	-10.4979
▁התגל	-10.4981
משו	-10.4987
▁מערב	-10.499
▁בערים	-10.4994
זמין	-10.4995
▁נדמ	-10.5003
▁הצעד	-10.5005
▁קליפ	-10.501
זרח	-10.5012
הופ	-10.5014
▁חיו	-10.5014
טורפ	-10.5017
סגר	-10.5021
▁הישנ	-10.5024
▁חדשני	-10.5028
▁איבר	-10.5029
▁מסובך	-10.503
▁הניתוח	-10.5031
▁ושי	-10.5031
▁להתקד	-10.5039
מאמץ	-10.5049
▁ניסו	-10.5051
לונדון	-10.5053
▁מרוב	-10.5056
מחנה	-10.5057
צליל	-10.506
▁המרחב	-10.506
▁ולח	-10.5062
צחוק	-10.5063
▁האומ	-10.5064
מועד	-10.5069
▁מולקולות	-10.5069
טלוויזיה	-10.5074
▁הציור	-10.5076
רגלי	-10.5078
▁שרשר	-10.508
בסס	-10.508
מימדי	-10.5085
דין	-10.5085
▁הרחב	-10.5089
▁הסיני	-10.5093
▁זרע	-10.5095
▁בערב	-10.5098
נתונים	-10.5098
▁ישיר	-10.5099
▁היחס	-10.51
סין	-10.5101
שחרר	-10.5101
▁ביכולת	-10.5101
▁להפיק	-10.5102
▁בזמנו	-10.5109
▁להצטרף	-10.5109
מדד	-10.5116
▁שהכל	-10.5117
▁מטפל	-10.512
▁למוח	-10.5123
קמפיי	-10.5127
במורד	-10.5128
▁דרכ	-10.5141
▁מוג	-10.5144
▁לתמו	-10.5145
מזג	-10.5148
עומק	-10.5149
▁הפיזי	-10.5151
▁דמוקרטיה	-10.5152
▁קפה	-10.5157
סחור	-10.5164
פחית	-10.517
▁השכל	-10.5172
▁נלחמ	-10.5173
זיכרון	-10.5174
▁אפקט	-10.5175
▁עצמן	-10.5175
▁מזג	-10.5176
▁דן	-10.5179
▁משתנים	-10.5192
▁תג	-10.5196
▁סיב	-10.5197
ראתה	-10.5204
▁נכ	-10.5209
▁לתו	-10.5214
▁הנפש	-10.5217
▁ולמה	-10.5221
▁חג	-10.5223
הגדיל	-10.5226
ומן	-10.5228
▁לומד	-10.523
אשלי	-10.5235
▁מיליארדי	-10.5236
מקד	-10.5237
▁הפלנט	-10.5239
שוט	-10.5242
▁שבועיים	-10.5249
▁כולן	-10.5251
▁עמוקה	-10.5252
▁יין	-10.5254
▁סינ	-10.5255
▁עסקי	-10.5259
▁שנכנס	-10.5268
פתע	-10.5268
▁ויזואלי	-10.5269
▁ליום	-10.527
▁לדרך	-10.5271
הולדת	-10.5275
▁כלב	-10.5276
-18	-10.528
מיטה	-10.5281
▁טיס	-10.5282
▁להילח	-10.5288
▁נזק	-10.5295
▁ביטוי	-10.5296
▁ברמת	-10.5302
▁פוסט	-10.5305
▁מרכיב	-10.5305
▁במרחב	-10.5311
▁פסיכולוגי	-10.5312
▁משפחתי	-10.5315
▁למסע	-10.5315
▁לעצמם	-10.5317
▁החיצוני	-10.5317
▁בחינם	-10.532
▁שנית	-10.5324
השלכות	-10.5325
▁להפליא	-10.5328
▁לרדת	-10.533
פלסטיק	-10.5331
נעלם	-10.5336
מערב	-10.5337
הצהר	-10.5338
▁התר	-10.5341
ישבתי	-10.5343
▁שקר	-10.5347
דיבור	-10.5348
▁בפינ	-10.5356
▁פרופסור	-10.5357
טרור	-10.536
▁קרקע	-10.5367
בדיקות	-10.5367
ספי	-10.5368
מעצבים	-10.5375
▁לנסו	-10.5381
▁שכר	-10.5383
תרבויות	-10.539
▁להוביל	-10.539
התברר	-10.5393
▁גיבור	-10.5393
▁ומס	-10.5399
קרנות	-10.5404
▁השער	-10.5408
▁שעשוי	-10.541
▁המכוניות	-10.5421
▁המקרה	-10.5424
▁נובע	-10.5424
תגלו	-10.5424
▁מטבע	-10.543
▁האדום	-10.5432
▁שיא	-10.5433
▁ממשלות	-10.5437
▁במערב	-10.5441
חדר	-10.5441
▁פלנט	-10.5449
▁ויצר	-10.5453
▁עימ	-10.546
▁זוכ	-10.5464
ראיות	-10.5465
▁הרחק	-10.5465
▁לחצ	-10.5475
▁טווח	-10.5484
נרל	-10.5497
▁שיעורי	-10.5499
ויכוח	-10.5501
▁פארק	-10.5503
מרכז	-10.5508
▁אמיתיים	-10.5509
פגשתי	-10.5509
סוכנות	-10.551
אומץ	-10.551
▁סמים	-10.5512
▁ירי	-10.5519
▁מסכימ	-10.5521
אמנים	-10.5523
סיסמ	-10.5525
▁המערכות	-10.553
▁מבוגרים	-10.553
▁שהעולם	-10.5532
▁אוספ	-10.5537
פרספקטיב	-10.5538
קטגורי	-10.5538
שגשג	-10.5538
משתתפים	-10.5539
▁המצלמה	-10.554
▁מחלת	-10.5543
מורשת	-10.5543
▁לתוכ	-10.5548
בוב	-10.5548
מוזיקה	-10.5548
משאבים	-10.555
▁הסכ	-10.5552
▁ניהול	-10.5553
רוצים	-10.5557
▁דנ	-10.5558
▁זמינ	-10.556
מנגנו	-10.5564
▁מעריכ	-10.5564
▁שמחה	-10.5566
▁התחושה	-10.5568
בטל	-10.5569
פרד	-10.5571
▁נשא	-10.5572
▁בודק	-10.5578
פרעות	-10.5578
עצמי	-10.558
גמל	-10.5581
▁ממוצע	-10.5584
▁שכתב	-10.5584
▁להתעל	-10.5591
שלט	-10.5591
מסגרת	-10.5597
▁אוקי	-10.5598
יצירתיות	-10.5606
אלפי	-10.5611
▁משותפת	-10.5613
▁דתי	-10.5621
▁תרבותי	-10.5624
צצה	-10.5624
לילה	-10.5625
▁דיבור	-10.5629
עולמות	-10.563
▁השולחן	-10.5631
▁לכת	-10.5638
▁מתקדמ	-10.564
אפגניסטן	-10.5642
▁במשרד	-10.5642
נסון	-10.5643
▁בבירו	-10.5646
▁לחלל	-10.5647
ינט	-10.5649
▁סביבה	-10.5652
▁השלישית	-10.5656
שופט	-10.5658
ניסוי	-10.566
צביע	-10.5664
▁התוכנית	-10.5665
▁חליפ	-10.5669
▁דיוק	-10.5669
רבע	-10.567
ערב	-10.5679
כוונת	-10.568
קינג	-10.5686
▁הביו	-10.5687
▁טיימס	-10.5687
אסטרונומי	-10.5688
▁מחוברים	-10.5688
▁גמיש	-10.5688
an	-10.5689
▁לטובת	-10.5689
שיניים	-10.5691
יישב	-10.5692
מהפכה	-10.5694
▁המוקדמ	-10.5696
▁בכיס	-10.5697
מושך	-10.57
בחירות	-10.5704
▁למספר	-10.5707
קוב	-10.5717
תרחק	-10.572
טיקה	-10.573
▁אליי	-10.573
▁זכות	-10.5731
▁בתא	-10.5732
▁מהוו	-10.5733
מסחר	-10.5733
▁המשכ	-10.5734
▁המסלול	-10.5736
▁בעניין	-10.5738
▁שאינו	-10.574
חנויות	-10.5742
-100	-10.5742
פינג	-10.5752
מאפיינ	-10.5753
חייך	-10.5763
התחממות	-10.5763
▁מאליו	-10.5766
▁מבריק	-10.5767
▁הכפר	-10.577
▁הרגליים	-10.577
▁שיטת	-10.577
▁לשוק	-10.5772
▁לחכות	-10.5772
▁החיפוש	-10.5774
▁הלכו	-10.5775
▁דמוקרטי	-10.5777
▁לחוות	-10.578
אובייקט	-10.5782
▁לגיל	-10.5782
קיימא	-10.5784
▁האמונ	-10.5784
בורג	-10.5785
נטל	-10.5785
▁להתקי	-10.5788
▁מייד	-10.5802
▁הכנסה	-10.5805
▁נדבר	-10.5809
▁דקה	-10.581
לכוד	-10.5811
▁סיימ	-10.5811
יקי	-10.5812
בטיח	-10.5813
חיילים	-10.5816
▁מזרח	-10.5817
▁סימן	-10.5821
▁יקבל	-10.5826
יופי	-10.5826
מרק	-10.5828
▁ראי	-10.5828
▁התל	-10.5837
מימד	-10.5839
נוכח	-10.584
▁גלקסי	-10.584
אוטיזם	-10.5841
▁שקשור	-10.5842
דמוקרטיה	-10.5851
▁השמאלי	-10.5851
▁שלישי	-10.5854
רעב	-10.5857
▁נכשל	-10.5858
▁שולחן	-10.586
▁ביער	-10.5862
▁יחדיו	-10.5869
שכנע	-10.587
SA	-10.5871
זכיר	-10.5879
▁להז	-10.588
▁שמנס	-10.5883
▁נפתח	-10.5887
▁יעל	-10.5906
בק	-10.5909
▁לשמש	-10.5911
כעס	-10.5912
▁סקי	-10.5912
▁הסבר	-10.5914
▁מצטער	-10.5916
▁האקולוגי	-10.5917
▁טרור	-10.5917
כושר	-10.5918
▁שחשב	-10.5919
▁צילמ	-10.592
▁תיאורי	-10.5923
אינטראקציה	-10.5926
שיווק	-10.5926
▁ספורט	-10.5927
▁יעילות	-10.5931
ביצ	-10.5934
▁האתר	-10.5935
▁נחש	-10.5938
▁ימין	-10.5939
יצירות	-10.5941
קבוצת	-10.5941
מעבר	-10.5941
▁טעות	-10.5947
מיטב	-10.5947
פשר	-10.5947
דפים	-10.5948
▁תקופת	-10.5949
▁הידיים	-10.5951
▁35	-10.5955
▁מתחבר	-10.5957
▁ננס	-10.5958
▁שלילי	-10.5963
יונקים	-10.5972
▁ריח	-10.5973
▁מפעיל	-10.5974
▁יער	-10.5983
▁יסוד	-10.5985
▁שפת	-10.5987
עבודות	-10.5988
דינוזאור	-10.599
גרעין	-10.5996
שמאל	-10.5997
▁במציאות	-10.5998
▁ההצלח	-10.6001
▁המשאבים	-10.6002
▁צפון	-10.6005
▁תוצר	-10.6008
פקיסט	-10.6008
מרכיבים	-10.6008
משפחות	-10.6009
גנה	-10.6014
שקיפות	-10.6015
▁בנינו	-10.6017
▁מלח	-10.602
▁בטווח	-10.6021
▁וירוס	-10.6027
▁הדבור	-10.6033
אחיות	-10.6035
▁ששמעת	-10.604
-5	-10.6045
▁למשו	-10.6046
▁בפניכ	-10.6046
▁חכמ	-10.6053
צייד	-10.6054
▁שמחים	-10.6059
▁שחבר	-10.6061
▁בשוק	-10.6065
▁שהופ	-10.6069
▁הלבן	-10.6073
▁מוכ	-10.6074
סס	-10.6075
▁הבריטי	-10.6077
▁בחשבון	-10.608
סגול	-10.6082
▁הרצ	-10.6082
▁מכס	-10.6083
אלמוגים	-10.6083
מטוס	-10.6083
▁תגיד	-10.6084
שוטר	-10.6093
▁שעול	-10.6094
▁מסחרי	-10.6094
ממשלה	-10.6096
▁הסביר	-10.61
תכניות	-10.6103
▁שגדל	-10.6108
▁נתון	-10.6112
דואר	-10.6113
▁החיידק	-10.6113
▁מקומיים	-10.6114
▁מכוונ	-10.6122
רכה	-10.6126
טעות	-10.613
אלגורית	-10.6132
▁ושני	-10.6133
▁הכניס	-10.6137
▁לחוק	-10.6137
▁משפטי	-10.6137
▁משלה	-10.6138
▁עבורם	-10.6139
▁בניית	-10.6144
▁תהיו	-10.6145
משהו	-10.6145
▁מסך	-10.6149
איכות	-10.615
ריכוז	-10.6152
▁נצטר	-10.6152
▁קובע	-10.6153
מתמטיקאי	-10.6154
▁רא	-10.6155
▁פירוש	-10.6156
▁המוביל	-10.6157
▁1,000	-10.6157
צהריים	-10.6161
▁קשות	-10.6165
▁אסיה	-10.6169
▁קיימות	-10.6169
▁שייכ	-10.6169
▁שנשאר	-10.6169
▁חומרי	-10.6173
חרק	-10.6174
▁החלב	-10.6175
טעויות	-10.6181
▁תנועת	-10.6186
▁ציר	-10.6188
▁אופניים	-10.6191
תיקון	-10.6192
▁לובש	-10.6194
ליט	-10.6196
▁מזמן	-10.6199
אגיד	-10.6199
▁דמ	-10.62
בץ	-10.6202
▁לידי	-10.6205
▁בלונדון	-10.6206
▁שעבד	-10.621
קיימות	-10.6212
80	-10.6212
▁תל	-10.6212
▁הבט	-10.6217
תאורה	-10.622
▁הכח	-10.622
▁אצבע	-10.622
▁כישורי	-10.6222
רואים	-10.6228
פסנתר	-10.623
▁הדרומי	-10.6231
▁העמוק	-10.6234
▁במזרח	-10.6235
▁מופלא	-10.6235
▁חמצן	-10.6239
▁משכ	-10.6243
נף	-10.6244
▁סגור	-10.6244
▁בשמ	-10.6245
▁הבלו	-10.6245
הפיכ	-10.6246
צער	-10.6247
▁במסלול	-10.6251
▁קוק	-10.6255
▁בקרוב	-10.6255
דול	-10.6257
▁אויר	-10.6261
▁קליפורניה	-10.6263
▁45	-10.6264
▁חתול	-10.6265
▁לחשו	-10.6265
בנת	-10.6267
▁בארץ	-10.6268
▁דת	-10.6268
▁150	-10.6269
סטרו	-10.6269
▁השונות	-10.6272
וידאו	-10.6272
▁לשחרר	-10.628
טלי	-10.628
גמר	-10.6281
מורכבות	-10.6283
זכור	-10.6287
איפה	-10.629
▁הנקודות	-10.6291
▁גבוהות	-10.6292
להבין	-10.6295
▁קהילות	-10.6295
▁לחשב	-10.6296
רחוב	-10.6303
▁מבל	-10.6305
▁לזמן	-10.6307
▁פשע	-10.6307
קפיטליז	-10.631
▁הביניים	-10.6312
14	-10.6312
▁לקבוע	-10.6313
▁האויר	-10.6314
▁עצוב	-10.6316
▁העניים	-10.6318
פריד	-10.6319
▁רגילה	-10.632
▁21	-10.6327
רוסיה	-10.6331
▁חוצ	-10.6332
▁לטווח	-10.6334
▁גן	-10.6334
▁בזכות	-10.6341
הדפס	-10.6343
▁תועלת	-10.6347
אלוהים	-10.6351
▁מעודד	-10.636
▁הפתוח	-10.636
▁כחלק	-10.6364
התקרב	-10.6376
כישור	-10.6378
▁העץ	-10.6378
▁האפשרויות	-10.638
▁בהתא	-10.6382
▁שוויון	-10.6382
עניק	-10.6388
▁המורכב	-10.6388
▁הרביעי	-10.6391
▁לעובד	-10.6391
▁לתכנ	-10.6393
▁מעצמ	-10.6397
▁יימס	-10.6399
טוף	-10.6399
▁שקרו	-10.6407
▁הקטנות	-10.6408
▁פרא	-10.6412
▁שפשוט	-10.6414
אחוז	-10.6419
וגרפיה	-10.6424
▁עשורים	-10.6428
▁ניק	-10.643
▁האמריקאית	-10.643
▁מוסדות	-10.643
ריבוע	-10.6434
סורק	-10.6447
▁עבדו	-10.645
▁שיקר	-10.6455
▁הפיזיק	-10.6463
▁איידס	-10.6464
▁מפת	-10.6465
פעילויות	-10.6466
הצג	-10.6466
▁מקורות	-10.6467
▁וגדל	-10.6476
▁המושל	-10.6478
▁שרב	-10.6479
▁מטורף	-10.6481
תעשיית	-10.6482
אמריקה	-10.6482
מולקולות	-10.6485
אופ	-10.6486
▁הסתכלו	-10.649
תיאטר	-10.6492
▁דובר	-10.6498
ווא	-10.6501
לומד	-10.6502
▁בזמנ	-10.6507
▁תואר	-10.6509
פסול	-10.651
▁מבית	-10.651
מנטלי	-10.6516
▁תכנ	-10.6516
מרץ	-10.6516
▁מוסלמי	-10.6518
קורבנות	-10.6519
▁והדרך	-10.6528
אופניים	-10.6528
▁המשטרה	-10.6529
▁אסיר	-10.6529
שקול	-10.6529
חום	-10.6531
▁שיפור	-10.6533
▁בעיד	-10.6534
צץ	-10.6538
▁לאיש	-10.654
▁טיפש	-10.6542
▁דין	-10.6544
▁נר	-10.6547
▁בתחתית	-10.6555
-21	-10.6557
חלל	-10.6558
▁400	-10.6563
קצוות	-10.6563
צולל	-10.6564
חישוב	-10.6565
▁אבק	-10.6569
▁יעבוד	-10.6571
מופע	-10.6572
טכנולוגיית	-10.6574
▁זרים	-10.6574
תבנית	-10.6576
▁מתכננ	-10.6578
▁פרח	-10.6579
▁שמא	-10.658
▁בגופ	-10.6583
▁ועבור	-10.6585
בנק	-10.6589
▁חסרת	-10.6593
▁שרות	-10.6594
נפט	-10.6596
▁לפתע	-10.6599
▁צבאי	-10.6601
▁מחליט	-10.6602
רוך	-10.6606
▁האזרח	-10.661
▁עיקרי	-10.6619
▁החולה	-10.663
▁להתפתח	-10.6636
▁חיצוני	-10.6637
מצרים	-10.6637
▁קטלני	-10.6637
▁לשנה	-10.664
▁זוכרת	-10.6642
▁לבריאות	-10.6645
▁משלמים	-10.665
▁בכלא	-10.6652
בחנו	-10.6655
▁בחול	-10.6655
אירופה	-10.6656
▁רובוטי	-10.6657
2,000	-10.6658
▁רלוונטי	-10.6663
▁הנכונ	-10.6666
▁אשה	-10.6666
▁שאחד	-10.6666
מדרגות	-10.6671
▁תמצאו	-10.6677
עסוק	-10.6679
▁כלכלה	-10.6679
▁מונח	-10.6685
תשתית	-10.6686
▁הדמוקרטיה	-10.6689
▁משלי	-10.6695
ar	-10.6698
מטופל	-10.6702
▁בתוכו	-10.671
▁הדלק	-10.6716
הנאה	-10.6717
▁שיוצא	-10.672
איחוד	-10.6721
▁ליב	-10.6723
▁מגנטי	-10.6723
▁ובאותו	-10.6723
הולך	-10.6725
▁שונא	-10.6726
ערכו	-10.6728
שיפור	-10.6729
▁חזון	-10.6729
פעמים	-10.6733
רוז	-10.6734
▁להזכיר	-10.6738
▁המטוס	-10.6739
▁להפחית	-10.6739
▁תפוח	-10.674
▁זיכרון	-10.6742
▁להוכיח	-10.6742
פורסם	-10.6742
▁עצר	-10.6744
רחיק	-10.6754
אבטח	-10.6756
דירה	-10.6761
▁התקשר	-10.6769
▁לזר	-10.6771
▁סול	-10.6771
פתרונות	-10.6772
▁פוטנציאל	-10.6778
מוסיקה	-10.678
▁שמראה	-10.6784
ניסיתי	-10.6787
▁מהירה	-10.6797
▁דורות	-10.6802
▁להתרחש	-10.6804
▁עיצב	-10.6805
מוטיבצי	-10.6805
בשר	-10.6806
▁עוצר	-10.6806
at	-10.6807
▁בקיץ	-10.6807
▁למדינה	-10.6813
▁הולכ	-10.6814
▁והס	-10.6816
▁תביט	-10.6818
▁ואינ	-10.6818
▁באורך	-10.6819
צריך	-10.682
שעות	-10.682
▁מליוני	-10.6822
▁הידוע	-10.6823
אנדר	-10.6826
כחול	-10.6833
▁והע	-10.6834
▁נאבק	-10.6835
▁עין	-10.6843
חתול	-10.6844
▁עוצמה	-10.6848
▁שמעו	-10.6855
▁מעדיפ	-10.6858
משפחתי	-10.6859
▁סליח	-10.6862
▁המפה	-10.6864
▁כשל	-10.6869
▁עושר	-10.687
חפץ	-10.6874
▁הקרב	-10.6874
▁כספ	-10.6876
▁מצלמ	-10.6881
▁גבירותי	-10.6889
▁הצג	-10.689
▁המקרים	-10.6891
▁הנמצא	-10.6891
חורף	-10.6892
▁אבן	-10.6893
▁שגורמ	-10.6897
▁אופטימי	-10.6897
שריר	-10.6897
בשל	-10.6899
בוק	-10.69
פירות	-10.6901
▁נתפס	-10.6902
▁חוס	-10.6907
▁הבן	-10.6912
▁יצירתיות	-10.6913
▁מתג	-10.6914
▁תרמ	-10.6914
▁מוסיפ	-10.6917
▁ורוב	-10.6917
▁למדו	-10.692
▁מתוק	-10.6921
▁מטע	-10.6922
▁מלאכותית	-10.6924
▁מצלמה	-10.6925
▁טא	-10.6927
קופסא	-10.6931
▁הסוד	-10.6931
מחסור	-10.6934
▁דמות	-10.6936
▁קורים	-10.6937
▁ששמ	-10.6939
▁בשינוי	-10.6939
▁מהפכה	-10.6943
עשיית	-10.6944
▁הייצור	-10.6949
▁שאחרי	-10.6951
▁הרג	-10.6955
▁ונשים	-10.6955
▁המלא	-10.6956
ברט	-10.6957
שכיח	-10.6957
מתבגר	-10.696
חוט	-10.6963
▁תהי	-10.6965
▁וכפי	-10.6966
מרחב	-10.6972
▁האחוז	-10.6974
אלטרנטיב	-10.6974
▁לעזאזל	-10.6974
כבידה	-10.6976
▁הפרט	-10.6979
וירוס	-10.6983
▁שמדובר	-10.6984
▁שמשתמש	-10.6987
אובדן	-10.6989
▁לאהוב	-10.6996
▁התנאי	-10.6996
משקפי	-10.6996
▁תנועות	-10.6997
מינ	-10.7
▁קולט	-10.7004
▁ביי	-10.7007
▁סקרנ	-10.701
▁ועלי	-10.7013
▁קראו	-10.7021
החלטות	-10.7023
אדריכל	-10.7034
▁להכ	-10.7034
▁אנושיות	-10.7041
▁תאורי	-10.7044
▁פעולות	-10.7049
▁מחשבות	-10.7052
אבא	-10.7055
▁קיומ	-10.706
▁ורבותי	-10.7061
▁מסובכ	-10.7061
▁לפגו	-10.7063
▁תשובות	-10.7069
▁שליש	-10.707
סמל	-10.7071
▁מסמ	-10.7071
▁אחות	-10.7071
▁תשוא	-10.7073
▁להתגבר	-10.7074
▁מעשה	-10.7075
▁מומח	-10.7078
▁משיג	-10.7084
▁ברירה	-10.7086
▁בוש	-10.7089
▁במשפחה	-10.7093
▁מסביר	-10.7109
▁שהחל	-10.7109
▁יוצאי	-10.7114
▁בממוצע	-10.712
קווי	-10.7122
▁בעצמו	-10.713
וויל	-10.713
▁ובנוסף	-10.7131
▁והכי	-10.7132
שקט	-10.7135
▁23	-10.7138
▁הזנ	-10.7139
▁מבחן	-10.7144
כפיל	-10.7146
▁ולנסות	-10.715
▁הדמוקרטי	-10.7151
▁ובמקר	-10.7152
▁הקודמ	-10.7154
בחון	-10.7155
מתנדב	-10.7156
השקפ	-10.7158
▁רוז	-10.7162
תשתיות	-10.7162
סמך	-10.7165
▁חלקיקים	-10.717
▁דח	-10.7174
פספס	-10.7183
מעמד	-10.7184
▁מבוגר	-10.7186
▁העיתונ	-10.7188
התנהגות	-10.7196
▁הכלכלית	-10.7196
▁המדענים	-10.72
▁בשבילכם	-10.7203
▁הרכבת	-10.7209
▁מומחים	-10.7211
▁האחרות	-10.7214
▁הארי	-10.7214
▁מדען	-10.7214
▁והחל	-10.7219
אפס	-10.7225
▁בתנאי	-10.7226
גנב	-10.7232
▁דמויות	-10.7233
▁הרוב	-10.7235
▁האלקטרו	-10.7235
אנטיביוטיק	-10.7235
רפובליק	-10.7235
▁במחיר	-10.7236
▁חזותי	-10.7236
וואט	-10.7237
▁העשור	-10.7238
▁יתחיל	-10.7238
▁שנבנ	-10.7239
▁טכנולוגית	-10.724
נקודות	-10.724
מלון	-10.7243
ישור	-10.7244
▁עשרים	-10.7247
▁להרחיב	-10.7248
▁שיחק	-10.725
▁שיטות	-10.7258
▁וליצור	-10.726
▁הקצר	-10.7262
עניים	-10.7263
הלווא	-10.7264
▁עונה	-10.7266
▁הקטע	-10.727
וויטר	-10.7273
▁צעצוע	-10.7273
▁שיער	-10.7275
חושבים	-10.7275
▁ובעוד	-10.7275
▁לסיפור	-10.7277
תוכניות	-10.7278
לינג	-10.7279
קדיש	-10.7284
▁שיטה	-10.7286
▁לכדור	-10.7296
▁קליני	-10.7302
מלחמה	-10.7302
▁מפתחים	-10.7302
תנועות	-10.7308
עקרונות	-10.7309
רצינו	-10.7311
▁פרנסיסקו	-10.7324
▁ממוחשב	-10.7324
▁יגיע	-10.7326
▁מוחות	-10.7327
▁העליונ	-10.7327
▁הגרוע	-10.7332
▁לעודד	-10.7333
▁השפעת	-10.7334
▁התפיס	-10.7336
▁מקשיב	-10.734
▁טיפוסי	-10.7342
▁נסי	-10.7343
כחד	-10.7348
▁הפער	-10.735
▁בונה	-10.7351
▁ההודי	-10.7353
טווח	-10.7356
▁מהעולם	-10.7362
▁כילד	-10.7362
תאורי	-10.7363
▁נרחב	-10.7367
▁משי	-10.7369
▁תארו	-10.7369
ייקל	-10.737
▁זיהום	-10.737
פורד	-10.7377
2009	-10.7378
שווא	-10.7383
מתקן	-10.7388
וצי	-10.7396
▁שינויי	-10.7396
2007	-10.7399
▁ממלא	-10.7402
15	-10.7407
הכרתי	-10.7408
חלונות	-10.741
▁עורכי	-10.7411
▁מסוימות	-10.7413
מטאפור	-10.7413
סטודיו	-10.7413
▁בהתבסס	-10.7413
פומבי	-10.7413
▁מבינה	-10.7418
▁יומיים	-10.7422
חשמל	-10.7427
▁מטה	-10.7427
▁יגיד	-10.7428
ניהול	-10.7431
▁לעצמו	-10.7431
צפיפות	-10.7437
גזע	-10.744
▁אדריכל	-10.7441
רטי	-10.7458
▁לטוס	-10.7461
שווה	-10.7462
▁תשוקה	-10.7472
▁לסביבה	-10.7472
פסיכולוג	-10.7475
אשתי	-10.7476
מגמה	-10.7477
דחוס	-10.748
▁אטומ	-10.7482
השתפר	-10.7493
▁מבקר	-10.7494
▁סמל	-10.7494
זול	-10.7495
אפריקאי	-10.7496
הפסד	-10.7501
קמה	-10.7502
אינטואיצי	-10.7503
שתחרר	-10.7503
▁נמשכ	-10.7505
▁יצרתי	-10.7505
▁מקושר	-10.7507
▁בעסק	-10.7509
▁תושבי	-10.7513
▁מנגנ	-10.7514
▁ויוצר	-10.7524
נגר	-10.7524
אוהב	-10.7526
▁איתן	-10.7526
רפורמ	-10.7529
▁נעלי	-10.7529
משטרה	-10.7531
▁המור	-10.7541
▁ושא	-10.7545
אויר	-10.7546
תלות	-10.755
שמור	-10.7551
▁בטחון	-10.7552
▁זנ	-10.7553
▁מכוס	-10.7555
עוף	-10.7565
דשא	-10.7572
▁נהרג	-10.7578
שפל	-10.7578
▁הראשוני	-10.7581
▁עוג	-10.7581
מזל	-10.7581
on	-10.7582
סיכונים	-10.7582
▁הגיל	-10.7586
▁משטר	-10.7588
▁כאל	-10.7592
ולוגיה	-10.7593
MIT	-10.7594
▁מדהימות	-10.7594
דיאט	-10.7596
▁ערי	-10.7598
▁מאמץ	-10.76
מדינת	-10.76
▁בחברות	-10.7601
חזרתי	-10.7607
▁עזב	-10.7608
▁כוס	-10.7609
נרטיב	-10.7611
▁שעשו	-10.7616
40	-10.7616
▁ביקר	-10.7617
▁קיי	-10.7618
זז	-10.7619
▁זקנ	-10.7622
600	-10.7624
משתמשים	-10.7631
▁והתשוב	-10.7637
יקומ	-10.7642
הפרדה	-10.7642
כפר	-10.7643
▁שישנ	-10.7645
▁לחיי	-10.7645
▁חוויות	-10.7646
▁בניסוי	-10.7649
▁פסול	-10.7649
▁זק	-10.765
▁שהמוח	-10.7652
יראו	-10.7653
▁מרוויח	-10.7655
▁פער	-10.7675
הזדמנויות	-10.7676
חמצן	-10.7679
▁השלכות	-10.7679
▁חיסו	-10.7683
▁תובנ	-10.7685
▁ארוכים	-10.7686
▁שעובר	-10.7686
▁לטוב	-10.7689
תוחלת	-10.7689
שתנה	-10.7691
פושע	-10.7692
▁מתקדמים	-10.7695
עשות	-10.7696
▁סלע	-10.77
▁הקלט	-10.7701
▁בינה	-10.7703
▁לחסו	-10.7703
▁מוכרח	-10.7706
תשובות	-10.7713
▁מדינת	-10.7714
▁הפרויקט	-10.7716
▁75	-10.7718
דופן	-10.7719
▁מגזי	-10.7723
▁מחוו	-10.7736
▁המשו	-10.7739
▁מבוססת	-10.7756
קליד	-10.7761
le	-10.7764
▁המטופל	-10.7765
זונה	-10.777
▁צינור	-10.7778
▁מרוחק	-10.7779
חיישנים	-10.7781
היקף	-10.7782
הרפתק	-10.7783
▁בטיחות	-10.7785
נאום	-10.7788
אורגניזם	-10.7791
▁בגדול	-10.7797
▁בסרטן	-10.78
▁הכרחי	-10.7806
▁מאגר	-10.7806
it	-10.7809
מושג	-10.7811
▁הממ	-10.7813
לשעבר	-10.7813
▁תשתית	-10.782
▁לרשו	-10.7822
סטטי	-10.7826
לאומי	-10.7836
▁השדר	-10.784
▁הארגון	-10.7842
▁באולם	-10.7843
▁באיזו	-10.7844
טאלי	-10.7844
האיטי	-10.7846
אגו	-10.7847
98	-10.7851
בוסטון	-10.786
▁גילוי	-10.7866
יבשת	-10.7869
▁תיאור	-10.7869
אלצהיימר	-10.7872
▁תקוע	-10.7872
▁לערוך	-10.7873
▁נוירוני	-10.7873
▁לרוץ	-10.7879
אפקט	-10.7885
נסיבות	-10.7886
מומחים	-10.7889
▁מתנהג	-10.7896
גלובליזציה	-10.7898
▁ביקורת	-10.7899
▁הדוגמא	-10.7899
וודאות	-10.79
קודד	-10.79
גביל	-10.79
▁מרוצ	-10.7901
משבר	-10.7903
▁לאותו	-10.7904
קוריאה	-10.7907
חתיכות	-10.7908
30	-10.7909
תשאלו	-10.7909
ייצור	-10.7912
רוויח	-10.7914
יתושים	-10.7915
▁נבחר	-10.792
▁הלבנ	-10.7921
▁חיסוני	-10.7925
▁המשבר	-10.794
חוזק	-10.794
▁נרגש	-10.7945
▁עיתונאי	-10.7955
▁לשלוש	-10.7959
שווי	-10.7965
מאוחר	-10.7965
אינטליגנציה	-10.7966
▁שהתרחש	-10.7966
DN	-10.7966
מיט	-10.7967
▁שבגלל	-10.7967
ישראל	-10.7967
▁צהוב	-10.7968
בהירות	-10.7969
▁לתרום	-10.7969
▁פוגש	-10.7971
▁לוותר	-10.7971
▁הבנת	-10.7974
דרכה	-10.7977
בישול	-10.798
▁100,000	-10.7982
מסלול	-10.7984
בחוץ	-10.7984
▁בפרס	-10.7985
▁מאמצ	-10.7986
▁שכח	-10.7986
en	-10.7986
▁ועוש	-10.7989
▁ובזמן	-10.7991
▁סופי	-10.7995
דמיינו	-10.7998
▁תעל	-10.7998
מילה	-10.8001
▁הניו	-10.8001
▁יסודי	-10.8003
▁האדומ	-10.8004
▁מדויק	-10.8005
▁בהשווא	-10.8006
▁למעבד	-10.8008
היסטורי	-10.8008
▁מדג	-10.801
▁סוס	-10.8011
▁סיני	-10.8012
▁חופ	-10.8012
צופים	-10.8017
▁דעות	-10.8019
▁מלפני	-10.8021
▁למרכז	-10.8021
▁מאתגר	-10.8024
▁המוזר	-10.8028
▁המעבר	-10.8029
▁זמנית	-10.8032
▁מפורסם	-10.8037
▁המנהל	-10.8037
▁דרק	-10.804
▁שבב	-10.8043
▁בסיסית	-10.8044
▁מדוייק	-10.8046
דוג	-10.8047
▁הורג	-10.8047
▁מיוש	-10.8048
הישרדות	-10.8062
▁מילולי	-10.8064
בדיוק	-10.8068
פיקוח	-10.8069
הקיץ	-10.8069
▁מורים	-10.8076
▁להרוויח	-10.8077
▁קישור	-10.8082
חוזה	-10.8083
▁מתקדם	-10.8085
▁מתעניי	-10.8086
▁נגיש	-10.8106
▁בעבור	-10.811
▁שפות	-10.8113
▁נכונ	-10.8115
בלבל	-10.8119
▁הופע	-10.812
▁שלאחר	-10.8121
▁לציין	-10.8134
▁בשתי	-10.8134
▁הגזע	-10.8141
▁נקב	-10.8142
עדיפו	-10.8144
השתתפות	-10.8145
▁חשבון	-10.8146
▁מפל	-10.8147
▁תקר	-10.8148
▁מתפקד	-10.8151
▁הליכה	-10.8151
כיום	-10.8154
ספורט	-10.8157
▁הדפוס	-10.8158
אוכלוסיות	-10.8158
▁בהצלחה	-10.8158
▁לשאת	-10.8161
▁בשיח	-10.8164
אביב	-10.8166
קולנוע	-10.8167
נהיגה	-10.8169
▁יתכ	-10.8169
▁נעלמ	-10.817
פריז	-10.8174
▁שראיתם	-10.8175
כיסוי	-10.8181
▁שנע	-10.8186
▁המהפכ	-10.8189
פרוס	-10.8191
▁להאכיל	-10.8191
צינור	-10.8192
מילים	-10.8194
מביה	-10.8195
▁בספטמבר	-10.8195
כוונו	-10.8195
▁נגע	-10.82
▁קוב	-10.8203
▁הגודל	-10.8204
▁לעומק	-10.8217
▁נכתב	-10.8219
▁לצרכ	-10.8224
▁המעבד	-10.8228
עשינו	-10.8231
▁להט	-10.8231
שותפות	-10.8236
גדיר	-10.824
▁אליך	-10.8243
עוצמת	-10.8244
▁הודי	-10.8244
מוז	-10.8246
▁המהירות	-10.825
▁הימי	-10.8253
מוך	-10.8254
טלויזי	-10.8255
▁סלולרי	-10.8255
למים	-10.8259
▁משולב	-10.8259
▁הציו	-10.826
▁קבלת	-10.826
▁למציאות	-10.826
▁וישנ	-10.8263
▁ניצב	-10.8263
הליכה	-10.8266
▁אדי	-10.8267
▁מוכנה	-10.8267
▁סיכונים	-10.8268
▁גשר	-10.8268
▁ביולוגית	-10.8269
מבצע	-10.827
▁התעשייתי	-10.8272
▁נשיא	-10.8275
▁עקרונות	-10.8276
▁לבעיה	-10.8277
▁חומ	-10.8283
▁עצי	-10.8285
▁לעוף	-10.8288
▁מופר	-10.829
▁הדמות	-10.8291
▁פרנק	-10.8292
תגליות	-10.8297
▁עסוק	-10.8297
▁תבנית	-10.8302
▁מתפתחות	-10.8307
▁התעל	-10.8308
מחיש	-10.8312
חרט	-10.8312
פתור	-10.8317
▁מלאכותי	-10.8317
▁בארי	-10.8319
▁לעיצוב	-10.832
▁דומות	-10.8325
▁בעיצוב	-10.8328
▁ולקבל	-10.8331
▁היבש	-10.8332
התבגר	-10.8334
תצוגה	-10.8334
▁כפרי	-10.834
בסיס	-10.8343
▁לחול	-10.8343
▁האצבע	-10.8344
▁בתקופת	-10.8346
▁כספי	-10.8349
סגור	-10.8351
▁נלהב	-10.8354
צמח	-10.8356
פשע	-10.8359
▁לזוז	-10.8359
התנהגויות	-10.836
▁זמין	-10.8361
ירוק	-10.8361
חיקוי	-10.8362
אדום	-10.8365
אנלוגי	-10.8368
נבדק	-10.8378
▁להסתובב	-10.8378
▁וכשאנ	-10.838
▁צרפת	-10.8383
רמז	-10.8388
לשו	-10.8389
▁להתבונ	-10.8395
▁המערב	-10.8399
▁משוו	-10.84
▁מתקבל	-10.8403
▁דמויי	-10.8404
דירות	-10.8408
▁ציבורית	-10.8409
90	-10.841
▁רוצ	-10.841
זרימ	-10.8412
▁הגיו	-10.842
▁אובייקט	-10.8426
שכל	-10.8428
▁קיימא	-10.8434
▁לשמר	-10.8435
ברוח	-10.8436
▁רקע	-10.8437
▁תעשייתי	-10.8438
▁מנצח	-10.844
▁הטמפרטור	-10.844
▁ברזיל	-10.8447
ושי	-10.845
▁תומכ	-10.8452
▁כואב	-10.8453
רסק	-10.8458
▁מחזיר	-10.8459
▁בקצר	-10.8461
▁מודד	-10.8462
▁דווק	-10.8465
▁ציפורים	-10.8472
אוויר	-10.8473
▁שככל	-10.8475
פעולות	-10.8476
▁תחומ	-10.8477
▁מתמקד	-10.8479
▁יבוא	-10.8488
▁שאותו	-10.8492
שטיין	-10.8497
▁התקופה	-10.8498
▁קצה	-10.8498
קיצור	-10.8502
סנט	-10.8504
▁באופ	-10.8515
דמויות	-10.8522
מסר	-10.8523
▁המרכז	-10.8524
▁ישראל	-10.8526
נפש	-10.8529
מודע	-10.8545
אוזן	-10.8548
פוליו	-10.8548
▁רמז	-10.855
הבדל	-10.8551
▁וירטואלי	-10.8552
▁התחתון	-10.8552
ספקטרום	-10.8552
▁הגלקסי	-10.8552
תמריצים	-10.8553
▁ממוקד	-10.8553
▁מפיק	-10.8555
▁מקרוב	-10.8556
▁אהוב	-10.8557
▁קריי	-10.8557
שימו	-10.8559
צוואר	-10.8563
▁חמצני	-10.8568
▁מצלמות	-10.8578
▁וכשאת	-10.8584
▁הדעת	-10.8586
▁אוניברסלי	-10.8595
▁המשיכ	-10.8603
▁כבל	-10.8607
קרקעית	-10.8613
חשיב	-10.8613
▁בסך	-10.8615
▁מהילד	-10.8616
זוג	-10.8617
85	-10.8621
▁המעו	-10.8624
▁הפסק	-10.8626
נלי	-10.8629
▁בולט	-10.8632
שוודי	-10.8634
גדול	-10.8636
▁משחרר	-10.8641
▁בקני	-10.8641
▁הוידאו	-10.8647
▁מושלמת	-10.8647
▁נתיב	-10.8648
אוטומטי	-10.8649
אוטונומי	-10.8653
תרנגול	-10.8653
▁שנדרש	-10.8653
▁תחילת	-10.8654
ניב	-10.8654
חיזוי	-10.8655
שחרור	-10.8656
עצמות	-10.8656
▁מקביל	-10.8658
▁הגא	-10.8658
▁ממשק	-10.8658
שלטון	-10.8659
▁רצח	-10.8659
▁איפשר	-10.866
▁דואג	-10.8665
חידה	-10.8666
במה	-10.8666
▁במשקל	-10.8668
▁סריק	-10.8669
▁ולכל	-10.8669
▁רצינית	-10.867
קבצ	-10.8673
▁זכי	-10.8676
▁מזיק	-10.8676
ענק	-10.8676
▁הלוח	-10.8676
כף	-10.8678
▁סביבנו	-10.8678
משורר	-10.8681
▁וברגע	-10.8682
סוחר	-10.8683
התבוננות	-10.8683
▁לממשל	-10.8684
הולנד	-10.8684
▁בסמ	-10.8687
▁עבורכם	-10.8688
פליט	-10.8699
▁לשיח	-10.8704
▁לרופא	-10.8704
▁ולדעת	-10.8704
▁מושכ	-10.8706
▁העני	-10.8709
▁נגיע	-10.8714
▁באפגניסטן	-10.8714
התפשטות	-10.8714
ברזל	-10.8715
▁רשמי	-10.8716
▁אקס	-10.8718
▁משלוש	-10.872
▁מעול	-10.8722
גמול	-10.873
מערות	-10.873
רכוב	-10.8731
▁ניצול	-10.8732
שמיים	-10.8734
▁החור	-10.8734
▁ואילו	-10.8737
▁אפקטיבי	-10.874
סקי	-10.8747
▁הציע	-10.8749
▁פופולרי	-10.8755
▁בעצמנו	-10.8755
איזשהו	-10.8755
למת	-10.8756
▁שטוח	-10.8756
משק	-10.8758
משולש	-10.876
19	-10.8761
▁פולי	-10.877
▁שוט	-10.8775
זרוק	-10.8788
שקר	-10.8791
▁עשור	-10.8791
▁גג	-10.8794
▁רצון	-10.8796
▁טוענ	-10.8799
הומור	-10.8802
▁מאובנים	-10.8805
מונה	-10.8813
התנסות	-10.8815
▁שכמה	-10.8821
תגבר	-10.8822
▁האמנ	-10.8824
▁חלש	-10.883
▁הוציא	-10.8832
סוכר	-10.8833
▁בעשור	-10.8834
▁תיב	-10.884
▁מקומ	-10.8842
גוס	-10.8844
▁22	-10.8845
חזו	-10.8849
▁בחצי	-10.885
▁האושר	-10.8855
▁ושאל	-10.8857
הזדקנות	-10.8858
▁ההכנסה	-10.8858
▁ממציא	-10.886
▁השקט	-10.8867
אילו	-10.8869
▁רומ	-10.8873
▁בוחנ	-10.8876
▁שיאפשר	-10.8881
▁שיתופי	-10.8881
שותף	-10.8882
▁בבסיס	-10.8883
כבש	-10.8888
▁הפלא	-10.8888
הורג	-10.8889
▁העירוני	-10.8891
▁מתעורר	-10.8895
▁הרצון	-10.8895
▁מתחר	-10.89
דבור	-10.89
▁הגשר	-10.8901
סכימו	-10.8904
חרדה	-10.8907
▁האפשרי	-10.8907
▁משפחת	-10.8914
▁לייצור	-10.8924
▁השירות	-10.8925
▁צפי	-10.8928
▁הזהב	-10.8929
מהרה	-10.8931
▁27	-10.8935
▁איומ	-10.8951
משקל	-10.8952
▁מרבית	-10.8953
▁הערבי	-10.8954
טיח	-10.8961
ודאי	-10.8962
▁הפוליטית	-10.8971
▁החס	-10.8976
▁דוב	-10.8976
▁להגדיר	-10.8979
מגנט	-10.8982
▁שלקח	-10.8982
▁הטלוויזיה	-10.8983
▁מגב	-10.8989
התפרצות	-10.899
▁וגילי	-10.899
▁הציג	-10.8991
▁קורס	-10.8992
▁כפר	-10.8992
שכר	-10.8993
שיקום	-10.8993
▁במלחמה	-10.8998
ממשק	-10.8999
▁התקפ	-10.9008
co	-10.9033
▁הביטוי	-10.9034
▁מגדיר	-10.9039
זא	-10.9042
מיכל	-10.9043
▁שקרא	-10.9051
▁כימיקלים	-10.906
▁בגוגל	-10.906
דולפינ	-10.9062
צילומי	-10.9064
▁הספציפי	-10.9067
▁משוכנע	-10.9067
שגשוג	-10.9067
▁איינשטיי	-10.9067
▁למחרת	-10.9068
▁ובשביל	-10.9068
▁מפסיק	-10.9069
לכאורה	-10.9071
סיכום	-10.9073
▁הרצפה	-10.9075
▁מושפע	-10.9082
▁סטרי	-10.9086
עודד	-10.9087
▁משימות	-10.9093
▁הוגן	-10.91
בטן	-10.9102
מנת	-10.9103
▁דגימ	-10.9104
סהרה	-10.9105
▁הכימי	-10.9107
▁אבות	-10.9111
מעבד	-10.9113
▁פותר	-10.9118
ארוחה	-10.9122
▁האפל	-10.9129
▁זמני	-10.9136
▁פרטיות	-10.9139
▁הזק	-10.9147
▁השפ	-10.9148
▁נפטר	-10.9149
אבול	-10.9153
▁הוירוס	-10.9154
▁לגברים	-10.9161
▁בחיפוש	-10.9161
יעוד	-10.9163
ראינו	-10.917
▁ולפני	-10.9172
▁ריב	-10.9173
רזולוצי	-10.9174
▁המיוחד	-10.9174
▁ארוכות	-10.9174
▁הכוונה	-10.9174
▁לרוחב	-10.9174
▁דרכי	-10.9179
▁במקור	-10.9182
▁כמשמעו	-10.9182
אנטומי	-10.9182
▁הטקסט	-10.9183
אספקת	-10.9187
▁אנסה	-10.9192
▁מצייר	-10.9192
▁הגורמ	-10.9192
חלו	-10.9194
▁לכוון	-10.9198
נולדתי	-10.92
▁במערכות	-10.92
▁מהצד	-10.9203
▁הציבורית	-10.9204
תאונות	-10.9206
נשא	-10.9207
ביקשתי	-10.9208
איברים	-10.9209
מקרה	-10.921
▁אבני	-10.921
▁חיפש	-10.921
במיוחד	-10.9211
▁99	-10.9211
▁הפיננסי	-10.9211
חדיר	-10.9212
▁דמוי	-10.9218
▁דיווח	-10.923
לוף	-10.9242
▁פיננסי	-10.9243
▁אפליקצי	-10.9245
▁כריש	-10.9246
▁מוקדמ	-10.9249
▁שורש	-10.9254
▁לביצוע	-10.9257
▁זרוע	-10.9266
▁ממשיכ	-10.9267
שבוע	-10.9273
▁וחשוב	-10.9279
▁המשפחות	-10.9281
▁התוכנה	-10.9282
▁מפורסמ	-10.9285
▁החזון	-10.9285
▁מתפשט	-10.9289
▁הרחוק	-10.929
הדדית	-10.9294
מלהיב	-10.9296
פדי	-10.9299
▁נבו	-10.93
היפך	-10.9306
▁המרכיב	-10.9308
▁היקר	-10.9309
▁אובמה	-10.9313
▁הנייר	-10.9327
▁חייל	-10.9338
▁מגרש	-10.9341
הגביר	-10.9352
חליט	-10.9354
▁המושג	-10.9354
פזר	-10.9362
נטוש	-10.9363
בערך	-10.9368
השראה	-10.9372
▁אסון	-10.9375
▁שצריכ	-10.9381
▁הבינ	-10.9381
זוז	-10.9388
דס	-10.9389
דיפלומטי	-10.939
▁עוזב	-10.939
▁תמונת	-10.939
פליא	-10.9391
▁בימינו	-10.9392
קמנו	-10.9395
חוצה	-10.9396
▁זוגות	-10.9397
▁למטרות	-10.9397
▁שנייה	-10.9401
▁מגפ	-10.9409
לקו	-10.9419
▁למחקר	-10.9422
-11	-10.9422
עונש	-10.9425
▁טונות	-10.9426
▁מאיפ	-10.9433
מטבע	-10.9437
▁פרסו	-10.944
לווין	-10.9446
▁באיכות	-10.9452
▁הפליט	-10.9457
▁במסגרת	-10.9457
▁בקיר	-10.9464
▁טום	-10.947
להשתמש	-10.9476
נתק	-10.9477
▁המשתמש	-10.9477
חשבון	-10.9479
כותב	-10.9483
▁הדרכ	-10.9492
הפתעה	-10.9492
צריכה	-10.9493
▁אצבעות	-10.9494
יציא	-10.9496
▁ופחות	-10.9498
▁נמוכ	-10.9498
▁ההסטורי	-10.95
▁קוונטי	-10.95
▁היבשת	-10.9501
▁למסקנ	-10.9502
▁המופלא	-10.9503
▁מופתע	-10.9506
▁מרחוק	-10.9508
▁חינם	-10.9509
▁המנהיגים	-10.9511
▁לגייס	-10.9512
סקס	-10.9516
בדוק	-10.9518
▁כור	-10.9518
▁שיכל	-10.952
נוהל	-10.9527
התערבות	-10.9538
היגיו	-10.9538
מיקס	-10.9545
מיליוני	-10.9545
▁דרכו	-10.9549
▁הפשע	-10.9564
▁החקלאי	-10.9571
להתחיל	-10.9577
▁נשאל	-10.9577
עירק	-10.9581
▁והשני	-10.9582
הרג	-10.9583
▁צפו	-10.9591
▁התעשי	-10.9595
▁יומי	-10.9597
▁ושאלתי	-10.9599
▁מעניק	-10.9601
▁הצהריים	-10.9602
ומך	-10.9609
בזבוז	-10.9611
פרלמנט	-10.9611
▁אציג	-10.9611
▁ופתאו	-10.9611
צבוע	-10.9611
מזו	-10.9614
▁2008	-10.9614
▁שלישית	-10.9614
▁המוסרי	-10.9615
זדקק	-10.9616
יציבות	-10.9618
▁והילד	-10.962
▁השקופי	-10.9621
▁הנוירו	-10.9622
▁מפות	-10.9622
▁שחקני	-10.9624
תחושות	-10.9625
▁התודע	-10.9627
מחלוקת	-10.9634
▁מגור	-10.9634
▁הקפ	-10.9636
פירמיד	-10.9636
▁בעבודת	-10.9637
▁המעגל	-10.9641
▁המודרנית	-10.9645
קדו	-10.965
▁ומנס	-10.9651
▁מלמעלה	-10.9655
מפות	-10.9656
▁עז	-10.9663
▁שמתחיל	-10.9663
▁העין	-10.9664
▁פוטנציאלי	-10.9668
▁תהיי	-10.9673
אלף	-10.9673
▁היכ	-10.9679
סטון	-10.9683
אלקטרוניקה	-10.9689
כישלו	-10.9713
גולגולת	-10.9723
▁מחברי	-10.9726
ייצוג	-10.9727
▁מקובל	-10.9734
▁צורכ	-10.9734
▁אלמנט	-10.9735
▁תחנת	-10.9738
טוט	-10.9739
ניזם	-10.9739
גירוי	-10.9741
▁הצדדים	-10.9742
רקמות	-10.9742
▁הנמל	-10.9742
▁הכחד	-10.9744
▁שיושב	-10.9748
פצע	-10.975
עזבתי	-10.9755
רחיב	-10.9763
▁מונ	-10.9765
▁ההון	-10.9766
▁מהבית	-10.9766
▁שיווי	-10.9768
נחוץ	-10.9769
▁המוכר	-10.9774
חיינו	-10.9775
עיסק	-10.9775
זיהום	-10.9779
יכוי	-10.9785
תקופות	-10.9789
▁התחתונה	-10.9789
▁לצמצ	-10.9791
▁אסי	-10.9792
-25	-10.9793
▁הגופ	-10.9795
▁בנתונים	-10.9803
תגלית	-10.9805
▁ולדבר	-10.9812
קוק	-10.9823
עשב	-10.9825
ריב	-10.9826
שלג	-10.983
קגו	-10.9836
כרומוזו	-10.9837
תחזיות	-10.9838
הזמין	-10.9838
▁מבודד	-10.9839
▁שהילדים	-10.984
▁העצומ	-10.984
כנפיים	-10.9841
▁סקוט	-10.9841
איטליה	-10.9841
▁המזרחי	-10.9844
מוסלמי	-10.9846
▁נכס	-10.9847
צפייה	-10.9856
▁השינה	-10.9858
▁שלוקח	-10.9861
▁קהילתי	-10.9861
▁מדיד	-10.9862
עלייה	-10.9863
▁פתיח	-10.9864
הכריז	-10.9865
.3	-10.987
▁נפגע	-10.9873
אכזב	-10.9878
שומן	-10.9886
▁בהיר	-10.9889
▁מוחשי	-10.9889
חקלא	-10.989
-6	-10.9891
▁המשקל	-10.9893
▁טהור	-10.9896
▁הבטח	-10.9901
▁שקופי	-10.9917
צפוי	-10.9919
▁שעבור	-10.9922
דמוגרפי	-10.9925
ערבב	-10.9937
▁ארצ	-10.9942
עמיתים	-10.9943
משמר	-10.9946
▁ההתקדמות	-10.9951
▁אבולוציוני	-10.9952
▁להופיע	-10.9952
▁בינתיים	-10.9952
▁אלחוטי	-10.9952
▁הראיה	-10.9953
הוליווד	-10.9953
▁סולארי	-10.9953
▁היתר	-10.9956
▁הנורא	-10.9966
▁ומתחיל	-10.9967
▁מצויין	-10.997
עשן	-10.9971
▁קשי	-10.9972
▁שפעת	-10.9973
עימות	-10.998
התקשר	-10.9982
▁שקיימ	-10.9982
בחנתי	-10.9989
ילדיהם	-10.9996
2005	-10.9999
כריח	-11
▁הכלא	-11
דובר	-11.0003
▁המושב	-11.0004
▁מהזמן	-11.0005
▁התור	-11.0013
דינמיק	-11.0015
הלחם	-11.0016
היקום	-11.0018
תועלת	-11.002
▁מימן	-11.0021
▁המשא	-11.003
▁לרכוש	-11.0039
▁נוזל	-11.0039
▁חושש	-11.0043
שכוח	-11.0044
▁65	-11.0046
▁לארגן	-11.0054
▁הכשר	-11.006
המתנה	-11.0066
▁יירא	-11.0068
▁האוקינוס	-11.0068
▁המשרד	-11.0069
▁מבפנים	-11.007
▁הזוג	-11.007
▁הביאו	-11.0072
▁האיזור	-11.0074
יצירת	-11.0075
▁הקדמי	-11.0077
זריז	-11.0081
▁הצילום	-11.0085
▁ההרגש	-11.0089
מנכ	-11.0091
▁מייק	-11.0093
▁שייך	-11.0095
פרויקט	-11.0096
אתר	-11.0098
קיימת	-11.0099
▁שתרצ	-11.0106
▁העסקי	-11.0108
▁הגיר	-11.0109
▁אשמ	-11.0114
אהבתי	-11.0119
גברת	-11.012
▁המולד	-11.0123
ציית	-11.0134
צעצוע	-11.0136
▁החשמלי	-11.0136
▁מופשט	-11.0142
שתף	-11.0148
שרשר	-11.0151
▁1,	-11.0154
▁הומו	-11.0154
▁היצירתי	-11.0166
סופט	-11.0173
▁חלופ	-11.0176
▁למשרד	-11.0187
▁גירס	-11.0188
רואנדה	-11.0188
▁שאחר	-11.0189
▁תגיע	-11.0189
▁התנהגותי	-11.0189
בידור	-11.0189
▁ומעל	-11.0194
▁הכנ	-11.0197
פיצוץ	-11.0197
▁ויצא	-11.0198
▁ההגיו	-11.0199
שתול	-11.0199
▁החיבור	-11.0201
▁עוצמתי	-11.0202
▁עולמ	-11.0211
▁נטול	-11.0213
מהירות	-11.0218
▁נמכר	-11.0223
דידות	-11.0223
▁למזל	-11.0232
▁להתנהג	-11.0245
29	-11.0247
▁גבול	-11.0258
צלול	-11.0259
מגמות	-11.0261
▁מתוחכמ	-11.0264
▁אריק	-11.0265
▁הזרע	-11.0265
מדויק	-11.0267
▁מכפי	-11.0271
▁מעוניי	-11.0274
מוניטי	-11.0275
כרז	-11.028
▁אופטי	-11.0282
▁לקהל	-11.0283
al	-11.0292
שתק	-11.0293
סביבות	-11.0294
▁עפ	-11.0297
דגמ	-11.0297
▁איכפת	-11.0305
▁במקביל	-11.0305
סבול	-11.0305
▁להימנע	-11.0309
▁הכאב	-11.031
ביקוש	-11.0313
צאצא	-11.0315
שימה	-11.0316
איראן	-11.0318
▁חריג	-11.0318
▁מוגדר	-11.0323
▁ההקשר	-11.0327
הכנסות	-11.0331
▁נוגד	-11.0332
▁ששני	-11.0337
התחרות	-11.0338
פוף	-11.0339
▁שבט	-11.0342
▁מהותי	-11.0344
▁רוחני	-11.0354
נייר	-11.036
▁שנולד	-11.0363
▁ההמצא	-11.0363
▁יונ	-11.0369
▁כשב	-11.0371
▁נביט	-11.0375
▁בקליפורניה	-11.0376
דוגמא	-11.0377
▁מכלל	-11.0382
כדאי	-11.0389
▁נתוני	-11.0389
רומא	-11.0391
דלי	-11.0394
▁הכפרי	-11.0399
פוד	-11.041
הסכמה	-11.0411
▁שעמד	-11.0413
מאמצ	-11.0414
▁ומספר	-11.0417
▁האזרחי	-11.0419
▁ומשהו	-11.0422
סטנפורד	-11.0425
מצטבר	-11.0426
▁ורצית	-11.0427
▁מולקולרי	-11.0427
צפיתי	-11.0432
גיאוגרפי	-11.0434
▁להשל	-11.0438
טקסס	-11.0449
קטר	-11.0453
▁ולקחת	-11.0459
▁כפתור	-11.0459
▁טיעו	-11.046
▁פסיכו	-11.046
▁מתרגש	-11.0466
אבנים	-11.0467
▁נשלח	-11.0467
התנגשות	-11.0472
▁מסיבי	-11.0475
▁עק	-11.0481
▁פריט	-11.0481
▁התקדמ	-11.0481
▁דינמי	-11.0481
ידיעה	-11.0485
▁לסדר	-11.0486
▁עדינ	-11.0488
חמם	-11.0488
צטרפו	-11.0493
גשר	-11.0501
השתלט	-11.0508
רצח	-11.0509
▁משרת	-11.0518
▁לנשו	-11.0521
▁דונ	-11.0523
▁התפשט	-11.0524
▁בריטי	-11.0529
▁רגשית	-11.0546
▁אינטראקטיבי	-11.0547
אלכסנדר	-11.0547
▁ניצח	-11.0548
ייסד	-11.0549
▁השבט	-11.0554
▁משתי	-11.0555
נפרד	-11.0555
חשיפ	-11.0556
▁התקנ	-11.0558
▁קפוא	-11.0558
▁לנפש	-11.0567
טרנס	-11.0572
▁אישור	-11.0574
שרטוט	-11.0581
▁לציד	-11.0583
▁ביצירת	-11.0583
▁וככ	-11.0584
▁והחבר	-11.0585
הרווארד	-11.0587
▁חולי	-11.0598
▁יצליח	-11.0603
לבש	-11.0605
אונה	-11.061
קציה	-11.0618
▁הנחת	-11.0625
▁שוקל	-11.0631
▁זורק	-11.0633
אופטימי	-11.0637
▁יפני	-11.0641
שליש	-11.0645
לעשות	-11.0646
מיליון	-11.0649
אוט	-11.0651
▁גרמ	-11.0657
▁אכזרי	-11.0671
▁מצויינ	-11.0672
▁נואש	-11.0676
מיומנות	-11.0676
▁מערך	-11.0677
▁העכבר	-11.0679
ic	-11.0679
שיכה	-11.0681
▁מגוונ	-11.0682
יתוק	-11.0686
48	-11.0688
▁השיא	-11.069
-8	-11.0691
▁הנגי	-11.0691
▁בשמיים	-11.0696
▁לעין	-11.0707
▁נוזלי	-11.0707
▁נעלמו	-11.0709
ליסט	-11.071
▁דוגמ	-11.0713
תעלומ	-11.0714
קדים	-11.0717
▁תקנ	-11.0722
▁ולגרו	-11.0723
▁וסוג	-11.0725
הזדמנות	-11.073
מקל	-11.0733
פוג	-11.0735
רצון	-11.0751
להגיד	-11.0769
▁הסכמ	-11.0772
מסמכי	-11.0772
סרטונים	-11.0775
מארג	-11.0777
▁התכוונ	-11.0787
▁המדבר	-11.0794
▁רעיל	-11.0794
פלסטי	-11.0796
ציוויליזצי	-11.0796
תזמורת	-11.0796
פרדוקס	-11.0796
▁הבודד	-11.0796
▁יחודי	-11.0796
2012	-11.0796
אקדח	-11.0797
▁לנתח	-11.0798
הרמוני	-11.0799
▁קלאסי	-11.0799
▁אוטומטית	-11.0801
▁להיפטר	-11.0801
קמפוס	-11.0801
חקירה	-11.0803
▁מיוצר	-11.0805
שוחד	-11.0808
▁בילדים	-11.0812
פונט	-11.0822
▁וקיבל	-11.0825
▁שבמקר	-11.0829
▁שמייצר	-11.083
אימפרי	-11.0832
ארצי	-11.0836
▁נלקח	-11.0839
▁עקומ	-11.0839
▁יעד	-11.0841
▁ארכיטקט	-11.0841
▁סיל	-11.0846
תשע	-11.0848
שכנים	-11.0853
▁טקס	-11.0855
אחורי	-11.0858
▁החיסוני	-11.0859
▁מסדר	-11.086
▁התכ	-11.0865
זחל	-11.087
▁מזד	-11.087
זרועות	-11.0872
תשובה	-11.0874
▁שמספר	-11.0882
חיפשתי	-11.0887
מקצב	-11.0893
מירוץ	-11.0897
פוצץ	-11.0898
75	-11.0904
אנר	-11.0917
נכון	-11.0919
▁יגיעו	-11.0919
▁סטנדרטי	-11.092
נציג	-11.092
▁מסויימות	-11.0922
▁ובעיקר	-11.0922
מכשולים	-11.0922
▁העצום	-11.0923
יוטיוב	-11.0923
▁האירופי	-11.0923
אמפתיה	-11.0924
התקבל	-11.0927
הדפיס	-11.0928
▁הכולל	-11.0928
▁הרקע	-11.0929
▁שינת	-11.0929
מצגת	-11.0931
▁הדח	-11.0932
▁תקדים	-11.0934
▁הנוספ	-11.0937
▁סיפק	-11.0939
▁ואיש	-11.0939
▁תאגיד	-11.0942
שאלתי	-11.0943
ריכה	-11.0944
▁נשלט	-11.0948
▁השתנו	-11.0948
▁שהחבר	-11.0949
▁מחליפ	-11.096
▁שהחי	-11.0967
▁מאחד	-11.0974
▁בחרו	-11.0977
מתכנת	-11.0977
מצוק	-11.0987
עטלפי	-11.0987
חגור	-11.0988
▁היעד	-11.0994
מכור	-11.0998
הפתיע	-11.1001
▁העמ	-11.1016
▁בברזיל	-11.1028
▁ממך	-11.1032
▁תורמ	-11.1033
▁שהשתמש	-11.1039
▁האטו	-11.1043
▁הצטרפ	-11.1043
קדמו	-11.1043
זעזע	-11.105
▁אינטלקטואלי	-11.105
אוקטובר	-11.105
פענח	-11.1051
▁הגרעיני	-11.1052
צף	-11.1056
שגיאות	-11.1059
▁הדקות	-11.1062
נציה	-11.1065
▁תודע	-11.1065
▁עכביש	-11.1068
▁המוסד	-11.1072
נאל	-11.1076
גוגל	-11.1079
▁שילמ	-11.1083
▁פוטו	-11.1088
רכז	-11.1089
גדות	-11.1095
▁תאמינ	-11.11
▁מוריד	-11.1103
מעסיק	-11.1104
▁חלבו	-11.1107
▁להרכיב	-11.1108
▁וכתוצא	-11.1109
▁כבני	-11.111
אתיופיה	-11.1113
▁הפרסו	-11.1115
▁העיקר	-11.1117
פונקצי	-11.1127
פוטנציאל	-11.1129
פז	-11.1131
ספוג	-11.1131
בידוד	-11.1132
שמונה	-11.1137
▁חיבר	-11.114
▁מערבי	-11.1142
▁פגש	-11.1144
הוצאות	-11.1146
ייחוד	-11.1146
שעתיים	-11.1173
אוקספורד	-11.1181
▁ביטוח	-11.1181
▁מרטין	-11.1181
התרגשות	-11.1183
▁מעוצב	-11.1185
▁ידעתם	-11.1185
▁יצטר	-11.1186
מוזיקאי	-11.1186
תחושת	-11.1186
▁שחושב	-11.1191
▁שאיבד	-11.1193
▁רוברט	-11.1195
האקרים	-11.1208
דחק	-11.1208
▁נעצר	-11.1212
חמוש	-11.1213
בחנה	-11.1213
עצר	-11.1216
אבותינו	-11.1223
▁ההכר	-11.1224
▁בעולמ	-11.1227
פאל	-11.1235
▁יגרו	-11.1249
חתך	-11.1257
קניון	-11.1259
▁הנעל	-11.1263
אמינות	-11.1265
במבר	-11.1272
פוקה	-11.1277
▁חירו	-11.1285
▁הסיר	-11.1298
▁....	-11.1302
חמצני	-11.1304
▁הסב	-11.1306
▁קולקטיבי	-11.1312
▁פנטסטי	-11.1312
▁המבוסס	-11.1312
▁הסיליק	-11.1312
▁הקיצוני	-11.1313
▁משעמם	-11.1313
▁לעורר	-11.1313
▁מסתורי	-11.1315
▁במבט	-11.1315
זווית	-11.1315
▁תולע	-11.1316
מכנסי	-11.1318
▁סיבוב	-11.1321
▁שהביא	-11.1322
▁הבעל	-11.1326
מועדון	-11.1327
▁מופעל	-11.1336
▁דיסק	-11.1343
▁גרמני	-11.1347
▁ובדרך	-11.1352
שוניות	-11.1356
זמר	-11.1357
קיצ	-11.1361
▁התיק	-11.1366
אשתו	-11.1379
▁מכונ	-11.138
▁בתוכנ	-11.1386
השמנת	-11.1407
▁שהולכ	-11.1411
סלק	-11.1426
▁פרסומ	-11.1428
מהום	-11.143
▁מבזבז	-11.1436
700	-11.1436
יטול	-11.1437
oo	-11.1443
▁הסביבתי	-11.1445
אפריקני	-11.1449
▁בתקופ	-11.145
▁לחנ	-11.1456
▁ברשות	-11.1461
▁מועמד	-11.1462
▁המונח	-11.1464
▁האמצעי	-11.1466
כתיבת	-11.1466
▁נועד	-11.1466
▁שהרא	-11.1467
דחפ	-11.1468
▁יפהפה	-11.1468
עזבו	-11.1471
▁מאפיי	-11.1478
▁האיסל	-11.1479
▁התרבותי	-11.1483
▁בצרפת	-11.1485
▁אדומ	-11.1492
כפול	-11.1497
אוגנד	-11.1506
מומחיות	-11.1508
סטין	-11.1511
ראיון	-11.1516
עדויות	-11.1517
ארגן	-11.1518
זכרון	-11.1519
▁נובל	-11.153
▁החמ	-11.154
▁דייג	-11.154
47	-11.1543
▁קדומ	-11.1545
▁ההגנ	-11.1549
נבא	-11.1549
ויליא	-11.1553
▁מדעני	-11.1558
חיפוש	-11.1564
צילום	-11.1568
▁פולט	-11.157
נישואים	-11.1571
▁נפשי	-11.1576
אסטרונאוט	-11.158
טרגדיה	-11.158
סימפטומים	-11.158
פסיכיאטר	-11.158
▁תקציב	-11.158
▁רשימת	-11.1581
אטמוספר	-11.1581
אמזונס	-11.1581
▁בעובד	-11.1581
עיגול	-11.1581
▁לטפס	-11.1582
▁מדמיינ	-11.1583
▁הזעיר	-11.1583
מדפסת	-11.1584
▁שמוביל	-11.1589
▁ויהי	-11.1593
▁ניכר	-11.1599
נסיעות	-11.16
▁אנכי	-11.1601
▁נתנה	-11.1604
▁מוסד	-11.1606
▁הליב	-11.1617
כשלון	-11.1622
יישר	-11.1635
טאר	-11.1636
▁שהצלח	-11.1652
לחימה	-11.1656
▁לתרג	-11.1661
▁להביע	-11.1666
צרפתית	-11.1668
▁מועצ	-11.1668
▁דרש	-11.1672
צדדים	-11.1688
לקיחת	-11.1704
מצלמות	-11.171
▁שבמ	-11.1714
רציונלי	-11.1717
מתוכנ	-11.1718
▁המתאימ	-11.172
▁ידידותי	-11.172
▁להשוות	-11.1721
▁250	-11.1723
▁ארלס	-11.1723
וידיאו	-11.1726
▁תחנ	-11.1732
▁לבעלי	-11.1747
▁לשחות	-11.1747
כדורגל	-11.1752
▁קנדי	-11.1758
▁במקומ	-11.1761
▁החוקר	-11.1769
בוקר	-11.1769
▁סטטיסטי	-11.1772
▁שעשית	-11.1775
▁תעוד	-11.1782
כותרות	-11.1785
▁שהופכ	-11.1788
שונה	-11.1793
▁החיסו	-11.1803
זירה	-11.1806
▁להגש	-11.1815
בעיית	-11.1827
▁לתהו	-11.1833
אמנויות	-11.1834
▁המהות	-11.1835
▁קופס	-11.1845
▁האמריקני	-11.1856
▁מסודר	-11.1857
▁שעוזר	-11.1858
▁היגס	-11.1859
ריפוי	-11.1862
▁משתפ	-11.1862
בייסבול	-11.1863
▁תתחיל	-11.1864
וליד	-11.1866
▁העשרים	-11.1874
לחשוב	-11.1877
▁ההיפ	-11.188
מעמקי	-11.188
▁להפריד	-11.1883
זמינו	-11.1901
פרוש	-11.1903
ריכות	-11.1904
▁ומאז	-11.1904
שרטט	-11.1911
פאר	-11.1915
תופעות	-11.1917
▁שידוע	-11.1924
▁מחנ	-11.1929
מסטר	-11.1934
צטרף	-11.1936
חיובי	-11.195
▁מפותח	-11.1957
▁מציל	-11.1962
תווים	-11.1963
גלול	-11.1971
מוטט	-11.1986
▁אנטי	-11.1995
▁בכוונה	-11.1997
לחצ	-11.1998
סוכנויות	-11.1998
▁להסיר	-11.1998
▁ביעילות	-11.2
▁האטלנטי	-11.2
BI	-11.2001
▁יוזמ	-11.2001
▁טוויט	-11.2003
▁שהוביל	-11.2004
הבעיה	-11.2005
כילות	-11.2006
▁החמישי	-11.2016
▁תאמר	-11.2024
גולש	-11.2035
מבט	-11.2036
▁שהתחיל	-11.2037
▁בדיח	-11.2039
התמחות	-11.2043
אבל	-11.2044
נפילה	-11.2045
סטאר	-11.205
קולט	-11.2051
▁אמיצ	-11.2052
▁הפטרי	-11.2056
▁וחושב	-11.2059
הפעלה	-11.2078
▁רגשי	-11.2089
דוקטורט	-11.2091
לחיצ	-11.2093
הקדיש	-11.2101
מדובר	-11.2105
תרמי	-11.2107
▁מחט	-11.2137
פירוש	-11.2137
לכד	-11.2137
▁דוא	-11.2139
כוס	-11.214
פרודוקטיבי	-11.214
▁הסלולרי	-11.214
▁שצילמ	-11.214
▁הפטנט	-11.214
▁אינסופי	-11.214
▁הקדוש	-11.2141
-17	-11.2141
▁להצלחה	-11.2141
טקסט	-11.2142
מיעוט	-11.2148
יאוש	-11.2149
▁במשר	-11.2149
התנדב	-11.215
▁במדבר	-11.2159
רקוד	-11.2165
▁מטריד	-11.2167
טינג	-11.2174
אבחנה	-11.2174
חלפו	-11.2176
להתרחק	-11.2178
כביס	-11.2183
וואן	-11.2209
שנייה	-11.2212
שנאה	-11.2233
נקבות	-11.2242
▁הרומ	-11.2244
▁הציד	-11.2245
יזמות	-11.2246
-12	-11.2249
נגלה	-11.2257
ממשלתי	-11.2259
000	-11.2261
אותיות	-11.2276
▁עיתונ	-11.2278
תקפו	-11.2279
▁המסכ	-11.2285
דצמבר	-11.2285
▁רדיקלי	-11.2285
▁דייויד	-11.2285
▁וללמוד	-11.2285
▁2011	-11.2285
אנטארקטי	-11.2285
▁קולג	-11.2286
▁הנמוכ	-11.2286
אלגנטי	-11.2286
▁חודר	-11.2287
אטלנט	-11.229
▁נרצ	-11.2292
▁מושלמ	-11.2294
▁מתקנ	-11.2296
תנסו	-11.2296
▁ובלתי	-11.2296
▁הזרוע	-11.2297
▁מענ	-11.2302
▁הקצה	-11.2305
▁טייס	-11.2306
תריסר	-11.2308
▁כבישים	-11.231
▁המשטח	-11.2313
▁36	-11.2317
ברזיל	-11.232
▁לשבור	-11.2321
▁שנותר	-11.2321
▁מלכ	-11.2324
פוז	-11.2333
▁קרני	-11.2333
▁תזונ	-11.2335
נסיונות	-11.2338
מכניק	-11.2352
94	-11.2359
▁חלבוני	-11.2362
▁להתפשט	-11.2372
▁השוו	-11.2373
חיבור	-11.2376
▁גיאו	-11.2377
▁הכלכל	-11.2385
ידעתי	-11.2385
▁דני	-11.2392
▁לקוח	-11.2399
▁מדמ	-11.24
▁נראת	-11.2404
נאס	-11.2408
▁סימו	-11.2429
חיטה	-11.2431
סנפיר	-11.2432
אלכוהול	-11.2432
▁שמסוגל	-11.2432
▁מתבוננים	-11.2432
▁התיאורי	-11.2433
צפרדע	-11.2433
סאונד	-11.2433
▁להדגיש	-11.2433
▁מנצל	-11.2434
ניצחון	-11.2437
כימיקלים	-11.2444
שתיים	-11.2445
25	-11.2454
▁המוחלט	-11.2455
▁מאלו	-11.2456
▁חממ	-11.2457
צוק	-11.2459
▁שבדרך	-11.2462
מיקוד	-11.2466
▁ולבנות	-11.2469
▁עיקר	-11.2471
▁לבניית	-11.2481
כאלה	-11.2488
היווצרות	-11.2491
MS	-11.2497
דמיונ	-11.2505
▁ונעש	-11.2505
▁התרש	-11.2506
▁מלאכ	-11.2514
▁הפסקת	-11.2514
ישמע	-11.2524
.7	-11.2526
הסתכלות	-11.2529
▁פנסי	-11.253
גרש	-11.2534
מקדש	-11.2541
▁להסכ	-11.2548
מטיקה	-11.2558
▁שהתא	-11.2561
מחשוב	-11.2564
▁משונ	-11.2569
נגינ	-11.2572
▁לכית	-11.2574
▁והפכ	-11.2578
יצג	-11.258
▁אינטואיטיבי	-11.2581
▁בעצמכם	-11.2581
▁מגוחך	-11.2581
▁פעולת	-11.2581
▁מלמטה	-11.2581
קריקטורות	-11.2582
▁מכובד	-11.2582
▁החביב	-11.2582
כירורג	-11.2582
אוריגמי	-11.2582
▁הארוכ	-11.2584
▁ביקור	-11.2586
זעם	-11.2586
תדרדר	-11.2586
▁תיאר	-11.2596
מצלמה	-11.2596
איבוד	-11.2598
▁שווים	-11.2599
▁הפיכת	-11.26
מחלת	-11.2602
▁והתוצא	-11.2603
▁תפקוד	-11.2611
▁גופני	-11.2612
▁וכדומה	-11.2613
▁שכזה	-11.2614
▁נודד	-11.2619
פיצו	-11.2624
יכון	-11.263
לילות	-11.2637
חמק	-11.2639
▁רישו	-11.2642
▁הסינ	-11.2645
▁מסתכ	-11.2659
▁נורמ	-11.2661
מייסד	-11.2661
פצל	-11.2663
▁ירצ	-11.2664
ננות	-11.2676
▁חולצ	-11.2721
▁שימש	-11.2723
▁וחסר	-11.2726
▁120	-11.2728
MRI	-11.2733
▁הארקטי	-11.2733
▁שפיתח	-11.2734
▁מיועד	-11.2734
▁רומנטי	-11.2735
▁במודל	-11.2735
▁ההשכל	-11.2738
▁הסטורי	-11.274
▁כיסא	-11.2743
ידרש	-11.2744
▁הפרעה	-11.2744
▁המותג	-11.2746
כריש	-11.2749
▁בצוות	-11.2755
ארון	-11.2758
▁השתנת	-11.2759
▁מעמיק	-11.2764
רכוש	-11.2778
קאס	-11.2778
▁בינוני	-11.2792
▁ביוני	-11.2797
▁פיצ	-11.2816
כזו	-11.2818
ודאות	-11.2823
▁בראו	-11.2823
▁שהגעת	-11.2831
איסט	-11.2844
▁הפסיכולוגי	-11.2845
התלונ	-11.2852
▁חמים	-11.2859
אקלים	-11.2874
▁סולרי	-11.2885
▁האולטימטיבי	-11.2887
▁קוגניטיבי	-11.2887
אידיאולוגי	-11.2887
סובייקט	-11.2887
▁מתוסכל	-11.2887
איפשהו	-11.2888
▁מעריצ	-11.2889
ויראלי	-11.2891
▁הגיבור	-11.2892
▁זרימת	-11.2895
▁באפשרות	-11.2897
▁יהודי	-11.2902
▁זורם	-11.2903
▁בחייהם	-11.2904
▁להודו	-11.2909
מדוייק	-11.2911
▁ולשנ	-11.2912
שחפת	-11.2917
▁לסמ	-11.2917
▁ונכנס	-11.292
סבון	-11.2922
אוגוסט	-11.2927
קמתי	-11.2929
▁הקדומ	-11.2937
▁אבוד	-11.2937
▁כסא	-11.2942
ערכתי	-11.2943
▁מחשיב	-11.2943
▁מגביר	-11.2953
התקדמות	-11.2956
▁התופע	-11.2958
▁רצפ	-11.2961
▁הורס	-11.2962
▁לניו	-11.2968
הסתדר	-11.298
▁ולמע	-11.2984
מרבית	-11.2985
▁יאפשר	-11.2989
▁דרומ	-11.2991
מאסר	-11.2994
▁פרסמ	-11.3002
▁משתפר	-11.3008
רשימות	-11.3022
▁גורל	-11.3041
▁הוירטואלי	-11.3043
פברואר	-11.3043
גומלין	-11.3043
▁כועס	-11.3043
▁ועובד	-11.3043
▁שיודע	-11.3044
דיאלוג	-11.3044
תרחיש	-11.3044
▁רביעי	-11.3044
▁כוונה	-11.3046
ac	-11.3046
מושכ	-11.3047
תוספת	-11.3048
▁כלכלת	-11.3053
▁הבירה	-11.3062
▁הומצא	-11.3067
מיומנויות	-11.3068
▁מוסר	-11.308
▁להכיל	-11.3082
קליק	-11.3083
▁אלמוג	-11.3084
▁מכינ	-11.3084
דמעות	-11.3085
▁פורצ	-11.3088
מכירה	-11.309
▁טרם	-11.3094
עקבו	-11.3097
מבקר	-11.3097
▁רצוע	-11.3101
תחברו	-11.3102
▁הציפי	-11.3104
▁ומאפשר	-11.3106
למעלה	-11.3107
PS	-11.3112
▁סיטי	-11.3112
מעין	-11.3115
▁מרובע	-11.312
▁להדג	-11.3122
▁32	-11.3126
▁ארוע	-11.3126
▁סמית	-11.313
סוהר	-11.313
▁דוחפ	-11.314
▁גלוי	-11.3151
יבינו	-11.3161
▁מתקפ	-11.3166
▁להתח	-11.3176
▁הצפ	-11.3186
▁שמדבר	-11.3187
▁להתערב	-11.3189
▁התלמיד	-11.3196
▁מלכתחילה	-11.3202
▁מהונדס	-11.3203
▁במלוא	-11.3203
סיפוק	-11.3205
אוקסיט	-11.3205
▁בבעלות	-11.3205
התפוצצ	-11.3207
גאוגרפי	-11.3208
פצצות	-11.3208
מסעדות	-11.3209
מונט	-11.3209
▁ליברלי	-11.3215
▁הפתיח	-11.3218
▁במחלק	-11.3221
▁לנקות	-11.3225
חבק	-11.3228
es	-11.3229
▁בחוף	-11.3232
▁מועבר	-11.3234
צמיד	-11.3234
▁שזכ	-11.3245
▁95	-11.3247
.4	-11.3252
▁פגיש	-11.3254
כשהוא	-11.3256
▁טד	-11.3258
התרכז	-11.3258
ניצול	-11.3259
▁קשת	-11.3281
▁ומקבל	-11.3281
כרגע	-11.3288
ילכו	-11.3288
ציין	-11.329
▁יצרני	-11.331
▁תחלי	-11.3315
▁בתעשי	-11.333
▁אייפו	-11.3332
ידכם	-11.3334
▁זורמ	-11.3335
▁הורד	-11.3337
ולמות	-11.3345
ממלכת	-11.3362
▁מרוכז	-11.3363
▁הגולמי	-11.3363
▁מוזיקלי	-11.3363
פרדיגמ	-11.3363
▁והעובד	-11.3363
▁גולף	-11.3363
▁קשוח	-11.3364
שגריר	-11.3364
▁צועד	-11.3364
▁תמורת	-11.3364
▁צנוע	-11.3366
▁רוחב	-11.3366
86	-11.3368
כאוס	-11.3369
▁יביא	-11.3369
רכיש	-11.338
פיקסל	-11.3383
חושך	-11.3389
▁שראו	-11.3391
פגשו	-11.3425
▁נזקק	-11.3428
▁קשיח	-11.3436
▁והבנ	-11.3448
מיזוג	-11.3449
סבלנות	-11.3457
▁צבעוני	-11.3458
▁מותר	-11.3462
עשור	-11.3473
▁המגנטי	-11.3489
▁מתוכ	-11.35
▁חומצ	-11.3516
▁שתעש	-11.3519
▁הקולקטיבי	-11.3527
אנרגיית	-11.3527
▁הפדרלי	-11.3527
▁חינוכי	-11.3527
▁אובייקטיבי	-11.3528
▁בהתחשב	-11.3529
▁והופכ	-11.3529
▁מפסיד	-11.3529
▁ליכולת	-11.3529
מדריך	-11.353
▁שואפ	-11.3531
as	-11.3532
נקר	-11.3534
▁הניחו	-11.3535
▁עקרוני	-11.3537
▁הוראות	-11.3537
▁אופצי	-11.3542
קפיט	-11.3544
▁הבשור	-11.3544
משאית	-11.3545
▁הקורס	-11.3547
תמכו	-11.3549
▁ולעבוד	-11.3557
▁המקצועי	-11.3562
לינארי	-11.3564
אנונימי	-11.3569
▁מוקפ	-11.3571
▁זיכרו	-11.3573
▁להגנ	-11.358
ניום	-11.3583
▁ממלי	-11.3591
▁להטיל	-11.3591
▁יישומ	-11.3595
▁26	-11.3601
▁סולל	-11.3601
▁קיוו	-11.3609
▁כלכלני	-11.3611
ביטוי	-11.3624
72	-11.3641
אמפ	-11.3647
להעניק	-11.3649
מפתח	-11.367
ir	-11.3677
משפחתו	-11.3681
▁ואותו	-11.3681
בגרות	-11.3683
▁בתחרות	-11.3693
▁שביכולת	-11.3694
ארגנטינ	-11.3694
▁הקלאסי	-11.3694
עיסוק	-11.3694
פיזיולוגי	-11.3694
▁צומח	-11.3695
▁הכיוונים	-11.3695
▁רעל	-11.3699
מסגד	-11.3701
▁למוצר	-11.3709
▁כשהגעת	-11.371
פרשנות	-11.3711
▁הטיסה	-11.3712
▁לקצה	-11.3714
▁מתנהל	-11.3718
▁ניקול	-11.3723
ED	-11.3724
אינסול	-11.3725
▁העונ	-11.3727
נביא	-11.3735
▁בתחומ	-11.3737
שתגע	-11.3738
▁הירי	-11.374
▁החני	-11.3745
רגנ	-11.376
ענין	-11.3768
התחייבו	-11.3774
▁ערימ	-11.3778
צריכת	-11.3782
▁סיימת	-11.3787
▁אסטרואיד	-11.3789
▁אחיד	-11.3793
חגיג	-11.38
▁ובשנ	-11.3824
מעשים	-11.3828
▁סרטני	-11.3828
▁הפרח	-11.3857
אולימפיאד	-11.3863
סכיזופרני	-11.3863
▁שמבוסס	-11.3863
▁אידיאלי	-11.3863
שקף	-11.3863
▁המפותח	-11.3864
▁בניתוח	-11.3864
▁חייזר	-11.3865
מעורפל	-11.3865
▁התמוטט	-11.3866
▁מנהט	-11.3866
▁למודל	-11.387
עידוד	-11.3871
אנימציה	-11.3873
תעסוקה	-11.3877
▁נודע	-11.3878
▁סמכות	-11.3879
▁נשבר	-11.3881
הילוך	-11.3882
▁ודיבר	-11.3888
נחיתה	-11.3896
▁בקולג	-11.3907
כיבוי	-11.3915
אפליקצי	-11.3923
מחבל	-11.3925
להגיע	-11.3926
▁בשיא	-11.3931
גנוב	-11.3948
קיע	-11.3951
▁ביומ	-11.3956
כויות	-11.3957
כלכלי	-11.3958
סטאן	-11.3967
בחירת	-11.3968
▁הנרי	-11.3968
פלנט	-11.3976
▁המעניינ	-11.3991
et	-11.3996
▁להתעניי	-11.4008
כלול	-11.4009
ארנב	-11.4009
▁גולמי	-11.4036
התקציב	-11.4036
▁נאמנ	-11.4036
▁שמביא	-11.4037
נגיש	-11.4037
200	-11.4039
▁גידל	-11.4039
קטנטן	-11.4039
▁מבעד	-11.405
▁המסחרי	-11.4051
▁שחווי	-11.4052
מינג	-11.4052
▁מבוזר	-11.4052
▁והשאל	-11.4055
תעמול	-11.4056
▁שנחשב	-11.4057
▁המצוי	-11.4057
▁עותק	-11.4058
▁האייפו	-11.4061
▁קופצ	-11.4062
EC	-11.4063
▁מתבצע	-11.4064
▁תשכח	-11.4066
▁מתוכננ	-11.4067
סתור	-11.4075
▁ההורא	-11.4085
דגש	-11.4086
שאיפות	-11.4091
מפעיל	-11.4093
▁סורי	-11.4097
▁משיכ	-11.4101
מילניו	-11.4103
התמודדות	-11.4116
גנטיק	-11.4123
▁שהפכ	-11.4137
סכנת	-11.4138
▁האירופאי	-11.4141
סוכני	-11.4148
נמצא	-11.4163
ממוצע	-11.418
פורמט	-11.4183
▁שסביב	-11.4193
▁ולמרב	-11.4198
לופ	-11.4205
▁טיטא	-11.4208
אינפורמציה	-11.4211
▁גייטס	-11.4211
▁מהעובד	-11.4211
▁ויוצא	-11.4211
▁אובססיבי	-11.4211
▁העומד	-11.4211
▁שכשאת	-11.4211
▁לצערי	-11.4215
▁ההוכח	-11.4225
▁יקום	-11.4225
שמדובר	-11.4226
▁למלחמ	-11.4229
▁ניהל	-11.4229
חימום	-11.423
סטטוס	-11.4232
▁ברונו	-11.4235
▁הפיסי	-11.4236
הולכים	-11.4238
▁תיעוד	-11.424
▁ולפתע	-11.424
▁נכחד	-11.4241
▁חביל	-11.4243
התאהב	-11.4244
▁שאליו	-11.4251
שניהם	-11.4253
נצנ	-11.4254
▁חוף	-11.4256
סרב	-11.426
חבורה	-11.4266
▁ידני	-11.427
עמם	-11.4274
▁המשווא	-11.4275
▁להתכו	-11.4278
חתונה	-11.4289
▁פסק	-11.4295
▁המשותפ	-11.43
▁צפונ	-11.43
▁מותג	-11.4306
ושבת	-11.4316
▁חתכ	-11.4317
קינס	-11.4318
▁מסיר	-11.4326
סימן	-11.4346
▁מתערב	-11.4357
נגיע	-11.4359
▁קיימ	-11.436
שכור	-11.4361
סתיו	-11.4362
18	-11.4376
▁מדכא	-11.439
▁לואיס	-11.439
קונספט	-11.439
▁עומס	-11.4391
▁הגילוי	-11.4391
חמיש	-11.4393
▁הקיימים	-11.4393
צטט	-11.4396
▁שואב	-11.4396
▁חבוי	-11.4396
▁שגרתי	-11.4401
▁מסיימ	-11.4401
▁שמאחורי	-11.4402
אופנוע	-11.4403
▁בשיטה	-11.4403
רמקול	-11.4404
▁הקורא	-11.4404
▁הגבע	-11.4405
▁הוצג	-11.4406
החלפת	-11.4416
תכלית	-11.4417
▁הסבל	-11.4419
▁גרסא	-11.442
▁אנדרו	-11.4423
▁אדוני	-11.4425
▁20,000	-11.443
מקלדת	-11.4433
87	-11.4437
▁הגרמני	-11.4441
▁הפוכ	-11.4441
▁פופ	-11.4445
אסתטי	-11.4445
הוצאה	-11.445
▁מוגבר	-11.4455
▁נישא	-11.4457
זרז	-11.4459
▁הטכני	-11.4466
וננו	-11.4466
התאחד	-11.4469
מוגבל	-11.4482
▁הצרפתי	-11.4486
שמרני	-11.4488
▁נדח	-11.4497
▁שהממשל	-11.4504
38	-11.4506
▁הדמ	-11.4511
התלהבות	-11.4513
מכתב	-11.4515
▁סנד	-11.4519
▁קדמ	-11.453
סווג	-11.4533
▁נחוצ	-11.4535
צמיח	-11.455
קצות	-11.4551
נעול	-11.4555
אנטרופיה	-11.4571
בנגלדש	-11.4571
פרוטוקול	-11.4571
▁נועז	-11.4571
▁מבולבל	-11.4571
פרקינסון	-11.4571
פסטיבל	-11.4571
▁ובעזרת	-11.4572
▁הביקור	-11.4572
▁קדוש	-11.4574
▁St	-11.4574
▁בתפקיד	-11.4581
▁אוטיסט	-11.4583
▁לכסות	-11.4585
פרבר	-11.4586
▁ניצל	-11.4586
פקפק	-11.4591
▁במכלל	-11.4591
▁כרוני	-11.4596
▁הייחודי	-11.4599
▁לצוות	-11.46
בוחר	-11.4601
▁הרסני	-11.4603
▁תדאג	-11.4604
▁עונת	-11.4604
▁תצטרכ	-11.4604
הרהר	-11.4607
משכורת	-11.4616
ערמוני	-11.4617
▁בתלת	-11.4617
MA	-11.462
קלקל	-11.4626
ro	-11.4635
פרופסור	-11.4655
אורגני	-11.4662
▁צופ	-11.4665
מפתיע	-11.4666
▁מחא	-11.4671
אכיפ	-11.4679
▁אלקטרו	-11.4683
נשיונ	-11.4687
▁תלכו	-11.4697
▁יישו	-11.4698
▁טריק	-11.4703
▁בממשל	-11.4711
נאצ	-11.4737
▁עצבני	-11.4738
הפריע	-11.4743
▁הסימני	-11.4749
RNA	-11.4756
אינדונזיה	-11.4756
כימותרפי	-11.4756
▁ספונטני	-11.4756
מחויבות	-11.4756
לגיטימי	-11.4757
▁ולהביא	-11.4757
טרוריסטים	-11.4757
▁באסיה	-11.476
▁הבקר	-11.4762
▁חניה	-11.4762
▁כושל	-11.4762
▁העובר	-11.4767
סידור	-11.4774
▁האוניברסיטה	-11.4777
▁לדלת	-11.4781
▁האויב	-11.4784
68	-11.4792
ברוקלי	-11.4798
נדנד	-11.4799
חשבונות	-11.4803
▁רוקד	-11.4805
לוחמים	-11.4805
ניקוי	-11.4823
אצבע	-11.4826
אמריקאי	-11.4833
איכשהו	-11.4841
ראיונות	-11.4842
▁חולפ	-11.4845
▁יליד	-11.4846
דיווח	-11.4855
מפקח	-11.4882
▁פתר	-11.489
▁זנב	-11.4893
▁הבריא	-11.4898
פחמן	-11.4899
נסיוני	-11.4918
▁דגל	-11.4941
אינדיבידואל	-11.4945
▁האבולוציוני	-11.4945
פציינט	-11.4945
▁ההסבר	-11.4945
סינגפור	-11.4945
▁המקובל	-11.4945
▁השלילי	-11.4945
גחלילי	-11.4946
▁מכוער	-11.4947
▁הלוך	-11.4949
תנודות	-11.4951
▁2050	-11.4955
▁חילוף	-11.4956
▁הנזק	-11.4956
▁בילדות	-11.4958
89	-11.4959
▁תומס	-11.4963
▁להתעסק	-11.4965
▁מהודו	-11.4966
▁נישואי	-11.4966
▁ספינת	-11.4967
חבוש	-11.497
▁לסמו	-11.4972
עגול	-11.4974
▁וביקש	-11.4977
▁לווייני	-11.4982
לבניה	-11.5007
זעק	-11.501
▁קודמ	-11.5021
צלצל	-11.5031
▁פרנ	-11.5037
▁לבטח	-11.5038
נורמלי	-11.5039
מאובנים	-11.5043
פלקס	-11.5047
אפשרויות	-11.505
אחז	-11.5052
שולח	-11.5058
מדיום	-11.5059
▁הקישור	-11.5066
שבר	-11.5072
נצטר	-11.5078
▁שפותח	-11.508
תמכרו	-11.5087
▁פנוי	-11.5094
איתור	-11.5096
▁באמונ	-11.5102
▁במשימ	-11.5106
סטנדרט	-11.5116
תמצאו	-11.5116
▁נוטל	-11.5124
ימצאו	-11.5131
אינטליגנטי	-11.5137
אינטנסיבי	-11.5137
פונקציונלי	-11.5137
▁צולמה	-11.5137
▁טביעת	-11.5138
▁ומגיע	-11.5138
▁ההודע	-11.5138
▁יומיומי	-11.5138
▁החזותי	-11.5139
▁אירוני	-11.514
ri	-11.5144
פלנקטו	-11.5145
▁כוונתי	-11.5145
עגבני	-11.5146
▁העקומ	-11.5148
▁ושלישי	-11.5152
▁להסתיר	-11.5153
▁הדיוק	-11.5156
▁בחברת	-11.5156
אתלט	-11.5173
▁שלעית	-11.5175
אובססי	-11.5179
וירג	-11.5184
▁המועצ	-11.5192
צרכנ	-11.5198
▁שהתשוב	-11.52
▁רשיו	-11.5203
▁דיונ	-11.5217
יאטל	-11.5222
השמיים	-11.5224
פתרו	-11.5228
כנסייה	-11.5238
ניסיונות	-11.5247
▁ובריא	-11.5259
li	-11.5261
אידאל	-11.5264
▁לשיא	-11.5282
וויקי	-11.5284
פוליטי	-11.5295
אסונות	-11.5297
חרב	-11.53
▁מוקד	-11.5319
▁הלקוח	-11.532
▁לחתו	-11.5327
מכירות	-11.533
▁אקספוננציאלי	-11.5333
▁משעממ	-11.5333
משוחרר	-11.5333
▁כראוי	-11.5333
▁פמיניסטי	-11.5333
▁מדאיג	-11.5333
צונאמי	-11.5334
▁דיסני	-11.5334
נורווגי	-11.5334
▁הדבש	-11.5335
▁שחוזר	-11.5335
▁במוצר	-11.5336
דפדפ	-11.5336
▁שאיפשר	-11.5337
▁שמשפיע	-11.5337
▁הבטיחות	-11.5338
▁הנדרש	-11.534
▁שדורש	-11.5341
64	-11.5342
▁התוצר	-11.5345
▁שמונע	-11.5346
▁מנותק	-11.5346
▁הוספת	-11.5349
▁מבחני	-11.5355
מפלצת	-11.536
▁נוקש	-11.5363
שהוא	-11.5375
97	-11.5378
מעצר	-11.5388
▁הטונ	-11.542
בזק	-11.5425
שלשול	-11.5431
אוניברסלי	-11.5447
▁טסל	-11.5447
▁ונותנ	-11.5452
▁מזויפ	-11.5467
▁הוגנ	-11.5486
▁אלימ	-11.5487
▁האדיר	-11.5493
▁מחוייב	-11.5501
אינטראקצי	-11.5509
קליפורניה	-11.5531
אנתרופולוג	-11.5533
▁פורמלי	-11.5533
▁ששולט	-11.5534
▁שבעזרת	-11.5534
▁שסיפר	-11.5536
▁ולגלות	-11.5536
us	-11.5537
▁מאוחד	-11.5537
▁הטיעו	-11.5538
▁מתעלמ	-11.5538
▁במגזי	-11.5538
▁והצוות	-11.5538
▁במובנ	-11.5539
▁דוקטור	-11.5539
▁פרופיל	-11.5542
▁מועט	-11.5549
▁בייבי	-11.5549
▁מתישהו	-11.5553
▁מקיימ	-11.5554
▁הסטנדרטי	-11.556
SE	-11.5561
מחוייבות	-11.5566
▁קורב	-11.5577
76	-11.5579
יבוש	-11.5581
אירגוני	-11.5582
תקופת	-11.5584
ונלד	-11.5586
קתולי	-11.5591
▁שברצונ	-11.5591
▁לצעו	-11.5593
▁800	-11.5603
▁השחקני	-11.561
וסיפו	-11.5629
▁מעדי	-11.5644
▁טענ	-11.5644
ישארו	-11.5677
תכננו	-11.5683
לוקצ	-11.5684
יפגש	-11.5688
דופק	-11.5695
התמדה	-11.5697
▁חילו	-11.5699
▁בעיתונ	-11.5704
מפיק	-11.5705
איכר	-11.5705
יעלמו	-11.5706
▁טרא	-11.5714
טנזניה	-11.5737
▁בהסטורי	-11.5738
קעקוע	-11.5738
▁צועק	-11.5738
▁שעוסק	-11.5738
▁מותאמים	-11.5738
▁מעופפ	-11.5738
▁שאפתני	-11.5739
מילימטר	-11.574
תגעגע	-11.574
▁מקדימ	-11.5741
▁שחסר	-11.5742
אנטנ	-11.5742
▁שוויוני	-11.5744
כדורסל	-11.5748
▁מאורגנ	-11.575
גיאולוגי	-11.5753
▁פורח	-11.5754
שתדל	-11.5756
גפיים	-11.5757
וספנו	-11.5758
▁שקורים	-11.576
▁מיכאל	-11.577
כימאי	-11.5774
▁אוניברסיטא	-11.5778
▁מזינ	-11.5781
פאנל	-11.5782
▁האלמנט	-11.5791
▁צילומ	-11.5795
אכז	-11.5796
▁חוסכ	-11.5803
לפטופ	-11.5805
מיחשוב	-11.5807
58	-11.5811
רקדני	-11.5813
כשלונות	-11.582
חפור	-11.5835
תווך	-11.5845
בצק	-11.5854
-16	-11.5861
67	-11.5864
כעת	-11.5864
▁להיווצר	-11.5871
עצמאי	-11.5872
▁תצפי	-11.5878
▁השלמ	-11.5879
2020	-11.5884
הקריב	-11.5904
תנועת	-11.5912
מחדל	-11.5935
▁סכסו	-11.5946
אבעבועות	-11.5946
▁אולטרה	-11.5946
דטרויט	-11.5946
▁היומיום	-11.5946
▁המלכותי	-11.5946
▁מפוחד	-11.5947
▁נגוע	-11.5948
▁ההופע	-11.5949
מאורגן	-11.5949
▁מפוזר	-11.595
▁ולעית	-11.595
▁והגיע	-11.5951
הסתגלות	-11.5951
▁2.5	-11.5952
▁פעלול	-11.5952
▁הטרופי	-11.5953
▁נתקע	-11.5956
חקיקה	-11.5956
▁שיתפ	-11.5964
פשוט	-11.5965
עניש	-11.5969
▁לחוף	-11.5972
▁מעבודת	-11.5972
▁חשופ	-11.5973
נוסחה	-11.5975
ריטורי	-11.5978
אכלתי	-11.6001
82	-11.6023
▁החממ	-11.6059
ויזואלי	-11.6086
התעללו	-11.6128
שיקול	-11.613
▁מנגנוני	-11.6133
התפוצץ	-11.6146
פורסמו	-11.615
ברונקס	-11.6159
▁לגבולות	-11.6159
▁המקביל	-11.6159
▁מסתדר	-11.6159
▁הכפתור	-11.616
תסכול	-11.6161
▁שוכב	-11.6163
▁מיתוס	-11.6164
סמכו	-11.6165
התאבדות	-11.6166
▁למשימ	-11.6166
▁שנועד	-11.6166
▁רוכש	-11.6168
▁2006	-11.6168
▁מקרר	-11.6169
התווכח	-11.6171
▁דולפי	-11.6174
▁השלד	-11.6176
▁שניתנ	-11.6179
▁לכבות	-11.6182
▁במושב	-11.6182
דליפ	-11.6199
▁הגשמ	-11.6218
קפיא	-11.6224
מזכיר	-11.6229
מאפ	-11.6251
▁התעניינת	-11.6252
▁החכמ	-11.6262
▁לשתו	-11.6268
שחר	-11.6274
▁אלקטרוד	-11.6283
היעדר	-11.6286
▁מציד	-11.6299
▁שטויו	-11.6302
רלוונטי	-11.6308
ברידג	-11.6319
ur	-11.6321
▁הממשי	-11.6329
▁לווינ	-11.6334
פסיכ	-11.6336
טרנזיסטור	-11.6376
תחמוצת	-11.6376
▁מדוכא	-11.6376
▁פרימיטיבי	-11.6376
▁ווטסון	-11.6376
▁הקוונטי	-11.6376
▁יפיפה	-11.6376
▁מתפלל	-11.6377
▁העוסק	-11.6377
▁שסובל	-11.6377
▁בבעלי	-11.6377
▁ארתור	-11.6377
▁המיתוס	-11.6377
▁מטופש	-11.6377
▁צולם	-11.6377
▁המפורסמ	-11.6377
▁המבריק	-11.6377
▁שביצע	-11.6378
טורקיה	-11.6379
▁להתחמק	-11.6381
שיפוע	-11.6382
▁נשמר	-11.6382
ניורונים	-11.6384
▁הדינוזאורים	-11.6386
▁בבלוג	-11.6387
▁מפקד	-11.6387
▁קופסאות	-11.6387
תכסיס	-11.6387
#	-12.0053
״	-16.005
%	-16.0051
!	-16.0052
♫	-16.0053
)	-16.0054
—	-16.0055
:	-16.0056
?	-16.0057
&	-16.0058
q	-16.0058
