<unk>	0
<s>	0
</s>	0
▁्	-2.50868
▁,	-3.52307
▁है	-3.79491
▁के	-4.05536
▁और	-4.09239
▁में	-4.29813
ी	-4.32614
▁।	-4.40322
▁	-4.47121
ा	-4.48303
▁हैं	-4.50878
▁से	-4.58859
े	-4.62971
▁की	-4.63025
;	-4.686
▁एक	-4.6972
▁.	-4.70554
▁&	-4.73643
u	-4.80885
▁को	-4.80906
▁प	-4.81351
ot	-4.8146
q	-4.81596
▁क	-4.83736
▁कि	-4.8418
▁&#124;	-5.0155
▁का	-5.05859
▁स	-5.11027
ों	-5.14089
▁यह	-5.15423
▁हम	-5.21253
▁पर	-5.22791
▁इस	-5.2316
▁नहीं	-5.24162
▁या	-5.28282
▁़	-5.32451
▁कर	-5.35541
▁आप	-5.35555
▁मैं	-5.38525
▁जो	-5.40639
▁तो	-5.41469
▁ये	-5.44193
▁था	-5.46239
▁भी	-5.50101
▁व	-5.55533
▁य	-5.65554
▁र	-5.71869
▁लिए	-5.71953
▁उन	-5.73019
▁हो	-5.75379
▁ही	-5.75754
▁उस	-5.825
▁?	-5.83351
▁वो	-5.84049
-	-5.84769
ने	-5.93361
▁बहुत	-5.93434
▁त	-5.93617
न	-5.95496
▁कुछ	-5.98914
ं	-6.01706
▁हूँ	-6.03331
(	-6.06784
▁)	-6.06784
▁सकते	-6.07453
र	-6.08626
▁मुझे	-6.09504
स	-6.13236
▁न	-6.14751
ता	-6.15055
▁जब	-6.16722
▁रहे	-6.1783
क	-6.18713
▁ट	-6.21358
▁ज	-6.25173
▁अपने	-6.26285
▁साथ	-6.26806
▁ने	-6.29317
▁किया	-6.29771
▁थे	-6.30119
▁—	-6.31141
त	-6.31592
▁थी	-6.31959
▁करने	-6.33989
▁करते	-6.40565
▁बात	-6.43376
से	-6.44795
▁द	-6.47057
▁रहा	-6.48245
▁वह	-6.4878
▁तरह	-6.50502
ना	-6.52111
▁इन	-6.53186
▁तक	-6.53502
▁मेरे	-6.53967
▁अब	-6.55307
▁लेकिन	-6.56383
▁बारे	-6.56652
▁वे	-6.57877
▁म	-6.59597
▁हें	-6.60374
▁गया	-6.60544
▁हमारे	-6.63276
▁लोग	-6.63867
▁ध	-6.64644
▁जिस	-6.64924
▁काम	-6.65458
▁:	-6.66525
▁कोई	-6.66556
▁मैंने	-6.68157
▁सब	-6.68701
▁वास	-6.69399
▁हमें	-6.69503
▁साल	-6.70785
▁देख	-6.73207
▁अगर	-6.73647
▁बच	-6.73843
ित	-6.74222
▁जा	-6.75196
▁लिये	-6.7566
का	-6.7585
▁करना	-6.76386
▁ग	-6.77101
▁मे	-6.77428
▁उनक	-6.77906
▁लोगों	-6.78093
▁पास	-6.79859
▁फ	-6.80365
▁ष	-6.80393
▁अच	-6.80998
▁समय	-6.81174
▁आपको	-6.81179
▁दो	-6.8147
ते	-6.81928
▁फिर	-6.82973
▁पहले	-6.83799
▁कार	-6.84036
▁योंकि	-6.85994
▁ति	-6.87766
▁रूप	-6.89015
ियों	-6.89408
द	-6.8994
▁सकता	-6.90101
▁चाहत	-6.91086
▁हमने	-6.9288
▁किसी	-6.93329
▁कहा	-6.93898
▁हर	-6.94458
▁यादा	-6.95237
▁जैसे	-6.95288
▁होता	-6.9768
▁कम	-6.99175
▁ब	-6.99223
▁होगा	-7.0174
▁दुनिया	-7.01902
▁सबसे	-7.01944
▁यहाँ	-7.02179
▁उत	-7.02835
▁ले	-7.03075
▁अपन	-7.03585
▁आ	-7.03596
कर	-7.03621
▁ता	-7.03623
िक	-7.03895
▁रही	-7.0444
▁थ	-7.07306
ओं	-7.0755
▁दिया	-7.07599
▁इसे	-7.07787
▁हुआ	-7.08108
▁तुम	-7.09806
▁ड	-7.09884
ल	-7.12057
▁पता	-7.12309
▁सिर	-7.12951
▁विश	-7.13376
▁बार	-7.13755
▁सम	-7.14084
▁यक	-7.14186
की	-7.14191
ें	-7.15099
▁कैसे	-7.15516
▁बन	-7.15896
▁सा	-7.19518
▁ऐसा	-7.20044
▁होने	-7.21387
▁होंने	-7.21408
▁हमार	-7.2294
▁पूर	-7.23111
▁ण	-7.23302
▁हुए	-7.23633
▁वर	-7.23773
▁नही	-7.24761
▁हैँ	-7.25865
▁करता	-7.26719
▁षा	-7.27374
▁दर	-7.29645
▁-	-7.29949
▁सोच	-7.3008
os	-7.30153
म	-7.30274
ap	-7.3088
▁बाद	-7.31939
▁कभी	-7.3195
▁निर	-7.32048
▁मेरा	-7.32798
▁जीवन	-7.32972
▁श	-7.34823
▁अन	-7.3566
▁जाता	-7.35666
▁लगता	-7.35673
▁आज	-7.35996
ग	-7.36171
▁जिन	-7.38905
▁छा	-7.38951
▁ते	-7.39161
▁बना	-7.39363
में	-7.39595
के	-7.40095
▁सच	-7.40377
▁देश	-7.41915
▁उसके	-7.42113
▁धन	-7.43235
▁बड	-7.4444
▁दिन	-7.44706
▁तब	-7.4537
▁यों	-7.45384
▁मैने	-7.45509
ो	-7.45626
मेरी	-7.46155
▁अलग	-7.47277
▁अ	-7.48309
▁तर	-7.49553
.	-7.50161
▁होती	-7.50176
▁दे	-7.50181
▁कह	-7.5051
▁भ	-7.51242
▁बदल	-7.51312
▁चल	-7.51677
▁मेँ	-7.52196
▁होते	-7.52736
▁तव	-7.52755
ऐसे	-7.52867
▁चीज	-7.52887
▁वार	-7.52949
▁वाले	-7.5348
▁रह	-7.54069
▁हुई	-7.55205
ँ	-7.55341
▁जगह	-7.55841
▁लगा	-7.56031
▁च	-7.56445
▁चाहिए	-7.5714
कि	-7.57397
▁तीन	-7.57457
▁इसके	-7.57599
▁अधिक	-7.57997
▁कई	-7.58185
▁महत	-7.59546
▁रा	-7.60431
▁यवाद	-7.6089
▁शाय	-7.60895
▁ना	-7.60934
को	-7.61743
▁जहाँ	-7.62358
ण	-7.63721
▁मगर	-7.64599
▁चे	-7.64672
▁री	-7.64913
▁इतन	-7.66884
▁अभी	-7.66901
ई	-7.67144
▁आपके	-7.67849
हाँ	-7.6805
▁कारण	-7.68749
▁भारत	-7.68877
▁विचार	-7.7009
▁शुरू	-7.70374
▁तरीक	-7.70907
▁जानते	-7.70972
▁मिल	-7.71302
▁भर	-7.71548
▁करती	-7.71629
▁दूसर	-7.72332
▁शिक	-7.726
▁मक	-7.73499
▁ल	-7.73539
▁ख	-7.73639
▁दी	-7.7373
▁चों	-7.73753
▁यदि	-7.73785
▁जाते	-7.74192
ती	-7.74577
▁मै	-7.74604
▁देखा	-7.74922
▁सकती	-7.74973
▁गयी	-7.7498
▁अपना	-7.75113
सभी	-7.76059
▁समझ	-7.76333
▁हे	-7.76642
▁नाम	-7.77822
▁षण	-7.78718
▁सही	-7.79793
▁फ़	-7.80152
▁ठीक	-7.80156
▁सर	-7.80269
▁घर	-7.81507
▁असल	-7.82211
▁बढ	-7.82402
प	-7.8277
▁भाग	-7.83109
▁ञान	-7.8384
▁रतिशत	-7.83913
▁ह	-7.84315
▁रिया	-7.84768
वल	-7.84824
▁उद	-7.85101
▁मतलब	-7.85637
▁खुद	-7.85643
नी	-7.85791
▁चित	-7.85885
▁!	-7.86068
▁सारे	-7.86252
▁होना	-7.87311
श	-7.87388
▁कहते	-7.87566
▁सरकार	-7.87953
▁शक	-7.8807
▁बाहर	-7.88316
▁आगे	-7.88494
▁गए	-7.88795
▁कल	-7.88804
▁उम	-7.89377
▁यही	-7.89387
ट	-7.8958
▁पानी	-7.89741
▁बस	-7.89842
▁यान	-7.90181
▁देखते	-7.9137
ार	-7.91513
ष	-7.91755
▁रभाव	-7.92594
▁जैसा	-7.92684
▁हँस	-7.9283
▁बर	-7.93448
▁मान	-7.93454
▁ऐसी	-7.93488
▁वपूर	-7.94038
▁बनाने	-7.94461
▁जाती	-7.94871
▁वाली	-7.94922
▁तु	-7.95298
▁विक	-7.95618
▁इसलिए	-7.96267
▁जाने	-7.96514
▁जिसक	-7.96795
▁चार	-7.9736
▁बीच	-7.98
▁उपयोग	-7.98093
▁उसक	-7.98422
▁करेंगे	-7.98912
▁ओर	-7.99177
▁अंत	-7.99293
▁कहानी	-8.00196
▁बिल	-8.00626
▁हंसी	-8.00642
▁विकास	-8.01601
▁अर	-8.01874
▁करें	-8.02124
िस	-8.02428
▁रक	-8.02471
▁तालियाँ	-8.03155
▁दूसरे	-8.0326
ि	-8.03334
▁तस	-8.03507
▁बल	-8.03946
▁सुन	-8.04358
▁बेहतर	-8.06078
▁माण	-8.06336
▁रकार	-8.06373
▁वापस	-8.06839
▁मदद	-8.07361
▁पिछल	-8.07409
▁संस	-8.07697
ब	-8.07873
▁देते	-8.07988
▁देने	-8.08151
▁अस	-8.08326
▁लिया	-8.08372
▁कूल	-8.08521
▁रति	-8.08732
▁अनुभव	-8.08988
▁षे	-8.09992
▁आया	-8.10228
▁मार	-8.10414
▁पूरी	-8.10933
▁जी	-8.11378
ज	-8.1154
▁जन	-8.11751
▁कोशिश	-8.11762
▁सके	-8.11892
▁हमे	-8.11931
▁पड	-8.1246
▁चला	-8.13036
▁हार	-8.13063
▁यम	-8.1321
▁आर	-8.13685
ाल	-8.13775
िष	-8.13881
ंत	-8.14133
▁षित	-8.14511
ोँ	-8.148
▁बिन	-8.14864
▁याद	-8.14932
लिये	-8.14936
▁उदाहरण	-8.15201
माल	-8.15448
▁खोज	-8.16335
▁वस	-8.16624
▁मूल	-8.16916
विष	-8.18203
▁होगी	-8.18261
▁रम	-8.1827
▁मानव	-8.18337
▁अध	-8.18509
▁पहली	-8.18593
ड	-8.18685
▁लड	-8.18896
▁हाँ	-8.1898
▁रयोग	-8.19395
▁वीर	-8.20131
ह	-8.20347
▁गरीब	-8.20713
▁मिला	-8.20756
▁डाल	-8.20758
▁आत	-8.20846
▁वाला	-8.20969
▁चाहिये	-8.21223
▁बनाया	-8.21318
▁पत	-8.21624
▁छी	-8.22125
▁चर	-8.22492
▁हिस	-8.22544
च	-8.22554
शब	-8.22983
▁यात	-8.23435
व	-8.23671
▁हमेशा	-8.23719
▁छे	-8.23779
▁विज	-8.2416
▁अफ	-8.24354
▁फ़िर	-8.24357
▁डॉलर	-8.24358
▁शहर	-8.24613
▁सार	-8.24829
▁भाषा	-8.24836
या	-8.24989
▁राज	-8.25096
▁दूर	-8.25126
▁आपने	-8.25311
▁जाना	-8.25386
▁ला	-8.25407
▁ऊपर	-8.25665
ाई	-8.25851
▁करीब	-8.26334
▁पार	-8.27238
▁तन	-8.27383
▁जल	-8.2768
▁पना	-8.27688
▁पैसे	-8.27695
िंग	-8.28211
ए	-8.28221
▁गये	-8.28369
▁ज़	-8.28425
दार	-8.28592
ियाँ	-8.28763
▁छ	-8.28941
▁देखने	-8.29524
पूर	-8.29958
▁मह	-8.30326
▁रीक	-8.30384
▁हाथ	-8.30446
▁तान	-8.30574
▁लोगो	-8.30788
▁मस	-8.31044
▁किस	-8.31174
▁लगभ	-8.313
▁पहुँच	-8.31363
▁इ	-8.31506
▁छोटे	-8.31652
▁बता	-8.31669
▁होंगे	-8.3199
िश	-8.32055
▁मन	-8.32646
▁नीचे	-8.33074
▁राष	-8.33257
▁कहाँ	-8.3344
▁तकनीक	-8.33746
▁पूछ	-8.33752
▁माँ	-8.34446
▁बदलाव	-8.34453
ीय	-8.34763
▁अंतर	-8.35128
तः	-8.35165
▁सवाल	-8.36354
▁थिति	-8.36838
▁रास	-8.37352
▁वही	-8.37931
▁षक	-8.38011
▁तरफ	-8.38024
▁ए	-8.38302
▁सक	-8.38776
सूस	-8.39074
▁हों	-8.3931
▁ली	-8.39499
▁गलत	-8.39715
▁सी	-8.40123
▁पहल	-8.40244
▁आस	-8.40362
▁पीछे	-8.40391
▁यार	-8.40713
▁सकें	-8.40867
▁पे	-8.41156
िये	-8.41197
▁लक	-8.41398
▁यवस	-8.41783
▁सीख	-8.4259
▁पसंद	-8.42605
▁चीन	-8.42924
▁समाज	-8.42993
▁सामने	-8.43145
▁मैँ	-8.43407
▁लग	-8.4407
▁मशीन	-8.44112
▁डर	-8.44138
▁अक	-8.44141
▁देखिये	-8.44202
▁परिवार	-8.44208
ुरक	-8.44267
▁चा	-8.44643
ेंगे	-8.44746
▁थान	-8.45317
▁बड़	-8.45476
ये	-8.45885
▁करके	-8.4655
▁टी	-8.46631
ारी	-8.46798
▁जानकार	-8.46827
▁टर	-8.46857
▁तैयार	-8.47233
▁लाख	-8.4755
वर	-8.48132
▁तेज	-8.48185
▁तौर	-8.48239
▁खेल	-8.48277
ु	-8.48452
▁रों	-8.48483
▁रश	-8.4923
▁रित	-8.5025
▁विद	-8.50296
री	-8.50374
▁जान	-8.5105
▁देशों	-8.51443
िए	-8.5154
▁वाक	-8.51619
▁शा	-8.52118
▁अंग	-8.52222
एँ	-8.52491
मस	-8.52604
▁थीं	-8.52828
▁मुख	-8.53316
▁मत	-8.54103
▁वक	-8.54707
▁विषय	-8.54752
▁आसान	-8.54848
▁सभ	-8.55008
▁भावना	-8.55772
▁रहते	-8.55928
▁बे	-8.56236
▁धर	-8.56314
▁समूह	-8.56484
िम	-8.56493
ंग	-8.56531
ैश	-8.57166
1	-8.57857
▁षमता	-8.57884
▁छात	-8.57893
▁आते	-8.58666
▁पा	-8.58897
▁महीन	-8.58904
▁उच	-8.58976
▁रिक	-8.59001
▁यु	-8.59034
▁सुना	-8.59188
▁मर	-8.59214
▁तार	-8.59382
▁उनको	-8.59472
▁रस	-8.5954
▁ती	-8.59543
ली	-8.59721
▁दिल	-8.59834
▁निकल	-8.59884
▁यू	-8.60005
▁अभिवादन	-8.60066
▁दोनो	-8.60198
फ़	-8.60603
▁वि	-8.6099
▁तनाव	-8.60996
▁यूटर	-8.61064
▁गई	-8.61271
▁विस	-8.61911
▁अंदर	-8.61941
▁कला	-8.62263
▁देना	-8.62493
▁जहा	-8.62791
ेक	-8.62982
ू	-8.62986
एं	-8.63008
▁शन	-8.63023
▁रोज	-8.63505
▁विशेष	-8.63624
▁इसी	-8.63684
भी	-8.63715
▁रख	-8.63849
▁जिसमे	-8.6398
▁चीज़	-8.64118
▁आये	-8.65322
▁जिनक	-8.65569
▁मुझ	-8.66184
▁आम	-8.6625
▁कंप	-8.66419
▁पष	-8.66494
▁आखिर	-8.66672
▁हूं	-8.66854
▁रकाश	-8.67042
▁समझने	-8.67333
▁लेते	-8.67344
▁योग	-8.67577
▁यालय	-8.67854
▁मात	-8.68035
▁सन	-8.68326
▁छोड	-8.68628
▁&#93;	-8.68643
▁समुदाय	-8.68697
▁पैदा	-8.68902
▁युद	-8.69054
▁दस	-8.69114
▁सोचते	-8.69164
▁निकाल	-8.69555
▁ययन	-8.69718
सित	-8.70012
▁थिक	-8.70103
▁संख	-8.70155
▁&#9	-8.70653
▁जाए	-8.70663
▁पिता	-8.70674
▁वहां	-8.70797
▁ठ	-8.71655
▁दिमाग	-8.71673
▁शरीर	-8.71676
▁आदमी	-8.71854
▁तेम	-8.72439
कुल	-8.72701
▁मा	-8.72824
▁दृष	-8.72834
▁महिला	-8.73018
▁ञानिक	-8.73141
▁दिखा	-8.73432
रीक	-8.73569
▁बंद	-8.73612
▁रोग	-8.73632
▁सालों	-8.73984
▁अल	-8.74113
▁बाक	-8.74158
पन	-8.7445
▁नमून	-8.74798
▁अमेरिका	-8.74984
▁अप	-8.75269
▁आने	-8.75386
▁बतान	-8.75814
▁वातावरण	-8.75866
▁जवाब	-8.75927
ैज	-8.76062
▁देती	-8.76111
▁रात	-8.76182
▁अमरीक	-8.76364
ात	-8.76912
▁♫	-8.76938
▁अद	-8.76966
▁ऊ	-8.7699
▁कहीं	-8.77011
▁पढ	-8.77148
▁रो	-8.77169
▁रिय	-8.77505
ंगे	-8.77505
▁पाया	-8.77686
▁रीय	-8.77705
▁आश	-8.77745
▁जोड	-8.77859
▁किताब	-8.77876
▁छोट	-8.78011
▁शुरु	-8.78023
▁सामा	-8.78047
▁लेने	-8.78706
▁पुरुष	-8.78973
▁कौन	-8.79024
▁आता	-8.79036
ख	-8.79098
▁नागरिक	-8.79131
▁छोटी	-8.79421
▁कुल	-8.79618
▁रोक	-8.79742
l	-8.79787
▁कितना	-8.79903
▁२०	-8.80082
▁सामाजिक	-8.80237
▁चिकि	-8.80635
▁सं	-8.80962
भिन	-8.81028
रिवर	-8.8144
चित	-8.81453
▁नया	-8.81561
▁अरब	-8.81628
▁नि	-8.8192
,	-8.8241
▁मुश	-8.82547
▁बीमार	-8.83178
कार	-8.83326
▁तुलना	-8.83644
▁योजना	-8.83652
▁चाहे	-8.83669
▁परिणाम	-8.83776
▁दिखत	-8.83997
▁बढ़	-8.84292
▁आई	-8.84292
▁जितन	-8.84478
शाली	-8.84721
▁घटना	-8.84773
▁राप	-8.85017
▁ज़रूर	-8.85291
ंद	-8.8541
▁बनाना	-8.85537
▁रण	-8.85549
माध	-8.85612
िया	-8.85707
ाँ	-8.85923
▁संगीत	-8.85969
▁वजह	-8.86008
▁आवश	-8.8601
▁डेटा	-8.86017
▁मीडिय	-8.86073
▁गर	-8.86201
▁धि	-8.86336
▁बी	-8.86363
▁खड	-8.86473
▁देत	-8.86787
▁बताया	-8.87265
▁रंग	-8.87312
▁फिल	-8.87347
▁काफ	-8.88079
▁किल	-8.88181
▁भारतीय	-8.88229
▁आवाज	-8.88358
▁उप	-8.88439
▁रहने	-8.88805
पास	-8.88993
▁पौध	-8.89573
▁इतिहास	-8.89586
▁लगे	-8.89612
▁रेखा	-8.89618
▁रचना	-8.89679
▁संबंध	-8.89875
▁बोल	-8.90106
▁लाय	-8.90549
▁कठिन	-8.90805
▁जरूरत	-8.90996
▁हल	-8.9118
य	-8.91718
▁रणाली	-8.92106
▁मुद	-8.92173
▁भेज	-8.925
▁घंट	-8.92606
मान	-8.92853
ाना	-8.9305
▁सहयोग	-8.9335
▁मनुष	-8.93381
▁आध	-8.93631
▁ओ	-8.93785
▁संभव	-8.93836
िन	-8.94224
▁यता	-8.94437
▁कृति	-8.94649
▁बजाय	-8.94727
▁लम	-8.95171
ूंकि	-8.95172
▁अगले	-8.95353
▁कितने	-8.95687
ंस	-8.95922
▁उपलब	-8.9593
▁टीम	-8.96646
▁तविक	-8.96776
पर	-8.97151
▁चुनौती	-8.97245
▁दों	-8.97331
▁ई	-8.97366
▁रत	-8.97443
▁मिली	-8.97697
▁गति	-8.97744
▁यादात	-8.98326
▁कोशिका	-8.9865
▁सीमा	-8.98684
▁दशक	-8.98767
▁जुड	-8.98797
▁कैस	-8.98939
िल	-8.99131
▁जाये	-8.99343
▁नई	-8.99374
▁नक	-8.99645
▁सेवा	-8.99776
▁सौ	-8.99852
▁निश	-8.99879
▁दुर	-8.99904
▁राम	-9.00009
▁वयं	-9.00095
▁जीव	-9.00255
▁संघ	-9.00473
▁सिद	-9.00638
▁नय	-9.00716
▁पल	-9.00869
▁रोत	-9.0098
▁महान	-9.01017
▁मृत	-9.01162
▁मॉडल	-9.01303
▁साधारण	-9.01304
▁रोबोट	-9.01308
▁रखत	-9.01347
▁अवसर	-9.01424
▁अफ़	-9.01465
▁खर	-9.01827
▁पाने	-9.02435
▁रतिक	-9.02648
▁जटिल	-9.02688
▁हिसाब	-9.02691
▁१०	-9.02796
▁उठा	-9.03029
▁संक	-9.03041
▁देखें	-9.03052
ेवल	-9.03121
▁मिले	-9.03219
▁चुक	-9.03392
▁ढ	-9.03569
▁दें	-9.03716
▁पैर	-9.03918
▁टि	-9.0395
▁देखो	-9.04242
▁आकार	-9.04243
▁थानीय	-9.0429
▁विशाल	-9.04349
ोर	-9.0436
▁पक	-9.05008
▁निवेश	-9.05779
▁खास	-9.05843
▁याय	-9.06284
▁मिलता	-9.06338
▁ज़रूरत	-9.06383
▁दक	-9.06588
▁एल	-9.06642
िप	-9.06853
▁भगवान	-9.06976
▁मामल	-9.06979
▁षम	-9.06993
▁पैसा	-9.07076
▁चाई	-9.0719
ाया	-9.07495
▁चीज़ों	-9.07886
▁बनात	-9.07931
▁उसी	-9.0799
▁अत	-9.08095
▁चक	-9.08201
▁सो	-9.08273
▁हवा	-9.08311
▁लिख	-9.08364
▁संभावना	-9.08378
▁पहचान	-9.08491
▁तित	-9.08496
▁२००	-9.08564
▁भुत	-9.08618
▁खो	-9.08625
▁डी	-9.08649
▁भीतर	-9.08834
▁चेहर	-9.08852
▁रखने	-9.08868
▁समर	-9.09029
▁लिखा	-9.09126
▁परन	-9.09469
ओ	-9.09533
▁जरुर	-9.09574
▁वीकार	-9.09684
ां	-9.09693
▁पाते	-9.09757
▁शुरुआत	-9.0994
▁इंटरनेट	-9.09941
▁गाँव	-9.09949
▁गणित	-9.10034
▁थोड	-9.10127
▁माता	-9.10408
▁रेज	-9.106
▁दवा	-9.10764
▁णय	-9.10795
▁वी	-9.10938
०	-9.10972
ौद	-9.11205
▁दुसर	-9.11526
▁देखेंगे	-9.11712
▁योँ	-9.1186
ॉर	-9.12232
ियन	-9.1281
▁...	-9.12958
▁टिक	-9.13286
▁दृश	-9.13287
▁इंसान	-9.13337
▁कमर	-9.13649
मंत	-9.13703
मे	-9.13959
▁सामन	-9.14047
शिक	-9.14408
▁शोध	-9.14586
▁जीत	-9.14596
मिल	-9.14618
रदर	-9.14725
▁धीरे	-9.14793
तर	-9.14871
▁लो	-9.14896
▁आधारित	-9.14905
▁यापार	-9.14931
िग	-9.15028
ताओं	-9.15256
▁रेस	-9.15282
ैंड	-9.15459
▁दौरा	-9.15677
▁तंत	-9.15818
▁दिलच	-9.16189
ुष	-9.16225
▁रिका	-9.16237
▁पादन	-9.16365
▁नहीँ	-9.16523
▁खड़	-9.16946
▁आन	-9.17503
▁चलते	-9.17545
▁सीखन	-9.17585
०००	-9.17726
▁मौजूद	-9.17754
▁मिनट	-9.17757
▁अनुमान	-9.17761
▁कितन	-9.17869
▁रिस	-9.17882
▁मित	-9.18203
ान	-9.18313
▁सीखा	-9.18685
▁शु	-9.18808
▁पद	-9.18902
▁थोडा	-9.19021
▁षिण	-9.19399
▁लाभ	-9.19469
▁ओह	-9.19482
▁सुधार	-9.19514
▁करोड	-9.19522
▁वाह	-9.19547
▁किसान	-9.19552
▁सह	-9.19624
▁समझत	-9.19901
▁जैस	-9.20003
ंदर	-9.20097
▁बैठ	-9.20112
000	-9.20131
▁यो	-9.20133
▁योगिकी	-9.20249
▁हाल	-9.2029
▁मानत	-9.20396
▁संगठन	-9.20535
▁संरचना	-9.20651
जी	-9.20739
▁तालिया	-9.20992
▁टिकोण	-9.21067
▁इलाज	-9.21074
▁कहन	-9.21099
▁मीद	-9.21134
ीकरण	-9.21157
▁संसार	-9.21232
▁सरल	-9.21456
ूर	-9.21552
▁बेच	-9.2179
▁कहानिया	-9.22067
दर	-9.22361
▁मध	-9.22489
▁खरीद	-9.22641
▁नये	-9.22835
हार	-9.23004
▁रखा	-9.23151
▁बक	-9.23226
▁सान	-9.23254
▁हू	-9.23419
▁बेट	-9.23443
शील	-9.23457
▁पुर	-9.24001
ृद	-9.2403
▁यूरो	-9.24396
▁छोड़	-9.2444
▁चीज़े	-9.24472
▁शुरुवात	-9.24479
▁भोजन	-9.24491
▁बैंक	-9.24511
ंड	-9.24578
नए	-9.24634
▁अकेले	-9.24642
▁सत	-9.2474
▁ऎस	-9.2478
▁खाना	-9.24939
▁अगल	-9.24977
▁पुरान	-9.25146
▁संकेत	-9.25271
यों	-9.25611
▁वजन	-9.26184
▁बिज	-9.26229
▁समाचार	-9.26235
▁दा	-9.26243
▁यावरण	-9.26246
▁जानवर	-9.2628
▁चिन	-9.26361
▁कीमत	-9.2646
▁यूरोप	-9.26647
▁बडे	-9.26864
▁करे	-9.274
▁समान	-9.2751
▁राजनीति	-9.27583
▁उड	-9.27854
▁आशा	-9.27927
▁दिशा	-9.28028
▁खुश	-9.28183
▁यकता	-9.28299
▁कहती	-9.28302
▁उपकरण	-9.28416
▁तीसर	-9.28443
▁आँख	-9.28525
▁अग	-9.28584
▁सौर	-9.28745
▁रेम	-9.28796
i	-9.29132
▁रहता	-9.29257
▁अनुस	-9.29284
▁वनि	-9.29533
▁लगाने	-9.29578
▁साम	-9.29762
▁दिख	-9.29775
▁बाज़ार	-9.29841
▁विदेश	-9.29848
▁रखता	-9.29854
▁थित	-9.29874
▁तिगत	-9.29922
▁युवा	-9.30004
▁३०	-9.30171
▁समझा	-9.30186
ही	-9.30231
▁करो	-9.30744
▁बाल	-9.30988
▁वित	-9.31254
▁पाद	-9.31278
▁नी	-9.31345
▁बड़े	-9.31639
▁सात	-9.31641
▁मायन	-9.31743
▁कीजिये	-9.31988
▁फोटो	-9.323
▁पन	-9.3274
▁खतर	-9.32809
▁जानती	-9.32837
▁ठा	-9.33012
▁शर	-9.33298
ेगा	-9.33307
▁हुय	-9.33318
▁20	-9.3341
▁भाव	-9.33478
▁चलत	-9.33549
▁बदलने	-9.33563
▁बातचीत	-9.33576
▁आधार	-9.33641
▁थोड़	-9.33804
▁जायेगा	-9.33888
▁करोड़	-9.33952
ाफी	-9.34034
▁अंक	-9.34034
▁लड़क	-9.34365
▁चाहूँग	-9.34708
▁याप	-9.34844
▁रयास	-9.34899
▁चुका	-9.3504
▁औरत	-9.35313
▁ञ	-9.35496
▁जलवायु	-9.35499
▁सुबह	-9.35513
ियंत	-9.35513
▁पाँच	-9.35538
▁जायेंगे	-9.35666
▁मिक	-9.35678
▁कंपनी	-9.35783
▁महिलाओ	-9.35815
▁सद	-9.35829
▁वैसे	-9.35888
▁एम	-9.35938
▁देंगे	-9.36012
▁साधन	-9.36147
▁I	-9.36199
▁पताल	-9.36458
ृष	-9.36584
▁जानने	-9.36591
ाते	-9.36631
▁सिखा	-9.36702
▁सप	-9.37078
ुस	-9.37763
▁संप	-9.37788
▁कृत	-9.37825
विश	-9.37879
▁पाए	-9.37882
▁समझना	-9.3822
▁निष	-9.38261
▁रहना	-9.38528
▁फर	-9.38614
▁मेर	-9.38679
▁असर	-9.38741
▁लेक	-9.38794
बल	-9.38796
▁बनाये	-9.39107
ः	-9.39292
▁मुकाबल	-9.3946
▁समाधान	-9.39463
▁वीडियो	-9.39465
▁विरोध	-9.39503
▁आठ	-9.39508
नों	-9.39529
▁लगेगा	-9.39544
▁200	-9.39624
▁नौकरी	-9.39678
▁गिर	-9.40392
▁तुर	-9.40742
▁मिलने	-9.40885
▁मेदार	-9.4099
▁आग	-9.41127
▁आय	-9.41434
▁बाजार	-9.41545
▁जीवित	-9.41687
▁रि	-9.4172
▁खत	-9.41759
▁हड	-9.41801
▁बडा	-9.41956
▁रेरि	-9.41956
▁मौका	-9.42029
दान	-9.4205
▁उसमे	-9.42288
▁बुद	-9.42331
ंकि	-9.42589
▁बा	-9.42722
▁पांच	-9.43333
ीटर	-9.43405
▁अधिकार	-9.43454
ाव	-9.43498
▁उल	-9.4352
▁करुणा	-9.43585
▁अलावा	-9.43626
▁दीवार	-9.4363
▁गाड	-9.43653
▁यवहार	-9.43664
मुच	-9.4377
▁लाल	-9.44004
▁वय	-9.44268
़	-9.44306
ध	-9.44403
▁यूब	-9.44425
▁आकाशगंगा	-9.445
▁गहर	-9.44608
▁तम	-9.44812
धान	-9.45058
▁लगी	-9.45173
▁हज़ार	-9.45386
▁कॉलेज	-9.45723
▁कैंसर	-9.45727
▁इक	-9.45827
▁साहित	-9.45862
▁दिखाया	-9.45872
▁10	-9.46044
▁हफ	-9.4605
▁सैनिक	-9.46094
▁पकड	-9.46107
▁गोल	-9.46188
▁लाइन	-9.46239
ेगी	-9.46345
▁भूल	-9.46375
▁मुक	-9.4645
▁टन	-9.46733
▁लेख	-9.46758
▁वाद	-9.46834
▁तथ	-9.46873
▁एव	-9.46963
▁विकल	-9.47201
ोन	-9.47238
▁रहस	-9.47301
▁तय	-9.47574
▁शानदार	-9.47895
▁बहू	-9.47925
▁कपड	-9.47933
▁सहायता	-9.47954
▁कलाकार	-9.47954
बार	-9.47988
युक	-9.48019
▁लिपि	-9.48029
▁थर	-9.48067
▁चिम	-9.4809
▁लेता	-9.48132
▁रहती	-9.48238
▁छेद	-9.48242
▁खा	-9.48257
▁2	-9.48431
पति	-9.4848
▁सेल	-9.48496
▁टून	-9.48507
तों	-9.48618
गी	-9.4863
▁कदम	-9.48633
ारा	-9.48924
▁लड़	-9.48972
सन	-9.49011
▁जिम	-9.49214
▁दान	-9.49276
▁खिलाड	-9.493
िडियो	-9.49471
नाक	-9.49727
▁निजी	-9.49758
▁उनमे	-9.49829
पित	-9.50038
▁i	-9.50066
▁इलाक	-9.50109
▁संदेश	-9.50122
▁औसत	-9.50124
▁संसाधन	-9.50207
s	-9.5022
▁लंब	-9.50275
▁यास	-9.50535
ाओं	-9.50596
▁बनाई	-9.50765
ति	-9.50986
विद	-9.51219
▁सूख	-9.51337
▁देर	-9.51646
▁मुस	-9.51706
▁चाह	-9.51758
▁मेक	-9.51764
▁गुना	-9.51772
▁काल	-9.52191
▁परेशान	-9.52382
▁TED	-9.52382
▁भूख	-9.52389
▁सीधे	-9.52397
▁अनुदान	-9.52401
▁खबर	-9.52446
▁नियम	-9.52566
टन	-9.52696
▁फोन	-9.52907
▁देखे	-9.52912
▁करेगा	-9.52973
गत	-9.53041
▁१	-9.53185
५	-9.53435
▁हस	-9.53813
▁लाने	-9.53865
▁जमा	-9.53926
▁रगति	-9.53967
▁धार	-9.54279
▁डे	-9.54446
▁मु	-9.54613
▁असाधारण	-9.54707
▁जमीन	-9.5474
पेक	-9.54752
▁लेना	-9.54858
लिए	-9.54948
▁जानत	-9.55161
▁भेजने	-9.55205
o	-9.55272
▁ची	-9.55386
▁लगाता	-9.55414
▁लास	-9.55683
▁चाल	-9.55861
ैर	-9.56035
▁पुराने	-9.56058
किस	-9.56124
▁नर	-9.56304
गार	-9.5655
▁घूम	-9.56633
▁चले	-9.56819
▁औ	-9.56913
ुक	-9.57043
▁बराबर	-9.57095
यी	-9.57225
▁दिखाई	-9.57235
▁टेड	-9.57283
ीन	-9.57446
▁गैर	-9.57616
▁तेज़	-9.57919
▁खोल	-9.58322
रे	-9.58555
दम	-9.58666
▁ढूँढ	-9.58762
▁बनना	-9.58799
▁डॉ	-9.58842
जन	-9.58899
▁तोह	-9.5895
यंत	-9.5914
▁जरूर	-9.59213
▁चुकी	-9.59283
▁बुरा	-9.59378
▁पश	-9.59469
▁बने	-9.59486
▁कागज	-9.59499
▁मोब	-9.59642
▁बिंदु	-9.59798
▁सू	-9.59833
▁उर	-9.5989
▁काफ़	-9.60046
▁हाई	-9.60365
▁नेत	-9.6053
▁नज़र	-9.60712
नैतिक	-9.60772
▁जीन	-9.60873
▁नज़रिय	-9.60878
▁बुर	-9.61151
▁खुले	-9.61344
▁दिखाने	-9.6136
कल	-9.61444
▁अव	-9.6193
▁वसनीय	-9.62046
▁थव	-9.6206
▁जाएगा	-9.62076
▁चुनाव	-9.62076
▁मानवीय	-9.62154
▁सोचने	-9.6222
▁समाप	-9.62383
▁करवा	-9.62415
▁ताकत	-9.62556
▁मल	-9.6281
▁50	-9.6301
▁वै	-9.63091
▁रेक	-9.6314
▁रिश	-9.63394
▁तथा	-9.63425
तृत	-9.6344
वान	-9.63527
▁हु	-9.63599
▁रेग	-9.63616
गा	-9.63744
▁मच	-9.63815
▁१२	-9.63818
▁लगाय	-9.63974
वाह	-9.64128
▁ताह	-9.64301
▁मानसिक	-9.64386
रदान	-9.64406
▁अजीब	-9.64522
▁सिको	-9.64651
ानक	-9.64783
▁मिलती	-9.64919
▁एन	-9.64997
हट	-9.65041
▁परिस	-9.6516
चार	-9.65689
▁रांति	-9.66096
▁विपरीत	-9.67222
▁कोशिकाओ	-9.67234
▁खराब	-9.67243
▁नौ	-9.67252
▁अहसास	-9.67274
▁भूमिका	-9.67298
▁दीजिये	-9.67304
तीत	-9.67572
▁रूस	-9.67596
▁दिए	-9.67717
▁साह	-9.67744
▁यापक	-9.6775
▁रुक	-9.67762
▁चूह	-9.68044
▁रकृति	-9.68063
▁सुर	-9.68463
▁विन	-9.68464
शास	-9.68529
▁लिक	-9.68766
ेट	-9.68816
e	-9.68912
▁रयोगशाला	-9.68914
▁शी	-9.6921
▁भरा	-9.69501
ला	-9.69535
▁यवसाय	-9.69899
▁ईरान	-9.69934
▁भले	-9.69991
▁जिंदगी	-9.70026
▁वीप	-9.70041
▁अभियान	-9.70169
▁१००	-9.7043
▁रजात	-9.70436
रिक	-9.7044
सिद	-9.70468
ुरान	-9.70766
▁मी	-9.70949
▁दु	-9.71026
▁जोख	-9.71243
वादी	-9.71308
▁एस	-9.71457
I	-9.71467
करण	-9.71532
वा	-9.71585
▁आक	-9.71816
▁कब	-9.72042
▁रार	-9.72134
▁सड	-9.72238
ियत	-9.72445
▁ताव	-9.72524
▁सिंध	-9.72704
▁बुनियाद	-9.72722
▁इंजीनियर	-9.72756
▁सिखाया	-9.72774
बाद	-9.72788
▁सांस	-9.72814
▁जर	-9.72828
▁दादी	-9.72879
▁अफगानि	-9.72896
▁कमी	-9.72903
▁तरफ़	-9.72951
▁फैल	-9.72994
▁रुप	-9.72994
▁रोटी	-9.73156
▁भारी	-9.73299
ियां	-9.73388
▁T	-9.73414
ेशन	-9.73586
▁बेहतरी	-9.73787
▁संग	-9.73857
▁गुण	-9.74096
▁हास	-9.74234
▁बह	-9.74293
▁अभ	-9.7435
▁लें	-9.74589
▁नील	-9.74683
▁तेल	-9.74819
▁जाओ	-9.74846
▁बैठे	-9.7511
▁पाठ	-9.75129
ृत	-9.75343
▁सुंदर	-9.75566
▁रोच	-9.75567
▁५०	-9.75577
▁रोशन	-9.75577
टरनेट	-9.75591
▁समुद	-9.756
▁शाम	-9.75617
▁बंध	-9.75805
▁सस	-9.75808
▁माप	-9.75865
रा	-9.75914
▁अनुसं	-9.76017
▁रोध	-9.76058
▁उठ	-9.76139
पिता	-9.76245
▁वाहन	-9.76386
तु	-9.76471
निक	-9.76523
▁परिव	-9.76907
सी	-9.76988
▁बुरी	-9.77069
ंख	-9.77499
पुस	-9.77519
▁बनाए	-9.77579
▁भरे	-9.7758
बित	-9.77801
▁माल	-9.77923
वार	-9.78083
▁दिय	-9.78278
ागू	-9.78286
▁सफल	-9.78441
हसास	-9.78444
▁९९	-9.78502
▁जादू	-9.78506
▁उपचार	-9.78517
▁अधिकांश	-9.78519
▁आदत	-9.7853
▁अवस	-9.78534
▁सारा	-9.78584
▁नंबर	-9.78598
▁यकीन	-9.78664
▁सफलता	-9.78722
ुरत	-9.78766
▁डॉक	-9.78789
▁कानून	-9.78857
▁मौत	-9.78881
▁रीब	-9.78977
▁उतन	-9.79141
ियम	-9.79205
▁धांत	-9.79336
▁जीते	-9.79423
▁डि	-9.79434
▁मिट	-9.7954
▁१५	-9.79699
ै	-9.79789
यें	-9.7997
▁खाद	-9.79975
▁टेक	-9.80008
रिद	-9.80197
संभव	-9.80321
पान	-9.80344
▁षेप	-9.80389
▁थन	-9.80765
रण	-9.81143
वाद	-9.81263
▁सूचना	-9.81346
▁नेता	-9.81456
▁यूँ	-9.81485
▁पृथ	-9.81532
▁अनुवाद	-9.81545
▁बेशक	-9.81546
▁फसल	-9.8155
▁आनंद	-9.81559
▁पैमान	-9.8158
▁आवाज़	-9.81606
▁मिलेगा	-9.81621
▁हवाई	-9.81643
▁सहमत	-9.81658
▁सतह	-9.81744
▁नदी	-9.81841
▁हजारों	-9.81842
▁परिभाषा	-9.81861
ले	-9.82075
▁बढिया	-9.82078
▁संचार	-9.82105
▁चिंता	-9.82291
▁पीड	-9.82504
▁इसमे	-9.82517
▁हद	-9.82529
▁थल	-9.82566
▁बादल	-9.82599
तें	-9.82643
▁रिप	-9.82673
▁लगती	-9.8293
▁पेट	-9.82939
▁ऐ	-9.83377
▁बचा	-9.83425
▁चो	-9.83428
▁आयी	-9.83625
▁डेवि	-9.83802
मय	-9.83826
▁सोचें	-9.84082
▁एं	-9.84107
▁बद	-9.84139
दी	-9.84154
टी	-9.84241
▁खिलाफ	-9.84257
▁हटा	-9.84269
ाइल	-9.84398
▁टुकड	-9.84416
▁उ	-9.84421
▁फ़र	-9.84427
▁जोड़	-9.84478
▁रौ	-9.84489
ुम	-9.84543
▁साक	-9.84599
▁रेरणा	-9.84632
▁बावजूद	-9.84657
▁राचीन	-9.84657
▁पड़ेगा	-9.84821
▁यूरॉ	-9.84851
▁रोज़	-9.84959
▁शासन	-9.84978
▁फूल	-9.84981
▁१९	-9.85031
▁किए	-9.8516
▁बनी	-9.85333
▁बीमा	-9.85353
er	-9.85521
▁राय	-9.85581
ाहिर	-9.85705
▁छवि	-9.85716
▁आए	-9.85868
▁हाला	-9.86229
▁सुक	-9.864
▁फ़िल	-9.86436
▁खात	-9.8686
ुर	-9.87044
डी	-9.87399
कारी	-9.87735
▁रद	-9.87857
S	-9.87861
▁उपाय	-9.8789
ौलिक	-9.8792
▁साइकिल	-9.87944
▁खून	-9.88033
▁धरती	-9.88065
▁दूरी	-9.88069
▁हृदय	-9.8807
▁जे	-9.88247
▁दगी	-9.8826
▁बताते	-9.88425
▁चढ	-9.88439
▁लेट	-9.88443
▁मोह	-9.88557
▁नज	-9.88682
▁टीव	-9.88855
▁टम	-9.88983
दिन	-9.89163
▁सकार	-9.89282
पोषण	-9.8942
हित	-9.89658
▁सेना	-9.89691
तंत	-9.89717
▁दोष	-9.8975
▁तरी	-9.89765
▁पीढ	-9.89786
▁दौड	-9.89859
▁पति	-9.89876
▁लगत	-9.90143
णु	-9.90194
इ	-9.90479
▁करूँ	-9.90571
▁3	-9.90778
▁जेल	-9.90791
▁धान	-9.90874
▁पूँजी	-9.90892
▁डिजाइन	-9.90981
▁पकड़	-9.90991
६	-9.91127
▁सामूहिक	-9.91215
▁मौसम	-9.91216
▁मेहनत	-9.91216
▁टाचार	-9.91221
▁सुपर	-9.91239
▁संवाद	-9.9129
▁बीज	-9.91331
▁इंग	-9.91339
▁आदर	-9.91393
▁नें	-9.91406
▁बेह	-9.91414
▁बोस	-9.91441
▁ऐस	-9.91478
▁सोचिये	-9.91497
ाने	-9.91512
▁कहेंगे	-9.91556
▁४०	-9.92271
▁A	-9.92392
▁रिम	-9.92433
िटी	-9.92499
ून	-9.92588
▁नेट	-9.92931
▁धारणा	-9.93193
▁ऑ	-9.93268
ताब	-9.93303
▁तोड	-9.93309
A	-9.93354
वे	-9.93392
भूमि	-9.93419
▁गु	-9.93834
ेड	-9.94142
ौर	-9.94167
▁पढा	-9.94267
▁पुनर	-9.94594
▁पागल	-9.94671
▁पुलिस	-9.94678
▁सहानुभूति	-9.94678
▁ऊतक	-9.94705
▁आदि	-9.94734
▁संवेदना	-9.94734
▁टूट	-9.94772
▁अमीर	-9.94817
▁जहाज	-9.94833
ायेंगे	-9.94837
▁रतीक	-9.94855
▁डाट	-9.94973
▁घाट	-9.95072
▁रेष	-9.95086
▁रता	-9.95135
▁बचाने	-9.95282
▁वज	-9.95322
▁मांग	-9.95393
किन	-9.95618
▁रेड	-9.95655
▁काट	-9.95835
फ	-9.96236
▁रिट	-9.96393
▁सीम	-9.9646
▁धा	-9.9648
D	-9.96566
ंडा	-9.96579
▁आँकड	-9.96842
▁यूय	-9.97209
▁ठहाक	-9.97258
▁थक	-9.97359
▁छत	-9.97365
ड़	-9.97479
पमान	-9.97623
वाले	-9.97719
▁30	-9.97774
▁गहरा	-9.97982
▁रखन	-9.97984
▁रिंट	-9.98008
▁दुकान	-9.98208
▁गंभीर	-9.98235
▁इमारत	-9.98235
▁मछल	-9.98236
▁मजबूत	-9.98244
▁रेज़ी	-9.98265
▁कैमर	-9.9832
▁..	-9.984
ुनि	-9.98418
ीदा	-9.98437
▁२	-9.98512
मैन	-9.98688
▁हिंसा	-9.98738
▁नुक	-9.9875
वालों	-9.98774
मर	-9.98826
▁बदला	-9.98934
▁थना	-9.99104
▁४	-9.99123
ज़	-9.99212
ाईल	-9.99234
▁बाँट	-9.99316
▁नाइजीरिया	-9.99443
▁दौर	-9.9946
तक	-9.99534
▁बढा	-9.99552
ामग	-9.99559
▁राहक	-9.99559
▁नकल	-9.99593
▁भव	-9.99677
▁बीस	-10.0005
▁सहज	-10.0013
▁तत	-10.0021
▁१८	-10.0028
▁परि	-10.0029
▁तरंग	-10.0032
▁पोस	-10.0037
मुख	-10.0039
▁महा	-10.004
▁लौट	-10.0046
▁हसी	-10.0048
▁पिक	-10.0052
▁मेल	-10.0056
▁वाल	-10.0067
▁सिक	-10.0068
▁चय	-10.0068
वन	-10.0073
▁नजर	-10.0082
▁खै	-10.0091
ाम	-10.0096
▁D	-10.0109
ीव	-10.011
▁किन	-10.0115
▁कीड	-10.0117
▁डिज	-10.013
▁जुड़	-10.0133
बी	-10.0174
▁रीन	-10.018
▁सलाह	-10.0192
▁डूडल	-10.0194
▁रुचि	-10.0195
▁अपराध	-10.0196
▁योगदान	-10.0197
▁महाद	-10.0198
ठ	-10.0199
▁फैसला	-10.02
▁चुप	-10.0201
▁हि	-10.0203
▁पड़ता	-10.0214
▁बनायी	-10.0216
▁बताती	-10.0221
▁शे	-10.0229
▁चाहूंगी	-10.0231
▁मील	-10.0237
ूक	-10.0242
टिंग	-10.0271
▁अति	-10.0275
▁M	-10.0281
▁ताल	-10.0288
▁उतार	-10.029
▁याल	-10.0291
▁ठहाके	-10.0296
▁सिस	-10.0315
▁खाने	-10.0326
▁गल	-10.0333
▁राफ	-10.0335
▁सड़क	-10.0347
▁युक	-10.0349
वास	-10.0352
▁कप	-10.0377
िकीय	-10.0377
मार	-10.0381
▁चिपका	-10.04
5	-10.0434
▁घान	-10.0439
ुल	-10.049
▁अनु	-10.0493
▁चुन	-10.0501
▁खेत	-10.0521
▁लोकत	-10.0521
▁१९८	-10.0528
▁भेजा	-10.0536
▁सबूत	-10.0579
▁सुझाव	-10.0579
▁सीधा	-10.0579
जेनेस	-10.058
▁यायाम	-10.058
▁मलेरिया	-10.0581
▁ढाँच	-10.0581
▁पीड़ित	-10.0583
ैनिक	-10.0589
▁यहूद	-10.059
▁कृप	-10.0593
▁जाएँ	-10.06
▁घुटन	-10.06
▁भाई	-10.0615
▁देगा	-10.0622
▁टेट	-10.063
▁तुत	-10.0632
▁हिम	-10.0638
▁एड	-10.0641
▁मीन	-10.0643
▁लिंग	-10.0652
▁कॉल	-10.0664
▁तमान	-10.0673
▁कहानिय	-10.0682
▁12	-10.0699
▁णन	-10.0712
▁4	-10.0712
बा	-10.072
लेट	-10.0722
▁जनता	-10.0734
▁लगने	-10.0736
ेटिक	-10.0739
▁लेन	-10.0747
▁जानन	-10.0749
▁रेट	-10.075
माम	-10.0767
िवार	-10.0779
धिक	-10.0783
▁३	-10.0793
8	-10.0805
▁पहुँचा	-10.0808
▁खतरा	-10.0822
▁टे	-10.0824
भाल	-10.0831
▁आकृति	-10.084
▁मिस	-10.0845
▁मचार	-10.0846
वाला	-10.085
▁भौतिक	-10.0852
ुड	-10.0881
दो	-10.0883
▁रखे	-10.0884
टल	-10.0901
बद	-10.0904
▁रिवर	-10.0912
शन	-10.0918
वीं	-10.0926
▁जितने	-10.0927
▁नामक	-10.0943
▁1	-10.0948
▁णता	-10.0954
कभी	-10.0961
▁बहु	-10.0963
▁देखी	-10.0971
कट	-10.0974
▁गूगल	-10.0978
▁वाशिंग	-10.0978
▁रतियोगिता	-10.0978
▁डिजिट	-10.0979
▁भयानक	-10.0979
▁सावधान	-10.098
▁ज़ाहिर	-10.0982
▁विमान	-10.0986
▁दोलन	-10.0986
▁जांच	-10.0987
▁खुल	-10.0989
▁लू	-10.0997
▁एशिया	-10.0997
▁बनाती	-10.1007
मेंट	-10.101
▁खिल	-10.101
▁अंश	-10.1012
▁चिल	-10.1015
▁परियोजना	-10.1018
पोर	-10.1024
▁नाटक	-10.1025
▁पूछते	-10.1044
▁रेन	-10.1053
▁मज़े	-10.1056
ाएँगे	-10.1059
ांथ	-10.1065
▁शित	-10.1086
ड़ी	-10.1106
▁बज	-10.1129
ांक	-10.1138
▁अंतरि	-10.1148
▁रूरत	-10.1163
▁आंकड	-10.1168
नीय	-10.1174
▁टिन	-10.1178
ास	-10.125
संख	-10.1253
▁लाम	-10.1258
3	-10.1269
▁रोस	-10.1278
▁६	-10.1307
▁८	-10.1309
▁दू	-10.1324
▁शो	-10.1338
▁दिखात	-10.1345
▁ाई	-10.1365
▁माइक	-10.1386
▁पहाड	-10.1389
▁ओबामा	-10.1395
▁शारीरिक	-10.1396
▁फ़ैसल	-10.1396
▁ञात	-10.1399
४	-10.1399
▁पशु	-10.1404
▁झ	-10.1405
▁पालन	-10.1413
▁ढूंढ	-10.1416
▁ज़रिय	-10.1425
▁चली	-10.1427
▁रांस	-10.1428
▁कैद	-10.1429
▁पहन	-10.1436
▁करूँगा	-10.1437
▁बाधा	-10.1438
▁होंग	-10.1441
▁रहेगा	-10.1449
इये	-10.1459
▁रीट	-10.1464
▁किनार	-10.1467
▁अमेरिकी	-10.1475
▁लेखक	-10.1484
▁रे	-10.1488
बु	-10.1489
▁बोलने	-10.1489
▁खुला	-10.1514
मी	-10.1525
▁समक	-10.153
▁भूमि	-10.1541
▁मना	-10.1547
ेंट	-10.1562
▁टता	-10.1577
यात	-10.1583
▁भय	-10.1634
२	-10.1643
▁इज	-10.1644
▁दुख	-10.1647
वीरे	-10.1652
▁पढ़	-10.1667
▁पडा	-10.1695
▁मू	-10.1703
शक	-10.1706
▁सकूँ	-10.1717
▁ऑन	-10.1734
कलन	-10.1744
▁सुलझा	-10.1756
▁योगिक	-10.1757
▁जनस	-10.1757
काल	-10.178
▁िया	-10.1798
▁राथमिक	-10.1813
▁२०१	-10.1825
▁दरअसल	-10.183
▁षपात	-10.183
▁रारंभ	-10.183
▁नुकसान	-10.183
▁इधर	-10.1831
▁पारंप	-10.1834
▁रेफस	-10.1834
▁बो	-10.1835
▁संचाल	-10.1835
▁लेषण	-10.1841
▁शादी	-10.1841
▁यौन	-10.1842
▁गेम	-10.1848
▁15	-10.1848
▁मंच	-10.1849
▁रोमांचक	-10.1852
▁लात	-10.1855
▁रूर	-10.187
▁थापना	-10.1881
▁ान	-10.1893
▁देशो	-10.1898
▁रधान	-10.1902
▁थिरता	-10.1909
▁कारक	-10.1912
▁शास	-10.1972
▁साहस	-10.1983
▁दिखेग	-10.2002
▁मौक	-10.2007
▁S	-10.2015
▁दिला	-10.2027
ॊं	-10.2044
ील	-10.2055
0	-10.206
इन	-10.2079
▁लडक	-10.2086
▁वन	-10.2108
▁पाये	-10.2141
ायब	-10.2155
बर	-10.2162
▁चिंत	-10.2175
▁दबा	-10.2182
▁कु	-10.219
▁ओक	-10.2195
▁केलिए	-10.2211
▁वत	-10.2218
▁थिर	-10.222
▁यूट	-10.2222
धारित	-10.2227
▁झु	-10.2241
▁टू	-10.2255
दस	-10.2261
▁डार	-10.2277
हीन	-10.2282
▁ज़मीन	-10.2284
▁अनोख	-10.2285
९	-10.2286
▁बजट	-10.2289
▁विल	-10.2291
▁ऊँच	-10.2291
▁टांग	-10.2291
▁ताक	-10.2292
▁आराम	-10.2297
▁फोटोग	-10.2301
▁पैट	-10.2303
बू	-10.2308
▁बोली	-10.2311
ालय	-10.2312
▁खाली	-10.2316
▁सु	-10.2322
▁रान	-10.2333
▁वैसा	-10.2339
▁पादक	-10.2349
▁उग	-10.2351
ोनो	-10.2357
▁मसल	-10.2365
▁ऑक	-10.2374
▁बोर	-10.2404
▁पेड	-10.2414
▁सपने	-10.2419
▁पात	-10.2431
▁मास	-10.2436
▁तट	-10.2452
▁निया	-10.2455
ेयर	-10.2457
तम	-10.2462
▁रहें	-10.2468
▁गुणव	-10.2475
▁बूढ	-10.2483
9	-10.2484
▁सुनी	-10.2504
ैक	-10.2513
▁पाता	-10.2581
पे	-10.2595
िज	-10.2609
▁डालत	-10.2626
▁भरोस	-10.2658
थ	-10.267
▁टोन	-10.2676
िट	-10.2685
▁सॉफ	-10.2688
2	-10.2709
▁40	-10.2714
▁बहन	-10.2715
▁राह	-10.2716
▁खतरे	-10.2739
▁अरे	-10.2751
▁यस	-10.2753
▁अंदाज	-10.2757
▁आंदोलन	-10.2761
▁परमाणु	-10.2761
▁विवरण	-10.2761
▁लघु	-10.2761
▁असफल	-10.2762
▁आज़ाद	-10.2762
▁ञापन	-10.2762
▁कृषि	-10.2764
▁अनुमत	-10.2765
▁आतंकवाद	-10.2767
▁उपदेश	-10.2768
6	-10.2771
▁सीधी	-10.2777
ेँ	-10.2777
▁कट	-10.2778
▁रिड	-10.2785
▁टाइम	-10.279
▁धीम	-10.2791
ंगी	-10.2797
▁घन	-10.2798
▁बजा	-10.2799
▁अनेक	-10.2801
▁बहस	-10.2807
▁पढाई	-10.2808
▁मुम	-10.2809
▁आधी	-10.2812
▁जंगल	-10.2824
▁भेजते	-10.2847
▁बिक	-10.2848
▁दिखान	-10.2848
▁वाइ	-10.285
ोत	-10.2853
▁टोर	-10.2889
▁षर	-10.2909
▁रेल	-10.2911
▁परिक	-10.2916
▁महिलाये	-10.293
▁खी	-10.2935
▁डा	-10.2953
▁साझ	-10.2964
▁आयु	-10.2965
▁विच	-10.297
▁पेश	-10.2988
▁चीजे	-10.2991
▁अतिर	-10.2994
▁सफ	-10.3013
▁साफ	-10.3023
सर	-10.303
▁तैर	-10.3033
▁सबक	-10.3034
▁लहर	-10.3035
तिहा	-10.3045
▁गान	-10.3057
खिला	-10.3064
▁टार	-10.3083
▁लाग	-10.3089
▁अम	-10.3098
यन	-10.311
▁दल	-10.3119
▁माना	-10.3135
▁९०	-10.3148
▁संपत	-10.3154
वेश	-10.3162
▁यूम	-10.3163
१	-10.3168
▁बदले	-10.3175
▁आधा	-10.3178
▁हा	-10.3191
▁६०	-10.3193
लेक	-10.3206
ँग	-10.3208
▁शिकार	-10.3214
▁आओ	-10.3236
▁अहम	-10.3237
▁संवेदनशील	-10.3238
अथ	-10.3239
▁११	-10.3246
तीय	-10.3261
▁सटीक	-10.3261
▁लियोन	-10.3261
▁गुफा	-10.3261
▁चाँद	-10.3261
▁बॉ	-10.3263
▁परिचित	-10.3263
▁मोड	-10.3265
▁रणनीत	-10.3265
▁सहारा	-10.3266
▁ढेर	-10.3266
▁निहित	-10.3267
ूल	-10.3268
टा	-10.3268
▁ज़ोर	-10.3269
▁अणु	-10.327
▁युग	-10.327
▁अवरोध	-10.3271
लो	-10.3272
▁नगद	-10.3276
▁मैदान	-10.3277
▁टेम	-10.3279
▁गोलि	-10.3282
▁मोटर	-10.3286
▁पहुंच	-10.3286
▁शाट	-10.3286
▁यूनि	-10.3286
▁आहार	-10.3288
▁फेस	-10.329
▁बचाव	-10.3297
टरी	-10.3315
▁वृत	-10.3315
▁25	-10.3317
▁अकेला	-10.3318
▁कीजिए	-10.3324
▁रबंधन	-10.3325
७	-10.3331
▁घरेल	-10.3349
▁शांति	-10.335
▁रूम	-10.3365
ूँगा	-10.3378
▁करनेवाल	-10.3386
▁रोगी	-10.3386
ीजिये	-10.3412
▁मैन	-10.3426
▁घा	-10.3432
▁नास	-10.3433
▁पडता	-10.3448
▁कृतिक	-10.345
▁मोन	-10.3515
▁सिट	-10.3534
▁सूर	-10.3543
▁छुप	-10.3552
ॉप	-10.3557
▁टो	-10.3559
▁सुविधा	-10.3571
ॉन	-10.3593
▁निराश	-10.3598
▁इनका	-10.3599
▁नाप	-10.3604
▁कही	-10.3605
▁जड	-10.3613
▁दाव	-10.3624
▁खुशी	-10.3642
▁रोल	-10.3649
▁षिक	-10.365
िंदगी	-10.3651
▁कहूँग	-10.3653
▁बैठा	-10.3654
▁चालक	-10.3661
B	-10.3666
▁समन	-10.3677
▁सूच	-10.3684
▁पड़ा	-10.369
▁शात	-10.3693
▁अख	-10.3706
ानी	-10.3725
▁पराग	-10.373
▁कंपनिय	-10.374
▁गार	-10.3743
▁सैन	-10.3744
िवर	-10.3744
▁जाँच	-10.3749
मित	-10.3763
▁100	-10.3763
▁रमाण	-10.3766
▁कश	-10.3779
▁तालिबान	-10.3787
▁परिचय	-10.3787
▁पचास	-10.3787
▁इंतज़ा	-10.3787
▁बहोत	-10.3788
▁रेंच	-10.3788
▁तालाप	-10.3789
▁राइव	-10.3791
▁ख़ास	-10.3792
▁जैविक	-10.3793
▁टवेयर	-10.3794
वित	-10.3794
▁राशि	-10.3798
▁वरूप	-10.381
▁रचार	-10.3813
▁घट	-10.3814
▁इशार	-10.3819
▁चमक	-10.3821
ृंखल	-10.3821
▁खींच	-10.3825
▁जॉन	-10.3835
▁जु	-10.3839
▁मानक	-10.3845
▁रोड	-10.3849
▁जंग	-10.3853
ुद	-10.3855
▁२५	-10.3871
▁रव	-10.3885
▁षीय	-10.3887
ॊ	-10.389
▁सोचती	-10.3894
▁पोक	-10.3902
गर	-10.3913
▁पडेग	-10.3931
▁लान	-10.3942
▁नीति	-10.3954
विज	-10.3971
▁निराशा	-10.3984
▁पीढी	-10.401
▁रखी	-10.4011
▁रू	-10.4043
▁पाती	-10.405
▁करूंग	-10.4056
▁फल	-10.4057
▁नैतिक	-10.406
▁दूँग	-10.4076
▁बनते	-10.4076
जिज	-10.4086
▁मैक	-10.4129
▁उपर	-10.4132
ियर	-10.4168
ूंग	-10.4169
राष	-10.4179
भूत	-10.42
▁दोहरा	-10.4204
▁कैन	-10.4213
▁मश	-10.4217
▁इनमे	-10.4225
▁डो	-10.4252
▁लि	-10.4253
वरी	-10.4253
▁पनी	-10.4273
▁कथा	-10.428
८	-10.4298
▁भेजे	-10.4301
▁रवा	-10.4315
▁चाहें	-10.4333
▁जागरूक	-10.4343
▁वाभाविक	-10.4343
▁परंपरा	-10.4343
▁रामीण	-10.4343
▁पेशेवर	-10.4344
▁ताकतवर	-10.4347
▁रसायन	-10.4357
▁मिलेगी	-10.4358
▁चाहेंगे	-10.4358
▁संकट	-10.4361
तिहास	-10.4362
▁वाप	-10.4369
▁शरण	-10.4371
▁दवाई	-10.4371
▁सघन	-10.4372
▁युटर	-10.4376
िका	-10.4379
▁लिश	-10.4385
▁टोप	-10.4387
▁मानसिकता	-10.4391
आ	-10.4397
▁गाड़	-10.4399
▁रय	-10.4401
▁रेलिया	-10.4416
▁बोलते	-10.4421
▁चरण	-10.4423
▁मृति	-10.4428
हन	-10.4429
▁दिखने	-10.4431
ंच	-10.4431
टर	-10.4444
▁आशावाद	-10.4447
लक	-10.4447
▁रमिक	-10.4452
ऊँगा	-10.448
▁कचर	-10.4482
▁लागत	-10.4483
याँ	-10.4492
▁दया	-10.451
▁हिला	-10.4525
पैड	-10.4527
▁शिर	-10.4562
▁जाति	-10.4581
▁कृष	-10.4584
▁रोह	-10.459
तीन	-10.4593
▁लाये	-10.4602
▁पेस	-10.4605
▁रतिस	-10.4606
▁मारने	-10.4629
▁नस	-10.4649
▁आएग	-10.4658
▁बुलाय	-10.4679
▁टान	-10.4686
▁शू	-10.4704
डिब	-10.4707
ाऊ	-10.471
▁भू	-10.4713
लूम	-10.4717
▁पेन	-10.4743
▁नोट	-10.4752
▁चलन	-10.4757
गे	-10.4782
लाइन	-10.4783
अर	-10.4788
एस	-10.4795
▁शान	-10.4797
भाव	-10.4803
भाग	-10.4815
▁पण	-10.4817
▁८०	-10.4818
▁फ़ैल	-10.4846
▁अधिकत	-10.4852
ेज	-10.4858
यू	-10.4865
रोल	-10.4883
▁अफगान	-10.489
वसायिक	-10.4893
▁चू	-10.4896
मन	-10.4899
▁बचने	-10.49
y	-10.4906
▁जुड़े	-10.4909
▁छरदान	-10.491
▁गिनत	-10.4919
▁उपभो	-10.4923
शनल	-10.4924
▁इजराइल	-10.4931
▁गोरिदम	-10.4931
▁घोषणा	-10.4931
▁जूझ	-10.4931
▁मनोरंज	-10.4931
▁अवसाद	-10.4931
सैनेटरी	-10.4931
▁खूबसूरत	-10.4931
▁अखबार	-10.4932
▁मजबूर	-10.4932
▁अभिव	-10.4934
▁वकील	-10.4935
▁वायु	-10.4935
▁निरंतर	-10.4935
▁विभाज	-10.4936
▁जेन	-10.4941
▁टेप	-10.4941
▁सागर	-10.4941
▁एंडर	-10.4941
▁जूत	-10.4944
▁गुप	-10.4947
▁वीड	-10.4948
भर	-10.495
▁अपमान	-10.4952
▁डूब	-10.4953
▁नायक	-10.496
▁शांत	-10.4962
▁बाज	-10.4964
▁बैक	-10.4964
▁कूद	-10.4965
▁संतुल	-10.4966
▁रँग	-10.4971
▁बताई	-10.4975
▁मुड	-10.4978
▁हत	-10.4979
▁रजन	-10.4981
वी	-10.4988
▁गुस	-10.5001
▁चेतन	-10.5003
ढ	-10.5003
ंकन	-10.5015
▁कहें	-10.5044
▁फ़ो	-10.5045
▁रवास	-10.5053
▁विनि	-10.5061
चाप	-10.5071
▁रु	-10.5082
▁कोइ	-10.5092
▁सुनना	-10.5111
▁उभरत	-10.5128
▁खेलने	-10.5137
▁दिखाते	-10.5141
▁यूया	-10.5143
▁बैठक	-10.5146
▁टिप	-10.5151
़ोन	-10.5155
▁आइ	-10.5174
▁नीला	-10.5182
ुन	-10.5203
▁चूक	-10.521
▁मंद	-10.5223
▁रहीन	-10.5231
▁फुट	-10.5231
▁रिटे	-10.524
▁धता	-10.5272
ायन	-10.5283
▁सपन	-10.5303
हाई	-10.5312
▁तिस	-10.5337
▁उठाय	-10.5354
▁शहरी	-10.5399
▁इत	-10.5408
आई	-10.5413
छा	-10.5414
▁घ	-10.5421
ालीन	-10.5424
▁युत	-10.5434
▁कहे	-10.544
▁संगठ	-10.5446
▁नव	-10.5456
रेखा	-10.5459
मेट	-10.5468
▁लिखी	-10.5471
़ा	-10.5473
▁साध	-10.5483
▁षात	-10.5488
▁पहने	-10.5506
▁बढ़ा	-10.551
▁पौ	-10.5524
▁५	-10.5525
▁पीछ	-10.553
ाइट	-10.5531
▁चतुर	-10.5539
▁परिप	-10.5544
निर	-10.5551
▁पूंजी	-10.5556
▁ढांच	-10.5556
▁सुचना	-10.5556
▁पुनः	-10.5556
▁सिवा	-10.5556
▁सेकंड	-10.5557
▁रेडियो	-10.5557
▁विभाग	-10.5558
▁ऑफिस	-10.5558
▁सूरज	-10.556
▁रशासन	-10.5561
▁वागत	-10.5563
▁अवध	-10.5563
▁दरवाज़	-10.5565
▁धूम	-10.5569
▁यवाण	-10.5569
▁आंकड़	-10.557
▁मजे	-10.5579
▁फैला	-10.5582
▁रांड	-10.5584
▁अंदाज़	-10.5602
▁भाषण	-10.5604
▁संबंधी	-10.5605
ेल	-10.5606
▁तीस	-10.5608
ाएँ	-10.561
▁दाम	-10.5613
▁ढक	-10.5615
ॉल	-10.5615
गन	-10.5617
▁बॉल	-10.5618
▁करोगे	-10.562
▁पट	-10.5636
▁समानता	-10.5642
▁संदेह	-10.5643
संभावित	-10.5652
▁वोट	-10.566
▁हजार	-10.5663
or	-10.5667
▁चुनौतिय	-10.5668
▁रतिनिधि	-10.5674
▁पलट	-10.5675
▁बुला	-10.5684
▁शेर	-10.5689
▁दीखत	-10.5702
▁बिस	-10.5724
▁डिस	-10.5728
हत	-10.5731
▁भावनाओ	-10.5733
▁हमला	-10.5751
ायदा	-10.5757
▁टैक	-10.5759
▁70	-10.5764
▁सीट	-10.5772
फर	-10.5773
ंकाल	-10.5779
▁१४	-10.578
िवेश	-10.5782
रत	-10.5792
जा	-10.5799
▁तरक	-10.5811
▁रसार	-10.5815
▁पित	-10.5824
▁षी	-10.5841
▁सौद	-10.5844
▁नजरिय	-10.5851
▁अज	-10.5864
▁मो	-10.5868
▁णु	-10.5869
▁पडे	-10.5873
7	-10.5879
िता	-10.5882
▁योर	-10.5895
ैम	-10.5908
▁चाय	-10.5908
ोगे	-10.5922
▁मज	-10.5936
▁रूपक	-10.5938
ंबर	-10.5943
▁पस	-10.5947
▁उभर	-10.596
सा	-10.5975
▁यप	-10.5979
▁मुह	-10.5986
▁अमेरिक	-10.5988
▁चोर	-10.5994
▁सीढ	-10.6001
▁गिन	-10.6022
▁कमात	-10.6035
▁झेल	-10.6036
▁अधिकारी	-10.6043
ीजिए	-10.6048
▁वृ	-10.6048
▁चूहे	-10.6051
▁घुमा	-10.6054
▁तलाश	-10.6057
▁पैद	-10.606
▁कुत	-10.6078
हूर	-10.6079
▁चलेग	-10.6087
संचार	-10.6103
चक	-10.6104
▁दरवाज	-10.6113
▁सफ़ल	-10.6119
▁गोर	-10.6129
▁लेखन	-10.6142
▁शिकायत	-10.6156
कों	-10.6167
तौर	-10.6171
▁३००	-10.6183
▁दम	-10.6195
▁हट	-10.6202
विन	-10.6217
यम	-10.6221
▁इंतज	-10.6222
▁राकृत	-10.6222
▁हथियार	-10.6222
▁आनुवंश	-10.6223
▁ञासा	-10.6223
▁इराक	-10.6223
▁जवाबदेह	-10.6223
▁निगरा	-10.6223
▁तकनिकी	-10.6223
▁असफ़ल	-10.6223
▁ईमेल	-10.6224
▁छुट	-10.6224
▁डरावन	-10.6224
▁फैशन	-10.6224
▁राज़ी	-10.6225
▁अंगुठे	-10.6226
▁किलोम	-10.6227
▁नक़	-10.6227
▁रुपये	-10.6228
▁विरु	-10.623
▁गुरु	-10.6231
▁बढावा	-10.6231
▁जाएगी	-10.6231
▁जेब	-10.6232
▁हानि	-10.6233
▁अँधेर	-10.6235
▁19	-10.6236
▁लोकप	-10.6236
▁ज़िन	-10.6238
▁हुँ	-10.6238
▁लाइड	-10.6239
▁फ़ोटो	-10.6239
▁दुश	-10.624
▁रजाति	-10.6244
▁पोशाक	-10.6247
▁राथमिकता	-10.6248
ियो	-10.6253
▁आयेगा	-10.6258
▁आयोजन	-10.6262
▁१९६	-10.6267
▁रुव	-10.6268
▁रिंटर	-10.627
▁वॉल	-10.6272
▁मधुम	-10.6275
▁मिथक	-10.6277
▁गरम	-10.6277
▁जवान	-10.628
▁बि	-10.6293
▁हुं	-10.6295
फोन	-10.6297
▁पढ़ा	-10.6308
▁बाई	-10.6312
▁छाया	-10.6314
▁रतिद	-10.6327
▁जित	-10.6327
दृश	-10.6335
▁दरवाजे	-10.6337
रिया	-10.6346
इमर	-10.6349
▁कौनस	-10.6352
▁रियाओं	-10.6354
▁सालो	-10.6367
▁जाय	-10.6368
▁कच	-10.6369
▁माँग	-10.6375
▁पेज	-10.6379
▁मोर	-10.638
▁लिखे	-10.6402
▁छू	-10.6403
▁संर	-10.6409
वत	-10.6412
▁ठंड	-10.6426
▁पंक	-10.6441
▁चुना	-10.6446
पी	-10.6459
▁केट	-10.646
▁सुख	-10.6465
▁सहाय	-10.6482
▁कोड	-10.649
▁पूछने	-10.6495
योग	-10.65
▁विट	-10.652
▁टेल	-10.6524
▁जुटा	-10.6535
▁वोह	-10.6552
▁गत	-10.656
▁ठहर	-10.6577
▁यथा	-10.6577
▁चट	-10.6594
टेक	-10.6597
▁सेट	-10.6622
▁बोले	-10.6633
ची	-10.6641
▁करिये	-10.6642
▁जि	-10.6664
▁याएँ	-10.6677
रस	-10.6678
▁B	-10.6694
ाईन	-10.6706
▁60	-10.6721
▁8	-10.6724
▁सामर	-10.6733
▁सफ़लता	-10.6733
▁आँखे	-10.6736
▁बत	-10.6746
▁माद	-10.6765
▁उठान	-10.6768
m	-10.6778
अलग	-10.6819
▁हीरो	-10.6821
▁टेलि	-10.6834
▁आदम	-10.6836
ोस	-10.6836
▁पड़त	-10.6847
बोल	-10.686
▁आव	-10.6871
▁रच	-10.6877
▁दूँ	-10.6884
▁रतिभा	-10.689
मंद	-10.6891
फ़ी	-10.6896
थम	-10.6904
▁मोड़	-10.6906
देन	-10.6912
▁मनोव	-10.6913
लर	-10.6914
▁तारो	-10.6917
▁नतीज	-10.6928
▁बढ़त	-10.6931
▁दाहिन	-10.6937
▁बोझ	-10.6937
▁झूठ	-10.6937
▁जीवाणु	-10.6937
▁तलवार	-10.6937
▁याशित	-10.6938
▁ऑफ़	-10.6938
AR	-10.6939
▁१९९	-10.6944
ीएनए	-10.6946
▁रचलि	-10.6952
▁नातक	-10.6953
▁टाइप	-10.6954
▁गहन	-10.6955
▁बचाय	-10.6955
▁कनाडा	-10.6965
▁वचाल	-10.697
▁गेट	-10.6973
▁दीर	-10.6983
▁कुर	-10.6987
▁वभाव	-10.6988
बाव	-10.6991
▁निचल	-10.6993
▁सेंट	-10.6993
▁मद	-10.6994
▁विवाद	-10.7
इट	-10.7001
▁पड़	-10.7005
▁तरदाय	-10.7007
▁माफ	-10.7009
▁िर	-10.701
ैं	-10.7013
▁जोश	-10.7028
सेल	-10.7028
▁कटिक	-10.7033
▁ख़त	-10.7035
रोध	-10.7053
▁डिंग	-10.7053
▁मेलन	-10.7057
▁विविधता	-10.706
रेट	-10.7064
▁पाई	-10.7066
▁दिलात	-10.7068
▁ज़र	-10.7087
▁बास	-10.709
▁रैक	-10.7094
▁ोस	-10.711
▁शि	-10.711
ंघ	-10.7117
▁राब	-10.7124
▁लाई	-10.7134
▁जायें	-10.7138
▁दुब	-10.714
▁असम	-10.7146
▁वनी	-10.7147
विड	-10.7149
▁बेचन	-10.716
▁युगा	-10.7177
▁सका	-10.7187
▁तिक	-10.719
▁छाप	-10.7193
▁हां	-10.7227
▁ऊंच	-10.7242
▁भाषाओ	-10.7248
▁येय	-10.7262
▁बेक	-10.7265
▁कॉम	-10.7274
ईट	-10.7275
▁राण	-10.7283
डियो	-10.73
▁ठान	-10.7305
▁विशेषता	-10.7311
▁डाक	-10.7314
▁यन	-10.7321
▁7	-10.7334
▁रज	-10.7336
▁विकार	-10.7339
▁जुड़ा	-10.735
▁घटि	-10.7352
▁परम	-10.7354
▁रोता	-10.7359
▁जाग	-10.7368
▁विकलांग	-10.7372
पत	-10.7386
बाल	-10.7387
▁मों	-10.74
▁बुलात	-10.7404
▁चलाय	-10.7424
▁मिलिय	-10.7436
ेनिस	-10.7437
▁इंटर	-10.7454
▁जाल	-10.7477
▁यांत	-10.7479
▁नकारा	-10.7484
ोनी	-10.7492
E	-10.7505
▁बढत	-10.7511
मूल	-10.7521
▁थि	-10.7522
▁जायेग	-10.7525
▁गलती	-10.7525
▁नीं	-10.7538
▁ढो	-10.7558
ुख	-10.7567
अंड	-10.7572
दूसरे	-10.7585
▁सिखात	-10.7607
▁नो	-10.7612
▁एप	-10.762
▁एच	-10.7645
▁रखेंग	-10.7659
▁चौथा	-10.7664
▁आयोज	-10.7668
▁अभिया	-10.7669
▁बीत	-10.7677
▁निपट	-10.7679
लाना	-10.7681
रम	-10.7687
▁अभि	-10.7688
▁बाह	-10.7692
यजन	-10.7692
उट	-10.7693
ँकि	-10.7694
ादी	-10.7695
▁चौक	-10.7696
▁कमज़ोर	-10.7706
▁चिंपांज	-10.7706
▁अवधारणा	-10.7706
▁रोगाणु	-10.7706
▁पेचीद	-10.7706
▁शोषण	-10.7706
▁अनुपात	-10.7708
▁कमजोर	-10.771
▁साझेदार	-10.7712
▁पड़ोस	-10.7712
▁दादा	-10.7715
▁माह	-10.7716
▁सेंसर	-10.7718
▁गो	-10.7721
▁कौशल	-10.7721
▁अनुकूल	-10.7722
▁गणना	-10.7723
लन	-10.7724
▁चांद	-10.7725
ायी	-10.7725
▁वेबसा	-10.7726
▁गैस	-10.7727
कारक	-10.7727
▁मदत	-10.7727
▁किशोर	-10.7729
▁शल	-10.7733
़त	-10.7735
▁खुर	-10.7737
▁तिथि	-10.7738
▁परंतु	-10.7738
▁मांस	-10.7741
▁आदेश	-10.7742
▁विचारधारा	-10.7743
▁करवाय	-10.7747
▁यमि	-10.7752
ूनिस	-10.7755
▁ठो	-10.7765
▁परिदृ	-10.7776
▁कवर	-10.7779
▁पहुंचा	-10.7781
▁टकरा	-10.7782
▁पाएं	-10.7783
▁ठे	-10.7788
▁ढूँढन	-10.7789
▁इंज	-10.7793
▁आपस	-10.7794
▁हिन	-10.7794
▁१६	-10.7804
ंकर	-10.7807
▁संभाल	-10.7814
▁कहिये	-10.7814
▁गुज़र	-10.7836
▁रोम	-10.7838
▁बाँटने	-10.784
५०	-10.7846
▁गलिय	-10.7851
ुप	-10.7854
▁रणालिय	-10.7857
▁निभा	-10.7868
▁एकत	-10.787
▁राणी	-10.7876
▁कठ	-10.7883
ाश	-10.79
दराज	-10.7905
▁मरु	-10.7907
▁पुल	-10.7909
▁उध	-10.7931
▁समझौत	-10.7934
▁हालात	-10.795
▁शिकारी	-10.7974
▁खान	-10.798
यता	-10.7999
लेस	-10.8003
▁मिश	-10.8005
बे	-10.8005
▁टा	-10.8008
मेल	-10.8039
t	-10.804
▁सोचे	-10.8042
▁पिछ	-10.8054
▁रवाह	-10.8063
▁s	-10.8066
ांश	-10.8073
▁फ़ायद	-10.8073
ीरिया	-10.8075
िरा	-10.8086
▁पॉ	-10.8091
लम	-10.8103
▁योद	-10.8109
यर	-10.811
a	-10.8112
▁सूखा	-10.8121
▁संकल	-10.8139
▁मि	-10.8152
ing	-10.8157
▁रिल	-10.8159
▁युंक	-10.8161
ऊंगा	-10.8168
▁पाय	-10.8197
▁तृत	-10.8234
▁फोट	-10.8235
▁6	-10.8244
दा	-10.8259
रिस	-10.8266
ॉ	-10.8271
विक	-10.8273
▁बाते	-10.8285
he	-10.8291
फी	-10.8308
▁ख़	-10.8309
▁रती	-10.8311
हम	-10.8315
▁दि	-10.8316
ारों	-10.8324
गो	-10.8362
ीठ	-10.8391
यानि	-10.8411
गिनत	-10.8417
छोटे	-10.8418
आधारित	-10.8418
▁किताबे	-10.8445
▁खिला	-10.8464
▁हित	-10.8464
▁रग	-10.8468
▁निकट	-10.8471
▁जुडा	-10.8476
इस	-10.8489
▁यमय	-10.8491
▁तल	-10.8495
मिक	-10.8499
▁लिप	-10.8502
4	-10.8518
▁इकाई	-10.8524
▁दुरी	-10.8525
▁मरीज	-10.8533
▁अंगूठ	-10.8539
▁एकजुट	-10.8539
▁आभास	-10.8539
▁मिनिट	-10.8539
▁शौचालय	-10.8539
▁जीनोम	-10.8539
▁कामयाब	-10.8539
▁दुविधा	-10.854
▁भुगत	-10.854
▁माउस	-10.854
▁झटक	-10.854
▁अनदेख	-10.854
▁आकाश	-10.854
▁तरकीब	-10.854
▁चालीस	-10.854
▁आधारभूत	-10.8541
▁बनावट	-10.8541
▁मुहैय	-10.8542
वश	-10.8543
▁सुविधाएँ	-10.8543
▁बताइ	-10.8543
▁वव	-10.8544
▁छूट	-10.8545
▁रेश	-10.8546
▁फेंक	-10.8547
▁होगया	-10.855
▁धिमान	-10.855
▁पूजा	-10.8551
▁अंधेर	-10.8556
▁मांड	-10.8556
▁महँग	-10.8557
▁वगैर	-10.8558
▁कठिनाई	-10.8558
▁तकनीकि	-10.8564
▁चुनते	-10.8566
▁आंख	-10.8568
▁आयेंगे	-10.8573
वाई	-10.8574
▁रवर	-10.8575
▁कड	-10.8576
▁रेणी	-10.8577
▁झंड	-10.8584
डे	-10.8592
▁खामोशी	-10.8592
हना	-10.8593
▁लोक	-10.8594
▁युकि	-10.8598
▁ऑर	-10.8604
रूम	-10.8605
▁लेंग	-10.8605
▁पापा	-10.8613
▁नवीन	-10.8616
▁कपड़	-10.8618
▁रखें	-10.8619
▁मुल	-10.8624
▁वचा	-10.8625
▁हैरान	-10.8634
▁डेस	-10.8638
▁चरम	-10.8642
▁बढाने	-10.8646
▁पतल	-10.8652
▁भा	-10.8669
▁आफ	-10.8671
▁अवल	-10.8676
▁यूज	-10.868
▁अनुक	-10.868
▁तालिय	-10.8685
▁रब	-10.8693
डा	-10.8697
▁5	-10.8697
ामी	-10.8723
▁धो	-10.8729
▁कंपनिया	-10.873
शियल	-10.873
▁महिलाए	-10.8734
▁मेह	-10.8745
शस	-10.8751
▁बिताय	-10.8765
▁बताऊंग	-10.8767
तन	-10.8768
ed	-10.8776
वेल	-10.8786
लांग	-10.879
िद	-10.8803
▁ऑनला	-10.8806
▁तोड़	-10.8807
▁नाव	-10.8815
▁बनाकर	-10.8833
येंगे	-10.8836
▁तीर	-10.8842
▁गौर	-10.8855
R	-10.8857
am	-10.8862
णी	-10.8862
▁ज़िंदग	-10.8866
ोकन	-10.8877
▁गठ	-10.8906
▁यद	-10.8925
▁गली	-10.8949
▁बू	-10.8952
▁जुडे	-10.8962
▁भला	-10.8971
▁वेब	-10.8977
▁युट	-10.901
▁बदलन	-10.9011
हौल	-10.9025
▁अश	-10.9026
▁लडकियो	-10.9031
▁सुने	-10.9043
▁आकाशगंगाओ	-10.9045
परवाह	-10.9067
ाती	-10.9115
▁७०	-10.9137
नुभूति	-10.9138
▁सिग	-10.9154
▁सीखी	-10.9155
▁थिती	-10.9163
मा	-10.9169
ैन	-10.919
▁विध	-10.9193
मात	-10.9195
▁कॉ	-10.9197
▁सकेंग	-10.9201
▁पाच	-10.9226
यान	-10.9247
▁रूपांतर	-10.926
धार	-10.9266
पड़े	-10.9273
▁छुपा	-10.9311
▁o	-10.9312
फ़ुट	-10.932
बहुत	-10.9327
कुछ	-10.9328
▁वान	-10.9344
▁जापान	-10.9351
▁दृढ	-10.936
▁80	-10.9366
▁४००	-10.9378
▁पो	-10.9382
जिक	-10.9397
▁गुज	-10.94
फ़ोर	-10.9408
ऊ	-10.9416
वहार	-10.9419
▁चौड	-10.9441
▁बाँध	-10.9447
ED	-10.9448
▁ईंधन	-10.9448
▁दुःख	-10.9448
▁गाँधी	-10.9448
▁दोगुन	-10.9449
▁रशंसा	-10.9449
▁लाइसेंस	-10.9449
▁दुरबीन	-10.9449
▁13	-10.9449
▁लिहाज	-10.9449
▁बहादूर	-10.9449
▁झील	-10.9449
▁पहेल	-10.945
▁लंदन	-10.945
▁आलोचना	-10.9451
▁पोलियो	-10.9453
▁जानी	-10.9453
▁इंच	-10.9454
▁वितरण	-10.9455
▁90	-10.9455
▁दूरदर	-10.9455
▁संशोध	-10.9455
▁१७	-10.9457
▁बकवास	-10.9458
▁जहाज़	-10.9459
▁सिखान	-10.9459
▁अंट	-10.9461
फीट	-10.9464
▁राइड	-10.9464
IM	-10.9467
▁युवक	-10.9468
▁सितार	-10.9471
▁ऑफ	-10.9474
▁नमक	-10.9476
▁रुको	-10.9478
भुज	-10.9479
▁लॉग	-10.9479
▁मेसेज	-10.9483
▁लब	-10.9486
▁घृणा	-10.9488
▁पैग	-10.9502
▁कोष	-10.9504
▁कामगार	-10.9504
▁माफ़	-10.9515
▁महाका	-10.9516
▁पीड़	-10.9517
▁टेशन	-10.9518
▁मिशन	-10.9522
▁गतिशील	-10.953
▁उदार	-10.9532
▁दिलाने	-10.9537
▁कैल	-10.9543
▁देव	-10.9543
▁यून	-10.9553
▁बनेंगे	-10.9559
▁नों	-10.9565
▁फ़ायदे	-10.9565
टिन	-10.9571
▁फायद	-10.9586
▁पढना	-10.9587
ीडी	-10.9593
▁खंड	-10.9595
▁अहिंसा	-10.9599
ic	-10.9609
▁गड	-10.9611
▁लेकी	-10.9622
▁मुर	-10.9629
योट	-10.963
▁टेस	-10.9632
▁सोचो	-10.9635
ंटन	-10.9641
▁सबका	-10.9641
पार	-10.9642
लेन	-10.9645
एक	-10.9647
▁मुं	-10.9648
▁रियता	-10.9649
▁यूक	-10.9652
▁जिल	-10.9653
▁पेह	-10.9656
▁उपन	-10.9657
िखर	-10.9661
▁रिज	-10.9665
▁रतिसाद	-10.9671
▁देन	-10.9672
ैंक	-10.9678
▁बरस	-10.9681
ायक	-10.9683
▁बहा	-10.9692
▁गंद	-10.9695
▁वैस	-10.9708
ांत	-10.9712
▁विफलता	-10.9719
▁कोप	-10.972
▁करण	-10.9727
ंट	-10.9731
▁निकलत	-10.9734
ालू	-10.9739
▁R	-10.9762
▁पेशा	-10.9767
▁भौतिकी	-10.9769
▁छल	-10.9785
▁खिड	-10.9808
▁बेका	-10.9811
३	-10.9822
▁सुलझान	-10.9826
▁कोच	-10.9843
▁गे	-10.9849
▁भाष	-10.9854
▁निकली	-10.9864
▁आजाद	-10.9868
▁बेचे	-10.9873
ंध	-10.9876
▁६००	-10.9877
▁मोल	-10.9878
वेदन	-10.988
▁रिन	-10.9881
▁राजस	-10.9886
▁कोने	-10.9899
▁अजनब	-10.9901
डीप	-10.9903
रक	-10.9908
▁बौ	-10.9909
ागण	-10.991
▁यापी	-10.9925
▁पहनन	-10.9938
ुच	-10.9947
हे	-10.9948
▁पड़े	-10.995
▁पिन	-10.9954
ायें	-10.9958
▁फेर	-10.9967
ज़ा	-10.9978
▁चुने	-10.9986
▁गतिविधि	-10.9989
▁बैठत	-10.9996
▁१९७	-11.0003
▁बहत	-11.0008
नियमित	-11.0022
▁18	-11.0032
▁रीप	-11.0033
राज	-11.004
00	-11.0043
सम	-11.0046
▁ताली	-11.0064
▁चलात	-11.0089
▁ताला	-11.0092
ंगल	-11.0098
ुआ	-11.01
▁जिनमे	-11.0108
▁जार	-11.0114
डिया	-11.0118
▁सडक	-11.0123
रूप	-11.0126
▁मैट	-11.0126
▁मौ	-11.0132
▁नग	-11.014
▁चिह	-11.0153
▁विफल	-11.0159
▁खन	-11.016
▁सज	-11.017
▁आल	-11.0178
▁छु	-11.0188
▁मारे	-11.0207
T	-11.023
▁टों	-11.0235
▁फिलि	-11.0241
▁पहुंचे	-11.025
▁पहिय	-11.0252
साल	-11.0258
▁अकेल	-11.0265
▁नाल	-11.0272
▁विधि	-11.0272
▁लिम	-11.0276
कृतिक	-11.0278
बायोट	-11.0281
▁चीजो	-11.0298
▁लिखन	-11.031
▁हिंस	-11.0314
▁गतिविधिय	-11.032
▁रांसिस	-11.0321
ऐ	-11.0323
धीरे	-11.0327
▁बुले	-11.0335
▁तारे	-11.0338
▁पथ	-11.0341
▁खिलौन	-11.0344
▁रहो	-11.0351
▁हंस	-11.0356
आत	-11.0358
▁नवीनत	-11.0358
निया	-11.0361
बंद	-11.0367
▁वीं	-11.0377
युद	-11.039
▁हिल	-11.0391
ूँ	-11.0392
▁हालाँ	-11.0407
चर	-11.042
▁१५०	-11.0421
▁मेज़	-11.0427
▁आकृतिय	-11.0428
▁१०००	-11.0429
▁अनाज	-11.0433
▁टेलीफ	-11.0444
ोपिया	-11.0448
▁डिझाईन	-11.0448
▁गांधी	-11.0448
▁नजदीक	-11.0448
▁बहूँत	-11.0448
▁सफेद	-11.0449
▁भंडार	-11.0449
▁सैंकड	-11.0449
▁आरंभ	-11.045
▁जादूगर	-11.045
▁अवशेष	-11.045
▁रकोप	-11.045
▁धूप	-11.045
▁इकठ	-11.0451
▁बाढ	-11.0451
▁किरदार	-11.0451
▁गेंद	-11.0452
▁रतिरूप	-11.0452
▁चॉक	-11.0452
▁निवास	-11.0453
▁सलाहकार	-11.0453
▁दूं	-11.0454
▁पडोस	-11.0454
▁धिमत	-11.0455
▁रारूप	-11.0455
▁हॉल	-11.0456
नैपकिन	-11.0459
▁गांव	-11.0459
नुमा	-11.0459
▁उपभोग	-11.0462
▁अनजान	-11.0463
▁दानव	-11.0463
▁बिखर	-11.0463
▁पाइप	-11.0463
▁जिंदा	-11.0463
▁जंतु	-11.0464
▁घूर	-11.0466
▁अधूर	-11.0467
▁अनुप	-11.0468
याकल	-11.0468
▁इंस	-11.0474
▁पारेष	-11.0475
▁कूड	-11.0476
▁असमानता	-11.0478
▁लैक	-11.048
▁गोता	-11.048
▁मालिक	-11.048
ूम	-11.0483
▁सेंटर	-11.0486
▁दांत	-11.0487
▁संवेदनशीलता	-11.0495
लिन	-11.0495
ज़ार	-11.05
▁समीकरण	-11.0502
बत	-11.0508
▁यूज़	-11.051
▁सूचक	-11.0512
बोध	-11.0513
▁पंज	-11.0513
▁काली	-11.0516
▁संज	-11.0516
▁षो	-11.0523
▁जून	-11.0526
▁धुर	-11.0537
▁मज़ाक	-11.0537
▁ज़मान	-11.0542
▁दंड	-11.0544
▁वाब	-11.055
▁डिया	-11.0552
▁दादिय	-11.0554
▁घूमते	-11.0555
▁भार	-11.0557
▁सुनाई	-11.056
था	-11.057
▁परिकल	-11.0579
▁चिडिय	-11.0589
▁शैली	-11.0589
▁संल	-11.0591
▁समा	-11.0592
संदेह	-11.0593
▁रुत	-11.0604
▁टेब	-11.0605
▁सीरिया	-11.061
तो	-11.0639
ज़ू	-11.0645
▁लगाई	-11.0647
▁पारित	-11.0647
▁बितात	-11.065
▁ताज	-11.0658
▁रेर	-11.0664
▁चम	-11.0686
याल	-11.0698
▁कीट	-11.07
▁चढ़	-11.0708
▁चु	-11.071
▁रॉन	-11.0716
▁सवार	-11.072
▁रतिमा	-11.0739
▁सराहन	-11.0743
▁बनो	-11.0749
▁भूम	-11.0752
▁कारखान	-11.0763
▁मां	-11.0772
▁भूर	-11.0773
छ	-11.0785
ुई	-11.0822
▁राफ़	-11.0825
▁पेंट	-11.0826
▁सिख	-11.0847
ूँगी	-11.085
ैदान	-11.0854
▁रिच	-11.0854
▁निशान	-11.0861
ढ़	-11.0884
▁काले	-11.0893
▁चात	-11.0893
ri	-11.0917
▁घेर	-11.0927
▁बेल	-11.093
▁कुरा	-11.0942
▁आपदा	-11.0952
िहार	-11.0955
▁गिरा	-11.0958
▁याम	-11.0967
ंगा	-11.0969
▁198	-11.0974
▁बाये	-11.0979
▁आब	-11.0985
▁चि	-11.099
▁चुरा	-11.0994
AS	-11.0996
▁मेज	-11.0998
▁रवृत	-11.1002
▁भेजत	-11.1008
▁बाँटन	-11.1037
रात	-11.1048
ाइय	-11.1054
जब	-11.1059
▁बिता	-11.1061
ंक	-11.1072
िटर	-11.1074
▁लिन	-11.1094
▁विप	-11.1099
▁बेचा	-11.1101
रहे	-11.1103
▁उमर	-11.1113
▁लगेंग	-11.1136
कला	-11.1151
▁गुणा	-11.1159
ीट	-11.1167
▁आह	-11.118
▁लाखो	-11.1191
▁५००	-11.1207
▁महंग	-11.1212
नेक	-11.1265
n	-11.1273
ृ	-11.1283
▁लडकिया	-11.1287
▁इंड	-11.1318
▁होनेवाल	-11.1325
▁घटनाओ	-11.1336
▁मेट	-11.1349
▁संतु	-11.135
कीय	-11.136
▁कुशल	-11.1365
▁बेड	-11.1369
▁टील	-11.1377
कृत	-11.1395
भुत	-11.14
टैग	-11.1422
ैड	-11.1432
▁लचील	-11.1435
साथ	-11.144
▁चोट	-11.1446
▁लै	-11.1459
▁धारा	-11.1459
▁धोख	-11.146
यो	-11.1466
▁गाय	-11.1467
▁300	-11.1472
▁दन	-11.1486
▁नान	-11.1492
सिस	-11.1496
▁लपेट	-11.1498
▁जाऊं	-11.1498
▁निगम	-11.1499
▁11	-11.1501
▁निच	-11.1502
▁नेह	-11.1504
सवी	-11.1512
▁सिए	-11.1523
▁जरा	-11.1524
▁मज़ा	-11.1525
चिकि	-11.1538
▁पशुओ	-11.1547
▁रताड	-11.1549
▁गुजर	-11.1551
▁लंबा	-11.1553
रेटर	-11.1556
▁बुज	-11.1556
▁दूंग	-11.1557
▁बेवकूफ	-11.1557
▁इंजिन	-11.1558
▁अवयव	-11.1559
▁जीवाणू	-11.1559
▁नज़दीक	-11.1559
▁मुजरिम	-11.1559
▁रोफ़ेसर	-11.1559
▁विरोधाभास	-11.1559
▁खगोल	-11.1559
▁दयालु	-11.1559
▁नवाचार	-11.1559
▁पिघल	-11.1559
▁डायनास	-11.156
▁95	-11.156
▁बोतल	-11.156
▁एजेंट	-11.156
▁२३	-11.156
▁उथल	-11.156
▁साइंस	-11.156
▁बहादुर	-11.156
▁झलक	-11.156
▁भागीदार	-11.1561
▁Ri	-11.1561
▁घुस	-11.1561
▁बुनाई	-11.1561
▁गाकार	-11.1561
▁तूफान	-11.1561
▁भयाव	-11.1562
▁२००८	-11.1562
बंधन	-11.1563
▁विनाश	-11.1563
▁सारांश	-11.1563
▁सहारे	-11.1564
▁टेलीफोन	-11.1565
▁अवश	-11.1566
▁रौशनी	-11.1568
▁२१	-11.1569
▁रईस	-11.157
▁कोयल	-11.1571
▁वेषण	-11.1571
▁आंतर	-11.1572
▁फूट	-11.1572
नून	-11.1572
▁बगल	-11.1572
▁आभार	-11.1574
▁कागज़	-11.1577
▁सफाई	-11.1578
कीर	-11.1581
▁रदेश	-11.1583
लिंग	-11.1583
▁निम	-11.1585
▁बाजू	-11.1587
▁साइबर	-11.1587
▁उदारता	-11.1587
▁रखिये	-11.1588
▁रहालय	-11.1588
▁पढ़न	-11.159
▁कमा	-11.1591
▁वप	-11.1594
▁इंगल	-11.1595
▁पोट	-11.1596
▁कविता	-11.1597
ानिया	-11.1598
कोण	-11.1598
▁अमर	-11.16
▁काला	-11.1601
▁सँ	-11.1601
▁चाचा	-11.1606
▁बनायेंगे	-11.1607
▁सिल	-11.1607
▁रथा	-11.1608
पि	-11.1608
▁भुला	-11.161
▁पीढ़	-11.1611
▁३५	-11.1614
▁खरीदन	-11.1614
▁गृह	-11.1614
▁जाइये	-11.1615
▁राहत	-11.1616
मक	-11.1616
▁लाठ	-11.1618
संगत	-11.1623
▁समझिये	-11.1625
▁वचन	-11.1639
▁मजाक	-11.1644
▁घटक	-11.1645
▁डिजाइनर	-11.165
▁रेंट	-11.1653
▁अकाल	-11.1653
▁गुजरत	-11.1655
▁नियत	-11.1659
▁चौथ	-11.1662
▁७	-11.1665
▁फौज	-11.1671
▁बताओ	-11.1678
▁लय	-11.1685
▁वश	-11.1688
▁फायदे	-11.1689
▁मिटा	-11.169
▁चारण	-11.1696
▁मानो	-11.1697
▁चिर	-11.17
▁201	-11.1707
▁डल	-11.171
▁रांसिसी	-11.1714
▁षति	-11.1718
▁रवाद	-11.1718
▁कोट	-11.1719
ीला	-11.172
▁खिलाफ़	-11.1724
▁नूर	-11.1724
▁फ़ुट	-11.1724
▁रहेगी	-11.1727
▁सि	-11.1728
▁जापानी	-11.173
▁रोका	-11.1737
▁सुनत	-11.1745
रेंस	-11.1749
▁नेक	-11.1771
मत	-11.1774
तू	-11.178
दाय	-11.1781
▁नौकर	-11.1792
▁लु	-11.1802
▁गीत	-11.181
डीओ	-11.182
ीवी	-11.1825
▁चलें	-11.1827
धर	-11.183
योजन	-11.1838
ज़रा	-11.1841
▁जाएं	-11.1841
▁डाले	-11.1848
▁ुद	-11.1863
डार	-11.1864
ुशी	-11.1876
ांव	-11.1884
▁टल	-11.1885
an	-11.1886
▁पहुँचे	-11.1888
▁वायर	-11.1891
▁नफ	-11.1896
▁नोब	-11.1897
▁ज़रिया	-11.1899
चा	-11.1911
▁वितर	-11.1913
डेंट	-11.192
ैंप	-11.1921
▁वहा	-11.1929
▁रयासों	-11.1936
▁लकड	-11.1938
▁जै	-11.194
▁धड	-11.1961
▁ठी	-11.1962
▁बांट	-11.1965
▁पढ़ी	-11.1971
▁९	-11.1983
▁लैट	-11.1985
▁गोला	-11.1991
▁पहना	-11.2
▁उतर	-11.2015
ज़न	-11.202
▁पहुच	-11.202
▁कोण	-11.2023
▁मेने	-11.2023
▁विधा	-11.2039
▁चील	-11.2039
▁छर	-11.2047
▁सकने	-11.2048
हा	-11.205
▁इर	-11.2056
▁विड	-11.2059
▁गै	-11.2063
़ी	-11.2064
▁विकलांगता	-11.2077
▁पाँव	-11.2092
ड़े	-11.2095
▁निस	-11.2098
▁दुखद	-11.2101
▁बजाए	-11.2105
ावा	-11.2125
फोर	-11.2141
ढी	-11.2145
▁लहरा	-11.2154
ाइये	-11.2169
▁छिप	-11.2171
▁पोलि	-11.2171
▁जला	-11.2194
▁तह	-11.2199
▁औरतो	-11.2201
▁रेत	-11.2211
ींग	-11.2214
▁नकार	-11.2224
मिड	-11.2227
हर	-11.2234
ोलो	-11.225
h	-11.2271
▁पैक	-11.2274
फा	-11.228
लोग	-11.228
दावा	-11.2294
▁गम	-11.2304
▁बाध	-11.2318
▁घबरा	-11.2331
▁उगा	-11.2337
▁रीकन	-11.2343
▁भवन	-11.2344
▁नीतिय	-11.2355
ूस	-11.2358
▁ताओ	-11.2363
रित	-11.2377
रू	-11.2395
रो	-11.2399
▁रणा	-11.2408
वीकरण	-11.2431
▁घात	-11.2434
▁पोल	-11.2437
▁२०००	-11.2443
ानिक	-11.2448
▁लोब	-11.2452
▁रेमी	-11.2472
▁दोहराय	-11.2498
▁खरीदत	-11.2502
▁सीमाए	-11.2517
▁जाद	-11.252
▁वाई	-11.2549
िपी	-11.2551
▁कहानियो	-11.2558
th	-11.2577
▁हरा	-11.2583
हरे	-11.259
अल	-11.2593
▁नल	-11.2598
पिंग	-11.2607
है	-11.2614
▁उलझ	-11.2629
▁सचमे	-11.266
आयाम	-11.2669
विच	-11.2669
▁रबंध	-11.2672
▁फ़ल	-11.2672
बैंग	-11.2676
एफ	-11.2679
▁चाहूंग	-11.2686
झ	-11.2687
२०	-11.2691
पसंद	-11.2692
▁400	-11.2694
▁लोर	-11.2696
▁रुति	-11.2696
▁ओप	-11.2697
ाएं	-11.2703
▁निपटन	-11.271
लाद	-11.2713
▁रीद	-11.2715
▁गिरफ	-11.2719
इंट	-11.2727
▁नाक	-11.2741
▁पीस	-11.2742
सहमति	-11.2752
धुम	-11.2758
ोते	-11.2759
▁हाय	-11.2762
२४	-11.2774
▁बिठा	-11.2777
▁यव	-11.2783
▁भग	-11.2791
▁हिंद	-11.2792
▁बाय	-11.2794
rip	-11.2804
▁तावेज	-11.2806
▁आतंक	-11.2807
▁औषध	-11.2809
▁झायमर	-11.2809
▁डाउनलोड	-11.2809
▁सँभावना	-11.2809
▁सिटोसिंन	-11.2809
▁विकिरण	-11.2809
▁इकलौत	-11.281
▁पेंसिल	-11.281
▁आंसू	-11.281
▁गडबड	-11.281
yto	-11.281
▁ईमारत	-11.281
▁गुलाब	-11.281
▁भूकंप	-11.281
▁जेंटीन	-11.281
▁14	-11.281
▁लॉक	-11.281
▁सुलभ	-11.281
▁याददाश	-11.281
▁ख़बर	-11.281
▁शराब	-11.2811
▁जनरल	-11.2811
▁आपातकाल	-11.2812
▁धकेल	-11.2812
▁मंदिर	-11.2812
▁सुचार	-11.2812
▁इराद	-11.2814
▁हमलावर	-11.2814
▁टेलीविज	-11.2814
▁बिंद	-11.2816
▁दुगन	-11.2816
▁अवतार	-11.2816
नवजात	-11.2817
▁दौड़	-11.2818
▁लूँगा	-11.2823
▁आरेख	-11.2824
▁बयान	-11.2824
▁अँग	-11.2826
▁सुखाना	-11.2826
▁काबिल	-11.2827
▁संघटन	-11.2828
▁नतीज़	-11.2828
▁समीक	-11.2829
▁मंगल	-11.2829
▁रहवास	-11.283
▁भाइयो	-11.2832
▁पेड़	-11.2834
फिट	-11.2834
▁णतय	-11.2836
▁माइकल	-11.2838
ागो	-11.2838
▁सिंग	-11.2839
▁गडरिय	-11.2842
▁कवि	-11.2845
कोला	-11.285
▁वंद	-11.2851
वाली	-11.2853
▁मुहर	-11.2855
▁पुरात	-11.2858
▁शौक	-11.2858
▁लौक	-11.2864
▁आदान	-11.2864
▁१३	-11.2865
▁कामना	-11.2867
▁कितनो	-11.287
▁हताशा	-11.2871
▁इश	-11.2874
▁कथन	-11.2882
▁लन	-11.2887
▁यांश	-11.2891
▁वेटर	-11.2894
पाथ	-11.2894
ER	-11.2894
▁मंडल	-11.2897
▁गुम	-11.2898
▁ईस	-11.2908
▁रोट	-11.291
▁टिव	-11.2912
थिय	-11.2913
▁माताओं	-11.2915
▁पुत	-11.2921
▁उब	-11.2922
▁सीए	-11.2923
हाल	-11.2923
▁पांचवी	-11.2936
▁साइड	-11.2949
▁अदा	-11.2949
▁साइट	-11.2952
▁रतिब	-11.2959
िड	-11.2964
▁चोटी	-11.297
ोलोज	-11.2973
▁बालक	-11.2983
▁यशाल	-11.2986
▁मुँ	-11.2988
ुश	-11.2989
▁ज़ी	-11.2989
ीज़	-11.2994
▁टाल	-11.3001
तार	-11.3004
▁पहलुओ	-11.301
विनिय	-11.3019
लंक	-11.3021
▁मधु	-11.3024
▁जासूस	-11.3028
▁बदलती	-11.303
▁करू	-11.3037
▁हज	-11.3042
▁रवार	-11.3042
▁कुशलता	-11.3045
▁नीच	-11.3054
चन	-11.3061
नाम	-11.3066
▁बिया	-11.3068
▁होँ	-11.3071
▁उठत	-11.3074
▁धंध	-11.308
▁सेहत	-11.3083
िय	-11.3087
▁ओस	-11.3093
▁लगाए	-11.3095
▁जगत	-11.3095
▁रुष	-11.3106
जाते	-11.3106
▁असा	-11.3107
ँस	-11.3113
▁लोकता	-11.3121
मिन	-11.3126
▁आं	-11.3131
वो	-11.3133
▁कंपन	-11.3145
थर	-11.3167
▁मिलि	-11.3171
▁घुटने	-11.3182
ुफ	-11.3185
▁फ़ोर	-11.3188
▁रफ़	-11.3193
▁जाऊंग	-11.3195
▁गण	-11.3235
▁कराया	-11.3235
▁75	-11.3247
▁पूछता	-11.3249
▁मनो	-11.3258
थित	-11.3264
मरी	-11.3274
▁डाय	-11.3284
▁खेती	-11.3291
▁आंक	-11.3295
▁बनवा	-11.3296
गोरो	-11.3306
▁रोताओ	-11.3307
▁मिलेंग	-11.3334
▁मिथ	-11.3343
▁वाणि	-11.3348
d	-11.3348
००	-11.3351
बना	-11.3369
▁गोद	-11.3371
▁रवत	-11.3376
▁टक	-11.3379
ou	-11.3382
▁बम	-11.3383
ंतु	-11.34
▁डोन	-11.3401
▁इट	-11.3402
▁इमेज	-11.3411
▁नत	-11.3416
सायन	-11.3434
▁लेड	-11.3446
▁गोफन	-11.3461
▁रोफे	-11.3481
▁खोला	-11.3482
▁उपहा	-11.35
लू	-11.3507
▁गती	-11.3508
▁किताबो	-11.3514
▁पृ	-11.3516
▁नारी	-11.3531
▁फुटब	-11.3533
कण	-11.354
▁समझे	-11.355
▁निकले	-11.3552
▁टूर	-11.3559
▁पैरो	-11.358
▁E	-11.3617
िरास	-11.3622
रहा	-11.3628
शी	-11.3633
मोनि	-11.3649
नि	-11.3661
सिंथ	-11.3662
▁आयत	-11.3664
▁कॉर	-11.3665
▁खे	-11.3666
▁छान	-11.3746
▁बांटन	-11.3747
हावर	-11.3757
▁छविय	-11.3797
▁पहुचन	-11.3813
▁रीम	-11.3835
▁जीवा	-11.3838
टीय	-11.3844
गठन	-11.3868
चल	-11.387
ाउंड	-11.387
ेरी	-11.3884
▁दिखाव	-11.3892
बेर	-11.39
▁चाब	-11.39
▁१९३	-11.3902
गल	-11.3903
वैत	-11.3908
▁तरीको	-11.3912
▁हममे	-11.3923
▁रतिकृति	-11.3925
ॅ	-11.3926
▁कंपनियो	-11.3934
▁संत	-11.3944
▁राक	-11.3949
ेंगी	-11.395
▁कुपोष	-11.3958
▁बढेग	-11.3959
▁अंध	-11.3966
▁अट	-11.3968
▁किलो	-11.3971
▁ज़ू	-11.3972
▁रासद	-11.3985
▁कौ	-11.3989
ाइन	-11.3991
▁षरत	-11.3993
▁ढी	-11.3993
▁विविध	-11.3999
▁सुखा	-11.4
▁मजा	-11.4009
▁१००००	-11.4019
ेडिक	-11.4023
▁निवेशक	-11.4025
▁सोश	-11.4035
▁डालन	-11.4038
▁टीन	-11.4041
ांतर	-11.4042
▁भाल	-11.4064
▁वीकृत	-11.407
▁सजा	-11.4071
डुब	-11.4075
वस	-11.4075
▁परिभाष	-11.4087
भोग	-11.4088
ढाई	-11.4092
तरह	-11.4092
भार	-11.41
le	-11.4101
▁चिप	-11.411
हीरो	-11.4112
▁२५०	-11.4114
▁रॉस	-11.4125
▁गोरिथ	-11.4135
पल	-11.4135
▁सफ़	-11.4145
बुली	-11.415
शिल	-11.4152
ॅर	-11.4158
आर	-11.4165
▁माथ	-11.417
जान	-11.417
▁रहूँ	-11.4172
▁नारा	-11.4173
▁सृ	-11.4183
▁एसे	-11.4192
लेज	-11.4201
▁यंह	-11.4203
ion	-11.4205
▁निशम	-11.4208
▁परिष	-11.4208
▁जिया	-11.4208
खाते	-11.421
एच	-11.4217
▁विष	-11.4221
▁अपहर	-11.4223
▁रमा	-11.4223
िटार	-11.4238
▁आख़िर	-11.4238
▁खरपतवार	-11.4238
▁चयापचय	-11.4238
▁चिँपाँज	-11.4238
▁निपुण	-11.4238
▁अपलोड	-11.4238
rypt	-11.4238
▁अराजक	-11.4238
▁करुँग	-11.4238
▁सरंचना	-11.4238
cin	-11.4238
▁global	-11.4238
▁समारोह	-11.4238
▁बगीच	-11.4238
▁समूच	-11.4238
▁पाठशाला	-11.4238
▁रुकावट	-11.4238
▁तैनात	-11.4238
▁ऐलिस	-11.4238
▁संदूक	-11.4238
▁चुंबक	-11.4238
▁हुनर	-11.4238
▁मुलाकात	-11.4239
▁तानाशाह	-11.4239
▁बाइब	-11.4239
▁आशंका	-11.4239
▁अदालत	-11.4239
ीशु	-11.4239
▁बिमारी	-11.4239
▁वंय	-11.424
▁अंधकार	-11.424
▁सैकड	-11.424
▁बेचैन	-11.424
▁अनुरूप	-11.424
▁2006	-11.4241
▁बुझ	-11.4241
▁ओलू	-11.4241
▁चैनल	-11.4241
ूषण	-11.4242
▁घकाल	-11.4242
▁गुज़ार	-11.4243
▁बॉय	-11.4243
ाओ	-11.4244
▁सैद	-11.4244
▁सिय	-11.4244
▁गाज़ा	-11.4245
▁सितम	-11.4245
▁टॉम	-11.4245
▁ऑफ़िस	-11.4246
▁धुंधले	-11.4247
▁अफसर	-11.4248
▁लैग	-11.4248
▁उदासीन	-11.4249
▁पांजी	-11.4249
▁अटलांट	-11.425
▁साँस	-11.4251
▁बताइये	-11.4252
▁फ़ीस	-11.4253
▁संयोजन	-11.4254
▁दाँत	-11.4254
विर	-11.4254
bo	-11.4255
▁मबोध	-11.426
▁रतिरोध	-11.426
▁एरिक	-11.4261
▁शेयर	-11.4262
▁जाओगे	-11.4263
▁सहभागी	-11.4264
▁ऑपरे	-11.4265
▁पढाया	-11.4268
▁पाल	-11.4269
▁रशीत	-11.4269
▁हाउस	-11.4269
▁िताब	-11.4269
▁सृजन	-11.427
▁सालय	-11.4271
▁वंडर	-11.4272
▁बाकि	-11.4272
▁बरसात	-11.4272
▁टफ	-11.4274
▁हेंगर	-11.4282
▁लिंक	-11.4283
▁मौन	-11.4287
सान	-11.4287
▁परदे	-11.4289
▁पुरूष	-11.4289
▁....	-11.4291
▁ओपन	-11.4292
side	-11.4292
▁वयंसेवक	-11.4293
ंहा	-11.4294
ौती	-11.4295
नेमा	-11.4296
▁गवाह	-11.4297
▁नाही	-11.4298
▁असीम	-11.4298
▁अमित	-11.4299
▁लालच	-11.4302
▁जिद	-11.4305
▁साउंड	-11.4308
▁सास	-11.4313
▁यूस	-11.4315
▁बबल	-11.4316
ौस	-11.4317
▁निगमों	-11.432
▁नौका	-11.4322
▁अहमद	-11.4322
▁पनाशील	-11.4323
▁कूड़ा	-11.4323
शुद	-11.4324
ापुर	-11.4324
▁लिय	-11.4327
पना	-11.4328
▁रुकना	-11.433
ुत	-11.4335
▁समझेंगे	-11.4337
▁पाप	-11.4339
▁करवाना	-11.434
▁रवैय	-11.434
▁टुकड़े	-11.434
▁टिट	-11.4341
▁टवे	-11.4342
▁गोरिथम	-11.4342
थल	-11.4343
▁सीखें	-11.4351
▁भेद	-11.4351
▁सैम	-11.4354
िना	-11.4355
▁रांक	-11.4355
▁लाइट	-11.4355
▁पहनाव	-11.4356
पट	-11.4362
▁बिताए	-11.4365
▁निकटत	-11.437
▁रुद	-11.4371
▁यॊं	-11.4373
ीकृत	-11.4376
वेयर	-11.4378
▁जग	-11.4384
▁सोम	-11.4387
▁यवसायिक	-11.4387
▁रैप	-11.4391
▁अड	-11.4392
यकल	-11.4393
िकल	-11.4394
▁डालें	-11.4396
10	-11.44
▁पुट	-11.44
▁बैटर	-11.44
▁लूट	-11.4404
▁नारिय	-11.4408
▁पूछें	-11.441
ँख	-11.4413
▁उडान	-11.4414
हैट	-11.4418
ारिक	-11.4426
फ़र	-11.4436
▁अंजा	-11.4442
▁नशील	-11.4447
▁बूझ	-11.4448
▁हेड	-11.4463
ौ	-11.4464
▁डाई	-11.4465
ॉफ़	-11.4472
▁परोस	-11.4474
▁लिखता	-11.4475
▁उलझन	-11.448
▁सिन	-11.4483
▁सुनें	-11.4485
बाज	-11.4485
▁धिक	-11.4487
▁अंड	-11.4492
तिफा	-11.4495
ायेगा	-11.4499
▁पाश	-11.4501
▁महासागर	-11.4511
ावस	-11.4514
ांफ	-11.4521
▁खुन	-11.4524
जाल	-11.4529
▁नगर	-11.4542
▁सुनहर	-11.4545
▁लड़न	-11.4547
▁ाव	-11.4552
▁उड़ा	-11.4555
तावन	-11.4556
ूं	-11.4562
▁चयन	-11.4565
▁हरी	-11.4567
▁तू	-11.457
▁डरा	-11.4573
▁टीका	-11.4573
यकार	-11.4586
विवाद	-11.4589
कत	-11.4589
▁इंडिय	-11.4595
टाइल	-11.4597
▁बु	-11.4598
▁गों	-11.46
▁लैप	-11.4601
▁यिक	-11.4605
विनियम	-11.4607
▁देवता	-11.4607
▁सेंटी	-11.4613
ूनो	-11.4626
▁वच	-11.4628
▁खींची	-11.4631
खा	-11.4631
▁लगाये	-11.4632
डिओ	-11.4633
दनी	-11.4634
▁फंस	-11.4653
▁लेज	-11.466
▁आण	-11.4665
▁खियों	-11.468
▁हरे	-11.4699
▁कमेंट	-11.47
▁टै	-11.4712
▁अनुसर	-11.4716
▁विजय	-11.4722
▁डोर	-11.4724
लभ	-11.4725
कम	-11.4725
▁फाक	-11.4731
▁याग	-11.4756
▁पुकार	-11.4762
▁पैस	-11.4766
▁राउ	-11.4766
बन	-11.4768
▁मिंद	-11.478
▁अनियमित	-11.4797
▁२२	-11.4804
ानुभूति	-11.483
हते	-11.4831
िज़न	-11.4835
ँद	-11.4836
▁विम	-11.4853
▁पैन	-11.4861
▁दिखाए	-11.4883
मेन	-11.4894
▁टाई	-11.4898
▁गुड	-11.4898
▁लौटा	-11.4902
▁रिए	-11.4911
खाने	-11.4913
शा	-11.4918
जाद	-11.4947
लिख	-11.4947
▁चुनन	-11.4971
▁छीन	-11.4976
ंज	-11.4981
▁रै	-11.5009
ैसल	-11.501
▁गिल	-11.5014
▁वेस	-11.5015
▁1,	-11.503
जो	-11.5042
पाई	-11.5045
हॉ	-11.505
▁मानस	-11.5051
▁रोप	-11.5063
कसद	-11.5082
▁नति	-11.5086
कू	-11.509
सोस	-11.509
▁होम	-11.5099
सो	-11.5103
▁मातृ	-11.5107
▁पढात	-11.5112
माप	-11.5115
▁पैसो	-11.5117
थेन	-11.513
▁पि	-11.513
ाये	-11.5135
▁शनी	-11.5151
▁रांत	-11.517
▁नौकरिया	-11.5173
ाभ	-11.5173
▁केले	-11.5179
▁लस	-11.5181
▁भो	-11.5184
▁पोलिस	-11.5198
चाल	-11.5204
ायत	-11.5208
निवार	-11.521
▁आगम	-11.5212
लीन	-11.5214
r	-11.5228
▁करिए	-11.5233
▁विभ	-11.5237
it	-11.5241
नुस	-11.525
लाई	-11.5296
बुल	-11.5304
▁सदा	-11.532
घ	-11.5322
सीब	-11.5325
णीय	-11.5328
ोमो	-11.5333
ीली	-11.5342
घर	-11.5343
ेश	-11.5344
थार	-11.5363
िंस	-11.5364
▁झुक	-11.5368
▁डाइ	-11.537
ोटो	-11.5371
▁शत	-11.5377
▁टिंग	-11.5379
▁पढे	-11.5404
▁बीते	-11.5405
▁हेन	-11.542
▁फ़ै	-11.5424
▁अनियमितता	-11.543
▁आयाम	-11.5463
▁कहूं	-11.5469
ैकल	-11.5489
c	-11.5495
▁भावनाए	-11.5502
हिये	-11.5508
ांति	-11.5509
सूत	-11.5509
▁पैके	-11.5527
१२	-11.5528
▁शै	-11.5553
▁धारण	-11.5554
▁वालो	-11.5565
ज़र	-11.5568
▁नार	-11.5569
▁अनुच	-11.557
▁रध	-11.5578
खने	-11.5582
ितंब	-11.5589
▁ढू	-11.5604
50	-11.5622
बाडी	-11.5636
▁घटनाए	-11.5641
केट	-11.5641
▁बनाओ	-11.5647
▁१५००	-11.5649
गिर	-11.5649
▁णाय	-11.5658
▁कण	-11.567
be	-11.5677
▁पहलु	-11.5695
▁लाह	-11.5695
टिक	-11.5695
१४	-11.57
लि	-11.571
़बार	-11.5728
रोग	-11.5729
▁ins	-11.5729
▁यवा	-11.5736
▁बताऊँ	-11.5742
In	-11.5745
डम	-11.575
नोस	-11.5754
वृति	-11.5756
हरा	-11.5758
▁Ro	-11.5766
चिह	-11.5769
▁मुनाफ़	-11.5771
▁उदास	-11.578
साधन	-11.5781
भाषण	-11.5782
शाही	-11.5788
और	-11.579
चढ	-11.5791
ोश	-11.5791
बिज	-11.5794
साइड	-11.5795
बीच	-11.58
संपत	-11.5815
पश	-11.582
▁मय	-11.5826
जागर	-11.5828
ूचि	-11.5835
मुदाय	-11.5836
शैली	-11.5843
▁जीती	-11.5845
▁पोर	-11.5848
▁बेज	-11.5853
24	-11.5856
नाइट	-11.5856
▁पढ़े	-11.5863
▁एयर	-11.5867
▁डिज़ाईन	-11.5873
▁वाधिक	-11.5875
▁शाला	-11.5881
ula	-11.5883
▁रुके	-11.5893
रागाह	-11.5899
ूफ़ान	-11.5901
▁जैव	-11.5904
▁अलोइस	-11.5905
▁पूँछ	-11.5905
▁अभिभावक	-11.5905
▁दुगुन	-11.5905
▁अछूत	-11.5905
▁कोषाणु	-11.5905
▁गूंज	-11.5905
▁दोपहर	-11.5905
▁भूगोल	-11.5905
▁मापदंड	-11.5905
▁लॊग	-11.5905
▁दुरवीन	-11.5905
▁मुसलमान	-11.5905
▁ञासु	-11.5905
▁पिनोसॉर	-11.5905
▁रासंगिक	-11.5905
▁ललकार	-11.5905
▁कारोबार	-11.5905
▁डायनोस	-11.5905
▁चाइना	-11.5905
▁1960	-11.5905
▁शीशे	-11.5905
▁रिटायर	-11.5905
▁अनुबंध	-11.5905
▁परिमाण	-11.5905
▁कुंजी	-11.5905
▁मंजिल	-11.5905
▁खनिज	-11.5905
▁उपनगर	-11.5905
▁आलेख	-11.5906
िलाफ़	-11.5906
▁रेजुए	-11.5906
▁रामाणिक	-11.5906
▁धमकी	-11.5906
▁दैवी	-11.5906
▁जागृत	-11.5906
▁३१	-11.5906
▁मतभेद	-11.5907
▁जिगर	-11.5907
▁निद	-11.5908
▁रतिबंध	-11.5908
▁सचिव	-11.5908
▁मीटिंग	-11.5909
▁बतिया	-11.5909
▁सौंप	-11.5909
▁सिलाई	-11.5909
▁डिज़ा	-11.591
▁बाथ	-11.591
▁फ़ेंक	-11.5911
▁एंटी	-11.5911
▁तुति	-11.5911
▁तावेज़	-11.5913
▁पथरी	-11.5913
▁कहलात	-11.5915
▁विवाह	-11.5917
▁राइस	-11.5918
▁खूब	-11.5918
▁मामा	-11.5918
▁एंड	-11.5918
▁इजाज	-11.5918
▁नवप	-11.5918
the	-11.592
▁pl	-11.592
▁बढोत	-11.592
▁मुकदम	-11.5923
▁सोख	-11.5926
▁बैग	-11.5926
▁हांला	-11.5926
▁फ़ँस	-11.5927
▁तौल	-11.5929
▁थोप	-11.593
▁1.	-11.5932
▁लोकल	-11.5934
▁कुँ	-11.5934
▁घिर	-11.5934
▁सकूं	-11.5936
ाधिक	-11.5936
▁दश	-11.5937
▁कुचल	-11.5938
▁आजू	-11.5938
▁लगवा	-11.594
▁बेसब	-11.5943
▁लेलो	-11.5945
▁मॉल	-11.5947
खिक	-11.5949
▁ज़बरद	-11.595
ंदुर	-11.5951
ेंशन	-11.5951
▁वलीन	-11.5955
▁रिवाज	-11.5957
▁झपक	-11.596
▁वाध	-11.596
▁बाएं	-11.5963
३३	-11.5963
थवा	-11.5964
▁ज़री	-11.5969
▁तंतु	-11.5969
▁ख़र	-11.5978
▁थय	-11.5985
▁रैल	-11.5992
घात	-11.5995
▁उलट	-11.5996
▁72	-11.5997
▁सकू	-11.5998
▁रेय	-11.6
▁छोड़कर	-11.6003
▁दायर	-11.6003
▁दोगे	-11.6004
▁छेड	-11.6004
▁ोर	-11.6004
▁युरोप	-11.6005
झे	-11.6007
▁सूट	-11.601
▁झाड	-11.6012
९८	-11.6012
▁जमी	-11.6014
▁जड़	-11.6015
▁हरकत	-11.6016
▁ईमानदारी	-11.6021
▁वैध	-11.6024
▁जेड	-11.6025
हूँगा	-11.6026
▁चीख	-11.604
▁सँभ	-11.6043
▁तीनो	-11.6047
बोर	-11.6053
फल	-11.6065
▁आजीव	-11.6066
मारी	-11.6067
तून	-11.6071
एन	-11.6075
▁अभिन	-11.6076
चेस	-11.6078
▁ढल	-11.6079
▁टकरात	-11.6079
▁नाच	-11.6082
▁बैठना	-11.6083
दाद	-11.6087
▁खिलौने	-11.6088
▁बैंग	-11.6092
▁शेफ	-11.6104
लीय	-11.6105
▁तेदार	-11.6119
IS	-11.6122
झा	-11.6125
सूर	-11.6131
भ	-11.6136
▁199	-11.614
▁शमिंद	-11.6145
▁सोमाल	-11.6147
▁गढ	-11.6158
▁बचकान	-11.6168
खरी	-11.617
▁रोकना	-11.6173
▁उदो	-11.6177
▁दाय	-11.6179
▁फील	-11.6184
▁पॉप	-11.6202
▁खोद	-11.6207
▁मोटा	-11.6207
▁राजनेता	-11.6207
▁जुटे	-11.6213
▁पायें	-11.6213
ेला	-11.6222
दूर	-11.6228
▁t	-11.6232
भेद	-11.6234
यक	-11.6242
▁पुरुषो	-11.6244
al	-11.625
ॉब	-11.6252
जीव	-11.6255
▁छतों	-11.6257
▁गीय	-11.626
▁लागो	-11.626
गैर	-11.6261
▁पिज	-11.6269
▁तमिल	-11.6274
▁खेलना	-11.6275
▁रुस	-11.628
▁बचत	-11.628
▁बैट	-11.6293
ce	-11.6294
▁धाग	-11.6302
▁गिरान	-11.6303
▁डरे	-11.6317
हूल	-11.6317
ालिका	-11.6336
▁पेशे	-11.6339
▁फैले	-11.6344
ro	-11.6344
▁लीग	-11.6349
▁ाइन	-11.6351
देश	-11.6352
▁समझें	-11.6352
▁अटक	-11.6358
▁राजनीत	-11.6364
▁खता	-11.6367
▁भड	-11.6382
▁रोकत	-11.6382
▁रोब	-11.6387
वेन	-11.6395
▁किरण	-11.641
▁आयें	-11.6413
▁टियों	-11.6424
▁भूत	-11.6432
षण	-11.6432
▁मूलत	-11.6438
▁झेलन	-11.6444
टेड	-11.6449
▁पंख	-11.6457
▁रहकर	-11.646
▁दावे	-11.6473
ers	-11.6475
िर	-11.6498
▁लगें	-11.65
▁गैल	-11.6505
▁पहनी	-11.6513
▁रॉक	-11.653
ाँए	-11.653
▁ज़रुर	-11.6535
पु	-11.6568
डेल	-11.6569
ाला	-11.657
▁लीन	-11.6583
जूर	-11.6585
▁सां	-11.6597
▁यूं	-11.6597
गम	-11.6598
▁१९५	-11.6604
▁रंगी	-11.661
▁बिट	-11.6616
ाउन	-11.6619
रायल	-11.6639
▁वसा	-11.6647
▁बचे	-11.665
ine	-11.6662
़ाव	-11.6667
▁जुल	-11.6678
िफ	-11.6683
पंथ	-11.6689
ानून	-11.6695
▁कबाड	-11.6695
काम	-11.6696
▁जगात	-11.67
▁दाश	-11.6713
▁घुम	-11.6729
ावक	-11.6741
▁पीत	-11.6747
▁राजन	-11.6751
▁आरक	-11.6751
▁पाइ	-11.6754
▁17	-11.6756
पीले	-11.676
▁आख	-11.6775
▁बिच	-11.6779
▁दिखाये	-11.6791
▁सुम	-11.6797
▁हकी	-11.6801
▁भरत	-11.6802
हिए	-11.6803
संस	-11.681
विधा	-11.6821
नाएँ	-11.6825
गाड	-11.6828
णाली	-11.6831
▁दिव	-11.6842
ौल	-11.6844
यां	-11.6849
बंध	-11.686
▁गज	-11.687
▁अजे	-11.687
▁एफ	-11.6871
▁बनाएग	-11.6878
दरा	-11.6888
धा	-11.689
मच	-11.6894
▁डन	-11.6911
थे	-11.6914
▁देनेवाल	-11.6915
गट	-11.694
▁३२	-11.695
▁तरंगे	-11.6963
लिया	-11.6964
▁बुन	-11.6966
▁रुकी	-11.6967
ाब	-11.6976
रूण	-11.6977
करीब	-11.699
▁नाराज	-11.7004
ावश	-11.7009
▁छप	-11.7019
p	-11.7021
▁चिपक	-11.7025
▁घंटो	-11.7028
ोरेट	-11.7032
▁टाइ	-11.7044
▁लार	-11.7047
▁ऊंचा	-11.705
नियन	-11.7052
ॅन	-11.7086
▁राफी	-11.7096
▁पाइडर	-11.7104
टाई	-11.7115
▁कैलिफ	-11.7125
▁असहमति	-11.7138
▁जिमी	-11.7141
▁रकाशक	-11.715
ch	-11.7161
▁माइन	-11.7162
▁वाण	-11.7174
▁जानेवाल	-11.7175
▁ेद	-11.7179
▁पिल	-11.7181
▁आँ	-11.719
▁नाइजीरिय	-11.7199
खर	-11.7221
▁धनी	-11.7228
ंकेतिक	-11.7249
सेट	-11.7267
राएल	-11.7267
▁रचा	-11.7276
▁युय	-11.7281
▁ओल	-11.7311
▁चौ	-11.7323
▁वायरल	-11.7325
रुप	-11.7334
▁शासक	-11.734
▁हजारो	-11.7341
ोक	-11.7356
ha	-11.7359
▁लेब	-11.7362
ामिया	-11.7366
एगा	-11.7366
▁देह	-11.737
बारी	-11.7424
▁बै	-11.7431
hone	-11.7434
कॉप	-11.7441
ोल	-11.7454
▁in	-11.7464
▁धोत	-11.7467
▁रीड	-11.7468
▁सहन	-11.7476
▁निक	-11.7491
▁सेलुल	-11.7497
लियाँ	-11.7511
▁गरीबो	-11.7518
▁500	-11.7534
▁पालक	-11.7535
▁पॉल	-11.754
▁डेन	-11.7555
nin	-11.7557
रने	-11.7558
जाता	-11.756
ीबिया	-11.7567
▁जाएँग	-11.7568
▁गुज़रत	-11.7572
▁फैलान	-11.7576
▁शहरो	-11.7582
पुर	-11.7587
▁वल	-11.7602
▁जाऊँग	-11.7611
▁विकृति	-11.7624
▁वीट	-11.7628
पक	-11.7653
▁रमु	-11.7674
▁काटन	-11.768
फिक	-11.7689
▁खोदन	-11.771
▁बाँ	-11.773
कित	-11.7734
आउट	-11.774
▁लाइ	-11.774
BA	-11.7741
जुलत	-11.775
सिंच	-11.7754
ायल	-11.7754
▁पूछे	-11.7762
▁निधि	-11.7765
▁ईमानदार	-11.7765
▁खामोश	-11.7771
▁करोडो	-11.7772
वैध	-11.7773
फ़िस	-11.7773
▁बुढ	-11.7777
टाइम	-11.7781
आह	-11.7781
मशीन	-11.7783
गणित	-11.7784
तकनीक	-11.7785
जवाब	-11.7786
हृदय	-11.7786
पैसे	-11.7786
▁कूड़	-11.779
▁झुका	-11.7791
▁बांध	-11.7794
सोम	-11.7796
▁दिक	-11.7798
अक	-11.7799
लय	-11.7799
लाख	-11.7807
डेट	-11.7814
gy	-11.7815
ाधिकार	-11.7817
शेष	-11.782
▁कंध	-11.7824
पोल	-11.7824
जेंड	-11.7829
▁150	-11.7833
▁दै	-11.7838
▁120	-11.784
ोष	-11.7841
▁पेय	-11.7842
वच	-11.7845
ुए	-11.7848
ुंग	-11.7853
अट	-11.7854
गति	-11.7858
मिति	-11.7861
▁रोमांच	-11.7865
▁शैल	-11.7867
जिस	-11.787
▁काउंट	-11.7873
▁जुटान	-11.7879
़ों	-11.7884
▁सचेत	-11.7889
अन	-11.7899
▁साउ	-11.79
▁टुकडे	-11.7904
▁अकाउंट	-11.7905
▁कुटुंब	-11.7905
▁खिंच	-11.7905
▁झोपड	-11.7905
▁नाकामयाब	-11.7905
▁पारिभाषि	-11.7905
▁रुझान	-11.7905
▁वानुमान	-11.7905
▁चौराह	-11.7905
▁होशियार	-11.7905
पचय	-11.7905
▁झाँक	-11.7905
▁शिशु	-11.7905
▁तकनीशियन	-11.7905
▁सिपाह	-11.7905
▁मांसपेशिय	-11.7905
▁Robotic	-11.7905
▁एंजेल	-11.7905
▁परोपकार	-11.7905
▁ऊँट	-11.7905
▁रशंसक	-11.7905
▁गँवा	-11.7905
▁सरहद	-11.7905
▁अकादम	-11.7905
▁भूमंडलीक	-11.7905
▁रतिबिंब	-11.7905
man	-11.7905
▁अहंकार	-11.7905
▁ऑप	-11.7905
▁हाइप	-11.7905
▁140	-11.7906
▁कारीगर	-11.7906
▁सिकुड़	-11.7906
▁राफीटी	-11.7906
▁आरामदाय	-11.7906
▁४३	-11.7906
▁रसोई	-11.7906
▁193	-11.7906
▁छपवा	-11.7907
▁२७	-11.7907
▁खानदान	-11.7907
▁वीडिओ	-11.7907
▁आरोप	-11.7907
▁मिनेट	-11.7907
▁५५	-11.7907
▁27	-11.7908
▁चाकू	-11.7908
▁बूंद	-11.7909
ाणिक	-11.7909
▁छिड	-11.7909
▁तगड	-11.7909
▁सेकंद	-11.791
▁सँभाल	-11.7911
▁२००१	-11.7911
▁लौ	-11.7911
▁ईसाई	-11.7911
▁शाखा	-11.7911
▁बेंज	-11.7912
▁मिन	-11.7913
▁मीदवार	-11.7913
▁रोसेसर	-11.7914
▁वाटर	-11.7916
▁नगण	-11.7917
▁संपादक	-11.7918
▁होमो	-11.792
▁जियो	-11.792
▁यौगिक	-11.7922
▁गांठ	-11.7922
▁खीच	-11.7922
▁चुनोत	-11.7922
ंटीले	-11.7923
▁बिगड़	-11.7924
▁उठाओ	-11.7925
▁तंभ	-11.7925
▁मरीज़	-11.7925
▁जैक	-11.7926
▁रवण	-11.7926
ृप	-11.7928
▁साढ	-11.7928
▁डैन	-11.7928
▁निज़	-11.7929
▁वालिन	-11.7929
▁पिटल	-11.793
▁फ़ाउ	-11.793
▁बंज	-11.793
▁साँप	-11.7931
▁इं	-11.7932
▁दहल	-11.7933
▁लिपट	-11.7933
▁अंगूर	-11.7934
▁हेैं	-11.7935
phan	-11.7935
▁इतिहासकार	-11.7936
▁चादर	-11.7937
▁लीनिक	-11.7939
▁तबाह	-11.794
dge	-11.7941
▁पहाड़	-11.7947
पचार	-11.7948
▁खदान	-11.7951
▁फॉर	-11.7951
▁रूट	-11.7951
▁उज	-11.7953
▁नशे	-11.7953
▁घोर	-11.7955
रेन	-11.7959
▁मोहम	-11.7959
माँ	-11.7959
सलिन	-11.7961
तुका	-11.7961
बुद	-11.7963
▁मनिर	-11.7963
विवेक	-11.7963
▁राफिक	-11.7964
़ीन	-11.7964
▁सैल	-11.7964
▁रीति	-11.7968
▁अंतरंग	-11.7969
▁रबंधक	-11.7971
▁टुकड़	-11.7971
▁टाइन	-11.7972
▁रपट	-11.7974
▁झूल	-11.7976
▁इंद	-11.7978
▁बदलेगा	-11.7979
▁इंतेजा	-11.7982
वेत	-11.7989
वेस	-11.7996
▁दाएं	-11.7998
▁पुनराव	-11.8
▁उपक	-11.8005
ंटेन	-11.8007
▁छरदानिय	-11.8009
नाशक	-11.8011
ंटी	-11.8015
▁पछाड	-11.8016
▁and	-11.8016
▁समझदारी	-11.8017
▁बध	-11.8022
▁थैल	-11.8023
▁शेव	-11.8023
▁बग	-11.8024
▁बिग	-11.8025
काय	-11.8025
▁सेवक	-11.8032
▁हिट	-11.8036
▁अनपढ	-11.8042
▁बैर	-11.8052
▁यादि	-11.8053
▁तैय	-11.8056
▁गायक	-11.8057
▁खाएं	-11.8059
▁यारह	-11.806
▁इज़	-11.806
माण	-11.8061
od	-11.8068
▁उठाये	-11.8075
▁चौंका	-11.8088
ुअल	-11.8092
▁सिनेमा	-11.8094
▁लुक	-11.8097
▁बलि	-11.8098
माग	-11.8101
▁युनि	-11.8104
▁सुनो	-11.8105
▁सोल	-11.8107
▁रोमन	-11.811
िकार	-11.8114
▁लटका	-11.8119
▁जुब	-11.8131
▁रेफ	-11.8133
विया	-11.8136
▁डालो	-11.8137
सीना	-11.8141
ney	-11.8143
▁लचीला	-11.8144
ent	-11.8147
▁थाओ	-11.8148
▁मुफ	-11.8148
▁अवत	-11.8149
▁पड़ेग	-11.8156
▁रियल	-11.8157
मंडल	-11.8157
▁घूमत	-11.8164
▁कैट	-11.8165
▁बताउ	-11.8165
गान	-11.8167
▁हिलत	-11.8174
▁चालन	-11.8175
▁अछ	-11.8183
▁लूंग	-11.8194
▁बायो	-11.8196
▁दाखिल	-11.8196
▁टीकरण	-11.8213
टेन	-11.8218
▁रंथ	-11.8219
▁पंच	-11.822
ाइड	-11.8225
▁लील	-11.8225
ज़ि	-11.8229
▁शीत	-11.8231
▁दायी	-11.8232
पाल	-11.8235
जर	-11.824
लंघन	-11.8247
▁विकृत	-11.8247
▁बारह	-11.8249
मतल	-11.8249
▁जलन	-11.8263
▁मानवी	-11.8264
▁निंद	-11.8267
▁आइडिय	-11.8268
▁देवी	-11.8269
▁सौदे	-11.8274
▁पुन	-11.8275
▁छिपा	-11.8283
▁चढा	-11.8285
▁जुलिय	-11.8294
▁छो	-11.8298
▁बनाएं	-11.8298
▁शूट	-11.8301
▁यूर	-11.8303
रिमा	-11.8304
▁छापा	-11.8305
हू	-11.8314
▁पॉक	-11.8319
▁शनिवा	-11.8319
▁मैप	-11.8319
▁चतु	-11.8321
तेज	-11.833
▁नदिय	-11.8333
ste	-11.8343
▁खु	-11.8354
▁फ़ैलान	-11.8361
षित	-11.8363
▁बाव	-11.8364
पीस	-11.8367
▁फव	-11.8371
▁अॅ	-11.8376
▁सभा	-11.8379
▁कॉन	-11.8382
▁फाउ	-11.8389
▁अपर	-11.8394
▁हटाय	-11.84
▁बेचार	-11.8401
▁भरोसे	-11.8404
▁झू	-11.8405
▁वैन	-11.8406
▁अंतररा	-11.8408
▁ओब	-11.8426
▁बोलत	-11.8427
all	-11.8434
▁2.	-11.8435
भीत	-11.8438
▁दवाइया	-11.8438
▁सांत	-11.844
मीर	-11.8441
ंदन	-11.8458
▁खाल	-11.8458
▁अमी	-11.847
एटल	-11.8477
▁वॉ	-11.8485
ator	-11.8492
▁खींचे	-11.8494
▁बूढा	-11.8507
▁यूटे	-11.851
▁पु	-11.8513
कैम	-11.8525
योँ	-11.8527
▁टैग	-11.8531
▁पडेगी	-11.8534
▁डेढ	-11.8539
▁जेर	-11.854
▁उड़	-11.8557
कु	-11.8558
जुक	-11.8565
रह	-11.8567
▁रायोज	-11.8579
कोष	-11.8587
▁घुमाय	-11.859
▁आमने	-11.8594
▁उतरत	-11.8609
▁मिलाना	-11.8625
▁गि	-11.8631
थी	-11.864
▁आइस	-11.8642
▁ताप	-11.8652
शुदा	-11.8655
▁पुरा	-11.8659
▁रोफ	-11.866
▁आएँग	-11.8661
९२	-11.8666
वि	-11.8671
▁मरे	-11.8681
▁मग	-11.8689
▁फै	-11.8691
▁बदलें	-11.8699
बड	-11.8702
ोडा	-11.8707
लान	-11.871
रियों	-11.8718
विचार	-11.8721
▁सपनो	-11.8749
▁सिंच	-11.8754
en	-11.8771
पद	-11.8771
▁देशक	-11.8775
ोड	-11.8777
▁एर	-11.878
▁कमरों	-11.8781
सिल	-11.8815
लास	-11.8816
▁ST	-11.8849
८५	-11.8866
▁मिलें	-11.8867
▁घिस	-11.8873
चड	-11.8903
▁ौर	-11.8916
ोप	-11.8917
▁फ़ॉ	-11.8924
ूनी	-11.8929
▁तावाद	-11.8929
▁नियोज	-11.8932
▁उँगलिय	-11.8957
सल	-11.8962
▁सिं	-11.897
ाज़	-11.8978
भग	-11.8981
▁हेर	-11.8983
▁दाल	-11.8985
ेदार	-11.8997
जबरद	-11.9002
फ़ा	-11.9026
वक	-11.9087
▁नै	-11.9105
ितिक	-11.911
हेड	-11.9111
re	-11.9144
oto	-11.9146
▁आंकडे	-11.9147
▁कॉफ	-11.9184
खपत	-11.9188
▁किट	-11.92
▁६५	-11.9216
▁टरप	-11.9216
घनत	-11.9227
▁अमरीकन	-11.9242
▁अरवि	-11.9245
▁टिका	-11.9248
▁रेव	-11.9251
▁रोसे	-11.9254
▁डियों	-11.9255
▁तैरत	-11.9264
करात	-11.9267
▁पहुँचान	-11.9269
▁रोटो	-11.9269
▁पढान	-11.927
hn	-11.9278
▁ख़ान	-11.9303
▁लेखा	-11.931
गोर	-11.9314
▁गिरत	-11.932
ay	-11.9323
▁घटनाये	-11.9331
ीसी	-11.9338
▁गतिविधिया	-11.9342
Tri	-11.9346
पाट	-11.935
▁देवत	-11.9385
▁खरीदा	-11.9388
▁समिति	-11.94
▁जिं	-11.9402
बस	-11.9427
ूबा	-11.9433
फेस	-11.9435
▁भेजेग	-11.9437
▁शनि	-11.9439
बीन	-11.9464
▁महस	-11.9476
▁पला	-11.9481
▁चारो	-11.9487
ारण	-11.9536
माश	-11.9548
▁मुड़	-11.9571
▁दूसरो	-11.9586
मीस	-11.961
लोर	-11.9613
▁लीज	-11.9618
▁पहिल	-11.9625
ठाक	-11.9629
किल	-11.9635
▁जानें	-11.9635
es	-11.9637
समझौता	-11.9641
खो	-11.965
▁मिटान	-11.9654
▁यांग	-11.9661
▁चाहूँगी	-11.9668
▁दुस	-11.9678
▁टोक	-11.9705
ुखद	-11.9711
▁महीनो	-11.9711
▁ुश	-11.9731
▁भीड	-11.9736
▁b	-11.9746
▁हेक	-11.9751
बूझक	-11.9767
ंदगी	-11.9767
▁माने	-11.9779
▁हाथो	-11.9782
ation	-11.979
▁आवृत	-11.9791
रल	-11.9797
▁४०००	-11.9806
कड	-11.9813
दृष	-11.9825
▁जेस	-11.9825
▁योन	-11.9831
नुक	-11.9835
ैल	-11.9845
▁मं	-11.9872
▁तंज	-11.9882
▁लगन	-11.9887
उस	-11.9896
on	-11.9909
▁रुट	-11.9913
▁चुनौति	-11.9927
▁याला	-11.9941
▁कड़	-11.9943
▁भूक	-11.9946
ोले	-11.9946
▁बताये	-11.9967
▁अहिंस	-11.9967
▁नाट	-12.0003
▁हिज	-12.0013
▁पिस	-12.0019
▁टीक	-12.002
▁मोनो	-12.0032
हरण	-12.0047
रच	-12.0061
▁साइ	-12.007
ीघ	-12.0085
▁45	-12.0097
▁एनी	-12.0098
रोब	-12.01
▁जाइ	-12.0119
▁याधि	-12.0122
▁यिकी	-12.0124
फिस	-12.0134
पढ़	-12.0144
मीप	-12.0146
▁रेख	-12.0146
ुंब	-12.0154
▁षमा	-12.0155
१५	-12.0158
रेख	-12.017
▁चौंक	-12.0175
नीम	-12.018
▁लेस	-12.0207
ॉड	-12.0209
चेतन	-12.0211
▁अमेज	-12.0212
मेँ	-12.0219
जेरिया	-12.0221
M	-12.0222
▁चिपकाय	-12.0223
▁खम	-12.0235
ज़ाद	-12.0242
▁मज़बू	-12.0244
and	-12.0251
▁बचाए	-12.0251
गिरी	-12.0253
▁अनूठ	-12.0256
डर	-12.0261
उध	-12.0263
उधार	-12.027
▁ढूंढन	-12.027
▁दिखाय	-12.0276
अरस	-12.0277
अड	-12.0277
▁हताश	-12.0277
संसाधन	-12.0283
छोटी	-12.0284
सामने	-12.0284
विशेष	-12.0285
बाहर	-12.0285
मोटर	-12.0293
सहाय	-12.0295
गृह	-12.0297
बढ	-12.0301
अप	-12.0303
▁पहुँचाय	-12.0304
मैं	-12.0305
▁लिफ	-12.0306
▁सुल	-12.0309
▁मौज	-12.0313
मल	-12.0314
पेज	-12.0323
▁राइज	-12.0329
बिन	-12.0335
इश	-12.0338
विंग	-12.0341
ुट	-12.0343
▁तुओ	-12.0347
राज़	-12.0347
▁फाय	-12.0348
▁भु	-12.035
चरण	-12.0351
ुण	-12.0353
▁घटान	-12.0359
ारोप	-12.0369
25	-12.0372
खते	-12.0373
ढक	-12.0376
सेवा	-12.038
▁कहूँ	-12.0386
ंटो	-12.0396
▁आकृ	-12.0398
▁तकलीफ	-12.0401
िभाशा	-12.0404
▁enc	-12.0405
▁Air	-12.0405
▁असुविधा	-12.0405
▁ख़ामोश	-12.0405
▁धकधक	-12.0405
▁बेतरतीब	-12.0405
▁वियेतनाम	-12.0405
▁वॉशिंग	-12.0405
▁कायापलट	-12.0405
▁निरूपण	-12.0405
▁दूतावास	-12.0405
at	-12.0405
▁दुपहिय	-12.0405
▁लॉस	-12.0405
▁पिछवाड	-12.0405
▁खटखटा	-12.0405
▁2020	-12.0405
▁पछताव	-12.0405
▁पहूंच	-12.0405
▁सिविल	-12.0405
▁टॉक	-12.0405
▁पुजार	-12.0405
▁चुटकुल	-12.0405
▁सिलसिल	-12.0405
▁तनज़ानिय	-12.0405
▁रमादेश	-12.0405
▁निकोल	-12.0405
▁डेमो	-12.0405
▁खरोंच	-12.0405
ment	-12.0405
ctor	-12.0405
▁गोपनीय	-12.0405
▁सुदृढ़	-12.0405
▁बँट	-12.0405
▁हॉस	-12.0405
▁1990	-12.0405
anic	-12.0405
ance	-12.0405
▁कटोरे	-12.0405
ma	-12.0405
▁इंजिनियर	-12.0405
▁बेहोश	-12.0406
▁शानवीस	-12.0406
▁भेड़	-12.0406
ire	-12.0406
▁असहनीय	-12.0406
▁बुलबुल	-12.0406
▁समलैंगिक	-12.0406
बामा	-12.0406
▁तलाक	-12.0406
▁बताऊ	-12.0407
▁गूढ	-12.0407
▁शुभ	-12.0407
▁वाइंट	-12.0407
▁सिकुड	-12.0408
▁सूफी	-12.0408
▁बदबू	-12.0409
▁33	-12.0409
▁शौच	-12.0409
▁मानवाधिकार	-12.0409
▁पोसुम	-12.0409
▁वृध	-12.0409
▁बाँधन	-12.0409
▁रोबिन	-12.0409
▁रेआ	-12.0409
▁उछल	-12.041
▁ठिकान	-12.041
▁लादेश	-12.041
▁ज़रूरतमंद	-12.041
ेशिया	-12.041
▁पहुचेंगे	-12.0412
विहीन	-12.0412
▁छुटकार	-12.0413
▁di	-12.0414
▁विरल	-12.0414
▁उमीद	-12.0414
▁चरागाह	-12.0414
▁बंदूक	-12.0415
▁बाबा	-12.0416
▁अतुल	-12.0416
▁रोन	-12.0417
▁हटाओ	-12.0417
ऊँ	-12.0418
▁मैगज	-12.0418
ाउँग	-12.0419
▁यंजन	-12.042
▁आघात	-12.0421
▁रोटे	-12.0421
▁उपमा	-12.0422
▁दिशे	-12.0423
▁सिखाओ	-12.0423
▁लैब	-12.0424
▁एलिज	-12.0424
are	-12.0424
▁चमकील	-12.0425
ूका	-12.0426
▁दुकानदार	-12.0427
▁रेरणादाय	-12.0427
▁लोंगो	-12.0427
िलो	-12.0427
▁पोषक	-12.0427
Tal	-12.0427
▁मोटाप	-12.0428
▁टहल	-12.043
▁नेपाल	-12.043
▁सिलिक	-12.0431
▁गृ	-12.0432
▁लिनिक	-12.0433
▁होगें	-12.0436
▁करोंड	-12.0436
▁फ़ुल	-12.0437
▁पूछेगी	-12.0441
▁रखेगा	-12.0442
▁वंश	-12.0442
▁बजती	-12.0442
▁महाशय	-12.0443
▁टिफि	-12.0443
▁ख़ुश	-12.0444
▁सकेग	-12.0444
रांस	-12.0445
ुंगा	-12.0445
▁संगीतकार	-12.0447
▁रॉड	-12.0447
▁लिपिड	-12.0448
▁बिताना	-12.045
▁tra	-12.0452
ाशय	-12.0453
▁यारोप	-12.0454
बच	-12.0455
▁बांग	-12.0455
▁दुआ	-12.0455
मरोड	-12.0457
माथेरा	-12.0457
▁संगण	-12.0459
▁पकड़ो	-12.046
▁समझदार	-12.0461
▁मूड	-12.0461
▁वेंटि	-12.0463
▁लूँ	-12.0463
▁आँस	-12.0464
▁डोज़	-12.0464
▁निःस	-12.0465
ाली	-12.0467
▁आटा	-12.047
▁बोलिंग	-12.0471
▁जहर	-12.0471
टेँ	-12.0474
▁पौधोँ	-12.0475
▁भौ	-12.0479
ुएल	-12.0482
▁भोज	-12.0484
वाहिक	-12.0485
▁फिला	-12.0486
▁राफ़र	-12.0488
▁आवेग	-12.049
▁यपट	-12.049
▁रियो	-12.0491
▁बिरा	-12.0491
मै	-12.0492
▁सामाजीक	-12.0496
दूरी	-12.0498
रेस	-12.0499
▁नीय	-12.0503
▁अटकल	-12.0505
▁इंटरने	-12.0508
▁रसव	-12.0508
▁रैंक	-12.0509
▁राउन	-12.0511
▁वाग	-12.0511
▁कोडिंग	-12.0512
बात	-12.0518
▁रिकोण	-12.0521
▁ख़ा	-12.0524
▁बारोन	-12.0525
समय	-12.053
▁ढे	-12.0533
▁खजान	-12.0538
एम	-12.0539
▁धीर	-12.0545
▁डबल	-12.0546
▁आकड़	-12.0547
▁तनो	-12.0549
▁हाज	-12.0549
tion	-12.055
▁दबाने	-12.0553
सेफ	-12.056
▁माला	-12.0561
▁मानेंगे	-12.0567
▁रोलर	-12.0568
▁डुबा	-12.0569
▁बुढा	-12.0571
▁पेशक	-12.0572
▁संद	-12.0578
▁धुन	-12.0584
▁संश	-12.0586
▁गाव	-12.0588
▁रभुत	-12.0591
▁मुनाफे	-12.0592
▁कांटे	-12.0596
▁रॉप	-12.0601
बिरंग	-12.0603
▁तै	-12.0604
▁विंड	-12.0606
▁भली	-12.0607
▁गुंड	-12.061
▁पढ़ात	-12.0614
▁दमन	-12.0617
चाह	-12.0621
माज	-12.0623
▁कैं	-12.0623
िधि	-12.0625
रचना	-12.0626
जस	-12.0627
▁शादिय	-12.0628
घा	-12.0632
यूनि	-12.0633
▁मैच	-12.0636
▁साइन	-12.0639
▁किराय	-12.0645
▁एंथ	-12.0648
▁समजन	-12.065
बेरी	-12.0656
▁१९०	-12.0663
▁पकड़ने	-12.0664
▁रॉब	-12.0667
सियत	-12.0668
▁साईब	-12.0674
ीपल	-12.0675
▁मोजा	-12.0675
▁संचल	-12.0678
g	-12.0683
▁तराश	-12.0687
▁षय	-12.0699
▁रफ	-12.0705
▁मिलवा	-12.0707
▁जगा	-12.0711
मिशन	-12.0721
▁पनपत	-12.0724
ंभ	-12.0724
▁जीप	-12.0734
▁मिलेंगी	-12.0736
▁तहर	-12.0739
▁मरण	-12.0739
▁उधार	-12.074
▁पाऊँग	-12.0741
▁घटा	-12.0748
▁गेहू	-12.0753
▁पौल	-12.0758
▁जॉ	-12.0761
▁कठिनाइया	-12.0768
▁बूत	-12.0768
▁परछा	-12.0773
▁फ़ार	-12.078
▁हेल	-12.078
▁युब	-12.0781
रसं	-12.0791
▁फ़ाय	-12.0795
▁माया	-12.0797
▁टनर	-12.0807
कोड	-12.0807
▁खिडक	-12.0809
सौ	-12.0814
▁सूचनाओ	-12.0827
हरान	-12.0831
यु	-12.0836
ैरो	-12.0837
nol	-12.0839
▁नौकरिय	-12.0839
.0	-12.084
▁वरन	-12.0848
▁छेड़	-12.085
▁हज़ारो	-12.0857
▁विरा	-12.0874
▁शियल	-12.0878
भरा	-12.0881
▁रंट	-12.0902
▁सवा	-12.0905
▁आयेग	-12.0908
▁ढ़	-12.0912
▁सीखे	-12.0916
▁ज़रीय	-12.0921
ॉट	-12.0926
▁गोब	-12.0932
खाया	-12.0937
▁डब	-12.0939
▁थो	-12.0947
▁ताद	-12.0947
सारण	-12.0948
तमोर	-12.0962
चिट	-12.0963
▁बहुम	-12.0964
rg	-12.0968
▁हिली	-12.0973
▁फिली	-12.0974
फ़ल	-12.0976
▁खाड	-12.0983
▁कलाकृतिय	-12.099
▁भारतीयता	-12.0994
▁ढूँढे	-12.1013
गोलि	-12.1016
▁टूब	-12.1017
▁भावो	-12.102
▁कमज	-12.1022
ादा	-12.1024
▁खोले	-12.1026
▁खेले	-12.1029
रिओ	-12.103
नामी	-12.1047
ाइनर	-12.1048
मुट	-12.1053
id	-12.1056
▁जुडने	-12.1064
▁सै	-12.1066
▁चाच	-12.1081
टाफ़	-12.1081
▁सोक	-12.1084
िंदा	-12.1085
▁याचार	-12.1093
▁पहुचा	-12.1095
▁y	-12.1096
रान	-12.1102
िकता	-12.1103
लव	-12.1104
▁पाएँ	-12.1105
शेल	-12.1112
ँगन	-12.1114
▁रेण	-12.114
साद	-12.1164
ाडोर	-12.1166
▁दोहरी	-12.1175
▁दोहरान	-12.1203
▁नोलॉज	-12.1218
▁दफ	-12.1219
ठी	-12.1226
▁बीचों	-12.123
▁अनि	-12.1254
▁बनगय	-12.1255
▁असभ	-12.1256
▁उपज	-12.1261
▁32	-12.1262
हल	-12.1264
▁बढी	-12.1281
▁बेन	-12.1295
▁महानत	-12.1302
▁यदा	-12.1303
▁सव	-12.1306
▁फार	-12.131
दशा	-12.131
ँड	-12.1318
▁तिसर	-12.132
▁यातना	-12.1329
▁हमलोग	-12.1336
▁झे	-12.1343
ोलाज	-12.1344
मारिओ	-12.1346
कोश	-12.1349
हो	-12.1351
हुआ	-12.1357
▁उछाल	-12.1369
दु	-12.1377
पुरुष	-12.1377
▁मांगे	-12.1379
▁मुड़त	-12.138
वाँ	-12.1383
▁७५०	-12.1385
सेंट	-12.1402
ut	-12.1402
▁पिट	-12.142
▁छन	-12.1421
ज़ब	-12.1429
▁सिफ	-12.1432
▁फैलात	-12.1434
▁गोफ	-12.1443
▁लीं	-12.1445
▁बीसवी	-12.1467
सिंग	-12.1467
▁चुरान	-12.149
१३	-12.1508
ियल	-12.1519
▁पॉली	-12.1538
▁वंस	-12.1543
▁ठग	-12.1548
▁कैनर	-12.1548
▁कणो	-12.157
▁थापन	-12.1594
लेड	-12.1596
▁छपा	-12.1603
▁वेष	-12.1605
▁बारीक	-12.1606
▁नियमो	-12.1628
▁रेडि	-12.1641
वाब	-12.1643
पॉ	-12.1657
ड़ने	-12.1658
हिता	-12.1677
▁लकड़	-12.1678
ाएल	-12.1683
बारे	-12.1697
ूड	-12.171
▁जतात	-12.1713
िंजर	-12.1713
▁रॉ	-12.1714
▁साइब	-12.172
▁Ma	-12.1738
▁रगत	-12.1745
▁पहुंचात	-12.175
▁अपरि	-12.1752
ढ़ी	-12.1769
▁आनेवाल	-12.1776
▁शॉ	-12.1807
▁वेन	-12.1812
मि	-12.1816
होल	-12.1824
फ़िक	-12.1824
▁भाषाए	-12.1841
सूरत	-12.1852
▁मिड	-12.1852
धी	-12.1857
▁रतिम	-12.1883
▁मेसे	-12.1885
ौजी	-12.1887
माने	-12.1892
ड़ा	-12.1893
ंप	-12.1894
शियन	-12.192
▁यंग	-12.1936
▁दोहरात	-12.1937
▁बुल	-12.1939
▁रेशन	-12.1941
▁जुगा	-12.1948
▁ौज	-12.1954
▁मतदा	-12.1958
▁रुकेंग	-12.196
▁1,00	-12.1961
मेर	-12.1966
िण	-12.1979
▁सील	-12.1986
ie	-12.1996
▁थिय	-12.2044
▁शेख	-12.205
बान	-12.205
बग	-12.2062
ुवा	-12.2102
ाएगा	-12.2116
▁यौ	-12.2124
▁पाँवो	-12.2131
▁घेरा	-12.2133
वें	-12.2133
▁पेप	-12.2152
केंड	-12.2153
ोदय	-12.2157
जरब	-12.2162
▁डायर	-12.217
ूंगी	-12.2176
ry	-12.2193
is	-12.2204
दायी	-12.2208
रंगी	-12.2209
ban	-12.2212
▁बताए	-12.2214
ूट	-12.2217
▁भुक	-12.2233
▁पहुंचन	-12.2262
▁सड़को	-12.2266
बीस	-12.2267
ज़िल	-12.2267
▁कैलि	-12.2287
▁घुमात	-12.2287
▁26	-12.2336
▁ठहरा	-12.2342
▁उठाए	-12.2346
▁अं	-12.2348
▁रोमि	-12.2362
▁आकृतिया	-12.2375
पियन	-12.2377
▁खोजे	-12.2384
इड	-12.2396
रज	-12.2429
गया	-12.2438
▁सुहा	-12.2443
▁रातों	-12.2444
दादी	-12.2451
▁रेंग	-12.2475
▁थितियो	-12.2481
बाहु	-12.249
वाक	-12.2494
▁घुट	-12.2514
▁सोफ	-12.2518
ाशन	-12.2521
▁पिनो	-12.2526
▁७५	-12.2553
ाटन	-12.2565
▁नब	-12.2591
रपी	-12.2602
▁कांस	-12.2604
ूद	-12.2622
वृत	-12.2631
तिरोध	-12.2635
▁बॉट	-12.2638
▁फलन	-12.2641
मेश	-12.2647
दोषी	-12.2652
िव	-12.268
▁बकरिय	-12.2693
▁विशेषत	-12.2697
▁लाव	-12.2698
रेक	-12.2706
▁थानो	-12.2707
ैनल	-12.2708
ऎ	-12.2712
▁विचारो	-12.2714
▁रीवाद	-12.2721
▁वोल	-12.2728
▁बिगाड	-12.2732
na	-12.2739
▁किगाल	-12.2741
ंदेह	-12.2749
▁मैग	-12.2749
डु	-12.2753
ab	-12.2763
ाज़ा	-12.2767
निस	-12.2779
▁जुट	-12.2792
▁संबंधो	-12.2795
▁धांतो	-12.2814
ेरे	-12.282
बड़े	-12.2821
▁रुटि	-12.2822
▁हैरत	-12.2849
▁तारी	-12.288
▁बताय	-12.2882
लाने	-12.2885
▁डीव	-12.2888
▁सुलझ	-12.2901
▁197	-12.2914
ुदृ	-12.2916
▁इंसानो	-12.2916
▁यच	-12.2921
▁उपकरणो	-12.2923
▁डिक	-12.2958
ीतल	-12.296
जाति	-12.297
▁पनप	-12.2988
अ	-12.3001
▁तालियो	-12.3001
▁कलाकृति	-12.3006
▁मज़	-12.3007
ोच	-12.3018
▁संकेतो	-12.3023
जात	-12.3034
टिव	-12.3035
चेर	-12.3037
वृ	-12.3039
शि	-12.3046
▁करोड़ो	-12.3067
▁इंक	-12.3099
ts	-12.31
▁अनुव	-12.3111
मिस	-12.3111
▁नाड	-12.3135
झड़	-12.3152
▁मोट	-12.3157
▁आइं	-12.3157
हूं	-12.3179
▁युल	-12.3183
▁शांतिप	-12.3183
५८	-12.3184
शैल	-12.3189
ran	-12.3195
गें	-12.3199
हिक	-12.3204
परि	-12.3211
ौत	-12.3219
ग़	-12.3219
rs	-12.3222
हें	-12.3223
▁ओन	-12.3228
ra	-12.3242
▁चेन	-12.3249
▁भोग	-12.3252
▁लद	-12.3268
▁लगाएं	-12.3273
▁झगड	-12.3273
ैले	-12.3276
▁माओ	-12.3279
ौड	-12.3305
enti	-12.332
▁तितलिय	-12.333
▁राजनेत	-12.3331
▁a	-12.3336
▁कै	-12.3338
▁यापारी	-12.3339
▁चिड	-12.3351
▁दोहर	-12.3364
▁ठहरान	-12.3369
▁d	-12.3379
ीएस	-12.3383
▁सुझा	-12.3385
आप	-12.3385
▁डिप	-12.3393
▁रलेख	-12.3396
▁रीढ	-12.3396
nam	-12.3411
शोर	-12.3415
▁डेव	-12.3425
▁शह	-12.3425
▁३०००	-12.344
गयी	-12.345
संबंध	-12.3453
▁होश	-12.3475
▁बंगल	-12.3478
▁मुनाफ	-12.3482
▁रवै	-12.3495
ाइज़	-12.3498
▁टेफ	-12.3501
▁ओव	-12.3508
▁हिड	-12.3519
पोत	-12.3519
ैसे	-12.3533
▁यावृत	-12.3536
गिकी	-12.3541
▁फूलो	-12.3544
▁षाए	-12.3548
ृश	-12.3552
नुष	-12.3561
▁चलाये	-12.3565
लोगो	-12.3565
भंग	-12.3578
बैठ	-12.358
राए	-12.3581
▁लटक	-12.3582
कौम	-12.3587
▁पै	-12.3589
औ	-12.3592
▁शाब	-12.3595
▁घृण	-12.3604
देह	-12.3607
पुरूष	-12.3608
si	-12.3611
चौथा	-12.3611
समझ	-12.3612
लॉग	-12.3612
लिस	-12.3613
अंदाज	-12.3614
अंदाज़	-12.3615
वेटर	-12.3616
सॉफ	-12.3616
ञ	-12.3616
घड	-12.3617
सीधी	-12.3617
पहचान	-12.3617
सुन	-12.3617
उत	-12.3618
cula	-12.3618
फिर	-12.3619
▁योगिकि	-12.3619
यूटर	-12.362
संगठ	-12.362
ऑक	-12.3621
अफ़	-12.3621
जैस	-12.3623
अम	-12.3624
पाठ	-12.3624
भोज	-12.3626
▁राश	-12.3628
फूल	-12.363
आईव	-12.3632
▁लडको	-12.3634
टोर	-12.3635
विधि	-12.3641
बहन	-12.3643
इंग	-12.3643
सकते	-12.3645
▁ईंट	-12.3648
▁जोड़न	-12.3654
▁यूल	-12.3659
▁देखिय	-12.3661
ताज़	-12.3661
▁नॉल	-12.3669
किनार	-12.3674
ाइबर	-12.3675
▁अकड	-12.3679
▁करनेवालो	-12.368
ाधना	-12.3682
रेव	-12.3683
te	-12.3698
भाषा	-12.37
ओह	-12.3702
धिकारि	-12.3709
सौरस	-12.3709
pp	-12.371
▁नैप	-12.3711
Tu	-12.3712
op	-12.3712
▁आंका	-12.3719
▁िलाफ	-12.3725
nes	-12.3728
▁सिटिज	-12.3728
ीनियर	-12.373
भिमान	-12.3731
▁शारीर	-12.3731
ूबसूरत	-12.3734
▁me	-12.3737
▁लाइब	-12.3738
ace	-12.3738
#	-12.3738
imulat	-12.3738
▁Intelligen	-12.3738
▁Speed	-12.3738
▁photo	-12.3738
▁काउंस	-12.3738
▁कॅमेरा	-12.3738
▁खौफ	-12.3738
▁चिपचिप	-12.3738
▁चौगुन	-12.3738
▁डूँढ	-12.3738
▁मूंछ	-12.3738
▁विमोचन	-12.3738
▁सोवियत	-12.3738
▁अनुवेदक	-12.3738
▁गुनहगार	-12.3738
▁फुसफुसा	-12.3738
▁बंदरगाह	-12.3738
▁रूढिवाद	-12.3738
▁हिदायत	-12.3738
▁दबोच	-12.3738
▁लॅप	-12.3738
▁वातानुकूल	-12.3738
▁गूँज	-12.3738
▁मुलायम	-12.3738
▁फ़ूँक	-12.3738
▁मछुआर	-12.3738
▁Robo	-12.3738
▁अनुयाय	-12.3738
▁तारामंडल	-12.3738
▁तधमन	-12.3738
▁पोहोंच	-12.3738
▁East	-12.3738
▁Robot	-12.3738
▁इंटेल	-12.3738
▁जावेगी	-12.3738
▁तुलसी	-12.3738
▁लॉबी	-12.3738
▁यूरोसाइं	-12.3738
▁जयादा	-12.3738
▁रेबेक	-12.3738
▁हाजिर	-12.3738
▁हौसल	-12.3738
▁हक़	-12.3738
▁खिड़क	-12.3738
▁सोलुश	-12.3738
▁उपाध	-12.3738
cre	-12.3738
▁सेवानिवृत	-12.3738
▁उपादान	-12.3738
मोथ	-12.3738
▁96	-12.3738
▁अतिशय	-12.3738
▁चैप	-12.3738
esome	-12.3738
icro	-12.3738
▁रिहाय	-12.3739
▁बूँद	-12.3739
city	-12.3739
़लत	-12.3739
▁बेमतलब	-12.3739
echani	-12.3739
▁विषेश	-12.3739
iger	-12.3739
▁लोमड	-12.3739
old	-12.3739
▁360	-12.3739
rac	-12.3739
▁लेबनान	-12.3739
▁चहक	-12.3739
▁इजरायल	-12.3739
▁बतलात	-12.3739
▁शैतान	-12.3739
▁पराजित	-12.3739
चैट	-12.3739
▁भिड़	-12.3739
▁लाउड	-12.3739
▁सीरोंक	-12.3739
ेंसिया	-12.3739
▁होगये	-12.3739
▁उपनिवेश	-12.3739
▁छाँट	-12.374
▁सिमट	-12.374
▁कैमेर	-12.374
▁साईड	-12.374
▁महिने	-12.374
▁130	-12.374
▁योसेमा	-12.374
▁बोडिया	-12.374
▁56	-12.374
▁196	-12.374
▁दाँव	-12.374
▁गुगल	-12.374
▁डूंढ	-12.374
▁जकड़	-12.374
▁बिगड	-12.374
▁पंडित	-12.374
▁झींग	-12.374
▁65	-12.3741
▁सुनेगे	-12.3741
▁Da	-12.3741
▁महोदय	-12.3741
▁85	-12.3741
▁Sy	-12.3741
▁लिबर	-12.3741
▁चहेत	-12.3741
▁रीलंका	-12.3742
▁अफ़गान	-12.3742
▁बाघ	-12.3742
▁६१	-12.3742
▁धिजीव	-12.3742
▁लाइफ़	-12.3742
▁लिविंग	-12.3742
▁लिटरा	-12.3742
सायट	-12.3742
▁भतीज	-12.3742
▁उदघ	-12.3742
▁गुलाम	-12.3743
▁निकास	-12.3743
▁डुबो	-12.3744
▁मूवी	-12.3744
▁पैकेज	-12.3744
▁नासमझ	-12.3744
▁गोलाकार	-12.3745
एँगे	-12.3745
▁साउथ	-12.3745
▁अफीम	-12.3745
▁कटवा	-12.3745
▁एरिज	-12.3745
▁उपनाम	-12.3745
▁टिंकर	-12.3746
▁संबोध	-12.3746
▁चलायमान	-12.3746
▁23	-12.3747
▁ऊंट	-12.3747
पोलि	-12.3747
लुभावन	-12.3747
▁यामिर	-12.3748
▁.....	-12.3748
▁बेवकूफ़	-12.3748
▁भोजनालय	-12.3749
कंठ	-12.3749
ायदे	-12.375
▁रकृ	-12.375
▁घुड	-12.3751
▁देनदार	-12.3751
▁तेरह	-12.3752
▁लपट	-12.3752
▁बाबर	-12.3752
▁सजाया	-12.3753
▁गलीच	-12.3753
▁उदाहरन	-12.3753
▁१८२०	-12.3753
▁यटक	-12.3754
▁अभिमान	-12.3754
▁पारस	-12.3754
▁अचंभ	-12.3754
▁परिजन	-12.3755
▁उजाल	-12.3755
▁डाउन	-12.3756
▁काँट	-12.3756
▁यूथ	-12.3757
▁रकथा	-12.3757
ाइज	-12.3757
▁उकसाने	-12.3757
ten	-12.3758
तूहल	-12.3758
▁जायेंगी	-12.3759
▁खासियत	-12.3759
▁घुमाव	-12.376
▁अभिलेख	-12.376
▁टाँग	-12.3761
▁रेंक	-12.3761
▁फ़ोट	-12.3762
▁गाइड	-12.3762
▁लुढ	-12.3763
▁अपनेआप	-12.3764
▁दशम	-12.3764
▁कटोत	-12.3764
▁झड	-12.3765
▁जीनियर	-12.3766
▁धुंधला	-12.3768
il	-12.3769
▁2,	-12.377
▁हाइट	-12.377
▁जकड	-12.3771
▁भँवर	-12.3771
▁दखल	-12.3771
दैव	-12.3772
▁मोसमी	-12.3774
ापलट	-12.3775
▁अधि	-12.3776
▁हेै	-12.3776
▁मजीव	-12.3777
▁संजो	-12.3777
▁चरवाह	-12.3777
▁21	-12.3778
४१	-12.3778
▁संबल	-12.3778
डीयो	-12.3779
▁रूढ	-12.3779
▁समरूप	-12.378
यिक	-12.3781
▁पड़ेंगे	-12.3781
▁सूंघ	-12.3781
मेरे	-12.3782
▁परिवारजन	-12.3782
▁मजदूर	-12.3784
▁दाख	-12.3784
▁रखेगी	-12.3787
▁तेंदु	-12.3787
▁हॊं	-12.3789
▁दिखाओ	-12.3791
▁असंतु	-12.3792
▁भाषाविद	-12.3792
▁सीनेट	-12.3792
el	-12.3793
▁करदाता	-12.3793
▁गराज	-12.3794
▁बरतें	-12.3795
ar	-12.3797
▁सोलर	-12.3797
लिनास	-12.3797
▁संभवत	-12.38
▁97	-12.38
▁अवशोष	-12.3802
▁लेगो	-12.3802
▁फ़ासि	-12.3803
▁छांट	-12.3803
▁शयन	-12.3804
▁षयान	-12.3804
िओस	-12.3806
यदा	-12.3808
▁लिट	-12.3811
▁आऊँगा	-12.3812
▁जेफ	-12.3813
▁ज़ुर	-12.3816
▁एलेक	-12.3821
▁निकाले	-12.3823
▁अंकुर	-12.3823
▁चूम	-12.3824
लें	-12.3825
▁दौलत	-12.3827
रही	-12.3829
▁रॉय	-12.3829
▁थूक	-12.3831
▁एयरब	-12.3832
▁वंसकार	-12.3833
▁गाज	-12.3834
नीश	-12.3835
▁बिठाने	-12.3835
▁अनुशास	-12.3836
▁Be	-12.3838
▁नीड	-12.3838
इकोस	-12.3838
▁नोंद	-12.3839
▁अजीबो	-12.3843
▁फ़ंड	-12.3844
▁रभार	-12.3845
▁इथि	-12.3846
pom	-12.3846
▁एलिस	-12.3847
▁गहराइ	-12.3849
nya	-12.3849
▁तरोत	-12.3851
दगी	-12.3853
▁चीटिय	-12.3856
▁पांचवे	-12.3857
▁रेलगाड	-12.3858
▁काँच	-12.3863
भंगुर	-12.3871
▁नामांक	-12.3877
▁विचल	-12.3877
▁सूझ	-12.3879
ॅट	-12.388
pe	-12.388
▁bu	-12.388
▁बिय	-12.3882
▁कहानीकार	-12.3885
▁ऊब	-12.3886
▁रेप	-12.3888
▁जेने	-12.3888
▁गड़	-12.3889
▁फौर	-12.3889
▁कमीज	-12.3889
MA	-12.3891
▁रीफ	-12.3892
▁सचेतन	-12.3895
▁कोमल	-12.3897
▁टकराने	-12.3897
लैन	-12.39
-4	-12.3901
▁जाऊ	-12.3904
▁डालिए	-12.3904
▁अनाम	-12.3905
▁काटो	-12.3908
▁इसतरह	-12.3909
▁सांसद	-12.3911
▁मोड़ने	-12.3913
गला	-12.3913
▁टाट	-12.3913
▁मठ	-12.3914
▁पावर	-12.3915
▁सुव	-12.3921
▁खींचता	-12.3927
▁संपात	-12.393
ँडर	-12.3931
▁रहूँगा	-12.3932
up	-12.3934
टायर	-12.3938
▁अंडर	-12.3938
राम	-12.3941
▁कुं	-12.3941
▁जय	-12.3942
▁संकेतक	-12.3943
▁बांधे	-12.3946
▁अंकल	-12.3952
दिल	-12.3954
▁कृ	-12.3954
▁बाईब	-12.3958
▁समाजसेव	-12.3959
▁चिपकान	-12.396
▁माथे	-12.3964
ड़ित	-12.3965
९५	-12.3966
▁सिखाए	-12.3969
▁काॅ	-12.3974
▁रमाणिक	-12.3974
▁अभिनेता	-12.3975
विस	-12.3978
▁हौक	-12.3979
कारियों	-12.398
▁आँक	-12.3983
ीएसए	-12.3983
▁इज़ा	-12.3985
▁बिछ	-12.399
▁शेक	-12.399
▁पँख	-12.3991
▁दबे	-12.3992
▁घूमा	-12.3992
▁बुराइय	-12.3995
टोरिय	-12.3998
▁महश	-12.4002
▁वाधिकार	-12.4004
दुर	-12.4007
▁उभरे	-12.4011
▁गुथ	-12.4012
▁घू	-12.4016
ओला	-12.4017
राइट	-12.4017
▁होनेपर	-12.4022
▁रूब	-12.4022
मिट	-12.4028
▁घरो	-12.403
▁गलियार	-12.4033
▁संय	-12.4036
ाएंग	-12.4037
▁c	-12.4041
▁रोपे	-12.4041
▁घड	-12.4042
▁राव	-12.4044
▁जोडे	-12.4044
▁रिको	-12.4045
▁झुन	-12.4047
▁लड़किया	-12.405
पाइंट	-12.4052
▁उदासी	-12.4053
▁फोड	-12.4054
ंधि	-12.4056
▁एजेंस	-12.4056
▁गुल	-12.4062
▁लह	-12.4067
▁पछ	-12.4067
ुमन	-12.4068
▁मुनाफ़ा	-12.4071
▁जैन	-12.4073
▁रदाय	-12.4073
ाऊं	-12.4077
▁चौकीद	-12.4079
▁ज़िंद	-12.4079
लोक	-12.409
खार	-12.4091
फू	-12.4095
टो	-12.4101
▁सुझाय	-12.4102
▁अलमार	-12.4102
दृढ़	-12.4116
▁पटरिय	-12.4118
▁सजाव	-12.4126
▁कुशी	-12.4127
▁सीडिय	-12.4127
बूझ	-12.4129
टूर	-12.4131
▁विधाय	-12.4131
▁शाबा	-12.4133
▁धोखे	-12.4134
▁रचारक	-12.4134
▁निकालें	-12.4139
▁शिकायतों	-12.4141
▁बरतन	-12.4142
▁लिखें	-12.415
▁साईक	-12.415
हस	-12.4151
▁बख	-12.4152
▁जीरो	-12.4157
▁पाओ	-12.416
ोगिक	-12.4161
ागन	-12.4166
▁हादस	-12.4167
सरत	-12.4167
▁१९२	-12.417
▁दासत	-12.4178
▁मीनार	-12.4183
▁निपटान	-12.4188
▁सुग	-12.419
▁दिलवा	-12.419
▁बनाएँ	-12.4194
▁बनिये	-12.4194
▁पूँजीवाद	-12.42
▁दीवा	-12.4204
▁धक	-12.4208
▁एनबी	-12.4221
▁नोत	-12.4229
▁हरकार	-12.4232
▁मापन	-12.4233
चना	-12.4238
रेशा	-12.4238
▁लेटे	-12.4248
ंश	-12.4249
▁कुप	-12.4255
▁रणाम	-12.4256
▁चाहो	-12.4257
ens	-12.4258
▁सिखायेंग	-12.4259
▁रहूंग	-12.4259
ian	-12.4271
ंटरनेट	-12.4271
कामा	-12.4285
▁फोल	-12.4287
▁अकस	-12.4288
मपंथ	-12.4293
▁रभ	-12.4294
रव	-12.4295
▁समेट	-12.4304
▁डिल	-12.4307
▁धकार	-12.4318
नेज़	-12.4321
ताव	-12.4332
▁कूब	-12.4334
▁फेक	-12.434
▁gra	-12.4346
सहार	-12.4361
▁मंड	-12.4361
▁कैली	-12.4368
ID	-12.4373
ron	-12.4377
सिन	-12.438
चुआ	-12.4385
बॉल	-12.4386
▁रखो	-12.4392
▁चुराये	-12.4395
पीय	-12.4395
राबर	-12.4403
़ज़	-12.4408
▁भगव	-12.4409
ॉसिप	-12.4409
▁निज	-12.4411
▁dr	-12.4416
iga	-12.4417
ड़प	-12.4429
ोटा	-12.4441
ुना	-12.4445
▁बेब	-12.4447
▁डेट	-12.4454
ानेवाल	-12.4471
मैनेजर	-12.4474
▁चाहू	-12.449
▁गिने	-12.4491
▁जलद	-12.4494
▁पाठक	-12.4506
70	-12.4508
▁शिल	-12.4509
▁कैम	-12.4517
लाफ़	-12.4525
▁दंगे	-12.4525
yn	-12.4531
▁बॅं	-12.4533
▁सहकार	-12.4543
▁खोज़	-12.4545
फेट	-12.4547
▁जिंदगिया	-12.4551
मॅन	-12.456
▁दंग	-12.4561
▁उठे	-12.4575
विल	-12.46
ांड	-12.4601
▁नाइजे	-12.4603
ाँप	-12.4609
▁बचायी	-12.4609
▁भगा	-12.4611
▁करोग	-12.4611
▁एने	-12.4617
िनी	-12.4619
▁कहेग	-12.4628
▁डिन	-12.4631
जाघर	-12.465
▁घम	-12.4659
हान	-12.4671
डि	-12.4677
▁दवाइयो	-12.4682
ँगे	-12.4691
▁अबु	-12.4702
99	-12.4716
▁तलाशन	-12.4743
बिया	-12.4746
▁शाह	-12.4747
▁दसव	-12.475
▁खींचा	-12.4751
▁रतिव	-12.4756
ॉम	-12.4772
उंग	-12.4787
▁उंगलिय	-12.4796
डौल	-12.4806
▁संरचनाए	-12.4837
▁अधेड	-12.4841
▁डिजा	-12.4844
▁धुं	-12.4846
▁याओ	-12.4852
रिश	-12.4867
▁नाइ	-12.4878
गालि	-12.4883
▁बरसा	-12.4884
▁नाग	-12.4886
कंप	-12.4887
▁उपल	-12.4915
▁इंटरफ	-12.4917
सेज	-12.4922
िनियम	-12.4945
▁लामी	-12.4949
तमा	-12.4959
▁रेंगत	-12.4983
▁घनी	-12.4984
▁आपात	-12.5001
वां	-12.5003
िखावट	-12.5006
▁धारणाओ	-12.5011
गतिशील	-12.5011
▁घटी	-12.5019
एल	-12.5019
▁अनुवा	-12.5028
रीफ	-12.5031
▁9	-12.5036
ationa	-12.5038
▁कौम	-12.5039
▁जोशील	-12.5072
टों	-12.5082
▁जेज	-12.509
▁रभावकार	-12.5104
▁रेखाए	-12.5106
गुनाह	-12.5113
३०	-12.5121
▁दाई	-12.5131
▁कुन	-12.5132
▁सूचि	-12.5137
नशीलता	-12.5148
▁कुच	-12.5148
▁बदलकर	-12.515
ुबल	-12.5151
ोई	-12.5154
ंथी	-12.5156
▁3.	-12.5166
२८	-12.5167
▁रोगियो	-12.518
ारतम	-12.5191
साहि	-12.5204
▁मंज	-12.5216
समे	-12.5227
गाड़	-12.5239
▁ओलि	-12.5244
▁आशावा	-12.527
▁टप	-12.5271
▁बंदर	-12.528
▁सुराग	-12.5301
60	-12.531
▁सुस	-12.5313
▁ठू	-12.5315
▁माई	-12.5327
▁अमे	-12.5332
▁छिपान	-12.5338
बैक	-12.5341
▁तरस	-12.5348
▁गुणो	-12.5356
▁वू	-12.5371
िआना	-12.5396
राग	-12.54
ादित	-12.5402
मोसि	-12.5415
▁बोए	-12.5422
rd	-12.5444
▁लकव	-12.5444
तोड	-12.5452
▁Se	-12.546
▁दौडा	-12.546
▁टेन	-12.549
ind	-12.5493
▁टेले	-12.5532
ide	-12.5543
▁बां	-12.5545
ढ़े	-12.5549
ँचे	-12.5563
ॅलर	-12.5563
▁रियाय	-12.5565
बौ	-12.5565
किया	-12.5572
ेंसर	-12.5579
▁नेताओ	-12.5597
भुल	-12.5607
▁परदाद	-12.5609
शीलता	-12.5618
▁यसन	-12.5624
▁पीय	-12.5636
▁चोक	-12.5637
ाजी	-12.5645
▁असंगत	-12.5684
▁राई	-12.5686
ँच	-12.5697
ावट	-12.5725
▁रकल	-12.5729
टिया	-12.573
मेसे	-12.5758
दिर	-12.5764
ype	-12.5765
▁वीरान	-12.5771
▁पदों	-12.5772
बिर	-12.5789
▁लट	-12.5797
▁ढालन	-12.5805
▁युटि	-12.5805
▁७००	-12.5816
झुल	-12.5818
▁ख़रीदा	-12.5819
▁एपी	-12.5823
ायेगी	-12.5831
वेक	-12.5853
गड़ा	-12.5853
▁देखू	-12.5855
▁ईर	-12.5866
ायिक	-12.5899
येगा	-12.5903
ुरूप	-12.5905
▁रहनेवाल	-12.5908
▁निराल	-12.5918
फेर	-12.5922
नाइज़	-12.5935
संघ	-12.596
▁चबा	-12.5961
़ि	-12.5986
▁मुझमे	-12.6019
▁गिय	-12.6025
▁संगठनो	-12.6029
▁ख़रीद	-12.6055
▁मोक	-12.6071
ee	-12.6077
ावास	-12.6087
दात	-12.6095
▁दवाइय	-12.6119
टोग	-12.6124
▁ताने	-12.6136
ैरिय	-12.6151
▁मांगत	-12.616
▁बनानेवाल	-12.6165
nside	-12.6165
▁सडको	-12.6174
पेड	-12.6177
▁170	-12.6187
▁उड़न	-12.621
▁जीस	-12.6217
▁लगेग	-12.6238
▁ढाल	-12.6243
ano	-12.6262
▁पिटा	-12.6269
▁महाश	-12.6278
pre	-12.6279
80	-12.6328
▁नोवे	-12.6346
एबी	-12.6346
लौक	-12.6347
▁190	-12.6349
▁ऎ	-12.6357
रोच	-12.6371
ांतरण	-12.6379
▁घिसा	-12.6384
लीफ़	-12.6392
ानघर	-12.6408
रोक	-12.6413
▁वैक	-12.6416
▁युस	-12.6419
▁पेहेन	-12.643
ng	-12.6439
▁सीने	-12.6444
▁राख	-12.6455
ca	-12.6472
▁तुक	-12.6474
▁बनें	-12.6479
▁बातो	-12.6481
नोल	-12.6491
▁धु	-12.6493
पता	-12.6499
▁नवो	-12.6506
ख़	-12.6511
▁छुपाय	-12.6512
▁तिम	-12.6522
▁कारको	-12.6527
▁गुर	-12.6566
▁वोच	-12.6581
▁शूटि	-12.6585
▁२८	-12.6592
माए	-12.6594
मैथ	-12.662
▁कैफ	-12.6621
▁गाढ	-12.6642
▁झगडा	-12.665
पालिका	-12.667
▁सजी	-12.6681
माला	-12.6686
८६	-12.6726
डान	-12.6744
▁सुवि	-12.6753
▁जुटाय	-12.6759
▁फीत	-12.6768
दूत	-12.6787
▁पहुचे	-12.6819
▁गौरव	-12.684
मुल	-12.6847
ुवे	-12.6848
ant	-12.685
ner	-12.6853
वाइस	-12.6861
▁शाश	-12.6861
▁वॉर	-12.6869
▁सुविधाए	-12.6876
▁दूक	-12.6877
▁संसूचक	-12.6904
▁जुलत	-12.6946
▁भटक	-12.6961
▁फोर	-12.6961
▁टेर	-12.6963
▁बैटम	-12.6963
▁ढूं	-12.6968
▁टाप	-12.6977
डिंग	-12.6984
ौन	-12.6992
पतंग	-12.7013
ैदा	-12.7024
▁डेक	-12.704
▁सुविधाओ	-12.7052
▁लोड	-12.7058
रुकी	-12.7061
▁सरक	-12.7068
ge	-12.7116
▁सराह	-12.7145
▁राहको	-12.7146
▁हौ	-12.7148
bi	-12.715
आय	-12.7155
▁मीर	-12.7157
वु	-12.7165
ालिन	-12.7169
ठन	-12.7194
ौक	-12.7202
काट	-12.7204
▁रकृतिक	-12.7207
शाला	-12.7212
▁उंगल	-12.7224
८९	-12.7277
▁वसन	-12.7319
रुं	-12.7336
लोव	-12.7349
▁१२०	-12.7362
▁संपद	-12.7366
▁ञानिको	-12.7375
▁पाराब	-12.7382
यताएँ	-12.7406
▁बीप	-12.7431
▁बाए	-12.7475
▁लैन	-12.7489
पू	-12.7514
ाँच	-12.7532
७९	-12.7535
ोलॉजी	-12.754
▁बाड	-12.7553
▁नाज	-12.7554
१०	-12.7614
ोडिंग	-12.7636
▁बॅ	-12.7673
▁निभात	-12.7674
▁पालत	-12.7679
▁बहनो	-12.771
▁ज़ु	-12.772
▁दिखाइ	-12.7728
▁युव	-12.775
ss	-12.7762
ौट	-12.7769
शॉप	-12.7771
▁रजातियो	-12.7778
▁संभाव	-12.7803
olo	-12.7816
▁रृं	-12.7819
लावा	-12.783
पिका	-12.7851
▁दाफ	-12.7866
▁थका	-12.7894
खला	-12.791
in	-12.7916
०१	-12.7928
ंथन	-12.7945
टीरिय	-12.7949
▁पादो	-12.7951
▁फ़िलि	-12.7956
▁हाव	-12.7959
ुझे	-12.7977
थो	-12.7984
▁१६००	-12.7996
▁अंज	-12.7996
ga	-12.8004
ुचि	-12.801
▁घटनाच	-12.8014
▁परिणामो	-12.8027
▁st	-12.8033
▁षरो	-12.8051
▁दाए	-12.8053
▁बिंदुओ	-12.8062
बेथ	-12.8071
▁तज़ा	-12.8078
मंज	-12.8115
▁दीक	-12.8116
टब	-12.8119
▁रखूँ	-12.812
▁In	-12.8126
se	-12.8132
▁करदें	-12.8133
▁रोगो	-12.8148
वाड	-12.8179
नायें	-12.8189
▁तराशन	-12.8205
ey	-12.8213
खाना	-12.822
▁दशको	-12.8238
▁एजेंसि	-12.824
▁600	-12.8247
om	-12.8262
ंधे	-12.8263
बाजू	-12.8273
dy	-12.828
▁दॊ	-12.8282
ालिया	-12.8287
ाएगी	-12.8306
ho	-12.8309
▁मुहि	-12.8327
▁साधनो	-12.8351
ुनो	-12.8353
छे	-12.8358
▁परमप	-12.836
ाडू	-12.837
▁कमाये	-12.8379
▁लाए	-12.8405
▁हाद	-12.8409
लच	-12.8423
▁राजनेताओ	-12.8453
▁३५०	-12.8461
ैथोल	-12.8465
▁नाइज	-12.8467
भाष	-12.8479
▁पाएग	-12.8483
▁सलाम	-12.8487
Be	-12.85
▁पोशाको	-12.8511
लौ	-12.8516
ोसि	-12.8519
▁शौ	-12.8545
इज	-12.8547
St	-12.8547
चलन	-12.856
थकान	-12.8563
▁युरो	-12.8565
▁तृ	-12.8567
ter	-12.8568
com	-12.8576
९४	-12.8577
रिबा	-12.8579
हिं	-12.8587
▁800	-12.8588
▁बँध	-12.8594
शोध	-12.8595
रॉय	-12.8597
विट	-12.8598
ावरण	-12.8598
▁फ़ाइ	-12.8599
दौलत	-12.8599
गाढ	-12.8601
भौ	-12.8602
निकाले	-12.8606
उनक	-12.8607
टुकड़े	-12.861
सृजन	-12.861
वंडर	-12.861
हाउस	-12.861
घोर	-12.8611
▁बनाऊँ	-12.8613
पोट	-12.8614
अनुकूल	-12.8614
कौशल	-12.8614
नहीं	-12.8616
अवरोध	-12.8616
अमेरिक	-12.8616
दरवाजे	-12.8616
टाइप	-12.8616
उर	-12.8616
पूँजी	-12.8617
जहाज	-12.8617
साइकिल	-12.8617
संरचना	-12.8617
भौतिक	-12.8617
इंजीनियर	-12.8617
अभियान	-12.8617
▁बनाय	-12.8618
उम	-12.8618
विरोध	-12.8619
गरीब	-12.8619
▁रृ	-12.8619
लेषण	-12.862
१८	-12.8621
अमरीक	-12.8622
अभी	-12.8623
▁ज़बर	-12.8624
विकास	-12.8624
अच	-12.8624
▁अँधे	-12.8626
बीमा	-12.8627
▁बनूँ	-12.8627
रोह	-12.863
विजय	-12.8632
धाव	-12.8633
छप	-12.8633
100	-12.8634
पहल	-12.8635
▁गॅ	-12.8636
युग	-12.8637
पुट	-12.8638
देख	-12.8641
ऊपर	-12.8642
मौत	-12.8642
खेल	-12.8645
खबर	-12.8645
मोल	-12.8648
लाइड	-12.865
खून	-12.8656
हुचन	-12.8659
ाबिल	-12.8659
चालक	-12.8662
सूट	-12.8662
टैन	-12.8663
नेवालोमे	-12.8665
ld	-12.8666
▁संवेदन	-12.8672
ूछ	-12.8673
ech	-12.8673
अस	-12.8674
पथ	-12.8679
▁इग	-12.8679
चीज	-12.868
▁फैसल	-12.8681
▁डीज	-12.8682
आध	-12.8684
िताब	-12.8684
रामदे	-12.8685
ोलॉजि	-12.8691
▁अलाव	-12.8692
िलाने	-12.8694
देशों	-12.8694
▁विकृतिय	-12.8696
▁बंट	-12.8697
मैंने	-12.8698
▁1000	-12.8699
▁सोलह	-12.8701
▁संवेद	-12.8703
▁लगाइ	-12.8704
▁संपाद	-12.8704
▁गंज	-12.8705
▁जाऊँ	-12.8706
िकोण	-12.8707
▁उकसा	-12.8707
▁चुनावो	-12.8708
ेलेग	-12.8709
होने	-12.8711
▁टाफ	-12.8711
मंच	-12.8711
▁बिमा	-12.8715
▁वातावर	-12.8719
तापम	-12.8719
समुदाय	-12.8723
टुब	-12.8724
ंबे	-12.8724
▁आलोच	-12.8725
ti	-12.8726
रिज़	-12.8727
▁धोखेबाज	-12.8729
▁रिव	-12.8729
Me	-12.8731
पटा	-12.8731
▁टौ	-12.8732
नायक	-12.8734
ell	-12.8735
लाइट	-12.8736
कूद	-12.8737
▁अपमा	-12.8737
ंदाज़	-12.8737
▁उखाड	-12.8737
▁रोबो	-12.8737
some	-12.8737
▁वाट	-12.8738
▁घसीट	-12.8738
वैभव	-12.8738
▁दौहरा	-12.8738
सँबँध	-12.8738
▁एंटिआ	-12.8738
agora	-12.8738
माउंट	-12.8738
▁Ame	-12.8738
▁Russ	-12.8738
▁neuroscientist	-12.8738
▁अणुकणिका	-12.8738
▁अफ़ग़ान	-12.8738
▁एनवाय	-12.8738
▁कंबोडिया	-12.8738
▁क़ागज़	-12.8738
▁जगमगात	-12.8738
▁टिमटिमात	-12.8738
▁दौढ	-12.8738
▁धुँधल	-12.8738
▁नपुंसक	-12.8738
▁नौसिखिय	-12.8738
▁पूँजिवाद	-12.8738
▁फडफडा	-12.8738
▁फ़ौज़	-12.8738
▁बोहोत	-12.8738
▁मनमोह	-12.8738
▁मुठभेड	-12.8738
▁मुरुगनाथन	-12.8738
▁रचयिता	-12.8738
▁वावलंब	-12.8738
▁शिथिल	-12.8738
▁सरीसृप	-12.8738
▁एंजिल	-12.8738
▁थेटि	-12.8738
▁अँधकार	-12.8738
▁घिनौन	-12.8738
▁मंगोल	-12.8738
▁मुआवज	-12.8738
titu	-12.8738
▁ओमेगा	-12.8738
lectr	-12.8738
pass	-12.8738
▁लेटफार	-12.8738
बँधाय	-12.8738
▁जागरुक	-12.8738
▁रोफेषन	-12.8738
▁परिमापन	-12.8738
▁जमावड	-12.8738
▁फ़िनान	-12.8738
itter	-12.8738
hip	-12.8738
nyc	-12.8738
▁अँतर	-12.8738
▁आज़मा	-12.8738
▁कठीनाइय	-12.8738
▁बेवफ	-12.8738
▁नगरपालिका	-12.8738
▁पितामह	-12.8738
▁बाइक	-12.8738
ison	-12.8738
▁रिलेटिव	-12.8738
▁तवाहिन	-12.8738
▁Bla	-12.8738
▁जावेगा	-12.8738
▁क़दम	-12.8738
aad	-12.8738
ehr	-12.8738
पोधो	-12.8738
▁कथावाचक	-12.8738
gle	-12.8738
▁झुझन	-12.8738
▁SM	-12.8739
▁पोछे	-12.8739
▁सँरचना	-12.8739
▁दबंग	-12.8739
▁कुदरत	-12.8739
▁अनयूस	-12.8739
art	-12.8739
▁रिबेक	-12.8739
ारेनहा	-12.8739
▁SMS	-12.8739
▁पीडादाय	-12.8739
ber	-12.8739
▁रॉयटर	-12.8739
pend	-12.8739
▁संवाददाता	-12.8739
ad	-12.8739
▁मनोचिक	-12.8739
▁तिगुन	-12.8739
ोलोजिकल	-12.8739
▁रदृशन	-12.8739
ाइबेरिया	-12.8739
▁उखाड़	-12.8739
▁रिजरेटर	-12.8739
ear	-12.8739
़ॊर	-12.874
▁हथेल	-12.874
होँ	-12.874
▁खिसक	-12.874
▁कुंडल	-12.874
▁Art	-12.874
elo	-12.874
▁चुटक	-12.874
▁Sc	-12.874
▁झाग	-12.874
ny	-12.874
ate	-12.874
▁एजे	-12.874
tch	-12.874
ool	-12.874
▁पैठ	-12.874
▁रोटॉन	-12.874
▁Mc	-12.874
▁कूच	-12.874
▁dis	-12.874
नवीस	-12.8741
▁हेलिको	-12.8741
▁San	-12.8741
▁खेलाडू	-12.8741
▁बटोरत	-12.8741
▁संचय	-12.8741
▁फिंगर	-12.8741
orm	-12.8741
▁69	-12.8742
थोल	-12.8742
▁पौलिने	-12.8742
▁63	-12.8742
▁करूणा	-12.8742
▁55	-12.8742
▁उभार	-12.8742
▁दयाभाव	-12.8742
▁४४०	-12.8742
सपेशिय	-12.8742
▁महिमा	-12.8743
▁धमनी	-12.8743
hol	-12.8743
▁वांट	-12.8743
▁रेंटोल	-12.8743
▁An	-12.8743
▁सैंट	-12.8743
hi	-12.8743
▁रूढियाँ	-12.8743
▁पैकेजिंग	-12.8743
▁सुनाऊँ	-12.8743
▁योगपतियो	-12.8743
▁बुध	-12.8743
▁कुरकुर	-12.8743
llen	-12.8744
▁करूगा	-12.8744
pro	-12.8744
ुसलम	-12.8744
▁घुल	-12.8744
▁ढाच	-12.8745
▁156	-12.8745
▁दहाड	-12.8746
▁झांक	-12.8746
▁लीडर	-12.8746
डुल	-12.8746
▁खिच	-12.8746
▁36	-12.8746
▁यायसंगत	-12.8747
▁शपथ	-12.8747
▁यकलाप	-12.8747
बिलउ	-12.8747
▁धोखेबाज़	-12.8748
▁घोड़	-12.8748
▁टटोल	-12.8748
▁मौसी	-12.8748
▁कछु	-12.8748
▁बतायेगा	-12.8748
िविंग	-12.8749
▁38	-12.8749
हारमोन	-12.8749
▁मिजाज	-12.8749
▁धमाक	-12.8749
▁मियाम	-12.8749
▁रुसेस	-12.8749
▁कठीन	-12.8749
▁उंच	-12.8749
▁४६	-12.875
▁कलाबाज	-12.875
▁ऊबड	-12.875
▁......	-12.875
▁खोपडियों	-12.875
▁हाहन	-12.875
▁चचेर	-12.8751
▁चैले	-12.8751
▁चमड	-12.8751
▁आंतक	-12.8752
▁सहेज	-12.8752
▁टीममेट	-12.8752
▁निरोग	-12.8752
▁नहला	-12.8753
ँधा	-12.8753
▁विचरण	-12.8753
▁उपकरनो	-12.8753
▁कटाव	-12.8753
▁भौतिकविद	-12.8754
▁तूफ	-12.8754
▁ठेला	-12.8755
to	-12.8755
▁Mo	-12.8755
िएंट	-12.8756
▁झुला	-12.8757
▁उतावल	-12.8757
▁दिखायेगा	-12.8758
रेज	-12.8758
▁नीसवी	-12.8758
▁अनुकरण	-12.8759
▁फीड	-12.8759
▁गोभी	-12.8759
▁डैल	-12.8759
▁झटपट	-12.8759
▁खामिया	-12.876
▁गौड	-12.876
▁कथाकार	-12.8761
▁खियो	-12.8761
▁आऊँ	-12.8762
▁कृमि	-12.8762
भुमि	-12.8762
▁लाएगा	-12.8762
▁मोटल	-12.8763
▁मॉड	-12.8764
do	-12.8764
▁बारूद	-12.8764
लेवा	-12.8764
▁चॉ	-12.8765
फाई	-12.8766
▁शिकंज	-12.8766
▁रैट	-12.8767
iped	-12.8767
▁जुटाए	-12.8769
▁एकलौत	-12.8769
▁रूफ़	-12.8769
▁भलीभा	-12.8769
▁संवे	-12.8771
ोफिजि	-12.8772
किताब	-12.8774
▁रतियोग	-12.8774
▁तेलेग	-12.8774
मोशन	-12.8775
▁ीमत	-12.8775
▁हॉट	-12.8775
▁बिताई	-12.8776
▁योगिकीविद	-12.8776
▁यपटु	-12.8776
▁एनिमे	-12.8777
▁अजूब	-12.8777
▁अनकह	-12.8777
▁कैच	-12.8778
ॅम	-12.8778
igh	-12.8779
▁तिथी	-12.8779
▁यांतर	-12.878
▁विकाश	-12.878
▁पहनाया	-12.878
▁सुजा	-12.878
▁सॉस	-12.878
वशेष	-12.8782
osh	-12.8783
▁गाउन	-12.8784
घल	-12.8784
▁tap	-12.8784
▁रतीष	-12.8784
▁नैनो	-12.8785
▁दिखाएँ	-12.8785
▁सोलहव	-12.8786
▁तकलीफ़	-12.8786
▁अलोक	-12.8786
नियोक	-12.8787
▁पहुंचेंगे	-12.8787
वाजे	-12.8787
▁फाड़	-12.8788
▁घोड	-12.8788
ैया	-12.8788
▁पहुचाना	-12.879
▁होंठ	-12.8791
une	-12.8795
▁घुमाऊ	-12.8795
▁फ़ैशन	-12.8795
▁घाव	-12.8795
oll	-12.8796
▁बूट	-12.8796
टोप	-12.8796
▁घसीटनेवाल	-12.8797
▁bro	-12.8797
▁लुई	-12.8797
ेंटाइन	-12.8797
▁विशेश	-12.8797
▁असमान	-12.8798
tern	-12.8798
▁लाइसे	-12.8798
▁TM	-12.8798
▁टायल	-12.8799
▁ज़बान	-12.8801
▁गीला	-12.8801
▁लढ	-12.8803
▁बृ	-12.8804
▁लखपति	-12.8806
पेट	-12.8806
कानून	-12.8807
▁अदला	-12.8808
बटा	-12.8809
▁फायर	-12.8812
▁फकीर	-12.8813
▁सजग	-12.8813
ald	-12.8813
देशक	-12.8813
फड	-12.8814
opo	-12.8814
co	-12.8814
▁रियजनो	-12.8814
▁इबाद	-12.8815
▁हथ	-12.8816
▁Bro	-12.8816
खाव	-12.8817
▁कृम	-12.8817
▁विघट	-12.8817
▁साइबेरिया	-12.8817
▁उँच	-12.8818
▁जीनिया	-12.8819
▁जेैस	-12.882
हाद	-12.8821
▁बिरल	-12.8822
ty	-12.8823
▁पायज	-12.8823
टियो	-12.8824
▁उबल	-12.8824
मास	-12.8827
▁कठपुतल	-12.8827
▁बेलग	-12.8828
▁विराम	-12.8828
▁भिड	-12.8829
दिशो	-12.8829
मानव	-12.8831
टेल	-12.8831
▁काउंटर	-12.8832
▁भाड	-12.8834
▁एमिन	-12.8835
▁आंटी	-12.8836
साइकल	-12.8837
ig	-12.8839
वय	-12.8841
▁निशचित	-12.8843
▁भेंट	-12.8844
▁भाड़	-12.8844
ाइवे	-12.8845
़री	-12.8846
▁हांग	-12.8846
▁रचनाकार	-12.8847
▁गडम	-12.8847
जैसा	-12.8848
▁पथरा	-12.8849
जिट	-12.885
▁हठ	-12.885
▁भौं	-12.8851
ros	-12.8852
▁अमीन	-12.8852
▁पीटत	-12.8852
▁डिज़ाईनर	-12.8853
▁रंगो	-12.8854
ौइल	-12.8854
कोफ	-12.8859
गिन	-12.8861
▁टपक	-12.8862
▁भेड	-12.8862
▁गंजे	-12.8863
▁टोलोज	-12.8863
वजूद	-12.8865
▁नाकाम	-12.8866
रोट	-12.8867
▁राधिकार	-12.8868
जिन	-12.887
▁दफन	-12.887
▁वाड	-12.887
▁जांघ	-12.8872
▁दबानेवाल	-12.8873
राधिक	-12.8875
▁धमका	-12.8876
▁सोचेगे	-12.8877
sus	-12.8878
▁bio	-12.8878
छात	-12.8878
▁फ़ुस	-12.8879
तावरण	-12.8879
▁डायब	-12.888
▁करुंगा	-12.8882
दै	-12.8882
▁निधी	-12.8882
▁de	-12.8884
▁मनवा	-12.8884
थान	-12.8884
▁संतान	-12.8884
▁कोलरा	-12.8885
▁फ़ूंक	-12.8887
▁कुमार	-12.889
▁अंतः	-12.8891
▁बंटा	-12.8891
▁रंश	-12.8891
योजि	-12.8892
▁राओ	-12.8895
▁१९४	-12.8895
वेव	-12.8897
▁बँधा	-12.8897
▁यजीव	-12.8897
संबंधी	-12.8898
▁पडताल	-12.8898
▁गगन	-12.8899
▁धडक	-12.8899
▁com	-12.8899
▁ठुर	-12.8901
▁विकासवादी	-12.8902
▁लीफ	-12.8905
बाने	-12.8905
▁पायेगी	-12.8907
हीड	-12.8908
SE	-12.8909
40	-12.8909
▁अमरिक	-12.8909
कॉल	-12.8911
▁सहजीव	-12.8913
▁यूफ़	-12.8913
सुना	-12.8914
▁पहूँ	-12.8916
रियाद	-12.8919
▁सेनेटर	-12.892
ime	-12.8921
▁दियासला	-12.8923
▁रॅ	-12.8923
▁रिबा	-12.8924
▁राच	-12.8926
▁इकाईया	-12.8928
▁बंदिश	-12.8929
▁रसंग	-12.893
सिड	-12.8931
▁नमुने	-12.8933
▁रिंस	-12.8934
▁चमड़	-12.8935
▁हृद	-12.8938
▁डोले	-12.894
सिग	-12.8942
सावा	-12.8942
▁डिनें	-12.8943
तुल	-12.8945
ूति	-12.8945
▁चरख	-12.8948
▁संघट	-12.8951
▁लैं	-12.8952
▁निहार	-12.8953
पिए	-12.8953
▁पैरोड	-12.8955
▁खलन	-12.8958
ोती	-12.8958
ंडुल	-12.8959
▁बीह	-12.8963
▁मॉन	-12.8966
▁रुश	-12.8967
▁विचि	-12.8968
▁हिंदु	-12.897
▁सँघ	-12.8976
लाभ	-12.8983
▁सपो	-12.8987
▁अनुग	-12.8989
▁उतरे	-12.899
▁गुट	-12.8991
▁फैक	-12.8991
वाइ	-12.8992
▁पुण	-12.8993
▁फेड	-12.8998
▁सलामत	-12.8999
▁सीएस	-12.9
▁गाग	-12.9005
लाकि	-12.9006
झी	-12.9007
▁Stan	-12.9008
▁भडक	-12.9009
घोष	-12.901
▁विवेचना	-12.9015
▁फैब	-12.9016
टपटा	-12.9018
▁धुल	-12.9021
▁किरणों	-12.9022
▁रदाता	-12.9023
lat	-12.9024
देर	-12.9024
▁चतुरता	-12.9024
▁रैग	-12.9027
▁इजो	-12.9027
▁lea	-12.903
कदा	-12.9032
लेते	-12.9032
▁बुड	-12.9037
▁कॉस	-12.9037
गमों	-12.9038
▁बिमारिय	-12.9039
▁यथास	-12.904
▁पूछूंग	-12.9043
▁is	-12.9054
▁पठन	-12.9056
▁डुब	-12.906
▁खिलाडियो	-12.906
▁बनेगी	-12.9071
▁टैम	-12.9075
▁संभावनाए	-12.9082
▁अनूठा	-12.9083
मोट	-12.9085
▁लपेटन	-12.9088
▁सटान	-12.9088
▁ऐर	-12.9093
▁आजूबाज	-12.9097
ast	-12.9098
egr	-12.9102
▁अडो	-12.9103
▁टोम	-12.9104
▁बहुतसार	-12.9106
▁मज़बूर	-12.9114
▁विनियोज	-12.9115
▁टियो	-12.9115
▁खोपड	-12.9118
▁फॉरे	-12.9119
▁चीनि	-12.9122
▁दवाखान	-12.9126
बुन	-12.913
हिलओ	-12.913
▁आलस	-12.9133
यांग	-12.9134
▁कॉक	-12.9149
▁गालियो	-12.9154
याधी	-12.9163
लेखन	-12.9165
ियाको	-12.9165
▁चाट	-12.9176
६३	-12.9179
▁गुद	-12.9184
▁सिलव	-12.9184
▁अंधे	-12.9192
जह	-12.9192
▁रैस	-12.9193
मुश	-12.9193
App	-12.9197
▁लाश	-12.9199
▁सहनशील	-12.9206
शालामे	-12.9207
ैनर	-12.9212
मोर	-12.9212
▁असह	-12.9212
▁लगायें	-12.9213
▁पॅर	-12.9218
▁संपोष	-12.9222
▁राँत	-12.9223
▁रतिभाग	-12.9228
▁टिम	-12.9234
▁जाँचने	-12.9235
▁हिं	-12.9236
▁gy	-12.9236
▁बून	-12.9239
शासन	-12.9241
▁टांक	-12.9242
▁सुध	-12.9243
▁BA	-12.9244
▁चीज़ो	-12.9249
गलादेश	-12.9251
▁ha	-12.926
▁ज़िल	-12.9271
ूमत	-12.9273
घरे	-12.9274
▁मोस	-12.9275
दिया	-12.9277
▁अनय	-12.9286
-8	-12.9291
▁रोसेस	-12.9292
८७	-12.9295
जार	-12.9298
ुटिया	-12.9302
▁य़ा	-12.9308
पाया	-12.9309
de	-12.931
▁cl	-12.932
▁रचे	-12.9324
▁नीतिया	-12.9334
हली	-12.9338
▁आउट	-12.9342
▁होइये	-12.9344
▁बेचें	-12.9352
▁बिर	-12.9356
वचन	-12.9365
▁सँत	-12.9371
▁सिलो	-12.9379
▁भंग	-12.9383
ep	-12.9385
▁गुणकार	-12.9387
▁आयन	-12.9392
▁ऑटो	-12.9396
▁ख़ो	-12.9404
वाचक	-12.9405
sl	-12.9405
▁अंधा	-12.9406
▁बताएग	-12.9406
▁भागो	-12.9408
▁यकला	-12.9411
-200	-12.9417
टि	-12.9421
▁जुम	-12.9427
▁ओपे	-12.9427
सरकार	-12.9433
बड़	-12.9434
लंब	-12.9451
ॊट	-12.9454
▁हिचक	-12.9455
ूष	-12.946
▁उगाल	-12.947
▁डू	-12.9478
ाओगे	-12.9479
मिश	-12.948
▁वाहिकाओ	-12.9501
विचारशील	-12.9505
बुले	-12.9511
▁ईसा	-12.9513
जिओ	-12.9517
▁सियो	-12.9524
▁सुप	-12.9529
फाड	-12.9538
▁450	-12.9538
शाय	-12.9542
लेप	-12.9542
▁दिनो	-12.9552
▁Bo	-12.9554
छाड	-12.9558
▁राइल	-12.9566
▁कोलर	-12.9567
ानें	-12.957
ीडे	-12.9577
▁खोजो	-12.9592
▁डाँ	-12.9592
▁एकतरफ	-12.9613
▁खींचेग	-12.9614
जें	-12.9615
हानी	-12.9618
ज़ेम	-12.9634
ssan	-12.9635
▁वलय	-12.9643
रोम	-12.9656
ौच	-12.9658
▁खोलत	-12.9667
पालन	-12.968
▁सैनि	-12.9681
▁गाँ	-12.9691
थना	-12.9705
▁आएँ	-12.9706
लिंड	-12.972
डोर	-12.9729
▁मजब	-12.9744
जित	-12.9746
▁गां	-12.9764
▁बुलाव	-12.9766
▁भट	-12.9772
▁दूंगी	-12.9783
▁फंद	-12.979
माहित	-12.9793
▁परियोज	-12.9816
डियों	-12.982
खूं	-12.982
▁g	-12.9832
▁टियन	-12.9839
▁मेटा	-12.9864
▁तिका	-12.988
▁राट	-12.988
▁जनजात	-12.9886
कुंड	-12.9886
hat	-12.9888
सास	-12.9891
▁दाँ	-12.9896
▁ईवे	-12.9901
चाना	-12.9935
▁Dr	-12.9945
▁नाय	-12.9958
ूप	-12.9961
▁मोइ	-12.9964
िंद	-12.9966
▁दास	-12.9967
▁जीतता	-12.9973
झो	-12.9975
▁तांत	-12.998
लीफ	-12.999
▁नॉर	-12.9991
▁फिड	-12.9992
▁वीकारो	-13.0001
▁छंख	-13.0008
▁p	-13.0019
▁सुखे	-13.0033
▁खुशन	-13.0039
▁खोजें	-13.0051
▁बाड़	-13.0076
शांति	-13.0082
▁यूरि	-13.0092
▁उगाये	-13.0094
ंजन	-13.0098
▁जीवत	-13.0116
▁4,	-13.0123
▁पाऊंग	-13.0124
विम	-13.013
▁सहस	-13.0138
लट	-13.0166
लुलो	-13.0168
▁पैम	-13.0169
▁शव	-13.0171
▁रैम	-13.0212
▁कैफे	-13.0219
▁चखन	-13.0226
ंपा	-13.0231
▁बनायें	-13.0238
लेंड	-13.024
▁निगलन	-13.0243
▁चलाई	-13.0257
८००	-13.028
▁Sp	-13.0285
बदल	-13.03
tic	-13.0305
▁फ़िस	-13.0346
ोहर	-13.0361
िलस	-13.0369
▁रभावशील	-13.0388
tron	-13.0396
ोइ	-13.04
ंखल	-13.045
▁टंक	-13.0457
▁आजमान	-13.0483
▁कियो	-13.0487
फ़ेस	-13.0491
▁टोल	-13.0509
phon	-13.051
▁झो	-13.0511
ेटिव	-13.052
रेड	-13.0521
नीशिय	-13.0535
uter	-13.0547
abl	-13.0556
act	-13.0561
हिले	-13.0562
▁भवत	-13.0601
▁धमनिय	-13.0613
▁जादा	-13.0613
बूल	-13.0613
निध	-13.0644
काव	-13.0645
▁यूनी	-13.0667
▁सुरंग	-13.0675
रडै	-13.0682
▁ऎल	-13.0682
mb	-13.0685
▁चौड़ा	-13.0694
ूफ	-13.0696
▁युले	-13.0721
कुटि	-13.0728
फेन	-13.0729
चुर	-13.0733
▁संपदा	-13.0745
▁बाधाये	-13.0749
▁टूल	-13.0771
▁रखनेवाल	-13.0774
▁नोवा	-13.079
वेदना	-13.0795
कीट	-13.0808
▁ीवाद	-13.0854
▁खनिक	-13.087
▁be	-13.0895
▁गुन	-13.0929
▁शार	-13.0936
▁भटका	-13.0983
ोला	-13.0997
▁संसूच	-13.1023
ोटीस	-13.1044
go	-13.1051
िडी	-13.1059
ुटब	-13.1069
फ़ार	-13.1114
जमिस	-13.1135
ँघ	-13.1141
▁जाओग	-13.1148
▁निराकर	-13.1152
▁विधाओ	-13.1188
▁Mar	-13.1209
ach	-13.1263
▁लाद	-13.1292
▁लगना	-13.1295
फिल	-13.1309
लाओ	-13.132
▁जायज	-13.1355
जेस	-13.1366
▁समाजवाद	-13.1376
▁ईक	-13.1385
▁सिधा	-13.1388
▁असहमत	-13.1408
ord	-13.1426
▁घबराय	-13.1435
▁सहभाग	-13.145
कृतियाँ	-13.1454
लोनि	-13.1457
▁रयोगशालामे	-13.1466
शांत	-13.1482
▁संध	-13.159
नाएं	-13.1655
▁ढूढ	-13.1695
बेह	-13.1696
▁इंका	-13.1718
▁पेहेनत	-13.172
२००	-13.1752
▁मोज़	-13.1755
der	-13.1756
ऑ	-13.86
b	-15.256
♫	-15.2561
!	-15.2562
:	-15.2563
—	-15.2564
)	-15.2565
?	-15.2566
।	-15.2567
उ	-15.2568
&	-15.2569
्	-15.257
