<unk>	0
<s>	0
</s>	0
▁.	-3.24603
▁,	-3.24696
a	-3.29967
e	-3.45228
i	-3.65998
u	-3.83409
o	-3.85868
▁je	-3.95198
▁i	-4.10625
▁u	-4.20594
t	-4.22486
▁	-4.26828
▁da	-4.46591
▁na	-4.69659
▁se	-4.70187
;	-4.70877
▁&	-4.71069
ti	-4.7721
quo	-4.7818
▁su	-5.04367
▁to	-5.13077
▁za	-5.16593
▁sam	-5.16687
▁što	-5.28032
▁ne	-5.2879
om	-5.29023
▁s	-5.29975
m	-5.32052
r	-5.40093
▁od	-5.41679
li	-5.44702
te	-5.46634
mo	-5.53716
▁I	-5.5378
h	-5.54737
▁koji	-5.6134
▁o	-5.64372
ih	-5.64397
▁kako	-5.69533
▁?	-5.7064
▁smo	-5.80201
▁bi	-5.8207
▁:	-5.93301
im	-6.01049
la	-6.04034
▁—	-6.07227
▁)	-6.07566
(	-6.07579
ma	-6.08704
g	-6.09015
š	-6.11078
ima	-6.13373
▁iz	-6.14092
▁koje	-6.14513
▁kao	-6.14955
▁će	-6.16068
ju	-6.20072
▁To	-6.2233
oj	-6.24867
▁koj	-6.26688
▁do	-6.29734
s	-6.30031
og	-6.31973
▁mi	-6.32546
▁po	-6.32667
▁ili	-6.32753
je	-6.34799
▁A	-6.34872
▁ljudi	-6.35149
▁a	-6.3623
an	-6.39343
▁nije	-6.42952
▁U	-6.44164
-	-6.45169
j	-6.46755
▁samo	-6.47019
▁sve	-6.49207
▁ali	-6.512
▁vam	-6.53073
na	-6.54085
p	-6.54425
▁li	-6.56348
▁Ali	-6.58838
▁biti	-6.59003
ne	-6.60667
▁Da	-6.61052
▁sa	-6.64203
ći	-6.64373
▁ako	-6.67814
ni	-6.68276
▁više	-6.6987
no	-6.70111
▁tako	-6.70209
▁stvari	-6.71269
k	-6.71975
▁te	-6.72437
▁bilo	-6.74382
▁ovo	-6.75076
▁ih	-6.76068
▁nis	-6.77104
▁kada	-6.77887
▁način	-6.79015
ama	-6.80515
▁Smije	-6.80736
▁godina	-6.81477
▁ima	-6.83461
ra	-6.8419
▁bio	-6.8581
▁♫	-6.88725
▁Ovo	-6.88984
▁jer	-6.89195
n	-6.8933
ka	-6.89885
▁ja	-6.89971
▁tom	-6.90246
lo	-6.91462
▁nešto	-6.91788
▁ga	-6.9351
▁Ne	-6.9717
▁mogu	-6.98362
▁S	-6.98558
▁kad	-7.01566
kle	-7.0198
▁Na	-7.02188
▁moj	-7.04107
▁nas	-7.04677
nje	-7.04793
▁zapravo	-7.07138
▁me	-7.0783
le	-7.08073
▁može	-7.08498
.	-7.09107
▁možemo	-7.09398
▁ono	-7.10338
▁vrlo	-7.11004
▁svi	-7.11325
▁ste	-7.11729
▁bila	-7.12034
još	-7.14099
▁već	-7.14749
▁možete	-7.16597
ci	-7.1808
▁mogl	-7.18404
nja	-7.19365
▁gdje	-7.21004
▁ovdje	-7.21927
▁radi	-7.22291
▁svoj	-7.22961
▁nam	-7.23086
▁ću	-7.23296
▁poput	-7.23663
z	-7.2443
d	-7.25544
▁prije	-7.25573
kon	-7.25813
▁toga	-7.25853
▁bih	-7.26191
v	-7.26794
em	-7.27465
▁Pljesak	-7.27988
am	-7.28986
▁vas	-7.2945
▁naš	-7.29815
▁koju	-7.30498
▁pa	-7.31012
▁tu	-7.326
▁jedan	-7.32629
▁nego	-7.33357
▁taj	-7.35193
▁on	-7.35297
▁puno	-7.35592
▁stvar	-7.36145
ak	-7.36334
nu	-7.37656
▁oko	-7.38942
▁sada	-7.39376
▁oni	-7.39505
ja	-7.39563
▁Pa	-7.40605
va	-7.41215
▁život	-7.42548
koliko	-7.43635
l	-7.45161
▁bism	-7.45295
▁godine	-7.45886
▁Ako	-7.47466
▁No	-7.47583
▁vidjeti	-7.47667
▁svoje	-7.4831
tko	-7.49918
ri	-7.50759
▁njihov	-7.526
st	-7.52723
▁D	-7.53007
▁postoji	-7.53778
▁pre	-7.54553
▁mnogo	-7.54936
▁mislim	-7.55056
da	-7.55145
▁vrijeme	-7.5525
▁možda	-7.55606
▁K	-7.56894
▁onda	-7.57308
▁malo	-7.58664
▁Što	-7.58704
▁treba	-7.58811
▁ćemo	-7.59088
▁ni	-7.59285
y	-7.59681
▁-	-7.60249
▁ta	-7.60888
▁dok	-7.61195
jući	-7.61296
▁ove	-7.61759
▁bili	-7.62003
▁imamo	-7.62533
▁kroz	-7.62707
▁zbog	-7.62862
či	-7.62883
▁jest	-7.63364
▁bez	-7.63819
f	-7.6507
▁Tako	-7.65072
ve	-7.65927
ost	-7.66105
▁Može	-7.67517
▁svijetu	-7.68335
▁jako	-7.68526
▁pri	-7.686
▁priča	-7.68797
▁tri	-7.68994
▁čini	-7.69042
če	-7.69265
▁ovaj	-7.69501
▁želim	-7.69739
▁reći	-7.70158
▁pod	-7.70171
ski	-7.70309
▁Hvala	-7.71
▁dva	-7.71122
▁reka	-7.73155
▁primjer	-7.73505
▁dobro	-7.74388
▁Za	-7.74422
▁imaju	-7.74908
di	-7.75031
▁zato	-7.76299
▁pro	-7.76943
ca	-7.77179
▁svijet	-7.77266
▁Kako	-7.77497
▁put	-7.77623
osti	-7.77815
dje	-7.7812
▁njih	-7.78163
▁mora	-7.78864
ke	-7.78918
▁problem	-7.79991
▁čak	-7.80256
▁dana	-7.80288
apos	-7.80607
▁im	-7.80863
nim	-7.81128
ravno	-7.81871
▁tim	-7.82558
▁dio	-7.8263
▁Ja	-7.82646
▁stran	-7.83406
▁prema	-7.83901
lu	-7.84401
▁ljude	-7.84705
ije	-7.84996
▁vi	-7.85135
▁danas	-7.85161
▁Po	-7.85166
vi	-7.85772
c	-7.86081
▁različit	-7.86749
▁stvarno	-7.87007
▁znači	-7.87404
▁govori	-7.87597
▁jedn	-7.87668
▁drugi	-7.87731
▁kraj	-7.87893
▁nek	-7.88139
▁neki	-7.88912
▁naše	-7.89402
vijek	-7.89515
▁koliko	-7.89559
zi	-7.90864
▁toliko	-7.91089
▁“	-7.91391
▁takođe	-7.9199
▁zašto	-7.92263
▁tamo	-7.93158
lje	-7.93523
ku	-7.93602
▁kod	-7.94702
▁sustav	-7.95379
▁učinit	-7.95707
bi	-7.95957
▁jedna	-7.96021
nih	-7.96161
▁Kada	-7.96455
▁prvi	-7.96968
ova	-7.97006
▁velik	-7.97162
▁njegov	-7.97542
▁!	-7.97552
▁vrst	-7.97802
▁B	-7.97847
▁ljudima	-7.98002
▁imal	-7.98458
▁Mislim	-7.98558
sti	-7.98959
▁Mi	-7.99627
▁bist	-7.99933
„	-8.0022
▁između	-8.00256
▁dvije	-8.0032
▁no	-8.00476
▁moram	-8.00528
▁vremena	-8.00697
▁ona	-8.00935
▁svijeta	-8.00962
▁događa	-8.01212
b	-8.01339
▁napraviti	-8.01645
▁vaš	-8.0244
▁zna	-8.03045
ko	-8.03178
nom	-8.03253
▁tih	-8.04283
▁dan	-8.04836
▁mene	-8.04976
▁posto	-8.06039
▁pitanje	-8.06669
▁puta	-8.06746
▁svaki	-8.06899
▁mu	-8.07
▁M	-8.07403
▁broj	-8.07602
▁uz	-8.07912
za	-8.08075
▁rade	-8.08214
▁d	-8.08758
▁nema	-8.09499
▁nikad	-8.09603
▁C	-8.09783
▁ti	-8.09955
▁O	-8.10111
▁znat	-8.10462
▁imati	-8.10773
▁slik	-8.10907
po	-8.10977
▁druge	-8.11223
vo	-8.11257
že	-8.11653
pa	-8.11953
▁kojem	-8.12273
▁svoju	-8.1236
iji	-8.12405
ce	-8.1243
▁izgleda	-8.12488
▁života	-8.12643
▁ovom	-8.13525
▁E	-8.14007
▁Zat	-8.14416
in	-8.14791
▁naj	-8.15748
▁si	-8.15869
nog	-8.15917
▁mjest	-8.15998
ba	-8.16429
ži	-8.16981
▁većin	-8.17429
lja	-8.17668
▁neće	-8.17914
▁P	-8.18132
▁vidite	-8.1839
▁moga	-8.19035
▁preko	-8.1943
č	-8.19681
▁gleda	-8.20051
▁Sada	-8.20507
▁10	-8.20706
▁pet	-8.20718
▁svojim	-8.20974
ske	-8.21648
▁poče	-8.22171
▁želi	-8.22692
de	-8.23052
▁F	-8.23726
▁one	-8.2408
▁žena	-8.24376
▁Ima	-8.24413
ž	-8.24624
▁jednom	-8.24957
▁tijek	-8.25079
▁tko	-8.25175
▁ova	-8.25247
▁Ono	-8.25432
▁Kad	-8.25458
▁rad	-8.25724
▁pred	-8.26093
ista	-8.26344
▁ju	-8.26486
▁tada	-8.26546
▁razlog	-8.27627
▁ovu	-8.28322
▁jednostavno	-8.28647
▁Ov	-8.28962
al	-8.29061
▁G	-8.29142
▁vidim	-8.29537
▁drug	-8.29876
tim	-8.29912
▁...	-8.30234
▁odgovor	-8.30336
ica	-8.30591
▁manje	-8.30667
▁slučaj	-8.30738
▁Zašt	-8.30755
▁koristi	-8.3111
▁ljudsk	-8.31975
▁kaže	-8.32013
▁ništa	-8.32033
▁tehnologij	-8.32196
▁potpuno	-8.32351
▁projekt	-8.32773
▁moje	-8.32825
nik	-8.33238
en	-8.33309
▁bolje	-8.33545
▁Nis	-8.33841
ska	-8.34227
▁posao	-8.34339
▁On	-8.34344
▁Do	-8.34565
▁imate	-8.34764
ovi	-8.34892
▁isto	-8.35296
nd	-8.35766
▁dolara	-8.36048
ija	-8.36069
▁stanic	-8.36129
▁milijuna	-8.36386
▁sebe	-8.3644
▁svim	-8.36475
▁trebal	-8.36658
▁dolazi	-8.36863
▁g	-8.36876
sa	-8.36898
▁društven	-8.37075
▁učini	-8.37248
▁upravo	-8.37256
▁ovih	-8.37582
ča	-8.37708
▁Oni	-8.37768
▁znamo	-8.38042
▁žene	-8.38134
▁počel	-8.38223
▁zaist	-8.38238
br	-8.38391
▁Od	-8.38545
▁ob	-8.39846
▁vrsta	-8.39987
vati	-8.40291
▁postoje	-8.4056
▁20	-8.41017
▁redu	-8.41045
▁jednog	-8.41227
ove	-8.41906
▁koriste	-8.42015
▁budućnost	-8.42246
▁četiri	-8.42246
▁;	-8.42304
čk	-8.4237
mjesto	-8.43001
▁Ova	-8.43106
▁ideja	-8.43132
▁baš	-8.43483
▁kojeg	-8.43645
▁vjerojatno	-8.43713
▁znam	-8.44133
▁ovog	-8.44701
vanje	-8.44857
▁T	-8.4486
su	-8.44943
▁takv	-8.45397
▁Ma	-8.45478
▁mozak	-8.46006
▁stvara	-8.46609
će	-8.47053
▁osjećaj	-8.47312
▁par	-8.47424
▁vidi	-8.47485
▁određen	-8.47641
▁slika	-8.47696
w	-8.47747
▁prostor	-8.47761
bo	-8.47948
▁Kao	-8.47984
▁tog	-8.48234
▁proces	-8.48713
▁vodi	-8.4889
▁Sve	-8.49216
nju	-8.49564
▁Nije	-8.497
ata	-8.49801
▁Jer	-8.49985
▁dovoljno	-8.5012
▁teško	-8.50667
ako	-8.50914
uvijek	-8.50982
▁došl	-8.51052
▁koristiti	-8.51282
on	-8.51349
du	-8.51362
ila	-8.51954
nije	-8.52056
▁kojim	-8.52191
ov	-8.5227
▁Stog	-8.52277
▁nad	-8.5242
▁Svi	-8.52997
▁f	-8.5326
▁dogodi	-8.53416
▁sad	-8.53653
▁zajedn	-8.53956
▁raz	-8.5415
▁djece	-8.54279
▁mjesto	-8.54839
▁prilično	-8.54943
▁pomoć	-8.54947
▁W	-8.55029
▁re	-8.55067
▁k	-8.55628
▁ponovno	-8.55942
▁novi	-8.56395
▁vidjeli	-8.56447
be	-8.56584
▁Pro	-8.56805
sta	-8.5691
▁osoba	-8.5694
▁protiv	-8.57406
S	-8.57457
ki	-8.57634
▁trenutk	-8.57887
▁ikad	-8.58627
▁sva	-8.58923
▁Jo	-8.58998
▁napravi	-8.59228
▁energij	-8.5924
▁š	-8.59341
.000	-8.5935
▁često	-8.5943
▁Zaprav	-8.60067
ch	-8.60308
pak	-8.60602
ljen	-8.60748
▁rekla	-8.60827
▁rezultat	-8.6109
▁idej	-8.6117
▁pristup	-8.61282
▁V	-8.61432
▁Imam	-8.61567
bu	-8.61807
▁veliki	-8.61958
▁dogodilo	-8.62194
▁os	-8.62231
▁gotovo	-8.62358
A	-8.62383
▁obitelji	-8.62541
▁vlastit	-8.62666
▁priče	-8.62938
▁ovoj	-8.62967
nost	-8.63736
ice	-8.63806
nici	-8.64007
▁vode	-8.64149
▁model	-8.64236
jte	-8.64475
▁pitanja	-8.64807
▁kasnije	-8.64942
▁onog	-8.64988
▁njima	-8.65075
ža	-8.65198
▁Možda	-8.6529
2	-8.6539
▁program	-8.65473
▁grad	-8.6622
▁važno	-8.66222
▁ču	-8.66508
si	-8.66716
▁svak	-8.6699
ća	-8.67149
god	-8.6767
▁J	-8.67711
▁točno	-8.67749
▁čovjek	-8.67796
▁zove	-8.67839
▁svog	-8.68612
▁mozga	-8.68963
log	-8.69077
▁Postoji	-8.69116
▁cijel	-8.69166
▁odnos	-8.69262
jem	-8.69304
▁b	-8.69443
▁među	-8.69861
▁dijete	-8.70213
▁ovim	-8.70579
▁djec	-8.70669
▁Sad	-8.70879
▁moguće	-8.70978
do	-8.70979
▁film	-8.70997
▁trebamo	-8.71003
▁životu	-8.7102
▁R	-8.71051
▁svom	-8.71297
▁nalazi	-8.71409
▁star	-8.71475
▁jedno	-8.71659
▁19	-8.71806
▁kakv	-8.72134
sko	-8.72278
▁3	-8.72461
▁isti	-8.72536
ng	-8.72565
njem	-8.73222
▁50	-8.73463
▁vaše	-8.73717
▁30	-8.73752
▁zemlje	-8.74027
šao	-8.74524
▁posta	-8.74763
▁Želim	-8.7485
▁moći	-8.7487
skog	-8.75208
▁Znate	-8.75451
lju	-8.75611
▁TED	-8.75638
▁posla	-8.75711
▁naša	-8.75837
▁mali	-8.75858
cije	-8.7593
▁drugim	-8.76033
ck	-8.76233
▁hran	-8.76236
▁našim	-8.76296
ću	-8.76405
cima	-8.76409
rije	-8.76456
▁Bio	-8.76547
▁veom	-8.76662
▁promijeniti	-8.76689
▁unutar	-8.76803
tor	-8.76991
gla	-8.77673
▁ide	-8.7775
▁bile	-8.77886
▁Je	-8.77894
▁žele	-8.78048
▁zamislit	-8.78117
joj	-8.78294
▁jezik	-8.78319
▁prvo	-8.78431
▁informacija	-8.7844
▁pokazat	-8.78644
▁Te	-8.78645
▁bolesti	-8.78858
▁nove	-8.78877
▁Iz	-8.79036
▁rekli	-8.7904
pr	-8.79052
▁pomoći	-8.79287
D	-8.79319
▁bude	-8.79358
▁god	-8.79403
▁ko	-8.79589
▁SAD	-8.79683
▁problema	-8.79739
▁radimo	-8.79757
▁radit	-8.79992
▁Moj	-8.79999
▁misli	-8.80206
▁oči	-8.80224
▁čem	-8.80746
▁op	-8.80909
▁nov	-8.80935
šta	-8.81036
▁priču	-8.81044
▁javn	-8.81168
▁Samo	-8.81238
▁našeg	-8.81313
▁kr	-8.81714
van	-8.81773
▁Ljudi	-8.82191
▁govor	-8.82332
čen	-8.82389
▁važn	-8.82513
▁imam	-8.8271
čan	-8.82964
▁njega	-8.83259
iran	-8.83383
▁Bilo	-8.83439
▁mogućnosti	-8.8349
▁planet	-8.83505
▁riječi	-8.8366
▁obzir	-8.84372
▁niti	-8.84515
lj	-8.84825
▁djecu	-8.84884
▁shvati	-8.84926
▁mijenja	-8.84958
▁New	-8.85743
ze	-8.85829
sku	-8.85833
I	-8.8601
▁riječ	-8.86088
▁H	-8.86233
▁100	-8.86461
0	-8.8671
▁dobr	-8.86912
▁pokret	-8.87125
▁Pri	-8.87167
▁Prije	-8.87418
▁njen	-8.87653
▁stotin	-8.87716
ren	-8.87926
▁Indij	-8.88087
▁razin	-8.8816
▁Jedan	-8.88313
▁promatra	-8.88385
▁cijeli	-8.88491
▁brzo	-8.88589
▁ovako	-8.88591
nas	-8.88669
dr	-8.88935
▁prona	-8.89143
▁mom	-8.89286
▁napravili	-8.89438
7	-8.89638
▁smisl	-8.89704
red	-8.89705
▁ka	-8.89833
▁visok	-8.89937
3	-8.90078
▁živi	-8.90314
▁postal	-8.90353
▁šest	-8.90356
▁zakon	-8.90378
▁Evo	-8.90411
▁Vi	-8.90494
▁novac	-8.90513
▁opet	-8.90627
▁dobiti	-8.90912
5	-8.90921
▁prava	-8.9094
▁igra	-8.91386
▁otprilik	-8.9152
▁sebi	-8.91776
▁Z	-8.9185
▁15	-8.9186
▁Vidi	-8.91965
▁mog	-8.92017
nosti	-8.92103
zira	-8.92108
▁L	-8.92115
▁tr	-8.92348
▁isp	-8.92354
▁4	-8.92544
▁Ta	-8.92616
gdje	-8.92639
▁200	-8.92658
▁tip	-8.92765
▁glas	-8.92968
▁želit	-8.92999
▁prirod	-8.93156
ć	-8.93361
▁de	-8.93444
1	-8.93481
pre	-8.93512
▁postaje	-8.93587
▁mnog	-8.93646
▁kažem	-8.93837
▁zanimljiv	-8.93874
▁vjerujem	-8.93899
▁mjesec	-8.94061
▁uređaj	-8.94088
▁sluša	-8.9417
▁ovoga	-8.94293
▁pol	-8.9467
vali	-8.94764
se	-8.9478
▁prilik	-8.94927
natrag	-8.95162
▁dobil	-8.952
▁globaln	-8.95441
▁podatk	-8.95529
čni	-8.95554
▁Ni	-8.95803
lan	-8.95877
▁prošl	-8.95995
▁mrež	-8.96009
▁veličin	-8.96014
▁govore	-8.96058
▁trenutak	-8.96501
▁svjetsk	-8.96508
is	-8.96662
▁izazov	-8.96746
▁zvuk	-8.96892
▁situacij	-8.96991
▁količin	-8.97236
men	-8.97326
▁poznat	-8.97401
▁tehnologija	-8.97505
ac	-8.97565
anje	-8.97597
▁ogromn	-8.97727
▁Ona	-8.97773
▁morat	-8.97845
ava	-8.9792
▁uopće	-8.97977
▁zadnj	-8.98137
▁robot	-8.98254
▁informacije	-8.98369
▁gen	-8.98419
▁stoljeć	-8.98546
8	-8.98674
C	-8.98734
▁podataka	-8.98973
▁Sa	-8.98997
▁pita	-8.99126
▁dobar	-8.99472
stav	-8.99517
▁oblik	-8.99525
▁niz	-8.99642
▁kaž	-8.99907
ljiv	-8.99998
▁z	-9.00061
▁znaju	-9.00198
▁dalj	-9.00211
▁političk	-9.00266
▁pogledat	-9.0028
▁smrt	-9.00305
▁pogled	-9.00363
▁ljubav	-9.00486
4	-9.00534
▁tek	-9.00846
▁mnogi	-9.00905
▁funkcionira	-9.00944
▁Ili	-9.00947
▁Internet	-9.00996
▁iskustv	-9.01032
▁nevjerojatno	-9.01067
▁pl	-9.01082
▁razvoj	-9.0113
▁tijela	-9.01172
▁čine	-9.01179
▁osjeća	-9.01237
skim	-9.01623
▁jednostavn	-9.01806
▁volim	-9.01812
▁gr	-9.01894
▁skup	-9.01902
kom	-9.02042
▁traži	-9.02108
▁cilj	-9.02227
▁Pre	-9.02326
▁stvori	-9.0247
nika	-9.02471
91	-9.0249
▁meni	-9.0264
cu	-9.02686
▁nauči	-9.02756
▁glav	-9.02815
irati	-9.02891
ovima	-9.03165
▁doći	-9.03257
▁otvoren	-9.0331
▁kući	-9.03377
sto	-9.03494
▁gore	-9.03502
▁zemlj	-9.03536
▁ovakv	-9.03586
▁izvor	-9.03591
▁držav	-9.03811
▁radio	-9.04081
▁proizvod	-9.04465
▁odluči	-9.04619
▁drugo	-9.04628
▁površin	-9.04638
il	-9.04677
sk	-9.04942
▁br	-9.0496
▁Takođe	-9.05169
▁Mo	-9.05181
▁htjel	-9.0524
▁ekonomsk	-9.05435
▁životinj	-9.05494
▁Moram	-9.05635
tivn	-9.05875
▁pacijent	-9.05968
▁točk	-9.06008
▁dugo	-9.06036
▁posebno	-9.06093
▁povezan	-9.06243
ton	-9.06617
▁stranic	-9.06685
▁Ti	-9.0682
▁naši	-9.06829
ču	-9.06878
▁milijun	-9.06918
ll	-9.07027
▁znanstven	-9.0705
▁razgovor	-9.07063
▁Reka	-9.07155
▁promjene	-9.0722
vu	-9.07462
▁strah	-9.07551
▁Dobro	-9.07756
▁rast	-9.0782
▁stanica	-9.07834
▁izvan	-9.08165
žu	-9.08505
▁tisuć	-9.08603
▁ideju	-9.08622
▁40	-9.08714
▁Jedna	-9.08878
▁alat	-9.08884
▁šum	-9.09056
▁svega	-9.0908
▁ras	-9.09109
cija	-9.09406
laz	-9.09415
▁loše	-9.09526
us	-9.09552
▁pokazuje	-9.09569
zna	-9.09621
▁našem	-9.09704
▁ponekad	-9.09802
▁tvrtk	-9.09808
lov	-9.09893
dan	-9.09971
skom	-9.10202
telj	-9.10261
▁pravi	-9.1028
tri	-9.10283
▁izbor	-9.10329
ob	-9.10335
▁pra	-9.10336
▁mjeseci	-9.10395
▁znati	-9.1044
tra	-9.10454
iljem	-9.10541
▁pola	-9.1077
▁moć	-9.10799
6	-9.10856
▁sob	-9.109
▁otkril	-9.10917
niji	-9.1132
▁mislit	-9.11362
▁zemlji	-9.11456
▁La	-9.11581
▁velika	-9.11771
▁Re	-9.11911
ičn	-9.12022
▁bol	-9.12036
nji	-9.12042
▁ocean	-9.12062
▁tijelo	-9.12252
▁5	-9.12289
▁milijardi	-9.12319
▁18	-9.1237
▁Tu	-9.12438
▁crn	-9.1253
▁dug	-9.12531
noj	-9.13237
▁super	-9.13265
▁nekim	-9.1335
▁materijal	-9.13353
▁Znam	-9.13475
▁druga	-9.13495
▁nama	-9.13603
▁minuta	-9.13638
up	-9.13818
E	-9.13844
ks	-9.1386
▁vlad	-9.13948
▁prirodn	-9.13959
▁ekonomij	-9.14076
▁hvala	-9.14079
čn	-9.14186
▁lako	-9.14637
▁ruku	-9.14851
▁ispod	-9.15129
▁sekund	-9.15248
▁zemlja	-9.15376
93;	-9.15542
ron	-9.1557
▁čeka	-9.15627
▁brzin	-9.15665
▁vlada	-9.15733
▁dobra	-9.15897
▁škol	-9.15927
▁neka	-9.16092
R	-9.16196
▁početk	-9.16255
▁njezin	-9.16434
▁pun	-9.16455
▁ran	-9.16547
▁c	-9.16656
▁mlad	-9.16813
P	-9.1683
▁zar	-9.16956
ist	-9.17071
son	-9.17406
▁žive	-9.1771
per	-9.17731
M	-9.18019
9	-9.18027
00	-9.18051
▁utjecaj	-9.18237
▁posljednj	-9.18368
▁ruke	-9.18417
▁drugačije	-9.18446
▁predstavlja	-9.18483
jedno	-9.18847
▁šir	-9.18882
▁novca	-9.1891
▁video	-9.18974
▁jednako	-9.19133
▁radim	-9.19155
tvor	-9.19315
▁najbolje	-9.19366
▁godinu	-9.19479
▁korak	-9.19528
vanja	-9.19577
man	-9.19722
▁tjedan	-9.19766
▁Glazb	-9.19766
▁učitelj	-9.19771
▁vratit	-9.19776
▁školu	-9.19787
▁CA	-9.1982
▁povijesti	-9.19843
▁pravo	-9.19953
▁živjet	-9.20123
▁radili	-9.20188
stvo	-9.20442
B	-9.20532
▁N	-9.20607
▁stvorit	-9.20674
▁predmet	-9.20792
▁stroj	-9.20833
▁istraživanja	-9.20916
▁Postoje	-9.21014
▁uzeti	-9.21117
▁iskustvo	-9.21288
ina	-9.21333
ber	-9.21571
▁veze	-9.21633
▁proučava	-9.21777
▁ostal	-9.21999
▁ovi	-9.22043
▁ulic	-9.22191
▁Prvo	-9.22263
▁let	-9.22296
▁Br	-9.22353
▁promjena	-9.22358
O	-9.2242
▁tjedn	-9.22787
▁područja	-9.22807
▁Ra	-9.22878
▁potreb	-9.22965
▁počinje	-9.22991
▁ra	-9.22998
▁svakom	-9.23081
▁nosi	-9.23124
▁p	-9.2321
tar	-9.23247
▁vama	-9.23265
▁poveća	-9.23535
ver	-9.2357
▁životinja	-9.23623
▁pokušava	-9.23638
▁svakog	-9.23643
▁drugog	-9.23649
▁vide	-9.23657
▁nevjerojatn	-9.23765
▁kuće	-9.23817
▁moraju	-9.23964
▁bić	-9.24009
▁linij	-9.24325
▁smijeh	-9.24338
▁Nema	-9.24373
▁Pogledaj	-9.24526
▁Naš	-9.24533
▁činjenic	-9.24688
▁knjige	-9.24826
▁daleko	-9.25366
▁shvatiti	-9.2548
NK	-9.2549
▁poruk	-9.25521
▁američk	-9.25682
▁desn	-9.2572
▁previš	-9.25724
tak	-9.25726
▁govorim	-9.25732
▁otišl	-9.25808
▁Pun	-9.25837
▁crven	-9.25846
▁potrebno	-9.25872
▁osnovn	-9.25969
▁istraživanje	-9.25983
nuti	-9.26044
kav	-9.26143
▁dobije	-9.26192
lom	-9.26221
▁time	-9.26238
▁knjiga	-9.26471
▁pogleda	-9.26536
▁Le	-9.26634
▁lijev	-9.26653
nes	-9.26669
▁male	-9.27055
▁Dok	-9.27172
▁tisuća	-9.27225
▁odluk	-9.27247
▁mogućnost	-9.27437
▁svemir	-9.27581
▁loš	-9.27602
rd	-9.27659
▁Radi	-9.27745
▁sjedi	-9.28092
ilo	-9.28112
▁sedam	-9.28148
raz	-9.28171
▁slobod	-9.28274
▁Bila	-9.28287
▁zatvor	-9.28338
▁najbolji	-9.28425
▁osobe	-9.28442
▁digitaln	-9.28453
ćen	-9.28464
ing	-9.28529
stan	-9.28863
▁promijenil	-9.29175
▁sustava	-9.29248
▁sličn	-9.29397
▁Ba	-9.29437
▁Velik	-9.29474
▁razliku	-9.29592
el	-9.30214
▁mal	-9.30331
▁prijatelj	-9.30393
▁događaj	-9.30411
▁znanosti	-9.30426
▁bolji	-9.30471
▁nemaju	-9.30566
▁kultur	-9.30739
▁dijel	-9.31147
▁područj	-9.31177
▁zelen	-9.3118
▁igr	-9.31246
▁Afrik	-9.31516
▁lokaln	-9.31622
▁društvo	-9.31664
▁razmišljati	-9.31835
ošću	-9.31853
▁Bog	-9.31897
▁Al	-9.31909
▁1	-9.32005
žn	-9.32062
▁mozgu	-9.32112
bil	-9.32131
kri	-9.32142
▁najviše	-9.32446
▁hrane	-9.32552
▁drugom	-9.3257
▁He	-9.32659
▁zdravstven	-9.32663
▁hoda	-9.32705
▁učinili	-9.32738
▁sati	-9.32868
L	-9.32956
▁daje	-9.32967
▁najveći	-9.32974
▁gradi	-9.32999
čar	-9.3327
▁plav	-9.33482
▁12	-9.33514
▁čul	-9.33581
▁dolaze	-9.33635
▁osam	-9.33648
▁znali	-9.33757
▁novo	-9.33807
▁dođe	-9.33875
▁trebaju	-9.33971
▁stol	-9.34304
▁industrij	-9.34409
▁ime	-9.34452
din	-9.34473
▁drugima	-9.34528
tići	-9.34681
▁odmah	-9.34744
▁boj	-9.34779
▁Neki	-9.34958
▁Gr	-9.3503
▁vezi	-9.35056
▁potrebn	-9.35063
▁nagrad	-9.35086
▁Mogu	-9.35112
kra	-9.35138
▁obitelj	-9.35318
▁sreć	-9.35354
▁zanimljivo	-9.35377
▁majka	-9.35393
▁vrijednosti	-9.35398
▁dolje	-9.35453
▁rat	-9.35465
▁ba	-9.35476
▁radn	-9.35496
▁žen	-9.35808
▁bliz	-9.35925
▁pokuša	-9.35942
▁hti	-9.35962
▁sigurno	-9.36134
▁lud	-9.36198
stvari	-9.36204
▁iste	-9.36216
vel	-9.36427
▁Ob	-9.36429
▁morali	-9.36443
▁Koliko	-9.365
▁čeg	-9.36516
▁vodu	-9.366
▁ured	-9.36776
▁svaka	-9.36833
▁Africi	-9.36864
▁čist	-9.36915
▁bijel	-9.36998
▁lijep	-9.37033
▁pokazal	-9.37231
▁računala	-9.37411
▁temelj	-9.37738
▁trebalo	-9.3784
▁stog	-9.37933
▁imen	-9.38165
radi	-9.38213
▁stavit	-9.38245
▁lic	-9.38315
G	-9.38342
ns	-9.3851
▁napisa	-9.38521
▁grupa	-9.38687
▁uspjeh	-9.3871
▁muškarac	-9.38711
▁dostupn	-9.3883
▁očito	-9.38894
osim	-9.39051
▁siromašn	-9.39083
▁6	-9.39126
▁doba	-9.3913
▁ku	-9.39202
▁nikakv	-9.39233
▁pisa	-9.39295
▁trgovin	-9.39457
▁bare	-9.39471
▁pravu	-9.39474
▁dizajn	-9.39553
▁udaljen	-9.3959
vjer	-9.39595
zbilja	-9.3966
▁ovome	-9.39663
▁zdrav	-9.39841
▁Moja	-9.39916
▁istina	-9.3993
ističk	-9.39984
▁mas	-9.4014
▁čita	-9.40194
jev	-9.40334
▁odgovori	-9.40486
▁dosta	-9.40488
▁proda	-9.40572
▁svjetl	-9.40596
▁odrasl	-9.40602
▁moraln	-9.4074
▁Zemlj	-9.40892
▁živ	-9.40942
dnu	-9.40969
▁područje	-9.41079
▁prati	-9.41093
▁ključn	-9.41313
▁jedni	-9.41416
▁bolnic	-9.41433
▁rada	-9.41458
▁zrak	-9.41504
▁evo	-9.41517
▁eksperiment	-9.41679
▁fotografij	-9.41805
▁razini	-9.41866
ici	-9.42017
▁promijeni	-9.42079
▁trenutno	-9.42119
▁normaln	-9.42136
▁poslu	-9.42309
▁doša	-9.42431
▁misle	-9.42508
rani	-9.42552
▁ulog	-9.4259
vaju	-9.42619
▁osta	-9.42692
▁razmislit	-9.42953
rez	-9.43003
T	-9.43017
ven	-9.43094
▁upravlja	-9.43151
▁str	-9.43154
▁dokaz	-9.43359
ujemo	-9.43529
▁van	-9.4365
▁dobi	-9.43769
▁završi	-9.43917
▁Taj	-9.43944
▁Zamislit	-9.44005
▁sposobnost	-9.44123
▁započe	-9.44217
▁zgrad	-9.44588
▁koristim	-9.44839
▁tumor	-9.449
▁osob	-9.45128
▁pravila	-9.45187
▁vjer	-9.452
▁razumjeti	-9.45251
prije	-9.45257
▁auto	-9.45346
▁kontrolira	-9.45371
▁Š	-9.45621
▁komad	-9.45633
▁borb	-9.45649
▁pomalo	-9.45654
▁nekom	-9.4573
▁struj	-9.45766
vodi	-9.45807
▁znanost	-9.45855
▁Kr	-9.45956
▁okoliš	-9.4605
▁kontrol	-9.46121
▁stvoril	-9.46215
▁osnovi	-9.46257
nica	-9.46668
stići	-9.46749
▁naučit	-9.46802
▁uzima	-9.46813
▁svijest	-9.46818
▁neku	-9.46849
▁poduzeć	-9.46853
▁vještin	-9.46854
▁signal	-9.46945
▁prva	-9.47117
▁malen	-9.47139
▁Kin	-9.47159
▁Mora	-9.47189
▁poziv	-9.47376
dio	-9.47415
▁Ha	-9.47436
▁stop	-9.47444
▁stavi	-9.4745
▁2	-9.47615
juće	-9.47644
▁otac	-9.47676
pro	-9.47751
▁uistin	-9.48042
▁budu	-9.48071
▁prekrasn	-9.48336
▁Ho	-9.4847
▁riješiti	-9.48766
kov	-9.4883
▁rup	-9.49119
rija	-9.49198
▁kvalitet	-9.49308
▁teorij	-9.49313
▁najveć	-9.49314
▁student	-9.49375
▁lijekov	-9.49468
▁živim	-9.49591
▁uzorak	-9.49724
icu	-9.50015
▁dobiva	-9.50126
▁doslovno	-9.50196
▁čovjeka	-9.50203
▁roditelj	-9.50407
▁Jes	-9.50417
▁modern	-9.50559
▁osobn	-9.50563
▁zaštit	-9.50571
▁ru	-9.5076
▁noći	-9.5079
▁Ok	-9.50792
▁generacij	-9.50847
demo	-9.50975
▁tvoj	-9.50981
▁vijesti	-9.50984
▁kamer	-9.50991
▁mladi	-9.50993
▁OK	-9.51003
▁Većin	-9.51242
▁pu	-9.51342
▁zemalja	-9.514
▁Google	-9.514
▁bit	-9.51472
▁snažn	-9.51577
▁Ro	-9.51729
▁električn	-9.51823
vije	-9.51838
▁napravljen	-9.51861
▁kompanij	-9.51892
▁istin	-9.52168
▁jedini	-9.52172
kli	-9.52198
▁istu	-9.522
▁ponašanj	-9.52207
▁Prvi	-9.5225
▁smatra	-9.52275
zu	-9.52331
▁kož	-9.52515
▁sigurnost	-9.52544
govor	-9.52621
▁dr	-9.52833
loži	-9.53042
▁jasno	-9.53055
▁vid	-9.53169
▁slično	-9.53226
▁vremenu	-9.53257
▁večer	-9.53388
▁nova	-9.53653
▁hoće	-9.5397
▁revolucij	-9.5397
▁sredin	-9.53977
▁razgovara	-9.53999
▁tešk	-9.5407
▁škole	-9.54207
▁8	-9.54321
okolo	-9.54342
▁lice	-9.54364
▁sata	-9.54448
▁njem	-9.54473
▁poslovn	-9.54493
▁društva	-9.54526
inu	-9.54544
▁pogledaj	-9.54593
vla	-9.54685
▁internet	-9.54739
▁otišao	-9.54849
▁muškarci	-9.54861
▁otkri	-9.54932
▁Tada	-9.54949
jednom	-9.55053
▁evolucij	-9.55099
▁Zna	-9.55216
grad	-9.55228
▁mislio	-9.55265
nsk	-9.55276
▁Video	-9.55281
▁ponov	-9.55428
▁onom	-9.55475
▁nekoga	-9.55476
▁25	-9.55577
▁složen	-9.55628
▁skoro	-9.55699
den	-9.55702
▁sljedeć	-9.55796
▁jednoj	-9.5598
▁proizvodnj	-9.56021
▁razmišljam	-9.56022
ničk	-9.56052
▁nekog	-9.56284
▁postaju	-9.56327
▁različitim	-9.56455
▁plan	-9.56494
▁mala	-9.56584
▁rizik	-9.56607
▁Među	-9.56607
iziran	-9.56638
▁dobio	-9.56709
id	-9.56723
kla	-9.5686
▁ponašanje	-9.56989
▁interakcij	-9.57053
▁ispred	-9.57081
ciju	-9.57157
▁kor	-9.57324
▁obliku	-9.57366
▁telefon	-9.57415
▁društv	-9.57452
▁papir	-9.57525
ste	-9.57758
▁obično	-9.57831
▁vrt	-9.57838
▁prst	-9.57901
godišnj	-9.57923
▁rak	-9.57931
pušta	-9.57935
▁sviđa	-9.57952
▁nedavno	-9.57953
▁sukob	-9.57973
▁sljedeće	-9.58024
▁reci	-9.58169
▁demokracij	-9.58405
▁strani	-9.58506
stva	-9.58781
▁Treba	-9.58784
▁tež	-9.58819
▁perspektiv	-9.58859
▁njegova	-9.58912
▁svjetlost	-9.58912
ent	-9.58947
▁Onda	-9.59053
▁prošlost	-9.59081
▁pi	-9.59086
▁operacij	-9.59194
▁institucij	-9.59316
▁mobitel	-9.59316
▁Nikad	-9.59317
▁snimk	-9.59368
▁potpunost	-9.59399
▁pokušaj	-9.59433
▁škola	-9.59485
lik	-9.59601
▁izum	-9.59606
▁Mogl	-9.5961
▁glazb	-9.59698
▁stvaraju	-9.59791
▁rješenje	-9.60107
▁cest	-9.60294
▁sin	-9.60321
▁Os	-9.60335
▁obje	-9.60352
▁bori	-9.60407
▁sretn	-9.60409
▁pop	-9.60411
▁zid	-9.60454
▁računalo	-9.60582
▁djetet	-9.60699
▁otkrić	-9.6076
▁razvoju	-9.60922
▁deset	-9.61031
ljiva	-9.61214
▁sestr	-9.61236
▁metara	-9.61236
▁duboko	-9.61238
nova	-9.61298
▁Želi	-9.61435
▁kratk	-9.61441
▁djevojk	-9.61548
▁Amerik	-9.61626
▁podijelit	-9.61631
▁osjećam	-9.61673
ork	-9.61693
▁prikaz	-9.61706
▁pokušavam	-9.61833
tku	-9.61836
▁bavi	-9.61921
▁roditelji	-9.61928
▁sljedeći	-9.61945
▁mjeri	-9.62095
▁knjigu	-9.62104
▁Uprav	-9.62105
▁nju	-9.62121
▁željeli	-9.62144
▁vašeg	-9.62207
▁nadam	-9.62211
▁obrazovanje	-9.62227
ljivo	-9.62317
▁prijatelja	-9.62322
vjet	-9.62325
ry	-9.62466
vši	-9.6247
▁boja	-9.62479
▁priprem	-9.62575
▁metod	-9.62576
▁postoja	-9.62825
▁mnogim	-9.62846
▁smatram	-9.62929
▁ljudski	-9.62949
▁milijarde	-9.62959
mjer	-9.62968
▁pital	-9.63037
vao	-9.63137
▁automobil	-9.63147
▁njim	-9.63161
▁država	-9.63276
▁stalno	-9.63431
▁stvaranj	-9.63599
▁ranije	-9.63635
▁medicinsk	-9.63653
▁želj	-9.63671
fer	-9.63697
▁srednj	-9.63701
vno	-9.63714
▁vrata	-9.63887
▁drugačiji	-9.63994
▁organ	-9.64259
▁pjesm	-9.64288
▁mir	-9.64295
▁bitno	-9.64301
▁izraz	-9.64344
san	-9.64388
▁la	-9.64404
▁velikim	-9.64463
što	-9.6447
▁jedino	-9.64536
▁znanstvenici	-9.64544
gen	-9.64545
▁usp	-9.64638
▁Uz	-9.64737
vesti	-9.6497
▁vrijednost	-9.6508
ološk	-9.65208
nta	-9.65305
▁gledate	-9.65495
▁zvan	-9.6557
▁zovem	-9.65902
▁svakodnevn	-9.65938
▁zajednice	-9.6594
▁biljk	-9.65948
▁pronašl	-9.66
der	-9.66136
▁cijen	-9.66145
lozi	-9.66238
▁vidjel	-9.66418
▁uslug	-9.66428
▁kriz	-9.66486
▁vraća	-9.66548
▁rata	-9.66571
lji	-9.66581
nice	-9.66666
▁Druga	-9.66818
▁povijest	-9.66868
▁možeš	-9.66886
▁brže	-9.66978
▁znanstvenik	-9.67
▁doktor	-9.67048
▁Zemlji	-9.67135
▁upozna	-9.67309
▁svu	-9.67325
▁komunikacij	-9.67329
▁matematik	-9.67335
▁granic	-9.67378
▁per	-9.67443
▁građan	-9.67457
▁uključen	-9.67477
▁razmišljanja	-9.67488
F	-9.67515
▁detalj	-9.6752
▁sla	-9.67529
▁veza	-9.67797
▁16	-9.6793
▁živjel	-9.6798
▁kutij	-9.68123
▁tem	-9.68174
▁nazva	-9.68195
ment	-9.68256
▁aktivnosti	-9.68262
▁slijedi	-9.68335
▁9	-9.6846
▁razlika	-9.68503
▁Tko	-9.68528
val	-9.68594
▁sat	-9.68647
▁kreativn	-9.68761
▁voli	-9.68797
▁cijelo	-9.68867
▁nemam	-9.68908
▁Sp	-9.69018
▁Bu	-9.69063
▁poslije	-9.69079
aca	-9.69108
vljen	-9.69108
▁vezan	-9.69119
▁brojev	-9.69135
▁planin	-9.69175
▁spremni	-9.6921
roz	-9.69252
▁nacionaln	-9.69285
▁smjer	-9.69451
▁bogat	-9.69567
▁Mars	-9.69586
irali	-9.69594
▁pada	-9.69644
▁nada	-9.69669
▁dom	-9.6971
▁iznad	-9.69934
▁80	-9.70007
K	-9.70008
ličan	-9.70044
▁grupe	-9.70045
svim	-9.70082
▁posve	-9.70151
▁doda	-9.70167
▁boje	-9.70242
žen	-9.70273
lek	-9.70378
▁interes	-9.70477
▁Znači	-9.70496
▁krug	-9.70627
▁činjenica	-9.70651
▁vrijedn	-9.70651
▁zl	-9.70652
ljeni	-9.70717
▁zajedničk	-9.70792
▁planeta	-9.70815
▁Volim	-9.70844
▁postavlja	-9.70884
▁Americi	-9.70951
▁jedinstven	-9.70951
▁suradnj	-9.70951
▁kćer	-9.70952
▁socijaln	-9.70954
▁mjestima	-9.71022
res	-9.71084
▁60	-9.71091
▁moguć	-9.71327
▁7	-9.71436
▁otkriti	-9.71457
hod	-9.71458
▁unutra	-9.71465
▁led	-9.71656
ično	-9.71743
▁Sh	-9.71772
▁stvarnost	-9.7179
▁nje	-9.71853
▁jednak	-9.71948
▁rasprav	-9.71959
▁Zbog	-9.71985
▁poprilično	-9.72001
▁stoji	-9.72025
mer	-9.72046
▁sadržaj	-9.72059
▁veći	-9.72095
▁Svaki	-9.72124
▁seks	-9.72213
▁bar	-9.72229
nov	-9.72398
▁11	-9.72442
▁komp	-9.72456
▁Vrlo	-9.72507
▁Sjedinjen	-9.72531
▁bolest	-9.72538
▁ispriča	-9.7255
▁minut	-9.72557
▁svira	-9.726
▁prob	-9.72617
▁Europ	-9.72672
▁ploč	-9.7294
▁shvatili	-9.7298
▁košta	-9.73069
▁ostali	-9.73129
▁osigura	-9.73331
▁djelo	-9.73445
▁devet	-9.73559
▁dijelov	-9.73575
▁odlučili	-9.73718
▁religij	-9.73937
▁laboratorij	-9.74046
▁sazna	-9.74081
▁seksualn	-9.74086
▁proizvodi	-9.7414
▁fizičk	-9.74284
▁opisa	-9.74556
▁širi	-9.74563
▁financijsk	-9.74617
▁dizajnira	-9.74617
▁karijer	-9.74618
▁donosi	-9.74625
▁nečeg	-9.74625
▁virus	-9.74636
▁početak	-9.74663
▁koleg	-9.74759
▁Li	-9.74827
▁međusobno	-9.7484
▁znanj	-9.75003
▁One	-9.75027
▁umjetnost	-9.75102
▁Poče	-9.75121
▁sigurn	-9.75131
▁vjerovat	-9.75141
▁strojev	-9.75229
▁umjetnosti	-9.75291
▁zanima	-9.75427
ster	-9.75455
▁godin	-9.75553
tru	-9.75642
▁Stvar	-9.75659
▁naprijed	-9.7569
▁molekul	-9.75743
▁postat	-9.75878
▁naziva	-9.759
nekako	-9.76008
▁umjetn	-9.76127
▁svjetlo	-9.76138
▁kuć	-9.76177
▁komunicira	-9.7623
▁publik	-9.7623
▁mentaln	-9.76231
▁pokazuju	-9.7626
izam	-9.76375
▁vođe	-9.7638
▁14	-9.76394
▁organizacija	-9.76478
put	-9.76492
▁list	-9.76538
▁stavlja	-9.76623
▁omogućava	-9.76773
▁konačno	-9.76773
▁mrav	-9.76775
▁emocij	-9.7679
▁mnom	-9.76812
▁populacij	-9.76857
▁pres	-9.76876
▁rođen	-9.7689
▁Drugi	-9.7692
▁idu	-9.76989
▁promjenu	-9.77005
▁Lo	-9.77049
ijim	-9.77061
▁visoko	-9.77199
▁kar	-9.77249
▁uzbuđen	-9.7732
vala	-9.77347
meta	-9.77446
▁brod	-9.77478
▁vr	-9.77607
ps	-9.77654
▁sretni	-9.77756
▁naučili	-9.77786
▁stan	-9.77895
▁probleme	-9.77942
▁ok	-9.77984
▁stvarnosti	-9.78028
▁filmov	-9.78073
ld	-9.78086
▁glavn	-9.78117
▁val	-9.78151
▁potencijal	-9.78179
▁čitav	-9.78194
▁Ve	-9.78407
▁verzij	-9.78421
▁web	-9.78422
▁napredak	-9.78422
▁pomaže	-9.78424
com	-9.78458
▁beb	-9.78526
▁čud	-9.7855
▁sto	-9.78566
▁kakav	-9.78584
▁kog	-9.786
▁opasn	-9.78611
▁umr	-9.78686
▁jednostav	-9.78724
▁studij	-9.78728
▁medicin	-9.78825
▁Go	-9.78891
▁John	-9.78995
▁bak	-9.79062
▁zajednica	-9.79211
▁potom	-9.79222
▁ruka	-9.79238
▁stvaranje	-9.79254
žalost	-9.79267
siguran	-9.79275
▁učinkovit	-9.79318
biti	-9.79428
▁uvjet	-9.7943
jete	-9.7945
▁njihovim	-9.79456
▁uključi	-9.79476
▁pas	-9.79483
▁for	-9.79625
▁Mar	-9.79656
▁budem	-9.79725
▁savjet	-9.79728
▁Mnog	-9.79789
▁sunc	-9.79857
▁započel	-9.79881
nicima	-9.79922
▁London	-9.80097
▁ujutro	-9.80097
gled	-9.80155
▁pokušati	-9.80286
▁Gdje	-9.8029
nija	-9.8029
▁najbolj	-9.80317
▁vozi	-9.80416
▁uspjeli	-9.80596
▁energiju	-9.80603
▁pomogl	-9.80633
▁inteligencij	-9.80662
▁vizualn	-9.80662
▁Prva	-9.80664
▁djela	-9.80712
▁uzork	-9.80861
▁brinu	-9.80865
▁postavi	-9.80971
▁Pi	-9.80974
▁dobri	-9.81031
▁cijelom	-9.81091
▁uče	-9.81171
▁koncept	-9.81227
▁svrh	-9.81231
▁17	-9.81254
▁plaća	-9.81323
jmo	-9.81324
▁stav	-9.81362
▁prv	-9.81405
čki	-9.81425
▁pametn	-9.81475
▁stanju	-9.81493
▁rib	-9.81547
▁rješenja	-9.81609
▁ljudskog	-9.81656
▁stari	-9.81728
▁prve	-9.81743
▁tajn	-9.81791
▁objekt	-9.81818
▁kamen	-9.81849
▁postane	-9.81875
nter	-9.81896
▁neuron	-9.82034
▁četvrt	-9.8214
▁predstav	-9.82227
▁voda	-9.82291
▁jezika	-9.82298
▁dodatn	-9.82318
▁pjeva	-9.82325
▁obrazovanj	-9.82364
▁razvija	-9.82427
▁biologij	-9.82493
▁vrh	-9.82528
jam	-9.82534
▁skupin	-9.82618
▁raste	-9.82663
▁bolj	-9.82691
alni	-9.82779
har	-9.82823
▁mor	-9.82824
H	-9.82896
više	-9.82916
len	-9.82923
▁majmun	-9.82955
▁knji	-9.82959
▁vole	-9.82962
▁13	-9.82978
▁uključujući	-9.82998
▁pitanju	-9.83001
▁nalaze	-9.83022
▁centr	-9.83088
▁kazn	-9.83105
N	-9.8311
▁cijelog	-9.83222
▁želje	-9.8331
▁biološk	-9.83311
▁izgledaju	-9.83322
▁lijek	-9.8335
▁gledam	-9.8336
▁razlik	-9.8336
▁pojavi	-9.83371
▁korisn	-9.83385
▁politik	-9.83441
▁stanje	-9.8345
▁ples	-9.83562
▁savršen	-9.83614
▁riječima	-9.83668
▁fizik	-9.83905
▁povećava	-9.83947
rin	-9.83956
▁putu	-9.84117
▁dječak	-9.84121
▁Čini	-9.84121
▁funkcij	-9.84121
▁okvir	-9.84121
▁izvanredn	-9.84123
▁mikrob	-9.8415
▁prihod	-9.84173
▁ciljev	-9.84223
▁lijepo	-9.8432
▁bakterij	-9.84336
▁odgovornost	-9.8434
▁zabav	-9.84389
▁znala	-9.84583
▁rasta	-9.84596
▁razdoblj	-9.84709
▁sveučilišt	-9.84709
▁virtualn	-9.84709
▁slijedeć	-9.84781
▁grada	-9.84829
▁dovel	-9.84918
▁pitat	-9.84947
panj	-9.85
▁zdravlje	-9.8518
▁organizacije	-9.85208
▁godišnje	-9.85288
▁fakultet	-9.85301
▁strategij	-9.85301
▁čimpanz	-9.85301
▁vanjsk	-9.85306
▁Tijek	-9.85315
▁išl	-9.85315
▁uglav	-9.85317
▁pruža	-9.85418
bol	-9.85712
▁krv	-9.8587
▁razum	-9.85891
,000	-9.85896
▁poremećaj	-9.85896
▁zahtjev	-9.85896
▁Dr	-9.85919
co	-9.8594
▁usta	-9.85969
▁spava	-9.86012
▁ovisi	-9.86013
▁Pos	-9.86017
▁faz	-9.86028
▁ista	-9.8618
▁partner	-9.86209
telji	-9.86354
▁Naj	-9.8641
▁nekad	-9.86459
▁morsk	-9.86479
▁test	-9.86479
▁poslov	-9.8648
▁protein	-9.86503
▁regij	-9.86503
▁slab	-9.86663
▁naprav	-9.8668
▁svemiru	-9.86795
misao	-9.8692
kin	-9.87024
▁prolazi	-9.87055
▁čovječanstv	-9.87097
ss	-9.87146
▁pretvara	-9.87149
▁glasa	-9.87181
▁Nek	-9.87188
dov	-9.87198
▁pojav	-9.87307
dva	-9.8734
▁uživa	-9.87461
▁trud	-9.87691
par	-9.87694
▁kilometar	-9.87703
▁temperatur	-9.87703
▁solarn	-9.87704
▁Bili	-9.87733
▁razvi	-9.87802
▁jedina	-9.87872
▁važ	-9.87896
▁razumijem	-9.87977
▁sigurni	-9.88194
▁sjajn	-9.88269
▁onim	-9.88297
▁zvijezda	-9.88377
▁90	-9.88378
▁nastavi	-9.88427
▁fotografija	-9.8852
zor	-9.88633
šću	-9.8864
▁bogatstv	-9.88674
▁uzrok	-9.88703
▁znanje	-9.88783
▁pozitivn	-9.88893
▁otpad	-9.88932
▁element	-9.88932
▁predivn	-9.88955
ler	-9.88961
▁desetljeća	-9.88965
▁umjetnik	-9.88974
pra	-9.88974
▁krivo	-9.89289
▁sjećanj	-9.89332
▁pojm	-9.89378
▁srce	-9.89421
▁najvažnij	-9.89445
đivanj	-9.89498
▁međunarodn	-9.89544
▁mrtv	-9.89544
▁Južn	-9.89545
▁sredstv	-9.89547
▁njoj	-9.89548
▁jeftin	-9.89567
▁zvuči	-9.89734
ow	-9.89736
▁noć	-9.89797
▁odnosi	-9.8993
▁narod	-9.90021
▁pored	-9.90033
▁učenje	-9.90075
▁san	-9.9011
des	-9.90141
▁tradicionaln	-9.90165
▁avion	-9.90166
▁mašt	-9.90259
▁nazivam	-9.90413
▁vrhu	-9.90519
lin	-9.90555
▁Misli	-9.90686
▁Trebam	-9.90755
▁šans	-9.90797
▁inač	-9.90871
▁izgubi	-9.90883
▁Ri	-9.90949
▁24	-9.91063
▁pažnju	-9.91086
▁uzme	-9.91109
▁sadrž	-9.91259
▁prove	-9.9137
▁sposobnosti	-9.9139
nem	-9.91416
▁ekran	-9.91422
▁dijelovi	-9.91463
▁odličn	-9.91467
▁kut	-9.91628
▁srca	-9.91628
▁drugačij	-9.91631
▁hrp	-9.91693
▁Pod	-9.91695
▁nastaviti	-9.91703
▁treć	-9.9176
▁privatn	-9.9178
▁jedinic	-9.91812
▁žensk	-9.91816
▁mar	-9.91841
▁vani	-9.91964
▁Već	-9.91977
nski	-9.92049
▁uobičajen	-9.92052
▁utječe	-9.92052
▁polovic	-9.92056
▁ogrom	-9.92059
▁zaustavi	-9.92109
▁glad	-9.9213
▁održiv	-9.92145
▁resurs	-9.92149
ljev	-9.92158
▁spor	-9.92226
stran	-9.92341
vni	-9.92416
▁primi	-9.92482
▁Posta	-9.92493
▁vratil	-9.92512
▁neobičn	-9.92651
▁prijatelji	-9.92729
▁duh	-9.92762
▁čij	-9.92766
▁istraživač	-9.92839
iranje	-9.92876
▁postali	-9.92992
▁San	-9.93015
▁vremensk	-9.93042
▁park	-9.93121
▁glavi	-9.93194
▁obal	-9.93315
▁odlično	-9.93326
▁definira	-9.9333
▁zadatak	-9.93331
▁dodir	-9.93344
▁vatr	-9.93362
dno	-9.93428
▁odgovara	-9.93717
▁namjer	-9.93794
▁glavni	-9.93836
▁populacije	-9.93876
▁ljet	-9.93883
▁trag	-9.93892
▁Chris	-9.93975
▁dijelu	-9.93983
▁Japan	-9.93985
rni	-9.93991
▁mišić	-9.93996
▁gledaju	-9.94021
▁Bož	-9.94088
▁dvoje	-9.94137
▁studen	-9.94145
▁odjeć	-9.94194
acija	-9.94197
rađuju	-9.94336
▁hladn	-9.94399
▁In	-9.94464
▁viš	-9.945
▁graf	-9.94553
▁Sva	-9.94593
▁galaksij	-9.94624
▁klimatsk	-9.94625
▁troškov	-9.94632
▁vizij	-9.94645
▁zajednic	-9.94686
▁stranica	-9.94726
rečeno	-9.94732
▁sav	-9.94745
▁raka	-9.94966
▁pokreta	-9.95069
▁organizacij	-9.95112
nce	-9.95158
▁pojedinc	-9.95198
▁računaln	-9.95202
kako	-9.95216
▁lov	-9.95226
▁krenu	-9.95263
▁osnova	-9.95287
▁neurona	-9.95487
▁neko	-9.95576
▁dečk	-9.95592
▁drža	-9.95674
▁skuplja	-9.95688
▁kol	-9.95888
▁mreža	-9.95962
▁milijard	-9.96114
▁manj	-9.96126
▁svemira	-9.96258
iraju	-9.96334
▁posebn	-9.96352
▁zvijezd	-9.96529
▁susjed	-9.96555
▁napada	-9.96566
▁liječnik	-9.96598
▁strukture	-9.96599
▁oprem	-9.96614
▁prosječn	-9.96616
▁Bez	-9.96619
▁goriv	-9.96636
ral	-9.96658
▁potpun	-9.9666
▁prem	-9.96935
▁objasni	-9.97099
▁poprav	-9.97144
▁okruženj	-9.97154
▁putovanje	-9.97156
▁časopis	-9.97265
▁emocionaln	-9.97265
▁princip	-9.97267
▁Nadam	-9.97302
vin	-9.97449
▁tehnološk	-9.97468
natoč	-9.97474
jesti	-9.97483
▁Govor	-9.97486
▁iznimno	-9.97515
nci	-9.9752
▁Ar	-9.97581
ički	-9.97631
▁gor	-9.97661
▁Ot	-9.97692
▁Dobi	-9.97714
▁usporedb	-9.97936
▁000	-9.97952
▁akcij	-9.98025
▁kemijsk	-9.98073
▁trans	-9.9813
▁sreće	-9.98149
▁brz	-9.98172
▁novim	-9.98222
▁dizajner	-9.98232
▁500	-9.98243
stati	-9.98298
▁Jest	-9.98424
▁Bit	-9.98442
▁prednost	-9.98453
gar	-9.98515
▁red	-9.98561
▁tijelu	-9.98583
▁nemoguće	-9.98585
▁razvil	-9.98592
▁Ponekad	-9.98612
▁terapij	-9.98612
▁tvornic	-9.9862
▁prave	-9.98624
▁dijelove	-9.98712
▁Bi	-9.98715
pad	-9.98847
▁Kaž	-9.98885
vanju	-9.98967
▁račun	-9.9908
alno	-9.99143
▁razumije	-9.99198
▁prod	-9.9929
▁aplikacij	-9.99292
▁profesor	-9.99292
▁rep	-9.99292
▁Odgovor	-9.99328
▁uspi	-9.99423
▁okolin	-9.99592
▁kuća	-9.9961
▁Ove	-9.99646
▁pretpostavk	-9.99696
▁učenja	-9.99753
▁svjesni	-9.99791
icama	-9.9982
▁dubok	-9.99868
ff	-9.99921
▁iskoristit	-9.99937
▁podaci	-9.9996
▁mikro	-9.99967
▁dimenzij	-9.99977
▁ljepot	-9.99977
▁pozornic	-9.99978
▁nečem	-10
▁vrijedi	-10.0003
▁volio	-10.0005
▁znakov	-10.0019
▁razmišljanje	-10.0032
▁osjetil	-10.0041
bar	-10.0045
▁informacij	-10.0046
▁pregled	-10.0047
▁mojim	-10.0053
▁novinar	-10.0054
▁vjeruju	-10.0054
▁radil	-10.0062
▁zahtijeva	-10.0067
bl	-10.0069
▁Vjerujem	-10.007
▁laboratoriju	-10.0072
▁rijek	-10.0076
sni	-10.0077
vis	-10.0077
▁Nov	-10.0084
▁uzel	-10.0089
▁otkriva	-10.0115
▁sklad	-10.0116
▁motor	-10.0135
▁čvrst	-10.0136
▁visin	-10.0137
▁Priča	-10.0144
▁glasov	-10.0145
▁istinit	-10.0157
▁pogrešno	-10.0157
▁rod	-10.016
▁malim	-10.0167
▁drog	-10.0168
▁veliko	-10.0168
▁dosad	-10.0169
▁70	-10.0173
pali	-10.0174
▁uvid	-10.018
▁napo	-10.0181
▁drži	-10.0181
▁inženjer	-10.0182
▁računal	-10.0188
▁Oh	-10.0191
V	-10.0205
▁tehnik	-10.0207
▁TV	-10.0208
▁razumijevanje	-10.0213
▁Drugo	-10.0216
▁genom	-10.0227
▁svakoj	-10.0229
▁vođa	-10.0276
▁izradi	-10.0277
▁glazba	-10.0283
▁rijetk	-10.0283
▁učiti	-10.0289
▁dokaza	-10.0291
▁traže	-10.03
▁brat	-10.0309
▁korištenje	-10.031
▁Imal	-10.0311
▁zatvoren	-10.0319
▁objasnit	-10.0322
čin	-10.0323
▁fenomen	-10.0334
▁ruk	-10.0339
▁atmosfer	-10.0347
▁pokazao	-10.0347
▁dječj	-10.0347
▁kos	-10.0353
▁održava	-10.0356
▁vlastiti	-10.0356
▁ubrz	-10.0381
▁prijetnj	-10.0382
▁sobi	-10.0383
▁razne	-10.0388
sam	-10.039
▁atom	-10.0391
▁nog	-10.0393
ner	-10.0399
▁zaključ	-10.0401
▁kapital	-10.0407
blj	-10.0415
gov	-10.0415
▁identitet	-10.0419
▁kriminal	-10.0419
▁Više	-10.0421
▁problemima	-10.0422
▁širok	-10.0425
▁vijest	-10.043
▁primjen	-10.0431
▁mislil	-10.0441
▁odvija	-10.046
▁mijenjaju	-10.0466
▁provodi	-10.0489
▁ograničen	-10.0492
▁strast	-10.0494
▁dopustit	-10.0498
▁izbora	-10.05
čava	-10.0502
▁običn	-10.0506
▁baci	-10.0508
▁čuje	-10.0509
klad	-10.0509
▁razmišlja	-10.0512
▁zajednici	-10.053
▁svemirsk	-10.0537
▁morala	-10.054
▁odluka	-10.0541
▁radnik	-10.0553
▁Facebook	-10.0563
▁Razmislit	-10.0563
▁središt	-10.0563
▁tvrdi	-10.0566
▁pomislio	-10.0567
▁kampanj	-10.0574
▁izda	-10.058
▁div	-10.0581
▁slijep	-10.0595
▁itd	-10.0604
čno	-10.0615
▁aktivn	-10.0618
▁noge	-10.0623
▁počinju	-10.0627
▁desetljeć	-10.0632
braz	-10.0632
▁rečenic	-10.0636
▁lekcij	-10.0637
▁mušk	-10.0638
▁Rekla	-10.0639
▁počne	-10.0652
▁Koji	-10.0652
▁Bill	-10.0668
▁dokument	-10.0669
▁vidjet	-10.0673
▁studenti	-10.0678
zacij	-10.0684
▁Hoće	-10.0689
▁kolega	-10.0691
▁kome	-10.0696
izma	-10.0704
mijenjen	-10.0707
ero	-10.0709
▁matičn	-10.071
▁prisutn	-10.071
▁upita	-10.071
▁arhitektur	-10.0712
▁pričam	-10.0713
▁iskoristi	-10.0714
lazak	-10.0724
pira	-10.074
▁ulazi	-10.0743
▁nalik	-10.0744
▁brak	-10.0747
▁treće	-10.0757
spada	-10.0765
▁igrač	-10.0766
orku	-10.0776
▁užasn	-10.0782
▁HIV	-10.0784
▁simbol	-10.0784
W	-10.0794
▁klim	-10.0797
▁nepo	-10.0804
▁testira	-10.0804
rana	-10.0812
▁opć	-10.0823
▁ozbiljno	-10.0826
▁spomenu	-10.0826
▁štet	-10.0828
▁ubija	-10.0837
▁Mnogi	-10.0846
▁moćn	-10.0847
jeni	-10.0853
▁vlak	-10.0857
▁efekt	-10.0858
▁Njegov	-10.0858
▁pokus	-10.0859
pos	-10.087
▁Trebal	-10.0876
▁povrat	-10.0898
▁materijala	-10.0902
▁zv	-10.0902
▁mark	-10.0902
▁svako	-10.0904
▁napravil	-10.0905
▁ptic	-10.091
▁stoljeću	-10.0912
▁prilika	-10.0913
▁djeci	-10.0916
▁pokušal	-10.0923
▁ponaša	-10.0931
▁popis	-10.0939
▁smije	-10.095
▁zub	-10.0952
gre	-10.0964
▁klas	-10.0965
▁posljedice	-10.0972
▁znak	-10.0973
▁mozgov	-10.0973
▁zb	-10.0986
▁mlade	-10.0996
▁stvarn	-10.1
▁kv	-10.1004
▁najdraž	-10.1009
▁objašnjava	-10.1009
▁strukturu	-10.1009
▁zabrinut	-10.1009
▁kinesk	-10.101
▁muzej	-10.101
▁prozor	-10.1015
▁Bar	-10.1016
▁nul	-10.1026
▁čitati	-10.103
▁dnevno	-10.1035
avlja	-10.1047
▁Isto	-10.1052
gram	-10.1054
▁zraka	-10.1055
▁Pita	-10.1056
▁Počel	-10.1059
▁inovacij	-10.1063
▁prihvat	-10.1064
▁kuk	-10.1069
▁nužno	-10.1084
▁Problem	-10.1086
▁Sljedeć	-10.1086
▁predsjednik	-10.1086
nuli	-10.109
▁duš	-10.1091
▁učinak	-10.1091
▁korištenj	-10.1092
▁snage	-10.1092
▁predavanj	-10.1095
▁vidljiv	-10.1103
▁iznenad	-10.1106
▁shvaća	-10.1124
stao	-10.1135
▁vjerojatnost	-10.1142
▁odrasta	-10.1154
▁kreira	-10.1156
▁Afganistan	-10.1163
▁ugljik	-10.1163
▁Izgleda	-10.1163
▁bank	-10.1166
▁Vaš	-10.1166
▁izgradnj	-10.1167
▁Europi	-10.117
▁Gleda	-10.1171
▁budući	-10.1188
ger	-10.1195
▁velikom	-10.1197
▁dijelom	-10.1198
▁valov	-10.1204
▁divn	-10.1224
▁prepozna	-10.1234
▁današnj	-10.1236
▁Twitter	-10.124
▁uključuje	-10.124
▁struktura	-10.124
▁izlazi	-10.1244
▁naslov	-10.1244
▁sila	-10.1247
▁ključ	-10.1248
▁pojavljuj	-10.1252
▁standard	-10.1256
mišlja	-10.1258
▁kat	-10.1259
▁snag	-10.1263
▁ponavlja	-10.1268
▁članov	-10.1271
▁sumnj	-10.1271
▁velikog	-10.1272
▁povezani	-10.1276
▁tič	-10.1277
▁miš	-10.1279
ley	-10.1281
▁dodat	-10.1317
▁zapita	-10.1319
▁kulture	-10.1321
▁Sunc	-10.1321
▁bomb	-10.1325
▁posvuda	-10.1327
▁vrat	-10.133
▁izgradit	-10.1333
▁učinil	-10.134
▁prirodi	-10.1348
▁Kini	-10.135
▁koristil	-10.1354
vija	-10.1355
▁hrani	-10.1379
▁gubi	-10.1388
▁cjepiv	-10.1397
▁Sjevern	-10.1397
▁plemen	-10.1397
▁srčan	-10.1398
▁kolonij	-10.1398
▁iskren	-10.1402
▁željel	-10.1403
▁ispit	-10.1404
▁svem	-10.1407
▁posjet	-10.1415
▁reagira	-10.1416
▁svjesn	-10.1418
▁istovremen	-10.143
▁objavi	-10.1433
▁vratim	-10.1443
▁generacija	-10.1443
irao	-10.1444
▁osjet	-10.1446
▁rasp	-10.1453
▁fizički	-10.1454
ris	-10.1457
▁publici	-10.1476
▁njom	-10.1476
▁bicikl	-10.1477
▁Dopustit	-10.1477
▁glup	-10.1478
▁Zove	-10.1485
▁Op	-10.1488
▁spoj	-10.1501
▁napad	-10.1505
▁poruka	-10.1507
▁primijeti	-10.1514
▁prev	-10.1517
▁fantastičn	-10.1517
▁tamn	-10.1524
▁napravim	-10.1528
▁javnost	-10.1533
▁zamišlja	-10.1535
▁pjesma	-10.1536
▁automobila	-10.154
▁kultura	-10.1541
▁pogledam	-10.1542
▁proizvode	-10.1546
▁rub	-10.1547
▁istraživa	-10.155
▁Ovi	-10.1555
▁tren	-10.1556
▁Jednostavno	-10.1556
▁Pokazat	-10.1556
▁centar	-10.1556
▁definicij	-10.1556
▁prosjek	-10.1556
▁tradicij	-10.1556
▁ha	-10.1557
▁urban	-10.1557
▁online	-10.1558
▁vašim	-10.1562
▁djeluje	-10.1562
▁čudno	-10.1568
▁zamjen	-10.1568
▁djevojčica	-10.1572
▁pojedin	-10.1572
▁istraživanj	-10.1574
vil	-10.1578
▁ro	-10.1587
▁postavit	-10.1588
▁osjećaju	-10.1589
▁dopušta	-10.1589
skoro	-10.1589
▁dovodi	-10.1593
▁održa	-10.1594
▁cijeni	-10.1618
rs	-10.1619
▁zaštiti	-10.1623
ramo	-10.163
▁pamet	-10.163
▁kril	-10.1632
▁upotreb	-10.1637
▁lokacij	-10.1637
▁napretk	-10.1637
▁povezati	-10.1638
▁ponud	-10.1648
▁vremenom	-10.165
▁ulaz	-10.165
▁instrument	-10.1656
dalje	-10.1658
▁policij	-10.1662
▁okup	-10.1665
▁Hu	-10.167
▁aktivnost	-10.1674
▁sustavu	-10.1678
▁naučil	-10.1682
▁vojsk	-10.1686
▁teb	-10.1696
▁oblika	-10.1699
▁nastav	-10.1705
▁kompanija	-10.1708
▁Morat	-10.1712
▁zvukov	-10.1712
▁trebam	-10.1716
▁osobno	-10.1717
▁zapanjujuć	-10.1718
▁kvantn	-10.1718
▁pripada	-10.1719
▁prijenos	-10.1719
▁zapis	-10.172
▁drag	-10.172
▁Uzmi	-10.1721
▁usput	-10.1724
▁umjetničk	-10.1726
▁idem	-10.1727
▁prolaz	-10.1727
org	-10.1728
▁južn	-10.1728
▁značajn	-10.1735
▁srž	-10.1752
▁vozila	-10.1752
▁studija	-10.1755
▁težin	-10.1757
▁polu	-10.1758
▁tipičn	-10.1767
▁apsolutno	-10.1768
▁zainteresiran	-10.1796
▁staja	-10.1797
▁Vjerojatno	-10.18
▁neprijatelj	-10.18
▁lagan	-10.1801
▁kamo	-10.1802
jela	-10.1804
▁aktivira	-10.1804
▁Jedin	-10.1805
▁prijateljima	-10.1805
▁kreće	-10.1809
▁meta	-10.1819
▁glazbe	-10.1824
▁ljudsko	-10.1827
▁prikazuje	-10.1828
▁naziv	-10.1829
▁kretanj	-10.1832
▁organizira	-10.1834
smo	-10.1835
▁čuva	-10.1841
▁nastavlja	-10.1845
▁zgrada	-10.1858
▁analiz	-10.186
▁hr	-10.1876
▁vježba	-10.1876
▁ograničenj	-10.1881
▁Kalifornij	-10.1883
▁financira	-10.1883
▁omogućuje	-10.1883
▁Američk	-10.1883
▁posljedica	-10.1885
▁neć	-10.1893
▁istraži	-10.1898
▁kreativnost	-10.1909
▁omogućil	-10.191
▁zov	-10.1915
▁nesreć	-10.192
▁temeljn	-10.1921
▁glazben	-10.1927
▁tekst	-10.1927
▁Svaka	-10.1936
▁misij	-10.1937
▁ručn	-10.1941
▁temelji	-10.1946
vrs	-10.196
▁poseb	-10.196
▁udar	-10.1965
▁faktor	-10.1966
▁genetsk	-10.1967
▁sistem	-10.1967
▁automat	-10.1968
▁doma	-10.1971
▁razvijen	-10.1971
▁Prošl	-10.1974
▁čudn	-10.1979
▁razmišljaju	-10.1993
U	-10.1995
▁troš	-10.2025
▁sjaj	-10.2027
▁proći	-10.2029
▁Imaju	-10.2033
▁ćeš	-10.2038
▁unaprijed	-10.205
▁pozornost	-10.205
▁balon	-10.2051
▁precizn	-10.2052
▁rastu	-10.2054
▁upal	-10.2057
▁razred	-10.2058
▁Or	-10.2064
▁majk	-10.2075
▁Nemoj	-10.2083
▁metal	-10.2095
ker	-10.2099
▁služb	-10.2107
▁postan	-10.2107
▁Jednom	-10.2108
▁snima	-10.2111
▁majke	-10.2116
▁iduć	-10.2123
▁Tri	-10.2125
▁specifičn	-10.2131
▁pacijenata	-10.2135
▁plastik	-10.2135
▁Izrael	-10.2135
▁preprek	-10.2135
▁odabir	-10.2136
▁nazad	-10.2136
▁osjetljiv	-10.214
▁ostatak	-10.2142
▁pokažem	-10.2147
lice	-10.2168
▁teži	-10.2171
▁mišljenj	-10.2173
▁zadnje	-10.2177
▁150	-10.2178
▁pomislil	-10.2179
▁teren	-10.2185
▁srednje	-10.219
▁uhvati	-10.2193
▁žrtv	-10.2194
ljan	-10.2205
▁Tamo	-10.2207
vic	-10.2216
▁pčel	-10.2219
▁dovest	-10.2219
▁djetinjstv	-10.2221
staje	-10.2221
▁izgubil	-10.2233
▁Pitanje	-10.2233
▁najvažnije	-10.2234
▁troši	-10.2234
▁prazn	-10.2236
▁lak	-10.2238
▁važnije	-10.2241
▁stati	-10.2243
▁dobij	-10.2246
jena	-10.2248
▁zapadn	-10.225
▁snov	-10.2255
▁ostalo	-10.2262
▁slici	-10.2268
▁opasnost	-10.2278
piti	-10.2283
▁obiteljsk	-10.2295
juć	-10.2298
▁nuklearn	-10.2307
▁softver	-10.2307
▁vozač	-10.2307
▁pozadin	-10.2307
▁suprug	-10.2307
▁Ovak	-10.2307
▁smiješn	-10.2308
▁obavlja	-10.2309
▁pokušavajući	-10.2333
▁prvom	-10.2333
▁prvog	-10.2345
▁upoznal	-10.2347
ras	-10.2349
▁piše	-10.2354
▁povezanost	-10.2368
▁vlast	-10.2378
▁predvidje	-10.2394
▁usred	-10.2395
▁kupit	-10.2405
▁teorija	-10.2406
▁sre	-10.2407
▁mnoštvo	-10.2412
▁sastav	-10.2423
▁pretvori	-10.243
▁pobjed	-10.2431
▁planira	-10.2434
▁Raz	-10.2434
▁tvari	-10.2442
cijsk	-10.2447
živo	-10.2447
▁šalje	-10.2449
▁krvn	-10.245
▁relativno	-10.2457
slika	-10.2467
▁istom	-10.2468
▁pročita	-10.2474
▁Neće	-10.2478
čkog	-10.2478
▁infrastruktur	-10.2481
▁platform	-10.2481
▁krevet	-10.2481
▁nevidljiv	-10.2481
▁gomil	-10.2483
▁nasilja	-10.2483
▁umrijet	-10.2485
▁čin	-10.2485
▁Stvarno	-10.2487
▁odlazi	-10.2494
▁negativn	-10.25
▁miris	-10.2508
▁sloj	-10.2508
▁medij	-10.2509
▁molim	-10.2527
▁rob	-10.2528
▁siromaštva	-10.2543
▁granica	-10.2555
sigurno	-10.256
▁stavil	-10.2564
▁pridruži	-10.257
▁lozink	-10.257
▁pozicij	-10.257
▁prehran	-10.2571
▁vratio	-10.2577
▁snimi	-10.2582
▁nos	-10.2607
▁životni	-10.2612
▁djevojka	-10.2613
nula	-10.2624
▁pismo	-10.2625
▁shvatil	-10.2629
▁kontakt	-10.263
▁iznos	-10.263
▁razgovarat	-10.2646
▁stup	-10.2651
▁kuha	-10.2653
▁stvoren	-10.2655
▁mačk	-10.2657
▁metafor	-10.2659
▁dugoročn	-10.2659
▁pomažu	-10.2659
▁mobiln	-10.2659
▁satelit	-10.266
▁masovn	-10.266
lažu	-10.2674
▁djed	-10.2676
▁stil	-10.2677
▁Svak	-10.2683
zda	-10.2683
▁sjajno	-10.2708
▁novog	-10.2709
▁umrl	-10.2712
▁pisanj	-10.2715
▁Jako	-10.2715
▁prikazan	-10.2718
▁300	-10.2725
bili	-10.2725
▁čime	-10.2733
▁Kar	-10.2739
▁vojn	-10.274
▁kompliciran	-10.2749
▁besplatn	-10.2749
▁vožnj	-10.2749
▁služi	-10.2749
▁crta	-10.2751
▁svijetom	-10.2751
▁jutro	-10.2753
▁Zemlja	-10.2761
▁Moje	-10.2767
ovog	-10.2767
▁raznolikost	-10.2771
▁televizij	-10.2788
▁izrad	-10.2789
▁svo	-10.2797
siti	-10.2797
nac	-10.2801
▁konferencij	-10.284
▁povijesn	-10.284
▁uništi	-10.284
▁građansk	-10.2844
▁David	-10.2852
▁prostoriji	-10.2856
onaj	-10.2856
▁duž	-10.2863
▁razumijevanj	-10.2867
NA	-10.2871
▁sjećam	-10.2874
dite	-10.2875
▁zdravstv	-10.2881
▁otvara	-10.2882
J	-10.2885
▁predstavljaju	-10.2886
▁Sta	-10.2893
opis	-10.2895
▁ostavlja	-10.2896
▁reakcij	-10.29
▁ozbiljn	-10.2901
▁engleski	-10.2903
▁krov	-10.2907
▁post	-10.291
nicu	-10.2913
▁Prav	-10.2928
▁opcij	-10.2928
▁sjeća	-10.293
▁nisk	-10.2932
▁Publik	-10.2932
▁afričk	-10.2932
▁restoran	-10.2932
▁knjižnic	-10.2932
▁hitn	-10.2932
▁okoliša	-10.2933
▁osobi	-10.2937
▁prijav	-10.2937
▁stres	-10.2938
▁jak	-10.2943
▁dobit	-10.2948
▁gran	-10.2956
▁ravn	-10.2961
▁upravljanj	-10.2965
▁trećin	-10.2968
▁Dan	-10.2968
▁privatnost	-10.2972
▁medija	-10.298
▁tržište	-10.2988
▁slatk	-10.2995
zmu	-10.2998
▁sjeti	-10.3002
pred	-10.3015
▁dizajna	-10.3015
▁napusti	-10.3018
▁popularn	-10.302
▁dvo	-10.3021
▁kriv	-10.3024
▁dob	-10.3024
▁aspekt	-10.3025
▁pronađe	-10.3025
▁političar	-10.3025
▁povratn	-10.3025
▁porast	-10.3029
▁kupi	-10.303
▁izjav	-10.3035
▁klik	-10.3037
▁Njihov	-10.3039
▁kasn	-10.304
raju	-10.3049
▁sjevern	-10.3052
▁izgradi	-10.3053
▁učenik	-10.3054
▁ostvarit	-10.3057
▁stvarni	-10.3074
▁pomislit	-10.3075
▁voljel	-10.3075
▁državn	-10.3075
▁rješavanj	-10.3086
▁trak	-10.3101
▁pojavil	-10.3102
▁najveće	-10.3103
▁uspije	-10.3113
▁depresij	-10.3118
▁medvjed	-10.3118
▁iznenađujuć	-10.3118
▁slučajevi	-10.312
▁praks	-10.3122
▁nemoj	-10.3122
▁gospodarstv	-10.3125
▁starij	-10.3128
ljenje	-10.3134
▁ovisno	-10.3138
▁žic	-10.3138
zon	-10.3139
▁dozvol	-10.314
▁korist	-10.3161
▁Treć	-10.3171
▁Zar	-10.3172
▁eks	-10.3173
ograf	-10.3177
▁govoril	-10.3182
▁Napravi	-10.3185
▁anti	-10.3196
▁identificira	-10.3212
▁oporav	-10.3213
▁uzgoj	-10.3213
▁prihvatit	-10.3221
qu	-10.3223
▁nazvan	-10.3225
▁sudjelova	-10.3225
▁Rekl	-10.3233
▁prima	-10.3235
▁žut	-10.3249
dvoj	-10.3252
▁pob	-10.3261
nošću	-10.3262
▁Sk	-10.3265
▁posljednje	-10.3266
▁očekiva	-10.3269
bal	-10.327
▁400	-10.3279
▁povjerenje	-10.3281
▁uspješn	-10.3282
anta	-10.3288
▁industrijsk	-10.3288
▁sanja	-10.3288
▁poticaj	-10.3296
▁ispričat	-10.33
▁Prema	-10.3304
produktivn	-10.3308
▁očekuje	-10.3308
▁simptom	-10.3308
▁prenosi	-10.3308
▁civilizacij	-10.3308
▁izvrsn	-10.331
▁brine	-10.3311
▁slijed	-10.3311
▁uzrokuje	-10.3311
▁Idej	-10.3315
▁donijel	-10.332
mail	-10.3322
▁kap	-10.3322
▁Kenij	-10.3326
▁boc	-10.3328
▁Zapad	-10.3331
▁1.	-10.3331
▁povezuje	-10.3333
▁svojstv	-10.3339
▁man	-10.334
▁čujem	-10.3341
▁primje	-10.3357
▁pokušavaju	-10.3358
▁podučava	-10.336
poslje	-10.3363
▁bira	-10.3371
▁kulturn	-10.3384
▁procjen	-10.3385
▁nacrt	-10.3385
▁savršeno	-10.3391
▁umov	-10.3393
▁novom	-10.3394
▁prodaju	-10.3403
▁kombinacij	-10.3404
▁percepcij	-10.3404
▁središnj	-10.3404
▁period	-10.3404
▁učionic	-10.3404
▁senzor	-10.3404
▁multi	-10.3404
▁prizna	-10.3411
▁važnost	-10.3412
▁Buduć	-10.3412
▁gledal	-10.3413
▁poboljšanj	-10.3414
tabiln	-10.3423
▁naft	-10.343
▁pustit	-10.3431
▁prenije	-10.3437
▁sir	-10.3443
▁isprav	-10.3456
land	-10.3463
▁brojk	-10.3465
▁spasit	-10.3467
ban	-10.3479
▁odlučil	-10.3487
▁udara	-10.3489
▁vjerovanj	-10.3489
▁tema	-10.349
▁krvi	-10.3492
▁mislila	-10.3498
▁Sveučilišt	-10.3501
▁pluć	-10.3503
▁današnje	-10.3509
▁lažn	-10.3519
▁pričaju	-10.3519
▁Cr	-10.3531
njak	-10.3536
▁dijele	-10.357
dis	-10.3581
▁nose	-10.3583
▁molekula	-10.3583
▁spojit	-10.3593
▁BDP	-10.3599
▁Britanij	-10.3599
▁kemikalij	-10.3599
▁pljesak	-10.3599
▁sklop	-10.3599
▁odvojen	-10.3599
▁objavljen	-10.3601
▁blisk	-10.3602
▁korisnik	-10.3609
▁navod	-10.3615
▁Naša	-10.3615
▁razn	-10.3618
▁novin	-10.3623
▁Reci	-10.3627
▁otvorit	-10.363
▁obavi	-10.3632
▁stalo	-10.3634
▁Bud	-10.3634
lne	-10.3644
▁kosti	-10.3647
vajući	-10.3652
▁okrenu	-10.3652
▁traje	-10.3653
▁bitn	-10.3665
▁pozva	-10.3666
▁otvori	-10.3672
▁skrb	-10.3672
▁djecom	-10.3674
▁Col	-10.3676
▁kontekst	-10.3679
jeg	-10.3685
▁katastrof	-10.3687
▁jasn	-10.3689
▁kontrole	-10.3689
▁jednadžb	-10.3698
▁kategorij	-10.3698
▁zadovoljstv	-10.3698
▁cipel	-10.3698
▁priušti	-10.3698
▁liječi	-10.3698
▁drevn	-10.3698
▁oboje	-10.371
▁čip	-10.3711
▁Jedno	-10.3714
▁iskreno	-10.3714
▁inspirira	-10.3717
ign	-10.3718
▁provest	-10.3718
▁prestan	-10.3722
▁pobijedi	-10.3727
▁rješava	-10.3732
▁organsk	-10.3734
▁ptica	-10.3736
▁rez	-10.374
▁načel	-10.3754
▁pametni	-10.3767
dija	-10.3774
▁najmanje	-10.3775
▁promjeni	-10.3782
▁riba	-10.3793
▁Francusk	-10.3798
▁Žene	-10.3798
▁nepoznat	-10.3798
▁vezu	-10.3798
gao	-10.3799
▁leži	-10.3799
▁raspravlja	-10.3803
▁navik	-10.3816
▁staklen	-10.3825
▁širenj	-10.3829
▁poznato	-10.3838
▁Vod	-10.3842
rađen	-10.3845
▁Cha	-10.3851
▁izgledal	-10.3854
▁Star	-10.3854
▁uspješno	-10.3861
▁Har	-10.3865
▁skr	-10.3869
▁potroši	-10.3877
rodn	-10.3879
▁osjećate	-10.3882
▁uvjerenj	-10.3882
▁razmišljao	-10.3883
▁ostatk	-10.3887
lici	-10.3888
rik	-10.3889
▁provjer	-10.3894
▁neuspjeh	-10.3899
▁Brazil	-10.3899
▁ikakv	-10.3899
▁zračn	-10.3899
les	-10.39
▁direktor	-10.39
▁Smatram	-10.3901
▁pronašao	-10.3906
▁drže	-10.3906
▁km	-10.3917
▁gradova	-10.3919
port	-10.392
▁ostaje	-10.392
▁gledanj	-10.392
▁volje	-10.3924
▁uspjel	-10.3925
▁Sjećam	-10.3934
▁opis	-10.3938
▁autor	-10.3949
▁pitaju	-10.3956
▁značaj	-10.3958
▁obeća	-10.3959
▁20.	-10.396
▁pliva	-10.3966
bija	-10.3973
▁presta	-10.3974
▁čel	-10.3974
▁sobu	-10.3983
▁kvadrat	-10.399
▁pogrešk	-10.3993
▁putova	-10.3993
▁privlač	-10.3996
▁gravitacij	-10.4001
▁općenito	-10.4001
▁vlasništv	-10.4001
▁Čest	-10.4001
▁stanovništv	-10.4001
▁sitn	-10.4003
▁oblak	-10.4003
▁matematičk	-10.4007
▁brig	-10.4009
▁Pred	-10.4017
▁vruć	-10.4017
▁manji	-10.4023
▁budi	-10.4024
▁boli	-10.4025
▁postigl	-10.4026
▁Irak	-10.4031
▁postojala	-10.4036
▁napor	-10.4042
ražen	-10.4043
▁potencijaln	-10.4046
▁proširi	-10.4051
▁mama	-10.4058
▁patnj	-10.4062
zdrav	-10.4066
▁starenj	-10.4083
▁poslova	-10.4087
ranje	-10.4101
▁leđ	-10.4104
▁spektr	-10.4104
▁prethodn	-10.4104
▁grešk	-10.4104
▁skriven	-10.4104
▁tehničk	-10.4104
▁Svjetsk	-10.4104
▁protekl	-10.4107
▁nadzor	-10.4107
▁baca	-10.4108
▁otok	-10.411
▁kontekstu	-10.4124
▁Azij	-10.4125
▁troj	-10.4128
▁nestal	-10.4129
▁gradovima	-10.413
▁ispada	-10.4134
▁završit	-10.4135
▁laž	-10.4136
▁inovacija	-10.4136
raž	-10.414
▁računa	-10.4141
▁igračk	-10.4143
▁spaja	-10.4146
sel	-10.4151
▁skupina	-10.4153
▁sina	-10.4153
▁tržišta	-10.4162
▁smanji	-10.4164
▁krivu	-10.4168
▁značenje	-10.4173
▁tržišt	-10.4191
▁ostalim	-10.4192
lac	-10.4202
▁suprotno	-10.4208
▁kolektivn	-10.4208
▁prilagodi	-10.4208
▁zastrašujuć	-10.4208
▁kisik	-10.4208
▁zločin	-10.4208
▁sretan	-10.4209
▁neovisn	-10.4209
▁Učini	-10.4209
▁Djec	-10.4212
▁razmjer	-10.4212
▁vjetr	-10.4213
▁komadić	-10.4213
▁slobodno	-10.422
▁Tim	-10.4221
▁obvez	-10.4222
▁Država	-10.4223
▁direktno	-10.4244
ljuje	-10.4245
▁donijet	-10.4249
▁postavil	-10.4252
▁sposobn	-10.4254
▁liječenje	-10.4258
▁objašnjenj	-10.4266
▁stanj	-10.4267
▁član	-10.428
▁rok	-10.4286
▁značajno	-10.4288
▁vjeroval	-10.4289
▁muškarc	-10.4291
▁djevojčic	-10.4293
▁razvit	-10.4295
▁zon	-10.4295
▁tkiva	-10.4295
▁resursa	-10.4297
▁osjetit	-10.431
▁dove	-10.4312
▁potrošnj	-10.4313
▁podršk	-10.4313
▁stručnjak	-10.4313
▁potaknut	-10.4314
▁tretira	-10.4314
ficira	-10.4314
▁korijen	-10.4316
▁stupnjev	-10.4317
▁Pra	-10.4317
▁kartu	-10.432
▁kav	-10.432
▁članak	-10.4322
▁pažljivo	-10.4322
▁kock	-10.4322
▁niž	-10.4332
reta	-10.4344
▁drukčije	-10.4354
▁mudrost	-10.4354
▁Koristi	-10.4362
kratko	-10.4374
pen	-10.4379
▁Men	-10.4397
▁Vidim	-10.4402
▁upoznat	-10.4416
▁dvostruk	-10.442
▁uzgaja	-10.442
▁zapamtit	-10.442
▁utjecat	-10.442
▁izazva	-10.442
▁zabavno	-10.4421
▁pacijenta	-10.4421
▁kanal	-10.4422
▁Molim	-10.4423
▁Cijel	-10.4425
▁izašl	-10.4426
▁cijev	-10.4427
▁završil	-10.4428
▁izložen	-10.4441
▁čiji	-10.4442
▁učin	-10.4448
▁nosit	-10.4451
▁pretpostav	-10.4461
▁most	-10.4474
▁školsk	-10.4498
kazuje	-10.4501
▁istog	-10.4503
▁oružj	-10.4504
▁Sam	-10.4514
▁neprestano	-10.4527
▁potrošač	-10.4527
▁započinj	-10.4527
▁iluzij	-10.4527
▁usmjeren	-10.4528
▁Htjel	-10.4528
▁ostavi	-10.4538
▁pojedinac	-10.4547
▁prepoznati	-10.4549
▁preživljavanj	-10.4558
▁šal	-10.4588
vrše	-10.4591
▁iskus	-10.4592
▁rođenj	-10.4593
ložen	-10.4595
▁zamisli	-10.4597
▁snaga	-10.46
▁djelova	-10.461
▁pomisl	-10.4625
▁nasilje	-10.4626
▁fokusira	-10.4635
▁Richard	-10.4636
▁ciklus	-10.4636
▁natjecanj	-10.4636
▁tinejdžer	-10.4636
▁radikaln	-10.4636
▁baterij	-10.4636
▁prijevoz	-10.4637
▁emisij	-10.4637
▁gubitak	-10.4637
▁22	-10.4639
▁pčela	-10.4639
▁mjerenj	-10.4642
▁šok	-10.4646
▁unutarnj	-10.4653
▁analizira	-10.4667
▁misao	-10.4674
▁stariji	-10.4675
vlači	-10.4689
▁politike	-10.4693
▁izravno	-10.4693
▁duže	-10.4704
▁grozn	-10.4705
rus	-10.4708
▁ispravno	-10.4714
iranja	-10.4714
▁odmor	-10.4716
dna	-10.4719
▁strašn	-10.472
bur	-10.4729
▁učim	-10.4729
▁Tolik	-10.4732
▁polja	-10.4739
▁kamp	-10.4744
▁doprinos	-10.4746
▁zrakoplov	-10.4746
▁ishod	-10.4747
▁sjede	-10.4747
▁bla	-10.4749
▁posud	-10.4749
▁postavljen	-10.4749
▁krene	-10.4751
▁pokrenu	-10.4756
▁ispitivanj	-10.4758
▁ustanov	-10.4758
▁gura	-10.4762
▁žal	-10.4762
▁Osta	-10.477
▁oružje	-10.477
BG	-10.4778
▁nafte	-10.4787
▁nastal	-10.4796
▁kreta	-10.4818
▁ljudskom	-10.4819
▁bes	-10.482
▁testiranj	-10.4821
▁fin	-10.4832
▁zidov	-10.4834
▁grupi	-10.4836
▁odjel	-10.4845
vid	-10.4846
dy	-10.4851
▁hip	-10.4852
▁Pomisli	-10.4857
▁britansk	-10.4857
▁doživljava	-10.4857
▁mlađ	-10.4857
▁prototip	-10.4857
▁gledišt	-10.4857
▁kliničk	-10.4857
▁ravnotež	-10.4857
▁suosjećanje	-10.4858
▁koralj	-10.4861
▁Stavi	-10.4863
▁Ros	-10.4864
▁Hti	-10.4868
▁sagradi	-10.4869
▁nasiln	-10.487
▁letjelic	-10.4872
▁gradove	-10.4872
ničar	-10.4878
kakav	-10.4884
▁pism	-10.4903
▁19.	-10.4906
▁domov	-10.4912
▁uoči	-10.4914
▁scen	-10.4923
▁muž	-10.4927
▁razumjeli	-10.4933
▁Stra	-10.4937
▁formira	-10.4938
▁0	-10.4943
▁igric	-10.4943
▁src	-10.4944
▁volj	-10.4951
▁fun	-10.4961
▁pobje	-10.4962
lly	-10.4965
▁dvadeset	-10.4968
▁gospodin	-10.4969
▁agencij	-10.497
▁priznati	-10.497
▁lakše	-10.497
50	-10.4972
▁tehnologijom	-10.4976
▁Ujedinjen	-10.4978
▁raspon	-10.4979
▁insekt	-10.4979
▁Koja	-10.4986
▁uzbudljivo	-10.4988
▁primjerice	-10.5
▁čim	-10.5005
▁podacim	-10.5006
▁posje	-10.5015
▁El	-10.5017
suprot	-10.5017
▁uvjetima	-10.5018
▁promet	-10.5036
▁gay	-10.5036
▁vjeruje	-10.5041
gal	-10.5042
▁krugov	-10.5044
▁sjetit	-10.5047
▁djevoj	-10.5048
▁gotov	-10.5057
▁ostaviti	-10.5061
▁uzbudljiv	-10.5064
▁kompleksn	-10.5065
▁Vam	-10.507
▁izvuć	-10.5071
▁odabra	-10.5073
▁ratu	-10.5077
▁briga	-10.5077
▁Washington	-10.5083
▁ekonomist	-10.5083
▁utječu	-10.5083
▁crijev	-10.5083
▁75	-10.5086
▁rastuć	-10.5089
▁plaće	-10.509
▁gubitk	-10.5096
▁počn	-10.5099
▁stigl	-10.51
▁cijena	-10.5105
godišnjak	-10.5108
▁Dva	-10.5123
▁podržava	-10.5126
smjer	-10.5131
▁milja	-10.5158
DH	-10.5167
▁pomak	-10.5186
▁odredi	-10.5193
▁argument	-10.5198
▁empatij	-10.5198
▁kilogram	-10.5198
▁uvjeriti	-10.5198
▁ničeg	-10.5198
▁nekakv	-10.52
▁Željel	-10.5203
▁povr	-10.5203
▁vježb	-10.5207
▁blog	-10.5211
▁oblici	-10.5213
▁vodstv	-10.5216
▁klijent	-10.5218
kol	-10.5219
▁preživje	-10.5219
▁zaboravi	-10.5219
▁predviđanj	-10.5242
▁smrtnost	-10.525
▁činil	-10.5253
▁razumij	-10.5261
▁pretvorit	-10.5289
dići	-10.5291
▁drvo	-10.5297
jedni	-10.5298
▁Razl	-10.5301
▁kirurg	-10.5314
▁kapacitet	-10.5314
▁kognitivn	-10.5314
▁šećer	-10.5314
▁štakor	-10.5314
▁izgrađen	-10.5314
▁Amerikanac	-10.5314
▁čudesn	-10.5315
▁Nedavn	-10.5315
▁jastv	-10.5316
▁otkriven	-10.5318
▁predloži	-10.5321
▁medijsk	-10.5328
▁stabl	-10.533
▁dvoran	-10.5331
▁ovisn	-10.5334
▁uvjeren	-10.5335
▁odijel	-10.5338
▁krajnj	-10.5338
▁Voli	-10.5339
▁sile	-10.5339
▁pomogne	-10.5341
▁zamoli	-10.5351
glu	-10.536
▁putovanja	-10.5362
▁pravim	-10.5374
▁Govorim	-10.5393
▁stvorenj	-10.5397
▁suosjećanj	-10.5397
▁pokrenuti	-10.5409
▁polju	-10.541
▁drv	-10.5417
▁recept	-10.5429
▁prs	-10.5431
▁Darwin	-10.5432
▁Mjesec	-10.5432
▁pokreće	-10.5432
▁upotrijebit	-10.5432
▁statistik	-10.5432
▁zaslon	-10.5432
▁Kong	-10.5432
▁razmjen	-10.5432
▁krav	-10.5433
▁tlak	-10.5434
▁memorij	-10.5434
▁pustinj	-10.5435
▁Osob	-10.5438
pin	-10.5438
▁izbje	-10.5441
▁jaz	-10.5454
▁razumijet	-10.5459
▁35	-10.547
▁bud	-10.5501
▁ekstremn	-10.5509
▁istočn	-10.5534
▁igraju	-10.5535
▁nijedn	-10.5539
▁Iran	-10.554
▁odusta	-10.5541
▁hormon	-10.5551
▁energetsk	-10.5551
▁naročito	-10.5551
▁položaj	-10.5551
▁miješa	-10.5551
▁uspjeti	-10.5551
▁Razmišlja	-10.5551
▁potres	-10.5552
▁dijeljenj	-10.5554
▁nastup	-10.5554
▁organizm	-10.5555
▁poljoprivred	-10.5557
▁suočen	-10.5568
▁disa	-10.557
▁stanovnik	-10.5571
▁realn	-10.5585
▁prodaje	-10.5593
▁spol	-10.56
▁bakterija	-10.5613
▁udari	-10.5614
▁mišljenje	-10.5619
▁tražim	-10.5627
▁profesionaln	-10.5636
▁poboljša	-10.5637
nzi	-10.564
veza	-10.5645
ly	-10.5646
▁preživjel	-10.5649
▁umjetnic	-10.5653
▁obrad	-10.5667
▁George	-10.5671
▁obrazovn	-10.5671
▁teleskop	-10.5671
▁Englesk	-10.5671
▁kuhinj	-10.5671
▁proizvesti	-10.5671
▁pouzdan	-10.5672
▁human	-10.5672
▁trenutn	-10.5672
▁fizičar	-10.5672
▁obrnut	-10.5672
▁odbaci	-10.5672
▁šef	-10.5673
▁ubijen	-10.5673
▁rujn	-10.5673
▁kontra	-10.5674
▁moždan	-10.5676
▁okus	-10.5683
▁gol	-10.5695
▁tlo	-10.5696
▁lanc	-10.5703
▁Gan	-10.5706
vijest	-10.5714
▁reakcija	-10.5714
▁dublje	-10.5722
▁porez	-10.5727
▁slavi	-10.5729
plat	-10.5733
▁grupu	-10.5735
▁Mon	-10.5743
▁žrtve	-10.5756
▁nemate	-10.5764
▁kralj	-10.5767
▁Osjeća	-10.5769
▁očekivanj	-10.577
bom	-10.5787
▁Kan	-10.5789
▁efikasn	-10.5793
▁pelud	-10.5793
▁potvrd	-10.5793
▁obraća	-10.5793
▁heroj	-10.5793
▁okolnosti	-10.5793
▁profit	-10.5793
▁čarobn	-10.5793
▁izbaci	-10.5794
▁kreću	-10.5794
▁očiju	-10.5794
▁dojke	-10.5794
▁surađiva	-10.5794
▁pojedinačn	-10.5794
▁Godin	-10.5796
ivač	-10.5798
▁ušted	-10.5801
▁uput	-10.5802
▁pohran	-10.5802
puca	-10.5802
▁bijes	-10.5813
▁dogodil	-10.5813
▁Istin	-10.5817
▁Kod	-10.5819
▁pitam	-10.582
▁susjedstv	-10.583
▁mirn	-10.5831
▁omogući	-10.584
▁slobodn	-10.5845
▁Drugim	-10.5869
▁zdravlja	-10.5878
▁osobin	-10.5881
▁mediji	-10.5883
▁tkivo	-10.5894
▁stig	-10.5897
▁tolik	-10.5897
▁fotografira	-10.5901
gotovo	-10.5902
▁45	-10.5902
▁vara	-10.5903
▁polje	-10.5904
▁suvremen	-10.5906
▁spas	-10.591
▁farm	-10.5911
▁infekcij	-10.5917
▁termin	-10.5917
▁stražnj	-10.5917
▁ukupn	-10.5917
▁patent	-10.5917
▁probudi	-10.5918
▁tišin	-10.5918
▁pogon	-10.592
▁zahvaljuju	-10.5923
fin	-10.5923
▁bore	-10.5923
▁toplin	-10.5936
▁disk	-10.5936
▁metr	-10.5938
▁bub	-10.5941
staničn	-10.5944
▁počin	-10.5945
cionaln	-10.5946
▁strašno	-10.5947
▁hrabr	-10.5948
▁Los	-10.5963
▁pravilo	-10.5974
▁Ed	-10.5985
▁plati	-10.5989
▁serij	-10.5997
▁vlastitim	-10.6026
▁otkrivanj	-10.6027
▁pokaž	-10.6031
pal	-10.6038
▁sposobni	-10.6041
▁antibiotik	-10.6042
▁podsjeća	-10.6042
▁transformacij	-10.6042
▁umiru	-10.6042
▁citat	-10.6042
▁omiljen	-10.6042
▁fuzij	-10.6043
▁mušic	-10.6045
▁nečim	-10.6048
▁čast	-10.6049
▁napredn	-10.6055
▁staz	-10.6056
▁smanjenj	-10.606
▁riješi	-10.607
▁des	-10.607
▁obran	-10.6075
▁očekival	-10.6079
▁zvuč	-10.6082
▁prihvaća	-10.6084
▁kugl	-10.609
▁očuvanj	-10.6108
▁potreban	-10.611
▁dnevn	-10.6124
▁uzmem	-10.6126
▁Car	-10.6127
▁nečij	-10.6131
▁počnem	-10.6132
▁Pet	-10.6139
▁slajd	-10.6157
rac	-10.6157
stima	-10.6159
▁Charles	-10.6168
▁MIT	-10.6168
▁dinosaur	-10.6168
▁kamion	-10.6168
▁približava	-10.6168
▁usredotoči	-10.6168
▁ekološk	-10.6168
▁podsjeti	-10.6168
▁riskira	-10.6168
▁hotel	-10.6168
▁ranjiv	-10.6168
▁sektor	-10.6169
▁roman	-10.6171
ćeg	-10.6171
▁zaposlenik	-10.6172
▁23	-10.6173
▁Ništa	-10.6177
▁nejasn	-10.6188
▁muškarce	-10.619
▁istraživačk	-10.619
▁Blisk	-10.6195
alna	-10.6201
▁nejednakosti	-10.6201
sija	-10.6211
▁Ben	-10.6213
▁slučajno	-10.6226
▁evolucijsk	-10.6262
▁vrš	-10.627
▁kemij	-10.6271
▁karte	-10.6282
reći	-10.6286
▁Nemam	-10.6288
▁Rad	-10.6289
▁prosvjed	-10.6297
▁Meksik	-10.6297
▁francusk	-10.6297
▁inžinjer	-10.6297
▁zadivljujuć	-10.6297
▁James	-10.6297
▁češć	-10.6297
▁očigledn	-10.6297
▁pravd	-10.6297
▁psihološk	-10.6297
▁slučajeva	-10.6299
▁očaj	-10.6304
▁otkrije	-10.631
▁diplom	-10.6312
▁Vrije	-10.6316
▁zajedničko	-10.6316
▁Steve	-10.6327
▁početn	-10.6328
▁izračun	-10.6335
▁vodom	-10.6336
▁savez	-10.6337
▁odgovorn	-10.634
▁Moral	-10.6343
rator	-10.6348
▁likov	-10.6363
▁pravn	-10.6371
▁djeluju	-10.6371
▁prikazat	-10.6373
▁drukčij	-10.6377
▁povjerenja	-10.6378
▁zaboraviti	-10.6397
▁funkcioniraju	-10.6398
▁aktivist	-10.6403
▁osigurava	-10.6415
fon	-10.6416
▁mrzi	-10.6416
▁UN	-10.6424
▁ocjen	-10.6426
▁komponent	-10.6426
▁mikroskop	-10.6426
▁najčešć	-10.6426
▁viđen	-10.6426
▁blagostanj	-10.6426
▁intelektualn	-10.6427
▁posjeduje	-10.6427
▁izbjeglic	-10.6427
▁ekip	-10.6427
▁poštovanj	-10.6427
irala	-10.6427
▁Paul	-10.6427
▁nevolj	-10.6431
▁vojnik	-10.6437
▁osobito	-10.6442
▁gornj	-10.6458
▁aktiv	-10.6459
▁kutiju	-10.6461
▁trav	-10.648
▁Živ	-10.6482
▁izuzetno	-10.6485
▁korišten	-10.6485
▁čestica	-10.6494
▁praktičn	-10.6507
▁trajn	-10.6512
gas	-10.6527
▁osobnost	-10.6539
▁sudjelovanj	-10.654
▁dramatičn	-10.6558
▁eksplozij	-10.6558
▁ignorira	-10.6558
▁isproba	-10.6558
▁ritual	-10.6558
▁zagonetk	-10.6558
▁Švedsk	-10.6558
▁reciklira	-10.6558
▁rezerv	-10.6558
▁snimljen	-10.6559
▁radnici	-10.6561
▁prostorij	-10.6564
▁21.	-10.6565
▁slova	-10.6569
▁Bol	-10.657
▁postotak	-10.6572
▁iskr	-10.6573
▁postojal	-10.6576
▁bliže	-10.6594
▁popravit	-10.6596
▁uspješni	-10.6603
vac	-10.6603
▁spremn	-10.6613
ros	-10.6614
▁neuro	-10.6629
▁brojn	-10.6632
ink	-10.6633
▁Dobr	-10.6639
▁smanjit	-10.6664
▁Bil	-10.667
▁pad	-10.6671
▁Njemačk	-10.6671
▁pravil	-10.6674
▁suštin	-10.6675
▁Gledaj	-10.6677
▁Pogleda	-10.6681
20	-10.6683
▁radije	-10.6687
▁krivi	-10.6689
▁vlasnik	-10.6691
▁arapsk	-10.6691
▁obrazac	-10.6691
▁genetičk	-10.6691
▁izaziva	-10.6692
▁pošalj	-10.6692
▁postojeć	-10.6693
▁Takv	-10.6693
▁izgubljen	-10.6693
▁Svijet	-10.6694
▁individualn	-10.6696
▁kartic	-10.6696
▁otvoril	-10.6699
čenje	-10.6699
▁pruži	-10.6702
▁Per	-10.6705
▁brać	-10.6706
▁krenul	-10.6708
▁napravit	-10.6708
▁oluj	-10.6716
196	-10.6719
▁2.	-10.672
▁redov	-10.6723
▁kopira	-10.6724
▁tekuć	-10.6727
▁Malo	-10.674
▁oštećenj	-10.6747
▁blag	-10.6757
nder	-10.676
▁izgradil	-10.6763
boga	-10.6771
▁gljiv	-10.6772
čić	-10.6776
▁skal	-10.6791
ovom	-10.6792
▁poant	-10.6795
▁vladin	-10.6803
▁spoznaj	-10.6805
▁gradovi	-10.682
▁terorist	-10.6824
▁Bl	-10.6826
▁kontinent	-10.6827
▁doživjel	-10.6827
▁nevjerojatan	-10.6827
▁potpis	-10.6827
▁Posljednj	-10.6827
▁tvrdnj	-10.6827
▁dozvoljava	-10.6827
▁donose	-10.6827
▁džep	-10.6827
▁kredit	-10.6827
▁Hajde	-10.6827
▁prikladn	-10.6827
▁bolesn	-10.6828
▁zadatk	-10.6828
▁jezgr	-10.683
▁smjel	-10.683
▁orbit	-10.6831
▁Kanad	-10.6832
▁Adam	-10.6838
▁odbij	-10.6839
▁roditeljima	-10.6839
▁konj	-10.6857
izacija	-10.6857
▁domać	-10.6858
stvu	-10.6867
▁pogrešn	-10.6889
▁autizm	-10.6891
▁vjerova	-10.6903
ranja	-10.6905
▁teret	-10.6906
irajuć	-10.6909
▁luk	-10.691
▁nazval	-10.6915
▁Pol	-10.6929
▁Rob	-10.6943
▁osnov	-10.6943
▁Držav	-10.6944
▁Anderson	-10.6964
▁edukacij	-10.6964
▁epidemij	-10.6964
▁prezentacij	-10.6964
▁skulptur	-10.6964
▁tretman	-10.6964
▁sastoji	-10.6964
▁sudbin	-10.6964
▁nedostaje	-10.6964
▁ulaganj	-10.6964
▁istaknu	-10.6964
▁pronalazi	-10.6964
▁jabuk	-10.6965
▁potiče	-10.6967
▁spust	-10.6967
▁rječnik	-10.6968
▁sjen	-10.697
▁osmisli	-10.6975
▁crtež	-10.698
▁engleskom	-10.6983
▁opisuje	-10.6991
▁uspijeva	-10.6991
▁takvim	-10.6993
▁gradnj	-10.6997
vješt	-10.7001
▁završava	-10.7004
▁loptic	-10.7017
▁Mc	-10.7017
▁trik	-10.7025
▁ugovor	-10.7028
▁mod	-10.7028
▁primat	-10.7035
▁smatral	-10.7035
▁pravom	-10.7042
▁sram	-10.7042
▁putuje	-10.7045
▁Amerikanci	-10.705
▁trenira	-10.7055
▁uništava	-10.7057
▁smatraju	-10.7057
▁pažnje	-10.706
▁sjever	-10.7063
vući	-10.7071
▁magnet	-10.7084
ser	-10.7093
▁izgled	-10.7094
▁proveli	-10.7102
▁izložb	-10.7102
▁komentar	-10.7102
▁psihologij	-10.7103
▁propis	-10.7103
▁izrađiva	-10.7103
▁susret	-10.7104
▁Kakv	-10.7105
▁pojača	-10.7107
▁poznava	-10.7107
▁mjere	-10.711
▁klasičn	-10.7112
▁trg	-10.7114
▁auta	-10.7114
▁general	-10.7115
ovito	-10.7124
▁psih	-10.7127
▁psa	-10.7132
▁tužn	-10.7134
▁očev	-10.7141
▁točn	-10.7146
▁idejama	-10.7168
▁jezer	-10.7172
▁Otiš	-10.7176
▁sakri	-10.7177
▁sirov	-10.7207
▁Radim	-10.7214
sen	-10.7219
▁mladić	-10.7225
▁Michael	-10.7243
▁komercijaln	-10.7243
▁približi	-10.7243
▁četvero	-10.7243
▁inovativn	-10.7243
▁lansira	-10.7243
▁Tra	-10.7244
▁zbroj	-10.7244
▁skladišt	-10.7244
▁osvoji	-10.7244
▁pošten	-10.7245
▁živčan	-10.725
▁dijeliti	-10.7252
▁trča	-10.7254
▁The	-10.7258
▁uzmi	-10.7264
▁10.000	-10.7266
▁spreman	-10.727
▁čitanj	-10.7272
▁Sto	-10.7291
▁slav	-10.7292
▁zaraz	-10.7295
▁priči	-10.7299
▁slavn	-10.7308
▁učenici	-10.7311
▁grup	-10.7323
▁debl	-10.7324
▁donošenj	-10.7324
▁trend	-10.7325
učiti	-10.7326
▁razumn	-10.7329
▁fascinantn	-10.7331
pon	-10.7346
▁neizbježn	-10.7353
▁standardn	-10.7356
▁dijelim	-10.736
▁znatiželj	-10.7363
▁zval	-10.7378
▁leden	-10.738
▁crkv	-10.7386
▁frekvencij	-10.7386
▁mehaničk	-10.7386
▁greben	-10.7386
▁City	-10.7386
▁Robert	-10.7386
▁nasumičn	-10.7386
▁ropstv	-10.7386
▁sastank	-10.7387
▁ugljen	-10.7389
▁tjera	-10.739
▁stanov	-10.7392
▁tražili	-10.7393
▁dobijem	-10.7396
▁kopij	-10.7399
▁prođe	-10.74
▁pogledal	-10.7404
ljak	-10.7404
▁univerzaln	-10.7404
▁psiholo	-10.7411
▁gradsk	-10.7419
▁poznajem	-10.7445
▁reklam	-10.7457
▁platit	-10.7465
▁nož	-10.7465
▁Einstein	-10.7466
▁parov	-10.7467
▁Pokuša	-10.7471
▁promatranj	-10.7476
nka	-10.7496
dosta	-10.7497
▁preci	-10.7499
▁konc	-10.7501
▁kritičn	-10.7502
▁rekl	-10.7516
prkos	-10.7518
▁zarad	-10.7521
▁arhitekt	-10.7527
stanak	-10.7527
▁NASA	-10.7531
▁intenzivn	-10.7531
▁intuicij	-10.7531
▁proizlaz	-10.7531
▁Sunčev	-10.7531
▁plastičn	-10.7531
▁status	-10.7531
▁varijacij	-10.7531
▁svjež	-10.7531
▁prijedlog	-10.7531
▁potpor	-10.7531
▁potraži	-10.7531
▁sunčev	-10.7531
▁doživi	-10.7531
▁izabrat	-10.7531
▁pokraj	-10.7531
▁naočal	-10.7532
▁motivacij	-10.7533
▁Times	-10.7533
▁strastven	-10.7533
▁rođendan	-10.7534
▁krat	-10.7536
▁Kor	-10.7537
▁farmer	-10.7538
▁blok	-10.7539
▁suočit	-10.7541
▁Francisc	-10.7549
▁bod	-10.7553
▁obnov	-10.7554
▁Koje	-10.7562
▁ženk	-10.7567
▁elit	-10.7574
▁Jednog	-10.7574
▁tiska	-10.7581
▁buk	-10.7585
▁Živim	-10.7598
▁meso	-10.7598
▁razmišljal	-10.7608
▁organiziran	-10.762
▁snimanj	-10.7621
▁Med	-10.7622
alizacij	-10.7629
▁Kir	-10.7631
▁plinov	-10.7635
▁sutra	-10.7637
▁crv	-10.766
▁Bor	-10.7662
▁novina	-10.7669
▁Angeles	-10.7678
▁algoritm	-10.7678
▁dijagnoz	-10.7678
▁inteligentn	-10.7678
▁mlijek	-10.7678
▁pamćenj	-10.7678
▁izbjegava	-10.7678
▁dubin	-10.7678
▁oslanja	-10.7678
▁djelomičn	-10.7678
▁otrov	-10.7679
▁dulje	-10.768
▁gustoć	-10.768
▁iznutr	-10.768
▁zabran	-10.7681
▁stijen	-10.7691
▁poveznic	-10.7691
▁pust	-10.7694
▁foto	-10.7703
▁Ber	-10.7712
▁zvučn	-10.7713
▁ponos	-10.7717
▁dobivaju	-10.7718
▁naselj	-10.7721
▁omogućit	-10.7723
▁odgovarajuć	-10.7726
▁zastav	-10.7729
▁pretpostavljam	-10.7731
▁oblikovan	-10.774
▁ratov	-10.7745
▁doseg	-10.7748
▁sadašnj	-10.7752
ništv	-10.7756
▁pobun	-10.7759
▁dosadno	-10.7761
▁poslovanj	-10.7763
▁predviđa	-10.7771
▁bilja	-10.7773
▁prate	-10.7773
▁dizajniran	-10.7782
▁zahvaln	-10.7785
▁otpor	-10.7794
▁noćn	-10.7798
▁Potrebn	-10.7803
▁uspore	-10.7805
▁Obam	-10.7806
▁Popu	-10.7812
yn	-10.7815
▁najljepš	-10.7827
▁Čovjek	-10.7827
▁žarulj	-10.7827
▁pokaziva	-10.7827
▁Sluša	-10.7827
▁odvjetnik	-10.7828
▁prvenstv	-10.7828
▁zaposli	-10.7828
▁npr	-10.7828
nažan	-10.7831
▁štiti	-10.7836
▁ovakav	-10.784
▁koz	-10.7848
▁Zajedn	-10.7848
▁proša	-10.7858
▁nudi	-10.7866
▁siromaštvo	-10.7867
▁razlikova	-10.7867
▁sudar	-10.787
▁konkretn	-10.7876
▁zamijeni	-10.7878
pija	-10.7882
▁dugačk	-10.79
zer	-10.7906
▁proučavanj	-10.7909
▁pogodi	-10.7914
▁uključit	-10.7929
▁zaslužuj	-10.7952
▁kršćan	-10.7979
▁tjelesn	-10.7979
▁izvedb	-10.7979
▁opskrb	-10.7979
▁gospodo	-10.7979
▁izvještaj	-10.7979
▁pitanjima	-10.7979
▁djelić	-10.7979
▁postignuć	-10.7979
▁japansk	-10.7979
▁odavd	-10.7981
▁samostaln	-10.7982
▁povež	-10.7982
▁gust	-10.7986
▁zim	-10.7986
▁mišev	-10.7987
▁Opet	-10.7988
▁vlastitog	-10.7992
▁spušta	-10.7995
▁čaj	-10.7996
▁Život	-10.7997
▁bave	-10.8001
▁iznenađenje	-10.8002
▁pse	-10.8003
▁ljut	-10.8006
▁svakak	-10.8006
▁ostat	-10.8013
stven	-10.8015
icira	-10.8022
▁zalih	-10.8032
▁razmišljat	-10.8038
▁Rusij	-10.805
▁postig	-10.8055
▁Put	-10.8056
▁Moga	-10.8079
▁nosim	-10.808
▁tad	-10.8085
▁zajednicam	-10.8092
▁hrabrost	-10.8095
▁krivulj	-10.8095
▁iznenađen	-10.8109
▁prijateljic	-10.8119
▁čestic	-10.812
▁prisil	-10.8124
▁složenost	-10.8125
▁filozof	-10.8129
▁Harvard	-10.8133
▁distribucij	-10.8133
▁ekosustav	-10.8133
▁karakteristik	-10.8133
▁korporacij	-10.8133
▁smanjuje	-10.8133
▁demokratsk	-10.8133
▁nedostatak	-10.8133
▁čarolij	-10.8133
▁Pakistan	-10.8133
▁invaliditet	-10.8133
▁umire	-10.8133
▁potrag	-10.8133
▁transformira	-10.8133
▁plakat	-10.8133
▁povezivanj	-10.8134
▁podatci	-10.8136
▁Vidjel	-10.8136
▁usporedit	-10.8137
▁nikog	-10.8137
sis	-10.8141
▁utrk	-10.8142
ford	-10.8142
▁Man	-10.8163
▁polic	-10.8169
▁služben	-10.8179
ture	-10.818
▁dolin	-10.8185
▁održavanj	-10.8191
▁stavim	-10.8196
▁liječenj	-10.8214
▁specijal	-10.8216
▁zapad	-10.822
▁stopal	-10.822
▁Tek	-10.8225
▁životinjsk	-10.8227
▁sadašnjost	-10.8235
▁pretpostavlja	-10.8237
▁pomog	-10.8237
ljuju	-10.8249
▁materij	-10.8272
rol	-10.828
▁šalju	-10.8283
▁Australij	-10.8289
▁Thomas	-10.8289
▁definitivno	-10.8289
▁kombinira	-10.8289
▁investicij	-10.8289
▁najbliž	-10.8289
▁projekat	-10.8289
▁podzemn	-10.8289
▁Amazon	-10.8289
▁prebaci	-10.8289
▁drveća	-10.8289
▁pješ	-10.8289
▁nogomet	-10.8289
▁animacij	-10.8289
▁poduzetnik	-10.8291
aviti	-10.8291
▁svjetov	-10.8291
▁99	-10.8292
▁neznanj	-10.8298
▁iznimk	-10.8298
▁ćelij	-10.8299
▁primarn	-10.8303
svuda	-10.8305
▁pokrenul	-10.8306
▁plin	-10.8309
▁sigurnosn	-10.8309
▁voljen	-10.831
▁osigurat	-10.8312
▁požel	-10.8315
▁pritisk	-10.8316
sljed	-10.8324
trazi	-10.8324
▁neugodno	-10.8326
▁shvaćam	-10.8335
▁dođem	-10.8336
▁okruž	-10.8341
▁dostav	-10.8349
▁prič	-10.8355
▁vjerujete	-10.8355
▁kim	-10.8361
▁uklon	-10.8373
▁napisal	-10.8391
▁Kol	-10.8399
▁zadržat	-10.8406
▁intervjuira	-10.8408
▁map	-10.8409
▁prošlog	-10.8411
▁Zapadn	-10.842
▁putovanj	-10.8427
cel	-10.8431
poduzetni	-10.8445
▁Trenutn	-10.8448
▁dijagnosticira	-10.8448
▁indijsk	-10.8448
▁karakter	-10.8448
▁proizvođač	-10.8448
▁fundamentaln	-10.8448
▁najsiromašnij	-10.8448
▁Frank	-10.8448
▁uporab	-10.8448
▁kondom	-10.8448
griješi	-10.8448
▁započn	-10.8448
▁prelazi	-10.8449
▁Očit	-10.8449
▁organizam	-10.845
▁proračun	-10.845
▁ružn	-10.8452
▁27	-10.8453
▁zadać	-10.8458
ruci	-10.8461
▁CO	-10.8463
▁sastanak	-10.8464
▁MR	-10.8465
▁ispis	-10.8475
▁fenomenaln	-10.8477
▁Došl	-10.848
▁Točno	-10.8498
▁obuk	-10.8503
prosto	-10.8505
▁tvar	-10.852
▁temeljen	-10.852
▁spasil	-10.8521
war	-10.8525
▁raket	-10.8534
▁Sch	-10.8536
▁originaln	-10.8555
▁stakl	-10.858
▁politi	-10.8592
▁slon	-10.8602
▁shvaćanj	-10.8607
▁marketing	-10.8609
▁mehanizam	-10.8609
▁rođak	-10.8609
▁hipotez	-10.8609
▁teroriz	-10.8609
▁autobus	-10.8609
▁konačni	-10.8609
▁autoritet	-10.8609
▁otkad	-10.8609
▁Teško	-10.8609
▁formul	-10.8609
▁najnovij	-10.8609
▁vod	-10.861
▁talent	-10.861
▁suosjećajn	-10.861
▁pokriva	-10.8611
▁pilot	-10.8611
▁nastaje	-10.8612
▁sluh	-10.8613
▁Počinj	-10.8615
▁nemoguć	-10.8615
▁slojev	-10.8617
▁sfer	-10.8617
▁grub	-10.8619
▁36	-10.8619
▁pisal	-10.8619
▁luta	-10.862
▁prikuplja	-10.8629
▁točak	-10.863
▁MS	-10.864
▁coo	-10.8643
▁poboljšat	-10.8644
▁saznal	-10.8661
▁Otkri	-10.8674
▁Sud	-10.8682
▁prepoznavanj	-10.8706
▁dobivam	-10.8708
▁modn	-10.8713
▁jednakost	-10.8725
kinja	-10.8738
▁omjer	-10.8744
ziran	-10.8748
▁letjet	-10.8759
▁počinjem	-10.8764
▁spašavanj	-10.8767
▁novčan	-10.8768
▁21	-10.877
▁impuls	-10.8773
▁institut	-10.8773
▁interaktivn	-10.8773
▁kandidat	-10.8773
▁trodimenzionaln	-10.8773
▁korupcij	-10.8773
▁Započe	-10.8773
▁Sreć	-10.8773
▁Usput	-10.8773
▁mužjak	-10.8773
▁upotrebljava	-10.8773
▁majic	-10.8773
▁Gotov	-10.8773
▁haker	-10.8774
▁Zadnj	-10.8775
▁reform	-10.8775
▁sačuva	-10.8776
▁grip	-10.8779
▁molekularn	-10.8783
▁paraliz	-10.8783
rođen	-10.8783
▁zadrž	-10.879
▁ugleda	-10.8793
▁koljen	-10.8803
▁Osjećam	-10.8806
▁evoluira	-10.8808
▁prevar	-10.8814
▁magnetsk	-10.882
▁60-	-10.8824
▁hlad	-10.8832
▁svijetlo	-10.8837
▁složit	-10.8837
▁dogovor	-10.8844
▁Bal	-10.8851
▁djelovanje	-10.8865
▁primijenit	-10.8866
▁golf	-10.8895
▁planiranj	-10.8903
▁globalnog	-10.8904
ovsk	-10.8907
▁bazi	-10.8914
▁zahval	-10.8919
▁suprotn	-10.893
▁ponudit	-10.8936
▁Stu	-10.8937
▁beskonačn	-10.894
▁poteškoć	-10.894
▁volonter	-10.894
▁označava	-10.894
▁čvor	-10.894
▁Nigerij	-10.894
▁nedostatk	-10.894
▁drveće	-10.894
▁scenarij	-10.894
▁krajolik	-10.894
▁javlja	-10.894
▁skoči	-10.8941
▁duhovn	-10.8941
▁suočava	-10.8942
▁oštr	-10.8947
▁ramen	-10.8948
▁nuž	-10.895
▁petlj	-10.8951
▁skok	-10.8952
▁zatvorenik	-10.8958
▁golem	-10.8961
▁odgoj	-10.8963
▁postojanja	-10.8966
▁telefonsk	-10.8972
▁tekućin	-10.8974
▁funkcionaln	-10.8976
▁plaž	-10.8977
▁pogreš	-10.8993
▁prekras	-10.9001
▁prov	-10.9004
▁ideal	-10.9011
▁medijima	-10.9019
▁stal	-10.9025
▁inf	-10.9031
▁radost	-10.9034
▁siv	-10.9038
▁zabavn	-10.9044
▁lopt	-10.9044
▁Odluči	-10.9064
▁staln	-10.9076
ljav	-10.9097
▁Nevjerojatn	-10.9109
▁Znanstven	-10.9109
▁autentičn	-10.9109
▁omogućuju	-10.9109
▁eksplodira	-10.9109
▁čimbenik	-10.9109
▁1960	-10.9109
▁najstarij	-10.9109
▁takozvan	-10.9109
▁ruraln	-10.9109
▁ugrađen	-10.911
▁logik	-10.911
▁stajališt	-10.911
▁izmjen	-10.9114
▁Korej	-10.9117
▁razgovaral	-10.9123
▁Njemačkoj	-10.9135
▁bojim	-10.9141
▁skriva	-10.9144
sreću	-10.9146
▁tj	-10.9149
▁Che	-10.9152
▁ubrzan	-10.9159
dugo	-10.9162
crta	-10.9162
▁praznin	-10.9165
▁Nauči	-10.9175
▁kg	-10.9192
▁muči	-10.9205
▁vrijed	-10.921
▁oštećen	-10.921
▁zanimanj	-10.923
▁For	-10.924
▁osjećala	-10.9269
▁spekta	-10.9281
▁NSA	-10.9281
▁inspiracij	-10.9281
▁ispostavil	-10.9281
▁opsjednut	-10.9281
▁simulacij	-10.9281
▁Čita	-10.9281
▁neočekivan	-10.9281
▁neuroznanost	-10.9281
▁opravda	-10.9281
▁hvata	-10.9282
▁sruši	-10.9282
▁spriječit	-10.9282
▁misterij	-10.9282
▁mikrofon	-10.9282
▁aparat	-10.9282
▁kupuje	-10.9282
▁klinik	-10.9283
▁muzik	-10.9283
▁blizini	-10.9283
▁prometn	-10.9285
▁upis	-10.9286
▁njemačk	-10.9286
▁oznak	-10.9286
▁baziran	-10.9287
▁posad	-10.9288
▁plus	-10.9292
▁Nacionaln	-10.9294
▁užas	-10.9301
vjetar	-10.9305
▁Don	-10.9309
▁kupil	-10.9311
▁sedm	-10.9321
▁osoblj	-10.9322
▁isključi	-10.9324
▁Web	-10.9326
▁karta	-10.9328
▁namjerno	-10.9329
▁izmisli	-10.9333
▁pić	-10.9334
▁okružen	-10.9334
▁voditelj	-10.9343
▁mjera	-10.9343
▁zaključk	-10.9344
▁rubov	-10.9349
▁vozilo	-10.9373
▁ostane	-10.9389
▁diplomira	-10.9396
▁svakakv	-10.9398
▁složenij	-10.9407
▁otporn	-10.941
stre	-10.9419
istin	-10.9424
▁govornik	-10.9427
▁zaborav	-10.9438
▁Sir	-10.944
del	-10.9441
▁zaposlen	-10.9444
▁uključuju	-10.9444
ografsk	-10.9451
▁leg	-10.9451
▁izvješć	-10.9457
▁Činjenic	-10.9457
▁Konačno	-10.9457
▁dopušten	-10.9457
▁istražuje	-10.9457
▁ljubazn	-10.9457
▁prehramben	-10.9457
▁ugrožen	-10.9457
▁Žena	-10.9457
▁cvijeć	-10.9457
▁gnijezd	-10.9457
▁siječnj	-10.9457
▁klub	-10.9457
▁kostur	-10.9458
▁snijeg	-10.9458
▁ritm	-10.9458
▁Ponovn	-10.9459
▁staništ	-10.9459
▁Lin	-10.9463
▁djelovanja	-10.9473
▁trenuci	-10.9476
▁pokup	-10.9476
▁11.	-10.9485
▁Radil	-10.9489
voljno	-10.9493
▁internetsk	-10.9498
▁uzrokuju	-10.9499
▁90-	-10.9503
▁pojas	-10.9517
▁Žel	-10.9523
▁topl	-10.9532
▁alternativ	-10.9534
▁poznaje	-10.9563
▁fotograf	-10.9565
▁pije	-10.9573
nimalo	-10.9577
▁autiz	-10.9578
▁Shvati	-10.9604
kroz	-10.9608
▁Broj	-10.9628
▁Mas	-10.9632
▁algoritam	-10.9635
▁neprofitn	-10.9635
▁priključ	-10.9635
▁Čul	-10.9635
▁Biblij	-10.9636
▁Derek	-10.9636
▁doživjet	-10.9636
▁neurološk	-10.9636
▁lubanj	-10.9636
▁ilegaln	-10.9636
▁prevlada	-10.9636
▁razmotri	-10.9636
▁autocest	-10.9636
▁carstv	-10.9636
▁izabral	-10.9636
▁nervoz	-10.9636
▁Najbolj	-10.9636
▁obrasc	-10.9636
▁jučer	-10.9636
▁Zvuk	-10.9636
▁Super	-10.9637
▁mamu	-10.9638
▁zmij	-10.9638
▁učink	-10.9643
▁skromn	-10.9647
▁100.000	-10.9651
▁Grad	-10.9651
▁2000	-10.9651
▁grob	-10.9655
▁zaključak	-10.966
▁europsk	-10.9668
▁planov	-10.967
▁dobrim	-10.9681
▁intervju	-10.9681
▁najmanj	-10.9682
▁unutrašnjost	-10.9683
▁Titan	-10.9686
▁držim	-10.9711
▁pijesk	-10.9723
▁600	-10.9723
▁čest	-10.9727
svijet	-10.9734
▁spoln	-10.9769
▁slonov	-10.977
▁Upozna	-10.9774
zel	-10.9776
▁Otišl	-10.9778
▁divljin	-10.9779
▁slušanj	-10.9805
▁objavil	-10.9811
▁elemen	-10.9816
▁štap	-10.9817
▁iPhone	-10.9817
▁karikatur	-10.9817
▁osuđen	-10.9817
▁nesretn	-10.9817
▁rekord	-10.9817
▁studira	-10.9817
▁korteks	-10.9817
▁cjelin	-10.9817
▁konstant	-10.9817
▁hranjiv	-10.9817
▁prljav	-10.9817
▁otkaz	-10.9817
▁slomljen	-10.9817
▁ispunjen	-10.9817
▁Stanford	-10.9818
▁odgaja	-10.9818
▁Institut	-10.9818
▁prašin	-10.9818
▁Life	-10.9818
▁skaka	-10.9818
▁uvjerljiv	-10.9818
▁selekcij	-10.9818
▁napreduje	-10.9819
▁Crven	-10.982
▁traum	-10.9821
▁elektroničk	-10.9822
▁smjes	-10.9826
▁Nekad	-10.9829
▁Mark	-10.9837
▁stupnj	-10.9841
▁zvati	-10.9844
▁Mislil	-10.9845
▁značil	-10.9846
▁oživ	-10.9848
▁Naučil	-10.9853
▁razmislim	-10.9855
▁70-	-10.9859
▁bogatij	-10.9864
▁sklonost	-10.9874
rilično	-10.9877
▁leć	-10.9881
▁skenira	-10.9914
▁postojanje	-10.9914
▁mač	-10.9915
▁filozofij	-10.9922
▁posjetit	-10.9946
▁65	-10.9953
▁primil	-10.9953
pustit	-10.9954
▁vodeći	-10.996
▁mesa	-10.9966
Ž	-10.9989
▁nastavni	-10.9996
▁2010	-11.0002
▁iscrp	-11.0002
▁isječak	-11.0002
▁laptop	-11.0002
▁oksitocin	-11.0002
▁proizvel	-11.0002
▁čokolad	-11.0002
▁dvorišt	-11.0003
▁kompjuter	-11.0003
▁utjecal	-11.0003
▁zaštićen	-11.0003
▁nevladin	-11.0003
▁mračn	-11.0003
▁raspored	-11.0003
▁željeznic	-11.0003
▁razmatra	-11.0003
▁anonimn	-11.0003
▁smeće	-11.0003
▁prevelik	-11.0003
▁zatraži	-11.0003
▁maknu	-11.0003
▁izmjerit	-11.0003
▁odašilj	-11.0003
▁tvrde	-11.0004
rimjerice	-11.0005
▁Kasni	-11.0005
▁Nastavi	-11.0006
▁Traži	-11.0007
▁križ	-11.0015
▁Potom	-11.0021
▁Igra	-11.0024
▁korisnici	-11.0024
▁smanjil	-11.0034
▁Alzheimerov	-11.0036
don	-11.0037
▁pomaknut	-11.0057
▁ostavil	-11.0062
▁brd	-11.0063
osob	-11.0068
zal	-11.008
▁povrć	-11.009
▁mono	-11.0091
▁buduće	-11.0096
▁krajev	-11.01
▁Sjeća	-11.0126
▁Auto	-11.0131
▁kul	-11.0132
▁dozvolit	-11.0142
▁detaljn	-11.0152
▁oblikuje	-11.0163
▁skupit	-11.0164
▁fosil	-11.0164
▁stoje	-11.0166
▁ponosn	-11.0178
▁AIDS	-11.0191
▁apstraktn	-11.0191
▁disciplin	-11.0191
▁fascinira	-11.0191
▁prilagođen	-11.0191
▁zapovjed	-11.0191
▁zračenj	-11.0191
▁podijeljen	-11.0191
▁kitov	-11.0192
▁anket	-11.0192
▁objektivn	-11.0192
▁Pariz	-11.0192
▁vrhunac	-11.0192
▁zlatn	-11.0193
▁podjel	-11.0194
▁posvećen	-11.0195
▁Glas	-11.0196
▁imovin	-11.0197
▁pokazatelj	-11.0202
▁Doda	-11.0205
▁odgovaraju	-11.0206
▁uzorci	-11.0206
▁povezuju	-11.0207
▁svjetlosn	-11.0208
▁modul	-11.0209
▁dolar	-11.0218
▁poslal	-11.0235
▁Napravil	-11.0247
letjet	-11.0249
▁snimil	-11.025
▁kritič	-11.025
▁vječn	-11.0259
▁250	-11.0261
▁sol	-11.0303
▁izgubit	-11.031
▁računanj	-11.0318
▁shvaćat	-11.0323
▁dovoljn	-11.0336
▁Običn	-11.0342
▁informacijsk	-11.0342
▁uništen	-11.0342
▁pretvoril	-11.0347
▁Pokušaj	-11.0351
▁građevin	-11.0355
▁testov	-11.0358
▁bavim	-11.0369
lagati	-11.0377
▁prepoznaje	-11.0378
▁nazivaju	-11.0378
▁iskorištava	-11.0382
zijsk	-11.0382
▁inicijativ	-11.0383
▁intervencij	-11.0383
▁koncentrira	-11.0383
▁nesvjesn	-11.0383
▁približno	-11.0383
▁promisli	-11.0383
▁religiozn	-11.0383
▁SMS	-11.0383
▁angažira	-11.0383
▁preuzeti	-11.0383
▁štednj	-11.0383
▁ispunjava	-11.0384
▁zbunjen	-11.0384
▁pretrag	-11.0384
▁kotač	-11.0384
▁ministr	-11.0384
▁trikov	-11.0384
▁Kongres	-11.0385
▁globalizacij	-11.0385
▁kupova	-11.0385
▁masivn	-11.0385
▁trening	-11.0386
▁Dolazi	-11.0386
▁receptor	-11.0388
▁skija	-11.0389
▁odabrat	-11.039
▁drvet	-11.0392
▁odlaze	-11.0394
▁najtež	-11.0394
▁Gen	-11.0398
▁grud	-11.0399
▁odlučuje	-11.0408
▁trajanj	-11.0409
▁Način	-11.0411
▁praktičk	-11.0414
▁novce	-11.0416
▁tank	-11.0422
▁bora	-11.0425
formira	-11.0433
▁uspješ	-11.0442
▁predstavit	-11.0447
▁prešl	-11.0459
▁prouči	-11.0473
▁elektrod	-11.0483
▁zahvalit	-11.0487
vršava	-11.0522
▁razvijaju	-11.0523
▁pogodit	-11.0525
▁mudr	-11.0535
lijepi	-11.0535
vremenu	-11.0547
80	-11.0568
▁dostojanstv	-11.058
▁Cambridge	-11.058
▁Dozvolit	-11.058
▁demonstracij	-11.058
▁dinamik	-11.058
▁fleksibiln	-11.058
▁gradonačelnik	-11.058
▁izvrši	-11.058
▁najmoćnij	-11.058
▁pogađa	-11.058
▁pritisak	-11.058
▁svjedoči	-11.058
▁promovira	-11.058
▁dijalog	-11.058
▁stručnjaci	-11.058
operativn	-11.058
▁Boston	-11.058
▁porijekl	-11.058
▁profil	-11.058
▁padobran	-11.058
▁usmjerava	-11.058
▁prepun	-11.058
▁mrak	-11.058
▁citira	-11.0582
▁lanac	-11.0583
▁šeta	-11.0583
▁Vlad	-11.0585
▁kvar	-11.0588
▁psi	-11.0589
▁Hoć	-11.0591
redstava	-11.0598
▁sramot	-11.0599
▁sklon	-11.0604
▁dobrobit	-11.0605
▁sadržava	-11.0608
▁blokira	-11.0609
▁kompleks	-11.0611
▁udarac	-11.0618
▁uništenj	-11.0622
▁izrađen	-11.0622
svoj	-11.0625
▁Rus	-11.0634
▁profesional	-11.0638
▁Stan	-11.0639
▁siln	-11.0656
▁slučajnost	-11.0665
▁učinkovitost	-11.0667
▁očuva	-11.0682
pire	-11.0684
▁primijetil	-11.0685
▁fokus	-11.0697
▁Otkril	-11.0702
▁gost	-11.0702
▁podrža	-11.0704
▁silova	-11.0724
▁obrazovan	-11.073
▁inspiriran	-11.074
koć	-11.075
▁pružit	-11.0763
▁elektron	-11.0764
čnog	-11.0769
▁fond	-11.0776
▁obožava	-11.0777
▁Razgovara	-11.078
▁Smith	-11.078
▁Street	-11.078
▁autističn	-11.078
▁demonstrira	-11.078
▁kromosom	-11.078
▁oslobađa	-11.078
▁oslobođen	-11.078
▁transparentnost	-11.078
▁ozljed	-11.078
▁suradnik	-11.078
▁ugljičn	-11.078
▁zgrabi	-11.078
▁kolekcij	-11.078
▁koncert	-11.078
▁emitira	-11.078
▁ubojic	-11.078
▁Proučava	-11.078
▁promotri	-11.078
▁učestal	-11.078
▁nezgod	-11.078
▁beton	-11.078
▁pronalaženj	-11.0781
▁zgodn	-11.0781
▁golub	-11.0781
▁Vidjet	-11.0783
spostavlja	-11.0788
▁godišnji	-11.0789
▁nesigurn	-11.0796
▁zbiva	-11.0797
▁dolask	-11.0804
ther	-11.0809
▁provel	-11.0813
▁Tre	-11.0814
▁Dijet	-11.0817
▁Njen	-11.0821
▁musliman	-11.0824
▁etik	-11.0825
mailov	-11.0833
▁glazbenik	-11.0834
▁Gar	-11.0836
▁kućn	-11.0839
▁naslovnic	-11.0848
▁ekstrem	-11.0851
▁zlostavljanj	-11.0861
▁stolic	-11.0875
▁smislit	-11.0888
▁civiln	-11.0893
▁razlikuje	-11.0895
▁silu	-11.0899
▁zdravij	-11.0904
▁32	-11.0926
▁isključiv	-11.0934
▁napisan	-11.0955
prilike	-11.0963
▁individu	-11.0977
▁Sviđa	-11.0984
▁arhiv	-11.0984
▁intuitivn	-11.0984
▁paradigm	-11.0984
▁piramid	-11.0984
▁prioritet	-11.0984
▁sendvič	-11.0984
▁sofisticiran	-11.0984
▁unazad	-11.0984
▁Saturn	-11.0984
▁beskrajn	-11.0984
▁Napisa	-11.0984
▁opažanj	-11.0984
▁nekolicin	-11.0984
▁primjećuje	-11.0984
▁dohotk	-11.0984
▁Svemir	-11.0984
▁magij	-11.0984
▁mirovin	-11.0984
▁ormar	-11.0984
▁printanj	-11.0984
▁matematičar	-11.0984
▁usmjerit	-11.0986
▁ustraj	-11.0988
▁Drag	-11.0991
▁2004	-11.0995
▁Ža	-11.0995
▁izumrl	-11.0996
ijaln	-11.1
▁poboljšava	-11.1002
▁odigra	-11.101
▁fosiln	-11.1014
▁motivira	-11.1018
▁zadržava	-11.1019
▁Uzel	-11.102
▁istok	-11.1023
▁diplomat	-11.1027
▁povez	-11.1032
▁Matt	-11.1043
▁razbij	-11.1044
▁očekivan	-11.1046
▁80-	-11.1048
▁racionaln	-11.1048
tehnologij	-11.1053
▁Brun	-11.1055
▁pregledava	-11.1062
▁najviš	-11.1068
▁kostim	-11.107
▁Idem	-11.1074
▁nesigurnost	-11.1075
▁okružuj	-11.1094
▁olakša	-11.1098
▁međusobn	-11.1104
▁filmsk	-11.1108
▁kuhanj	-11.1124
▁odgovoril	-11.1129
▁divlje	-11.114
▁Stasi	-11.114
▁preuzima	-11.1147
▁izračunat	-11.1149
▁nabav	-11.1164
40	-11.1167
▁predaj	-11.1179
▁Apple	-11.1192
▁izađe	-11.1192
▁ljestvic	-11.1192
▁oduševljen	-11.1192
▁orkestr	-11.1192
▁poglavlj	-11.1192
▁veličanstven	-11.1192
▁šešir	-11.1192
▁investira	-11.1192
▁nezavisn	-11.1192
▁potražnj	-11.1192
▁uslijed	-11.1192
▁dućan	-11.1192
▁portret	-11.1192
▁cvijet	-11.1192
▁analogij	-11.1192
▁prisjet	-11.1192
▁mentor	-11.1192
▁gluh	-11.1193
▁režim	-11.1194
▁PMS	-11.1194
▁izrek	-11.1197
▁ispuni	-11.1198
▁Glav	-11.1203
▁bilijun	-11.1212
▁ostvaril	-11.1218
▁pravedn	-11.1224
▁Drug	-11.1242
▁elektro	-11.1246
lagali	-11.1251
▁traj	-11.1252
▁Eto	-11.1254
▁Sec	-11.1255
kultur	-11.1262
večer	-11.1266
▁obećanj	-11.128
▁autorsk	-11.128
▁slaže	-11.1285
▁sposob	-11.1293
▁postanem	-11.13
jedinjen	-11.1321
▁pjes	-11.1321
ogodišnji	-11.1323
▁Ispr	-11.1332
▁vodil	-11.1333
▁vrhov	-11.1334
▁dizajnersk	-11.1343
▁nejednakost	-11.1349
▁mapira	-11.1353
▁reagiraju	-11.1354
▁obrat	-11.1368
▁pravilno	-11.1369
▁člank	-11.1371
▁pristupit	-11.138
▁naporno	-11.1381
▁pročitat	-11.1384
▁posl	-11.1385
▁unos	-11.139
▁kolik	-11.1399
▁Atlant	-11.14
▁protok	-11.1402
▁asteroid	-11.1405
▁raspoloženj	-11.1405
▁zujanje	-11.1405
▁blagoslov	-11.1405
▁cjelokupn	-11.1405
▁dinamičn	-11.1405
▁kafić	-11.1405
▁konstruira	-11.1405
▁konzumira	-11.1405
▁tržišn	-11.1405
▁vertikaln	-11.1405
▁Palestin	-11.1405
▁pristojn	-11.1405
▁Promatra	-11.1405
▁mehanik	-11.1405
▁tržnic	-11.1405
▁označi	-11.1405
▁generira	-11.1405
▁zamrz	-11.1405
▁posred	-11.1405
▁kiša	-11.1405
▁grafikon	-11.1405
▁Sjedi	-11.1405
▁oponaša	-11.1406
▁mutacij	-11.1406
▁okrutn	-11.1407
▁žaljenj	-11.1407
▁usjev	-11.1407
▁onoliko	-11.141
▁26	-11.1411
▁Gore	-11.1411
▁Martin	-11.1412
▁PM	-11.1423
stavljajući	-11.1425
▁nasmij	-11.143
▁norm	-11.1436
▁probat	-11.1437
▁stigne	-11.1441
▁pojed	-11.1442
▁zaustavlja	-11.1448
▁tempo	-11.1451
▁moli	-11.1456
▁prepl	-11.1456
▁suočavamo	-11.1457
▁Odlučil	-11.1462
▁Globaln	-11.1472
američk	-11.1483
čev	-11.1484
sion	-11.1487
▁primijeni	-11.1501
▁iskusil	-11.1505
▁vozit	-11.1514
▁izuzet	-11.1524
▁iskaz	-11.1535
▁slažem	-11.1541
▁gospodarsk	-11.1543
▁torb	-11.1546
▁brodov	-11.1569
med	-11.1572
▁evoluiral	-11.1576
▁rodil	-11.1578
▁nastavil	-11.1578
▁sprema	-11.1583
▁28	-11.1587
▁starim	-11.1595
logija	-11.1616
▁probav	-11.1616
▁učinkovitij	-11.1617
▁LED	-11.1622
▁Microsoft	-11.1622
▁Završi	-11.1622
▁detektor	-11.1622
▁ekvivalent	-11.1622
▁geometrij	-11.1622
▁Španjolsk	-11.1622
▁World	-11.1622
▁bežičn	-11.1622
▁zrcal	-11.1622
▁pištolj	-11.1622
▁statističk	-11.1622
▁gumb	-11.1622
▁postupk	-11.1622
▁bonob	-11.1622
▁ritam	-11.1622
▁trilijun	-11.1622
▁izabran	-11.1622
▁uhićen	-11.1622
▁vesel	-11.1622
▁okrene	-11.1622
▁preostal	-11.1623
▁voze	-11.1623
▁duševn	-11.1623
▁poezij	-11.1623
▁rukopis	-11.1623
well	-11.1624
▁debel	-11.1624
▁proveden	-11.1625
▁vrhunc	-11.1629
▁življenj	-11.163
▁procjenjuj	-11.163
▁siromaštv	-11.1631
▁opada	-11.1631
▁zabavlja	-11.1633
▁zainteresira	-11.1635
▁vojnici	-11.1637
▁dominira	-11.1638
▁proširil	-11.164
▁točnij	-11.1641
▁kvadratn	-11.1645
▁jutra	-11.1651
▁osnoval	-11.1664
▁ukus	-11.1667
▁riž	-11.167
▁postupak	-11.1672
▁dužin	-11.1675
▁piv	-11.1679
▁120	-11.1705
▁Pital	-11.1714
koro	-11.1718
▁propust	-11.1732
▁Bis	-11.1737
▁Con	-11.1741
▁zajedničkog	-11.1742
▁Koristim	-11.1743
▁Park	-11.1767
▁prihvaćanj	-11.1769
▁trendov	-11.1795
▁zagrija	-11.1802
▁smjerov	-11.1803
▁Sigur	-11.1822
▁genij	-11.1829
▁konzerv	-11.1844
▁2011	-11.1844
▁Dizajn	-11.1844
▁ekspedicij	-11.1844
▁humanitarn	-11.1844
▁interpretacij	-11.1844
▁izmišljen	-11.1844
▁krijesnic	-11.1844
▁mehanizm	-11.1844
▁okreće	-11.1844
▁prilagođava	-11.1844
▁rezolucij	-11.1844
▁Promijeni	-11.1844
▁sićušn	-11.1844
▁Izgubi	-11.1844
▁napredoval	-11.1844
▁zvjezd	-11.1844
▁provode	-11.1844
▁Odrasta	-11.1845
▁Vratim	-11.1845
▁uspomen	-11.1845
▁Riječ	-11.1845
▁prekidač	-11.1845
▁ispušta	-11.1846
▁sučelje	-11.1848
▁Eric	-11.1849
▁stajal	-11.1854
▁spojev	-11.1856
▁časn	-11.186
▁33	-11.1861
▁printer	-11.1862
▁pjevač	-11.1871
▁uspon	-11.1874
▁tvore	-11.1877
▁suprotnost	-11.1879
▁grafičk	-11.1881
▁sond	-11.1884
▁desetak	-11.1897
▁spojen	-11.19
▁puk	-11.1903
▁religijsk	-11.1907
▁ubrzava	-11.1909
▁procesuira	-11.1928
▁policijsk	-11.193
▁sakuplja	-11.1932
▁sjedil	-11.1942
▁proširit	-11.1942
▁značajk	-11.1947
▁Europsk	-11.1978
▁zlostavlja	-11.1979
▁zamijenit	-11.1995
nešto	-11.1995
▁radnj	-11.1999
▁privlačn	-11.2004
▁poučava	-11.2009
▁iskusit	-11.2012
▁tijel	-11.2016
▁socio	-11.202
▁narast	-11.2033
▁radnic	-11.2065
▁Rezultat	-11.2072
▁Tehnologij	-11.2072
▁William	-11.2072
▁alkohol	-11.2072
▁ograničava	-11.2072
▁protostanic	-11.2072
▁Nobelov	-11.2072
▁Zdrav	-11.2072
▁korporativn	-11.2072
▁postizanj	-11.2072
▁prekriven	-11.2072
▁proširen	-11.2072
▁utemeljen	-11.2072
▁Četiri	-11.2072
▁policajc	-11.2072
▁trideset	-11.2072
▁Pretpostavljam	-11.2072
▁Gates	-11.2072
▁oklop	-11.2072
▁usamljen	-11.2072
▁glumi	-11.2072
▁Najveć	-11.2072
▁centi	-11.2072
▁propada	-11.2072
▁pluta	-11.2073
▁potiču	-11.2073
▁Ispriča	-11.2074
▁eksper	-11.2074
▁pišu	-11.2074
▁debat	-11.2075
▁čaš	-11.2077
▁spolova	-11.2078
▁postajal	-11.2079
▁usvoji	-11.2079
▁95	-11.208
▁bankar	-11.2081
▁kolib	-11.2083
▁ljusk	-11.2084
▁priznanj	-11.2092
▁riješil	-11.2092
▁matemati	-11.2095
▁lipnj	-11.2095
▁rotira	-11.2096
▁baza	-11.2097
▁plač	-11.21
▁garaž	-11.2102
▁provodim	-11.2103
▁Mary	-11.2104
▁paket	-11.212
▁Chi	-11.2126
▁Des	-11.2127
▁uništavanj	-11.2147
▁1000	-11.2166
▁zdravlj	-11.2192
▁astronom	-11.22
poznaju	-11.2204
▁eksperimentira	-11.222
▁oslobod	-11.2224
▁kolic	-11.2232
▁promijen	-11.2245
▁uvod	-11.2268
▁Moguć	-11.2279
▁Istok	-11.2294
▁Ispostav	-11.2295
uškarac	-11.2304
▁halucinacij	-11.2304
ouTube	-11.2304
▁Ljudsk	-11.2304
▁Norvešk	-11.2304
▁entropij	-11.2304
▁oruđe	-11.2304
▁paradoks	-11.2304
▁pogorša	-11.2304
▁postrojenj	-11.2304
▁privilegij	-11.2304
▁ružičast	-11.2304
▁susreće	-11.2304
▁zglob	-11.2304
▁rezultira	-11.2304
▁sjemenk	-11.2304
▁prijašnj	-11.2304
▁veteran	-11.2304
▁dešava	-11.2304
▁normalan	-11.2304
▁zadužen	-11.2304
▁puls	-11.2304
▁budžet	-11.2304
▁poklon	-11.2305
▁hajde	-11.2305
▁Ubrz	-11.2305
▁odvaja	-11.2306
linearn	-11.2306
▁pišem	-11.2306
▁poplav	-11.2307
▁optičk	-11.2308
▁sperm	-11.2308
▁zaradit	-11.231
▁žila	-11.2312
▁Peter	-11.2313
▁Vas	-11.2314
▁zaključit	-11.2324
▁uprav	-11.2326
▁Sigurno	-11.2328
▁trajal	-11.233
▁radionic	-11.233
▁konstrukcij	-11.2331
▁naredn	-11.2332
▁prikazuju	-11.2338
▁junak	-11.2338
cijaln	-11.2339
cjenjiva	-11.2344
▁Den	-11.2347
▁prestat	-11.2349
▁pogodn	-11.2352
▁trči	-11.2358
▁zaobi	-11.2359
▁pratil	-11.2369
▁Ford	-11.2392
▁značenj	-11.2393
▁programirat	-11.2406
▁mijenjanj	-11.2411
▁pokušaval	-11.2424
▁ratn	-11.2431
▁trajat	-11.2444
▁Pokušavam	-11.245
▁poljoprivredn	-11.2452
▁nikak	-11.2456
▁boril	-11.2457
▁preseli	-11.2513
▁Zv	-11.2514
▁tragov	-11.2528
▁mask	-11.2538
▁CRISPR	-11.2542
▁dopustil	-11.2542
▁doživljaj	-11.2542
▁elektran	-11.2542
▁kukuruz	-11.2542
▁pohađa	-11.2542
▁raspolaganj	-11.2542
▁rukovoditelj	-11.2542
▁smeđ	-11.2542
▁smješten	-11.2542
▁tweet	-11.2542
▁čišćenj	-11.2542
▁izrađuje	-11.2542
▁poduzeti	-11.2542
▁dijagram	-11.2542
▁dječaci	-11.2542
▁špilj	-11.2542
▁zagovara	-11.2542
▁podijelil	-11.2542
▁Odlično	-11.2542
▁Island	-11.2542
▁napuni	-11.2543
▁proljeć	-11.2543
▁nestaju	-11.2544
▁porod	-11.2544
▁isplati	-11.2544
▁trudnoć	-11.2545
▁rublj	-11.2546
▁etičk	-11.2546
▁potica	-11.2547
▁nježn	-11.255
▁Nalazi	-11.255
▁plesač	-11.2553
▁Nazva	-11.2554
▁platn	-11.2559
▁odabral	-11.2559
▁prelijep	-11.256
▁sportsk	-11.256
▁prizor	-11.2561
▁uzrokovan	-11.2564
▁mjeril	-11.2572
godišnjeg	-11.2576
▁znatiželjn	-11.2582
▁njegu	-11.2586
▁građ	-11.2586
▁zagrijavanj	-11.2588
poštu	-11.2592
▁divlji	-11.2598
▁povezal	-11.2599
▁lišć	-11.2605
▁smislen	-11.2606
▁voljni	-11.2611
▁izravn	-11.2613
▁ispitiva	-11.2615
▁cvje	-11.2619
račun	-11.2622
▁oslobodit	-11.2625
uzimaju	-11.2629
▁privremen	-11.2632
▁apsolutn	-11.2637
▁četvrtin	-11.2642
izgled	-11.2647
primjer	-11.2647
▁šalic	-11.2654
▁pomica	-11.2656
▁odjek	-11.2661
▁shvaćaju	-11.267
▁prsten	-11.2675
▁nastavim	-11.2675
▁otvaranj	-11.2675
▁voden	-11.2676
▁snažnij	-11.2684
▁objasnil	-11.2691
▁starost	-11.2698
encija	-11.2731
▁blokov	-11.2738
▁adolescen	-11.2749
▁Razvi	-11.2749
trča	-11.2771
▁desetk	-11.2777
▁2012	-11.2786
▁Projekt	-11.2786
▁dopamin	-11.2786
▁doprinije	-11.2786
▁implikacij	-11.2786
▁instalacij	-11.2786
▁izvođač	-11.2786
▁klavir	-11.2786
▁kontroverz	-11.2786
▁ljubomor	-11.2786
▁menadžer	-11.2786
▁mržnj	-11.2786
▁predgrađ	-11.2786
▁pregovara	-11.2786
▁prezentira	-11.2786
▁prosinc	-11.2786
▁rajčic	-11.2786
▁sintetičk	-11.2786
▁udžbenik	-11.2786
▁završn	-11.2786
▁tkanin	-11.2786
▁reaktor	-11.2786
▁Razumij	-11.2786
▁riješen	-11.2786
▁suptiln	-11.2786
▁veljač	-11.2786
▁ručak	-11.2786
▁posjeduju	-11.2786
▁sindrom	-11.2786
▁označen	-11.2786
▁trokut	-11.2786
▁tzv	-11.2786
▁haljin	-11.2786
▁pomiče	-11.2786
▁smeća	-11.2786
▁Koriste	-11.2786
▁pristranost	-11.2786
▁premijer	-11.2786
▁izolacij	-11.2786
▁kiše	-11.2787
▁svjest	-11.2787
▁obučen	-11.2787
▁izrazito	-11.2787
▁propast	-11.2787
▁pasivn	-11.2788
▁uvjerava	-11.2789
▁običaj	-11.2792
▁olovk	-11.2793
▁2008.	-11.2794
▁otvorenost	-11.2798
▁čelik	-11.2799
▁donese	-11.2799
▁zemljišta	-11.28
▁smiju	-11.2805
▁prisiljen	-11.2806
oslovno	-11.2808
▁držal	-11.2808
▁EM	-11.281
mičar	-11.2813
▁padne	-11.2813
▁jezici	-11.2817
▁Bob	-11.2829
▁zatvorenici	-11.2838
▁timov	-11.2843
▁vrećic	-11.2845
▁funkcioniral	-11.2848
▁pretilost	-11.2852
▁odlask	-11.2854
▁polarn	-11.2868
▁190	-11.2884
▁stvore	-11.2885
piri	-11.2898
▁Dijel	-11.2917
▁odrast	-11.2921
▁kontroliran	-11.2936
zvesti	-11.2943
▁događal	-11.2947
▁direkt	-11.2948
▁igranj	-11.2959
▁vođenj	-11.2966
▁slušaj	-11.2967
▁iznenadil	-11.2969
obran	-11.2981
▁napustil	-11.3001
▁mrežnic	-11.3031
▁Djevojk	-11.3036
▁Rođen	-11.3036
▁bambus	-11.3036
▁cyber	-11.3036
▁mješavin	-11.3036
▁origami	-11.3036
▁popodne	-11.3036
▁prilagodljiv	-11.3036
▁Chicag	-11.3036
▁detektira	-11.3036
▁hijerarhij	-11.3036
▁odvratn	-11.3036
▁policajac	-11.3036
▁majci	-11.3036
▁utakmic	-11.3036
▁vikend	-11.3036
▁prekid	-11.3036
▁kokoš	-11.3036
▁Zvuči	-11.3036
▁Italij	-11.3036
▁romantičn	-11.3037
▁parazit	-11.3037
▁naspram	-11.3037
▁tragedij	-11.3037
▁narančast	-11.3037
▁kruži	-11.3037
▁svojevrsn	-11.3037
▁plaši	-11.3037
▁hlač	-11.3037
uzvrat	-11.3038
▁zaljubi	-11.3039
▁Kuran	-11.3039
▁izliječi	-11.3041
▁službenik	-11.3043
▁stupanj	-11.3043
▁sapun	-11.3043
▁školovanj	-11.3046
▁odvest	-11.3047
▁2000.	-11.3048
▁odbor	-11.3048
▁engleskog	-11.3049
▁odaber	-11.305
▁Wall	-11.3053
▁sporij	-11.3054
▁legaln	-11.3055
▁Kinez	-11.3058
▁potez	-11.3069
▁naišl	-11.308
▁zasluž	-11.308
▁sažet	-11.3091
▁Ric	-11.3092
▁Znanost	-11.3098
▁trudn	-11.3106
▁zatvorit	-11.3109
▁okuplja	-11.3115
▁laser	-11.3123
▁putanj	-11.314
nny	-11.316
▁otpornost	-11.316
▁dokumentira	-11.3178
vremeno	-11.3183
▁Princ	-11.3185
▁kud	-11.3196
▁važniji	-11.3208
▁točkic	-11.3232
▁zagađenj	-11.3248
▁obič	-11.325
▁robotsk	-11.3261
▁pošl	-11.3271
▁sekvenc	-11.3273
▁Wikipedij	-11.3293
▁džamij	-11.3293
▁koncentracij	-11.3293
▁obuhvaća	-11.3293
▁ohrabri	-11.3293
▁predodžb	-11.3293
▁proizveden	-11.3293
▁trenutačn	-11.3293
▁usredotočen	-11.3293
▁velikodušn	-11.3293
▁štreber	-11.3293
▁2007.	-11.3293
▁Uspje	-11.3293
▁bubreg	-11.3293
▁paraleln	-11.3293
▁smrtonosn	-11.3293
▁potječe	-11.3293
▁kriterij	-11.3293
▁tablet	-11.3293
▁Justin	-11.3293
▁sportaš	-11.3293
▁listopad	-11.3293
▁prenose	-11.3293
▁košar	-11.3293
▁Slijed	-11.3293
▁Zelen	-11.3293
▁rudar	-11.3293
▁prekinut	-11.3293
dovoljan	-11.3293
▁izvadit	-11.3293
▁lavov	-11.3294
▁kišn	-11.3295
▁inženjering	-11.3296
▁2008	-11.3298
▁provjeriti	-11.3298
▁vijeć	-11.33
▁vlakov	-11.3307
▁pjesnik	-11.3309
▁svidjel	-11.3309
▁podigl	-11.3311
▁Bijel	-11.3313
▁MT	-11.3314
▁vuk	-11.3316
pomognu	-11.332
▁primjetil	-11.3329
▁učenj	-11.3331
▁vrhunsk	-11.3336
▁zmaj	-11.3353
▁sprječava	-11.3354
▁700	-11.3368
▁Neć	-11.3375
▁snimak	-11.3389
▁optimističn	-11.3393
▁uklapa	-11.3406
▁uklonit	-11.3417
minira	-11.3421
pišem	-11.3421
izaciju	-11.3423
▁kraljic	-11.3426
▁stranac	-11.3429
▁pomagal	-11.3439
poruk	-11.3442
▁plivanj	-11.3445
▁toplij	-11.3462
▁shvat	-11.3472
▁kodira	-11.3476
▁iznimn	-11.3496
▁prikupljanj	-11.3525
▁Pokušava	-11.3546
▁Pretpostav	-11.3556
▁zadovoljava	-11.3556
▁Manhattan	-11.3556
▁Singapur	-11.3556
▁Vijetnam	-11.3556
▁konektom	-11.3556
▁konkurencij	-11.3556
▁konvencionaln	-11.3556
▁literatur	-11.3556
▁nepravd	-11.3556
▁pomiješa	-11.3556
▁samopouzdanj	-11.3556
▁Čile	-11.3556
▁Čud	-11.3556
▁baby	-11.3556
▁identičn	-11.3556
▁preokrenu	-11.3556
▁udvostruči	-11.3556
▁vitamin	-11.3556
▁šifr	-11.3556
▁gužv	-11.3556
▁podrijetl	-11.3556
▁Pronašl	-11.3556
▁informiran	-11.3556
▁sačinjen	-11.3556
▁trbuh	-11.3556
▁udrug	-11.3556
▁adres	-11.3556
▁smanjuju	-11.3556
▁izumitelj	-11.3556
▁Kevin	-11.3556
▁ubacit	-11.3557
▁Tony	-11.3557
▁specijaliziran	-11.3557
▁pump	-11.3557
▁vibrira	-11.3558
▁anten	-11.3559
▁zauzet	-11.356
▁Isus	-11.3561
▁sastavljen	-11.357
▁elektronik	-11.3576
▁izlije	-11.3576
▁upitn	-11.3579
▁stisn	-11.3581
▁55	-11.3582
▁tečaj	-11.3586
▁naruči	-11.3586
▁presud	-11.3589
▁Pjeva	-11.359
▁zaštitn	-11.3592
▁Iduć	-11.3602
▁pročital	-11.3604
viknu	-11.3638
▁ozbilj	-11.3638
▁težnj	-11.3653
četka	-11.3685
▁dosegnu	-11.3702
▁sinov	-11.3715
▁štetn	-11.3726
▁dostup	-11.3738
▁vjenčanj	-11.3738
▁Pen	-11.376
▁raznolik	-11.376
▁neugodn	-11.3764
▁Jedn	-11.377
▁traženj	-11.3777
▁palic	-11.3783
▁tapir	-11.3801
▁spavanj	-11.3801
▁briljantn	-11.3826
▁dijabetes	-11.3826
▁dragocjen	-11.3826
▁festival	-11.3826
▁filter	-11.3826
▁hamburger	-11.3826
▁helikopter	-11.3826
▁improvizira	-11.3826
▁istražuju	-11.3826
▁luksuz	-11.3826
▁naoružan	-11.3826
▁neokorteks	-11.3826
▁određuje	-11.3826
▁osmijeh	-11.3826
▁pogođen	-11.3826
▁pošiljk	-11.3826
▁prihvaćen	-11.3826
▁sisavc	-11.3826
▁slijetanj	-11.3826
▁stereotip	-11.3826
▁transplantacij	-11.3826
▁zabilježen	-11.3826
▁zarađuje	-11.3826
▁nenasiln	-11.3826
▁humor	-11.3826
▁pothvat	-11.3826
▁Oprosti	-11.3826
▁metaboliz	-11.3826
▁potaknul	-11.3826
▁Brown	-11.3826
▁prodavač	-11.3826
▁naveden	-11.3826
▁nadahnut	-11.3826
▁postiže	-11.3826
▁dizal	-11.3826
▁dospi	-11.3827
▁varira	-11.3827
▁služe	-11.3827
▁košnic	-11.3827
▁sudionik	-11.3827
▁šetnj	-11.3827
▁intimn	-11.3827
▁leža	-11.3828
▁kabin	-11.3828
▁stručn	-11.3828
▁molitv	-11.3829
▁primitivn	-11.3831
▁Brian	-11.3832
▁primjenjiv	-11.3832
▁zabranjen	-11.3833
▁skrenu	-11.3833
▁tekstur	-11.3833
▁Majk	-11.3834
▁bračn	-11.3837
▁Uzme	-11.3837
▁deseci	-11.3845
▁tunel	-11.3848
▁mrz	-11.3849
▁igle	-11.3856
▁sebičn	-11.3856
▁gest	-11.3858
▁domaćin	-11.3861
▁provjerava	-11.3863
▁ljutnj	-11.3871
▁strahov	-11.3882
▁tres	-11.3885
▁Postal	-11.3887
▁sastavlja	-11.3887
plod	-11.3889
▁fizi	-11.3902
▁idealn	-11.3909
▁inženjerstv	-11.3916
▁obratit	-11.3922
▁Cas	-11.3926
▁fokusiran	-11.3942
▁tint	-11.3951
▁specijaln	-11.3953
▁objav	-11.3974
▁posvetit	-11.3977
▁prestal	-11.3979
▁zarazn	-11.3986
▁žrt	-11.3997
▁dlak	-11.3998
▁Zemljin	-11.4005
▁Cor	-11.4014
▁bliž	-11.4032
pakira	-11.4044
▁pozvan	-11.4073
▁glupost	-11.4102
▁zabrinjava	-11.4104
▁Britansk	-11.4104
▁Republi	-11.4104
▁astronaut	-11.4104
▁kontinuiran	-11.4104
▁kontracepcij	-11.4104
▁majčin	-11.4104
▁najjednostavnij	-11.4104
▁obavještajn	-11.4104
▁predrasude	-11.4104
▁sveprisutn	-11.4104
▁umirovljen	-11.4104
▁zaljubljen	-11.4104
▁španjolsk	-11.4104
▁2005.	-11.4104
▁benzin	-11.4104
▁bombardira	-11.4104
▁pionir	-11.4104
▁sprečava	-11.4104
▁odsvira	-11.4104
▁mjenja	-11.4104
▁Ugand	-11.4104
▁kemičar	-11.4104
▁hoću	-11.4104
▁studio	-11.4104
▁Stvoril	-11.4104
▁udobn	-11.4104
▁vesl	-11.4104
▁Jasno	-11.4105
▁transport	-11.4105
▁violin	-11.4105
▁očajničk	-11.4105
▁autonomn	-11.4106
▁sinaps	-11.4106
▁nude	-11.4106
▁dupl	-11.4107
▁porasl	-11.4107
▁svibnj	-11.4108
▁završen	-11.4109
▁pisac	-11.411
▁fondacij	-11.4111
▁bazu	-11.4111
▁prijevar	-11.4112
▁kopn	-11.4112
▁mjesečno	-11.4114
▁odlučuju	-11.4116
▁nestane	-11.4121
kularn	-11.4126
▁Razlik	-11.4127
▁shem	-11.4133
▁sokol	-11.4135
▁Istočn	-11.4138
▁zahvat	-11.4138
▁kapitalizm	-11.4139
▁nedjelj	-11.415
▁izradil	-11.4164
▁prihvatljiv	-11.4167
▁krivnj	-11.4175
▁slovo	-11.4176
▁eksperimen	-11.4179
ponašaju	-11.4181
▁smijem	-11.4189
▁odved	-11.4201
zvuk	-11.4202
▁krać	-11.4202
▁nabavit	-11.4215
▁robov	-11.4216
▁liberaln	-11.4218
▁filozofsk	-11.4234
▁partnerstv	-11.4239
spod	-11.4253
▁najav	-11.4256
▁Presta	-11.4271
▁Sirij	-11.4271
▁Nijedn	-11.4281
▁Carl	-11.4282
▁zaključil	-11.4296
▁Crn	-11.4303
▁jadn	-11.4307
▁posjetil	-11.4323
▁strukturi	-11.4333
▁društ	-11.4337
▁propal	-11.4341
▁prediv	-11.4343
laženj	-11.435
▁ventil	-11.4387
▁invalid	-11.439
▁Egipt	-11.439
▁Hollywood	-11.439
▁Parkinsonov	-11.439
▁Stephen	-11.439
▁isključen	-11.439
▁prouzroč	-11.439
▁sastojak	-11.439
▁sporazum	-11.439
▁stimulira	-11.439
▁GPS	-11.439
▁Scott	-11.439
▁dioksid	-11.439
▁fetus	-11.439
▁glagol	-11.439
▁integriran	-11.439
▁karcinom	-11.439
▁krumpir	-11.439
▁močvar	-11.439
▁rizičn	-11.439
▁sudjeluju	-11.439
▁tjeskob	-11.439
▁ultraljubičast	-11.439
▁uklopi	-11.439
▁subjektivn	-11.439
▁naknad	-11.439
▁pomiri	-11.439
▁kritizira	-11.439
▁daljnj	-11.439
▁katkad	-11.439
▁Albert	-11.439
▁kružn	-11.439
▁preferira	-11.439
▁ideologij	-11.439
▁Bush	-11.439
▁čovječ	-11.439
▁progon	-11.4391
▁plijes	-11.4392
▁prikaž	-11.4393
▁iskopa	-11.4393
▁imitira	-11.4393
▁kupc	-11.4393
▁Šest	-11.4394
▁terorističk	-11.4394
▁brini	-11.4395
▁Afrikanc	-11.4397
▁29	-11.4397
▁toalet	-11.4397
▁naredb	-11.4399
▁spašava	-11.44
▁Pozdrav	-11.4401
▁kruh	-11.4401
▁žab	-11.4405
▁trener	-11.4406
▁protest	-11.441
▁Sret	-11.4415
▁glatk	-11.4416
▁vrtić	-11.4422
▁proklet	-11.4424
▁magl	-11.443
▁filantropij	-11.4445
▁tragičn	-11.4463
▁manjin	-11.448
▁smrtn	-11.4488
▁poslan	-11.4494
klapaju	-11.4557
▁dublj	-11.456
daleko	-11.4563
▁spojil	-11.4563
▁programiranj	-11.4567
▁zamk	-11.4571
▁skupil	-11.4591
▁unutrašnj	-11.4608
▁okrug	-11.4663
▁kil	-11.4677
drživ	-11.4681
▁subjekt	-11.4683
dimenzional	-11.4684
▁1970-	-11.4684
▁Apsolutn	-11.4684
▁Florid	-11.4684
▁Ministarstv	-11.4684
▁Virgin	-11.4684
▁bespomoćn	-11.4684
▁izvršn	-11.4684
▁kazališt	-11.4684
▁kupovin	-11.4684
▁membran	-11.4684
▁najbogatij	-11.4684
▁najdublj	-11.4684
▁najvjerojatnij	-11.4684
▁orkestar	-11.4684
▁pandemij	-11.4684
▁razmnožava	-11.4684
▁rejting	-11.4684
▁rezonanc	-11.4684
▁smrznut	-11.4684
▁svjetiljk	-11.4684
▁upozorenj	-11.4684
▁varijabl	-11.4684
▁vulkan	-11.4684
▁zastarjel	-11.4684
▁Židov	-11.4684
▁ožujk	-11.4684
▁piksel	-11.4684
▁predvidljiv	-11.4684
▁razočaran	-11.4684
▁sponzor	-11.4684
▁udruži	-11.4684
▁čudovišt	-11.4684
▁Pokazal	-11.4684
▁duljin	-11.4684
▁nastajanj	-11.4684
▁sudjeluje	-11.4684
▁entitet	-11.4684
▁tendencij	-11.4684
▁proslav	-11.4684
▁vibracij	-11.4684
▁očekuju	-11.4684
▁interesantn	-11.4684
▁melodij	-11.4684
▁bazen	-11.4684
▁stepenic	-11.4684
▁obrok	-11.4684
▁podigne	-11.4684
▁oprezn	-11.4685
▁uveća	-11.4685
▁Bell	-11.4686
▁Lego	-11.4688
▁strop	-11.4691
▁oblikoval	-11.4693
▁poniz	-11.4698
▁Npr	-11.4699
▁izvukl	-11.4708
▁Cilj	-11.4717
bon	-11.4729
▁preselil	-11.4729
▁panel	-11.4731
▁darov	-11.4735
▁komunikacijsk	-11.4736
▁povremen	-11.4738
▁najpri	-11.4753
▁pločic	-11.4758
▁napast	-11.4768
▁suosjeća	-11.4768
▁Vol	-11.477
▁uličn	-11.4773
▁Gaz	-11.4788
▁opstan	-11.4808
raznim	-11.4814
▁obrađuj	-11.4817
▁skupljanj	-11.4831
▁crnac	-11.4833
▁prikup	-11.4844
▁Znal	-11.4854
▁pokretač	-11.4855
▁tenis	-11.4863
▁roditeljstv	-11.4874
▁lasersk	-11.4884
▁zauzima	-11.49
▁preživljava	-11.4901
▁suočavanj	-11.4914
▁Dobil	-11.4924
▁šap	-11.493
▁Alzheimer	-11.4932
▁magnetn	-11.4941
▁spozna	-11.4941
▁postavljanj	-11.4945
▁uzimanj	-11.4955
col	-11.4961
▁pažljiv	-11.4962
▁zadiv	-11.4969
▁tvr	-11.4971
▁Smatra	-11.4979
▁manipulira	-11.4987
▁raširi	-11.4987
▁blockchain	-11.4987
▁cenzur	-11.4987
▁dugotrajn	-11.4987
▁mamografij	-11.4987
▁nepotrebn	-11.4987
▁nezaposlen	-11.4987
▁pingvin	-11.4987
▁raširen	-11.4987
▁FBI	-11.4987
▁Gandhi	-11.4987
▁financija	-11.4987
▁pušten	-11.4987
▁trgovačk	-11.4987
▁zarobljen	-11.4987
▁Posebn	-11.4987
▁natjeral	-11.4987
▁ubojstv	-11.4987
▁napetost	-11.4987
▁avantur	-11.4987
▁tropsk	-11.4987
▁prašum	-11.4987
▁zadovoljn	-11.4987
▁poginul	-11.4987
▁pukotin	-11.4987
▁izvještava	-11.4987
▁transakcij	-11.4987
▁kupuju	-11.4987
▁dovode	-11.4987
▁špric	-11.4987
▁bušen	-11.4987
▁preživi	-11.4987
▁kupac	-11.4987
▁Islam	-11.4987
▁mjerljiv	-11.4987
▁Dosad	-11.4987
▁divovsk	-11.4988
▁predator	-11.4988
▁sugerira	-11.4989
JS	-11.4989
▁Grand	-11.4989
▁mjehurić	-11.4989
▁Pusti	-11.4989
▁odvjetnic	-11.499
▁žile	-11.499
▁Berlin	-11.499
▁uporn	-11.4991
▁udahn	-11.4993
▁dozvoljen	-11.4993
▁2050	-11.4993
▁kampus	-11.4995
▁zbor	-11.4995
▁Trans	-11.4996
▁objavljuj	-11.4997
▁korisničk	-11.5
▁putoval	-11.5005
▁kavez	-11.5006
▁jedink	-11.5012
▁Mlad	-11.5016
▁oblikovat	-11.5024
▁građevinsk	-11.5032
▁donira	-11.5034
▁prikupil	-11.5039
▁procijenit	-11.505
▁Shvatil	-11.5055
▁motiviran	-11.5057
▁zatvara	-11.5061
blaž	-11.5062
▁puž	-11.5085
prodaj	-11.5086
▁materijaln	-11.5122
▁prednj	-11.5125
▁skeniranj	-11.5134
▁alternativn	-11.5162
▁liberal	-11.5172
▁mozg	-11.5177
bliz	-11.5178
▁malarij	-11.5216
▁prolazil	-11.522
▁postupa	-11.5231
▁odluč	-11.5231
▁odlučn	-11.5234
kazuju	-11.5275
▁Vjeruj	-11.5283
mjesečn	-11.5291
▁mjehur	-11.5297
nejednak	-11.5299
▁vizualizira	-11.5299
▁Disney	-11.5299
▁Mozart	-11.5299
▁akademsk	-11.5299
▁ambiciozn	-11.5299
▁cigaret	-11.5299
▁eksponencijaln	-11.5299
▁frustriran	-11.5299
▁ilustrira	-11.5299
▁imunološk	-11.5299
▁intenzitet	-11.5299
▁inzistira	-11.5299
▁nekretnin	-11.5299
▁određuju	-11.5299
▁prostitucij	-11.5299
▁regulira	-11.5299
▁stratešk	-11.5299
▁Švicarsk	-11.5299
▁2009.	-11.5299
▁album	-11.5299
▁opipljiv	-11.5299
▁psihopat	-11.5299
▁recesij	-11.5299
▁pobačaj	-11.5299
▁podmornic	-11.5299
▁Planet	-11.5299
▁patogen	-11.5299
▁tetovaž	-11.5299
▁praćenje	-11.5299
▁raspodjel	-11.5299
▁izbrisa	-11.5299
▁Knjig	-11.5299
▁kolaps	-11.5299
▁skeletn	-11.5299
▁postupn	-11.5299
▁tablic	-11.5299
▁zatopljenj	-11.53
▁kalorij	-11.53
▁skener	-11.53
▁locira	-11.53
▁minimaln	-11.53
▁izdavač	-11.53
▁pleše	-11.53
▁logor	-11.53
▁strelic	-11.53
▁djelotvorn	-11.53
▁sunčan	-11.5301
▁tanjur	-11.5301
▁Haitij	-11.5301
▁trkač	-11.5301
▁redovito	-11.5301
▁prelaze	-11.5301
▁najranij	-11.5301
▁bend	-11.5301
▁klinc	-11.5302
▁pronalask	-11.5302
▁Coca	-11.5302
▁dvojic	-11.5302
▁obnovljiv	-11.5302
▁Sprem	-11.5303
▁požar	-11.5307
▁kapitaliza	-11.531
▁dvij	-11.5311
▁krasn	-11.5313
▁pijan	-11.5317
▁izoliran	-11.5319
▁okrugl	-11.5321
▁Istraživanj	-11.5329
▁književnost	-11.5335
▁konzervativn	-11.5338
▁živući	-11.5345
▁usporava	-11.5358
▁potrošil	-11.5367
▁prikupit	-11.5391
▁povećal	-11.5393
▁novčanic	-11.5397
▁posjedova	-11.5398
▁pauz	-11.5398
▁vjenča	-11.5402
▁totaln	-11.5479
▁sklonij	-11.548
▁spajanj	-11.5492
▁lošij	-11.5502
▁razmisl	-11.5504
▁preša	-11.5531
▁pogodil	-11.5537
▁uključil	-11.5541
▁pružanj	-11.5557
▁lokal	-11.5563
▁hakira	-11.5564
▁krećem	-11.5589
▁sagradil	-11.5591
▁prosječ	-11.5613
▁automobilsk	-11.5618
▁cjelovit	-11.5622
evolucionarn	-11.5622
▁1984	-11.5622
▁JUK	-11.5622
▁Jupiter	-11.5622
▁Pacifik	-11.5622
▁Računal	-11.5622
▁Slobod	-11.5622
▁Tanzanij	-11.5622
▁anksioznost	-11.5622
▁diskriminacij	-11.5622
▁fantastik	-11.5622
▁gospođ	-11.5622
▁mrtav	-11.5622
▁naglašava	-11.5622
▁najpoznatij	-11.5622
▁obilježj	-11.5622
▁performans	-11.5622
▁poduzetništv	-11.5622
▁posegnu	-11.5622
▁proizašl	-11.5622
▁ravnopravnost	-11.5622
▁software	-11.5622
▁televizor	-11.5622
▁višestruk	-11.5622
▁centimetar	-11.5622
▁genocid	-11.5622
▁higijen	-11.5622
▁osnivač	-11.5622
▁stadion	-11.5622
▁simulira	-11.5622
▁zasebn	-11.5622
▁kroničn	-11.5622
▁matric	-11.5622
▁Prijatelj	-11.5622
▁zbirk	-11.5622
▁spremi	-11.5622
▁Slično	-11.5622
▁napreduju	-11.5622
▁netaknut	-11.5622
▁naslijeđ	-11.5622
▁avatar	-11.5622
▁bizarn	-11.5622
▁hodnik	-11.5622
▁alarm	-11.5622
▁dvje	-11.5623
▁Havaj	-11.5623
▁odvojit	-11.5623
▁stadij	-11.5623
▁galerij	-11.5623
▁kristal	-11.5624
▁Sjetit	-11.5624
▁prevencij	-11.5625
▁penja	-11.5625
▁lutk	-11.5626
▁leže	-11.5626
▁binarn	-11.5626
▁sagleda	-11.5626
▁kolač	-11.5626
▁sudionici	-11.5626
▁daljinsk	-11.5627
▁preuzm	-11.5628
▁Plav	-11.5632
▁genijaln	-11.5635
▁agent	-11.5638
▁održal	-11.5639
▁nastank	-11.5646
▁plodn	-11.5651
▁Ann	-11.5662
▁bakterijsk	-11.5663
▁zvučal	-11.5679
▁pazit	-11.5687
▁operacijsk	-11.5709
▁ocijen	-11.5736
▁djelu	-11.5742
▁civil	-11.5765
▁slabij	-11.5767
▁škr	-11.577
▁vremen	-11.58
▁dugač	-11.5804
▁dobivanj	-11.5805
▁vjeruj	-11.5807
▁televizijsk	-11.581
materijal	-11.5819
▁Kralj	-11.5821
▁stavov	-11.5824
▁stab	-11.584
▁uključivanj	-11.5847
▁listić	-11.5849
▁konstruk	-11.5917
▁zaustavil	-11.5926
Col	-11.5939
▁rječ	-11.5945
MG	-11.5945
▁1980-	-11.5955
▁Djevojčic	-11.5955
▁Umjetnost	-11.5955
▁distribuira	-11.5955
▁elegantn	-11.5955
▁fotoaparat	-11.5955
▁impresionira	-11.5955
▁impresivn	-11.5955
▁integracij	-11.5955
▁kiruršk	-11.5955
▁leptir	-11.5955
▁neizmjern	-11.5955
▁neposredn	-11.5955
▁onemoguć	-11.5955
▁pokvaren	-11.5955
▁prilagodb	-11.5955
▁rukovodstv	-11.5955
▁uplašen	-11.5955
▁vjerodostoj	-11.5955
▁zapovijed	-11.5955
▁žlijezd	-11.5955
▁Nizozemsk	-11.5955
▁educira	-11.5955
▁figur	-11.5955
▁instalira	-11.5955
▁otkucaj	-11.5955
▁pedeset	-11.5955
▁produkcij	-11.5955
▁simfonij	-11.5955
▁zadovolji	-11.5955
▁žohar	-11.5955
▁Henry	-11.5955
▁Postojal	-11.5955
▁dobrodošl	-11.5955
▁kraljevsk	-11.5955
▁Taliban	-11.5955
▁prigrli	-11.5955
▁kapetan	-11.5955
▁uklanjanj	-11.5955
▁zapadnjačk	-11.5955
▁analogn	-11.5955
▁nastojanj	-11.5955
▁osvjetljen	-11.5955
▁magičn	-11.5955
tional	-11.5955
▁uzročn	-11.5955
▁geografsk	-11.5955
▁sjedal	-11.5955
▁spektakularn	-11.5955
▁oksid	-11.5955
▁Zlatn	-11.5955
▁arhitektonsk	-11.5955
▁odobren	-11.5956
▁podrum	-11.5956
▁druži	-11.5956
▁zrel	-11.5956
▁primjenjuje	-11.5956
▁brend	-11.5956
▁Jenn	-11.5957
▁uvred	-11.5957
▁preskoč	-11.5957
▁Daniel	-11.5957
▁Vijeć	-11.5957
realistič	-11.5958
▁najniž	-11.5958
▁Kupi	-11.5958
▁povuče	-11.5958
▁zatvorsk	-11.5958
▁Tajland	-11.5958
▁prikaziva	-11.5959
▁logičn	-11.5959
▁novčić	-11.5959
▁nailazi	-11.5959
▁prilazi	-11.5961
▁donacij	-11.5967
▁komor	-11.5968
▁platil	-11.5977
apita	-11.5982
▁Staln	-11.5988
▁astm	-11.5994
▁Ostal	-11.5998
▁suštinsk	-11.6004
▁smjestit	-11.6008
▁trač	-11.6009
jasn	-11.6021
▁pitk	-11.6022
▁robotik	-11.6023
▁struk	-11.6026
sekcij	-11.6028
▁izumiranj	-11.603
▁relativn	-11.6049
▁silovanj	-11.6072
▁tekstov	-11.6073
▁Amerikanc	-11.6088
▁pustil	-11.6089
▁pozval	-11.6123
▁poduzima	-11.6173
▁izražava	-11.6173
vječnost	-11.6176
▁pomaga	-11.6197
▁htje	-11.6208
▁ped	-11.6213
▁Zanima	-11.6223
nošenje	-11.6224
▁osigural	-11.6241
▁Njih	-11.6247
▁doslov	-11.6258
▁Babbage	-11.63
▁Snowden	-11.63
▁Zaključ	-11.63
▁angažman	-11.63
▁bihevioraln	-11.63
▁epizod	-11.63
▁feministic	-11.63
▁iskorišten	-11.63
▁izdržljiv	-11.63
▁leopard	-11.63
▁majstor	-11.63
▁najuzbudljivij	-11.63
▁narudžb	-11.63
▁nuspojav	-11.63
▁oglašavanj	-11.63
▁osmišljen	-11.63
▁relevantn	-11.63
▁reprodukcij	-11.63
▁supermarket	-11.63
▁uznemirava	-11.63
▁Četvrt	-11.63
▁žitaric	-11.63
▁altruiz	-11.63
▁gnojiv	-11.63
▁kilometr	-11.63
▁kolovoz	-11.63
▁sljepoć	-11.63
▁talijansk	-11.63
▁Shvaća	-11.63
▁razdvaja	-11.63
▁spominje	-11.63
▁parkirališt	-11.63
▁Pročita	-11.63
▁prekasn	-11.63
▁Liberij	-11.63
▁pušenj	-11.63
▁emotivn	-11.63
▁obujm	-11.63
▁ogledal	-11.63
▁pravljenj	-11.63
▁Poslije	-11.63
▁predvidi	-11.6301
▁Odrasl	-11.6301
▁ravnatelj	-11.6301
▁Ispal	-11.6302
▁izvuče	-11.6302
▁poštuje	-11.6302
▁klon	-11.6303
▁nišan	-11.6303
▁esej	-11.6303
▁obožavatelj	-11.6304
▁oglas	-11.6304
▁bogov	-11.6305
▁dosljedn	-11.6306
▁protokol	-11.6306
▁krhk	-11.6308
▁Društven	-11.631
▁motoričk	-11.6314
▁slajdov	-11.6333
▁eksperimentaln	-11.6384
▁poslužit	-11.6392
onaln	-11.6413
▁pranj	-11.6426
▁vojs	-11.6438
▁osud	-11.6438
▁razmišljanj	-11.6449
▁glasanj	-11.6478
▁pomicanj	-11.649
scen	-11.6539
▁zatvaranj	-11.657
▁izražavanj	-11.6574
▁vreć	-11.6587
▁poboljšal	-11.6611
▁osnaži	-11.6612
▁insek	-11.6626
▁2015	-11.6657
▁Aristotel	-11.6657
▁Bangladeš	-11.6657
▁Neandertalc	-11.6657
▁Njezin	-11.6657
▁Usporedi	-11.6657
▁besmrtn	-11.6657
▁dešifrira	-11.6657
▁filtrira	-11.6657
▁menadžment	-11.6657
▁nezamisliv	-11.6657
▁redoslijed	-11.6657
▁refleks	-11.6657
▁tsunami	-11.6657
▁uvođenj	-11.6657
▁vizualizacij	-11.6657
▁Čekaj	-11.6657
▁Aleksand	-11.6657
▁Iskreno	-11.6657
▁Ljubav	-11.6657
▁Zahvaljuj	-11.6657
▁farmaceutsk	-11.6657
▁feminiz	-11.6657
▁incident	-11.6657
▁podrazumijeva	-11.6657
▁pokrene	-11.6657
▁usklađen	-11.6657
▁Afričk	-11.6657
▁proguta	-11.6657
▁rešetk	-11.6657
▁ambicij	-11.6657
▁upozori	-11.6657
▁brutaln	-11.6657
▁uskladi	-11.6657
▁izdrža	-11.6657
▁podvodn	-11.6657
▁pobrinut	-11.6657
▁plešu	-11.6657
▁podizanj	-11.6657
▁mužjaci	-11.6657
▁bilježi	-11.6657
▁dilem	-11.6657
▁Izgradi	-11.6658
▁pronalaze	-11.6658
▁Mijenja	-11.6658
▁Učitelj	-11.6658
▁slijeva	-11.6658
smrću	-11.6658
▁otopi	-11.6659
▁pravc	-11.6659
▁primanj	-11.6659
▁amater	-11.6659
satn	-11.6659
▁mjesečnic	-11.666
▁pismenost	-11.666
zrakama	-11.6661
▁pisc	-11.6661
▁cigl	-11.6664
▁štapić	-11.6664
▁dnevnik	-11.6665
▁oslikava	-11.6667
▁palm	-11.6669
▁Svoj	-11.667
▁Voljel	-11.6671
▁vrlin	-11.6671
▁zaposlenici	-11.6674
▁sportov	-11.668
▁sekvencira	-11.6684
▁dokazal	-11.6686
letjeli	-11.6691
▁englesk	-11.67
▁parkira	-11.6702
▁centraln	-11.6707
▁izlask	-11.6709
▁dijet	-11.6711
▁elektronsk	-11.6733
▁prijevod	-11.6733
▁uhvatil	-11.6792
▁odražava	-11.6821
▁fantastič	-11.6835
opisiv	-11.6858
▁pobijedil	-11.6918
▁instrumen	-11.6938
▁muslimansk	-11.6945
▁negativ	-11.6947
▁crte	-11.6986
orijentiran	-11.7027
▁Egipćan	-11.7027
▁Gospodin	-11.7027
▁Prosječn	-11.7027
▁agresivn	-11.7027
▁ekspresij	-11.7027
▁hemisfer	-11.7027
▁neuobičajen	-11.7027
▁neurogenez	-11.7027
▁uznemiren	-11.7027
▁EDI	-11.7027
▁Etiopij	-11.7027
▁Seattle	-11.7027
▁beskorisn	-11.7027
▁kratkoročn	-11.7027
▁kupaonic	-11.7027
▁maternic	-11.7027
▁najzanimljivij	-11.7027
▁pojednostavljen	-11.7027
▁procedur	-11.7027
▁rješi	-11.7027
▁teoretsk	-11.7027
▁zamišljen	-11.7027
▁embrij	-11.7027
▁sluzav	-11.7027
▁eliminira	-11.7027
▁natječu	-11.7027
▁piletin	-11.7027
▁bilješk	-11.7027
▁sastojk	-11.7027
▁Dylan	-11.7027
▁blijed	-11.7027
▁kapljic	-11.7027
▁rudnik	-11.7027
▁provincij	-11.7028
▁opseg	-11.7028
▁upamtit	-11.7028
▁diskusij	-11.7028
▁altruist	-11.7028
▁iPad	-11.7028
▁Latinsk	-11.7028
▁nastojim	-11.7028
▁kacig	-11.7028
▁provedb	-11.7028
▁etničk	-11.7028
▁slaganj	-11.7028
▁udalji	-11.7028
▁perilic	-11.7028
▁voće	-11.7029
▁kritik	-11.7029
▁meduz	-11.7029
▁pilul	-11.7029
▁show	-11.7029
▁redatelj	-11.7029
▁toksin	-11.7029
▁počast	-11.703
▁najjač	-11.703
▁zlato	-11.703
▁spomenik	-11.703
▁plazm	-11.7032
▁Talk	-11.7032
▁rangira	-11.7033
▁ovisnik	-11.7043
▁nedostaju	-11.7044
▁popular	-11.7045
▁protez	-11.7046
▁papirnat	-11.7047
▁Uzimam	-11.706
▁demon	-11.7068
▁iransk	-11.7071
▁hidro	-11.7077
▁Kinesk	-11.7083
▁mekan	-11.71
▁registrira	-11.7103
▁zapošljava	-11.7104
▁privuć	-11.7118
centr	-11.7171
▁spomen	-11.7189
▁razumjel	-11.7204
▁skel	-11.7236
▁trčanj	-11.7257
▁dionic	-11.7291
▁izmislil	-11.7296
▁travnj	-11.7312
▁princ	-11.7331
▁ubijanj	-11.7336
spituj	-11.7361
▁naivn	-11.737
▁osmislil	-11.738
▁nalikuj	-11.7399
▁instinkt	-11.7411
▁1998	-11.7412
▁1999	-11.7412
▁Antarktik	-11.7412
▁Argentin	-11.7412
▁Delhij	-11.7412
▁Događa	-11.7412
▁Everglade	-11.7412
▁Joseph	-11.7412
▁Muškarci	-11.7412
▁antropolog	-11.7412
▁enciklopedij	-11.7412
▁fragment	-11.7412
▁inozemstv	-11.7412
▁neograničen	-11.7412
▁odozgo	-11.7412
▁prestrašen	-11.7412
▁propovijed	-11.7412
▁pubertet	-11.7412
▁pustolovin	-11.7412
▁rehabilitacij	-11.7412
▁tranzistor	-11.7412
▁zemaljsk	-11.7412
▁Obožava	-11.7412
▁depresivn	-11.7412
▁dovrši	-11.7412
▁feromon	-11.7412
▁najpametnij	-11.7412
▁najsretnij	-11.7412
▁najučinkovitij	-11.7412
▁naljepnic	-11.7412
▁preokret	-11.7412
▁terapeut	-11.7412
▁utočišt	-11.7412
▁škamp	-11.7412
▁ponižava	-11.7412
▁završetak	-11.7412
▁demografsk	-11.7412
▁prognoz	-11.7412
▁razglednic	-11.7412
▁ptičj	-11.7412
▁bonus	-11.7412
▁vagin	-11.7412
▁potrudi	-11.7412
▁Podijeli	-11.7412
▁Unutar	-11.7412
▁arterij	-11.7412
▁dušikov	-11.7412
▁nijans	-11.7412
▁podignut	-11.7412
▁Ruand	-11.7412
▁Zeland	-11.7412
▁razdvoje	-11.7412
▁prisustv	-11.7412
▁neželjen	-11.7413
▁pridobi	-11.7413
▁srpnj	-11.7413
▁vrpc	-11.7413
▁smiri	-11.7413
▁Ritam	-11.7413
▁gumen	-11.7413
▁nestaja	-11.7413
▁Mandel	-11.7413
▁obavez	-11.7413
▁dočeka	-11.7413
▁igrališt	-11.7413
▁gube	-11.7413
▁šator	-11.7414
▁lamp	-11.7414
▁usporedim	-11.7414
▁tužb	-11.7414
▁slogan	-11.7414
▁radijacij	-11.7415
▁mrlj	-11.7415
▁oduzet	-11.7417
▁ispitanik	-11.7417
▁Srednj	-11.742
▁Pozva	-11.7422
▁sprav	-11.7422
▁zaštitil	-11.7427
▁povuk	-11.743
▁Cijen	-11.7433
▁pozitiv	-11.7434
▁Tesl	-11.7438
▁bjel	-11.7455
▁odredišt	-11.7465
bjegl	-11.7472
ražavaju	-11.7475
▁izmet	-11.7478
▁Naziv	-11.7497
▁vun	-11.7501
stojeći	-11.7513
▁kontaktira	-11.7539
▁original	-11.7544
sumnjiv	-11.755
stignu	-11.7584
▁astronomij	-11.7588
▁namjen	-11.7618
▁pojel	-11.7636
▁global	-11.7638
Z	-11.7672
▁Narod	-11.769
▁moćnij	-11.7707
▁hodanj	-11.7711
▁brinul	-11.7711
▁dodjel	-11.772
▁filantrop	-11.7734
▁pretil	-11.7739
▁procijen	-11.7739
ustrijsk	-11.7764
▁natjecat	-11.7811
▁Beatbo	-11.7812
▁Bijelotopij	-11.7812
▁Leonard	-11.7812
▁Portugal	-11.7812
▁administracij	-11.7812
▁bioraznolikost	-11.7812
▁dirigent	-11.7812
▁elektromagnet	-11.7812
▁frustracij	-11.7812
▁identifikacij	-11.7812
▁istodobno	-11.7812
▁kemoterapij	-11.7812
▁najuspješnij	-11.7812
▁neophodn	-11.7812
▁pobjeđuj	-11.7812
▁pozabavi	-11.7812
▁psihijatrijsk	-11.7812
▁stimulacij	-11.7812
▁stipendij	-11.7812
▁svjedok	-11.7812
▁ultrazvuk	-11.7812
▁utjelovljen	-11.7812
▁utvrdil	-11.7812
▁Šangaj	-11.7812
▁Edward	-11.7812
▁Međunarodn	-11.7812
▁iskušenj	-11.7812
▁promjenjiv	-11.7812
▁raznovrsn	-11.7812
▁spontano	-11.7812
▁vakuum	-11.7812
▁Pacijent	-11.7812
▁neutraln	-11.7812
▁pohlep	-11.7812
▁fikcij	-11.7812
▁radioaktivn	-11.7812
▁sjedne	-11.7812
▁makro	-11.7812
▁migracij	-11.7812
▁nenamjern	-11.7812
▁preplavljen	-11.7812
▁Vraća	-11.7812
▁dvanaest	-11.7812
▁izlaganj	-11.7812
▁uzruja	-11.7812
▁Sjajn	-11.7812
▁Priroda	-11.7812
▁uzajamn	-11.7812
▁Sierr	-11.7812
▁iPod	-11.7812
▁savlada	-11.7812
▁umrežen	-11.7812
▁crtu	-11.7812
▁jastuk	-11.7812
▁kantin	-11.7812
▁muzičk	-11.7812
▁Karolin	-11.7812
▁inovator	-11.7812
▁kućanstv	-11.7812
▁Mrež	-11.7812
▁zumira	-11.7812
▁Film	-11.7812
▁klup	-11.7812
▁datotek	-11.7812
▁nezadovolj	-11.7813
▁mineral	-11.7813
▁predavač	-11.7813
▁poduzetničk	-11.7813
▁Hill	-11.7813
▁Whit	-11.7814
▁kolačić	-11.7814
▁pamuk	-11.7814
▁izvoz	-11.7815
▁uzdig	-11.7815
▁zarađiva	-11.7816
▁Poznat	-11.7816
▁Atlantik	-11.7821
▁stakleničk	-11.7823
▁onakv	-11.7826
▁pužnic	-11.7836
▁Pomoć	-11.7845
▁katastrofaln	-11.7856
▁bacanj	-11.7863
▁osnaživanj	-11.7863
▁prikazivanj	-11.788
▁hakiranj	-11.7887
▁Povijes	-11.7913
▁gospodar	-11.793
▁držanj	-11.8001
▁okrenul	-11.8004
▁gosp	-11.8087
▁parenj	-11.8087
ljudsk	-11.8091
▁kopiranj	-11.8139
▁pretvaranj	-11.8193
▁izolira	-11.8203
▁iznenađuj	-11.8227
▁AIMS	-11.8229
▁Beethoven	-11.8229
▁Brooklyn	-11.8229
▁Golijat	-11.8229
▁Indonezij	-11.8229
▁Kontrol	-11.8229
▁Najvažnij	-11.8229
▁Nanoflaster	-11.8229
▁Napravljen	-11.8229
▁Philip	-11.8229
▁Primijetit	-11.8229
▁Uključi	-11.8229
▁adaptacij	-11.8229
▁akademij	-11.8229
▁aluminij	-11.8229
▁beskućnik	-11.8229
▁crtkaranj	-11.8229
▁introvert	-11.8229
▁kompromis	-11.8229
▁konvencij	-11.8229
▁mršav	-11.8229
▁poslijepodne	-11.8229
▁prekrši	-11.8229
▁projekcij	-11.8229
▁reflektira	-11.8229
▁ruševin	-11.8229
▁tranzicij	-11.8229
▁uhvaćen	-11.8229
▁uređen	-11.8229
▁uspoređuju	-11.8229
▁Izazov	-11.8229
▁analitičk	-11.8229
▁besmislen	-11.8229
▁heroin	-11.8229
▁imunosn	-11.8229
▁ljubičast	-11.8229
▁najbitnij	-11.8229
▁razotkri	-11.8229
▁uspoređuje	-11.8229
▁2013	-11.8229
▁2014	-11.8229
▁ljepš	-11.8229
▁podražaj	-11.8229
▁korelacij	-11.8229
▁optimizm	-11.8229
▁otočj	-11.8229
▁Objasni	-11.8229
▁bočic	-11.8229
▁Muzej	-11.8229
▁Apoll	-11.8229
▁Pokret	-11.8229
▁oboljel	-11.8229
▁prozirn	-11.8229
▁Ključn	-11.8229
wood	-11.8229
▁nenasilj	-11.8229
▁Vratil	-11.8229
▁upravitelj	-11.8229
▁maraton	-11.8229
▁enzim	-11.8229
▁Tibet	-11.8229
▁kript	-11.8229
▁odvažn	-11.8229
▁dupin	-11.8229
▁ledenjak	-11.8229
▁oskudn	-11.8229
▁donator	-11.8229
▁barijer	-11.8229
▁Stavlja	-11.8229
▁proteže	-11.823
▁osmišljava	-11.823
▁preskup	-11.823
▁tvom	-11.823
▁izobilj	-11.8231
▁kupnj	-11.8231
▁front	-11.8232
▁Tursk	-11.8232
▁crp	-11.8234
▁horizontaln	-11.8235
▁Pojav	-11.8235
▁milimet	-11.8236
▁blizanc	-11.8239
▁komedij	-11.8241
▁hobi	-11.8246
▁uspoređiva	-11.8252
▁izgub	-11.826
▁narasl	-11.8264
▁zaboravil	-11.8291
▁adolescencij	-11.8293
▁olakšanj	-11.8421
živuć	-11.8458
▁bul	-11.8482
planetarn	-11.8489
zmeđu	-11.8494
▁mjes	-11.8503
▁ponavljanj	-11.8508
evolucij	-11.8523
▁Global	-11.8526
▁racional	-11.853
▁stavljanj	-11.8553
▁smanjen	-11.8601
▁navikl	-11.8642
▁Andrew	-11.8663
▁Arhitekt	-11.8663
▁Arthur	-11.8663
▁Central	-11.8663
▁Clinton	-11.8663
▁Kultur	-11.8663
▁Shakespeare	-11.8663
▁cilindar	-11.8663
▁eBay	-11.8663
▁hardver	-11.8663
▁homoseksualn	-11.8663
▁konkurent	-11.8663
▁misteriozn	-11.8663
▁pesticid	-11.8663
▁povlastic	-11.8663
▁predrasuda	-11.8663
▁predsjednic	-11.8663
▁pripovjedač	-11.8663
▁regulacij	-11.8663
▁ukorijenjen	-11.8663
▁videoigric	-11.8663
uroznanstvenici	-11.8663
▁Iznenad	-11.8663
▁Oklahom	-11.8663
▁Warren	-11.8663
▁anatomij	-11.8663
▁digitalizira	-11.8663
▁dospjel	-11.8663
▁glumac	-11.8663
▁imigran	-11.8663
▁implant	-11.8663
▁najmlađ	-11.8663
▁prefrontaln	-11.8663
▁redefinira	-11.8663
▁regenerira	-11.8663
▁Milijuni	-11.8664
▁isječk	-11.8664
▁nedovoljno	-11.8664
▁popriča	-11.8664
▁projicira	-11.8664
▁Jersey	-11.8664
▁indeks	-11.8664
▁usvaja	-11.8664
▁zakopan	-11.8664
▁parlament	-11.8664
▁rutinski	-11.8664
▁ishran	-11.8664
▁injekcij	-11.8664
▁poricanj	-11.8664
▁klinac	-11.8664
▁strpljiv	-11.8664
▁udaljava	-11.8664
▁Upita	-11.8664
▁izbjegne	-11.8664
▁odbacuj	-11.8664
▁ribolov	-11.8664
▁bivše	-11.8664
▁razdvoji	-11.8664
▁svlada	-11.8664
▁toksičn	-11.8664
▁ošteti	-11.8664
▁posloži	-11.8664
▁makar	-11.8664
▁podatkovn	-11.8668
▁operira	-11.8672
▁ispadn	-11.8675
▁Stotin	-11.8675
▁Uživa	-11.8675
▁isprv	-11.8678
▁brijačnic	-11.8683
▁inovira	-11.8685
▁neobič	-11.8697
▁Bank	-11.8722
▁napadnut	-11.8731
strukturira	-11.875
▁otpust	-11.8771
plijen	-11.8775
▁tkiv	-11.8824
▁groznic	-11.8834
▁poimanj	-11.89
▁motiv	-11.8941
tehnološk	-11.8978
poslije	-11.8979
▁okupljanj	-11.8991
▁prijateljstv	-11.9016
godišnjakinj	-11.9034
▁pažnj	-11.9046
▁pretraži	-11.9068
▁nasljedn	-11.9094
▁percipira	-11.9118
▁2,5	-11.9118
▁Carnegie	-11.9118
▁Francuz	-11.9118
▁Hawking	-11.9118
▁Kraljevstvu	-11.9118
▁Libanon	-11.9118
▁Musliman	-11.9118
▁Razmislim	-11.9118
▁Saudijsk	-11.9118
▁Teszler	-11.9118
▁Uobičajen	-11.9118
▁Zaboravi	-11.9118
▁Zapamtit	-11.9118
▁ekstrovert	-11.9118
▁elektricitet	-11.9118
▁federaln	-11.9118
▁hibrid	-11.9118
▁imigracij	-11.9118
▁katedral	-11.9118
▁kategorizira	-11.9118
▁lezbijk	-11.9118
▁ljepilo	-11.9118
▁mađioničar	-11.9118
▁neopipljiv	-11.9118
▁nepraviln	-11.9118
▁neuspješn	-11.9118
▁nizozemsk	-11.9118
▁ograniči	-11.9118
▁ozlijed	-11.9118
▁pejzaž	-11.9118
▁ponuđen	-11.9118
▁prekretnic	-11.9118
▁propeler	-11.9118
▁prosudb	-11.9118
▁remiks	-11.9118
▁smještaj	-11.9118
▁stratosfer	-11.9118
▁suđenj	-11.9118
▁sveučilišn	-11.9118
▁tasmanijsk	-11.9118
▁upozorava	-11.9118
▁vegetarijan	-11.9118
▁volumen	-11.9118
▁židovsk	-11.9118
▁antibiotici	-11.9118
▁centimetr	-11.9118
▁namještaj	-11.9118
▁spašen	-11.9118
▁trivijaln	-11.9118
▁unajmi	-11.9118
▁čekić	-11.9118
▁replicira	-11.9118
▁skeptič	-11.9118
▁neodoljiv	-11.9118
▁uložak	-11.9118
▁pomiču	-11.9118
▁Johnny	-11.9118
▁zasnovan	-11.9118
▁Pjesm	-11.9118
▁Teksas	-11.9118
▁Različit	-11.9118
▁Sedam	-11.9118
▁Kosov	-11.9118
▁uragan	-11.9118
▁ukraden	-11.9118
▁preveden	-11.9118
▁kabel	-11.9118
▁bezbroj	-11.9118
▁limfn	-11.9118
▁Louis	-11.9118
▁taktik	-11.9119
▁oboljenj	-11.9119
▁čestitk	-11.9119
▁nećakinj	-11.9119
▁kornjač	-11.9119
▁skloništ	-11.9119
▁blagajn	-11.9119
▁natjecatelj	-11.9119
▁uzroci	-11.9119
▁nadziranj	-11.912
▁optimiza	-11.912
▁uronjen	-11.9121
▁savijanj	-11.9121
▁poludjel	-11.9121
▁plodov	-11.9122
▁otkud	-11.9122
▁slomil	-11.9123
▁izabir	-11.9127
▁Glad	-11.9128
▁uniform	-11.913
▁svačij	-11.914
usporediv	-11.9173
▁ratovanj	-11.9177
▁trošenj	-11.9187
▁preuzimanj	-11.9199
▁rezanj	-11.9246
▁poučavanj	-11.9248
zduž	-11.9262
▁govornic	-11.928
▁Einsteinic	-11.9329
▁podučavanj	-11.9331
▁oprašivanj	-11.9351
znanstven	-11.9454
▁konzervativ	-11.9535
▁ministar	-11.9557
▁Liječ	-11.9575
▁vapnen	-11.9594
promišljen	-11.9594
▁1,5	-11.9594
▁1989	-11.9594
▁Earth	-11.9594
▁Kennedy	-11.9594
▁LGBT	-11.9594
▁Ozbiljn	-11.9594
▁Phoeni	-11.9594
▁StoryCorps	-11.9594
▁Sylvi	-11.9594
▁abeced	-11.9594
▁apsurdn	-11.9594
▁bilježnic	-11.9594
▁fantazij	-11.9594
▁fluorescentn	-11.9594
▁manipulacij	-11.9594
▁mobilizira	-11.9594
▁oglašivač	-11.9594
▁optužb	-11.9594
▁penicilin	-11.9594
▁podsjetni	-11.9594
▁podupiru	-11.9594
▁preporuči	-11.9594
▁prisjeća	-11.9594
▁profesij	-11.9594
▁proizvoljn	-11.9594
▁proturječ	-11.9594
▁rasprostranjen	-11.9594
▁referenc	-11.9594
▁rekonstruira	-11.9594
▁rendgensk	-11.9594
▁replikator	-11.9594
▁sintetizira	-11.9594
▁spisateljic	-11.9594
▁stamben	-11.9594
▁tolerancij	-11.9594
▁utvrdit	-11.9594
▁uznemiri	-11.9594
▁Jučer	-11.9594
▁Očekuje	-11.9594
▁Silicijsk	-11.9594
▁interpretira	-11.9594
▁mrkv	-11.9594
▁profinjen	-11.9594
▁žonglira	-11.9594
▁estetsk	-11.9594
▁teritorij	-11.9594
▁Charlie	-11.9594
▁Melind	-11.9594
▁Ogrom	-11.9594
▁pokriven	-11.9594
▁žudnj	-11.9594
palestinsk	-11.9594
▁izgovara	-11.9594
▁svinjsk	-11.9594
▁Somalij	-11.9594
▁nepošten	-11.9594
▁obuzet	-11.9594
▁Julian	-11.9594
▁Luther	-11.9594
▁mitologij	-11.9594
▁šokantn	-11.9594
▁fiksn	-11.9594
▁podložn	-11.9594
▁čežnj	-11.9594
▁rizici	-11.9594
▁prežive	-11.9594
▁pretrp	-11.9594
▁Arapsk	-11.9594
▁sagrađen	-11.9594
▁Jezik	-11.9594
očaravajuć	-11.9594
▁pećin	-11.9594
▁margin	-11.9594
▁postižu	-11.9595
▁labos	-11.9595
▁boravk	-11.9595
▁sakupi	-11.9595
▁trgovc	-11.9595
▁kapsul	-11.9595
▁svećenik	-11.9595
▁računarstv	-11.9595
▁prisiljava	-11.9595
▁naranč	-11.9595
▁flaut	-11.9595
▁Oscar	-11.9595
▁atrazin	-11.9596
▁bankovn	-11.9596
▁presjek	-11.9596
▁logičk	-11.9597
▁dobrotvorn	-11.9598
▁promocij	-11.9604
▁kanalizacij	-11.9605
▁ironij	-11.9623
▁Poslal	-11.9623
▁Savez	-11.9628
▁umiral	-11.9722
radove	-11.9735
pterećen	-11.9784
▁Prikaz	-11.9831
▁oprašiva	-11.9844
gradnj	-11.9847
▁ostvarenj	-11.9849
generacij	-11.9954
▁pomaganj	-11.9962
▁promjen	-11.9997
▁povest	-11.9999
▁Francis	-12.0031
▁horizont	-12.0087
▁pigment	-12.0091
▁bjelančevin	-12.0094
▁ekvator	-12.0094
▁krijumčar	-12.0094
▁telekomunikacij	-12.0094
▁Berkeley	-12.0094
▁DVD	-12.0094
▁Dreyfus	-12.0094
▁Grenland	-12.0094
▁Higgsov	-12.0094
▁Profesor	-12.0094
▁Vjerova	-12.0094
▁amigdal	-12.0094
▁bejzbol	-12.0094
▁estrogen	-12.0094
▁horoskop	-12.0094
▁ilustracij	-12.0094
▁invazij	-12.0094
▁izbacuje	-12.0094
▁konfiguracij	-12.0094
▁ljepljiv	-12.0094
▁modificiran	-12.0094
▁obnavljanj	-12.0094
▁okreću	-12.0094
▁optužen	-12.0094
▁ozlijeđen	-12.0094
▁pothranjen	-12.0094
▁propagand	-12.0094
▁prosvjetljenj	-12.0094
▁regulator	-12.0094
▁sladoled	-12.0094
▁spominja	-12.0094
▁supravodič	-12.0094
▁tuberkuloz	-12.0094
▁upućuje	-12.0094
▁varijant	-12.0094
▁volontira	-12.0094
▁zamršen	-12.0094
▁zbunjujuć	-12.0094
▁zloupotreb	-12.0094
▁špekul	-12.0094
▁špijun	-12.0094
▁Indeks	-12.0094
▁Potroš	-12.0094
▁konzultan	-12.0094
▁migrant	-12.0094
▁preoblikova	-12.0094
▁strvinar	-12.0094
▁Himalaj	-12.0094
▁Studenti	-12.0094
▁odozdo	-12.0094
▁roštilj	-12.0094
▁nestašic	-12.0094
▁obližnj	-12.0094
▁sačinjava	-12.0094
▁zavojnic	-12.0094
▁Kiribat	-12.0094
▁gramatik	-12.0094
▁pritisnut	-12.0094
▁Cassini	-12.0094
▁istrenira	-12.0094
▁tipkovnic	-12.0094
▁bježa	-12.0094
▁optimaln	-12.0094
▁Postavlja	-12.0094
▁micro	-12.0094
▁pljačk	-12.0094
▁ulagač	-12.0094
▁Otvoren	-12.0094
▁nadvlada	-12.0094
▁povjerljiv	-12.0094
▁Medicin	-12.0094
▁zablud	-12.0094
▁razjasni	-12.0094
▁Evolucij	-12.0095
▁završetk	-12.0095
▁odmaknu	-12.0095
▁prasak	-12.0095
▁crtić	-12.0095
▁čamc	-12.0095
▁Temelj	-12.0095
▁Arabij	-12.0095
▁genetik	-12.0095
▁neuraln	-12.0096
▁nahranit	-12.0096
▁šutnj	-12.0096
▁grijanj	-12.0096
▁prekomjern	-12.0096
▁izbijanj	-12.0097
▁prekriva	-12.0097
▁primjećiva	-12.0098
▁vitaln	-12.0098
▁iskorištavanj	-12.0099
▁ličnost	-12.01
▁poželjn	-12.01
▁diplomacij	-12.0103
▁bazn	-12.0104
▁pakiranj	-12.0105
▁režnj	-12.0107
▁sebstv	-12.0114
▁izišl	-12.0117
▁konflikt	-12.0133
▁ministarstv	-12.0133
▁Poziv	-12.0136
▁prepusti	-12.0171
▁Zamisli	-12.0172
▁praktič	-12.0211
▁saznanj	-12.0219
▁umiranj	-12.0222
▁kulturaln	-12.0255
▁razvijanj	-12.0295
▁odlučivanj	-12.0309
▁mapiranj	-12.0349
▁ostvare	-12.035
misij	-12.0383
▁optimistič	-12.0414
▁posjedovanj	-12.0456
vrijedn	-12.0482
▁vraćanj	-12.049
▁sprječavanj	-12.0495
▁klijen	-12.0529
▁plaćanj	-12.0535
▁crtanj	-12.0556
▁brijač	-12.0598
▁1945	-12.0621
▁1995	-12.0621
▁Edinburgh	-12.0621
▁Everest	-12.0621
▁Geographic	-12.0621
▁Kambodž	-12.0621
▁Kolumbij	-12.0621
▁Kopenhagen	-12.0621
▁Meksičk	-12.0621
▁PTSP	-12.0621
▁Panbanish	-12.0621
▁Roditelji	-12.0621
▁božićn	-12.0621
▁fluktuacij	-12.0621
▁frustrirajuć	-12.0621
▁homoseksualc	-12.0621
▁imperativ	-12.0621
▁kalendar	-12.0621
▁kontejner	-12.0621
▁koordinacij	-12.0621
▁maksimaln	-12.0621
▁manifestira	-12.0621
▁maturira	-12.0621
▁postepeno	-12.0621
▁rascjep	-12.0621
▁sveobuhvatn	-12.0621
▁zlouporab	-12.0621
▁zvižd	-12.0621
▁šizofren	-12.0621
▁1950.	-12.0621
▁Obrazovanj	-12.0621
▁fiziologij	-12.0621
▁izmijenit	-12.0621
▁izvediv	-12.0621
▁koordinat	-12.0621
▁nepovjerenj	-12.0621
▁otputova	-12.0621
▁vatrogasn	-12.0621
▁1950-	-12.0621
▁1990-	-12.0621
▁ACE	-12.0621
▁kongres	-12.0621
▁legitimn	-12.0621
▁zaslug	-12.0621
▁Gvinej	-12.0621
▁Veličin	-12.0621
▁pridonije	-12.0621
▁dvodimenzionaln	-12.0621
▁izražaj	-12.0621
▁jajašc	-12.0621
▁petnaest	-12.0621
▁poništi	-12.0621
▁turbin	-12.0621
▁Kansas	-12.0621
▁utroš	-12.0621
▁General	-12.0621
▁Troš	-12.0621
▁odobrava	-12.0621
▁Arizon	-12.0621
▁komentira	-12.0621
▁osnažuj	-12.0621
▁Današnj	-12.0621
▁metodologij	-12.0621
▁čarap	-12.0621
▁molb	-12.0621
▁utopij	-12.0621
▁kokain	-12.0621
▁kočnic	-12.0621
▁dotaknut	-12.0622
▁plakal	-12.0622
▁žetv	-12.0622
▁smijal	-12.0622
▁Planira	-12.0622
▁priprav	-12.0623
▁osnivanj	-12.0624
▁upoznavanj	-12.0624
▁Svjetl	-12.0624
▁mirovn	-12.0625
▁Pčel	-12.0629
▁friz	-12.0632
straga	-12.0643
▁Bonic	-12.0646
▁puštanj	-12.0658
▁smjen	-12.0658
▁pretraživanj	-12.0679
▁Austrij	-12.0685
▁sastavnic	-12.0745
▁varanj	-12.0773
▁dokučit	-12.0782
▁smanjivanj	-12.0874
▁procesiranj	-12.09
▁rješenj	-12.0958
▁čekanj	-12.101
▁uživanj	-12.1026
▁mnoštv	-12.1056
▁dodavanj	-12.1059
▁Istraži	-12.1123
konfliktn	-12.1133
▁poprilič	-12.1162
▁intelekt	-12.1176
▁Detroit	-12.1176
▁Olimpijsk	-12.1176
▁Pokrenu	-12.1176
▁Prekrasn	-12.1176
▁Ushahidi	-12.1176
▁buđenj	-12.1176
▁dvosmislen	-12.1176
▁erectus	-12.1176
▁hiperaktivn	-12.1176
▁hipokampus	-12.1176
▁improvizacij	-12.1176
▁intervenira	-12.1176
▁investitor	-12.1176
▁ljubimc	-12.1176
▁manifestacij	-12.1176
▁nepotpun	-12.1176
▁neslaganj	-12.1176
▁onečišćenj	-12.1176
▁pahuljic	-12.1176
▁pokreću	-12.1176
▁povjesničar	-12.1176
▁pridržava	-12.1176
▁raskrižj	-12.1176
▁razlučivost	-12.1176
▁reproducira	-12.1176
▁rođaci	-12.1176
▁sinkronizira	-12.1176
▁suprotstavi	-12.1176
▁transplantira	-12.1176
▁vađenj	-12.1176
▁začuđujuće	-12.1176
▁Škotsk	-12.1176
▁Žrtv	-12.1176
▁božansk	-12.1176
▁egzotičn	-12.1176
▁infracrven	-12.1176
▁internacionaln	-12.1176
▁karakterističn	-12.1176
▁kvalificiran	-12.1176
▁mangrov	-12.1176
▁meditacij	-12.1176
▁najznačajnij	-12.1176
▁neviđen	-12.1176
▁osvajanj	-12.1176
▁potrošen	-12.1176
▁pričvršćen	-12.1176
▁promašaj	-12.1176
▁provođenj	-12.1176
▁srušen	-12.1176
▁Kreativn	-12.1176
▁anomalij	-12.1176
▁nebrojen	-12.1176
▁pridonosi	-12.1176
▁Watson	-12.1176
▁iscrpljujuć	-12.1176
▁vodopad	-12.1176
▁Razmotri	-12.1176
▁ažurira	-12.1176
▁ponedjelj	-12.1176
▁staromodn	-12.1176
▁Poveća	-12.1176
▁povlačenj	-12.1176
▁četvorn	-12.1176
▁dostignuć	-12.1176
▁napomenut	-12.1176
▁pamteće	-12.1176
▁obuhvat	-12.1176
▁šuplj	-12.1176
▁nepovezan	-12.1176
▁Tisuć	-12.1176
▁nastamb	-12.1176
▁formaln	-12.1176
▁Pruž	-12.1177
▁lezij	-12.1177
▁primamljiv	-12.1177
▁razumjevanj	-12.1177
▁nametnut	-12.1177
▁Promjen	-12.1177
▁migrira	-12.1177
▁voćn	-12.1178
▁kretnj	-12.1179
▁nadomjes	-12.1182
▁ventilacij	-12.1182
▁digl	-12.1207
▁pomaknul	-12.1232
▁Prepozna	-12.125
▁poticanj	-12.1262
▁razvod	-12.1287
▁lignj	-12.1298
▁kreiranj	-12.135
▁smjernic	-12.1407
sakupljač	-12.1531
▁Dovoljn	-12.1542
▁povjerenj	-12.1557
▁prenošen	-12.1565
▁odrastanj	-12.1594
▁zapošljavanj	-12.1643
▁uključe	-12.1689
▁Kepler	-12.1764
destruktivn	-12.1764
▁1996	-12.1764
▁1997	-12.1764
▁Bangalor	-12.1764
▁CNN	-12.1764
▁Emily	-12.1764
▁Informacij	-12.1764
▁International	-12.1764
▁Jimmy	-12.1764
▁LOL	-12.1764
▁Mahmoud	-12.1764
▁McGowan	-12.1764
▁Metafor	-12.1764
▁Milenijsk	-12.1764
▁Muhamed	-12.1764
▁Općenit	-12.1764
▁Očekiva	-12.1764
▁Očigledn	-12.1764
▁Peking	-12.1764
▁Pretvara	-12.1764
▁Windows	-12.1764
▁anegdot	-12.1764
▁anestezij	-12.1764
▁apsorbira	-12.1764
▁apstrakcij	-12.1764
▁bušilic	-12.1764
▁centrifug	-12.1764
▁ceremonij	-12.1764
▁cjevčic	-12.1764
▁implementira	-12.1764
▁izviđač	-12.1764
▁katalizator	-12.1764
▁korumpiran	-12.1764
▁menstruacij	-12.1764
▁minijaturn	-12.1764
▁najopasnij	-12.1764
▁najsnažnij	-12.1764
▁neformaln	-12.1764
▁nepodnošljiv	-12.1764
▁obilježen	-12.1764
▁orijentacij	-12.1764
▁ostavštin	-12.1764
▁pećnic	-12.1764
▁plutokrat	-12.1764
▁pornografij	-12.1764
▁proporcionaln	-12.1764
▁prosperitet	-12.1764
▁regionaln	-12.1764
▁serotonin	-12.1764
▁sramežljiv	-12.1764
▁srednjoškolsk	-12.1764
▁svjetonazor	-12.1764
▁zagrljaj	-12.1764
▁Čimpanz	-12.1764
▁Čovječ	-12.1764
ndroid	-12.1764
pozicionira	-12.1764
▁1975	-12.1764
▁Arhimed	-12.1764
q	-12.2834
!	-14.5423
“	-14.5424
Č	-14.5425
♫	-14.5426
)	-14.5427
—	-14.5428
:	-14.5429
?	-14.543
đ	-14.5431
&	-14.5432
,	-14.5433
Š	-14.5433
