<unk>	0
<s>	0
</s>	0
▁,	-2.76203
▁a	-3.18294
▁.	-3.22006
▁	-4.00797
▁az	-4.03152
t	-4.05524
▁és	-4.35699
▁hogy	-4.39214
▁egy	-4.59219
;	-4.62668
▁&	-4.67304
quot	-4.705
k	-4.75364
i	-4.78823
▁nem	-5.14626
et	-5.15034
en	-5.1651
▁A	-5.21558
m	-5.21985
-	-5.32095
a	-5.36608
e	-5.36727
▁is	-5.40704
ban	-5.41573
nek	-5.44997
nak	-5.46626
ni	-5.52607
re	-5.56673
▁meg	-5.59144
▁ez	-5.60845
ek	-5.60868
ok	-5.63989
▁És	-5.67054
▁?	-5.68314
ben	-5.68966
ra	-5.71062
▁:	-5.72423
an	-5.73442
▁van	-5.80011
n	-5.80926
ünk	-5.88946
ik	-5.89661
d	-5.90684
▁el	-5.90906
on	-5.92735
▁Ez	-5.93235
▁ami	-5.94019
▁volt	-5.95982
s	-6.01309
▁Az	-6.02764
▁mint	-6.03568
▁ki	-6.05491
▁ha	-6.06145
unk	-6.0651
▁azt	-6.07214
▁)	-6.11342
(	-6.11463
ó	-6.13722
▁—	-6.15818
ot	-6.23919
om	-6.24022
▁vagy	-6.24199
▁de	-6.25625
▁mi	-6.27386
▁De	-6.30171
ja	-6.32325
▁csak	-6.32935
l	-6.34505
at	-6.35823
▁kell	-6.38444
sz	-6.39647
▁ezt	-6.42697
es	-6.44396
▁amit	-6.46187
át	-6.47172
em	-6.47268
▁olyan	-6.48333
▁fel	-6.50386
b	-6.52783
▁még	-6.53549
ő	-6.53791
ba	-6.57593
ak	-6.58119
ért	-6.58507
ás	-6.59094
▁minden	-6.59107
tam	-6.5992
▁nagyon	-6.61013
okat	-6.62934
juk	-6.63941
▁mert	-6.64625
val	-6.65704
os	-6.66034
▁már	-6.69607
ről	-6.69799
ve	-6.7145
▁úgy	-6.72155
eket	-6.72654
z	-6.73271
ott	-6.73744
▁be	-6.7386
▁Ha	-6.74594
▁Nem	-6.75379
ból	-6.75799
▁itt	-6.76481
▁amikor	-6.77488
▁világ	-6.77865
▁emberek	-6.78124
va	-6.78167
be	-6.79785
ról	-6.79879
▁le	-6.83165
▁Nevetés	-6.83995
y	-6.84484
ul	-6.88382
▁!	-6.88783
▁akkor	-6.89047
▁más	-6.89529
▁Mi	-6.92463
▁nagy	-6.93908
tem	-6.94283
j	-6.95522
▁több	-6.95959
▁akik	-6.96324
ét	-6.97101
ük	-6.9748
▁lehet	-6.98368
ség	-6.99889
.	-7.00878
▁sok	-7.03146
▁-	-7.03495
▁Egy	-7.03633
▁én	-7.04199
hoz	-7.04269
▁ezek	-7.04293
▁így	-7.04324
ta	-7.04953
p	-7.04966
ják	-7.05749
▁év	-7.0618
ig	-7.06415
ből	-7.07365
uk	-7.09008
▁jó	-7.09048
án	-7.09206
é	-7.0925
ed	-7.10172
ül	-7.10786
ként	-7.11658
és	-7.11874
▁ember	-7.12667
vel	-7.1302
ol	-7.13588
▁aki	-7.13734
jük	-7.13931
▁most	-7.14824
f	-7.15524
▁s	-7.15549
tek	-7.156
o	-7.16218
▁amely	-7.16511
el	-7.16902
▁fog	-7.17355
▁őket	-7.17711
od	-7.1823
▁gondol	-7.18936
▁két	-7.19511
▁új	-7.19931
ú	-7.20999
▁S	-7.22784
hez	-7.23178
▁Tehá	-7.25064
▁egyik	-7.25221
tak	-7.25448
▁sem	-7.26009
tól	-7.26219
▁rá	-7.2683
g	-7.28618
ett	-7.29023
▁Taps	-7.29179
ű	-7.29793
▁első	-7.29899
▁arra	-7.30382
▁át	-7.30958
▁pedig	-7.32198
ták	-7.32519
▁ahol	-7.33548
te	-7.33991
▁lesz	-7.34357
▁dolog	-7.34504
▁ilyen	-7.35169
▁másik	-7.37238
r	-7.37276
▁ahogy	-7.37322
h	-7.38305
is	-7.38847
▁vannak	-7.39558
▁Azt	-7.39789
▁valami	-7.40239
v	-7.40347
ít	-7.40508
▁hogyan	-7.4197
től	-7.42537
cs	-7.43133
ság	-7.43295
▁kis	-7.4395
▁teljes	-7.45692
c	-7.46677
▁néhány	-7.46742
ál	-7.46774
▁nap	-7.47541
▁egész	-7.48911
ék	-7.50438
▁vagyok	-7.51526
▁ott	-7.51765
tunk	-7.5259
in	-7.53149
én	-7.53604
▁♫	-7.55037
▁T	-7.55221
▁ma	-7.56121
kat	-7.56787
▁vagyunk	-7.57037
▁majd	-7.57076
▁Szó	-7.57287
ai	-7.5749
▁volna	-7.57666
▁vissza	-7.57707
leg	-7.58325
▁élet	-7.58889
▁áll	-7.60377
er	-7.60631
nk	-7.61542
▁mit	-7.62409
ztán	-7.62694
ában	-7.62732
▁szó	-7.62811
▁Nos	-7.63095
as	-7.63303
▁f	-7.65394
▁K	-7.667
ad	-7.66769
▁saját	-7.67367
kel	-7.67767
or	-7.68276
▁amelyek	-7.68728
ár	-7.69064
ny	-7.692
▁mindig	-7.69897
▁való	-7.70084
▁alatt	-7.70344
kor	-7.70474
gy	-7.71048
▁Meg	-7.72083
él	-7.72451
▁Így	-7.72625
ték	-7.72661
▁mind	-7.7404
ez	-7.74319
▁Úgy	-7.74771
▁elég	-7.74902
▁M	-7.7491
▁lenne	-7.75133
▁nincs	-7.76332
al	-7.7637
ök	-7.76379
▁szerint	-7.76745
▁leg	-7.76964
nél	-7.77086
▁mondta	-7.78487
▁p	-7.78879
▁sz	-7.78953
▁hanem	-7.79502
am	-7.7984
▁néz	-7.80459
▁ő	-7.81066
▁B	-7.81162
kal	-7.81612
je	-7.81619
▁jobb	-7.81956
▁G	-7.82211
▁Köszönöm	-7.823
▁V	-7.825
ekkel	-7.82543
▁ezeket	-7.82835
▁agy	-7.82858
▁után	-7.83084
▁össze	-7.83525
tuk	-7.8358
▁kap	-7.83769
▁egyszerű	-7.83902
▁Ezek	-7.84164
▁túl	-7.84293
▁fontos	-7.84336
okkal	-7.84502
▁teh	-7.84802
tünk	-7.85058
▁kép	-7.85834
u	-7.86586
▁E	-7.86592
▁mely	-7.87226
▁amik	-7.87262
▁igaz	-7.87684
ar	-7.88192
▁talán	-7.88362
▁kérdés	-7.88465
it	-7.88688
ható	-7.88786
▁Hogy	-7.88793
▁voltak	-7.88827
ében	-7.88932
▁F	-7.88951
▁tudjuk	-7.89122
▁között	-7.8976
▁emberi	-7.89928
▁b	-7.91567
ri	-7.91594
us	-7.91687
▁idő	-7.91755
▁milyen	-7.91798
▁három	-7.92213
▁azok	-7.92275
▁El	-7.92425
eg	-7.92472
▁pár	-7.92847
▁csinál	-7.93506
▁Itt	-7.94074
rról	-7.94193
▁számára	-7.94296
nál	-7.94391
▁beszél	-7.94394
▁annyi	-7.94677
▁C	-7.94924
▁tud	-7.94987
bb	-7.95249
▁Amikor	-7.95365
ák	-7.95486
▁sokkal	-7.96227
ása	-7.97008
▁újra	-7.97471
nyi	-7.9762
▁annak	-7.9788
▁igazán	-7.98056
▁ne	-7.98107
ön	-7.98401
▁rendszer	-7.98773
ennek	-7.98921
▁dolgok	-7.99362
ebben	-7.99698
▁Ma	-8.00118
hat	-8.00771
á	-8.01162
▁mindenki	-8.0134
ér	-8.01467
▁lett	-8.01527
▁jól	-8.01586
▁Most	-8.01595
ani	-8.01956
ával	-8.02118
▁következő	-8.02539
le	-8.02662
▁voltam	-8.0344
▁kezd	-8.03517
▁különböző	-8.03533
bban	-8.0399
▁h	-8.04214
ének	-8.04217
ur	-8.0443
ne	-8.04627
▁együtt	-8.04817
▁bele	-8.04894
tel	-8.05042
ának	-8.05505
▁H	-8.06104
▁tudják	-8.06623
▁Nagyon	-8.06968
▁tovább	-8.07231
▁elő	-8.07404
apos	-8.07471
▁előtt	-8.07715
▁éves	-8.08105
vá	-8.08176
oz	-8.08588
▁víz	-8.08712
ját	-8.09106
▁valaki	-8.09136
▁valójában	-8.09224
▁millió	-8.09474
tal	-8.10197
▁miért	-8.10415
▁hozzá	-8.1051
nunk	-8.10617
▁helyzet	-8.10632
ör	-8.10816
▁ezen	-8.11645
ára	-8.11673
▁hát	-8.11779
▁kellett	-8.11863
1	-8.12389
▁ezzel	-8.12589
▁erre	-8.12594
▁szól	-8.12681
ket	-8.12819
▁nő	-8.12938
▁történik	-8.13202
▁miatt	-8.13381
▁Mert	-8.14041
ése	-8.14583
▁dolgoz	-8.14584
▁összes	-8.14668
▁kapcsolat	-8.14907
▁P	-8.14922
▁...	-8.15345
▁város	-8.15518
enek	-8.15539
szer	-8.15572
▁hang	-8.16216
la	-8.16229
hiszem	-8.16499
▁te	-8.16812
hető	-8.17031
▁történt	-8.17402
▁melyek	-8.17576
▁akár	-8.18139
▁20	-8.18213
▁Ezt	-8.18295
▁közül	-8.18305
sel	-8.18341
ha	-8.18733
x	-8.18896
vé	-8.19475
ére	-8.19514
▁Még	-8.19625
▁része	-8.19625
tük	-8.19697
féle	-8.19893
▁Minden	-8.19996
▁igen	-8.20323
ött	-8.20917
▁kicsit	-8.21314
▁ország	-8.21446
im	-8.21491
▁egyetlen	-8.22406
eink	-8.22414
▁legyen	-8.22449
▁lenni	-8.23279
▁10	-8.23307
▁Van	-8.23952
▁nekem	-8.24019
▁hasonló	-8.24275
▁fél	-8.24359
▁nők	-8.24372
▁hely	-8.24732
▁Sz	-8.2486
▁Ki	-8.25177
▁él	-8.25208
▁lát	-8.25293
▁mikor	-8.25421
ter	-8.25948
▁például	-8.26349
ro	-8.26969
▁tudom	-8.27009
▁keresztül	-8.27278
og	-8.27392
▁önök	-8.27406
▁módon	-8.27691
▁történet	-8.27922
▁kerül	-8.27973
▁Csak	-8.28252
▁mond	-8.2833
li	-8.28479
zzal	-8.29283
ók	-8.29333
▁hív	-8.30236
▁éve	-8.30263
egy	-8.30518
▁Én	-8.30986
▁fő	-8.31583
▁ér	-8.31928
hhoz	-8.32023
ebb	-8.32166
▁környezet	-8.32411
▁pillanat	-8.32428
ást	-8.33135
ch	-8.33196
ából	-8.33284
▁tényleg	-8.33611
▁ezelőtt	-8.3395
het	-8.34151
▁gyors	-8.34209
▁nagyobb	-8.34254
esz	-8.34375
▁képes	-8.34491
▁magam	-8.34694
▁ellen	-8.3484
▁mutat	-8.34984
▁azon	-8.35031
▁3	-8.35626
▁gyerekek	-8.35671
▁pont	-8.35791
▁folyamat	-8.35838
▁érdekes	-8.36091
▁kér	-8.36282
abb	-8.36683
▁semmi	-8.36799
▁benne	-8.37097
hatjuk	-8.37282
▁e	-8.37286
▁vele	-8.3733
▁bizonyos	-8.37377
▁szükség	-8.3753
▁lehetőség	-8.37617
▁nehéz	-8.37635
▁dolgokat	-8.37831
▁során	-8.38189
▁jelenti	-8.38238
▁mennyi	-8.38541
ü	-8.38665
▁rossz	-8.38808
▁jelent	-8.38838
▁használ	-8.3982
ir	-8.39863
▁ők	-8.40049
▁legtöbb	-8.4007
ész	-8.40193
▁által	-8.40309
▁természetes	-8.40317
gel	-8.40445
junk	-8.40747
▁D	-8.4095
▁test	-8.41355
▁talál	-8.41376
csak	-8.41564
hatunk	-8.41619
▁vesz	-8.41841
▁cs	-8.41986
▁tanul	-8.42245
lag	-8.42442
▁valamit	-8.42692
▁négy	-8.42708
gal	-8.42793
▁legjobb	-8.42926
▁hét	-8.43028
▁mivel	-8.43526
ikus	-8.44079
▁inkáb	-8.44158
▁nyelv	-8.44188
▁évben	-8.4423
▁hoz	-8.44559
▁Föld	-8.44743
▁Önök	-8.44943
▁mondja	-8.45003
▁tűn	-8.45041
▁keres	-8.451
▁nélkül	-8.4517
▁tart	-8.45293
ly	-8.45324
w	-8.45391
▁I	-8.45549
▁képesek	-8.45925
▁cél	-8.4602
S	-8.46065
▁J	-8.46084
▁ezért	-8.46382
▁neki	-8.46502
mint	-8.47268
▁egyszer	-8.47312
▁legnagyobb	-8.47652
▁egyes	-8.47713
za	-8.47808
▁mink	-8.48084
▁ment	-8.48203
▁százalék	-8.483
nünk	-8.49153
▁jár	-8.49401
▁gyerek	-8.49615
▁oda	-8.49801
▁v	-8.50055
▁könyv	-8.5051
▁autó	-8.50603
sal	-8.50983
▁valah	-8.51213
hi	-8.51322
▁végül	-8.51469
▁felé	-8.51571
▁tudunk	-8.51585
▁jövő	-8.5183
▁hatalmas	-8.51835
anak	-8.52579
▁szem	-8.52684
▁marad	-8.52757
▁projekt	-8.53214
▁látható	-8.53274
ci	-8.53476
▁embereket	-8.53556
ám	-8.53841
előtt	-8.53983
őször	-8.54281
▁Vagy	-8.54289
▁ugyanaz	-8.5451
▁nekünk	-8.54955
hetjük	-8.55039
▁vár	-8.55077
kkal	-8.55171
í	-8.55266
▁működik	-8.55465
ag	-8.55468
▁vált	-8.55528
▁milliárd	-8.55674
okra	-8.55845
ális	-8.56009
▁Le	-8.56303
▁fény	-8.5645
▁L	-8.5657
▁soha	-8.56578
öl	-8.57144
▁létre	-8.57383
▁természet	-8.57681
▁gép	-8.57781
▁ön	-8.57938
▁később	-8.58069
né	-8.58132
▁válasz	-8.58907
▁probléma	-8.58924
▁ötlet	-8.58943
▁Sok	-8.59127
▁föld	-8.5925
▁mintha	-8.59575
ével	-8.59626
▁Be	-8.59742
▁nekik	-8.59743
▁tudja	-8.59965
▁tenni	-8.60022
▁Igen	-8.60082
op	-8.60097
▁közösség	-8.60113
▁rész	-8.60357
fajta	-8.60484
vi	-8.60606
▁kutatás	-8.60622
id	-8.60728
▁ide	-8.60845
▁dolgot	-8.6163
▁internet	-8.61694
▁változás	-8.61919
▁pénz	-8.62069
▁megoldás	-8.62133
▁R	-8.62171
onban	-8.62208
▁mindez	-8.62323
▁kellene	-8.62358
▁N	-8.62593
▁belül	-8.62735
▁információ	-8.62763
0	-8.62975
▁19	-8.63088
▁ismer	-8.63383
▁beszélni	-8.6353
▁hal	-8.63644
▁hol	-8.63748
ill	-8.63974
▁játék	-8.64307
▁ugyan	-8.64323
okban	-8.64406
nék	-8.64526
ír	-8.64547
▁c	-8.64825
▁Fel	-8.64917
ö	-8.65036
▁W	-8.65053
A	-8.65149
▁éppen	-8.65214
▁róla	-8.65381
▁biztos	-8.65381
ing	-8.65561
▁Ami	-8.65575
▁g	-8.65606
▁körül	-8.6564
ők	-8.65837
▁próbál	-8.663
jon	-8.66671
▁kor	-8.66966
▁Ezért	-8.67438
▁figyel	-8.67447
tor	-8.67681
▁mondtam	-8.67909
nem	-8.68081
▁Olyan	-8.68104
zs	-8.6827
hetünk	-8.68475
▁szív	-8.68713
um	-8.68777
▁tér	-8.68897
▁film	-8.68909
▁elkezd	-8.69211
hogy	-8.69236
tál	-8.69394
▁mások	-8.69475
▁csoport	-8.69534
mel	-8.69608
ány	-8.69631
▁persze	-8.69853
▁50	-8.69954
▁akar	-8.70099
▁élő	-8.70154
▁második	-8.70197
▁találkoz	-8.7028
▁valószínű	-8.70455
▁család	-8.70468
▁szeretné	-8.70618
▁kb	-8.70634
▁hisz	-8.708
ink	-8.70967
ss	-8.71445
ver	-8.7154
▁hosszú	-8.71632
asz	-8.71641
▁30	-8.71728
▁föl	-8.7178
▁amerikai	-8.71831
▁öt	-8.72012
nánk	-8.72135
ló	-8.7217
▁férfi	-8.72318
▁oldal	-8.72327
után	-8.72362
janak	-8.72401
▁hagy	-8.72424
▁200	-8.72502
▁dollár	-8.72583
▁anyag	-8.72609
▁TED	-8.72617
öv	-8.7271
▁szám	-8.72736
▁100	-8.7288
▁alapvető	-8.72904
▁r	-8.73255
▁elmúlt	-8.73279
▁köz	-8.73489
▁Egyesül	-8.73615
▁különös	-8.7362
ést	-8.73647
szor	-8.73652
▁szeretnék	-8.73687
▁New	-8.73836
▁út	-8.73849
▁világban	-8.74113
esen	-8.74257
▁kormány	-8.74303
▁gyakra	-8.74448
▁jött	-8.74511
▁hónap	-8.74564
▁épp	-8.74717
▁Na	-8.74813
▁munka	-8.7513
▁választ	-8.75381
▁megfelelő	-8.75407
▁terület	-8.75422
▁maguk	-8.75485
▁gondolat	-8.75487
▁szeret	-8.75497
erről	-8.75532
▁számítógép	-8.76044
▁maga	-8.76058
▁közel	-8.76103
il	-8.76445
▁ezer	-8.7657
sa	-8.7667
▁perc	-8.76783
▁erős	-8.76972
▁mindent	-8.76982
▁vezet	-8.77022
▁&#9	-8.77171
▁otthon	-8.77173
▁jut	-8.77362
▁&#93;	-8.77517
▁eb	-8.77745
▁En	-8.77769
C	-8.77966
szerű	-8.7803
ővé	-8.78293
▁szín	-8.78507
▁gyermek	-8.7868
▁sor	-8.78853
kép	-8.78986
5	-8.79086
▁csup	-8.79094
▁Ne	-8.79108
▁személy	-8.79133
unkat	-8.79469
lő	-8.79493
▁csapat	-8.79698
▁problémá	-8.79728
D	-8.79747
üket	-8.79901
▁magas	-8.79946
▁tudomány	-8.80041
▁állít	-8.80145
▁senki	-8.80149
▁mégis	-8.80229
mer	-8.80262
ná	-8.80377
▁teszi	-8.80386
zel	-8.80603
▁jel	-8.80715
rá	-8.80821
▁technológia	-8.80824
▁tudta	-8.81257
▁fiatal	-8.81406
▁országok	-8.81448
▁társadalmi	-8.81634
sé	-8.81728
▁ad	-8.81867
▁szabad	-8.81933
▁hír	-8.81969
▁darab	-8.82021
▁látni	-8.82081
▁gazdasági	-8.82144
rel	-8.82148
▁lévő	-8.82242
▁pl	-8.82314
ző	-8.82448
▁Mit	-8.82521
ekben	-8.82544
▁világot	-8.82737
öm	-8.83028
áról	-8.83121
▁4	-8.83216
7	-8.83219
▁többet	-8.83382
▁adat	-8.83387
9	-8.83602
▁mellett	-8.83957
ll	-8.84106
▁évek	-8.84311
▁jön	-8.84403
▁rengeteg	-8.84509
ug	-8.84526
▁foglalkoz	-8.84668
▁érzés	-8.85062
felé	-8.8529
ette	-8.85338
ker	-8.85371
▁egészen	-8.85436
▁csodálatos	-8.85441
etlen	-8.85446
▁bal	-8.85556
▁cég	-8.85634
▁lép	-8.8566
▁követ	-8.85925
▁látjuk	-8.86055
▁lány	-8.86077
▁15	-8.86361
da	-8.86729
se	-8.86775
▁ko	-8.8686
fi	-8.86929
▁amíg	-8.87008
öt	-8.87151
▁rák	-8.87226
ös	-8.87329
▁utolsó	-8.87334
▁fej	-8.87478
▁piac	-8.8748
▁kívül	-8.87525
▁valóság	-8.87531
▁modell	-8.87553
▁módszer	-8.87609
▁megpróbál	-8.87742
ába	-8.87744
ünket	-8.88003
▁jelen	-8.88006
▁kar	-8.88056
gé	-8.88105
▁lehetséges	-8.8814
eit	-8.88439
osan	-8.88505
▁Talá	-8.88508
▁pontosan	-8.88609
▁számít	-8.88614
▁szervezet	-8.88796
usz	-8.88945
son	-8.88977
00	-8.89011
▁mindannyi	-8.8903
▁hat	-8.89244
▁hihetetlen	-8.89264
ással	-8.8935
pa	-8.89354
zés	-8.89438
▁kevesebb	-8.89469
▁Tud	-8.89472
jobban	-8.89658
▁sokat	-8.89729
jenek	-8.89765
éz	-8.89937
M	-8.89944
▁közös	-8.90011
▁állat	-8.9003
▁program	-8.90112
aink	-8.90214
▁mondani	-8.90329
ork	-8.90598
zás	-8.90649
ré	-8.90737
fog	-8.90815
ment	-8.90859
▁halál	-8.90887
▁csinálni	-8.90903
▁globális	-8.91031
▁tesz	-8.91082
áció	-8.91125
6	-8.91405
hatnak	-8.91589
▁ír	-8.9165
lás	-8.91765
ru	-8.91802
▁háború	-8.91908
▁feladat	-8.91922
▁növekedés	-8.92033
ut	-8.9214
ág	-8.92331
▁tervez	-8.92417
ására	-8.9247
▁segít	-8.92771
▁igazi	-8.92813
▁lépés	-8.92818
▁rövid	-8.92831
▁néha	-8.92831
nap	-8.92892
▁Lát	-8.92908
8	-8.93013
eknek	-8.93153
▁jog	-8.93264
▁hall	-8.9329
suk	-8.93327
mény	-8.93397
ítás	-8.93471
▁viselkedés	-8.93514
▁ár	-8.93525
▁gazdaság	-8.93674
▁száz	-8.93692
▁nagyszerű	-8.93755
▁U	-8.94003
▁Er	-8.94257
▁készült	-8.94278
▁bennünk	-8.94474
int	-8.94616
▁betegség	-8.94663
▁legalább	-8.94664
▁adott	-8.94761
áz	-8.94826
▁faj	-8.94907
ká	-8.94951
jön	-8.95092
▁létrehoz	-8.95292
▁ügy	-8.95311
▁férfiak	-8.95454
▁halad	-8.95547
mal	-8.95686
▁koráb	-8.95751
▁akartam	-8.95874
▁erő	-8.95902
▁5	-8.95912
▁Hát	-8.96076
▁energia	-8.96113
ján	-8.9639
▁lesznek	-8.96422
▁elér	-8.96445
tér	-8.96565
▁olvas	-8.96694
▁eszköz	-8.96824
jünk	-8.96944
▁ért	-8.96991
▁példa	-8.97372
I	-8.97445
▁ok	-8.9754
▁fejlődés	-8.97568
▁ül	-8.97625
▁bolygó	-8.97682
▁Más	-8.97702
▁politikai	-8.97784
▁többi	-8.97899
ekre	-8.98398
▁mér	-8.98411
▁fognak	-8.9869
zi	-8.98759
2	-8.98929
▁rend	-8.9895
▁tekint	-8.98981
▁múl	-8.99318
▁végez	-8.99382
▁eset	-8.9939
ették	-8.99512
▁Már	-8.99562
sá	-8.99595
▁társadalom	-8.99723
▁komoly	-8.99725
▁megy	-8.99846
nom	-8.99859
ító	-8.99871
nal	-8.99922
öd	-8.9994
▁nyom	-9.00082
▁in	-9.00172
▁Ahogy	-9.00307
un	-9.00441
▁órá	-9.00539
▁kihívás	-9.00593
▁arc	-9.00645
▁nevez	-9.00673
▁alkalmaz	-9.01242
▁létezik	-9.01248
rendszer	-9.0126
▁bár	-9.01345
▁Nincs	-9.01468
▁közben	-9.01697
ap	-9.01761
zó	-9.0209
séget	-9.02133
▁Akkor	-9.02147
▁szükségünk	-9.02221
▁USA	-9.02352
▁egyetem	-9.02375
az	-9.02382
▁Lehet	-9.02383
▁magá	-9.02531
▁sejt	-9.02696
▁egymás	-9.03108
▁formá	-9.03222
▁elmélet	-9.03241
ották	-9.03418
▁származ	-9.03449
kább	-9.03462
▁Több	-9.03468
akat	-9.03785
▁megnéz	-9.03955
▁előre	-9.04028
iz	-9.04252
▁kicsi	-9.04319
óta	-9.04335
ukat	-9.04398
▁értem	-9.04509
szám	-9.04645
▁eredmény	-9.04722
▁boldog	-9.04777
▁alapján	-9.0478
telen	-9.04789
tó	-9.04789
▁igazság	-9.04837
▁gondolkod	-9.04848
▁oktatás	-9.04915
▁gond	-9.05122
▁hálózat	-9.05156
▁érték	-9.05177
▁szinte	-9.05415
szel	-9.05453
jai	-9.05631
▁képet	-9.05671
dal	-9.05786
▁Nagy	-9.05839
▁mai	-9.05861
▁különbség	-9.06042
▁O	-9.06091
▁mély	-9.06268
▁engem	-9.06429
▁számomra	-9.06451
▁se	-9.06624
fel	-9.06653
ég	-9.06807
▁szerintem	-9.07001
▁kísérlet	-9.07018
ce	-9.07086
▁2	-9.07096
P	-9.07127
▁pa	-9.07183
▁Először	-9.0742
▁siker	-9.07423
osz	-9.0743
▁helyi	-9.07482
▁rajta	-9.07498
▁magunk	-9.07546
▁magát	-9.07596
▁alap	-9.07616
▁köszönöm	-9.08067
lát	-9.08134
őr	-9.08164
ait	-9.08197
okon	-9.08251
▁kéne	-9.08297
▁orvos	-9.08364
▁akarunk	-9.08405
▁alkot	-9.08429
hal	-9.0863
ké	-9.0864
▁napon	-9.08699
▁belőle	-9.08769
▁tudnak	-9.08769
▁tett	-9.08825
▁kérdést	-9.08845
ához	-9.09129
▁hatás	-9.09149
▁Néhány	-9.09243
▁viszont	-9.09245
▁épít	-9.09295
▁részt	-9.09296
ákat	-9.09319
ások	-9.09324
▁apró	-9.09447
▁Rend	-9.0949
▁tudományos	-9.09569
▁haza	-9.09588
ási	-9.09849
▁40	-9.10012
gat	-9.10061
▁Tudják	-9.10064
▁munká	-9.10084
▁Két	-9.10119
▁akarok	-9.10253
▁CA	-9.10254
bo	-9.10645
hely	-9.10675
▁egyáltalán	-9.10681
út	-9.10882
ébe	-9.10891
▁sötét	-9.10922
▁vezető	-9.10974
iszt	-9.10977
őt	-9.11249
helyett	-9.11388
kkel	-9.11596
▁eh	-9.116
hogyan	-9.11778
▁látta	-9.11881
▁18	-9.11907
▁kettő	-9.12139
▁fa	-9.12356
4	-9.12469
▁ismert	-9.1249
ását	-9.12531
▁állam	-9.12867
ház	-9.12876
ene	-9.12957
éről	-9.13094
vány	-9.13238
ített	-9.13505
hol	-9.13836
ált	-9.13918
▁1	-9.13964
▁sose	-9.14127
▁tulajdonképpen	-9.1437
▁erőszak	-9.14636
▁ház	-9.14723
▁neve	-9.1474
▁vér	-9.14792
▁segítségével	-9.14876
▁DNS	-9.14878
▁tanít	-9.14934
▁Ebb	-9.14966
▁esetben	-9.15014
ásra	-9.15035
▁kérdez	-9.15036
▁múlt	-9.15089
izál	-9.15194
zük	-9.15215
▁miközben	-9.15225
▁óceán	-9.1525
E	-9.15338
▁választás	-9.15449
jára	-9.15798
lép	-9.1584
ölt	-9.16059
T	-9.1609
▁harmadik	-9.16184
▁majdnem	-9.1622
▁fehér	-9.16319
▁bármi	-9.16339
▁óta	-9.16427
képpen	-9.16512
▁külön	-9.16533
gá	-9.16574
de	-9.16595
▁videó	-9.16685
▁mozgás	-9.16688
úgy	-9.16689
ron	-9.16726
▁étel	-9.16802
▁legfontosabb	-9.16901
okról	-9.17009
get	-9.17154
▁bemutat	-9.17241
▁térkép	-9.17298
▁felfedez	-9.17438
▁tör	-9.17686
eim	-9.17792
ozás	-9.17804
▁állatok	-9.17863
▁velük	-9.17946
▁pénzt	-9.18071
▁beteg	-9.18187
ottak	-9.18233
▁szemben	-9.18474
▁szépen	-9.18492
okból	-9.18503
höz	-9.18715
ív	-9.18821
▁adatok	-9.19369
jék	-9.1944
▁tökéletes	-9.19502
zék	-9.19512
▁meghal	-9.19557
▁életünk	-9.19591
▁robot	-9.19635
▁mód	-9.19711
▁gyönyörű	-9.19719
ottam	-9.1974
G	-9.19746
▁000	-9.19769
▁időben	-9.19936
▁gyógyszer	-9.19969
▁magunkat	-9.19981
▁fejlőd	-9.203
▁valódi	-9.20307
▁okoz	-9.20417
▁játsz	-9.20448
▁di	-9.2049
R	-9.20601
sák	-9.20614
jában	-9.20668
▁szép	-9.20693
ic	-9.20797
▁kör	-9.20863
talan	-9.20886
▁használni	-9.20914
▁zené	-9.20957
▁időt	-9.21007
▁enged	-9.21096
▁eszközök	-9.21151
▁óriási	-9.21276
▁válik	-9.21305
▁régi	-9.21321
lat	-9.21342
L	-9.21428
ze	-9.21443
▁szabály	-9.21454
▁baj	-9.21464
▁képek	-9.21609
▁helyek	-9.21656
▁határ	-9.21672
▁vaj	-9.21688
▁míg	-9.21749
ho	-9.22008
▁képesség	-9.22201
▁látják	-9.22398
▁evolúció	-9.22715
▁technológiá	-9.22774
▁8	-9.22777
▁fizet	-9.22885
▁megvan	-9.23008
art	-9.23088
▁években	-9.2309
▁folytat	-9.23158
▁termék	-9.23239
▁vegy	-9.2325
játok	-9.23446
ozó	-9.23452
▁fajta	-9.23488
emet	-9.23796
▁egyéb	-9.2383
őd	-9.23921
▁univerzum	-9.24085
▁eddig	-9.24198
▁tudás	-9.24201
alójában	-9.2429
▁Al	-9.24325
ud	-9.24356
▁fekete	-9.24365
▁gy	-9.24442
oszt	-9.24467
olt	-9.24574
▁részé	-9.24638
▁telefon	-9.24638
▁fogja	-9.24673
ós	-9.24792
▁vizsgál	-9.24822
▁mérték	-9.24913
▁olaj	-9.24938
▁szolgál	-9.25124
▁Szerinte	-9.25198
▁körülbelül	-9.25199
B	-9.25451
▁kisebb	-9.2546
▁Te	-9.25688
▁6	-9.25718
▁fal	-9.25774
▁vallás	-9.25786
elés	-9.25894
▁biztonság	-9.25947
ságot	-9.26007
ep	-9.26067
nyom	-9.26092
nénk	-9.26201
▁helyett	-9.26231
▁Volt	-9.2628
ésére	-9.26314
▁látsz	-9.26371
▁ég	-9.2638
hatják	-9.26501
ezés	-9.26596
▁művészet	-9.26625
ős	-9.26759
sít	-9.26832
lik	-9.27001
éhez	-9.27103
ck	-9.27135
▁fizikai	-9.2735
▁oka	-9.27415
zik	-9.27589
▁csökkent	-9.27696
ell	-9.27729
▁bonyolult	-9.27737
▁jég	-9.27739
por	-9.27755
ítani	-9.27924
hatatlan	-9.27942
▁témá	-9.28024
▁elfogad	-9.28025
ció	-9.28044
▁beszéd	-9.28056
▁zöld	-9.28136
▁éven	-9.28162
atlan	-9.2818
▁mondom	-9.28254
▁Példá	-9.28311
▁élmény	-9.28349
▁ennyi	-9.2835
▁irányít	-9.28374
nő	-9.28417
▁7	-9.28454
▁tette	-9.28472
alma	-9.28587
▁végén	-9.28597
▁elv	-9.28621
▁törvény	-9.28645
▁szükséges	-9.28738
beli	-9.28831
▁életem	-9.2887
▁angol	-9.2889
▁Hadd	-9.28898
▁üzlet	-9.28992
▁megtanul	-9.29044
▁In	-9.291
két	-9.2918
▁magukat	-9.29207
▁mondjá	-9.2923
áj	-9.2929
▁problémák	-9.29302
gó	-9.29335
▁Ja	-9.29416
jel	-9.29419
▁megváltoztat	-9.2956
ge	-9.29596
▁megjelen	-9.29617
▁Mind	-9.29625
▁fogjuk	-9.2969
▁hasznos	-9.29721
▁tömeg	-9.29754
sége	-9.29759
▁került	-9.29786
▁érze	-9.29813
▁általában	-9.29881
▁nézzü	-9.29946
bor	-9.29958
lo	-9.29974
ró	-9.30002
▁emlékez	-9.30144
▁12	-9.30246
sük	-9.30256
▁alakít	-9.30332
▁valahogy	-9.30346
▁bárki	-9.3036
▁fogunk	-9.30378
▁hit	-9.30429
tá	-9.30438
hetetlen	-9.30449
omat	-9.305
▁biztosít	-9.30534
▁embert	-9.3054
▁digitális	-9.3064
által	-9.30654
▁történetet	-9.30667
ítés	-9.30703
▁tőle	-9.30712
köz	-9.30887
▁végig	-9.30988
▁épület	-9.31179
▁visszatér	-9.31409
zuk	-9.31422
▁ti	-9.31489
pont	-9.31557
▁tapasztalat	-9.31683
▁egyedül	-9.31828
▁Végül	-9.3186
▁elérhető	-9.31869
▁szak	-9.31873
▁változtat	-9.3195
land	-9.32055
▁tény	-9.32064
▁levegő	-9.32124
▁tölt	-9.32145
▁szél	-9.32225
▁Amit	-9.32245
▁alá	-9.3232
▁élünk	-9.32353
ac	-9.32563
hetnek	-9.32567
áig	-9.3259
▁lényeg	-9.32608
ését	-9.32676
▁osztály	-9.32692
▁tanulmány	-9.32817
der	-9.32839
▁voltunk	-9.33166
▁országban	-9.33184
ral	-9.33298
▁11	-9.33505
▁akarjuk	-9.33879
▁semmit	-9.33881
▁von	-9.3389
▁nevű	-9.33934
▁tudni	-9.33988
▁előadás	-9.34023
ev	-9.34059
nnál	-9.3407
▁fordul	-9.34194
▁különleges	-9.34239
▁tanár	-9.34258
▁érte	-9.34307
▁élnek	-9.34332
▁látunk	-9.34336
del	-9.34374
▁szét	-9.34501
zon	-9.34514
▁me	-9.34752
világ	-9.3477
mat	-9.34859
▁közt	-9.34904
▁Afriká	-9.35045
▁hány	-9.35066
▁egészség	-9.352
jét	-9.35206
▁vágy	-9.35293
szál	-9.35317
▁hirtelen	-9.35467
▁modern	-9.35467
▁mindegyik	-9.35524
▁készített	-9.35571
rend	-9.35578
▁hajó	-9.35668
▁felvétel	-9.35692
▁barát	-9.36112
kerül	-9.36294
▁Vannak	-9.36463
mutatja	-9.3647
▁Mint	-9.36491
ow	-9.36493
▁mondtá	-9.36656
sza	-9.36746
.000	-9.36747
▁9	-9.36758
▁könnyű	-9.36781
▁sikeres	-9.36836
tesszük	-9.36928
▁tenger	-9.36954
O	-9.3707
▁könny	-9.37162
▁fogják	-9.37174
▁bőr	-9.37414
▁zavar	-9.37472
▁Önöknek	-9.37484
▁kék	-9.37493
▁elkezdte	-9.37564
▁erdő	-9.37655
▁közönség	-9.37655
▁Jó	-9.37756
esek	-9.37835
jött	-9.38011
▁életet	-9.38029
hetik	-9.38033
▁sikerült	-9.38134
itás	-9.38212
ög	-9.38319
▁folyamatos	-9.38485
jen	-9.38546
▁terv	-9.38584
▁Mar	-9.38655
szintén	-9.38684
▁köt	-9.38759
▁kezelés	-9.38807
ony	-9.38877
etek	-9.38915
▁generáció	-9.39065
▁elmond	-9.39066
▁Co	-9.39225
ya	-9.39246
▁utaz	-9.39341
ót	-9.39371
▁tanulás	-9.39523
▁reggel	-9.39569
▁mögött	-9.39569
▁módja	-9.39597
▁hagyományos	-9.39815
ente	-9.39821
▁iskolá	-9.39855
▁küld	-9.39863
▁állapot	-9.39877
▁láthat	-9.39946
fej	-9.40148
mivel	-9.40224
pp	-9.40243
tok	-9.40292
új	-9.40342
▁fotó	-9.40538
▁részét	-9.40555
ekről	-9.40644
té	-9.40764
▁Google	-9.40865
▁Majd	-9.40867
▁lak	-9.40919
▁meleg	-9.40921
3	-9.40948
szerte	-9.40964
▁személyes	-9.41097
▁sejtek	-9.41158
▁csomó	-9.41187
elem	-9.41231
▁szén	-9.41503
▁jutott	-9.41538
▁meglepő	-9.41641
▁űr	-9.41685
▁esetéb	-9.41853
▁készít	-9.41936
sh	-9.42047
▁életé	-9.42226
ódik	-9.42305
▁tartott	-9.42307
▁jelentős	-9.4232
▁esz	-9.42518
▁támogat	-9.42689
▁szempont	-9.42803
sok	-9.42819
▁25	-9.42824
ca	-9.42922
▁kocsi	-9.4298
▁információt	-9.42993
▁számunkra	-9.43184
▁kezel	-9.43356
K	-9.43361
▁Persze	-9.4351
mással	-9.43537
▁nevetés	-9.43598
▁irány	-9.43749
▁forrás	-9.43789
per	-9.43844
▁felfedezés	-9.4404
▁lehetősége	-9.44251
▁érezte	-9.44265
▁ugyanez	-9.44279
▁található	-9.44286
▁velem	-9.44483
▁munkát	-9.44575
ger	-9.44585
▁láthatjá	-9.44701
▁vett	-9.44748
▁dolg	-9.45088
▁fordít	-9.45093
▁évtized	-9.45153
▁vak	-9.45197
▁szüksége	-9.45206
▁történ	-9.45248
▁kezdte	-9.45253
▁szeretnénk	-9.45329
▁álló	-9.45425
osabb	-9.45498
▁elképesztő	-9.45541
▁tapasztal	-9.45606
▁kevés	-9.45659
jának	-9.45663
▁életük	-9.45669
▁adatokat	-9.45685
▁akarnak	-9.45768
vonal	-9.45773
▁gén	-9.45783
▁megkap	-9.45818
éves	-9.45819
▁láb	-9.45829
ip	-9.45831
hatnánk	-9.45837
▁közvetlen	-9.45883
▁érdekel	-9.45961
sem	-9.4617
▁tartoz	-9.46189
▁lenné	-9.462
▁kon	-9.46227
▁addig	-9.46228
man	-9.46335
▁vége	-9.4636
si	-9.46464
▁Nap	-9.46488
mond	-9.46518
▁foly	-9.46621
▁szavak	-9.46671
▁teszik	-9.46706
véve	-9.46719
▁valós	-9.46872
▁általános	-9.46921
▁kéz	-9.46942
▁átlagos	-9.47295
▁part	-9.47317
▁Ra	-9.47503
▁papír	-9.47516
▁érzékel	-9.47661
▁kapcsolód	-9.47733
▁dolgozni	-9.47744
▁dollárt	-9.47762
▁magad	-9.47909
▁kultúrá	-9.47976
vág	-9.48022
▁felhasznál	-9.48084
▁verseny	-9.48155
▁helyen	-9.48191
▁es	-9.48204
tatás	-9.48216
N	-9.48224
▁tudós	-9.48365
▁akarom	-9.48394
▁Mo	-9.48607
millió	-9.48632
▁hallgat	-9.48635
▁érdekében	-9.48666
▁kezdet	-9.48667
▁többé	-9.48735
▁Ott	-9.48738
▁megmutat	-9.4875
▁legin	-9.48751
▁Arra	-9.48921
▁zene	-9.48954
heti	-9.48966
▁Mivel	-9.49012
▁közösségi	-9.49033
ga	-9.49078
ettem	-9.49222
▁láthatjuk	-9.49242
▁független	-9.49388
lak	-9.49577
▁fogad	-9.49597
▁szerkezet	-9.49674
▁mesél	-9.49706
▁beszélt	-9.49903
▁dob	-9.49999
▁nyílt	-9.50083
vált	-9.50091
▁végre	-9.50192
of	-9.50518
org	-9.50696
▁lehetne	-9.50712
▁állandó	-9.50836
▁elképzelés	-9.50842
▁azonnal	-9.50854
uta	-9.50857
▁vál	-9.51092
▁doboz	-9.51149
▁eltűn	-9.51167
ított	-9.51238
▁csillag	-9.51337
▁gondolta	-9.51339
▁tan	-9.51353
▁fickó	-9.51529
▁nyilvánvaló	-9.51529
nának	-9.51535
▁amin	-9.51617
▁Dél	-9.51664
▁Államok	-9.5181
használják	-9.51832
▁labor	-9.51892
adás	-9.51903
▁teremt	-9.51913
▁szeretet	-9.52022
▁vírus	-9.5209
▁legy	-9.52091
zár	-9.52104
▁remény	-9.52133
▁La	-9.52173
▁kommunikáció	-9.52257
▁időszak	-9.52259
▁eredeti	-9.52267
▁látnak	-9.52297
▁tervezés	-9.52313
▁vize	-9.52452
▁tehet	-9.52505
▁történelem	-9.52633
▁szenved	-9.52647
erő	-9.52729
▁művész	-9.52821
ítő	-9.52863
▁észre	-9.52919
▁ideg	-9.52976
▁gyorsabb	-9.52993
▁üzleti	-9.53011
▁hatékony	-9.53139
th	-9.53224
▁vet	-9.53439
ong	-9.53597
lin	-9.53634
▁számos	-9.53652
ris	-9.53664
▁men	-9.53803
▁kevésb	-9.53821
▁Ka	-9.53838
▁fele	-9.53896
ől	-9.53935
olni	-9.53953
lu	-9.53959
▁oldalon	-9.53967
▁sebesség	-9.54036
▁élni	-9.54101
▁nyolc	-9.54102
▁sincs	-9.54103
▁ennél	-9.54164
▁válaszol	-9.54208
▁kórház	-9.5437
olva	-9.54379
▁emel	-9.54463
▁kemény	-9.54477
ür	-9.54538
▁nyer	-9.54544
tette	-9.54686
▁folyó	-9.54776
▁függ	-9.54783
▁arány	-9.54852
▁Mindenki	-9.54884
▁ellenér	-9.54954
▁épített	-9.55066
zni	-9.55209
▁börtön	-9.55226
nének	-9.5526
▁Sa	-9.55412
▁Ér	-9.55452
▁bármilyen	-9.55613
▁kockázat	-9.55659
▁amilyen	-9.55695
▁tele	-9.55766
▁megold	-9.55783
▁rak	-9.55811
ésre	-9.55824
▁üzenet	-9.55911
▁ugye	-9.55982
▁mo	-9.55989
▁bizonyíték	-9.56019
▁áldozat	-9.56045
▁per	-9.56203
▁Bo	-9.5623
▁küzd	-9.56352
▁jellemző	-9.56362
lel	-9.56454
▁másodperc	-9.56493
▁életben	-9.56522
▁óra	-9.56547
▁Ch	-9.56549
▁rám	-9.5658
▁Isten	-9.56587
▁terjed	-9.56602
▁helyes	-9.5667
▁tudósok	-9.56736
▁írta	-9.56743
▁öröm	-9.56745
▁emberiség	-9.56753
ező	-9.56773
▁hibá	-9.56872
▁szobá	-9.56978
▁Nézzü	-9.57035
▁tevékenység	-9.57127
▁bio	-9.57171
lá	-9.57477
▁pro	-9.57487
ozni	-9.57801
játék	-9.57883
▁mobil	-9.57898
zunk	-9.57953
nel	-9.58001
▁alacsony	-9.58055
képp	-9.58079
▁megérteni	-9.5808
▁rendkívül	-9.58128
▁remek	-9.58289
▁egészségügyi	-9.58323
▁megtud	-9.58352
▁érint	-9.58419
▁energiá	-9.58661
▁tudod	-9.58672
lal	-9.5875
▁harc	-9.58751
po	-9.58758
▁találni	-9.5878
▁tárgy	-9.58901
▁Ám	-9.58942
▁szuper	-9.59065
▁valamilyen	-9.59066
▁kiderült	-9.59073
▁16	-9.59105
her	-9.59144
▁megkérdez	-9.59154
▁hegy	-9.59163
oldal	-9.5922
▁rájött	-9.59342
endő	-9.59376
▁legyenek	-9.5938
▁nép	-9.5945
▁ilyesmi	-9.59526
ési	-9.59532
szem	-9.5957
▁kérdések	-9.59628
zák	-9.59657
▁alkalommal	-9.59856
▁fut	-9.59914
▁hangz	-9.59934
▁barátom	-9.60066
▁termel	-9.60209
▁fantasztikus	-9.60246
▁Vi	-9.60261
▁beszélget	-9.60296
ném	-9.60321
űr	-9.60335
ista	-9.60409
▁lég	-9.60543
ekből	-9.60625
▁hasonlít	-9.60643
▁elnök	-9.60648
▁megfigyel	-9.60764
▁gazdag	-9.60828
▁tudok	-9.60892
▁nagyjá	-9.61026
▁technológiák	-9.61041
▁tudná	-9.61051
▁Mindez	-9.61101
har	-9.61126
ju	-9.61332
sék	-9.61379
mar	-9.61394
▁bűn	-9.61444
▁eredménye	-9.61446
▁Észak	-9.61464
▁kínai	-9.61468
▁60	-9.61512
▁lét	-9.61549
ikai	-9.61552
▁mű	-9.61562
▁indul	-9.61595
▁teszünk	-9.61605
▁rájötte	-9.61649
▁használt	-9.61792
ította	-9.61804
▁este	-9.61807
▁együttérzés	-9.61843
szik	-9.61851
▁venni	-9.61934
▁mondju	-9.61987
onnan	-9.62089
jár	-9.62233
▁tudnánk	-9.62386
▁fejlődő	-9.6247
▁emlék	-9.62509
▁elem	-9.62538
hatja	-9.62559
▁tíz	-9.62647
▁mag	-9.62668
▁növény	-9.6267
▁akit	-9.62707
írás	-9.62714
tlen	-9.62821
▁falu	-9.6292
▁példát	-9.63003
▁teszt	-9.6305
▁szoftver	-9.63058
▁nyújt	-9.63173
▁félre	-9.63256
lés	-9.63299
▁állt	-9.6331
átor	-9.63377
▁esély	-9.63418
város	-9.63419
▁Tudom	-9.63467
▁manapság	-9.63471
▁értelemben	-9.63577
▁ideje	-9.63581
mentem	-9.63585
▁tanulmányoz	-9.6359
íteni	-9.63733
▁fegyver	-9.63871
▁iránt	-9.63876
▁beszélgetés	-9.63888
olás	-9.64239
ától	-9.64265
▁nyitott	-9.64274
▁Re	-9.64497
éből	-9.64527
▁hamar	-9.64538
▁felett	-9.64584
▁oly	-9.64627
▁értelme	-9.64698
ku	-9.64729
ang	-9.64841
▁gondolják	-9.6488
▁idők	-9.64952
adó	-9.65105
▁Mond	-9.65126
▁felismer	-9.6518
▁városok	-9.6538
▁helyez	-9.65404
vitt	-9.65411
▁döntött	-9.65477
▁fiú	-9.65503
▁akart	-9.65507
▁Jo	-9.65527
▁népesség	-9.65533
▁z	-9.65558
▁ebbe	-9.65644
▁jövőben	-9.65779
▁ismét	-9.65779
▁végé	-9.65867
▁ered	-9.65944
▁írás	-9.65975
▁esetleg	-9.6605
▁dolgoztam	-9.66146
tettük	-9.66161
▁teljesítmény	-9.66186
▁szegény	-9.66188
▁meghatároz	-9.66224
▁híres	-9.66274
tással	-9.66359
▁Mars	-9.66494
ván	-9.66595
▁változ	-9.66692
há	-9.66769
ász	-9.66836
▁neuron	-9.66903
▁Cs	-9.66908
▁80	-9.67007
▁virág	-9.67046
ber	-9.67147
▁Kína	-9.67217
▁köszönhető	-9.67238
▁melyik	-9.67261
▁repül	-9.67376
gép	-9.6755
▁izgalmas	-9.67642
▁király	-9.67642
▁John	-9.67642
co	-9.67665
▁por	-9.67685
anyag	-9.678
▁számol	-9.67802
▁14	-9.67859
ium	-9.6789
zünk	-9.67935
▁készítette	-9.67944
▁szomszéd	-9.68069
▁Valami	-9.68076
▁közepén	-9.68079
▁száll	-9.68084
▁méter	-9.68105
▁jelenleg	-9.68205
▁Fog	-9.68246
▁repülő	-9.68288
▁lenyűgöző	-9.68299
▁élt	-9.68317
▁töltött	-9.68384
▁területek	-9.68427
▁St	-9.68448
▁mindannyiunk	-9.68582
▁alkalmazás	-9.68664
rán	-9.68699
▁Ti	-9.68759
▁alakul	-9.68869
ája	-9.68876
▁bán	-9.68896
▁India	-9.68936
▁gondolkodás	-9.6894
▁ekkor	-9.6898
du	-9.69132
nák	-9.69153
zott	-9.69212
▁szegénység	-9.69305
▁vonal	-9.69315
▁Milyen	-9.69365
▁agyunk	-9.69535
▁biztonságos	-9.69567
▁fül	-9.69568
▁összetett	-9.69628
▁fest	-9.69718
▁anélkül	-9.69831
▁alig	-9.69921
▁részei	-9.7
▁távol	-9.701
▁csúcs	-9.70119
lem	-9.70156
▁zár	-9.70178
▁okos	-9.70204
▁öreg	-9.70231
▁felszín	-9.70344
▁dal	-9.70454
▁egymást	-9.70587
▁lap	-9.70654
▁adni	-9.7067
▁táj	-9.7067
▁Szeretné	-9.70829
találtam	-9.70845
esebb	-9.70897
▁készül	-9.70919
▁költség	-9.70939
▁biológiai	-9.70982
▁utazás	-9.71021
▁lába	-9.71041
▁nélküli	-9.71059
▁látom	-9.71067
▁visel	-9.71089
▁aggód	-9.71113
▁olyasmi	-9.71113
▁piros	-9.71113
jukat	-9.71153
iv	-9.71204
▁jelenség	-9.71213
▁újabb	-9.71214
▁boldogság	-9.7123
▁öl	-9.71284
▁Igaz	-9.71302
ettük	-9.71409
fu	-9.71421
▁ős	-9.71503
▁fáj	-9.71515
▁Rá	-9.71539
▁száma	-9.71545
▁élelmiszer	-9.71555
▁bor	-9.71612
▁tárgyak	-9.71624
▁bír	-9.71635
▁utána	-9.71682
▁szavaz	-9.717
▁úton	-9.71832
▁Ba	-9.71964
▁média	-9.72
▁nemzetközi	-9.72
▁szöveg	-9.72
▁szövet	-9.72003
▁pénzügyi	-9.72007
▁Li	-9.72018
érték	-9.72191
▁eljut	-9.72251
atok	-9.72258
▁vagyis	-9.72282
▁Ön	-9.72307
4-	-9.72418
▁csatlakoz	-9.72446
▁ugyanakkor	-9.72446
▁befejez	-9.72449
pr	-9.72461
▁rendelkez	-9.72739
▁bank	-9.72786
▁Ezen	-9.72832
▁lehetetlen	-9.72835
▁to	-9.72854
▁viszony	-9.7288
milliárd	-9.72885
▁reagál	-9.72895
▁hallott	-9.72928
▁véd	-9.72974
íz	-9.7301
▁betegségek	-9.73051
▁mutatni	-9.73143
vár	-9.7315
▁fejez	-9.73226
▁afrikai	-9.73272
▁megint	-9.7331
▁átalakít	-9.73346
▁menni	-9.73383
▁lyuk	-9.73411
hu	-9.73474
▁tényleges	-9.73577
álni	-9.73616
▁asztal	-9.73654
sunk	-9.73697
pu	-9.73705
▁érez	-9.73786
▁furcsa	-9.73797
▁ujj	-9.73798
▁17	-9.73826
▁egészséges	-9.73833
edés	-9.73943
▁azaz	-9.73953
▁épül	-9.74096
ember	-9.741
▁előny	-9.74118
közben	-9.74121
▁Ugyan	-9.74127
▁megtalál	-9.74141
▁bizony	-9.74163
▁messze	-9.74255
▁végz	-9.74263
▁leír	-9.74305
▁amennyi	-9.74359
▁valamin	-9.7445
hívják	-9.74514
izmus	-9.74585
zz	-9.74593
▁szi	-9.74605
▁mindössze	-9.74709
▁műanyag	-9.74716
H	-9.7472
▁energiát	-9.74724
▁cégek	-9.74773
▁vizsgálat	-9.74882
▁század	-9.7498
▁örök	-9.75104
▁szex	-9.75168
▁Ro	-9.75196
▁értékel	-9.75228
▁növel	-9.75242
rd	-9.75355
▁kód	-9.75459
▁problémát	-9.75539
ódott	-9.75554
▁félelem	-9.75674
rom	-9.75682
for	-9.75697
▁együttműködés	-9.75739
▁korai	-9.75815
▁oszt	-9.75917
▁Mindannyi	-9.76091
▁Három	-9.76092
▁élvez	-9.76106
▁veszélyes	-9.76176
dob	-9.76203
▁változtatni	-9.76256
▁rég	-9.76293
oc	-9.76332
▁fénykép	-9.76385
▁felnőtt	-9.76505
▁nincsen	-9.76566
ezni	-9.76614
tél	-9.76763
▁ötlete	-9.76765
pe	-9.7677
▁kapcsol	-9.76785
▁átlag	-9.76785
lek	-9.76816
▁tere	-9.76921
▁szabadság	-9.76923
nyer	-9.76957
▁eső	-9.76986
▁kilométer	-9.77024
▁indiai	-9.77024
▁felelősség	-9.77074
▁döntés	-9.77112
▁13	-9.77129
▁kedvenc	-9.77239
▁körbe	-9.77265
zat	-9.77347
▁kulcs	-9.77493
▁Oké	-9.77555
húz	-9.77609
▁amelyik	-9.77646
▁Ho	-9.7768
▁iskola	-9.77787
evő	-9.77829
kap	-9.77837
▁anya	-9.77934
▁tűz	-9.77937
▁imád	-9.77958
▁kifejezés	-9.78126
ól	-9.78139
mé	-9.78253
▁Kíná	-9.78443
▁utóbbi	-9.78443
▁szörnyű	-9.78459
haj	-9.7856
kór	-9.78619
▁munkám	-9.78662
▁központ	-9.7877
▁keze	-9.78794
▁elad	-9.78841
tus	-9.78861
▁rendszerek	-9.78864
séges	-9.7891
▁Néha	-9.78915
▁körülmények	-9.78916
▁erőforrás	-9.78924
▁Dr	-9.7896
▁nőtt	-9.78996
▁km	-9.79011
▁rendszert	-9.79023
▁egyike	-9.79037
▁rajzol	-9.79038
▁hiány	-9.79063
▁ill	-9.79096
▁meglát	-9.7917
zem	-9.79206
rész	-9.79249
▁felület	-9.7926
▁da	-9.79272
▁támogatás	-9.79415
▁íz	-9.79486
ottuk	-9.79552
▁célja	-9.79614
▁gyakorlat	-9.79724
▁leszünk	-9.79748
▁véletlen	-9.7987
▁bíz	-9.79919
ekhez	-9.79957
▁világos	-9.8
▁tudat	-9.80013
ria	-9.80109
▁illet	-9.80143
form	-9.80317
▁gondolkoz	-9.80459
▁lehetőségek	-9.80461
ülés	-9.8048
▁tettem	-9.80521
▁ellentét	-9.80553
▁tiszta	-9.80667
▁szolgáltatás	-9.80727
▁vég	-9.80742
▁megnézzü	-9.80782
▁Természetes	-9.80799
▁mozog	-9.80843
▁Chris	-9.80852
▁gomb	-9.80892
▁Államokban	-9.80954
ipar	-9.80989
▁mondaná	-9.81006
▁képzel	-9.81017
▁Amerika	-9.81283
▁tenn	-9.81307
▁vállalkozás	-9.8133
▁fejlesztés	-9.81333
▁látás	-9.8135
zal	-9.81351
▁esemény	-9.81435
pedig	-9.81484
▁zaj	-9.81485
▁Új	-9.81485
▁Gondol	-9.81607
▁kamerá	-9.81615
▁súlyos	-9.81624
▁tartalmaz	-9.81674
▁innováció	-9.81821
▁konfliktus	-9.81821
▁Ilyen	-9.81821
nket	-9.81878
minőség	-9.81975
▁Bár	-9.82052
▁közötti	-9.82103
▁fedez	-9.82119
▁Ar	-9.82169
▁kapott	-9.82204
▁javít	-9.82229
▁Hol	-9.82278
▁genetikai	-9.82313
▁szociális	-9.82313
▁Ím	-9.82315
▁belső	-9.82323
▁munkahely	-9.82346
▁megoszt	-9.82677
szint	-9.82722
▁gyűjt	-9.82764
ard	-9.8278
▁vesszü	-9.82794
▁stb	-9.82847
▁Da	-9.82861
han	-9.82931
▁története	-9.8297
vin	-9.83054
▁velün	-9.83069
▁utat	-9.83075
▁magasabb	-9.83215
▁további	-9.8322
▁forradalom	-9.83306
▁megvizsgál	-9.83306
részt	-9.83322
▁helyszín	-9.8333
▁őrült	-9.83337
dok	-9.83453
▁háló	-9.83504
▁vélemény	-9.8368
▁vitá	-9.83706
hatom	-9.8376
pel	-9.83776
old	-9.8379
▁páciens	-9.83806
▁hatalom	-9.83869
▁megöl	-9.8409
▁fontosabb	-9.84105
▁napi	-9.84119
▁nyugati	-9.84317
▁hideg	-9.84321
▁kutató	-9.84349
lé	-9.8436
▁vág	-9.84539
milyen	-9.84575
▁iskolába	-9.84731
▁táv	-9.84773
▁talaj	-9.84826
ler	-9.84875
▁foglal	-9.84906
▁mikro	-9.84928
▁elme	-9.84997
▁szerepe	-9.85001
▁szinten	-9.85031
▁széles	-9.8505
pár	-9.85089
kezdődik	-9.85144
▁növények	-9.85159
▁árul	-9.85194
▁arany	-9.85217
▁született	-9.85283
▁kreatív	-9.85321
▁nappal	-9.85356
term	-9.85383
▁elején	-9.85403
▁kapcsolatos	-9.85497
▁maradt	-9.85546
erg	-9.85559
hetnénk	-9.8557
▁szót	-9.8557
▁megközelítés	-9.85683
gu	-9.85711
ékony	-9.85866
tech	-9.859
▁kapta	-9.859
▁szóló	-9.8598
▁méh	-9.86198
▁előbb	-9.86207
megy	-9.86233
tikus	-9.86373
▁cikk	-9.86411
rr	-9.86572
▁olyanok	-9.86706
▁egyenes	-9.86715
▁lehetett	-9.86719
▁Me	-9.86791
mo	-9.86813
idő	-9.86819
▁nemzet	-9.86863
▁közép	-9.86871
▁rosszabb	-9.86909
▁elektromos	-9.86928
oly	-9.87067
▁üveg	-9.87228
lap	-9.87262
▁apám	-9.87287
álás	-9.87307
▁hozzám	-9.87312
▁Pa	-9.87369
típus	-9.87378
▁pozitív	-9.87378
▁tényező	-9.87392
▁diák	-9.87413
▁fok	-9.87428
osság	-9.87465
▁szembe	-9.87496
nyel	-9.8751
▁gyakorlati	-9.87546
alatt	-9.8755
megyünk	-9.8762
▁segített	-9.87627
▁szerencsé	-9.87643
csoport	-9.87653
kar	-9.87806
▁győz	-9.87898
▁online	-9.87898
▁reakció	-9.87898
do	-9.8791
▁szerv	-9.87928
▁intézmény	-9.88089
ey	-9.88107
▁Elég	-9.88293
tétel	-9.88379
▁helyre	-9.88415
▁lassan	-9.88422
zenek	-9.88444
▁szervez	-9.88461
▁veszély	-9.88592
▁jönnek	-9.88614
▁területen	-9.88623
▁Afrika	-9.88756
mód	-9.88757
ségét	-9.88809
sága	-9.88875
ozta	-9.88929
▁taps	-9.88949
▁ágy	-9.88966
hadd	-9.88969
ün	-9.88986
sor	-9.8912
csap	-9.8913
▁szint	-9.89132
▁nyomtat	-9.89192
▁csökken	-9.89234
▁design	-9.89478
▁szépség	-9.89513
▁közelebb	-9.89554
▁tartani	-9.89631
▁illető	-9.8966
▁betű	-9.89678
▁bármely	-9.89724
szervez	-9.89824
▁csodá	-9.89885
▁tartunk	-9.89925
cia	-9.89948
▁Teljes	-9.90009
▁lettem	-9.90015
▁Annyi	-9.90021
ozott	-9.90123
▁sétál	-9.90192
▁polgár	-9.90207
tartás	-9.90215
▁alapul	-9.90251
formá	-9.90326
▁90	-9.90343
▁részlet	-9.90364
▁San	-9.90487
▁rádió	-9.90544
▁színpad	-9.90544
▁járvány	-9.90589
ókat	-9.90616
▁nevel	-9.90652
▁70	-9.90745
gondol	-9.90762
▁sziget	-9.90781
▁támad	-9.90848
▁hullám	-9.90848
ológus	-9.9086
▁törőd	-9.9096
▁ho	-9.90991
▁orvosi	-9.90992
▁csoportok	-9.91039
▁meggyőz	-9.91077
▁hallottam	-9.91162
▁Mindig	-9.91241
▁tűnt	-9.91341
▁Nézzé	-9.91376
▁működ	-9.91391
▁Indiában	-9.91398
▁technológiát	-9.91603
▁HIV	-9.91622
▁normális	-9.91647
▁ettől	-9.91758
▁Egyik	-9.91804
▁kutat	-9.91934
▁súly	-9.91979
▁visz	-9.91985
▁hatása	-9.92025
▁segítség	-9.92049
▁vita	-9.92088
▁elérni	-9.92109
▁szerez	-9.92114
▁drog	-9.92166
▁kávé	-9.92167
▁mezőgazdaság	-9.92167
▁szólt	-9.92175
▁Tényleg	-9.92177
▁Egyetem	-9.92208
▁kapcsolatba	-9.92232
▁hord	-9.92431
▁ruhá	-9.92593
▁lehetnek	-9.92594
▁keletkez	-9.92719
▁némi	-9.92741
▁kíván	-9.92876
▁változat	-9.9288
2-	-9.92897
▁idegen	-9.92999
kissé	-9.93059
▁különböz	-9.93081
▁képzelni	-9.93164
▁menj	-9.9318
▁részén	-9.9318
▁na	-9.93192
▁köszön	-9.93219
▁Tulajdonképp	-9.93262
▁ítél	-9.93272
lánc	-9.93332
▁ipari	-9.93363
▁testünk	-9.93398
mag	-9.93423
▁távolság	-9.93536
álló	-9.93588
okba	-9.93693
▁működnek	-9.93703
szín	-9.93746
▁példá	-9.93792
▁Senki	-9.93815
▁finom	-9.93817
▁hajt	-9.93914
▁vállalat	-9.93918
▁tulajdonság	-9.9392
▁elé	-9.94053
▁mást	-9.94064
▁látott	-9.94149
jegy	-9.94206
▁szület	-9.94216
súly	-9.94221
▁művel	-9.94312
▁magán	-9.94332
ov	-9.94345
ésével	-9.94474
▁tesznek	-9.94479
▁programoz	-9.94533
▁Semmi	-9.94586
▁ajánl	-9.94604
▁alkotó	-9.94615
▁nevé	-9.94615
▁létrehozni	-9.94895
má	-9.94942
NS	-9.94986
▁társ	-9.94997
tív	-9.95069
▁írt	-9.95072
▁kész	-9.951
▁gyerekei	-9.95115
▁Át	-9.95155
odott	-9.95202
▁háza	-9.95235
▁mellé	-9.95237
▁Di	-9.9532
▁úgyhogy	-9.95355
▁sikerül	-9.95401
▁ám	-9.95611
▁egyedi	-9.95643
▁kelt	-9.95778
▁hős	-9.95835
▁felhő	-9.95845
▁Tudjuk	-9.95869
▁old	-9.95873
▁vezetett	-9.95957
▁tudták	-9.95979
érdek	-9.96039
▁Világ	-9.96041
▁tanács	-9.96048
▁tetszik	-9.96056
▁ajtó	-9.96087
aj	-9.96096
▁mozgat	-9.9613
ff	-9.96137
▁bolygón	-9.96174
év	-9.96202
állítani	-9.96293
▁fiatalok	-9.96388
▁emlékeztet	-9.96399
▁felelős	-9.96403
▁szülők	-9.96441
aikat	-9.96496
▁szerette	-9.96535
▁koncentrál	-9.96623
▁adja	-9.9664
nyá	-9.96764
▁szülő	-9.96772
▁szerep	-9.96827
▁kapcsolatok	-9.96863
▁kert	-9.96892
▁sokszor	-9.9693
▁Egyszerű	-9.96959
▁abba	-9.96969
hass	-9.97072
ítja	-9.97084
▁segíteni	-9.97214
▁törzs	-9.97235
▁korlát	-9.9726
▁alak	-9.97391
▁számok	-9.976
edve	-9.97611
▁bizonyít	-9.97691
▁építeni	-9.97699
▁sí	-9.97714
▁levele	-9.97721
▁használunk	-9.97729
▁helyet	-9.97731
▁belőlü	-9.9777
▁mérföld	-9.97778
▁ismeretlen	-9.97825
marad	-9.97864
▁bu	-9.97868
▁újság	-9.9792
▁24	-9.97942
▁használja	-9.97969
▁tekintet	-9.98031
▁véget	-9.98145
ainkat	-9.98146
nyal	-9.98174
▁válság	-9.982
▁Ny	-9.98258
▁Nyugat	-9.98347
▁megelőz	-9.98348
▁figyelmet	-9.98382
▁járt	-9.98384
▁szakasz	-9.98419
▁mindaz	-9.98478
ásokat	-9.988
öltöz	-9.98831
▁számuk	-9.98834
hassa	-9.98888
▁sorozat	-9.98921
▁demokráciá	-9.98929
völgy	-9.9893
▁vél	-9.98964
▁pályá	-9.98971
▁jártam	-9.98999
▁érkez	-9.99002
ütt	-9.99116
▁elmé	-9.99127
sorban	-9.99139
▁csináltam	-9.99184
▁hozni	-9.99233
▁ötletek	-9.99245
esse	-9.99283
▁szerte	-9.99473
▁techniká	-9.99514
▁környék	-9.99514
▁megismer	-9.99514
▁áram	-9.99523
▁kialakul	-9.99608
▁Való	-9.9963
nám	-9.9964
▁Bu	-9.99671
▁srác	-9.99695
andó	-9.99763
neked	-9.99775
▁nézett	-9.9978
▁szerel	-9.99793
▁akarják	-9.99831
úr	-9.99956
▁atom	-9.99963
▁ugr	-10.0005
▁kilenc	-10.001
▁Össze	-10.001
▁önmagá	-10.001
▁mesterséges	-10.0011
▁egyenlő	-10.0012
▁lehető	-10.0019
▁női	-10.0032
▁vettem	-10.0049
▁hátra	-10.0056
jú	-10.0057
go	-10.0061
▁eljárás	-10.0072
▁dolgozom	-10.0077
▁kedves	-10.0082
törés	-10.0083
▁név	-10.0084
einek	-10.0086
sőt	-10.0088
▁fogalma	-10.0092
mentes	-10.0097
▁tudtuk	-10.0101
kedés	-10.0115
ésének	-10.0124
emmel	-10.0126
terület	-10.0127
▁gyakorol	-10.0128
ina	-10.015
edett	-10.0151
▁elképzel	-10.0152
▁használnak	-10.016
▁fák	-10.016
▁hús	-10.0162
▁gáz	-10.0171
▁isten	-10.0178
▁gyárt	-10.0179
F	-10.0188
▁Egész	-10.0189
▁hőmérséklet	-10.0189
▁irodá	-10.0189
▁Soha	-10.0189
▁válnak	-10.0199
▁elhagy	-10.0207
▁összeg	-10.0211
enged	-10.0214
▁term	-10.0216
▁kétszer	-10.0238
ődés	-10.024
▁kutyá	-10.0249
▁érzelmi	-10.0249
▁összehasonlít	-10.0249
▁Kiderül	-10.0249
▁csont	-10.0249
▁megvéd	-10.025
tettünk	-10.025
▁működött	-10.0252
▁váltak	-10.0263
▁számítás	-10.0265
▁teremben	-10.027
▁tesztel	-10.0272
▁nemzeti	-10.0286
▁vad	-10.0309
▁egyértelmű	-10.031
▁Viszont	-10.031
▁akarta	-10.0313
▁kezdett	-10.0321
▁szempontjá	-10.0321
ológiá	-10.0321
nagyon	-10.0326
▁anyagok	-10.0327
▁érdemes	-10.0329
▁alapja	-10.0339
▁jelentés	-10.0345
▁akkori	-10.0347
▁tőlü	-10.0349
▁elmesél	-10.0371
▁motor	-10.0374
▁felső	-10.0383
▁mondhat	-10.0383
▁Nek	-10.0389
ah	-10.0393
uc	-10.04
▁építészet	-10.0423
▁tegye	-10.0431
▁algoritmus	-10.0432
▁kislány	-10.0432
▁fejlett	-10.0433
▁lakó	-10.0436
▁ver	-10.0437
▁kapcsolatot	-10.044
vill	-10.0446
dia	-10.0449
▁tulajdon	-10.0453
▁megcsinál	-10.0453
▁megváltoz	-10.0483
▁kulturális	-10.0494
▁tábor	-10.0494
szal	-10.0509
▁határoz	-10.0511
ád	-10.0515
ine	-10.0526
▁politiká	-10.0534
▁kollégá	-10.0537
rajz	-10.0541
▁szokás	-10.0542
▁Néz	-10.0543
fa	-10.0549
▁vizuális	-10.0556
▁légkör	-10.0556
rö	-10.0563
▁irányba	-10.0565
▁lányok	-10.057
▁dél	-10.0579
▁ránk	-10.0582
ráz	-10.0586
▁ára	-10.0587
éséhez	-10.0592
▁számítógépek	-10.0595
▁alkalmazkod	-10.0599
▁városi	-10.0602
▁házi	-10.0604
▁baktérium	-10.0606
▁kezdődött	-10.0607
▁Képzeljé	-10.0612
▁Biztos	-10.0618
▁éjszaka	-10.0618
▁kiváló	-10.0619
▁külső	-10.0619
▁irányítás	-10.062
▁háttér	-10.0628
▁500	-10.064
▁adó	-10.0652
▁szenvedély	-10.0664
▁értékes	-10.0673
▁távoli	-10.0676
▁Amerikában	-10.0682
Ameriká	-10.0682
▁ablak	-10.0682
▁web	-10.0687
▁nézni	-10.0688
sejt	-10.0694
▁baktériumok	-10.0694
ődik	-10.0696
▁másképp	-10.0702
▁megáll	-10.0706
hatok	-10.0713
kapcsol	-10.0714
▁történetek	-10.0719
▁változik	-10.0724
▁harcol	-10.0737
▁listá	-10.074
▁Facebook	-10.0744
▁segély	-10.0744
up	-10.0748
▁tánc	-10.076
dtak	-10.0761
▁szülei	-10.0765
▁betegek	-10.0769
▁indít	-10.0772
▁Öt	-10.0772
▁300	-10.0776
▁csap	-10.0781
▁vall	-10.079
ock	-10.079
ezett	-10.0791
▁sark	-10.0795
▁rendelkezés	-10.0796
▁réteg	-10.0798
olja	-10.0799
▁idős	-10.0801
▁túlélés	-10.0802
láz	-10.0808
▁világegyetem	-10.0808
▁London	-10.0808
▁hölgy	-10.0808
▁Figyel	-10.0808
▁Beszél	-10.0808
▁genom	-10.081
▁gyökere	-10.0811
V	-10.0813
▁Afganisztán	-10.0816
▁fenntartható	-10.0829
▁töltöttem	-10.0831
▁Car	-10.0832
▁tengeri	-10.0832
assa	-10.084
ainak	-10.0843
▁pontos	-10.0844
▁húz	-10.0859
nevezet	-10.086
▁teljesít	-10.0861
▁szervezetek	-10.0864
▁címe	-10.0867
▁demokrácia	-10.0872
▁órán	-10.089
fele	-10.09
▁Áll	-10.0903
▁sír	-10.0905
▁korom	-10.0906
▁bármelyik	-10.0907
▁barátai	-10.0917
▁következménye	-10.0924
▁Hall	-10.0929
▁számítógépes	-10.0932
▁Twitter	-10.0937
▁konkrét	-10.0937
▁igény	-10.0937
▁üres	-10.0938
▁ugyanolyan	-10.0938
▁írni	-10.094
▁csinálunk	-10.0944
3-	-10.0948
▁végzett	-10.0949
vezető	-10.0953
▁gépek	-10.0954
▁Kezd	-10.0964
▁gyár	-10.0967
▁Mu	-10.0969
▁lények	-10.0972
▁szerepel	-10.0972
▁Azok	-10.0973
▁vezetők	-10.0978
▁erkölcsi	-10.0981
▁dolláros	-10.0987
▁titkos	-10.099
▁galaxis	-10.0998
▁kár	-10.0999
▁évszázad	-10.1002
▁kampány	-10.1002
▁Japán	-10.1002
▁forma	-10.1008
▁összeköt	-10.1009
▁Bar	-10.1018
▁olcsó	-10.1019
▁diákok	-10.1028
▁szed	-10.1046
▁tanárok	-10.1065
▁Ekkor	-10.1067
▁béké	-10.1077
zett	-10.1084
▁tudatos	-10.1093
▁működés	-10.11
▁jelöl	-10.1108
▁lényeges	-10.1113
▁hallgató	-10.1115
▁nyit	-10.1117
építés	-10.1122
▁előfordul	-10.1127
▁adatai	-10.1128
▁idején	-10.1131
▁ilyet	-10.1133
▁mutassa	-10.1134
▁elindít	-10.1134
▁szereplő	-10.1135
lód	-10.1135
▁tavaly	-10.1136
▁dönt	-10.1151
terjed	-10.1151
▁méhek	-10.1153
▁elleni	-10.1154
▁rendkívüli	-10.116
▁felhasználó	-10.1163
▁Pár	-10.1168
olják	-10.117
erek	-10.1173
▁vállal	-10.1174
▁hozta	-10.1174
▁elkészít	-10.1179
▁teli	-10.1184
fal	-10.1186
▁függő	-10.119
esik	-10.1194
▁Ru	-10.1195
▁iskolában	-10.1198
▁nemrég	-10.1199
▁mintázat	-10.1199
▁partner	-10.1201
▁nyilván	-10.1202
abbak	-10.1203
▁tár	-10.1207
▁gyermekek	-10.1216
ajon	-10.1218
▁magyarázat	-10.122
▁megtanít	-10.1222
▁író	-10.1223
szív	-10.1233
látogat	-10.1235
▁elment	-10.124
▁fű	-10.1241
▁állás	-10.1244
▁kormányzat	-10.1248
▁ábrázol	-10.1248
1-	-10.1258
▁barlang	-10.1266
▁virtuális	-10.1266
▁cipő	-10.1266
▁mindennapi	-10.1266
▁elektro	-10.1266
▁hónappal	-10.1267
▁dolgozó	-10.127
▁198	-10.1272
▁gondolja	-10.1278
▁őr	-10.1282
▁nevet	-10.1284
dá	-10.1285
▁kivétel	-10.1287
▁kérdése	-10.1287
▁jöttek	-10.1289
▁szán	-10.1301
rop	-10.1305
▁úsz	-10.1306
▁hitte	-10.1307
▁profi	-10.1307
▁köze	-10.1309
▁technológiai	-10.1311
▁bármit	-10.1317
▁méretű	-10.1317
▁Hu	-10.1319
▁videót	-10.1322
▁legjobban	-10.1325
▁tehetünk	-10.133
ezzük	-10.1331
▁eldönt	-10.1332
mozdul	-10.1332
▁téma	-10.1333
▁beleértve	-10.1333
▁OK	-10.1335
▁nyár	-10.1341
▁készülék	-10.1342
▁anyagot	-10.1347
▁Szeret	-10.135
▁téved	-10.1351
▁Ta	-10.1356
▁mennyiség	-10.1361
járó	-10.1364
állás	-10.1364
▁képest	-10.1365
▁tanulni	-10.1375
▁beszélnek	-10.1382
jába	-10.1388
sztikus	-10.1394
▁éjjel	-10.14
▁eltérő	-10.1401
▁inspirál	-10.1401
gar	-10.1401
▁fogyaszt	-10.1403
▁Sajn	-10.1403
▁csal	-10.1405
▁anyám	-10.1411
▁fölött	-10.1412
▁értéke	-10.1424
▁ült	-10.1429
▁összefüggés	-10.1434
jek	-10.1434
szól	-10.1441
▁megkérdezte	-10.1444
▁oktatási	-10.1445
▁kíváncsi	-10.1461
▁megfog	-10.1461
▁kreativitás	-10.1468
▁rögtön	-10.1468
▁klímaváltozás	-10.1469
▁mostaná	-10.1471
▁terhe	-10.1474
sd	-10.1475
▁munkás	-10.1487
ították	-10.1497
▁méret	-10.1499
ry	-10.1506
▁lényegé	-10.1509
bár	-10.1518
tettem	-10.1521
▁remél	-10.1528
▁figyelme	-10.1534
▁Rengeteg	-10.1537
▁egyenlőtlenség	-10.1537
▁terjeszt	-10.1537
▁civil	-10.1537
▁megjelent	-10.1537
▁nézet	-10.154
▁nyomás	-10.154
küld	-10.1542
▁cím	-10.1546
▁jólét	-10.1558
▁képez	-10.1558
▁azonos	-10.1559
▁mondott	-10.1575
▁belép	-10.1575
▁Pl	-10.1576
▁Pro	-10.1577
ozzák	-10.1583
▁miként	-10.1588
ín	-10.1598
hatná	-10.1605
▁fájdalom	-10.1606
▁üzemanyag	-10.1606
▁pici	-10.1607
▁innen	-10.1607
▁végtelen	-10.1608
ner	-10.1608
hetek	-10.1622
▁tartotta	-10.1628
▁Európa	-10.1628
▁észak	-10.1629
▁fejem	-10.1629
tudomány	-10.1631
edik	-10.1631
▁nevezet	-10.1632
sejtek	-10.1632
▁területén	-10.1638
▁találkozta	-10.1655
▁hó	-10.1655
▁akadály	-10.1656
,	-10.1668
▁köré	-10.1672
▁grafikon	-10.1675
▁hajlandó	-10.1675
▁mobiltelefon	-10.1675
▁elvégez	-10.1675
▁házasság	-10.1676
▁fektet	-10.1684
▁orvosok	-10.1685
atikus	-10.1687
ává	-10.1691
▁ezután	-10.1692
▁tr	-10.1696
▁hisze	-10.1696
jaink	-10.1703
▁láttuk	-10.1703
központ	-10.1704
▁európai	-10.1706
szakad	-10.1708
▁hallani	-10.1709
▁kifejez	-10.1714
▁néznek	-10.1718
▁vásárol	-10.172
▁viselked	-10.1723
▁hatalm	-10.1731
▁felvet	-10.1734
▁mentem	-10.1737
tekint	-10.1737
▁Ros	-10.174
zol	-10.1746
áb	-10.1747
▁felel	-10.1748
▁utal	-10.1751
▁előző	-10.1758
▁legyek	-10.1775
ország	-10.1776
▁esetén	-10.1779
repül	-10.1784
▁dimenzió	-10.1785
▁Vég	-10.1785
▁erejé	-10.1789
▁iskolák	-10.1792
▁idéz	-10.1795
▁emléksze	-10.1798
▁hű	-10.1798
▁együttműköd	-10.1799
▁Leg	-10.1802
▁akarja	-10.1806
zá	-10.1806
▁elkerül	-10.1806
▁video	-10.1816
▁nővér	-10.182
▁fajok	-10.1824
▁tag	-10.1836
▁feltalál	-10.1842
▁fent	-10.1843
ekbe	-10.1847
tatni	-10.1849
▁ideig	-10.1857
▁lo	-10.1868
▁szemét	-10.1869
▁Hé	-10.1875
járt	-10.1876
▁ellátás	-10.1876
▁kultúra	-10.1887
▁kül	-10.1887
▁elmagyaráz	-10.1891
▁formájá	-10.1893
▁lény	-10.1916
▁megment	-10.1921
▁utcá	-10.1924
mmal	-10.1934
qu	-10.1939
▁kevese	-10.1954
▁alsó	-10.1959
▁költöz	-10.196
zajlik	-10.1966
▁láthatatlan	-10.1967
▁közé	-10.1968
hatsz	-10.1977
▁lakosság	-10.1983
mász	-10.1985
forrás	-10.1989
olta	-10.1998
▁autók	-10.1998
▁kialakít	-10.2
▁mérnök	-10.201
▁közösségek	-10.2017
▁ősi	-10.2027
▁végső	-10.203
▁leszek	-10.203
▁megfigyelés	-10.2033
▁tettek	-10.204
▁Ri	-10.2041
▁fényt	-10.2048
faj	-10.205
▁képzelet	-10.205
▁támadás	-10.2054
▁szent	-10.2062
▁felhív	-10.2065
▁fejleszt	-10.2068
▁ipar	-10.2068
▁friss	-10.2069
▁keret	-10.2069
▁Ezután	-10.2075
▁formál	-10.2084
ou	-10.2085
amp	-10.2092
▁rosszul	-10.2093
▁sajn	-10.2094
gő	-10.2096
▁Vissza	-10.21
▁kudarc	-10.2102
ődött	-10.2104
,5	-10.2104
védelmi	-10.2104
hatod	-10.2112
▁oldala	-10.2118
hang	-10.2123
▁Bill	-10.2124
▁bolygónk	-10.2126
▁Se	-10.2128
▁könnyebb	-10.2128
▁egyetért	-10.2128
▁idősebb	-10.2137
becsül	-10.2142
▁utak	-10.2154
▁bolt	-10.2154
▁nos	-10.2161
▁viz	-10.2166
▁sokféle	-10.2169
▁résztvevő	-10.2175
▁rugalmas	-10.2175
▁elismer	-10.2176
▁készen	-10.2177
▁személyiség	-10.2178
▁megoldani	-10.2183
▁Köz	-10.2186
▁képvisel	-10.2188
▁életemben	-10.219
▁cent	-10.219
▁elvi	-10.2199
▁nyilvános	-10.2202
fordít	-10.2212
nod	-10.2213
könyv	-10.2215
▁körülött	-10.2216
▁tiszt	-10.2218
▁megenged	-10.2221
▁park	-10.2227
▁elveszít	-10.2237
▁vagyon	-10.2238
▁században	-10.2247
▁Vegyü	-10.2248
▁fém	-10.225
▁komp	-10.2251
▁döntések	-10.2252
▁csinálja	-10.2252
▁tévé	-10.2252
▁bennü	-10.2254
▁szék	-10.2268
▁költ	-10.2268
▁várható	-10.2269
▁hitel	-10.2293
ügy	-10.2294
▁feltételez	-10.2302
▁valakit	-10.2305
vétel	-10.2307
▁utcán	-10.2309
rült	-10.2315
▁mozgalom	-10.2323
▁matematikai	-10.2326
utat	-10.2337
odik	-10.234
▁hete	-10.2344
▁Ku	-10.2358
sta	-10.2358
▁kő	-10.2362
zavar	-10.2367
hatta	-10.2374
▁hím	-10.2383
jén	-10.2388
atív	-10.2397
▁oxigén	-10.2398
▁elefánt	-10.2398
▁Videó	-10.2398
▁szembesül	-10.24
▁sza	-10.2405
▁történni	-10.2411
▁150	-10.2414
járól	-10.2415
▁hagyomány	-10.2422
▁Sokkal	-10.2424
▁találtunk	-10.2433
vizsgá	-10.2437
W	-10.2441
ford	-10.2444
▁emelked	-10.2447
nkat	-10.2448
ológia	-10.2465
▁találunk	-10.2465
bocsá	-10.2469
▁kritikus	-10.2473
▁legrosszabb	-10.2473
▁megtenni	-10.2473
▁rokon	-10.2479
ológiai	-10.2481
▁énekel	-10.2481
▁látvány	-10.2481
▁juttat	-10.2482
log	-10.2484
▁tegyü	-10.2485
▁megértsü	-10.2489
▁neheze	-10.2501
▁Wal	-10.2503
ham	-10.251
▁csillagok	-10.2511
▁ismerjük	-10.2513
▁rendez	-10.2523
rand	-10.2526
szabadul	-10.2527
▁adatot	-10.2544
▁jelenlegi	-10.2545
▁tegy	-10.2548
▁funkció	-10.2549
▁típusú	-10.2549
▁civilizáció	-10.2549
▁egyensúly	-10.2549
▁lakás	-10.2549
▁jogi	-10.255
▁ellenség	-10.2552
▁kitalál	-10.2553
▁fenyeget	-10.2553
▁aktív	-10.2554
▁szabályok	-10.2554
▁Akár	-10.2555
▁nyúl	-10.257
▁fogva	-10.2571
▁alul	-10.2575
▁élete	-10.2579
▁Indiá	-10.258
zanak	-10.2587
cá	-10.2595
▁álmod	-10.2596
darab	-10.2598
háló	-10.2606
▁gyakori	-10.2612
ley	-10.2615
▁Próbál	-10.2625
▁utca	-10.2625
▁folyton	-10.2626
▁segítse	-10.2632
▁vezeték	-10.2633
cseré	-10.2636
▁szállít	-10.2645
▁gondolni	-10.2647
▁olvasni	-10.2655
▁számú	-10.266
▁reméle	-10.2664
▁szegények	-10.2668
▁kísérletet	-10.2672
▁Ber	-10.2678
foly	-10.2682
▁tudtunk	-10.2683
▁vezetés	-10.2693
▁Einstein	-10.2702
▁múzeum	-10.2702
▁növekszik	-10.2702
▁vadász	-10.2702
▁nézőpont	-10.2702
▁400	-10.2706
▁férj	-10.2719
▁életre	-10.2722
▁lenn	-10.2725
▁képernyő	-10.2727
▁ex	-10.2727
▁készíteni	-10.2733
▁felkel	-10.2744
▁tű	-10.2746
▁tisztelet	-10.2752
▁növeked	-10.2753
alap	-10.2758
▁Hi	-10.276
▁gondolkodni	-10.2761
▁érdekelt	-10.2762
▁bennem	-10.2764
▁Ö	-10.2766
víz	-10.2767
dor	-10.2777
▁bizalom	-10.2779
▁önkéntes	-10.278
gatás	-10.2784
▁Go	-10.2785
▁próbálkoz	-10.2787
▁érdeklődés	-10.2788
▁Közel	-10.2788
▁kérdezte	-10.2792
▁gör	-10.2792
▁állami	-10.2797
▁barátaim	-10.2799
▁feleségem	-10.2808
▁kedv	-10.2814
hetem	-10.2823
▁lényege	-10.2823
tettek	-10.2823
▁É	-10.2828
▁vicc	-10.2828
▁repülés	-10.284
▁ösztön	-10.2853
gram	-10.2855
▁meglehetős	-10.2858
▁reklám	-10.2858
▁Első	-10.2858
▁szárny	-10.2859
test	-10.2861
▁mondat	-10.2863
dunk	-10.2863
▁mennyiségű	-10.2866
▁mélyebb	-10.2872
▁kezelni	-10.2873
▁hívjuk	-10.2874
▁születés	-10.2875
▁játékos	-10.2876
▁Azután	-10.2895
▁mélyen	-10.2897
▁rep	-10.2898
elni	-10.2901
▁rendőr	-10.2902
épít	-10.2902
▁megváltozott	-10.2909
társa	-10.2915
▁fá	-10.2918
▁gyártás	-10.2926
▁fenntart	-10.2931
gyal	-10.2934
▁Túl	-10.2937
▁emiatt	-10.2939
▁ismerős	-10.2942
▁kezdeni	-10.2943
▁esélye	-10.2945
▁Reméle	-10.295
▁valószínűség	-10.2953
▁termékek	-10.296
▁népszerű	-10.2966
▁kipróbál	-10.2974
▁befolyásol	-10.2983
▁Pontosa	-10.2984
▁kormányok	-10.2987
▁sebész	-10.2987
▁pszich	-10.2991
▁bevezet	-10.2992
▁biztonsági	-10.2996
gazdaság	-10.3005
▁izgatott	-10.3006
▁tervező	-10.3014
▁GDP	-10.3016
▁elindul	-10.3016
▁javul	-10.3016
▁léteznek	-10.3016
▁gondoskod	-10.3016
▁eredményez	-10.3017
▁Segít	-10.3025
▁kezé	-10.3028
▁válni	-10.3028
▁csinálják	-10.3028
miatt	-10.3028
▁bevétel	-10.3029
▁képtelen	-10.3031
▁Maga	-10.3032
▁adnak	-10.3034
folyam	-10.3041
▁túlél	-10.3042
▁negyed	-10.3045
▁robotok	-10.3055
▁egyenlet	-10.3058
▁busz	-10.3061
▁jegy	-10.3061
▁társaság	-10.3063
cel	-10.3069
ozza	-10.308
zta	-10.308
▁szeretem	-10.3089
▁matematika	-10.3092
▁érezzü	-10.3095
▁hold	-10.3095
▁Á	-10.3095
▁stratégiá	-10.3096
▁szomorú	-10.3096
▁repülőgép	-10.3097
▁használat	-10.31
▁mentális	-10.3108
▁melynek	-10.3109
▁kutatók	-10.3127
▁rendőrség	-10.3135
▁figyelembe	-10.3139
bu	-10.3141
ommal	-10.3149
▁tagjai	-10.315
▁rendel	-10.3152
essék	-10.3157
film	-10.3159
▁munkájá	-10.3162
rin	-10.3163
írtam	-10.317
▁hamis	-10.3175
▁Valaki	-10.3176
▁kommunikál	-10.3176
▁kémiai	-10.3176
▁Szükség	-10.3177
▁festmény	-10.3179
▁játszani	-10.3188
▁látták	-10.3189
hetné	-10.3193
venni	-10.3193
gyel	-10.3203
változott	-10.3205
▁Kész	-10.3209
▁tenné	-10.3212
▁hozza	-10.3218
▁erősebb	-10.3223
▁említ	-10.3226
▁indult	-10.3226
▁szándék	-10.3228
föld	-10.3228
▁rajz	-10.323
▁jelek	-10.3239
beszél	-10.324
▁Su	-10.3243
ságát	-10.3245
▁menne	-10.3245
▁halott	-10.3246
▁Aki	-10.3246
▁megértés	-10.3247
▁nyert	-10.3254
irány	-10.3254
▁dokumentum	-10.3258
▁legközelebb	-10.3258
▁újságíró	-10.3258
▁közvetít	-10.3258
▁állampolgár	-10.3258
▁képessége	-10.3263
hova	-10.3265
▁amerikaiak	-10.3271
anapság	-10.3276
▁tanuló	-10.3284
▁közlekedés	-10.3284
dimenziós	-10.3293
▁Hisz	-10.3311
col	-10.3312
▁hiszik	-10.3314
▁átad	-10.3315
▁bab	-10.3318
óceán	-10.3323
▁érzik	-10.3327
szó	-10.3331
rák	-10.3331
▁események	-10.3335
▁Ismer	-10.334
▁interjú	-10.334
▁weboldal	-10.334
▁kísér	-10.3341
▁önálló	-10.3342
▁tárol	-10.3343
▁kora	-10.3356
▁vehet	-10.3359
▁méltó	-10.337
▁lássu	-10.3377
▁üzenete	-10.3377
▁becsül	-10.3379
▁szerencsés	-10.338
állomás	-10.3381
díjat	-10.3385
hesse	-10.3386
▁egyéni	-10.3392
▁őszintén	-10.3399
▁Jól	-10.3402
▁úr	-10.3406
▁esetek	-10.3411
▁felül	-10.3412
▁hangja	-10.3412
▁Valószínű	-10.3422
▁forró	-10.3422
▁ellenkező	-10.3422
▁transz	-10.3422
▁korábbi	-10.3423
▁Európában	-10.3423
▁szen	-10.3424
▁hiba	-10.3425
▁pusztá	-10.343
áért	-10.3431
▁35	-10.3433
▁történeteket	-10.3436
▁sajtó	-10.3437
▁vonat	-10.3438
▁Hány	-10.3439
▁kimutat	-10.3439
▁vélem	-10.3445
▁negyedik	-10.3452
▁Látják	-10.3458
▁területet	-10.3471
▁intézmények	-10.3476
▁szellem	-10.3479
ője	-10.3484
▁műsor	-10.3486
▁érzék	-10.3487
▁hordoz	-10.3493
sugár	-10.3493
▁cselekvés	-10.3506
▁történelmi	-10.3506
▁egyaránt	-10.3506
▁összekapcsol	-10.3506
▁ránéz	-10.3506
▁eszembe	-10.3508
▁értelmez	-10.3512
▁TV	-10.3512
szöv	-10.3514
▁Láthatjá	-10.3515
▁használatá	-10.3516
▁megosztan	-10.352
▁könyvek	-10.3521
▁bárho	-10.3523
túr	-10.3532
▁alakult	-10.3533
▁Bi	-10.3533
▁áru	-10.3534
▁díj	-10.3547
▁megvalósít	-10.3547
▁befektetés	-10.3555
▁szag	-10.3564
▁változások	-10.3566
▁szüleim	-10.3579
tenger	-10.358
▁gyermekei	-10.3581
▁egészségügy	-10.3583
▁szenvedés	-10.3584
▁szúnyog	-10.3589
▁populáció	-10.359
▁tönkre	-10.359
▁baleset	-10.359
táblá	-10.359
▁létező	-10.3591
▁jelentkez	-10.3599
▁kezem	-10.3603
▁Wi	-10.3634
▁használju	-10.3651
▁magasság	-10.3661
▁Egyszer	-10.3663
▁használva	-10.367
zza	-10.367
veszik	-10.3671
▁jármű	-10.3673
▁megmond	-10.3674
▁David	-10.3674
▁tehetség	-10.3675
▁Nemzet	-10.368
▁megváltoztatta	-10.3681
▁száj	-10.3686
▁megérte	-10.3691
▁halálos	-10.3698
▁vicces	-10.3706
▁mell	-10.3717
adat	-10.3721
▁rendelkezik	-10.3728
▁filmet	-10.3738
▁központi	-10.3741
▁sűrű	-10.3749
▁használható	-10.3752
▁táplál	-10.3752
őket	-10.3755
▁asszony	-10.3757
▁félelme	-10.3757
▁hadsereg	-10.376
▁kizárólag	-10.376
▁vörös	-10.376
▁küldetés	-10.3763
▁nyugdíj	-10.3764
▁előadó	-10.3767
▁Ugyanez	-10.3768
áshoz	-10.3774
▁Irán	-10.3776
készlet	-10.3777
mellett	-10.3777
▁Kér	-10.3781
eménye	-10.3787
▁venn	-10.3787
▁láttak	-10.3793
▁tették	-10.3794
őbb	-10.3794
visz	-10.3794
▁említette	-10.3797
▁fiam	-10.3798
pal	-10.3798
▁Év	-10.38
▁felmérés	-10.3819
▁Élet	-10.382
▁jelentőség	-10.3836
sark	-10.3836
▁ismerik	-10.3837
pályá	-10.384
▁hiányz	-10.3841
▁magyaráz	-10.3842
▁hozzájárul	-10.3846
▁negatív	-10.3846
▁Ugyanakkor	-10.3846
▁nehézség	-10.3847
jöhet	-10.3847
▁véletlenszerű	-10.3849
▁kinéz	-10.3849
lóg	-10.3851
▁adta	-10.3853
ásában	-10.3886
▁egymásra	-10.3891
▁orr	-10.3897
áló	-10.3899
▁csinálta	-10.3907
▁fenn	-10.3907
▁nano	-10.3909
képesség	-10.3911
ebbek	-10.3925
izet	-10.3925
J	-10.3927
▁mos	-10.3928
▁százalékát	-10.3929
konferenciá	-10.3933
▁Washington	-10.3933
▁matematiká	-10.3933
▁médiá	-10.3933
▁recept	-10.3933
▁sport	-10.3933
▁laboratórium	-10.3933
▁veszteség	-10.3933
▁divat	-10.3934
▁lelkes	-10.3935
▁Gu	-10.3939
▁halász	-10.394
▁45	-10.394
▁hangot	-10.3942
száz	-10.3948
▁bekapcsol	-10.395
karsz	-10.3951
▁kiállítás	-10.3953
▁Épp	-10.3964
▁szokta	-10.3966
▁régen	-10.3969
hatott	-10.3975
▁észlel	-10.3979
éter	-10.3996
▁szerző	-10.3998
▁kezét	-10.401
▁klinikai	-10.4021
▁kutya	-10.4021
▁szexuális	-10.4021
▁vonatkozó	-10.4021
▁kínál	-10.4021
kártyá	-10.4021
▁német	-10.4024
▁nehezebb	-10.4027
▁felismerés	-10.4034
▁szakértő	-10.4038
▁struktúrá	-10.4041
▁hírek	-10.4051
▁érvel	-10.407
óbb	-10.4074
▁Ed	-10.408
tudott	-10.4086
▁politika	-10.4096
▁eljött	-10.4097
téve	-10.4101
▁erőfeszítés	-10.4109
▁gravitáció	-10.4109
▁stabil	-10.4109
▁négyzet	-10.411
▁megad	-10.4113
▁99	-10.4113
▁zseb	-10.4114
énnyel	-10.4121
kutatás	-10.4122
▁egymástól	-10.4139
▁rab	-10.4147
▁találta	-10.4148
▁családok	-10.4166
jöjj	-10.4172
▁elvesz	-10.4177
▁találtuk	-10.419
▁kiderül	-10.4197
▁No	-10.4197
▁professzor	-10.4198
▁stressz	-10.4198
▁birtok	-10.4198
▁interakció	-10.4198
▁elfelejt	-10.4198
▁egér	-10.4199
▁vas	-10.42
▁Steve	-10.42
▁összerak	-10.4202
▁táplálék	-10.4204
heted	-10.4215
▁megtervez	-10.4218
▁no	-10.4219
▁gyógyszerek	-10.4221
▁eszközt	-10.4227
tölteni	-10.4241
▁ragad	-10.4243
▁nyug	-10.4252
▁érzelmek	-10.4254
▁látja	-10.4266
▁legel	-10.4269
félé	-10.4274
▁kötött	-10.4275
találták	-10.4276
zsá	-10.4279
▁lel	-10.4287
▁radikális	-10.4289
▁Izrael	-10.4289
▁madarak	-10.4289
▁tucat	-10.4289
▁javasol	-10.4289
▁Mennyi	-10.4289
▁Jelenleg	-10.4291
▁gének	-10.43
díj	-10.4301
▁működtet	-10.4301
tervezés	-10.4302
▁fil	-10.4304
▁késztet	-10.4304
▁alkalmas	-10.4307
lét	-10.4319
▁következtetés	-10.4323
▁használhat	-10.4323
▁menekült	-10.4327
menő	-10.4335
▁környezeti	-10.4341
szigetek	-10.4343
▁oldalán	-10.4344
védő	-10.4353
▁Eh	-10.4367
▁közgazdász	-10.4379
▁drága	-10.4379
▁mekkor	-10.438
▁madár	-10.438
▁Hihetetlen	-10.4381
▁brit	-10.4382
▁kereszt	-10.4383
▁terén	-10.4383
▁kényszerít	-10.4384
▁belegondol	-10.4385
▁megmagyaráz	-10.4386
▁Képzeljü	-10.4386
▁rém	-10.4387
▁erej	-10.439
kereskedelem	-10.4391
▁Los	-10.4401
▁hulladék	-10.4406
▁megragad	-10.4408
▁megfelel	-10.4409
▁emberrel	-10.4422
▁álmo	-10.4435
▁kimond	-10.4437
ezer	-10.4443
▁csomag	-10.445
▁részletek	-10.4456
▁fokoz	-10.4458
zámomra	-10.4464
▁közeli	-10.4466
▁fejlesztett	-10.4467
▁munkatárs	-10.4467
▁korszak	-10.4468
sszük	-10.447
▁AIDS	-10.4471
▁George	-10.4471
▁ajándék	-10.4471
▁morális	-10.4471
▁sivatag	-10.4471
▁tipikus	-10.4471
▁éjszaká	-10.4471
▁sárga	-10.4471
▁bölcsesség	-10.4471
▁igazgató	-10.4471
▁régió	-10.4475
▁vonz	-10.448
▁illeti	-10.4482
áját	-10.4482
▁tudsz	-10.4489
▁időn	-10.449
▁társadalmak	-10.4504
▁ponton	-10.4505
▁családom	-10.4507
▁hatékonyabb	-10.4518
▁Kis	-10.4525
▁vers	-10.4545
▁készség	-10.4547
mail	-10.4552
▁tető	-10.4555
▁üzem	-10.4563
▁elkötelez	-10.4564
▁Emléksze	-10.4564
▁hirdet	-10.4564
▁ritka	-10.4564
▁Négy	-10.4564
▁szórakoz	-10.4564
▁kozm	-10.4564
▁ebéd	-10.4564
▁örül	-10.4566
▁párbeszéd	-10.4566
▁működő	-10.4576
▁megmutatni	-10.4577
szerzés	-10.4578
▁foglalkozni	-10.4579
▁családi	-10.458
▁lá	-10.4581
▁jelenet	-10.4582
▁bevon	-10.4588
most	-10.46
▁modellek	-10.4612
hív	-10.4618
▁elkap	-10.4619
▁sors	-10.4619
évé	-10.462
▁Pr	-10.4622
▁For	-10.4644
lemez	-10.4653
ritmus	-10.4655
értettem	-10.4655
▁feladatot	-10.4656
▁gondolatai	-10.4657
▁Mexikó	-10.4657
▁kamera	-10.4657
▁malária	-10.4657
▁nőstény	-10.4657
▁összpontosít	-10.4657
▁francia	-10.4657
▁pusztít	-10.4657
▁tőke	-10.4657
▁legyőz	-10.4658
imat	-10.4658
▁erőteljes	-10.4658
szünet	-10.4659
▁blog	-10.4662
▁belsejé	-10.4664
▁rögzít	-10.467
▁rév	-10.4671
▁segíthet	-10.4671
▁poli	-10.4674
laszt	-10.4689
▁22	-10.4691
gés	-10.4695
▁értek	-10.4695
arc	-10.4695
▁kényszer	-10.4702
▁Kb	-10.471
▁ültet	-10.4714
▁gyereket	-10.4718
▁értik	-10.4719
▁századi	-10.472
jegyez	-10.4721
fogyasztás	-10.4722
▁hangok	-10.4725
▁1000	-10.4731
▁csoda	-10.4741
▁tudtak	-10.4743
▁élőlény	-10.4744
▁japán	-10.4752
▁költségvetés	-10.4752
▁technikai	-10.4752
▁magazin	-10.4752
▁meglepetés	-10.4752
▁egyenlőség	-10.4752
▁75	-10.4757
▁mu	-10.4759
▁vállalatok	-10.476
szabály	-10.476
▁közti	-10.4764
▁szül	-10.4764
▁módosít	-10.4766
▁álma	-10.4767
▁megkér	-10.477
▁közep	-10.4774
▁tanú	-10.4775
▁katonai	-10.4792
▁hő	-10.4792
▁láthatnak	-10.4794
▁Gondolja	-10.4794
▁Ol	-10.4802
▁termelés	-10.4802
▁kint	-10.4803
▁valamiféle	-10.4811
ins	-10.4814
hessen	-10.4815
▁csatorná	-10.4816
javít	-10.4817
olyan	-10.4819
▁rovar	-10.4822
▁vidék	-10.4822
▁követő	-10.4827
▁telt	-10.4828
▁Lo	-10.4844
▁ellenőriz	-10.4847
▁hosszabb	-10.4847
▁szaporod	-10.4847
▁valamennyi	-10.4847
▁zsidó	-10.4847
▁űrhajó	-10.4848
▁befogad	-10.4848
▁béke	-10.4848
főnök	-10.4851
▁leül	-10.4868
láb	-10.487
▁rólu	-10.487
▁nevezzü	-10.4879
▁gyerekkor	-10.488
fer	-10.4883
▁amellye	-10.4885
▁jelentette	-10.4909
ster	-10.4914
▁halak	-10.4915
▁működni	-10.4918
▁nézzé	-10.4926
érkezett	-10.4935
▁vette	-10.4936
▁feltétlen	-10.4943
▁abszolút	-10.4943
▁rejtély	-10.4943
▁kenyér	-10.4943
▁elegendő	-10.4943
▁szokatlan	-10.4943
ragaszt	-10.4946
lis	-10.4947
▁nyak	-10.4955
csoda	-10.4956
tartó	-10.4964
▁napja	-10.4974
lapot	-10.4984
▁határok	-10.4984
▁beavatkozás	-10.4985
▁csodás	-10.4988
▁gyilkos	-10.4998
▁szótár	-10.4998
ódna	-10.4999
▁vezetői	-10.5004
▁tanulság	-10.5013
▁táncol	-10.5017
▁Kar	-10.5021
▁arab	-10.5022
▁csend	-10.5022
▁órát	-10.5026
éged	-10.5036
▁kedvel	-10.5039
▁Darwin	-10.504
▁bicikli	-10.504
▁kognitív	-10.504
▁prototípus	-10.504
▁publikál	-10.504
▁templom	-10.504
▁Szerencsé	-10.504
▁másfél	-10.5041
▁szűk	-10.5041
▁Kicsi	-10.5042
▁útvonal	-10.5045
▁váll	-10.5047
▁című	-10.505
▁térben	-10.5057
▁merül	-10.5058
▁következik	-10.5065
▁válaszolta	-10.5067
építeni	-10.5074
▁befektet	-10.508
▁szög	-10.5092
▁hallottak	-10.5102
▁komplex	-10.5106
▁előadást	-10.5107
teljes	-10.5109
▁fertőzés	-10.5112
ánál	-10.5118
▁édes	-10.5137
▁száraz	-10.5138
▁diplomá	-10.5138
▁Szeretnék	-10.5138
▁kering	-10.5138
▁érdekli	-10.5139
▁sztori	-10.514
▁ezrei	-10.5142
▁jobbá	-10.5147
▁trend	-10.5148
▁mondano	-10.5153
▁elolvas	-10.516
▁akarat	-10.516
▁Szer	-10.5164
cská	-10.5166
▁idézet	-10.5167
ellenes	-10.517
▁működésé	-10.5174
▁megtesz	-10.5185
▁Hold	-10.5206
▁eredmények	-10.5206
▁döntést	-10.5211
bbá	-10.523
▁eszünk	-10.5234
▁rejlik	-10.5237
▁meghallgat	-10.5237
csavar	-10.5237
▁tartalom	-10.5238
▁elhelyez	-10.5239
▁hozzáállás	-10.5242
▁kiv	-10.5249
▁gyakor	-10.5254
▁kerek	-10.5261
▁összehoz	-10.5267
▁hozzáférés	-10.5271
▁többsége	-10.5274
▁gyűl	-10.5279
védelem	-10.5287
▁műtét	-10.5292
▁tetejé	-10.5297
menet	-10.5306
▁telep	-10.532
▁Mc	-10.5328
▁erőszakos	-10.5329
▁jövedelem	-10.5337
▁NASA	-10.5337
▁identitás	-10.5337
▁Általá	-10.5337
▁Érdekes	-10.5337
▁karakter	-10.5337
▁tizen	-10.5338
nád	-10.5339
▁felejt	-10.5343
▁fiúk	-10.5348
▁földön	-10.5361
▁terem	-10.5364
▁szoros	-10.5367
▁káros	-10.537
▁előállít	-10.5373
▁rejt	-10.5376
szokott	-10.5386
▁Fél	-10.5402
óknak	-10.5407
hetsz	-10.5411
▁Ped	-10.5427
▁végrehajt	-10.5434
ükkel	-10.5436
▁említett	-10.5436
▁Köszön	-10.5437
Európá	-10.5437
▁megtörtént	-10.5438
▁stratégia	-10.5438
▁jellegű	-10.5438
▁sérülés	-10.5438
▁aktivitás	-10.5438
hess	-10.5438
kodás	-10.5442
▁feltár	-10.5443
▁származó	-10.5446
▁alany	-10.5447
tlan	-10.5451
hozott	-10.5451
▁fókuszál	-10.5452
▁feltétel	-10.5455
▁megtehet	-10.5456
U	-10.5461
▁utas	-10.5461
▁törvények	-10.5463
hessü	-10.5464
▁rovarok	-10.5465
▁járnak	-10.5467
nyugat	-10.5472
▁érteni	-10.5475
▁Dan	-10.5477
▁mérés	-10.5478
dolgozott	-10.5483
▁mindezek	-10.5485
▁onnan	-10.5485
▁építész	-10.5491
ruhá	-10.5502
▁különbségek	-10.5508
▁kiló	-10.5512
társai	-10.5518
tető	-10.5519
▁jelentett	-10.5522
▁kaptunk	-10.5525
▁történetét	-10.5531
▁kín	-10.5535
▁kölcsön	-10.5538
▁tüdő	-10.554
▁Németország	-10.554
▁antibiotikum	-10.554
▁matematikus	-10.554
labdá	-10.554
▁kaland	-10.554
▁szeretne	-10.5557
▁okozza	-10.5561
▁Ennyi	-10.5561
▁kísérletek	-10.5563
piac	-10.5569
▁Par	-10.5574
▁ingyen	-10.5576
▁alkalmazott	-10.5577
▁Es	-10.5592
com	-10.5604
▁indított	-10.5608
▁ellenáll	-10.561
hangol	-10.5612
10	-10.5621
órá	-10.5622
▁próbáljuk	-10.5627
▁találtak	-10.5628
szalag	-10.5635
▁értékek	-10.5638
örülbelül	-10.5642
▁Mindegyik	-10.5643
▁biológiá	-10.5643
▁országot	-10.5644
▁többiek	-10.5644
▁bizalm	-10.5646
▁Él	-10.5647
gömb	-10.5647
▁Irak	-10.5648
▁27	-10.565
▁hisszü	-10.5652
▁felépít	-10.5654
▁lennénk	-10.5659
▁keresni	-10.5661
▁kifejlesztett	-10.5661
▁érthető	-10.5661
▁mélység	-10.5662
cal	-10.5664
▁északi	-10.5665
▁Bal	-10.5676
▁alkotás	-10.5676
tartják	-10.5687
▁23	-10.5688
▁Tom	-10.5693
▁közelít	-10.5696
▁pók	-10.5698
20	-10.5705
így	-10.5705
▁2000	-10.5707
▁bar	-10.5716
▁érzékelés	-10.5717
by	-10.5745
▁21	-10.5746
▁Emlékez	-10.5747
▁Richard	-10.5747
▁mechanizmus	-10.5747
▁mindkettő	-10.5747
▁nukleá	-10.5747
▁pingvin	-10.5747
▁vásárló	-10.5747
▁megjósol	-10.5747
▁miszerint	-10.5747
▁hazud	-10.5748
▁kölcsönhatás	-10.5748
▁mikrobák	-10.5748
▁ijesztő	-10.5748
▁ritká	-10.575
▁szakember	-10.575
▁haszon	-10.5752
lyel	-10.5754
▁miénk	-10.5756
▁Igazá	-10.5757
▁járni	-10.5759
▁anyagi	-10.5759
▁molekulák	-10.5767
▁bot	-10.5769
▁hatásá	-10.5773
▁fér	-10.5775
▁végezte	-10.5781
▁belé	-10.5781
▁tetején	-10.579
▁felfog	-10.5798
▁üt	-10.581
▁Éppen	-10.5816
▁írja	-10.5817
▁déli	-10.582
▁szabályoz	-10.582
▁átalakulás	-10.5821
▁érintett	-10.5823
▁vállalkozó	-10.5827
▁műve	-10.583
▁megépít	-10.5832
▁alkalom	-10.5851
▁intelligenciá	-10.5853
▁gyenge	-10.5853
▁becslés	-10.5853
▁ügyvéd	-10.5853
▁majmok	-10.5853
▁kezük	-10.5853
hatás	-10.5853
zzuk	-10.5853
▁kézzel	-10.5857
▁gyűjtött	-10.5859
▁bocsát	-10.586
▁megegyez	-10.5861
▁akció	-10.5867
▁megalkot	-10.5869
12	-10.5874
▁részecskék	-10.5875
▁megoldások	-10.5879
▁alapos	-10.588
▁hallgatók	-10.5894
▁elküld	-10.5895
▁újítás	-10.5896
▁kihasznál	-10.59
▁utál	-10.59
▁hova	-10.5901
▁Elkezd	-10.5918
▁depresszió	-10.5921
▁veszít	-10.5924
▁óceánok	-10.5925
▁amennyit	-10.5934
▁Elő	-10.5948
▁nála	-10.5955
▁megbíz	-10.5955
▁statisztiká	-10.5959
▁büszke	-10.5959
▁daganat	-10.5959
▁legmagasabb	-10.5959
▁Times	-10.5959
▁kever	-10.596
▁elemzés	-10.5965
▁Nagyszerű	-10.5966
▁tava	-10.5967
▁felnőttek	-10.5971
▁lehessen	-10.5974
▁döntötte	-10.5978
▁szemünk	-10.5978
lett	-10.5981
próbáltam	-10.5983
▁zenei	-10.5986
▁gyö	-10.599
▁mester	-10.5992
▁szokásos	-10.5996
▁éltem	-10.5998
▁Ok	-10.6005
▁gyer	-10.6026
felől	-10.6027
▁Jobb	-10.603
▁téve	-10.603
▁elképzelni	-10.6031
gráf	-10.6032
állítás	-10.6042
▁idejé	-10.6042
▁formája	-10.6047
fertőzött	-10.6047
▁Talál	-10.605
▁ellentmondás	-10.6057
▁meghív	-10.6062
▁bölcs	-10.6066
▁Angeles	-10.6067
▁GPS	-10.6067
▁korrupció	-10.6067
▁Másodszor	-10.6067
▁messzi	-10.6067
▁Használ	-10.6067
▁óvatos	-10.6067
▁skálá	-10.6067
▁csillagász	-10.6069
▁kiemel	-10.6071
▁mérnökök	-10.6073
▁sarok	-10.6073
▁helyettesít	-10.6074
▁térd	-10.6075
▁világháború	-10.6076
▁szavai	-10.6081
készül	-10.6086
▁Paul	-10.609
▁Kell	-10.6095
▁seb	-10.61
▁szellemi	-10.6102
méretű	-10.6107
▁kísérletez	-10.6108
kutató	-10.6109
▁megérkez	-10.6111
▁máshol	-10.6111
▁bíró	-10.6112
▁elkezdtük	-10.6112
▁rajtu	-10.612
▁tegyé	-10.614
állt	-10.6152
molekulá	-10.6155
dolgoz	-10.6161
▁cukor	-10.6175
▁denevér	-10.6175
▁patkány	-10.6175
▁speciális	-10.6175
▁verzió	-10.6175
▁megerősít	-10.6175
▁szakadék	-10.6175
▁növeszt	-10.6176
▁iparág	-10.6177
▁létezés	-10.6179
▁mérete	-10.619
▁forgat	-10.6194
▁háromszor	-10.6199
▁titok	-10.6201
▁építs	-10.6202
▁álom	-10.6205
▁terep	-10.6206
tervező	-10.6214
vidék	-10.6215
▁máj	-10.6216
barát	-10.6216
hí	-10.6224
▁tol	-10.6227
▁Igazán	-10.6228
▁mehet	-10.6236
▁meglátogat	-10.6237
▁követel	-10.6266
gatni	-10.627
▁elkövet	-10.6284
▁kiindul	-10.6285
▁szeptember	-10.6285
bin	-10.6291
▁élőhely	-10.6293
▁napjaink	-10.6298
▁érzékelő	-10.6301
▁segítenek	-10.6303
▁átél	-10.6304
▁tartanak	-10.6305
▁foglalkozunk	-10.6314
▁készíte	-10.632
▁ural	-10.6321
▁jutni	-10.6321
program	-10.6326
Afriká	-10.6326
▁iskolai	-10.6327
▁tartó	-10.6336
▁megállapít	-10.6337
▁Ju	-10.6344
▁olya	-10.6359
▁határozott	-10.636
▁akad	-10.6365
▁vallásos	-10.6365
▁foglalkoztat	-10.6368
▁azonosít	-10.6369
íme	-10.6373
▁Ter	-10.6377
▁változó	-10.6379
▁fenyegetés	-10.639
▁Alzheimer	-10.6396
▁intelligens	-10.6396
▁kurzus	-10.6396
forgalom	-10.6396
▁Közönség	-10.6396
▁összetevő	-10.6396
▁többször	-10.6396
▁Megpróbál	-10.6398
hassu	-10.6399
▁részvétel	-10.6399
cím	-10.641
lapok	-10.6414
▁80-	-10.6414
nagy	-10.6417
▁csip	-10.6417
▁körben	-10.6418
▁következ	-10.6421
hozzá	-10.6428
történet	-10.6439
szobá	-10.644
▁építő	-10.6443
▁Or	-10.6443
▁tartja	-10.6445
▁kiválaszt	-10.6448
▁Tegyü	-10.6449
terv	-10.6454
30	-10.6459
▁bejelent	-10.6467
▁ingyenes	-10.6469
▁korlátoz	-10.647
▁Újra	-10.6473
▁létrehozásá	-10.6477
▁hivatalos	-10.6477
▁szeretnének	-10.6478
▁főz	-10.6483
▁jobbak	-10.6486
mondhatom	-10.6497
szerkeszt	-10.6506
▁kivon	-10.6508
▁cseleked	-10.6508
▁megtapasztal	-10.6509
▁szégyen	-10.6509
▁megérint	-10.6509
▁kereskedelmi	-10.6509
▁Ír	-10.6509
▁unalmas	-10.6509
▁lelki	-10.651
▁majom	-10.6511
▁szíves	-10.6511
▁művészeti	-10.6514
öld	-10.6516
▁holnap	-10.6519
▁érvényes	-10.652
▁módját	-10.6523
▁hatékonyság	-10.6524
asztal	-10.6532
▁ellát	-10.6536
▁megkeres	-10.6551
▁süt	-10.6558
eszköz	-10.6565
▁színes	-10.6565
▁vonalak	-10.657
▁válhat	-10.6577
▁su	-10.658
▁Mel	-10.6587
▁forradalma	-10.6594
szolgálat	-10.6594
▁képviselő	-10.6602
▁vonzó	-10.6606
▁számított	-10.6615
▁Gondolj	-10.6621
dioxid	-10.6621
▁MIT	-10.6622
▁Thomas	-10.6622
▁kapacitás	-10.6622
▁multi	-10.6623
▁65	-10.6629
társaság	-10.663
▁nyíl	-10.6631
▁borít	-10.6633
▁évtizedek	-10.6638
▁téves	-10.665
▁Gyerek	-10.6657
▁ütköz	-10.6661
▁érzi	-10.6665
▁tur	-10.6666
▁megosztott	-10.6666
külön	-10.6667
▁ugyanabb	-10.6668
ebbé	-10.6669
▁gyermekeink	-10.6675
▁jelölt	-10.6685
kezdtük	-10.669
▁farm	-10.6694
▁szemem	-10.6701
▁jogok	-10.6705
▁testem	-10.6723
▁lássa	-10.6726
találják	-10.6726
▁kocká	-10.6727
▁ahonn	-10.6732
▁statisztika	-10.6737
terápiá	-10.6737
▁Anderson	-10.6737
▁borzasztó	-10.6737
▁demokratikus	-10.6737
▁előítélet	-10.6737
▁enyém	-10.6737
▁visszajelzés	-10.6737
▁fizikus	-10.6737
▁vastag	-10.6737
▁önmaguk	-10.6737
▁hatalma	-10.6738
▁közzé	-10.6738
▁időnk	-10.6739
▁eltelt	-10.6746
▁ideges	-10.6747
▁élelem	-10.675
▁szintű	-10.6752
▁véghez	-10.6755
▁Ugyanaz	-10.6758
▁lent	-10.6763
BG	-10.6764
▁projektek	-10.6764
▁végbe	-10.6764
halmaz	-10.6774
▁Vegy	-10.6783
hullám	-10.6788
▁menet	-10.6793
▁okozta	-10.6794
▁engedély	-10.6797
▁szerelem	-10.6808
▁szeretik	-10.6814
▁hiteles	-10.6816
▁srácok	-10.6817
hajó	-10.6826
▁Du	-10.6829
▁érv	-10.683
▁kibocsátás	-10.6831
▁módszerek	-10.6832
▁font	-10.6833
▁tisztel	-10.6834
▁ügyes	-10.6842
▁összegyűjt	-10.6848
▁varázs	-10.6852
▁gleccser	-10.6854
▁kontinens	-10.6854
▁elszigetel	-10.6854
▁tengely	-10.6854
▁Nemrég	-10.6854
▁gonosz	-10.6854
alkatrész	-10.6854
▁görög	-10.6855
▁könyvtár	-10.6861
▁megnyit	-10.6868
▁fejé	-10.6869
▁adag	-10.6878
szava	-10.6883
▁fia	-10.6885
hár	-10.6886
hassá	-10.6886
▁nyomor	-10.6889
▁nevezik	-10.6893
▁alapjá	-10.6897
▁elkezde	-10.6903
▁hagyni	-10.6907
▁figyelem	-10.691
▁fényképez	-10.6911
▁sohase	-10.6914
▁épületek	-10.6914
▁Nő	-10.6917
▁választott	-10.6918
▁szab	-10.693
▁munkája	-10.6942
▁fordított	-10.6963
▁20.	-10.6965
▁berendezés	-10.6971
Ázsiá	-10.6971
▁vihar	-10.6971
▁édesanyám	-10.6972
▁önmaga	-10.6972
fest	-10.6973
▁klasszikus	-10.6973
▁lebeg	-10.6976
▁viszonylag	-10.6977
▁váratlan	-10.6979
▁legfő	-10.698
ügyi	-10.699
▁ünnepel	-10.6994
▁biológia	-10.7006
▁élek	-10.7012
▁Kelet	-10.7015
vitel	-10.7021
▁fajtá	-10.7024
bolt	-10.7026
▁kapcs	-10.7027
felvétel	-10.703
▁nyilvánosság	-10.7042
▁zöldség	-10.7044
▁megváltoztatja	-10.7045
▁észrevette	-10.7048
▁gyerekeink	-10.7056
▁bukkan	-10.7065
cionális	-10.7079
▁Kép	-10.7088
▁Obama	-10.709
▁exponenciális	-10.709
▁illegális	-10.709
▁lassú	-10.709
▁motivál	-10.709
▁zuhan	-10.709
▁élettartam	-10.709
▁Harvard	-10.709
▁őszinte	-10.709
▁kezdete	-10.7093
▁Képzel	-10.7095
▁aránya	-10.7095
▁újjá	-10.7096
oh	-10.7107
▁igényel	-10.711
▁képességei	-10.7119
ragad	-10.7119
▁gyermekkor	-10.7121
▁példány	-10.7125
▁képzés	-10.7125
▁felad	-10.7133
▁felemel	-10.7135
▁Ide	-10.7142
▁érzékeny	-10.7148
▁születte	-10.7154
▁alapú	-10.7156
három	-10.7175
▁Gyakra	-10.7211
▁Michael	-10.7211
▁drámai	-10.7211
▁előrejelzés	-10.7211
▁kifinomult	-10.7211
▁kollektív	-10.7211
▁tükröz	-10.7211
▁nulla	-10.7211
▁elfoglal	-10.7211
▁tegnap	-10.7211
▁oroszlán	-10.7211
▁figyelmeztet	-10.7211
▁Egyéb	-10.7211
▁cselekedet	-10.7211
▁elterjedt	-10.7212
▁Rob	-10.7214
▁email	-10.7215
beteg	-10.7219
▁társas	-10.7221
▁vád	-10.7223
▁elmondani	-10.7225
hány	-10.7233
▁tárgyal	-10.7234
kezdjük	-10.7235
▁bér	-10.7239
▁60-	-10.7239
▁kitör	-10.7248
▁erkölcs	-10.7249
▁vezetni	-10.7252
▁bekövetkez	-10.7252
▁pontok	-10.7255
▁jelzi	-10.7256
hívta	-10.7273
nyújt	-10.7274
▁tervezők	-10.7281
▁esté	-10.7282
▁Gyer	-10.7295
▁matek	-10.7299
far	-10.73
▁gyógyít	-10.7305
▁leszáll	-10.7305
állal	-10.7311
▁feltételezés	-10.7312
▁számot	-10.732
▁rendelkező	-10.7321
▁Férfi	-10.7333
▁dizájn	-10.7333
▁ellenőrzés	-10.7333
▁kegyetlen	-10.7333
▁marketing	-10.7333
▁memóriá	-10.7333
▁vendég	-10.7333
▁árnyék	-10.7333
▁Csinál	-10.7333
▁Hely	-10.7333
▁alapoz	-10.7333
▁utasítás	-10.7335
▁elvárás	-10.7335
▁befolyás	-10.7335
▁munkánk	-10.7338
▁kinyit	-10.734
▁The	-10.7341
▁Oda	-10.7343
rúg	-10.7345
▁600	-10.7345
▁valamelyik	-10.7346
▁követni	-10.735
esszük	-10.7352
technológia	-10.7362
▁kezdene	-10.7364
▁választotta	-10.7377
▁babá	-10.7381
▁fizetés	-10.7386
▁értjük	-10.739
▁lányom	-10.7391
▁dolgozók	-10.7395
forduló	-10.74
▁útjá	-10.7414
▁tagja	-10.7422
▁korán	-10.7424
▁megtalálni	-10.7442
▁diagnosztizál	-10.7456
▁hétköznapi	-10.7456
▁infrastruktúrá	-10.7456
▁kiterjeszt	-10.7456
▁növekvő	-10.7456
▁önmagunk	-10.7456
▁középiskolá	-10.7456
▁elárul	-10.7457
▁cserél	-10.7457
▁elkerülhetetlen	-10.7458
lámpá	-10.7459
▁Ellen	-10.7461
▁kiáll	-10.7464
▁politikusok	-10.7464
ózis	-10.7465
▁Anna	-10.7465
▁helyezked	-10.7465
▁nálunk	-10.7466
▁mező	-10.7466
▁21.	-10.7467
▁csimpánzok	-10.7473
▁alakú	-10.7473
▁vetett	-10.7475
inkat	-10.748
▁Számo	-10.7482
▁készíts	-10.7485
▁kellemes	-10.7488
▁szakértők	-10.7489
▁Ford	-10.7493
▁ígéret	-10.7503
▁célok	-10.7503
tatta	-10.7504
▁pozíció	-10.7508
▁forrása	-10.752
hálózat	-10.7526
▁Park	-10.7526
térkép	-10.7534
▁történhet	-10.7535
▁feltölt	-10.7536
▁magával	-10.7539
▁intézet	-10.7544
adták	-10.7546
▁lova	-10.7555
▁szabályozás	-10.7556
▁nézze	-10.7558
▁Sose	-10.7559
▁értelem	-10.7561
jében	-10.7562
▁elektromosság	-10.7565
▁fogalmaz	-10.7568
éséről	-10.7571
ítottuk	-10.7572
▁érezni	-10.7572
▁sör	-10.7574
hajtás	-10.7578
próbá	-10.7581
▁drón	-10.7581
▁golf	-10.7581
▁nagymamá	-10.7581
gyűrű	-10.7581
▁megvolt	-10.7581
▁lépcső	-10.7581
▁szárazföld	-10.7582
▁folyamán	-10.7582
▁alvás	-10.7582
▁öregedés	-10.7583
▁mesélni	-10.7584
▁galaxisok	-10.7588
▁diákjai	-10.7593
▁Késő	-10.7595
▁homok	-10.7597
▁takar	-10.7598
▁képzeljé	-10.7599
▁segítséget	-10.7601
▁alternatív	-10.7606
▁kiderít	-10.761
míg	-10.7615
▁szándékos	-10.7627
▁buborék	-10.7629
▁eljutott	-10.7645
▁közöl	-10.7658
▁problémájá	-10.7662
észeti	-10.7664
▁játszott	-10.7672
▁kés	-10.7673
zött	-10.7695
▁éghajlat	-10.7699
▁elsődleges	-10.7708
▁műszaki	-10.7708
▁elektronikus	-10.7708
▁elpusztít	-10.7708
▁Higgs	-10.7708
▁cucc	-10.7708
▁autizmus	-10.7708
▁zenekar	-10.771
▁mém	-10.7711
▁fakad	-10.7716
izáció	-10.7717
▁plusz	-10.7717
▁II	-10.7721
▁kifejezett	-10.7723
ideg	-10.7726
▁szeretek	-10.7731
▁bátor	-10.7732
▁Hell	-10.7732
szennyezés	-10.7733
▁Neke	-10.7734
▁Imádo	-10.7734
▁megmér	-10.7736
▁látó	-10.7737
▁titko	-10.7738
▁vállalkozók	-10.7738
▁cső	-10.7742
▁óriás	-10.7749
▁futó	-10.775
▁bezár	-10.7755
▁átmenet	-10.7756
lkotott	-10.7757
▁elhatározta	-10.7761
▁néző	-10.7762
▁művészek	-10.7766
▁csoportja	-10.7766
háború	-10.7771
▁közeled	-10.7774
▁folytatód	-10.7778
▁büntetés	-10.7782
csere	-10.7784
eddig	-10.7785
termelés	-10.7786
▁jövőjé	-10.779
▁szerves	-10.7795
▁keresés	-10.7808
▁jártak	-10.7813
▁Ph	-10.7815
▁rejtett	-10.782
hette	-10.7824
▁menekültek	-10.783
▁használtak	-10.7832
▁intenzív	-10.7836
▁tartomány	-10.7836
▁sugárzás	-10.7836
▁laptop	-10.7836
▁zsír	-10.7836
▁Létez	-10.7836
▁James	-10.7836
▁honlap	-10.7837
golyó	-10.7838
bénul	-10.7839
▁tőké	-10.7839
▁merre	-10.7841
▁élőlények	-10.7846
▁megértésé	-10.7855
▁nőtte	-10.7858
▁felszerelés	-10.7865
▁kezeljük	-10.7867
60	-10.7869
pszichológus	-10.7875
▁lop	-10.788
▁fizika	-10.7882
avaly	-10.7893
▁barátok	-10.7898
▁máshogy	-10.79
▁eredményei	-10.7904
kocsi	-10.7915
▁családja	-10.7945
▁tömeges	-10.7947
szög	-10.7948
▁mutatta	-10.7954
▁etet	-10.7958
▁szürke	-10.7966
▁Charles	-10.7966
▁Közép	-10.7966
▁január	-10.7966
▁kategóriá	-10.7966
▁vacsorá	-10.7966
▁következtében	-10.7966
▁szektor	-10.7966
▁megválaszol	-10.7966
▁lélek	-10.7966
▁levél	-10.7966
▁Különös	-10.7967
▁tudomás	-10.797
▁ismerete	-10.7974
▁példák	-10.7974
▁játszanak	-10.7977
vér	-10.798
▁őssejtek	-10.7981
▁építkez	-10.7987
▁bíróság	-10.7991
▁feláll	-10.8008
▁eljön	-10.8009
▁méteres	-10.8023
▁Egyetlen	-10.8028
▁elemek	-10.8029
▁ütem	-10.803
enénk	-10.8036
▁alacsonyabb	-10.8044
letes	-10.8047
amerikai	-10.8048
tűz	-10.8058
fejleszteni	-10.8067
▁kiadás	-10.8074
▁elősegít	-10.8076
▁vidéki	-10.8084
▁Tovább	-10.8093
▁klassz	-10.8095
hidrogén	-10.8097
▁sugall	-10.8097
pálya	-10.8098
▁nyugodt	-10.8098
▁tükör	-10.8098
▁alapelv	-10.81
▁komplexitás	-10.81
▁kijelent	-10.8107
▁robbanás	-10.8114
csúsz	-10.8115
túl	-10.8116
berg	-10.8126
▁zóná	-10.8128
állam	-10.8132
▁hivatal	-10.8134
▁címké	-10.8137
tisztít	-10.8144
▁uralkod	-10.815
▁vizsgálni	-10.8157
▁keleti	-10.8165
▁Kör	-10.8168
▁tartós	-10.8177
Kelet	-10.8183
vissza	-10.8183
orvos	-10.8183
állította	-10.8202
▁nyers	-10.821
▁határai	-10.8214
sült	-10.8216
▁felügyel	-10.8222
▁Brazíliá	-10.8231
▁illúzió	-10.8231
▁üstökös	-10.8231
▁sérült	-10.8231
▁találmány	-10.8231
▁kezünk	-10.8231
edény	-10.8231
▁folyékony	-10.8233
▁szemszög	-10.8233
▁macská	-10.8238
▁bizonyára	-10.824
▁célpont	-10.824
▁önző	-10.8245
▁felkészül	-10.8249
▁Együtt	-10.8251
▁következményei	-10.8258
gyűjtemény	-10.826
low	-10.8263
▁Hozzá	-10.8266
▁légy	-10.8267
▁kém	-10.8271
▁hangszer	-10.8273
▁java	-10.8297
▁megszabadul	-10.8297
gyártó	-10.8298
▁ikon	-10.83
▁csináltuk	-10.8305
▁elmondja	-10.8309
nélkül	-10.8311
▁irányába	-10.8313
▁szentel	-10.8314
▁hozzáfér	-10.8316
▁elnevez	-10.8322
▁jelez	-10.8326
▁választások	-10.8329
mutató	-10.8329
▁varázslat	-10.8332
ssze	-10.8334
▁elege	-10.8337
▁pontosság	-10.834
▁90-	-10.8355
▁Internet	-10.8366
▁spanyol	-10.8366
▁Hasonló	-10.8366
▁Svédország	-10.8366
▁dinamikus	-10.8366
▁kapitalizmus	-10.8366
▁liberális	-10.8366
▁lézer	-10.8366
▁muszlim	-10.8366
▁nemzedék	-10.8366
▁ösztönöz	-10.8366
▁Video	-10.8366
▁gépezet	-10.8366
▁időjárás	-10.8366
▁terrorizmus	-10.8366
▁tények	-10.8367
idejű	-10.8367
▁acél	-10.8372
▁késő	-10.8378
▁CO	-10.8381
tömb	-10.8384
▁Jim	-10.84
▁áraml	-10.8413
▁igazol	-10.8417
▁szélén	-10.8431
▁reform	-10.8435
▁tisztá	-10.8443
▁rendes	-10.8445
▁utcák	-10.8458
▁szennyez	-10.8461
hagyjuk	-10.8468
▁70-	-10.8491
álkoz	-10.8493
▁életed	-10.8495
,000	-10.8496
eire	-10.85
▁adtam	-10.8501
▁Oroszország	-10.8503
▁iszlám	-10.8503
▁maláriá	-10.8503
▁törekvés	-10.8503
▁csíp	-10.8503
▁spektrum	-10.8503
▁legutóbbi	-10.8503
▁Szinte	-10.8503
▁felmelegedés	-10.8503
▁lejátsz	-10.8504
felbontás	-10.8504
▁orosz	-10.8504
▁fura	-10.8506
▁odakin	-10.8509
▁munkaerő	-10.8509
▁szembenéz	-10.8511
tartalm	-10.8517
▁talp	-10.852
▁PM	-10.8523
▁napelem	-10.8532
▁Bele	-10.8533
▁közepé	-10.8537
▁agyam	-10.8538
▁elmegy	-10.854
▁tapasztalatai	-10.8542
▁fegyverek	-10.8549
találjuk	-10.855
▁tárgyat	-10.8565
ésbé	-10.8565
▁ülő	-10.8573
▁könyvem	-10.858
▁enni	-10.8581
▁megtart	-10.8583
▁kiber	-10.8583
▁ábrán	-10.8588
▁lenyűgöz	-10.8589
▁Menj	-10.8591
▁körülötte	-10.8593
▁mondtu	-10.8595
▁tanítás	-10.86
vonta	-10.8601
mester	-10.8604
▁fertőz	-10.8611
▁megnyer	-10.8615
▁hallás	-10.8615
▁számát	-10.8622
gazdá	-10.8625
▁eleve	-10.863
▁családjá	-10.8638
▁Csodálatos	-10.8642
▁esőerdő	-10.8642
▁forgatókönyv	-10.8642
▁molekula	-10.8642
▁szimbólum	-10.8642
▁Csendes	-10.8642
▁bálnák	-10.8642
▁legújabb	-10.8642
▁megakadályoz	-10.8642
▁stílus	-10.8642
▁eltávolít	-10.8642
▁feltevés	-10.8642
▁2008-	-10.8642
▁fájdalmas	-10.8642
▁Kenyá	-10.8642
▁híd	-10.8642
▁görbé	-10.8643
▁Ráadás	-10.8644
▁Legyen	-10.8644
▁küzdelem	-10.8645
▁jogai	-10.8646
▁hegyek	-10.8649
▁Rég	-10.8652
▁inger	-10.8654
▁bur	-10.8656
▁méreté	-10.8664
héj	-10.8665
▁poszt	-10.8666
▁eredményeket	-10.8673
▁hónapja	-10.8686
▁szállítás	-10.8691
sav	-10.8694
▁okok	-10.8706
▁Ric	-10.8714
▁részletes	-10.8717
▁anyu	-10.8722
▁Lu	-10.8734
▁karrier	-10.8736
vettem	-10.874
▁útján	-10.8741
▁Cha	-10.8744
nyúl	-10.8746
▁Szerete	-10.8764
▁hozzáad	-10.8767
kodó	-10.8782
▁Alapvető	-10.8783
▁szigorú	-10.8783
▁generál	-10.8783
▁ihlet	-10.8783
▁intelligencia	-10.8783
▁interaktív	-10.8783
▁javaslat	-10.8783
▁koncepció	-10.8783
▁kábel	-10.8783
▁motiváció	-10.8783
▁Angli	-10.8783
▁Fontos	-10.8783
▁Ismét	-10.8783
▁Lényeg	-10.8783
▁konyhá	-10.8783
▁Amazon	-10.8783
▁csepp	-10.8783
▁polgármester	-10.8783
▁hacker	-10.8783
▁hátsó	-10.8783
▁bálna	-10.8784
▁szemüveg	-10.8784
dísz	-10.8784
▁adatbázis	-10.8784
▁ragadozó	-10.8784
▁muszá	-10.8786
▁bátorság	-10.8787
▁bőség	-10.8788
▁társadalmat	-10.8792
▁megtalálható	-10.8794
▁mágneses	-10.8796
▁eltör	-10.8799
▁színész	-10.8801
▁Rész	-10.8805
▁kidolgoz	-10.8808
▁étterem	-10.8809
▁védett	-10.8812
▁Per	-10.8814
halál	-10.8815
▁példája	-10.8829
▁elmondta	-10.8833
▁odaad	-10.8835
war	-10.8836
profit	-10.8839
szúr	-10.8861
▁egyszerűbb	-10.8863
▁méltóság	-10.8873
érzet	-10.8874
▁halla	-10.8879
▁falak	-10.8886
▁olcsóbb	-10.8887
ellátás	-10.89
▁meghatározó	-10.8907
▁tárgyalás	-10.8918
▁automatikus	-10.8925
▁Intézet	-10.8925
▁Kaliforniá	-10.8925
▁expedíció	-10.8925
▁iPhone	-10.8925
▁Antarktisz	-10.8925
▁Franciaország	-10.8925
▁Univerzum	-10.8925
▁kígyó	-10.8925
▁konzervatív	-10.8925
▁mozgalma	-10.8926
▁ábra	-10.8927
▁levő	-10.8927
sugara	-10.8927
▁főiskolá	-10.8928
▁orvostudomány	-10.8928
▁legelső	-10.8929
▁számtalan	-10.8934
▁lakos	-10.8936
▁vagytok	-10.8936
ight	-10.8939
▁történetem	-10.8941
▁megmutatta	-10.895
▁megpróbálja	-10.8951
gáz	-10.8952
▁abbahagy	-10.8957
▁próbálja	-10.8963
tárgy	-10.897
teremtés	-10.897
▁anti	-10.8975
▁fehérjék	-10.8975
▁társadalmunk	-10.8985
▁támogató	-10.8985
▁csendes	-10.8992
▁megtanulta	-10.8992
kereső	-10.8995
gyűjteni	-10.9009
▁Kezdjü	-10.9009
▁hangos	-10.901
▁hibás	-10.9022
▁fordulat	-10.9025
▁szűr	-10.903
ütő	-10.903
▁kezelésé	-10.9034
▁bátorít	-10.9053
▁dinoszaurusz	-10.907
▁ördög	-10.907
▁lélegz	-10.907
▁ökoszisztémá	-10.907
▁igyeksz	-10.907
▁molekuláris	-10.907
öböl	-10.907
▁tüntet	-10.907
▁alapítvány	-10.907
▁tonhal	-10.907
gyullad	-10.907
▁felmerül	-10.907
▁Csup	-10.9072
▁lista	-10.9072
▁Idő	-10.9072
▁délután	-10.9074
▁normál	-10.9077
▁izom	-10.9077
▁kormányzás	-10.9087
▁egerek	-10.9087
▁kíváncsiság	-10.9087
▁előadásom	-10.9088
ivitás	-10.909
▁következet	-10.9097
▁biz	-10.9098
▁apja	-10.9108
▁Hang	-10.9112
▁befolyásolja	-10.9114
▁tudatá	-10.9114
▁próbálta	-10.9117
▁szintjé	-10.912
▁tudatosság	-10.9125
▁harmad	-10.9134
▁idegenek	-10.9138
▁2000-	-10.914
burg	-10.9144
▁ismétel	-10.9145
▁pusztul	-10.9152
▁tartalma	-10.9156
▁használata	-10.9161
▁tulajdonságai	-10.9167
▁hatásos	-10.9172
▁találkozó	-10.9173
ring	-10.9176
▁kezdje	-10.9182
lapít	-10.9183
helyzet	-10.9185
▁bont	-10.9186
▁százai	-10.9187
alapú	-10.9198
▁tekinteté	-10.92
▁takarít	-10.92
▁politikus	-10.9209
▁diagnózis	-10.9217
▁rejlő	-10.9217
ouTube	-10.9217
▁keresztény	-10.9217
illeszked	-10.9217
▁szertartás	-10.9218
▁2011	-10.9218
▁Frank	-10.9218
▁fennmarad	-10.9218
állomány	-10.9218
halandóság	-10.9218
▁mozdulat	-10.9219
▁létezett	-10.9219
▁megbízható	-10.9223
▁sziklá	-10.9226
valósítani	-10.9233
váltás	-10.9236
▁osztoz	-10.9237
▁költő	-10.9238
▁tűnhet	-10.9245
▁feltesz	-10.9248
▁bemutató	-10.9257
tulajdonos	-10.926
▁irányul	-10.9264
nyagokat	-10.9275
jához	-10.928
▁trükk	-10.9305
▁értelmes	-10.9306
mérő	-10.931
▁részese	-10.9311
▁megcsinálni	-10.9315
▁vegyü	-10.9326
hajtó	-10.9339
mély	-10.935
▁pap	-10.9351
▁őssejt	-10.9352
▁bebizonyít	-10.9361
parancs	-10.9365
▁gerinc	-10.9367
▁infrastruktúra	-10.9367
▁kényelmes	-10.9367
▁legkisebb	-10.9367
▁objektum	-10.9367
▁szimuláció	-10.9367
▁vigyáz	-10.9367
▁zászló	-10.9367
▁drágá	-10.9367
▁történelme	-10.9367
▁nullá	-10.9367
▁dugó	-10.9367
▁Ugye	-10.9367
▁elutasít	-10.9367
▁beszámol	-10.9367
▁hinni	-10.9367
▁változtass	-10.9367
▁szerződés	-10.9368
▁utol	-10.9368
▁eltérés	-10.9368
▁gondolkodásmód	-10.9368
▁hárma	-10.9369
▁örökké	-10.9371
▁napfény	-10.9371
▁jelképe	-10.9372
biológus	-10.9373
▁termeszt	-10.9373
▁vitte	-10.9375
▁elégedett	-10.9378
▁szintjén	-10.9383
▁mozg	-10.9384
▁apá	-10.9404
▁felfogás	-10.9409
alizmus	-10.9411
▁információkat	-10.9421
▁modellje	-10.9421
▁szemlélet	-10.9424
▁ábrá	-10.9424
▁érzelme	-10.9426
▁adhat	-10.9436
▁kaphat	-10.9442
▁érdem	-10.9471
▁képernyőn	-10.9472
▁megállít	-10.9472
▁úszó	-10.9491
bombá	-10.9511
▁legszegényebb	-10.9518
▁ébred	-10.9518
vásárlás	-10.9518
▁Kongresszus	-10.9518
▁SMS	-10.9518
▁puszta	-10.9518
▁Kanadá	-10.9518
▁tiltakoz	-10.9518
▁Street	-10.9519
▁fokozatos	-10.9519
▁tízezer	-10.9519
▁uraim	-10.9521
▁táplálkoz	-10.9522
▁sorrend	-10.9526
▁beszéljek	-10.9528
▁színház	-10.9528
▁hűtő	-10.953
▁jelzés	-10.9532
csöve	-10.9533
▁munkájuk	-10.9534
▁megszerez	-10.9545
▁szolgáltat	-10.9555
technológiá	-10.9556
sztár	-10.9568
▁vadon	-10.9575
▁2.	-10.9579
esztet	-10.958
▁mondhatjuk	-10.9585
▁Emberek	-10.9585
▁fölé	-10.9587
kötés	-10.9592
▁legkev	-10.9597
törő	-10.9606
▁19.	-10.9611
▁műhold	-10.9625
▁szerz	-10.9629
▁alkalma	-10.9631
▁helyreállít	-10.9641
okozott	-10.9643
használat	-10.9645
▁kialakulásá	-10.9647
bázis	-10.9671
▁Hosszú	-10.9672
▁definíció	-10.9672
▁dokumentál	-10.9672
▁megszállott	-10.9672
▁párhuzamos	-10.9672
▁támaszkod	-10.9672
▁Hirtelen	-10.9672
▁megmutass	-10.9672
▁mögé	-10.9672
▁vidám	-10.9672
▁végeredmény	-10.9672
▁diagram	-10.9672
▁tágul	-10.9672
▁undor	-10.9672
blokk	-10.9673
▁alakzat	-10.9674
▁egyedülálló	-10.9675
▁Lássu	-10.9677
▁összefügg	-10.9678
▁képzett	-10.9681
értük	-10.9685
▁nevezte	-10.9691
▁ellenállás	-10.9693
▁költségek	-10.9694
▁tanítani	-10.9699
▁tanította	-10.9704
▁rendszeres	-10.9714
▁kikapcsol	-10.973
▁ételek	-10.9741
▁újrahasznosít	-10.9748
▁méterre	-10.9748
▁meta	-10.9751
▁szervek	-10.9751
▁megtör	-10.9753
▁kitalálni	-10.9754
▁kedvencem	-10.9756
▁megtaláljuk	-10.9761
ung	-10.9765
▁leáll	-10.9781
▁felesége	-10.9795
emlék	-10.9818
▁aggaszt	-10.9828
▁csecsemő	-10.9828
▁filozófus	-10.9828
▁közreműköd	-10.9828
▁megkérdőjelez	-10.9828
▁megtakarítás	-10.9828
▁fázis	-10.9828
▁Apple	-10.9828
▁Robert	-10.9828
figurá	-10.9828
▁rájönni	-10.9828
▁kellemetlen	-10.9828
▁hangulat	-10.9829
▁beindít	-10.9829
▁magányos	-10.9829
▁élelme	-10.9831
▁óvszer	-10.9831
▁láng	-10.9831
▁merész	-10.9832
▁túlságos	-10.9834
▁remélhető	-10.9835
▁32	-10.984
készítő	-10.9842
▁mozgó	-10.9842
▁alakítani	-10.9851
forgat	-10.9856
haltak	-10.9859
▁mindegy	-10.9863
▁Királyságban	-10.9866
▁figyelemre	-10.9881
▁versenyez	-10.9883
▁gyümölcs	-10.9883
feldolgozás	-10.9897
▁Bizony	-10.9953
művész	-10.9967
▁robban	-10.9967
▁élhet	-10.9978
▁szörny	-10.998
termék	-10.9984
▁Kap	-10.9984
▁Gyors	-10.9987
▁1990-	-10.9987
▁Hatalmas	-10.9987
▁borzalmas	-10.9987
▁bámul	-10.9987
▁büszké	-10.9987
▁kombináció	-10.9987
▁organizmus	-10.9987
▁Stanford	-10.9987
▁kattint	-10.9987
▁érzékszerv	-10.9987
▁oktató	-10.9987
▁ártatlan	-10.9987
▁katonák	-10.9987
▁forog	-10.9987
▁alapanyag	-10.9992
▁mindkette	-10.9993
▁némelyik	-11.0002
▁örökség	-11.0006
▁helytelen	-11.0006
▁mérhető	-11.0009
▁megkülönböztet	-11.001
▁irányítani	-11.0012
▁rohan	-11.0013
▁szemlél	-11.0013
▁távú	-11.0014
állat	-11.0016
▁kiszámít	-11.0026
▁intéz	-11.003
▁kórházak	-11.0032
▁otthagy	-11.0041
▁megvilágít	-11.0048
▁250	-11.0062
▁percig	-11.0068
▁Végez	-11.0071
▁Elkezdte	-11.0074
▁változtatás	-11.0077
▁120	-11.0079
▁meglep	-11.0089
▁ígér	-11.0094
▁fejük	-11.0101
▁férjem	-11.0103
▁szavazat	-11.0105
▁Imád	-11.0115
▁szórakoztató	-11.0116
beszéd	-11.0126
terembe	-11.013
▁gazdagabb	-11.0137
▁hajlamos	-11.0137
▁tisztán	-11.0139
▁jutotta	-11.0141
▁Rövid	-11.0148
▁igyekez	-11.0148
▁kerékpár	-11.0148
▁kulcsfontosságú	-11.0148
▁megtörténik	-11.0148
▁Múzeum	-11.0148
▁külföldi	-11.0148
▁reaktor	-11.0148
▁tetszett	-11.0148
▁2010-	-11.0148
▁megszűn	-11.0148
▁történelmé	-11.0148
▁iraki	-11.0148
▁bámulatos	-11.0148
▁padló	-11.0148
▁küszöb	-11.0148
▁iráni	-11.0148
▁doktor	-11.0148
▁Francisco	-11.0148
▁fiziká	-11.0149
▁ruha	-11.0149
▁összefoglal	-11.0149
▁feltérképez	-11.0149
▁idén	-11.015
▁ösztönös	-11.0151
▁kövek	-11.0151
▁névtelen	-11.0152
▁várakoz	-11.0155
▁megmondani	-11.0155
▁orvoslás	-11.016
▁finanszíroz	-11.016
felhasználás	-11.0161
▁Keres	-11.0167
▁kiválasztott	-11.0169
▁Istenem	-11.0215
▁büntet	-11.0218
▁építésé	-11.0257
▁kelet	-11.0257
▁szert	-11.0263
▁elemez	-11.0277
▁úszás	-11.0282
▁kezdőd	-11.03
iskolá	-11.0306
▁Brit	-11.0311
▁megismétel	-11.0312
▁rózsaszín	-11.0312
▁Pakisztán	-11.0312
▁globalizáció	-11.0312
▁inspiráció	-11.0312
▁korallzátony	-11.0312
▁teherautó	-11.0312
▁Alapítvány	-11.0312
▁Nehéz	-11.0312
▁folyadék	-11.0312
▁mítosz	-11.0312
▁selyem	-11.0312
▁gerincvelő	-11.0312
▁mikrofon	-11.0312
▁megérzés	-11.0312
▁tekintély	-11.0313
▁Rájötte	-11.0313
▁Tanul	-11.0313
▁Képesek	-11.0313
▁százezer	-11.0315
▁születésnap	-11.0315
▁potenciális	-11.0316
▁harag	-11.0317
▁felbukkan	-11.0323
▁10.000	-11.0326
▁forráskód	-11.0339
▁döntő	-11.0342
▁mono	-11.0348
ugrott	-11.0356
▁elgondolkod	-11.037
▁1.	-11.0376
40	-11.038
▁menny	-11.0393
elosztás	-11.0394
▁kultúránk	-11.0412
hatna	-11.0413
▁testvér	-11.0417
▁sajnál	-11.0422
▁válj	-11.0423
▁buli	-11.0426
▁lássá	-11.043
▁vezethet	-11.0443
▁ünnep	-11.0446
hajtott	-11.0451
▁kockázato	-11.0455
▁munkatársai	-11.0462
▁láttá	-11.0465
pénz	-11.0468
szolgáltatás	-11.0469
ernyő	-11.0477
▁leggyorsabb	-11.0479
▁kliniká	-11.0479
▁kromoszómá	-11.0479
▁kényelmetlen	-11.0479
▁mikroszkóp	-11.0479
süllyed	-11.0479
▁aktivál	-11.0479
▁tonna	-11.0479
▁menedék	-11.0479
▁Nobel	-11.0479
▁nyomornegyed	-11.0479
▁megbeszélés	-11.048
▁válassz	-11.048
▁Megvan	-11.048
▁olvad	-11.0481
ügynök	-11.0481
▁háztartás	-11.0482
▁ösztönző	-11.0482
▁macska	-11.0484
▁vékony	-11.0486
▁jelentene	-11.0488
▁szintje	-11.0494
▁elveszett	-11.0494
▁életmód	-11.0495
▁elhatároz	-11.0497
▁meglévő	-11.0502
▁Látható	-11.051
▁elválaszt	-11.0511
▁szabadalm	-11.0514
▁Derek	-11.0535
▁hagyta	-11.0541
▁pontosabb	-11.0541
▁Oh	-11.0542
▁fiatalabb	-11.0542
▁jövedelme	-11.0543
betegség	-11.0547
▁Hisze	-11.0553
▁Tele	-11.0559
▁feltételek	-11.0576
eszik	-11.0578
▁adj	-11.0582
▁menekül	-11.0589
▁szerepé	-11.0597
▁hozz	-11.0605
▁vezérel	-11.0611
▁fené	-11.0612
▁csökkenés	-11.0619
válasz	-11.0623
olaj	-11.0625
nivaló	-11.063
▁óv	-11.0643
▁kirak	-11.0648
▁csinálhat	-11.0648
▁optimist	-11.0648
▁odafigyel	-11.0648
▁ragyogó	-11.0648
▁vonatkozik	-11.0648
▁hazugság	-11.0648
▁izraeli	-11.0648
▁képregény	-11.0648
▁palack	-11.0648
▁tömör	-11.0648
▁humor	-11.0648
fúzió	-11.0648
▁látszólag	-11.0648
▁higgy	-11.0648
▁City	-11.0648
▁merev	-11.0649
▁hangsúlyoz	-11.0649
▁zseni	-11.0649
▁másolat	-11.065
▁imádkoz	-11.0651
▁nyereség	-11.0651
▁igazságosság	-11.0653
▁háromszög	-11.0653
▁pillantást	-11.0653
▁veszélyeztetett	-11.0655
▁halálozás	-11.0658
▁felszabadít	-11.0661
▁jósol	-11.0663
▁középkor	-11.0663
▁keressü	-11.0676
▁igénybe	-11.0678
▁vezetője	-11.0681
▁összefog	-11.0682
boly	-11.0683
▁választani	-11.0687
▁étkezés	-11.0688
▁mértékű	-11.069
▁zárva	-11.0694
▁szenvedélyes	-11.0696
termelő	-11.0701
▁húsz	-11.0704
▁Alig	-11.0708
▁csalás	-11.0712
▁szorít	-11.0712
▁Pont	-11.0726
▁feltehet	-11.0755
▁köny	-11.0771
▁mesé	-11.0776
▁Pu	-11.0788
▁Remél	-11.0791
▁érkező	-11.0795
modell	-11.0813
▁szemük	-11.0818
▁udvar	-11.0821
▁1960-	-11.0821
▁Legalább	-11.0821
▁földrengés	-11.0821
▁főemlős	-11.0821
▁paradicsom	-11.0821
▁szimmetriá	-11.0821
▁ragaszkod	-11.0821
▁felajánl	-11.0821
▁lélegez	-11.0821
▁analóg	-11.0821
▁védelmé	-11.0821
▁Jeff	-11.0821
▁2007-	-11.0821
▁megfizet	-11.0821
▁tudatlanság	-11.0821
▁NSA	-11.0821
▁belváros	-11.0821
▁parkoló	-11.0821
▁Nick	-11.0821
▁Martin	-11.0821
▁nyara	-11.0821
▁mellrák	-11.0821
▁hála	-11.0822
▁megváltoztass	-11.0822
▁meggyőződés	-11.0822
▁nyugtalan	-11.0823
▁teremteni	-11.0824
▁emlősök	-11.0824
▁félelmetes	-11.0827
▁barátnő	-11.0828
képzés	-11.0829
▁szelet	-11.0832
▁hotel	-11.0833
▁mondana	-11.0833
▁osztani	-11.0835
választás	-11.084
▁felállít	-11.0849
▁összevet	-11.085
▁értelmezés	-11.0854
▁feksz	-11.0855
▁Bizonyos	-11.0857
hívott	-11.0867
▁elkezdték	-11.087
▁She	-11.0886
▁feltenn	-11.0886
▁szűrő	-11.0889
▁véleményem	-11.0895
▁gyógyítás	-11.0903
▁szabott	-11.0907
▁kívánság	-11.0915
▁bizonytalan	-11.0946
ütés	-11.0955
▁Nyilván	-11.0996
▁1950	-11.0996
▁Ausztráliá	-11.0996
▁Elképesztő	-11.0996
▁bocsánat	-11.0996
▁legnehezebb	-11.0996
▁letartóztat	-11.0996
▁televízió	-11.0996
▁türelm	-11.0996
▁átláthatóság	-11.0996
▁furcsá	-11.0996
▁jellegzetes	-11.0996
▁passzív	-11.0996
▁platform	-11.0996
vándorol	-11.0996
▁kifejlőd	-11.0996
▁nagyságrend	-11.0996
▁animáció	-11.0996
▁értelmé	-11.0996
▁ingatlan	-11.0996
▁Megnéz	-11.0997
▁rámutat	-11.0998
▁szub	-11.0999
▁ösztönzés	-11.1
feledkez	-11.1
▁Naprendszer	-11.1003
▁állapotá	-11.1004
▁felderít	-11.1005
▁kitart	-11.101
▁javítani	-11.101
csábít	-11.1014
▁indok	-11.1019
gyógyász	-11.1023
▁ábrázolás	-11.1043
▁nevelés	-11.1049
▁depressziós	-11.106
▁utód	-11.1063
▁távoz	-11.1064
▁elvesztette	-11.1065
▁kg	-11.1068
méret	-11.1069
változás	-11.1069
vágás	-11.1076
▁észlelés	-11.1082
▁gazdagság	-11.1104
▁képzeljü	-11.1107
▁játszotta	-11.1109
▁fenntarthatóság	-11.1124
▁trükkö	-11.1132
▁elvégz	-11.1137
▁sajt	-11.1143
▁letölt	-11.1144
▁csimpánz	-11.1151
fekt	-11.1155
▁alapszi	-11.1166
▁geo	-11.1166
▁anyák	-11.1168
▁pillant	-11.1169
▁mosoly	-11.1173
▁Szaturnusz	-11.1175
▁feszültség	-11.1175
▁karácsony	-11.1175
▁középiskola	-11.1175
▁ostoba	-11.1175
▁pollen	-11.1175
▁sebezhető	-11.1175
▁Atlanti	-11.1175
▁ráadásul	-11.1175
▁anyukám	-11.1175
▁Kongó	-11.1175
▁kockáztat	-11.1175
▁szoba	-11.1175
▁hosszútáv	-11.1175
▁Megkérdezte	-11.1175
▁szorul	-11.1177
▁tanácsadó	-11.1177
▁változatosság	-11.1177
▁lecké	-11.1179
▁bányá	-11.118
▁mostanra	-11.1181
tábor	-11.1183
▁28	-11.1185
▁alkalm	-11.119
cska	-11.1197
▁dolgozza	-11.1201
▁fúj	-11.1202
▁megváltoztathat	-11.1204
▁találjunk	-11.1208
▁mellye	-11.1219
▁műholda	-11.1229
▁kollégáim	-11.1229
▁használhatjuk	-11.1237
▁hajlamosa	-11.1242
▁vess	-11.1246
▁érdekesebb	-11.1247
▁kedvé	-11.1265
▁tudna	-11.1273
▁aláír	-11.13
jövünk	-11.1315
▁gyógy	-11.132
gazda	-11.1331
▁gondoz	-11.1333
▁beállít	-11.1336
▁érdeklőd	-11.1337
▁hip	-11.1347
▁felirat	-11.1355
▁Rendkívül	-11.1357
▁bűnözés	-11.1357
▁füst	-11.1357
▁hivatkoz	-11.1357
▁legerősebb	-11.1357
▁termelékenység	-11.1357
▁terroristák	-11.1357
▁újdonság	-11.1357
▁nagyapám	-11.1357
▁Míg	-11.1357
▁lassít	-11.1357
▁Párizs	-11.1357
▁kifizet	-11.1357
▁lebont	-11.1357
▁ugyanannyi	-11.1357
▁ökológiai	-11.1357
▁feltűn	-11.1357
▁kiváltság	-11.1357
tartani	-11.1357
▁olasz	-11.1358
▁röp	-11.1359
sorozat	-11.1359
vállalat	-11.1359
elmélet	-11.1359
▁eszme	-11.136
vadász	-11.136
▁jelenlét	-11.136
▁küldeni	-11.136
fokú	-11.1361
▁26	-11.1362
kérdez	-11.1362
autó	-11.1365
▁alapított	-11.1365
▁95	-11.1366
▁hálás	-11.1369
▁érintkez	-11.137
▁kette	-11.1375
▁ura	-11.1378
▁összeoml	-11.1378
▁festék	-11.1382
készítés	-11.1385
▁Bármi	-11.1393
▁adomány	-11.1395
▁folt	-11.1395
▁Megmutat	-11.1396
▁felfed	-11.1398
lövés	-11.141
▁vezér	-11.1412
▁lelke	-11.1418
▁bejut	-11.1437
kódol	-11.1438
▁inter	-11.1442
▁reményked	-11.1453
▁elkövetkez	-11.148
▁jutalma	-11.1482
▁Királyság	-11.1505
▁megérti	-11.1515
▁keresked	-11.1524
▁felelte	-11.1531
lineáris	-11.1542
▁Valahogy	-11.1542
▁akkumulátor	-11.1542
▁böngész	-11.1542
▁egyiptomi	-11.1542
▁integrál	-11.1542
▁kompromisszum	-11.1542
▁kölyök	-11.1542
▁megújuló	-11.1542
▁olyasvalami	-11.1542
▁édesapám	-11.1542
▁elgondolkoz	-11.1542
▁jeges	-11.1542
▁kielégít	-11.1542
▁konyha	-11.1542
▁humán	-11.1542
▁ötödik	-11.1542
▁logikus	-11.1542
▁pasas	-11.1542
▁barna	-11.1542
▁Scott	-11.1542
▁Brun	-11.1542
▁gumi	-11.1543
▁jutalom	-11.1544
▁felszínén	-11.1545
asszony	-11.1548
▁fiatalember	-11.1548
tudós	-11.1548
,3	-11.1548
▁védekez	-11.1549
▁előtérbe	-11.1552
▁emberei	-11.1555
▁visszatekint	-11.1556
▁túlzott	-11.1559
csont	-11.1575
utóbb	-11.1576
▁felhasználásá	-11.1584
▁varázslatos	-11.1591
gess	-11.1591
▁átalakul	-11.1597
▁tenne	-11.1599
▁kontrollál	-11.16
▁karrierem	-11.1603
▁felemelked	-11.1619
▁túlélő	-11.1622
▁számlá	-11.1646
▁fogyatékos	-11.1667
▁vetít	-11.1669
▁Enge	-11.1684
▁elejé	-11.171
▁Jelen	-11.1726
▁Brazília	-11.173
▁Egyiptom	-11.173
▁William	-11.173
▁protosejt	-11.173
▁törékeny	-11.173
Kalifornia	-11.173
▁Brown	-11.173
▁innovatív	-11.173
▁rendellenesség	-11.173
▁szerény	-11.173
▁ápol	-11.173
▁Eddig	-11.173
▁metaforá	-11.1731
▁Válasz	-11.1731
▁felrobban	-11.1731
▁tűzoltó	-11.1731
▁Követ	-11.1731
▁foci	-11.1732
▁égbolt	-11.1732
▁nevetséges	-11.1732
▁Kérdez	-11.1732
▁káosz	-11.1733
fény	-11.1735
▁Másrész	-11.1735
▁kihalás	-11.1737
karod	-11.1739
▁megmaradt	-11.1741
▁ejt	-11.1741
awa	-11.1742
▁Eric	-11.1743
fejlesztés	-11.1743
▁génjei	-11.1745
▁figyelmük	-11.1746
▁tisztáz	-11.1762
▁érzései	-11.1765
▁céljá	-11.1767
fenntartó	-11.1798
▁elménk	-11.1801
▁testvére	-11.1805
▁elpusztul	-11.1843
▁tagad	-11.1847
óniá	-11.1864
▁korlátozott	-11.1883
▁3000	-11.1887
▁ilyes	-11.1889
▁megtámad	-11.1904
▁összeomlás	-11.1909
▁egészségesebb	-11.1918
▁megdöbben	-11.1922
cselekmény	-11.1923
▁katasztrófa	-11.1923
▁katasztrófá	-11.1923
▁vulkán	-11.1923
szivárog	-11.1923
▁Mindössze	-11.1923
▁durva	-11.1923
▁elfogult	-11.1923
▁koncert	-11.1923
▁közegészségügy	-11.1923
▁miniszterelnök	-11.1923
▁panaszkod	-11.1923
▁rajongó	-11.1923
▁Nyilvánvaló	-11.1923
▁földrajzi	-11.1923
▁erdőirtás	-11.1923
▁megsér	-11.1923
▁kiemelkedő	-11.1923
▁magánélet	-11.1923
▁sürg	-11.1923
▁legszebb	-11.1924
▁pokol	-11.1924
▁széndioxid	-11.1924
▁álláspont	-11.1925
▁Második	-11.1926
▁szintetikus	-11.1928
▁titka	-11.1928
▁hiper	-11.1929
▁Továbbá	-11.1929
▁gyalogos	-11.1933
▁szerzett	-11.1933
▁fotóz	-11.1935
▁alapító	-11.1935
▁odajött	-11.1935
gyártás	-11.1939
▁játssz	-11.1947
▁törvényei	-11.1957
▁szélsőséges	-11.1958
sűrűség	-11.1961
▁Minth	-11.1962
▁tartsa	-11.1976
▁alján	-11.1977
távo	-11.2009
▁fontosságá	-11.2019
RB	-11.2027
▁katona	-11.2035
▁megszület	-11.2039
jövedelm	-11.2044
▁eszközei	-11.2063
▁amilye	-11.2078
listá	-11.2083
▁előnyei	-11.2087
▁33	-11.2087
▁betölt	-11.2087
▁rögzített	-11.2092
▁immun	-11.2118
▁leküzd	-11.2119
▁manipulál	-11.2119
▁terjeszked	-11.2119
▁tápanyag	-11.2119
▁alkohol	-11.2119
▁elektród	-11.2119
▁hivatás	-11.2119
▁kontextus	-11.2119
▁krízis	-11.2119
▁mamutfenyő	-11.2119
▁október	-11.2119
▁palesztin	-11.2119
▁visszhang	-11.2119
▁Némely	-11.2119
▁eloszlás	-11.2119
▁lencsé	-11.2119
▁kisfiú	-11.2119
▁végtag	-11.2119
▁Város	-11.2119
▁Korán	-11.212
▁liter	-11.212
▁logika	-11.212
▁fogalmá	-11.212
▁kiterjedt	-11.2121
gráfia	-11.2121
▁kölcsönös	-11.2122
▁körülvev	-11.2122
▁kiszámol	-11.2123
▁szilárd	-11.2123
lesleg	-11.2123
▁hozzáférhető	-11.2123
▁Lehetséges	-11.2124
▁idegrendszer	-11.2125
szóró	-11.2127
▁forráskódú	-11.2128
▁oldani	-11.2132
▁műszer	-11.2133
▁sejtjei	-11.2133
biztonság	-11.2134
▁befolyásolják	-11.2141
▁imp	-11.2143
▁látogató	-11.2144
▁meglátta	-11.2145
▁átgondol	-11.2145
▁szakmá	-11.215
számlál	-11.2157
első	-11.2176
▁bizonytalanság	-11.218
kocká	-11.2181
▁link	-11.2182
▁hida	-11.2191
▁farmer	-11.2197
▁kihagy	-11.2208
▁szélesebb	-11.221
erry	-11.2211
▁előáll	-11.2225
rost	-11.2226
függő	-11.2229
▁kötőd	-11.2231
▁kezdeményezés	-11.2266
▁haszná	-11.2288
▁normá	-11.2301
▁márka	-11.2309
juttat	-11.2309
▁kevered	-11.2317
▁düh	-11.2317
▁Biztonság	-11.2319
▁Boldog	-11.2319
▁Hölgye	-11.2319
▁Smith	-11.2319
▁miniszter	-11.2319
▁mérgező	-11.2319
▁rezgés	-11.2319
fürdő	-11.2319
▁Jézus	-11.2319
▁disznó	-11.2319
▁ázsiai	-11.2319
▁afgán	-11.2319
▁pihen	-11.2319
▁megjegyzés	-11.2319
▁imént	-11.2319
▁enzim	-11.2319
▁2005-	-11.2319
▁Boston	-11.2319
▁péntek	-11.2319
▁őrület	-11.2319
▁beépített	-11.2319
▁polc	-11.2319
▁megdöbbentő	-11.2319
▁kivitelez	-11.232
▁ennivaló	-11.232
▁metán	-11.232
köp	-11.2321
zéró	-11.2321
▁elrejt	-11.2322
▁tolla	-11.2322
▁megóv	-11.2323
▁csökkenteni	-11.2324
▁Visszatér	-11.2326
▁Benne	-11.2326
éghajlatváltozás	-11.2332
▁lecsökken	-11.2334
▁jelenthet	-11.2336
▁sima	-11.2339
osztály	-11.2339
szerkezet	-11.234
Amerika	-11.234
verseny	-11.234
jogi	-11.2342
▁roml	-11.2343
▁anyja	-11.2345
▁mozi	-11.2351
támadás	-11.2361
▁részesül	-11.2365
▁lelké	-11.2389
▁övé	-11.2389
▁régebb	-11.239
▁átmen	-11.2417
▁okosabb	-11.2431
használó	-11.2432
lmát	-11.2438
▁megközelít	-11.2461
▁elvesztett	-11.2466
▁mesélje	-11.2476
▁báb	-11.2489
özön	-11.2489
▁ága	-11.2495
▁teleszkóp	-11.2523
csempész	-11.2523
▁Cambridge	-11.2523
▁Fantasztikus	-11.2523
▁hajléktalan	-11.2523
▁Elképzel	-11.2523
▁hülye	-11.2523
▁jéghegy	-11.2523
▁tablet	-11.2523
▁hardver	-11.2523
▁megőriz	-11.2523
▁középpontjá	-11.2523
▁lemásol	-11.2523
▁Kevin	-11.2523
▁végignéz	-11.2523
▁puha	-11.2523
▁cukorbetegség	-11.2523
▁Alex	-11.2523
▁rejtőz	-11.2524
▁rizs	-11.2524
▁középső	-11.2525
▁járművek	-11.2526
▁összeszed	-11.2528
▁Bush	-11.2528
ecske	-11.2529
▁távolabb	-11.2534
▁hozzu	-11.2535
▁Mutato	-11.2536
▁beültet	-11.2539
megosztás	-11.2544
következő	-11.2547
szabadít	-11.255
hús	-11.255
▁képei	-11.2559
▁hallgatóság	-11.2569
▁tanulmányozásá	-11.259
futás	-11.2655
▁utó	-11.266
well	-11.2686
▁adományoz	-11.2687
▁telepít	-11.2707
▁dohány	-11.273
protézis	-11.2731
▁1970-	-11.2731
▁Andrew	-11.2731
▁Microsoft	-11.2731
▁elegáns	-11.2731
▁feküd	-11.2731
▁labda	-11.2731
▁legérdekesebb	-11.2731
▁okostelefon	-11.2731
▁piramis	-11.2731
▁tinédzser	-11.2731
▁június	-11.2731
▁szappan	-11.2731
▁zaklat	-11.2731
▁Korább	-11.2731
▁tumor	-11.2731
▁alkoss	-11.2731
▁cápá	-11.2731
▁delfin	-11.2732
▁Brian	-11.2732
▁családtag	-11.2732
▁Latin	-11.2732
▁benzin	-11.2732
▁költészet	-11.2733
▁idegtudomány	-11.2733
▁eldöntötte	-11.2734
▁józan	-11.2734
▁Komoly	-11.2736
▁költött	-11.274
▁effél	-11.2741
▁összekapcsolód	-11.2744
▁teendő	-11.2747
▁küldött	-11.2749
▁halmoz	-11.2752
▁evez	-11.2762
▁élje	-11.2762
értelmez	-11.2762
▁tájá	-11.2778
▁Henr	-11.2784
▁odá	-11.2787
alkotó	-11.2793
▁Honn	-11.2849
▁elvont	-11.2862
tessük	-11.2867
▁elgondolkodta	-11.287
▁ütközés	-11.2873
▁számítana	-11.2901
▁barátaink	-11.2931
▁boldogabb	-11.2931
vándorlás	-11.2944
▁Függ	-11.2944
▁aktivista	-11.2944
▁baseball	-11.2944
▁bolond	-11.2944
▁homlok	-11.2944
▁impulzus	-11.2944
▁jótékonyság	-11.2944
▁kanadai	-11.2944
▁legizgalmasabb	-11.2944
▁megsemmisít	-11.2944
▁regény	-11.2944
▁unokái	-11.2944
▁összegyűl	-11.2944
▁Létrehoz	-11.2944
▁bátyám	-11.2944
▁előidéz	-11.2944
▁rizikó	-11.2944
▁spórol	-11.2944
▁Justin	-11.2944
▁duplá	-11.2944
▁próba	-11.2944
▁veterán	-11.2944
▁medvé	-11.2944
▁ókori	-11.2944
▁logiká	-11.2944
▁éhes	-11.2944
▁szakmai	-11.2944
▁zajlott	-11.2944
▁tized	-11.2945
▁gombák	-11.2945
▁rakéta	-11.2945
▁szikla	-11.2945
▁figyelmét	-11.2945
▁Gates	-11.2945
▁kimerül	-11.2945
▁informál	-11.2946
▁Bárki	-11.2948
▁Közös	-11.2948
▁brut	-11.2951
▁többségé	-11.2952
▁sms	-11.2953
almasabb	-11.2954
▁hamisít	-11.2954
▁tízszer	-11.2959
▁55	-11.296
▁érdekei	-11.2966
▁fúr	-11.2966
bajnok	-11.2966
▁alól	-11.2973
fejlesztő	-11.2975
afrikai	-11.2979
család	-11.2979
réteg	-11.298
tömeg	-11.2981
▁haszno	-11.2982
▁Test	-11.2986
doboz	-11.2993
kedő	-11.2995
▁gyalogol	-11.3003
▁jövőbel	-11.3004
▁jöjje	-11.3007
▁elérésé	-11.3012
▁fogyatékosság	-11.3016
▁öngyilkos	-11.3025
▁fejlődésé	-11.306
▁Ember	-11.3066
áramlás	-11.3073
ejtő	-11.3092
formáció	-11.3105
▁észrevenn	-11.3106
▁akármi	-11.3129
sszák	-11.3143
alkotás	-11.3149
▁Külön	-11.316
▁klíma	-11.3161
▁Elhatározt	-11.3161
▁MRI	-11.3161
▁döbben	-11.3161
▁fosszili	-11.3161
▁intellektuális	-11.3161
▁nyilatkoz	-11.3161
▁objektív	-11.3161
▁szendvics	-11.3161
▁üdvöz	-11.3161
▁bevándorló	-11.3161
▁fedélzet	-11.3161
▁nagylelkű	-11.3161
▁perspektívá	-11.3161
▁tünetei	-11.3161
▁elsajátít	-11.3161
▁bővít	-11.3161
▁drót	-11.3161
▁függőleges	-11.3162
▁cukro	-11.3162
▁létezhet	-11.3162
jössz	-11.3162
▁emészt	-11.3162
▁szerszám	-11.3162
▁műalkotás	-11.3162
▁génállomány	-11.3163
▁vegyület	-11.3163
▁Remek	-11.3163
▁tankönyv	-11.3164
▁bátra	-11.3164
▁szövetséges	-11.3165
▁hull	-11.3165
▁beszáll	-11.3166
▁reménytelen	-11.3169
▁valószínűtlen	-11.317
▁akármilyen	-11.3174
▁létrejött	-11.3175
▁bombáz	-11.3175
▁magyarázza	-11.3181
▁biológusok	-11.3182
sebesség	-11.3201
közösség	-11.3201
korszak	-11.3201
▁autist	-11.3209
előre	-11.3213
,6	-11.3225
▁elvezet	-11.3238
▁kötele	-11.3247
jelentés	-11.3267
▁engedélyez	-11.3269
▁Megváltoztat	-11.3271
▁döntései	-11.3279
▁szülés	-11.3279
szolgáltató	-11.3287
▁Nagyjáb	-11.3295
szférá	-11.3305
leves	-11.3316
gyűjtés	-11.3318
Britanniá	-11.3332
▁emelkedés	-11.335
▁emlős	-11.3362
▁áramkör	-11.3379
▁röntgen	-11.3384
▁aktivistá	-11.3384
▁fantáziá	-11.3384
▁felgyorsít	-11.3384
▁frekvenciá	-11.3384
▁garantál	-11.3384
▁influenza	-11.3384
▁rettenetes	-11.3384
▁ráébred	-11.3384
▁Oxford	-11.3384
▁fényképezőgép	-11.3384
▁hektár	-11.3384
▁mellékhatás	-11.3384
▁üldöz	-11.3384
▁Művész	-11.3384
▁elhízás	-11.3384
▁himlő	-11.3384
▁izgalom	-11.3384
▁sertés	-11.3384
▁december	-11.3384
▁Szép	-11.3384
▁dallam	-11.3384
▁operáció	-11.3384
▁svéd	-11.3384
▁gyógymód	-11.3384
▁póló	-11.3384
▁Peter	-11.3385
▁latin	-11.3385
▁Innen	-11.3385
▁étterme	-11.3385
▁dohányzás	-11.3385
▁ásvány	-11.3386
▁jellemez	-11.3387
▁győződ	-11.3388
▁zsúfolt	-11.3388
▁képződ	-11.3389
▁fogalom	-11.3389
▁csomópont	-11.339
▁Térj	-11.339
▁lábnyom	-11.3391
▁rakétá	-11.3391
▁elkülönít	-11.3393
▁Port	-11.3402
▁jöv	-11.3402
politika	-11.3428
kibocsátás	-11.3428
felület	-11.3429
▁fogyasztók	-11.345
▁építene	-11.3454
biztosítás	-11.3482
▁szemléltet	-11.3487
érzünk	-11.353
einte	-11.3537
▁közleked	-11.3537
▁kontroll	-11.354
▁hozzászok	-11.3547
rmadszor	-11.3579
▁Megfigyel	-11.3602
▁gazdálkod	-11.3603
▁Legtöbb	-11.3606
▁terror	-11.361
▁inzulin	-11.3611
▁2050-	-11.3611
▁Lenyűgöző	-11.3611
▁National	-11.3611
▁bambusz	-11.3611
▁bonobó	-11.3611
▁bántalmaz	-11.3611
▁herceg	-11.3611
▁tragikus	-11.3611
▁variáció	-11.3611
▁vázlat	-11.3611
▁bűnözők	-11.3611
▁Nemzetközi	-11.3611
▁Addig	-11.3611
▁szobor	-11.3611
▁vitatkoz	-11.3611
▁2006-	-11.3611
▁mellkas	-11.3611
▁rekord	-11.3611
▁chip	-11.3611
tapint	-11.3611
▁kövess	-11.3611
▁elektronika	-11.3611
▁termékeny	-11.3612
▁Apám	-11.3612
▁körülnéz	-11.3612
meccs	-11.3612
▁élénk	-11.3612
▁jelenlévő	-11.3612
▁farka	-11.3613
▁részecske	-11.3613
▁szívbetegség	-11.3613
▁kötelező	-11.3614
▁mosolyog	-11.3614
▁magzat	-11.3615
▁elgondolás	-11.3617
▁szerkesztő	-11.3618
▁érzelem	-11.3618
▁töreksz	-11.362
▁rabszolgaság	-11.3639
bukkan	-11.3645
gyűjtő	-11.3648
▁oltás	-11.3649
mérnök	-11.3661
vezeték	-11.3661
▁biztat	-11.3662
▁nálu	-11.3688
▁Várj	-11.3706
▁érezhet	-11.3712
▁megváltoztatásá	-11.3746
▁neuro	-11.3751
született	-11.3757
▁öngyilkosság	-11.3757
tudatos	-11.377
▁gyanú	-11.3841
▁ifjú	-11.3843
▁legegyszerűbb	-11.3843
▁paradox	-11.3843
▁villany	-11.3843
szekrény	-11.3843
trópusi	-11.3843
▁diploma	-11.3843
▁hibrid	-11.3843
▁implantátum	-11.3843
▁karikatúr	-11.3843
▁megbetegedés	-11.3843
▁megvalósul	-11.3843
▁narancs	-11.3843
▁optimizmus	-11.3843
▁pocsék	-11.3843
▁skizofrén	-11.3843
▁felesleges	-11.3843
▁feljegyzés	-11.3843
▁részvény	-11.3843
▁jellemzi	-11.3843
▁2020-	-11.3843
▁mutáció	-11.3844
▁cápa	-11.3844
▁csirké	-11.3844
▁betekintés	-11.3844
▁Mesél	-11.3844
▁ügynökség	-11.3844
▁lecke	-11.3844
kagyló	-11.3844
▁minőségű	-11.3844
▁Változ	-11.3844
▁elmélked	-11.3844
▁belenéz	-11.3845
▁ismétlőd	-11.3845
▁Anyám	-11.3845
▁Épít	-11.3846
▁fogyasztói	-11.3846
▁verseng	-11.3846
▁úttörő	-11.3846
▁átnéz	-11.3846
▁Központ	-11.3846
▁domb	-11.3847
,7	-11.3848
▁Világbank	-11.3849
▁alázat	-11.3851
▁Elmondo	-11.3853
▁köztü	-11.3858
▁cserébe	-11.3858
▁Valah	-11.3859
▁csata	-11.3865
▁tervei	-11.3882
áramlat	-11.389
csomag	-11.3899
összeg	-11.3899
▁akadályoz	-11.3908
▁giga	-11.3923
vezetés	-11.3929
begyűjt	-11.394
kezdődött	-11.396
sértés	-11.3969
▁felolvas	-11.397
▁összeállít	-11.3979
▁emlékei	-11.4007
ogató	-11.4008
▁édesanyj	-11.4013
▁üzen	-11.4017
▁növ	-11.4048
▁mikrobi	-11.4056
▁veszélyeztet	-11.4072
▁Tény	-11.4077
▁készíthet	-11.408
▁védőoltás	-11.4082
nadrág	-11.4082
Ázsia	-11.4082
▁Dávid	-11.4082
▁Fehér	-11.4082
▁Manhattan	-11.4082
▁Szabad	-11.4082
▁Tanács	-11.4082
▁World	-11.4082
▁autonóm	-11.4082
▁csokoládé	-11.4082
▁harminc	-11.4082
▁helikopter	-11.4082
▁humanitárius	-11.4082
▁koncentráció	-11.4082
▁luxus	-11.4082
▁memória	-11.4082
▁oxytocin	-11.4082
▁vezérigazgató	-11.4082
▁éhínség	-11.4082
▁CRISPR	-11.4082
▁Dolgoz	-11.4082
▁serdülő	-11.4082
▁cseleksz	-11.4082
▁kapitány	-11.4082
▁rombol	-11.4082
wood	-11.4082
▁roham	-11.4082
▁mozdulatlan	-11.4082
▁infó	-11.4082
▁ágazat	-11.4082
▁polgárháború	-11.4083
▁pszichológiai	-11.4083
▁folyosó	-11.4083
▁nyersanyag	-11.4083
▁ellop	-11.4083
▁benyomás	-11.4083
▁extra	-11.4083
▁csónak	-11.4083
▁beleegyez	-11.4084
▁évszak	-11.4084
▁töreked	-11.4084
▁áramkörök	-11.4086
▁modelljé	-11.4087
▁válogat	-11.4092
▁kivetít	-11.4097
▁fennáll	-11.4103
▁Hans	-11.4107
▁gazdák	-11.4111
percenként	-11.4115
▁képlet	-11.4116
▁összetart	-11.4122
▁csatá	-11.4141
kísérlet	-11.4143
ugyan	-11.4144
válság	-11.4145
kötött	-11.4153
gtöbbször	-11.4161
▁kifejleszt	-11.4175
▁fedezte	-11.4184
▁peté	-11.4188
olvaszt	-11.4191
▁alakította	-11.422
segítő	-11.422
▁végződ	-11.4228
▁akartu	-11.4229
▁fehérjé	-11.4236
mániá	-11.4259
▁tilt	-11.4265
▁mágnes	-11.4302
▁Hallotta	-11.4311
▁bűvész	-11.4325
▁elavult	-11.4325
▁megküzd	-11.4325
▁Fiatal	-11.4325
▁Leonardo	-11.4325
▁durván	-11.4325
▁empátia	-11.4325
▁hormon	-11.4325
▁kórokozó	-11.4325
▁küszköd	-11.4325
▁megbirkóz	-11.4325
▁micélium	-11.4325
▁rémisztő	-11.4325
szőnyeg	-11.4325
▁Hawaii	-11.4325
▁Könyv	-11.4325
▁Orvos	-11.4325
▁immár	-11.4325
▁kikötő	-11.4325
▁1980-	-11.4325
▁lámpa	-11.4325
▁hallgass	-11.4326
▁irodalom	-11.4326
▁bútor	-11.4326
▁Gabby	-11.4326
▁Melyik	-11.4326
▁vakciná	-11.4326
▁hibáztat	-11.4326
▁amatőr	-11.4326
▁Gyermek	-11.4327
▁alagút	-11.4327
▁Titán	-11.4327
▁magabiztos	-11.4327
▁behatol	-11.4328
▁sereg	-11.433
pötty	-11.433
▁végzős	-11.4331
▁haszna	-11.4332
▁megalapoz	-11.4332
▁csapdá	-11.4336
▁felszáll	-11.4337
perccel	-11.4339
usztrália	-11.4348
▁foto	-11.4349
felsőbb	-11.4353
▁randi	-11.436
▁címlap	-11.4365
▁fejlesztésé	-11.4389
hallgató	-11.4393
növény	-11.4393
kezelés	-11.4393
akaszt	-11.4402
kezes	-11.4425
negyed	-11.4443
▁hajlam	-11.4499
▁előállításá	-11.4507
▁felmér	-11.451
elképzelhetetlen	-11.4537
▁front	-11.4558
▁megfertőz	-11.4568
Í	-11.4573
atórium	-11.4575
szindrómá	-11.4575
▁billentyű	-11.4575
▁brazil	-11.4575
▁felébred	-11.4575
▁fesztivál	-11.4575
▁féltékeny	-11.4575
▁hallucináció	-11.4575
▁hipotézis	-11.4575
▁kombinál	-11.4575
▁médium	-11.4575
▁tengeralattjáró	-11.4575
▁üvegházhatás	-11.4575
▁Kanada	-11.4575
▁illusztrál	-11.4575
▁konnektom	-11.4575
▁létesítmény	-11.4575
▁létfontosságú	-11.4575
▁minimális	-11.4575
▁november	-11.4575
▁esztétika	-11.4575
▁kisgyerek	-11.4575
▁bogár	-11.4576
kupac	-11.4576
▁kézirat	-11.4576
▁lufi	-11.4576
▁másodpercenként	-11.4576
▁Moore	-11.4576
▁eszmék	-11.4576
▁marha	-11.4576
▁korallok	-11.4576
▁terrorista	-11.4576
▁megaláz	-11.4576
▁szúnyogháló	-11.4577
▁figyelemreméltó	-11.4577
▁falvak	-11.4578
▁Julia	-11.4579
▁the	-11.458
▁szerkezeté	-11.4589
▁megválaszt	-11.4592
▁kémiá	-11.4593
▁bukás	-11.4593
▁húzód	-11.4598
,4	-11.4611
▁megértsé	-11.4614
▁működőképes	-11.4618
▁Haiti	-11.4623
▁utunk	-11.464
üveg	-11.4648
papír	-11.4649
fehér	-11.4649
▁izmo	-11.4655
ound	-11.4666
kezelő	-11.4667
▁láss	-11.4687
▁kereté	-11.4715
átültetés	-11.4719
zintén	-11.4722
hasad	-11.473
népszerűbb	-11.4744
▁gyalog	-11.4748
▁következtet	-11.4769
▁felszerel	-11.4774
▁étkez	-11.4775
hessé	-11.4779
olvasható	-11.4787
▁valamely	-11.4803
▁kanyar	-11.482
▁Bibliá	-11.4832
▁index	-11.4832
▁paradigmá	-11.4832
specifikus	-11.4832
▁Clinton	-11.4832
▁elhanyagol	-11.4832
▁feminista	-11.4832
▁kenyai	-11.4832
▁kitűnő	-11.4832
▁kábítószer	-11.4832
▁megerőszakol	-11.4832
▁megélhetés	-11.4832
▁napenergiá	-11.4832
▁origami	-11.4832
▁republikánus	-11.4832
▁spirituális	-11.4832
▁svájci	-11.4832
▁sürgősségi	-11.4832
▁vacsora	-11.4832
▁Black	-11.4832
▁búcsú	-11.4832
▁elhunyt	-11.4832
▁iPod	-11.4832
▁értetődő	-11.4832
▁Kürosz	-11.4832
▁Szuper	-11.4832
▁tigris	-11.4832
▁összeköttetés	-11.4832
▁kalóz	-11.4832
▁legmélyebb	-11.4832
▁ketrec	-11.4832
▁Indus	-11.4832
▁megfordul	-11.4832
▁figyelmünket	-11.4832
▁klub	-11.4832
▁táská	-11.4832
▁emleget	-11.4832
▁haldokl	-11.4832
▁körzet	-11.4833
▁adósság	-11.4833
▁ötven	-11.4833
▁immunrendszer	-11.4834
▁hazám	-11.4834
▁dühös	-11.4834
▁dönteni	-11.4834
▁franciá	-11.4835
▁dől	-11.4837
tartály	-11.4837
▁funkcionál	-11.4856
▁kortárs	-11.4857
▁aludt	-11.4862
▁izgat	-11.4866
vállalás	-11.4871
pakol	-11.4894
béli	-11.4895
növekedés	-11.4913
park	-11.4922
▁elérkez	-11.4943
fajtá	-11.4949
▁vegyé	-11.4974
▁összességé	-11.5
▁érezz	-11.5031
▁alternatívá	-11.5042
▁kultúrájá	-11.5084
▁kibontakoz	-11.5095
▁LED	-11.5095
▁aktuális	-11.5095
▁automatizál	-11.5095
▁biodiverzitás	-11.5095
▁döntéshozatal	-11.5095
▁esküvő	-11.5095
▁leghatékonyabb	-11.5095
▁londoni	-11.5095
▁optikai	-11.5095
▁produkál	-11.5095
▁rehabilitáció	-11.5095
▁támogass	-11.5095
▁töpreng	-11.5095
▁vasárnap	-11.5095
▁ősrobbanás	-11.5095
▁parlament	-11.5095
▁parányi	-11.5095
▁szituáció	-11.5095
▁titokzatos	-11.5095
▁Norden	-11.5095
▁védelmez	-11.5095
▁felidéz	-11.5095
▁Ádám	-11.5095
▁pincé	-11.5095
▁pohár	-11.5095
▁donor	-11.5095
▁metró	-11.5095
▁kosár	-11.5095
▁szükségletei	-11.5095
▁Gép	-11.5095
▁retteg	-11.5095
▁hiába	-11.5096
▁Norm	-11.5096
▁étrend	-11.5097
▁Bumm	-11.5097
▁csontváz	-11.5097
▁építőelem	-11.5097
▁szabvány	-11.5098
▁megmenteni	-11.5098
▁felépül	-11.5098
▁kincs	-11.5099
▁gyógyulás	-11.5102
▁mozgósít	-11.511
▁landol	-11.5115
▁Anyu	-11.5139
▁Homo	-11.514
alapvetőbb	-11.5164
csík	-11.5168
▁érkezte	-11.5169
érzékelő	-11.5182
csatorná	-11.5182
way	-11.5253
▁fiá	-11.5264
▁gyümölcsö	-11.527
pusztulás	-11.5327
▁elérjü	-11.5346
▁Parkinson	-11.5365
▁Philip	-11.5365
▁Chicago	-11.5365
▁Gyönyörű	-11.5365
▁bemutass	-11.5365
▁bináris	-11.5365
▁bizarr	-11.5365
▁empátiá	-11.5365
▁forradalmi	-11.5365
▁konferencia	-11.5365
▁kénytelen	-11.5365
▁megköszö	-11.5365
▁tapír	-11.5365
▁zsiger	-11.5365
▁zűrzavar	-11.5365
▁Görögország	-11.5365
▁Olaszország	-11.5365
▁nedves	-11.5365
▁pilóta	-11.5365
fagyaszt	-11.5365
▁felhalmoz	-11.5365
▁szemtanú	-11.5365
▁erény	-11.5365
▁március	-11.5365
▁Utána	-11.5365
▁kerítés	-11.5366
▁cipel	-11.5366
▁szövetségi	-11.5366
Korea	-11.5366
▁Kettő	-11.5367
▁Elvesz	-11.5367
fagyott	-11.5368
▁elhalad	-11.5368
▁hihet	-11.5371
▁gőz	-11.5374
▁lefed	-11.5377
▁ellentmond	-11.5389
▁West	-11.5407
lévő	-11.5421
▁töltene	-11.5422
politiká	-11.546
▁Mostaná	-11.5485
▁megjelenésé	-11.5502
▁kiegészít	-11.5587
▁középosztály	-11.559
▁társadalm	-11.5607
▁elmenne	-11.5627
▁osztályterem	-11.5634
▁kiszolgál	-11.5638
▁kvantum	-11.5643
▁pixel	-11.5643
medencé	-11.5643
pazarlás	-11.5643
söpör	-11.5643
▁Kennedy	-11.5643
▁Kevesebb	-11.5643
▁Kíváncsi	-11.5643
▁extrém	-11.5643
▁hüvelykujj	-11.5643
▁krónikus	-11.5643
▁kukorica	-11.5643
▁leggazdagabb	-11.5643
▁leggyakoribb	-11.5643
▁membrán	-11.5643
▁roppant	-11.5643
▁szitakötő	-11.5643
▁tragédiá	-11.5643
▁tranzakció	-11.5643
▁tüzel	-11.5643
▁ultrahang	-11.5643
▁visszacsatolás	-11.5643
▁Ország	-11.5643
▁Svájc	-11.5643
▁bűntudat	-11.5643
▁elhinni	-11.5643
▁felülmúl	-11.5643
▁garázs	-11.5643
▁Találkozta	-11.5643
▁vonatkozás	-11.5643
▁hasonlat	-11.5643
▁ingadoz	-11.5643
▁tartózkod	-11.5643
▁öntöz	-11.5643
▁Kapcsol	-11.5643
▁előrelépés	-11.5643
▁Egészségügy	-11.5643
▁relatív	-11.5643
▁portré	-11.5643
▁kötelesség	-11.5643
▁áldás	-11.5643
▁modul	-11.5643
▁torzít	-11.5643
▁mamut	-11.5644
▁észrevetté	-11.5644
▁hatóságok	-11.5644
▁fáradt	-11.5645
▁protein	-11.5645
▁fiók	-11.5646
▁szétvál	-11.5646
▁észrevesz	-11.5648
fejteni	-11.5648
▁felnéz	-11.5649
▁elrendez	-11.5655
▁Természet	-11.5669
emelkedett	-11.5692
▁Idé	-11.5727
vásárol	-11.5746
Afrika	-11.5746
történész	-11.575
▁szétszór	-11.5754
nyílik	-11.5758
▁kialakításá	-11.5761
▁megnyíl	-11.5794
▁érezté	-11.5829
▁megkérte	-11.5842
▁Harmad	-11.5845
▁Kére	-11.5867
nyelvű	-11.5884
▁költene	-11.589
▁összeáll	-11.5903
▁farag	-11.5919
▁potenciál	-11.5922
effektus	-11.5929
▁Charlie	-11.5929
▁Etiópi	-11.5929
▁csekély	-11.5929
▁február	-11.5929
▁hasmenés	-11.5929
▁installáció	-11.5929
▁jóváhagy	-11.5929
▁kaliforni	-11.5929
▁mexikói	-11.5929
▁méltányos	-11.5929
▁neurológiai	-11.5929
▁periódus	-11.5929
▁pompás	-11.5929
▁precíz	-11.5929
▁privát	-11.5929
▁szubjektív	-11.5929
▁széleskörű	-11.5929
▁sárkány	-11.5929
▁villamos	-11.5929
▁ébreszt	-11.5929
▁összeesküvés	-11.5929
▁Norvég	-11.5929
▁Vizsgál	-11.5929
▁csalódás	-11.5929
▁fecskendő	-11.5929
▁megígér	-11.5929
▁mosógép	-11.5929
▁tréning	-11.5929
▁tájékoztat	-11.5929
▁történelmünk	-11.5929
▁FBI	-11.5929
▁bébi	-11.5929
▁lerombol	-11.5929
▁együttérző	-11.5929
▁jelentéktelen	-11.5929
▁lelassít	-11.5929
▁alkotmány	-11.5929
▁Albert	-11.5929
▁opera	-11.5929
▁megtiszteltetés	-11.5929
▁csésze	-11.5929
▁Alkalma	-11.5929
▁mondogat	-11.5929
▁taxi	-11.5929
▁elkülönül	-11.5929
fullad	-11.5929
▁Delhi	-11.593
▁átfogó	-11.593
▁bomba	-11.593
▁Jones	-11.593
▁edző	-11.5932
lbum	-11.5934
▁kifogás	-11.5935
▁ügylet	-11.5935
▁ketté	-11.5936
▁elkészült	-11.5938
gazdálkodás	-11.5939
▁észrevehet	-11.5945
▁hajtogat	-11.5952
keresés	-11.5954
▁egyeztet	-11.5956
▁kiszáll	-11.5974
Britanni	-11.6001
harmada	-11.6009
vezérlő	-11.6015
▁hittü	-11.6021
▁számítástechnik	-11.6036
kormányzat	-11.6037
▁őszinté	-11.6051
tároló	-11.6061
▁sarká	-11.6067
jelentősebb	-11.611
elénk	-11.613
szféra	-11.6177
▁sújt	-11.6221
▁Történet	-11.6223
▁arckifejezés	-11.6223
▁gabona	-11.6223
▁szinapszis	-11.6223
kölykö	-11.6223
olumbia	-11.6223
▁Jupiter	-11.6223
▁Mindkettő	-11.6223
▁Szingapúr	-11.6223
▁Szövetség	-11.6223
▁csirke	-11.6223
▁július	-11.6223
▁katasztrofális	-11.6223
▁koponyá	-11.6223
▁megtörténni	-11.6223
▁meredek	-11.6223
▁riporter	-11.6223
▁szimulál	-11.6223
▁zongorá	-11.6223
▁önéletrajz	-11.6223
toleranci	-11.6223
▁Ugandá	-11.6223
▁metafora	-11.6223
▁nagykövet	-11.6223
▁sofőr	-11.6223
▁Hivatal	-11.6223
▁Személy	-11.6223
▁önzetlen	-11.6223
▁aludni	-11.6223
▁kártya	-11.6223
▁állítólag	-11.6223
▁ötször	-11.6223
▁folyóirat	-11.6223
▁lift	-11.6223
▁nagyszülei	-11.6223
▁füve	-11.6223
▁torony	-11.6223
▁áthalad	-11.6224
▁egyezmény	-11.6224
▁Egyedül	-11.6224
▁tányér	-11.6224
▁Dob	-11.6224
▁pánik	-11.6224
▁semleges	-11.6224
▁Elnéz	-11.6224
▁mérges	-11.6224
▁Halál	-11.6225
▁megemlít	-11.6227
▁függvényé	-11.6237
▁gyomr	-11.6238
▁vihet	-11.6258
▁Megkér	-11.626
▁Elmente	-11.6268
▁nemsoká	-11.6272
▁kezdeményez	-11.6302
▁édesany	-11.6309
virág	-11.6344
csúcs	-11.6344
kultúrá	-11.6344
sebész	-11.6356
főz	-11.639
▁megnyilvánul	-11.6414
▁áldoz	-11.6477
▁korszaká	-11.6482
▁némely	-11.6496
▁körülvesz	-11.6497
kevésb	-11.6514
▁iroda	-11.6517
▁természetvédelm	-11.6518
spirál	-11.6525
▁Everest	-11.6526
▁Seattle	-11.6526
legcsodálatosabb	-11.6526
▁Apollo	-11.6526
▁Disney	-11.6526
▁Folyamatos	-11.6526
▁Gandhi	-11.6526
▁Geographic	-11.6526
▁Különböző	-11.6526
▁LHC	-11.6526
▁SETI	-11.6526
▁Spanyolország	-11.6526
▁demográfiai	-11.6526
▁demokratizál	-11.6526
▁ejtőernyő	-11.6526
▁fraktál	-11.6526
▁fórum	-11.6526
▁geometria	-11.6526
▁hamburger	-11.6526
▁lefényképez	-11.6526
▁leopárd	-11.6526
▁megtévesztés	-11.6526
▁parazitá	-11.6526
▁rabszolgá	-11.6526
▁szimmetria	-11.6526
▁szimmetrikus	-11.6526
▁történetmesélés	-11.6526
▁unokatestvér	-11.6526
▁összhang	-11.6526
▁Detroit	-11.6526
▁kötelezettség	-11.6526
▁tünetek	-11.6526
▁éhség	-11.6526
▁fölismer	-11.6526
▁Nagyobb	-11.6526
▁kötelék	-11.6526
▁táblázat	-11.6526
▁kimenetel	-11.6526
▁spontán	-11.6526
▁kiabál	-11.6526
spektr	-11.6526
▁gyújt	-11.6526
▁remeg	-11.6526
▁heves	-11.6526
▁átmérőj	-11.6526
▁izzó	-11.6526
▁fivér	-11.6527
▁keser	-11.6527
▁skót	-11.6527
▁tabu	-11.6527
▁tevék	-11.6527
feldolgozó	-11.6527
léptékű	-11.6528
▁Tervez	-11.6528
▁parancsol	-11.6529
▁eltakar	-11.6529
▁elroml	-11.6529
▁titká	-11.653
▁fészke	-11.6531
▁járkál	-11.6534
▁nézeget	-11.6534
▁forgalma	-11.6537
▁csoportjá	-11.655
▁béká	-11.6553
▁terjedésé	-11.6555
-50	-11.6565
▁szerezte	-11.6608
tapasz	-11.6646
törvény	-11.6656
felhő	-11.6657
kamerá	-11.6657
▁alakjá	-11.6667
fűz	-11.6669
▁átültet	-11.6674
▁tonná	-11.6689
▁hozzájut	-11.6696
▁áramo	-11.6717
műsor	-11.6731
▁rabszolga	-11.68
▁erőmű	-11.6828
▁mutas	-11.6835
▁kétségbeesett	-11.6838
▁Celsius	-11.6838
▁bitcoin	-11.6838
▁hegedű	-11.6838
▁mérsékelt	-11.6838
menedzser	-11.6838
szekvenciá	-11.6838
tenyésztés	-11.6838
▁agykéreg	-11.6838
▁horizont	-11.6838
▁ideiglenes	-11.6838
▁legnagyszerűbb	-11.6838
▁megnyugtat	-11.6838
▁norvég	-11.6838
▁sokszínűség	-11.6838
▁szkeptikus	-11.6838
▁tengerpart	-11.6838
▁tranzisztor	-11.6838
▁trillió	-11.6838
▁univerzális	-11.6838
▁kráter	-11.6838
▁rekonstruál	-11.6838
▁szorongás	-11.6838
▁vitorlá	-11.6838
▁Tudományos	-11.6838
▁trauma	-11.6838
▁Amennyi	-11.6839
▁Légy	-11.6839
▁megörökít	-11.6839
▁csontvelő	-11.6839
▁jövedelmű	-11.6839
▁előrehalad	-11.6839
▁homályos	-11.6839
▁felnevel	-11.6839
▁jegyzete	-11.6839
▁klip	-11.6839
▁kijelöl	-11.6839
▁Játsz	-11.6839
▁temetés	-11.684
▁felsorol	-11.684
▁felszámol	-11.6841
▁apuká	-11.6841
▁becsapód	-11.6844
▁Blue	-11.6844
▁Bemutat	-11.6846
▁besétál	-11.6849
▁tanulmányozzu	-11.6857
▁körforgás	-11.6866
▁megértse	-11.6884
▁sugároz	-11.6891
▁Megmutato	-11.6896
▁bőve	-11.6901
▁előkészít	-11.6931
találtuk	-11.6947
jutalmaz	-11.6958
gyilkos	-11.6976
Á	-11.6978
▁betilt	-11.7027
▁leegyszerűsít	-11.7038
▁Elvég	-11.7052
▁véglet	-11.7053
▁hiányá	-11.707
▁barátjá	-11.7085
▁hátrány	-11.7119
finanszírozás	-11.7137
▁rajt	-11.7153
▁kristály	-11.7158
▁Meglepő	-11.7161
rezisztenci	-11.7161
▁Hollywood	-11.7161
▁Stephen	-11.7161
▁Tökéletes	-11.7161
▁absztrakt	-11.7161
▁alapötlet	-11.7161
▁alátámaszt	-11.7161
▁augusztus	-11.7161
▁beindul	-11.7161
▁felfigyel	-11.7161
▁filozófiai	-11.7161
▁frusztrál	-11.7161
▁húrelmélet	-11.7161
▁katolikus	-11.7161
▁komplikált	-11.7161
▁korrupt	-11.7161
▁közvélemény	-11.7161
▁legveszélyesebb	-11.7161
▁pakisztáni	-11.7161
▁romantikus	-11.7161
▁rosszindulatú	-11.7161
▁serkent	-11.7161
▁szelíd	-11.7161
▁ökoszisztéma	-11.7161
törekvő	-11.7161
▁South	-11.7161
▁Szervezet	-11.7161
▁elhízott	-11.7161
▁eltávolod	-11.7161
▁galériá	-11.7161
▁meggyógyít	-11.7161
▁Texas	-11.7161
▁mennyezet	-11.7161
▁gyöngy	-11.7161
▁sajnálkozás	-11.7161
▁tudatalatti	-11.7161
▁igazságtalanság	-11.7161
▁búza	-11.7161
▁rutin	-11.7161
▁elmenekül	-11.7161
▁direkt	-11.7161
▁csönd	-11.7161
▁Olvas	-11.7161
▁Tesla	-11.7161
▁végleges	-11.7161
▁Brook	-11.7162
▁kiszárad	-11.7162
▁Sikerül	-11.7162
▁vezess	-11.7162
▁sportoló	-11.7162
▁2-3	-11.7163
▁nevük	-11.7163
▁lenéz	-11.7168
▁kérdezté	-11.7168
▁posta	-11.7169
▁osztályterme	-11.7171
▁lőtt	-11.7189
▁üvölt	-11.7208
▁nyújtana	-11.7227
▁szabadságo	-11.7236
▁példájá	-11.7263
csészé	-11.7268
biztos	-11.731
mennyiség	-11.7311
szabadság	-11.7312
kérdés	-11.7312
gyermek	-11.7312
műtét	-11.7312
mozgás	-11.7312
vírus	-11.7312
▁öntudat	-11.7341
kereskedő	-11.7369
tiltott	-11.7392
▁megkezd	-11.742
▁Király	-11.748
▁elfogyaszt	-11.7487
▁Babbage	-11.7494
▁Edward	-11.7494
▁bökkenő	-11.7494
▁földműves	-11.7494
▁leghíresebb	-11.7494
▁minősítés	-11.7494
▁olimpia	-11.7494
▁penicillin	-11.7494
▁prioritás	-11.7494
▁stadion	-11.7494
▁tökéletlen	-11.7494
▁ébren	-11.7494
▁élesztő	-11.7494
tisztviselő	-11.7494
▁kritizál	-11.7494
▁lábujj	-11.7494
▁stádium	-11.7494
▁zacskó	-11.7494
▁összekever	-11.7494
▁fogalmunk	-11.7494
▁meztelen	-11.7494
▁pásztor	-11.7494
▁zátony	-11.7494
▁Luther	-11.7494
▁enyhít	-11.7494
▁szemügyre	-11.7494
▁monitor	-11.7494
▁pigment	-11.7494
▁tartalék	-11.7494
▁izzad	-11.7494
▁megtagad	-11.7494
▁1900-	-11.7494
asmania	-11.7495
▁vízszintes	-11.7495
▁steril	-11.7495
▁tiéd	-11.7495
▁Mély	-11.7495
▁ízület	-11.7495
▁Engedjé	-11.7495
▁kicserél	-11.7495
▁átformál	-11.7495
sapká	-11.75
▁vigasz	-11.7501
▁véleked	-11.7504
simán	-11.7523
hajlít	-11.754
▁taszít	-11.756
▁hazáj	-11.7603
férgek	-11.7608
változtatják	-11.762
kényszerít	-11.7656
▁temető	-11.7661
▁felépítésé	-11.7668
▁magánszfér	-11.7668
vesztés	-11.773
▁kifejlesztésé	-11.7764
▁megduplázód	-11.7783
▁egere	-11.7821
▁felmeleg	-11.7839
▁DVD	-11.7839
▁gesztus	-11.7839
▁1945	-11.7839
▁Project	-11.7839
▁Snowden	-11.7839
▁Számítógép	-11.7839
▁abszurd	-11.7839
▁bennszülött	-11.7839
▁birkóz	-11.7839
▁birodalma	-11.7839
▁birodalom	-11.7839
▁csúnya	-11.7839
▁extrovertált	-11.7839
▁feminizmus	-11.7839
▁intuíció	-11.7839
▁ivóvíz	-11.7839
▁kétségbeesés	-11.7839
▁leleplez	-11.7839
▁mechanikai	-11.7839
▁megkönnyít	-11.7839
▁megtörténhet	-11.7839
▁monszun	-11.7839
▁mínusz	-11.7839
▁négyzetméter	-11.7839
▁paradigma	-11.7839
▁praktikus	-11.7839
▁rádöbben	-11.7839
▁szíriai	-11.7839
▁tevékenyked	-11.7839
▁ugyanilyen	-11.7839
▁Bármely	-11.7839
▁bebörtönz	-11.7839
▁digitalizál	-11.7839
▁kunyhó	-11.7839
▁prostitúció	-11.7839
▁pályafutás	-11.7839
▁zsákmány	-11.7839
▁összeütköz	-11.7839
▁csapadék	-11.7839
▁definiál	-11.7839
▁sodród	-11.7839
▁űrszond	-11.7839
▁Mozart	-11.7839
▁etnikai	-11.7839
▁kamasz	-11.7839
▁csukló	-11.7839
▁Watson	-11.7839
▁pöttyök	-11.7839
▁elszánt	-11.7839
▁jóslat	-11.7839
▁lejjeb	-11.7839
▁adódó	-11.784
bolikus	-11.784
▁Repül	-11.784
▁üzemeltet	-11.784
▁Mount	-11.784
▁visszaélés	-11.7841
▁áthelyez	-11.7841
▁vigye	-11.7842
▁ijed	-11.7842
▁irányelv	-11.7842
▁csatol	-11.7848
intézkedések	-11.7848
▁irodalm	-11.785
▁készítésé	-11.7852
▁kimerít	-11.7855
▁felkészít	-11.7872
fizess	-11.7873
▁túrá	-11.7893
▁központjá	-11.79
jövö	-11.7952
▁rájöv	-11.7992
▁elhatároztu	-11.8006
problémá	-11.8013
veszély	-11.8014
▁reméljü	-11.8046
meghatározás	-11.8105
betűs	-11.8126
juthatunk	-11.8129
▁anyjá	-11.8175
▁megalkotásá	-11.818
zsúfol	-11.8189
önnyű	-11.8195
ijeszt	-11.8196
▁Szilícium	-11.8196
▁szarvas	-11.8196
▁szisztematikus	-11.8196
▁Aranyszabály	-11.8196
▁Argentín	-11.8196
▁IBM	-11.8196
▁Nigériá	-11.8196
▁School	-11.8196
▁Shakespeare	-11.8196
▁Szomáli	-11.8196
▁Törökország	-11.8196
▁aszteroidá	-11.8196
▁diverzitás	-11.8196
▁enciklopédi	-11.8196
▁gamma	-11.8196
▁gyengébb	-11.8196
▁klónoz	-11.8196
▁kongresszus	-11.8196
▁mechanikus	-11.8196
▁multiverzum	-11.8196
▁narancssárg	-11.8196
▁nitrogén	-11.8196
▁rezsim	-11.8196
▁riasztó	-11.8196
▁szokványos	-11.8196
▁ösvény	-11.8196
▁agresszív	-11.8196
▁bejegyzés	-11.8196
▁bélyeg	-11.8196
▁improvizál	-11.8196
▁státusz	-11.8196
▁ötvöz	-11.8196
▁Gyakorlati	-11.8196
▁gaboná	-11.8196
▁római	-11.8196
▁Nyolc	-11.8196
▁Projekt	-11.8196
▁megtérülés	-11.8196
▁Island	-11.8196
▁megfékez	-11.8196
▁mindnyája	-11.8196
▁holttest	-11.8196
▁leboml	-11.8197
▁high	-11.8197
▁küzdelme	-11.8197
▁vérnyomás	-11.8197
▁lottó	-11.8197
▁átível	-11.8197
▁visszautasít	-11.8197
▁házastárs	-11.8197
▁megjelöl	-11.8197
metszés	-11.8197
▁fűződ	-11.8198
▁megalapított	-11.8199
▁fejlessz	-11.82
▁kételked	-11.82
arrátor	-11.8201
görbül	-11.8204
▁feledjé	-11.8218
▁megdupláz	-11.8255
▁halogat	-11.8285
vezérlés	-11.8308
forgalm	-11.8312
▁csökkentésé	-11.8356
tulajdon	-11.838
kódot	-11.8387
hordozó	-11.845
▁szekvenál	-11.851
▁1998-	-11.8567
▁Bíróság	-11.8567
▁Grönland	-11.8567
▁absztrakció	-11.8567
▁atmoszférá	-11.8567
▁bepillantás	-11.8567
▁birodalmá	-11.8567
▁buddhist	-11.8567
▁centiméter	-11.8567
▁fekvő	-11.8567
▁felgyorsul	-11.8567
▁főiskola	-11.8567
▁gyarapod	-11.8567
▁hiedelme	-11.8567
▁influenzá	-11.8567
▁instabil	-11.8567
▁kalóriá	-11.8567
▁kiválasztódás	-11.8567
▁kolónia	-11.8567
▁megtörténjen	-11.8567
▁megérdemli	-11.8567
▁szovjet	-11.8567
▁tendenci	-11.8567
▁Central	-11.8567
▁Iskolá	-11.8567
▁Megcsinál	-11.8567
▁dzsungel	-11.8567
▁földönkívüli	-11.8567
▁gyilkol	-11.8567
▁kerekesszék	-11.8567
▁kliens	-11.8567
▁legutolsó	-11.8567
▁textil	-11.8567
▁tájékozód	-11.8567
▁vibrál	-11.8567
pumpál	-11.8567
▁Véleménye	-11.8567
▁fölfedez	-11.8567
▁képzelőerő	-11.8567
▁közelmúlt	-11.8567
▁makacs	-11.8567
▁szimpl	-11.8567
▁gyapot	-11.8567
▁szombat	-11.8567
▁megnehezít	-11.8567
▁eláraszt	-11.8567
▁Neander	-11.8567
▁udvarias	-11.8567
ültetvény	-11.8567
▁kétségtelen	-11.8567
▁megszólal	-11.8567
▁telefonhívás	-11.8567
bürokrat	-11.8567
1995	-11.8567
▁2013	-11.8567
▁visszahúzód	-11.8567
▁Könnye	-11.8567
▁déd	-11.8568
▁elrabol	-11.8569
▁Mindkette	-11.857
▁helly	-11.8571
▁megteremtésé	-11.8577
▁Megtanít	-11.8581
takarékos	-11.8586
▁feneké	-11.8596
▁hitté	-11.8613
▁felfedezzü	-11.8619
▁megmentésé	-11.8678
▁rávenn	-11.8685
ellátó	-11.8713
ajnálatos	-11.8739
▁korlátozód	-11.8767
▁alkalmá	-11.8785
▁tervezzü	-11.8843
▁éreztü	-11.8861
▁fókusz	-11.8897
▁nélkülöz	-11.8905
▁érvény	-11.8912
forgása	-11.8918
▁végezzü	-11.8922
homály	-11.8951
#	-11.8951
▁maximalizál	-11.8951
tündér	-11.8951
▁Adakozók	-11.8951
▁Joshua	-11.8951
▁Megdöbben	-11.8951
▁afroamerikai	-11.8951
▁akcentus	-11.8951
▁ambíció	-11.8951
▁demokraták	-11.8951
▁entrópia	-11.8951
▁furulyá	-11.8951
▁intenzitás	-11.8951
▁kecské	-11.8951
▁keselyű	-11.8951
▁lelassul	-11.8951
▁mammográfia	-11.8951
▁prezentáció	-11.8951
▁primitív	-11.8951
▁szexualitás	-11.8951
▁szponzor	-11.8951
▁tömegközlekedés	-11.8951
▁átlátszó	-11.8951
▁újszülött	-11.8951
▁Linux	-11.8951
▁entrópiá	-11.8951
▁hírszerző	-11.8951
▁iPad	-11.8951
▁kurátor	-11.8951
▁megnövel	-11.8951
▁1999-	-11.8951
▁FDA	-11.8951
▁Nairobi	-11.8951
▁dátum	-11.8951
▁megszüntet	-11.8951
▁mindnyájunk	-11.8951
▁szánalmas	-11.8951
▁1930-	-11.8951
▁csodálkoz	-11.8951
▁pilótá	-11.8951
▁gitár	-11.8951
▁pénisz	-11.8951
▁bizottság	-11.8951
▁szembeszáll	-11.8951
pörget	-11.8952
▁létezte	-11.8956
▁erőltet	-11.8957
elégtelenség	-11.8964
Koreá	-11.8964
▁elvesztésé	-11.8967
szennyeződés	-11.8995
hátrányos	-11.9002
▁kérdezzü	-11.9012
kívánatos	-11.9014
▁hátrahagy	-11.9024
kiegészítő	-11.903
▁szétválaszt	-11.9073
▁gyökér	-11.9079
▁megkérdeztü	-11.9087
ografikus	-11.9138
tonnányi	-11.9141
▁kétharmad	-11.9158
▁megépítésé	-11.9164
szakértő	-11.9168
részecskék	-11.9168
gyűlés	-11.9181
tartotta	-11.9193
sétálta	-11.9236
gyógyul	-11.9254
zámunkra	-11.9344
specialist	-11.9351
▁Buddha	-11.9351
▁Dylan	-11.9351
▁Mandela	-11.9351
▁Michelangelo	-11.9351
▁Rögtön	-11.9351
▁Sylvia	-11.9351
▁Tanzániá	-11.9351
▁dicsőség	-11.9351
▁dopamin	-11.9351
▁feministá	-11.9351
▁globalizál	-11.9351
▁intuitív	-11.9351
▁karikaturist	-11.9351
▁kereszteződés	-11.9351
▁kizsákmányol	-11.9351
▁konfiguráció	-11.9351
▁kézzelfogható	-11.9351
▁legkorábbi	-11.9351
▁maximális	-11.9351
▁medúzá	-11.9351
▁megfontol	-11.9351
▁megkövetel	-11.9351
▁neurogenezis	-11.9351
▁oltóanyag	-11.9351
▁parazita	-11.9351
▁rovarirtó	-11.9351
▁sztereotípi	-11.9351
▁tüzet	-11.9351
▁vándorgalamb	-11.9351
▁életszínvonal	-11.9351
gyűjtögető	-11.9351
hüvely	-11.9351
orientált	-11.9351
▁Cassini	-11.9351
▁Palesztin	-11.9351
▁Ushahidi	-11.9351
▁botrány	-11.9351
▁elhangzott	-11.9351
▁neurológus	-11.9351
▁optimalizál	-11.9351
▁reneszánsz	-11.9351
▁szimfóniá	-11.9351
▁szupermarket	-11.9351
▁termőföld	-11.9351
▁tradíció	-11.9351
megállapodás	-11.9351
▁Franciscó	-11.9351
▁Mumbai	-11.9351
▁agykérg	-11.9351
▁feromon	-11.9351
kímél	-11.9351
▁hétvégé	-11.9351
▁kazettá	-11.9351
▁teknős	-11.9351
▁Alpha	-11.9351
▁eltüntet	-11.9351
▁lassabb	-11.9351
▁sárgá	-11.9351
rágcsál	-11.9351
▁Kutató	-11.9352
▁ugorj	-11.9352
▁legapró	-11.9353
▁Trans	-11.9353
▁norma	-11.9353
zetbiztonsági	-11.9356
▁egyetemistá	-11.9356
▁mércé	-11.9357
iratkoz	-11.9358
▁túloldalá	-11.9361
▁fenntartásá	-11.9365
frontális	-11.9386
▁részecské	-11.9452
▁megértetté	-11.9501
▁Csodá	-11.9517
▁tartsu	-11.9549
európai	-11.9585
generáció	-11.9585
követelmény	-11.9619
▁megnevez	-11.9641
▁mozdít	-11.9677
▁ausztrál	-11.9729
végzés	-11.9745
függvény	-11.9749
▁Kepler	-11.9768
▁prostituált	-11.9768
▁AIMS	-11.9768
▁Biblia	-11.9768
▁Carnegie	-11.9768
▁Egyértelmű	-11.9768
▁Furcsa	-11.9768
▁Környezet	-11.9768
▁Minisztérium	-11.9768
▁Oscar	-11.9768
▁Világegyetem	-11.9768
▁Wolfram	-11.9768
▁autóbaleset	-11.9768
▁beépül	-11.9768
▁domináns	-11.9768
▁felkavar	-11.9768
▁gyémánt	-11.9768
▁homoszexuális	-11.9768
▁hátborzongató	-11.9768
▁kabát	-11.9768
▁kollagén	-11.9768
▁kritiká	-11.9768
▁kritérium	-11.9768
▁kütyü	-11.9768
▁legfiatalabb	-11.9768
▁legsikeresebb	-11.9768
▁muslic	-11.9768
▁muzulmán	-11.9768
▁organikus	-11.9768
▁páncél	-11.9768
▁rákattint	-11.9768
▁tragédia	-11.9768
▁társalgás	-11.9768
▁vákuum	-11.9768
▁összeegyeztet	-11.9768
▁üldögél	-11.9768
▁Működ	-11.9768
▁fogalmuk	-11.9768
▁húgom	-11.9768
▁hűvös	-11.9768
▁megveszteget	-11.9768
▁Bronx	-11.9768
▁hélium	-11.9768
▁kolóniá	-11.9768
▁törmelék	-11.9768
▁Vörös	-11.9768
▁hindu	-11.9768
▁áthidal	-11.9768
▁kényes	-11.9768
▁megtestesít	-11.9768
▁Millió	-11.9768
▁America	-11.9768
▁Earth	-11.9768
▁javaslo	-11.9768
▁veszteget	-11.9768
▁toboroz	-11.9768
▁köröz	-11.9769
▁összetört	-11.9769
▁kinyomtat	-11.9769
▁körülményei	-11.9771
▁tornyo	-11.9772
▁Örül	-11.9773
▁megvitat	-11.9776
arolina	-11.9778
▁zajlana	-11.9783
▁játszód	-11.9783
▁felvállal	-11.9795
nagyságú	-11.9795
szekvenálás	-11.9833
▁visszavezet	-11.9859
▁kvantummechanik	-11.9886
érzékenység	-11.9992
pozíció	-12.002
üzlet	-12.002
lényegesebb	-12.002
környezet	-12.002
▁visszamente	-12.0057
50.000	-12.0117
rckép	-12.0121
szakáll	-12.0132
▁megvalósításá	-12.0181
zilárd	-12.0195
ulturális	-12.0201
▁referenci	-12.0203
kézenfekvő	-12.0203
▁Health	-12.0203
▁Kilenc	-12.0203
q	-12.3925
É	-12.975
%	-13.8586
♫	-13.8587
Ú	-13.8588
!	-13.8589
—	-13.859
)	-13.8591
:	-13.8592
?	-13.8593
&	-13.8594
Ö	-13.8594
