<unk>	0
<s>	0
</s>	0
▁,	-2.83052
▁:	-3.32024
▁է	-3.69023
ը	-3.72857
▁	-3.73732
ում	-3.82728
ի	-3.91156
ն	-4.13637
▁որ	-4.19358
▁եւ	-4.395
▁։	-4.59853
▁են	-4.73069
ք	-4.79604
ով	-4.94126
▁այն	-4.97167
▁ես	-5.01919
▁մի	-5.08061
ին	-5.14988
ս	-5.20656
ից	-5.23765
▁եմ	-5.25338
▁Եվ	-5.29587
▁էր	-5.31113
▁մենք	-5.36233
▁ենք	-5.51321
ել	-5.56069
▁թե	-5.56361
▁համար	-5.57549
▁կարող	-5.58203
▁այս	-5.6091
-	-5.61073
▁շատ	-5.63001
ական	-5.66621
«	-5.68375
▁՞	-5.68546
▁»	-5.69234
▁ինչ	-5.70059
`	-5.71385
ներ	-5.74402
▁Ես	-5.75644
▁դա	-5.79559
ր	-5.79807
▁եք	-5.81433
▁երբ	-5.82699
▁այդ	-5.85154
▁.	-5.87185
▁)	-5.9
(	-5.90213
▁հետ	-5.94489
;	-5.96056
ու	-5.98052
▁մասին	-6.00357
▁&	-6.01227
ության	-6.02026
▁ավելի	-6.02343
▁իմ	-6.04032
▁ու	-6.04419
▁նա	-6.07385
ց	-6.08126
▁մեր	-6.1098
ային	-6.11825
ների	-6.12005
ները	-6.12039
ված	-6.12546
մ	-6.13703
▁սա	-6.2183
▁դուք	-6.22437
▁՝	-6.23097
▁նրանք	-6.25402
▁ինչպես	-6.27796
▁ինձ	-6.28171
պես	-6.296
▁էին	-6.29685
▁էլ	-6.34299
ման	-6.3548
▁պետք	-6.36701
ած	-6.3696
ող	-6.3714
▁բան	-6.37329
▁Սա	-6.37933
▁ոչ	-6.39824
▁կամ	-6.40798
▁Մենք	-6.41835
▁վրա	-6.42153
▁Բայց	-6.43232
ան	-6.43379
▁մեկ	-6.45805
▁այլ	-6.46237
.	-6.46982
▁մեջ	-6.47815
եք	-6.494
▁քանի	-6.52617
▁բոլոր	-6.53798
▁իր	-6.54215
▁եթե	-6.5553
▁էի	-6.55929
ա	-6.56225
▁նրանց	-6.60389
▁իրենց	-6.61491
▁ամեն	-6.61565
▁ժամանակ	-6.61905
▁մեզ	-6.62446
▁Ծիծաղ	-6.63324
▁մարդկանց	-6.64213
▁ձեզ	-6.65259
▁մեծ	-6.66116
▁Այն	-6.66544
ե	-6.66559
ոնք	-6.66997
ենք	-6.68455
ւ	-6.69569
ությունը	-6.7028
▁բայց	-6.70348
ot	-6.70503
որ	-6.70576
qu	-6.70978
▁մարդիկ	-6.72923
▁Նա	-6.73679
վում	-6.7439
ելու	-6.75531
դ	-6.76467
▁որպես	-6.77113
▁չեն	-6.77209
եր	-6.77962
▁Այսպիս	-6.78068
▁լավ	-6.78084
նաեւ	-6.80479
▁Այս	-6.81057
▁ձեր	-6.81197
▁չի	-6.82549
▁չէ	-6.83515
▁Դա	-6.8429
լ	-6.87325
▁կ	-6.87358
▁Դու	-6.88567
▁Ի	-6.89603
ություն	-6.90571
▁նման	-6.9243
եց	-6.92805
▁նոր	-6.93058
▁միայն	-6.93691
▁առաջ	-6.94374
▁ան	-6.95643
▁դրանք	-6.96456
▁նույն	-6.96591
վ	-6.97086
ակ	-6.9858
▁հետո	-7.00401
ո	-7.01185
թ	-7.02768
կ	-7.03476
▁ուզում	-7.04281
▁որտեղ	-7.04804
▁անգամ	-7.05423
▁Նրան	-7.06942
են	-7.07681
▁երկու	-7.08856
▁մոտ	-7.09323
▁իսկ	-7.10309
▁իրականում	-7.11506
▁Ծափահարություն	-7.11884
▁տարի	-7.11926
▁մեկը	-7.11995
▁կարծ	-7.12308
▁ի	-7.12489
▁Ահա	-7.13373
▁Իսկ	-7.1403
▁դրա	-7.14203
▁նրա	-7.1612
զի	-7.16136
վել	-7.16314
▁անել	-7.17159
▁♫	-7.18569
▁ամբողջ	-7.20048
▁նչ	-7.20654
▁անում	-7.20738
▁կա	-7.21073
▁ասում	-7.21181
▁Երբ	-7.2222
▁քան	-7.22938
▁ունի	-7.23713
▁ընթացքում	-7.2427
▁առաջին	-7.26021
▁այստեղ	-7.26307
▁օր	-7.27448
▁տարբեր	-7.27903
▁Եթե	-7.27963
▁կարեւոր	-7.28117
ությամբ	-7.28334
տ	-7.28991
յան	-7.29009
▁փորձ	-7.29014
ուն	-7.29062
նք	-7.29165
երի	-7.29236
▁հեն	-7.29582
կան	-7.2989
▁տալիս	-7.29989
▁ապա	-7.31485
▁Հ	-7.32126
որեն	-7.32626
▁նրան	-7.33271
▁չ	-7.3478
եմ	-7.34886
▁տեսնում	-7.35675
▁ցույց	-7.36776
▁լինել	-7.37116
▁ովքե	-7.37358
▁փոքր	-7.37657
աբար	-7.38916
ապես	-7.39195
▁դուր	-7.40163
▁չեմ	-7.41579
▁դեռ	-7.41775
եւ	-7.42044
▁ասել	-7.42175
▁օրինակ	-7.42836
ներից	-7.43794
▁ս	-7.44771
շտ	-7.4584
▁ունեն	-7.45989
▁այնքան	-7.47053
▁ասաց	-7.47244
▁Մի	-7.47768
▁որոշ	-7.48345
ղ	-7.48452
gt	-7.49255
▁երեխաների	-7.50075
▁որովհետե	-7.50898
ալ	-7.51234
գ	-7.52872
▁դու	-7.53125
▁պահ	-7.53318
▁որեւէ	-7.54444
▁-	-7.5449
ստ	-7.55471
եցի	-7.55688
▁ցանկան	-7.56131
▁սկս	-7.56594
▁քիչ	-7.57957
▁տեսնել	-7.57972
▁մաս	-7.58935
իս	-7.5953
արդեն	-7.6103
▁էինք	-7.61118
▁բաներ	-7.61168
▁ունենք	-7.61216
▁...	-7.61396
▁պարզապես	-7.61437
▁Ս	-7.61621
▁դեպ	-7.61812
շ	-7.6188
երը	-7.6252
▁Ու	-7.62816
ներին	-7.63092
▁չէր	-7.6364
▁ք	-7.64169
▁տարեկան	-7.64172
▁կյանքի	-7.64737
▁նույնիսկ	-7.64989
▁Շատ	-7.64993
▁կան	-7.65074
▁կողմից	-7.65127
▁ճիշտ	-7.65394
▁Այդ	-7.65804
▁գործ	-7.65939
իր	-7.66759
▁դեպքում	-7.68241
▁տեղի	-7.68994
lt	-7.69592
յի	-7.70107
▁մարդ	-7.70321
▁աշխատանք	-7.71171
▁տալ	-7.71318
▁Ա	-7.71475
▁աշխարհ	-7.7172
ավ	-7.71768
▁պարզ	-7.72457
▁կերպ	-7.73414
▁մտածում	-7.73481
ես	-7.73929
ավոր	-7.74519
եցինք	-7.74808
կարելի	-7.74853
հարկե	-7.75262
▁հնարավորություն	-7.75315
▁ահա	-7.75512
իկ	-7.76288
▁հիմա	-7.76748
▁Դե	-7.77502
▁դրանց	-7.77692
կայն	-7.78181
▁տեղ	-7.78479
▁Իմ	-7.78491
▁Ինչ	-7.7897
▁երեք	-7.79428
▁լինի	-7.80117
▁այնտեղ	-7.80445
▁Մ	-7.80517
▁աշխատում	-7.82743
▁աշխարհի	-7.82965
▁բավական	-7.83255
▁արդյո	-7.8326
▁նշանակ	-7.83444
ամ	-7.83823
▁իրական	-7.84838
ջ	-7.84888
Շնորհակալություն	-7.84941
▁ով	-7.85249
մինչեւ	-7.85267
▁գալիս	-7.86251
▁Սակայ	-7.8713
պ	-7.87202
▁անց	-7.87584
իչ	-7.88379
▁թույլ	-7.88795
▁որոնց	-7.89437
▁միջոցով	-7.90662
▁այդպես	-7.90738
▁այսօր	-7.90895
▁այսպես	-7.922
▁վերջին	-7.92694
▁յուրաքանչյուր	-7.92722
ելով	-7.93692
անից	-7.9371
վի	-7.94737
▁պատճառով	-7.9476
▁ունեմ	-7.95881
▁առանց	-7.96297
▁մ	-7.9687
▁կարիք	-7.97426
▁խոսում	-7.98692
▁օգտագործել	-7.98856
▁այդքան	-7.99311
▁ունենում	-7.99407
բ	-7.99633
ատ	-8.00227
▁միջեւ	-8.00295
▁փոքրիկ	-8.00355
▁ամենը	-8.00643
▁Ե	-8.00751
▁իսկապե	-8.00933
▁պատճառ	-8.01225
▁եղել	-8.01495
▁որն	-8.02303
▁Այժ	-8.0262
▁դոլար	-8.0349
եցին	-8.05389
▁արագ	-8.05604
▁այնպիսի	-8.05633
▁գնում	-8.05817
ոն	-8.05929
▁պատրաստվ	-8.06116
▁հ	-8.06144
▁սիրում	-8.06204
▁Բ	-8.0622
▁այժմ	-8.06244
ռ	-8.06298
▁ստեղծել	-8.06336
▁ձեռք	-8.06685
▁ինչու	-8.07084
▁մինչ	-8.07471
▁աշխարհում	-8.07489
▁ունենալ	-8.07497
▁հիմնական	-8.07571
ուցե	-8.07727
▁ստիպ	-8.07815
▁Կ	-8.08015
▁իրեն	-8.08115
▁հնարավոր	-8.09058
▁դառն	-8.09386
ար	-8.09428
▁մարդու	-8.09603
վեց	-8.09915
▁հրաշալի	-8.10652
▁Հիմա	-8.10655
▁Ոչ	-8.10662
րդ	-8.12394
▁շարունակ	-8.12798
▁լ	-8.12942
ներով	-8.13328
▁երկար	-8.13923
▁Դրան	-8.14092
▁վեր	-8.1436
զ	-8.14391
▁մեկն	-8.14523
▁ապրում	-8.14583
▁բարձր	-8.14625
▁նայ	-8.14777
▁կլինի	-8.14851
▁տան	-8.15082
▁տեսք	-8.1526
ություններ	-8.15526
▁Ինչպե	-8.15562
▁կապ	-8.15564
▁արդյունք	-8.15677
▁ամենա	-8.1605
▁գումար	-8.16169
▁Կարծ	-8.16568
▁ուղեղի	-8.16607
▁սեփական	-8.16609
▁Իրականում	-8.16612
▁ձայն	-8.16871
▁ասացի	-8.16955
վա	-8.17894
▁չափ	-8.18809
լի	-8.18813
▁հան	-8.18908
▁սխալ	-8.18981
▁որքան	-8.19187
▁ժամ	-8.19744
▁չեք	-8.19867
▁մտածել	-8.20665
▁խոսել	-8.21524
▁հետաքրքիր	-8.21552
▁մյուս	-8.21632
▁օգտագործում	-8.22064
▁անհրաժեշտ	-8.22237
▁Թ	-8.22836
▁մարդկայ	-8.23223
ներն	-8.23413
նձ	-8.23618
▁սկսեցի	-8.23704
▁դժվար	-8.24415
ուց	-8.2444
▁գ	-8.24559
▁վատ	-8.2473
▁հաճախ	-8.24765
անում	-8.24974
▁ուսումնասիր	-8.25326
▁կազմ	-8.25785
▁վ	-8.26299
յալ	-8.26354
▁սենյակ	-8.26653
ծ	-8.27037
1	-8.27099
վող	-8.27291
այ	-8.27333
▁TED	-8.27411
▁քեզ	-8.2743
▁նկատ	-8.28042
▁գոյություն	-8.28251
▁կապված	-8.28423
e	-8.28498
▁կանանց	-8.2896
▁քո	-8.29815
ովին	-8.30348
▁հիանալ	-8.30749
անք	-8.31066
▁փոխ	-8.31199
▁չկա	-8.31298
փ	-8.31398
խ	-8.31961
յա	-8.32137
յում	-8.32231
▁նկար	-8.32265
ap	-8.32884
▁ստանում	-8.32889
▁լինելու	-8.33
▁10	-8.33166
▁կոչվ	-8.33325
▁հավատ	-8.33587
ոտ	-8.3362
▁սոցիալ	-8.33688
▁զգում	-8.33703
▁լսել	-8.33749
▁հարց	-8.33846
չ	-8.33918
▁կյանքը	-8.33929
▁հաջորդ	-8.34461
os	-8.3458
▁շաբաթ	-8.34631
աս	-8.34634
▁հասկանալ	-8.34641
▁այսպիսի	-8.34663
▁Մեր	-8.35077
▁ընդամենը	-8.3532
▁գիտեք	-8.35656
▁ուրիշ	-8.35942
▁լի	-8.36087
▁փոխել	-8.36265
▁Գ	-8.36307
▁միլիոն	-8.36936
▁դրան	-8.36952
եմն	-8.37003
հ	-8.37336
ներում	-8.37571
▁Ռ	-8.37676
▁Քան	-8.37688
▁կանայք	-8.37842
▁իրոք	-8.37884
▁չէին	-8.38534
▁3	-8.38552
▁շուրջ	-8.38674
▁այլեւ	-8.39082
▁հասկանում	-8.39523
ուր	-8.39569
▁2	-8.40056
▁խնդիրներ	-8.40538
▁թ	-8.41158
▁ողջ	-8.41255
▁ուղղակի	-8.41277
▁բոլորը	-8.41281
▁Լավ	-8.41305
▁կատար	-8.41369
▁պատմություն	-8.41433
▁գնալ	-8.41437
▁ստեղծում	-8.41467
▁պիտ	-8.42136
▁Այո	-8.42147
▁դեմ	-8.42378
եւէ	-8.42394
▁20	-8.42413
▁ինչքան	-8.4265
այի	-8.42738
▁բիզնես	-8.42884
▁ճանապարհ	-8.43216
▁գտնվ	-8.43605
▁պատմ	-8.44238
▁բաց	-8.44258
▁համ	-8.44748
այն	-8.44958
▁գտնվող	-8.45066
առ	-8.45539
▁միմյանց	-8.45719
▁ցանկացած	-8.45732
ագ	-8.45806
▁լավագույն	-8.45809
▁ունե	-8.46219
▁սրան	-8.46319
▁կար	-8.466
դի	-8.46616
▁միլիարդ	-8.46637
▁միասին	-8.46644
▁տակ	-8.46744
▁երեխաները	-8.46747
▁երեխայի	-8.46852
ությունն	-8.47007
▁որոն	-8.47064
▁ազդեցություն	-8.47202
▁հասկացա	-8.47434
▁ԱՄՆ	-8.47563
▁Օրինակ	-8.47565
▁Արդյո	-8.47567
▁տվե	-8.48147
▁օգն	-8.48257
▁երիտասարդ	-8.48365
քան	-8.48471
▁չէի	-8.48906
▁հայտնի	-8.48939
աց	-8.49055
▁հավան	-8.4917
▁Լ	-8.49247
▁միակ	-8.49458
▁շարք	-8.49537
▁շ	-8.49641
▁տեսա	-8.4982
իտ	-8.49997
▁Դ	-8.50175
▁խ	-8.50912
▁բարդ	-8.51031
▁րոպե	-8.51355
▁սովոր	-8.518
▁դրանից	-8.52048
▁պատմություններ	-8.52487
ացնում	-8.52523
▁անվանում	-8.52734
▁պատասխան	-8.5308
հետեւ	-8.53162
▁ծիծաղ	-8.53282
▁չորս	-8.53378
▁տուն	-8.53379
յ	-8.53419
▁կարծե	-8.53496
▁գիտենք	-8.53666
▁քայլ	-8.53702
▁սրա	-8.53927
▁աշխատել	-8.54145
▁Ձե	-8.54267
ությունների	-8.54592
▁համակարգ	-8.54877
▁հասարակ	-8.55028
▁տվյալներ	-8.55173
▁չնայ	-8.55297
▁գեղեցիկ	-8.55382
▁խնդիր	-8.5539
▁Ն	-8.55559
▁Ան	-8.55606
▁խաղ	-8.55624
▁ցավ	-8.55914
▁ինչը	-8.56102
▁տոկոս	-8.56432
▁աճ	-8.56493
▁ելույթ	-8.56614
▁փաստ	-8.57847
▁հետեւյալ	-8.5795
▁մեկի	-8.58001
▁պատմությունը	-8.58254
▁ամիս	-8.58366
▁կատարվում	-8.58499
▁սկսել	-8.58537
▁բ	-8.58998
▁թվում	-8.59033
▁դր	-8.59038
ացի	-8.59358
▁ունեցել	-8.59404
▁երկրորդ	-8.59406
▁խոր	-8.59585
▁կյանք	-8.5967
ոց	-8.59834
ճ	-8.60445
▁չափազանց	-8.60457
ցի	-8.60488
▁տարբերություն	-8.60604
▁Ո	-8.60609
ությունները	-8.60834
▁Որովհետե	-8.61553
▁Եկե	-8.61563
▁ունեցող	-8.61599
▁պատրաստ	-8.62144
▁միգ	-8.62279
▁առ	-8.62305
ութ	-8.62334
▁ոք	-8.62497
▁ասե	-8.62525
▁տղամարդ	-8.62558
▁Երաժշտություն	-8.62616
▁կարծիք	-8.62665
▁չունեն	-8.62802
▁ուժ	-8.62873
▁կարողանում	-8.63221
▁ազատ	-8.63584
▁միեւնույն	-8.63681
ետ	-8.64335
▁պատ	-8.646
ակի	-8.65195
▁տեսակ	-8.65202
▁առավել	-8.65269
▁գրել	-8.65677
s	-8.65989
▁փորձել	-8.66229
i	-8.66372
▁աշխատանքի	-8.66716
▁կյանքում	-8.67106
▁դարձ	-8.67332
▁Ք	-8.67667
▁30	-8.67897
▁երկրներ	-8.68195
▁տարվա	-8.68243
ահ	-8.69044
▁կրկին	-8.69298
▁լսում	-8.69321
եյ	-8.69348
ժ	-8.69499
▁հինգ	-8.69499
▁Ամեն	-8.69534
▁շատերը	-8.69627
ագր	-8.69977
ամբ	-8.70114
▁անելու	-8.70173
▁բառ	-8.70178
ագույն	-8.70282
ազ	-8.70384
▁կնոջ	-8.7046
▁որոշակի	-8.70526
▁ապրել	-8.70539
▁հույս	-8.70646
ոլ	-8.70744
▁ուներ	-8.7093
▁տեղեկատվություն	-8.71103
▁գործողություն	-8.71423
▁գնացի	-8.7152
▁Նյու	-8.71655
▁Այստեղ	-8.71669
▁արել	-8.71994
▁միջոց	-8.71999
▁գտնել	-8.72562
▁սովորել	-8.72672
▁փոխարեն	-8.72754
▁Առաջին	-8.72831
▁Մարդիկ	-8.72837
▁ո	-8.73217
▁ընտր	-8.73247
ձ	-8.73585
▁հարաբերություն	-8.73586
▁տարիների	-8.74278
▁ինքն	-8.74738
▁ստանալ	-8.74816
▁արժեք	-8.74902
▁ներս	-8.75002
%	-8.75251
▁գլամուր	-8.75327
եղ	-8.76015
▁վիճակ	-8.763
▁առավոտ	-8.76486
▁ընտանիք	-8.76711
▁Օ	-8.76831
▁երեխաներ	-8.76882
▁կես	-8.77004
▁բերել	-8.77028
▁իմաստ	-8.77538
▁ընդհանուր	-8.77741
▁վերաբերյալ	-8.77749
▁Ձեզ	-8.77772
▁հսկայա	-8.77778
ախ	-8.7781
Բ	-8.77826
▁գր	-8.78175
▁դառնալ	-8.78302
▁կենտրոն	-8.78858
▁դարձնում	-8.7904
▁վայր	-8.79258
▁բնական	-8.79298
▁իրար	-8.79345
▁հեշտ	-8.79448
▁խնդիրը	-8.79518
▁Բոլոր	-8.79707
▁Կամ	-8.79817
▁հատկա	-8.79908
▁անցն	-8.80146
▁զարգաց	-8.8016
▁ուշադրություն	-8.80291
▁հասն	-8.80349
▁50	-8.80404
ելի	-8.80592
▁խնդր	-8.80651
ֆ	-8.80662
▁40	-8.80909
▁օգնել	-8.80978
▁Այսօր	-8.81291
▁կին	-8.8137
▁ուրախ	-8.81467
▁ընտրություն	-8.81504
▁Հետ	-8.8164
▁ոչինչ	-8.8166
▁ունեին	-8.81739
▁կարողանա	-8.81882
▁վեց	-8.81966
▁տոկոսը	-8.8205
▁հիշ	-8.82191
ացել	-8.8245
▁խումբ	-8.82899
▁միանգամ	-8.82945
▁վերջո	-8.82978
▁Կարող	-8.82986
▁պատմության	-8.83257
▁19	-8.83407
▁հարցեր	-8.83523
▁համեմատ	-8.83644
▁ար	-8.83706
▁իմանալ	-8.83831
▁նախ	-8.84064
▁հեռու	-8.84231
▁Մեկ	-8.84232
▁շնորհիվ	-8.84234
▁պատկեր	-8.84378
▁սահման	-8.8445
▁հատուկ	-8.84495
ադր	-8.84578
▁Գիտեք	-8.84785
▁երաժշտություն	-8.85248
▁վերջ	-8.85287
▁բանի	-8.85368
▁Ուստի	-8.85587
▁չունի	-8.85589
▁ասած	-8.85593
▁տեսել	-8.85596
▁դարձա	-8.85614
աբ	-8.85639
▁վերցնել	-8.85748
▁տարածք	-8.85822
▁ինք	-8.85841
▁քաղաքական	-8.86009
ությունից	-8.86009
▁հայր	-8.86403
▁քաղաք	-8.86847
▁ինչպիսին	-8.87146
▁երջանիկ	-8.87207
4	-8.87346
▁ընտանիքի	-8.87398
▁բանը	-8.87429
▁խոսք	-8.87454
▁միջին	-8.87513
երից	-8.8758
▁4	-8.8763
▁կազմակերպ	-8.8769
շնորհակալություն	-8.87934
▁հարցն	-8.88015
▁երեխա	-8.88016
▁15	-8.88321
▁եկե	-8.88327
▁կատարել	-8.88512
Մ	-8.88549
▁պատմել	-8.88566
արար	-8.88596
▁բազմաթի	-8.88651
րի	-8.88659
▁ինչպե	-8.89299
▁լին	-8.89381
▁ինչպիսի	-8.89554
▁հարյուր	-8.8975
▁Ապա	-8.89761
▁ներառ	-8.89762
▁հասնել	-8.89788
ացավ	-8.89944
▁հիվանդ	-8.90134
▁ինչի	-8.90151
▁գործընթաց	-8.9026
▁ձեւ	-8.90414
▁ավարտ	-8.90974
▁Երկրորդ	-8.9118
▁ՔԱ	-8.91186
▁հազարավոր	-8.91199
▁Նրա	-8.91391
▁գա	-8.91753
▁դպրոց	-8.91824
▁առջեւ	-8.92628
▁գրեթ	-8.92645
▁Նրանց	-8.92663
հաղորդագրություն	-8.92704
▁հետեւում	-8.92737
▁Ֆ	-8.92752
▁ղ	-8.92886
▁դարձնել	-8.9289
հա	-8.93145
▁Կան	-8.94066
▁երեւ	-8.94105
▁գաղափար	-8.94502
վեր	-8.95266
▁ր	-8.95365
▁Սրան	-8.95435
▁երրորդ	-8.95591
▁ջուր	-8.956
▁նկատմամբ	-8.95611
▁լինեն	-8.95639
▁վերջապես	-8.9566
բեր	-8.95934
▁համակարգը	-8.96165
▁կասե	-8.96309
▁էջ	-8.96637
▁ունենա	-8.96716
▁բոլորի	-8.96776
՜	-8.97106
▁գիշեր	-8.97106
▁պար	-8.97171
▁մնացած	-8.97281
▁հավանական	-8.97645
▁հանդիպում	-8.97779
▁տեսակի	-8.97957
▁մարդը	-8.98098
▁հաս	-8.98244
▁նպատակ	-8.98394
▁նկարներ	-8.98399
▁երկր	-8.98582
ուկ	-8.98645
▁ինքներ	-8.98703
▁արձագանք	-8.98847
▁կլիներ	-8.98907
▁միջ	-8.98924
▁փող	-8.99002
▁հիմք	-8.99133
վեն	-8.99159
▁ձեւով	-8.9943
▁ցանց	-8.99944
▁հավասար	-9.00103
▁մնաց	-9.00195
▁բարոյական	-9.0021
▁տարօրինակ	-9.00211
▁երկիր	-9.00238
▁դաս	-9.00269
ընդհատ	-9.00513
▁միավոր	-9.0115
▁մտքեր	-9.01365
▁պահանջ	-9.01491
▁պատրաստել	-9.01496
▁արվեստի	-9.01638
▁մտածեցի	-9.01712
▁վաղ	-9.02026
5	-9.02696
▁վերցն	-9.02881
▁հետազոտություն	-9.02952
▁նայել	-9.03031
▁մտ	-9.03051
կա	-9.0325
▁ստաց	-9.03321
▁անկախ	-9.03407
▁Մեզ	-9.03432
▁կր	-9.03437
▁տեղադր	-9.03514
▁երկրի	-9.03792
մալ	-9.03836
րեմն	-9.03943
իվ	-9.04021
▁հաստատ	-9.04061
▁հին	-9.04143
յու	-9.04255
▁նրանում	-9.043
ոս	-9.04475
▁առաջարկ	-9.04512
▁Է	-9.04594
անա	-9.04919
▁ուշ	-9.05044
▁համաշխարհային	-9.05057
▁զարմանալի	-9.05059
▁մասն	-9.05344
o	-9.05431
▁պատկերներ	-9.05558
անի	-9.05593
▁միտք	-9.05975
▁դեր	-9.06161
l	-9.06359
▁ընկն	-9.0638
▁ամենի	-9.06446
▁սարք	-9.0646
անոց	-9.06466
▁լուսանկար	-9.06509
▁ներկայացն	-9.06642
▁Վ	-9.06653
▁նախկին	-9.06739
▁հավաք	-9.06744
▁Պետ	-9.06749
▁գն	-9.06941
▁ընկերություններ	-9.07001
▁վար	-9.07027
▁գալ	-9.07091
▁փոփոխություններ	-9.07295
ունը	-9.07315
▁կատարում	-9.07566
▁զբաղվ	-9.07598
▁լույս	-9.0768
▁գրքեր	-9.07761
մբ	-9.07791
▁գտն	-9.07826
▁տար	-9.07986
▁դն	-9.08016
▁ոգեշնչ	-9.08408
ույլ	-9.08421
▁այլն	-9.08432
▁նկարը	-9.08461
▁որոշեցի	-9.08615
3	-9.08627
▁հակառակ	-9.08645
▁եկել	-9.08661
եկավ	-9.09053
▁ընկեր	-9.09435
▁Վերջ	-9.09523
▁կողմ	-9.09557
▁սկսեց	-9.09615
▁կունենա	-9.09631
▁խոս	-9.09895
▁կախված	-9.10103
▁գյուղ	-9.1011
▁ակնհայտ	-9.10132
▁ներքեւ	-9.10172
աշ	-9.10199
երն	-9.10319
▁պատկերացնել	-9.10372
▁տարիներ	-9.10511
▁ոլորտում	-9.10636
▁շնորհակալ	-9.10643
▁աղջիկ	-9.10839
▁դպրոցում	-9.1103
▁մայր	-9.11071
▁հիվանդություն	-9.11183
արկ	-9.11199
▁6	-9.11457
▁կենդանի	-9.11503
տի	-9.11679
▁հարցը	-9.11825
▁բաների	-9.11869
▁հանդիսանում	-9.11894
▁ունեցավ	-9.11927
▁կանգնած	-9.11996
▁համոզ	-9.1224
▁հիմար	-9.12279
▁ժամանակի	-9.12283
րա	-9.12322
▁ասացին	-9.12409
▁լայն	-9.12623
▁ծրագիր	-9.13016
▁վստահ	-9.13058
▁Ալ	-9.13126
▁պատկերը	-9.13217
▁արեւ	-9.13348
▁հոր	-9.13711
▁Պ	-9.13832
▁երգ	-9.13877
▁զարգացման	-9.13918
▁նայեք	-9.14086
▁անցյալ	-9.1436
▁100	-9.14474
▁ֆիզիկ	-9.14519
▁որոշում	-9.1475
նիվ	-9.1483
ենց	-9.14862
▁Այնու	-9.14958
▁նրանից	-9.15235
▁անմիջա	-9.15425
▁բավարար	-9.15491
▁Միացյա	-9.15518
▁շրջան	-9.1565
▁գիտեմ	-9.15688
▁Ջ	-9.15843
▁ջրի	-9.15915
▁կայք	-9.16095
▁կտա	-9.16194
ացնել	-9.1626
▁25	-9.16647
թի	-9.16689
▁կենսաբան	-9.16699
ափ	-9.16733
▁արդյունքներ	-9.1687
▁պես	-9.16957
▁ներկայացնել	-9.16978
օ	-9.17109
▁ղեկավար	-9.17155
▁ծնողներ	-9.1716
▁ապահով	-9.17225
▁ջր	-9.17241
▁օգտակար	-9.17342
▁նստած	-9.17447
▁օգնությամբ	-9.1748
▁գնել	-9.17639
▁կլինե	-9.17869
▁էլեկտրական	-9.17903
▁մոր	-9.17912
▁սեր	-9.1811
▁միջով	-9.18237
▁իրավիճակ	-9.18391
երին	-9.18391
▁ծանոթ	-9.18467
▁ուղեղը	-9.1853
▁օ	-9.18644
▁առաջնորդ	-9.18687
8	-9.18693
ողական	-9.18795
▁մեքենա	-9.19129
որդ	-9.19153
րո	-9.19167
▁խմբի	-9.19188
▁պակաս	-9.19229
▁հարուստ	-9.19232
▁բնակչության	-9.19236
▁աջ	-9.19265
▁ավել	-9.19654
▁բջիջներ	-9.19687
▁Իր	-9.19721
▁S	-9.19832
▁դե	-9.19914
▁այդպիսի	-9.20069
▁հոգ	-9.20278
▁փողոց	-9.20318
▁ուսումնասիրել	-9.2033
ուս	-9.20415
▁մեքենաներ	-9.20573
մամբ	-9.20576
գի	-9.206
▁այնուհետ	-9.20923
▁ուժեղ	-9.21106
▁Մեծ	-9.21152
▁Երկու	-9.21152
ալի	-9.21158
▁Այդպիս	-9.21167
▁առումով	-9.21181
▁ծ	-9.21214
▁ուր	-9.21307
▁նյութ	-9.21348
▁ամս	-9.21508
գա	-9.21617
▁Ջոն	-9.21677
▁5	-9.21702
00	-9.21712
տա	-9.2183
▁սպան	-9.21839
այո	-9.21902
▁Դրա	-9.22096
▁հարկավո	-9.2252
▁կետ	-9.22618
դեպ	-9.22653
▁խաղի	-9.22849
յին	-9.23095
▁&#9	-9.23113
▁&#93;	-9.23113
▁մահվան	-9.23114
▁կարճ	-9.23141
▁կայան	-9.23226
▁երկուս	-9.23285
▁ամենուր	-9.23428
▁մոտավոր	-9.23485
,000	-9.23654
▁տալու	-9.237
▁պայքար	-9.23935
▁մասնակց	-9.24129
▁զ	-9.24181
▁ենթադր	-9.24236
բա	-9.2428
▁միա	-9.2432
6	-9.24686
9	-9.24699
հատուկ	-9.2473
Ու	-9.24765
▁արժե	-9.2482
▁ընկ	-9.24859
▁տեսողական	-9.25113
▁ամենամեծ	-9.25113
▁հաջող	-9.25172
▁Ար	-9.25202
▁համապատասխան	-9.25239
▁չունե	-9.25261
▁նամակ	-9.2529
▁մտածեք	-9.25329
▁հատ	-9.25356
a	-9.2551
ույ	-9.25636
▁հեռախոս	-9.25728
▁գիտե	-9.25881
եռ	-9.25909
▁փ	-9.25912
▁պ	-9.25968
վեցին	-9.26095
▁վայրկյան	-9.26171
▁հաշվ	-9.26237
▁ընկերների	-9.26286
▁աղքատ	-9.2646
▁թողն	-9.26491
այք	-9.26612
▁տվեց	-9.26634
▁համակարգի	-9.26648
▁հուզ	-9.26807
▁տարիք	-9.26833
▁ակտիվ	-9.26972
▁փակ	-9.2701
▁բացատրել	-9.27114
ատիպ	-9.27117
▁աստիճան	-9.2712
▁Google	-9.27154
▁յոթ	-9.27154
▁կցանկանայի	-9.27174
▁եղած	-9.2725
▁հասարակություն	-9.27257
▁թվային	-9.27262
▁Որպես	-9.2727
▁ֆիլմ	-9.27326
2	-9.27378
▁անգլերեն	-9.27418
▁մեքենան	-9.27466
▁հասարակության	-9.27658
րել	-9.27669
▁ձայներ	-9.27727
▁առողջ	-9.27827
▁ցանցեր	-9.27833
ոք	-9.27842
▁հանր	-9.27849
▁տաս	-9.28129
▁գեր	-9.28324
ելուց	-9.2839
ացման	-9.28536
▁ծախս	-9.28615
▁րն	-9.28619
▁հզոր	-9.28723
▁շահ	-9.28992
▁տարբերակ	-9.28992
▁դրանով	-9.29055
▁ձախ	-9.29075
անալ	-9.29101
▁ստեղծելու	-9.29162
▁բժիշկ	-9.29231
▁Աստված	-9.29239
▁ուղղությամբ	-9.2929
▁սպառ	-9.29294
▁քաշ	-9.2932
▁պատահ	-9.29325
▁մասեր	-9.29327
▁Մինչ	-9.29337
▁հար	-9.29523
▁համաձայն	-9.29526
▁սկսեցին	-9.29741
▁սովորում	-9.29818
▁ուղարկ	-9.30084
▁իրականություն	-9.30212
r	-9.30355
▁Գիտե	-9.30398
▁գաղափարը	-9.30573
▁ճանաչում	-9.30706
աթ	-9.30717
▁նկարել	-9.30791
▁կիրառել	-9.31012
ացած	-9.31017
▁կո	-9.31197
▁կրոն	-9.31412
▁ցածր	-9.31421
▁Ծ	-9.31444
▁աշխատ	-9.31715
▁անձ	-9.31752
▁անունով	-9.31766
▁փնտրում	-9.31771
▁ուղի	-9.31878
▁սովորական	-9.32145
▁իրեր	-9.32261
▁մատ	-9.32465
▁սկսեցինք	-9.32728
▁պաշտպան	-9.32802
▁Պարզ	-9.32844
▁անունը	-9.32849
▁մն	-9.32898
▁մասում	-9.32995
տնտեսական	-9.33004
▁անենք	-9.33043
▁միջավայրի	-9.33336
▁ազդ	-9.33518
▁բռն	-9.33538
▁մարմնի	-9.33539
▁ծանր	-9.3354
▁գիրքը	-9.33561
▁փորձառություն	-9.33569
▁միլիոնավոր	-9.33654
▁ունեի	-9.33657
▁բացահայտ	-9.33728
▁հստակ	-9.33729
▁հիմնված	-9.33738
▁զգալ	-9.33806
▁տվել	-9.33853
▁մտքի	-9.33964
▁վտանգ	-9.34022
▁ընկերություն	-9.34083
▁կողմում	-9.34137
▁ծառ	-9.34157
▁Վերջին	-9.34327
▁քանիս	-9.34468
կի	-9.34677
▁վերջում	-9.34901
▁նախագծ	-9.3503
▁կարդալ	-9.35189
▁երեխան	-9.35408
▁վախ	-9.35425
▁սկզբունք	-9.35519
▁կառուցվածք	-9.3556
▁տեխնոլոգիան	-9.35664
▁Չ	-9.35731
▁ամենալավ	-9.35761
▁մեխանիզմ	-9.35763
▁Որոշ	-9.3577
▁դպրոցներ	-9.35825
▁Միգուց	-9.35846
▁արդյունավետ	-9.36066
▁պատկերված	-9.3612
▁C	-9.36194
▁ստեղծվ	-9.36426
▁հետեւել	-9.36469
▁մեքենայի	-9.36672
▁Ինչո	-9.36778
▁միտքը	-9.36891
▁ձեռքեր	-9.36969
▁լիներ	-9.37173
▁հաշվարկ	-9.37176
▁մշակույթ	-9.3721
▁օրվա	-9.37315
▁A	-9.37318
▁կետեր	-9.37494
երում	-9.37685
չի	-9.37717
▁բառեր	-9.37726
▁բերում	-9.37785
▁խնդրի	-9.3792
▁հասկաց	-9.38017
▁հեղինակ	-9.38034
▁Մյուս	-9.38034
▁խելացի	-9.38038
սոն	-9.38081
չես	-9.38095
▁7	-9.38229
▁հաջողության	-9.38315
▁60	-9.38769
▁գիտակց	-9.38944
▁շարժում	-9.39016
▁սովորեցն	-9.39018
▁կանգ	-9.39041
▁եկամուտ	-9.39176
ացված	-9.39441
▁տանը	-9.39478
վելու	-9.39753
▁որոշումներ	-9.39838
եին	-9.39891
ւմ	-9.39962
▁սիր	-9.39985
իստ	-9.4023
▁հայտնվ	-9.40265
d	-9.40334
▁համայնք	-9.40341
▁16	-9.40368
▁վերջերս	-9.40369
▁սարսափելի	-9.40372
▁գլխավոր	-9.40373
▁արժանի	-9.4038
տե	-9.40414
▁լուսանկարներ	-9.40444
▁տղայի	-9.40551
▁հասանելի	-9.40563
▁կտոր	-9.40617
▁կառավարություն	-9.40647
▁վնաս	-9.40679
▁քաղաքի	-9.40775
▁բացի	-9.40862
▁Կա	-9.41083
▁կրթություն	-9.41279
▁ծրագրեր	-9.41281
▁Ը	-9.41535
▁մակարդակ	-9.41576
ամյա	-9.41634
▁թիվը	-9.41808
▁մտն	-9.41895
▁ուտ	-9.42152
▁յուրա	-9.42176
▁վաճառ	-9.4235
▁Այլ	-9.42446
▁Նախ	-9.4253
▁դեմք	-9.42552
7	-9.42699
▁գիտական	-9.42741
▁նշված	-9.42755
▁կտեսնեք	-9.42864
ույնիսկ	-9.42895
ժամանակ	-9.42944
▁գիրք	-9.4303
▁առն	-9.43037
տես	-9.43055
▁գրքի	-9.4316
▁սեւ	-9.4327
▁կոչ	-9.43371
▁Ավելի	-9.43534
▁էիք	-9.43548
▁բացատր	-9.43555
▁գործիք	-9.43606
▁ֆ	-9.4361
▁դիտարկ	-9.43688
▁հիմն	-9.43898
▁ծով	-9.43942
▁երկրների	-9.44052
▁լինե	-9.44097
ացում	-9.44234
թե	-9.44248
կու	-9.44398
▁սննդի	-9.44558
▁այսպիս	-9.44833
▁նկարները	-9.44863
▁կեղծ	-9.44886
▁գաղափարներ	-9.45065
▁իրավունք	-9.45121
▁անհնար	-9.45179
▁խորհուրդ	-9.45179
▁կոնկրետ	-9.45179
▁հաճույք	-9.45179
▁հոգեբան	-9.45179
▁գիտության	-9.45179
▁տղամարդկանց	-9.4518
▁ունեցած	-9.45196
▁Քրիս	-9.45207
▁վերաբեր	-9.45357
տիկ	-9.45449
▁համակարգչ	-9.45491
▁գործիքներ	-9.45532
▁հաշվի	-9.45558
ացրել	-9.45704
▁օգտագործվ	-9.45938
▁M	-9.45999
անց	-9.46226
▁պահել	-9.46299
ահար	-9.46332
▁գույն	-9.46365
▁առնել	-9.46628
▁նշանակություն	-9.46642
▁12	-9.4693
▁մեթոդ	-9.47116
▁լուծում	-9.47123
▁պատկան	-9.47278
▁միջոցներ	-9.47474
▁այ	-9.47587
▁կիս	-9.47667
▁սպասում	-9.47679
▁զույգ	-9.47679
▁պատասխանատու	-9.47686
▁նախատես	-9.47687
աչափ	-9.47713
D	-9.47724
▁եղանակ	-9.47751
▁ամերիկ	-9.47853
▁գնաց	-9.4814
▁ետ	-9.4817
▁թաքնվ	-9.4822
▁կային	-9.48345
▁բեր	-9.48447
▁ցանկություն	-9.48539
▁բացահայտել	-9.4857
▁գրավ	-9.48594
▁չկար	-9.48729
▁կոր	-9.48734
▁մա	-9.48752
p	-9.48833
▁գիտեն	-9.48866
▁պատրաստված	-9.4892
▁պաշտոն	-9.4899
▁ընկալում	-9.49105
▁ֆիլմեր	-9.4988
▁նշան	-9.49937
▁սպեկտր	-9.49977
▁զբաղվել	-9.5004
▁Շա	-9.50174
▁պատերազմ	-9.50222
▁ուսանողների	-9.50242
▁բժշկ	-9.50243
▁գլուխ	-9.50243
▁Այսինքն	-9.50245
▁գենետիկ	-9.50246
▁այսինքն	-9.50248
▁առկա	-9.50253
▁նշել	-9.50256
▁սպիտակ	-9.50273
▁վախեն	-9.50286
▁տեսնելու	-9.50295
▁լեզուն	-9.50328
▁ունենալու	-9.50333
▁Առաջինը	-9.50339
▁ժամանակակից	-9.50346
▁շրջակա	-9.50498
▁առաջանում	-9.50634
▁ֆիլմը	-9.50718
▁հանել	-9.50724
▁14	-9.50832
▁անցնել	-9.51012
▁բուժ	-9.51288
▁դնել	-9.51468
▁աչքի	-9.515
▁ութ	-9.51512
▁8	-9.51577
t	-9.51718
▁գնա	-9.51864
▁դեպք	-9.51962
▁հավաքել	-9.52002
▁ձ	-9.5212
▁կառուցել	-9.5222
▁լեզվի	-9.52287
▁ձեւեր	-9.52299
▁ներկա	-9.52444
▁18	-9.52509
▁խանութ	-9.52556
▁նյութեր	-9.52624
▁կարողանան	-9.52633
▁կոչում	-9.52635
▁պատկերացում	-9.52814
▁ուղարկել	-9.52829
▁օքսիթոսին	-9.52875
▁խենթ	-9.52875
▁բնույթ	-9.52875
▁բջջային	-9.52876
▁տեսանյութ	-9.52879
▁նշում	-9.52883
▁հրաշք	-9.52884
▁մասնավոր	-9.5295
▁սկզբ	-9.52985
▁տեսանկյունից	-9.53006
▁տվյալ	-9.531
կեր	-9.53163
▁նախա	-9.53243
▁լվացք	-9.53247
կար	-9.53273
▁ոման	-9.534
▁Աֆրիկայ	-9.53613
▁B	-9.53637
▁ներք	-9.53644
▁ինտերնետ	-9.53707
▁հանդիպեցի	-9.53753
▁երջանկություն	-9.53763
▁Գր	-9.53784
▁դեպքերում	-9.53815
եզ	-9.53997
▁տեխնոլոգիաների	-9.54027
▁շարժվ	-9.54233
▁գույներ	-9.54302
▁ծնվ	-9.54344
▁ուսուցիչներ	-9.54409
▁լր	-9.54463
▁Ուզու	-9.54645
▁առանձ	-9.5493
▁սկզբում	-9.5511
▁ստացա	-9.55222
▁օրենք	-9.55267
▁գին	-9.55304
▁գործը	-9.55327
▁վերաբերվ	-9.55355
▁օդ	-9.55559
▁հավասարակշռ	-9.55578
▁զվարճալի	-9.55578
▁նախագահ	-9.55578
▁աղջկա	-9.55578
▁անվճար	-9.55585
▁մեծամասնություն	-9.55632
▁հագուստ	-9.55639
▁Հնդկաստան	-9.55661
▁տեսություն	-9.55688
▁Նոր	-9.55732
▁սպասել	-9.55732
▁վերադառնալ	-9.5574
▁կրթության	-9.55748
րեց	-9.55749
▁մար	-9.55875
▁ծավալ	-9.55943
▁ուղղ	-9.56056
▁ասելով	-9.56243
▁թող	-9.5625
▁քար	-9.56256
▁Տես	-9.56315
▁պատկերացրե	-9.56332
▁երկ	-9.56359
▁օգտագործ	-9.56396
▁էներգիա	-9.56429
▁մոտեն	-9.56542
պետք	-9.56606
▁1	-9.56639
▁ստանալու	-9.56648
▁շրջ	-9.56684
▁թվականին	-9.56736
▁կիրառ	-9.56846
▁ընդունել	-9.56897
լին	-9.56997
ամա	-9.57155
▁Յորք	-9.57165
▁ընդունում	-9.57189
▁քաղաքներ	-9.57315
դեռ	-9.57326
▁կանոններ	-9.5745
տու	-9.57645
▁կիրառում	-9.57778
▁թողնել	-9.58228
▁Հաջորդ	-9.58355
▁Պատկերացրեք	-9.58355
▁բողոք	-9.58355
▁գլոբալ	-9.58355
▁ընդհանրա	-9.58355
▁հնչ	-9.58355
▁ճարտարապետ	-9.58355
▁նախընտր	-9.58355
▁սկիզբ	-9.58355
▁հղի	-9.58361
▁կանգն	-9.58414
▁բու	-9.58444
▁տվյալների	-9.58463
▁անկյուն	-9.58543
▁լուծել	-9.58547
ուցիչ	-9.58615
արդ	-9.58666
▁շարունակել	-9.58762
Ս	-9.58795
այում	-9.59415
▁ազդակներ	-9.59476
▁տեխնոլոգիայի	-9.59488
▁կանոն	-9.59524
▁ներկայաց	-9.59626
▁խաղաղ	-9.59846
▁բազ	-9.5989
▁յուրաքանչյուրը	-9.59899
ավագ	-9.60095
աբան	-9.60151
▁հաղորդ	-9.60233
▁հասնելու	-9.60264
▁պայմաններում	-9.60443
▁տղան	-9.60445
▁շուտ	-9.60482
▁փոփոխություն	-9.60612
▁չգիտեն	-9.60691
▁աճի	-9.60744
▁հեռավոր	-9.60745
տոր	-9.6082
▁տեսախցիկ	-9.60903
ուստի	-9.61146
g	-9.61198
▁Աֆղանստան	-9.61213
▁Թվիթեր	-9.61213
▁կդառնա	-9.61213
▁միջազգայ	-9.61213
▁անձնական	-9.61224
▁երջանկության	-9.61283
▁ուսուցիչ	-9.61432
▁մահ	-9.61474
▁ցանկ	-9.61552
▁հարցնել	-9.61578
արան	-9.61713
▁գրված	-9.61724
▁ընտրության	-9.61805
▁կիսվել	-9.61874
ինչ	-9.61877
▁ամբողջությամբ	-9.61993
▁մոդել	-9.62104
▁բաժան	-9.62189
▁չգիտեի	-9.6221
▁աչքեր	-9.62362
▁անցկացր	-9.62383
▁գործի	-9.62426
▁տեխնիկա	-9.62436
▁բար	-9.62494
▁հայտ	-9.62495
▁այցել	-9.62713
▁գործեր	-9.62785
▁կլինեն	-9.62844
▁ուշադի	-9.62908
▁Շնորհակալ	-9.62914
▁պատահական	-9.63217
▁սրտի	-9.63379
▁վայրեր	-9.63746
պայման	-9.63775
▁ազգ	-9.63813
ագործ	-9.63845
▁ազդեց	-9.63968
▁մետր	-9.64029
▁հարցում	-9.64053
▁Հանդիսատես	-9.64154
▁Յուրաքանչյուր	-9.64154
▁սենդվիչ	-9.64154
▁բաժին	-9.64154
▁բնորոշ	-9.64154
▁Նկատ	-9.64154
▁կանաչ	-9.64154
▁թանկ	-9.64154
▁մարդկության	-9.64155
▁պատերազմի	-9.64166
▁մշակույթի	-9.64172
▁մարտահրավեր	-9.64237
▁աստղ	-9.64254
▁ներգրավված	-9.64255
▁ապագայի	-9.64289
▁տեղեկատվության	-9.64323
▁կառավարության	-9.64335
▁ծեր	-9.64342
▁դպրոցի	-9.64374
▁ստեղծագործական	-9.64475
▁ապագան	-9.64527
▁P	-9.64596
▁Լա	-9.64634
▁կոդ	-9.64713
Գ	-9.64735
▁հասակ	-9.64774
եթ	-9.649
▁Բար	-9.65006
▁հետեւանք	-9.65075
▁պայմաններ	-9.65102
▁ձայնագր	-9.65201
▁հաջողություն	-9.6526
▁Բաց	-9.65372
ավար	-9.65665
դա	-9.65815
▁Տ	-9.65905
▁համացանց	-9.66112
▁մանկ	-9.66139
▁դիտում	-9.66154
▁ծնվել	-9.6617
էներգիայի	-9.66218
▁տարր	-9.66444
▁աշխարհին	-9.66446
▁դասարան	-9.6651
▁ինքը	-9.66628
պո	-9.66655
▁տաք	-9.66674
▁կրկն	-9.66728
▁հայտնաբերել	-9.6677
▁վերադարձ	-9.66773
աձեւ	-9.66807
▁17	-9.66808
▁թղթի	-9.66834
▁կինը	-9.6696
▁քննարկ	-9.67021
▁հերթի	-9.67044
▁արտադր	-9.67099
▁առարկաներ	-9.67164
▁մակերես	-9.67184
▁համընդհանուր	-9.67184
▁գիտի	-9.67187
▁պատրաստում	-9.67307
▁զանգված	-9.67364
▁հետազոտ	-9.67461
▁վերադարձա	-9.67476
▁կառուց	-9.67641
▁խաղալ	-9.67643
▁սեղանի	-9.67739
▁մյուսի	-9.67779
▁նստ	-9.67799
▁ամենակարեւոր	-9.67819
▁գնահատ	-9.68139
▁հասկանալու	-9.6817
▁ծրագիրը	-9.68315
▁Երեխա	-9.68397
▁քն	-9.68455
▁ընտրել	-9.68552
▁նահանգ	-9.6871
▁հետաքրքրում	-9.68753
▁վառ	-9.6878
▁տարածում	-9.68838
▁միջավայր	-9.69036
▁տատիկ	-9.69063
▁երազանք	-9.69114
▁դիտ	-9.69367
▁ինքնա	-9.69487
ացա	-9.69779
▁ներկայի	-9.70018
▁տարածվ	-9.70049
▁վերցր	-9.70082
▁9	-9.70171
▁հաջողվ	-9.70175
▁հանկարծ	-9.70289
▁Փո	-9.70307
▁կերակր	-9.70307
▁գրասենյակ	-9.70309
▁գրաֆիկ	-9.70309
▁ոգեւոր	-9.70309
▁տեղեկություն	-9.70309
▁տեսահոլովակ	-9.70309
▁փաստաթղթեր	-9.70309
▁էլեկտրոնային	-9.7031
▁արտաքին	-9.70313
▁զգացողություն	-9.70314
▁իրադարձություն	-9.70325
▁պլան	-9.7033
ացող	-9.70332
▁մահանում	-9.70343
հաջողակ	-9.70352
▁պատկերացնում	-9.70355
▁դիմաց	-9.70412
▁գտա	-9.70423
▁կորցն	-9.70428
▁մտավոր	-9.7044
▁ռադիո	-9.70444
▁Կարո	-9.70452
▁շարժման	-9.70457
▁կանխ	-9.70466
er	-9.70538
▁հատված	-9.7077
▁հազար	-9.70792
մեն	-9.70801
▁Կո	-9.70844
▁ունենան	-9.70892
▁զգացմունքներ	-9.70927
▁Աս	-9.71007
▁նախագիծ	-9.71059
▁դարի	-9.71075
անգ	-9.71156
▁ճանաչ	-9.71356
▁T	-9.71371
▁ուսուցիչների	-9.71486
▁սառ	-9.71609
n	-9.71675
▁փորձը	-9.71786
անալու	-9.71835
▁I	-9.72012
▁աշխատող	-9.72028
րկ	-9.72329
▁սահմանափակ	-9.72571
▁ճ	-9.72618
▁գործել	-9.72628
▁նախագիծը	-9.72766
▁անցել	-9.72781
▁հանդիպել	-9.73072
▁հավ	-9.7314
▁հոս	-9.73174
▁ստեղծագործ	-9.73186
▁սրտ	-9.73218
▁համայնքի	-9.73291
▁ասվ	-9.73388
▁Աստծո	-9.73407
▁Չնայած	-9.73535
▁անհավասար	-9.73535
▁ֆինանսական	-9.73535
▁լուսավոր	-9.73536
ակալ	-9.73656
ույթ	-9.73782
ուրբ	-9.73839
▁վարակ	-9.7389
▁ա	-9.73905
▁ցնց	-9.73916
▁ընկերության	-9.74002
▁ընդ	-9.74036
▁լսեցի	-9.74113
▁մեթոդներ	-9.74269
ցրել	-9.74287
Ա	-9.74382
▁Վա	-9.74433
▁Հարց	-9.7445
▁քանակ	-9.74459
▁խմբեր	-9.74483
ինգ	-9.74546
▁տ	-9.74549
▁աղբյուր	-9.74629
▁գնացք	-9.74634
▁սահմաններ	-9.74663
▁ինն	-9.74691
▁թվի	-9.7473
▁որոշել	-9.74738
խիստ	-9.74889
▁խաղեր	-9.7491
▁մակարդակի	-9.74983
▁փորձեր	-9.75202
▁Որ	-9.75321
▁ամ	-9.75401
վար	-9.75651
▁200	-9.75662
▁վազ	-9.75762
▁Տեսն	-9.75821
▁միջավայրում	-9.75874
▁տանել	-9.75966
▁գլխի	-9.75983
գտել	-9.76093
▁արվ	-9.76114
ակարգ	-9.7612
▁ծնողների	-9.76224
գո	-9.76279
▁տղաներ	-9.76281
▁ճաշ	-9.76553
▁գոյ	-9.76556
▁խնդիրների	-9.76632
▁կողք	-9.76746
▁Փաստ	-9.76848
▁դարաշրջան	-9.76868
▁մղոն	-9.76868
▁մաքուր	-9.76868
▁դիրք	-9.76869
▁անհավատալի	-9.76869
▁պատասխանատվությ	-9.76869
▁դատարկ	-9.76869
▁բացահայտում	-9.76876
▁ապագայում	-9.76891
▁առաջընթաց	-9.76914
▁ապշեց	-9.76935
պետ	-9.76938
▁քանակությամբ	-9.76941
▁համալսարան	-9.77011
▁չգիտեմ	-9.77029
իայի	-9.77129
▁փոխվել	-9.77205
▁ստեղծված	-9.77214
▁մեծացել	-9.77216
▁Հար	-9.77225
▁մոտեցում	-9.77316
▁կորցր	-9.77378
▁առանձնա	-9.77389
▁չափում	-9.77491
եցնել	-9.77536
▁կարդ	-9.77717
▁շուտով	-9.77738
▁4-	-9.77802
A	-9.77804
▁հարցրեցի	-9.77842
▁մոլորակ	-9.77965
▁70	-9.78016
▁ճնշ	-9.78056
▁դիմ	-9.78086
▁խմբ	-9.78119
▁փաստը	-9.7814
ույն	-9.78298
▁արեցի	-9.78337
լու	-9.78368
ապահ	-9.78393
▁համոզել	-9.78533
▁վճար	-9.78617
▁փրկ	-9.7865
▁ընթացք	-9.78651
▁հագ	-9.78858
ականներին	-9.7897
▁դարում	-9.79247
▁չափել	-9.79423
▁հարկ	-9.79464
անը	-9.79466
վտանգավոր	-9.79549
պատ	-9.79587
▁նկարահան	-9.79651
եինք	-9.79681
▁աչքերը	-9.79775
լե	-9.79827
▁հի	-9.79863
▁պատի	-9.7997
▁Նույն	-9.80056
▁Զ	-9.8016
▁բրենդ	-9.80317
▁այնուամենայ	-9.80318
▁հազվադեպ	-9.80321
▁սեպտեմբերի	-9.80323
▁մուտք	-9.80327
▁արյուն	-9.80328
▁ճանապարհորդ	-9.8036
▁ուրիշների	-9.80412
▁տեսնենք	-9.80479
▁հարավ	-9.80523
յակ	-9.80534
▁Կարմ	-9.80536
▁Բիլ	-9.8056
▁Թե	-9.80564
▁ստացվում	-9.806
▁մե	-9.80626
▁Մոտ	-9.80744
▁զգացմունք	-9.80824
▁իմանա	-9.80944
ունակ	-9.81012
▁եռ	-9.81017
▁սկսվեց	-9.81062
c	-9.81096
▁ամուսն	-9.81524
▁ֆիզիկա	-9.81537
▁Դրանց	-9.81595
▁Կար	-9.81609
en	-9.81663
u	-9.81789
▁սկսենք	-9.81795
ողների	-9.81829
on	-9.81882
▁այսքան	-9.81958
▁կտեսնեն	-9.82363
▁յ	-9.82478
▁լույսի	-9.82495
▁դեմքեր	-9.82528
▁արդար	-9.82565
0	-9.82665
▁համա	-9.82773
▁ճշգր	-9.82849
▁Պա	-9.82909
▁հրավիր	-9.83006
▁անդամ	-9.83075
▁կարողանայի	-9.83342
ուրջ	-9.83439
▁զգացում	-9.83492
▁աղ	-9.83498
▁շրջապատ	-9.83633
▁հող	-9.83723
ամիտ	-9.83766
▁հաճելի	-9.83888
▁տնօրեն	-9.83888
▁հեղափոխություն	-9.83888
▁կարմիր	-9.83888
▁դժբախտ	-9.83889
▁համատեղ	-9.83893
▁տառապում	-9.83904
▁տեսարան	-9.83912
▁կույ	-9.83958
▁եղավ	-9.83977
▁հոտ	-9.84093
▁Սկս	-9.84117
▁երեկո	-9.84119
▁շրջապատող	-9.84149
աճ	-9.84172
▁աջակց	-9.84206
րեն	-9.84339
▁քիմի	-9.84381
▁բարձրաց	-9.84529
▁կազմակերպության	-9.84532
▁լեզվ	-9.8455
▁մշտա	-9.84618
▁համակարգիչներ	-9.84674
▁տեսնե	-9.84767
▁ազգայ	-9.84768
▁ձգտում	-9.84827
եցնում	-9.84912
▁մոլորակի	-9.84996
▁սարքավորումներ	-9.85043
▁հանձն	-9.85163
ոյի	-9.85229
▁դաշտ	-9.85289
▁գործընկեր	-9.85299
▁Մար	-9.85327
▁մայրը	-9.85331
▁դեմքի	-9.85374
▁քարտեզ	-9.85465
▁սիրելի	-9.85509
▁տեխնոլոգիաները	-9.85512
▁հրապարակ	-9.85554
▁Չե	-9.85561
▁աուտիզմի	-9.85619
▁ինչո	-9.8564
▁հատվածի	-9.85813
▁նախագծեր	-9.85904
▁գազ	-9.8592
▁Մո	-9.8604
▁օրինակներ	-9.86047
▁շարժ	-9.8607
▁նպատակը	-9.86097
▁դիտարկել	-9.86454
▁ելույթներ	-9.86466
▁ընդուն	-9.86515
▁ծրագր	-9.86541
▁անհատական	-9.8658
ունդ	-9.86616
կազմակերպություն	-9.86719
▁լուր	-9.86755
▁սն	-9.86806
▁դիտել	-9.86827
▁դար	-9.86839
▁տեղադրել	-9.86936
▁զանգ	-9.87
▁պա	-9.87058
▁ապագա	-9.87082
▁ծածկ	-9.87227
▁90	-9.87265
▁նետ	-9.87369
▁տա	-9.87395
▁նավթ	-9.87478
y	-9.87542
▁ԴՆԹ	-9.87592
▁գործունեություն	-9.87592
▁դանդաղ	-9.87592
▁թագավոր	-9.87592
▁հոդված	-9.87592
▁Պատմ	-9.87592
▁գլխարկ	-9.87597
▁գրանցվ	-9.87602
▁անշու	-9.87602
▁առօրյա	-9.87607
▁արեց	-9.87647
▁զարմաց	-9.87653
▁փչ	-9.8767
▁հակա	-9.87708
▁սարքեր	-9.87738
ապ	-9.87749
▁ծրագրավոր	-9.8775
▁որոշեցին	-9.87794
▁կստանա	-9.87864
▁զգաց	-9.879
▁աճել	-9.87941
ահան	-9.87943
ուդ	-9.87947
▁զրուց	-9.88017
▁վերած	-9.88039
▁հարցին	-9.88142
▁արեցինք	-9.88199
▁Ռո	-9.88205
▁տներ	-9.88206
▁չուներ	-9.88245
▁գեն	-9.8826
ակից	-9.88262
▁պարզել	-9.8827
▁փոխեց	-9.88277
▁քաղաքականության	-9.88277
▁կառավար	-9.88317
անյութ	-9.88444
▁չար	-9.88476
▁դինոզավրեր	-9.88498
արի	-9.88542
▁նկարագր	-9.88618
.000	-9.88619
ոպ	-9.88696
▁կոչված	-9.88763
▁բանն	-9.88829
h	-9.88863
▁հերոս	-9.88915
տեղյակ	-9.89018
Հ	-9.89024
▁քաղաքացի	-9.89074
▁տարբերակներ	-9.89082
▁ուղեղ	-9.89269
▁գիտելիքներ	-9.89346
ատար	-9.89472
▁բռնություն	-9.89607
▁արտահայտություն	-9.8967
▁պահպանել	-9.89682
▁քայլել	-9.89686
▁իմաստով	-9.89802
▁գետ	-9.89867
▁կարդաց	-9.89905
▁թեւ	-9.89958
▁դպրոցը	-9.9023
▁հայտարար	-9.9033
▁կապեր	-9.90332
▁հարմար	-9.90497
▁տեղում	-9.90516
բար	-9.90603
▁աշխատելու	-9.90633
▁կենդանիների	-9.90759
▁բուժում	-9.9081
▁ժամանակը	-9.91051
▁Բան	-9.91121
▁դիզայն	-9.91226
▁գիտակցում	-9.9124
▁հատվածներ	-9.91307
▁հնար	-9.91364
▁վերադառն	-9.91412
▁ականատես	-9.91438
▁զայրույթ	-9.91438
▁դրոշ	-9.91438
▁Այնշտայն	-9.91438
▁դեռահաս	-9.91438
▁բացարձակ	-9.9144
▁Երեք	-9.91441
▁աղմուկ	-9.91442
▁հայտնագործ	-9.91442
▁օտար	-9.91445
▁եվ	-9.91489
▁հակված	-9.91527
▁ստանա	-9.91543
▁գովազդ	-9.91544
▁փորձարկում	-9.91566
▁պատահեց	-9.91623
▁շնչ	-9.91625
▁կրթ	-9.91676
▁աղբ	-9.91694
▁այդտեղ	-9.91721
▁հետազոտության	-9.91747
▁ընկալ	-9.91963
▁անուն	-9.91989
▁կտր	-9.92048
▁Չինաստանի	-9.92061
▁գիտեի	-9.92285
նիկ	-9.92338
գիստ	-9.92384
▁լաց	-9.92411
ողները	-9.92468
▁ծագում	-9.92537
▁L	-9.92664
▁կկարողանա	-9.92819
▁ուսանողներ	-9.92942
▁թռչ	-9.93122
▁խոսելու	-9.93209
տոն	-9.93226
▁ռիսկ	-9.93274
▁ավարտել	-9.93322
▁պտտ	-9.93351
▁իսկական	-9.93419
▁ահ	-9.9347
▁ստ	-9.93519
▁ուղեղում	-9.9373
▁արդյունքը	-9.93921
▁դիմում	-9.93971
▁կգա	-9.93997
▁ավելացն	-9.9401
▁ծայր	-9.94077
▁կառուցում	-9.94142
▁կօգն	-9.94178
▁ձեւը	-9.94293
▁թիվ	-9.94308
▁մասնագետ	-9.94445
▁80	-9.9448
▁արտա	-9.94538
▁տարածքը	-9.9464
▁վճարել	-9.95038
արտ	-9.95063
▁կհ	-9.95101
երս	-9.95105
▁բացառ	-9.95187
▁պահեր	-9.95212
▁նվիր	-9.95218
▁չունեի	-9.95345
▁տպ	-9.95382
▁հավատաց	-9.95417
▁մոլեկուլ	-9.95438
▁կեղեւ	-9.95438
▁կապույտ	-9.95449
▁քսան	-9.95453
▁հետագայում	-9.95455
▁կուզենայի	-9.9549
▁տվեցի	-9.955
▁փաստացի	-9.95514
▁ներդրում	-9.95527
▁ունակություն	-9.95564
▁Այնտեղ	-9.95569
▁սեռական	-9.95574
▁կողքի	-9.95619
▁հասուն	-9.95628
▁գլխուղեղի	-9.9563
▁երաժշտության	-9.95662
▁վերափոխ	-9.95694
▁կազմել	-9.95709
ավորման	-9.9572
▁ուսուցան	-9.95722
▁հայտնվել	-9.95765
▁վայրի	-9.95819
▁արեւմտ	-9.95829
▁լա	-9.95902
▁մաթեմատիկայի	-9.95933
▁փոխվում	-9.96063
▁համագործակց	-9.9608
▁հիվանդների	-9.96187
տեղ	-9.96217
▁դիզայներ	-9.96236
▁մեծանում	-9.96259
անման	-9.96276
▁շուկայ	-9.96454
▁օգնության	-9.96515
▁ուտելիք	-9.96568
▁ազատություն	-9.96596
▁երկրները	-9.96665
▁անցկացն	-9.9674
▁ընկալել	-9.96813
▁տարած	-9.96827
▁ցուցադրել	-9.96855
▁հետաքրքր	-9.96866
ություններից	-9.97021
ենտ	-9.97054
▁խնդիրն	-9.97066
▁20-	-9.97179
▁օգնություն	-9.9723
▁աղջիկներ	-9.97491
▁պր	-9.97492
▁փորձարկ	-9.97519
▁գեներ	-9.97539
▁Յ	-9.9757
▁տվեցին	-9.97593
▁ոտքերի	-9.9765
▁ծրագրի	-9.9766
▁ընկերներ	-9.97725
▁պատճառներ	-9.97954
▁կապի	-9.98001
մար	-9.9804
▁ճամփորդ	-9.98052
▁Հա	-9.98073
օրվա	-9.9814
ականների	-9.98158
ավորված	-9.98231
▁ունեցա	-9.98255
լո	-9.98438
▁մարդուն	-9.98503
▁սովորեցնել	-9.98659
▁աստղերի	-9.98672
▁նստել	-9.9871
▁հայացք	-9.98746
▁եկան	-9.98755
▁հասցնել	-9.98768
▁ճանաչել	-9.99027
ահա	-9.99034
ժի	-9.99052
▁քաղցկեղ	-9.99149
▁ինֆորմացիա	-9.99331
ներս	-9.99362
▁անցկացնել	-9.99449
▁քաղ	-9.99603
▁Ամբողջ	-9.99604
▁հարցազրույց	-9.99604
▁ուռուցք	-9.99604
▁վարքագիծ	-9.99604
▁SETI	-9.99605
▁հեղուկ	-9.99605
▁տաղանդ	-9.99605
▁ծափահար	-9.99605
▁փոխանակ	-9.99606
▁դատարան	-9.99606
▁կապիտալ	-9.99609
▁համակարգիչ	-9.99612
▁Այնուամենայ	-9.99616
▁եկա	-9.99619
▁վերջնական	-9.99622
▁հանկարծակի	-9.99631
▁շարժիչ	-9.99657
▁ստեղծման	-9.99689
▁նվեր	-9.99721
▁տասնամյակ	-9.99808
▁հետաքրքրված	-9.99823
▁մահացել	-9.99843
▁տարածության	-9.99859
▁արդյունաբեր	-9.99871
▁Միայն	-9.99884
թար	-9.99941
▁տրամադր	-9.99955
▁կանգնել	-9.99958
▁հարցի	-10.0005
in	-10.0008
▁օգտվ	-10.0024
րան	-10.0025
▁շարժումներ	-10.0025
▁Նման	-10.0036
▁տեղեր	-10.0037
▁կարո	-10.0043
▁թափ	-10.0052
րաշալի	-10.0067
▁բառի	-10.0067
▁կառավարել	-10.0091
▁Պարզվ	-10.0096
ուզ	-10.0097
▁հարեւան	-10.01
▁հագն	-10.0105
▁ալգորիթմ	-10.0111
▁թվ	-10.0114
▁ոլորտներ	-10.0118
▁տեղեկատվ	-10.013
▁մարմին	-10.0131
▁500	-10.0131
▁չգիտ	-10.0134
յից	-10.0141
E	-10.0149
▁ոսկ	-10.0151
▁եղ	-10.0151
տյան	-10.0153
▁նկարի	-10.0163
▁գիտություն	-10.0168
▁կառավարում	-10.0195
▁գտնելու	-10.0197
▁գաղտնիք	-10.0199
▁11	-10.0204
▁խնայ	-10.021
▁արվել	-10.0213
▁ուսանող	-10.0228
▁տարրեր	-10.0236
▁նպատակն	-10.0248
▁խմ	-10.0249
▁բարի	-10.0268
▁հալյուցինացիա	-10.0292
▁բջիջների	-10.0297
▁ամենակարեւորը	-10.0304
իչներ	-10.0307
▁գաղտնի	-10.031
▁ուտել	-10.0313
▁մաթեմատիկ	-10.0323
տիվ	-10.0329
▁հավատալ	-10.0329
▁հանցագործ	-10.0336
▁իրականացնել	-10.0344
▁վերահսկել	-10.0351
▁մասի	-10.0354
հար	-10.0356
▁ժամանակն	-10.0366
▁փոխանցվ	-10.0377
▁հերթ	-10.0379
▁սարսափ	-10.0393
▁ավանդ	-10.0395
▁Հետաքրքիր	-10.0395
▁Ռիչարդ	-10.0395
▁անհավանական	-10.0395
▁ժամանակահատված	-10.0395
▁ժամանակաշրջան	-10.0395
▁ձեւափոխ	-10.0395
▁ճամբար	-10.0395
▁պտուղ	-10.0395
▁ամուսին	-10.0395
▁լրատվ	-10.0395
com	-10.0395
▁տասնյակ	-10.0396
▁կախարդանք	-10.0396
▁Չէ	-10.0396
ախոս	-10.0397
▁ծառայում	-10.0397
ad	-10.0397
▁կողմնակի	-10.0397
▁ցեղ	-10.0397
▁կլան	-10.0398
▁լուծման	-10.0411
▁զգայական	-10.0412
ատակ	-10.0422
▁անվանել	-10.0446
▁նպաստ	-10.0456
▁Սրա	-10.0471
ացրեց	-10.0472
▁ցուցադր	-10.0472
▁երաժշտ	-10.0481
▁մեջբերում	-10.0482
▁անհատ	-10.0486
▁գրք	-10.0496
▁թեյ	-10.0498
▁նախն	-10.0498
▁կունենան	-10.0502
շատ	-10.0514
▁պարունակում	-10.0528
▁մշակել	-10.053
▁վերեւ	-10.0531
▁հիշեցն	-10.0531
▁չե	-10.0533
▁չունեին	-10.0539
▁անհատների	-10.0539
▁Հայ	-10.0555
▁քարտեզի	-10.0568
▁ձախող	-10.0575
▁ռե	-10.0581
▁մյուսը	-10.0585
▁գծ	-10.0586
▁փողոցներ	-10.0594
▁սպանել	-10.0599
I	-10.0605
▁հմտություններ	-10.061
▁դրամ	-10.0625
▁E	-10.0648
▁սխալներ	-10.065
▁Նահանգներ	-10.0676
սուն	-10.0685
▁հերոսներ	-10.0689
▁ստուգել	-10.0705
▁լեզու	-10.0712
▁օրենքներ	-10.0717
եկան	-10.072
▁ճանապարհը	-10.0741
▁նախագծի	-10.0753
▁Եվրոպայ	-10.0754
▁Եվրոպա	-10.076
▁կատարելու	-10.076
▁եղբայր	-10.0777
▁համոզվ	-10.0787
ագիր	-10.0793
▁պետ	-10.0805
▁մո	-10.0806
▁պարզվ	-10.0811
▁առնում	-10.0818
▁տղա	-10.082
▁վարել	-10.0821
վոր	-10.0824
▁վաստակ	-10.0834
▁կրել	-10.0837
անե	-10.0838
կոտ	-10.0838
.-	-10.0842
k	-10.0845
օրյա	-10.0849
▁Անդերսոն	-10.085
▁Լոնդոն	-10.085
▁Հյուսիս	-10.085
▁ՁԻԱՀ	-10.085
▁Ողջ	-10.085
▁Ռուսաստան	-10.085
▁բաղկաց	-10.085
▁բլոգ	-10.085
▁զրույց	-10.085
▁խոշոր	-10.085
▁վարքագծային	-10.085
▁տարածաշրջան	-10.085
▁ֆիլտր	-10.085
▁Փորձ	-10.085
▁առեւտր	-10.085
▁աստված	-10.085
▁կգտնե	-10.085
▁կործան	-10.085
▁քաղցր	-10.085
▁փոփոխության	-10.085
▁տեսանելի	-10.085
▁ինքնուրույն	-10.085
▁վրայով	-10.085
▁ընկերոջ	-10.0851
▁բնության	-10.0852
▁իջն	-10.0852
▁դասակարգ	-10.0852
▁նախորդ	-10.0853
▁վարձ	-10.0854
▁Ջեյ	-10.0854
▁Կրկ	-10.0855
▁բառացի	-10.0857
քանչ	-10.0861
▁հայտարարություն	-10.0862
▁բարձրանում	-10.0871
▁արյան	-10.0875
տար	-10.0876
▁տպագր	-10.0881
▁մասնակցել	-10.0882
▁տեղափոխվ	-10.0884
▁պահանջվում	-10.0885
▁G	-10.0888
▁Լոս	-10.0894
ֆի	-10.0895
▁պատմեց	-10.0898
▁աղքատության	-10.0906
▁պահպան	-10.0915
▁Որքա	-10.0939
պիտ	-10.094
▁ապացուց	-10.0946
▁Սիր	-10.0951
▁իմաց	-10.0953
▁տարածքներ	-10.0953
▁ձեւավորվ	-10.0966
▁բազմ	-10.0974
բո	-10.0977
▁բերեց	-10.0977
▁հիվանդանոց	-10.0977
▁կարեկցանք	-10.099
▁երկուսը	-10.099
▁կասկած	-10.0992
▁նայեցի	-10.0996
▁տրվ	-10.1007
▁բանտում	-10.1008
իզմի	-10.1013
▁պատմական	-10.1034
▁աչք	-10.1035
ստա	-10.1037
▁նկատել	-10.1047
▁տնտես	-10.1055
ապատ	-10.1058
▁արվեստը	-10.1068
▁սերունդ	-10.1073
օրինակ	-10.1077
ացնելու	-10.108
▁նվագել	-10.1092
ազն	-10.1098
▁գնահատել	-10.1104
▁կենդանիներ	-10.1108
աժ	-10.1112
▁Հավանա	-10.1114
▁աղջիկների	-10.1114
▁ժամանակներ	-10.1126
▁տառ	-10.1128
▁պատմությունն	-10.1146
▁առաջացն	-10.1154
▁հետաքրքրություն	-10.1168
▁Ավելին	-10.117
▁կարեւորությունը	-10.1177
▁հետեւանքներ	-10.1178
▁զգացումը	-10.1178
▁գնահատում	-10.1188
▁լրատվամիջոցներ	-10.1193
▁սովորեցի	-10.1212
▁տուփ	-10.1212
▁սովորելու	-10.1214
▁հատվածը	-10.1216
▁պատասխանել	-10.1232
▁պատուհան	-10.1233
▁հարված	-10.1243
▁ջ	-10.1247
▁խաբ	-10.1249
▁դառնա	-10.1264
▁ընտանիքների	-10.1279
▁խրախուս	-10.1285
▁զգալի	-10.1291
▁գտնվել	-10.1297
▁առա	-10.131
▁դիմել	-10.1311
▁ծայրահեղ	-10.1313
մոն	-10.1313
ջան	-10.1315
▁հուս	-10.1322
▁չլինե	-10.1322
ամաշխարհային	-10.1323
▁օգտագործմա	-10.1324
▁Սկզբ	-10.1326
ouTube	-10.1326
▁Թալիբան	-10.1326
▁ՄԱԿ	-10.1326
▁Պաղեստին	-10.1326
▁թուղթ	-10.1326
▁մամուլ	-10.1326
▁պրոցես	-10.1326
▁քննադատ	-10.1326
▁Տղամարդ	-10.1326
▁կոճակ	-10.1326
▁Ջորջ	-10.1326
▁լսարան	-10.1326
տխուր	-10.1326
▁անդամներ	-10.1326
▁դեղին	-10.1326
▁մտածող	-10.1326
▁գործարք	-10.1326
▁ինքնասպան	-10.1326
հանդես	-10.1327
▁սեքս	-10.1328
պե	-10.1331
▁ցուցակ	-10.1332
▁բարեկեցության	-10.1333
▁գործարան	-10.1334
▁Արեւմ	-10.1336
▁պարոն	-10.1337
ռելի	-10.1339
▁նավթի	-10.1341
▁մակարդակը	-10.1342
le	-10.1345
▁փոխարենը	-10.1356
▁նշանակալի	-10.1357
▁հպարտ	-10.1357
▁զենք	-10.136
▁փոխանցել	-10.1361
▁համայնքներ	-10.1366
▁11-	-10.1368
երորդ	-10.1369
▁դուռ	-10.137
▁թվեր	-10.1374
▁մտածեն	-10.1388
▁փոխակերպ	-10.139
ամենայն	-10.1394
▁Գոր	-10.1402
▁կենդանու	-10.1405
▁300	-10.1405
▁հիվանդության	-10.1411
▁առնվ	-10.1411
աֆ	-10.1414
▁ունենալով	-10.1414
▁ապահովում	-10.1421
▁ստիպեց	-10.1426
յուն	-10.1434
▁վերլուծ	-10.1435
▁Աշխարհ	-10.1441
▁դրդապատճառներ	-10.1441
▁հոսք	-10.1454
▁մտքերի	-10.1462
▁ունեցան	-10.1471
▁..	-10.1473
▁հանդիպ	-10.1493
▁տեսակներ	-10.1498
▁լուծ	-10.1508
▁Իսրայել	-10.1516
▁վերահսկում	-10.1523
▁տիեզերք	-10.1527
▁դեպքերի	-10.1532
▁օգտագործող	-10.1533
▁կողմը	-10.1535
▁ենթարկվ	-10.1537
▁էջեր	-10.1539
▁մշակ	-10.1546
▁խաղը	-10.1548
▁վիճակագրություն	-10.1555
▁նվագ	-10.1566
▁լար	-10.1566
▁բացում	-10.1566
է	-10.1569
▁պատասխանն	-10.1571
արժեք	-10.1581
▁հոգի	-10.1582
▁գիտելիք	-10.1592
պարտ	-10.1601
▁առավելություն	-10.1601
et	-10.1618
▁կողմի	-10.1629
▁մտահոգ	-10.1635
▁գործընթացի	-10.1647
▁ալգորիթմներ	-10.1648
▁գումարներ	-10.1649
▁անձի	-10.165
▁սահմանում	-10.1652
▁մանրամասն	-10.1652
▁դառնալու	-10.1653
▁վերեւում	-10.1653
▁լուծումներ	-10.1656
▁կողմեր	-10.1656
▁կաղապար	-10.166
▁պատահել	-10.1672
▁կանգնեց	-10.1672
▁բժիշկներ	-10.1674
▁հատվածում	-10.1674
▁ստեղծեցին	-10.1677
▁սենսոր	-10.168
▁Աֆրիկա	-10.1686
▁լք	-10.1687
▁ցանցի	-10.169
m	-10.1693
▁տարածություն	-10.1693
▁150	-10.1698
▁կրակի	-10.1702
▁անուններ	-10.1703
▁անջատ	-10.1705
▁ապրանք	-10.1717
▁սովորեցր	-10.1724
▁հիշող	-10.1726
խառն	-10.1741
▁շերտ	-10.1751
▁տղաների	-10.1763
▁հեռաց	-10.1773
▁ցուցանիշ	-10.1773
▁դիտարկում	-10.1783
▁դադար	-10.179
▁տարիներին	-10.1796
▁խոսքեր	-10.1799
▁այդպիսին	-10.18
▁D	-10.1805
▁Ամերիկայի	-10.1808
▁ռեսուրսների	-10.1808
ճակատ	-10.181
▁Հնդկաստանի	-10.181
▁ուժեր	-10.1814
▁ուսուցիչները	-10.1821
▁ծննդ	-10.1826
▁Վիդեո	-10.1826
▁Փարիզ	-10.1826
▁Փոխարենը	-10.1826
▁անծանոթ	-10.1826
▁ինքնաթիռ	-10.1826
▁խոհարար	-10.1826
▁ճգնաժամ	-10.1826
▁շոկոլադ	-10.1826
▁Վիրջին	-10.1826
▁պոտենցիալ	-10.1826
▁ահաբեկչության	-10.1826
▁անհայտ	-10.1826
▁հուշ	-10.1826
▁հյուրանոց	-10.1826
▁փոխկապակցված	-10.1827
▁հաղթանակ	-10.1827
▁կերտ	-10.1828
▁չկարողացա	-10.1828
▁ստորագր	-10.183
▁մտքում	-10.1832
ուհի	-10.1833
▁հոգու	-10.1835
▁ուսուցման	-10.1835
▁ահավոր	-10.1837
սովոր	-10.1838
▁21-	-10.184
▁խզբզել	-10.1843
▁հանդիպման	-10.1844
▁արժեքավոր	-10.1845
▁Հուս	-10.1846
▁հետեւից	-10.1853
▁ասի	-10.186
▁խմբերի	-10.186
▁շրջանակ	-10.1862
▁Երեխաները	-10.1864
▁հանգեցն	-10.1868
▁մանր	-10.1879
▁գրեցի	-10.1891
▁երիտասարդների	-10.1893
▁քառակուսի	-10.19
▁խոսքի	-10.1913
▁ճամփորդություն	-10.1916
յլ	-10.1918
▁ներդրումներ	-10.192
▁ղեկավարում	-10.1923
▁կոտր	-10.1927
▁կատարած	-10.1929
▁ապրանքներ	-10.1936
▁ուսուցում	-10.1937
▁արտահայտվ	-10.1939
▁ուսումնասիրելու	-10.1944
▁թերթեր	-10.195
▁ազդր	-10.1952
▁զարգացնել	-10.1954
տին	-10.1957
▁24	-10.1962
▁անվան	-10.1987
ացրած	-10.1995
հի	-10.1998
▁փոխանցում	-10.2001
▁մոլորակներ	-10.2026
▁հետեւյալը	-10.203
▁բարելավ	-10.2033
▁թվականի	-10.2036
▁անհատներ	-10.2043
▁Խոս	-10.2054
չափ	-10.2064
▁զարգացումը	-10.2068
▁հանք	-10.2081
▁պտտվ	-10.2095
▁տոկոսն	-10.2095
▁պատճառն	-10.2103
▁եկ	-10.2104
Օ	-10.211
▁թռչունների	-10.2123
տալ	-10.213
▁պատկերում	-10.2137
▁վատն	-10.2138
▁բարելավել	-10.2139
▁տե	-10.2141
▁ուժի	-10.2142
re	-10.2144
▁կկարողանան	-10.2149
▁ճկուն	-10.215
▁Բո	-10.2163
▁հարցերի	-10.2164
▁վճարում	-10.2164
▁ճնշում	-10.2166
▁Երկրի	-10.2172
▁հեռա	-10.2174
▁արվեստ	-10.2175
▁թիմ	-10.2184
▁արտադրում	-10.2197
▁բանակ	-10.2199
▁մաքր	-10.2209
▁մասնիկ	-10.2213
▁հետեւե	-10.2214
an	-10.2224
▁կյանքեր	-10.2262
▁գտան	-10.2267
▁մնալ	-10.2271
▁նպատակներ	-10.2296
▁երգել	-10.23
▁համակարգչի	-10.2302
▁կտորներ	-10.2313
ամանակ	-10.2316
ադարձ	-10.2317
▁ուսումն	-10.2318
▁փնտրել	-10.232
▁հիշողություններ	-10.2327
▁կապակց	-10.2331
▁կուզե	-10.2337
▁Մարդ	-10.2343
▁վաճառել	-10.2345
▁զարգան	-10.2347
b	-10.2351
▁կառույց	-10.2351
մունք	-10.2352
▁հրատարակ	-10.2352
▁Հնարավոր	-10.2352
▁Չգիտե	-10.2352
▁Վերմեեր	-10.2352
▁ալկոհոլ	-10.2352
▁արձակ	-10.2352
▁գերազանց	-10.2352
▁թանգարան	-10.2352
▁թատրոն	-10.2352
▁խելագար	-10.2352
▁կեղտոտ	-10.2352
▁հավերժ	-10.2352
▁շաքարավազ	-10.2352
▁ժողովրդավար	-10.2352
▁մասշտաբ	-10.2352
▁դերասան	-10.2352
▁անկարող	-10.2352
▁ապրող	-10.2352
▁տպավորություն	-10.2352
▁ազնիվ	-10.2352
▁դուստր	-10.2353
▁մազեր	-10.2353
▁կայացնել	-10.2353
▁ուսուցչի	-10.2353
▁առողջապահ	-10.2354
▁շահույթ	-10.2354
▁13	-10.2354
▁զրկ	-10.2354
▁անտառ	-10.2354
▁հյուսիս	-10.2355
▁Անցյալ	-10.2355
▁ձուկ	-10.2355
▁ուշադրության	-10.2355
▁մեղավոր	-10.2357
▁ընթան	-10.2357
▁հիշել	-10.2357
▁գործնական	-10.236
▁կայուն	-10.2361
▁ծառայություններ	-10.2366
▁փոփոխվ	-10.2368
▁սիրտ	-10.2368
▁մեջտեղ	-10.2373
▁մետրոյ	-10.2375
▁տիր	-10.2379
▁միտում	-10.2379
▁Տեսեք	-10.2383
▁ստոր	-10.2386
▁վկայ	-10.2387
▁բջջի	-10.2389
▁Տա	-10.2394
▁օգտագործելու	-10.24
▁փաստեր	-10.2401
▁հանդիսատես	-10.2401
▁կառուցվածքը	-10.2402
թափանց	-10.2403
▁հո	-10.2406
▁բռնության	-10.2414
▁հյուսվածքներ	-10.2419
▁բառերը	-10.242
▁դռներ	-10.2424
▁բույսեր	-10.2425
▁վիճակի	-10.243
ագետ	-10.2436
▁բացել	-10.2441
▁զար	-10.2442
▁թարգման	-10.2446
▁Անց	-10.2446
▁ընթաց	-10.2451
▁կրակ	-10.246
▁օդի	-10.2465
մատ	-10.247
▁դասեր	-10.2473
▁կկ	-10.2481
▁պարագա	-10.2482
▁տեսն	-10.2484
al	-10.2496
▁քույրեր	-10.2498
▁խմել	-10.2499
▁վայել	-10.2501
▁նկարների	-10.2508
▁գետնի	-10.2515
▁ստուգ	-10.2515
▁բեմ	-10.2516
▁արագություն	-10.2518
▁բացակայ	-10.2527
▁տն	-10.253
▁անցած	-10.2542
▁ակնկալում	-10.2546
▁նորություններ	-10.2556
գեն	-10.2565
խտ	-10.2601
▁համալսարանի	-10.2603
արժան	-10.2613
արդկանց	-10.2618
▁եկամուտներ	-10.263
▁ցանցերի	-10.2641
▁ոճ	-10.2643
▁ականջ	-10.2651
տել	-10.2655
իմաստ	-10.2662
▁վերահսկ	-10.2668
▁կտան	-10.2671
ժան	-10.2672
▁Մարդկ	-10.2679
խաղ	-10.268
ցիոն	-10.2683
▁պատասխաններ	-10.2683
▁գործընկերների	-10.269
▁տեքստ	-10.2705
▁գրքերի	-10.2712
▁Դեն	-10.2715
▁ամպ	-10.2719
▁տոն	-10.2728
▁աշխարհով	-10.2732
▁օգտագործվել	-10.2738
▁հասա	-10.2744
▁տասն	-10.2746
▁քույր	-10.2752
▁Ամերիկ	-10.2757
▁թվական	-10.2763
▁ազդանշան	-10.2773
▁վերլուծություն	-10.2815
▁Քո	-10.2818
▁գործոն	-10.2823
▁տնտեսություն	-10.2823
▁մեղ	-10.2824
▁դրանում	-10.2825
▁դիզայնի	-10.2828
▁գրավում	-10.283
▁հաստատություն	-10.2835
▁ֆիլմի	-10.2836
▁պատկերի	-10.2839
▁աչքերի	-10.2842
▁Արեւել	-10.2843
▁զրուցել	-10.2845
▁սահմանները	-10.2864
▁Քե	-10.2882
▁ֆինանսավոր	-10.2889
▁արգել	-10.289
նշու	-10.2892
▁ծախսել	-10.2895
▁ռազմ	-10.2902
▁փայտ	-10.2903
ոյություն	-10.2905
անոթ	-10.2907
▁Խնդիր	-10.2908
▁Պակիստան	-10.2908
▁անկեղծ	-10.2908
▁զուգահեռ	-10.2908
▁խոցելի	-10.2908
▁հեծանիվ	-10.2908
▁ճառագայթ	-10.2908
▁մաշմալլոն	-10.2908
▁նախադասություն	-10.2908
▁շապիկ	-10.2908
▁պարգեւ	-10.2908
▁պողպատ	-10.2908
▁ռեստորան	-10.2908
▁Կարեւոր	-10.2908
▁մրցանակ	-10.2908
▁բախտ	-10.2908
▁քաջ	-10.2908
▁անհետան	-10.2908
▁արհեստական	-10.2908
▁Երգ	-10.2908
▁թունավոր	-10.2908
▁ածուխ	-10.2908
▁Կյանք	-10.2908
▁ձեռնարկ	-10.2909
▁հավաքածու	-10.2909
▁խմբավար	-10.2909
▁կմնա	-10.2909
▁հիաս	-10.2909
▁հարգանք	-10.291
▁հանձնարար	-10.291
▁աղետ	-10.2911
▁ամենաշատ	-10.2912
▁չհա	-10.2913
▁դրսում	-10.2915
▁լսող	-10.2915
▁մատուց	-10.2916
▁մտածելակերպ	-10.2916
▁առավելագույն	-10.2917
▁Գրեյս	-10.2922
▁բարե	-10.2926
▁ներկայ	-10.293
▁Ուոլ	-10.2932
▁կենսա	-10.294
▁տարեց	-10.2942
▁բնա	-10.2945
▁արեւել	-10.2947
▁խաղալիք	-10.2954
▁խաղաղության	-10.2958
օգնական	-10.2959
▁նյարդայ	-10.296
▁տարածված	-10.297
▁պատժ	-10.2971
▁ուղեղներ	-10.2981
▁բացատրություն	-10.2982
▁հնաց	-10.2984
▁տիեզերքի	-10.2985
▁Կալիֆորնիայ	-10.2988
▁արժեքներ	-10.2989
▁մտնել	-10.2992
▁դիմանկար	-10.2996
▁կիսել	-10.2997
▁թռիչք	-10.3005
▁որակը	-10.301
▁առաջնորդներ	-10.3011
րդեն	-10.3023
▁բնակվ	-10.3024
▁Ինչքան	-10.3027
▁երեւույթ	-10.3038
▁կինո	-10.304
▁Իրաք	-10.3041
▁Ամերիկայ	-10.3059
▁հասկանան	-10.3065
▁լռություն	-10.3066
▁Նայե	-10.3068
▁զարգացում	-10.3072
▁գաղափարի	-10.3074
▁հեռան	-10.3074
▁դասավանդում	-10.3082
արված	-10.3083
ետիկ	-10.3088
ասի	-10.3089
քսի	-10.3116
▁լցվ	-10.3123
▁Նահանգների	-10.3125
▁ներկայում	-10.314
նելով	-10.3142
▁հայտն	-10.3144
▁Չինաստան	-10.3146
▁օրեր	-10.3169
▁էժան	-10.3174
պիտակ	-10.3187
▁ցուցադրում	-10.3191
▁հաղորդակց	-10.3195
▁իրերի	-10.3197
զե	-10.3207
▁սահմանափակում	-10.3226
Յորք	-10.3228
ագին	-10.3228
▁սնունդ	-10.3245
▁երազ	-10.3246
գոնե	-10.3247
C	-10.3252
it	-10.3259
տարբեր	-10.3263
ma	-10.3286
▁արարածներ	-10.3291
▁լեզուներ	-10.3317
▁կարեկցանքի	-10.3317
▁առողջություն	-10.3323
հրաշ	-10.334
իանալի	-10.3344
▁ձեռքի	-10.3346
▁օգտ	-10.3352
▁տրամադրել	-10.3354
▁բեմի	-10.3355
▁վախեց	-10.3356
▁ջանք	-10.3366
▁հակադր	-10.3372
▁ռեսուրսներ	-10.3372
▁ապացուցել	-10.3373
▁վարք	-10.3384
▁հազ	-10.3395
▁լինեին	-10.3398
գծային	-10.3399
իզմ	-10.3406
▁օրենքի	-10.3409
▁տարածել	-10.3409
▁լվաց	-10.3415
▁առաջադրանք	-10.3417
▁ավելան	-10.3421
ասեր	-10.3424
համար	-10.3433
▁1.	-10.3441
▁տո	-10.3447
▁կարգ	-10.3459
▁Բի	-10.3463
▁համակարգեր	-10.3475
հրաժեշտ	-10.3486
▁տանի	-10.3489
▁շնորհ	-10.3489
ացույց	-10.3493
▁հետագա	-10.3494
▁Շե	-10.3496
▁Խաղ	-10.3496
▁ձանձրա	-10.3496
▁iPhone	-10.3496
▁Պատասխան	-10.3496
▁Ռոբերտ	-10.3496
▁բաժակ	-10.3496
▁գագաթ	-10.3496
▁գեղեցկության	-10.3496
▁ընձեռ	-10.3496
▁կարտոֆիլ	-10.3496
▁մթնոլորտ	-10.3496
▁սթրես	-10.3496
▁վիդեո	-10.3496
▁կխոսե	-10.3496
▁պնդում	-10.3496
▁տրամաբան	-10.3496
▁փոխաբեր	-10.3496
▁հոգեւոր	-10.3496
▁ներուժ	-10.3496
▁վանդակ	-10.3496
▁պլանավորում	-10.3496
▁արվեստագետ	-10.3496
▁արկղ	-10.3497
▁առիթ	-10.3497
▁հոսանքի	-10.3497
▁պոչ	-10.3497
▁տենդ	-10.3497
▁հետեւաբար	-10.3497
▁գծագր	-10.3498
▁Իվան	-10.3498
▁անվտանգության	-10.35
▁ՀԿ	-10.35
▁կաշխատ	-10.3501
շոշափելի	-10.3501
▁Թոնի	-10.3502
▁երիտասարդներ	-10.3502
▁մահացավ	-10.3503
▁Հիմնական	-10.3504
▁գիտնական	-10.3504
▁այցելել	-10.3506
▁ստացվեց	-10.3508
▁փորձեցի	-10.3512
▁խոտ	-10.3512
▁հաղորդակցման	-10.3514
▁երեւակայության	-10.352
▁մեկտեղ	-10.352
▁Մարկ	-10.3526
▁բուժման	-10.3537
ոջ	-10.3538
▁գիտեին	-10.3541
▁մենակ	-10.3545
▁ուղղված	-10.3545
▁ցուցանիշներ	-10.3559
▁առողջության	-10.3569
▁18-	-10.3582
▁մոտեցա	-10.3583
▁նորարար	-10.3589
▁տառապանք	-10.3592
▁մեկնաբան	-10.3592
▁նկարիչ	-10.3594
▁գոյատեւ	-10.3596
▁հատակ	-10.3597
▁Դո	-10.3605
▁ռոբոտ	-10.3609
▁միջոցները	-10.361
▁հասկացություն	-10.361
▁հանգ	-10.3611
▁ըմբռն	-10.3621
▁կրճատ	-10.3627
▁անհանգստացն	-10.3634
▁ջանքեր	-10.3634
▁ամերիկացիների	-10.3634
▁հիմնավոր	-10.3638
▁կիրառվ	-10.3647
▁Նայ	-10.3648
▁տարում	-10.3661
▁արտահայտում	-10.3663
▁շենքեր	-10.3672
▁հե	-10.3673
▁նվագախմբի	-10.3678
հու	-10.3688
լիկ	-10.3691
▁ուղղություն	-10.37
▁նշեցի	-10.3703
▁չկան	-10.3707
▁Օր	-10.3707
▁ամպեր	-10.371
▁թվաց	-10.3728
▁երազանքներ	-10.3731
▁վարվել	-10.3731
▁չգիտե	-10.3734
▁զինվոր	-10.3743
▁լինեի	-10.3746
▁ուղիներ	-10.3748
▁տեւող	-10.3749
▁վիրահատություն	-10.3757
▁լինելով	-10.376
բե	-10.3766
▁իրականացն	-10.3771
▁հակառակը	-10.3772
▁դաստիարակ	-10.3774
▁արձակուրդ	-10.3776
դար	-10.3779
▁10-	-10.3783
▁կապել	-10.3786
▁պարունակություն	-10.3803
▁վերա	-10.3806
▁համեմատել	-10.382
▁գիտնականների	-10.3824
▁ներկ	-10.3828
րիվ	-10.3848
լոն	-10.3861
▁Թվ	-10.3871
▁երեւակայ	-10.3877
▁0	-10.3883
▁փուլ	-10.3892
▁ակնկալ	-10.3895
▁ուղին	-10.3901
▁լամպ	-10.3905
▁աղքատություն	-10.391
▁անցյալի	-10.3911
▁հանգամանք	-10.3918
▁աշակերտ	-10.3924
▁հեռախոսներ	-10.3927
▁լեզուների	-10.3931
▁ամսագր	-10.3934
▁դադարեց	-10.3941
▁վերածել	-10.396
▁Լին	-10.3964
▁բաժանում	-10.3968
▁գիտակցել	-10.3984
լար	-10.3992
▁տեխնոլոգիաներ	-10.3996
▁արտահայտել	-10.3999
▁փոխարին	-10.4
▁թուլ	-10.4007
▁աշխատակիցների	-10.4011
▁էկրանի	-10.4015
լայն	-10.4017
▁դեպքեր	-10.4019
▁հյուսվածք	-10.4043
▁ենթարկ	-10.4046
▁առարկան	-10.4049
▁ինտեգր	-10.405
▁պատկերել	-10.4053
եիք	-10.4068
▁պատասխանեց	-10.4077
▁գրող	-10.4088
▁Բրիտան	-10.4093
▁հավել	-10.4102
▁մարտահրավերներ	-10.4103
▁պատկերացնե	-10.4109
▁պաշար	-10.4109
պիս	-10.4114
▁գիր	-10.4118
▁պայթ	-10.412
▁Վիետնամ	-10.4121
▁ախտանիշ	-10.4121
▁զգայարաններ	-10.4121
▁խառնաշփոթ	-10.4121
▁խճճված	-10.4121
▁խոսակցություն	-10.4121
▁կհայտնվ	-10.4121
▁հեռուստացույց	-10.4121
▁մարքեթինգ	-10.4121
▁մոխրագույն	-10.4121
▁սառցադաշտ	-10.4121
▁սեւամորթ	-10.4121
▁տիեզերակա	-10.4121
▁Հիսուս	-10.4121
▁բնապատկեր	-10.4121
▁թաղամաս	-10.4121
▁հեռուստատես	-10.4121
▁փաթեթ	-10.4121
▁Սմիթ	-10.4121
▁Ինչպիսի	-10.4121
▁համերգ	-10.4121
▁Դավիթ	-10.4121
▁ցուցահանդես	-10.4121
▁ուտեստ	-10.4121
▁Իտալիա	-10.4121
▁տառապող	-10.4121
▁բեռնատար	-10.4122
▁սերնդի	-10.4122
▁բնակարան	-10.4122
▁արտասովոր	-10.4122
▁թվայնաց	-10.4122
▁թարմ	-10.4122
▁դասընթաց	-10.4122
▁Սովոր	-10.4123
▁բախվ	-10.4123
▁Հիշ	-10.4123
▁անհարմար	-10.4123
▁մշակութ	-10.4124
▁ինստիտուտ	-10.4124
▁հոգեկան	-10.4126
▁ամուր	-10.4126
▁տեսակետ	-10.4134
պար	-10.4134
▁խորհ	-10.4136
▁մոտենալ	-10.4136
▁Ջո	-10.4142
▁հիմնվել	-10.4143
▁Աստծու	-10.4146
▁սրահ	-10.4153
▁մտահոգված	-10.4156
▁դաժան	-10.4158
▁աջակցել	-10.4159
▁դոլարանոց	-10.4159
▁զու	-10.4163
▁պատահար	-10.4166
ar	-10.4167
▁ասենք	-10.4175
▁մարզ	-10.4181
▁սպեկտրի	-10.4187
▁վերածվել	-10.4196
▁առաջարկել	-10.4203
գրամ	-10.4212
ամյակ	-10.4213
▁մեղք	-10.4218
ցնեմ	-10.422
▁ձգ	-10.4228
ստական	-10.4234
▁վստահություն	-10.4244
▁տարբերակը	-10.4245
▁մեդիա	-10.4255
▁ազատության	-10.427
▁գործոններ	-10.4272
▁սարքի	-10.4282
▁իրավիճակներ	-10.4284
▁ստեղծարար	-10.4287
▁ակտիվան	-10.4289
▁ստիպել	-10.4293
▁տեխնոլոգիա	-10.4297
▁Բու	-10.4302
▁հաշվել	-10.4309
▁վերեւի	-10.4312
▁ոսկե	-10.4317
▁ապահովել	-10.4321
▁անեն	-10.4337
▁դպրոցական	-10.4339
ծա	-10.4341
▁կերպար	-10.4342
▁սկ	-10.4344
▁Վեր	-10.4348
▁դասավոր	-10.4349
▁պահպանակներ	-10.435
ուստ	-10.4354
▁վախեցն	-10.436
▁Էլ	-10.4367
▁կարողացա	-10.4382
▁պարտավոր	-10.4386
▁աուտիզմ	-10.4392
▁Չի	-10.4401
▁հսկա	-10.4407
▁գիտնականներ	-10.4418
▁կհասկանա	-10.4421
▁ականջներ	-10.443
▁Ներ	-10.4441
ադիր	-10.445
▁փոխվեց	-10.4451
▁իրականության	-10.4453
▁վերցրեց	-10.447
▁աշխատանքները	-10.4476
եղեք	-10.4478
▁կրթակա	-10.4479
▁էակներ	-10.4482
▁անհա	-10.4491
▁վիրահատ	-10.4499
▁ցանցը	-10.4503
▁հարցրեց	-10.4528
դադար	-10.4544
▁փոխանց	-10.4545
▁հատկություններ	-10.4545
նշան	-10.4547
▁տարիքի	-10.4554
▁այդպիս	-10.4555
▁զգացմունքների	-10.4558
▁ընտրեցի	-10.456
▁բացակայություն	-10.457
▁ինտերնետի	-10.4576
▁տոմս	-10.4581
▁բանտ	-10.4581
▁օրգանիզմ	-10.4582
▁գոհ	-10.4583
▁ստեղծե	-10.4597
▁ծառեր	-10.4599
▁մանկատներ	-10.46
ագո	-10.4602
▁զոհ	-10.4608
▁օրգաններ	-10.4613
▁իրավաբան	-10.4627
▁թերթ	-10.463
ացուցիչ	-10.463
▁Ճապոնիա	-10.463
կալ	-10.4638
▁միջավայրը	-10.4645
գտավ	-10.4649
▁Այ	-10.4666
▁ալիքներ	-10.4669
▁ցատկ	-10.468
▁մարտ	-10.4689
▁անգլերենի	-10.47
▁հիշեց	-10.4714
▁շրջանի	-10.4726
▁գաղափարների	-10.4728
▁հաղորդակցվել	-10.473
▁ստեղծեցի	-10.4737
▁խնայել	-10.4741
▁շարժվել	-10.4741
▁օգնեց	-10.4745
▁600	-10.4747
▁խոսեց	-10.4748
▁գրելու	-10.4749
▁առնչվ	-10.4751
▁աշխատե	-10.4752
▁ընդունակ	-10.4753
▁գլխուղեղ	-10.4755
▁արտ	-10.4767
▁ժամեր	-10.4771
ահասակ	-10.4774
▁նկատեցի	-10.4782
▁զարմանա	-10.4783
պտ	-10.4783
▁Լո	-10.4786
▁թեթեւ	-10.4787
▁լուծումը	-10.4787
v	-10.4788
▁ՀՆԱ	-10.4788
հանդերձ	-10.4788
▁Ակնհայտ	-10.4788
▁Երրորդ	-10.4788
▁Վաշինգտոն	-10.4788
▁Քաղաք	-10.4788
▁անձնակազմ	-10.4788
▁բանջարեղեն	-10.4788
▁դյուրին	-10.4788
▁դոլլար	-10.4788
▁ենթակառուցվածք	-10.4788
▁կլիմայ	-10.4788
▁հոյակապ	-10.4788
▁չորրորդ	-10.4788
▁պարաշյուտ	-10.4788
արգանդ	-10.4788
▁ինտերակտիվ	-10.4788
▁ընդլայնել	-10.4788
▁բաժն	-10.4788
▁անսպասելի	-10.4788
▁մրց	-10.4788
▁Օբամա	-10.4788
▁ձեւավորում	-10.4788
▁Միջին	-10.4788
▁բուրգ	-10.4788
▁վնասվածք	-10.4788
▁Միգել	-10.4788
▁երկրաշարժ	-10.4788
▁Առանց	-10.4788
▁ավանդույթ	-10.4789
▁բանտարկ	-10.4789
▁Ռե	-10.4789
▁կառույցներ	-10.4789
▁Մաք	-10.4789
▁ընդգրկ	-10.479
▁2008	-10.479
▁խախտում	-10.479
▁մտքով	-10.479
▁Երեւ	-10.4791
▁ամենավատ	-10.4791
▁Արչի	-10.4792
▁հանգույց	-10.4792
▁փրկել	-10.4793
▁բանկ	-10.4793
▁առցան	-10.4793
▁հանգստ	-10.4795
▁անկում	-10.4795
▁տեխնոլոգիական	-10.4795
▁ամիսներ	-10.4797
▁կախարդական	-10.4799
▁անշոշափելի	-10.4799
▁վաղուց	-10.48
▁հաղթահարել	-10.4802
▁Օհ	-10.4803
▁Մտած	-10.4804
▁կատակ	-10.4805
▁մեդիայի	-10.4807
▁պատկերացումներ	-10.4808
▁իմացա	-10.481
▁նորաձեւ	-10.4811
▁հայրիկ	-10.4812
մուտ	-10.4813
▁տեղափոխել	-10.4816
▁Ֆրանցիսկոյ	-10.4816
▁բնություն	-10.4819
▁հիշողության	-10.4822
ավետ	-10.4822
▁տնտեսության	-10.4824
▁խառնել	-10.4824
▁նվիրված	-10.4826
▁փոր	-10.4828
▁հետեւի	-10.4833
▁400	-10.4833
▁խնամք	-10.4838
▁Հայր	-10.4844
▁աշակերտների	-10.4848
▁շատեր	-10.4863
▁հիշեք	-10.487
▁դրդ	-10.487
▁քանակի	-10.4871
▁հանրության	-10.4872
▁միացնել	-10.4882
▁արած	-10.4882
▁վարկեր	-10.4883
▁կենտրոնանալ	-10.4884
▁վստահության	-10.4885
▁ճշմարտությունը	-10.4886
▁ֆի	-10.4887
▁ենթարկվել	-10.4898
▁կարողացան	-10.4904
▁խուսափել	-10.4904
▁կգ	-10.4911
▁իրավիճակում	-10.4921
▁նկարահանել	-10.4925
հալյուցինացիաներ	-10.495
▁փիլիսոփայ	-10.4955
▁հայտնաբերում	-10.4964
▁գրողներ	-10.4984
անձն	-10.4995
▁նվազում	-10.4996
պեր	-10.5
▁գց	-10.5013
▁գովազդի	-10.5014
▁2000	-10.5026
▁համացանցի	-10.5032
▁դարձրեց	-10.5053
▁թեմայի	-10.5056
▁հայտնաբերեցին	-10.5067
▁գալու	-10.5075
▁դիմադրություն	-10.508
▁ուղղել	-10.5081
▁սնունդը	-10.5083
▁ավելացնել	-10.5089
▁ազատվել	-10.5095
▁Ազգ	-10.5104
▁պահպանում	-10.5122
▁վերացնել	-10.5122
▁սեղմ	-10.5123
տրված	-10.5124
թյու	-10.5124
▁Հավա	-10.5127
▁գործող	-10.5129
▁փորձարկումներ	-10.514
▁լաբորատորիա	-10.5141
▁նետել	-10.5144
or	-10.5149
▁կատարվել	-10.515
▁տիպի	-10.5154
▁բերան	-10.5161
▁անտես	-10.517
▁ցուցաբեր	-10.5175
▁Խո	-10.5181
յտ	-10.5182
▁տեղավորվ	-10.5206
▁մարմիններ	-10.5213
▁ոստիկան	-10.5221
▁գաղտնիքներ	-10.5237
ընթաց	-10.5238
50	-10.5243
▁խնդրեցի	-10.5254
T	-10.5257
M	-10.5258
S	-10.5259
▁որոշները	-10.5269
ագրություն	-10.5282
▁հասկանալի	-10.5284
▁օվկիանոս	-10.5302
▁հուսահատ	-10.5311
տամ	-10.5315
▁Աշխարհի	-10.5325
▁անհանգստաց	-10.5336
▁ջերմ	-10.5361
▁Ամենա	-10.5369
▁եղա	-10.5373
▁խնդրել	-10.5386
▁հոգն	-10.5393
▁աջակցություն	-10.5395
▁չափահաս	-10.5397
▁փոփոխությունը	-10.5402
▁քվեարկել	-10.5408
▁մայրիկի	-10.5411
▁Դր	-10.5416
▁գեների	-10.542
▁սարքել	-10.5422
▁պարտադ	-10.5432
▁ցանկանա	-10.5438
▁գծեր	-10.5439
0,000	-10.5444
▁շուկա	-10.5452
▁տր	-10.5453
▁պահպանակ	-10.5455
▁սպասե	-10.546
▁շենք	-10.5462
ագրավ	-10.5464
ցրեք	-10.5469
▁նկարն	-10.5478
▁եղանակներ	-10.5482
բջիջ	-10.5488
▁տեղեկաց	-10.5492
▁կանչ	-10.5494
արեբախտ	-10.55
▁Խնդր	-10.5502
▁ինժեներ	-10.5502
▁խոհանոց	-10.5502
▁հրահանգ	-10.5502
▁պատանեկությ	-10.5502
▁Apple	-10.5502
▁Արդյունքում	-10.5502
▁Թայմս	-10.5502
▁Համացանց	-10.5502
▁Հարվարդ	-10.5502
▁Ճիշտ	-10.5502
▁ամենաբարձր	-10.5502
▁ամենասիրելի	-10.5502
▁ապստամբ	-10.5502
▁բաշխ	-10.5502
▁դահլիճ	-10.5502
▁ժողովրդի	-10.5502
▁խորհրդավոր	-10.5502
▁ծեծ	-10.5502
▁հիերոգլիֆ	-10.5502
▁հոլովակ	-10.5502
▁հրշեջ	-10.5502
▁քոլեջ	-10.5502
▁վարդագույն	-10.5502
▁միասնական	-10.5502
▁գնդակ	-10.5502
▁թափանցիկ	-10.5502
▁ավտոմատ	-10.5502
▁Ընդամեն	-10.5502
▁դատավոր	-10.5502
▁կտրվածք	-10.5502
▁քառորդ	-10.5503
▁առաքին	-10.5503
▁տարատեսակ	-10.5503
▁վերաբերմունք	-10.5503
▁Հարավայի	-10.5503
▁սուրճ	-10.5504
▁աղոթ	-10.5504
▁քամին	-10.5504
▁պապիկ	-10.5504
▁սիրահար	-10.5505
▁լաբորատորիայում	-10.5505
▁ակտիվիստ	-10.5505
▁Բրայ	-10.5505
▁մեմեր	-10.5506
▁բնակչություն	-10.5507
▁դեմոգրաֆի	-10.5508
ոչ	-10.5508
▁բովանդակություն	-10.551
▁դասավանդ	-10.5511
▁այստեղից	-10.5512
▁հարաբերության	-10.5515
▁ձվ	-10.5516
▁մասնակիցներ	-10.5516
▁ստեղծած	-10.5517
▁ինը	-10.5527
▁Մայր	-10.5531
▁մոռանա	-10.5531
▁տնային	-10.5533
▁արձանագր	-10.5534
▁անօրինակ	-10.5534
▁գանձ	-10.5542
▁չանել	-10.5543
▁հմայք	-10.5544
▁ծիծաղելի	-10.5549
▁Բեր	-10.5549
▁Դեռ	-10.5562
▁վերածվ	-10.5566
▁մանկապարտեզ	-10.5575
▁հայտնել	-10.5578
▁կիրակ	-10.5579
ur	-10.5585
▁ուրախություն	-10.5593
ազոր	-10.5594
▁դինոզավր	-10.5599
▁ուղղություններ	-10.5608
▁զգացի	-10.5614
▁օրերին	-10.5616
▁Ասիայ	-10.5619
▁եղբայրներ	-10.5619
▁էկրան	-10.5626
▁կփոխ	-10.5629
▁վերցրեցի	-10.5631
▁պարունակ	-10.5632
▁խթան	-10.5635
▁դարձնեն	-10.5642
▁մոտիկ	-10.5654
▁վերածվեց	-10.5655
▁նվազ	-10.5657
▁Վե	-10.5659
▁աշակերտներ	-10.5668
▁վիճակախաղի	-10.5682
ch	-10.5684
▁տեղափոխում	-10.5686
▁յուր	-10.5687
▁հիվանդանոցներ	-10.5691
▁արմատ	-10.57
▁կատարված	-10.57
▁անունն	-10.5705
▁հաճախորդների	-10.5708
▁խողովակ	-10.5709
գեղ	-10.5709
▁շրջաններ	-10.5714
▁տեղաշարժվ	-10.5715
▁ընկերներից	-10.5716
անտ	-10.5719
▁գլխում	-10.5721
▁նե	-10.5723
▁գետն	-10.574
▁իրավ	-10.5743
▁ոչնչացն	-10.5746
▁մյուսները	-10.5748
▁ախտորոշ	-10.5748
▁ոլորտ	-10.575
▁թողեցի	-10.5753
▁ծայրեր	-10.5754
▁լամպեր	-10.5756
▁մանրամասներ	-10.5758
▁երեւակայություն	-10.5759
ցիայի	-10.5761
ուռ	-10.577
▁անեմ	-10.5775
ոնգ	-10.5789
▁Յեմեն	-10.579
▁տնտեսագետներ	-10.5791
▁գրավել	-10.5792
▁Կապ	-10.5794
▁աճեցն	-10.5797
▁առկայ	-10.5799
▁մահաց	-10.58
▁ճանաչելու	-10.5803
▁ապացույց	-10.5808
▁ընդունելու	-10.5809
▁Համա	-10.5813
▁մասնագետներ	-10.5816
▁շեղ	-10.5822
▁աճեց	-10.5825
ուգ	-10.5827
▁գլխ	-10.5849
▁տեւ	-10.5851
▁կատարեցին	-10.5862
▁պաշտոնյա	-10.587
▁Լու	-10.5873
▁ճի	-10.5884
▁իրավունքների	-10.5888
▁համադր	-10.5895
▁ազդել	-10.5901
▁կամավոր	-10.5902
▁չոր	-10.5913
▁թռչել	-10.5921
ցնել	-10.5933
▁տեսակների	-10.5934
երդ	-10.5942
▁ընտանիքներ	-10.5952
▁կլինիկա	-10.5956
▁նետում	-10.5957
▁ամերիկացիներ	-10.596
▁ուղարկեց	-10.5969
▁դիմադր	-10.5973
▁հայտնվեցի	-10.5999
▁գունա	-10.601
▁առնետ	-10.6016
▁դասավանդել	-10.6024
▁հետազոտողներ	-10.6025
կասկած	-10.6025
L	-10.6025
,	-10.6028
▁մոդելներ	-10.603
▁օգտվել	-10.604
▁ծագ	-10.604
▁վերցնեն	-10.6053
▁վայելել	-10.6055
▁Գիտ	-10.6061
▁կհասն	-10.6064
▁մսի	-10.6078
▁մասնակիցների	-10.6082
▁ոտքի	-10.6084
▁հիվանդներ	-10.6084
▁պարբեր	-10.6096
▁մտածե	-10.6104
▁լույսեր	-10.6123
▁ինչքա	-10.6125
▁որդին	-10.613
▁բեռն	-10.6135
▁հարգ	-10.6146
▁ապ	-10.6146
▁փողեր	-10.6149
▁կանաց	-10.6153
թիվ	-10.6156
Յորքի	-10.6171
▁բնակ	-10.6173
▁մոտեցումներ	-10.6174
▁մեկնաբանություն	-10.6193
▁խմբագր	-10.6195
▁կասեն	-10.6203
▁կստանան	-10.6214
▁գաղափարն	-10.6225
միջ	-10.6225
▁Լեգո	-10.6229
▁ներդն	-10.6233
▁197	-10.6238
▁վերականգն	-10.624
▁եռանկյուն	-10.6249
▁ծառայություն	-10.6251
▁իշխ	-10.6252
▁խանգար	-10.6253
գեր	-10.6255
▁թշնամ	-10.6257
▁կցանկանա	-10.6263
▁խղճ	-10.6268
▁արձան	-10.6268
▁ջութակ	-10.627
#	-10.6271
shahidi	-10.6271
շաբթի	-10.6271
▁1960	-10.6271
▁Բհութան	-10.6271
▁Գլամուր	-10.6271
▁Թայլանդ	-10.6271
▁Օլիմպիա	-10.6271
▁Ֆիլիպ	-10.6271
▁ագռավ	-10.6271
▁աղտոտ	-10.6271
▁անխուսափելի	-10.6271
▁առնանդամ	-10.6271
▁գարեջուր	-10.6271
▁գործունեության	-10.6271
▁գրադարան	-10.6271
▁եզրակացության	-10.6271
▁զբաղեցնում	-10.6271
▁էքսպոնենցիալ	-10.6271
▁ինդեքս	-10.6271
▁հաշմանդամ	-10.6271
▁հորիզոն	-10.6271
▁ռմբակոծ	-10.6271
▁ստանդարտ	-10.6271
▁վիրտու	-10.6271
▁տեսլական	-10.6271
▁տիրապետ	-10.6271
▁փուչիկ	-10.6271
▁օգուտ	-10.6271
▁ֆուտբոլ	-10.6271
table	-10.6271
▁ԶԼՄ	-10.6271
▁բարգավաճ	-10.6271
▁հակամարտություն	-10.6271
▁մկնիկ	-10.6271
▁սուպեր	-10.6271
▁օդապարիկ	-10.6271
▁Ազատ	-10.6271
▁նյարդաբան	-10.6271
▁քվիլինգ	-10.6271
▁Ընկեր	-10.6271
▁Պարոն	-10.6271
ռայլ	-10.6271
▁թանաք	-10.6271
▁սպառնալիք	-10.6271
▁գլոր	-10.6271
▁Բավական	-10.6271
▁բախում	-10.6272
▁արժողությամբ	-10.6272
▁պահեստ	-10.6272
▁Կին	-10.6272
▁բնակիչներ	-10.6272
▁մահապատ	-10.6272
▁հղում	-10.6273
▁1950	-10.6273
▁կփորձե	-10.6273
▁կաշվ	-10.6273
▁ավելացրեց	-10.6274
▁2005	-10.6274
▁երկաթ	-10.6274
▁օրվանից	-10.6275
բրեւ	-10.6275
▁Գործ	-10.6275
▁շրջանակներում	-10.6276
▁սպորտ	-10.6277
▁կրկնակի	-10.6278
▁ծնկ	-10.6278
as	-10.6278
▁առաջացնել	-10.6278
▁գնահատականներ	-10.6279
▁կռվ	-10.628
▁չափսեր	-10.6281
▁անորոշ	-10.6281
▁Պիտ	-10.6285
▁կախվածություն	-10.6285
հավանականություն	-10.6286
▁ոգի	-10.6287
▁ներքո	-10.6288
▁գործիչներ	-10.6288
▁քննություն	-10.6292
▁ձկան	-10.6294
▁մագնիսական	-10.6299
▁պայծառ	-10.6302
▁Հետեւ	-10.631
▁չլինել	-10.6318
▁երաժիշտ	-10.6321
▁զգայուն	-10.6323
▁Վատ	-10.6327
▁իրականացվ	-10.633
յարդ	-10.6333
▁տող	-10.6335
▁մանկության	-10.6337
▁Ջեք	-10.634
▁զանգահարեց	-10.6344
▁Բա	-10.6345
▁տնտեսագիտ	-10.6348
▁իմաստալի	-10.6349
▁քաղցկեղի	-10.6357
թթու	-10.6359
▁տարա	-10.6367
▁արտահայտ	-10.637
▁պայքարելու	-10.6377
▁ձախողում	-10.6378
▁կազմակերպել	-10.638
▁բիզնեսներ	-10.6385
▁մայրիկ	-10.6392
▁Արեւելք	-10.6393
▁ցանցաթաղանթի	-10.6416
▁համոզվել	-10.6417
▁թվերի	-10.6423
▁փոխարինել	-10.6424
ատու	-10.6428
▁մնալու	-10.643
▁լսե	-10.6433
▁հավաքական	-10.6443
▁դեն	-10.6445
▁խլ	-10.6453
▁նորություն	-10.6467
▁գրառումներ	-10.6469
աքրքրասիրություն	-10.6476
▁սննդ	-10.6476
կերել	-10.6477
ապա	-10.6482
▁հայտարարեց	-10.6484
▁փակց	-10.6486
▁արտացոլում	-10.6487
▁փոշի	-10.6488
▁15-	-10.6491
դիս	-10.6495
▁հավատար	-10.6506
▁մանկատ	-10.6506
▁ամերիկացի	-10.6507
ացնեն	-10.651
▁դաշտերը	-10.6512
▁մասնիկներ	-10.6516
յն	-10.6519
▁սիրո	-10.6542
▁բռնել	-10.6544
▁փայլու	-10.6545
▁հաստ	-10.6547
▁բացատրեց	-10.655
▁ատամներ	-10.6561
▁փուլում	-10.6563
▁35	-10.6577
▁բարձրության	-10.6578
▁պատեր	-10.6581
▁Մայ	-10.659
▁տատիկի	-10.6594
▁լրատվամիջոցների	-10.6596
օր	-10.6606
▁պաշտպանել	-10.6607
▁մյուսին	-10.6615
▁հասցն	-10.6622
▁գործած	-10.6625
սիվ	-10.6626
ոզ	-10.6627
▁նշաններ	-10.663
▁մնա	-10.6631
▁շար	-10.6637
▁Եվրոպայի	-10.6641
▁պայքարել	-10.6642
▁նվազեց	-10.6656
▁հարաբերակցությ	-10.6658
▁ոճի	-10.6669
▁կոշիկ	-10.6671
▁անտեսել	-10.6678
▁համալսարաններ	-10.6679
▁վիճակագր	-10.6697
▁պատասխանեցի	-10.6701
▁տրամադրում	-10.6703
▁աստղի	-10.6725
▁թվա	-10.674
▁արեցին	-10.6741
ացիոն	-10.6748
▁կգնա	-10.6758
▁զինվորներ	-10.676
ազդեցիկ	-10.6761
▁աշխատողների	-10.6763
▁Կարի	-10.6764
տական	-10.6768
▁գրկ	-10.6775
▁ուժերի	-10.6784
ստիկ	-10.6791
▁աշխատավարձ	-10.6792
▁բացահայտեցին	-10.6804
ուղի	-10.6804
▁դրսի	-10.6813
▁աղբյուրներ	-10.682
▁նեյրոններ	-10.682
▁75	-10.6823
▁ներկայացր	-10.6833
տային	-10.6835
▁հաստատել	-10.6836
▁վարքի	-10.6843
▁գիծ	-10.6851
որոշ	-10.6853
ճանաչ	-10.686
B	-10.686
▁տեղաշարժ	-10.6863
մեկ	-10.6866
▁կայքեր	-10.6869
▁արտացոլ	-10.6875
▁ընկերները	-10.6878
▁աստղեր	-10.6884
ունակության	-10.6893
▁մեդիան	-10.6904
▁նեղ	-10.6904
▁Իրաքի	-10.6906
▁զգա	-10.6915
▁լռ	-10.6916
▁թաք	-10.6922
▁ժպտ	-10.6928
▁շփվել	-10.6942
ing	-10.6947
▁ավարտեց	-10.6949
▁Քա	-10.6949
րեւ	-10.695
▁գործիքների	-10.6956
▁թռ	-10.6969
▁համագործակցել	-10.6969
▁մեծահասակ	-10.6975
▁արձագանքել	-10.6992
▁ոչնչաց	-10.7
▁հեռացն	-10.7003
▁Գե	-10.7013
▁գործելու	-10.7017
▁ծախսեր	-10.7026
▁նորարարություն	-10.7036
▁դարձրե	-10.7037
▁մասնագիտ	-10.7042
▁ապրե	-10.7048
▁երեկ	-10.705
▁ձգտ	-10.7054
▁համարձակ	-10.7062
▁բերելու	-10.7067
▁քաղաքացիների	-10.7067
կմախք	-10.7069
▁նստեցի	-10.7071
▁երես	-10.7077
▁էվոլյուցի	-10.7087
▁1,	-10.7097
▁ընտան	-10.7103
▁ավտոմեքենա	-10.7105
▁ՄԻԱՎ	-10.7105
▁Մոցարտ	-10.7105
▁գագաթնակետ	-10.7105
▁կդարձն	-10.7105
▁ուղերձ	-10.7105
iva	-10.7105
▁Արվեստ	-10.7105
▁Երիտասարդ	-10.7105
▁Ձախ	-10.7105
▁Նաթանաել	-10.7105
▁Նոբել	-10.7105
▁ածխածնի	-10.7105
▁անհետաց	-10.7105
▁ժողովուրդ	-10.7105
▁լանդշաֆտ	-10.7105
▁կարիերայի	-10.7105
▁հակամարտության	-10.7105
▁համաճարակ	-10.7105
▁հարձակում	-10.7105
▁ճապոն	-10.7105
▁պոմպ	-10.7105
▁պրոֆեսոր	-10.7105
▁ռեժիմ	-10.7105
▁սլայդ	-10.7105
▁տախտակ	-10.7105
▁տարեդարձ	-10.7105
▁տհաճ	-10.7105
▁ավելցուկ	-10.7105
▁բնազդ	-10.7105
▁բուժքույր	-10.7105
▁պառկ	-10.7105
▁վիրուս	-10.7105
▁Յոթ	-10.7105
▁Ուղեղ	-10.7105
▁սառույց	-10.7105
▁քայքայ	-10.7105
▁iP	-10.7105
▁կհարցնե	-10.7105
▁քաոս	-10.7105
▁միջամտ	-10.7105
▁շեշտ	-10.7105
▁բացասական	-10.7105
▁տերմին	-10.7105
▁երթեւեկ	-10.7105
▁պլաստիկ	-10.7105
▁Դալայ	-10.7105
▁Ընտր	-10.7105
▁վերամշակ	-10.7105
կշիռ	-10.7105
ork	-10.7105
▁գունավոր	-10.7105
▁արտասան	-10.7105
▁կաթիլ	-10.7105
▁կրկնօրինակ	-10.7106
▁հասցե	-10.7106
▁պատմվածք	-10.7106
▁շաքար	-10.7107
▁Go	-10.7107
▁անսահման	-10.7107
▁2006	-10.7107
▁2009	-10.7107
▁հումոր	-10.7109
ոլոգիա	-10.7109
▁ժամացույց	-10.7109
▁քարտեզագր	-10.7109
▁փախ	-10.711
▁ուղեկց	-10.711
▁տիկին	-10.711
▁ամառ	-10.7112
▁Գրքի	-10.7112
▁հիշողություն	-10.7113
▁Վերցն	-10.7113
ատեսակ	-10.7114
▁նախարար	-10.7114
▁փաստարկ	-10.7114
▁երկնքի	-10.7115
▁տուր	-10.7116
▁հարթ	-10.7116
▁զվարճանք	-10.7116
▁23	-10.7117
▁մտավ	-10.7117
▁դրախտ	-10.7118
▁վարկած	-10.7118
▁ճշտ	-10.7122
ետեւում	-10.7122
▁ածխա	-10.7123
▁Հինգ	-10.7124
▁նվազեցնել	-10.7124
▁ավելաց	-10.7125
▁դատապարտված	-10.7125
▁սուր	-10.7126
▁ենթա	-10.7127
▁հանդիսա	-10.7132
աքար	-10.7133
▁կույտ	-10.7134
▁Ամերիկան	-10.7138
▁սեքսուալ	-10.7138
▁բարձրացնում	-10.714
▁պատիվ	-10.7142
անկյուն	-10.7143
▁Կանադայ	-10.7143
▁հույզեր	-10.7144
▁երեւույթի	-10.7147
▁գնանք	-10.7147
▁տեսեք	-10.7148
▁լարված	-10.7151
▁Հեյ	-10.7154
▁լսվ	-10.7157
▁ընդունված	-10.717
▁նվաճում	-10.7176
եղձ	-10.7177
▁Կոկա	-10.7186
մլն	-10.7187
▁խելամ	-10.7193
▁փակցնել	-10.7193
▁Ֆրանսիայում	-10.7194
▁հայտնաբերեց	-10.7195
▁առաջնորդների	-10.7198
▁հետապնդում	-10.72
▁հարցրեցին	-10.7201
▁փակցն	-10.7202
▁կսկսե	-10.7203
▁ատոմ	-10.7205
▁իրագործել	-10.7208
▁խաղա	-10.7213
▁սկզբնակ	-10.7218
▁պատրաստվել	-10.7223
ադրության	-10.7225
▁ստեղծ	-10.7227
▁ստացված	-10.723
▁Բեն	-10.7231
▁շերտեր	-10.7233
▁արեւելք	-10.7238
▁չկ	-10.7249
▁Ամ	-10.7252
▁ֆիզիկայի	-10.7262
▁մաշկ	-10.7262
▁երեխաներից	-10.7266
▁ճամփորդել	-10.7273
▁մտածելու	-10.7274
▁սպանություն	-10.7275
▁շղթա	-10.7283
▁դինամիկ	-10.7299
հայաց	-10.7302
▁ափի	-10.7302
▁որդու	-10.7303
նակարգ	-10.7304
▁տուփի	-10.7311
▁ռեսուրս	-10.7316
▁դատողություն	-10.7318
▁դաշտեր	-10.7319
▁ձկների	-10.7337
▁օգտագործեցին	-10.7339
խնդ	-10.7344
▁գրական	-10.7357
▁գիծը	-10.7366
▁ախտորոշում	-10.7366
▁գտնվելու	-10.7367
ne	-10.7388
դոն	-10.7391
▁30-	-10.74
▁բանան	-10.74
000	-10.7401
▁հողի	-10.7406
▁հայտնվեց	-10.7407
▁լուրեր	-10.7413
▁չափեր	-10.7421
▁սրտեր	-10.7425
սթոն	-10.7458
▁դասարանի	-10.7467
all	-10.7473
▁տեղափոխվել	-10.7484
▁Չինաստանը	-10.7485
▁կենսաբանություն	-10.7487
▁Սկ	-10.7496
▁դրսեւորում	-10.7507
գնելու	-10.7509
▁տիեզերքում	-10.751
▁մշակում	-10.7512
▁հիվանդանոցում	-10.7533
▁տարան	-10.7534
▁հատկանիշներ	-10.7541
▁առանձնաց	-10.7544
▁օվկիանոսի	-10.7549
▁խնայողություն	-10.755
▁դոլարներ	-10.7565
▁շեղում	-10.7574
▁տղաներին	-10.7581
▁աղջիկներին	-10.7582
▁արձակուրդի	-10.7589
▁շարունակական	-10.7592
▁աղքատների	-10.7592
▁հայտնաբեր	-10.7593
▁ենթադրել	-10.7596
▁տեղափոխ	-10.761
▁նմուշ	-10.7614
▁45	-10.7616
▁լեռներ	-10.7629
▁կենդանիներին	-10.7637
am	-10.7646
▁տեւողություն	-10.7649
▁Իսրայելի	-10.7653
▁էֆեկտ	-10.7655
▁միավորել	-10.7657
զմ	-10.7665
▁բերեցին	-10.7666
▁Մեն	-10.7707
▁ուտելու	-10.7711
▁վաստակել	-10.7718
▁հիմքեր	-10.7719
▁բաժանել	-10.7721
դալ	-10.7752
P	-10.7754
Ո	-10.7759
▁երեւույթներ	-10.776
պահպանակ	-10.7764
հաջող	-10.7765
▁հաճախորդ	-10.7768
Լ	-10.7771
▁շեղումներ	-10.7799
▁կենտրոնաց	-10.7799
▁պահպանվ	-10.78
նկատ	-10.7803
▁մեքենայ	-10.7823
ստացվ	-10.7826
▁Օս	-10.7832
▁եզր	-10.7833
▁Պատճառն	-10.7834
▁կերպարներ	-10.7836
▁անցկացրեցի	-10.7839
արագ	-10.7843
▁սեղան	-10.7848
▁կզգա	-10.7866
▁անցնելու	-10.7868
▁դիմանկարներ	-10.7869
▁հաղթ	-10.7886
▁թոք	-10.79
▁ենթադրություն	-10.7907
▁կսկս	-10.7907
▁ներգրավ	-10.7911
▁շփում	-10.7917
▁բայ	-10.7927
▁շենքի	-10.7928
▁քաղաքակրթությ	-10.7929
▁ձեռն	-10.7941
▁վերադառնա	-10.7964
▁լցնել	-10.7981
օրին	-10.7987
▁հիասթափ	-10.799
▁դատապարտ	-10.7991
▁Դարվինի	-10.8003
▁անհանգստան	-10.8008
▁ամաչ	-10.8013
աժամկետ	-10.8014
▁Իսպանիայ	-10.8014
▁Համեմատ	-10.8014
▁Ֆրանկ	-10.8014
▁աներեւակայելի	-10.8014
▁առեւանգ	-10.8014
▁բաճկոն	-10.8014
▁բնութագր	-10.8014
▁գերակշռ	-10.8014
▁դոկտոր	-10.8014
▁ինտելեկտ	-10.8014
▁ծաղր	-10.8014
▁կերակուր	-10.8014
▁կոնտեքստ	-10.8014
▁ձեւակերպ	-10.8014
▁ճարտարագիտ	-10.8014
▁մոծակներ	-10.8014
▁փաթաթ	-10.8014
▁քիմիաթերապիա	-10.8014
acebook	-10.8014
▁Ավստրալիա	-10.8014
▁Բժիշկ	-10.8014
▁Կենտրոն	-10.8014
▁Կոքրեյն	-10.8014
▁Ռեզեռո	-10.8014
▁Վենեսուելայ	-10.8014
▁ամենապարզ	-10.8014
▁առեղծված	-10.8014
▁բարձրաձայն	-10.8014
▁բյուջե	-10.8014
▁գեղագիտ	-10.8014
▁գեղեցկություն	-10.8014
▁դրամապանակ	-10.8014
▁ենթագիտակց	-10.8014
▁թաղ	-10.8014
▁թղթադրամ	-10.8014
▁կարգավիճակ	-10.8014
▁ճշմարիտ	-10.8014
▁մեխանիկ	-10.8014
▁ներմուծ	-10.8014
▁ռացիոնալ	-10.8014
▁տարանջատ	-10.8014
▁փոխպատվաստ	-10.8014
▁օբյեկտ	-10.8014
▁ֆունկցիոնալ	-10.8014
▁Սթրիթ	-10.8014
▁թակարդ	-10.8014
▁ծովահեն	-10.8014
▁համախմբվ	-10.8014
▁հունվար	-10.8014
▁Դեյվի	-10.8014
▁արշավ	-10.8014
▁ֆունտ	-10.8014
▁դաշնային	-10.8014
▁ծառայության	-10.8014
▁միջոցառման	-10.8014
▁Երկար	-10.8014
▁ամռան	-10.8014
▁սփռ	-10.8014
▁տեղակայ	-10.8014
▁ծնունդ	-10.8014
▁մեղադրում	-10.8014
▁Բոննե	-10.8014
▁լոգո	-10.8014
▁վարտիք	-10.8014
▁խաչ	-10.8014
▁համեստ	-10.8014
▁գյուղեր	-10.8014
▁վարժեց	-10.8014
▁անմեղ	-10.8014
▁տուժ	-10.8014
▁Ներկայ	-10.8014
▁ընդլայնվ	-10.8014
▁միկրո	-10.8014
▁եգիպտացի	-10.8014
▁մեռն	-10.8014
▁Իմաստ	-10.8014
▁պայթյուն	-10.8014
▁զուգարան	-10.8014
▁հարմարավետ	-10.8014
▁ամենահետաքրքիր	-10.8014
▁մրցույթ	-10.8015
▁ինտուի	-10.8015
▁Գերմանիայում	-10.8015
▁կլսե	-10.8015
▁անձրեւ	-10.8015
▁ձեւավորել	-10.8015
▁Th	-10.8015
▁կարմր	-10.8016
▁2007	-10.8016
▁մանուկ	-10.8016
▁քամու	-10.8017
▁կդնե	-10.8017
▁հիմնադրամ	-10.8017
▁արտադրողական	-10.8017
▁կայացր	-10.8017
▁ուղղորդ	-10.8017
ուտով	-10.8017
▁կանխատեսելի	-10.8018
▁թողարկ	-10.8018
▁հարկադր	-10.8018
▁ինքնաբեր	-10.8018
▁թափառ	-10.8019
▁Տեղ	-10.8019
▁նորածին	-10.8019
▁տերեւ	-10.8019
▁բառարան	-10.802
▁անհանգստանալ	-10.802
▁կնկատե	-10.802
▁բարդույթ	-10.802
▁Քինգ	-10.802
▁միջուկ	-10.8022
▁Բնական	-10.8023
▁լարերը	-10.8024
▁22	-10.8025
▁հեռանալ	-10.8026
▁ոլորտի	-10.8026
▁10,000	-10.8027
is	-10.8029
▁հաղթել	-10.8031
▁Գանդի	-10.8031
րատիվ	-10.8033
▁կորցնել	-10.8033
▁խնդրանք	-10.8033
▁կբերե	-10.8034
▁տուգանք	-10.8035
▁անապատ	-10.8035
▁գնայի	-10.8035
▁Էյ	-10.8036
ստեր	-10.8037
▁գտ	-10.8041
տչելի	-10.8041
▁տեսած	-10.8042
աջան	-10.8043
▁գործարար	-10.8047
▁կաշառք	-10.8051
▁լեզվաբան	-10.8052
▁եվրոպա	-10.8053
▁տղամարդու	-10.8053
▁տարածման	-10.8056
▁վերադարձնել	-10.8056
▁հաստատուն	-10.8057
▁ստացանք	-10.806
▁քայլեր	-10.8061
▁Լեգոյի	-10.8064
▁Անգլիայ	-10.8065
▁Լեոնարդո	-10.8066
▁կամուրջ	-10.8066
▁որդեգր	-10.8071
▁մեկուսաց	-10.8077
▁ներկայացրեց	-10.8082
վեին	-10.8082
▁վաճառվ	-10.8082
Կոլա	-10.8087
▁Կու	-10.8089
▁սպառողներ	-10.8089
▁պատերազմներ	-10.81
▁կատարելագործվել	-10.8105
▁պարել	-10.8107
▁նստեց	-10.8109
▁առարկա	-10.8111
▁պահանջվեց	-10.8115
▁զուգ	-10.8118
▁Էլեկտրական	-10.8118
▁Բրի	-10.8121
▁խանութներ	-10.8128
▁թոքերի	-10.8142
▁բանտեր	-10.8146
▁երաժիշտների	-10.8147
▁տեղադրեցի	-10.8148
▁էվոլյուցիայի	-10.8149
▁5-	-10.8167
▁ասեց	-10.8168
▁Անջելես	-10.8173
ոմա	-10.818
▁Ոման	-10.8185
▁Գեր	-10.8187
▁հատկություն	-10.8194
▁հաղորդել	-10.82
▁եզրեր	-10.82
▁ընտրություններ	-10.8201
▁թռն	-10.8201
▁բանաստեղծ	-10.8203
▁հյութ	-10.8204
▁կարողանային	-10.8208
▁սովորեցրեց	-10.821
ագոր	-10.8212
րիխ	-10.8222
▁ոտքեր	-10.8223
▁հեռավորությա	-10.8226
▁դաջվածքներ	-10.8226
▁կապիկների	-10.8227
▁մասնակից	-10.8229
▁ուղեղն	-10.823
▁Ճապոնիայ	-10.8235
▁ազդանշաններ	-10.8243
▁անջատել	-10.8251
▁բարեկեցություն	-10.826
▁ոտքերը	-10.8267
▁ոսկու	-10.8268
▁տեսագր	-10.8275
▁կարդալու	-10.8277
▁արտադրել	-10.8279
▁Հանս	-10.8285
▁վերաց	-10.8289
ացնող	-10.8292
յշ	-10.8294
▁ծնող	-10.8294
▁Դոն	-10.8303
▁բժիշկների	-10.8306
▁ձախողվել	-10.831
▁տարածվել	-10.8311
▁սեղմում	-10.8313
▁բազմազանություն	-10.8313
▁հիշողությունը	-10.8318
▁հանգամանքներ	-10.8322
▁ալիք	-10.8322
▁վկա	-10.8333
զայրացած	-10.8335
▁ներգրավել	-10.8359
կապ	-10.8365
▁բարդություն	-10.8379
▁120	-10.839
▁կիսվ	-10.8402
▁կայսր	-10.8409
▁ելք	-10.841
▁հաշվարկներ	-10.8419
▁մասնակցելու	-10.8422
րախ	-10.8424
▁գար	-10.8425
▁նմուշներ	-10.843
▁հակ	-10.8432
▁քուն	-10.844
▁կոնֆերանս	-10.844
▁զբաղվելու	-10.8449
▁Բոլորս	-10.845
▁ցուցաբերել	-10.8451
▁բարձրացնել	-10.8456
▁Հան	-10.8459
▁վերականգնել	-10.8461
▁համբուրգերի	-10.8469
▁գոյատեւել	-10.8482
12	-10.8506
▁Գնա	-10.8506
▁նահանգներ	-10.8509
▁հսկ	-10.8509
▁Ընդ	-10.851
▁կոշիկներ	-10.8511
▁կեսին	-10.8515
▁գուշակե	-10.8517
▁սերունդների	-10.8529
▁համբուրգեր	-10.8533
▁Գրե	-10.8535
▁վարելու	-10.8539
▁պետություն	-10.8562
▁հետաքրքրել	-10.8592
▁միանալ	-10.8634
▁երջանկ	-10.8646
նդր	-10.8656
▁հանձնել	-10.8657
▁փայլ	-10.8665
▁ուսուց	-10.8666
▁տեղափոխվեցի	-10.8683
աճող	-10.8685
▁նայեց	-10.8685
▁միանա	-10.8689
▁փախչ	-10.8713
▁հաց	-10.8717
▁ուտելիքի	-10.8732
▁հարցումներ	-10.8741
▁նեյրոնների	-10.8752
▁կարեւորություն	-10.8753
անցավ	-10.8756
Կ	-10.8763
▁վիճակախաղ	-10.8763
▁կառավարվ	-10.8766
▁սովորեն	-10.8768
Է	-10.877
Թ	-10.877
Պ	-10.8771
մեջ	-10.8773
▁ինքնություն	-10.8785
գործ	-10.8819
▁մաշկի	-10.8826
▁մասնագետների	-10.8836
▁խոզ	-10.8845
▁տառապանքի	-10.885
▁Ինչքա	-10.885
▁կուտակվ	-10.8853
▁հայտնաբերվ	-10.8875
▁կանցն	-10.8886
▁սեռի	-10.8896
▁Լար	-10.8906
▁նամակներ	-10.8926
ie	-10.8928
▁ֆա	-10.8934
▁իրագործ	-10.8944
ավայր	-10.8976
▁մագնիս	-10.8978
▁Արեւ	-10.899
▁փոխազդ	-10.8997
▁Առ	-10.9001
▁անընդ	-10.9011
▁ֆրանսիա	-10.9011
իշխանություն	-10.9013
▁Ջուլի	-10.9013
անկացած	-10.9013
▁հրաման	-10.9014
▁ագարակ	-10.9014
▁Արեւմուտք	-10.9014
▁Գաղափար	-10.9014
▁Գեյթս	-10.9014
▁Դպրոց	-10.9014
▁Երուսաղեմ	-10.9014
▁Զարմանալի	-10.9014
▁Հետազոտ	-10.9014
▁Սյուզան	-10.9014
▁Վիվիան	-10.9014
▁Ֆեյսբուք	-10.9014
▁աղյուսակ	-10.9014
▁ամբոխ	-10.9014
▁անկայուն	-10.9014
▁անձեռնմխելի	-10.9014
▁անշարժ	-10.9014
▁ավտոբուս	-10.9014
▁դեղորայք	-10.9014
▁դժգոհ	-10.9014
▁դիագրամ	-10.9014
▁եզրակացություն	-10.9014
▁զբաղմունք	-10.9014
▁զվարճաց	-10.9014
▁խոստովան	-10.9014
▁կմտածե	-10.9014
▁կնախընտրե	-10.9014
▁մարզադաշտ	-10.9014
▁նվիրատվություն	-10.9014
▁ոսպնյակ	-10.9014
▁չափանիշներ	-10.9014
▁վիրաբույժ	-10.9014
▁LED	-10.9014
▁Շեքսպիր	-10.9014
▁Տիբեթ	-10.9014
▁անտեսանելի	-10.9014
▁արցունք	-10.9014
▁գեղարվեստ	-10.9014
▁գիշատիչ	-10.9014
▁դեմոկրատ	-10.9014
▁կհմերներ	-10.9014
▁կմահանա	-10.9014
▁նոտաներ	-10.9014
▁ցուցումներ	-10.9014
▁քվեաթերթիկ	-10.9014
Lcat	-10.9014
▁Առողջ	-10.9014
▁Գուգլ	-10.9014
▁ագարակատեր	-10.9014
▁արժանապատվությ	-10.9014
▁եկամտի	-10.9014
▁երկրպագու	-10.9014
▁բնակեցված	-10.9014
գիտակից	-10.9014
▁հեղեղ	-10.9014
▁անվերջ	-10.9014
▁ափսե	-10.9014
▁ֆոնդ	-10.9014
▁Ռոբին	-10.9014
▁շփման	-10.9014
▁Տղան	-10.9014
▁փառաբան	-10.9014
▁իմպլանտանտ	-10.9014
▁կշռ	-10.9014
▁հանդիսանալ	-10.9014
▁թեկուզ	-10.9014
▁խցիկ	-10.9014
▁կրծք	-10.9014
▁նվագախումբ	-10.9014
▁արտասահման	-10.9014
▁համոզմունքներ	-10.9014
▁վերապատրաստ	-10.9014
▁գենդեր	-10.9014
▁էկոլոգիա	-10.9014
▁համակց	-10.9014
հնդկա	-10.9014
▁գրպան	-10.9014
▁քանդակ	-10.9014
▁աթոռ	-10.9014
▁խորհրդի	-10.9014
▁Մայքլ	-10.9014
▁դեղեր	-10.9014
▁խրոնի	-10.9014
▁հավաքարարներ	-10.9014
▁խոստում	-10.9015
▁Զերո	-10.9015
▁վերանայ	-10.9015
,5	-10.9015
▁ուզած	-10.9015
▁վերելակ	-10.9015
and	-10.9015
▁լուսաբա	-10.9016
▁շունչ	-10.9016
▁Թոմաս	-10.9016
▁նստարան	-10.9016
▁շտապ	-10.9016
▁հարբ	-10.9017
▁պանր	-10.9017
▁հինգերորդ	-10.9017
▁անձանց	-10.9018
չյուր	-10.9018
▁պարտք	-10.9018
▁արդարացի	-10.9019
▁փակցրեցի	-10.902
▁կորստի	-10.902
▁վարորդ	-10.9021
▁մեծամասնության	-10.9021
▁ճառ	-10.9021
▁Ընդուն	-10.9022
▁նախատիպ	-10.9022
▁արտադրանք	-10.9023
▁նրբ	-10.9023
▁Սթիվ	-10.9023
▁մարդկություն	-10.9024
▁27	-10.9024
▁համաչափ	-10.9024
▁ընտրությունների	-10.9024
▁Կատար	-10.9025
▁բացառիկ	-10.9026
▁ուղու	-10.9028
▁գցել	-10.9028
բայ	-10.9029
չնչի	-10.9029
▁այլընտրանքային	-10.903
▁Ոսկ	-10.903
▁ազատագր	-10.9031
▁պարզաբան	-10.9031
▁քանդել	-10.9033
▁մեկնարկ	-10.9034
▁կաթված	-10.9035
▁վախենալ	-10.9037
▁հատիկ	-10.9039
▁մահացած	-10.9042
▁խփ	-10.9043
▁օրգանական	-10.9045
▁արջ	-10.9046
ցնցող	-10.9047
▁ճակատագ	-10.9047
▁բարձրացրեց	-10.9048
անշանակ	-10.9049
▁բարակ	-10.9049
▁համառ	-10.9049
▁Times	-10.9055
▁լցն	-10.9062
▁ստացվել	-10.9068
▁վստահելի	-10.9069
ացվում	-10.9072
▁Չիկագոյ	-10.9073
պորտ	-10.9074
▁աճեցնել	-10.9077
▁կաշի	-10.9079
▁թղթեր	-10.9089
▁կենդան	-10.9105
▁սիրված	-10.9117
▁ասեցի	-10.9118
▁զբաղված	-10.9126
▁աուտիզմով	-10.9134
▁Բրիտանիայ	-10.9134
▁կեղծել	-10.9136
▁սեռ	-10.9137
▁փառա	-10.914
▁անհանգ	-10.9142
▁17-	-10.9147
▁անձնավորություն	-10.9147
▁գործողությա	-10.9151
▁պարան	-10.9153
▁կյանքից	-10.9155
մատիկ	-10.9161
▁Պե	-10.9172
▁կուտակ	-10.9177
▁սկսեն	-10.9184
▁լրագրող	-10.9186
▁անվանեցի	-10.9187
▁կազմակերպված	-10.9188
▁60-	-10.919
աստան	-10.9197
▁հուզական	-10.9201
ացեք	-10.9202
▁քարտեզներ	-10.9205
▁բեռ	-10.9206
▁բայեր	-10.9214
▁շփվ	-10.9215
▁պարտականություն	-10.9221
▁կտրել	-10.9226
ունները	-10.9228
▁Տաս	-10.9231
▁մայրեր	-10.9232
▁նկարագրել	-10.9232
▁գիտակցեցի	-10.9236
▁վերարտադր	-10.9238
▁անկյուններ	-10.9238
եղծ	-10.9239
▁զարդ	-10.9253
▁Չկա	-10.926
▁կառուցվ	-10.9262
▁անդամների	-10.9263
▁համակարգերի	-10.9267
▁թեմաներ	-10.9287
▁բուժել	-10.9292
▁ղեկավարել	-10.9298
▁սենսորներ	-10.9319
▁նայելու	-10.9322
▁կօգնեն	-10.9346
▁ուղեւոր	-10.9349
▁ներդր	-10.9353
▁կարգավոր	-10.9354
▁կաղապարներ	-10.9363
տապ	-10.9373
▁Բալ	-10.9377
▁արարած	-10.9383
▁գծերի	-10.9387
▁արթնան	-10.9393
▁արդարացն	-10.9403
▁աշխատավարձի	-10.9405
▁Ջր	-10.9408
▁դարեր	-10.9416
▁Բայ	-10.9425
▁կստեղծ	-10.9436
▁հնարավորության	-10.9446
▁զգեստ	-10.9457
▁համաձայնվեց	-10.9461
▁լեռ	-10.9477
ավո	-10.9492
▁ներդրվ	-10.9511
om	-10.9511
▁բացիկ	-10.9518
▁տեսանկյուն	-10.9522
▁երգչախմբի	-10.9565
▁սիրել	-10.9572
▁Երեխաների	-10.9591
▁ռիսկեր	-10.9594
▁հմտություն	-10.96
▁դաստիարակել	-10.9606
▁կրող	-10.9609
▁կաթ	-10.9628
▁ապահովագր	-10.9629
բեկ	-10.964
▁գնեցի	-10.9641
▁նախաձեռն	-10.965
▁զգեստներ	-10.9652
▁ճարպակալ	-10.9664
▁մասնագիտություն	-10.9671
▁խնձորներ	-10.9672
▁իրականացր	-10.9676
▁Յեմենի	-10.9684
▁բացիկներ	-10.9693
յութեր	-10.9693
▁միավորներ	-10.9697
▁պատերի	-10.9697
▁կարողանալ	-10.9699
▁դինոզավրի	-10.97
▁ատամ	-10.9717
▁հրավիրել	-10.9728
▁այց	-10.9733
▁գիտակցություն	-10.9735
▁բնագավառ	-10.9742
▁հրապարակել	-10.9758
▁աշխատակիցներ	-10.9767
▁արտադրվ	-10.9784
▁ստեղծվեց	-10.9793
▁խողովակներ	-10.9805
▁արմատներ	-10.981
▁տեսագրություն	-10.9812
▁ձկներ	-10.9821
▁գրեց	-10.9834
▁հրաժարվ	-10.9836
▁դիտելու	-10.9842
▁Լսե	-10.9858
դամ	-10.9858
մարդկայ	-10.9871
▁բիո	-10.9875
մշակ	-10.9877
▁Համենայ	-10.9882
Ն	-10.9883
րադ	-10.9883
էջ	-10.9893
▁թռչուններ	-10.9899
աբանական	-10.99
▁նորությունների	-10.9906
▁ուղղա	-10.9907
▁ռոբոտներ	-10.991
▁ցանցաթաղանթ	-10.9916
▁թարգմանություն	-10.9924
▁թեմա	-10.9925
▁մայրերի	-10.9929
▁քվեն	-10.9933
▁Գու	-10.9951
▁Կալիֆորնիա	-10.9962
▁փնտր	-10.9975
▁ատոմներ	-10.999
▁շուկաներ	-10.9992
▁700	-11.001
▁մահացությա	-11.0015
շփոթ	-11.0019
▁հանդիսատեսի	-11.002
▁մեջբեր	-11.0026
▁Ահ	-11.0027
▁վարկ	-11.0036
▁խնամ	-11.0039
▁հովանավոր	-11.0053
▁քարտ	-11.0054
ակատար	-11.0062
▁տասնամյակներ	-11.0069
▁Վիքիփեդիա	-11.0076
խզբզ	-11.0085
▁գերիշխ	-11.0092
▁զգու	-11.0098
▁ասա	-11.0103
▁օգտագործեն	-11.011
▁բազմա	-11.0112
▁վիճ	-11.0114
կանխատեսել	-11.012
իեւնույն	-11.0121
▁Որտե	-11.0122
▁կարեկց	-11.0122
▁Թոմ	-11.0122
▁հանճար	-11.0123
իրազեկ	-11.0124
▁պաղեստին	-11.0125
itter	-11.0125
մայրցամաք	-11.0125
▁ՏԵՄՊՏ	-11.0125
▁արգելափակ	-11.0125
▁դեսպան	-11.0125
▁կիլոմետր	-11.0125
▁ներբեռն	-11.0125
▁ֆենոմեն	-11.0125
ive	-11.0125
▁Աղջիկ	-11.0125
▁Գյորինգ	-11.0125
▁Ենթադր	-11.0125
▁Երեկ	-11.0125
▁Ինտերնետ	-11.0125
▁Կլեյբեր	-11.0125
▁Պատերազմ	-11.0125
▁Ռենջեր	-11.0125
▁Սոմալի	-11.0125
▁ակնոցներ	-11.0125
▁անակնկալ	-11.0125
▁ապրելակերպ	-11.0125
▁առատաձեռն	-11.0125
▁աֆրիկյան	-11.0125
▁բաղադրամասեր	-11.0125
▁բաղադրություն	-11.0125
▁գորտեր	-11.0125
▁դեղամիջոց	-11.0125
▁երգչախումբ	-11.0125
▁զեկույց	-11.0125
▁էմոցիոնալ	-11.0125
▁ընդհամեն	-11.0125
▁թոստեր	-11.0125
▁ինտենսիվ	-11.0125
▁խանդավառ	-11.0125
▁խառնուրդ	-11.0125
▁խոչընդոտ	-11.0125
▁խորհրդանիշ	-11.0125
▁կընտրե	-11.0125
▁կվերադառնա	-11.0125
▁հանրագիտարան	-11.0125
▁հարսանիք	-11.0125
▁հոլանդա	-11.0125
▁ձկնաբուծարան	-11.0125
▁մահճակալ	-11.0125
▁մարմնավաճառ	-11.0125
▁ներշնչ	-11.0125
▁նոյեմբեր	-11.0125
▁պրոեկցիա	-11.0125
▁ջերմաստիճան	-11.0125
▁սառցալեռ	-11.0125
▁սցենար	-11.0125
▁վարկանիշ	-11.0125
▁վարքագծի	-11.0125
▁փոթորիկ	-11.0125
▁քարոզարշավ	-11.0125
▁քրտն	-11.0125
▁օդանավակայան	-11.0125
▁Երկիր	-11.0125
▁բառախաղ	-11.0125
▁սպասի	-11.0125
▁գերմանացի	-11.0125
▁կպատմե	-11.0125
▁գրագիտությ	-11.0125
▁հետաքննությունն	-11.0125
▁օղակ	-11.0125
▁կհիշե	-11.0125
▁համբավ	-11.0125
▁մանրէներ	-11.0125
▁զավակ	-11.0125
▁իշխանության	-11.0125
▁նշեմ	-11.0125
▁վեբ	-11.0125
հարազատ	-11.0125
▁մայիսի	-11.0125
▁փառք	-11.0125
▁մոթել	-11.0125
▁վերնագիր	-11.0125
▁թթվածն	-11.0125
տպավորիչ	-11.0125
բեւեռ	-11.0125
▁լավատես	-11.0125
▁հալած	-11.0125
▁վարդակ	-11.0125
▁Հույս	-11.0125
▁Ջեյմս	-11.0125
▁պոեզիա	-11.0125
▁կուտե	-11.0125
▁հեռվ	-11.0125
▁ֆոտո	-11.0125
▁բանտարկյալներ	-11.0125
▁դստեր	-11.0125
▁թելադր	-11.0125
▁նախապատրաստ	-11.0125
▁Եգիպտոս	-11.0125
▁փոփոխական	-11.0125
▁մտադրություն	-11.0125
գյուտ	-11.0125
▁համալր	-11.0125
▁ռոմանտի	-11.0125
▁անանուն	-11.0126
▁երաշխավոր	-11.0126
▁1970	-11.0126
▁սպիտակուցներ	-11.0126
▁Փոքր	-11.0126
▁Դանիել	-11.0126
▁գերնոր	-11.0126
▁ռազմավար	-11.0126
▁ակորդ	-11.0126
▁ֆերմա	-11.0126
▁հիմնադիր	-11.0126
▁հպում	-11.0126
▁Տատիկ	-11.0127
դիմացկուն	-11.0127
▁մանրաթելեր	-11.0127
▁ԲՌ	-11.0127
▁ընկերուհի	-11.0128
▁ամենաառաջ	-11.0128
▁հիմնադր	-11.0128
▁փղի	-11.0128
▁ներկայացուցիչ	-11.0128
▁ահաբեկչություն	-11.0129
▁առանցքային	-11.0129
▁թվարկ	-11.0129
▁եփ	-11.013
▁պայմանավորված	-11.013
▁համարժեք	-11.0131
ժվար	-11.0131
▁պահվածք	-11.0131
▁52	-11.0131
▁անդրադառնա	-11.0131
▁կեղծարար	-11.0132
▁կուսակցության	-11.0132
▁տանջվ	-11.0133
▁Կոնգոյ	-11.0133
▁ԴԳ	-11.0133
ափուկ	-11.0133
▁Ինքն	-11.0133
▁46	-11.0134
▁հանդիսացա	-11.0137
li	-11.0137
▁գալիք	-11.0137
▁զարգանալ	-11.0137
▁ոստիկաններ	-11.0138
▁շրջանառ	-11.0139
▁նկարչի	-11.014
▁տաքացման	-11.0141
▁մոտակա	-11.0142
▁կանխիկ	-11.0143
▁փոխազդեցություն	-11.0144
▁կմախքի	-11.0145
▁ռեզ	-11.0146
▁թերություններ	-11.0146
▁Քեյ	-11.0147
▁զատ	-11.0147
▁անչափ	-11.0148
▁մկանները	-11.0149
▁ՀԱ	-11.015
▁Պահ	-11.015
▁խանգարումներ	-11.0152
▁կմախքներ	-11.0153
▁զնն	-11.0153
▁իշխանություններ	-11.0153
▁ցած	-11.0154
▁հասկանաք	-11.0155
▁մոռացել	-11.0157
տառապ	-11.0159
սուցչուհի	-11.016
▁կկարողանայի	-11.0161
▁ֆինանսավորման	-11.0163
▁մահացու	-11.0166
▁վերացական	-11.0168
▁րբ	-11.0169
▁մաթեմատիկան	-11.017
▁ներկայացումներ	-11.0172
▁հարցրի	-11.0174
▁ընդունենք	-11.0174
երձավոր	-11.0175
▁Գազայ	-11.0177
▁սոս	-11.0181
▁առաջացած	-11.0181
տրուկ	-11.0186
▁պետության	-11.0193
բուխ	-11.0194
▁շեղվել	-11.0194
▁ամենահ	-11.02
▁ինֆորմացիայի	-11.0201
▁գազար	-11.0202
▁Տեր	-11.0202
▁Կարծես	-11.0204
▁Նորման	-11.0204
▁թեստեր	-11.0207
▁Մարտի	-11.021
▁որոշեց	-11.0211
▁գրվել	-11.0213
▁ապրեց	-11.0215
ատկա	-11.0216
▁պլանավորմա	-11.0221
▁կատարեց	-11.0223
▁պարզեցի	-11.0223
▁խրախուսել	-11.0224
▁Թագավորություն	-11.0227
▁խաղաքարտեր	-11.0232
▁տված	-11.0232
▁փորձառությ	-11.0234
հաղորդիչ	-11.0236
տրա	-11.025
▁բանականություն	-11.0253
▁հայ	-11.0259
▁ընդունակություն	-11.0261
▁պարտադր	-11.0271
▁ստացած	-11.0272
▁քարտեր	-11.0275
▁մկան	-11.0275
▁կրկնվ	-11.0291
▁փրկելու	-11.0293
▁գրիչ	-11.0301
▁կենտրոնացն	-11.0302
▁1-	-11.0308
▁12-	-11.0309
▁թոշակի	-11.0314
▁այգու	-11.0316
լենդ	-11.0317
▁բացեց	-11.032
▁լաբորատորիայի	-11.0326
տարված	-11.0336
▁հարգել	-11.0348
▁բակ	-11.0361
▁Պր	-11.0361
▁բաժանվ	-11.0381
▁ուրիշներ	-11.0387
րոպ	-11.0395
▁պարբերություն	-11.0399
▁հարմարվ	-11.0411
▁օրգան	-11.0415
▁տեր	-11.0416
▁խնդրեց	-11.0418
▁շուն	-11.0434
▁զոհեր	-11.0438
▁գործակալություն	-11.0457
▁քանդվ	-11.0457
հաղորդակցություն	-11.0461
▁պատրաստեցին	-11.0462
▁միջոցառում	-11.0466
▁ամուսնաց	-11.0474
տայի	-11.0478
▁թափվ	-11.0491
▁անցկացնելու	-11.0491
▁մարդասիր	-11.0494
▁մտցն	-11.0502
հեղ	-11.0508
▁հնչյուններ	-11.0518
▁փրկվել	-11.0523
▁Երկր	-11.0528
գրավոր	-11.0534
es	-11.0537
▁կապրե	-11.054
▁Սառ	-11.0542
ասիրություն	-11.0551
▁ձախողումների	-11.0569
մահ	-11.0574
▁էֆեկտներ	-11.0587
▁մաթեմատիկոս	-11.0589
▁խնձոր	-11.0599
▁խաղաղություն	-11.0599
▁հեռավորություն	-11.0606
▁բաղադրիչներ	-11.0608
▁երազներ	-11.0626
▁փակել	-11.0628
▁հետազոտող	-11.0636
▁հեռացնել	-11.066
▁մյուսների	-11.0676
▁ձեռներեց	-11.0698
կայի	-11.0698
▁ընդունվ	-11.07
▁դրեցի	-11.0709
▁բր	-11.0717
տիպիկ	-11.0718
▁իրավունքներ	-11.0746
▁ձեռներեցների	-11.0763
տեւեց	-11.078
▁դրսեւորումներ	-11.0791
▁նկարագրություն	-11.0791
▁ատել	-11.0794
▁առանձնահատկությ	-11.0795
▁նկարեց	-11.0798
▁Յան	-11.0818
▁ուղեւորություն	-11.0825
▁վերագր	-11.0828
▁ծալ	-11.0836
զգային	-11.0843
▁մանկություն	-11.0848
տիկական	-11.085
▁պարտավորություն	-11.0852
▁կրողներ	-11.0867
▁ահաբեկ	-11.0886
▁շներ	-11.0887
▁թռչուն	-11.0913
ove	-11.0914
▁զգուշ	-11.0926
գծի	-11.0937
▁նշեց	-11.0938
▁Տու	-11.0962
▁վերցնելու	-11.0971
▁Թերե	-11.0973
▁ազդակ	-11.098
▁ղեկ	-11.0998
▁լքել	-11.1013
▁արեգակնա	-11.1016
առաջ	-11.103
ut	-11.104
երկր	-11.1042
▁սահմանափակվ	-11.1058
տրական	-11.1059
▁Ֆրանսիա	-11.1063
աշարժ	-11.1067
թայ	-11.108
▁աշխատեց	-11.108
դինամիկա	-11.1085
▁դասախոս	-11.1088
▁55	-11.1102
▁արթնացա	-11.1103
▁արտադրությա	-11.1111
▁կատարող	-11.1115
փորձ	-11.1123
հասկանալի	-11.1127
պաշտպան	-11.1134
▁ավարտվ	-11.1136
▁կուլ	-11.1137
երջանիկ	-11.1139
հավաք	-11.1144
▁ղեկավարների	-11.1149
բնական	-11.1155
▁լրագրողներ	-11.1161
▁վերահսկող	-11.1172
▁կամավորներ	-11.1182
▁քառակուսիներ	-11.1184
▁մահանալ	-11.1202
փոս	-11.1209
▁ստանձն	-11.1219
▁տնտեսություններ	-11.1246
գետն	-11.1246
▁Թագավոր	-11.126
▁մեջքի	-11.1261
▁տեմպ	-11.1266
▁կերա	-11.1277
▁Որո	-11.1283
▁հիաց	-11.1288
▁որդեգ	-11.1296
▁ընթերց	-11.1297
▁դիտե	-11.1312
▁անդրադառն	-11.1349
ղղակի	-11.135
▁անջատվ	-11.1353
▁ակտիվաց	-11.1361
▁Ջոշուա	-11.1362
ափազանց	-11.1368
▁ցուցադրվ	-11.1368
նդհանուր	-11.1369
▁Մասնավորա	-11.1375
▁անալոգ	-11.1375
▁պրոյեկտ	-11.1375
ASA	-11.1375
▁1980	-11.1375
▁BMI	-11.1375
▁Հիվանդանոց	-11.1375
▁Ձայն	-11.1375
▁աղավաղ	-11.1375
▁բանավեճ	-11.1375
▁խիզախ	-11.1375
▁կանխագուշակ	-11.1375
▁մահմեդ	-11.1375
▁ներխուժել	-11.1375
▁ջախջախ	-11.1375
▁սպասվ	-11.1375
▁վերանորոգ	-11.1375
▁տիեզերանավ	-11.1375
▁քարանձավ	-11.1375
սպասարկ	-11.1375
▁1945	-11.1375
▁Accenture	-11.1375
▁Բուդրուս	-11.1375
▁Բրիգադի	-11.1375
▁Ինդոնեզիա	-11.1375
▁Իսլամ	-11.1375
▁Կամբոջայ	-11.1375
▁Մանհեթեն	-11.1375
▁Մասլոու	-11.1375
▁Շրեդդիզ	-11.1375
▁Ջասթին	-11.1375
▁Սերգեյ	-11.1375
▁Սինգապուր	-11.1375
▁Տիտանիկ	-11.1375
▁ամենադժվար	-11.1375
▁աշխատատեղեր	-11.1375
▁աշտարակ	-11.1375
▁առաստաղ	-11.1375
▁առեւտուր	-11.1375
▁բաղադրատոմս	-11.1375
▁գլխաշոր	-11.1375
▁գլուխգործոց	-11.1375
▁գործառույթ	-11.1375
▁դժոխ	-11.1375
▁երկրագնդի	-11.1375
▁էկզո	-11.1375
▁ընձուղտ	-11.1375
▁թխվածք	-11.1375
▁ինտերֆեյս	-11.1375
▁ինքնավստահ	-11.1375
▁իսլամ	-11.1375
▁լատիներեն	-11.1375
▁լուսարձակ	-11.1375
▁խեղաթյուր	-11.1375
▁խոսակցության	-11.1375
▁խորհրդանշ	-11.1375
▁կանխատեսումներ	-11.1375
▁կոնֆլիկտ	-11.1375
▁կվերցն	-11.1375
▁համընկնում	-11.1375
▁հիերարխիա	-11.1375
▁հնդիկ	-11.1375
▁հրավեր	-11.1375
▁հրդեհ	-11.1375
▁ձեռագործ	-11.1375
▁ճամպրուկ	-11.1375
▁մարմնամարզ	-11.1375
▁մեծահոգ	-11.1375
▁մետաղադրամ	-11.1375
▁նարնջագույն	-11.1375
▁նպատակասլաց	-11.1375
▁չարաշահ	-11.1375
▁տրիլիոն	-11.1375
▁ֆինանսներ	-11.1375
▁Պասկալ	-11.1375
▁Տվյալ	-11.1375
▁անգիտակց	-11.1375
▁դռան	-11.1375
▁ընդգծ	-11.1375
▁ընկերուհու	-11.1375
▁կարիերան	-11.1375
▁ճոխ	-11.1375
▁չիպսեր	-11.1375
▁վավերագր	-11.1375
▁փնտրտուք	-11.1375
▁փոխկապված	-11.1375
▁Խաղաղ	-11.1375
▁Հռոմ	-11.1375
▁բարեկամ	-11.1375
▁զարմիկ	-11.1375
▁համատարած	-11.1375
▁thr	-11.1375
▁Սուպեր	-11.1375
▁թերապիա	-11.1375
▁ժամկետ	-11.1375
▁հեռախոսազանգ	-11.1375
▁Առավոտ	-11.1375
▁Ռոսլինգ	-11.1375
▁քաջալեր	-11.1375
▁միջանցք	-11.1375
▁ականջակալներ	-11.1375
▁վառելիք	-11.1375
▁Էրիկ	-11.1375
▁նյարդեր	-11.1375
▁տեսողություն	-11.1375
▁թմրանյութ	-11.1375
▁կոլեկտիվ	-11.1375
▁պատրանք	-11.1375
▁լազեր	-11.1375
▁Մոռաց	-11.1375
▁ամենամոտ	-11.1375
▁պատվաստ	-11.1375
▁օձեր	-11.1375
▁անհանգստություն	-11.1375
▁գյուղատնտես	-11.1375
▁ժառանգության	-11.1375
▁վիրավոր	-11.1375
▁Չորս	-11.1375
▁ակնարկ	-11.1375
▁հետեւորդ	-11.1375
▁Բրուն	-11.1375
▁հակադարձ	-11.1375
▁ժառանգական	-11.1375
▁Մուտի	-11.1375
▁հաբեր	-11.1375
SC	-11.1375
▁ամենաքիչ	-11.1375
▁ազնվ	-11.1376
▁խնամակալ	-11.1376
▁թափոններ	-11.1376
▁անկման	-11.1376
▁խոսնակ	-11.1376
▁խոստանա	-11.1376
▁ջութակահար	-11.1376
▁թյուր	-11.1376
▁խմբագիր	-11.1377
▁վեպ	-11.1377
▁կպատասխանե	-11.1377
the	-11.1377
▁ծառայել	-11.1377
▁հանգեցրե	-11.1377
▁լսած	-11.1377
▁ձգողական	-11.1377
▁ջարդ	-11.1377
ab	-11.1377
ոնանս	-11.1378
▁մղում	-11.1378
▁մետաղ	-11.1378
▁պայմանական	-11.1379
▁կօգտագործենք	-11.1379
▁շահագործ	-11.1379
▁21	-11.138
▁սեւեռ	-11.138
▁Ադամ	-11.1381
▁Սուսա	-11.1381
▁ներարկ	-11.1381
▁ավտո	-11.1381
▁փորագր	-11.1381
▁սիրողական	-11.1381
▁Մաթի	-11.1382
▁սպառողական	-11.1382
▁պատիժ	-11.1382
▁Որտեղ	-11.1384
▁համանման	-11.1384
▁ներեցե	-11.1384
▁խաղացող	-11.1384
▁Բելլ	-11.1385
▁Նկար	-11.1385
▁անջատիչ	-11.1386
▁ռազմիկ	-11.1386
▁կասկածելի	-11.1387
▁Բրեն	-11.1388
▁պետքարտուղար	-11.1388
▁Ջոշուայի	-11.1388
▁լիցք	-11.1389
▁պաշտ	-11.139
▁տեղեկացնել	-11.1393
▁ժամանց	-11.1393
▁անդրադառնալ	-11.1393
▁ընկճված	-11.1395
▁երկայն	-11.1395
▁մորթի	-11.1396
▁քվեարկության	-11.1397
▁լրացն	-11.1397
▁խեղ	-11.1398
▁հարստություն	-11.1399
▁էլեկտրո	-11.14
▁ցորեն	-11.1401
▁կանգնեցնել	-11.1404
ou	-11.1406
յութ	-11.1407
▁հարաբերական	-11.1409
▁առաջատար	-11.141
▁Արա	-11.1411
▁ժայռ	-11.1412
▁վերջիններ	-11.1414
▁բռնաբար	-11.1415
▁գոյատեւման	-11.1415
▁վիճակագրության	-11.1416
▁տնտեսագիտության	-11.1417
▁մարզիչ	-11.142
▁Քենիայ	-11.142
▁դասավորված	-11.1426
▁պահպանման	-11.1427
▁մեղմ	-11.1429
▁պիտակներ	-11.143
▁սերտ	-11.1433
▁Համար	-11.1433
▁հյուս	-11.1439
ծուխ	-11.1443
▁ասելիք	-11.1448
▁ձեռնարկատերեր	-11.1449
▁մտածեցինք	-11.1449
▁մուլտֆիլմեր	-11.145
▁հագեց	-11.1455
▁աղմ	-11.1459
▁ներգրավվել	-11.147
▁մրցակցություն	-11.1471
▁ներող	-11.1471
▁առաջադր	-11.1474
▁քառ	-11.1479
ine	-11.148
▁հերթական	-11.1484
▁հետաքրքրական	-11.1488
քաղաքակրթություն	-11.1495
▁Դելի	-11.1501
ուրույն	-11.1501
▁ծածկագր	-11.1502
▁հաղորդակցվ	-11.1502
▁հիշեցնել	-11.1504
▁ճաշակ	-11.1504
▁գալակտիկայ	-11.151
▁պաշտպանված	-11.1518
▁սկզբունքները	-11.152
▁ուղեւորվ	-11.1524
▁էլեկտրա	-11.1529
տեսության	-11.1535
▁ստեղծող	-11.1542
▁թույլատրել	-11.1542
▁դիտվ	-11.1547
▁մահացություններ	-11.1556
▁չափահասների	-11.1566
▁գրավական	-11.1567
▁ընդունե	-11.1576
▁կատարելագործ	-11.1602
▁մեծահասակների	-11.1604
ամուսնանա	-11.1606
▁Միջա	-11.1607
▁սնուց	-11.163
▁ջերմա	-11.1634
▁անցկաց	-11.1653
▁արթնաց	-11.1657
▁երկրաբան	-11.1662
▁Զգ	-11.1669
▁դասախոսություն	-11.1675
30	-11.1676
▁մաքրել	-11.1694
▁կառ	-11.1704
թրի	-11.1712
▁ֆերմերներ	-11.1714
ոլա	-11.1722
▁տարվել	-11.1723
▁աշխատացնել	-11.1733
▁կենտրոնան	-11.1742
▁հետաքրքրաս	-11.1795
40	-11.1796
սուղ	-11.1799
▁կղզիներ	-11.18
▁լաբորատորիաներ	-11.1816
▁առնետներ	-11.1825
▁բնագավառներ	-11.1827
▁կորցրեց	-11.1841
▁վերանա	-11.1854
▁թույլատր	-11.1861
▁բանկայի	-11.1893
▁հրաժարվել	-11.1908
▁խմբավոր	-11.195
▁հրեա	-11.1961
▁հայրերի	-11.198
▁զինյալներ	-11.1988
▁հարաբեր	-11.2007
▁գրկել	-11.2029
▁աշխատակից	-11.2041
▁հատկանիշ	-11.2076
▁հաճախականությ	-11.2081
▁գիտությունների	-11.2089
▁վառվ	-11.2116
▁քիմիա	-11.2118
ցանկա	-11.2145
▁ծախսելու	-11.2148
▁կիսա	-11.2161
▁համադրել	-11.2164
▁հիան	-11.2169
վանա	-11.2176
▁կառուցելու	-11.2177
▁ընդհ	-11.218
▁կստեղծե	-11.2217
▁հայտնեց	-11.222
▁մեծամաս	-11.2234
▁օգտագործե	-11.2238
▁տրամադրություն	-11.2243
▁Ախ	-11.225
խարի	-11.2258
▁դերեր	-11.2279
▁կիրառելու	-11.2297
▁քաղաքացիներ	-11.2305
աբանություն	-11.2311
▁խնայող	-11.2323
▁արթ	-11.2332
▁բազմազան	-11.2338
▁միջոցառումներ	-11.2375
արժենա	-11.2402
1,000	-11.2471
▁կարգավորել	-11.2476
▁վերարտադրել	-11.2485
▁շղթաներ	-11.2497
աշխատ	-11.2519
▁ներկայան	-11.2534
Անջելես	-11.2551
Ռ	-11.2557
համակարգիչ	-11.2557
վերեւում	-11.2558
▁ճյուղ	-11.2559
սահմանափակ	-11.256
առողջ	-11.256
շաբաթ	-11.2562
Դ	-11.2562
հույս	-11.2569
▁անհաջող	-11.2572
ակտիվ	-11.2594
▁բույս	-11.2599
▁դռն	-11.2603
▁կապիկ	-11.2607
▁ստեղծեց	-11.2609
▁ձախողվ	-11.2611
վայր	-11.2616
▁էվոլյուցիա	-11.2619
▁պարկ	-11.2627
մասերի	-11.2651
▁2.0	-11.2654
▁իմաստություն	-11.2673
▁հպարտան	-11.2715
▁հմայ	-11.2718
▁վերջան	-11.2729
▁Առաջ	-11.2745
չուհի	-11.2766
խախտ	-11.2778
▁անկողնու	-11.278
▁այլընտրանք	-11.278
▁ապշ	-11.2784
▁մոլոր	-11.279
▁հանգույցներ	-11.2793
▁տատա	-11.2794
▁փիլիսոփա	-11.2795
▁ընկճ	-11.2795
հաղթահար	-11.2796
▁00-	-11.2798
ասրահ	-11.2802
▁քարոզ	-11.2802
վճռ	-11.2803
անտաստիկ	-11.2803
▁Հասարակ	-11.2803
▁զսպանակ	-11.2803
▁չընդուն	-11.2803
հանրահայտ	-11.2803
▁2010	-11.2803
▁Անգլերեն	-11.2803
▁Աշխատել	-11.2803
▁Զարգաց	-11.2803
▁Զիմբաբվե	-11.2803
▁Լիկլայդեր	-11.2803
▁ԽՄ	-11.2803
▁Ուգանդա	-11.2803
▁Տարօրինակ	-11.2803
▁Տեխնոլոգիա	-11.2803
▁Տեղեկատվ	-11.2803
▁Տեսահոլովակ	-11.2803
▁Փեթ	-11.2803
▁Օրկուտ	-11.2803
▁ակնթարթ	-11.2803
▁ամենափոքր	-11.2803
▁անատոմիա	-11.2803
▁անբարոյական	-11.2803
▁անիմացիա	-11.2803
▁առաջնահերթ	-11.2803
▁բազմապատկ	-11.2803
▁գլուխկոտրուկ	-11.2803
▁երախտա	-11.2803
▁երկվորյակներ	-11.2803
▁էկոհամակարգ	-11.2803
▁թավջութակ	-11.2803
▁ժապավեն	-11.2803
▁կարծրատիպեր	-11.2803
▁կոլագեն	-11.2803
▁կոնֆետ	-11.2803
▁կոռուպցիա	-11.2803
▁կուղարկե	-11.2803
▁կրկնապատկվ	-11.2803
▁համախմբում	-11.2803
▁ձերբազատվ	-11.2803
▁մագիստրոս	-11.2803
▁մանրակրկ	-11.2803
▁մոտակայքում	-11.2803
▁շախմատ	-11.2803
▁պայուսակ	-11.2803
▁պրոտեզներ	-11.2803
▁պրոտեիններ	-11.2803
▁սանտիմետր	-11.2803
▁վիտամին	-11.2803
▁ցենզուրա	-11.2803
▁փաստաթուղթ	-11.2803
▁օժտված	-11.2803
▁1999	-11.2803
▁Բժշկ	-11.2803
▁Մասաչուսեթսի	-11.2803
▁արաբերեն	-11.2803
▁արահետ	-11.2803
▁բարբառ	-11.2803
▁խնջույք	-11.2803
▁ծաղկ	-11.2803
▁կատեգորիա	-11.2803
▁կլուծ	-11.2803
▁կփրկ	-11.2803
▁հետախուզ	-11.2803
▁մակաբույծ	-11.2803
▁միկրովայրկյան	-11.2803
▁յեմենցի	-11.2803
▁նորամուծություն	-11.2803
▁ոտնաչափ	-11.2803
▁չդարձ	-11.2803
▁սվիտեր	-11.2803
▁վարագույր	-11.2803
▁վեբկայք	-11.2803
▁տեսադաշտ	-11.2803
▁տոպրակ	-11.2803
▁փետուր	-11.2803
▁քրիստոնյա	-11.2803
այրենասիր	-11.2803
▁Անկախ	-11.2803
▁Համակարգ	-11.2803
▁Վստահ	-11.2803
▁ամենավերջ	-11.2803
▁արեւմուտք	-11.2803
▁ծննդաբեր	-11.2803
▁կենսունակ	-11.2803
▁հունիսի	-11.2803
▁ներկայացուցչ	-11.2803
▁ռասայ	-11.2803
▁սխեմա	-11.2803
▁Սոֆի	-11.2803
▁կթողն	-11.2803
▁մոտիվացիա	-11.2803
▁նավապետ	-11.2803
▁սյունակ	-11.2803
▁սուզվել	-11.2803
▁ցայտ	-11.2803
▁Հաջողությ	-11.2803
▁անարդար	-11.2803
▁Բարձր	-11.2803
▁Ուրիշ	-11.2803
▁դիպչ	-11.2803
▁ձեռքբերումներ	-11.2803
▁պտղի	-11.2803
▁սեփականատիր	-11.2803
▁Քերոլ	-11.2803
▁երկարատեւ	-11.2803
▁ձողիկ	-11.2803
▁սառնարան	-11.2803
▁ամոթ	-11.2803
▁թթվածին	-11.2803
▁քրոջ	-11.2803
հապաղ	-11.2803
▁խափան	-11.2803
▁Թունիս	-11.2803
▁կպչու	-11.2803
▁ժխտ	-11.2803
▁սափրվ	-11.2803
▁պիցցա	-11.2804
▁Կարաջանի	-11.2804
ամետր	-11.2804
▁օձի	-11.2804
▁de	-11.2804
▁հիացմունք	-11.2804
▁Ամերիկացիներ	-11.2804
▁Տնտեսա	-11.2804
▁բարեգործ	-11.2804
▁Քատարի	-11.2804
▁այպիսի	-11.2804
▁օտարերկր	-11.2804
▁կոգն	-11.2804
▁Կրթ	-11.2804
▁ռեակցիա	-11.2804
▁ռուս	-11.2804
▁գրանցել	-11.2804
▁վճռական	-11.2804
▁անուշ	-11.2804
▁լուսային	-11.2804
▁կաստայ	-11.2805
▁ակտիվություն	-11.2805
▁աշխատավայր	-11.2805
▁կացիններ	-11.2805
▁գծագիր	-11.2805
▁հիմնաքար	-11.2805
▁պատկերասրահ	-11.2805
est	-11.2805
my	-11.2805
▁շտկել	-11.2805
▁բաժանմունք	-11.2805
▁օրհն	-11.2806
▁պատանիներ	-11.2806
▁գլխացավ	-11.2806
▁բալե	-11.2806
▁Ռոզա	-11.2807
ak	-11.2807
ct	-11.2807
▁ամսագիր	-11.2807
▁արվեստանոց	-11.2807
▁սկանավոր	-11.2807
ay	-11.2807
▁բարեբախտ	-11.2808
▁անիծ	-11.2808
▁ամրացվ	-11.2808
▁2050	-11.2809
▁սակավ	-11.2809
▁ժառանգություն	-11.2809
▁կախում	-11.281
▁Հղի	-11.281
▁ծովափ	-11.2811
▁Լամայի	-11.2811
▁բեկում	-11.2811
▁հովտ	-11.2811
▁լուռ	-11.2811
▁վերելք	-11.2811
▁երկրաչափ	-11.2812
▁Փաստացի	-11.2813
▁ստրուկ	-11.2814
▁Աիշա	-11.2815
▁պահանջարկ	-11.2815
ռնի	-11.2815
▁Ամպ	-11.2815
▁դիմակայել	-11.2815
բերգի	-11.2816
▁հնարքներ	-11.2816
▁64	-11.2817
▁100,000	-11.2818
▁կանգառ	-11.2819
▁շրջանցել	-11.2819
▁Ակտ	-11.282
▁հավաքագր	-11.282
▁պայմանագր	-11.2821
ապատիկ	-11.2822
▁այծ	-11.2822
▁գյուղացի	-11.2822
▁3,000	-11.2823
▁նախասիր	-11.2823
▁մակարդակներում	-11.2824
▁տատանվ	-11.2825
▁33	-11.2826
▁արագացում	-11.2826
▁2.5	-11.2826
▁ծծ	-11.2826
▁անցքեր	-11.2827
Կոլայի	-11.2827
▁Տիկ	-11.2827
▁դադարեցնել	-11.2828
▁աստիճաններով	-11.2829
▁ներդրողներ	-11.2829
▁արգելակ	-11.283
▁միաձուլ	-11.2831
▁Վաղ	-11.2832
▁հաղթող	-11.2833
շփոթված	-11.2834
▁պահարան	-11.2835
▁Լավագույն	-11.2835
▁Մահա	-11.2835
▁իդեալական	-11.2835
▁միացրեցի	-11.2836
▁կորուստ	-11.2837
▁արտահայտման	-11.2838
նախադեպ	-11.2839
▁հարստությ	-11.2839
▁կուզենա	-11.284
▁կտրտ	-11.284
չեւ	-11.284
▁դանակ	-11.2842
▁նավակ	-11.2844
▁իմիջ	-11.2846
▁բերեմ	-11.2846
▁արատ	-11.2846
▁Ռեյ	-11.2849
▁ավարտվեց	-11.2851
▁լուսանկարիչ	-11.2853
▁Վիր	-11.2855
▁Չկար	-11.2855
▁մաքրող	-11.2856
▁սիրուն	-11.2857
▁պարունակության	-11.2859
կապակցված	-11.2863
տքը	-11.2865
▁անմիջական	-11.2865
▁նայելիս	-11.2867
▁խողովակաշարեր	-11.2869
▁հեռահաղորդակց	-11.2872
▁հայց	-11.2872
▁մրգեր	-11.2877
▁լուսանկարչ	-11.2885
▁առնչվել	-11.2888
▁չգա	-11.289
▁ծակ	-11.2906
▁հոգե	-11.2909
▁զրոյ	-11.2911
▁Հոլ	-11.2916
▁բացառություններ	-11.2918
եղեն	-11.2919
▁Կներե	-11.2921
▁հաղթեց	-11.2931
▁ցրվ	-11.2933
▁Առա	-11.2935
▁ամենավա	-11.2935
▁կադր	-11.2935
▁թղթ	-11.2941
▁որակավոր	-11.295
▁Ջերի	-11.2951
▁Վեց	-11.2951
▁կշարունակ	-11.2951
եկտ	-11.2953
▁կազմեցին	-11.2955
▁անհեթեթություն	-11.2957
▁հավաքվ	-11.2961
▁ցուցա	-11.2963
▁լողաց	-11.2964
ռոց	-11.2969
▁տեսախցիկներ	-11.2969
▁քվեարկ	-11.2977
քվան	-11.2981
▁խառնվ	-11.2989
▁Պատրաստ	-11.2991
▁կկատարվ	-11.2993
▁շահերի	-11.3004
▁բուժելու	-11.3005
▁առաջադրանքներ	-11.3009
▁հաղորդակցվելու	-11.3018
▁մահանալու	-11.3025
▁հավելումն	-11.3042
▁հարմարեց	-11.3042
▁ցատկել	-11.3047
▁ճյուղեր	-11.3054
բլա	-11.3059
▁որոնումներ	-11.306
▁խոզեր	-11.3064
▁զոհաբերություն	-11.3085
▁տերեր	-11.3097
▁պատուհաններ	-11.3101
▁վաճառող	-11.3105
▁ամուսնանալ	-11.3107
կիրճ	-11.3147
▁խելա	-11.3157
▁հակադրություն	-11.3164
▁Տարբերություն	-11.3178
խկին	-11.318
▁թեկնածուներ	-11.3181
▁ցանկաց	-11.3184
▁ոտք	-11.3203
▁իրավաբաններ	-11.3209
▁մատներ	-11.321
▁ներգրավվեն	-11.3213
▁կհասնե	-11.3213
▁մարդասպաններ	-11.325
վերսա	-11.326
▁կամքի	-11.3261
▁Հանրա	-11.3278
▁ամսագրեր	-11.3278
▁տոմսեր	-11.328
▁կեսեր	-11.3287
▁ծրագրավորող	-11.3291
▁թիմեր	-11.3311
աճախ	-11.3344
վերակառուց	-11.335
▁հզորություն	-11.3366
▁բաս	-11.3368
▁խնայելու	-11.3375
▁կտեսնե	-11.3402
▁բարձրանալ	-11.3407
▁օգտվող	-11.341
արկավոր	-11.3439
▁Ասաց	-11.3443
▁հարկեր	-11.346
▁Տարե	-11.3502
ro	-11.351
▁ծալե	-11.3516
▁թույ	-11.3534
գրավեցին	-11.3543
▁ներգրավվ	-11.3548
▁ընդունվել	-11.3565
▁հանդարտ	-11.3568
գուշակ	-11.3576
▁երգչախմբ	-11.3585
▁տեսանկյուններ	-11.3586
▁թույլատրվ	-11.3633
▁հավաքվել	-11.3635
▁նկարելու	-11.3652
▁ենթարկել	-11.3734
տեխնիկ	-11.3737
պատկերավոր	-11.374
▁նեյրոն	-11.3742
▁անգլ	-11.3743
▁խորանարդ	-11.3743
▁հրավիրեցին	-11.375
▁կայսրություն	-11.3757
▁ապացույցներ	-11.3759
թոնի	-11.3783
▁մաթեմատիկոսներ	-11.3799
▁տաքաց	-11.3802
▁կխնդրե	-11.3808
▁խթանել	-11.3829
▁Ասիա	-11.3845
▁գովազդներ	-11.3853
▁հարեւանների	-11.3897
▁հնչյուն	-11.3899
▁մարդասպան	-11.3972
ատանին	-11.3991
▁բարեկեց	-11.3993
▁փոշ	-11.3995
▁գործակալ	-11.4007
▁կատարելագործել	-11.4012
▁Գիտություն	-11.4042
▁Տարբեր	-11.4045
▁պարագաներ	-11.4053
▁օվկիանոսներ	-11.4066
▁ղեկավարվ	-11.408
▁կենտրոնանա	-11.4082
գրելու	-11.4087
▁արդիական	-11.4111
▁երաժիշտներ	-11.4112
▁դասարաններ	-11.4142
▁կփոխվ	-11.4167
անգամ	-11.4189
▁հեռացա	-11.4194
ծախսե	-11.4204
▁մոռաց	-11.421
պատրաստ	-11.4213
▁հուսալ	-11.4219
Չ	-11.4223
նպաստ	-11.4224
ամերիկ	-11.4225
պատասխան	-11.4225
հրապարակ	-11.4225
արդյունավետ	-11.4227
Վ	-11.4228
հարաբերություն	-11.4228
Ե	-11.4228
վնաս	-11.4235
հիմն	-11.4241
հինգ	-11.4243
լեզու	-11.4248
▁ճշմարտություն	-11.4254
▁Պատրաստվ	-11.4256
▁գալակտիկա	-11.4288
▁մանկապարտեզներ	-11.4294
▁կշարունակե	-11.4298
▁անմահ	-11.4306
▁նյարդա	-11.4307
▁մրցակց	-11.4341
▁Բրիտանիա	-11.4343
▁հաջողություններ	-11.4346
բջջ	-11.4348
▁զրո	-11.4355
▁հարմարվել	-11.4356
փոփոխ	-11.4361
▁մտցնել	-11.4371
▁օրինա	-11.4373
▁տեսե	-11.4376
աթափ	-11.4388
▁հետաքրք	-11.439
▁Երաժշտ	-11.4427
▁իդեալ	-11.4433
▁հմտությ	-11.4435
▁պլա	-11.4442
▁Լյու	-11.4443
▁Ունե	-11.4443
▁բնավ	-11.4444
արտուղար	-11.4452
ասպան	-11.4464
նչյուն	-11.4467
ամաձայն	-11.4467
նակչության	-11.4468
▁ընդմի	-11.4468
▁փոխազդեցությ	-11.4469
▁ճարպ	-11.4469
ուլյար	-11.447
▁1990	-11.447
▁Աշխատա	-11.447
▁անվասայլակ	-11.447
▁էլէկտր	-11.447
▁իսպաներեն	-11.447
▁կպահանջ	-11.447
▁սպունգ	-11.447
assi	-11.447
իվերսայդի	-11.447
▁1993	-11.447
▁Բուդդայ	-11.447
▁Զարթոնք	-11.447
▁Ինստիտուտ	-11.447
▁ԼՕԼ	-11.447
▁Կոնգրեսի	-11.447
▁Հոգեբան	-11.447
▁Մադդի	-11.447
▁Մաթարե	-11.447
▁Պորտուգալիա	-11.447
▁Տեխաս	-11.447
▁Փիթեր	-11.447
▁Քեննեդի	-11.447
▁Քրդստան	-11.447
▁Օքսֆորդ	-11.447
▁Ֆիլադելֆիայ	-11.447
▁աթեիստ	-11.447
▁ականջօղ	-11.447
▁ամենաաղքատ	-11.447
▁ամենահարուստ	-11.447
▁ավիաուղիներ	-11.447
▁ավտոտնակ	-11.447
▁արխիվ	-11.447
▁բենզալցակայան	-11.447
▁գրախանութ	-11.447
▁գրաֆիտի	-11.447
▁դավաճան	-11.447
▁զամբյուղ	-11.447
▁զբոսն	-11.447
▁թրաֆիքինգ	-11.447
▁ինդուստրիա	-11.447
▁ծաղրանկարիչ	-11.447
▁ծաղրանկարներ	-11.447
▁կահույք	-11.447
▁կիլոգրամ	-11.447
▁կրծքազարդ	-11.447
▁կրծքավանդակ	-11.447
▁հայթայթել	-11.447
▁հիդրոստատ	-11.447
▁հրադադարի	-11.447
▁հրամայ	-11.447
▁ձերբակալվ	-11.447
▁ճարտարագետներ	-11.447
▁մանկավարժ	-11.447
▁մարտկոց	-11.447
▁մեղադրանք	-11.447
▁միկրոֆոն	-11.447
▁մտաբերել	-11.447
▁մրջյուն	-11.447
▁ներդաշնակ	-11.447
▁ներքնազգեստ	-11.447
▁նվիրաբերել	-11.447
▁նրբագեղ	-11.447
▁շաբաթաթերթ	-11.447
▁շոտլանդա	-11.447
▁շրջանավարտներ	-11.447
▁պահածոյաց	-11.447
▁սաղավարտ	-11.447
▁սիմբիո	-11.447
▁սիմֆոնի	-11.447
▁սիրամարգ	-11.447
▁սոպրանոյ	-11.447
▁սուպերմարկետ	-11.447
▁սպիտակամորթ	-11.447
▁վազքուղ	-11.447
▁վարչապետ	-11.447
▁վերոնշյալ	-11.447
▁փլուզ	-11.447
▁փոփ	-11.447
▁քրիստոնե	-11.447
▁օգոստոսի	-11.447
▁օրենսդրություն	-11.447
▁Ամուսին	-11.447
▁Բրոնքս	-11.447
▁Երեւակայ	-11.447
▁Էյնշտեյն	-11.447
▁Հասկաց	-11.447
▁Հոմեր	-11.447
▁Ճշմարտությ	-11.447
▁անհամբեր	-11.447
▁ապրիլի	-11.447
▁գրասեղան	-11.447
▁էներգետիկ	-11.447
▁ողբերգ	-11.447
▁չեզոք	-11.447
▁պատվիրել	-11.447
▁տեռորի	-11.447
▁ցուրտ	-11.447
▁Գյուղ	-11.447
▁Ստեղծ	-11.447
▁աֆղան	-11.447
▁բեղմնավոր	-11.447
▁գեներատոր	-11.447
▁զզվել	-11.447
▁ժեստ	-11.447
▁հեռակառավար	-11.447
▁վազվզ	-11.447
▁վեներական	-11.447
աձուկ	-11.447
պտույտ	-11.447
▁Կցանկանա	-11.447
▁խոստանում	-11.447
▁կտուրներ	-11.447
▁միկրովարկ	-11.447
▁մրցանակակիր	-11.447
▁տասներկու	-11.447
▁անուղղակի	-11.447
▁առաքելություն	-11.447
▁արտահանում	-11.447
▁թագուհ	-11.447
▁կայարան	-11.447
▁ծայրամաս	-11.447
▁կռիվ	-11.447
▁վնասակար	-11.447
▁Բրաուն	-11.447
▁գոլֆ	-11.447
▁հազարամյակներ	-11.447
▁Էներգիա	-11.447
▁մածուկ	-11.447
▁խայթ	-11.447
very	-11.447
▁չհավատա	-11.447
▁Հաիթի	-11.447
▁բնօրինակ	-11.447
▁Սուդան	-11.447
▁հրամանատարների	-11.447
▁քողարկ	-11.447
▁ակումբ	-11.447
▁ժպիտ	-11.447
▁ցիկլ	-11.447
Մանջու	-11.447
▁Մշակ	-11.447
▁գույք	-11.447
▁Տարիներ	-11.447
▁կրքոտ	-11.447
▁տապալ	-11.447
▁տրանս	-11.447
▁գրանցում	-11.447
▁արկածներ	-11.447
ագունդը	-11.447
▁մահամերձ	-11.447
▁պաղեստինցիներ	-11.447
▁Աբու	-11.447
▁փետրվար	-11.447
▁ֆանտաստիկա	-11.447
▁պիտակավոր	-11.447
▁բնակավայր	-11.447
▁ակադեմի	-11.447
▁տատանումներ	-11.4471
▁զարմանք	-11.4471
▁հովիտ	-11.4471
▁օպտիկա	-11.4471
▁թաքցնել	-11.4471
▁ամենահրաշալի	-11.4471
▁Բարաք	-11.4471
▁լվան	-11.4471
▁ամրակ	-11.4471
▁տոննա	-11.4471
▁Սահման	-11.4471
▁ագահ	-11.4471
▁ապրանքատեսակ	-11.4471
աթոլիկ	-11.4471
▁Քայլ	-11.4471
▁շաման	-11.4471
▁տխր	-11.4471
▁կանադ	-11.4471
▁բրիտանացի	-11.4471
▁մնացորդներ	-11.4471
▁կդիտ	-11.4471
▁կանխորոշ	-11.4471
▁Անվանե	-11.4471
▁կաթվածահար	-11.4471
▁շոյ	-11.4472
ենցիալ	-11.4472
▁ուժգն	-11.4472
org	-11.4472
▁ռետին	-11.4472
▁ընթացակարգ	-11.4472
▁շիշ	-11.4472
▁տիրույթ	-11.4472
ծավալ	-11.4472
▁հավատարմություն	-11.4472
▁կվճարե	-11.4472
ck	-11.4472
ike	-11.4473
▁ամրացն	-11.4473
▁բորբոքում	-11.4473
▁խորոված	-11.4473
▁ոգու	-11.4473
▁արարքներ	-11.4473
▁թեորեմ	-11.4473
▁Հոլիվուդ	-11.4473
▁դատելու	-11.4473
▁ցուցիչ	-11.4474
▁չինացի	-11.4474
▁Cy	-11.4475
▁սերմեր	-11.4475
▁կարգադր	-11.4475
▁կիրք	-11.4475
▁Ֆրանսիացի	-11.4475
▁պահպանողական	-11.4475
▁դարակներ	-11.4475
▁հոգատար	-11.4475
▁պոկ	-11.4475
▁2002	-11.4476
▁թեթեւակի	-11.4476
▁ընդմիջ	-11.4476
ly	-11.4476
▁դիտորդ	-11.4476
▁խորիմաստ	-11.4477
լանդիան	-11.4477
▁2003	-11.4477
▁ձեւավորման	-11.4477
▁մահանա	-11.4477
▁ճշմարտության	-11.4477
միջնորդ	-11.4478
▁2004	-11.4478
▁հազվա	-11.4478
▁լվանալ	-11.4479
▁փոխադարձ	-11.4479
▁քաղաքավար	-11.4479
▁կեքս	-11.4479
ամոզ	-11.448
▁Կարճ	-11.448
▁նկարագիր	-11.448
▁ժամանեց	-11.448
ers	-11.4481
▁մասսայ	-11.4481
▁կբացատրե	-11.4481
▁Գնացե	-11.4481
▁վարկյան	-11.4482
▁53	-11.4482
▁Մնացած	-11.4482
▁դիմադրությա	-11.4482
▁սրբ	-11.4482
▁ահաբեկիչ	-11.4483
▁ողջունել	-11.4483
▁բարձրախոս	-11.4483
ուզենայի	-11.4483
▁կեղծիք	-11.4483
▁ֆիզիկոս	-11.4483
▁իրադրություն	-11.4483
▁Ջոշ	-11.4484
▁չստացվ	-11.4484
▁շնորհավոր	-11.4484
▁տեղավորել	-11.4484
▁դրամատիկ	-11.4485
▁այգի	-11.4485
▁2001	-11.4485
▁Բուշ	-11.4485
▁փայտիկ	-11.4485
▁քույրիկ	-11.4486
▁անիվներ	-11.4486
▁կտրոն	-11.4486
▁խթանիչներ	-11.4486
▁արտահայտությամբ	-11.4487
▁լուսա	-11.4487
եղանի	-11.4488
▁մատիտ	-11.449
▁5000	-11.449
▁թոռներ	-11.449
▁իմանային	-11.449
մմմ	-11.4491
▁պապ	-11.4491
▁Հաշվ	-11.4491
▁արաբ	-11.4492
▁դիակ	-11.4492
▁32	-11.4492
▁գանգ	-11.4493
▁Ապագա	-11.4494
▁փորձագետ	-11.4495
▁ձիեր	-11.4495
▁Ստիվ	-11.4496
▁խախտել	-11.4496
▁Գերմանիայի	-11.4496
AP	-11.4497
▁երթ	-11.4497
▁փոխարկ	-11.4498
▁անկողնում	-11.4498
▁արտասվ	-11.4499
▁առարկայի	-11.4501
նդամեն	-11.4502
▁փռ	-11.4502
▁թշնամիներ	-11.4503
▁Վախ	-11.4503
րթուր	-11.4507
▁կաթնասունների	-11.4507
▁պատառ	-11.4508
ննարկե	-11.4511
▁առաջացրեց	-11.4513
▁ծագման	-11.4514
▁վատագույն	-11.4515
▁անոթներ	-11.4518
▁մոտեցնել	-11.4519
▁չանց	-11.4524
▁արտադրողներ	-11.4524
▁հարթակ	-11.4524
▁երդվ	-11.4534
▁Շվեդիայ	-11.4535
▁երեսուն	-11.454
▁եգիպտացո	-11.4541
▁բնավորությ	-11.4543
▁տնակ	-11.4556
▁ներդնել	-11.456
▁կունենայի	-11.4561
▁ամբար	-11.4565
▁քննարկումներ	-11.4569
▁ընթերցանությ	-11.4578
ալիքներ	-11.4606
▁կանչեց	-11.4608
▁կատուներ	-11.461
▁տեմպեր	-11.462
▁գժ	-11.462
▁կգնե	-11.4625
դիմանալ	-11.4656
▁խմբագրություն	-11.4656
▁բանկերի	-11.4658
▁Ռիո	-11.4658
▁շփումներ	-11.4658
աքանակ	-11.4666
▁կենսագրություն	-11.4674
▁ստանձնելու	-11.4687
▁շրջվեց	-11.4694
▁անվտանգություն	-11.4698
խելք	-11.4707
▁հագնվել	-11.4736
▁քարոզչ	-11.4745
▁վերջացր	-11.475
▁պարտվե	-11.4777
լուծելու	-11.4781
▁ընդունվեց	-11.4784
րակտ	-11.4818
բացատրե	-11.4845
▁ծնե	-11.4846
▁հայացքներ	-11.4848
վանդա	-11.4849
▁քվեներ	-11.4861
▁կայաններ	-11.4862
▁խմեց	-11.4888
▁կրքի	-11.49
▁շեղբ	-11.4906
▁հետքեր	-11.492
▁առաջարկեց	-11.4942
ասաց	-11.4944
▁ասպեկտներ	-11.4947
▁հուսահատություն	-11.4954
▁թունա	-11.4983
▁աշխատություն	-11.4993
▁հարվածեց	-11.4999
▁մտահոգվ	-11.5071
▁չիմանա	-11.5098
▁հրեշ	-11.5127
rov	-11.5134
▁մշակույթներ	-11.5135
▁ըմպելիքներ	-11.5139
▁տեքստեր	-11.5143
▁ոստիկանություն	-11.5172
▁ճկունություն	-11.5182
▁միացնե	-11.5183
▁նախաձեռնություն	-11.5192
▁ֆունկցիաներ	-11.5196
▁տառեր	-11.5204
▁արեգակ	-11.5207
▁արտադրություն	-11.5219
us	-11.529
▁քիմիայի	-11.5298
th	-11.5312
կառուցված	-11.5323
▁բարձրացրե	-11.5337
▁մասնագիտաց	-11.5355
▁հիմնեցին	-11.538
տակա	-11.5429
զանգեցի	-11.5486
mp	-11.5502
▁զինյալ	-11.5527
▁ուզեց	-11.5546
▁բաղադրիչ	-11.5618
լեկտրականություն	-11.5636
▁տնտեսագետ	-11.5654
հատկությունն	-11.5656
▁հավաքվեց	-11.5718
no	-11.5738
▁Պատճառներ	-11.5738
▁զայրաց	-11.576
▁վերականգնվ	-11.5766
▁հիմնովի	-11.5767
▁հետապնդ	-11.5791
▁սարքավորում	-11.5795
▁կղզի	-11.5802
▁տեխնոլոգիայ	-11.5803
այլո	-11.5852
▁գրառում	-11.5943
▁դատող	-11.5964
ce	-11.5975
▁կրճատվ	-11.6007
քաղաքականություն	-11.6037
▁չորաց	-11.6051
▁ձգվ	-11.6054
▁պարտական	-11.6055
▁ոչնչ	-11.6101
▁թռիչքներ	-11.6101
20	-11.6125
վերահսկողություն	-11.6197
արեգակնա	-11.6214
ամերիկացի	-11.6222
աստղ	-11.6226
կազմակերպ	-11.6226
▁անձնավոր	-11.6227
Ի	-11.623
սպառ	-11.6232
հզոր	-11.6251
▁անհեթեթ	-11.6253
▁խաղաքարտ	-11.6272
▁զանգահար	-11.628
հիմար	-11.6284
95	-11.6291
քիմի	-11.6319
▁190	-11.6345
▁մուլտֆիլմ	-11.6347
▁ռադի	-11.6377
▁կաշառ	-11.6383
▁հյուր	-11.6408
▁Մտածե	-11.6417
▁մալարիա	-11.6421
խմբեր	-11.6427
ժառանգ	-11.643
▁հանդուրժ	-11.6431
▁կախարդ	-11.6432
▁Գրեյ	-11.6443
թոռ	-11.6446
աբնակ	-11.6463
▁թթվ	-11.6466
ոլորակի	-11.6466
մանրաթել	-11.6466
րտահայտ	-11.6469
շակերտ	-11.6469
ard	-11.647
ժբախտ	-11.647
▁Կոնգ	-11.647
ակենտրոն	-11.647
▁կոկորդ	-11.647
▁բամբուկ	-11.647
▁վիզուալ	-11.647
կենցաղ	-11.647
▁Անտարկտիդա	-11.647
▁Ավստրիա	-11.647
▁Գվինեա	-11.647
▁Սքոթ	-11.647
▁հունարեն	-11.647
▁ունկնդր	-11.647
▁փաթիլ	-11.647
▁փոխհատուց	-11.647
Global	-11.647
IPP	-11.647
here	-11.647
ovocure	-11.647
ster	-11.647
Բիզնես	-11.647
ընդարձակ	-11.647
▁GPS	-11.647
▁Park	-11.647
▁PostSecret	-11.647
▁Star	-11.647
▁Աաաաաա	-11.647
▁Ալյասկայ	-11.647
▁Ահմեդաբադ	-11.647
▁Ամազոն	-11.647
▁Ատլանտյան	-11.647
▁Արգենտինա	-11.647
▁Բանգլադեշ	-11.647
▁Բերնոուլի	-11.647
▁Գաղտնիքն	-11.647
▁Դիսնեյ	-11.647
▁Դհարամսալա	-11.647
▁ԹԵԴ	-11.647
▁Խնայ	-11.647
▁Կարեկցանք	-11.647
▁Կոլումբիայ	-11.647
▁ՀՏՍՀ	-11.647
▁Հակառակ	-11.647
▁Համալսարան	-11.647
▁Հիմնադրամ	-11.647
▁Հիտլերի	-11.647
▁ՄՌՇ	-11.647
▁Մաուգլի	-11.647
▁Մեգենդորֆ	-11.647
▁Մեեգերեն	-11.647
▁Շվեյցարիա	-11.647
▁Չարլզ	-11.647
▁Պոլլոկ	-11.647
▁Ջակոմետի	-11.647
▁Սարկոզի	-11.647
▁Սթարբաքս	-11.647
▁Սիզար	-11.647
▁Սոկրատես	-11.647
▁Ստենֆորդ	-11.647
▁Տանիյամա	-11.647
▁Քլինտոն	-11.647
▁ադմինիստրա	-11.647
▁աղջնակ	-11.647
▁ամփոփել	-11.647
▁այլմոլորակային	-11.647
▁առընչվ	-11.647
▁ասթմայի	-11.647
▁ատամնաբույժ	-11.647
▁արտահոսք	-11.647
▁արտանետումներ	-11.647
▁բյուրոյի	-11.647
▁բրիգադի	-11.647
▁գայթակղ	-11.647
▁գերադաս	-11.647
▁գրկախառն	-11.647
▁դաշնամուր	-11.647
▁դեկտեմբեր	-11.647
▁դետեկտոր	-11.647
▁դիմահարդար	-11.647
▁ենթատեքստ	-11.647
▁ետնախորշ	-11.647
▁ետնամաս	-11.647
▁զանազան	-11.647
▁ընթրիք	-11.647
▁թեսթոստերոն	-11.647
▁իմունիտետ	-11.647
▁ինքնագնահատական	-11.647
▁լիմոնադ	-11.647
▁լոգանք	-11.647
▁լոգարան	-11.647
▁խրճիթ	-11.647
▁ծովախեցգետին	-11.647
▁կենսաթոշակ	-11.647
▁կհանդիսանա	-11.647
▁կմեծանա	-11.647
▁կոմիքսներ	-11.647
▁կոնտակտ	-11.647
▁կպատճառ	-11.647
▁կրկնապատկել	-11.647
▁հակակրանք	-11.647
▁համազգեստ	-11.647
▁համախտանիշ	-11.647
▁հավաստի	-11.647
▁հարձակվել	-11.647
▁հեղափոխության	-11.647
▁հեքիաթ	-11.647
▁հյուրասենյակ	-11.647
▁հնէաբան	-11.647
▁հուշարձան	-11.647
▁ձագուկներ	-11.647
▁ձեռնարկատիր	-11.647
▁ձերբակալեց	-11.647
▁ձկնորս	-11.647
▁ձմերուկ	-11.647
▁ձմռան	-11.647
▁մագլցել	-11.647
▁մատնանշ	-11.647
▁մարգարտ	-11.647
▁մենեջեր	-11.647
▁մթերքներ	-11.647
▁մոնիտոր	-11.647
▁մոտոցիկլ	-11.647
▁ննջասենյակ	-11.647
▁շշնջ	-11.647
▁ողնուղեղ	-11.647
▁ուղղաթիռ	-11.647
▁ունկնդիր	-11.647
▁չափաբաժին	-11.647
▁չհասկանաք	-11.647
▁պարադոքս	-11.647
▁պոռնոգրաֆիա	-11.647
▁պրոբլեմ	-11.647
▁պրովայդեր	-11.647
▁ռադար	-11.647
▁սանդղակ	-11.647
▁սիլիկոն	-11.647
▁սինդրոմ	-11.647
▁ստույգ	-11.647
▁վարսավիր	-11.647
▁քրոմոսոմ	-11.647
▁ֆիզիոլոգիա	-11.647
▁ֆրանսերեն	-11.647
յրոմիջնորդանյութ	-11.647
▁Դիտարկե	-11.647
▁Հունվարի	-11.647
▁Ճանապարհ	-11.647
▁Մովսես	-11.647
▁Շարունակ	-11.647
▁Փոփոխությ	-11.647
▁Ֆրենկ	-11.647
▁ադամանդ	-11.647
▁այբուբեն	-11.647
▁անչափահաս	-11.647
▁բարձունք	-11.647
▁գերեզման	-11.647
▁գունաթափ	-11.647
▁դիսլեքսի	-11.647
▁եզրահանգ	-11.647
▁թույլտվություն	-11.647
▁լայկայի	-11.647
▁խտրականության	-11.647
▁կընդունե	-11.647
▁կողմնորոշվ	-11.647
▁կուղբ	-11.647
▁կսպասե	-11.647
▁հանրապետ	-11.647
▁հաշիվ	-11.647
▁ձայնարկիչ	-11.647
▁մանրաթելիկներ	-11.647
▁նահանջ	-11.647
▁ներծծ	-11.647
▁շաքարախտ	-11.647
▁շրջափակ	-11.647
▁ունեցվածք	-11.647
▁չինարեն	-11.647
▁պատնեշ	-11.647
▁պարադիգմա	-11.647
▁ջրանցքներ	-11.647
▁սինթեզ	-11.647
▁սուբյեկտ	-11.647
▁ստվարաթղթ	-11.647
▁տեղաբաշխ	-11.647
▁տեսողության	-11.647
▁Ալբերտ	-11.647
▁Անվտանգությ	-11.647
▁Բոսնիա	-11.647
▁Բոստոն	-11.647
▁Նարցիս	-11.647
▁աստծո	-11.647
▁բոնուս	-11.647
▁խաղամոլ	-11.647
▁ձմեռ	-11.647
▁շփոթմունք	-11.647
▁ցեխ	-11.647
▁Կանզաս	-11.647
▁նպատակակետ	-11.647
▁պատճեն	-11.647
▁Մեթյու	-11.647
▁եղբոր	-11.647
▁խաթար	-11.647
▁հղացավ	-11.647
▁նախապատմ	-11.647
▁ջանասիր	-11.647
▁տաճար	-11.647
▁կատաղ	-11.647
▁վիետնամցի	-11.647
▁աշխատակցի	-11.647
▁Շարժ	-11.647
▁վարչակարգ	-11.647
ադապտ	-11.647
▁ուլտրա	-11.647
▁կալորիա	-11.647
▁համոզմունքը	-11.647
▁Կայսրությ	-11.647
▁Կորեա	-11.647
▁կողմնապահ	-11.647
▁միլիոնատեր	-11.647
▁շոգ	-11.647
▁եռանդ	-11.647
▁Բազմա	-11.647
▁էսթետիկա	-11.647
▁Ավարտ	-11.647
▁Լույս	-11.647
▁խորտակ	-11.647
▁բալիկ	-11.647
▁Ամանդա	-11.647
▁առաջխաղացմա	-11.647
▁շաղ	-11.647
▁տենչ	-11.647
▁ՀԱԵ	-11.647
▁Ուսուցիչ	-11.647
▁գրաքնն	-11.647
▁Նիկոլ	-11.647
▁հիմունքներ	-11.647
▁Գոլդ	-11.647
▁զգացողության	-11.647
▁Ռուբ	-11.647
▁ասոցաց	-11.647
բորգ	-11.647
▁Կառավար	-11.647
▁կթվա	-11.647
▁Սկզբունք	-11.647
▁սառչում	-11.647
▁քաղաքացու	-11.647
▁ցնորվ	-11.647
▁կատվի	-11.647
▁աճուրդ	-11.6471
▁մետաքս	-11.6471
▁եզրակացն	-11.6471
▁քթիկ	-11.6471
▁աշխատուժ	-11.6471
▁հիպոկամպի	-11.6471
▁վերապր	-11.6471
hil	-11.6471
▁կհամաձայն	-11.6471
▁Հանդիպ	-11.6471
▁շեղանկյուն	-11.6471
▁վիճակագիրներ	-11.6471
▁խորագրեր	-11.6471
▁Ջուդի	-11.6471
▁թույլտվությա	-11.6471
▁թերթաքար	-11.6471
▁հաշտվե	-11.6471
▁Ուշադրությ	-11.6471
▁պատճա	-11.6471
▁տետր	-11.6471
▁չտեսն	-11.6471
▁Էնթոն	-11.6471
▁1908	-11.6471
▁արտոնագ	-11.6471
ախումբ	-11.6471
LE	-11.6471
▁փիղ	-11.6471
▁Սիթի	-11.6472
▁էթնիկ	-11.6472
▁կքանդ	-11.6472
▁IP	-11.6472
Քաիդայի	-11.6472
▁խեղդվ	-11.6472
▁կաթսան	-11.6472
▁գիժ	-11.6472
▁սատկ	-11.6472
▁ներգործ	-11.6472
ամանակակից	-11.6473
▁անտուն	-11.6473
▁սիմվոլիկ	-11.6473
▁իգական	-11.6473
▁վարձակալ	-11.6473
▁հանճարեղ	-11.6473
▁ցենտ	-11.6473
▁պլանավորել	-11.6473
▁Կլինի	-11.6474
▁Թալեր	-11.6474
▁ծածկույթ	-11.6474
▁Ներեցե	-11.6474
▁Ռոուզ	-11.6474
▁Զանգ	-11.6474
▁գիրուս	-11.6474
▁Պրագ	-11.6474
▁կնայե	-11.6474
▁նախօր	-11.6475
▁շիթ	-11.6475
▁ֆրանսիացի	-11.6475
▁Mc	-11.6475
▁անտեղի	-11.6476
▁երկինք	-11.6476
▁Պլա	-11.6476
▁նախապայման	-11.6476
▁ծառայեց	-11.6476
▁դաստակ	-11.6476
ik	-11.6476
▁փոփոխում	-11.6477
▁նկատողություն	-11.6477
oy	-11.6478
համալիր	-11.6478
ire	-11.6478
▁Հեյդի	-11.6479
▁Ստաց	-11.6479
կացարան	-11.6479
▁ծանոթացա	-11.648
զերծ	-11.648
▁տավար	-11.648
ետեւից	-11.6481
▁հայելի	-11.6481
▁մայրենի	-11.6481
▁ջազ	-11.6481
▁աուտի	-11.6481
▁հրաժարվեցի	-11.6482
▁չփորձ	-11.6482
▁56	-11.6483
▁ձեւաչափ	-11.6483
▁երամ	-11.6483
▁Հասկանալ	-11.6484
▁չաշխատեց	-11.6484
▁կարճատե	-11.6485
▁Թիմ	-11.6485
▁կպատրաստե	-11.6485
▁գնորդ	-11.6485
▁չտան	-11.6486
▁գեո	-11.6487
▁հալվ	-11.6487
▁բիզնեսմեն	-11.6487
▁42	-11.6487
▁պատմաբան	-11.6488
▁գերիշխանություն	-11.6489
▁կռահել	-11.6491
լինգի	-11.6494
▁Դարվին	-11.6494
▁ֆեմինիստ	-11.6495
▁արգելքներ	-11.6501
Pro	-11.6503
▁կառավարիչ	-11.6505
▁էթիկայի	-11.6508
▁մետա	-11.6517
▁մալարիայի	-11.6519
DA	-11.652
▁Բռն	-11.6522
▁գողաց	-11.6525
▁հսկողությա	-11.6525
▁փոփոխել	-11.6528
▁ծայրահեղություն	-11.6531
րգիայի	-11.6534
կետի	-11.6538
▁ակնա	-11.6546
▁զվարճանա	-11.6548
▁Գումար	-11.6556
▁Վիքիփեդիայի	-11.6562
▁Թուրքիայ	-11.6568
▁թմրադեղեր	-11.6575
հաջորդականության	-11.6577
▁նվագախմբեր	-11.6616
▁հավասարումներ	-11.6617
կանգնեցրեց	-11.6623
Կազմակերպություն	-11.6643
900	-11.6645
▁ռո	-11.6649
ոկով	-11.6649
▁օդանավեր	-11.6655
▁Վերցրե	-11.6667
▁Ֆրանսիայ	-11.6668
պուտ	-11.6677
▁բանականությա	-11.6683
Po	-11.669
▁մոռացե	-11.6736
արիչի	-11.6775
▁Իսկապե	-11.6779
▁զգուշացն	-11.6782
անդին	-11.6852
-10	-11.687
խթանիչ	-11.6872
▁լրջո	-11.6883
▁ընտրողներ	-11.6927
ձուլվ	-11.6929
▁սլա	-11.6938
▁սեղմե	-11.695
▁ձեւացնել	-11.6955
▁աշխար	-11.6977
բիլի	-11.7002
▁ենթակա	-11.7025
▁ակցիա	-11.7032
▁դադարեն	-11.705
▁Կասե	-11.7062
▁ճշգրտո	-11.7088
▁նկարչությ	-11.7167
▁էվոլուցի	-11.7189
▁կոլոնոսկոպիա	-11.723
▁կազմակերպեցին	-11.7238
▁պատկերացմա	-11.7293
▁կխնդր	-11.7342
▁կինոյ	-11.7383
▁անգլիա	-11.7462
▁զգացվ	-11.7468
ցավալի	-11.7471
▁Դանիա	-11.7579
պատահականություն	-11.7598
դհատ	-11.76
▁կասեցնե	-11.7638
▁Պատճառ	-11.7726
▁ֆունկցիա	-11.7929
▁ըմպելիք	-11.8005
▁հեշտացն	-11.8048
▁հերք	-11.8097
▁էվոլուցիա	-11.8118
▁ավե	-11.8154
▁խորհրդատու	-11.8173
▁գողան	-11.8235
tch	-11.8304
▁դրդապատճառ	-11.8324
▁դաջվածք	-11.8361
ate	-11.8386
▁Պատկեր	-11.8412
ադարյա	-11.8477
վաղվա	-11.8526
ցնցուղ	-11.8563
լուծել	-11.8596
▁փոխակերպվ	-11.8608
▁կկատար	-11.8631
▁կենսագր	-11.866
բացահայտ	-11.8718
վերականգն	-11.8718
վաճառ	-11.8718
սահման	-11.872
դպրոցական	-11.8722
Տ	-11.8724
Յ	-11.8725
Ք	-11.8726
համեմատ	-11.8726
պատերազմ	-11.8727
հասանելի	-11.8727
հստակ	-11.8728
կենսաբան	-11.8728
G	-11.8728
Ֆ	-11.8728
գեղեցիկ	-11.8729
արեւմտ	-11.8731
հարմար	-11.8733
▁օդանավ	-11.8738
գրավ	-11.8738
▁նվաճ	-11.8741
▁կատուն	-11.8767
▁Անգլիա	-11.8819
խնայողություններ	-11.8833
▁մրգ	-11.8841
դրսեւոր	-11.8849
▁Հետաքրքր	-11.8887
▁Գերմանիա	-11.8927
▁ուզենա	-11.8933
▁Հիմն	-11.8935
կայացման	-11.8936
▁բովանդակությ	-11.8938
դիպել	-11.8945
▁Հասկան	-11.8953
րջանիկ	-11.8957
▁կօգտագործե	-11.8961
նթացքում	-11.8964
▁Պատրա	-11.8966
▁Եգիպտ	-11.8969
▁արժողությա	-11.8969
ետաձգ	-11.8969
▁Շնորհ	-11.8969
▁փետր	-11.8969
եսախցիկ	-11.897
▁նշվ	-11.897
վիետնամ	-11.897
▁ներխուժում	-11.897
▁նոթբու	-11.897
ստամոքս	-11.897
▁Mac	-11.897
▁Too	-11.897
▁Զելանդիայ	-11.897
▁Շոտլանդիա	-11.897
▁Ֆլորիդա	-11.897
▁ասուլիս	-11.897
▁երուսաղեմց	-11.897
▁կանխարգել	-11.897
▁ճոճվ	-11.897
▁պոռթկ	-11.897
nilever	-11.897
nside	-11.897
Անջելոս	-11.897
զավեշտալի	-11.897
միլիմետր	-11.897
նֆրակարմիր	-11.897
▁1,500	-11.897
▁1917	-11.897
▁1968	-11.897
▁ABC	-11.897
▁Buy	-11.897
▁SMS	-11.897
▁ԱԳՔՀ	-11.897
▁Աբրյու	-11.897
▁Աթաթուրք	-11.897
▁Աղքատ	-11.897
▁Անկեղծ	-11.897
▁Աուտիզմ	-11.897
▁Առեւտր	-11.897
▁Աստվածաշունչ	-11.897
▁Արիզոնա	-11.897
▁Բանգալոր	-11.897
▁Բարոյական	-11.897
▁Բեատրիս	-11.897
▁Բեզոս	-11.897
▁Բեթովեն	-11.897
▁Բրիթլին	-11.897
▁Գլոբալ	-11.897
▁Գվատեմալա	-11.897
▁Եղբայր	-11.897
▁ԷԷԳ	-11.897
▁Էկրանի	-11.897
▁Ընտանիք	-11.897
▁Լենգլի	-11.897
▁Լուսանկար	-11.897
▁Հեպբերնի	-11.897
▁Ձկնաբուծարան	-11.897
▁Մապենդո	-11.897
▁Մյուրեյ	-11.897
▁Նայրոբի	-11.897
▁Նեպալ	-11.897
▁Նիգերիայ	-11.897
▁Ուիլիամ	-11.897
▁Սիբիր	-11.897
▁Սոցիալ	-11.897
▁ՎՄԳ	-11.897
▁Վերադառնա	-11.897
▁Վիլսոն	-11.897
▁Վիրաբույժ	-11.897
▁Տիեզեր	-11.897
▁Քլեվլենդ	-11.897
▁Քուվեյթ	-11.897
▁Օկոլո	-11.897
▁ալբոմ	-11.897
▁ամենազարմանալի	-11.897
▁ամենաթանկ	-11.897
▁ամենասիրված	-11.897
▁ամոնիակ	-11.897
▁այլանդակ	-11.897
▁աննկարագրելի	-11.897
▁աշնանը	-11.897
▁առաջադիմ	-11.897
▁աստղագիտ	-11.897
▁ավտոկայան	-11.897
▁ավտովթար	-11.897
▁բակտերիան	-11.897
▁բարձրակրունկ	-11.897
▁բյուրոկրատ	-11.897
▁գերագնահատ	-11.897
▁գերբեռն	-11.897
▁գիտաճյուղ	-11.897
▁գլիոբլաստոմա	-11.897
▁գլոբալիզացիա	-11.897
▁գոլորշիան	-11.897
▁գրոսմայստեր	-11.897
▁դաշնակիցներ	-11.897
▁դասընկերների	-11.897
▁դեգեներացիա	-11.897
▁դեղատոմս	-11.897
▁դեպրեսիա	-11.897
▁զայրան	-11.897
▁զանցանք	-11.897
▁զեկուց	-11.897
▁զեղչ	-11.897
▁էլեգանտ	-11.897
▁էլեկտրամագնիս	-11.897
▁էնթրոպիա	-11.897
▁ընդհակառակը	-11.897
▁ընտրախցիկ	-11.897
▁թխվածքաբլիթներ	-11.897
▁թղթապանակ	-11.897
▁թշվառ	-11.897
▁ժելատին	-11.897
▁ժողովրդագր	-11.897
▁իմպուլս	-11.897
▁լողավազան	-11.897
▁խաչմերուկ	-11.897
▁խարդախ	-11.897
▁խմորեղեն	-11.897
▁խոշտանգ	-11.897
▁խուճապ	-11.897
▁կանցկացնե	-11.897
▁կգտնվե	-11.897
▁կզրկվ	-11.897
▁կծառայ	-11.897
▁կկենտրոնանա	-11.897
▁կհանդիպ	-11.897
▁կհասցն	-11.897
▁կոնցերտ	-11.897
▁կոռումպաց	-11.897
▁կտրամադր	-11.897
▁կրթաթոշակ	-11.897
▁համատեքստ	-11.897
▁համբույր	-11.897
▁հանձնաժողով	-11.897
▁հարձակման	-11.897
▁հացահատիկ	-11.897
▁հեծանվ	-11.897
▁հեռարձակողներ	-11.897
▁հյուրընկալ	-11.897
▁հրահր	-11.897
▁հրապուր	-11.897
▁հրացաններ	-11.897
▁ճանճեր	-11.897
▁ճաշասենյակ	-11.897
▁մաշմալլոյի	-11.897
▁մենաշնորհ	-11.897
▁մղձավանջ	-11.897
▁մտահղացում	-11.897
▁մրցավազք	-11.897
▁նախաճաշ	-11.897
▁ննջարան	-11.897
▁նոթատետր	-11.897
▁շոգեխաշ	-11.897
▁ոգեւշնչվ	-11.897
▁ուղեցույց	-11.897
▁չմտածե	-11.897
▁պատռվածք	-11.897
▁պիժոն	-11.897
▁պրոյեկցիա	-11.897
▁ջրիմուռներ	-11.897
▁սինապսներ	-11.897
▁սպեկտրասկոպիա	-11.897
▁վերնագրեր	-11.897
▁ցերեկ	-11.897
▁փխրուն	-11.897
▁օժանդակո	-11.897
▁օլիմպիա	-11.897
▁օծանելիք	-11.897
▁ֆիտոպլանկտոն	-11.897
▁ֆոտոխցիկ	-11.897
յութափոխանակությ	-11.897
▁1984	-11.897
▁Գեղեցկությ	-11.897
▁Երջանկությ	-11.897
▁Թայմզ	-11.897
▁Կովկաս	-11.897
▁Հունաստան	-11.897
▁ՄՏԻ	-11.897
▁Մանկատ	-11.897
▁Մրցանակ	-11.897
▁Պրուսիայ	-11.897
▁ամուսնալուծ	-11.897
▁անբաժան	-11.897
▁անկողին	-11.897
▁ատավիզմ	-11.897
▁բիոֆոն	-11.897
▁բլոկ	-11.897
▁գծապատկեր	-11.897
▁երկխոսությ	-11.897
▁ինքնակառավար	-11.897
▁իսրայելցի	-11.897
▁խորամանկ	-11.897
▁կառաջանա	-11.897
▁կմիացնե	-11.897
▁հեղաշրջ	-11.897
▁հիմնախնդիր	-11.897
▁մանրադիտակ	-11.897
▁մուսուլման	-11.897
▁պլատֆորմ	-11.897
▁պրոպագանդ	-11.897
▁սպեկտրոգրաֆ	-11.897
▁փոխադրամիջոց	-11.897
▁փոշեկուլ	-11.897
▁օպերատոր	-11.897
ոտոշոփ	-11.897
ստիճանավանդակ	-11.897
▁1998	-11.897
▁2011	-11.897
▁Ահաբեկչ	-11.897
▁Գլուխ	-11.897
▁Զինվոր	-11.897
▁Կեցցե	-11.897
▁Հուաորանի	-11.897
▁Նիքոլ	-11.897
▁Պահանջ	-11.897
▁Պարքս	-11.897
▁Օդեո	-11.897
▁Ֆարոն	-11.897
▁ամենահեշտ	-11.897
▁անդրադարձ	-11.897
▁արարողության	-11.897
▁բաբախ	-11.897
▁իջեցր	-11.897
▁միանձնուհի	-11.897
▁միլլիոն	-11.897
▁ոտնձգությ	-11.897
▁ուրբանիզաց	-11.897
▁ստատուս	-11.897
▁քառանիստ	-11.897
▁ֆորմալ	-11.897
▁Վիենայ	-11.897
▁Քենդալ	-11.897
▁իրավասու	-11.897
▁կատակերգ	-11.897
▁մուրճ	-11.897
Հաղորդագրություն	-11.897
▁Հարյուր	-11.897
▁Միլիոնավ	-11.897
▁դատավարություն	-11.897
▁իսպանա	-11.897
▁կուլտիվաց	-11.897
▁կպտտ	-11.897
▁պնդեցի	-11.897
բլթակ	-11.897
մարմնավոր	-11.897
▁Ավատար	-11.897
▁Արաբիայ	-11.897
▁Կալաշ	-11.897
▁ամոթխածությ	-11.897
▁գրգռ	-11.897
▁դիրքորոշում	-11.897
▁լիդերներ	-11.897
▁ցամաք	-11.897
▁Ալժիր	-11.897
▁Պտղ	-11.897
▁խոնավ	-11.897
▁Չարլի	-11.897
▁անկարգ	-11.897
▁հաստատակամ	-11.897
▁հոսանքավորե	-11.897
▁Կանաչ	-11.897
▁Ֆիզիկա	-11.897
▁գյուտարար	-11.897
▁թավալ	-11.897
▁նաչոներ	-11.897
▁վարձատր	-11.897
▁Գլխ	-11.897
▁չներկայա	-11.897
▁Լեննի	-11.897
▁Քլունի	-11.897
▁հոմո	-11.897
գմենտ	-11.897
▁վեճ	-11.897
▁նախադասությա	-11.897
▁մահապատիժ	-11.897
▁քսուք	-11.897
▁գրատախտակի	-11.897
▁լծակ	-11.897
▁ֆավելայ	-11.897
▁ինքնանկար	-11.897
▁կբացե	-11.897
առյուծ	-11.897
▁Ականջ	-11.897
▁ուսումնսիր	-11.897
▁Ֆերմա	-11.897
▁ընկղմ	-11.897
▁Գրենլանդիա	-11.897
▁թորիում	-11.897
▁Ամենահետաքրքիր	-11.897
▁բրիջ	-11.897
▁Ներքեւ	-11.897
▁Պաուլ	-11.897
ափսոսա	-11.897
▁Լերոյ	-11.897
▁Նշանակու	-11.897
▁կրպակ	-11.897
▁սերոտին	-11.897
▁մրցակիցներ	-11.897
▁բուդդ	-11.897
▁թիրախ	-11.897
▁արտահանել	-11.897
▁ապրուստ	-11.897
▁Շեյլա	-11.897
▁աշխատակազմ	-11.897
▁հյուծ	-11.897
▁նախազգուշաց	-11.897
ամասշտաբ	-11.897
կանացու	-11.897
▁գավաթ	-11.897
▁Ռայլի	-11.897
▁իմպրովիզացիա	-11.897
▁կնշանակ	-11.897
▁շեկ	-11.897
▁հովանոց	-11.897
▁լուսին	-11.897
▁սեփականատեր	-11.897
▁Թենեսի	-11.897
▁դահուկ	-11.8971
▁մտերմ	-11.8971
ound	-11.8971
▁օպերայի	-11.8971
▁Ֆրիդ	-11.8971
▁բացականչ	-11.8971
▁Կարոլինա	-11.8971
▁համբերություն	-11.8971
▁Դասարան	-11.8971
▁Սիմոն	-11.8971
▁անապահով	-11.8971
▁ծորակ	-11.8971
▁վիճարկել	-11.8971
▁կղզու	-11.8971
▁փոփոխման	-11.8971
▁ծառայող	-11.8971
▁հաշտեց	-11.8971
▁վերարկու	-11.8971
գրանցենք	-11.8971
ush	-11.8971
▁բաժանորդների	-11.8971
▁Առանձն	-11.8971
▁այրված	-11.8971
▁սոցիոլոգ	-11.8971
▁ազոտի	-11.8971
▁ճշմարտացի	-11.8971
▁պանիր	-11.8971
▁ոսկեղեն	-11.8971
▁հովիվ	-11.8971
▁անկյան	-11.8971
▁կանվանե	-11.8971
▁դոնոր	-11.8971
▁Հավատաց	-11.8971
▁Սրտի	-11.8971
▁կնկարե	-11.8971
▁Սպասե	-11.8971
▁սովորույթներ	-11.8971
▁այտեր	-11.8971
▁դիֆ	-11.8971
թերթիկներ	-11.8971
▁ամաչկոտ	-11.8971
▁վարժություն	-11.8971
▁Բարբարա	-11.8972
▁հետաձգվ	-11.8972
▁ապարատ	-11.8972
▁Հանկարծակի	-11.8972
▁ինտեր	-11.8972
▁Թերթ	-11.8972
▁Նավթ	-11.8972
▁սերվերներ	-11.8972
▁ցլերի	-11.8972
▁նկատառում	-11.8972
▁տիրոջ	-11.8972
▁Պերու	-11.8972
▁Խոստաց	-11.8972
▁Ֆինանսա	-11.8972
▁սուտ	-11.8972
▁Ջուլիարդ	-11.8972
▁Օգն	-11.8972
▁Գործնական	-11.8972
▁քեռի	-11.8972
▁կերակրատեսակ	-11.8972
▁կարգախոս	-11.8972
▁բուսական	-11.8972
▁գործադրում	-11.8972
sto	-11.8973
▁լիբի	-11.8973
▁գործընկերոջ	-11.8973
▁կամրջ	-11.8973
ub	-11.8973
▁Ջիլ	-11.8974
▁բարձրունք	-11.8974
31-	-11.8974
Ուայթ	-11.8974
▁տանջում	-11.8974
▁սաղմ	-11.8974
▁թեյնիկ	-11.8974
▁Ադր	-11.8974
▁գորգ	-11.8974
amp	-11.8974
▁Ռիկայ	-11.8974
▁քերական	-11.8974
▁Թղթ	-11.8975
տրավմա	-11.8975
▁130	-11.8975
▁սոլո	-11.8976
▁բանաձեւեր	-11.8976
▁նյարդայնացն	-11.8977
▁վարչակա	-11.8977
ափայլ	-11.8977
▁կպատա	-11.8978
դեպարտամենտի	-11.8979
▁Հույներ	-11.8979
▁Գլա	-11.8979
▁շորեր	-11.8979
▁ցանակ	-11.898
▁փերիներ	-11.8981
▁երգիծա	-11.8981
▁կսովորե	-11.8982
▁մարտավարությ	-11.8982
▁Միտչել	-11.8983
▁խղճահարությ	-11.8983
▁փեսա	-11.8983
▁պարգեւատր	-11.8985
▁էլեկտրաէներգիա	-11.8988
▁կհամարե	-11.8989
▁արմատա	-11.9001
բոլո	-11.9004
▁ժառանգել	-11.9009
▁խորքեր	-11.9011
▁դրսեւորվ	-11.9012
▁Կասպ	-11.9012
▁ստուգողներ	-11.9016
Sur	-11.9017
▁գործադրվ	-11.9017
հանդուրժողական	-11.902
▁կալան	-11.9025
▁Մալա	-11.9025
▁էթիկա	-11.9027
▁բանկաների	-11.903
իբերալ	-11.9036
▁ունեցե	-11.9043
▁կուրաց	-11.9043
▁Մոնտ	-11.9046
▁Մեքսիկայ	-11.905
▁մղել	-11.9053
▁դրսեւորմա	-11.9053
▁արթնացնել	-11.9057
▁կպց	-11.9062
▁եռանկյունիներ	-11.9066
▁Բրազիլիայ	-11.9072
ազանգված	-11.9077
▁առանձնացնել	-11.9095
▁Ֆրանսի	-11.9095
▁պայմանագ	-11.9144
▁չասե	-11.9171
▁շփոթեցնո	-11.9171
նափայտ	-11.9186
▁օճառ	-11.9188
▁Մնաց	-11.9234
▁հրե	-11.924
▁անմահացն	-11.9258
▁ազատվե	-11.9318
▁լրջությ	-11.9344
հանցագործություն	-11.9359
ԵՄ	-11.9379
▁Բազու	-11.9458
▁թակեց	-11.9516
▁ամենահնա	-11.9529
▁Cha	-11.9594
երախտագիտություն	-11.9664
ունեցող	-11.9743
▁նեղացն	-11.9777
հերքել	-11.9933
▁մեծամասնությ	-12.0032
ահաբեկչ	-12.0079
փսո	-12.0104
▁ծանոթացն	-12.0172
▁ճարպակալմա	-12.0179
գնահատող	-12.0263
ընդունելի	-12.0275
վերագրել	-12.0334
ժամադր	-12.0464
դադարեցնե	-12.0475
▁չգտա	-12.0652
սիացիներ	-12.0701
▁նվագախմբ	-12.0959
▁հասկանա	-12.0986
▁խուսափ	-12.1322
▁ասպեկտ	-12.1336
▁քառասուն	-12.1337
▁ֆերմեր	-12.136
▁թեկնածու	-12.1393
▁երախտագիտությ	-12.1411
բանաստեղծություն	-12.1552
▁կառուցմա	-12.1591
▁զոհաբեր	-12.1613
▁թոշակ	-12.1693
▁էլեկտր	-12.1709
▁անվտանգ	-12.18
զգայուն	-12.2054
արդյունաբեր	-12.2059
վերափոխ	-12.2059
հետաքրքիր	-12.206
Ջ	-12.206
համապատասխան	-12.2062
գլամուր	-12.2063
հայտնի	-12.2063
զգաց	-12.2072
▁ստրկությ	-12.208
▁Չիկագո	-12.2083
▁ձեռնարկատեր	-12.2087
հյուսել	-12.2099
▁թմրադեղ	-12.2119
▁հույզ	-12.2128
▁Կանադա	-12.213
▁Թուրքիա	-12.213
▁խողովակաշար	-12.2136
շուկայ	-12.2139
▁Ֆրանցիսկո	-12.214
▁Գազա	-12.2146
▁Շվեդիա	-12.2162
▁Բրազիլիա	-12.2163
ուհետ	-12.2172
վճար	-12.2187
▁Քենիա	-12.2188
▁շոշափ	-12.2204
▁տուգան	-12.2217
▁կաթնասուն	-12.2223
արտադրությա	-12.2225
▁յուրաքանչյու	-12.2241
▁ֆեմինի	-12.226
▁տեսանկյ	-12.2266
▁կուսակց	-12.2278
▁ուղեկ	-12.228
▁պայմանավորվ	-12.2285
▁տեխնոլոգ	-12.2292
եպտեմբերի	-12.2296
ոլիվուդ	-12.2296
▁բարոյա	-12.2297
բորբոք	-12.2298
▁սիմվոլ	-12.2298
▁լաբորատոր	-12.23
ազվադեպ	-12.23
ազարավոր	-12.23
▁բրիտանա	-12.2301
▁Աստվա	-12.2301
▁Հանկարծ	-12.2301
ացարձակ	-12.2301
ձագանք	-12.2302
▁կանխազգ	-12.2303
ոեզիա	-12.2303
ամերձ	-12.2303
▁իմպրովիզ	-12.2303
րթեւեկությա	-12.2303
▁կոլեկ	-12.2303
ողովրդավար	-12.2303
ֆալո	-12.2303
▁Հաղորդա	-12.2303
▁1890	-12.2303
▁թմրա	-12.2303
▁Էլեկտրոն	-12.2303
▁Սիլիկոն	-12.2303
▁բնաջնջ	-12.2303
▁խոնարհ	-12.2303
▁հրաբխ	-12.2303
▁նպատակահարմար	-12.2303
▁վերնաշապիկ	-12.2303
▁փնթփնթ	-12.2303
▁օֆշոր	-12.2303
▁ֆլոմաստեր	-12.2303
Dust	-12.2303
ազախստան	-12.2303
բարյացակամ	-12.2303
խեցգետին	-12.2303
խոռոչ	-12.2303
կողմնորոշիչ	-12.2303
ղնաշարավոր	-12.2303
նտերպրետացիա	-12.2303
որաքրոջ	-12.2303
որրելացիա	-12.2303
ուլտուրոմիքս	-12.2303
պրեցցատուրա	-12.2303
սկրածուծ	-12.2303
վասեկտոմիա	-12.2303
րոբիզնես	-12.2303
րոֆեսիոնալ	-12.2303
րքեոպտերիքս	-12.2303
▁1996	-12.2303
▁50-60	-12.2303
▁Black	-12.2303
▁Craigslist	-12.2303
▁Deskbar	-12.2303
▁Post	-12.2303
▁Shake	-12.2303
▁iPod	-12.2303
▁vivre	-12.2303
▁Աբրահամ	-12.2303
▁Ագռավ	-12.2303
▁Անդրսոն	-12.2303
▁Ապսարաներ	-12.2303
▁Աջակց	-12.2303
▁Ատլանտա	-12.2303
▁Բջիջներ	-12.2303
▁Բրահամի	-12.2303
▁Գալիլե	-12.2303
▁Գավաթի	-12.2303
▁Գրադարան	-12.2303
▁Դարֆուր	-12.2303
▁Դուգլաս	-12.2303
▁Եթովպիայ	-12.2303
▁Եվրամիության	-12.2303
▁Երեսուն	-12.2303
▁Զայրույթ	-12.2303
▁Զաքարիաս	-12.2303
▁Էտետե	-12.2303
▁Թամիլ	-12.2303
▁Լրատվամիջոցներ	-12.2303
▁Խաչ	-12.2303
▁Խելագարություն	-12.2303
▁Խորհուրդ	-12.2303
▁Ծովածոց	-12.2303
▁Կալիկուպամ	-12.2303
▁Կոլորադո	-12.2303
▁Կոնեկտիկուտ	-12.2303
▁Կոռուպցիա	-12.2303
▁Հայդերաբադ	-12.2303
▁Հետախուզ	-12.2303
▁Հոֆշտադեր	-12.2303
▁Ճարտարապետ	-12.2303
▁Մատրիցա	-12.2303
▁Մարգարտ	-12.2303
▁Մարքեթին	-12.2303
▁ՄաքԴոնալդ	-12.2303
▁Միքելանջելո	-12.2303
▁Մոլդովայ	-12.2303
▁Մրջյունի	-12.2303
▁Յուպիտեր	-12.2303
▁Նախագահի	-12.2303
▁Նեգրոպոնտե	-12.2303
▁Նեւադայ	-12.2303
▁Շիմբորսկա	-12.2303
▁Շրջան	-12.2303
▁Ուոլոջահ	-12.2303
▁Պատրիկ	-12.2303
▁Պարահանդես	-12.2303
▁Պնոմպեն	-12.2303
▁Պրովիդենցիա	-12.2303
▁Ռաջաստան	-12.2303
▁Ռեքորդս	-12.2303
▁Ռոմեո	-12.2303
▁Ռուանդայ	-12.2303
▁Սաղմոս	-12.2303
▁Սառցադաշտ	-12.2303
▁Սառցալեռ	-12.2303
▁Սարսափ	-12.2303
▁Սիեթլ	-12.2303
▁Սպեկտրասկոպիա	-12.2303
▁Ստարջոն	-12.2303
▁Վարշավա	-12.2303
▁Վիկիպեդիա	-12.2303
▁Տակոնգու	-12.2303
▁Տամպայ	-12.2303
▁Տոկիո	-12.2303
▁Փայերփոն	-12.2303
▁Փուրսաթ	-12.2303
▁Քեմբրիջ	-12.2303
▁Օգտագործողներ	-12.2303
▁Օքսիթոսին	-12.2303
▁Ֆարգո	-12.2303
▁Ֆինլանդիա	-12.2303
▁Ֆրանսերեն	-12.2303
▁Ֆրոսթ	-12.2303
▁ագրեսիվ	-12.2303
▁ազատազրկվ	-12.2303
▁ախորժակ	-12.2303
▁ամենաէժան	-12.2303
▁ամենասկզբ	-12.2303
▁ամրապնդ	-12.2303
▁անդրծովյա	-12.2303
▁անկառավարելի	-12.2303
▁անհագստանա	-12.2303
▁ասպարեզ	-12.2303
▁արդյունահանող	-12.2303
▁արծիվներ	-12.2303
▁արմավենի	-12.2303
▁բառապաշար	-12.2303
▁բարեփոխ	-12.2303
▁բարոյագիտ	-12.2303
▁բենզին	-12.2303
▁բոյկոտ	-12.2303
▁բուժքրոջ	-12.2303
▁բրոկկոլի	-12.2303
▁գաղտնագր	-12.2303
▁գինեկոլոգ	-12.2303
▁գմբեթ	-12.2303
▁գովեստ	-12.2303
▁գործելակերպ	-12.2303
▁դասասենյակ	-12.2303
▁դիվանագետ	-12.2303
▁դիվանագիտ	-12.2303
▁դիրիժոր	-12.2303
▁ետնաբեմ	-12.2303
▁երկաթգիծ	-12.2303
▁երկընտրանք	-12.2303
▁երկշրթնուկ	-12.2303
▁զինադադար	-12.2303
▁զսպել	-12.2303
▁թայլանդ	-12.2303
▁թաշկինակ	-12.2303
▁թեւակոխ	-12.2303
▁թիթեղ	-12.2303
▁թյուննոս	-12.2303
▁ժարգոն	-12.2303
▁ինքնատիրապետ	-12.2303
▁լափթոփ	-12.2303
▁խաղադրույքներ	-12.2303
▁խայտառակ	-12.2303
▁խարխլ	-12.2303
▁խորասուզվ	-12.2303
▁կանհետանա	-12.2303
▁կավարտեմ	-12.2303
▁կատալոգ	-12.2303
▁կենսակերպ	-12.2303
▁կզարմանա	-12.2303
▁կինոռեժիսոր	-12.2303
▁կիսաթափանցիկ	-12.2303
▁կխրախուս	-12.2303
▁կկիրառ	-12.2303
▁կկրկնապատկվ	-12.2303
▁կհաղորդ	-12.2303
▁կհամոզվե	-12.2303
▁կհայտարար	-12.2303
▁կհանգեցնե	-12.2303
▁կհեռանա	-12.2303
▁կձախող	-12.2303
▁կշրջվ	-12.2303
▁կոնդենսա	-12.2303
▁կոչնչացնե	-12.2303
▁կրկնապատկում	-12.2303
▁կօգտագործվ	-12.2303
▁հանրահաշ	-12.2303
▁հեծյալ	-12.2303
▁հեռուստաշոու	-12.2303
▁հիպերտենզիա	-12.2303
▁հյուղակ	-12.2303
▁հոգեվիճակ	-12.2303
▁հողատարածք	-12.2303
▁հորաքույր	-12.2303
▁հորեղբայ	-12.2303
▁հրավառությ	-12.2303
▁ճախարակ	-12.2303
▁ճահճուտ	-12.2303
▁ճաշացուցակ	-12.2303
▁մագլցում	-12.2303
▁մաթանալիզ	-12.2303
▁մայրաքաղաք	-12.2303
▁մանկաբույժ	-12.2303
▁մեդիտացիա	-12.2303
▁մզկիթ	-12.2303
▁մկրատ	-12.2303
▁մոլագար	-12.2303
▁մորաքույր	-12.2303
▁նապաստակ	-12.2303
▁նոպաներ	-12.2303
▁նուկլեա	-12.2303
▁նռնակ	-12.2303
▁նվագարկչի	-12.2303
▁նրբերշիկ	-12.2303
▁շագանակ	-12.2303
▁շիզոֆոնիա	-12.2303
▁շպրտ	-12.2303
▁շվեդ	-12.2303
▁ուբունտու	-12.2303
▁ուսապարկ	-12.2303
▁ուրվագիծ	-12.2303
▁չգնահատ	-12.2303
▁պալատներում	-12.2303
▁պատվիրաններ	-12.2303
▁պղինձ	-12.2303
▁պրակտիկայ	-12.2303
▁պրեմիերա	-12.2303
▁պրոցեդուրա	-12.2303
▁ջրհեղեղ	-12.2303
▁ռադիոկայաններ	-12.2303
▁ռեպերտուար	-12.2303
▁ռեսպիրատոր	-12.2303
▁ռեֆլեկտիվ	-12.2303
▁սադրանքներ	-12.2303
▁սիգնալ	-12.2303
▁սկզբնաղբյուր	-12.2303
▁սննդամթերք	-12.2303
▁ստեղնաշար	-12.2303
▁վաճարող	-12.2303
▁վարսահարդար	-12.2303
▁վարվելակերպ	-12.2303
▁վեկտոր	-12.2303
▁վետերան	-12.2303
▁վերոհիշյալ	-12.2303
▁վիետնամերեն	-12.2303
▁վճիռ	-12.2303
▁տրանզիստոր	-12.2303
▁փայտաձողեր	-12.2303
▁փայփայ	-12.2303
▁փափագ	-12.2303
▁փոստարկ	-12.2303
▁քաղցրավենիք	-12.2303
▁քառակուսու	-12.2303
▁օժանդակությ	-12.2303
▁օկտավ	-12.2303
▁օրենսդրական	-12.2303
▁օրիգինալ	-12.2303
ogg	-12.2303
վեատուփ	-12.2303
▁1994	-12.2303
▁Ted	-12.2303
▁Ալեքսանդր	-12.2303
▁Ավալոկիտեշվա	-12.2303
▁Բեթհովեն	-12.2303
▁Գոհունակ	-12.2303
▁Մարգարե	-12.2303
▁Մելչեր	-12.2303
▁Ռաստիչին	-12.2303
▁Ֆիլլիս	-12.2303
▁Ֆրեյդ	-12.2303
▁աղյուսներ	-12.2303
▁անկացրեցի	-12.2303
▁արհեստավարժ	-12.2303
▁աքսոր	-12.2303
▁երկփեղկ	-12.2303
▁զբոսանք	-12.2303
▁զերոյ	-12.2303
▁ընդհանրություն	-12.2303
▁խորհրդատվ	-12.2303
▁կդանդաղ	-12.2303
▁կընկնե	-12.2303
▁կիբերտարած	-12.2303
▁կոլեգաներ	-12.2303
▁կովբոյ	-12.2303
▁հայրենասեր	-12.2303
▁հանրաքվե	-12.2303
▁հրդեհաշեջ	-12.2303
▁մեդուզա	-12.2303
▁մշուշ	-12.2303
▁մոլուցք	-12.2303
▁յոթանասուն	-12.2303
▁չխնայ	-12.2303
▁չփոխ	-12.2303
▁պատվիրեցի	-12.2303
▁ջրասույզ	-12.2303
▁ռենտգեն	-12.2303
▁սկեսուր	-12.2303
▁սպասող	-12.2303
▁սպասուհ	-12.2303
▁ստորաբաժան	-12.2303
▁վերադասավոր	-12.2303
▁վերակոնֆիգուրաց	-12.2303
▁տիեզերագնացներ	-12.2303
▁քմահաճ	-12.2303
ժանգոտ	-12.2303
վիաընկերությ	-12.2303
▁And	-12.2303
▁ԱՄՀ	-12.2303
▁Ավենյու	-12.2303
▁Գելըփ	-12.2303
▁Երկաթ	-12.2303
▁Կառլո	-12.2303
▁Մեծամասնությ	-12.2303
▁Յունուս	-12.2303
▁Որդեգր	-12.2303
▁Ռոսպիլ	-12.2303
▁Սլաք	-12.2303
▁Սպասի	-12.2303
▁Տուգանք	-12.2303
▁Օլիվեր	-12.2303
▁Ֆիլմ	-12.2303
▁անհամաչափ	-12.2303
▁առաքելության	-12.2303
▁ավերածություն	-12.2303
▁բռնապետ	-12.2303
▁գնդիկներ	-12.2303
▁դաշնակահար	-12.2303
▁ինքնագիտակցությ	-12.2303
▁լուսանկաներ	-12.2303
▁կառաջացն	-12.2303
▁համերաշխությ	-12.2303
▁հանքափոր	-12.2303
▁հարձակվեց	-12.2303
▁ճագար	-12.2303
▁մալուխ	-12.2303
▁շրջագայ	-12.2303
▁պաստառ	-12.2303
▁ռելսեր	-12.2303
▁տեկտոնա	-12.2303
▁տիկնիկներ	-12.2303
▁տիղմ	-12.2303
▁քահանաներ	-12.2303
լացեբո	-12.2303
▁Լոուրեն	-12.2303
▁ակունքներ	-12.2303
▁ճանկեր	-12.2303
▁նստատեղ	-12.2303
▁տեխնոլ	-12.2303
▁տեղամասեր	-12.2303
dent	-12.2303
աեստրո	-12.2303
աքաղ	-12.2303
▁Pop	-12.2303
▁Դեբբի	-12.2303
▁Թերեզան	-12.2303
▁Մեքենա	-12.2303
▁Սիստեմա	-12.2303
▁Սլեշ	-12.2303
▁ավիրված	-12.2303
▁բջջանյութ	-12.2303
▁թոռնիկ	-12.2303
▁ծարավ	-12.2303
▁կպահե	-12.2303
▁հեղափոխական	-12.2303
▁նվաստաց	-12.2303
▁պղնձ	-12.2303
▁սիգար	-12.2303
▁վերսկս	-12.2303
▁Ալլահ	-12.2303
▁Առաջնորդ	-12.2303
▁Մանդելա	-12.2303
▁Սայմոն	-12.2303
▁կլցնե	-12.2303
▁կմիանա	-12.2303
▁կմիավոր	-12.2303
▁համամասնությ	-12.2303
▁մարդահամար	-12.2303
▁միջադեպ	-12.2303
▁սահմանագծ	-12.2303
▁Նամակներ	-12.2303
▁թյուրիմացությ	-12.2303
▁ջինսեր	-12.2303
▁վակուում	-12.2303
Pack	-12.2303
▁աղվես	-12.2303
▁բրածո	-12.2303
▁գլխավերեւ	-12.2303
▁զբոսաշրջիկների	-12.2303
▁կվերածվ	-12.2303
▁սպասվելիք	-12.2303
▁տաբատ	-12.2303
▁Անկողնու	-12.2303
▁Էրեզ	-12.2303
▁ամենաոգե	-12.2303
▁բամբակ	-12.2303
▁կվերանա	-12.2303
▁ձուլել	-12.2303
▁պարծեն	-12.2303
▁պոստեր	-12.2303
ոկորդիլոս	-12.2303
▁չավարտվ	-12.2303
▁չխոսե	-12.2303
▁սիստեմա	-12.2303
▁Պաշտելի	-12.2303
▁միսիոներ	-12.2303
▁Հավասար	-12.2303
▁Ֆոնդ	-12.2303
▁հրաշագործ	-12.2303
▁չարդարացվ	-12.2303
▁նշույլ	-12.2303
արժույթ	-12.2304
մարաթոն	-12.2304
ռեալիստ	-12.2304
▁Նելսոն	-12.2304
▁անդունդ	-12.2304
▁կավելացն	-12.2304
▁պատրաստակամ	-12.2304
▁Լադեն	-12.2304
▁Մտքեր	-12.2304
▁Բացատր	-12.2304
▁Սխալ	-12.2304
▁անբարե	-12.2304
▁գամմա	-12.2304
▁համակենտրոնաց	-12.2304
▁սղոց	-12.2304
▁սոուս	-12.2304
▁Գոդի	-12.2304
▁վեհ	-12.2304
▁Տարիք	-12.2304
▁Գիտնականներ	-12.2304
▁կոորդինա	-12.2304
▁հնարամտությ	-12.2304
▁էրեկցիա	-12.2304
▁Կանգնի	-12.2304
▁Հուսեյն	-12.2304
▁լաստակ	-12.2304
▁տանջալի	-12.2304
▁վարժանք	-12.2304
▁առաքիչ	-12.2304
▁սուշի	-12.2304
▁Հայիթի	-12.2304
▁ապրած	-12.2304
պոպուլյա	-12.2304
ցուցչ	-12.2304
▁թաղանթ	-12.2304
▁ուրբաթ	-12.2304
▁ֆուտ	-12.2304
լյուզի	-12.2304
▁Աստղ	-12.2304
▁կակաչ	-12.2304
▁կվարվե	-12.2304
▁հանցանք	-12.2304
▁ածխահան	-12.2304
Ծ	-12.7064
Զ	-13.7076
Ը	-13.7078
Ճ	-13.7286
—	-13.7287
♪	-13.7288
Խ	-13.7289
՛	-13.729
Փ	-13.7291
/	-13.7292
Ձ	-13.7293
♫	-13.7294
q	-13.7295
Շ	-13.7296
՝	-13.7297
&	-13.7298
)	-13.7299
»	-13.73
՞	-13.7301
։	-13.7302
:	-13.7303
