<unk>	0
<s>	0
</s>	0
▁.	-3.06848
▁,	-3.08862
▁yang	-3.6438
▁	-3.92347
▁dan	-4.08248
▁di	-4.10659
nya	-4.29817
▁saya	-4.30901
▁ini	-4.40429
;	-4.42798
▁&	-4.44711
-	-4.50097
quot	-4.50263
▁kita	-4.67508
an	-4.78783
▁untuk	-4.83598
▁Anda	-4.87456
▁dari	-4.88492
▁itu	-4.89359
▁tidak	-4.90563
▁dengan	-4.97139
▁adalah	-4.9907
▁mereka	-5.12246
▁Dan	-5.13815
▁se	-5.14078
▁akan	-5.24953
▁ke	-5.29576
i	-5.30455
▁dalam	-5.32549
▁ber	-5.39681
▁orang	-5.40529
▁ada	-5.47963
▁Saya	-5.48057
▁pada	-5.50302
kan	-5.51805
▁kami	-5.53978
▁dapat	-5.54255
▁?	-5.54279
▁—	-5.57884
▁hal	-5.62111
▁lebih	-5.71712
▁seperti	-5.78026
lah	-5.78949
▁bahwa	-5.8081
▁apa	-5.82047
▁bisa	-5.82311
▁Jadi	-5.82726
▁tahun	-5.8639
▁)	-5.86745
(	-5.8684
▁sangat	-5.8898
n	-5.92807
▁satu	-5.97346
▁semua	-5.98691
▁banyak	-5.99352
▁menjadi	-6.00042
buah	-6.04687
a	-6.05225
▁karena	-6.06439
▁Ini	-6.07606
▁tentang	-6.11529
▁melihat	-6.14664
▁atau	-6.15447
▁ter	-6.16125
▁saat	-6.17699
▁:	-6.17983
▁tahu	-6.1932
▁membuat	-6.25374
▁anda	-6.26764
▁dia	-6.2711
▁juga	-6.28366
telah	-6.28452
▁harus	-6.29618
▁hanya	-6.29627
▁memiliki	-6.29874
h	-6.35661
▁dunia	-6.35937
s	-6.36739
▁ingin	-6.39908
▁lain	-6.42054
▁besar	-6.42385
▁Kita	-6.47434
▁jika	-6.49119
▁beberapa	-6.51234
▁mungkin	-6.51632
un	-6.58111
▁sama	-6.58263
▁terjadi	-6.61834
▁anak	-6.6239
orang	-6.63048
kah	-6.63141
▁hidup	-6.63302
▁mana	-6.65877
▁benar	-6.67179
▁melakukan	-6.70755
▁lalu	-6.71052
▁baru	-6.71534
▁sebagai	-6.7175
▁oleh	-6.73803
▁Mereka	-6.74514
▁saja	-6.74651
▁bukan	-6.74914
▁baik	-6.74994
▁Kami	-6.75204
▁Namu	-6.75588
▁cara	-6.75681
▁bagi	-6.76273
▁tangan	-6.7692
▁Se	-6.79289
▁bagaimana	-6.79813
▁hari	-6.79955
▁Tap	-6.80073
▁seorang	-6.80944
▁sesuatu	-6.81741
▁mulai	-6.82112
▁ketika	-6.8281
▁lagi	-6.83402
▁tapi	-6.83692
▁para	-6.84329
tiap	-6.8444
▁berkata	-6.85218
▁tempat	-6.86133
▁secara	-6.89153
▁Apa	-6.91075
▁sendiri	-6.91304
in	-6.9233
▁diri	-6.9269
▁waktu	-6.93343
▁tersebut	-6.93579
▁T	-6.93775
▁nam	-6.94037
ka	-6.9463
▁sekarang	-6.94912
▁sudah	-6.95981
▁dua	-6.96575
▁pertama	-6.97239
▁kecil	-6.97343
k	-6.97973
t	-6.98156
▁negara	-6.99173
▁kali	-6.99725
▁Itu	-7.01872
▁menggunakan	-7.01898
benar	-7.02838
▁punya	-7.03007
▁♫	-7.03442
▁berpikir	-7.03513
▁luar	-7.04705
▁sini	-7.05207
▁Di	-7.05242
▁biasa	-7.05416
▁Dia	-7.05585
▁lakukan	-7.05769
▁sebenarnya	-7.06422
▁kasih	-7.06605
▁pernah	-7.07234
▁salah	-7.07563
▁kepada	-7.07695
▁lihat	-7.07895
.	-7.07971
▁Tepuk	-7.08061
▁bagian	-7.08649
▁kembali	-7.11188
▁per	-7.11571
▁bekerja	-7.12302
▁penting	-7.12973
▁masalah	-7.1415
▁paling	-7.14287
▁manusia	-7.14299
▁menemukan	-7.1576
▁sana	-7.16128
▁Ada	-7.1803
▁berbeda	-7.18302
▁sekitar	-7.18419
e	-7.19427
si	-7.19794
▁S	-7.21471
pun	-7.25162
▁perlu	-7.25353
▁masa	-7.25394
▁seluruh	-7.25613
▁selama	-7.26443
hingga	-7.27756
▁Tawa	-7.2808
▁Lalu	-7.28469
▁cukup	-7.30317
o	-7.31535
▁jadi	-7.32504
▁rumah	-7.32631
▁sedikit	-7.32969
▁tak	-7.33111
▁air	-7.33593
anak	-7.34114
l	-7.3414
▁Ji	-7.35112
▁sedang	-7.3536
ar	-7.35499
▁tetap	-7.35544
▁depan	-7.35752
▁Terima	-7.37225
r	-7.37631
▁mengambil	-7.37997
▁atas	-7.39127
▁sampai	-7.39266
al	-7.39443
y	-7.3976
▁masi	-7.40366
▁Amerika	-7.40733
▁B	-7.41336
▁wanita	-7.41415
g	-7.42168
▁sistem	-7.4267
▁K	-7.42775
▁berada	-7.43338
p	-7.43414
▁pergi	-7.43588
▁melakukannya	-7.44391
▁P	-7.4504
is	-7.46108
▁akhir	-7.46341
▁kota	-7.46359
▁kemudian	-7.47119
▁menarik	-7.47207
▁menunjukkan	-7.48064
▁Tidak	-7.48815
▁men	-7.4885
▁antara	-7.49123
▁ia	-7.4982
▁persen	-7.49983
▁mencoba	-7.51445
ku	-7.5157
▁Karena	-7.52035
▁berbicara	-7.52532
▁memberikan	-7.53092
▁bersama	-7.53524
▁datang	-7.53795
hal	-7.53919
▁lainnya	-7.53959
bahkan	-7.54372
▁pikir	-7.5533
▁rasa	-7.55346
us	-7.55906
▁ide	-7.55939
▁mengatakan	-7.56082
▁kehidupan	-7.56083
suatu	-7.56655
▁Yang	-7.56928
▁jauh	-7.57828
▁meng	-7.58
▁Sekarang	-7.58909
▁merupak	-7.59229
▁teknologi	-7.60163
▁p	-7.60189
▁Hal	-7.60268
er	-7.60511
▁sekali	-7.60604
▁tiga	-7.61829
m	-7.61912
▁gambar	-7.62033
▁A	-7.62057
▁tanpa	-7.62919
▁memberi	-7.63527
▁otak	-7.63585
mu	-7.63675
▁membawa	-7.6448
▁s	-7.64647
▁contoh	-7.65903
▁juta	-7.66559
▁setelah	-7.67136
▁begitu	-7.67591
▁mengubah	-7.67942
▁merasa	-7.6844
▁bawah	-7.68746
▁mencari	-7.69428
▁masyarakat	-7.71585
▁data	-7.71599
▁sel	-7.71858
▁kata	-7.72381
▁sekolah	-7.72778
▁mendapatkan	-7.7328
▁masuk	-7.7333
▁dilakukan	-7.737
▁alam	-7.73779
▁keluar	-7.74149
▁pe	-7.74363
▁10	-7.74665
d	-7.75644
▁dasar	-7.76176
▁terakhir	-7.7667
▁M	-7.77076
▁mau	-7.78118
▁suara	-7.78189
▁Ke	-7.78613
▁jalan	-7.78627
▁Bagaimana	-7.78823
▁Saat	-7.79088
▁menciptakan	-7.79349
▁melalui	-7.79605
as	-7.80002
bagai	-7.8035
▁belajar	-7.80523
▁belum	-7.81052
▁mendapat	-7.81052
▁pertanyaan	-7.81795
▁mem	-7.82227
▁uang	-7.82521
u	-7.82534
▁mengenai	-7.82924
▁selalu	-7.83229
▁perubahan	-7.83903
ertawa	-7.83972
▁mobil	-7.84257
▁kedua	-7.84739
pos	-7.8487
▁mengapa	-7.85268
▁buku	-7.85449
▁berarti	-7.86499
▁makanan	-7.86667
▁bagus	-7.8692
▁cerita	-7.87155
▁terus	-7.8813
▁sulit	-7.88625
▁membangun	-7.8905
▁hingga	-7.89949
▁lingkungan	-7.90642
▁Pada	-7.90974
▁tinggi	-7.91848
▁cepat	-7.91964
▁seseorang	-7.93048
▁tinggal	-7.93153
▁daerah	-7.93233
▁tubuh	-7.9347
or	-7.94248
▁lama	-7.94299
▁membantu	-7.95885
f	-7.96045
▁percaya	-7.96123
▁awal	-7.96383
▁buruk	-7.96726
▁bulan	-7.9711
▁energi	-7.97276
▁pekerjaan	-7.97617
ri	-7.97749
▁alat	-7.97826
▁keluarga	-7.97833
▁aku	-7.98139
▁daripada	-7.98279
▁20	-7.99119
▁semak	-7.99348
▁bertanya	-7.99382
▁tingkat	-7.99821
▁Afrika	-8.00283
▁makan	-8.00374
▁terlihat	-8.00629
▁informasi	-8.00774
▁perusahaan	-8.01091
um	-8.01096
▁kalau	-8.01742
▁pria	-8.01767
▁berhasil	-8.02087
en	-8.02087
▁jumlah	-8.02159
▁ekonomi	-8.02198
▁berjalan	-8.02528
▁disebut	-8.02618
▁terhadap	-8.03051
▁kamu	-8.0323
at	-8.03755
▁bahasa	-8.03915
▁bahan	-8.04657
▁sosial	-8.04741
▁apapun	-8.04874
.000	-8.04948
▁k	-8.0551
ing	-8.05644
▁Ya	-8.05645
▁tua	-8.05737
▁H	-8.05887
ah	-8.05913
▁dimana	-8.05993
▁E	-8.05994
▁menyadari	-8.0624
▁proyek	-8.06615
▁kerja	-8.06643
terlalu	-8.06698
▁ibu	-8.07074
▁sebelum	-8.07462
on	-8.08247
▁sebelumnya	-8.08459
▁hampir	-8.0971
▁memahami	-8.09886
▁2	-8.099
▁benda	-8.10374
▁bentuk	-8.10624
▁Ketik	-8.10845
▁Tetap	-8.11132
▁sering	-8.11132
▁suka	-8.11278
▁Semua	-8.11491
▁mempunyai	-8.12042
▁kisah	-8.12069
▁mendengar	-8.12538
▁India	-8.12575
▁foto	-8.13066
▁siapa	-8.13576
▁sederhana	-8.13775
▁L	-8.13994
▁berkembang	-8.14237
▁Ter	-8.14402
▁sebagian	-8.14477
▁agar	-8.14486
▁jelas	-8.14518
▁mata	-8.14905
▁perempuan	-8.14988
▁m	-8.15086
jak	-8.1525
▁berubah	-8.15337
▁pen	-8.15347
▁digunakan	-8.1588
▁I	-8.16081
▁proses	-8.1616
▁1	-8.16176
▁film	-8.16444
▁Dalam	-8.16656
▁3	-8.16765
▁teman	-8.1702
b	-8.17579
▁muncul	-8.17583
▁laut	-8.17633
▁tanah	-8.17987
▁hasil	-8.18464
▁tepat	-8.18758
ra	-8.18773
▁pasti	-8.18774
▁Mari	-8.1911
▁Orang	-8.19146
▁me	-8.1958
▁mudah	-8.19753
▁hubungan	-8.20016
▁yaitu	-8.20514
▁sisi	-8.20562
ia	-8.20827
▁komputer	-8.20907
▁jam	-8.21144
▁pun	-8.21237
nyata	-8.21594
▁menghasilkan	-8.21697
▁bukanlah	-8.21832
▁ruang	-8.21982
▁mesin	-8.22231
▁menulis	-8.22294
▁Na	-8.22627
▁kaki	-8.227
▁cahaya	-8.231
▁jenis	-8.23911
▁kesehatan	-8.24321
ti	-8.24889
▁video	-8.24968
▁tentu	-8.25015
▁terbaik	-8.25193
▁Inggris	-8.25552
▁C	-8.25823
▁sumber	-8.26475
▁dolar	-8.26591
▁empat	-8.27086
▁alasan	-8.27403
▁mampu	-8.27642
▁F	-8.28041
▁memutuskan	-8.28277
ng	-8.28278
▁planet	-8.28352
▁kemampuan	-8.28939
▁jaringan	-8.28971
▁penyakit	-8.29001
▁hebat	-8.29551
▁mencapai	-8.29786
▁kau	-8.29807
sa	-8.29813
▁...	-8.30222
▁sejarah	-8.3113
▁katakan	-8.31414
ik	-8.31699
▁belakang	-8.31811
▁G	-8.32354
es	-8.32414
▁muda	-8.32577
▁malam	-8.32628
▁langsung	-8.33513
▁kelompok	-8.33567
le	-8.33596
▁pilihan	-8.33675
it	-8.34054
▁pendidikan	-8.34465
▁mengalami	-8.34866
▁semacam	-8.35152
ak	-8.36178
▁Mungkin	-8.36237
▁100	-8.36499
▁dibuat	-8.36511
nama	-8.3666
▁arti	-8.37002
se	-8.37009
el	-8.37472
▁Cina	-8.37635
▁model	-8.37773
▁pengalaman	-8.37869
▁memilih	-8.3833
▁kekuatan	-8.38566
▁duduk	-8.38673
di	-8.38749
la	-8.3888
▁indah	-8.39025
li	-8.39274
▁mengerti	-8.39275
usia	-8.39279
▁Seperti	-8.39513
▁pikiran	-8.39544
▁obat	-8.39554
▁si	-8.39934
▁tampak	-8.39989
▁ahli	-8.3999
ur	-8.4008
da	-8.40083
▁Kin	-8.40092
▁lima	-8.4014
me	-8.40172
▁kurang	-8.40356
ta	-8.40535
▁ribu	-8.41131
▁Dengan	-8.41195
▁ruangan	-8.41237
▁30	-8.41258
▁pengetahuan	-8.4168
temu	-8.41701
▁Mengapa	-8.41924
▁penuh	-8.4195
▁global	-8.42027
▁bergerak	-8.42203
▁Ia	-8.42373
▁Serikat	-8.42653
▁tengah	-8.42671
▁menghabiskan	-8.43145
▁tertentu	-8.43145
▁memulai	-8.43392
▁hewan	-8.4362
▁menurut	-8.44141
ran	-8.4415
▁menuju	-8.44387
2	-8.44649
▁terbesar	-8.44914
asal	-8.45024
▁sakit	-8.45201
c	-8.45203
▁ikan	-8.45342
▁R	-8.45348
▁ayah	-8.45391
▁seharusnya	-8.4542
▁musik	-8.45442
▁Bumi	-8.45644
ma	-8.4588
▁Aku	-8.46024
▁abad	-8.46271
▁setengah	-8.46559
▁50	-8.4708
▁tumbuh	-8.47105
▁kebanyakan	-8.47438
itas	-8.47651
▁dekat	-8.47947
eberapa	-8.48139
▁semesta	-8.48203
0	-8.48262
▁ilmu	-8.4871
▁kuat	-8.49007
▁peng	-8.49187
negara	-8.49334
panjang	-8.49387
▁menjelaskan	-8.49508
▁titik	-8.49523
▁bila	-8.49583
▁kini	-8.49783
▁yakin	-8.50035
▁saling	-8.50039
▁perbedaan	-8.503
▁berhenti	-8.50565
ca	-8.50599
▁utama	-8.50831
▁komunitas	-8.50866
▁bilang	-8.50945
tan	-8.5101
▁miliar	-8.51634
et	-8.51887
▁perjalanan	-8.51906
▁karya	-8.52116
▁melihatnya	-8.52192
▁spesies	-8.52269
▁menge	-8.52369
▁New	-8.52432
▁politik	-8.52714
▁guru	-8.52875
▁pemerintah	-8.53031
▁jawaban	-8.53325
▁panjang	-8.5366
▁kesempatan	-8.53805
▁listrik	-8.54908
▁dibandingkan	-8.5513
▁budaya	-8.55256
▁berhubungan	-8.55776
▁sebut	-8.56303
▁perang	-8.56552
▁minggu	-8.56568
ir	-8.56585
▁panas	-8.56587
▁usia	-8.5667
▁Bah	-8.57241
▁angka	-8.57244
▁memerlukan	-8.57436
tik	-8.57549
tif	-8.57721
te	-8.57798
▁TED	-8.57847
ter	-8.58287
▁maka	-8.5835
ut	-8.58864
▁memang	-8.59256
▁daya	-8.5958
▁Untuk	-8.59738
▁kondisi	-8.598
▁5	-8.59827
▁membeli	-8.60031
▁kelas	-8.60516
▁hati	-8.60706
▁bermain	-8.60717
▁membaca	-8.6103
▁Per	-8.61063
▁ingat	-8.61154
▁nyata	-8.61541
▁N	-8.61747
satunya	-8.61842
▁nilai	-8.62365
man	-8.62378
▁menit	-8.62479
▁umum	-8.6283
▁menerima	-8.62993
ch	-8.63045
tertarik	-8.63598
▁bidang	-8.63672
▁be	-8.63805
▁Eropa	-8.63899
▁batu	-8.64113
▁nama	-8.64235
▁kepala	-8.64243
wa	-8.64617
▁tujuan	-8.64701
ok	-8.64859
▁4	-8.64894
▁hitam	-8.65429
▁bisnis	-8.65643
A	-8.65662
▁mengetahui	-8.65914
tor	-8.65968
▁khusus	-8.66047
▁pasar	-8.66381
▁seni	-8.6647
▁es	-8.66657
▁pola	-8.66699
▁terbang	-8.67038
▁merasakan	-8.67116
▁berat	-8.67241
▁mati	-8.67293
▁makhluk	-8.67455
na	-8.67634
▁membuka	-8.67934
▁mari	-8.67956
▁Ma	-8.68236
▁penelitian	-8.68547
▁udara	-8.68559
ba	-8.68592
ke	-8.68646
▁warna	-8.69097
▁membuatnya	-8.69386
▁Satu	-8.69527
▁sebelah	-8.69637
▁keras	-8.69643
▁media	-8.69665
▁Ber	-8.69938
▁kehilangan	-8.70161
▁meminta	-8.70162
▁200	-8.70249
il	-8.70323
▁temukan	-8.70495
▁mempelajari	-8.70745
▁tantangan	-8.71463
▁program	-8.71757
▁turun	-8.71815
▁dit	-8.72097
▁15	-8.72145
▁ulang	-8.72222
re	-8.7226
napa	-8.7231
de	-8.72369
▁Sebenar	-8.724
bi	-8.72448
▁tiba	-8.72483
▁W	-8.72693
▁berikutnya	-8.7272
▁mengikuti	-8.7279
▁Salah	-8.72902
▁sungguh	-8.73049
▁bumi	-8.73114
▁memungkinkan	-8.73447
ro	-8.73723
▁mendorong	-8.73793
▁senang	-8.73938
▁buat	-8.73946
pe	-8.73965
▁permukaan	-8.74115
▁Suara	-8.74117
kadang	-8.74176
▁pertumbuhan	-8.74454
▁perasaan	-8.74503
▁sadar	-8.74624
yg	-8.747
▁J	-8.7473
▁dokter	-8.74834
▁berdiri	-8.74996
▁ya	-8.75118
▁kematian	-8.75131
▁gen	-8.75179
▁Atau	-8.75469
5	-8.7547
▁takut	-8.75544
▁aneh	-8.75811
▁kasus	-8.75819
▁mengembangkan	-8.7583
▁ketiga	-8.75905
▁pusat	-8.76027
asi	-8.7626
▁t	-8.7645
▁ilmuwan	-8.76515
▁Bukan	-8.76634
▁pikirkan	-8.76781
▁menjawab	-8.76847
▁industri	-8.76928
▁berapa	-8.7694
▁butuh	-8.76966
▁rendah	-8.77187
▁produk	-8.77303
▁tim	-8.77426
▁Al	-8.77523
▁Tuhan	-8.7755
▁bakteri	-8.77587
▁meninggal	-8.77831
▁berdasar	-8.77913
91	-8.77981
▁bangunan	-8.78029
▁arah	-8.78046
▁York	-8.78233
▁ratus	-8.78282
gi	-8.78283
▁bayi	-8.78314
▁biaya	-8.78351
▁perilaku	-8.78384
▁hutan	-8.78409
▁enam	-8.78467
▁Sebagai	-8.78532
▁pesan	-8.78711
ang	-8.7888
▁walau	-8.78937
▁Pertama	-8.78941
▁penduduk	-8.79019
st	-8.79309
ya	-8.79414
▁segala	-8.79757
▁DNA	-8.80357
▁iklim	-8.80357
▁naik	-8.80494
▁pohon	-8.80504
▁terbuka	-8.80519
apa	-8.80531
▁40	-8.80839
▁kulit	-8.80946
▁D	-8.81023
▁U	-8.81034
8	-8.81199
9	-8.81222
▁mengumpulkan	-8.82162
▁Kalau	-8.82894
▁pribadi	-8.82926
▁miskin	-8.83243
▁meninggalkan	-8.83316
▁pem	-8.8338
▁kemungkinan	-8.83663
▁kira	-8.83894
▁mil	-8.84
▁jawab	-8.84122
▁Baiklah	-8.84191
▁bahagia	-8.84256
▁bicara	-8.84346
▁solusi	-8.84386
▁6	-8.85154
▁desa	-8.85303
z	-8.85323
utama	-8.85493
▁Dari	-8.85514
▁coba	-8.8555
▁kiri	-8.856
men	-8.85615
▁memikirkan	-8.85635
▁ukuran	-8.85838
▁memakai	-8.85873
▁desain	-8.86178
▁musim	-8.86252
usaha	-8.86252
▁alami	-8.86623
sama	-8.86713
▁harapan	-8.8683
ul	-8.86874
▁garis	-8.87294
▁dimulai	-8.87399
▁membentuk	-8.87414
▁lubang	-8.87556
▁barang	-8.87631
▁meningkatkan	-8.87785
pi	-8.87852
ga	-8.87994
▁struktur	-8.88017
▁tawa	-8.88051
▁hilang	-8.88169
sel	-8.88223
▁pasien	-8.88226
▁aman	-8.88308
▁meny	-8.88378
▁keputusan	-8.88555
▁matematika	-8.88597
ja	-8.88636
kekerasan	-8.88975
wan	-8.89189
masuk	-8.89409
▁dis	-8.89417
buat	-8.89608
▁hukum	-8.89682
▁Tentu	-8.89739
▁generasi	-8.89788
▁demikian	-8.90033
▁b	-8.9005
▁pesawat	-8.90121
kali	-8.904
laki	-8.90707
4	-8.90838
93;	-8.90913
▁meski	-8.90918
▁meningkat	-8.90922
▁matahari	-8.90943
▁Kemudia	-8.9132
▁pemimpin	-8.91395
▁agama	-8.91479
uk	-8.91485
S	-8.9162
▁e	-8.91704
▁peduli	-8.91711
▁tadi	-8.91718
▁robot	-8.91788
▁kanan	-8.91819
▁jatuh	-8.91972
▁Para	-8.92342
im	-8.92347
▁populasi	-8.92516
▁tanaman	-8.9263
am	-8.92719
ap	-8.92734
▁menakjubkan	-8.92921
▁membayangkan	-8.92927
rata	-8.93601
▁bayangkan	-8.93636
op	-8.93671
▁berbagi	-8.93735
▁sudut	-8.9383
▁bintang	-8.93874
▁c	-8.939
▁membutuhkan	-8.94157
▁19	-8.94487
▁ku	-8.94687
▁surat	-8.94771
ce	-8.95178
▁burung	-8.95191
▁berita	-8.95262
▁organisasi	-8.95303
▁bantuan	-8.9551
ton	-8.95536
▁dampak	-8.95801
▁telepon	-8.95803
lan	-8.95931
▁molekul	-8.95965
kata	-8.96176
▁Bahasa	-8.96226
▁dinding	-8.96343
▁12	-8.96364
▁miliki	-8.96962
▁laki	-8.97051
▁Maksud	-8.97062
▁pagi	-8.97068
ge	-8.97115
▁bertahan	-8.9715
gunakan	-8.97261
▁gambaran	-8.97327
▁luas	-8.97449
▁situasi	-8.97494
▁merah	-8.97586
▁minyak	-8.97911
▁lokal	-8.97913
▁betapa	-8.97913
▁lautan	-8.9807
▁kotak	-8.98127
▁cinta	-8.98334
▁demokrasi	-8.98339
▁kimia	-8.98525
▁peta	-8.98526
▁balik	-8.98858
ekor	-8.99032
▁percobaan	-8.99199
▁O	-8.99217
▁menganggap	-8.99632
▁kanker	-8.99636
ol	-9.00046
▁hijau	-9.00067
▁menyenangkan	-9.00067
▁dulu	-9.00069
bo	-9.00118
1	-9.00147
▁hak	-9.00476
▁kertas	-9.00504
▁menyelesaikan	-9.00507
hari	-9.00649
▁Barat	-9.00956
▁menyebabkan	-9.01382
▁internet	-9.01383
ha	-9.01392
▁fakta	-9.01476
▁Maka	-9.01727
▁Banyak	-9.01826
▁biru	-9.01835
lain	-9.02035
▁Musik	-9.02282
▁lahir	-9.02518
▁terlibat	-9.02605
▁sukses	-9.02716
▁maju	-9.03171
▁menghadapi	-9.03232
▁te	-9.03396
ide	-9.03504
▁kenyataan	-9.03635
▁karbon	-9.03692
E	-9.03802
▁Me	-9.03927
▁re	-9.04061
3	-9.0408
C	-9.04118
▁perhatian	-9.04522
▁Sangat	-9.04527
▁menceritakan	-9.04533
▁terkenal	-9.04549
▁ambil	-9.04721
ci	-9.04723
▁mendukung	-9.04984
▁melawan	-9.04992
co	-9.05216
▁dewasa	-9.05441
▁maksud	-9.05529
▁De	-9.05676
nd	-9.05884
▁ditemukan	-9.0591
▁jalur	-9.06081
lo	-9.0615
▁biologi	-9.06189
kelompok	-9.06249
▁gedung	-9.06256
▁Setelah	-9.06319
▁kamera	-9.06361
▁rumit	-9.06361
▁Anak	-9.0637
▁membunuh	-9.06394
▁virus	-9.06829
▁singkat	-9.0684
▁melindungi	-9.07293
▁binatang	-9.07449
▁tenaga	-9.07515
▁gagasan	-9.07763
▁d	-9.07932
▁mengirim	-9.08306
▁sehari	-9.08396
▁kapal	-9.08709
▁kon	-9.08747
▁publik	-9.0876
ve	-9.08938
isme	-9.0899
▁jantung	-9.09184
▁Dunia	-9.09185
mana	-9.09353
▁akibat	-9.09392
M	-9.09399
▁diperlu	-9.09452
▁Google	-9.09663
tiba	-9.09703
▁pulang	-9.09705
ne	-9.0985
tahun	-9.1005
▁18	-9.10161
▁wajah	-9.10375
▁seberapa	-9.10722
▁memasukkan	-9.11122
▁terdapat	-9.11165
▁harga	-9.11326
▁dengar	-9.11379
▁Oh	-9.11403
▁rata	-9.11529
▁pandang	-9.11572
▁sesungguhnya	-9.11605
▁mel	-9.11605
gabung	-9.11689
▁perangkat	-9.11903
▁kaya	-9.12009
▁milyar	-9.12234
▁Hanya	-9.12417
gu	-9.12429
▁sifat	-9.12453
angan	-9.12523
▁melewati	-9.12583
▁lampu	-9.12583
▁neuron	-9.12789
▁gadis	-9.12836
▁permainan	-9.13082
▁disini	-9.13088
▁Men	-9.13092
▁Benar	-9.13099
▁sehat	-9.13225
▁penemuan	-9.13239
bah	-9.13371
▁detik	-9.13383
▁ma	-9.13461
▁menyelamatkan	-9.13575
▁konsep	-9.13651
▁de	-9.13741
▁tugas	-9.13946
▁berharap	-9.14075
▁kompleks	-9.14075
▁tunjukkan	-9.14076
▁gagal	-9.14082
▁mengeluarkan	-9.14578
hi	-9.14729
▁pemikiran	-9.14761
▁posisi	-9.15084
▁evolusi	-9.15084
▁keadaan	-9.15085
cara	-9.15164
▁boleh	-9.15234
▁menggunakannya	-9.15408
ad	-9.15496
▁mengirimkan	-9.15514
▁segera	-9.15685
▁halaman	-9.15716
▁inti	-9.16077
tu	-9.16086
do	-9.16246
▁mengurangi	-9.16614
▁serta	-9.16644
▁batas	-9.17055
▁Video	-9.17129
▁wilayah	-9.17129
▁mengagumkan	-9.1713
▁menjaga	-9.17141
son	-9.17161
engah	-9.17389
▁tidur	-9.17425
▁siswa	-9.17647
I	-9.17856
▁Bagi	-9.17859
per	-9.17916
▁efek	-9.18271
jauh	-9.18279
▁situs	-9.1828
▁jalanan	-9.18416
▁kebahagiaan	-9.18692
▁kemiskinan	-9.18693
▁sebab	-9.1877
th	-9.18797
▁The	-9.19168
▁dingin	-9.19223
▁60	-9.1934
▁diambil	-9.19399
▁25	-9.19403
ed	-9.19434
▁Selatan	-9.19748
▁angin	-9.1975
▁inginkan	-9.19933
▁digital	-9.20046
▁bola	-9.20144
▁Te	-9.20218
au	-9.20227
▁kebutuhan	-9.20279
▁dilihat	-9.20373
▁mengatasi	-9.2051
▁fisik	-9.20673
▁warga	-9.20721
▁menyebutnya	-9.20965
6	-9.21181
▁langkah	-9.21182
sh	-9.21276
▁Utara	-9.21351
▁ketahui	-9.21352
▁murah	-9.21352
▁api	-9.21383
▁11	-9.21562
▁wa	-9.2157
▁mengajarkan	-9.21652
▁skala	-9.21705
G	-9.21783
▁jangka	-9.21821
▁keamanan	-9.21898
▁bebas	-9.21908
▁CA	-9.22102
▁partikel	-9.22141
▁meja	-9.22294
▁berbahaya	-9.22435
▁gelap	-9.22437
▁dikatakan	-9.22444
▁bukti	-9.22455
▁Hari	-9.22629
▁minum	-9.22649
▁menyukai	-9.2271
▁modern	-9.22725
bunuh	-9.22953
▁8	-9.22974
▁teori	-9.22982
▁harap	-9.23136
ling	-9.23198
▁gila	-9.23366
▁Pen	-9.23457
jalan	-9.2348
▁ketidak	-9.23568
▁f	-9.23631
▁tujuh	-9.23736
gen	-9.23944
▁akal	-9.24093
▁hasilnya	-9.24126
▁darah	-9.24127
▁angkasa	-9.24131
B	-9.24428
ahan	-9.24492
jutkan	-9.24626
▁mengerjakan	-9.24639
cerita	-9.2464
▁ilmiah	-9.2464
▁lagu	-9.24645
▁memperoleh	-9.24646
▁kantor	-9.24654
tergantung	-9.24741
▁mengingat	-9.24798
masing	-9.24924
▁a	-9.25135
▁cenderung	-9.25198
▁menunggu	-9.25219
▁terima	-9.25272
▁selesai	-9.25497
▁dip	-9.25696
▁badan	-9.25762
ver	-9.25888
▁sempurna	-9.25981
▁80	-9.26107
▁suhu	-9.26325
▁keuntungan	-9.26326
▁Kamu	-9.26373
▁aturan	-9.26424
up	-9.26448
▁sayang	-9.26448
▁diberikan	-9.26557
om	-9.26578
umur	-9.26686
▁pandangan	-9.26731
▁hujan	-9.26893
▁menderita	-9.26893
▁mempengaruhi	-9.269
▁asing	-9.269
▁puncak	-9.26921
han	-9.27226
▁terhubung	-9.27311
▁mirip	-9.27464
▁galaksi	-9.27465
▁anjing	-9.27466
▁tindakan	-9.27536
mer	-9.27695
▁macam	-9.27966
▁anggota	-9.28039
▁nuklir	-9.28039
▁Ro	-9.2804
▁kepercayaan	-9.2804
▁Bayangkan	-9.28049
▁kenyataannya	-9.28049
▁menonton	-9.28049
fi	-9.28125
▁mendengarkan	-9.2816
▁pelajari	-9.28192
▁kecepatan	-9.28196
mo	-9.28257
D	-9.28446
delapan	-9.2862
▁kapan	-9.28647
▁Re	-9.28729
su	-9.28779
▁usaha	-9.28784
▁memberitahu	-9.28797
▁masing	-9.29087
▁kebijakan	-9.29198
▁merancang	-9.29198
lin	-9.29319
▁siap	-9.29995
▁memper	-9.30193
▁Selama	-9.30228
bila	-9.30272
▁gunung	-9.30371
▁kesadaran	-9.30373
▁Menurut	-9.30374
▁peraturan	-9.304
▁meter	-9.3048
▁bakar	-9.30585
teman	-9.3082
▁pendapatan	-9.30932
▁menaruh	-9.30963
▁Internet	-9.30964
▁perkembangan	-9.30967
▁serangga	-9.30967
▁demi	-9.3097
▁menentukan	-9.30974
▁Bisa	-9.30985
▁seked	-9.31063
▁cerdas	-9.311
▁gerakan	-9.31155
be	-9.31217
▁Baik	-9.3127
▁daging	-9.31558
▁menghentikan	-9.31571
alih	-9.3182
▁emosi	-9.32152
▁akses	-9.32157
▁memasang	-9.32157
▁tulang	-9.32172
▁ko	-9.32191
▁putih	-9.3226
▁sesuai	-9.323
ru	-9.32558
▁super	-9.32756
▁pintu	-9.3276
▁dalamnya	-9.32989
▁jarak	-9.3307
▁Akan	-9.33143
▁Contoh	-9.33366
▁HIV	-9.33366
▁plastik	-9.33369
▁Man	-9.33369
▁membiarkan	-9.33382
setara	-9.33426
▁misalnya	-9.33496
▁moral	-9.33534
▁normal	-9.33589
▁Ka	-9.33676
▁9	-9.33862
▁massa	-9.33978
▁selanjutnya	-9.33984
▁setidak	-9.34145
▁pelajaran	-9.34149
▁kebebasan	-9.34591
▁menyediakan	-9.34592
▁tambah	-9.34616
▁kalinya	-9.34713
va	-9.34928
os	-9.35041
▁istri	-9.35207
tempat	-9.35257
▁operasi	-9.35376
▁rekan	-9.35556
wi	-9.35585
▁serius	-9.35828
▁ponsel	-9.35833
▁kunci	-9.36073
amp	-9.36092
alan	-9.3643
▁sampah	-9.36452
▁rencana	-9.36453
▁pemerintahan	-9.36495
▁berwarna	-9.36552
▁langit	-9.36648
▁korban	-9.36686
▁organ	-9.36833
▁Pe	-9.36987
▁sinar	-9.37082
▁mengatur	-9.37085
▁belas	-9.3709
ji	-9.37325
ot	-9.37372
isasi	-9.37482
▁menginginkan	-9.37714
▁Jangan	-9.3774
▁sebanyak	-9.37865
▁pabrik	-9.37938
tar	-9.37971
▁seks	-9.3805
▁ujung	-9.38183
▁asal	-9.38279
K	-9.38305
▁inovasi	-9.38351
▁teknik	-9.38351
▁menghitung	-9.38387
du	-9.38464
isi	-9.38475
▁dibangun	-9.38993
▁kesalahan	-9.38994
▁pantai	-9.3901
kecuali	-9.39254
▁fokus	-9.39637
▁berguna	-9.39637
▁Le	-9.39686
▁layar	-9.3994
▁individu	-9.40269
▁Bila	-9.40355
▁toko	-9.40547
00	-9.40636
tro	-9.40649
j	-9.40829
kota	-9.40943
▁agak	-9.40945
▁membayar	-9.40951
▁pindah	-9.40957
▁jangan	-9.40959
▁efektif	-9.40964
▁Siapa	-9.40979
cu	-9.41021
▁milik	-9.41145
ab	-9.41206
ko	-9.41463
ow	-9.41567
▁memastikan	-9.41598
▁negeri	-9.41598
▁samping	-9.41606
▁tertawa	-9.4173
pan	-9.41808
sementara	-9.4182
▁rahasia	-9.41845
tasi	-9.41941
▁16	-9.41954
▁aktif	-9.41979
▁La	-9.41986
▁kadang	-9.42167
▁daftar	-9.4226
▁surya	-9.42263
▁meletakkan	-9.4227
jumlah	-9.42291
▁fungsi	-9.42461
▁mer	-9.42552
▁j	-9.42819
▁lukisan	-9.42927
balik	-9.43053
▁terbatas	-9.43088
▁tata	-9.43332
▁mengukur	-9.43598
pa	-9.43633
▁Masalah	-9.4366
▁Bi	-9.43677
▁nanti	-9.43777
▁nenek	-9.43795
▁pakaian	-9.43855
P	-9.43892
▁mela	-9.4402
▁tahap	-9.44192
ber	-9.44216
▁kreatif	-9.44252
nilai	-9.44255
▁derajat	-9.44274
▁nyaman	-9.44337
▁potensi	-9.44627
uan	-9.44674
bel	-9.44825
▁lalat	-9.44958
▁peristiwa	-9.44968
▁tanda	-9.45058
ebih	-9.45453
to	-9.45564
▁mahasiswa	-9.45639
▁menggabungkan	-9.45639
▁Jepang	-9.4564
▁penonton	-9.4566
▁senjata	-9.45785
ni	-9.4587
▁bangun	-9.46187
▁kaca	-9.46281
▁kereta	-9.46329
▁menghancurkan	-9.46339
▁kris	-9.46363
▁berikan	-9.46459
▁tekanan	-9.46634
▁khawatir	-9.46642
▁lab	-9.46802
▁dapatkan	-9.46863
▁pembuat	-9.46907
▁kamar	-9.47023
▁pertanian	-9.47026
▁Kedua	-9.47036
▁90	-9.47099
aya	-9.47181
▁memperhatikan	-9.47723
▁mengendalikan	-9.47723
▁keseluruhan	-9.47724
▁kegiatan	-9.47724
▁tradisional	-9.47726
upaya	-9.47726
▁mental	-9.47765
ris	-9.47776
▁AS	-9.47807
▁pekerja	-9.48158
▁saudara	-9.48281
▁asli	-9.48429
▁tikus	-9.48429
▁kabar	-9.4843
▁menghubungkan	-9.4844
▁terdengar	-9.48456
▁karang	-9.48482
▁ikut	-9.48545
▁menyebar	-9.48735
▁g	-9.48736
T	-9.48761
▁murid	-9.48808
▁lebah	-9.49144
▁Timur	-9.49145
▁Pa	-9.49313
▁nasional	-9.49565
▁materi	-9.49579
▁lahan	-9.49813
▁sepenuh	-9.4985
▁resiko	-9.49851
▁sepeda	-9.49851
▁penulis	-9.49852
▁kayu	-9.49855
▁pendekatan	-9.49865
▁Dr	-9.50027
▁peny	-9.50101
▁dekade	-9.5057
▁eksperimen	-9.5057
▁ketakutan	-9.5057
▁tersedia	-9.5057
▁peralatan	-9.5057
▁menjalankan	-9.50594
ek	-9.5072
▁produksi	-9.50727
▁dibutuhkan	-9.50732
keliling	-9.50816
▁Si	-9.50896
emb	-9.50938
ram	-9.51142
▁kendaraan	-9.51294
▁kuliah	-9.51294
▁lapangan	-9.51294
▁jiwa	-9.51295
▁pasir	-9.51301
▁dikenal	-9.51332
▁mahal	-9.51374
▁memecahkan	-9.51378
▁dimensi	-9.51524
aan	-9.5165
▁lokasi	-9.51756
▁mere	-9.51767
▁sang	-9.51835
kira	-9.51976
san	-9.52008
baru	-9.52097
damai	-9.52265
ukuran	-9.52308
▁14	-9.52395
▁potongan	-9.52416
▁penjara	-9.52759
▁Akhir	-9.5276
▁positif	-9.5276
▁percakapan	-9.5276
▁internasional	-9.52763
▁Arab	-9.52763
▁lapisan	-9.52859
▁memperbaiki	-9.52872
▁umur	-9.53101
akan	-9.5325
▁tahan	-9.53454
▁pergerakan	-9.53505
▁kenal	-9.53522
diri	-9.53658
▁layak	-9.53867
ju	-9.53936
▁Lihat	-9.53941
▁tiap	-9.5396
▁keren	-9.54106
▁kosong	-9.54247
eks	-9.5425
▁membicarakan	-9.54375
▁menutup	-9.54491
▁mengenal	-9.54496
▁kerjakan	-9.54508
▁berakhir	-9.54577
ip	-9.54669
▁Lu	-9.54766
▁Pertanyaan	-9.54998
▁setuju	-9.54998
▁standar	-9.54998
R	-9.55136
▁objek	-9.55143
▁prinsip	-9.55316
▁menggambarkan	-9.55345
▁Ha	-9.55524
▁Do	-9.55567
ger	-9.55707
▁dianggap	-9.55756
▁lantai	-9.55756
▁roti	-9.55757
▁menangkap	-9.55767
▁gaya	-9.55805
▁bicarakan	-9.55816
▁Asia	-9.55855
▁melepaskan	-9.5586
ss	-9.55994
gambar	-9.56023
▁lipat	-9.56099
▁diam	-9.56187
▁game	-9.56296
▁bertahun	-9.56476
▁Universit	-9.56519
▁Jerman	-9.56522
▁peradaban	-9.56523
▁Sebagian	-9.56575
▁Dua	-9.56603
ting	-9.56656
▁rumput	-9.56928
id	-9.57172
▁keduanya	-9.57218
▁Ibu	-9.57225
ung	-9.57247
▁Chris	-9.57296
vi	-9.5731
▁penggunaan	-9.57318
pura	-9.57376
▁memakan	-9.57505
car	-9.57562
ktor	-9.576
nda	-9.58
▁favorit	-9.58064
▁pembangunan	-9.58065
▁Berapa	-9.58101
▁putri	-9.58169
▁kotoran	-9.58409
ren	-9.58449
rak	-9.58453
▁Kau	-9.58505
▁konflik	-9.58558
angka	-9.58591
▁mengajar	-9.58738
▁lewat	-9.58845
▁kursi	-9.59027
▁sebesar	-9.59084
land	-9.59416
▁sebaik	-9.59423
▁lunak	-9.59632
▁mengamati	-9.59637
▁reaksi	-9.59639
▁Sudah	-9.59642
▁kuno	-9.59644
▁taman	-9.59666
go	-9.5977
▁berharga	-9.59862
▁Tak	-9.60003
rat	-9.60144
ngan	-9.60341
▁grafik	-9.60426
▁area	-9.60437
▁acara	-9.60448
baik	-9.60579
▁komunikasi	-9.60668
▁Ba	-9.60701
alat	-9.60859
▁Ch	-9.60884
▁beruntung	-9.60952
adilan	-9.61206
▁versi	-9.61228
▁Dapat	-9.61229
▁mikro	-9.61637
▁13	-9.61723
po	-9.61907
▁memotong	-9.62033
▁menyatakan	-9.62033
▁kemajuan	-9.62034
▁lucu	-9.62038
▁pengguna	-9.62082
▁hadiah	-9.62187
▁tes	-9.62251
▁menjadikan	-9.62271
▁bunga	-9.6232
▁faktor	-9.62387
▁tentunya	-9.6254
▁mencegah	-9.62846
▁modal	-9.62846
▁genetik	-9.6306
▁peran	-9.63078
▁mengg	-9.63148
tri	-9.63202
ac	-9.63573
▁kualitas	-9.63665
▁menyaksikan	-9.63665
▁rakyat	-9.63665
▁online	-9.63665
▁menjalani	-9.63666
▁seksual	-9.63668
▁liar	-9.63669
▁mimpi	-9.63804
N	-9.64109
ine	-9.64155
▁ka	-9.64421
ki	-9.64476
pen	-9.64484
▁keindahan	-9.64493
▁unik	-9.64503
▁terasa	-9.64639
▁setahun	-9.64674
asan	-9.64722
▁menambahkan	-9.64745
▁Pak	-9.6479
ie	-9.64808
▁pasangan	-9.64815
iring	-9.64845
▁fisika	-9.64865
0.000	-9.64875
▁pembicaraan	-9.64888
▁cocok	-9.65019
ey	-9.6509
▁the	-9.65127
▁raksasa	-9.65325
▁menolong	-9.65327
▁jarang	-9.65329
▁pihak	-9.65329
▁menang	-9.65336
▁siang	-9.65387
▁menempatkan	-9.65391
▁masalahnya	-9.65434
▁manapun	-9.65473
▁anti	-9.65512
▁terbaru	-9.65567
▁menjual	-9.65648
▁dimiliki	-9.66165
▁pendek	-9.66359
▁V	-9.66508
hormat	-9.66596
▁berisi	-9.66967
▁vaksin	-9.66996
▁bertambah	-9.67013
▁gratis	-9.67013
▁strategi	-9.67013
▁institusi	-9.67014
▁kelihatan	-9.67015
▁membuang	-9.67029
ina	-9.6711
ulang	-9.67276
▁material	-9.67482
fungsi	-9.6761
▁In	-9.67703
▁gas	-9.67803
▁aliran	-9.67873
▁mengajak	-9.67895
▁maki	-9.67986
▁Meng	-9.68394
▁isu	-9.68581
hati	-9.68613
▁kesulitan	-9.6873
▁lingkaran	-9.6873
▁meyakinkan	-9.6873
▁memutar	-9.6873
▁serupa	-9.6873
▁roda	-9.68731
▁sinyal	-9.68733
▁elektronik	-9.6874
▁peneliti	-9.68761
▁membahas	-9.68803
▁kelapa	-9.68815
▁gelombang	-9.68843
▁topik	-9.68961
▁jamur	-9.69151
▁Ko	-9.69205
lam	-9.69274
w	-9.69312
▁Mars	-9.69319
▁situ	-9.69495
▁tangga	-9.69539
▁diketahui	-9.69599
▁keinginan	-9.69599
▁pemahaman	-9.69599
▁mengunjungi	-9.69599
▁keuangan	-9.696
▁insinyur	-9.696
▁merubah	-9.69602
▁polisi	-9.6962
▁seniman	-9.69652
,	-9.69653
▁of	-9.6977
▁terbentuk	-9.69802
▁perawatan	-9.69987
▁menggambar	-9.70133
▁Be	-9.70168
▁puluh	-9.70384
▁huruf	-9.70476
▁terkejut	-9.70476
▁radio	-9.70479
▁menikah	-9.70483
▁bersih	-9.70486
▁melintasi	-9.70563
ck	-9.70589
▁pendapat	-9.70812
▁menyimpan	-9.70869
▁Sa	-9.70963
▁San	-9.71341
▁fenomena	-9.71361
▁konteks	-9.71361
▁panggung	-9.71361
▁saraf	-9.71361
▁revolusi	-9.71364
asih	-9.71378
tika	-9.71505
ic	-9.71561
tas	-9.7176
▁menghilang	-9.71852
▁sepatu	-9.71879
ologi	-9.71884
jam	-9.72071
lagi	-9.72141
▁bertindak	-9.72254
▁membuktikan	-9.72254
▁mengerikan	-9.72255
▁menyampaikan	-9.72256
▁depresi	-9.72257
uh	-9.72374
▁sebaliknya	-9.72504
ker	-9.72556
▁Ta	-9.72643
ferensi	-9.7282
▁presentasi	-9.72924
▁Iran	-9.72991
▁bawa	-9.72999
▁layanan	-9.73155
▁meniru	-9.73155
▁Oke	-9.73253
▁Tahun	-9.73301
▁jaman	-9.7338
▁teroris	-9.73488
▁menga	-9.73547
▁Su	-9.73549
▁iklan	-9.73563
mi	-9.73713
bentuk	-9.73847
hitung	-9.74006
ibatkan	-9.74037
▁Facebook	-9.74064
▁London	-9.74064
▁peluang	-9.74064
▁rusak	-9.74065
▁lulus	-9.74066
▁statistik	-9.74067
▁mengemudi	-9.7407
▁berkomunikasi	-9.74127
ebanyakan	-9.74253
▁kode	-9.74282
▁merekam	-9.74314
tis	-9.74323
▁simbol	-9.74374
▁ha	-9.74837
▁satelit	-9.74982
▁Ayah	-9.74982
▁memegang	-9.74986
▁umat	-9.74986
▁perlindungan	-9.74989
▁kebenaran	-9.75048
dar	-9.75236
▁Lihatlah	-9.75361
▁buatan	-9.75479
inkan	-9.75608
▁300	-9.759
▁habis	-9.75908
▁laboratorium	-9.75908
▁mendirikan	-9.75908
▁pertemuan	-9.7591
▁emisi	-9.75911
bara	-9.75961
▁persis	-9.75991
▁babi	-9.7611
▁keragaman	-9.76145
istan	-9.7638
▁parah	-9.76404
gn	-9.76477
obatan	-9.76619
interaksi	-9.76745
▁Li	-9.76839
▁berlangsung	-9.76842
▁menyentuh	-9.76842
▁militer	-9.76845
▁kajian	-9.76846
▁atmosfer	-9.76852
▁sambil	-9.76852
▁karir	-9.76858
terkait	-9.76916
▁bom	-9.77138
▁v	-9.77149
tengah	-9.77233
den	-9.77239
ay	-9.77244
▁menanam	-9.77379
▁mengenali	-9.77473
▁Da	-9.77478
ler	-9.77633
▁selamat	-9.77669
▁hadapi	-9.77677
▁Peng	-9.77701
▁tetangga	-9.77785
▁metode	-9.7779
▁bencana	-9.77795
▁China	-9.77797
▁sungai	-9.77804
mati	-9.77822
▁genom	-9.77848
▁pencarian	-9.77966
▁Ra	-9.77984
▁non	-9.77986
bu	-9.78093
betul	-9.78276
▁pengaruh	-9.7829
▁Pem	-9.78318
▁ju	-9.78558
▁John	-9.78734
▁menikmati	-9.78738
▁tanggung	-9.78738
▁teleskop	-9.78742
▁arsitektur	-9.78743
▁memenuhi	-9.78773
▁sisa	-9.78846
▁kendali	-9.78946
▁alih	-9.79068
▁amat	-9.79292
▁bertanggung	-9.79454
landia	-9.79643
▁keajaiban	-9.79699
▁persegi	-9.79699
▁cantik	-9.797
▁nomor	-9.79703
▁catatan	-9.79706
▁Ku	-9.79715
saat	-9.79809
no	-9.79821
▁hancur	-9.79831
mon	-9.79867
▁pintar	-9.79904
▁Ja	-9.79918
sisa	-9.7994
v	-9.80154
▁kumpulan	-9.80195
▁menurun	-9.80267
▁diberi	-9.80646
▁peningkatan	-9.8067
▁memainkan	-9.8067
▁menawarkan	-9.80671
▁aktivitas	-9.80672
▁sapi	-9.80672
▁kejadian	-9.80674
▁kopi	-9.80693
▁mengakui	-9.80758
▁berjuang	-9.80806
▁blog	-9.80966
▁Co	-9.81282
rus	-9.81449
rah	-9.816
F	-9.81625
▁Gambar	-9.81651
▁Waktu	-9.81651
fokus	-9.81652
▁Coba	-9.81668
▁terpisah	-9.81716
▁medis	-9.81721
▁Perang	-9.81831
itu	-9.81874
▁momen	-9.81921
gas	-9.8216
ks	-9.82269
▁flu	-9.82412
▁mengandun	-9.82626
lem	-9.8264
▁menanyakan	-9.82641
▁gigi	-9.82642
▁memandang	-9.82652
▁memperkirakan	-9.82654
▁24	-9.82718
▁berlebih	-9.83032
tel	-9.83392
▁Israel	-9.83641
▁ekosistem	-9.83641
▁sipil	-9.83641
▁serangan	-9.83647
▁nyawa	-9.83726
▁sembilan	-9.83734
▁mengalir	-9.83777
▁rasanya	-9.8395
▁paham	-9.8416
nol	-9.84273
▁jari	-9.84377
▁sebent	-9.84631
▁payudara	-9.84651
▁protein	-9.84651
▁riset	-9.84652
▁ramah	-9.84652
▁politis	-9.84654
▁menangani	-9.84657
▁bangsa	-9.84661
▁mengadakan	-9.84662
▁papan	-9.84697
minggu	-9.84738
▁St	-9.84742
ikat	-9.84853
▁Pi	-9.84857
bal	-9.84889
▁keempat	-9.84958
▁tumbuhan	-9.85047
tal	-9.85137
▁dukung	-9.85185
▁kese	-9.85224
▁awan	-9.85303
onal	-9.85374
▁berke	-9.85482
▁simpan	-9.8565
ban	-9.85656
▁memimpin	-9.85671
▁mempertahankan	-9.85678
▁menolak	-9.8569
▁Cara	-9.85721
▁inter	-9.85741
L	-9.85797
▁AIDS	-9.85826
▁lembaga	-9.85992
mat	-9.86057
em	-9.86118
akhir	-9.86131
▁mendasar	-9.862
▁studi	-9.86553
▁Kore	-9.86587
gram	-9.8659
▁PBB	-9.86702
▁kerusakan	-9.86702
▁universitas	-9.86702
▁menggerakkan	-9.86721
▁tuna	-9.86751
pergi	-9.86841
▁belia	-9.86844
▁sebagaimana	-9.86848
ore	-9.86958
ari	-9.87024
▁Bu	-9.87048
▁pa	-9.87078
▁le	-9.87313
▁mengingatkan	-9.87462
▁pi	-9.87506
lis	-9.87556
▁pro	-9.87592
kni	-9.87679
▁Islam	-9.87744
▁pembelajaran	-9.87747
▁disana	-9.87757
▁petani	-9.87766
▁mengundang	-9.87786
buru	-9.87836
▁bergantung	-9.87858
min	-9.87917
▁in	-9.87937
▁Nama	-9.87945
▁remaja	-9.87966
▁Kalian	-9.88017
▁botol	-9.88029
▁Ca	-9.88063
▁500	-9.88246
▁la	-9.88337
▁tulisan	-9.88565
ua	-9.88609
▁El	-9.88619
▁Ju	-9.88689
▁Sayang	-9.88718
▁terkena	-9.88741
tra	-9.88786
▁Wanita	-9.88797
▁mendalam	-9.88821
▁150	-9.8883
▁Mesi	-9.88873
▁tanggal	-9.88874
▁interaksi	-9.88909
▁Y	-9.88922
gar	-9.88977
tak	-9.89062
▁menyebut	-9.8916
▁berani	-9.89174
▁mengubahnya	-9.89569
▁segalanya	-9.8969
ubur	-9.89857
res	-9.89858
▁kepentingan	-9.8986
▁lambat	-9.8986
▁menantang	-9.89861
▁soal	-9.89861
▁sekaligus	-9.89861
▁Misal	-9.89861
▁memanfaatkan	-9.89868
▁199	-9.89908
▁menyusun	-9.8996
▁tulis	-9.901
▁bersamaan	-9.90164
▁aksi	-9.90217
▁investasi	-9.90227
pakai	-9.90284
▁Mo	-9.90494
▁aplikasi	-9.90882
▁keberadaan	-9.90936
▁perkotaan	-9.90937
▁profesional	-9.90937
▁putra	-9.90939
▁kecelakaan	-9.9094
tur	-9.90941
▁kemari	-9.90948
but	-9.9103
▁jendela	-9.91056
▁Davi	-9.91137
▁dokumen	-9.91154
sen	-9.9118
O	-9.91217
rik	-9.9126
ud	-9.91317
▁menghilangkan	-9.91424
50	-9.91444
▁berlaku	-9.91478
ham	-9.91564
▁ganggu	-9.91609
▁menye	-9.91846
▁dibawa	-9.91847
enuhi	-9.91989
▁Begitu	-9.92023
▁Meski	-9.92028
▁laju	-9.92031
▁padat	-9.92035
▁Pria	-9.92045
▁cari	-9.92056
▁temui	-9.92068
▁lintas	-9.92083
timbang	-9.92104
kampanye	-9.92179
ium	-9.92204
▁pembuatan	-9.92245
▁pahlawan	-9.92276
top	-9.92281
bang	-9.92494
▁caranya	-9.92564
▁misi	-9.92603
ini	-9.92608
▁umumnya	-9.9262
umbang	-9.92678
▁Mar	-9.92706
▁Ok	-9.93001
▁efisien	-9.93044
▁arsitek	-9.93116
▁Negara	-9.93121
▁Twitter	-9.93121
▁pemilih	-9.93121
▁utara	-9.93122
▁berlari	-9.93122
▁kekayaan	-9.93123
▁ancaman	-9.9313
▁mengejar	-9.93134
▁mengangkat	-9.93147
▁pemain	-9.93159
▁visi	-9.93164
▁Ide	-9.93551
▁ba	-9.93572
ster	-9.9376
▁hadir	-9.93827
▁kartu	-9.93984
▁Tang	-9.94084
▁dollar	-9.94233
▁penyebaran	-9.94233
▁praktis	-9.94233
▁lelaki	-9.94248
cer	-9.94383
aran	-9.94432
▁berputar	-9.94606
▁Gu	-9.94807
kar	-9.9483
hak	-9.94961
▁sekeliling	-9.95143
▁guna	-9.95177
satu	-9.95206
▁karakter	-9.95356
▁komponen	-9.95356
▁pencipta	-9.95356
▁SMA	-9.95356
▁logam	-9.95356
▁kumuh	-9.95356
▁jarum	-9.95357
▁kecerdasan	-9.95357
▁impian	-9.95358
▁kemanusiaan	-9.95358
▁atap	-9.95358
▁suku	-9.95359
▁pelanggan	-9.95362
▁semangat	-9.95362
▁Walau	-9.95363
▁kebetulan	-9.95366
▁bangga	-9.95369
▁mengajukan	-9.95375
▁Yah	-9.9539
▁menangis	-9.95436
▁pangan	-9.95489
kap	-9.95502
▁mendekati	-9.95617
judul	-9.95642
▁perut	-9.95662
tugas	-9.95665
benda	-9.95668
sifat	-9.95673
▁menurunkan	-9.95842
ian	-9.95925
ribu	-9.95958
▁400	-9.95988
▁diskusi	-9.96076
▁mengganti	-9.96117
▁kar	-9.96278
der	-9.96386
enti	-9.96423
uatu	-9.9644
tama	-9.9645
▁visual	-9.96484
▁tradisi	-9.96489
imbulkan	-9.96492
▁Afganis	-9.96492
▁Meksiko	-9.96492
▁fosil	-9.96492
▁kreativitas	-9.96492
▁menanggapi	-9.96492
▁mundur	-9.96492
▁dirancang	-9.96493
▁menemui	-9.96493
▁total	-9.96495
▁pernikahan	-9.96497
▁kerangka	-9.96525
▁bar	-9.96699
rasi	-9.96727
▁pengusaha	-9.96751
stru	-9.96761
foto	-9.96873
▁menyukainya	-9.97065
sta	-9.97624
▁cuaca	-9.97642
▁istilah	-9.97642
▁menakutkan	-9.97642
▁televisi	-9.97642
▁tunggal	-9.97642
▁entah	-9.97643
▁California	-9.97644
▁dihasilkan	-9.97644
▁tentara	-9.97646
▁menguji	-9.97647
▁mewakili	-9.97647
▁latar	-9.97653
ner	-9.97702
harapkan	-9.9784
▁Uni	-9.97978
lebih	-9.97989
ten	-9.98007
▁era	-9.98083
▁dahulu	-9.98326
▁ras	-9.98376
▁anggap	-9.98462
▁bus	-9.98528
besarkan	-9.98578
▁Begini	-9.98805
▁berpindah	-9.98805
▁mencintai	-9.98805
▁kuning	-9.98805
▁ditunjukkan	-9.98806
▁Einste	-9.98826
ajarkan	-9.98836
▁selatan	-9.98842
beda	-9.98885
▁Baru	-9.98908
▁rancangan	-9.98928
▁pilih	-9.99012
▁Mu	-9.99024
▁canggih	-9.99029
▁ket	-9.99073
ley	-9.99092
▁Ne	-9.99216
eng	-9.99501
▁ton	-9.99504
▁Go	-9.99555
▁membagi	-9.99584
urunan	-9.99925
capai	-9.99953
▁Swedia	-9.99981
▁identitas	-9.99981
▁kejahatan	-9.99981
▁meneliti	-9.99981
▁mulut	-9.99981
▁limbah	-9.99981
▁mengakhiri	-9.99981
▁permasalahan	-9.99982
▁kekurangan	-9.99983
▁majalah	-9.99986
▁memeriksa	-9.99992
▁teka	-10.0006
▁pakai	-10.0012
▁bilangan	-10.0018
▁Alasan	-10.0019
▁tabung	-10.0033
▁spesial	-10.0052
etes	-10.0052
ug	-10.0057
▁namanya	-10.0077
▁padang	-10.0085
▁Lo	-10.0088
rbuk	-10.0096
▁mengelilingi	-10.0117
▁memasak	-10.0117
▁adil	-10.0117
▁ditulis	-10.0117
▁tumor	-10.0117
▁kegagalan	-10.0117
▁memperkenalkan	-10.0118
▁membandingkan	-10.0119
▁menabung	-10.0119
▁TV	-10.0123
ara	-10.0132
▁Laut	-10.0134
▁manfaat	-10.022
▁penyebab	-10.0221
H	-10.0223
pat	-10.0226
▁menumbuhkan	-10.0238
▁pemilu	-10.0238
▁berkumpul	-10.0238
▁memisahkan	-10.0238
▁teknis	-10.0238
▁email	-10.0238
▁kakek	-10.0238
▁lengan	-10.0239
▁Kota	-10.0239
▁mainan	-10.0239
▁pengobatan	-10.024
▁buta	-10.0241
▁baris	-10.0245
▁bi	-10.0251
oto	-10.0264
▁artikel	-10.0268
▁cuma	-10.0278
ent	-10.0286
▁acak	-10.0293
▁Jo	-10.0294
▁Sama	-10.0312
▁sahabat	-10.0312
graf	-10.0315
lang	-10.0323
▁co	-10.0323
▁terang	-10.0331
▁campur	-10.0345
▁terp	-10.0347
lik	-10.0353
▁menari	-10.0353
▁elemen	-10.036
▁memanggil	-10.036
▁sains	-10.036
▁terbiasa	-10.036
▁Kanada	-10.036
▁ayam	-10.036
▁melatih	-10.036
▁menyerang	-10.036
▁nas	-10.0363
lak	-10.0366
▁bis	-10.038
awan	-10.0388
▁bodoh	-10.0398
▁198	-10.0399
▁menyebarkan	-10.043
bohong	-10.0436
▁bu	-10.044
masalah	-10.0442
▁proto	-10.0442
▁bio	-10.0443
kas	-10.0453
▁An	-10.0454
mandiri	-10.046
▁gula	-10.0461
▁antar	-10.0462
▁Yunani	-10.0483
▁melahirkan	-10.0483
▁merusak	-10.0483
▁memasuki	-10.0483
▁ringan	-10.0483
▁melanjutkan	-10.0484
▁fotograf	-10.0486
▁pulau	-10.0487
▁sari	-10.049
▁betul	-10.0494
▁populer	-10.0499
▁sewaktu	-10.0502
barang	-10.0513
▁pelayanan	-10.0513
▁Kata	-10.0534
▁Bo	-10.0544
ada	-10.0551
tul	-10.0553
ion	-10.0555
▁sebagainya	-10.0568
▁Jam	-10.057
▁pula	-10.0577
asa	-10.0589
▁dikirim	-10.0608
▁membersihkan	-10.0608
▁mengelola	-10.0608
▁memaksa	-10.0608
▁infrastruktur	-10.0608
▁perancang	-10.0608
▁mematikan	-10.0608
▁medan	-10.0608
▁rekaman	-10.0609
▁jejak	-10.061
▁unit	-10.061
▁baca	-10.0611
▁99	-10.0611
▁teks	-10.0612
▁perlahan	-10.0613
dagangan	-10.0613
▁Rusia	-10.062
▁berkurang	-10.0624
alkan	-10.063
▁oh	-10.0633
kon	-10.0635
dak	-10.0644
▁putus	-10.0649
▁Peranc	-10.0658
bahan	-10.0682
daur	-10.0683
lap	-10.0691
▁selamanya	-10.0704
guru	-10.0713
ly	-10.0718
▁rasakan	-10.0725
▁toilet	-10.0735
▁moyang	-10.0735
▁menghargai	-10.0735
▁Tanpa	-10.0735
▁seterusnya	-10.0735
▁stres	-10.0735
▁baju	-10.0736
▁merawat	-10.0736
▁CO	-10.0738
▁rambut	-10.0738
▁Bill	-10.0741
log	-10.0745
ita	-10.0749
age	-10.0749
ela	-10.0751
▁tersembunyi	-10.0752
▁ki	-10.0755
▁menjelajahi	-10.0756
▁ekspresi	-10.0772
▁na	-10.0778
murid	-10.0796
▁alasannya	-10.0797
▁sensor	-10.0798
▁berulang	-10.0803
▁fi	-10.0814
▁tu	-10.0817
ahkan	-10.0837
▁Sh	-10.0838
main	-10.0843
▁makna	-10.0847
▁menerapkan	-10.0858
▁kucing	-10.0863
▁terpenting	-10.0863
▁universal	-10.0863
▁Sebelum	-10.0863
▁sejenak	-10.0863
▁perkiraan	-10.0863
▁pengawas	-10.0863
▁Kenyataan	-10.0863
▁menyuruh	-10.0863
▁keturunan	-10.0863
▁museum	-10.0865
▁mengisi	-10.0873
▁Paul	-10.0883
▁sengaja	-10.0893
duk	-10.0907
undang	-10.0919
kumpulan	-10.0926
ser	-10.0927
▁o	-10.093
▁he	-10.0938
olah	-10.0939
letak	-10.0945
nik	-10.0957
▁Darwin	-10.0993
▁mempercayai	-10.0993
▁Jawaban	-10.0993
egunung	-10.0993
▁pasca	-10.0994
▁polio	-10.0995
con	-10.1002
lemah	-10.1012
▁lu	-10.1014
▁simetri	-10.1021
▁menyalakan	-10.1026
▁diper	-10.1032
▁Kenya	-10.1033
teki	-10.1048
abad	-10.1052
▁sub	-10.1068
andai	-10.1072
od	-10.1073
▁lepas	-10.1076
olusi	-10.1081
▁kabel	-10.1083
▁menambah	-10.1084
kal	-10.1107
▁isi	-10.1109
▁Vi	-10.1112
▁menekan	-10.1113
sial	-10.1123
▁keyakinan	-10.1124
▁negatif	-10.1124
▁berbasis	-10.1124
▁diterima	-10.1124
▁suami	-10.1124
▁motor	-10.1124
▁latihan	-10.1125
▁beruang	-10.1125
▁nano	-10.1126
▁SMS	-10.113
▁As	-10.1135
▁beragam	-10.1146
ksi	-10.1156
▁gembira	-10.1179
ye	-10.1181
▁spesifik	-10.1182
mas	-10.1184
▁dipercaya	-10.1187
▁luka	-10.1189
▁utuh	-10.119
▁menerus	-10.1193
▁pers	-10.1195
▁Tig	-10.1196
▁Pro	-10.12
▁berupa	-10.1233
▁upaya	-10.1236
lkan	-10.1251
▁Australia	-10.1258
▁memindahkan	-10.1258
▁pemandangan	-10.1258
▁tertutup	-10.1258
▁perhatikan	-10.1258
▁zaman	-10.1258
▁persepsi	-10.1258
▁menjangkau	-10.1259
▁Juga	-10.1259
▁terapi	-10.1263
▁diantara	-10.1266
▁Pikirkan	-10.1267
▁meluncurkan	-10.127
▁menghindari	-10.1272
▁desainer	-10.1275
hadapan	-10.1284
▁musuh	-10.1292
▁21	-10.1295
▁He	-10.1299
bur	-10.1317
com	-10.1319
we	-10.1328
tanya	-10.1346
▁mendatang	-10.1347
putar	-10.1356
lai	-10.136
▁sayap	-10.1364
▁kebun	-10.1377
tek	-10.1378
lawanan	-10.1384
▁Mem	-10.1387
▁Or	-10.1388
▁ajaib	-10.1393
▁permintaan	-10.1393
▁Proyek	-10.1393
▁Teknologi	-10.1393
▁telinga	-10.1393
▁pensiun	-10.1393
▁mengganggu	-10.1394
▁menatap	-10.1394
▁akar	-10.1395
▁mendesain	-10.1395
▁klini	-10.1396
▁seumur	-10.1398
▁2008	-10.1399
▁Tempat	-10.1401
ford	-10.142
▁psikologi	-10.1424
senang	-10.1433
▁membagikan	-10.1439
aktif	-10.144
▁penderitaan	-10.1441
▁ho	-10.1459
leksi	-10.1466
jujur	-10.147
sional	-10.1472
vo	-10.148
las	-10.1486
lindung	-10.1503
▁Sistem	-10.153
▁misteri	-10.153
▁radikal	-10.153
▁anggaran	-10.153
kontrol	-10.153
▁sejenis	-10.153
▁kesuksesan	-10.153
▁petunjuk	-10.153
▁belahan	-10.1531
▁OK	-10.1532
▁pemuda	-10.1533
partisipasi	-10.1541
▁menjauh	-10.1545
ny	-10.1549
▁pengembangan	-10.1564
lihat	-10.1566
▁har	-10.1572
ill	-10.1572
gg	-10.1573
butuhkan	-10.1584
agama	-10.1588
▁Kar	-10.1591
▁Antar	-10.1599
masukkan	-10.1605
buku	-10.1608
▁Ho	-10.1615
▁dijual	-10.1616
bedah	-10.1634
lasi	-10.164
ong	-10.1645
▁angkat	-10.1667
▁bank	-10.1667
▁kekuasaan	-10.1669
▁tombol	-10.1669
▁multi	-10.1669
▁tersebar	-10.1669
▁Fakta	-10.1669
▁pantas	-10.1669
▁kilometer	-10.1669
arah	-10.1679
encana	-10.1683
▁terumbu	-10.1688
▁mengarahkan	-10.1697
▁organik	-10.1704
▁dr	-10.1711
▁jumlahnya	-10.1723
uran	-10.1731
▁ta	-10.1763
infeksi	-10.1788
▁memb	-10.1797
ago	-10.18
adirin	-10.1803
▁Bar	-10.1803
ekitar	-10.1809
▁aspek	-10.1809
▁siklus	-10.1809
▁Besar	-10.181
▁permulaan	-10.181
▁kepemimpinan	-10.181
▁perhitungan	-10.181
▁mengira	-10.181
▁emosional	-10.1811
▁menggali	-10.1812
▁memproduksi	-10.1812
gan	-10.1834
▁dinosaurus	-10.1844
▁biologis	-10.1863
if	-10.1875
lumpuh	-10.1878
ell	-10.188
ron	-10.1885
berdaya	-10.1886
W	-10.1887
U	-10.1893
sia	-10.1894
cacat	-10.1902
▁Mon	-10.1907
▁malah	-10.1914
▁begini	-10.1952
▁Yahudi	-10.1952
▁diciptakan	-10.1952
▁slide	-10.1952
▁melompat	-10.1953
▁poin	-10.1953
▁grup	-10.1953
▁mekanisme	-10.1954
▁menelepon	-10.1954
▁pertunjukan	-10.1955
▁mengabaikan	-10.1956
bola	-10.196
aksi	-10.1961
▁pedes	-10.1961
▁datar	-10.1968
jang	-10.197
zi	-10.1973
▁1.000	-10.1978
ras	-10.1987
▁resep	-10.1987
▁malu	-10.1988
▁tokoh	-10.1991
ry	-10.2011
▁hi	-10.2014
▁otomatis	-10.2028
-20	-10.2034
ganda	-10.2041
▁35	-10.2043
▁batasan	-10.2045
▁mengajari	-10.2046
bakar	-10.205
▁artis	-10.2066
nyol	-10.2075
▁Je	-10.2087
ora	-10.2094
▁alternatif	-10.2097
▁baterai	-10.2097
▁golf	-10.2097
▁insentif	-10.2097
▁truk	-10.2097
▁keahlian	-10.2097
▁parkir	-10.2097
▁web	-10.2097
▁rantai	-10.2097
candu	-10.2097
▁level	-10.2098
▁kebaikan	-10.2098
mudah	-10.2099
▁tepi	-10.2102
▁terburuk	-10.2105
▁timur	-10.2107
▁fina	-10.2109
▁berkat	-10.2115
▁gejala	-10.2116
▁peternakan	-10.212
▁pil	-10.2123
▁benih	-10.2125
unggu	-10.2141
rek	-10.2144
▁menyebutkan	-10.2153
▁pemb	-10.2156
▁atom	-10.2158
▁jujur	-10.2162
roid	-10.2171
▁merek	-10.218
▁menj	-10.2185
▁dibanding	-10.2187
investasi	-10.2193
bintang	-10.2196
dia	-10.2205
▁kera	-10.2213
dorong	-10.2235
▁langka	-10.2235
▁perspek	-10.2236
▁gurun	-10.2241
▁dipahami	-10.2244
▁epidemi	-10.2244
▁kebiasaan	-10.2244
▁kesimpulan	-10.2244
▁palsu	-10.2244
▁penerbang	-10.2244
▁presiden	-10.2244
▁bahaya	-10.2244
▁minta	-10.2244
▁jembatan	-10.2244
▁imajinasi	-10.2245
▁memperlihatkan	-10.2246
▁tanggapan	-10.2247
▁fa	-10.2267
▁bersekolah	-10.2276
0-	-10.23
▁Kon	-10.2301
▁gairah	-10.2309
▁ekor	-10.233
ub	-10.2334
naikan	-10.2344
Times	-10.2345
dah	-10.2355
umbu	-10.2366
▁saran	-10.2371
ep	-10.238
▁Higgs	-10.2394
▁Kembali	-10.2394
▁Tujuan	-10.2394
▁pengertian	-10.2394
▁Sungguh	-10.2394
▁reaktor	-10.2394
▁Hasil	-10.2394
▁pasukan	-10.2394
▁swasta	-10.2394
▁Am	-10.2394
▁menyesuaikan	-10.2394
▁rangkaian	-10.2395
▁kesamaan	-10.2395
▁gender	-10.2396
▁algoritma	-10.2398
▁perintah	-10.2398
▁gua	-10.2421
▁cermin	-10.2429
▁ceramah	-10.2435
▁halus	-10.2474
▁asumsi	-10.249
za	-10.2499
ett	-10.2507
elu	-10.2522
▁Spa	-10.2522
jen	-10.2527
ib	-10.253
▁sp	-10.2545
obsesi	-10.2545
▁Presiden	-10.2545
▁penghargaan	-10.2545
▁gajah	-10.2545
▁Sekolah	-10.2545
nis	-10.2546
▁kesenangan	-10.2546
▁ketinggian	-10.2546
▁menentang	-10.255
▁bau	-10.2552
▁23	-10.2555
nsial	-10.2565
▁Alat	-10.2565
▁tertinggi	-10.2565
apan	-10.2576
▁2000	-10.2579
biarkan	-10.2609
ami	-10.2613
▁sadari	-10.262
▁virtu	-10.2624
idik	-10.2644
lat	-10.2652
aman	-10.2658
jo	-10.2662
tam	-10.2666
▁rela	-10.2687
bagian	-10.2694
enak	-10.2694
▁kering	-10.2696
▁feminis	-10.2699
▁pegawai	-10.2699
▁penerima	-10.2699
▁runtuh	-10.2699
▁melampaui	-10.2699
▁Kisah	-10.2699
▁perbatasan	-10.2699
▁suntik	-10.2699
▁bayangan	-10.2699
▁pengemudi	-10.2699
▁oksigen	-10.27
▁urutan	-10.27
▁menyeru	-10.27
jantan	-10.27
▁pesta	-10.2705
▁barat	-10.2705
▁produktif	-10.2707
ampir	-10.2708
bar	-10.2718
▁pon	-10.2727
▁olahraga	-10.2732
▁temb	-10.274
▁prima	-10.2747
▁Ben	-10.2749
pajak	-10.276
harga	-10.2768
▁1.	-10.2769
▁uji	-10.2771
ntang	-10.2775
lepas	-10.278
▁pre	-10.2785
tukang	-10.2795
kacau	-10.2814
▁lupa	-10.2815
▁ingatan	-10.2829
awal	-10.2845
▁Arti	-10.2845
▁biji	-10.2845
ngkan	-10.2851
▁klasik	-10.2855
▁membosankan	-10.2855
▁restoran	-10.2855
▁George	-10.2855
▁gravitasi	-10.2855
▁keterampilan	-10.2855
▁kutub	-10.2859
par	-10.286
▁marah	-10.286
karat	-10.2876
vis	-10.2886
est	-10.2927
▁Bel	-10.2929
▁Del	-10.2933
kat	-10.2936
ulit	-10.2953
▁berperan	-10.299
sembunyi	-10.2997
▁lo	-10.3003
▁Ira	-10.3009
engalaman	-10.3009
▁Cerita	-10.3014
▁September	-10.3014
▁coklat	-10.3014
▁kinerja	-10.3014
▁obyek	-10.3014
▁Jumlah	-10.3014
▁kesejahteraan	-10.3014
Sahara	-10.3014
▁dilahirkan	-10.3014
▁pernyataan	-10.3014
▁dapur	-10.3014
▁korupsi	-10.3016
cakap	-10.3017
▁Ayo	-10.3017
▁nada	-10.3018
tua	-10.3029
▁terpencil	-10.3035
▁semut	-10.3039
▁bukit	-10.3048
▁pertanyaannya	-10.3053
▁kategori	-10.3054
erapkan	-10.3075
angga	-10.3098
ego	-10.3099
▁peri	-10.3102
▁terj	-10.311
▁Bagian	-10.3112
ola	-10.3114
tinggi	-10.3122
ama	-10.3137
kendali	-10.314
kisah	-10.3142
line	-10.3143
maksud	-10.3143
oma	-10.3158
kaitan	-10.3171
▁kapita	-10.3172
▁apartemen	-10.3175
▁berkelanjutan	-10.3175
▁Michael	-10.3175
▁bersemangat	-10.3175
▁betina	-10.3175
▁pemanasan	-10.3175
▁risiko	-10.3175
▁serangkaian	-10.3175
▁mengalahkan	-10.3175
▁Washin	-10.3176
sibuk	-10.3176
▁Benda	-10.3179
▁kolekti	-10.3181
▁kacang	-10.3181
▁maya	-10.3188
curang	-10.3199
tz	-10.3201
▁berenang	-10.3208
▁batang	-10.322
lit	-10.3229
tat	-10.3233
war	-10.3241
▁menyala	-10.3242
let	-10.3247
▁Ir	-10.3252
ota	-10.3255
yu	-10.3258
▁45	-10.3271
▁cipta	-10.3299
▁gand	-10.33
▁ekstrim	-10.3302
▁bunyi	-10.3305
▁Hei	-10.3328
rap	-10.3328
embangkit	-10.3336
▁berpengaruh	-10.3339
▁iPhone	-10.3339
▁pemasaran	-10.3339
tempur	-10.3339
▁jahat	-10.3339
▁kelamin	-10.3339
macet	-10.3339
▁periode	-10.3339
▁salju	-10.334
hangat	-10.334
▁Biasa	-10.334
▁Anders	-10.334
murni	-10.3341
▁menampilkan	-10.3341
▁bekas	-10.3342
moga	-10.3343
▁perencana	-10.3349
angsa	-10.336
aturan	-10.3362
▁raya	-10.3368
autisme	-10.3369
▁berikut	-10.3369
ember	-10.3373
▁analisis	-10.3374
▁rentan	-10.3381
▁Sekali	-10.3387
eluk	-10.341
ingkat	-10.3417
▁Foto	-10.3452
▁dipasang	-10.3455
▁Ri	-10.347
▁Tahu	-10.3479
▁Ken	-10.3482
mimpi	-10.3487
empat	-10.3494
▁narko	-10.3506
▁peringatan	-10.3506
▁target	-10.3506
▁sampel	-10.3506
akrab	-10.3506
▁kritis	-10.3506
▁gempa	-10.3506
▁racun	-10.3506
▁sekadar	-10.3506
▁kelahiran	-10.3506
▁badai	-10.3506
▁Pemerintah	-10.3506
▁meledak	-10.3507
▁Muslim	-10.3507
▁profesor	-10.3508
▁mengorb	-10.3508
▁manis	-10.3508
▁tenang	-10.3509
▁menu	-10.351
▁madu	-10.351
▁da	-10.3525
▁pemilik	-10.3528
▁punah	-10.3535
takan	-10.354
▁rekayasa	-10.3548
▁baja	-10.3556
▁telur	-10.3566
▁fasilitas	-10.3572
set	-10.3576
▁bos	-10.3586
bat	-10.3594
▁War	-10.3603
▁serat	-10.3605
▁memikirkannya	-10.3612
bak	-10.362
▁mengh	-10.3621
▁selam	-10.3624
gang	-10.3631
ikuti	-10.3643
kembangkan	-10.3659
▁and	-10.3663
tus	-10.3664
jebak	-10.3674
▁2010	-10.3675
▁keseimbangan	-10.3675
▁laporan	-10.3675
▁mengembalikan	-10.3675
▁menguasai	-10.3675
▁radiasi	-10.3675
▁relevan	-10.3675
▁Bagus	-10.3675
▁Januari	-10.3675
▁darurat	-10.3675
▁ritual	-10.3675
▁emas	-10.3677
▁piran	-10.368
▁menerbitkan	-10.3681
ima	-10.3684
▁beban	-10.3689
are	-10.3693
▁menyatukan	-10.3695
owong	-10.3706
▁kartun	-10.3708
▁ciptakan	-10.3717
diam	-10.3727
jalankan	-10.3732
aneka	-10.3735
▁menggantikan	-10.3738
jar	-10.3743
▁kepu	-10.3746
impangan	-10.3759
▁Pr	-10.3777
▁Ed	-10.3778
gelar	-10.3785
▁bernilai	-10.3791
ero	-10.381
coba	-10.3826
▁Tim	-10.3838
pai	-10.3845
▁bangkit	-10.3848
▁memprediksi	-10.3848
▁syaraf	-10.3848
▁mendarat	-10.3848
▁status	-10.3848
▁Afghanistan	-10.3848
▁tongkat	-10.3848
▁memetakan	-10.3848
▁apel	-10.3848
▁metafora	-10.3848
sentuh	-10.3849
▁bersalah	-10.3849
▁relatif	-10.385
▁menguntung	-10.3851
▁memenang	-10.3851
lembar	-10.3857
uf	-10.3862
▁pengh	-10.3882
masa	-10.3889
▁besi	-10.3892
aga	-10.3903
▁cairan	-10.3909
▁Cha	-10.3912
dge	-10.3921
jah	-10.3926
▁Kong	-10.3938
▁pembicara	-10.3939
▁ujian	-10.3942
▁mene	-10.3952
▁kue	-10.3952
▁ganda	-10.3953
▁aktivis	-10.3961
▁op	-10.3971
▁22	-10.3976
batas	-10.3979
▁Pu	-10.3987
▁Gar	-10.3988
ty	-10.4003
enonton	-10.4017
ard	-10.4022
sarjana	-10.4023
tenggelam	-10.4023
▁mayor	-10.4023
▁obesitas	-10.4023
▁kondom	-10.4023
▁logika	-10.4023
▁argumen	-10.4023
▁kecenderungan	-10.4023
▁inspirasi	-10.4023
▁saluran	-10.4023
▁melangkah	-10.4025
▁Memang	-10.4025
▁bulu	-10.4026
▁ditambah	-10.4028
larut	-10.4031
▁Ghan	-10.4032
▁berpendapat	-10.4036
▁magnet	-10.4036
▁pelatihan	-10.4048
▁Air	-10.4077
terjangkau	-10.4087
mempertimbangkan	-10.4089
▁definisi	-10.4092
▁pinggiran	-10.4095
tin	-10.4095
▁Har	-10.4097
▁kombinasi	-10.4106
umpan	-10.4139
▁Mik	-10.4145
▁Ah	-10.4152
tiga	-10.4154
suara	-10.4186
pelajari	-10.419
erintah	-10.4195
transportasi	-10.4202
▁Pasifik	-10.4202
▁penutup	-10.4202
▁sukarela	-10.4202
▁berterima	-10.4202
▁penglihatan	-10.4202
▁stasiun	-10.4202
▁membedakan	-10.4202
▁memicu	-10.4202
▁lemak	-10.4202
▁rasional	-10.4202
▁Ingat	-10.4202
▁mustahil	-10.4202
▁raja	-10.4202
rio	-10.4202
▁konten	-10.4203
▁samudera	-10.4204
▁mengu	-10.4205
oda	-10.4207
▁mencetak	-10.4207
tangkap	-10.4209
▁berlatih	-10.421
fusi	-10.4211
jumpa	-10.4212
▁sarang	-10.4214
▁kalimat	-10.4218
mata	-10.4218
▁tubuhnya	-10.4223
ambu	-10.4225
mula	-10.4231
▁Alam	-10.4233
▁Sampa	-10.4233
▁Angka	-10.4243
▁unsur	-10.4244
▁fr	-10.4246
▁pra	-10.4246
kol	-10.4247
▁tas	-10.4249
▁tarian	-10.4262
▁sup	-10.4278
elesaikan	-10.4292
sepuluh	-10.4297
dagang	-10.4309
namakan	-10.4315
▁pu	-10.4327
▁Ar	-10.4333
▁Lati	-10.4334
utan	-10.4335
▁waktunya	-10.4335
▁sepertiga	-10.4343
ngga	-10.4345
atan	-10.4352
▁for	-10.4366
▁stabil	-10.4381
▁Wal	-10.4382
▁Obama	-10.4384
▁Untung	-10.4384
▁kurva	-10.4384
▁mikroskop	-10.4384
▁optimis	-10.4384
▁benua	-10.4384
▁lensa	-10.4384
▁terinspirasi	-10.4384
▁berkuasa	-10.4384
▁diminta	-10.4384
▁melayani	-10.4384
bersedia	-10.4384
▁demografi	-10.4384
▁kompeti	-10.4385
▁Green	-10.4385
serta	-10.4385
▁penjaga	-10.4386
▁menghemat	-10.4386
▁memperbesar	-10.4386
▁Po	-10.4387
▁mendeteksi	-10.4387
osis	-10.4388
suci	-10.4388
▁diubah	-10.4389
nesia	-10.4404
laba	-10.4421
▁mandi	-10.4426
▁maaf	-10.4434
ff	-10.4448
bul	-10.445
teratur	-10.4451
▁teh	-10.4456
les	-10.4458
▁Hu	-10.4475
▁rem	-10.4475
erbitkan	-10.45
juru	-10.4504
erat	-10.451
▁menempel	-10.4528
▁Bank	-10.4533
paru	-10.4539
perang	-10.4541
MS	-10.4548
▁Ge	-10.4556
antai	-10.4562
▁Brazil	-10.4569
▁Harvard	-10.4569
▁genggam	-10.4569
▁inovatif	-10.4569
▁kegelapan	-10.4569
▁konsekuensi	-10.4569
▁monyet	-10.4569
▁subjek	-10.4569
▁pasokan	-10.4569
▁garam	-10.4569
▁kantong	-10.4569
▁domba	-10.4569
▁kuant	-10.4569
▁persamaan	-10.4569
▁perbudakan	-10.4569
▁memori	-10.4569
▁mempersiapkan	-10.4569
▁puisi	-10.457
▁kejutan	-10.457
titik	-10.4575
▁koran	-10.4576
banding	-10.4577
▁menara	-10.4579
abu	-10.4585
dal	-10.4586
▁daun	-10.4587
▁istimewa	-10.459
org	-10.4594
entang	-10.461
▁Bur	-10.4614
▁meneruskan	-10.4626
hat	-10.4633
rt	-10.4641
▁pel	-10.4674
ografi	-10.4675
▁perawat	-10.4677
▁kotor	-10.4679
mbung	-10.4689
meter	-10.4693
▁beli	-10.4698
rkan	-10.4708
▁judul	-10.4709
▁lari	-10.4724
▁harganya	-10.4725
bukti	-10.473
▁semi	-10.4731
iza	-10.4732
pada	-10.4735
▁kuda	-10.4738
paus	-10.4739
hukum	-10.4754
▁bernyanyi	-10.4757
▁sirkuit	-10.4757
▁tropis	-10.4757
▁penasaran	-10.4757
▁pengacara	-10.4757
▁Wa	-10.4758
▁poster	-10.4758
▁lebar	-10.4758
▁kapasitas	-10.4758
▁memperluas	-10.4758
▁tajam	-10.4758
▁melupakan	-10.4758
▁penjelasan	-10.4759
▁jasa	-10.4759
▁putaran	-10.476
▁menuliskan	-10.476
▁ikatan	-10.4761
▁Fi	-10.4763
larang	-10.4763
▁194	-10.4765
▁cucu	-10.4765
rekam	-10.4768
▁punca	-10.4768
▁oksi	-10.4772
rumah	-10.4784
▁1990	-10.4789
▁Stan	-10.4791
av	-10.4804
▁Selamat	-10.4808
raj	-10.4811
besar	-10.4814
▁komitmen	-10.4844
▁gaji	-10.4877
▁Seni	-10.4878
bet	-10.4883
▁penu	-10.4886
cita	-10.4887
ementara	-10.4888
▁dibayar	-10.4891
ret	-10.4892
▁wajahnya	-10.4919
▁didapat	-10.4922
,5	-10.4929
▁seakan	-10.4936
ambang	-10.4938
rs	-10.4945
perusahaan	-10.4947
▁Street	-10.495
▁gereja	-10.495
▁menyedihkan	-10.495
▁piramida	-10.495
▁website	-10.495
▁melukis	-10.495
▁partai	-10.495
▁sesudah	-10.495
▁warisan	-10.495
▁Maaf	-10.495
▁kedokteran	-10.495
▁separuh	-10.495
▁mengenakan	-10.495
▁otot	-10.495
▁Ambil	-10.495
▁meraih	-10.4951
▁intuisi	-10.4953
▁asam	-10.4953
▁kapitalis	-10.4953
▁melebih	-10.4958
▁Rasa	-10.4958
all	-10.4969
▁mengungkapkan	-10.497
akibatkan	-10.4975
by	-10.4976
▁lengkap	-10.4977
▁berlanjut	-10.4979
▁sedih	-10.498
▁lanjut	-10.4993
▁Ven	-10.4997
ngkau	-10.4999
bus	-10.5008
▁ditanya	-10.502
▁tanya	-10.5026
▁distribusi	-10.503
▁ekologi	-10.5042
▁segi	-10.5046
sif	-10.5073
▁keluarganya	-10.5093
ony	-10.51
▁mengarah	-10.5114
ragaman	-10.5121
sempat	-10.5143
▁PDB	-10.5146
▁adegan	-10.5146
▁menghapus	-10.5146
▁Steve	-10.5146
▁menular	-10.5146
▁pesat	-10.5146
produksi	-10.5146
▁Revolusi	-10.5146
▁tepuk	-10.5146
▁perpustakaan	-10.5147
▁melempar	-10.5147
cinta	-10.5148
▁Otak	-10.5148
useum	-10.5148
▁celah	-10.5149
▁menghormati	-10.5149
▁trik	-10.5149
▁agen	-10.515
▁Wow	-10.5151
▁sumbu	-10.5153
abaikan	-10.5155
penjara	-10.5158
▁efisiensi	-10.516
SA	-10.5162
▁1980	-10.5175
▁Los	-10.5179
▁Juli	-10.5185
▁komp	-10.5191
▁Hak	-10.5198
ganti	-10.5201
seorang	-10.5201
lus	-10.5201
▁zona	-10.5209
dapat	-10.5209
▁kacau	-10.521
▁daratan	-10.5211
▁perum	-10.5214
000	-10.5256
▁Des	-10.5262
▁konstruksi	-10.5269
▁untung	-10.529
▁realita	-10.5329
▁penyes	-10.5331
eksplorasi	-10.5341
▁anggur	-10.5346
▁disebabkan	-10.5346
▁beradaptasi	-10.5346
▁menginspirasi	-10.5346
▁berevolusi	-10.5346
▁ilusi	-10.5346
▁tertulis	-10.5346
diagnosis	-10.5346
▁perahu	-10.5346
▁seperempat	-10.5346
▁kebakaran	-10.5346
simpan	-10.5346
▁budak	-10.5346
▁Dulu	-10.5347
▁Haiti	-10.5348
▁tebak	-10.5348
ingga	-10.5349
▁rupa	-10.5349
▁muka	-10.5349
▁sikap	-10.535
▁iya	-10.5351
▁mencuri	-10.5352
lian	-10.5352
▁tersenyum	-10.5352
▁akurat	-10.5354
utub	-10.5362
▁Ang	-10.5366
▁lipatan	-10.5367
pik	-10.5376
▁menyerahkan	-10.5382
▁gelembung	-10.5384
pekerjakan	-10.5389
▁tanyakan	-10.539
▁komentar	-10.5393
cetak	-10.5427
esok	-10.5438
▁cat	-10.5455
▁NAS	-10.5484
▁damai	-10.5487
▁empati	-10.5513
▁membicarakannya	-10.5515
IS	-10.5519
ancam	-10.5527
esona	-10.5528
▁Tam	-10.5529
▁ger	-10.5541
▁Hidup	-10.555
▁kognitif	-10.555
▁mengendarai	-10.555
▁menyakitkan	-10.555
bungkus	-10.555
▁Pekerjaan	-10.555
▁donor	-10.555
▁pengecualian	-10.555
tabrak	-10.555
▁resmi	-10.555
▁pelaku	-10.555
▁susah	-10.555
▁Perusahaan	-10.555
▁kebudayaan	-10.555
▁mutlak	-10.555
▁pengungsi	-10.5551
▁tumpukan	-10.5551
▁koleksi	-10.5551
▁mikroba	-10.5554
▁dimakan	-10.5555
▁melaporkan	-10.5556
▁jurnalis	-10.5558
tosin	-10.5558
▁koloni	-10.5559
hebat	-10.5559
miskin	-10.556
▁nampak	-10.556
sis	-10.556
▁SW	-10.5561
bingung	-10.5561
▁1960	-10.5563
asarkan	-10.5564
emp	-10.557
▁ru	-10.5571
itasi	-10.5576
▁tertua	-10.5578
▁terinfeksi	-10.5581
turut	-10.5589
▁Ol	-10.5589
▁diagram	-10.5589
ez	-10.5589
ungu	-10.5604
pola	-10.5608
▁wawancara	-10.5611
til	-10.5615
kian	-10.5616
berg	-10.5623
▁Wil	-10.5632
▁rangka	-10.5647
arang	-10.5654
▁cetak	-10.5662
▁pinggir	-10.5674
bol	-10.5696
▁mengin	-10.5704
letakkan	-10.5715
indah	-10.5723
kot	-10.5725
▁tampil	-10.5744
▁seper	-10.5745
V	-10.5747
▁Cukup	-10.5758
▁Peneliti	-10.5758
▁Perubahan	-10.5758
▁kolega	-10.5758
▁menyimpulkan	-10.5758
▁pertandingan	-10.5758
▁kriminal	-10.5758
▁menembak	-10.5758
-21	-10.5758
▁Semak	-10.5758
▁dramatis	-10.5758
▁menteri	-10.5758
▁ledakan	-10.5759
▁Kristen	-10.5759
▁pakar	-10.5759
▁konyol	-10.576
pegang	-10.576
▁ternak	-10.5761
▁Lagi	-10.5763
▁Mala	-10.5763
▁arus	-10.5764
▁pemu	-10.5767
▁beda	-10.5767
▁1950	-10.577
njangan	-10.5784
acun	-10.5788
▁beroperasi	-10.5791
debat	-10.5791
layang	-10.5792
▁mempelajarinya	-10.5804
▁sab	-10.5812
hamil	-10.5819
barkan	-10.5826
▁motivasi	-10.5829
20	-10.5832
▁pukul	-10.5846
pak	-10.5862
▁undang	-10.587
pori	-10.5876
▁membacanya	-10.5888
urusan	-10.5893
susun	-10.5915
saing	-10.5918
mah	-10.5924
▁ideal	-10.5938
▁memperbaikinya	-10.594
sekolah	-10.5943
▁setempat	-10.5959
▁196	-10.5963
istirahat	-10.5971
▁Palestin	-10.5971
▁berdampak	-10.5971
▁berteriak	-10.5971
▁penyimpanan	-10.5971
▁skenario	-10.5971
prioritas	-10.5971
▁terdekat	-10.5971
▁sasaran	-10.5971
lampau	-10.5971
▁rapat	-10.5971
▁Thom	-10.5971
oskop	-10.5971
▁tolong	-10.5971
▁kontrak	-10.5971
mil	-10.5972
▁malaria	-10.5972
▁lurus	-10.5972
▁LSM	-10.5972
▁kelainan	-10.5973
▁Francis	-10.5973
▁balon	-10.5974
▁landas	-10.5974
▁par	-10.5975
kemuka	-10.5976
▁seratus	-10.5978
▁gabungan	-10.5978
mayan	-10.5981
ual	-10.5983
bulan	-10.5983
benci	-10.5984
kontribusi	-10.5987
net	-10.5989
SD	-10.5989
hewan	-10.599
aw	-10.599
▁menahan	-10.5994
▁kegunaan	-10.6
▁pecah	-10.6001
▁studio	-10.6002
luk	-10.6005
▁utamanya	-10.6019
tkan	-10.6024
pikirkan	-10.6029
pilih	-10.6046
mm	-10.6058
angkat	-10.606
▁seolah	-10.6074
akkan	-10.6091
anjak	-10.6131
▁mendekat	-10.6138
▁Mer	-10.6141
ida	-10.6148
omor	-10.6169
rawat	-10.6177
tahan	-10.6183
alisasi	-10.6185
▁Amazon	-10.6188
▁keterbatasan	-10.6188
▁lelucon	-10.6188
▁punggung	-10.6188
▁menembus	-10.6188
lestari	-10.6188
▁pencerahan	-10.6188
▁secepat	-10.6188
▁perbandingan	-10.6188
▁diinginkan	-10.6189
▁balita	-10.6189
▁kutipan	-10.6189
▁melacak	-10.6189
▁detail	-10.6189
▁panah	-10.6189
▁Martin	-10.6189
▁pendukung	-10.619
kecil	-10.6191
▁Data	-10.6193
getar	-10.6194
esis	-10.6194
▁Sebab	-10.6195
nduk	-10.6198
ski	-10.6202
▁panti	-10.6203
ungkan	-10.6203
▁Mary	-10.6204
▁kas	-10.6204
▁terduga	-10.6206
program	-10.6208
▁realitas	-10.6209
muncul	-10.6212
film	-10.6213
angkut	-10.6217
▁Lang	-10.6218
▁Pari	-10.6227
dai	-10.6227
baliknya	-10.623
ambing	-10.6233
▁Gal	-10.624
▁mendatangi	-10.6271
din	-10.6275
▁tampilan	-10.6277
▁Ale	-10.6281
▁600	-10.6283
▁pasang	-10.629
ona	-10.6303
alur	-10.6305
odi	-10.6305
hadirin	-10.6315
puluh	-10.6317
rancis	-10.632
▁pemberi	-10.6322
fer	-10.6323
luas	-10.6327
▁Sal	-10.6357
▁pas	-10.6369
▁dibentuk	-10.6371
keluarkan	-10.6397
▁danau	-10.6406
▁Taliban	-10.6411
▁antariksa	-10.6411
▁intelektual	-10.6411
▁korteks	-10.6411
▁menghalangi	-10.6411
▁merencanakan	-10.6411
▁koneksi	-10.6411
▁menjatuhkan	-10.6411
▁pencapaian	-10.6411
▁perjuangan	-10.6411
▁sejati	-10.6411
▁Seluruh	-10.6411
▁diukur	-10.6411
ekat	-10.6411
▁Robert	-10.6411
▁panel	-10.6411
▁prajurit	-10.6411
▁surga	-10.6411
▁kelebihan	-10.6411
▁kepingan	-10.6412
▁pendengar	-10.6412
▁Titan	-10.6412
▁menyelam	-10.6412
▁balok	-10.6412
▁pipa	-10.6412
▁kolam	-10.6413
▁dorongan	-10.6413
▁kilo	-10.6413
▁tipe	-10.6414
▁mendidik	-10.6416
▁etika	-10.6419
▁perdebat	-10.6419
▁Guru	-10.6421
▁menetapkan	-10.6425
tang	-10.6427
campur	-10.6433
▁KB	-10.6435
tahap	-10.6438
janji	-10.6439
makna	-10.644
▁aste	-10.6443
▁berlalu	-10.6456
macam	-10.6459
▁terpengaruh	-10.6461
alang	-10.6462
ceritakan	-10.6479
kumpulkan	-10.6496
▁Sel	-10.6501
▁Con	-10.651
sing	-10.652
▁dibagi	-10.6521
hadapi	-10.6535
▁sesama	-10.6536
tion	-10.6537
king	-10.6538
pati	-10.654
ment	-10.6544
mbar	-10.655
tre	-10.655
▁pembunuh	-10.6559
▁Belan	-10.6567
▁duga	-10.6582
▁For	-10.6586
tukar	-10.6588
▁menyerah	-10.6598
lalu	-10.6621
tivitas	-10.6637
▁Italia	-10.6638
▁Richard	-10.6638
▁memukul	-10.6638
▁mengontrol	-10.6638
▁penyanyi	-10.6638
▁privasi	-10.6638
▁triliun	-10.6638
▁antarmuka	-10.6638
▁bersinar	-10.6638
▁lembut	-10.6638
▁protes	-10.6638
▁Frank	-10.6638
monitor	-10.6638
▁perbaikan	-10.6638
▁lusin	-10.6638
dominasi	-10.6639
▁lapar	-10.6639
▁laser	-10.6639
bayar	-10.6639
▁membebaskan	-10.664
▁tato	-10.664
▁digambarkan	-10.664
▁aktor	-10.6642
▁mengucapkan	-10.6643
coret	-10.6643
▁fisikawan	-10.6644
▁Bud	-10.6644
▁membakar	-10.6645
▁penari	-10.6646
▁saksi	-10.6646
▁tutup	-10.6648
▁retin	-10.6648
▁mengikat	-10.665
▁bon	-10.6657
citra	-10.6661
▁ungkap	-10.6669
sisi	-10.6672
▁paru	-10.6672
▁penjelajahan	-10.6686
12	-10.6686
▁penjualan	-10.6692
for	-10.6696
▁sepotong	-10.6697
ipu	-10.67
ation	-10.6703
▁Mobil	-10.6707
potong	-10.6726
▁penghasilan	-10.6728
manfaat	-10.6736
bit	-10.6736
▁mengetahuinya	-10.6737
▁ekonom	-10.6767
▁kejam	-10.6769
▁vo	-10.6769
uhan	-10.6772
bro	-10.6778
▁sekalipun	-10.6793
demonstrasi	-10.6794
rma	-10.6808
sto	-10.6833
▁trans	-10.6842
▁laku	-10.6844
▁personal	-10.6854
ucapkan	-10.6865
▁konsisten	-10.687
▁lezat	-10.687
▁menyiapkan	-10.687
▁origami	-10.687
▁Rumah	-10.687
▁calon	-10.687
▁menghidupkan	-10.687
▁laptop	-10.687
market	-10.687
▁Niger	-10.6871
▁mentah	-10.6871
▁Web	-10.6871
▁kawasan	-10.6871
▁menghubungi	-10.6871
▁panggilan	-10.6872
▁kekeba	-10.6872
▁mengijinkan	-10.6874
▁Kadang	-10.6875
▁Ketiga	-10.6876
erhubungan	-10.6877
▁Nation	-10.6878
▁tamu	-10.688
baring	-10.688
▁Rio	-10.688
▁menilai	-10.688
▁pita	-10.6885
kasar	-10.6894
inci	-10.6894
rd	-10.6895
▁terancam	-10.6895
▁sesi	-10.6902
▁hukuman	-10.6905
dua	-10.6909
▁Du	-10.691
pertanyaan	-10.691
▁kredit	-10.6911
▁konsumsi	-10.6911
karya	-10.6914
▁Kev	-10.6915
▁Gela	-10.692
▁bermula	-10.6929
▁Mesin	-10.6931
ncang	-10.6936
anggapan	-10.6939
▁Halo	-10.6939
pot	-10.694
lintas	-10.694
aza	-10.6953
tual	-10.6959
pasang	-10.6959
▁matanya	-10.6966
nter	-10.697
▁pengg	-10.6975
enang	-10.6978
▁pahami	-10.6989
dalam	-10.7016
uck	-10.7024
▁penderita	-10.7024
▁cair	-10.7026
▁menutupi	-10.703
▁kagum	-10.7036
▁omong	-10.7036
ack	-10.7037
▁Ab	-10.7039
unggul	-10.7052
ungan	-10.7055
▁Ve	-10.7068
uaskan	-10.7086
sida	-10.7086
ble	-10.7093
▁adonan	-10.7109
▁bersepeda	-10.7109
▁hendak	-10.7109
▁kehabisa	-10.7109
▁konsumen	-10.7109
▁liberal	-10.7109
▁menuntut	-10.7109
▁penerapan	-10.7109
▁persetujuan	-10.7109
▁sandwich	-10.7109
▁suasana	-10.7109
▁mengkhawatirkan	-10.7109
▁persentase	-10.7109
ekuensi	-10.7109
▁wartawa	-10.7109
▁kenyamanan	-10.7109
▁Apple	-10.7109
▁Sering	-10.7109
▁spektrum	-10.7109
▁petualangan	-10.7109
▁transformasi	-10.7109
▁kandungan	-10.711
▁ajaran	-10.711
▁klik	-10.7116
▁nir	-10.7117
▁label	-10.7119
▁karyawan	-10.7121
▁Buku	-10.7122
▁Es	-10.7126
lelah	-10.7152
menerus	-10.7153
▁Tom	-10.7155
rasa	-10.7163
wis	-10.7176
lot	-10.7176
▁induk	-10.7178
▁diingat	-10.7178
sungguh	-10.7182
omi	-10.7183
▁je	-10.7184
▁Katakan	-10.7189
▁pembunuhan	-10.7198
▁w	-10.7203
val	-10.7206
▁mengha	-10.7207
rid	-10.7207
▁mewujudkan	-10.7214
cerah	-10.7234
▁kalah	-10.7246
yang	-10.7252
kton	-10.7256
▁kesan	-10.7273
▁medi	-10.7277
banyak	-10.7288
▁dipilih	-10.7292
haru	-10.7293
ect	-10.7296
▁genetika	-10.7306
▁65	-10.7309
eaksi	-10.731
duh	-10.7312
▁Mil	-10.7319
▁Lim	-10.7329
▁Col	-10.7349
▁komputasi	-10.7352
▁Neanderthal	-10.7352
▁Perempuan	-10.7352
▁Vietnam	-10.7352
▁mengumumkan	-10.7352
▁pembuluh	-10.7352
▁pinjaman	-10.7352
▁rezim	-10.7352
▁Tantangan	-10.7352
▁hiburan	-10.7352
▁merayakan	-10.7352
▁pepohonan	-10.7352
▁musisi	-10.7353
▁Film	-10.7353
▁tiang	-10.7353
▁dikerjakan	-10.7353
▁sayur	-10.7353
nzim	-10.7353
▁Jumat	-10.7354
ondasi	-10.7355
▁Bulan	-10.7356
cap	-10.7356
▁mengizinkan	-10.7357
▁pengadilan	-10.7359
▁dada	-10.7359
integrasi	-10.7361
▁36	-10.7366
▁peti	-10.7371
kut	-10.7374
▁bir	-10.7383
▁sempit	-10.739
aba	-10.7394
ice	-10.7396
bunyi	-10.7397
ED	-10.74
saudara	-10.7403
mobil	-10.7404
organisasi	-10.7405
tir	-10.7407
pula	-10.7407
Y	-10.741
▁sembuh	-10.741
ev	-10.741
▁pengamatan	-10.7412
gak	-10.7421
keras	-10.7426
rong	-10.7461
▁No	-10.7466
▁kala	-10.7486
▁menjualnya	-10.7511
▁kemana	-10.7524
▁masukan	-10.7561
etis	-10.7565
▁Ap	-10.7566
ajikan	-10.7566
▁inci	-10.7566
▁janji	-10.7571
▁neuro	-10.7576
rem	-10.7582
hakim	-10.7594
hentikan	-10.7597
▁Angeles	-10.7602
▁Global	-10.7602
▁Tasmania	-10.7602
▁drastis	-10.7602
▁entropi	-10.7602
▁fundamental	-10.7602
▁habitat	-10.7602
▁keberanian	-10.7602
▁kehancuran	-10.7602
▁kelangsungan	-10.7602
▁konservatif	-10.7602
▁pemukiman	-10.7602
▁penampilan	-10.7602
terjemahkan	-10.7602
▁Beliau	-10.7602
▁Gates	-10.7602
▁penampungan	-10.7602
▁potret	-10.7602
▁berkunjung	-10.7602
▁meminjam	-10.7602
▁permanen	-10.7602
▁perantara	-10.7602
terlambat	-10.7603
▁dinamis	-10.7603
▁orbit	-10.7603
▁patung	-10.7603
▁cuci	-10.7603
▁Model	-10.7603
▁Hai	-10.7603
perkosa	-10.7603
▁basis	-10.7603
▁kebohongan	-10.7603
▁singa	-10.7603
▁CEO	-10.7603
▁hotel	-10.7603
▁konvensi	-10.7603
▁kacamata	-10.7604
▁wadah	-10.7604
kecewa	-10.7604
▁tiram	-10.7604
▁detekt	-10.7606
▁Bang	-10.7606
damping	-10.7606
cumi	-10.7608
▁peserta	-10.7608
didik	-10.7609
lukan	-10.761
▁2004	-10.7613
▁pengaturan	-10.7624
sey	-10.7627
hu	-10.7636
▁roket	-10.7641
▁real	-10.7642
malukan	-10.7642
gemuk	-10.7645
▁bersiap	-10.7645
▁Mc	-10.7646
▁pras	-10.7646
▁asih	-10.7647
▁tari	-10.7656
demikian	-10.766
gedung	-10.7661
limpah	-10.7664
▁susu	-10.7674
▁menunjukan	-10.7682
dopsi	-10.7684
▁bab	-10.7688
ulu	-10.7701
tahuan	-10.7708
rin	-10.7747
isu	-10.7751
▁lupakan	-10.7759
dana	-10.7762
kaya	-10.777
gos	-10.7772
▁penemu	-10.7775
globalisasi	-10.7782
▁band	-10.779
▁Hom	-10.7797
▁Gra	-10.78
▁to	-10.7828
▁rel	-10.7829
▁menyu	-10.783
▁letak	-10.7837
▁antib	-10.7838
paduan	-10.7845
▁buang	-10.7848
▁World	-10.7859
soft	-10.7859
▁alkohol	-10.7859
▁keberhasilan	-10.7859
▁kromosom	-10.7859
▁mencuci	-10.7859
▁pengakuan	-10.7859
▁pengeluaran	-10.7859
▁tertinggal	-10.7859
▁menyalurkan	-10.7859
▁Gunung	-10.7859
▁ekstra	-10.7859
▁perekonomian	-10.7859
▁kelambu	-10.7859
gugur	-10.7859
▁Saturn	-10.7859
▁diberitahu	-10.7859
▁Singa	-10.7859
▁dialami	-10.7859
▁cadang	-10.786
▁bambu	-10.7861
▁melipat	-10.7861
sit	-10.7861
▁Saud	-10.7862
▁Suci	-10.7862
▁Jalan	-10.7865
hur	-10.7865
wenang	-10.7868
▁terwujud	-10.7868
▁pendiri	-10.7869
▁Kapan	-10.7874
▁26	-10.7874
ehidupan	-10.7877
jari	-10.7878
▁kaku	-10.7882
eka	-10.7889
▁penyebabnya	-10.7894
▁And	-10.7898
duga	-10.7907
bayangkan	-10.7921
terlibat	-10.7923
▁survei	-10.793
▁orangtua	-10.7931
old	-10.7935
▁menekankan	-10.7939
dekatan	-10.7966
▁penis	-10.7971
jual	-10.7985
▁memp	-10.7991
▁peroleh	-10.8009
alangan	-10.8014
ew	-10.8018
lau	-10.8019
fon	-10.8026
erry	-10.8027
jaga	-10.8032
nasihat	-10.8038
▁syarat	-10.8042
▁darat	-10.8048
tembak	-10.8055
▁psikolog	-10.8062
urat	-10.8083
▁Yaman	-10.8085
▁dewa	-10.8102
deteksi	-10.8113
▁rak	-10.8116
ungai	-10.8118
esehatan	-10.8119
omputer	-10.8119
▁MIT	-10.8122
▁abstrak	-10.8122
▁celana	-10.8122
▁lutut	-10.8122
▁menabrak	-10.8122
▁mencakup	-10.8122
▁tercipta	-10.8122
▁memunculkan	-10.8122
▁mengobati	-10.8122
▁menyarankan	-10.8122
▁trauma	-10.8122
▁volume	-10.8122
▁Empat	-10.8122
sunyi	-10.8122
▁simulasi	-10.8122
▁menebak	-10.8122
▁berdoa	-10.8123
▁menyingkirkan	-10.8123
▁nasib	-10.8123
▁terobos	-10.8123
▁insul	-10.8123
▁paten	-10.8123
▁kosm	-10.8123
▁mengurus	-10.8124
▁mempertanyakan	-10.8124
▁gras	-10.8124
gawat	-10.8124
▁pilot	-10.8124
▁pengganti	-10.8125
▁Juni	-10.8125
▁optik	-10.8125
▁mengaktifkan	-10.8126
elanggar	-10.8131
▁menyewa	-10.8132
▁Min	-10.8133
▁cita	-10.8134
▁izin	-10.8135
enghibur	-10.8138
▁Bono	-10.8141
ino	-10.8143
▁Kat	-10.8151
▁lompat	-10.8152
▁peranan	-10.8163
▁dibawah	-10.8165
▁jelek	-10.8166
▁no	-10.8167
▁Chic	-10.817
▁astronomi	-10.8192
ujung	-10.8193
tanda	-10.8199
ketika	-10.8199
▁didengar	-10.8208
ektar	-10.821
▁nutrisi	-10.8212
▁perteng	-10.8233
▁ind	-10.8237
gung	-10.8237
rator	-10.824
siap	-10.824
garis	-10.8242
zhe	-10.8244
▁gerak	-10.8246
▁lumba	-10.8263
▁menunjuk	-10.8268
▁diperkirakan	-10.827
▁sal	-10.8282
▁dibuang	-10.8282
the	-10.8292
▁tele	-10.8304
uel	-10.8311
▁memba	-10.8327
▁lintasan	-10.8332
tos	-10.8337
yo	-10.8341
▁demokratis	-10.8342
gerak	-10.8351
▁kha	-10.8354
▁benci	-10.8371
ood	-10.8371
▁dara	-10.8373
tentangan	-10.8376
pikir	-10.8385
▁Indus	-10.8392
▁naluri	-10.8392
diagnosa	-10.8392
enkripsi	-10.8392
▁YouTube	-10.8392
▁bersyukur	-10.8392
▁menyembunyikan	-10.8392
▁merangkul	-10.8392
▁pemulihan	-10.8392
▁pengujian	-10.8392
▁tragedi	-10.8392
▁Penyakit	-10.8392
▁bebek	-10.8392
▁pameran	-10.8392
▁pergeseran	-10.8392
▁Pusat	-10.8392
▁mesti	-10.8392
▁Buddh	-10.8392
▁minat	-10.8393
▁ilegal	-10.8393
▁dijelaskan	-10.8393
▁memanen	-10.8393
▁bahu	-10.8393
huni	-10.8394
▁yayasan	-10.8394
▁detil	-10.8394
▁liburan	-10.8394
igma	-10.8395
▁ikon	-10.8395
obo	-10.8396
mabuk	-10.8396
▁foi	-10.8396
▁Carl	-10.8396
▁membenci	-10.8397
▁terlatih	-10.8398
▁narasi	-10.8398
▁tali	-10.84
▁disebar	-10.8402
▁mengolah	-10.8404
▁sumbang	-10.8406
▁Bell	-10.8407
▁II	-10.8407
reformasi	-10.8408
▁tarik	-10.8413
▁bal	-10.8416
▁puas	-10.842
rktik	-10.8426
eda	-10.8426
untung	-10.8427
sahkan	-10.8435
adu	-10.845
bati	-10.8454
▁dioksida	-10.8457
▁Pat	-10.8465
kunang	-10.8469
kerja	-10.8474
▁dihadap	-10.8488
▁dini	-10.8494
saingan	-10.8501
andal	-10.8504
ender	-10.8521
▁ne	-10.8522
resi	-10.8527
▁jamin	-10.8535
▁niat	-10.8535
air	-10.8538
▁ragu	-10.8542
▁sil	-10.8549
mor	-10.855
▁semen	-10.8552
▁terbe	-10.856
dot	-10.8563
tidaknya	-10.8565
▁win	-10.8574
buang	-10.8585
imba	-10.8587
PA	-10.8588
▁Inti	-10.8595
▁geneti	-10.8597
▁Ye	-10.8607
▁fleksib	-10.861
asar	-10.8613
batu	-10.8614
▁diab	-10.8614
cit	-10.8617
atahari	-10.8635
▁pelan	-10.8635
▁mula	-10.8638
▁Tes	-10.8644
▁menyusu	-10.8647
rup	-10.8648
uap	-10.8653
▁jurnal	-10.866
our	-10.8664
▁195	-10.8669
osfer	-10.8669
andidat	-10.867
▁Aristoteles	-10.867
▁Institut	-10.867
▁animasi	-10.867
▁diluncurkan	-10.867
▁leluhur	-10.867
▁memelihara	-10.867
▁miselium	-10.867
▁orkestra	-10.867
▁penguasa	-10.867
▁sensitif	-10.867
khotbah	-10.867
▁pembaca	-10.867
▁teliti	-10.867
▁Beij	-10.867
▁pisau	-10.867
▁tewas	-10.867
▁menjamin	-10.867
▁mitos	-10.867
▁kakak	-10.867
▁bersikap	-10.867
▁bendera	-10.867
▁menyalahkan	-10.867
▁menyembuhkan	-10.8671
kupu	-10.8671
▁mendaftar	-10.8671
▁Jelas	-10.8671
▁variasi	-10.8671
▁mekanik	-10.8671
welas	-10.8671
▁Berikut	-10.8671
▁memesan	-10.8671
▁tegak	-10.8671
▁pengambil	-10.8672
▁Nick	-10.8672
▁kampung	-10.8672
▁susunan	-10.8672
▁tipis	-10.8673
▁aset	-10.8673
okong	-10.8674
▁Wei	-10.8675
▁menerang	-10.8676
▁terpikir	-10.8677
▁pandai	-10.8681
▁mengharapkan	-10.8683
▁piring	-10.8688
gerakkan	-10.8689
▁menyumbang	-10.8695
▁potensial	-10.8696
▁bri	-10.8697
aian	-10.8698
▁abu	-10.8708
ity	-10.8711
warna	-10.8711
ifikasi	-10.8718
▁kristal	-10.8722
obat	-10.8725
etik	-10.8745
ture	-10.8746
belok	-10.8748
atar	-10.8748
manusia	-10.8749
▁ombak	-10.8751
syarat	-10.8754
kagum	-10.8756
bisnis	-10.8757
teknologi	-10.8757
hubungkan	-10.8757
omong	-10.8758
▁bantu	-10.8759
bahagia	-10.8768
urut	-10.8783
▁beranta	-10.8808
▁du	-10.881
▁mala	-10.8816
pon	-10.8822
▁menyimpannya	-10.8828
▁nafas	-10.8829
▁32	-10.8831
▁mewujudkannya	-10.8831
▁Nor	-10.8852
angkan	-10.8867
▁memberitahukan	-10.8869
▁ijin	-10.8879
▁kawan	-10.8885
▁Swi	-10.8889
vil	-10.8892
▁nu	-10.8904
▁laman	-10.8904
ater	-10.8909
gila	-10.8931
▁sutra	-10.8952
tanam	-10.8953
▁mekanis	-10.8954
▁Ilmu	-10.8954
▁Sha	-10.8955
▁Tolong	-10.8956
▁dibicarakan	-10.8956
▁ekspedisi	-10.8956
▁kemakmuran	-10.8956
▁kurikulum	-10.8956
▁matematis	-10.8956
▁mengawasi	-10.8956
▁metabolisme	-10.8956
▁penumpang	-10.8956
▁pokok	-10.8956
▁Proses	-10.8956
▁diprediksi	-10.8956
▁imbalan	-10.8956
que	-10.8956
▁Menteri	-10.8956
▁melarikan	-10.8956
▁perjanjian	-10.8956
▁jejaring	-10.8956
▁lenyap	-10.8956
▁persoalan	-10.8956
▁Pernah	-10.8956
▁Tiba	-10.8956
▁bandara	-10.8956
▁Keluarga	-10.8956
▁penangkap	-10.8957
▁mempercepat	-10.8958
▁Josh	-10.8958
▁tambang	-10.8958
▁Media	-10.8959
▁membatasi	-10.8959
▁digabungkan	-10.896
wakan	-10.896
▁mencatat	-10.8961
▁hitungan	-10.8961
vensi	-10.8962
▁mengeksplorasi	-10.8963
libur	-10.8965
▁beton	-10.8969
▁sore	-10.897
▁Mark	-10.897
▁mengantarkan	-10.8982
▁dewan	-10.8994
eteran	-10.8998
▁kain	-10.9002
▁berkali	-10.9003
▁Star	-10.9007
▁ala	-10.9009
▁berangkat	-10.9015
▁kembar	-10.9019
CD	-10.9019
tch	-10.9022
ark	-10.9025
toleransi	-10.9029
▁debu	-10.9031
odo	-10.9038
etas	-10.9044
tawa	-10.9044
mesin	-10.9052
toko	-10.9052
desain	-10.9054
ple	-10.9059
mengidentifikasi	-10.9063
▁Mei	-10.9069
ence	-10.9082
ray	-10.909
kabel	-10.9092
▁nye	-10.9097
▁lumpu	-10.9107
ode	-10.911
hatt	-10.9113
bilitas	-10.9122
berat	-10.9122
▁mengatasinya	-10.9124
operasi	-10.9136
wajar	-10.9137
AM	-10.9158
▁Adam	-10.9162
▁pelajar	-10.9179
▁Ent	-10.9191
▁Peny	-10.9206
vel	-10.9217
netra	-10.9222
entukan	-10.923
rentang	-10.9239
▁Biar	-10.9241
▁sejenisnya	-10.925
▁Partai	-10.925
▁frustrasi	-10.925
▁kerumunan	-10.925
▁komersial	-10.925
▁menerbangkan	-10.925
▁pemindai	-10.925
▁penerbit	-10.925
▁pengendara	-10.925
▁pidato	-10.925
▁properti	-10.925
▁prosedur	-10.925
▁Hawaii	-10.925
▁mendokumentasi	-10.925
▁jagung	-10.925
▁prediksi	-10.925
▁Perbedaan	-10.925
▁seimbang	-10.925
telanjang	-10.925
▁sulap	-10.925
Undang	-10.925
-19	-10.925
pulih	-10.925
▁grafis	-10.925
▁logis	-10.925
▁dibaca	-10.925
▁fantastis	-10.925
▁reflek	-10.925
▁penghalang	-10.925
▁liter	-10.925
malia	-10.925
▁dirasakan	-10.9251
▁menyerap	-10.9251
▁pasif	-10.9251
▁fiksi	-10.9252
▁kuasa	-10.9253
▁Liber	-10.9254
▁Kepula	-10.9255
▁lawan	-10.9255
▁2006	-10.9259
▁Bersama	-10.9263
▁balap	-10.9268
▁kru	-10.9271
nam	-10.9271
▁Poli	-10.9275
▁mengulangi	-10.928
▁martabat	-10.9283
pakaian	-10.9284
ound	-10.9294
▁dilatih	-10.9298
▁SS	-10.9305
▁bahas	-10.9306
skala	-10.9312
ngka	-10.9318
▁kampus	-10.9319
spe	-10.933
sb	-10.9337
▁semata	-10.9349
▁tra	-10.9353
pendar	-10.9353
proyek	-10.9354
▁respon	-10.9362
depan	-10.9363
ou	-10.9371
▁tanam	-10.9374
gali	-10.9378
perkirakan	-10.9386
epsi	-10.9391
jatuh	-10.9395
lori	-10.9408
pandang	-10.9408
enam	-10.9411
▁Her	-10.9412
▁bakat	-10.9419
edera	-10.9421
uc	-10.9434
▁tol	-10.9452
▁kunang	-10.9468
ijau	-10.9471
▁Yu	-10.948
mografi	-10.9484
▁Jim	-10.9498
datangan	-10.9501
▁meliput	-10.9502
lim	-10.9511
alisme	-10.9512
bangkitan	-10.952
▁gangg	-10.9527
olo	-10.9541
▁sepak	-10.9546
ibu	-10.9549
▁buka	-10.9551
▁resisten	-10.9553
negosiasi	-10.9553
▁Oktober	-10.9553
▁bijaksana	-10.9553
▁disiplin	-10.9553
▁filter	-10.9553
▁menyelidiki	-10.9553
▁pendingin	-10.9553
▁pompa	-10.9553
▁signifikan	-10.9553
brutal	-10.9553
▁pembuangan	-10.9553
▁tercepat	-10.9553
▁direktur	-10.9553
▁memerangi	-10.9553
▁kepribadian	-10.9553
jenius	-10.9553
▁asuhan	-10.9553
▁tinta	-10.9553
▁novel	-10.9553
▁segitiga	-10.9553
▁ciri	-10.9554
▁sandi	-10.9554
▁memperhitungkan	-10.9554
▁Bayi	-10.9554
bintik	-10.9554
▁ular	-10.9554
▁taruh	-10.9554
▁mengkonsumsi	-10.9554
▁Charl	-10.9554
▁menganalisis	-10.9555
▁pemberontak	-10.9555
▁kerajaan	-10.9555
mitra	-10.9555
▁lembaran	-10.9556
▁mengilhami	-10.9556
▁memperlakukan	-10.9556
▁gelas	-10.9557
▁elit	-10.9557
▁timbul	-10.9557
▁membran	-10.9558
▁basah	-10.956
▁oke	-10.956
▁kutu	-10.956
▁bijak	-10.9561
rekan	-10.9563
▁terganggu	-10.9563
izinkan	-10.9565
emancing	-10.9566
curiga	-10.9567
asiswa	-10.9574
▁Tunggu	-10.9574
▁menerapkannya	-10.9574
imer	-10.9577
sun	-10.958
▁Menjadi	-10.958
▁berbahasa	-10.9581
▁Lama	-10.9583
ajukan	-10.959
pang	-10.9606
▁Mac	-10.9607
rm	-10.9621
▁khas	-10.9621
terikat	-10.9621
pusat	-10.9645
▁didasar	-10.9646
▁berbau	-10.9648
ambi	-10.9651
▁120	-10.9658
▁tebal	-10.966
diskusi	-10.9666
konflik	-10.9666
asumsi	-10.9666
lokasi	-10.9667
tujuan	-10.9667
▁Sp	-10.9667
cocok	-10.9668
▁banjir	-10.9682
▁parad	-10.9684
▁menanamkan	-10.9686
▁terbit	-10.9688
▁kultur	-10.9688
▁liat	-10.969
▁menghadir	-10.9692
heran	-10.9693
▁berhati	-10.9718
▁Art	-10.9732
▁Dew	-10.9737
▁keju	-10.9758
▁tren	-10.9759
tolak	-10.9762
bandingkan	-10.9764
▁Fo	-10.9767
ouse	-10.9775
lm	-10.9777
▁memakannya	-10.9797
▁memer	-10.9802
lepaskan	-10.9809
▁menjelajah	-10.9815
▁melepas	-10.9831
ntara	-10.9833
▁rint	-10.9843
▁urusan	-10.9844
erang	-10.9852
▁Norwegia	-10.9865
▁Smith	-10.9865
▁cuplikan	-10.9865
▁dimengerti	-10.9865
▁ditutup	-10.9865
▁gudang	-10.9865
▁hasrat	-10.9865
▁kantung	-10.9865
▁karakteristik	-10.9865
▁otonom	-10.9865
▁penggemar	-10.9865
▁vertikal	-10.9865
▁Boston	-10.9865
▁lemari	-10.9865
▁pisang	-10.9865
▁internal	-10.9865
▁lembah	-10.9865
▁penguin	-10.9865
▁ultra	-10.9865
gelisah	-10.9866
ritme	-10.9866
▁Republik	-10.9866
belanja	-10.9866
▁menyesal	-10.9866
▁hidrogen	-10.9866
▁server	-10.9866
▁kewajiban	-10.9866
ollywo	-10.9866
▁dibuka	-10.9866
▁rutin	-10.9866
▁ketahanan	-10.9866
▁mengekspresik	-10.9867
▁departemen	-10.9867
▁beritahu	-10.9867
▁produktivitas	-10.9868
▁Kiri	-10.9868
▁menempuh	-10.9868
▁benak	-10.9869
▁membeku	-10.9869
▁manual	-10.9869
▁laga	-10.987
▁pagar	-10.9871
▁jangkauan	-10.9871
▁Babi	-10.9872
▁mengunduh	-10.9872
▁Harus	-10.9877
▁kamp	-10.9878
▁spon	-10.9878
▁Agar	-10.9881
hop	-10.9884
wasan	-10.9889
gaji	-10.989
▁mengetik	-10.9894
▁sejuta	-10.9895
▁Nord	-10.9899
▁elektron	-10.9901
▁membesarkan	-10.9903
catat	-10.9907
▁keragu	-10.9912
▁dialog	-10.9913
▁terpa	-10.9915
lima	-10.9922
▁diatur	-10.9924
▁kedalaman	-10.9925
▁berdua	-10.9931
ick	-10.9931
▁rincian	-10.9935
▁menempelkan	-10.9935
▁sistemati	-10.9948
produk	-10.9982
▁blok	-10.9984
konstruksi	-10.9988
sahabat	-10.9988
struktur	-10.9989
potensi	-10.9989
▁berjam	-11.0005
etapa	-11.0018
▁kolaborasi	-11.0018
kulit	-11.002
gera	-11.0024
q	-11.0026
▁She	-11.0032
▁sim	-11.0044
lor	-11.0065
▁peka	-11.0066
ald	-11.0074
ping	-11.0085
▁Wall	-11.0092
aktifkan	-11.0116
sankan	-11.0117
▁jaga	-11.0127
▁dengarkan	-11.0134
▁Angkat	-11.0139
▁Wah	-11.0156
▁imigra	-11.0159
▁jual	-11.016
▁mengand	-11.0168
ediakan	-11.0169
▁debat	-11.0172
minasi	-11.0177
▁manaje	-11.0181
engetahuan	-11.0184
orientasi	-11.0188
pedulian	-11.0188
saudari	-11.0188
▁Kelompok	-11.0188
▁filosofi	-11.0188
▁helikopter	-11.0188
▁kesukaan	-11.0188
▁memanjat	-11.0188
▁pencegahan	-11.0188
▁primitif	-11.0188
▁antena	-11.0188
▁butiran	-11.0188
▁cincin	-11.0188
▁klien	-11.0188
▁mencair	-11.0188
▁mewawancarai	-11.0188
▁momentum	-11.0188
▁pengirim	-11.0188
▁Perhatikan	-11.0188
▁bioluminesens	-11.0188
▁kemenangan	-11.0188
▁mendaki	-11.0188
dinamika	-11.0188
▁etnis	-11.0188
▁kesedihan	-11.0188
asjid	-11.0188
▁kerugian	-11.0188
▁hipotes	-11.0188
▁pengurang	-11.0188
hayati	-11.0188
▁janin	-11.0188
▁keselamatan	-11.0188
▁Gandhi	-11.0189
▁Leonard	-11.0189
▁Brian	-11.0189
▁kelemahan	-11.0189
▁transisi	-11.0189
encangkok	-11.0189
▁kesatuan	-11.0189
▁saham	-11.0189
▁Jauh	-11.019
▁menelusur	-11.019
▁Charles	-11.0191
▁memat	-11.0191
payah	-11.0191
▁rute	-11.0191
▁kadar	-11.0191
▁ten	-11.0192
▁Kali	-11.0193
▁Brit	-11.0194
▁asap	-11.0195
▁mengacu	-11.0195
▁Peter	-11.0197
▁open	-11.0197
▁penyelamat	-11.0199
▁moralitas	-11.02
ruang	-11.02
juang	-11.0202
aster	-11.0204
elalui	-11.0204
▁plas	-11.0205
arapan	-11.0207
▁ideologi	-11.0208
▁logo	-11.0208
▁MT	-11.0208
nasional	-11.0213
jelas	-11.0214
osok	-11.0215
▁penyu	-11.0216
migrasi	-11.0217
kandung	-11.0219
bantu	-11.0221
▁kesana	-11.0222
yasan	-11.0222
▁bertumbuh	-11.0223
▁Island	-11.0226
▁200.000	-11.0234
▁250	-11.024
▁praktek	-11.0245
▁beku	-11.0249
▁biak	-11.0254
▁int	-11.0254
adang	-11.0254
▁Bali	-11.0258
pengaruhi	-11.0265
rter	-11.0266
▁teringat	-11.0267
▁Wo	-11.0271
pisah	-11.0274
▁Nik	-11.0282
▁kawanan	-11.0285
ijinkan	-11.0289
▁Pers	-11.0292
▁Um	-11.0296
▁You	-11.0304
▁membu	-11.0309
▁dipaksa	-11.0311
▁pengukur	-11.0311
uruh	-11.0318
contoh	-11.0323
konsentrasi	-11.0323
dahulu	-11.0324
kering	-11.0333
▁Mad	-11.0337
▁bulat	-11.0338
▁tema	-11.0339
muda	-11.035
▁merk	-11.0356
ilangan	-11.0359
▁patah	-11.036
▁Musi	-11.0365
model	-11.0365
andang	-11.0367
ilang	-11.037
dong	-11.0372
▁ditanam	-11.0384
▁Mela	-11.0393
ajar	-11.0404
▁metan	-11.0409
▁tabungan	-11.0425
pung	-11.0427
▁Mata	-11.044
otik	-11.0446
▁gemuk	-11.0449
▁berf	-11.045
reng	-11.0452
▁Bal	-11.0459
serang	-11.0459
cemar	-11.0463
▁Maha	-11.0497
▁tingka	-11.0498
▁Masa	-11.0499
▁Net	-11.0507
panggil	-11.052
perlihatkan	-11.052
epartemen	-11.052
▁purba	-11.0521
▁Bitcoin	-11.0521
▁Sedikit	-11.0521
▁Wikipedia	-11.0521
▁instruksi	-11.0521
▁khayalan	-11.0521
▁menaikkan	-11.0521
▁mengakses	-11.0521
▁pengelola	-11.0521
▁tengkorak	-11.0521
▁terjangkit	-11.0521
▁Earth	-11.0521
▁Sejarah	-11.0521
▁bertaruh	-11.0521
▁mendesak	-11.0521
▁ucapan	-11.0521
▁Yesus	-11.0521
▁penawar	-11.0521
▁memuat	-11.0521
▁Agust	-11.0521
▁Awal	-11.0521
▁ladang	-11.0521
▁konstan	-11.0521
▁pembeli	-11.0521
▁payung	-11.0522
▁perkataan	-11.0522
▁Program	-11.0523
▁amal	-11.0523
goyang	-11.0523
▁pejabat	-11.0524
▁terkes	-11.0524
▁hiper	-11.0524
▁mendefinisikan	-11.0525
▁sentuhan	-11.0525
▁agenda	-11.0525
▁kenangan	-11.0526
▁mutu	-11.0526
▁pewarna	-11.0527
▁pound	-11.0527
▁West	-11.0529
▁Bob	-11.0529
▁Ford	-11.0531
▁Sam	-11.0533
▁Pho	-11.0533
▁Park	-11.0534
lpha	-11.0534
▁esok	-11.0535
▁Bron	-11.0536
▁Buat	-11.0541
▁33	-11.0543
▁PR	-11.0548
▁paruh	-11.0549
▁makalah	-11.055
▁jaring	-11.0553
bocor	-11.0558
DP	-11.0566
▁simetris	-11.0567
jawab	-11.0573
pit	-11.0583
▁Yo	-11.0586
▁pengajaran	-11.059
▁cabang	-11.0601
▁kembangkan	-11.0626
▁Sang	-11.0629
▁asa	-11.0629
▁wujud	-11.0635
▁bibi	-11.064
red	-11.0641
▁DR	-11.0643
putus	-11.0654
▁devi	-11.0657
▁ranjang	-11.0664
tidur	-11.0667
erjalanan	-11.0672
▁paksa	-11.0674
▁Ray	-11.0679
sederhana	-11.0683
▁mendasari	-11.069
mbangkan	-11.0696
▁segar	-11.0699
▁poli	-11.0707
hormati	-11.072
perangkat	-11.0723
hasil	-11.0737
hai	-11.0761
▁pembeda	-11.0778
▁pengamat	-11.0782
▁pengembang	-11.0782
▁pelayan	-11.0782
▁ukur	-11.0783
langkah	-11.0793
kurung	-11.0812
▁meme	-11.0815
▁memecah	-11.0826
▁menyatu	-11.0827
▁Allah	-11.0828
▁kontribusi	-11.0843
percaya	-11.0855
,3	-11.0856
▁rambu	-11.0857
desa	-11.0857
hindari	-11.0861
elanjutnya	-11.0861
▁akademis	-11.0863
▁mode	-11.0864
lempar	-11.0865
koordinasi	-11.0866
▁Wolf	-11.0866
▁berkilau	-11.0866
▁cacing	-11.0866
▁dopamin	-11.0866
▁kerumitan	-11.0866
▁melewatkan	-11.0866
▁memotret	-11.0866
▁pizza	-11.0866
imunisasi	-11.0866
▁Cahaya	-11.0866
▁kontras	-11.0866
▁mengutip	-11.0866
jadwal	-11.0866
▁pembayaran	-11.0866
source	-11.0866
▁bercanda	-11.0866
▁menjanjikan	-11.0866
▁kritik	-11.0866
▁bertulis	-11.0866
▁dituju	-11.0866
▁Pasti	-11.0866
asuransi	-11.0866
▁chip	-11.0866
▁klip	-11.0866
sintes	-11.0867
▁Ruang	-11.0867
▁kesederhanaan	-11.0867
▁komposisi	-11.0867
▁seutuhnya	-11.0867
▁Industri	-11.0867
▁mutasi	-11.0868
▁menganalisa	-11.0868
▁kemasan	-11.087
▁akademi	-11.087
▁Membuat	-11.087
▁Usia	-11.087
▁reseptor	-11.087
▁mengusu	-11.0872
▁mainkan	-11.0873
▁Coca	-11.0873
▁mengece	-11.0873
▁95	-11.0876
▁Thai	-11.0877
▁peretas	-11.0877
▁Teman	-11.0879
tantang	-11.0882
▁tersendiri	-11.0882
inggu	-11.0883
ord	-11.0885
▁ali	-11.0888
▁baku	-11.0888
▁Matt	-11.0893
▁mende	-11.0899
▁kanal	-11.09
▁AC	-11.0905
ull	-11.0906
▁pengolahan	-11.0907
ova	-11.0914
▁sarana	-11.0923
silakan	-11.0931
▁mini	-11.0934
▁KA	-11.0935
endam	-11.0941
▁Kim	-11.0941
awak	-11.0951
▁sebulan	-11.0965
volusi	-11.0966
detik	-11.0971
way	-11.0972
lipat	-11.0981
▁gel	-11.0987
nafas	-11.1022
▁dongeng	-11.1028
City	-11.1032
bakat	-11.1032
ragu	-11.1032
peroleh	-11.1036
say	-11.1052
sampai	-11.1068
0,00	-11.1079
▁Roma	-11.109
komp	-11.1114
deng	-11.1116
13	-11.1118
▁akun	-11.1124
▁pemikir	-11.1141
▁penjual	-11.1143
manapun	-11.1149
hancurkan	-11.1169
▁otorit	-11.1173
gat	-11.1176
anggun	-11.118
ayangkan	-11.1195
▁biar	-11.1207
▁ste	-11.1209
perkenalkan	-11.1219
pimpin	-11.1222
presi	-11.1223
▁2011	-11.1223
▁Scott	-11.1223
▁TEDTalk	-11.1223
▁audio	-11.1223
▁kemarahan	-11.1223
▁memulihkan	-11.1223
▁menandatangani	-11.1223
▁menerjemahkan	-11.1223
▁mengagumi	-11.1223
▁prasarana	-11.1223
▁kunjungi	-11.1223
▁meleleh	-11.1223
▁patogen	-11.1223
▁praktik	-11.1223
sentral	-11.1223
▁kunjungan	-11.1223
▁pemadam	-11.1223
▁monster	-11.1223
▁pembuka	-11.1223
▁pengasuh	-11.1223
▁kepemilikan	-11.1223
▁penyusun	-11.1224
▁Sky	-11.1224
▁kebijaksanaan	-11.1224
▁kegembiraan	-11.1224
sensus	-11.1224
▁menumpuk	-11.1224
▁membalas	-11.1224
▁transaksi	-11.1224
▁gampang	-11.1224
▁tautan	-11.1224
▁Nobel	-11.1224
▁pemeriksa	-11.1225
▁selera	-11.1225
▁disukai	-11.1225
▁kerang	-11.1225
▁Valle	-11.1225
▁dipindah	-11.1225
▁pemenang	-11.1226
▁Brun	-11.1226
▁Hukum	-11.1226
▁didirikan	-11.1227
▁ambisius	-11.1227
▁Warna	-11.1227
musnah	-11.1227
▁Indo	-11.1228
▁pemburu	-11.1228
▁bentang	-11.123
▁melarang	-11.1231
embalut	-11.1231
▁Henr	-11.1231
▁mencampur	-11.1232
▁individual	-11.1233
▁Ric	-11.1242
▁kencan	-11.1243
him	-11.1247
▁Kasih	-11.1248
gala	-11.125
▁merata	-11.125
njing	-11.1254
▁penghuni	-11.1267
perbesar	-11.1268
▁membangkit	-11.1269
ware	-11.1276
▁Mau	-11.1294
▁Sq	-11.1296
▁Ratu	-11.1302
tha	-11.1308
rintis	-11.131
▁20.000	-11.1312
▁Pula	-11.1319
putuskan	-11.1321
▁Atlanti	-11.1324
detak	-11.133
isap	-11.1343
▁diatas	-11.1349
kurang	-11.1361
Cola	-11.1369
out	-11.1385
▁cangk	-11.1388
elancar	-11.1394
lakukan	-11.1395
daerah	-11.1395
row	-11.14
burung	-11.1405
rumput	-11.1406
EDI	-11.1438
lahir	-11.1444
▁tawar	-11.1468
▁Iv	-11.1474
▁Mor	-11.1485
▁mal	-11.1486
▁topi	-11.15
▁kirim	-11.1505
ander	-11.1514
kabur	-11.1515
oral	-11.1522
olak	-11.1524
▁bor	-11.153
potongan	-11.1531
enangan	-11.1568
impia	-11.1583
▁konser	-11.1592
▁Cambri	-11.1594
berkesinambungan	-11.1594
eographic	-11.1594
jernih	-11.1594
▁adibusana	-11.1594
▁fisiologi	-11.1594
▁kehadiran	-11.1594
▁memantau	-11.1594
▁memperlambat	-11.1594
▁meyakini	-11.1594
▁penyerbuk	-11.1594
▁projek	-11.1594
▁anatomi	-11.1594
▁prestasi	-11.1594
▁memancarkan	-11.1594
▁menyaring	-11.1594
▁Hubungan	-11.1594
▁tragis	-11.1594
▁rapuh	-11.1594
▁seluler	-11.1594
▁perselingkuhan	-11.1594
▁Desain	-11.1594
▁pertahanan	-11.1594
▁Gedung	-11.1594
▁Gagasan	-11.1594
▁pemisah	-11.1594
▁kepunahan	-11.1595
▁Mich	-11.1595
▁dimainkan	-11.1596
oven	-11.1596
nasehat	-11.1596
▁Count	-11.1596
▁mengunggah	-11.1597
icro	-11.1597
▁kandang	-11.1597
▁usus	-11.1598
▁menginjak	-11.1599
▁Coke	-11.16
▁transparansi	-11.16
▁Rub	-11.1603
▁penyalah	-11.1607
hirup	-11.1608
▁pembersih	-11.1616
kilas	-11.1617
▁Chi	-11.162
▁analogi	-11.1622
▁seragam	-11.1628
▁menandai	-11.1629
▁pop	-11.1642
olera	-11.1649
esiko	-11.165
tempel	-11.1652
cy	-11.1657
▁menuang	-11.1659
▁berbulan	-11.1676
▁mut	-11.1688
luar	-11.1696
▁bata	-11.1711
gunaan	-11.1719
nternasional	-11.172
waktu	-11.172
▁sah	-11.1721
ttg	-11.1721
cel	-11.1728
▁membela	-11.173
▁bertingka	-11.1747
▁cetakan	-11.1753
▁meta	-11.1754
▁Hans	-11.1771
molekul	-11.1779
gadis	-11.1779
makhluk	-11.178
ogen	-11.178
jarak	-11.1787
▁Cal	-11.1791
atu	-11.1796
niat	-11.1801
▁Don	-11.1803
eer	-11.1808
uari	-11.1808
kubur	-11.181
▁konsentrasi	-11.1819
chai	-11.182
avi	-11.1824
▁Gre	-11.1824
intim	-11.1857
▁pengera	-11.1865
dem	-11.1874
▁bajak	-11.1878
▁rinci	-11.1894
salahkan	-11.1897
▁Nov	-11.1904
▁menghadap	-11.1928
uare	-11.1929
kisar	-11.1932
▁Sir	-11.1934
▁membing	-11.1935
erahkan	-11.1952
ulia	-11.197
▁bubu	-11.1976
eleskop	-11.1977
perbaiki	-11.1978
▁Febr	-11.1978
▁Bosnia	-11.1978
▁Masyarakat	-11.1978
▁berinovasi	-11.1978
▁berkualitas	-11.1978
▁dahsyat	-11.1978
▁filantropi	-11.1978
▁iPod	-11.1978
▁instrumen	-11.1978
▁kontradik	-11.1978
▁lift	-11.1978
▁melambat	-11.1978
▁menyeluruh	-11.1978
▁merokok	-11.1978
▁mineral	-11.1978
▁peliharaan	-11.1978
▁penjahat	-11.1978
▁perwakilan	-11.1978
▁rangsangan	-11.1978
▁serpihan	-11.1978
▁terpecah	-11.1978
▁Kekuatan	-11.1978
▁Pendidikan	-11.1978
▁paradoks	-11.1978
tagihan	-11.1978
▁Black	-11.1978
▁skema	-11.1978
▁cyber	-11.1978
▁resolusi	-11.1978
▁mendanai	-11.1978
cukur	-11.1978
▁semalam	-11.1978
▁paket	-11.1978
▁walikota	-11.1978
▁skor	-11.1978
▁garasi	-11.1978
▁Eric	-11.1979
▁Robot	-11.1979
▁kebisingan	-11.1979
▁penerjemah	-11.1979
▁Tampak	-11.1979
▁pembentukan	-11.1979
▁lorong	-11.1979
▁pemberantas	-11.1979
▁sensasi	-11.1979
▁biosfer	-11.1979
kawin	-11.1979
▁ubah	-11.1979
▁gerbang	-11.1979
▁Jeff	-11.1979
▁zat	-11.1979
unding	-11.1979
▁kedengaran	-11.198
▁memberantas	-11.198
▁memotivasi	-11.198
mewah	-11.1981
indera	-11.1981
▁Talk	-11.1982
▁pemangsa	-11.1982
▁bayaran	-11.1983
▁tembakan	-11.1983
▁Berita	-11.1983
▁Pesan	-11.1984
▁Gold	-11.1985
tipu	-11.1985
aksen	-11.1987
kejap	-11.1989
urunkan	-11.199
▁Rata	-11.1991
gubah	-11.1991
▁siber	-11.1993
▁hum	-11.1995
kreasi	-11.1996
lonia	-11.1998
▁MR	-11.2
▁temuan	-11.2006
▁Suri	-11.2006
▁pengendalian	-11.2014
iano	-11.2016
▁5.000	-11.2023
manfaatkan	-11.2038
▁800	-11.2048
▁terperang	-11.2056
▁Sab	-11.2066
engunjung	-11.2077
▁Giu	-11.2079
laut	-11.2079
pur	-11.209
▁stro	-11.2131
▁berperang	-11.2141
▁proyeksi	-11.2158
sensor	-11.2179
beruntung	-11.218
paling	-11.2185
layak	-11.2187
bulatan	-11.2197
puing	-11.2198
patah	-11.2203
▁katak	-11.2211
surat	-11.2211
utuh	-11.2214
mite	-11.2222
80	-11.2224
lek	-11.2229
▁spesialis	-11.2239
▁sur	-11.2253
▁pertuka	-11.2254
terus	-11.227
data	-11.2279
▁Dala	-11.2293
▁penjelajah	-11.2294
hemat	-11.2304
▁Bir	-11.2308
kanak	-11.2327
ihir	-11.2363
kotak	-11.2363
opia	-11.2371
petak	-11.2373
atematika	-11.2375
tumpuk	-11.2377
▁Ethiopi	-11.2378
▁William	-11.2378
▁dihabiskan	-11.2378
▁hamburger	-11.2378
▁mendayung	-11.2378
▁menyambut	-11.2378
▁penyedia	-11.2378
▁Sierra	-11.2378
▁gumpalan	-11.2378
▁pelabuhan	-11.2378
budidaya	-11.2378
sertifikasi	-11.2378
▁jurang	-11.2378
▁mengklik	-11.2378
diktator	-11.2378
▁mendiskusikan	-11.2378
▁pemotong	-11.2378
▁mengeluh	-11.2378
▁selebar	-11.2378
▁mengecil	-11.2378
▁editor	-11.2378
▁udang	-11.2378
sponsor	-11.2379
▁Archi	-11.2379
▁diuji	-11.2379
▁peralihan	-11.2379
▁klon	-11.2379
▁rokok	-11.2379
▁kehamilan	-11.2379
▁ketidakpastian	-11.2379
▁penyerang	-11.2379
▁format	-11.2379
▁Burung	-11.238
▁meminum	-11.238
▁Betul	-11.238
▁Grace	-11.238
▁kafe	-11.238
▁dilema	-11.2381
▁Kabar	-11.2381
▁sentime	-11.2381
▁disain	-11.2382
▁Hewan	-11.2382
▁ayo	-11.2383
▁koki	-11.2383
▁penipu	-11.2384
▁suap	-11.2386
rospek	-11.2387
▁pangkat	-11.2388
▁teratas	-11.2389
▁Hill	-11.2389
ikir	-11.2391
16	-11.2392
▁Batu	-11.2394
▁kartunis	-11.2394
▁Long	-11.2396
▁bersejarah	-11.2401
▁staf	-11.2402
bingkai	-11.2411
ovie	-11.2414
ulasi	-11.2419
100	-11.242
▁membelah	-11.2423
een	-11.2424
▁ditawarkan	-11.243
suram	-11.244
▁kelima	-11.2445
puji	-11.2453
gantikan	-11.2455
buntu	-11.2456
▁bermacam	-11.2462
off	-11.2463
cher	-11.2465
ulung	-11.2472
isaran	-11.2477
▁prob	-11.2477
bising	-11.2479
tail	-11.2492
erusa	-11.2503
bab	-11.251
▁file	-11.2515
pro	-11.2516
hubungan	-11.2517
▁diskri	-11.253
▁opera	-11.2538
perlengkap	-11.2538
bert	-11.2545
DA	-11.2549
ile	-11.2555
▁lanjutan	-11.2557
patut	-11.2561
▁pakan	-11.2573
▁350	-11.2577
rsa	-11.2577
dukung	-11.2589
LA	-11.2593
kolaborasi	-11.2593
tenaga	-11.2597
kebun	-11.2598
▁yah	-11.2602
▁paha	-11.2608
tic	-11.2616
▁kompos	-11.262
misi	-11.2621
ecuali	-11.2624
amping	-11.2632
▁185	-11.2642
los	-11.2658
TI	-11.2665
gantung	-11.2671
dung	-11.2671
▁Cel	-11.2708
ilik	-11.2709
▁pengajar	-11.2713
▁Sud	-11.2727
fel	-11.273
▁horm	-11.2756
geser	-11.2763
olly	-11.2765
layar	-11.2771
▁prototip	-11.2787
▁norma	-11.2789
▁psiko	-11.2794
▁profesi	-11.2794
▁asisten	-11.2795
▁Jaringan	-11.2795
▁LHC	-11.2795
▁Philip	-11.2795
▁cerdik	-11.2795
▁ekspor	-11.2795
▁hambatan	-11.2795
▁intensitas	-11.2795
▁makmur	-11.2795
▁marshmallow	-11.2795
▁merespon	-11.2795
asosiasi	-11.2795
ekseku	-11.2795
jengkel	-11.2795
▁Daerah	-11.2795
▁Dokter	-11.2795
▁Nenek	-11.2795
▁mencerminkan	-11.2795
▁pengebom	-11.2795
▁pesisir	-11.2795
▁1930	-11.2795
▁Hindu	-11.2795
▁Pohon	-11.2795
▁tangki	-11.2795
▁perkakas	-11.2795
▁Life	-11.2795
▁seruling	-11.2795
▁kepiting	-11.2795
▁fils	-11.2795
▁perbelanjaan	-11.2795
▁literatur	-11.2795
jemput	-11.2795
▁adaptasi	-11.2795
▁kekasih	-11.2795
▁Nathan	-11.2795
▁stadi	-11.2795
▁lilin	-11.2795
▁parasut	-11.2795
wisata	-11.2795
obrol	-11.2795
▁konservasi	-11.2795
▁simpati	-11.2795
bongkah	-11.2795
tegangan	-11.2795
lingkup	-11.2796
▁serba	-11.2796
▁busana	-11.2796
▁kuadra	-11.2796
attle	-11.2796
▁Babb	-11.2796
▁menyetir	-11.2796
▁mantan	-11.2796
▁GPS	-11.2797
▁merangkum	-11.2797
▁salinan	-11.2797
▁fitur	-11.2797
▁US	-11.2797
▁nara	-11.2797
▁agung	-11.2797
▁memanipulasi	-11.2797
enghambat	-11.2798
▁Mig	-11.2798
▁panik	-11.2798
naviga	-11.2798
abung	-11.2799
kit	-11.28
▁Jack	-11.2801
▁penambang	-11.2801
▁pemeta	-11.2802
▁menamakan	-11.2802
▁harta	-11.2802
▁1900	-11.2804
▁tenda	-11.2804
▁bonus	-11.2805
▁seperse	-11.2805
▁Terlebih	-11.2806
erajaan	-11.2807
mohon	-11.2807
anggup	-11.2807
▁2003	-11.2811
▁2001	-11.2811
▁Hong	-11.2815
▁menyeberangi	-11.2816
▁bersenjata	-11.2816
▁menyanyikan	-11.2817
bilang	-11.2819
▁Tingkat	-11.282
▁vita	-11.2821
bijian	-11.2825
▁Genera	-11.2828
sesat	-11.2831
▁cura	-11.2841
kura	-11.2844
eriksa	-11.2845
▁diselamatkan	-11.2859
del	-11.286
▁1000	-11.2869
Bay	-11.2874
low	-11.2882
anjur	-11.2884
acak	-11.29
▁Arg	-11.2906
▁Carolin	-11.2909
ival	-11.2912
qua	-11.2922
olik	-11.2939
▁syukur	-11.2953
eamanan	-11.2961
Found	-11.2972
▁not	-11.2981
fre	-11.301
▁Ur	-11.3016
buruk	-11.3024
▁2.0	-11.3027
dongeng	-11.3029
lumba	-11.3029
komitmen	-11.3029
khawatir	-11.3031
duduk	-11.3031
terbuka	-11.3031
kimia	-11.3031
partikel	-11.3034
▁wor	-11.3034
J	-11.304
terukur	-11.3047
iklan	-11.3062
▁membaha	-11.3068
kuman	-11.3085
sumber	-11.3092
▁Inter	-11.3097
ukai	-11.3119
lur	-11.3123
▁pencari	-11.3146
hoo	-11.3148
▁plan	-11.316
batasi	-11.3175
neraka	-11.3181
,6	-11.3183
▁mengantar	-11.3189
cra	-11.3191
▁pemaka	-11.3206
▁Sub	-11.3208
▁transparan	-11.3222
organisir	-11.3226
▁DVD	-11.323
▁Fransis	-11.323
▁Organisasi	-11.323
▁Tubuh	-11.323
▁antusias	-11.323
▁cemerlang	-11.323
▁independen	-11.323
▁kolagen	-11.323
▁mamogram	-11.323
▁melengkapi	-11.323
▁minoritas	-11.323
▁parlemen	-11.323
▁penampakan	-11.323
▁pengorbanan	-11.323
▁sepupu	-11.323
▁tangguh	-11.323
propaganda	-11.323
▁diperhatikan	-11.323
▁kemerdekaan	-11.323
▁profil	-11.323
▁Center	-11.323
▁diakses	-11.323
▁menghantam	-11.323
▁pelukis	-11.323
▁persedia	-11.323
▁sinteti	-11.323
▁memfokuskan	-11.323
▁play	-11.323
ombong	-11.323
▁instan	-11.323
▁geologi	-11.323
▁Lakukan	-11.323
▁Evan	-11.323
klaim	-11.323
▁konsultan	-11.323
▁ekspe	-11.323
▁subyek	-11.323
▁pengenal	-11.323
elintir	-11.323
▁bioteknologi	-11.323
▁South	-11.3231
▁Acc	-11.3231
▁Kurang	-11.3231
▁adik	-11.3231
▁merakit	-11.3232
▁Tunis	-11.3232
▁Albert	-11.3232
▁melekat	-11.3232
ooh	-11.3232
siksa	-11.3233
▁pacar	-11.3233
raih	-11.3233
▁dasa	-11.3234
▁Sedang	-11.3234
wajib	-11.3234
▁diakui	-11.3234
▁Bush	-11.3235
▁Harapan	-11.3235
▁pengaman	-11.3236
▁fase	-11.3237
▁memprogram	-11.3238
uther	-11.3238
▁padi	-11.324
▁Shang	-11.324
▁drum	-11.3241
▁memeluk	-11.3241
nyalakan	-11.3242
▁Natal	-11.3242
▁Bot	-11.3244
elsius	-11.3244
olok	-11.3247
▁dinas	-11.3249
▁Uang	-11.325
▁kelinc	-11.3251
▁subur	-11.3259
▁perkap	-11.3262
▁egois	-11.3267
▁mengalih	-11.3269
▁terdalam	-11.327
▁sumur	-11.327
▁molekuler	-11.3284
▁42	-11.3288
▁membalik	-11.329
▁MA	-11.3293
▁meliputi	-11.3304
sebut	-11.3307
▁ketingg	-11.3309
▁mentor	-11.3313
paksa	-11.3319
hantu	-11.3326
▁berganti	-11.333
▁cora	-11.3337
jelasan	-11.3342
arakan	-11.3342
rial	-11.3364
sepakat	-11.3375
▁0,	-11.338
perlakukan	-11.3384
▁berabad	-11.3384
▁gam	-11.3406
salin	-11.3434
▁Demokra	-11.3436
ngkir	-11.344
akibat	-11.3444
▁mono	-11.3455
▁doktor	-11.3461
jad	-11.3471
iarkan	-11.3473
kultur	-11.3483
gairah	-11.3484
faktor	-11.3485
perilaku	-11.3486
▁digit	-11.3486
mart	-11.3488
karena	-11.349
pam	-11.3511
keringat	-11.3511
liat	-11.3513
tekanan	-11.3516
▁gal	-11.3525
ampilkan	-11.3525
14	-11.3586
▁visualisasi	-11.3588
ote	-11.3604
▁kemudi	-11.3606
▁Ram	-11.3623
▁Kur	-11.3642
▁penyand	-11.3654
airo	-11.3658
▁gay	-11.3666
mir	-11.367
ness	-11.3679
stitusi	-11.3682
pastian	-11.3683
▁Alkitab	-11.3684
▁Lingkungan	-11.3684
▁disadari	-11.3684
▁filsafat	-11.3684
▁geometri	-11.3684
▁ibarat	-11.3684
▁keputusasaan	-11.3684
▁lazim	-11.3684
▁memaksimalkan	-11.3684
▁menyeimbangkan	-11.3684
▁menyinggung	-11.3684
▁nelayan	-11.3684
▁penyiksa	-11.3684
▁platform	-11.3684
▁romantis	-11.3684
▁samudra	-11.3684
▁terjemahan	-11.3684
▁upacara	-11.3684
▁2030	-11.3684
▁Gadis	-11.3684
▁lempeng	-11.3684
▁memanaskan	-11.3684
▁memperkuat	-11.3684
▁perhiasan	-11.3684
▁sampul	-11.3684
▁pembawa	-11.3684
▁religi	-11.3684
▁galeri	-11.3684
▁mencium	-11.3684
▁mengherankan	-11.3684
▁penentu	-11.3684
mbabwe	-11.3684
▁Dengar	-11.3684
▁pendanaan	-11.3684
▁sketsa	-11.3684
▁terbagi	-11.3684
▁terbawa	-11.3684
frustasi	-11.3684
▁keliru	-11.3684
▁pelanggaran	-11.3684
▁bantal	-11.3684
▁menyerta	-11.3685
▁pupuk	-11.3685
▁kemauan	-11.3685
▁pemasukan	-11.3685
lembab	-11.3685
sket	-11.3685
▁kosmologi	-11.3685
▁mikrofon	-11.3685
▁tuntutan	-11.3685
▁usang	-11.3686
▁panen	-11.3686
▁elektroda	-11.3686
▁reproduksi	-11.3687
▁Chili	-11.3687
▁kebalikan	-11.3687
▁tabel	-11.3687
▁dibeli	-11.369
bad	-11.3691
▁2,5	-11.3692
▁misti	-11.3692
▁kimiaw	-11.3693
sepele	-11.3693
▁ironis	-11.3693
▁pendorong	-11.3693
ancaran	-11.3694
▁amatir	-11.3694
unjang	-11.3696
▁kedalam	-11.3697
▁kate	-11.3699
▁perdana	-11.3699
▁menguraikan	-11.3701
▁64	-11.3702
▁cell	-11.3705
▁berbincang	-11.3707
▁gaga	-11.3711
▁Leon	-11.3711
ward	-11.3716
▁kepolis	-11.3716
▁Malt	-11.3716
▁berwujud	-11.372
tunjukan	-11.3722
▁realisti	-11.3725
▁Raja	-11.3726
bapak	-11.3727
cerai	-11.3728
▁pemrograman	-11.373
▁Lee	-11.3738
▁tertangkap	-11.374
ramai	-11.3749
▁otorita	-11.3749
▁Pola	-11.3751
▁memperingat	-11.3782
sabar	-11.3792
oreksi	-11.3792
▁Jeni	-11.3794
▁Berd	-11.3803
time	-11.3805
▁Uda	-11.3814
▁bla	-11.3819
ebo	-11.382
rawan	-11.3825
deret	-11.3828
well	-11.3829
▁iri	-11.3837
tonton	-11.3854
aktifitas	-11.3856
▁referen	-11.3859
▁180	-11.3866
▁AB	-11.3891
ambil	-11.3897
▁tutu	-11.3916
sendiri	-11.3944
losa	-11.3955
gembira	-11.396
distribusi	-11.3962
pohon	-11.3962
pukul	-11.3962
banjir	-11.3962
lubang	-11.3964
prinsip	-11.3966
ranjang	-11.3967
harusnya	-11.4001
▁astronom	-11.4034
aula	-11.404
Poin	-11.4054
rect	-11.4055
duksi	-11.4055
luka	-11.4056
atom	-11.4062
opsi	-11.4067
▁Kamb	-11.4069
timpang	-11.4071
tube	-11.4071
istiwa	-11.4101
mampuan	-11.4106
zinkan	-11.4118
▁quo	-11.4126
▁membesar	-11.413
azz	-11.4131
duras	-11.4131
▁menyeli	-11.4134
nsas	-11.414
TM	-11.4143
▁intui	-11.4154
eksploitasi	-11.4155
amudera	-11.4155
▁atmosf	-11.4155
rofesor	-11.4155
▁invest	-11.4159
▁Bangladesh	-11.416
▁Demikian	-11.416
▁Kemungkinan	-11.416
▁Makhluk	-11.416
▁Ushahidi	-11.416
▁astronot	-11.416
▁berkendara	-11.416
▁disetujui	-11.416
▁edukasi	-11.416
▁insiden	-11.416
▁ketepatan	-11.416
▁mempromosikan	-11.416
▁mengekstrak	-11.416
▁mitologi	-11.416
▁peluru	-11.416
▁printer	-11.416
▁produsen	-11.416
▁replika	-11.416
▁menyiksa	-11.416
▁pemecah	-11.416
stabilan	-11.416
▁Brown	-11.416
▁sastra	-11.416
ganjil	-11.416
▁Terimakasih	-11.416
▁minimal	-11.416
aksara	-11.416
▁Ukuran	-11.416
▁modul	-11.4161
▁seberang	-11.4161
▁formal	-11.4161
▁berbelas	-11.4161
▁frame	-11.4161
▁netral	-11.4161
▁matrik	-11.4161
▁Informasi	-11.4161
umbai	-11.4161
▁Energ	-11.4161
▁kesepakatan	-11.4161
▁hidung	-11.4161
▁wirausahawan	-11.4161
▁Pertumbuhan	-11.4161
▁berempati	-11.4161
▁Saudara	-11.4161
▁kabin	-11.4161
▁pemakaian	-11.4161
▁tiruan	-11.4162
▁mengidap	-11.4162
▁gema	-11.4162
▁Johnny	-11.4163
▁teater	-11.4163
▁menyajikan	-11.4163
▁dilindungi	-11.4163
▁saku	-11.4163
▁akuntan	-11.4164
jijik	-11.4164
▁Kemampuan	-11.4165
▁Rock	-11.4165
▁Grand	-11.4166
▁kontroversial	-11.4166
▁biola	-11.4171
ongres	-11.4172
stat	-11.4176
▁merenungkan	-11.4178
▁miring	-11.4179
▁turb	-11.4181
▁Badan	-11.4183
▁48	-11.4185
▁Pergi	-11.4186
▁ditinggalkan	-11.419
▁55	-11.4197
▁membalikkan	-11.4206
▁terkecil	-11.4208
▁muatan	-11.4209
▁Fili	-11.4211
▁bergeser	-11.4214
ubung	-11.4218
▁Nu	-11.4224
▁berlipat	-11.4224
▁beba	-11.4247
ukisan	-11.4251
cul	-11.4265
▁ekstrimis	-11.4271
awai	-11.4275
hutan	-11.4305
▁swa	-11.431
duri	-11.431
▁Stu	-11.4334
puk	-11.4348
▁Gor	-11.4363
▁85	-11.4367
read	-11.4382
pertimbangkan	-11.4388
▁pengep	-11.439
rahasia	-11.4392
▁Cat	-11.4412
kemah	-11.4436
25	-11.444
proses	-11.4458
tuhan	-11.4458
fasilitas	-11.446
kunci	-11.4461
sempurna	-11.4461
penyakit	-11.4462
jalur	-11.4465
serap	-11.4465
▁membe	-11.4469
▁respons	-11.4471
agar	-11.4473
adakan	-11.4474
BC	-11.4479
daya	-11.4481
renang	-11.4484
▁Os	-11.4488
▁Vo	-11.449
robi	-11.4491
MP	-11.4512
bahasa	-11.4512
▁demo	-11.4532
▁sangka	-11.4575
▁Berik	-11.4586
▁melintas	-11.4616
encitra	-11.4623
oja	-11.4629
▁pembant	-11.463
▁menempat	-11.4638
▁mengulang	-11.4642
isolasi	-11.4645
▁Berli	-11.4646
alaya	-11.4648
percepat	-11.4657
manipulasi	-11.4658
▁statis	-11.4659
bimbing	-11.4659
bius	-11.4659
▁kehening	-11.466
▁Komunitas	-11.466
▁dicegah	-11.466
▁gubuk	-11.466
▁gurita	-11.466
▁iPad	-11.466
▁kecantikan	-11.466
▁melengkung	-11.466
▁menaiki	-11.466
▁mendinginkan	-11.466
▁mengartikan	-11.466
▁menggenggam	-11.466
▁menyempurnakan	-11.466
▁menyetujui	-11.466
▁penyelesaian	-11.466
▁reputasi	-11.466
▁sindrom	-11.466
▁spiritual	-11.466
▁sumsum	-11.466
prihatin	-11.466
▁Siberia	-11.466
▁Somalia	-11.466
▁menyeramkan	-11.466
▁Nilai	-11.466
▁pengikut	-11.466
▁pencemaran	-11.466
▁perbincangan	-11.466
▁Cinta	-11.4661
▁inisiatif	-11.4661
▁memory	-11.4661
▁ambulan	-11.4661
▁pendeta	-11.4661
pigmen	-11.4661
▁lidah	-11.4661
▁pemenggal	-11.4661
perimen	-11.4661
▁ceruk	-11.4661
▁neutr	-11.4661
▁berdarah	-11.4661
▁stimul	-11.4661
▁pelacak	-11.4661
▁terkuat	-11.4661
sakti	-11.4661
▁cuti	-11.4661
takjub	-11.4661
▁kenikmatan	-11.4661
▁Titik	-11.4661
▁dikelo	-11.4662
▁tomat	-11.4662
▁boh	-11.4662
▁jabatan	-11.4662
▁membenarkan	-11.4662
▁block	-11.4662
▁menukar	-11.4662
▁Mulai	-11.4662
▁komand	-11.4662
▁FBI	-11.4663
▁kapak	-11.4663
dedikasi	-11.4663
▁Mandel	-11.4664
▁terekam	-11.4664
▁Opera	-11.4664
▁natural	-11.4665
▁Flori	-11.4665
▁pembakar	-11.4666
▁Umum	-11.4666
▁jeru	-11.4666
▁Whit	-11.4666
▁eksponen	-11.4667
utradara	-11.4667
▁kronis	-11.4667
▁merekru	-11.4667
▁Romo	-11.4668
▁pemancing	-11.4669
dral	-11.467
▁vaksinasi	-11.4671
▁yog	-11.4674
▁Segala	-11.4677
ujur	-11.4678
▁propos	-11.468
▁Newton	-11.4686
▁paman	-11.469
▁Bima	-11.4695
grad	-11.4696
▁jet	-11.4696
AV	-11.4702
▁Turki	-11.4705
▁melayang	-11.4708
umit	-11.4711
akek	-11.4714
▁senior	-11.4721
▁Nya	-11.4722
▁oran	-11.4726
▁kesal	-11.4726
▁Stasi	-11.4728
tulus	-11.4729
lock	-11.4731
dengar	-11.4734
▁kuku	-11.4736
▁penegak	-11.4737
▁kurun	-11.4744
nakal	-11.4752
tarung	-11.4768
▁pertimbang	-11.4784
apur	-11.4786
base	-11.483
▁Dama	-11.4836
▁dosi	-11.4881
sarung	-11.4892
enggan	-11.4898
▁work	-11.4899
dron	-11.4901
▁Sol	-11.4917
▁Hon	-11.4923
esuaikan	-11.4925
datang	-11.4929
nteng	-11.4931
keping	-11.4948
corn	-11.4963
ampang	-11.4964
▁Jer	-11.4965
korban	-11.4988
tujuh	-11.4988
sebelah	-11.4988
ekonomi	-11.499
cukup	-11.499
▁31	-11.4993
hou	-11.5001
oleh	-11.5001
▁Cost	-11.5047
IC	-11.5049
jamur	-11.5058
ungki	-11.5063
▁Marc	-11.5079
krit	-11.508
banis	-11.5086
▁pembagi	-11.5095
▁peternak	-11.5102
▁Rise	-11.5123
blok	-11.5134
mbra	-11.5141
tengkar	-11.5142
olm	-11.5142
▁Gand	-11.5147
▁elektro	-11.5165
▁tip	-11.5169
▁kontroversi	-11.518
ilhami	-11.5182
▁manu	-11.5184
ektivitas	-11.5185
laksana	-11.5186
yanyian	-11.5186
▁Bakteri	-11.5187
▁Copernic	-11.5187
▁Denmark	-11.5187
▁Ekonomi	-11.5187
▁Everest	-11.5187
▁Parkinson	-11.5187
▁Penemuan	-11.5187
▁RNA	-11.5187
▁album	-11.5187
▁gugup	-11.5187
▁inkuba	-11.5187
▁kegemaran	-11.5187
▁kejiwaan	-11.5187
▁ketersediaan	-11.5187
▁meluangkan	-11.5187
▁mengharuskan	-11.5187
▁menonjol	-11.5187
▁menuntun	-11.5187
▁menyakiti	-11.5187
▁penyembuh	-11.5187
▁perlombaan	-11.5187
▁ranjau	-11.5187
▁rekening	-11.5187
▁Bentuk	-11.5187
▁bertepuk	-11.5187
▁terurai	-11.5187
chool	-11.5187
▁kewalahan	-11.5187
▁komik	-11.5187
▁melestarikan	-11.5187
▁selular	-11.5187
▁teladan	-11.5187
▁ampuh	-11.5187
▁sekrup	-11.5187
▁diploma	-11.5187
▁perbankan	-11.5187
▁penghancur	-11.5187
▁memandu	-11.5187
leceh	-11.5187
▁ranting	-11.5187
▁Alas	-11.5187
aspal	-11.5187
modifikasi	-11.5187
▁mengering	-11.5187
▁Toy	-11.5187
▁perayaan	-11.5187
▁Belajar	-11.5187
▁Ibra	-11.5187
▁Stewar	-11.5188
bebaskan	-11.5188
▁golongan	-11.5188
▁astrol	-11.5188
▁MRI	-11.5188
▁membongkar	-11.5189
▁Putri	-11.5189
pertunjukkan	-11.5189
▁panggul	-11.5189
▁tekstur	-11.5189
anugerah	-11.5189
urdy	-11.5189
▁juara	-11.519
▁goda	-11.519
▁tipuan	-11.519
berkati	-11.5191
▁kubus	-11.5191
▁Lemba	-11.5193
▁mengorganisir	-11.5193
▁Jane	-11.5194
▁penanam	-11.5194
▁fantas	-11.5194
uslim	-11.5195
▁Hmm	-11.5195
▁mangsa	-11.5197
▁eksoti	-11.5198
colok	-11.5198
▁menguap	-11.5201
edoman	-11.5201
▁ampl	-11.5201
▁hiu	-11.5203
PT	-11.5204
motif	-11.5205
▁DM	-11.5205
▁Sili	-11.5209
emasok	-11.521
dering	-11.5212
▁Beat	-11.5213
▁Bangun	-11.5218
▁IM	-11.5222
megah	-11.5223
▁menyusut	-11.5224
▁terpusat	-11.5225
mail	-11.5225
▁luang	-11.5228
▁ajak	-11.523
▁insti	-11.523
▁BR	-11.5231
▁pemakan	-11.5233
▁AD	-11.5234
▁ramala	-11.5234
umpah	-11.5235
▁alamiah	-11.5236
▁terpasang	-11.5236
▁Ole	-11.5238
imatik	-11.5242
▁strat	-11.5243
▁Linu	-11.5245
▁Inde	-11.5248
vani	-11.526
enyesuai	-11.5265
▁Proto	-11.5277
▁mencema	-11.5285
ndok	-11.5288
▁Cari	-11.5298
▁repo	-11.5321
rium	-11.5323
▁Are	-11.5364
▁Harr	-11.5373
asasi	-11.5383
▁trend	-11.5386
lanjutkan	-11.5388
tiup	-11.5414
jadikan	-11.5421
▁Him	-11.5423
▁Win	-11.5432
▁lans	-11.5437
edit	-11.5439
tahu	-11.5447
shio	-11.5453
kular	-11.5466
kungan	-11.5468
uit	-11.5484
▁setia	-11.5495
▁Sila	-11.5498
▁raga	-11.5504
▁remeh	-11.5507
bunga	-11.5511
pertaruh	-11.5515
romi	-11.5523
syukuri	-11.5534
lupakan	-11.5539
ingatkan	-11.5541
pabrik	-11.5543
normal	-11.5543
sangat	-11.5546
▁penggu	-11.5548
telur	-11.5558
▁tela	-11.5569
jajar	-11.557
▁menceng	-11.5572
spesies	-11.5576
mau	-11.5605
alasan	-11.5606
entin	-11.5617
oid	-11.5619
▁mencer	-11.5621
▁Kant	-11.5621
planet	-11.5623
agam	-11.5655
▁Berti	-11.5655
▁mengungkap	-11.5685
▁meluncur	-11.569
▁menghindar	-11.5692
▁penanda	-11.5706
,8	-11.5716
kembang	-11.5717
▁baya	-11.572
▁penyelam	-11.5722
▁mengaku	-11.5726
▁ambisi	-11.5737
▁bias	-11.574
selingkuh	-11.5742
▁Brooklyn	-11.5742
▁Muhammad	-11.5742
▁Pelajaran	-11.5742
▁Sederhana	-11.5742
▁bereksperimen	-11.5742
▁eksklusif	-11.5742
▁eksternal	-11.5742
▁ginjal	-11.5742
▁hirarki	-11.5742
▁kehendak	-11.5742
▁kemunduran	-11.5742
▁kewirausahaan	-11.5742
▁kicauan	-11.5742
▁mengkritik	-11.5742
▁partner	-11.5742
▁spektakuler	-11.5742
▁trotoar	-11.5742
▁vagina	-11.5742
▁memindai	-11.5742
▁menghampiri	-11.5742
▁America	-11.5742
▁mengitari	-11.5742
▁menjijikkan	-11.5742
▁simpul	-11.5742
▁Tugas	-11.5742
▁kawah	-11.5742
▁perakitan	-11.5742
▁Pasien	-11.5742
cabik	-11.5742
▁keseharian	-11.5742
▁menyuntik	-11.5742
▁rumus	-11.5742
▁kesepian	-11.5742
▁menenangkan	-11.5742
▁menggandakan	-11.5742
▁katup	-11.5742
▁Dimulai	-11.5742
▁Snow	-11.5743
erpindahan	-11.5743
minimum	-11.5743
▁urban	-11.5743
▁atlet	-11.5743
▁citarasa	-11.5743
▁Audi	-11.5743
▁Centr	-11.5743
singgung	-11.5743
▁kapas	-11.5743
evolusioner	-11.5743
▁Galaksi	-11.5743
▁perbuatan	-11.5743
▁jaket	-11.5744
▁menebang	-11.5744
▁region	-11.5744
▁Alih	-11.5744
▁pelari	-11.5744
▁isyarat	-11.5744
▁menunda	-11.5745
▁merekayasa	-11.5745
▁dihargai	-11.5745
▁kerendah	-11.5746
▁mempublikasikan	-11.5746
▁glasi	-11.5746
▁Shake	-11.5747
▁Harga	-11.5747
▁mengekspo	-11.5747
▁buruh	-11.5747
▁rapi	-11.5747
▁memproses	-11.5747
▁memburuk	-11.5748
▁indra	-11.5748
▁Hilang	-11.5749
plaus	-11.5749
▁memajukan	-11.575
▁Asasi	-11.575
▁Daniel	-11.5751
▁timbal	-11.5751
▁1995	-11.5751
▁Makanan	-11.5752
▁Enc	-11.5752
▁bibir	-11.5753
awet	-11.5754
▁stabilitas	-11.5754
▁manajer	-11.5754
▁antri	-11.5754
▁Apri	-11.5754
▁Oo	-11.5759
▁geografis	-11.5759
▁kreatifitas	-11.5761
▁tabu	-11.5761
▁Sisa	-11.5763
perawan	-11.5763
▁kosa	-11.5766
▁superma	-11.5768
▁Singkat	-11.5768
urnal	-11.5769
aplikasikan	-11.5771
▁Bangsa	-11.5772
incir	-11.5772
spekulasi	-11.5777
▁perlawanan	-11.5778
▁Nep	-11.5782
▁kalend	-11.5784
simetri	-11.5788
lama	-11.5794
▁Obat	-11.5804
pina	-11.5806
▁Kira	-11.5813
tser	-11.5818
▁tong	-11.5819
apung	-11.5841
▁Selas	-11.5853
▁epi	-11.5865
nator	-11.589
▁Verm	-11.5901
topia	-11.5905
belakang	-11.5935
zani	-11.5935
▁balas	-11.5937
busuk	-11.5957
egel	-11.596
elad	-11.5961
▁NA	-11.5961
gulat	-11.5963
▁neo	-11.5966
udaya	-11.5968
ncing	-11.5974
berita	-11.5982
legal	-11.5997
ampung	-11.6029
▁Kera	-11.6034
▁rawa	-11.6048
wujud	-11.6064
▁str	-11.607
lambang	-11.6088
definisikan	-11.6091
bolehkan	-11.6103
CB	-11.6109
▁Glas	-11.6121
ody	-11.6123
motivasi	-11.6128
▁Red	-11.6128
nutrisi	-11.613
binatang	-11.6132
Amerika	-11.6132
94	-11.6137
tebal	-11.614
biaya	-11.6145
▁member	-11.6145
cuma	-11.615
wait	-11.6154
DR	-11.6167
AG	-11.6181
▁deskripsi	-11.6205
nalar	-11.6206
▁Mur	-11.6215
pecahan	-11.6247
▁pelatih	-11.6249
ndulan	-11.6284
▁informa	-11.63
▁ratu	-11.63
▁Pikir	-11.63
▁pengasi	-11.6303
▁geografi	-11.6313
wakili	-11.6328
laporkan	-11.6328
▁menata	-11.6328
pertahankan	-11.6329
perbudak	-11.6329
konsulta	-11.633
sengsara	-11.6331
interpretasi	-11.6331
komersil	-11.6331
▁Cassini	-11.6331
▁Craig	-11.6331
▁Georgia	-11.6331
▁Joseph	-11.6331
▁Libya	-11.6331
▁Matthew	-11.6331
▁aborsi	-11.6331
▁belatung	-11.6331
▁kolaboratif	-11.6331
▁memproyeksikan	-11.6331
▁menyambungkan	-11.6331
▁optimal	-11.6331
▁perkampungan	-11.6331
▁predator	-11.6331
▁radius	-11.6331
▁saklar	-11.6331
▁sambungan	-11.6331
▁variabel	-11.6331
agresif	-11.6331
▁Falcon	-11.6331
▁Galois	-11.6331
▁Percaya	-11.6331
▁melingkar	-11.6331
▁menegaskan	-11.6331
▁menyorot	-11.6331
▁ringkas	-11.6331
instalasi	-11.6331
▁arkeolog	-11.6331
▁komedi	-11.6331
▁mengabdi	-11.6331
▁mengenyahkan	-11.6331
▁puitis	-11.6331
benturan	-11.6331
merosot	-11.6331
▁memadukan	-11.6331
▁mengoperasikan	-11.6331
▁mencocokkan	-11.6331
emerkosa	-11.6331
▁inteli	-11.6331
▁penyaring	-11.6331
▁stigma	-11.6331
▁permohonan	-11.6331
▁merendah	-11.6331
bobot	-11.6331
▁watt	-11.6331
▁1,2	-11.6331
denyut	-11.6331
Prince	-11.6331
waspada	-11.6331
▁Aturan	-11.6331
▁paralel	-11.6331
▁menamai	-11.6331
▁menyalin	-11.6331
▁temperatur	-11.6331
▁Carn	-11.6331
▁beredar	-11.6331
hembus	-11.6331
▁ensiklopedi	-11.6331
▁keberatan	-11.6331
qui	-11.6332
▁histo	-11.6332
▁keruntuhan	-11.6332
▁rekor	-11.6333
▁memperjuangkan	-11.6333
▁jurusan	-11.6333
▁cangkang	-11.6333
▁Pendapat	-11.6334
▁Efek	-11.6334
▁melodi	-11.6334
▁herb	-11.6334
▁UV	-11.6335
▁Tepat	-11.6335
▁dokumentasi	-11.6335
▁Plasti	-11.6335
▁Fred	-11.6336
▁pertamba	-11.6336
▁humor	-11.6336
▁menelan	-11.6336
▁menampung	-11.6337
▁UU	-11.6337
▁Biaya	-11.6337
▁pendeteksi	-11.6337
▁mengapung	-11.6337
▁kaos	-11.6339
▁tabl	-11.6339
▁bankir	-11.6339
▁Monter	-11.634
rock	-11.6341
steril	-11.6341
▁Coch	-11.6341
▁Clint	-11.6342
▁disitu	-11.6343
▁guga	-11.6344
▁kod	-11.6349
▁teramat	-11.6351
gaul	-11.6353
▁plat	-11.6355
rpet	-11.6358
▁Lebah	-11.6359
lolos	-11.6359
▁gle	-11.637
▁Jona	-11.6376
yung	-11.6388
head	-11.6389
ibia	-11.6389
acci	-11.6395
▁Joe	-11.6399
▁Padu	-11.6402
▁Pengguna	-11.6403
ledak	-11.6409
▁hipo	-11.6414
tech	-11.6431
▁peningg	-11.6433
▁Cur	-11.6454
▁caca	-11.6457
visualisasikan	-11.6462
emasan	-11.6462
▁merangka	-11.6466
▁dikena	-11.6479
▁Pakai	-11.6484
▁Radio	-11.6498
BI	-11.6501
▁belala	-11.6506
koko	-11.6524
▁penghin	-11.6538
▁lapis	-11.6549
▁Hutan	-11.6557
▁Arm	-11.6564
driv	-11.6575
▁indika	-11.6611
SM	-11.6662
▁Ver	-11.6669
▁Gri	-11.6674
rakit	-11.6684
metrik	-11.6685
pendapat	-11.6712
arung	-11.6718
▁Bada	-11.6723
ektif	-11.6724
▁lob	-11.673
▁minu	-11.675
lembaga	-11.6756
neuron	-11.6757
dunia	-11.6757
zona	-11.6759
bodoh	-11.6759
dimensi	-11.676
▁infla	-11.6761
▁Edu	-11.6762
wajah	-11.6763
langit	-11.6767
mbilan	-11.6775
▁Atlant	-11.6779
minum	-11.6783
jaring	-11.6789
unjung	-11.6796
emancar	-11.681
engat	-11.6818
▁misal	-11.6819
▁Tata	-11.6824
mega	-11.6841
▁autis	-11.6841
kelas	-11.6889
▁menetap	-11.6915
juta	-11.6916
mungkinkan	-11.6918
senyum	-11.6936
ntui	-11.6942
▁Siap	-11.6943
rinsip	-11.6945
empuh	-11.6952
publikasikan	-11.6952
tuntut	-11.6954
nspirasi	-11.6955
tabilitas	-11.6955
aboratorium	-11.6955
perbaharui	-11.6956
▁Akibat	-11.6956
▁Andrew	-11.6956
▁College	-11.6956
▁Gereja	-11.6956
▁High	-11.6956
▁Omong	-11.6956
▁Siftable	-11.6956
▁Telescope	-11.6956
▁bensin	-11.6956
▁familiar	-11.6956
▁helium	-11.6956
▁kemiringan	-11.6956
▁maksimal	-11.6956
▁mencentang	-11.6956
▁menjembatani	-11.6956
▁menyelimuti	-11.6956
▁mutiara	-11.6956
▁observasi	-11.6956
▁pertolongan	-11.6956
▁pornografi	-11.6956
▁Iklim	-11.6956
▁Pemimpin	-11.6956
▁buyut	-11.6956
▁melaksanakan	-11.6956
▁mematuhi	-11.6956
▁membiakkan	-11.6956
▁menyinari	-11.6956
▁pembalap	-11.6956
▁keberagaman	-11.6956
▁pencuri	-11.6956
▁Power	-11.6956
▁komunis	-11.6956
▁toples	-11.6956
▁Menarik	-11.6956
▁Anggap	-11.6956
▁Louis	-11.6956
▁berargumen	-11.6956
▁keaslian	-11.6956
▁mengecat	-11.6956
national	-11.6956
▁kaleng	-11.6956
▁kolom	-11.6956
▁mengusir	-11.6956
▁memliki	-11.6956
▁mengunci	-11.6956
▁gizi	-11.6956
▁akustik	-11.6956
▁kerentanan	-11.6956
▁arena	-11.6956
▁antropolog	-11.6956
▁cek	-11.6956
▁identik	-11.6956
▁penambah	-11.6956
▁kontinu	-11.6956
▁figur	-11.6956
▁Edward	-11.6956
▁aroma	-11.6956
▁Turk	-11.6956
▁ganas	-11.6956
▁dompet	-11.6956
▁mengguga	-11.6957
bral	-11.6957
ockh	-11.6957
▁gulung	-11.6957
▁Suhu	-11.6957
▁menyeret	-11.6957
▁pengumpul	-11.6957
▁melapisi	-11.6958
▁Bapak	-11.6958
jabat	-11.6958
▁estetik	-11.6958
▁pimpinan	-11.6959
▁McC	-11.6959
▁kalsi	-11.6959
▁sumberdaya	-11.6959
▁memasok	-11.6959
▁vari	-11.696
▁Miss	-11.696
▁memperbolehkan	-11.696
awam	-11.6961
▁menyangka	-11.6961
▁loop	-11.6961
▁Keluar	-11.6961
▁jebakan	-11.6962
▁pengarang	-11.6962
▁Ross	-11.6964
▁Susan	-11.6966
▁TEDster	-11.6967
▁Jamur	-11.6968
▁86	-11.6968
▁TBC	-11.6968
▁menghuni	-11.6968
▁melemah	-11.697
▁Terbang	-11.6972
ingkirkan	-11.6974
▁Datang	-11.698
▁mendaur	-11.6985
▁biara	-11.6988
edisi	-11.699
▁Keren	-11.6992
▁North	-11.6993
▁Austr	-11.6997
▁turis	-11.6999
erampok	-11.7001
▁Persia	-11.7008
flow	-11.7024
ibon	-11.7031
▁mengeru	-11.7058
federa	-11.7058
torium	-11.7063
lobi	-11.7074
83	-11.7075
ragam	-11.7094
matic	-11.71
ampas	-11.7103
tanggungjawab	-11.7121
▁Russel	-11.7124
egal	-11.7126
ller	-11.7134
▁Anna	-11.7136
lantas	-11.7136
▁Wood	-11.7139
ematan	-11.7139
rump	-11.7157
moral	-11.7172
▁Lab	-11.7177
komunikasi	-11.7183
EG	-11.7188
perdagang	-11.7231
here	-11.7237
▁kabu	-11.7243
▁past	-11.7254
elih	-11.7261
▁Leba	-11.7264
ontak	-11.7299
▁Demokrat	-11.7311
enture	-11.735
patri	-11.7351
▁mengetu	-11.7352
afe	-11.7362
ganggu	-11.7385
PS	-11.739
▁bag	-11.7391
TO	-11.7421
ekspresi	-11.7421
wawancara	-11.7422
simbol	-11.7423
nenek	-11.7423
dinding	-11.7423
milyar	-11.7423
begitu	-11.7424
blog	-11.7438
▁900	-11.7444
pesan	-11.7444
nosaurus	-11.7455
▁Sant	-11.7458
▁menginti	-11.747
▁OE	-11.7494
ucut	-11.7521
esungguhnya	-11.7536
▁tindak	-11.7538
ajuk	-11.7561
ompo	-11.7567
▁analog	-11.7571
▁Trans	-11.7572
▁berkeli	-11.7579
▁curi	-11.758
▁menyusur	-11.7583
▁ditinggal	-11.7587
omon	-11.7591
▁eta	-11.7592
omba	-11.76
ngkok	-11.7614
elepon	-11.7615
▁denda	-11.7616
jelajahi	-11.7617
unggah	-11.7618
onansi	-11.7618
nyanyikan	-11.7619
pertanyakan	-11.7622
implementasikan	-11.7622
▁Odysse	-11.7622
▁Tujuh	-11.7622
▁altruis	-11.7622
▁cendekia	-11.7622
▁homoseksual	-11.7622
▁inovator	-11.7622
▁interface	-11.7622
▁kriteria	-11.7622
▁luncur	-11.7622
▁sebagus	-11.7622
▁terdaftar	-11.7622
▁transistor	-11.7622
skrip	-11.7622
▁2015	-11.7622
▁Kepala	-11.7622
▁bengkel	-11.7622
▁cakram	-11.7622
▁cakupan	-11.7622
▁dominan	-11.7622
▁gerobak	-11.7622
▁kedaulatan	-11.7622
▁kejayaan	-11.7622
▁klub	-11.7622
▁megawatt	-11.7622
▁mengacaukan	-11.7622
▁merangsang	-11.7622
▁pangkuan	-11.7622
▁pemanggang	-11.7622
▁skizo	-11.7622
▁vegetarian	-11.7622
right	-11.7622
▁Dentum	-11.7622
▁Negeri	-11.7622
▁mempraktekkan	-11.7622
▁mengukir	-11.7622
▁perabot	-11.7622
▁Steph	-11.7622
▁milimeter	-11.7622
▁sperma	-11.7622
▁Beach	-11.7622
▁meletus	-11.7622
▁wakil	-11.7622
▁Agama	-11.7622
▁ambigu	-11.7622
▁memfilmkan	-11.7622
▁eksekutif	-11.7622
lisensi	-11.7622
▁Gerakan	-11.7622
▁dll	-11.7622
▁bangkai	-11.7622
foot	-11.7622
▁Kerja	-11.7622
▁quad	-11.7622
dekorasi	-11.7622
▁perairan	-11.7622
▁Game	-11.7622
▁birokra	-11.7622
▁endap	-11.7622
▁acuan	-11.7622
▁rupee	-11.7622
▁sebisa	-11.7623
▁Beritahu	-11.7623
▁dayung	-11.7623
lentur	-11.7623
selisih	-11.7623
▁Kemari	-11.7623
▁meremehkan	-11.7623
▁Krist	-11.7623
terampil	-11.7623
▁pengkhianat	-11.7623
▁kolaborator	-11.7624
▁dipisahkan	-11.7624
▁Bekerja	-11.7624
▁komputasional	-11.7624
▁drama	-11.7624
▁membujuk	-11.7625
kawat	-11.7625
▁kilat	-11.7625
▁tertekan	-11.7625
▁Lipat	-11.7625
▁keterkaitan	-11.7625
bengkak	-11.7626
▁radiolog	-11.7626
▁saus	-11.7626
▁River	-11.7626
▁0.	-11.7627
▁bakal	-11.7627
▁mengguncang	-11.7627
antisipasi	-11.7627
▁manjur	-11.7627
▁Esok	-11.7628
▁berapi	-11.7628
▁mulia	-11.7628
▁Mathe	-11.7628
engingat	-11.7628
▁Wind	-11.7629
▁supir	-11.763
▁mengeksploitasi	-11.763
▁terelak	-11.763
▁menyangkal	-11.7631
▁hakikat	-11.7631
selaras	-11.7633
▁Rencana	-11.7633
▁Saul	-11.7634
▁teluk	-11.7634
▁96	-11.7634
▁prototipe	-11.7635
rujuk	-11.7636
▁spasi	-11.7638
mahir	-11.764
▁mendata	-11.764
▁Prote	-11.764
lphi	-11.7641
▁mengecek	-11.7641
▁Vol	-11.7642
▁mengasu	-11.7642
▁183	-11.7643
▁Hati	-11.7645
▁61	-11.7646
▁kuil	-11.7652
ernapas	-11.7654
lick	-11.7656
golak	-11.766
tiru	-11.7665
▁Produk	-11.7673
▁Tanam	-11.7674
ombak	-11.7676
▁Berkat	-11.7677
▁Port	-11.7679
perbolehkan	-11.768
▁meluas	-11.7682
enggerak	-11.7692
▁mengantr	-11.7712
pajang	-11.7738
ngeran	-11.7743
Tech	-11.7755
▁pemula	-11.7759
fly	-11.7785
▁urani	-11.7789
ize	-11.7813
▁tira	-11.7844
angsung	-11.7846
HD	-11.7856
waras	-11.7911
laris	-11.7927
dasar	-11.7935
emberontak	-11.7946
evel	-11.7947
▁Peta	-11.7992
▁Ele	-11.7995
angkap	-11.7999
organis	-11.8017
▁lega	-11.8034
ragi	-11.8042
▁vir	-11.8052
tivasi	-11.8059
▁terkumpul	-11.8061
identifikasi	-11.8067
▁penganu	-11.8069
▁waj	-11.8097
penghasilan	-11.8136
botol	-11.8137
kecepatan	-11.8138
maaf	-11.8139
ceramah	-11.8139
sayap	-11.8151
momen	-11.8155
emala	-11.8234
▁penghasil	-11.8256
▁usah	-11.8264
▁pengolah	-11.8264
▁korup	-11.8331
guncang	-11.8334
▁infra	-11.8336
▁Victoria	-11.8337
▁krim	-11.8337
ALL	-11.8337
project	-11.8337
▁Cloud	-11.8337
▁Ground	-11.8337
▁Hubble	-11.8337
▁cakrawala	-11.8337
▁giliran	-11.8337
▁hibrid	-11.8337
▁ilustrasi	-11.8337
▁kalkulus	-11.8337
▁kontemp	-11.8337
▁kumparan	-11.8337
▁legenda	-11.8337
▁mengelompokkan	-11.8337
▁peluncuran	-11.8337
▁penerjun	-11.8337
▁pengelompok	-11.8337
▁pengumuman	-11.8337
▁privat	-11.8337
▁Judul	-11.8337
▁Survei	-11.8337
▁monumen	-11.8337
▁paspor	-11.8337
▁semesti	-11.8337
▁merdeka	-11.8337
▁penebang	-11.8337
▁Kepler	-11.8337
▁membiayai	-11.8337
▁kardus	-11.8337
▁investiga	-11.8337
▁Istri	-11.8337
▁kapten	-11.8337
▁leher	-11.8337
▁redup	-11.8337
▁pencetakan	-11.8337
canggung	-11.8337
▁kendala	-11.8337
eklarasi	-11.8337
▁menanyai	-11.8337
▁lomba	-11.8337
▁irama	-11.8337
▁Panjang	-11.8337
control	-11.8337
▁Kanker	-11.8337
▁Portug	-11.8337
donasi	-11.8337
▁terbenam	-11.8337
▁grafit	-11.8337
▁dangkal	-11.8337
▁kesabaran	-11.8337
▁psikopat	-11.8337
▁dilaksanakan	-11.8337
▁tiket	-11.8338
▁Columb	-11.8338
▁pesti	-11.8338
▁Wajah	-11.8338
teguh	-11.8338
▁monar	-11.8338
▁biografi	-11.8338
view	-11.8339
▁aspirasi	-11.8339
▁Mudah	-11.8339
kutip	-11.8339
▁provinsi	-11.8339
▁Moza	-11.8339
▁Virus	-11.834
▁Ilmuwan	-11.834
▁kekeja	-11.834
▁buaya	-11.8341
▁teriakan	-11.8341
▁administrasi	-11.8341
▁membusuk	-11.8342
▁Grafi	-11.8342
▁micro	-11.8343
culik	-11.8343
cetus	-11.8343
▁Space	-11.8343
▁menganggu	-11.8343
nburg	-11.8343
ngomong	-11.8343
▁persenjata	-11.8343
stetik	-11.8343
▁Young	-11.8344
zero	-11.8344
engok	-11.8345
▁Boleh	-11.8345
▁Karya	-11.8345
▁takdir	-11.8346
▁Kaki	-11.8346
MU	-11.8346
kelabu	-11.8347
▁Motor	-11.8349
▁Shir	-11.835
▁Jawa	-11.835
▁puja	-11.8351
▁forum	-11.8351
▁Lupa	-11.8351
ental	-11.8352
sekutu	-11.8354
▁must	-11.8354
transmisi	-11.8355
▁84	-11.8356
▁galas	-11.8356
presentasikan	-11.8357
▁tumpah	-11.8359
terisolasi	-11.8359
radar	-11.8359
▁Transit	-11.8364
▁deter	-11.8365
▁bergem	-11.837
▁Laur	-11.837
erobos	-11.8372
▁ftal	-11.8374
enyunting	-11.8383
erdam	-11.8386
▁tempo	-11.8397
rangkum	-11.8402
Mileni	-11.8406
▁pembia	-11.8411
alaria	-11.8417
▁There	-11.8429
perbarui	-11.8433
▁Post	-11.8434
▁Tiku	-11.8438
▁Super	-11.8439
▁Kuba	-11.8459
umpul	-11.8462
ermainan	-11.8471
erlindungan	-11.8473
▁tank	-11.8474
EO	-11.8491
deskripsikan	-11.8493
elpon	-11.8494
▁East	-11.8498
kelahi	-11.8505
▁zo	-11.8516
terpadu	-11.8533
nanti	-11.8572
TP	-11.86
polis	-11.8613
ntong	-11.8615
▁menjel	-11.8617
pembohong	-11.8624
ozon	-11.8631
▁Bhut	-11.8654
ebetulan	-11.8699
regula	-11.8707
▁saji	-11.8709
▁Lew	-11.8754
▁Perlu	-11.8791
diameter	-11.8793
▁Cart	-11.8859
mall	-11.8876
▁prim	-11.888
mpel	-11.8893
artikel	-11.8895
rekayasa	-11.8903
kategori	-11.8906
industri	-11.8907
bidang	-11.8907
sistem	-11.8907
ngutan	-11.8909
budaya	-11.8912
sakit	-11.8912
batang	-11.8919
musuh	-11.8921
embuhkan	-11.8921
resep	-11.8921
jangkau	-11.8922
Hey	-11.8936
▁perlaku	-11.8948
▁kedap	-11.8977
▁spesi	-11.9016
▁basa	-11.9018
▁rancang	-11.9022
▁boc	-11.9024
rayap	-11.9044
pesies	-11.9056
oho	-11.9057
representasi	-11.9063
▁mengembang	-11.9067
▁kolon	-11.9077
ngkuk	-11.9092
▁ekspon	-11.9096
eninjau	-11.9101
analisa	-11.9101
▁Akademi	-11.9106
▁Brother	-11.9106
▁McDon	-11.9106
▁Molekul	-11.9106
▁Pennsyl	-11.9106
▁Pesawat	-11.9106
▁Science	-11.9106
▁Virgin	-11.9106
▁asyik	-11.9106
▁biomimik	-11.9106
▁ekspansi	-11.9106
▁improvisasi	-11.9106
▁jenazah	-11.9106
▁loyalitas	-11.9106
▁multipotensial	-11.9106
▁pembebasan	-11.9106
▁penafsiran	-11.9106
▁psikiat	-11.9106
▁transformatif	-11.9106
▁wiraswasta	-11.9106
▁Gelombang	-11.9106
▁Inovasi	-11.9106
▁MBA	-11.9106
▁Maslow	-11.9106
▁Schwarzschild	-11.9106
▁dermaga	-11.9106
▁glukosa	-11.9106
▁melebur	-11.9106
▁menakuti	-11.9106
▁pandemi	-11.9106
▁pergelangan	-11.9106
▁trilyun	-11.9106
intensif	-11.9106
▁Berhenti	-11.9106
▁Bunyi	-11.9106
▁Child	-11.9106
▁Khusus	-11.9106
▁alumin	-11.9106
▁pemalsu	-11.9106
▁Studio	-11.9106
▁kalkula	-11.9106
▁pembiayaan	-11.9106
▁berlomba	-11.9106
▁meragukan	-11.9106
▁patokan	-11.9106
persembahkan	-11.9106
▁menganjurkan	-11.9106
▁terendah	-11.9106
▁Kritik	-11.9106
▁menjalin	-11.9106
▁menggapai	-11.9106
egie	-11.9106
▁memusat	-11.9106
▁Perasaan	-11.9106
rohani	-11.9106
▁pernafasan	-11.9106
▁memadai	-11.9106
▁Genom	-11.9106
▁penyerap	-11.9106
▁nyamuk	-11.9106
▁leleh	-11.9106
▁Kiva	-11.9106
▁tiada	-11.9106
▁promosi	-11.9106
▁meniup	-11.9106
▁Benih	-11.9106
▁dilengkapi	-11.9106
▁pendaki	-11.9106
▁bikin	-11.9106
▁Hawkin	-11.9106
▁Galile	-11.9106
▁rasio	-11.9107
▁seminar	-11.9107
▁untaian	-11.9107
▁upah	-11.9107
▁Bandar	-11.9107
ydn	-11.9107
▁kebingungan	-11.9107
▁tembaga	-11.9107
▁tunduk	-11.9107
▁ulat	-11.9108
nafkah	-11.9108
▁menanggung	-11.9108
▁senyuman	-11.9108
▁mencerna	-11.9108
▁merugi	-11.9108
apsul	-11.9109
▁dilalui	-11.9109
▁pantang	-11.9109
▁jeram	-11.9109
▁penculik	-11.9109
▁gantungan	-11.9109
▁Suami	-11.9109
▁esai	-11.9109
▁fatal	-11.911
▁Bintang	-11.911
empol	-11.9111
▁mengevaluasi	-11.9111
▁Dasar	-11.9111
▁benang	-11.9111
▁peninjau	-11.9111
erbicara	-11.9111
▁menelpon	-11.9112
▁mengantisipasi	-11.9112
▁sekam	-11.9112
▁menanti	-11.9112
▁pengurut	-11.9112
▁batin	-11.9113
search	-11.9114
▁unta	-11.9114
-10	-11.9115
▁role	-11.9115
kontamina	-11.9116
▁palu	-11.9116
▁naga	-11.9118
sandar	-11.9119
▁Bruc	-11.9119
▁menyeko	-11.9122
emegang	-11.9122
▁pengangg	-11.9126
▁defi	-11.9126
aptis	-11.9136
erkembangan	-11.9136
faktu	-11.914
menyelenggarakan	-11.9144
▁Puti	-11.9163
nica	-11.9163
▁Gaga	-11.9181
▁Bawa	-11.92
rubah	-11.9262
▁panci	-11.93
▁perkem	-11.9327
▁you	-11.9335
ajalah	-11.9335
▁pertaru	-11.9348
▁terungkap	-11.9352
LS	-11.9413
ajian	-11.9429
bsidi	-11.9467
tribut	-11.948
doktoral	-11.9502
▁Paska	-11.9509
var	-11.951
lapisi	-11.9524
utang	-11.9571
polar	-11.9594
rekomendasikan	-11.9668
sejarah	-11.9693
pendek	-11.9704
▁reha	-11.9706
enyedot	-11.9719
NT	-11.9738
dioksida	-11.9738
komentar	-11.9739
sengaja	-11.9739
unsur	-11.974
pemerintah	-11.974
sudut	-11.974
pendidikan	-11.9741
kursi	-11.9741
pahlawan	-11.9741
bayi	-11.9741
penduduk	-11.9742
cermin	-11.9743
tubuh	-11.9746
efek	-11.9747
cerdas	-11.9749
cabang	-11.9752
malu	-11.9756
ampaikan	-11.9757
hrir	-11.9783
isiko	-11.9815
▁Superma	-11.983
tunjuk	-11.9844
▁pemrogram	-11.9853
▁muat	-11.9859
hole	-11.9871
bersihan	-11.9888
▁surve	-11.9891
▁menyanyi	-11.9898
jinkan	-11.9898
▁mencipta	-11.9899
▁integr	-11.9906
▁algoritm	-11.9915
bangkrut	-11.9919
▁mengundu	-11.9922
▁proporsi	-11.9922
nstein	-11.9923
takdirk	-11.9929
▁jala	-11.993
evaluasi	-11.9934
▁imajin	-11.9937
elusur	-11.9938
lmiah	-11.9938
sejahtera	-11.9939
▁gugus	-11.9939
▁penindas	-11.9939
▁1,4	-11.9939
▁Disney	-11.9939
▁Rachel	-11.9939
▁elektromagnet	-11.9939
▁pencuci	-11.9939
▁Anggota	-11.9939
▁Barbie	-11.9939
▁Blue	-11.9939
▁LOLcats	-11.9939
▁Little	-11.9939
▁Material	-11.9939
▁Statistik	-11.9939
▁Struktur	-11.9939
▁berprestasi	-11.9939
▁biomassa	-11.9939
▁dikuasai	-11.9939
▁fashion	-11.9939
▁headphone	-11.9939
▁kedutaan	-11.9939
▁kekosongan	-11.9939
▁ketiadaan	-11.9939
▁ketrampilan	-11.9939
▁membentur	-11.9939
▁memompa	-11.9939
▁memusingkan	-11.9939
▁menafsirkan	-11.9939
▁menggigit	-11.9939
▁menyederhanakan	-11.9939
▁menyingkap	-11.9939
▁merefleksikan	-11.9939
▁mockingbird	-11.9939
▁pencahayaan	-11.9939
▁pencernaan	-11.9939
▁pesulap	-11.9939
▁transenden	-11.9939
▁Ahmed	-11.9939
▁SIM	-11.9939
▁Watson	-11.9939
▁bejana	-11.9939
▁menyapu	-11.9939
▁schizoph	-11.9939
▁terhindar	-11.9939
▁tuduhan	-11.9939
▁tumpang	-11.9939
▁tayangan	-11.9939
rough	-11.9939
▁Finlandia	-11.9939
▁Sifat	-11.9939
▁kebutaan	-11.9939
▁sorot	-11.9939
▁Brasil	-11.9939
▁Sumber	-11.9939
▁brand	-11.9939
▁memuji	-11.9939
▁menghantar	-11.9939
▁Minyak	-11.9939
▁yatim	-11.9939
prakarsa	-11.9939
ontainer	-11.9939
group	-11.9939
▁Tinggi	-11.9939
▁Compa	-11.9939
▁Plato	-11.9939
▁Vanco	-11.9939
▁pedang	-11.9939
▁pemicu	-11.9939
akomodasi	-11.9939
▁berlapis	-11.9939
▁cemas	-11.9939
▁neurologi	-11.9939
▁aktual	-11.9939
▁mengamankan	-11.9939
▁revolusioner	-11.9939
▁lesbi	-11.9939
▁Kapal	-11.9939
▁rahang	-11.9939
▁Aneh	-11.9939
loncat	-11.9939
▁Dingin	-11.994
▁gitar	-11.994
▁Pembangunan	-11.994
▁postur	-11.994
▁sesuka	-11.994
▁banteng	-11.994
▁nyanyian	-11.994
▁perkapita	-11.994
ylv	-11.994
▁diretas	-11.994
▁Bantu	-11.994
▁ransel	-11.994
▁Arkansa	-11.994
▁Masuk	-11.994
▁helm	-11.994
suburan	-11.994
▁Morgan	-11.994
▁Sakit	-11.9941
tanding	-11.9941
▁auto	-11.9941
▁Jones	-11.9941
▁kecintaan	-11.9941
▁nitr	-11.9941
▁kerabat	-11.9941
▁terselubung	-11.9941
▁konstitusi	-11.9941
timbun	-11.9941
▁dipetakan	-11.9942
▁Neuro	-11.9942
▁helik	-11.9943
▁operator	-11.9943
▁Kendal	-11.9943
▁Vivi	-11.9944
▁saringan	-11.9944
golong	-11.9945
▁Masing	-11.9946
board	-11.9946
▁pisto	-11.9947
▁doa	-11.9948
▁Ingri	-11.9948
▁menyuap	-11.9948
basmi	-11.9948
▁esensi	-11.9949
jepit	-11.9949
▁jeda	-11.995
▁pengec	-11.9952
▁segmen	-11.9954
▁penjaja	-11.9954
▁Serg	-11.9955
▁menyamar	-11.9956
▁Koso	-11.9956
▁Reag	-11.9957
nominasi	-11.9971
ransformasi	-11.9973
mbor	-11.9974
indakan	-12.0003
▁merind	-12.0006
nggut	-12.0009
▁transf	-12.0023
serakah	-12.0027
ktia	-12.0027
ancur	-12.0044
Jazz	-12.0045
ergerakan	-12.0046
▁mengind	-12.005
NH	-12.005
rugi	-12.0088
demokratisasi	-12.01
erangga	-12.0112
▁mahk	-12.0164
edalaman	-12.019
OT	-12.0243
Fran	-12.0244
▁kare	-12.0258
GO	-12.0301
▁agr	-12.0315
ikasikan	-12.0329
berantas	-12.0341
▁menump	-12.035
▁Alic	-12.0354
emudi	-12.0371
ompet	-12.0382
HO	-12.0384
enggara	-12.0441
hobi	-12.0461
▁Euro	-12.0485
ague	-12.0489
▁Kost	-12.054
hidup	-12.0573
senjata	-12.0593
pelajar	-12.0596
analisis	-12.0643
kampus	-12.0647
survei	-12.0647
olahraga	-12.0648
bangunan	-12.0648
organik	-12.0649
remaja	-12.0649
pemimpin	-12.0649
fisika	-12.0649
fakta	-12.0649
kondisi	-12.065
perubahan	-12.065
pintar	-12.065
dokumen	-12.065
bukit	-12.0656
erikatan	-12.0702
▁pengendali	-12.0763
langgan	-12.0769
emiliki	-12.0783
musik	-12.079
▁mempunya	-12.0792
bincang	-12.0818
▁Aust	-12.0822
▁Moor	-12.083
▁ironi	-12.083
epatu	-12.0833
ecelakaan	-12.0845
ejadian	-12.0846
petualang	-12.0847
▁introver	-12.0848
agnostik	-12.0848
jerumus	-12.0848
▁CERN	-12.0848
▁Denisova	-12.0848
▁Freud	-12.0848
▁Infinity	-12.0848
▁Mozambi	-12.0848
▁Perilaku	-12.0848
▁Starbuck	-12.0848
▁adidaya	-12.0848
▁audiens	-12.0848
▁berimprovisasi	-12.0848
▁bervariasi	-12.0848
▁dedaunan	-12.0848
▁dihapus	-12.0848
▁diteliti	-12.0848
▁impuls	-12.0848
▁inspiratif	-12.0848
▁intrinsik	-12.0848
▁kelanjutan	-12.0848
▁kesinambungan	-12.0848
▁konsumer	-12.0848
▁menjangkit	-12.0848
▁menyayangi	-12.0848
▁merobek	-12.0848
▁miniatur	-12.0848
▁ongkos	-12.0848
▁riwayat	-12.0848
▁skeptis	-12.0848
▁sobek	-12.0848
▁sofa	-12.0848
▁tangisan	-12.0848
▁tweet	-12.0848
▁ultraviolet	-12.0848
▁Kondisi	-12.0848
▁Pemikiran	-12.0848
▁Teknik	-12.0848
▁anonim	-12.0848
▁auditori	-12.0848
▁disambut	-12.0848
▁keanehan	-12.0848
▁menyadap	-12.0848
▁porno	-12.0848
enyemprot	-12.0848
▁gips	-12.0848
▁kanvas	-12.0848
▁pelakon	-12.0848
▁Potter	-12.0848
little	-12.0848
perebutkan	-12.0848
▁DPR	-12.0848
▁melelahkan	-12.0848
▁metropoli	-12.0848
▁selimut	-12.0848
▁Dinding	-12.0848
▁kubik	-12.0848
▁Buffet	-12.0848
▁gym	-12.0848
▁komet	-12.0848
▁memuja	-12.0848
▁menguatkan	-12.0848
▁jenuh	-12.0848
▁pembajak	-12.0848
biadab	-12.0848
▁menggetarkan	-12.0848
▁topeng	-12.0848
▁Faktor	-12.0848
▁pengampun	-12.0848
▁pulsa	-12.0848
▁2.5	-12.0848
▁rindu	-12.0848
▁Justin	-12.0848
▁menyiram	-12.0848
▁biksu	-12.0848
▁membengkok	-12.0848
▁membungkuk	-12.0848
pelopor	-12.0848
▁tersulit	-12.0848
▁Lapor	-12.0848
▁Disini	-12.0848
▁sosiolog	-12.0848
▁Memberi	-12.0848
▁Ranger	-12.0848
▁metaboli	-12.0849
generalisasi	-12.0849
konversi	-12.0849
▁pensil	-12.0849
jemur	-12.0849
▁menyerbuki	-12.0849
emangat	-12.0849
▁sengit	-12.0849
▁serikat	-12.0849
▁Jacques	-12.0849
▁bangku	-12.0849
▁McKi	-12.0849
tersambung	-12.0849
▁menuduh	-12.0849
terlantar	-12.085
rangkai	-12.085
▁sekuat	-12.085
▁kehebatan	-12.085
▁Mendengar	-12.085
▁Hebat	-12.085
▁Lembaga	-12.0851
▁tanduk	-12.0851
berpihak	-12.0851
▁bermed	-12.0851
▁perpanjangan	-12.0851
frase	-12.0851
▁pembimbing	-12.0851
▁Hanna	-12.0851
▁Murid	-12.0851
▁jender	-12.0851
▁Troy	-12.0851
▁wow	-12.0852
▁menghina	-12.0852
▁Hindi	-12.0852
▁rok	-12.0854
sawah	-12.0855
▁1.50	-12.0855
▁Pasang	-12.0856
embatan	-12.0856
▁Brut	-12.0857
▁kesini	-12.0857
▁Feder	-12.0859
engidap	-12.0861
▁keluh	-12.0864
▁Miri	-12.0865
▁cekung	-12.0874
▁Kerta	-12.0876
▁berteka	-12.0885
profe	-12.0891
▁genera	-12.0912
▁mewaris	-12.0942
embuktian	-12.0954
hester	-12.0954
edengaran	-12.0957
alikota	-12.0996
mempresentasikan	-12.1119
engkomunikasikan	-12.1122
endemonstrasikan	-12.1163
penggal	-12.1195
nggalan	-12.1243
sejajar	-12.1277
ungkapkan	-12.1318
kombinasikan	-12.1369
▁koopera	-12.1401
endekatan	-12.1453
▁toleran	-12.1589
lekuk	-12.1598
latih	-12.1618
▁faks	-12.1622
benih	-12.1648
canggih	-12.1649
objek	-12.1649
robot	-12.165
keluarga	-12.165
kembali	-12.165
tetap	-12.1691
sosialisasi	-12.1698
ampanye	-12.17
ulatif	-12.1701
alirkan	-12.1709
hadiah	-12.1729
formasi	-12.1744
▁partisipa	-12.1763
▁menyeberang	-12.1797
▁menanda	-12.18
▁dicuri	-12.1836
eradaban	-12.1844
engembangan	-12.1844
ebebasan	-12.1845
esadaran	-12.1845
▁aspir	-12.1845
elubungi	-12.1847
rsitektur	-12.1847
perjuangkan	-12.1848
salahpaham	-12.1848
▁Massachus	-12.1848
▁kompeten	-12.1848
▁korpora	-12.1848
IPP	-12.1848
orizont	-12.1848
phone	-12.1848
▁Aleksander	-12.1848
▁Collider	-12.1848
▁Feminis	-12.1848
▁Ketakutan	-12.1848
▁Lawrence	-12.1848
▁Mediter	-12.1848
▁Network	-12.1848
▁Nichol	-12.1848
▁Night	-12.1848
▁TEDGlobal	-12.1848
▁Tennesse	-12.1848
▁Vagina	-12.1848
▁absolut	-12.1848
▁heteroseks	-12.1848
▁kearifan	-12.1848
▁kemiripan	-12.1848
▁kerajinan	-12.1848
▁ketidaknyamanan	-12.1848
▁koordinat	-12.1848
▁kuantitatif	-12.1848
▁legitimasi	-12.1848
▁memprote	-12.1848
▁menaklukkan	-12.1848
▁menanggalkan	-12.1848
▁menarget	-12.1848
▁mencekik	-12.1848
▁mendidih	-12.1848
▁mengejek	-12.1848
▁mengesampingkan	-12.1848
▁merajalela	-12.1848
▁neuromodula	-12.1848
▁pemrosesan	-12.1848
▁piyama	-12.1848
▁pluripoten	-12.1848
▁produser	-12.1848
▁selebriti	-12.1848
▁semburan	-12.1848
▁sinagog	-12.1848
▁substansi	-12.1848
▁tindih	-12.1848
▁truffle	-12.1848
cantum	-12.1848
dambakan	-12.1848
doktrin	-12.1848
maksimum	-12.1848
▁Build	-12.1848
▁Lingkaran	-12.1848
▁Populasi	-12.1848
▁Rahasia	-12.1848
▁berdansa	-12.1848
▁implikasi	-12.1848
▁kebugaran	-12.1848
▁kerusuhan	-12.1848
▁menyemangati	-12.1848
▁mungil	-12.1848
klasifikasi	-12.1848
▁Pelayan	-12.1848
▁Spring	-12.1848
▁ekstensi	-12.1848
▁penghidupan	-12.1848
▁Jimmy	-12.1848
▁Tunjuk	-12.1848
osophi	-12.1848
pecies	-12.1848
▁menopang	-12.1848
▁pengembal	-12.1848
▁resesi	-12.1848
▁arteri	-12.1848
▁mengawetkan	-12.1848
▁pinggang	-12.1848
▁kelakuan	-12.1848
▁menemani	-12.1848
▁Terjadi	-12.1848
♫	-13.5133
:	-13.5134
)	-13.5135
—	-13.5136
?	-13.5137
&	-13.5138
