<unk>	0
<s>	0
</s>	0
▁,	-3.23246
▁.	-3.28498
e	-3.62293
o	-3.6259
;	-3.7084
a	-3.76808
▁di	-3.82994
i	-3.98311
▁che	-4.07473
▁e	-4.255
apos	-4.2554
&	-4.40203
▁&	-4.41718
▁	-4.42396
▁un	-4.46342
▁è	-4.54035
▁la	-4.59791
quot	-4.61718
▁in	-4.63748
▁a	-4.67516
▁il	-4.68561
▁per	-4.85914
▁non	-5.10887
▁una	-5.12344
no	-5.1704
▁E	-5.21074
▁l	-5.31066
▁le	-5.32207
▁i	-5.39631
▁dell	-5.42912
▁sono	-5.45489
▁si	-5.45825
▁con	-5.53432
▁da	-5.58817
re	-5.59122
▁del	-5.60095
▁più	-5.6513
▁come	-5.67549
▁?	-5.72588
▁questo	-5.76622
te	-5.82258
▁:	-5.85742
▁ma	-5.95324
▁se	-5.98895
▁ha	-6.01731
▁ci	-6.01985
▁era	-6.10071
▁al	-6.11315
▁Ma	-6.11429
▁nel	-6.14341
mente	-6.1523
▁)	-6.16227
(	-6.16313
to	-6.1661
▁nell	-6.18029
▁mi	-6.19306
▁o	-6.26174
▁dei	-6.29405
▁cosa	-6.29634
▁ho	-6.31068
▁molto	-6.33134
▁gli	-6.37156
▁abbiamo	-6.38905
▁questa	-6.3955
▁lo	-6.41558
▁su	-6.42909
▁cui	-6.43703
▁loro	-6.43761
▁Quest	-6.44742
▁—	-6.44931
▁delle	-6.45537
▁c	-6.45846
▁perché	-6.46262
▁essere	-6.47091
▁A	-6.47788
▁Non	-6.48136
▁anni	-6.48961
▁alla	-6.50761
▁nostr	-6.51575
▁persone	-6.52677
▁fare	-6.53886
▁anche	-6.54801
▁La	-6.56062
▁quando	-6.5886
s	-6.58957
▁hanno	-6.59091
mo	-6.60594
ndo	-6.61261
ta	-6.62611
▁solo	-6.63695
▁d	-6.63912
iamo	-6.66437
▁così	-6.66455
si	-6.71133
▁ad	-6.71872
▁fa	-6.72078
▁Il	-6.72138
▁mondo	-6.72798
▁quest	-6.72864
▁tutti	-6.73568
▁modo	-6.76216
▁tutto	-6.7641
▁quello	-6.77793
▁vi	-6.79042
▁fatto	-6.80596
va	-6.81024
▁C	-6.8242
▁all	-6.83767
ti	-6.84952
▁cose	-6.85526
▁sull	-6.87759
ò	-6.87775
▁Risate	-6.90302
che	-6.92648
ri	-6.92744
la	-6.94207
le	-6.94644
▁parte	-6.94795
▁tra	-6.95842
▁questi	-6.96146
▁In	-6.96628
▁prima	-6.97491
▁noi	-6.99127
▁È	-6.99192
▁stato	-7.0014
▁Quindi	-7.00344
▁dove	-7.01012
▁vita	-7.01329
▁qual	-7.01449
▁ed	-7.02251
li	-7.03409
▁mio	-7.04572
▁due	-7.06056
▁qui	-7.06354
▁Se	-7.06427
▁sia	-7.08666
are	-7.09343
ci	-7.09589
▁mia	-7.10161
▁L	-7.11554
▁me	-7.12258
-	-7.13783
▁Per	-7.14515
▁quell	-7.14834
▁ogni	-7.16091
può	-7.17152
▁ciò	-7.18126
▁ne	-7.18372
▁sta	-7.20228
gli	-7.20747
▁dal	-7.20787
▁qualcosa	-7.21101
zione	-7.21542
rà	-7.21849
▁poi	-7.22256
▁I	-7.22905
▁tempo	-7.24322
ne	-7.25635
▁siamo	-7.26028
vo	-7.26551
▁sul	-7.26571
r	-7.27512
▁altro	-7.2782
▁♫	-7.3017
vano	-7.30404
▁po	-7.30979
▁uno	-7.3176
▁Ci	-7.31953
tà	-7.32571
▁quel	-7.33023
na	-7.3386
▁ora	-7.34697
▁ancora	-7.34843
▁vedere	-7.35008
▁-	-7.3551
l	-7.35527
▁Si	-7.35981
ro	-7.36382
▁mai	-7.36878
▁dall	-7.37149
▁aveva	-7.377
▁grande	-7.39634
ni	-7.40313
n	-7.40363
t	-7.41156
bbiamo	-7.41414
di	-7.4291
egli	-7.43648
▁possiamo	-7.43679
▁Ho	-7.4368
▁Applausi	-7.4399
▁dire	-7.441
▁sa	-7.45146
▁gente	-7.45271
▁alle	-7.45507
▁sempre	-7.45821
nte	-7.45852
▁davvero	-7.46464
▁voi	-7.46859
▁...	-7.46928
▁Mi	-7.47533
▁lavoro	-7.48078
mi	-7.48333
y	-7.48711
▁dopo	-7.49405
▁vostr	-7.49931
▁volta	-7.50152
ità	-7.50337
▁idea	-7.5037
▁Sono	-7.50956
lo	-7.51252
ca	-7.51503
▁dalla	-7.51968
▁io	-7.51994
vi	-7.52099
▁Ora	-7.52629
▁altri	-7.53721
ra	-7.54396
▁Le	-7.54478
▁quanto	-7.54676
▁tutt	-7.56278
ato	-7.5716
ono	-7.57867
▁storia	-7.58122
.	-7.58156
▁s	-7.59909
▁tre	-7.61062
▁anno	-7.62152
▁detto	-7.63611
rsi	-7.63749
g	-7.64443
▁oggi	-7.64667
▁quindi	-7.64929
▁Perché	-7.6547
▁giorno	-7.66654
▁suo	-7.67033
unque	-7.67377
▁problema	-7.67402
co	-7.6749
▁tipo	-7.68172
▁senza	-7.68564
▁avere	-7.68591
▁stata	-7.69966
▁Grazie	-7.70107
▁sua	-7.70221
▁esempio	-7.70561
▁nei	-7.70591
▁punto	-7.72995
▁realtà	-7.73365
▁proprio	-7.73693
▁stesso	-7.73739
amente	-7.74215
mento	-7.75102
▁molti	-7.75268
▁Un	-7.75408
se	-7.75604
▁pote	-7.7579
▁bene	-7.75887
▁ai	-7.76091
▁altra	-7.76682
▁sistema	-7.76995
sse	-7.774
▁S	-7.77854
▁bisogno	-7.79466
ma	-7.79996
▁mie	-7.80055
de	-7.80128
▁Ed	-7.81048
p	-7.8116
▁fu	-7.81757
▁meno	-7.81981
▁Quand	-7.82793
▁importante	-7.82835
▁nostri	-7.82934
▁circa	-7.83271
ce	-7.83423
u	-7.83471
rci	-7.83764
▁P	-7.84191
▁ri	-7.84232
he	-7.84283
mmo	-7.84797
▁Come	-7.85343
▁O	-7.85419
▁posson	-7.86387
▁so	-7.8668
▁nuovo	-7.87863
▁chi	-7.87959
▁Cos	-7.88246
▁Ecco	-7.88471
▁fuori	-7.88509
nti	-7.88554
▁far	-7.88953
▁bambini	-7.89894
sti	-7.8996
ranno	-7.90102
▁momento	-7.90326
sa	-7.90424
▁altre	-7.9063
▁credo	-7.9128
▁acqua	-7.91464
▁!	-7.91867
▁li	-7.92092
▁negli	-7.92279
▁D	-7.92671
c	-7.92932
d	-7.93607
▁casa	-7.94701
▁Di	-7.96391
▁città	-7.97029
▁ero	-7.97859
▁volte	-7.98778
ssi	-7.9898
amo	-7.99064
▁forma	-7.99112
▁fine	-7.99264
▁mentr	-7.99685
ando	-8.00098
▁de	-8.00489
▁stiamo	-8.00533
▁dati	-8.01493
▁capire	-8.01824
▁visto	-8.01846
▁fosse	-8.01974
m	-8.02348
▁tecnologia	-8.02528
▁vien	-8.02813
▁andare	-8.03339
▁attravers	-8.04054
▁insieme	-8.04903
vamo	-8.05175
▁alcun	-8.05355
▁creare	-8.05866
▁cervello	-8.06081
▁milioni	-8.06311
▁stanno	-8.06312
▁voglio	-8.07304
▁G	-8.07787
sta	-8.07867
▁primo	-8.08699
▁donne	-8.08996
▁forse	-8.09003
▁alcuni	-8.09274
▁stati	-8.09455
tti	-8.10184
▁10	-8.1034
▁tratta	-8.10827
h	-8.11256
▁Lo	-8.11662
▁pensare	-8.12124
▁sarebbe	-8.13054
▁dice	-8.13114
▁ti	-8.13396
▁dobbiamo	-8.13909
tta	-8.13985
▁qualcuno	-8.1406
▁grandi	-8.14167
me	-8.14222
ate	-8.14231
zza	-8.1456
▁Era	-8.14576
▁quelle	-8.14837
rmi	-8.14932
▁parlare	-8.14944
▁già	-8.14966
▁Vi	-8.14982
tto	-8.15082
▁Ha	-8.15095
▁via	-8.15331
osì	-8.1549
▁sembra	-8.15595
▁molte	-8.15631
ga	-8.15962
▁domanda	-8.15975
▁20	-8.16011
do	-8.1603
▁stessa	-8.16544
▁u	-8.16723
▁veramente	-8.17319
▁lui	-8.17593
ete	-8.178
▁Quell	-8.18018
▁persona	-8.18765
▁Una	-8.19008
▁vers	-8.19083
▁B	-8.19114
▁farlo	-8.20107
▁potrebbe	-8.20285
▁allora	-8.20302
f	-8.20591
▁fanno	-8.20982
▁lì	-8.21043
▁specie	-8.21176
▁problemi	-8.21443
▁umani	-8.21576
avete	-8.21993
rono	-8.22122
▁va	-8.22715
▁te	-8.2312
▁é	-8.23176
▁sotto	-8.23188
▁caso	-8.23408
▁chiamat	-8.23636
ff	-8.2392
▁F	-8.24294
endo	-8.24479
ati	-8.24511
ali	-8.24709
▁fino	-8.24844
▁facendo	-8.24918
▁senso	-8.24961
▁porta	-8.25606
▁diventa	-8.25698
▁successo	-8.25781
▁significa	-8.2613
ì	-8.26414
▁succede	-8.26492
▁avuto	-8.26882
rò	-8.26999
▁grad	-8.27254
▁penso	-8.27308
▁auto	-8.27373
▁posso	-8.27557
▁meglio	-8.27665
▁funziona	-8.28269
▁dollari	-8.28276
ale	-8.28754
▁livell	-8.28806
▁computer	-8.28878
▁possa	-8.29061
rlo	-8.30861
▁quasi	-8.31093
▁possibile	-8.31286
▁numero	-8.31582
▁abbastanza	-8.31656
▁futuro	-8.32017
k	-8.32252
ste	-8.32313
da	-8.32512
▁corpo	-8.32735
▁Io	-8.32832
▁no	-8.32959
▁difficile	-8.33377
▁vero	-8.33442
ng	-8.33486
▁miliard	-8.3383
▁posto	-8.34105
▁foto	-8.34108
▁società	-8.34134
go	-8.34234
ata	-8.34651
▁Da	-8.34891
▁vedete	-8.35298
▁secondo	-8.35358
▁tutta	-8.35543
▁siano	-8.35558
▁trovare	-8.3556
▁uomo	-8.35748
▁progetto	-8.35975
▁certo	-8.35976
tte	-8.36346
▁energia	-8.36515
▁usare	-8.36941
▁spazio	-8.36994
▁Nel	-8.37553
▁avevo	-8.37731
▁tanto	-8.37903
▁ricerca	-8.38105
▁maggior	-8.38347
▁aver	-8.393
tori	-8.40447
ter	-8.4076
▁comunità	-8.41566
▁com	-8.41574
▁sei	-8.41805
▁diversi	-8.41897
▁facciamo	-8.42138
nza	-8.42952
▁Che	-8.43401
pi	-8.43702
▁semplice	-8.43904
▁niente	-8.44056
▁paese	-8.44202
▁devo	-8.44334
▁quattro	-8.44455
▁p	-8.4453
so	-8.44937
▁pres	-8.44972
▁Poi	-8.45087
A	-8.45534
omini	-8.45848
▁gruppo	-8.46632
▁agli	-8.46723
in	-8.4685
▁ecco	-8.46887
▁poter	-8.46955
ge	-8.47064
▁invec	-8.47099
▁re	-8.47426
▁paesi	-8.47623
▁J	-8.47837
▁state	-8.4793
on	-8.47997
ver	-8.48125
▁disse	-8.48677
pe	-8.48754
lla	-8.48818
▁lungo	-8.48939
▁prendere	-8.49039
▁sto	-8.49152
▁causa	-8.49343
▁stava	-8.50115
▁Beh	-8.50481
▁cambiare	-8.50523
▁Con	-8.50554
er	-8.50668
▁scuola	-8.50985
▁spesso	-8.50997
▁sp	-8.51125
▁piccolo	-8.51125
▁luce	-8.51166
ria	-8.51439
fi	-8.51751
▁inizia	-8.51925
▁arriva	-8.52065
ggi	-8.52091
ve	-8.52111
▁effetti	-8.5214
▁probabil	-8.52561
0	-8.52624
▁informazioni	-8.52709
à	-8.52736
▁mezzo	-8.52816
▁tu	-8.52837
du	-8.52972
▁Voglio	-8.52999
▁Gli	-8.53032
▁Stati	-8.53034
▁adesso	-8.53608
▁parol	-8.53813
▁vengono	-8.54034
▁diverse	-8.54185
▁interessante	-8.543
▁nuova	-8.54371
▁Do	-8.54551
▁ragazzi	-8.54729
▁Africa	-8.54999
▁migliore	-8.55403
▁sapete	-8.55441
▁strada	-8.55594
▁chiama	-8.55815
x	-8.55841
▁Uniti	-8.5597
▁trova	-8.56041
.000	-8.56068
rvi	-8.56235
▁iniziato	-8.56488
▁stessi	-8.56543
zioni	-8.5656
one	-8.5683
▁mort	-8.5694
▁sappiamo	-8.57316
▁mano	-8.57342
▁contro	-8.57459
▁No	-8.57591
▁base	-8.57805
▁immagine	-8.57921
▁cellule	-8.58261
▁deve	-8.58387
▁quali	-8.58483
▁W	-8.59542
bi	-8.59842
S	-8.59895
ssero	-8.60056
▁video	-8.60148
▁imp	-8.60175
▁giorni	-8.60215
▁macchina	-8.60215
▁quei	-8.60336
▁3	-8.60376
▁cibo	-8.60455
▁ra	-8.60487
▁mostra	-8.60578
z	-8.60605
▁col	-8.60874
▁troppo	-8.61672
▁dato	-8.61819
▁idee	-8.61936
▁scoperto	-8.62016
chi	-8.62144
▁f	-8.62154
▁parla	-8.62155
▁piuttos	-8.62209
▁semplicemente	-8.62466
▁quelli	-8.62536
▁pianeta	-8.62612
▁piace	-8.62791
▁risposta	-8.62884
▁suoi	-8.6296
▁ce	-8.63051
ciò	-8.63553
▁New	-8.63643
▁figli	-8.63665
▁media	-8.63682
▁famiglia	-8.63729
▁capacità	-8.63879
us	-8.63955
▁appen	-8.64019
▁esperienz	-8.64541
▁pubblico	-8.64762
▁inizio	-8.64855
ru	-8.64974
è	-8.65096
▁interno	-8.65119
2	-8.65187
w	-8.65302
▁sentit	-8.65738
▁mesi	-8.65748
ur	-8.65786
▁programma	-8.65799
▁pro	-8.65883
▁cinque	-8.66108
▁testa	-8.6636
▁duran	-8.66896
▁costruire	-8.67232
mp	-8.67665
▁vediamo	-8.67826
▁pensato	-8.68019
rr	-8.68038
▁cento	-8.68156
▁potere	-8.68256
▁lavorare	-8.68323
▁avre	-8.68374
▁Al	-8.68566
▁animali	-8.68672
▁natura	-8.68777
▁cambiamento	-8.68779
▁avanti	-8.68781
▁oltre	-8.68974
▁processo	-8.69437
C	-8.69547
gi	-8.69737
nta	-8.69997
▁completamente	-8.69999
▁piccol	-8.70106
▁nessuno	-8.70185
▁Ri	-8.70297
▁dovut	-8.70771
▁50	-8.70832
bile	-8.7085
▁sui	-8.70866
ssimo	-8.71193
an	-8.71408
▁ultimi	-8.71449
▁bambino	-8.71814
▁30	-8.72139
▁sapere	-8.7215
man	-8.72233
▁Ne	-8.72906
▁giusto	-8.73267
ns	-8.73629
ba	-8.73787
erà	-8.73811
▁film	-8.73906
▁abbia	-8.73925
▁umano	-8.74397
▁100	-8.74676
▁avrebbe	-8.74753
tt	-8.75077
▁grazie	-8.7508
▁Poss	-8.75082
llora	-8.753
za	-8.75482
▁creato	-8.75486
▁Pens	-8.75496
▁av	-8.75589
▁genere	-8.7596
▁soluzion	-8.76117
▁nome	-8.76291
▁immagini	-8.766
▁gran	-8.76729
▁diverso	-8.76967
▁liber	-8.77634
▁continua	-8.7779
▁Qual	-8.77821
dentro	-8.78109
▁sviluppo	-8.78113
bili	-8.78181
▁pensa	-8.78321
▁madre	-8.78341
▁comincia	-8.78517
▁N	-8.7874
▁giro	-8.78792
▁donna	-8.79052
▁vista	-8.79403
▁particolare	-8.79872
▁alto	-8.79985
▁forza	-8.80135
sce	-8.80229
▁libro	-8.80377
▁poc	-8.80425
▁conto	-8.80457
▁possibilità	-8.80508
▁terra	-8.80618
▁poteva	-8.80739
▁sì	-8.80942
▁governo	-8.80975
▁guerra	-8.81032
▁modello	-8.81096
D	-8.8116
▁parti	-8.81348
▁dare	-8.81363
nd	-8.8143
▁storie	-8.81468
▁chiest	-8.81546
▁cercando	-8.81589
▁Qui	-8.82035
tra	-8.82134
▁vorre	-8.82205
▁tuo	-8.82665
▁scienza	-8.82725
tore	-8.82931
▁arte	-8.82978
ssa	-8.8304
▁motiv	-8.83329
▁campo	-8.83356
▁trov	-8.83769
▁modi	-8.83804
▁struttura	-8.83808
▁Terra	-8.83937
v	-8.83989
I	-8.84088
▁vogliamo	-8.84222
▁pre	-8.84229
▁Bene	-8.8437
▁ambiente	-8.84467
▁TED	-8.84561
▁paio	-8.84562
zz	-8.84679
▁rispetto	-8.84812
▁vivere	-8.84875
▁scelt	-8.84916
91	-8.84976
▁occhi	-8.8508
▁vole	-8.85338
▁Mo	-8.85718
▁passato	-8.85779
▁nuove	-8.85827
▁5	-8.85926
▁4	-8.85947
ut	-8.85957
▁qualsia	-8.861
▁migliaia	-8.86224
▁indietro	-8.86338
▁India	-8.86864
▁enorme	-8.86982
▁mettere	-8.86996
▁cercar	-8.87368
▁luogo	-8.87627
▁terz	-8.87634
▁studenti	-8.87757
tu	-8.87793
azione	-8.87851
hi	-8.88086
▁amici	-8.8828
▁ve	-8.88366
▁Chi	-8.88716
▁cos	-8.88935
▁Pote	-8.88973
▁sola	-8.8908
▁permette	-8.8924
ck	-8.89714
▁piccoli	-8.89812
▁ragione	-8.89988
▁seconda	-8.89991
▁domande	-8.90001
▁cerca	-8.90023
lli	-8.90224
▁soldi	-8.90269
ork	-8.90366
▁periodo	-8.90391
▁differenza	-8.90792
en	-8.90799
▁ovviamente	-8.90807
▁question	-8.90888
▁intorno	-8.90928
▁vuole	-8.91033
▁crescita	-8.91061
▁15	-8.91081
▁globale	-8.91198
▁Credo	-8.91296
▁gioco	-8.91353
▁ore	-8.91357
▁America	-8.91393
▁Questi	-8.91398
▁design	-8.91435
▁cominciato	-8.91586
▁secolo	-8.92062
▁studio	-8.92111
▁trovato	-8.92232
▁ultim	-8.92435
▁crea	-8.9248
▁musica	-8.9273
cu	-8.92806
▁mercato	-8.92958
▁Sì	-8.9304
lu	-8.93168
▁rende	-8.93202
▁T	-8.93222
▁centro	-8.93248
▁incredibile	-8.93376
rla	-8.93378
▁allo	-8.93772
ll	-8.94193
▁pi	-8.94216
▁mente	-8.94227
▁vede	-8.94242
sso	-8.94304
▁test	-8.94339
▁vivo	-8.94394
▁potut	-8.94605
▁K	-8.94774
▁cura	-8.94909
93;	-8.95033
▁facci	-8.9528
▁Li	-8.95468
▁Hann	-8.9548
▁padre	-8.95875
▁Me	-8.95933
▁aiuta	-8.95986
▁rappresenta	-8.9599
▁robot	-8.96461
▁serie	-8.96635
▁mani	-8.96697
▁migliori	-8.96698
▁Siam	-8.96813
tura	-8.96852
lle	-8.96972
▁Re	-8.9702
▁opportunità	-8.97155
▁200	-8.97202
ch	-8.97213
ché	-8.97276
▁economia	-8.9745
▁nuovi	-8.97724
▁puo	-8.9794
▁Oggi	-8.98363
P	-8.98547
▁sopra	-8.98587
M	-8.98721
▁parola	-8.98736
b	-8.98954
▁nulla	-8.99025
▁vicino	-8.99031
▁reale	-8.99372
▁paura	-8.99372
gra	-8.99395
▁Internet	-8.99462
po	-8.99535
▁costruit	-8.99593
rne	-8.99822
▁faccia	-8.99836
▁dovrebbe	-8.99875
un	-8.99896
▁alta	-8.99953
▁esattamente	-9.00207
▁là	-9.0085
▁pensate	-9.00871
▁guardar	-9.01133
T	-9.01236
▁imparato	-9.01324
▁minuti	-9.0138
sh	-9.01432
8	-9.01636
nto	-9.01735
der	-9.01785
▁vive	-9.01974
▁salute	-9.02087
▁popolazione	-9.02331
▁genitori	-9.0237
rus	-9.02383
▁lontan	-9.02462
▁Ok	-9.02977
▁primi	-9.02983
pa	-9.03009
▁esiste	-9.03011
▁Anch	-9.03388
sci	-9.03411
st	-9.03627
▁linea	-9.03684
llo	-9.03709
▁legge	-9.03711
▁voleva	-9.03722
▁solit	-9.03822
▁sistemi	-9.03945
nt	-9.04078
▁sociale	-9.04133
▁usa	-9.04142
▁uso	-9.04206
▁importanti	-9.04235
▁centinai	-9.0425
▁buona	-9.04335
▁So	-9.0435
meno	-9.04505
▁valor	-9.04813
▁facile	-9.04866
▁imparare	-9.04877
erò	-9.04992
▁Sape	-9.05253
▁2	-9.05294
▁guarda	-9.05324
▁cancro	-9.05329
▁dovrem	-9.05582
▁metà	-9.05632
▁controllo	-9.05659
9	-9.058
▁lei	-9.05802
▁posti	-9.06013
▁arrivat	-9.06115
pp	-9.06178
7	-9.06195
▁St	-9.0621
▁settimana	-9.06576
▁attenzione	-9.06733
▁risultato	-9.06791
▁umana	-9.06891
fo	-9.06933
son	-9.06973
5	-9.0707
▁prova	-9.07154
▁dicono	-9.07218
▁sentire	-9.07459
▁aspetto	-9.07522
▁Ba	-9.07523
▁universo	-9.07525
um	-9.07561
▁attività	-9.07754
▁portare	-9.07884
▁misura	-9.07966
▁40	-9.08014
▁scala	-9.08084
▁vedo	-9.08177
▁vite	-9.08252
▁Noi	-9.08289
▁and	-9.08393
▁Tutti	-9.084
▁g	-9.08491
▁unica	-9.08539
▁arrivare	-9.08723
▁cultura	-9.08909
▁1	-9.09091
▁chiede	-9.09115
▁ottener	-9.09128
▁batteri	-9.09239
▁Cina	-9.0927
▁scritto	-9.09324
▁capito	-9.09355
▁aziende	-9.0944
▁tipi	-9.0959
▁passa	-9.09647
▁U	-9.09653
▁politica	-9.09704
▁forte	-9.09758
▁rete	-9.0978
bilità	-9.09915
1	-9.09986
▁strumenti	-9.10238
▁giovani	-9.10388
ppur	-9.10541
▁comune	-9.10577
▁sicurezza	-9.10745
▁prende	-9.10927
▁diritt	-9.11057
▁perchè	-9.11096
ari	-9.11112
▁propria	-9.1112
▁Alcun	-9.11232
▁portato	-9.11268
nu	-9.11341
▁pratica	-9.11368
ud	-9.11494
▁cuore	-9.11511
▁messo	-9.11532
E	-9.11699
▁studi	-9.11728
▁corso	-9.11745
▁diventar	-9.11763
▁nazion	-9.11821
▁potrem	-9.11906
▁Dio	-9.11961
▁breve	-9.12025
▁Fors	-9.12348
gari	-9.12355
▁male	-9.12377
▁movimento	-9.12722
▁usando	-9.12896
▁opera	-9.12976
▁dietro	-9.13114
tro	-9.1317
▁sarann	-9.13183
▁sfida	-9.13223
rt	-9.13334
▁Sa	-9.13349
▁teori	-9.13357
▁ben	-9.13815
▁aria	-9.13849
nde	-9.13851
ul	-9.13925
ster	-9.13997
▁riguarda	-9.13999
▁Be	-9.14079
▁intera	-9.14148
▁De	-9.14229
cchi	-9.14236
fer	-9.14357
▁creativ	-9.14707
▁metri	-9.14805
00	-9.14916
min	-9.14966
▁fantastic	-9.1506
▁quantità	-9.15164
nne	-9.15217
▁pazienti	-9.15256
▁simile	-9.15258
▁notte	-9.15326
ico	-9.15481
▁car	-9.1557
▁sicuro	-9.15599
▁rischio	-9.15616
▁unico	-9.15642
▁felici	-9.1577
▁tecnologie	-9.15771
ing	-9.15944
▁basso	-9.16183
▁prodott	-9.16209
▁vogliono	-9.16258
ica	-9.16352
menti	-9.16557
mer	-9.16576
▁immaginare	-9.16612
4	-9.16873
▁tanti	-9.17101
▁cre	-9.17408
▁Tutto	-9.17682
▁voc	-9.1798
sto	-9.18361
▁resto	-9.18696
▁fin	-9.18752
▁situazione	-9.18754
ismo	-9.18775
▁guardate	-9.18968
▁stesse	-9.19002
▁stanza	-9.19073
▁Nell	-9.19504
bo	-9.19605
▁Ogn	-9.19783
▁tante	-9.19816
▁Tutt	-9.19835
▁serve	-9.19992
▁van	-9.20184
▁malatti	-9.20216
cca	-9.20231
▁parlando	-9.20261
▁faceva	-9.20333
oni	-9.20338
rli	-9.20339
▁risorse	-9.20419
▁All	-9.2055
▁diversa	-9.20806
rti	-9.20812
ment	-9.20832
▁passo	-9.20863
▁informazione	-9.20886
fa	-9.21053
▁Ra	-9.21055
▁deciso	-9.21068
▁età	-9.2109
▁sole	-9.21211
▁18	-9.21626
▁risultati	-9.21646
▁almeno	-9.21884
▁intero	-9.21943
▁usato	-9.22034
▁Dopo	-9.2211
▁Com	-9.22256
▁stavo	-9.22499
▁anda	-9.22639
▁Oh	-9.22644
▁termini	-9.22713
3	-9.22723
▁60	-9.22847
▁naturale	-9.2288
▁superficie	-9.22905
▁buon	-9.22922
▁piano	-9.23017
▁hai	-9.23039
▁tua	-9.23074
▁sinistra	-9.23082
▁acc	-9.23087
al	-9.23104
fica	-9.23137
rebbe	-9.23196
▁mette	-9.23579
▁M	-9.23655
stra	-9.23668
▁fondamental	-9.23689
▁mostr	-9.23872
▁assoluta	-9.24097
▁arriv	-9.2435
▁fra	-9.24496
▁DNA	-9.24573
▁progetti	-9.24573
▁fronte	-9.24579
th	-9.24627
vanti	-9.24719
▁strument	-9.24785
▁nessun	-9.24827
▁amore	-9.24838
sé	-9.25141
▁potrebber	-9.25261
▁punti	-9.25289
▁comp	-9.25302
▁piedi	-9.25432
O	-9.25528
ante	-9.25786
▁lavora	-9.25819
rd	-9.25964
▁entra	-9.25974
ar	-9.26074
▁letto	-9.26308
▁risolvere	-9.26324
▁sacco	-9.26333
▁stare	-9.2658
▁viaggio	-9.26617
▁nem	-9.26691
▁pezzo	-9.26828
▁volevo	-9.26961
▁accade	-9.27028
▁super	-9.27352
▁vera	-9.27357
▁conta	-9.27397
▁parlato	-9.27468
▁fatti	-9.27578
▁fatta	-9.27618
R	-9.27735
▁scienziati	-9.27818
▁destra	-9.27854
▁ultima	-9.28037
zi	-9.28284
▁prodotto	-9.28295
▁casi	-9.28459
▁Ero	-9.28473
▁app	-9.28555
▁affrontare	-9.28747
▁diceva	-9.29152
ene	-9.29256
▁grupp	-9.29272
lmente	-9.29511
▁oggetti	-9.29565
▁libri	-9.29796
▁pensiamo	-9.29796
▁rispost	-9.29838
6	-9.299
▁sociali	-9.29933
▁blu	-9.2998
▁piccole	-9.30056
▁Fa	-9.30086
▁recente	-9.30174
▁entramb	-9.302
▁mappa	-9.30391
▁verità	-9.304
▁ricorda	-9.30523
▁laboratorio	-9.30555
eremo	-9.30572
▁accesso	-9.30579
▁azienda	-9.30601
▁CA	-9.30627
▁Uno	-9.30715
▁finit	-9.3073
▁geni	-9.30745
▁innovazion	-9.30772
▁mille	-9.30861
▁dicendo	-9.30879
▁fisica	-9.30971
▁impatto	-9.30972
▁qualità	-9.31064
▁aiutare	-9.31092
▁ba	-9.31229
nce	-9.31287
▁senti	-9.31376
rle	-9.31425
▁6	-9.31456
▁singol	-9.31463
remo	-9.3177
▁area	-9.32156
▁macchine	-9.32179
▁fondo	-9.32188
rete	-9.32239
▁sc	-9.32326
▁denaro	-9.32382
▁Vorre	-9.32383
ava	-9.32691
▁scopert	-9.32771
▁Sta	-9.32867
zio	-9.32962
cco	-9.33096
▁pochi	-9.33143
▁termine	-9.33402
▁comportamento	-9.33631
▁Nessun	-9.33814
▁iniziare	-9.34304
▁Fu	-9.34319
▁malattia	-9.34409
▁scoprire	-9.3443
sco	-9.34452
▁esseri	-9.34596
▁meraviglios	-9.34675
▁Europa	-9.34848
▁scorso	-9.34863
nda	-9.35032
▁venut	-9.35478
▁discors	-9.35489
tica	-9.35529
▁pur	-9.35645
▁istruzione	-9.36005
G	-9.36032
ggio	-9.36084
▁figlio	-9.36355
é	-9.36478
▁costa	-9.36518
▁Musica	-9.36527
▁mor	-9.36547
▁aree	-9.36674
▁carta	-9.36692
▁sort	-9.36725
▁Vedete	-9.36739
▁riguardo	-9.36883
▁veniva	-9.36906
▁settimane	-9.36952
▁conseguenz	-9.37164
▁ognun	-9.37164
▁ragazzo	-9.37165
▁bi	-9.37177
▁pubblica	-9.37471
▁settor	-9.37506
▁rendere	-9.37755
▁sento	-9.37759
ghe	-9.37847
▁cor	-9.3788
▁conosce	-9.38
▁tempi	-9.38034
▁amico	-9.38239
▁torna	-9.38381
▁lavorato	-9.38506
▁influenza	-9.38565
▁12	-9.38614
bb	-9.38738
▁prove	-9.3888
▁andato	-9.38992
▁semplici	-9.39003
▁molt	-9.39301
▁colp	-9.39389
▁istituzion	-9.39535
▁materiale	-9.39823
L	-9.39955
▁cambiamenti	-9.39983
▁forme	-9.40225
zia	-9.40262
▁80	-9.40283
gen	-9.4035
▁sanno	-9.40454
▁sette	-9.40483
col	-9.40576
▁R	-9.40824
▁cal	-9.40954
▁soli	-9.40997
▁modelli	-9.41074
▁compagni	-9.41515
▁condividere	-9.41587
▁fosser	-9.41589
▁Prima	-9.4163
zzare	-9.41639
▁oggetto	-9.4174
▁regole	-9.4174
▁conoscenza	-9.41882
▁Tra	-9.42056
▁linguaggi	-9.42252
▁provare	-9.42264
avia	-9.42393
▁Su	-9.42432
ndi	-9.42474
▁potrest	-9.4255
▁lavorando	-9.42589
B	-9.4276
▁manier	-9.42788
▁otto	-9.42981
▁bella	-9.43187
▁suono	-9.43242
▁rimast	-9.43329
▁Va	-9.43529
▁leader	-9.43558
▁medicina	-9.43625
▁dico	-9.43907
gg	-9.43979
▁velocità	-9.44022
▁neanch	-9.4423
▁matematica	-9.44252
▁generazione	-9.4428
▁numeri	-9.44452
▁persino	-9.44522
né	-9.446
▁accordo	-9.44682
▁Cert	-9.44708
wa	-9.44729
▁scrivere	-9.44782
▁cambiato	-9.44862
▁sarebbero	-9.44969
vrebbero	-9.45008
▁costo	-9.45137
▁cambia	-9.45177
or	-9.45318
▁importa	-9.45487
▁25	-9.45547
▁Molt	-9.45601
▁ovunque	-9.45605
ù	-9.45687
▁Ad	-9.45756
▁crescere	-9.45815
▁evoluzione	-9.45837
rs	-9.45901
▁riesc	-9.45905
▁contatt	-9.46007
▁maggiore	-9.46272
▁consum	-9.46276
▁edificio	-9.46346
▁volut	-9.46425
▁subito	-9.46541
▁7	-9.46695
▁mare	-9.46709
▁oceano	-9.4677
▁vision	-9.46829
be	-9.46873
▁speranza	-9.46934
▁color	-9.46962
▁democrazi	-9.4724
▁realmente	-9.47241
▁inter	-9.47408
▁Google	-9.47476
▁11	-9.47568
▁produzione	-9.47712
▁soprattut	-9.47713
▁basat	-9.47775
ero	-9.47785
▁San	-9.47831
▁fate	-9.47834
▁interessa	-9.47911
▁Ti	-9.4792
ner	-9.47935
tri	-9.48018
ven	-9.48125
▁giovan	-9.48223
▁divent	-9.48252
▁lasciar	-9.4844
▁venir	-9.48449
▁rapida	-9.48718
▁mur	-9.48735
▁dà	-9.48777
▁personale	-9.48866
▁Ave	-9.48934
▁Pro	-9.49141
▁leggere	-9.49466
▁colore	-9.49471
ger	-9.49474
ton	-9.49596
▁chiunque	-9.49619
▁approcci	-9.49866
▁giusta	-9.49878
▁90	-9.49889
▁sostanz	-9.50104
▁felice	-9.50108
▁effetto	-9.50108
▁8	-9.50141
ostante	-9.50179
▁risat	-9.50248
▁massa	-9.50524
▁petrolio	-9.50594
▁epoca	-9.50595
▁mese	-9.50604
▁chiam	-9.50758
▁Aveva	-9.50819
▁paziente	-9.50838
▁Second	-9.50857
▁ottim	-9.50865
giù	-9.50894
▁materiali	-9.5091
▁guida	-9.5092
▁font	-9.51009
▁tal	-9.51114
▁event	-9.51147
ture	-9.51281
▁propri	-9.51335
▁naturalmente	-9.51348
▁pass	-9.51564
▁70	-9.51604
▁sbagliat	-9.51711
▁chiamiamo	-9.51713
ld	-9.51717
▁bar	-9.51773
▁costi	-9.51792
▁raggiungere	-9.51865
rg	-9.5206
▁passar	-9.52063
▁obiettivo	-9.52066
▁lascia	-9.52153
▁nessuna	-9.52183
▁Te	-9.52195
▁esperimento	-9.52314
▁tornar	-9.52396
anti	-9.52433
▁relazione	-9.52562
▁trasforma	-9.52771
▁bo	-9.52802
▁dimension	-9.52927
▁produrre	-9.53075
sione	-9.53207
▁sala	-9.53256
ss	-9.53653
▁velocemente	-9.53753
smo	-9.53777
▁000	-9.53813
▁famiglie	-9.54064
▁fiducia	-9.54064
▁simili	-9.54067
▁Ve	-9.5415
▁Alla	-9.5422
el	-9.54228
▁sito	-9.54232
tico	-9.54238
▁lingua	-9.54243
ura	-9.54317
fatti	-9.54318
spi	-9.54344
▁H	-9.54443
▁piante	-9.54466
ina	-9.54493
▁estrema	-9.54824
▁economica	-9.54854
▁pelle	-9.54963
▁università	-9.55086
▁Ro	-9.55219
nato	-9.55304
▁condizioni	-9.55333
desso	-9.55462
▁Pensate	-9.55667
▁complessi	-9.55731
▁guardando	-9.55749
▁Immaginate	-9.55857
▁entrare	-9.55875
▁percento	-9.56102
▁aiuto	-9.56155
▁Sh	-9.56186
▁danno	-9.56244
▁capi	-9.56347
▁distanz	-9.56439
▁raccont	-9.56485
▁esempi	-9.56536
▁potre	-9.56551
▁concetto	-9.56904
▁messaggio	-9.56943
▁sper	-9.56992
▁sanitari	-9.57137
▁region	-9.57138
ke	-9.57154
per	-9.57171
▁violenza	-9.57263
▁spar	-9.57274
▁stampa	-9.57404
▁quanti	-9.57468
▁nota	-9.57496
mmi	-9.57625
▁decenni	-9.57658
▁avesse	-9.57859
▁crisi	-9.57923
land	-9.57941
▁aspetta	-9.57985
▁neuron	-9.58112
▁principi	-9.58183
▁industria	-9.58322
▁avrem	-9.58407
ser	-9.58455
▁riusci	-9.58471
▁roba	-9.58711
▁pot	-9.58877
▁luoghi	-9.58974
▁Na	-9.58982
▁presente	-9.59011
tric	-9.59083
▁mostrato	-9.59087
▁ruolo	-9.59239
▁chiaro	-9.59249
▁strade	-9.59268
▁mangia	-9.59473
▁potesse	-9.59484
sca	-9.59741
▁incredibil	-9.59759
▁generale	-9.59768
▁inglese	-9.59772
▁scuole	-9.59772
▁prossimo	-9.59829
▁foresta	-9.6004
simo	-9.60272
▁zona	-9.6032
▁Solo	-9.60476
▁estern	-9.60483
con	-9.60531
▁quant	-9.60571
▁aspetti	-9.60576
▁mogli	-9.60594
vvero	-9.6075
gio	-9.60753
▁capo	-9.60778
▁lato	-9.60799
▁mondiale	-9.60854
▁qu	-9.61102
▁animale	-9.61176
▁bello	-9.61191
▁inizi	-9.61263
F	-9.61269
▁Pu	-9.61287
▁verde	-9.61389
▁chiave	-9.6139
▁ragazz	-9.6155
▁direzion	-9.61636
▁particolar	-9.617
▁provat	-9.62089
▁tale	-9.62228
ario	-9.62249
▁sviluppato	-9.62273
▁cominciare	-9.62292
▁pensando	-9.62406
vest	-9.62457
▁pericolo	-9.62461
▁milione	-9.62479
▁successiv	-9.62481
▁tasso	-9.62482
bu	-9.62538
▁bisogna	-9.62585
▁ama	-9.62598
is	-9.62713
▁compassione	-9.6275
▁relazioni	-9.62753
▁trovano	-9.6307
▁vale	-9.63203
▁diventato	-9.63215
▁ossi	-9.63266
▁avessi	-9.63481
it	-9.63503
▁artisti	-9.63657
▁cald	-9.63669
▁normale	-9.63806
nzi	-9.63923
N	-9.64061
▁origin	-9.6412
▁Guardate	-9.64182
ry	-9.64188
▁ris	-9.64239
▁Mentr	-9.64421
▁veloce	-9.64764
▁prospettiv	-9.64979
▁classe	-9.6498
▁scegliere	-9.65075
▁aperto	-9.65118
ine	-9.65122
bbe	-9.65192
▁Molti	-9.65278
▁sapev	-9.65337
▁legat	-9.65368
▁alber	-9.65409
▁essenzial	-9.65543
▁pensiero	-9.65595
▁principal	-9.65691
▁alberi	-9.6572
▁Dove	-9.65731
▁favore	-9.65828
▁scopo	-9.65837
▁organism	-9.65888
▁sare	-9.65905
▁Pre	-9.65913
▁anti	-9.66054
▁conflitt	-9.6611
▁case	-9.66142
▁pu	-9.6636
▁ritorn	-9.66382
▁sicura	-9.66399
▁lunga	-9.66402
▁finanziari	-9.66444
▁presto	-9.66565
▁servizi	-9.66587
▁realizzare	-9.66647
scono	-9.66668
▁piu	-9.66731
▁oppur	-9.66786
bra	-9.66799
▁divertente	-9.66968
▁posizione	-9.66968
▁mu	-9.67052
▁stia	-9.67066
▁legger	-9.67077
▁Sp	-9.67221
▁zon	-9.67269
▁bel	-9.67438
flu	-9.67465
tion	-9.67477
ol	-9.67507
▁torn	-9.67522
▁sangue	-9.67544
▁usiamo	-9.6756
▁necessario	-9.67578
▁Ka	-9.67598
▁rimane	-9.67675
▁doveva	-9.67928
▁fi	-9.68048
▁occupa	-9.68068
▁governi	-9.68122
▁Posso	-9.68228
▁spes	-9.6839
▁web	-9.68413
▁vari	-9.68496
▁cittadini	-9.68704
▁interessat	-9.68739
▁letteralmente	-9.68744
▁genera	-9.68785
anno	-9.6899
mma	-9.68998
▁calcol	-9.69178
ow	-9.69233
▁quadr	-9.69276
▁sud	-9.69276
▁mostrarvi	-9.69347
cro	-9.69442
▁lasciat	-9.69443
▁ghiaccio	-9.69515
▁sedut	-9.69543
▁argomento	-9.69584
▁ragioni	-9.69879
▁ricordo	-9.6988
▁benefici	-9.69942
▁credere	-9.69982
ber	-9.70036
log	-9.70043
▁dec	-9.70142
▁zero	-9.70183
zzato	-9.70199
▁riesco	-9.70281
▁potente	-9.70284
▁poveri	-9.70398
▁sapeva	-9.70453
▁notizia	-9.70471
▁telefono	-9.70471
▁codice	-9.70473
▁resi	-9.706
▁attorno	-9.7063
▁gioca	-9.70644
▁costruzion	-9.70769
▁Sto	-9.70794
▁povertà	-9.7083
▁regola	-9.70833
▁varie	-9.70848
▁perso	-9.70979
▁profonda	-9.7098
▁coinvolt	-9.71068
▁pace	-9.71072
▁199	-9.71073
▁dura	-9.71375
abile	-9.71498
▁pezz	-9.71688
▁ferma	-9.71792
▁ragazze	-9.71933
▁soltan	-9.72154
▁articol	-9.72187
bor	-9.72251
▁avvicina	-9.72307
ad	-9.7231
▁n	-9.72485
▁fece	-9.72512
▁chiedere	-9.72522
▁locale	-9.72575
▁contesto	-9.72576
▁comuni	-9.72583
▁funzionare	-9.72622
▁basta	-9.72623
▁uscit	-9.72755
▁rivoluzione	-9.72785
▁pensano	-9.72823
▁lavori	-9.72852
▁architettura	-9.72883
tare	-9.72944
iù	-9.72962
▁leggi	-9.73074
▁locali	-9.73103
▁Chris	-9.73182
enza	-9.73228
▁9	-9.73652
▁studiare	-9.73657
ncia	-9.73659
▁gas	-9.73739
▁reazion	-9.73764
▁Lui	-9.74104
▁osservare	-9.74335
▁16	-9.74429
▁valori	-9.74554
ista	-9.74678
▁salvar	-9.74778
▁scatol	-9.7481
▁preoccupa	-9.74817
rebbero	-9.74832
▁solare	-9.75012
oso	-9.75018
▁Gi	-9.7502
▁american	-9.75052
▁diciamo	-9.75062
tur	-9.75072
▁proprietà	-9.75086
ani	-9.75165
bre	-9.7521
▁potenziale	-9.7525
▁andando	-9.75333
fu	-9.75337
▁sviluppar	-9.75354
▁contenut	-9.7542
▁decisioni	-9.75426
▁percorso	-9.7543
▁medico	-9.75685
▁politici	-9.75692
▁presenta	-9.75943
▁colleghi	-9.75969
▁oceani	-9.75969
▁abbiano	-9.75985
▁cellula	-9.76036
▁ricevut	-9.76042
▁vedre	-9.76165
▁vuol	-9.76172
▁collega	-9.76174
▁sensazione	-9.76212
▁tardi	-9.76284
▁digitale	-9.76284
id	-9.76301
▁biologic	-9.76337
▁servizio	-9.76398
▁insegna	-9.76438
uto	-9.76511
▁controllare	-9.7655
▁software	-9.76599
▁esercit	-9.76599
▁interesse	-9.76601
▁seguito	-9.76752
▁americani	-9.76769
▁Marte	-9.76831
▁fortuna	-9.76908
▁prossima	-9.76913
▁Invec	-9.76927
▁biologia	-9.76935
▁mal	-9.76973
▁creatur	-9.77006
su	-9.77065
▁sal	-9.77228
ione	-9.77327
▁peso	-9.77422
▁vot	-9.77466
ha	-9.77521
▁vissut	-9.77555
am	-9.77572
▁Nord	-9.77588
tiamo	-9.77607
▁tornat	-9.77644
▁manca	-9.78032
▁indica	-9.78074
▁vecchio	-9.78101
▁cresciut	-9.78119
gno	-9.7815
▁online	-9.78191
▁rischi	-9.78258
men	-9.78361
▁muove	-9.78418
▁potev	-9.78444
▁tenere	-9.78502
▁prezzo	-9.78514
▁schermo	-9.78527
▁organizzazione	-9.78545
schi	-9.7857
▁effettiva	-9.7859
▁incontrat	-9.78617
▁vederl	-9.7863
▁materia	-9.78744
▁fossi	-9.78792
▁enormi	-9.78878
▁nord	-9.78889
rat	-9.78908
▁sera	-9.78983
▁cima	-9.7904
gono	-9.79074
▁apprendi	-9.79159
▁chiedo	-9.79165
▁comunicazione	-9.7923
▁finire	-9.7928
rai	-9.79413
▁richiede	-9.79444
▁migliorare	-9.79455
▁verifica	-9.79493
▁Tu	-9.79569
▁edifici	-9.79748
▁pover	-9.79761
▁rivela	-9.79788
▁Video	-9.79815
▁mostrare	-9.79879
▁terreno	-9.8007
▁stelle	-9.80137
bbi	-9.80138
▁significato	-9.80139
▁analis	-9.8014
▁Ta	-9.80147
▁attacc	-9.80221
up	-9.80301
uti	-9.80378
▁for	-9.80414
▁andata	-9.8043
▁pesce	-9.80489
▁economico	-9.80498
▁dipende	-9.80527
▁raccontare	-9.80538
▁insegnant	-9.80608
cce	-9.80714
▁lotta	-9.80797
tter	-9.80887
▁principale	-9.8095
▁ga	-9.80986
▁14	-9.80992
▁rispondere	-9.81071
▁support	-9.81123
▁furon	-9.81312
istan	-9.81443
▁parliamo	-9.81491
▁segret	-9.81574
dovrebbero	-9.81582
▁devi	-9.81595
▁incontra	-9.81658
▁squadra	-9.82013
▁differenti	-9.8212
▁impossibile	-9.8212
▁signor	-9.82153
▁prossimi	-9.82166
▁Br	-9.8229
▁venne	-9.82345
▁giocare	-9.82534
▁pront	-9.8265
▁dieci	-9.82685
▁discussion	-9.8279
▁libera	-9.82796
▁raccolt	-9.82821
▁continu	-9.82855
▁res	-9.82901
▁funzione	-9.82915
▁vecchi	-9.83022
qui	-9.83196
▁dimostra	-9.83291
cul	-9.83407
▁John	-9.83453
▁investiment	-9.83466
▁programmi	-9.83476
▁Sappia	-9.83491
▁mangiare	-9.8351
▁radio	-9.8355
▁permess	-9.83612
▁cambi	-9.83635
ran	-9.83661
▁qua	-9.83769
▁strutture	-9.83803
▁client	-9.83805
▁responsabilità	-9.8387
K	-9.83917
▁compres	-9.84054
erebbe	-9.84067
▁importanza	-9.84175
▁13	-9.84423
▁ospedale	-9.84485
▁perfetta	-9.84493
▁finché	-9.84509
▁cellulare	-9.84546
▁cielo	-9.84564
▁morti	-9.8457
stri	-9.84608
▁continuare	-9.84628
▁moment	-9.84724
▁Avev	-9.84825
▁direttamente	-9.84899
▁aiuti	-9.84923
mite	-9.84956
▁entro	-9.84991
gan	-9.85049
▁pianta	-9.85083
▁individui	-9.85171
▁forze	-9.85171
▁temperatur	-9.8519
▁superior	-9.85295
▁spero	-9.8544
▁uscire	-9.85487
▁elementi	-9.85519
▁designer	-9.85588
▁util	-9.85617
▁grafico	-9.85627
▁autori	-9.85662
▁comprar	-9.85669
▁villaggio	-9.85712
▁significativ	-9.8573
lin	-9.85745
▁mamma	-9.85832
▁gambe	-9.85864
diamo	-9.85888
▁interessanti	-9.85917
▁nazionale	-9.8592
com	-9.85936
▁elett	-9.85971
▁To	-9.8617
▁fas	-9.86199
▁esperimenti	-9.86209
▁ricerche	-9.86209
ppi	-9.86215
▁intens	-9.8622
▁tira	-9.86592
temi	-9.86611
par	-9.86613
▁sorprendente	-9.86754
▁fattori	-9.868
▁api	-9.86871
▁farmaci	-9.86907
▁consigli	-9.86914
▁Sud	-9.86957
▁memoria	-9.86968
▁punta	-9.87281
▁tecnologic	-9.87299
▁considerat	-9.87364
▁comprendere	-9.87406
▁morire	-9.87489
▁scena	-9.87615
▁parler	-9.8764
▁final	-9.87667
▁perdere	-9.87677
▁micro	-9.87833
▁andati	-9.87877
▁be	-9.87922
▁nero	-9.87927
▁pen	-9.87938
tato	-9.88162
▁azione	-9.88179
▁spiega	-9.88196
▁chilometri	-9.88223
▁USA	-9.88318
▁Col	-9.88374
▁sess	-9.88386
▁attiv	-9.8839
▁total	-9.88561
nal	-9.88603
▁entrat	-9.88645
▁notizie	-9.88674
▁fogli	-9.88683
▁vuo	-9.88697
▁pressione	-9.88705
▁praticamente	-9.88798
▁perdit	-9.88969
▁resta	-9.88998
chè	-9.89023
▁aumento	-9.89025
▁educazione	-9.89031
▁giochi	-9.89066
▁Sembra	-9.89096
▁attual	-9.89166
▁mantener	-9.89208
▁prime	-9.8936
▁secondi	-9.8939
▁metodo	-9.8939
atori	-9.89425
▁Devo	-9.8955
▁vaccin	-9.89772
▁spiegare	-9.89785
▁funzioni	-9.89797
ghi	-9.89881
▁costos	-9.89988
▁caccia	-9.90115
▁compito	-9.90118
▁desiderio	-9.90122
▁quart	-9.90195
▁campi	-9.90264
▁dimensione	-9.90389
▁crede	-9.90485
▁aumenta	-9.90532
▁versione	-9.90638
▁carrier	-9.90836
▁diventat	-9.90859
den	-9.90896
nare	-9.91006
▁dissi	-9.91019
▁gradi	-9.91041
▁efficace	-9.91201
▁speciale	-9.91201
▁negativ	-9.91201
nni	-9.91293
▁politic	-9.91405
▁bellezz	-9.91462
▁cercato	-9.91485
mar	-9.9149
▁dovre	-9.91523
▁produce	-9.91548
▁carbonio	-9.91603
▁reso	-9.91627
▁man	-9.9169
tor	-9.91707
▁certamente	-9.91738
▁ascoltar	-9.91891
▁atmosfera	-9.91935
▁dolore	-9.91935
▁poli	-9.92064
▁Ovviament	-9.92304
▁ciascun	-9.92304
▁totale	-9.92506
▁taglia	-9.92578
▁modern	-9.92579
▁visita	-9.92687
▁17	-9.92701
▁vicini	-9.92827
ppo	-9.92868
▁gira	-9.92872
▁ridurre	-9.92991
▁polizia	-9.93055
▁24	-9.93072
stica	-9.93105
▁centrale	-9.93419
▁rosso	-9.93421
▁The	-9.93519
▁strano	-9.93599
H	-9.93675
▁attim	-9.93724
▁ampi	-9.93741
▁Lei	-9.93784
▁affari	-9.93794
▁pubblicat	-9.93881
▁sembrava	-9.93886
▁peggior	-9.93926
▁pare	-9.93926
▁creazion	-9.93961
rato	-9.93978
car	-9.94021
▁telefoni	-9.9417
▁stile	-9.9418
mu	-9.94199
▁raggi	-9.9428
▁infatti	-9.94487
ccia	-9.94573
▁spazi	-9.94597
▁pensi	-9.94634
▁passion	-9.94651
▁intelligenz	-9.94669
▁nove	-9.94748
▁fenomeno	-9.94773
▁occhio	-9.94851
▁comporta	-9.94873
▁viviamo	-9.94948
▁riusciti	-9.94961
ezza	-9.95015
▁bu	-9.95042
▁passat	-9.95098
▁esistono	-9.95148
▁pagina	-9.95306
stru	-9.95313
▁elettricità	-9.95356
aggio	-9.95383
▁intendo	-9.954
red	-9.95493
cci	-9.95598
▁raggiung	-9.95602
port	-9.95639
▁pensava	-9.95642
▁reti	-9.95658
▁conosciamo	-9.95688
▁sogno	-9.95738
tari	-9.95803
niamo	-9.95915
▁probabilità	-9.95923
▁personali	-9.95939
▁pensav	-9.95997
▁braccio	-9.96071
▁coscienz	-9.96072
▁mattina	-9.96073
▁suona	-9.96096
▁beni	-9.96191
▁scopr	-9.96419
▁finisc	-9.96443
▁difficili	-9.96455
▁Qualcun	-9.96465
▁miglia	-9.96488
▁intelligente	-9.9651
▁addi	-9.96599
▁rapporto	-9.96842
▁standard	-9.96842
▁ordine	-9.96842
▁produttiv	-9.96842
▁fuoco	-9.96852
▁pieno	-9.96853
▁colori	-9.96855
▁creando	-9.96956
▁Ja	-9.97053
mm	-9.97142
▁conosco	-9.97191
▁infrastruttur	-9.97245
▁intelligenti	-9.97248
▁fiss	-9.97251
▁Quel	-9.97262
▁armi	-9.9737
▁accad	-9.97454
▁complesso	-9.97618
▁utilizzar	-9.9764
▁19	-9.97829
▁Giust	-9.97847
▁infin	-9.9793
▁impegn	-9.97992
▁esperti	-9.98009
▁fabbrica	-9.98009
▁proposito	-9.98009
▁sfide	-9.98009
▁km	-9.98403
ard	-9.9849
▁guardiamo	-9.9849
▁sco	-9.98557
▁ricercator	-9.98711
▁reddito	-9.98795
▁mercati	-9.98795
▁gross	-9.98884
amp	-9.98931
▁preferit	-9.98953
vent	-9.99059
▁stra	-9.99087
ttura	-9.99117
▁storic	-9.99185
▁aereo	-9.99268
sistenza	-9.99429
▁ador	-9.99442
atore	-9.99447
▁proprie	-9.99492
▁dirvi	-9.99517
▁pesci	-9.99645
▁data	-9.99672
▁partire	-9.99734
▁positiv	-9.99771
▁HIV	-9.99985
▁uccelli	-9.99985
▁straordinario	-10.0007
▁fisico	-10.0039
▁richiest	-10.0039
▁team	-10.0043
▁bellissim	-10.0055
▁sposta	-10.0057
pro	-10.0057
▁Hu	-10.0065
▁atto	-10.0069
▁198	-10.008
▁beh	-10.0083
▁poesi	-10.0084
▁ignora	-10.0093
▁campagna	-10.0119
V	-10.0119
▁dov	-10.0121
bl	-10.0124
▁OK	-10.0124
▁appare	-10.0134
▁raccogliere	-10.0142
▁piena	-10.0152
▁differenze	-10.016
▁Volev	-10.016
cy	-10.0168
errori	-10.017
▁metto	-10.0173
▁necessari	-10.0182
▁finestr	-10.0186
▁Car	-10.0197
▁limiti	-10.0201
▁Vediamo	-10.0201
▁figlia	-10.0229
▁2000	-10.0238
▁volare	-10.0239
▁venga	-10.0241
▁morale	-10.0246
▁presenti	-10.025
▁corre	-10.0254
▁volo	-10.027
▁nascost	-10.0282
▁plastica	-10.0284
▁cresce	-10.0287
▁impara	-10.0294
▁riuscire	-10.0312
▁straordinaria	-10.0313
rare	-10.0314
▁contrario	-10.0317
▁disturb	-10.0323
▁tavolo	-10.0323
▁internet	-10.0323
▁Bi	-10.0328
rve	-10.033
▁incontro	-10.0332
▁cane	-10.0333
▁politico	-10.034
▁spinge	-10.034
▁chies	-10.0361
▁Inoltr	-10.0364
▁business	-10.0364
▁success	-10.0368
▁scopri	-10.0372
▁partit	-10.0391
▁terapi	-10.0406
▁Londra	-10.0406
▁esperienze	-10.041
▁ufficio	-10.0412
est	-10.0422
bben	-10.0425
▁pagar	-10.0435
▁insegnato	-10.0436
▁ricchezz	-10.044
▁raggiunt	-10.0448
▁andava	-10.0449
▁gioi	-10.0457
▁frase	-10.0458
▁crimin	-10.0486
▁intervento	-10.0489
▁passaggi	-10.05
▁progress	-10.0502
nica	-10.051
▁500	-10.0512
▁seguire	-10.0517
▁300	-10.0526
▁ovvi	-10.0527
▁costante	-10.0528
gni	-10.053
▁caratter	-10.0531
▁canzone	-10.0531
▁identità	-10.0531
▁azioni	-10.0534
▁studente	-10.0537
▁collegat	-10.0538
▁racconta	-10.0538
▁ascolta	-10.056
pl	-10.0563
▁capaci	-10.0567
imento	-10.0573
pol	-10.0581
▁dottor	-10.0587
▁medici	-10.0588
▁buone	-10.0599
▁semi	-10.0601
▁comunicare	-10.0601
▁giornata	-10.0608
▁pari	-10.0609
▁realizzato	-10.0609
ka	-10.0611
gua	-10.0617
▁palco	-10.0619
▁Ki	-10.0632
▁brutt	-10.0636
▁angolo	-10.0659
▁insetti	-10.0659
▁organizzazioni	-10.066
▁vol	-10.0662
▁improvvis	-10.0662
▁Sper	-10.0665
▁linee	-10.0665
▁consapevole	-10.0673
▁messaggi	-10.0692
▁camminare	-10.0698
▁California	-10.0701
▁straordinari	-10.0702
ny	-10.0709
▁notat	-10.0713
qua	-10.0716
▁scritt	-10.0722
▁marin	-10.0725
cer	-10.073
cl	-10.0732
▁parlarv	-10.0732
volta	-10.0741
▁para	-10.0742
▁social	-10.0743
▁bianco	-10.0744
▁Afghan	-10.0744
▁difficolt	-10.0744
▁post	-10.0746
▁espression	-10.0751
▁capitale	-10.0753
▁religione	-10.0759
▁cure	-10.0763
▁list	-10.0766
ug	-10.0771
▁elettric	-10.0776
▁nucleare	-10.0787
▁segnali	-10.079
▁volt	-10.0794
▁farci	-10.0803
▁sente	-10.0808
▁barrier	-10.0831
▁gestire	-10.0831
▁mezz	-10.0834
▁riusc	-10.0836
▁occhiat	-10.0838
▁chiaramente	-10.0844
▁Pe	-10.0844
▁pan	-10.0847
▁Ven	-10.0849
stro	-10.0849
▁definizione	-10.0853
▁bambina	-10.0874
▁genoma	-10.0874
▁fals	-10.0879
▁compost	-10.088
▁controlla	-10.0883
▁ferm	-10.0884
cord	-10.0885
▁conferenza	-10.0885
▁Ver	-10.0887
▁vento	-10.0888
▁w	-10.0888
▁sentiv	-10.091
▁renderl	-10.091
▁Bu	-10.0912
▁funzionano	-10.0915
bus	-10.0929
▁razz	-10.0935
talmente	-10.0939
▁improvvisa	-10.0952
▁matematic	-10.0956
▁membri	-10.096
▁molecole	-10.0962
▁muscol	-10.0962
rendono	-10.0964
▁decision	-10.0967
▁traccia	-10.0979
▁privat	-10.0981
chiamo	-10.0993
▁emozioni	-10.0997
▁scambi	-10.1003
▁or	-10.1003
▁opinion	-10.1006
▁poche	-10.1006
▁microbi	-10.1008
▁colla	-10.1009
▁tentativ	-10.1016
▁cultural	-10.1024
▁gi	-10.1034
▁voglia	-10.1036
▁Potrebbe	-10.1042
▁risparmi	-10.1048
▁emission	-10.105
▁pianeti	-10.105
▁doppi	-10.105
bit	-10.1059
▁proteggere	-10.106
▁trasformar	-10.1067
▁rec	-10.1076
▁suoni	-10.1082
▁ok	-10.1086
▁giardin	-10.1094
▁fiume	-10.1094
▁violent	-10.1094
▁mentali	-10.1095
▁luci	-10.1095
▁stupid	-10.1097
▁usarl	-10.1108
▁insegnar	-10.1112
▁provi	-10.1115
▁intenzion	-10.1124
▁disponibil	-10.1126
▁tradizion	-10.1136
▁cosi	-10.1139
▁energetic	-10.1139
▁paesaggi	-10.1139
▁servo	-10.1139
▁Mar	-10.1141
▁miglior	-10.1144
▁immaginazione	-10.1147
▁determina	-10.1147
▁onest	-10.1148
rittura	-10.115
ngono	-10.1153
▁dover	-10.1158
▁minaccia	-10.1159
▁cucina	-10.1163
ust	-10.1167
nic	-10.1167
▁accadendo	-10.1173
by	-10.1176
▁possibili	-10.1177
▁21	-10.1181
▁Due	-10.1183
▁tessuto	-10.1184
▁trasparen	-10.1184
▁schema	-10.1184
▁minuto	-10.1184
▁paga	-10.1185
▁cominci	-10.1187
▁utent	-10.1189
▁attiva	-10.1191
▁singola	-10.1209
▁profondo	-10.1216
▁grosso	-10.1219
▁realizza	-10.122
▁For	-10.1228
▁deriva	-10.1233
▁sub	-10.124
▁visiv	-10.1244
▁piacere	-10.1264
▁brav	-10.1269
▁bio	-10.1269
▁conversazione	-10.1279
▁estate	-10.128
tivo	-10.1282
▁disponibili	-10.1289
▁capita	-10.129
▁usan	-10.13
▁mettiamo	-10.1302
▁economi	-10.1303
▁forti	-10.1304
rin	-10.1305
▁mobili	-10.1307
▁particelle	-10.1311
▁menti	-10.1316
▁giustizia	-10.132
▁evitare	-10.132
▁TV	-10.1321
▁necessaria	-10.1335
denti	-10.1335
▁esplorare	-10.1342
▁completa	-10.1345
▁prigion	-10.1365
▁continent	-10.1365
▁medio	-10.1378
▁gara	-10.1381
▁insegnante	-10.1382
▁pena	-10.1382
▁serio	-10.1382
▁creat	-10.1384
▁terribile	-10.1404
▁disposizione	-10.1411
▁David	-10.1411
▁nato	-10.1413
▁Ben	-10.1415
ker	-10.1426
▁conoscere	-10.144
▁conness	-10.1443
▁Applaus	-10.1455
▁comprensione	-10.1457
▁ciclo	-10.1458
tevi	-10.1463
▁bassa	-10.147
▁rim	-10.1476
▁certa	-10.1483
▁faremo	-10.1483
▁voler	-10.1496
▁ricordare	-10.1496
▁cammina	-10.1498
▁riempi	-10.1504
▁umane	-10.1504
▁immediatamente	-10.1505
▁muse	-10.1511
▁dettagli	-10.1515
▁adatta	-10.1517
▁mostrer	-10.1525
▁riconoscere	-10.1533
ttori	-10.1541
▁Facebook	-10.155
▁errore	-10.155
▁limita	-10.1557
▁past	-10.1569
▁connession	-10.1572
▁Fin	-10.1583
▁climatico	-10.1597
▁rivist	-10.1597
▁piacerebbe	-10.1599
▁artista	-10.16
▁salv	-10.1608
▁carne	-10.1618
▁scal	-10.1623
gger	-10.1639
▁religios	-10.1644
nze	-10.1657
lan	-10.1674
spa	-10.1676
▁decidere	-10.169
▁specialmente	-10.1691
▁copia	-10.1691
▁isola	-10.1695
sor	-10.1697
▁piatt	-10.1701
▁tenta	-10.1705
▁sostener	-10.1716
▁progressi	-10.1724
▁andate	-10.1731
▁otten	-10.1732
▁volontari	-10.1742
▁orecchi	-10.1742
▁tratti	-10.1744
▁impiant	-10.1751
▁trattamento	-10.1752
▁perfetto	-10.1762
▁sopravvivere	-10.1774
▁condivis	-10.1785
▁movimenti	-10.1786
▁prendiamo	-10.1787
▁caratteristiche	-10.1788
▁peggio	-10.1793
ure	-10.1793
▁convint	-10.1794
▁tizi	-10.1795
▁clima	-10.1806
▁aspettativ	-10.1813
▁Viv	-10.1819
▁capisco	-10.182
dra	-10.1829
▁architett	-10.1832
▁riscalda	-10.1834
▁ripres	-10.1834
▁sicuri	-10.1834
▁segnale	-10.1837
nazione	-10.1837
▁sogni	-10.1838
▁neri	-10.1847
▁credia	-10.1847
▁CO	-10.1849
▁qualcun	-10.1855
▁servi	-10.1863
mbo	-10.1869
▁finalment	-10.1871
▁bui	-10.1874
▁nomi	-10.1877
▁collaborazion	-10.1881
▁applicazion	-10.1881
▁nuvol	-10.1882
rit	-10.1887
bri	-10.1917
▁immagina	-10.192
▁facilmente	-10.193
▁desert	-10.1931
▁agricoltura	-10.1931
▁pulit	-10.1931
val	-10.1966
reste	-10.1973
▁president	-10.198
▁lettera	-10.1982
▁prese	-10.1987
▁fotograf	-10.1994
▁studiato	-10.1995
▁giornali	-10.1998
ler	-10.2007
▁fatte	-10.2007
▁parlo	-10.2008
▁cinese	-10.201
▁ingegneri	-10.2021
▁quartiere	-10.2022
▁Giappone	-10.2027
▁internazionale	-10.2027
▁sarem	-10.2029
▁apparecchi	-10.2029
▁organizzat	-10.2044
▁asse	-10.2044
▁scientific	-10.2055
▁reali	-10.2057
▁formazion	-10.2058
▁ospit	-10.206
▁popolar	-10.2077
▁oro	-10.2078
leg	-10.208
▁ritm	-10.2085
▁dens	-10.2094
▁porte	-10.2094
▁V	-10.2117
▁strett	-10.2127
▁eccezion	-10.2129
▁stimol	-10.2133
▁gest	-10.2139
▁Cap	-10.2139
▁vas	-10.2142
▁maggiori	-10.2155
gin	-10.2165
▁Brasil	-10.2175
▁chimica	-10.2175
▁mentale	-10.2175
▁incredibili	-10.2176
▁esser	-10.2177
▁veri	-10.218
▁moltissim	-10.2183
isce	-10.2186
vin	-10.2189
▁agire	-10.2195
▁evolut	-10.2195
▁pubblici	-10.2205
▁vantaggio	-10.2224
▁banca	-10.2225
▁adulti	-10.2225
▁cardiac	-10.2225
olog	-10.2229
▁riceve	-10.2249
logia	-10.2253
fortunatamente	-10.2257
▁scattat	-10.2262
▁famos	-10.2274
▁matrimoni	-10.2275
▁piattaform	-10.2275
▁portata	-10.2278
▁fotografia	-10.228
▁400	-10.2282
▁pesca	-10.2284
▁dinamic	-10.2287
▁circonda	-10.2288
ung	-10.2295
▁sufficiente	-10.2299
▁tecni	-10.2306
rn	-10.2307
▁arti	-10.2308
▁meravigliosa	-10.232
▁priva	-10.2323
▁sguard	-10.2325
▁accelera	-10.2325
▁foreste	-10.2325
▁fondi	-10.2325
▁ostacol	-10.2325
▁malaria	-10.2325
▁notevol	-10.2326
▁guardi	-10.2333
fretta	-10.2342
▁missione	-10.2344
▁grati	-10.2348
▁progettar	-10.235
izzazione	-10.2351
▁vola	-10.2354
▁vecchia	-10.2359
tici	-10.2366
▁farmaco	-10.2376
▁accanto	-10.2376
▁mandar	-10.2378
▁impar	-10.2381
▁of	-10.2381
▁essi	-10.2383
▁ricordi	-10.2385
lett	-10.2396
▁apri	-10.2397
▁aperta	-10.2412
▁naturali	-10.2418
▁obiettivi	-10.2427
▁sostenibile	-10.2427
▁consiste	-10.2428
▁profondità	-10.2432
▁Mon	-10.2433
▁satellit	-10.2434
nk	-10.2435
▁tumore	-10.2436
ring	-10.2452
nder	-10.2454
tiva	-10.2459
▁riuscit	-10.2459
▁risponde	-10.2463
▁assomiglia	-10.2464
▁carbon	-10.2471
▁individual	-10.2478
▁sconosciut	-10.2478
▁traffico	-10.2478
▁riuscito	-10.2482
▁anima	-10.2489
▁bravi	-10.249
▁Potrest	-10.25
▁Ah	-10.2506
▁clinic	-10.2509
verrà	-10.2522
▁ossigeno	-10.2529
▁tradizionale	-10.2532
▁condott	-10.2533
▁tecnica	-10.2535
▁Mu	-10.254
▁Lasciate	-10.2547
▁avven	-10.2548
▁Prim	-10.256
▁indossa	-10.2569
▁Nei	-10.257
▁Univers	-10.2571
▁organi	-10.2574
▁darvi	-10.2579
▁frequent	-10.258
▁strategia	-10.258
▁casual	-10.258
▁Ancor	-10.2581
▁corpi	-10.2586
▁scientifica	-10.2588
▁bocca	-10.2595
▁medi	-10.2596
▁aspettare	-10.2601
▁operazion	-10.2608
▁guidare	-10.261
dy	-10.2617
▁diversità	-10.2622
▁Washington	-10.2632
▁schemi	-10.2632
▁giall	-10.2634
▁indian	-10.2638
▁Lavor	-10.264
▁migliora	-10.2642
▁invecchia	-10.2645
▁cap	-10.2652
tiche	-10.2653
▁marit	-10.2665
▁Dal	-10.2667
▁tema	-10.2668
▁preoccupat	-10.2674
▁Vogli	-10.2676
▁digitali	-10.2684
▁ottenuto	-10.2685
ty	-10.2686
▁triste	-10.2687
raq	-10.2687
▁genetica	-10.2689
▁flusso	-10.2691
▁infinit	-10.2702
▁seduti	-10.2703
▁oper	-10.2704
▁negozi	-10.2706
centr	-10.2706
▁passi	-10.2708
▁Can	-10.2714
▁Cor	-10.272
U	-10.2721
▁compra	-10.2722
▁collabora	-10.2728
▁inclus	-10.273
▁stai	-10.2733
▁comprend	-10.2736
▁efficaci	-10.2737
▁occasion	-10.2737
zzazione	-10.2738
▁lettere	-10.274
▁scus	-10.2742
▁alti	-10.2746
▁Tre	-10.2776
▁ecosistem	-10.2789
▁nascita	-10.2789
▁confini	-10.279
▁Facciamo	-10.2791
▁conclusion	-10.2796
▁buco	-10.2797
▁spend	-10.2802
rc	-10.2802
▁porti	-10.2813
▁usci	-10.2813
▁protegg	-10.2828
▁tendenz	-10.2841
▁aprire	-10.2843
▁motivi	-10.2843
▁precisi	-10.285
▁infinite	-10.2851
▁35	-10.2852
▁fini	-10.2853
ccio	-10.2854
▁aere	-10.286
messo	-10.2883
▁pagine	-10.2895
▁scolastic	-10.2895
▁occidentale	-10.2896
▁Port	-10.2897
▁mancanza	-10.2899
▁opzion	-10.29
▁luna	-10.2904
▁150	-10.2907
nale	-10.2909
▁unità	-10.2924
▁successiva	-10.2924
▁vast	-10.2931
▁ingegneria	-10.2938
▁notar	-10.294
▁potenti	-10.2944
▁riferiment	-10.2949
▁offert	-10.2949
▁liquid	-10.2949
ffic	-10.295
▁fornire	-10.2956
▁scor	-10.2974
▁immaginate	-10.2984
▁fantastica	-10.2997
▁toglie	-10.3003
▁formich	-10.3003
▁concludere	-10.3004
▁processi	-10.3004
▁negozio	-10.3009
▁fondamentali	-10.3022
▁acquis	-10.303
▁componenti	-10.3037
▁fila	-10.305
▁battaglia	-10.3057
▁rumore	-10.3057
▁assistenza	-10.3058
▁propost	-10.3059
▁usate	-10.3059
▁utilizz	-10.3064
▁confronti	-10.3069
▁assicurar	-10.307
▁rid	-10.3084
▁metterl	-10.309
▁Gu	-10.3103
▁salvat	-10.3109
▁freddo	-10.3111
▁stress	-10.3111
▁debba	-10.3111
▁sostanzial	-10.3113
▁ridott	-10.3115
▁falliment	-10.3116
▁tropp	-10.3117
▁inventato	-10.3118
▁Asia	-10.3125
▁osserva	-10.3137
▁Guarda	-10.3139
▁utilizza	-10.3142
▁perde	-10.3145
▁corsi	-10.3149
▁tri	-10.3153
▁stima	-10.3162
▁spor	-10.3162
▁Mondiale	-10.3166
▁partner	-10.3166
▁balen	-10.3167
▁considerar	-10.3182
▁Par	-10.3187
IL	-10.3187
▁coi	-10.319
▁cavi	-10.3196
▁buono	-10.3202
▁maschi	-10.3203
▁silenzio	-10.3212
▁democratic	-10.3221
▁desidera	-10.3221
▁dibattit	-10.3221
▁universal	-10.3221
▁blog	-10.3222
▁batte	-10.3228
▁pubblicità	-10.3229
▁scelto	-10.3231
▁futur	-10.3236
▁denti	-10.3241
▁venti	-10.3245
ly	-10.3246
mpi	-10.3259
ts	-10.3274
▁telecamer	-10.3276
▁Probabil	-10.3276
▁sabbia	-10.3276
▁brucia	-10.3277
▁emotiv	-10.3283
▁Cha	-10.3295
▁Bill	-10.3295
▁carica	-10.3295
pr	-10.3299
▁Am	-10.3323
▁inizial	-10.3325
nati	-10.3328
▁Pubblic	-10.3331
▁civiltà	-10.3331
▁capell	-10.3333
▁chiese	-10.3335
▁decin	-10.334
▁strana	-10.3341
▁invit	-10.3346
▁uccide	-10.3352
▁magic	-10.3361
▁ufficial	-10.3378
▁sugger	-10.3381
▁Los	-10.3388
▁tanta	-10.3388
▁distrutt	-10.339
▁combattere	-10.3392
▁rad	-10.3396
▁somma	-10.34
▁Stan	-10.3408
▁dovrest	-10.3411
▁profond	-10.3414
▁danza	-10.3416
▁dimostrato	-10.3424
▁combatt	-10.3431
▁veloci	-10.3437
▁considera	-10.3439
▁fame	-10.3442
▁provoca	-10.3444
▁Signor	-10.3444
▁Parla	-10.3445
tempo	-10.3447
▁cant	-10.3449
▁dispera	-10.345
▁buoni	-10.3453
▁trasformazione	-10.3457
▁affronta	-10.3458
▁responsabil	-10.3459
line	-10.3461
▁cellulari	-10.3461
▁esso	-10.3466
mbre	-10.3468
▁affascinante	-10.3474
▁inferior	-10.35
▁civile	-10.35
▁fiori	-10.3501
▁comunica	-10.3513
▁gene	-10.352
▁oscura	-10.3523
▁pronto	-10.3525
▁chius	-10.3539
▁scienz	-10.3541
tive	-10.355
▁AIDS	-10.3557
▁familiare	-10.3557
▁framment	-10.3557
▁197	-10.3558
▁precedenti	-10.3558
▁topo	-10.3568
▁dubbio	-10.3571
▁piani	-10.3571
▁potenzial	-10.3574
▁vittime	-10.3577
▁risulta	-10.3582
▁cambiat	-10.3583
▁tocca	-10.3583
▁sorpresa	-10.3595
▁musical	-10.3595
▁conosciuto	-10.3601
har	-10.3605
▁sviluppa	-10.3609
que	-10.3611
▁montagna	-10.3614
▁prototip	-10.3614
▁provenient	-10.3614
azz	-10.3614
▁normali	-10.3618
▁atomi	-10.3619
▁ricchi	-10.3628
▁Sal	-10.3632
▁incoraggia	-10.3634
▁pane	-10.3636
▁odor	-10.3636
▁aiutat	-10.3639
▁salta	-10.3645
▁ripet	-10.3648
▁fermar	-10.3651
▁ricordate	-10.3656
nna	-10.366
▁testo	-10.3664
▁Twitter	-10.3671
▁corruzione	-10.3671
▁disegnar	-10.3671
▁spirito	-10.3671
▁scarpe	-10.3671
somma	-10.3672
▁stella	-10.3672
▁comportamenti	-10.3673
▁permettere	-10.3685
▁cerchia	-10.3704
▁accetta	-10.3716
▁pien	-10.372
▁catena	-10.3729
▁curva	-10.3729
▁staminal	-10.373
stre	-10.373
▁196	-10.3731
▁certi	-10.3735
ltrimenti	-10.374
▁arma	-10.3745
▁manda	-10.3751
for	-10.3759
▁note	-10.3763
vel	-10.3766
▁parlava	-10.3769
▁african	-10.3774
▁larga	-10.3775
▁curios	-10.3782
▁multi	-10.3784
▁potessi	-10.3786
roprio	-10.3787
▁circuit	-10.3787
▁vent	-10.3787
▁Guerr	-10.3787
▁accessibil	-10.3787
▁sede	-10.3788
▁acque	-10.3789
▁Qu	-10.3789
▁resistenza	-10.3791
▁Sarebbe	-10.3793
▁doman	-10.3795
ph	-10.3796
▁Vien	-10.3799
▁afferm	-10.3804
▁dottore	-10.3808
bil	-10.3809
▁industriale	-10.381
▁elettrica	-10.3814
cche	-10.3814
▁cartell	-10.3822
▁cambiando	-10.3834
▁partecipar	-10.3842
▁He	-10.3843
▁German	-10.3846
▁trasporto	-10.3846
▁altezza	-10.3846
▁feci	-10.3847
▁mattino	-10.3847
▁aumentar	-10.386
▁premio	-10.3861
▁alimentare	-10.3861
▁sforz	-10.3865
▁concentra	-10.3869
nata	-10.387
orre	-10.3881
▁Pass	-10.3899
▁tetto	-10.3902
▁annunci	-10.3907
▁capite	-10.3915
▁originale	-10.3918
▁costrui	-10.3919
▁prepar	-10.392
▁maggioranz	-10.3921
▁farv	-10.3923
▁carcer	-10.3926
▁ipote	-10.3927
▁progettato	-10.3929
▁Regn	-10.3939
▁aggiungere	-10.3942
▁Quanto	-10.3943
▁ruota	-10.3955
▁includ	-10.3956
▁dispost	-10.3964
▁mortalità	-10.3966
▁contien	-10.397
▁cresciuta	-10.3977
▁avessero	-10.3979
▁accaduto	-10.3981
▁sedia	-10.3986
▁Bar	-10.3992
▁blocc	-10.3995
▁statisti	-10.4002
ucci	-10.4004
▁alza	-10.4004
sen	-10.4012
W	-10.4019
▁allontana	-10.4019
▁sembr	-10.4022
▁differente	-10.4023
▁filosofi	-10.4023
▁fisici	-10.4023
▁imprese	-10.4023
▁facili	-10.4024
▁elevat	-10.4024
▁piega	-10.4024
▁condivid	-10.403
▁sci	-10.4032
▁vendut	-10.4032
▁combinazion	-10.4039
▁cifr	-10.4041
▁corrente	-10.405
zzata	-10.4057
▁pes	-10.4068
▁governa	-10.4074
nar	-10.4076
▁ber	-10.4077
▁incident	-10.4078
▁aggiunt	-10.4079
▁Ricord	-10.408
▁specifico	-10.4083
▁ordina	-10.4083
▁anzi	-10.4085
▁centri	-10.409
poli	-10.4093
▁proteine	-10.4093
dipendenti	-10.4101
▁tantissim	-10.4104
▁guardato	-10.4108
▁usati	-10.411
▁esserc	-10.411
▁sopravvivenz	-10.4113
▁tratto	-10.4115
▁rott	-10.4119
▁pied	-10.4129
▁invia	-10.413
▁Ru	-10.413
▁avvie	-10.4131
sfera	-10.4143
▁galassie	-10.4143
▁ristorant	-10.4143
▁pist	-10.4144
▁interessi	-10.4144
▁ferro	-10.4144
▁regal	-10.4144
▁commerciale	-10.4146
▁antenat	-10.4148
▁presenza	-10.4151
▁nasconde	-10.4159
▁folle	-10.4165
ham	-10.4166
▁speciali	-10.4167
▁motor	-10.4174
▁fibr	-10.4193
▁intervista	-10.4195
▁percezione	-10.4198
▁frances	-10.4204
▁depressione	-10.4204
▁ferit	-10.4205
▁gu	-10.4206
scopi	-10.4209
▁protett	-10.421
pul	-10.4214
▁lanci	-10.4219
▁madri	-10.422
▁esatt	-10.422
▁giu	-10.4235
▁nata	-10.4243
▁commerci	-10.4259
▁montagne	-10.4265
▁piacciono	-10.4265
▁territori	-10.4265
▁elezioni	-10.4266
▁precedente	-10.4268
▁Duran	-10.4269
▁tradizionali	-10.4269
▁pal	-10.4282
▁onde	-10.4288
▁Cas	-10.4289
▁ricevere	-10.4295
▁tonnellate	-10.4298
▁rimaner	-10.4299
versa	-10.4304
▁pagat	-10.4311
ley	-10.4315
mmett	-10.4316
▁nonna	-10.4316
▁interazione	-10.4318
▁distribuzione	-10.4326
▁orbita	-10.4326
▁Angeles	-10.4326
▁anzian	-10.4335
▁Dan	-10.4342
tch	-10.4347
▁magnetic	-10.4366
▁grafic	-10.4369
▁decisi	-10.4372
ps	-10.4373
▁estremi	-10.4376
▁foll	-10.4383
▁fornisc	-10.4383
▁ester	-10.4385
▁europe	-10.4388
▁muoiono	-10.4388
▁email	-10.4388
▁fratello	-10.4388
▁lentamente	-10.4389
rga	-10.4392
▁Comp	-10.4392
▁generazioni	-10.4392
▁corretta	-10.4393
▁vende	-10.4398
▁applica	-10.4401
▁lanciato	-10.4402
rina	-10.4402
▁anziani	-10.4407
▁messi	-10.442
▁definit	-10.4422
▁virtuale	-10.4426
▁Nazion	-10.4434
▁risolv	-10.4435
▁tagli	-10.4437
▁diventati	-10.444
▁Avre	-10.4441
▁Gran	-10.4449
▁magia	-10.4454
▁Unito	-10.4456
▁ampia	-10.4458
rice	-10.446
▁dipint	-10.4467
▁qualcos	-10.4468
▁guidat	-10.4468
▁smett	-10.4468
▁utilizzando	-10.447
▁separat	-10.447
▁americana	-10.448
vita	-10.4491
forma	-10.4493
van	-10.4498
▁internazionali	-10.4513
▁cervelli	-10.4513
▁nave	-10.4513
▁duro	-10.4516
▁attacchi	-10.4517
▁imprenditori	-10.4518
▁durat	-10.4526
▁dispositivo	-10.4536
▁motori	-10.4539
▁assolut	-10.4546
▁ambient	-10.4554
▁abit	-10.4554
pre	-10.4561
▁incontr	-10.457
▁accumul	-10.4576
▁categori	-10.4576
▁avanzat	-10.4576
▁benessere	-10.4576
▁condizione	-10.4576
▁parecchi	-10.4577
▁meccanism	-10.4577
▁scont	-10.4583
▁Anders	-10.4586
▁abus	-10.4596
▁sorpres	-10.4596
▁molecola	-10.4614
▁colpisc	-10.4615
mette	-10.4618
▁lancia	-10.4618
▁Av	-10.4623
▁calor	-10.4625
▁mon	-10.463
▁sm	-10.4631
▁identificar	-10.4639
▁scimpanz	-10.4639
▁assieme	-10.4639
▁Niente	-10.4639
▁capace	-10.4639
▁1000	-10.4646
dì	-10.4649
cre	-10.4653
▁oli	-10.4654
▁raccontarv	-10.4666
din	-10.4675
▁sequenza	-10.4676
▁diamo	-10.4679
▁impieg	-10.4688
▁considerazion	-10.4694
▁cambio	-10.4695
▁ascolt	-10.4701
▁settemb	-10.4702
▁equilibrio	-10.4703
▁informatic	-10.4708
▁Trov	-10.4709
▁relativ	-10.4712
ssima	-10.4718
▁facev	-10.4722
gola	-10.4722
pos	-10.4723
▁continuo	-10.4723
▁sviluppat	-10.4723
▁registr	-10.4724
▁suolo	-10.474
▁lavoran	-10.4751
▁psicologi	-10.4752
affatto	-10.4753
▁sveglia	-10.4756
▁Richard	-10.4767
▁musulman	-10.4767
▁nervos	-10.4767
▁titolo	-10.4767
▁terrorismo	-10.4767
▁vertic	-10.4767
▁impegnat	-10.4768
▁criminali	-10.4771
▁pericoloso	-10.4773
▁personaggio	-10.4777
rma	-10.478
▁Unite	-10.4782
▁lasci	-10.4784
▁rifiuti	-10.4788
▁cresc	-10.4795
▁direttor	-10.4807
prendono	-10.4812
▁vuoto	-10.4812
▁nutr	-10.4816
▁malat	-10.4825
▁nemic	-10.4826
▁George	-10.4831
▁ospedali	-10.4831
▁filtr	-10.4831
▁Infin	-10.4833
▁Senza	-10.4843
▁Iran	-10.4846
▁barca	-10.4847
▁moderna	-10.4848
▁promess	-10.4852
▁radical	-10.4855
▁logica	-10.4862
▁metro	-10.4876
▁ossa	-10.4876
▁vendere	-10.488
ngu	-10.4884
▁costruisc	-10.489
▁minuscol	-10.4896
▁scienziato	-10.4896
▁concett	-10.4896
▁risolt	-10.4897
▁complicato	-10.4897
▁sprec	-10.4898
▁Natural	-10.49
▁Lor	-10.4903
▁suonare	-10.4904
▁guardo	-10.4915
▁averl	-10.4916
▁osservazion	-10.4916
▁vivi	-10.4918
bat	-10.4936
▁divis	-10.494
▁Franci	-10.4952
▁situazion	-10.4955
▁mandato	-10.4956
cato	-10.4957
▁Australia	-10.4961
▁individuo	-10.4961
▁network	-10.4961
▁fratelli	-10.4962
▁affin	-10.4962
▁collezion	-10.4963
ller	-10.4968
rabbia	-10.4971
▁ugual	-10.4971
▁utili	-10.4978
▁pensier	-10.4979
▁prendo	-10.4981
▁mettendo	-10.4988
▁b	-10.4992
▁Dall	-10.4997
dro	-10.5001
▁emerg	-10.5004
▁45	-10.5006
▁africani	-10.5008
▁artificiale	-10.5009
▁preg	-10.5019
▁vulnerabil	-10.5027
▁dozzin	-10.5027
▁permetto	-10.5027
▁spalle	-10.5028
▁empati	-10.5028
▁elemento	-10.5029
▁Anda	-10.5041
▁Pensav	-10.5046
colo	-10.5056
ndoci	-10.5067
▁emozion	-10.5076
ping	-10.5077
▁sale	-10.5082
▁regolar	-10.5082
▁inquina	-10.5085
▁capitalis	-10.5089
▁inoltre	-10.5093
▁spettro	-10.5093
▁innovativ	-10.5093
▁parco	-10.5094
▁telescopi	-10.5094
▁fianc	-10.5094
▁colpito	-10.5098
▁vinc	-10.5105
▁chiamare	-10.5106
▁giocator	-10.5107
▁documenti	-10.5108
▁talent	-10.5108
▁personaggi	-10.5112
▁analizzar	-10.5113
iana	-10.5114
▁giudic	-10.5115
▁scors	-10.5115
▁dedicat	-10.5117
▁cerchi	-10.5122
▁guerr	-10.5129
▁positivo	-10.513
▁arab	-10.5134
▁basi	-10.5138
▁essa	-10.5141
▁uccidere	-10.5143
▁fede	-10.5148
hu	-10.515
▁progettazion	-10.5151
▁economist	-10.5152
trici	-10.5155
metri	-10.5157
▁Us	-10.5158
▁adolescent	-10.516
▁esercizi	-10.516
▁infanzia	-10.516
▁lingue	-10.516
▁altrettant	-10.516
▁anch	-10.5161
▁misurar	-10.5174
▁invitat	-10.519
▁illustr	-10.5191
▁And	-10.5193
▁climatic	-10.5199
▁superar	-10.5206
▁affidabil	-10.5207
▁informatica	-10.5215
▁bev	-10.5217
form	-10.5218
▁Puo	-10.5221
▁copert	-10.5223
▁abita	-10.5226
▁combustibil	-10.5227
instein	-10.5227
▁indirizz	-10.5227
▁Art	-10.5231
▁protezion	-10.5232
▁ponte	-10.5237
▁Mc	-10.524
▁veicol	-10.5244
▁ricett	-10.5249
berg	-10.5253
▁prendete	-10.526
▁responsabili	-10.5263
▁Man	-10.527
▁decide	-10.5274
▁viaggia	-10.5278
▁automobili	-10.5284
▁75	-10.5284
ndolo	-10.5295
▁efficiente	-10.5295
▁Messico	-10.5295
▁popolo	-10.5295
▁Paul	-10.5295
▁infezion	-10.5295
▁microscopi	-10.5295
▁increment	-10.5296
▁conserva	-10.5297
▁coda	-10.5299
▁Voi	-10.5302
▁economici	-10.5307
▁ritrova	-10.5307
▁prop	-10.5313
troppo	-10.5313
▁ex	-10.5314
▁famoso	-10.5318
▁chiedendo	-10.5323
rico	-10.5327
▁basa	-10.533
▁bran	-10.5331
▁moda	-10.5344
▁Significa	-10.5363
▁bianchi	-10.5363
▁entusiast	-10.5363
▁necessità	-10.5363
▁intellettual	-10.5364
▁ved	-10.5365
▁battut	-10.5366
▁sott	-10.5368
▁presentazione	-10.5368
▁girare	-10.5369
▁opposto	-10.5374
▁palla	-10.5374
▁indipendente	-10.5375
▁schiavi	-10.5376
▁strato	-10.5388
▁vint	-10.5399
▁content	-10.5401
▁bisogn	-10.5407
▁bellissimo	-10.541
▁gett	-10.5412
▁Bisogna	-10.5431
▁costruendo	-10.5431
▁crucial	-10.5431
▁simmetri	-10.5431
▁espande	-10.5431
▁noto	-10.5431
▁convinzion	-10.5432
▁stagion	-10.5433
▁autonom	-10.5448
▁Sai	-10.5448
▁assicur	-10.545
▁correre	-10.5454
▁massimo	-10.5455
▁ecc	-10.5456
▁usat	-10.5473
▁fondat	-10.5475
▁volont	-10.5475
▁sap	-10.5477
▁vorrebbe	-10.548
▁guadagna	-10.5482
▁nati	-10.5483
▁statu	-10.5492
telo	-10.5493
▁cosiddett	-10.55
▁mammifer	-10.55
▁squal	-10.5501
▁vestiti	-10.5505
▁segu	-10.5508
▁retro	-10.5511
▁quotidian	-10.5518
▁neuro	-10.5524
▁osservando	-10.5527
▁scientifico	-10.5532
sha	-10.5537
zzati	-10.5544
▁sapevamo	-10.5544
▁identic	-10.5545
▁giunt	-10.5546
▁croll	-10.5548
▁soffr	-10.5559
▁pioggi	-10.5562
don	-10.5569
▁produttor	-10.557
▁accende	-10.557
▁gravità	-10.5574
▁rifugiat	-10.5576
▁terribil	-10.558
▁corsa	-10.5583
▁fossili	-10.5589
▁prendendo	-10.5593
▁aggiunge	-10.5595
▁crescendo	-10.5596
sentiamo	-10.5597
▁lasciate	-10.5604
▁corrisponde	-10.563
▁intitolat	-10.5635
▁caffè	-10.564
▁avvocat	-10.564
▁investire	-10.564
▁vetro	-10.5646
▁celebr	-10.5647
ivamente	-10.5653
▁dona	-10.5659
▁prosper	-10.5662
▁avendo	-10.5663
▁Prendete	-10.5663
andiamo	-10.5675
fino	-10.5679
▁sappia	-10.5697
ames	-10.5699
▁cammin	-10.57
▁spaziale	-10.5703
▁chirurg	-10.5709
▁zanzar	-10.571
▁cerebrale	-10.571
▁ulterior	-10.571
▁magnific	-10.571
▁compiti	-10.5711
▁Francisco	-10.5711
▁campioni	-10.5712
▁muoversi	-10.5721
▁stup	-10.5725
▁conosciut	-10.5726
▁fili	-10.5733
▁dollar	-10.5736
▁baci	-10.574
▁citazion	-10.5741
▁onore	-10.5742
▁dimenticat	-10.5743
▁Acc	-10.5744
▁offre	-10.5744
▁chiamava	-10.5746
▁collettiva	-10.5747
▁tort	-10.5749
▁Vol	-10.5752
▁oscur	-10.5753
▁utilizzato	-10.5753
bell	-10.5754
▁cani	-10.576
▁vedendo	-10.5769
▁concentrat	-10.5769
▁incontrar	-10.5777
▁esclus	-10.5781
▁tranquill	-10.5781
▁apparten	-10.5781
▁Canada	-10.5781
▁Kenya	-10.5782
▁Fino	-10.5788
▁22	-10.5789
▁limite	-10.5791
▁cerchio	-10.5792
▁nazionali	-10.5795
▁caric	-10.5795
rica	-10.5796
▁suggerisc	-10.5798
▁carin	-10.5798
▁riform	-10.5804
▁normal	-10.5811
▁Gra	-10.5815
▁potenza	-10.5819
▁credete	-10.5822
▁legno	-10.5828
▁sofferenz	-10.5852
▁costrett	-10.5852
▁dispiace	-10.5852
▁critica	-10.5853
▁etichetta	-10.5853
▁volume	-10.5853
▁impresa	-10.5853
▁grave	-10.5853
▁cause	-10.5853
▁Times	-10.5853
▁muta	-10.5855
▁ambientale	-10.5856
▁competenz	-10.5856
▁integr	-10.5861
▁rivolt	-10.5871
▁sorella	-10.5875
▁Grande	-10.5878
▁siti	-10.5888
▁peggiore	-10.5889
▁messa	-10.5897
▁sbagliata	-10.5898
▁rilasci	-10.5898
▁attenta	-10.5903
▁rapid	-10.5908
▁ieri	-10.591
rme	-10.591
lica	-10.5911
▁Inghilterra	-10.5924
▁National	-10.5924
▁risoluzion	-10.5924
▁anticip	-10.5924
▁bordo	-10.5925
▁99	-10.5927
▁motivazion	-10.5928
▁adatt	-10.5929
▁voci	-10.5943
▁rifiut	-10.5949
▁sbaglia	-10.5953
▁trasmett	-10.5973
▁foc	-10.5975
▁preferito	-10.5978
▁Or	-10.5978
▁autore	-10.599
tanto	-10.5991
▁cognitiv	-10.5997
▁ispirazione	-10.5997
▁parcheggi	-10.5997
▁moto	-10.5997
▁scende	-10.5997
▁competizion	-10.5999
▁dorm	-10.6
▁campione	-10.6002
▁television	-10.6003
▁riusciv	-10.6003
▁Cred	-10.6006
ttiva	-10.6015
▁Potre	-10.602
▁ripar	-10.6022
▁collegament	-10.6028
▁cena	-10.604
▁Pensiamo	-10.6048
▁belle	-10.6049
bro	-10.6052
▁sessuale	-10.6055
cità	-10.6056
▁svolt	-10.6063
▁trattava	-10.6064
▁metafora	-10.607
▁sofisticat	-10.607
▁Prendiamo	-10.607
▁giocattol	-10.607
▁signori	-10.6071
fort	-10.6093
▁respira	-10.6104
▁percentuale	-10.6105
▁privato	-10.6109
▁sport	-10.6126
▁fermat	-10.6127
MS	-10.6137
▁utilizzat	-10.6141
▁margin	-10.6144
▁sanità	-10.6144
▁Part	-10.6144
▁umil	-10.6145
▁delfin	-10.6146
▁Conosc	-10.6151
▁medica	-10.6152
▁ottiene	-10.6152
▁trovate	-10.6156
▁vada	-10.6162
▁muovere	-10.6166
▁Paes	-10.6177
▁odia	-10.6181
▁esami	-10.6186
▁farla	-10.6189
▁epidemia	-10.6202
▁viso	-10.6203
▁gestion	-10.6205
▁attaccat	-10.6217
▁NAS	-10.6217
▁familiari	-10.6217
▁droga	-10.6218
▁apertura	-10.6218
▁agenzi	-10.6218
▁danni	-10.6221
▁Donn	-10.6224
▁general	-10.6225
▁vedev	-10.6233
▁riconosce	-10.6246
▁sol	-10.6246
rca	-10.6247
▁sintomi	-10.6261
▁sposa	-10.6261
▁comprato	-10.6276
▁professore	-10.628
▁Tom	-10.6282
▁frat	-10.6288
▁specchi	-10.6292
▁simboli	-10.6292
▁palazz	-10.6293
▁verdi	-10.6293
▁aumentat	-10.6293
▁tasse	-10.6295
▁23	-10.6297
▁2008	-10.6298
▁seguent	-10.6299
gita	-10.6301
▁vedi	-10.6306
▁ansi	-10.6308
▁associat	-10.6312
▁preme	-10.6313
▁legame	-10.6313
▁antico	-10.6314
▁vendit	-10.6317
bel	-10.6318
▁scriv	-10.6318
mila	-10.6319
nell	-10.6321
mba	-10.6332
▁riflettere	-10.6334
▁curare	-10.6341
▁Ken	-10.6341
▁spostar	-10.6342
▁affett	-10.6343
▁segui	-10.6346
▁filmato	-10.6348
▁civili	-10.6357
▁Nigeria	-10.6367
▁immens	-10.6367
▁infantil	-10.6367
▁giudizi	-10.6367
▁paviment	-10.6367
▁diavol	-10.6371
▁definire	-10.6374
▁spiegazione	-10.6374
▁lega	-10.6375
▁pian	-10.638
▁tende	-10.6384
▁portati	-10.6396
bbero	-10.6401
▁salt	-10.6401
tz	-10.6402
▁esprim	-10.6406
▁App	-10.6413
▁Quanti	-10.6415
▁diffonde	-10.643
▁isolat	-10.643
▁alternativ	-10.6434
▁entr	-10.6442
▁Israele	-10.6443
▁complessa	-10.6443
▁rural	-10.6443
▁interagire	-10.6443
▁trascors	-10.6443
▁metodi	-10.6443
▁rossa	-10.6444
▁sape	-10.6466
▁clinica	-10.6474
▁band	-10.6479
▁cambiano	-10.6482
▁Paese	-10.6491
orma	-10.6507
▁Circ	-10.6514
▁organizza	-10.6517
▁MIT	-10.6519
▁infermier	-10.6519
▁debole	-10.6519
▁gratuit	-10.6519
▁accurat	-10.652
▁confine	-10.652
▁viventi	-10.6523
▁scars	-10.6524
▁essendo	-10.6527
▁stranier	-10.6529
▁ricco	-10.6534
▁cade	-10.6535
▁avvi	-10.6538
▁produco	-10.6539
▁attent	-10.6554
▁stadi	-10.6555
▁Risat	-10.6562
▁corall	-10.6567
▁applicar	-10.6568
▁trib	-10.6578
▁canta	-10.6588
▁State	-10.6593
▁immagin	-10.6594
▁proporzion	-10.6596
▁ambit	-10.6596
▁completo	-10.6596
▁polver	-10.6596
▁spettacolo	-10.6599
▁diagnos	-10.6601
▁cad	-10.6608
▁Universo	-10.6611
▁Prov	-10.6621
▁oh	-10.6625
cel	-10.6632
▁perdon	-10.664
▁chip	-10.6644
▁Disse	-10.6647
▁grandios	-10.6648
▁biolog	-10.6659
▁Darwin	-10.6674
▁Michael	-10.6674
▁soldati	-10.6674
▁impuls	-10.6674
▁radiazion	-10.6674
▁illegal	-10.6675
▁consumatori	-10.6676
▁portando	-10.6677
▁colonn	-10.668
▁alzat	-10.668
▁attira	-10.6686
▁scorre	-10.6698
▁guadagn	-10.67
▁tenuto	-10.6712
▁compr	-10.6713
▁Wal	-10.6718
▁remot	-10.672
▁forni	-10.6728
▁mono	-10.673
▁distrugg	-10.6734
▁Cerca	-10.6734
dice	-10.6738
▁visiva	-10.674
▁Congresso	-10.6752
▁Harvard	-10.6752
▁esperto	-10.6752
▁habitat	-10.6752
▁razional	-10.6752
▁camera	-10.6752
▁invern	-10.6753
▁confronto	-10.6753
▁larg	-10.6754
▁brillante	-10.6755
▁scrittura	-10.6755
▁abitanti	-10.6757
▁tedesc	-10.6758
▁affida	-10.6776
▁globalizza	-10.6778
lly	-10.6783
▁preparar	-10.6784
▁affront	-10.6795
▁pranzo	-10.6803
▁globali	-10.6806
ral	-10.6811
▁ricicl	-10.6817
visione	-10.6824
▁descrivere	-10.6829
▁leadership	-10.6831
▁braccia	-10.6831
▁illusion	-10.6832
▁bagno	-10.6833
▁fotografie	-10.6839
▁analizza	-10.6853
▁formato	-10.6855
▁tien	-10.6862
▁Mor	-10.6871
▁camp	-10.6874
▁dispositiv	-10.6881
▁agricol	-10.6884
▁ago	-10.6901
▁raccolta	-10.6903
▁Charles	-10.691
▁galassia	-10.691
▁specifica	-10.691
▁tessuti	-10.691
▁trapiant	-10.691
▁prezios	-10.691
▁previst	-10.691
▁spunt	-10.6911
▁contrast	-10.6911
▁pension	-10.6911
▁meraviglia	-10.6912
▁commerciali	-10.6914
▁prevedere	-10.6915
▁genetico	-10.6916
▁offrire	-10.6917
▁cadut	-10.6918
ball	-10.6924
▁pel	-10.6926
▁armat	-10.6931
▁coloni	-10.6935
▁equivalent	-10.6936
▁giornalist	-10.6942
▁posta	-10.6949
▁acces	-10.6949
sabilità	-10.6959
▁viaggi	-10.6966
▁concentrar	-10.6969
▁divenne	-10.697
coppia	-10.6971
▁relativa	-10.6978
▁alien	-10.698
dici	-10.698
nger	-10.6985
▁riprende	-10.699
▁sopravvissut	-10.699
▁spaventos	-10.699
▁domestic	-10.699
▁accorg	-10.699
▁cavallo	-10.6991
▁emozionante	-10.6991
▁gamma	-10.6992
gh	-10.6993
▁succedere	-10.7008
iamoci	-10.7009
▁nera	-10.7023
▁attualmente	-10.7039
▁coraggio	-10.7041
▁inserit	-10.7041
▁esplorazione	-10.705
▁accettar	-10.706
▁variazion	-10.707
▁flessibil	-10.7071
▁invisibile	-10.7071
▁disegnat	-10.7071
▁dolce	-10.7071
▁scimmie	-10.7071
▁formul	-10.7071
▁copr	-10.7073
▁contratt	-10.7074
▁sindac	-10.7075
▁porto	-10.7081
gon	-10.7081
▁est	-10.7103
▁imper	-10.7104
▁Potrem	-10.7104
gue	-10.7106
▁strati	-10.7108
▁sorprende	-10.7109
▁cortecc	-10.711
▁controllat	-10.7122
▁riso	-10.7123
▁dettaglio	-10.7133
▁sensori	-10.7138
▁cultur	-10.7143
▁Ar	-10.7145
▁esplora	-10.7146
▁Presidente	-10.7152
▁archivi	-10.7152
▁biciclett	-10.7152
▁musicist	-10.7152
▁grott	-10.7152
▁connessioni	-10.7153
▁Medio	-10.7153
▁merita	-10.7153
yn	-10.716
▁serra	-10.716
▁consideriamo	-10.716
▁dimostrar	-10.7167
▁coinvolger	-10.7178
▁scrive	-10.7181
▁invenzione	-10.7187
▁rispond	-10.7188
▁rot	-10.7192
▁vorr	-10.72
▁iniziativ	-10.7203
▁personal	-10.7204
▁accettat	-10.7208
▁discut	-10.7217
▁finora	-10.7217
▁neve	-10.7223
▁2010	-10.7234
▁bianca	-10.7234
▁carburant	-10.7234
▁previsioni	-10.7234
▁priori	-10.7234
▁ucciso	-10.7234
▁distruzione	-10.7234
▁splendid	-10.7235
▁ministr	-10.7235
▁raccoglie	-10.7238
▁divide	-10.7238
▁premi	-10.7257
▁Usa	-10.7274
▁viva	-10.7278
J	-10.7279
▁trasformato	-10.7288
▁vedrem	-10.7289
▁apre	-10.7296
▁pilota	-10.7301
▁evolve	-10.7317
▁riduce	-10.7317
▁espost	-10.7317
▁hacker	-10.7317
bottiglia	-10.7317
▁tirar	-10.7319
▁pessim	-10.732
▁emergent	-10.7324
▁governativ	-10.7329
▁capisce	-10.7331
▁medicine	-10.7331
▁ispirato	-10.7333
▁Sole	-10.7341
▁agricoltor	-10.7343
▁Stavo	-10.7345
▁ottene	-10.7345
▁clic	-10.7346
▁scia	-10.7347
▁dicev	-10.735
▁dovev	-10.7358
▁Inizia	-10.7359
▁partecip	-10.736
▁inventar	-10.7364
▁sces	-10.7369
▁194	-10.7378
gente	-10.7379
▁robotic	-10.7388
can	-10.7394
▁dem	-10.7397
▁budget	-10.74
▁giornale	-10.74
▁abituat	-10.74
▁onda	-10.7405
▁Ricordate	-10.7408
▁ancor	-10.7411
▁infil	-10.7415
▁bassi	-10.7415
▁organic	-10.7435
▁collettiv	-10.744
▁interattiv	-10.7441
▁Dovet	-10.7442
▁riflette	-10.7445
▁Nuov	-10.7449
▁quantistic	-10.7451
▁consapevol	-10.7455
vennero	-10.7456
▁superiori	-10.7456
▁geneti	-10.7457
▁Uom	-10.746
▁militar	-10.7467
▁sensi	-10.747
▁svolg	-10.7472
▁tumor	-10.7473
▁amministrazion	-10.7484
▁meccanica	-10.7484
papà	-10.7484
▁tridimensional	-10.7484
▁universitari	-10.7484
▁disegno	-10.7484
▁decisa	-10.7485
▁riduzion	-10.7485
▁ammal	-10.7491
▁riporta	-10.7492
▁esplosion	-10.7494
▁riten	-10.7502
▁osservato	-10.7509
▁attes	-10.751
▁monta	-10.7511
▁vincere	-10.7516
▁portarl	-10.7521
lon	-10.7528
▁vad	-10.7533
▁chiuso	-10.7545
▁lunghe	-10.7545
▁evidente	-10.7551
pplausi	-10.7553
tudine	-10.7554
▁Imp	-10.756
▁GPS	-10.7569
▁esponenzial	-10.7569
▁metallo	-10.7569
▁cerco	-10.7569
▁string	-10.7571
▁topi	-10.7571
▁muovono	-10.7572
▁bolle	-10.7573
▁diploma	-10.7573
▁Ognun	-10.7578
▁alternativa	-10.7579
▁City	-10.758
▁nasce	-10.7596
▁file	-10.7599
▁attivist	-10.7602
▁illumina	-10.7607
▁Crea	-10.7608
▁bimb	-10.7609
▁antibiotici	-10.7617
▁scoppi	-10.762
cattiva	-10.7622
▁osservate	-10.7625
▁registrazion	-10.7625
▁sforzi	-10.7627
ting	-10.7627
▁abbandonat	-10.7635
▁assembl	-10.7647
sk	-10.765
▁diede	-10.765
▁minimo	-10.7652
▁Oriente	-10.7654
▁scultur	-10.7654
▁chimici	-10.7654
▁licenz	-10.7655
▁Okay	-10.7655
▁saggi	-10.7656
▁analogi	-10.7657
▁svilupp	-10.7663
▁Bang	-10.7668
▁trovav	-10.7672
▁bloccat	-10.7672
▁fecero	-10.7673
▁discutere	-10.7673
▁militari	-10.7673
▁Dov	-10.7677
▁forn	-10.7678
ult	-10.7682
▁eliminar	-10.7685
uova	-10.7686
▁orgoglios	-10.7702
▁bla	-10.7704
▁disastro	-10.7708
▁segreti	-10.7709
▁figura	-10.7712
▁automatic	-10.7712
▁fusion	-10.7721
▁colonia	-10.7726
▁guard	-10.773
▁maschio	-10.773
▁conversazion	-10.7732
▁solid	-10.7733
▁astronomi	-10.774
▁estrarre	-10.774
▁Street	-10.774
▁banche	-10.774
▁ridicol	-10.7741
▁Sco	-10.7746
▁27	-10.7747
▁immobil	-10.7753
▁descrive	-10.7767
bul	-10.7776
▁coinvolg	-10.7782
▁Ten	-10.7789
▁veicoli	-10.7808
▁raccontat	-10.7818
▁saggezza	-10.7827
▁Pacific	-10.7827
▁deposit	-10.7827
▁grigi	-10.7827
▁college	-10.7827
▁valid	-10.7829
▁mistero	-10.783
▁ottic	-10.7832
▁viveva	-10.7832
▁scrisse	-10.7834
▁mappe	-10.7834
▁appassionat	-10.7834
▁nuota	-10.7837
▁cominciamo	-10.7848
▁noios	-10.7854
▁molecolar	-10.7862
bar	-10.7864
▁600	-10.7865
▁presso	-10.7865
▁ringrazi	-10.7878
▁determinat	-10.7884
▁ottimist	-10.7885
▁mezza	-10.7887
enter	-10.7893
▁colpit	-10.7894
▁certe	-10.7896
▁segno	-10.79
▁scaric	-10.7902
▁riusciva	-10.7903
▁obblig	-10.7909
▁Giu	-10.7909
part	-10.7911
▁superfici	-10.7912
▁desideri	-10.7912
▁tossic	-10.7912
▁giappones	-10.7915
▁sospett	-10.7915
▁recenti	-10.7915
▁festa	-10.7916
▁pianifica	-10.7916
▁avventura	-10.7918
▁finanz	-10.7918
▁assenz	-10.7921
▁disagi	-10.7925
▁vicina	-10.7925
▁Sch	-10.7931
▁the	-10.7932
▁250	-10.7945
▁dimostrazion	-10.7952
▁orribile	-10.7955
mbe	-10.7957
▁lavorator	-10.7971
▁Big	-10.7977
▁selezione	-10.798
▁valuta	-10.7983
▁Ros	-10.7984
my	-10.799
▁scontat	-10.7993
▁laser	-10.7997
▁trucco	-10.8004
▁efficienz	-10.8004
▁testimon	-10.8004
▁rispose	-10.8004
▁Russia	-10.8004
▁protesi	-10.8004
▁estrane	-10.8004
▁incroci	-10.8004
▁professionisti	-10.8007
▁curiosità	-10.8012
▁Parliamo	-10.8015
▁Dovrem	-10.8019
▁Andiamo	-10.8021
▁salire	-10.8021
▁progettat	-10.8024
▁rive	-10.8026
▁Tal	-10.8031
▁ingann	-10.8033
▁conten	-10.8036
▁imparando	-10.8041
▁interfaccia	-10.8044
▁valutazion	-10.8047
▁insegnament	-10.8062
▁Dr	-10.8063
giorno	-10.8067
▁registrar	-10.8071
▁soggetti	-10.8077
▁unici	-10.8078
sma	-10.8086
▁coordina	-10.8093
▁iPhone	-10.8093
▁autentic	-10.8093
▁geografi	-10.8093
▁precisa	-10.8093
▁riunion	-10.8093
▁ritard	-10.8093
▁insolit	-10.8093
▁estinzion	-10.8093
▁conduce	-10.8093
▁open	-10.8093
▁portò	-10.8093
▁secoli	-10.8095
▁contadin	-10.8096
▁acciai	-10.8098
▁sfruttar	-10.81
evole	-10.8103
▁trovere	-10.8106
▁carte	-10.8107
▁nud	-10.8109
▁dron	-10.8114
ssimi	-10.8114
come	-10.8117
▁gestit	-10.8121
▁scatt	-10.8122
▁elettronic	-10.8126
▁sosten	-10.8131
▁assume	-10.8143
▁definitiv	-10.8144
▁Du	-10.8156
▁quotidiana	-10.816
▁condivide	-10.8164
▁erba	-10.8168
▁classi	-10.8172
▁professional	-10.8175
▁Occident	-10.818
evoli	-10.8181
▁contribut	-10.8183
▁glamour	-10.8183
▁ingredient	-10.8183
▁pregiudizi	-10.8183
▁prevenir	-10.8183
▁borsa	-10.8183
▁moneta	-10.8186
▁sostenibilità	-10.8187
▁coltivare	-10.8188
▁arco	-10.8189
▁parlarne	-10.8194
▁applicat	-10.82
▁filo	-10.8207
ect	-10.8211
▁Ehi	-10.8212
▁privilegi	-10.8215
▁coraggios	-10.8219
▁fonda	-10.8221
▁lavorava	-10.8223
▁candidat	-10.8231
▁gigante	-10.8237
▁rappresentazion	-10.8238
▁atteggiamento	-10.8244
▁affermazion	-10.8247
▁tele	-10.8248
grafia	-10.8259
ssum	-10.826
▁Tim	-10.8262
▁dirig	-10.8263
▁Stato	-10.8264
▁proiett	-10.8269
▁frequenza	-10.8274
▁Obama	-10.8274
▁istitut	-10.8274
▁performance	-10.8274
▁market	-10.8274
▁Parigi	-10.8274
▁generos	-10.8274
▁sottile	-10.8274
▁atlet	-10.8275
▁assunt	-10.8275
▁scendere	-10.8275
▁fiore	-10.8277
▁giuste	-10.8278
▁collass	-10.8278
▁laboratori	-10.8281
▁gatto	-10.8283
▁conoscenz	-10.8285
▁Altri	-10.8287
▁ambientali	-10.8292
▁bru	-10.8294
▁modificar	-10.8296
▁equazione	-10.8297
▁tendo	-10.8299
▁farl	-10.8299
▁Sull	-10.8303
▁antica	-10.8304
▁centesimi	-10.8317
sistono	-10.832
▁rocc	-10.8322
12	-10.8324
▁ricev	-10.8327
▁volant	-10.8335
▁confus	-10.8348
▁spendere	-10.835
▁riconosc	-10.8354
ssu	-10.8354
▁Americani	-10.8357
prezzi	-10.8362
▁modella	-10.8366
▁interventi	-10.8366
▁femminile	-10.8366
▁centimetr	-10.8366
▁progetta	-10.8366
▁conquist	-10.8366
▁resistent	-10.8367
▁amica	-10.8367
▁appropriat	-10.8368
ndomi	-10.8369
▁bomba	-10.8372
▁diretto	-10.8377
▁simulazion	-10.8383
▁smettere	-10.8384
▁nano	-10.8393
▁piaceva	-10.8404
15	-10.8407
NG	-10.8414
▁occup	-10.8418
▁operativ	-10.8418
▁disciplin	-10.842
▁detta	-10.8421
▁seder	-10.8422
▁salit	-10.8426
▁assiste	-10.8431
▁laurea	-10.8432
▁algoritmi	-10.8436
▁preferi	-10.8448
▁equ	-10.8449
▁Dice	-10.8452
▁stanc	-10.8455
▁Boston	-10.8458
▁Frank	-10.8458
▁accompagn	-10.8458
▁circostanz	-10.8458
▁distribuit	-10.8458
▁individuar	-10.8458
▁vicenda	-10.8458
▁Ragazz	-10.8458
▁chimiche	-10.8458
▁catturar	-10.8458
▁acceder	-10.8458
▁profil	-10.8459
▁proprietari	-10.8459
▁maestr	-10.846
back	-10.8461
▁mondi	-10.8462
▁buchi	-10.8463
▁roccia	-10.8463
▁accademic	-10.8465
▁quartier	-10.847
▁simbolo	-10.8471
▁legale	-10.8472
low	-10.8473
▁svegli	-10.8474
▁radici	-10.8476
▁Tor	-10.8479
▁Ann	-10.848
▁PM	-10.8484
manda	-10.8484
▁balla	-10.8493
▁avrest	-10.8494
▁collo	-10.8499
▁sensibili	-10.8501
▁65	-10.8502
verso	-10.8503
temporaneamente	-10.8505
▁Voleva	-10.8506
▁assumere	-10.8507
▁trasmettere	-10.8508
▁miser	-10.8509
▁nascon	-10.8519
▁circondat	-10.8527
▁registrato	-10.8536
▁evidenz	-10.8537
▁nutrir	-10.8542
king	-10.8548
▁dinosauri	-10.855
▁manten	-10.855
▁finanziat	-10.855
▁Islam	-10.8552
▁canzoni	-10.8552
▁introdott	-10.8552
▁preciso	-10.8552
▁bilanci	-10.8552
▁destino	-10.8552
source	-10.8552
▁compagn	-10.8554
▁pochissim	-10.8558
▁proviamo	-10.856
▁trasferit	-10.856
▁letteratur	-10.8564
▁usi	-10.8568
▁produc	-10.8569
▁femmin	-10.8581
▁segni	-10.8585
▁Ph	-10.8592
▁marchio	-10.8614
▁sceglie	-10.8617
▁trasform	-10.8627
▁caratteristic	-10.8643
▁preoccupazion	-10.8644
▁Pakistan	-10.8646
▁camion	-10.8646
▁pomeriggio	-10.8646
▁sanguign	-10.8646
▁grid	-10.8646
▁dialogo	-10.8646
ennaio	-10.8647
▁pollin	-10.8648
▁Polo	-10.8649
▁guardav	-10.8649
▁astratt	-10.8652
nch	-10.8659
11	-10.866
▁procedur	-10.8667
▁Deve	-10.867
▁corte	-10.867
▁descritto	-10.8675
▁mega	-10.8677
▁ritengo	-10.8688
▁succed	-10.869
▁organizzar	-10.8692
▁firm	-10.8697
▁entusiasm	-10.8699
▁informat	-10.8704
▁altrove	-10.872
▁membr	-10.8737
▁frutta	-10.8741
▁risonanz	-10.8741
▁convincere	-10.8745
▁serviva	-10.8746
▁chirurgi	-10.8748
▁credeva	-10.8749
▁Muse	-10.875
▁lavoriamo	-10.8753
▁BG	-10.8754
scar	-10.8755
▁ricevo	-10.8756
▁Th	-10.8757
▁giornalisti	-10.8761
▁ricca	-10.8763
▁algoritm	-10.8764
▁ricon	-10.877
▁facesse	-10.8771
rry	-10.8812
▁chiara	-10.8819
▁investit	-10.8821
▁riflett	-10.8829
▁meccanismi	-10.8835
ouTube	-10.8837
▁World	-10.8837
▁padron	-10.8837
▁biodiversi	-10.8837
▁febbr	-10.8837
▁modul	-10.8837
▁prestito	-10.8838
▁regim	-10.8838
▁possia	-10.8838
ook	-10.884
▁pratiche	-10.8841
cosa	-10.8843
▁diabet	-10.8844
▁incidenti	-10.8849
▁temporal	-10.8857
▁cader	-10.8858
▁sensazion	-10.8859
▁capirl	-10.8861
dan	-10.8862
▁inserire	-10.8862
▁cancell	-10.8867
▁risparmiar	-10.8867
mettersi	-10.8878
▁femmina	-10.8883
▁documentar	-10.8884
▁pietra	-10.8892
▁Far	-10.8894
▁presta	-10.8897
▁paur	-10.8903
▁Steve	-10.8909
▁Gal	-10.891
▁regn	-10.8915
▁distant	-10.8923
▁naviga	-10.8932
▁Bretagna	-10.8934
▁biblioteca	-10.8934
▁dappertutto	-10.8934
▁pipistrell	-10.8934
▁romanz	-10.8934
▁Chicago	-10.8934
▁zampe	-10.8934
▁complesse	-10.8934
▁indovina	-10.8935
▁abitudin	-10.8935
▁ritratt	-10.8935
▁apparire	-10.8936
▁rendendo	-10.894
▁miglioramento	-10.8943
▁Thom	-10.8943
▁Lu	-10.8949
▁editor	-10.8957
▁generato	-10.8959
kg	-10.8972
▁emers	-10.8977
▁Buon	-10.8982
▁esprimere	-10.8986
▁sessuali	-10.8989
▁animazion	-10.899
▁evolutiv	-10.8993
▁trasferir	-10.8996
▁elettronica	-10.8996
▁impiegati	-10.9007
▁uguali	-10.9018
▁recuper	-10.902
▁fida	-10.9026
▁mucchi	-10.9028
▁pallon	-10.9032
▁invent	-10.9032
▁costituit	-10.9033
▁Osserv	-10.9033
▁orchestr	-10.9033
▁ingrandi	-10.9033
▁laggiù	-10.9033
▁anonim	-10.9033
▁tolt	-10.9033
▁seriamente	-10.9034
▁naso	-10.9034
▁pubbliche	-10.9034
▁attra	-10.9035
▁educativ	-10.9037
▁concret	-10.9037
▁integrat	-10.9044
▁dritt	-10.9045
ower	-10.9049
▁abbandon	-10.9049
▁oriental	-10.9052
▁aiutarl	-10.9052
▁minore	-10.9056
▁minima	-10.9062
▁sovra	-10.9063
▁chiudere	-10.9063
▁Devi	-10.9067
▁Ador	-10.9067
▁Q	-10.9072
▁Cominciam	-10.9073
▁paragon	-10.9076
ware	-10.9079
▁replica	-10.9084
▁Bell	-10.9096
▁paret	-10.91
50	-10.91
fici	-10.9107
▁fos	-10.9107
▁presentato	-10.9108
ling	-10.9114
▁Immagin	-10.9127
▁implicazion	-10.9131
▁University	-10.9132
▁arrabbiat	-10.9132
▁cattivo	-10.9132
▁tollera	-10.9132
▁gonfi	-10.9132
▁lunghi	-10.9132
▁organo	-10.9132
▁compromess	-10.9132
▁teatro	-10.9132
▁pannell	-10.9132
▁gamba	-10.9132
▁preferisc	-10.9133
▁rosa	-10.9133
▁rara	-10.9133
▁avvert	-10.9133
▁difesa	-10.9137
Natale	-10.9138
▁ascoltato	-10.9141
▁definisc	-10.9141
▁polar	-10.9151
▁poterl	-10.9155
▁fantastiche	-10.9155
▁viaggiar	-10.9159
▁Pur	-10.9161
▁spaventat	-10.9165
amiamo	-10.918
▁terroristi	-10.9182
▁amare	-10.919
▁tipica	-10.919
▁Comincia	-10.919
▁sorell	-10.9203
▁Cal	-10.9205
▁gras	-10.921
▁Har	-10.9222
▁spedizion	-10.9223
metro	-10.9226
tutto	-10.9231
▁pinguin	-10.9232
▁spegne	-10.9232
▁lassù	-10.9232
▁adeguat	-10.9232
▁autostrad	-10.9232
▁rigid	-10.9232
▁istante	-10.9233
▁dormire	-10.9236
▁Dovev	-10.9238
▁elenc	-10.9242
▁quadrati	-10.9243
bert	-10.9243
▁Quant	-10.9255
▁Jim	-10.9256
▁chiari	-10.9261
▁Pat	-10.9277
▁polmoni	-10.9279
▁ingegner	-10.928
▁classifica	-10.9283
▁tab	-10.9291
▁abbracci	-10.9293
▁diffondere	-10.9296
▁eccitant	-10.9317
▁possed	-10.9328
▁document	-10.9329
▁Alzheimer	-10.9333
▁bizzarr	-10.9333
▁esemplar	-10.9333
▁sperimentare	-10.9333
▁strategie	-10.9333
▁assurd	-10.9333
▁transizion	-10.9333
▁sogna	-10.9333
▁isole	-10.9333
▁ricostruire	-10.9333
▁pollic	-10.9334
▁extra	-10.9335
▁cines	-10.9336
▁bugi	-10.9337
▁viola	-10.934
▁icon	-10.934
▁piazza	-10.9343
▁gir	-10.9348
▁Corea	-10.9348
▁fallit	-10.9349
correre	-10.9349
ney	-10.9351
▁moss	-10.9386
▁corti	-10.9404
▁dipendenz	-10.9407
nami	-10.9419
▁Val	-10.942
▁verran	-10.9422
MA	-10.9428
▁inviat	-10.9431
▁britannic	-10.9435
▁doloros	-10.9435
▁idrogeno	-10.9435
▁soggetto	-10.9435
▁sostegno	-10.9435
▁Continu	-10.9435
▁Antarti	-10.9435
▁conferma	-10.9435
▁Valley	-10.9435
▁riconosciut	-10.9435
▁rilevant	-10.9435
▁cinema	-10.9435
▁vacanz	-10.9435
▁calcio	-10.9436
▁picco	-10.9437
▁0,	-10.9437
▁trauma	-10.9439
▁Medic	-10.9452
▁vere	-10.9459
▁estratt	-10.9472
seguono	-10.9473
▁virtual	-10.9475
▁causat	-10.9476
▁offr	-10.9477
▁Pan	-10.9483
▁spingere	-10.9497
▁Union	-10.95
▁fier	-10.9509
▁conoscev	-10.9517
▁preved	-10.9526
saput	-10.9529
▁gentile	-10.9538
▁metropolitan	-10.9538
▁rigenera	-10.9538
▁spiritual	-10.9538
▁disordin	-10.9538
▁abbatt	-10.9538
▁trilion	-10.9538
▁Egitto	-10.9538
▁stabilire	-10.9538
▁Martin	-10.9539
▁ormon	-10.9539
▁pesante	-10.954
▁tassi	-10.9541
▁zucchero	-10.9541
▁muore	-10.9541
▁Minist	-10.9548
▁Arriva	-10.9554
▁quadrato	-10.9557
▁nipoti	-10.9561
▁emette	-10.9564
▁aspettav	-10.9566
▁mol	-10.9571
▁guar	-10.9576
▁villaggi	-10.9583
▁Dico	-10.9593
▁mangiat	-10.9594
▁fondazion	-10.9602
▁connetter	-10.9608
▁lanciare	-10.9615
▁star	-10.9616
▁attaccar	-10.9617
▁conferenz	-10.9619
front	-10.962
▁simula	-10.9622
▁migliorat	-10.9625
▁tipic	-10.9628
▁monitor	-10.9629
▁diretta	-10.9631
▁combina	-10.9637
▁cerebrali	-10.9642
▁golf	-10.9642
▁riprodur	-10.9642
▁diffusa	-10.9642
▁comportamental	-10.9642
▁visibile	-10.9642
▁ghiacciai	-10.9643
▁periodi	-10.9644
▁tension	-10.9645
▁impedir	-10.9648
▁eccezionale	-10.9648
▁plac	-10.9648
▁legami	-10.9651
▁36	-10.9652
▁fresc	-10.9654
▁32	-10.9661
▁ripetut	-10.9662
▁laureat	-10.9684
▁decid	-10.9693
▁scheletr	-10.9695
▁canali	-10.9699
▁mutazion	-10.97
nco	-10.9702
▁frasi	-10.9712
▁sollev	-10.9713
▁Stava	-10.9717
ft	-10.9717
▁aperti	-10.9721
▁avvis	-10.9727
▁apprezz	-10.9733
▁gravi	-10.9743
▁cattive	-10.9747
▁efficienti	-10.9747
▁luminos	-10.9747
▁sorveglianz	-10.9747
▁spontane	-10.9747
▁uccello	-10.9747
▁piramid	-10.9747
▁slide	-10.9747
▁intuizion	-10.9747
▁bandier	-10.9748
▁microfon	-10.9748
▁scenario	-10.9748
press	-10.9748
▁consente	-10.9748
▁agenti	-10.9748
▁rossi	-10.9749
▁intende	-10.975
▁umanitari	-10.9755
▁nastr	-10.9757
▁pezzett	-10.9759
▁Roma	-10.9772
▁Quas	-10.9775
▁istruzion	-10.9799
atar	-10.98
▁ricompensa	-10.98
▁vivent	-10.9802
▁sogli	-10.9807
▁Person	-10.9809
▁picchi	-10.9818
▁rar	-10.9822
bot	-10.9823
▁insegn	-10.9835
▁Adam	-10.9844
ram	-10.9849
▁glob	-10.9849
▁appunt	-10.9851
nnanzitutto	-10.9853
▁stupefacent	-10.9853
▁urbano	-10.9853
▁mosche	-10.9853
▁nutrient	-10.9854
▁nido	-10.9855
▁Studi	-10.9856
▁antichi	-10.9861
▁bolla	-10.9862
▁osserviamo	-10.9862
▁Guardiamo	-10.9864
▁parli	-10.9864
▁pagh	-10.9871
▁avvenut	-10.9887
▁sentimenti	-10.9889
▁odio	-10.989
med	-10.989
▁incentivi	-10.9893
dri	-10.9899
▁tenut	-10.991
▁tengo	-10.9914
▁regist	-10.9915
▁sensibil	-10.9945
▁Mary	-10.9954
▁sic	-10.9959
▁piaciut	-10.9961
▁asteroid	-10.9961
▁espansion	-10.9961
▁scimmia	-10.9961
▁debito	-10.9961
▁ritual	-10.9962
▁ciec	-10.9962
▁Super	-10.9965
▁sincer	-10.9967
▁link	-10.9971
▁Air	-10.9976
▁Tes	-10.9976
▁matton	-10.9977
▁statistica	-10.998
▁apert	-10.9986
▁vergogna	-10.9987
▁esistenti	-10.9988
han	-10.9991
▁cattivi	-10.9995
▁automatica	-10.9997
▁penser	-10.9997
ffusion	-11.0002
▁otterr	-11.0017
▁esam	-11.0026
▁giusti	-11.0032
▁variabil	-11.0036
▁Fate	-11.0036
▁alz	-11.0048
fetta	-11.0052
▁messe	-11.0058
▁modifica	-11.0064
▁Oltre	-11.007
▁Semplice	-11.007
▁disparità	-11.007
▁episodi	-11.007
▁televisiv	-11.007
▁patologi	-11.007
▁destinat	-11.007
▁sfugg	-11.007
▁sottopost	-11.007
▁umid	-11.0071
deboli	-11.0071
tendiamo	-11.0071
▁primari	-11.0072
▁autism	-11.0074
▁rimango	-11.0074
▁provando	-11.0075
▁2005	-11.0079
▁gatti	-11.0081
▁cava	-11.0089
▁ricav	-11.0094
▁parto	-11.0099
▁fortunati	-11.0106
▁diagnostic	-11.0109
▁scur	-11.0138
▁alzar	-11.0139
▁120	-11.0142
▁grat	-11.0142
▁continuiam	-11.0148
▁diminu	-11.0155
▁urbani	-11.0167
▁sapre	-11.0167
american	-11.0168
▁spettacolar	-11.017
▁farebbe	-11.018
▁argomenti	-11.018
▁nucleari	-11.018
▁paradigm	-11.018
▁rinnovabil	-11.018
▁aeroport	-11.018
▁rovina	-11.018
▁trasmess	-11.018
▁parassit	-11.018
▁occidentali	-11.0181
▁ragionevol	-11.0182
▁Ghan	-11.0183
▁costruiamo	-11.0186
▁agit	-11.0187
▁mettete	-11.0188
ark	-11.0191
▁Apple	-11.0194
▁chiedete	-11.0196
▁operatori	-11.0196
▁espor	-11.02
▁toccar	-11.02
▁psicologic	-11.0208
▁Torn	-11.0219
▁attor	-11.022
RI	-11.0223
▁vide	-11.0224
colare	-11.0227
angel	-11.0233
▁Rob	-11.0234
▁Anzi	-11.0241
▁sfrutta	-11.0242
▁risors	-11.0246
▁gocci	-11.0249
tabile	-11.0249
▁War	-11.0258
▁Torna	-11.0274
▁pratic	-11.0283
▁richiam	-11.0289
▁Svezia	-11.0291
▁differenzia	-11.0291
▁fegato	-11.0291
▁galleggia	-11.0291
▁lampadin	-11.0291
▁misterios	-11.0291
▁specifici	-11.0291
▁Cinque	-11.0291
▁narrazion	-11.0291
▁panoram	-11.0291
▁respiro	-11.0291
▁sorride	-11.0291
▁ideologi	-11.0291
▁ombra	-11.0291
▁novità	-11.0291
▁protesta	-11.0291
▁accoglie	-11.0291
▁binari	-11.0291
▁rientr	-11.0291
▁paus	-11.0291
intuitiv	-11.0292
pesso	-11.0293
▁seguendo	-11.0296
▁abbandonar	-11.0297
▁concentrazion	-11.0301
▁Luna	-11.0302
▁spedi	-11.0303
▁spazzatur	-11.0304
▁impiegat	-11.0307
▁corretto	-11.031
▁iper	-11.0317
▁maschil	-11.0318
▁Congo	-11.0322
▁circola	-11.0325
▁fren	-11.0326
profit	-11.0332
▁Sul	-11.0334
▁Pol	-11.0334
▁controvers	-11.0339
▁Tant	-11.0349
▁abbass	-11.0351
▁limitato	-11.0361
▁disegni	-11.0362
▁ritir	-11.0372
▁immediat	-11.0398
▁annu	-11.0403
▁superat	-11.0403
▁inaspettat	-11.0403
▁descrizion	-11.0403
▁sottomarin	-11.0403
▁finanziament	-11.0403
▁tragedi	-11.0403
▁parallel	-11.0403
▁Green	-11.0403
▁audio	-11.0403
▁pillol	-11.0403
▁tasca	-11.0404
▁acustic	-11.0404
▁scompars	-11.0404
▁spiaggia	-11.0404
▁amicizi	-11.0405
▁coltur	-11.0405
▁interior	-11.0406
▁aiuter	-11.0407
▁ossessionat	-11.0407
▁verb	-11.041
▁sequenzia	-11.041
▁destro	-11.0412
▁declin	-11.0412
▁carton	-11.0413
▁scart	-11.0416
▁crescente	-11.0419
▁accadde	-11.0422
▁eccita	-11.0425
▁gradual	-11.0432
▁interna	-11.0432
BM	-11.0439
▁funzionava	-11.0446
▁medicinali	-11.0448
▁trascorr	-11.0454
▁anell	-11.0462
▁inseri	-11.0466
▁fatica	-11.047
rug	-11.047
BC	-11.0475
▁popolazion	-11.0476
▁scapp	-11.0479
▁vittim	-11.0479
▁mescol	-11.0481
▁95	-11.0497
▁vignett	-11.05
▁profession	-11.05
▁cavo	-11.0502
▁sistematic	-11.0505
▁visual	-11.0507
▁Higgs	-11.0517
▁identificat	-11.0517
▁Ascolt	-11.0517
▁immunitari	-11.0517
▁Progett	-11.0517
▁chiediamo	-11.0517
▁dignità	-11.0517
▁continuat	-11.0517
▁Robert	-11.0518
▁comanda	-11.0518
▁gusto	-11.0519
▁esisteva	-11.0521
▁tener	-11.0535
▁investitor	-11.0537
▁riconosciment	-11.0539
▁lunghezz	-11.0548
▁emergenz	-11.0556
▁fornit	-11.0559
▁component	-11.0559
▁ritrov	-11.0561
base	-11.0562
▁interazion	-11.0567
▁andav	-11.0574
▁ecologic	-11.0587
▁guadagnare	-11.0592
▁religion	-11.0593
▁primitiv	-11.0599
▁ottengo	-11.0616
▁salari	-11.0617
dente	-11.0617
acqu	-11.0625
▁avvicin	-11.0628
▁cercava	-11.063
▁Institute	-11.0632
▁Manhattan	-11.0632
▁Stanford	-11.0632
▁aggressiv	-11.0632
▁cromosom	-11.0632
▁possiede	-11.0632
▁statunitens	-11.0632
▁Italia	-11.0632
▁coppie	-11.0632
▁sfondo	-11.0632
▁critico	-11.0632
▁indagin	-11.0632
▁ingress	-11.0632
▁prevale	-11.0632
▁galleri	-11.0633
▁petto	-11.0633
▁minier	-11.0634
▁previsione	-11.0634
▁eseguire	-11.0634
▁brillanti	-11.0634
▁dichiar	-11.0635
▁prendi	-11.0636
▁recita	-11.0636
▁venisse	-11.0638
▁Arab	-11.0639
▁2006	-11.0639
▁vener	-11.064
▁abbondan	-11.0643
▁affascinat	-11.0643
ight	-11.0652
▁realizzat	-11.066
▁estetic	-11.0663
ilicon	-11.0668
▁belli	-11.0669
▁Mark	-11.0681
▁associazion	-11.0695
▁usc	-11.0711
▁ricostru	-11.0722
▁merito	-11.0734
▁contribui	-11.0739
▁Ross	-11.0748
▁Funziona	-11.0748
▁cioccolat	-11.0748
▁dizionari	-11.0748
▁ginocchio	-11.0748
▁installazion	-11.0748
▁rallentar	-11.0748
▁trasporti	-11.0748
▁tavola	-11.0748
▁miracolo	-11.0748
▁assassin	-11.0748
▁fantasi	-11.0748
▁Sudafrica	-11.0748
▁eredità	-11.0748
▁700	-11.0749
▁federal	-11.0749
▁ricrea	-11.075
▁estremo	-11.075
▁liceo	-11.0751
▁mondiali	-11.0752
▁incaric	-11.0752
▁risale	-11.076
▁porre	-11.0761
▁sondaggi	-11.0764
▁percors	-11.0767
▁specializzat	-11.0774
▁mostrando	-11.0781
▁sposat	-11.08
▁rider	-11.0804
▁Parl	-11.0804
▁contribuire	-11.0806
▁arrest	-11.081
▁riparar	-11.0828
▁Intend	-11.0832
▁valutar	-11.0836
▁sostituire	-11.0837
▁contemporane	-11.0838
▁canal	-11.0841
▁spostat	-11.0843
arch	-11.0844
BI	-11.0853
pena	-11.0856
▁fondament	-11.086
ificazione	-11.0865
▁elementare	-11.0866
▁geometri	-11.0866
▁orologio	-11.0866
▁reciproc	-11.0866
▁eccetera	-11.0866
▁riferisc	-11.0866
▁invisibili	-11.0866
▁credito	-11.0866
▁attrezzatur	-11.0866
▁essenza	-11.0866
▁lasciando	-11.0869
▁implica	-11.087
▁Cambia	-11.0871
▁energi	-11.0871
pedia	-11.0872
▁spostament	-11.0873
▁cuc	-11.0873
▁ricorder	-11.0874
▁Terz	-11.0874
▁tubo	-11.0879
▁appres	-11.0883
▁prenders	-11.0886
▁assistent	-11.0899
▁indossar	-11.0901
▁radicalmente	-11.0905
▁magnet	-11.0907
▁trasformarl	-11.0909
▁teme	-11.0914
▁comod	-11.0918
lub	-11.0933
▁incint	-11.0933
▁quint	-11.0943
▁accett	-11.0954
▁tazz	-11.0956
▁Vengo	-11.0964
▁rifless	-11.097
▁cast	-11.0975
▁cercate	-11.0978
▁fabbriche	-11.0985
▁telefonat	-11.0985
▁terrestre	-11.0985
▁umorismo	-11.0985
▁codifica	-11.0985
▁Consider	-11.0985
▁Wiki	-11.0985
▁diffuso	-11.0985
▁show	-11.0985
▁congela	-11.0985
▁comincer	-11.0986
▁Esiste	-11.0986
▁suppon	-11.0986
▁appoggi	-11.0987
▁grasso	-11.0988
nsion	-11.099
▁Ku	-11.0991
uale	-11.0993
▁recuperar	-11.1
▁Sette	-11.1002
nghi	-11.1005
▁trasporta	-11.1009
▁adattar	-11.101
▁studiando	-11.1011
▁occhiali	-11.1012
dom	-11.1028
▁raccogli	-11.1031
▁Sol	-11.1034
▁estes	-11.1037
▁saperl	-11.1041
▁manifesta	-11.1045
▁copertin	-11.1053
▁partecipazion	-11.1065
▁vorrest	-11.1079
▁espress	-11.1084
▁tonn	-11.1084
ward	-11.1094
entità	-11.11
▁soccorso	-11.1105
▁aeroplan	-11.1105
▁benzina	-11.1105
▁costituisc	-11.1105
▁disgusto	-11.1105
▁lacrim	-11.1105
▁midoll	-11.1107
▁contenitor	-11.1107
▁occupat	-11.1108
▁Haiti	-11.1109
▁funghi	-11.1109
▁girat	-11.1113
▁tapp	-11.1115
▁orso	-11.1121
▁legali	-11.1123
▁guai	-11.1125
▁educat	-11.1126
▁strane	-11.1128
▁rivoluzion	-11.113
tasera	-11.1131
arezza	-11.1134
▁controlli	-11.1135
▁calcolare	-11.1144
▁sciocc	-11.1153
▁ecologi	-11.1156
▁accader	-11.1156
▁somiglia	-11.1169
▁stupend	-11.117
▁rappresentat	-11.1176
▁Kar	-11.1181
▁Sapev	-11.1196
burg	-11.1197
cam	-11.1198
▁ispirat	-11.1204
▁orienta	-11.1204
▁registrat	-11.1208
▁biglietto	-11.1227
▁frontier	-11.1227
▁terrificant	-11.1227
▁consenso	-11.1227
▁School	-11.1227
▁perfezion	-11.1227
▁periferi	-11.1227
▁fumett	-11.1228
▁torre	-11.1229
▁sonno	-11.1234
▁vend	-11.1242
▁distruggere	-11.1256
▁tratte	-11.1258
▁tracce	-11.1262
▁diagramm	-11.1265
▁Grand	-11.1266
▁interpretazion	-11.1271
▁banal	-11.128
▁marcia	-11.1281
▁visibili	-11.1282
▁Str	-11.1291
zer	-11.1296
▁lasciamo	-11.1302
▁colorat	-11.1305
▁defin	-11.1312
▁800	-11.1315
▁Nazional	-11.1316
▁Van	-11.1317
▁user	-11.1323
▁protein	-11.1331
▁oppost	-11.1332
▁cell	-11.1339
q	-11.1341
▁reagisc	-11.1342
▁coincid	-11.135
▁elefanti	-11.135
▁pacific	-11.135
▁Island	-11.1351
▁augur	-11.1351
▁profitto	-11.1351
▁misure	-11.1351
▁Park	-11.1351
▁William	-11.1353
▁uffici	-11.1353
▁obesità	-11.1354
▁palm	-11.1358
▁uccisi	-11.1358
▁rappresent	-11.1359
▁riserva	-11.136
▁ripos	-11.1361
▁DH	-11.1363
▁consider	-11.1363
▁Basta	-11.1376
▁hard	-11.1381
▁blocch	-11.1392
▁genitor	-11.1399
▁reag	-11.1402
▁ringraziar	-11.1403
▁comando	-11.1406
pot	-11.1422
▁precede	-11.1466
▁collaborator	-11.1469
▁Oxford	-11.1475
▁esposizion	-11.1475
▁improbabil	-11.1475
▁reputazion	-11.1475
▁General	-11.1475
▁tunnel	-11.1476
▁fiumi	-11.1476
▁diapositiva	-11.1476
ptop	-11.1478
▁ammettere	-11.1478
▁alimentari	-11.1484
▁aspettando	-11.1484
▁modal	-11.1514
▁figur	-11.1517
▁luss	-11.1525
▁ritrovat	-11.1531
▁pollo	-11.1533
▁influenzat	-11.1535
▁copertur	-11.1538
▁riportat	-11.1542
▁West	-11.1542
▁polmon	-11.1542
▁Tri	-11.1544
▁spaventa	-11.1559
right	-11.1561
▁distint	-11.157
▁collegar	-11.1573
▁terror	-11.1576
▁Pap	-11.1586
▁Wall	-11.1587
▁immers	-11.1589
rov	-11.1591
giochi	-11.1593
▁plasti	-11.1597
▁consulent	-11.1602
▁magazzin	-11.1602
▁minacce	-11.1602
▁poliziott	-11.1602
▁fisiche	-11.1602
▁formica	-11.1602
▁punteggi	-11.1602
▁installat	-11.1602
▁metalli	-11.1602
▁birra	-11.1602
▁dipartiment	-11.1603
▁complicata	-11.1603
▁zoo	-11.1603
▁depress	-11.1604
▁Bush	-11.1606
▁priv	-11.1612
▁28	-11.1612
▁Coca	-11.1613
▁Voc	-11.1614
▁emergere	-11.1618
▁tragic	-11.1619
prime	-11.1627
▁orizzont	-11.1632
▁piangere	-11.1632
arth	-11.1636
▁Her	-11.1641
▁basando	-11.1658
▁capisc	-11.1658
▁germ	-11.166
▁partecipant	-11.1669
▁proced	-11.1672
▁grec	-11.1682
▁comunicazion	-11.1688
uca	-11.1692
▁confrontar	-11.1699
▁vuot	-11.1703
▁memori	-11.1709
▁assegn	-11.171
▁dure	-11.1717
▁Web	-11.1724
▁Texas	-11.173
▁bambine	-11.173
▁legittim	-11.173
▁pluvial	-11.173
▁rapporti	-11.173
▁supermercat	-11.173
▁urbana	-11.173
▁gemell	-11.173
▁cappell	-11.173
▁riunit	-11.173
▁riserve	-11.173
▁sintetizz	-11.173
▁compleann	-11.173
▁Juli	-11.1731
▁compiut	-11.1733
▁schizz	-11.1736
▁2004	-11.174
▁Esatt	-11.1741
▁stampant	-11.1742
▁divert	-11.1743
▁porterà	-11.175
▁tocc	-11.175
▁facessi	-11.1753
▁passando	-11.1754
▁fedel	-11.1754
▁epidemi	-11.1757
▁certezz	-11.1762
▁inventat	-11.1764
▁promuover	-11.1764
▁dipend	-11.1772
▁trend	-11.1784
▁dedicar	-11.1789
▁assicurazion	-11.1802
trofi	-11.1804
▁Life	-11.1805
▁American	-11.181
▁85	-11.1826
▁solari	-11.183
▁succederebbe	-11.1833
▁pozz	-11.1835
▁butt	-11.1839
▁circ	-11.1844
▁elimin	-11.1849
▁psico	-11.1851
▁ragn	-11.1856
▁scherm	-11.1858
▁Europe	-11.186
▁Microsof	-11.186
▁corridoi	-11.186
▁nucleo	-11.186
▁schiaccia	-11.186
▁sperimentazion	-11.186
▁esalta	-11.186
▁sorris	-11.186
▁droghe	-11.186
▁chimico	-11.186
▁catturat	-11.186
▁veteran	-11.186
▁penetra	-11.186
▁sostien	-11.1861
▁Jeff	-11.1861
▁adottar	-11.1861
▁toccat	-11.1864
▁dipingere	-11.1865
▁degn	-11.1869
▁concert	-11.1871
fetti	-11.1871
▁ballo	-11.1874
▁cicli	-11.1878
▁commenti	-11.1878
▁distinguere	-11.1884
▁Bur	-11.189
▁tentat	-11.1892
▁scaricar	-11.1893
▁Nu	-11.1902
▁rilasciat	-11.1908
▁riportar	-11.1911
plan	-11.1913
▁gigantesc	-11.1913
▁emozionat	-11.1927
▁capitat	-11.1962
▁Scr	-11.1968
▁Jer	-11.198
▁eolic	-11.1981
▁dotat	-11.1989
▁cittadina	-11.1992
▁farmaceutic	-11.1992
▁fredda	-11.1992
▁immerg	-11.1992
▁paradiso	-11.1992
▁semplific	-11.1992
▁significhi	-11.1992
▁sindrom	-11.1992
▁tastier	-11.1992
▁triangol	-11.1992
▁soffitt	-11.1992
▁impedisc	-11.1992
▁posizioni	-11.1992
▁inutile	-11.1992
▁adulto	-11.1992
▁scanner	-11.1992
▁tenendo	-11.1993
▁battito	-11.1993
▁scrivani	-11.1993
▁condivisione	-11.1993
▁hotel	-11.1994
▁patat	-11.1994
▁vicin	-11.1995
▁26	-11.2
▁svel	-11.2005
▁interpret	-11.2007
▁Guard	-11.2023
▁concess	-11.2025
▁interni	-11.2028
▁puntini	-11.2037
▁spina	-11.2046
▁arrestat	-11.2055
▁trasportat	-11.2057
▁poet	-11.2058
▁sensorial	-11.2073
▁provengo	-11.2075
nsieme	-11.2086
▁segna	-11.2088
▁vocal	-11.209
▁stabile	-11.209
▁rub	-11.2097
▁guid	-11.2107
▁centrali	-11.2108
ning	-11.211
uglio	-11.2121
▁dispon	-11.2121
▁Amazzoni	-11.2125
▁amministrator	-11.2125
▁filantropi	-11.2125
▁impressione	-11.2125
▁sperimentato	-11.2125
▁riscontr	-11.2125
▁schiena	-11.2125
▁feed	-11.2125
▁banchi	-11.2125
▁scettic	-11.2125
▁rendiment	-11.2125
▁scivol	-11.2125
▁reattor	-11.2129
▁sched	-11.213
▁Jack	-11.213
▁ritornar	-11.2133
▁rimoss	-11.2134
▁dettagliat	-11.2135
▁parenti	-11.2139
▁gomm	-11.2139
▁richied	-11.2142
▁metan	-11.2153
▁sentirs	-11.2163
▁trasportare	-11.2167
▁Sam	-11.2184
▁corallin	-11.2185
▁separa	-11.2194
▁prestazion	-11.2199
▁fortunato	-11.2215
▁usava	-11.2221
▁Lascia	-11.2222
▁assorb	-11.2228
ville	-11.2244
▁spiegat	-11.2251
▁neuroscienz	-11.2257
▁moltiplica	-11.226
▁Central	-11.226
▁elicotter	-11.226
▁interroga	-11.226
▁robust	-11.226
▁Golf	-11.226
▁incendi	-11.226
▁ronzi	-11.2261
▁compens	-11.2261
▁adottat	-11.2261
▁prigionier	-11.2262
▁Bob	-11.2262
▁vantaggi	-11.2263
▁millenni	-11.2264
▁pompa	-11.2268
▁tecnico	-11.2273
▁rimarr	-11.2274
▁affrontat	-11.2275
▁sintetic	-11.2277
▁dottorato	-11.2278
▁associa	-11.2286
▁sostenut	-11.2288
▁aument	-11.2295
▁viaggiato	-11.23
▁Impar	-11.2302
nzo	-11.2303
▁speranz	-11.2303
▁eccess	-11.2305
▁personalizzat	-11.2307
▁morir	-11.2309
▁imita	-11.231
▁indic	-11.231
▁analizzato	-11.2311
▁considerando	-11.2311
▁generar	-11.233
▁Eric	-11.2331
▁sorgent	-11.2332
▁conservazion	-11.2335
▁Gar	-11.2336
organizz	-11.2337
▁session	-11.2339
▁incentiv	-11.2347
▁passiv	-11.2382
▁demografic	-11.2385
▁navi	-11.2397
▁Quattro	-11.2397
▁appartamento	-11.2397
▁somministr	-11.2397
▁selvatic	-11.2397
▁Banca	-11.2397
▁geologi	-11.2397
▁condannat	-11.2397
NSA	-11.2398
▁titoli	-11.2398
▁percepire	-11.2398
▁gall	-11.2398
▁scend	-11.2399
sten	-11.24
▁incub	-11.2406
▁scene	-11.2406
▁sonda	-11.2407
▁Dott	-11.2414
▁Serv	-11.2415
▁Fatem	-11.2417
pal	-11.242
wor	-11.2422
▁penna	-11.2423
▁corda	-11.2426
▁massim	-11.2427
▁vermi	-11.243
▁perdendo	-11.2436
▁Titan	-11.2441
▁incis	-11.2452
▁dedic	-11.2455
▁poster	-11.2463
▁sorge	-11.2464
▁tagliar	-11.2471
pert	-11.2485
▁perdut	-11.2487
ossid	-11.2488
▁chiude	-11.2495
▁altrui	-11.2508
▁esplos	-11.2519
▁Etiopia	-11.2536
▁Florida	-11.2536
▁difender	-11.2536
▁inevitabile	-11.2536
▁Brown	-11.2536
▁paradoss	-11.2536
▁padri	-11.2536
▁Ugand	-11.2536
▁Diciamo	-11.2536
▁allevamento	-11.2536
▁farcela	-11.2536
▁pecor	-11.2536
▁mosca	-11.2537
▁adesiv	-11.2537
▁195	-11.2538
▁fotografica	-11.2539
▁scomp	-11.254
▁Salve	-11.2542
▁2003	-11.2546
▁avviato	-11.2546
▁percepit	-11.2547
▁mortal	-11.2549
▁tremend	-11.2559
▁adattament	-11.2565
▁chiederci	-11.257
▁leggo	-11.2571
▁domina	-11.2574
▁scav	-11.2575
▁marca	-11.2602
than	-11.2627
▁uccid	-11.2637
▁eccessiv	-11.2639
▁dev	-11.2641
▁modificat	-11.2662
▁trovarl	-11.2667
uguaglianza	-11.2668
▁stampat	-11.2668
▁decise	-11.2671
▁Natura	-11.2676
▁genocidi	-11.2677
▁occorre	-11.2677
▁reinventa	-11.2677
▁traguard	-11.2677
▁pronunci	-11.2677
▁ricopert	-11.2677
▁traiettori	-11.2677
▁genomi	-11.2677
▁sinistro	-11.2677
▁Greci	-11.2678
▁elettrod	-11.2678
▁indigen	-11.2678
▁zanzarier	-11.2678
▁intestin	-11.2679
▁colpire	-11.2682
▁dirigent	-11.269
▁Fanno	-11.269
▁portatile	-11.2696
▁King	-11.2697
▁capr	-11.2699
▁stanze	-11.2699
▁silenzios	-11.27
▁Pian	-11.2705
▁scrivendo	-11.2706
▁connette	-11.2728
▁dichiarazion	-11.2732
▁Gab	-11.2736
▁alimenta	-11.2739
14	-11.2751
▁esserl	-11.2758
▁appai	-11.2762
▁ragazzini	-11.2772
▁vesti	-11.2804
▁dett	-11.2812
▁impegnar	-11.2815
,000	-11.2816
tocin	-11.2816
▁istantane	-11.282
▁Bambin	-11.282
▁notturn	-11.282
▁omicidi	-11.282
▁romantic	-11.282
▁sperimental	-11.282
▁elaborar	-11.282
▁soldato	-11.282
▁Gates	-11.282
▁istruit	-11.282
▁Hollywood	-11.282
▁brevi	-11.282
▁anomal	-11.2821
▁Bibbi	-11.2822
▁commess	-11.2828
▁reagire	-11.283
▁Suon	-11.2835
▁antenn	-11.2836
▁dovunque	-11.2836
▁Vedo	-11.2838
▁videogioc	-11.2841
▁cantar	-11.2842
▁contrari	-11.2842
▁tecnici	-11.2844
▁brevetti	-11.2847
▁divertir	-11.2852
▁donator	-11.2874
▁bici	-11.2879
▁sapor	-11.2887
▁estint	-11.2893
ther	-11.2904
cut	-11.2938
▁satellitar	-11.2942
▁prenderl	-11.2959
▁rafforza	-11.2965
▁specifich	-11.2965
▁Fantastic	-11.2965
▁spettator	-11.2965
▁angoli	-11.2965
▁elaborat	-11.2965
▁riunir	-11.2965
▁Ebola	-11.2965
▁adulta	-11.2965
▁addoss	-11.2966
▁sbatt	-11.2966
▁garantir	-11.2968
▁intimi	-11.2972
▁regin	-11.2973
▁accort	-11.2973
▁tribunal	-11.2976
▁33	-11.2979
▁professor	-11.2988
▁rivelazion	-11.2994
▁istint	-11.2996
croce	-11.2997
infra	-11.2997
▁gestisc	-11.3001
▁immaginat	-11.3004
▁sviluppando	-11.3005
▁limitata	-11.3007
▁agend	-11.3012
▁spieg	-11.3014
▁sequenz	-11.3016
▁partecipat	-11.302
▁sentiment	-11.3028
▁restar	-11.3045
▁II	-11.305
▁soddisfatt	-11.306
▁Sara	-11.3061
▁nuotar	-11.3091
▁trascin	-11.3093
▁conclus	-11.3094
▁spazial	-11.3094
ku	-11.3099
▁rifugi	-11.3099
▁banco	-11.3109
▁Del	-11.3111
▁investiga	-11.3112
▁bianche	-11.3112
▁condurre	-11.3112
▁degrada	-11.3112
▁imbarazzant	-11.3112
▁intrappolat	-11.3112
▁menzionat	-11.3112
▁psichiatr	-11.3112
▁smartphone	-11.3112
▁bicchier	-11.3112
▁odiern	-11.3112
▁scintill	-11.3112
▁schifo	-11.3112
▁innocent	-11.3112
▁transazion	-11.3112
▁divertimento	-11.3112
▁proiezion	-11.3113
▁rotell	-11.3114
▁avvers	-11.3116
▁indizi	-11.3119
▁multipl	-11.312
▁Peter	-11.3122
▁Ford	-11.3124
▁allinea	-11.3131
▁Facev	-11.3133
▁saltar	-11.3134
▁giug	-11.3135
▁muovendo	-11.3136
▁nascere	-11.3142
▁terren	-11.3142
▁avveng	-11.3144
fel	-11.3145
▁seguit	-11.3147
▁ricche	-11.3149
▁chiamarl	-11.315
spen	-11.3152
▁rubat	-11.3155
uch	-11.3162
▁dilemm	-11.3163
▁estende	-11.3164
▁capitolo	-11.3164
▁danneggiat	-11.3167
▁cement	-11.317
▁rivend	-11.317
▁goder	-11.3172
▁aspettat	-11.3177
▁pietr	-11.3179
▁buttar	-11.3189
▁respirar	-11.3191
▁litr	-11.32
▁diagnosticat	-11.32
▁My	-11.3211
▁sfortunata	-11.3211
ED	-11.3211
▁scan	-11.3216
▁Facci	-11.3219
▁cooperazion	-11.3238
▁presentar	-11.3241
▁visitar	-11.3252
▁attrezz	-11.326
▁intrinsec	-11.3261
▁Rivoluzione	-11.3261
▁avanguardi	-11.3261
▁elefante	-11.3261
▁gerarchi	-11.3261
▁immagazzina	-11.3261
▁Numero	-11.3261
▁franca	-11.3261
▁cassett	-11.3261
▁estension	-11.3261
▁Entro	-11.3262
▁inietta	-11.3262
▁medus	-11.3263
▁Legge	-11.3264
▁neural	-11.3264
▁intitola	-11.3271
▁soffrono	-11.3279
▁detenut	-11.328
▁bos	-11.3281
sufficienz	-11.3285
▁alimentat	-11.3289
▁femminist	-11.3293
▁metterci	-11.3294
▁confusion	-11.3295
▁tribu	-11.3296
▁neonat	-11.3296
▁esaminar	-11.3298
▁sportiv	-11.33
hock	-11.3307
▁grandezz	-11.3322
▁boom	-11.3323
▁autorizzat	-11.3328
▁dimenticar	-11.333
▁stort	-11.333
▁preoccup	-11.3347
▁vaga	-11.3352
▁cent	-11.3359
▁ragionament	-11.3366
▁Esser	-11.3369
▁filament	-11.3387
ER	-11.3397
▁Star	-11.3399
▁mentor	-11.3403
▁piccolissim	-11.3407
▁preparazion	-11.3408
▁Spagna	-11.3413
▁origami	-11.3413
▁ballerin	-11.3413
▁fisiologi	-11.3413
▁esauri	-11.3413
▁competitiv	-11.3413
▁manager	-11.3413
▁cavern	-11.3413
▁siccità	-11.3413
▁élite	-11.3413
▁tsu	-11.3413
▁sterlin	-11.3414
▁colpevole	-11.3414
▁udito	-11.3414
▁pesanti	-11.3415
▁Ruand	-11.3415
▁Archi	-11.3416
▁visualizzazion	-11.3425
▁secc	-11.343
▁colloca	-11.3439
▁coltiv	-11.3444
▁allarme	-11.3446
▁Hy	-11.3447
▁collaborativ	-11.345
▁decim	-11.3452
▁industriali	-11.3455
▁accusa	-11.3461
mmut	-11.3461
▁calcolato	-11.3462
▁preparato	-11.3466
▁Kh	-11.3469
▁precipita	-11.3484
▁salutar	-11.3492
▁190	-11.3492
▁Cerc	-11.3492
47	-11.3503
bur	-11.3528
▁soddisfar	-11.3534
▁pinn	-11.3534
▁civic	-11.3542
▁Atlant	-11.3565
▁aggrega	-11.3566
▁Improvvisa	-11.3566
▁impollina	-11.3566
▁intrecci	-11.3566
▁italian	-11.3566
▁fertil	-11.3566
▁tatt	-11.3567
▁inutili	-11.3567
▁vittoria	-11.3567
▁scommett	-11.3568
▁stili	-11.357
▁crudel	-11.3571
▁interagiscono	-11.3571
▁Nik	-11.3572
▁distrett	-11.3573
▁classico	-11.3575
▁percepisc	-11.3576
▁prenda	-11.3578
▁29	-11.3578
sky	-11.3581
▁coprire	-11.3583
▁stabilit	-11.3586
▁vestito	-11.3589
▁tenda	-11.359
traggono	-11.3595
▁valle	-11.3599
▁artificial	-11.3609
▁trarre	-11.3609
▁capitali	-11.361
▁instabil	-11.3634
▁dargli	-11.3643
▁altissim	-11.3645
▁letal	-11.3656
erek	-11.3657
▁Pen	-11.3658
▁dichiarat	-11.3667
nny	-11.3682
▁osserv	-11.3691
Bay	-11.37
▁innamorat	-11.3716
RB	-11.3722
▁Cambrid	-11.3723
▁Repubblica	-11.3723
▁biglietti	-11.3723
▁disoccupa	-11.3723
▁elaborazion	-11.3723
▁giganti	-11.3723
▁scherzo	-11.3723
▁vocabolari	-11.3723
▁plasma	-11.3723
▁scaffal	-11.3723
▁impronta	-11.3723
▁minoranz	-11.3723
▁composizion	-11.3723
▁divertenti	-11.3723
▁polso	-11.3723
▁fosfor	-11.3723
▁tè	-11.3724
▁drammatic	-11.3724
▁fischi	-11.3726
well	-11.3726
▁egoist	-11.3732
eopard	-11.3734
▁muov	-11.3735
nutrizione	-11.3737
▁rivoluzionari	-11.3738
▁dimentica	-11.3738
▁cosicch	-11.3742
▁immigrat	-11.3744
▁parente	-11.3747
▁ripetere	-11.3751
▁Blu	-11.3756
▁prelev	-11.3757
grammi	-11.3771
▁squadr	-11.3773
▁cuor	-11.3774
▁generic	-11.3774
▁brutal	-11.3779
13	-11.378
▁ascoltando	-11.3782
siedono	-11.3784
▁aumentando	-11.3813
▁carich	-11.383
▁gelat	-11.3846
▁stacc	-11.3848
▁ricevett	-11.3851
▁oss	-11.3851
▁raccontando	-11.3851
▁piange	-11.3862
▁finanziar	-11.3865
▁lavorav	-11.387
▁convinc	-11.3872
▁assicurat	-11.3872
▁sostenibili	-11.3875
▁deforesta	-11.3881
▁intervenire	-11.3881
▁sconfitt	-11.3881
▁commission	-11.3881
▁riproduc	-11.3881
▁artigian	-11.3881
▁Black	-11.3881
▁elegante	-11.3881
▁inchiostr	-11.3881
▁concorren	-11.3881
▁vapore	-11.3881
▁posterior	-11.3882
▁spalla	-11.3882
▁affare	-11.3883
▁intraprend	-11.3884
▁igien	-11.3885
▁paralizzat	-11.3898
▁pallin	-11.3899
▁radic	-11.39
▁molla	-11.3901
▁diminuit	-11.3901
▁lascer	-11.3904
▁intervist	-11.3904
▁divari	-11.3909
▁afferr	-11.393
▁inventor	-11.3935
lick	-11.3937
▁logic	-11.3938
▁rimuovere	-11.3939
▁marchi	-11.3939
mel	-11.3943
▁spacc	-11.3953
▁ripensar	-11.3961
▁donazion	-11.3965
ificato	-11.3972
▁vengo	-11.3986
▁equivale	-11.399
▁norma	-11.3991
▁Prende	-11.3997
▁confronta	-11.4027
▁Attravers	-11.4043
▁Entramb	-11.4043
▁affamat	-11.4043
▁ambizios	-11.4043
▁censura	-11.4043
▁necessita	-11.4043
▁relaziona	-11.4043
▁scherza	-11.4043
▁schizofreni	-11.4043
▁tempesta	-11.4043
▁chiacchier	-11.4043
▁interruttor	-11.4043
▁Pratica	-11.4043
▁intermedi	-11.4043
RNA	-11.4043
▁prescinde	-11.4043
▁curve	-11.4043
▁cereali	-11.4043
▁Altre	-11.4043
▁anatomi	-11.4043
▁ultra	-11.4043
▁tutela	-11.4043
▁Costru	-11.4044
▁tronc	-11.4044
▁asiatic	-11.4045
▁vincitor	-11.4047
▁2050	-11.4047
ridge	-11.405
▁rimors	-11.405
▁Scott	-11.4051
▁tesor	-11.4055
▁pianificazione	-11.4057
▁salut	-11.4059
▁parali	-11.4059
▁trasfer	-11.4059
▁ostil	-11.4061
▁diminuisc	-11.4062
▁rivolg	-11.4065
▁indoss	-11.4075
▁Sembrava	-11.4085
▁liberar	-11.4085
Q	-11.4086
▁ren	-11.4089
▁sepolt	-11.41
▁spent	-11.4106
▁buttat	-11.4109
▁pap	-11.4128
▁55	-11.4136
yan	-11.4137
▁Carl	-11.4138
▁conteng	-11.4143
▁Stori	-11.4155
▁promuov	-11.4163
Cola	-11.4165
▁parl	-11.4169
▁incapac	-11.4189
▁condiziona	-11.4192
▁motivat	-11.4195
▁Diss	-11.4195
▁brilla	-11.4197
▁cittadino	-11.4207
▁cosciente	-11.4207
▁distribuir	-11.4207
▁emisfer	-11.4207
▁presuppost	-11.4207
▁stipendi	-11.4207
▁ambasciat	-11.4207
▁Saturno	-11.4207
▁scioglie	-11.4207
▁Norveg	-11.4207
▁cranio	-11.4207
▁modest	-11.4207
▁longev	-11.4207
round	-11.4207
▁morbid	-11.4207
▁festeggia	-11.4207
▁circolo	-11.4207
▁prestiti	-11.4207
▁costum	-11.4207
▁ispirar	-11.4207
▁drastic	-11.4207
▁catene	-11.4207
▁Pal	-11.4208
▁compassionevol	-11.4208
▁tradott	-11.4209
▁alimentazione	-11.4215
▁Apri	-11.4219
▁membran	-11.4222
▁impegnativ	-11.4222
▁procediment	-11.4228
▁barba	-11.4228
▁svolger	-11.423
ghiamo	-11.4231
▁marz	-11.4241
▁suggeriment	-11.4243
profitti	-11.4254
▁viral	-11.4261
▁rimetter	-11.4276
SE	-11.4289
▁tac	-11.4317
▁sottolinear	-11.4323
▁fenomen	-11.4327
▁anim	-11.4335
▁trent	-11.4347
▁Arriv	-11.4348
▁Diceva	-11.4349
▁Aspett	-11.4354
▁ossession	-11.4367
▁campagne	-11.4373
▁comprensibil	-11.4373
▁linguisti	-11.4373
▁multinazional	-11.4373
▁paracadut	-11.4373
▁rilevare	-11.4373
▁sbarazz	-11.4373
▁strategic	-11.4373
▁prostitu	-11.4373
▁spagnol	-11.4373
▁Smith	-11.4373
▁introdurre	-11.4373
▁assistit	-11.4373
▁suicidi	-11.4373
▁cilindr	-11.4373
▁delizios	-11.4373
▁pazzi	-11.4373
▁appello	-11.4374
▁affitt	-11.4374
cellula	-11.4374
▁Brian	-11.4374
▁vibrazion	-11.4374
▁insetto	-11.4374
▁Atlantico	-11.4374
▁fonde	-11.4375
▁infettiv	-11.4375
▁mobile	-11.4376
▁Hill	-11.4376
▁ibrid	-11.4376
▁coltell	-11.4376
▁baby	-11.4377
▁traduzion	-11.4378
▁strani	-11.4378
pressioni	-11.4378
▁Provate	-11.4381
▁Vuol	-11.4382
▁attraent	-11.4383
▁striscia	-11.4391
▁Brun	-11.4391
▁enzim	-11.4397
▁god	-11.4397
▁realistic	-11.4406
▁retin	-11.4406
▁estrazion	-11.4407
▁tubi	-11.4408
▁inclinazion	-11.4423
▁apprezzar	-11.4464
▁competer	-11.45
ortunatamente	-11.45
▁ambientalist	-11.4516
▁fotografat	-11.4518
▁sicure	-11.4543
▁devastant	-11.4543
▁intratteniment	-11.4543
▁preservativ	-11.4543
▁Leonard	-11.4543
▁griglia	-11.4543
▁sospes	-11.4543
▁fastidio	-11.4543
▁fragili	-11.4543
▁immun	-11.4543
▁automobile	-11.4543
▁Mettiamo	-11.4543
▁elettoral	-11.4543
▁scelgo	-11.4543
▁sacri	-11.4543
▁proporre	-11.4544
▁eredita	-11.4544
▁patogen	-11.4544
▁pubblicitari	-11.4545
▁acido	-11.4545
▁aspira	-11.4551
▁classica	-11.4553
▁scompare	-11.4554
▁entropi	-11.4554
▁isolamento	-11.4558
▁scattare	-11.456
bum	-11.456
▁circostant	-11.457
▁indipenden	-11.4571
▁avvolt	-11.4575
▁esplorator	-11.458
▁palle	-11.4582
▁Steven	-11.4589
▁Dipar	-11.4599
▁trovat	-11.4613
▁entusiasmant	-11.4619
▁3000	-11.4633
▁trattament	-11.466
▁sostituit	-11.4674
▁Sant	-11.468
▁5000	-11.4687
▁approva	-11.4687
descriv	-11.4703
▁produr	-11.4708
▁annual	-11.4708
▁Indonesia	-11.4715
▁Riguarda	-11.4715
▁arricchi	-11.4715
▁cerimonia	-11.4715
▁marciapied	-11.4715
▁moscerin	-11.4715
▁redditi	-11.4715
▁rovesci	-11.4715
▁interconness	-11.4715
▁dorsal	-11.4715
▁affond	-11.4715
▁parchi	-11.4715
▁ingiustizi	-11.4716
▁Gent	-11.4716
▁rendiamo	-11.4716
▁manuale	-11.4716
▁stomac	-11.4717
▁sopravv	-11.4718
▁bombe	-11.4719
▁consumatore	-11.472
▁appuntament	-11.472
▁repart	-11.4721
▁coton	-11.4722
▁Isol	-11.4722
▁dominante	-11.4722
▁norme	-11.4723
▁consentir	-11.4723
▁concors	-11.4725
▁cosmic	-11.4727
▁segment	-11.4727
▁generi	-11.4729
assembla	-11.4731
▁dose	-11.4732
▁illuminazion	-11.4744
▁sperma	-11.4744
compatibil	-11.4746
▁Pac	-11.4751
▁Ter	-11.4766
▁cavol	-11.4767
▁ottimis	-11.4774
▁camminat	-11.4776
▁lettur	-11.4799
▁perfett	-11.4801
▁esplod	-11.4804
▁mandat	-11.481
▁sparisc	-11.4813
▁occupazion	-11.482
▁saper	-11.4821
▁mucc	-11.4829
▁fall	-11.4829
▁circolar	-11.4838
aveste	-11.4842
▁orizzontal	-11.485
▁bust	-11.4852
▁spinal	-11.4858
▁sostengo	-11.4868
▁chirurgic	-11.4883
▁separazion	-11.4884
▁Cristian	-11.4891
▁Inglese	-11.4891
▁Olimpiad	-11.4891
▁Vietnam	-11.4891
▁allucinazion	-11.4891
▁armonia	-11.4891
▁bestiame	-11.4891
▁contraddizion	-11.4891
▁Disney	-11.4891
▁fotocamer	-11.4891
▁egizian	-11.4891
▁preghier	-11.4891
▁autunn	-11.4891
▁facoltà	-11.4891
▁insulin	-11.4891
▁piccion	-11.4891
▁sacchett	-11.4891
▁pulire	-11.4891
▁profum	-11.4891
▁melodi	-11.4891
▁Shang	-11.4891
▁orfan	-11.4891
▁sollevat	-11.4892
▁tassa	-11.4893
ihad	-11.4893
▁palud	-11.4894
▁azot	-11.4894
▁Poco	-11.4895
▁allunga	-11.4897
▁risolverl	-11.4897
▁pittura	-11.4897
▁analizz	-11.49
▁correlat	-11.49
▁Riuscit	-11.4901
▁segnala	-11.4905
▁monitorar	-11.4913
▁vincol	-11.4914
▁renda	-11.4916
▁Michel	-11.4919
▁combattiment	-11.4932
▁verrebbe	-11.4946
▁eliminat	-11.4948
▁appes	-11.4951
▁baril	-11.4952
quanto	-11.4954
▁affascinant	-11.4954
▁illuminat	-11.4959
circa	-11.497
▁orgoglio	-11.497
▁danneggia	-11.5002
▁inclin	-11.5018
▁Fil	-11.5021
dimensional	-11.5026
▁materi	-11.5029
▁sorprendent	-11.5063
▁occident	-11.5064
▁cen	-11.5064
▁appartien	-11.5069
▁applauso	-11.5069
▁apprendere	-11.5069
▁fantascienza	-11.5069
▁fertilizzant	-11.5069
▁protocoll	-11.5069
▁vulcani	-11.5069
▁wireless	-11.5069
▁Succede	-11.5069
▁pulsant	-11.5069
▁scarabocchi	-11.5069
▁Virgin	-11.5069
▁accordi	-11.5069
▁bottone	-11.5069
▁pacchett	-11.5069
▁Raccont	-11.5069
▁piaccia	-11.5069
▁Nick	-11.507
▁borse	-11.507
▁sottili	-11.507
▁glori	-11.507
▁visualizzar	-11.507
▁audac	-11.507
▁veleno	-11.507
▁ironic	-11.507
▁Tony	-11.5072
▁tortura	-11.5072
shop	-11.5072
▁mous	-11.5072
▁Henr	-11.5073
▁Coran	-11.5074
▁cercav	-11.5077
▁decisero	-11.5077
▁appars	-11.5078
▁Lasciatem	-11.5079
▁Rock	-11.5079
▁aggiuntiv	-11.5083
▁scoprendo	-11.5084
▁Cines	-11.5087
▁pescator	-11.509
▁South	-11.5099
▁Ferm	-11.5112
▁massicc	-11.5119
▁esaminat	-11.5127
▁dimostr	-11.5146
▁esclud	-11.5147
▁Mur	-11.5154
▁Latin	-11.5159
▁sufficient	-11.5164
▁incoraggiar	-11.5172
agiscono	-11.5186
▁fungo	-11.5192
▁condividerl	-11.521
esistente	-11.5211
▁pubblicazion	-11.5211
▁gel	-11.5217
▁rilevat	-11.5221
▁Arm	-11.5221
▁diventer	-11.5226
hiaramente	-11.5245
▁baston	-11.525
▁Bor	-11.525
▁Ultim	-11.5251
▁riabilita	-11.5251
▁Gandhi	-11.5251
▁Gesù	-11.5251
▁Internazional	-11.5251
▁Parkinson	-11.5251
▁Svizzer	-11.5251
▁ambigu	-11.5251
▁rinunciare	-11.5251
▁rispettar	-11.5251
▁stereotip	-11.5251
▁riutilizz	-11.5251
▁moralità	-11.5251
▁gravidanz	-11.5251
▁smalt	-11.5251
▁manipolar	-11.5251
▁cugin	-11.5251
▁venite	-11.5251
▁ordini	-11.5251
▁Snow	-11.5251
▁ammonta	-11.5252
▁avev	-11.5252
freccia	-11.5253
▁Whit	-11.5253
▁debella	-11.5253
▁prostat	-11.5255
▁Scriv	-11.5257
▁Johnson	-11.5257
▁cintur	-11.526
attle	-11.5264
▁calorie	-11.5266
▁connettiv	-11.5275
▁scrivev	-11.5284
▁coltivazion	-11.5287
Hey	-11.5295
▁insegu	-11.5305
▁spedit	-11.532
▁convenzional	-11.5321
▁acquistar	-11.5325
▁orribil	-11.5352
▁agisc	-11.5371
▁prosegu	-11.5373
▁sopravvive	-11.5389
▁integrazion	-11.5396
▁Gioc	-11.5397
▁Kev	-11.5425
▁sponsor	-11.5436
▁aggiungiamo	-11.5436
▁aggrapp	-11.5436
▁antropolog	-11.5436
▁eccellent	-11.5436
▁elementari	-11.5436
▁frequenze	-11.5436
▁immortal	-11.5436
▁obsolet	-11.5436
▁parzial	-11.5436
▁ricomincia	-11.5436
▁riproduzion	-11.5436
▁sottovalut	-11.5436
▁trupp	-11.5436
▁criteri	-11.5436
▁preferenz	-11.5436
▁esecuzion	-11.5436
▁pionier	-11.5436
▁rimpiazz	-11.5436
▁impossibili	-11.5436
▁ruoli	-11.5436
▁sconvolt	-11.5436
▁iranian	-11.5436
▁installar	-11.5436
▁terrorizzat	-11.5437
▁900	-11.5437
▁Delhi	-11.5438
▁banan	-11.5438
▁cronic	-11.5438
▁cavalli	-11.5439
▁preparati	-11.5445
▁diametro	-11.5446
▁servit	-11.545
▁44	-11.5452
▁immersion	-11.5455
▁spiegher	-11.5463
▁indicator	-11.5475
▁realizz	-11.5476
▁introduc	-11.5492
kins	-11.5499
▁combattut	-11.5503
▁contener	-11.5521
▁manifestazion	-11.5529
▁Chies	-11.5535
▁pagament	-11.5537
▁invenzion	-11.5552
▁asp	-11.5553
▁Insegn	-11.5562
▁sperar	-11.5566
▁sovran	-11.5567
▁spiegarv	-11.5571
▁firmat	-11.5604
▁selezion	-11.5614
▁raccolgo	-11.5625
▁Tanzania	-11.5625
▁Amazon	-11.5625
▁ascensor	-11.5625
▁configurazion	-11.5625
▁omosessual	-11.5625
▁raccomand	-11.5625
▁inglesi	-11.5625
▁predatori	-11.5625
▁argill	-11.5625
▁uniforme	-11.5625
▁Scopri	-11.5626
▁Shake	-11.5626
▁sognar	-11.5626
▁complicate	-11.5627
▁trappol	-11.5627
▁Berlin	-11.5627
▁dinosaur	-11.5628
▁sostenitor	-11.5629
▁spieghi	-11.5629
▁193	-11.563
▁sfruttamento	-11.5632
▁compier	-11.5632
▁composit	-11.5634
▁radun	-11.5634
▁incertezz	-11.564
▁condizionat	-11.5642
▁attend	-11.5648
▁automobilistic	-11.5656
▁approvat	-11.5656
▁votar	-11.566
▁tenerl	-11.5667
▁deten	-11.5684
▁diffond	-11.5729
▁Bron	-11.5732
▁scorrer	-11.5733
▁preoccupars	-11.5735
▁sparit	-11.5739
genesi	-11.5742
▁allevat	-11.5752
▁industri	-11.5761
▁Hel	-11.5771
▁nasc	-11.5789
▁imbatt	-11.5795
▁percep	-11.5805
▁Vuo	-11.5807
▁radicat	-11.5812
▁ciech	-11.5815
▁addestrament	-11.5817
▁narrativ	-11.5817
▁Brooklyn	-11.5817
▁Philip	-11.5817
▁iPod	-11.5817
▁islamic	-11.5817
▁passeggiat	-11.5817
▁Bianca	-11.5817
▁Found	-11.5817
▁ambizion	-11.5817
▁maschera	-11.5817
▁anterior	-11.5817
▁Sky	-11.5817
▁concepir	-11.5817
▁frega	-11.5817
▁grezz	-11.5818
▁correlazion	-11.5818
▁Josh	-11.5818
▁apparat	-11.5821
▁attua	-11.5821
▁carbonica	-11.5822
▁architettonic	-11.5822
▁192	-11.5826
▁mutu	-11.5827
anidri	-11.5827
▁alvear	-11.5827
▁report	-11.583
▁Giove	-11.583
▁oggettiv	-11.5831
▁Dottor	-11.5847
▁soggettiv	-11.5852
▁procur	-11.5852
▁ricostruzion	-11.5859
▁ettar	-11.5864
▁Color	-11.587
▁guadagnat	-11.5871
▁ridur	-11.5873
▁allenat	-11.5875
▁sottoline	-11.5885
▁Iniziam	-11.5914
mettiamo	-11.5922
▁guardarl	-11.593
▁mission	-11.5945
▁esegu	-11.5945
▁sostitui	-11.596
▁indicazion	-11.5974
▁version	-11.5978
▁immigra	-11.5986
▁imparan	-11.5987
▁amav	-11.5995
▁diplomatic	-11.6003
▁sincron	-11.6013
▁Design	-11.6013
▁Incredibil	-11.6013
▁arancion	-11.6013
▁arbitr	-11.6013
▁bottiglie	-11.6013
▁costringe	-11.6013
▁embrion	-11.6013
▁intercetta	-11.6013
equilibr	-11.6013
▁Cerchiamo	-11.6013
▁Special	-11.6013
▁inevitabilmen	-11.6013
▁High	-11.6013
▁garantisc	-11.6013
▁Carolin	-11.6013
▁intervall	-11.6014
▁corrott	-11.6014
▁Notate	-11.6014
▁Permettete	-11.6015
▁credut	-11.6015
▁1950	-11.6017
▁neuroscienziat	-11.6018
▁turno	-11.6019
▁Occidentale	-11.6019
▁asilo	-11.6021
▁Detro	-11.6027
▁SW	-11.6027
▁buff	-11.6027
▁vedent	-11.6041
▁Fec	-11.6046
▁Persin	-11.6055
▁coltivator	-11.6068
▁soddisfa	-11.6074
▁genial	-11.6074
▁rifiutat	-11.6078
▁prat	-11.6089
▁sollevar	-11.609
▁sbagli	-11.6096
▁intent	-11.6097
▁cantant	-11.6104
▁esplodere	-11.6111
minare	-11.6122
▁dot	-11.6128
▁vegetal	-11.6149
▁temporane	-11.616
▁nipot	-11.6169
▁stimolant	-11.6182
▁aziendal	-11.6182
▁imitar	-11.6187
▁coltivat	-11.6213
▁Banglade	-11.6213
▁bambù	-11.6213
▁chemioterapi	-11.6213
▁domenica	-11.6213
▁effettuar	-11.6213
▁imbarazzo	-11.6213
▁rompicap	-11.6213
▁sconfigger	-11.6213
▁tartarug	-11.6213
▁2020	-11.6213
▁cripta	-11.6213
▁rimbalz	-11.6213
▁Andrew	-11.6213
▁favolos	-11.6213
▁Hawaii	-11.6213
▁computazion	-11.6213
▁neurologic	-11.6213
▁seggiolin	-11.6213
▁nacque	-11.6213
▁ripieg	-11.6213
▁coerent	-11.6213
▁Suppon	-11.6213
▁convertir	-11.6214
▁kit	-11.6214
▁invasiv	-11.6214
▁pieghe	-11.6214
▁incolla	-11.6215
▁frod	-11.6217
▁Charli	-11.6217
▁idiot	-11.6218
▁turisti	-11.6219
▁MK	-11.6219
nsas	-11.622
▁UN	-11.6221
▁imprenditor	-11.6228
▁cuoc	-11.6229
▁eccett	-11.6233
▁consumat	-11.6234
igione	-11.6235
▁spingo	-11.6248
▁specialisti	-11.6255
▁sfog	-11.6257
▁ragiona	-11.6275
▁tropical	-11.6283
▁complessiv	-11.6303
▁Cresc	-11.6313
▁acquisir	-11.6315
▁Gall	-11.6329
▁Dovrebbe	-11.6331
▁integrar	-11.6332
▁teoric	-11.6332
▁contribuisc	-11.6332
▁bass	-11.6347
▁descritt	-11.6354
▁diriger	-11.6398
▁strisc	-11.64
▁appassiona	-11.6401
ostanzial	-11.6412
ngapore	-11.6417
roenland	-11.6417
▁Svilupp	-11.6417
▁Talebani	-11.6417
▁irriga	-11.6417
▁meridionale	-11.6417
▁pantaloni	-11.6417
▁pixel	-11.6417
▁rinforz	-11.6417
▁rumoros	-11.6417
▁scarabe	-11.6417
▁scarafaggi	-11.6417
▁tempeste	-11.6417
▁concepit	-11.6417
▁imbroglia	-11.6417
▁sottoterra	-11.6417
▁convertit	-11.6418
▁cascat	-11.6418
▁costituzion	-11.6418
▁cabin	-11.6418
▁insult	-11.6418
▁obes	-11.6418
▁ingenu	-11.6418
▁scomod	-11.6418
▁tappeto	-11.6418
▁scansione	-11.6418
▁steril	-11.6419
▁apport	-11.6419
▁critich	-11.642
▁imbr	-11.642
▁Perfett	-11.642
▁Media	-11.6421
▁giunge	-11.6421
▁infern	-11.6421
▁rosse	-11.6421
▁etnic	-11.6425
▁morbo	-11.6428
▁Mandel	-11.6428
▁porzion	-11.6429
▁imbarcazion	-11.6434
▁ondat	-11.6435
▁capann	-11.6437
▁accent	-11.6439
▁Clint	-11.6439
▁procedere	-11.644
▁combinat	-11.644
▁ignot	-11.6441
▁granell	-11.6447
▁mantenut	-11.6453
OL	-11.6464
▁separar	-11.6477
▁mucch	-11.6489
▁fondator	-11.6495
▁scavar	-11.6502
▁emozional	-11.6526
lliev	-11.6532
▁scoss	-11.6535
▁corrent	-11.6536
▁paragonat	-11.6541
▁attratt	-11.6559
▁process	-11.6561
▁lavorativ	-11.6563
▁accadut	-11.6608
▁riservat	-11.661
▁universi	-11.6619
▁aspirazion	-11.6619
▁completat	-11.6619
▁colazion	-11.662
▁risied	-11.6622
▁Utilizz	-11.6626
▁Watson	-11.6626
▁cristian	-11.6626
▁filosofo	-11.6626
▁frustrat	-11.6626
▁frustrazion	-11.6626
▁truff	-11.6626
▁addorment	-11.6626
▁focalizzar	-11.6626
▁zampa	-11.6626
▁preservar	-11.6626
▁incominci	-11.6626
▁esigenz	-11.6626
▁possesso	-11.6626
▁scoraggia	-11.6626
▁gabbia	-11.6626
▁uragan	-11.6626
▁ristrett	-11.6626
▁biotecnologi	-11.6626
ccount	-11.6626
▁pazzo	-11.6626
▁prevenzion	-11.6626
▁progredire	-11.6626
▁indaga	-11.6627
▁enfa	-11.6627
▁congegn	-11.6628
▁Jona	-11.6631
▁approfondit	-11.6633
▁conservatori	-11.6633
▁allenament	-11.6633
▁fango	-11.6637
▁razzial	-11.6637
▁disuguaglianz	-11.6639
▁tigr	-11.6643
▁decomp	-11.6644
▁riflession	-11.6654
▁lanciat	-11.666
▁presentarv	-11.666
▁costruirl	-11.667
▁batt	-11.667
ics	-11.6673
▁asces	-11.6679
▁fidar	-11.6683
▁protocell	-11.6686
▁sfruttat	-11.6694
▁ghiacciat	-11.6719
▁intelligen	-11.6729
▁variant	-11.6731
▁ripens	-11.6732
▁caricat	-11.6734
▁natal	-11.6748
▁realizzarl	-11.6756
▁apprezzat	-11.6756
▁afferrar	-11.6774
▁nient	-11.6784
▁chieders	-11.6788
uther	-11.6802
▁studentess	-11.6811
▁intatt	-11.6812
▁bloccar	-11.6825
▁limitazion	-11.6825
▁Aristotel	-11.6838
▁ONU	-11.6838
▁adolescenz	-11.6838
▁arrampicar	-11.6838
▁atterraggi	-11.6838
▁cristalli	-11.6838
▁fiamme	-11.6838
▁football	-11.6838
▁inquietant	-11.6838
▁lucciole	-11.6838
▁principe	-11.6838
▁riassumer	-11.6838
▁transistor	-11.6838
▁tatuaggi	-11.6838
▁stunt	-11.6838
▁Apollo	-11.6838
▁sigarett	-11.6838
▁confess	-11.6839
▁ipotizz	-11.6839
▁distinzion	-11.6839
▁collision	-11.6839
▁intersezion	-11.6839
▁mammografi	-11.6839
▁roul	-11.684
▁Alex	-11.684
▁compet	-11.6841
▁timid	-11.6841
▁tour	-11.6844
▁delegat	-11.6844
▁panico	-11.6844
▁Artico	-11.6845
▁nuotat	-11.6846
▁computerizzat	-11.6846
▁duri	-11.6847
▁navigar	-11.6849
▁consol	-11.6866
▁permetterc	-11.6869
▁evidenziat	-11.6872
▁comic	-11.6877
▁professionist	-11.688
▁coinvolgiment	-11.6883
▁African	-11.6895
▁troverem	-11.6899
▁acquisit	-11.6903
▁fondal	-11.6919
offrono	-11.6928
▁stim	-11.693
▁minacciat	-11.6958
▁filmat	-11.6963
▁giudicar	-11.6977
▁catastrof	-11.6981
▁accusat	-11.6989
▁equazion	-11.7018
▁rivolger	-11.7025
▁ingiust	-11.7055
▁Science	-11.7056
▁petrolifer	-11.7056
▁planetari	-11.7056
▁soffert	-11.7056
eanderthal	-11.7056
▁custodi	-11.7056
▁rilevament	-11.7056
▁sfamar	-11.7056
▁addestrat	-11.7056
▁prevedibile	-11.7056
▁riunisc	-11.7056
▁Jones	-11.7056
▁inflazion	-11.7056
▁verdur	-11.7056
▁vaiolo	-11.7056
▁volumi	-11.7056
▁lavagn	-11.7056
▁Facendo	-11.7056
▁furgon	-11.7056
▁sintoni	-11.7056
▁esistit	-11.7056
▁magliett	-11.7057
rizon	-11.7057
▁corregger	-11.7058
▁fallire	-11.7058
▁sinap	-11.7059
▁frazion	-11.7059
▁mamme	-11.706
▁96	-11.7063
▁psicolog	-11.7063
▁stabilizz	-11.7065
spear	-11.7068
▁avversari	-11.707
▁obbligat	-11.707
▁proiettil	-11.7074
▁soffrire	-11.7077
▁Aiut	-11.7082
▁trapan	-11.7084
▁soddisfazion	-11.7112
▁drive	-11.7115
▁Final	-11.7115
▁Pic	-11.7137
▁fotogramm	-11.7141
▁Riesc	-11.715
▁lasciatem	-11.7155
▁sedett	-11.7158
▁replicar	-11.7161
▁distes	-11.719
▁fotografar	-11.7196
▁estender	-11.7201
▁dominat	-11.7246
▁dirgli	-11.7247
▁decisional	-11.7258
▁opportun	-11.7272
▁interpretar	-11.7274
▁Assoluta	-11.7278
▁appartamenti	-11.7278
▁frigorifer	-11.7278
▁iscritt	-11.7278
▁rettangol	-11.7278
▁svantaggi	-11.7278
▁tangibil	-11.7278
▁2030	-11.7278
▁caramell	-11.7278
▁azzurr	-11.7278
▁pomodor	-11.7278
▁Organizzazion	-11.7278
▁ampliar	-11.7278
▁cyber	-11.7278
▁rivedere	-11.7278
▁proteste	-11.7278
▁Govern	-11.7278
▁tossin	-11.7278
▁restrizion	-11.7278
▁propaganda	-11.7279
▁influisc	-11.7279
▁atterrar	-11.7279
▁tv	-11.7279
▁rock	-11.7279
▁codici	-11.7279
▁pancia	-11.728
▁piove	-11.7281
▁ammass	-11.7283
▁Ottim	-11.7285
▁violin	-11.7285
▁piastr	-11.729
▁caotic	-11.729
▁predir	-11.7293
▁mischia	-11.7307
▁rilevator	-11.7315
▁credev	-11.7315
▁terroristic	-11.732
▁termic	-11.7321
▁sopportar	-11.7327
▁ingegneristic	-11.7328
▁orientament	-11.7335
▁intenzional	-11.7356
connett	-11.7381
▁invitar	-11.7385
▁diffusi	-11.7419
▁fenomenal	-11.7432
▁Madr	-11.7443
▁arriverem	-11.7451
▁impiantat	-11.7452
▁sarest	-11.7465
▁documentat	-11.7465
▁osservator	-11.7487
iuttos	-11.7504
▁impalcatur	-11.7505
▁incomplet	-11.7505
▁svizzer	-11.7505
▁manuten	-11.7505
▁primordial	-11.7505
▁benvenut	-11.7505
▁portafogli	-11.7505
▁sanguin	-11.7505
▁difetto	-11.7505
▁cuscin	-11.7505
▁North	-11.7505
▁martell	-11.7505
▁medagli	-11.7505
▁fiscal	-11.7506
▁gelosi	-11.7506
▁Scienz	-11.7506
▁affascina	-11.7507
▁dimenticher	-11.7507
▁merce	-11.7508
▁favorevol	-11.7508
▁chiederm	-11.751
▁ricors	-11.7511
▁malign	-11.7513
▁convincent	-11.7514
▁Sierr	-11.7514
▁Brad	-11.7515
▁innamora	-11.7515
▁visitator	-11.7525
▁piogg	-11.7532
rgliel	-11.7533
▁ricavar	-11.7552
▁andrem	-11.7552
▁selezionat	-11.7584
▁Luc	-11.7596
▁adattat	-11.7613
▁somiglianz	-11.7615
▁disastr	-11.7619
▁sentirl	-11.7624
▁qualificat	-11.7636
orpora	-11.7644
▁divertit	-11.7649
▁pugn	-11.765
▁combinar	-11.7659
▁dubbi	-11.7679
▁preoccuparc	-11.7682
▁rubar	-11.7731
▁propaga	-11.7737
▁Istitut	-11.7738
▁archeolog	-11.7738
▁australian	-11.7738
▁festival	-11.7738
▁intrapres	-11.7738
▁israelian	-11.7738
▁nigerian	-11.7738
▁posizionat	-11.7738
▁raddoppiat	-11.7738
▁sequoi	-11.7738
▁asciuga	-11.7738
▁focalizzat	-11.7738
▁opposizion	-11.7738
▁pandemi	-11.7738
▁pazzesc	-11.7738
▁predatore	-11.7738
▁camici	-11.7738
▁testimonianz	-11.7738
▁olandes	-11.7738
▁cubo	-11.7738
▁collina	-11.7738
▁innovator	-11.7739
▁lievit	-11.7739
▁prateri	-11.7739
▁afro	-11.774
▁complicati	-11.774
▁miceli	-11.774
surrezion	-11.774
▁lavatric	-11.7743
▁Boy	-11.7743
▁cacca	-11.7744
▁informal	-11.7755
▁matern	-11.7759
▁Esp	-11.7765
▁imbattut	-11.7766
▁inclusiv	-11.7767
▁fallisc	-11.7767
▁tomb	-11.7768
▁inserisc	-11.7769
▁Dovrest	-11.7773
▁Jenn	-11.7788
▁riuscirem	-11.7805
▁venditor	-11.7829
▁confrontat	-11.7829
▁conservar	-11.7831
▁dissol	-11.7867
duciamo	-11.7881
▁pacc	-11.7884
▁avvent	-11.7909
▁amant	-11.792
▁funzion	-11.7931
▁procurar	-11.7934
▁determinar	-11.7935
▁original	-11.7937
▁imprenditorial	-11.7939
▁abbondant	-11.7952
▁insicur	-11.7969
mble	-11.7976
nciclopedi	-11.7976
▁1,5	-11.7976
▁Geographic	-11.7976
▁Stephen	-11.7976
▁altoparlant	-11.7976
▁camerier	-11.7976
▁effettuat	-11.7976
▁fluorescen	-11.7976
▁patrimoni	-11.7976
▁restituir	-11.7976
▁rumori	-11.7976
▁arrogan	-11.7976
▁molteplici	-11.7976
▁scommess	-11.7976
▁soffoca	-11.7976
▁divorzi	-11.7976
▁fragile	-11.7976
▁pesticid	-11.7976
▁patria	-11.7976
▁critici	-11.7976
▁soggiorn	-11.7976
▁schiera	-11.7976
▁sacrifici	-11.7976
▁spiral	-11.7976
▁faccend	-11.7976
▁giustificar	-11.7976
▁farfall	-11.7976
▁Daniel	-11.7976
▁cubi	-11.7977
▁Irland	-11.7977
▁confezion	-11.7977
▁Giorn	-11.7977
asket	-11.7978
▁infart	-11.7978
▁proseguire	-11.7978
▁Capite	-11.7979
▁ammess	-11.798
▁campionat	-11.7981
▁mantien	-11.7982
▁ebraic	-11.7989
▁conclud	-11.7991
▁infettat	-11.7993
▁rimedi	-11.7995
▁lumac	-11.7997
▁inquinant	-11.801
▁userem	-11.8021
▁pretend	-11.8028
▁pilot	-11.8028
▁importantissim	-11.8039
scrivere	-11.8045
shir	-11.8053
▁mot	-11.8054
ough	-11.8055
▁abbracciar	-11.8071
disciplina	-11.8075
▁abbassar	-11.8088
▁gettat	-11.8106
▁interpretat	-11.8109
▁ripristinar	-11.8131
▁rimuov	-11.8132
▁sparire	-11.8158
▁distingue	-11.8174
▁introduzion	-11.8192
▁interagisc	-11.8213
▁equipaggi	-11.8216
▁curricul	-11.822
▁Argentin	-11.822
▁atmosferic	-11.822
▁canades	-11.822
▁cuccioli	-11.822
▁palcoscenic	-11.822
▁pazienza	-11.822
▁scorciatoi	-11.822
▁Alexander	-11.822
▁disfunzion	-11.822
▁pattern	-11.822
▁prestar	-11.822
▁puzzle	-11.822
▁trionf	-11.822
▁promettent	-11.822
▁ventune	-11.822
▁Tropp	-11.822
▁allumin	-11.822
▁candel	-11.822
▁fidanzat	-11.822
▁scuot	-11.822
▁catalog	-11.822
▁scacchi	-11.822
▁proibit	-11.822
▁permetta	-11.8221
▁risalire	-11.8221
▁Kong	-11.8221
▁vetrin	-11.8221
▁guerrier	-11.8222
▁applich	-11.8222
▁ribelli	-11.8222
▁basilar	-11.8223
▁reattiv	-11.8228
▁Narrat	-11.8229
▁discaric	-11.8231
▁spezzar	-11.824
▁hip	-11.8254
▁credenz	-11.8256
segnando	-11.8257
▁adozion	-11.8258
▁celebrar	-11.826
▁errat	-11.8276
▁Post	-11.8292
▁crollat	-11.8307
▁assegnat	-11.8319
▁problematic	-11.8325
▁percorre	-11.8331
african	-11.8349
▁rotazion	-11.8363
▁senz	-11.8369
▁ignorat	-11.8385
▁liet	-11.8387
▁pubblic	-11.8398
▁estremist	-11.841
▁sopport	-11.8415
▁prossim	-11.8436
▁ottien	-11.8441
▁Act	-11.8456
▁avviar	-11.846
openha	-11.847
▁Democratic	-11.847
▁astronauti	-11.847
▁eccellenz	-11.847
▁meccanico	-11.847
▁repubblica	-11.847
▁serpenti	-11.847
▁urbane	-11.847
▁asfalt	-11.847
▁imprevedibil	-11.847
▁nuclei	-11.847
▁raffigur	-11.847
▁graffi	-11.847
▁risvegli	-11.847
▁ripaga	-11.847
▁remix	-11.847
▁diffuse	-11.847
▁pompier	-11.847
▁taxi	-11.847
▁Square	-11.847
▁confonde	-11.847
▁cartolin	-11.847
▁certificat	-11.847
▁femminili	-11.847
▁copie	-11.847
▁emetto	-11.8472
▁adulte	-11.8472
▁propens	-11.8473
▁commenta	-11.8475
▁piomb	-11.8475
▁orror	-11.8476
▁lotteri	-11.8478
▁migrazion	-11.8478
▁nobil	-11.8484
lemme	-11.8492
▁scambiar	-11.8493
▁distruttiv	-11.8495
▁assorbit	-11.8498
▁astrazion	-11.85
▁Will	-11.8511
▁altruism	-11.852
▁chilometr	-11.8538
▁tett	-11.8542
▁vegeta	-11.8551
▁scappat	-11.8555
▁riguardant	-11.8565
spital	-11.857
▁discriminazion	-11.8573
▁guarir	-11.8581
▁erb	-11.8599
▁capiv	-11.8602
▁attivat	-11.8605
▁drag	-11.8608
ambia	-11.8619
▁moriva	-11.8651
bomb	-11.8661
▁Pop	-11.868
▁tracciat	-11.8696
programm	-11.8712
▁fluss	-11.8713
▁zuccher	-11.8718
ternità	-11.8721
telecomunicazion	-11.8726
▁2,5	-11.8726
▁Bhutan	-11.8726
▁Ciascun	-11.8726
▁SETI	-11.8726
▁analfabet	-11.8726
▁avvelena	-11.8726
▁barzellett	-11.8726
▁metabolism	-11.8726
▁preconcett	-11.8726
▁rassicur	-11.8726
▁ricambi	-11.8726
▁sconvolgent	-11.8726
▁tweet	-11.8726
▁esagerat	-11.8726
▁ultrasuon	-11.8726
▁Associa	-11.8726
▁Aggiung	-11.8726
▁infelici	-11.8726
▁routin	-11.8726
▁suicida	-11.8726
▁connettom	-11.8726
▁balz	-11.8726
▁capsul	-11.8726
▁ricover	-11.8726
▁monument	-11.8726
▁tapir	-11.8726
▁dubit	-11.8727
▁pulizi	-11.8727
▁beneficenza	-11.8727
▁approfondire	-11.8727
▁Ricev	-11.8727
▁accolt	-11.8727
▁favela	-11.8728
▁diminuire	-11.8728
▁converge	-11.8728
elphi	-11.8728
▁nocciol	-11.8729
▁Gold	-11.8729
▁assaggi	-11.873
▁tabell	-11.8731
▁eventual	-11.8739
▁elastic	-11.8739
▁Frances	-11.8741
▁calamit	-11.8745
▁assorbire	-11.8748
▁possedeva	-11.8752
▁labbr	-11.876
▁altitudin	-11.876
▁novembr	-11.8808
ifesa	-11.8829
▁cucinar	-11.885
▁razzis	-11.8855
▁distacc	-11.8862
▁lavar	-11.8874
▁bocc	-11.8895
▁eseguit	-11.89
▁offrir	-11.8933
▁espone	-11.8989
▁simultane	-11.8989
▁Alessandr	-11.8989
▁Columbia	-11.8989
▁Risulta	-11.8989
▁approssimat	-11.8989
▁gravitazional	-11.8989
▁manoscritt	-11.8989
▁protagonist	-11.8989
▁rispettat	-11.8989
▁stamattina	-11.8989
▁svedes	-11.8989
▁trucchi	-11.8989
▁pedonal	-11.8989
▁prolunga	-11.8989
▁sussurr	-11.8989
▁recension	-11.8989
▁deficit	-11.8989
▁risposi	-11.8989
▁esibizion	-11.899
▁Sicura	-11.899
▁quantitativ	-11.899
▁chitarr	-11.899
▁triplic	-11.899
▁scomparire	-11.899
▁culmin	-11.899
▁dispers	-11.8991
▁punizion	-11.8991
▁Recent	-11.8991
▁feste	-11.8991
▁caresti	-11.8992
▁tasto	-11.8992
▁messican	-11.8992
▁selettiv	-11.8993
▁cantier	-11.8993
▁frattal	-11.8994
▁Piccol	-11.8996
▁kill	-11.8999
▁fuggire	-11.9002
▁Capisc	-11.9013
▁impast	-11.9013
▁abiss	-11.902
▁Nair	-11.9034
▁specializzazion	-11.9038
▁scrittric	-11.9052
▁dodic	-11.9055
▁alfabet	-11.9067
▁informar	-11.909
▁picchiat	-11.9101
▁Dopodich	-11.9105
▁Segu	-11.9112
▁avvenir	-11.9115
Appen	-11.9128
▁cancellat	-11.9177
▁nominat	-11.9177
▁penic	-11.9216
▁parlav	-11.9237
▁avvicinat	-11.9237
▁estiv	-11.9252
▁Alaska	-11.926
▁Health	-11.926
▁Pennsylvania	-11.926
▁frustrant	-11.926
▁ginocchia	-11.926
▁grazios	-11.926
▁irrazional	-11.926
▁onnipresent	-11.926
▁palestines	-11.926
▁tambur	-11.926
▁FDA	-11.926
▁Livello	-11.926
▁Rispos	-11.926
▁frutto	-11.926
▁ribalt	-11.926
▁turbin	-11.926
▁Philad	-11.926
▁frutti	-11.926
▁inconsci	-11.926
▁dolci	-11.926
▁commedi	-11.926
▁vortic	-11.926
▁pittore	-11.926
▁ceramic	-11.926
▁carrozz	-11.926
▁sterco	-11.9261
▁torri	-11.9261
▁compliment	-11.9261
▁innesca	-11.9261
▁urgent	-11.9262
▁distort	-11.9262
▁Opera	-11.9263
▁Potev	-11.9263
▁frontal	-11.9263
▁Pink	-11.9267
▁banconot	-11.9268
▁comitat	-11.9269
▁compars	-11.927
▁assorbent	-11.9271
▁spettacol	-11.9274
▁prevedibili	-11.9276
segniamo	-11.9276
ogramma	-11.9278
▁sediment	-11.928
▁allontan	-11.9282
▁ricad	-11.9288
▁idric	-11.929
▁urbanizzazion	-11.9291
▁invasion	-11.9297
▁concezion	-11.9325
ictu	-11.9331
▁assomigli	-11.9335
lesioni	-11.9354
▁mediatic	-11.9359
▁carenz	-11.9391
▁iniezion	-11.9421
▁minim	-11.9433
colera	-11.9447
▁carcerat	-11.9449
▁becc	-11.945
▁risparmiat	-11.9466
▁giacc	-11.9501
▁scaricat	-11.9522
ollywood	-11.9537
▁esplicit	-11.9537
▁aneddot	-11.9537
▁approfitta	-11.9537
▁baraccopoli	-11.9537
▁cancerogen	-11.9537
▁hamburger	-11.9537
▁ineguaglianz	-11.9537
▁infraross	-11.9537
▁salvaguardi	-11.9537
▁sotterrane	-11.9537
▁recession	-11.9537
▁Attual	-11.9537
▁Louis	-11.9537
▁barattol	-11.9537
▁pascol	-11.9537
▁Christoph	-11.9538
▁anniversari	-11.9538
▁convincervi	-11.9538
▁ripulir	-11.9538
▁discret	-11.9538
▁afroamerican	-11.9538
▁cosmologi	-11.9538
▁diapositive	-11.9538
▁Alzate	-11.9538
▁Wolf	-11.9538
▁noleggi	-11.9538
▁detrit	-11.954
▁Craig	-11.954
▁cavalc	-11.954
▁rabbin	-11.954
▁splend	-11.9541
▁tenete	-11.9541
▁migrator	-11.9541
▁fanatic	-11.9543
town	-11.9547
talk	-11.9547
▁zain	-11.9548
▁stimolazion	-11.9551
▁innovar	-11.9552
▁lottar	-11.9553
▁Simon	-11.9561
▁Divers	-11.9562
▁trasferiment	-11.9565
▁incert	-11.9572
▁oppon	-11.9572
▁cambiarl	-11.958
▁giornat	-11.9589
▁affrontarl	-11.9627
▁subisc	-11.9646
▁citat	-11.9683
▁controllarl	-11.9694
▁trasformazion	-11.9738
▁benefic	-11.9774
▁istintiv	-11.9785
▁meravigli	-11.9796
▁spazzat	-11.9805
▁progred	-11.9822
▁Buddh	-11.9823
▁Industrial	-11.9823
▁brasilian	-11.9823
▁custode	-11.9823
▁decodifica	-11.9823
▁inconsapevol	-11.9823
▁metabolic	-11.9823
▁riproduttiv	-11.9823
▁sieropositiv	-11.9823
▁ultraviolett	-11.9823
▁virtuos	-11.9823
▁TAC	-11.9823
▁aggiustar	-11.9823
▁deteriora	-11.9823
▁rubinett	-11.9823
▁Mumbai	-11.9823
▁Saudit	-11.9823
▁Tunisi	-11.9823
▁teatral	-11.9823
▁educare	-11.9823
▁high	-11.9823
▁trattenere	-11.9823
▁nanotecnologi	-11.9823
▁schiant	-11.9823
▁cloud	-11.9823
▁biscott	-11.9823
▁Controll	-11.9823
dentale	-11.9823
▁larghezz	-11.9823
▁provenienz	-11.9823
▁bambol	-11.9823
▁giungl	-11.9824
▁consento	-11.9824
▁imposto	-11.9824
▁crater	-11.9824
▁ingorg	-11.9824
▁cicatric	-11.9825
cratic	-11.9826
amibia	-11.9826
▁mitologi	-11.9831
▁cimiter	-11.9832
▁proteggerl	-11.9833
▁propuls	-11.9833
sperando	-11.9844
▁zitt	-11.9846
▁lamentar	-11.9847
▁Chuc	-11.9847
▁trasferisc	-11.9848
▁provarl	-11.9855
▁riciclat	-11.9873
▁mescolat	-11.9926
▁nub	-11.9934
▁massacr	-11.9944
▁esotic	-11.9965
▁guant	-11.9967
▁ipotetic	-12.0009
▁resident	-12.0013
▁comandi	-12.0033
▁rappresentativ	-12.0098
▁cinquant	-12.0117
plancton	-12.0117
▁Britannic	-12.0117
▁Fondamental	-12.0117
▁Pittsburg	-12.0117
▁Sylvia	-12.0117
▁Tasmani	-12.0117
▁anestesi	-12.0117
▁coscienti	-12.0117
▁costruttor	-12.0117
▁cucciolo	-12.0117
▁disbosca	-12.0117
▁evapora	-12.0117
▁formidabil	-12.0117
▁inadeguat	-12.0117
▁infelice	-12.0117
▁irregolar	-12.0117
▁raffinat	-12.0117
▁requisit	-12.0117
▁scandalo	-12.0117
▁serpente	-12.0117
▁settentrional	-12.0117
▁simbio	-12.0117
▁sofferm	-12.0117
▁tangent	-12.0117
▁vertebr	-12.0117
▁valvol	-12.0117
▁manipolazion	-12.0117
▁mezzanotte	-12.0117
▁strabiliant	-12.0117
▁disperd	-12.0117
▁tavoli	-12.0117
▁Cuba	-12.0117
▁esistenzial	-12.0117
▁simpatic	-12.0117
▁sopravvivo	-12.0118
▁rivestiment	-12.0118
▁predica	-12.0118
▁estingu	-12.0118
▁parabol	-12.0118
▁valga	-12.0118
▁prosciu	-12.0118
▁analitic	-12.0118
▁Città	-12.0118
volse	-12.0118
▁Ritorn	-12.0118
▁invertir	-12.0119
▁palloncin	-12.012
▁radioattiv	-12.0122
▁Padr	-12.0126
▁Wood	-12.0127
▁spiegarl	-12.0131
▁raggiungerl	-12.0133
▁tramont	-12.0133
terdam	-12.0134
▁tesser	-12.0138
▁rifar	-12.014
▁Franc	-12.0143
▁abitazion	-12.0155
bronz	-12.0165
▁percezion	-12.0201
▁determin	-12.0219
▁trascur	-12.0261
▁scheletric	-12.0264
▁terrorist	-12.0276
▁interfacc	-12.0283
▁ritenev	-12.0294
▁immaginarl	-12.0304
▁privilegiat	-12.0311
▁introdu	-12.0365
▁spiegazion	-12.0407
▁intellett	-12.0417
imbabwe	-12.042
▁1,3	-12.042
▁Somalia	-12.042
▁Soprattut	-12.042
▁auditorium	-12.042
▁calendari	-12.042
▁fluttuazion	-12.042
▁grammatica	-12.042
▁insignificant	-12.042
▁pellicol	-12.042
▁prescrizion	-12.042
▁rinchius	-12.042
▁risvolt	-12.042
▁sinfoni	-12.042
▁sneaker	-12.042
▁targhett	-12.042
▁SLA	-12.042
▁implicit	-12.042
▁terraferma	-12.042
▁cattolic	-12.042
▁giuridic	-12.042
▁tubercol	-12.042
▁massimizzare	-12.042
▁frecce	-12.042
▁riduco	-12.042
▁sopraffatt	-12.042
▁biomass	-12.0421
▁grazia	-12.0421
▁spugn	-12.0421
▁inondazion	-12.0421
▁Incontr	-12.0421
▁esportazion	-12.0421
▁quarant	-12.0421
▁crud	-12.0421
▁terminar	-12.0422
▁obbedi	-12.0423
icurezza	-12.0424
▁sbalorditiv	-12.0425
ttività	-12.0426
▁iterazion	-12.0428
▁comprenderl	-12.0431
seguito	-12.0435
cornice	-12.0436
▁protettiv	-12.0445
▁Hawk	-12.0453
▁centralizzat	-12.046
▁ottav	-12.0461
▁compatt	-12.0463
▁vigor	-12.0463
▁prelevat	-12.0464
▁violazion	-12.0474
▁stratosfer	-12.0478
▁settim	-12.0515
erkel	-12.0518
▁ritirat	-12.0529
▁scioccat	-12.0539
▁semplicissim	-12.0558
▁localizzat	-12.0575
▁trascurat	-12.0583
▁Amic	-12.0595
▁sentenz	-12.0601
▁giove	-12.0613
gestion	-12.0617
▁renderc	-12.0643
▁risent	-12.0645
▁vergogn	-12.0656
solv	-12.0658
▁cerv	-12.0668
▁precipi	-12.0671
▁arriveran	-12.0699
▁Sarem	-12.0707
▁sbalordit	-12.0728
▁sobborg	-12.0733
▁prolifera	-12.0733
▁Georgia	-12.0733
▁argento	-12.0733
▁coccodrill	-12.0733
▁difensor	-12.0733
▁escursion	-12.0733
▁insediament	-12.0733
▁libellul	-12.0733
▁sovvenzion	-12.0733
▁surriscalda	-12.0733
▁svuota	-12.0733
▁toilette	-12.0733
▁LHC	-12.0733
▁psicopatic	-12.0733
▁scavalca	-12.0733
▁glucos	-12.0733
▁neutral	-12.0733
▁telecomand	-12.0733
▁impazzir	-12.0733
▁copy	-12.0733
▁terminal	-12.0733
▁Esercit	-12.0733
▁sequestr	-12.0733
▁perpless	-12.0733
▁apposit	-12.0733
▁tennis	-12.0733
usiness	-12.0733
▁piscin	-12.0734
▁resocont	-12.0734
▁realt	-12.0734
▁oncolog	-12.0734
▁riorganizza	-12.0735
▁patent	-12.0735
▁titani	-12.0735
▁ritien	-12.0736
▁autostim	-12.0736
▁luned	-12.0736
▁suscita	-12.0737
▁bonob	-12.0737
▁equipaggiament	-12.0737
▁Giovan	-12.074
▁Odd	-12.0741
▁competent	-12.0743
▁incoraggi	-12.0759
▁Aspettat	-12.0769
▁coopera	-12.0771
▁ruotar	-12.0779
▁trascinat	-12.0783
▁rimett	-12.0805
▁presentazion	-12.0812
▁ricorr	-12.0847
▁giudicat	-12.0892
▁sintom	-12.0912
▁monac	-12.0917
ingegneri	-12.0935
▁convenzion	-12.0941
▁revision	-12.0945
▁cambiam	-12.0965
▁allegr	-12.0976
▁renders	-12.0994
▁Indic	-12.1006
▁angoscia	-12.1055
pprovvigionament	-12.1055
▁CRISPR	-12.1055
▁Centinai	-12.1055
▁Himalaya	-12.1055
▁Oklahom	-12.1055
▁Richiede	-12.1055
▁ambulanz	-12.1055
▁amigdal	-12.1055
▁arrotol	-12.1055
▁cespugli	-12.1055
▁costruttiv	-12.1055
▁cristallo	-12.1055
▁deliberatamen	-12.1055
▁disaccord	-12.1055
▁frantum	-12.1055
▁identificazion	-12.1055
▁inimmaginabil	-12.1055
▁perseguire	-12.1055
▁posizionar	-12.1055
▁rassegna	-12.1055
▁rigoros	-12.1055
▁utensil	-12.1055
▁aggiornar	-12.1055
▁millimetri	-12.1055
▁distorsion	-12.1055
▁fraintendete	-12.1055
▁intervenut	-12.1055
▁maiuscol	-12.1055
▁disprezz	-12.1055
▁week	-12.1056
▁dimentichiamo	-12.1056
▁Regina	-12.1056
▁etichette	-12.1056
▁consentit	-12.1056
▁censiment	-12.1056
▁calcare	-12.1056
▁maledett	-12.1056
▁atterrat	-12.1056
▁imperativ	-12.1057
trascenden	-12.1059
▁Great	-12.106
▁ricorrent	-12.1061
▁evitarl	-12.1062
▁omaggi	-12.1063
▁Accett	-12.1065
▁esplor	-12.1067
▁sensat	-12.1068
▁considerevol	-12.1072
▁dannat	-12.1073
▁informativ	-12.1075
▁mistic	-12.1076
▁Otten	-12.108
▁salott	-12.1093
▁complic	-12.1096
▁particell	-12.1118
▁Stewar	-12.1119
▁patern	-12.1128
▁chiamerem	-12.1133
▁nutriment	-12.1143
▁antibiotic	-12.12
▁gocc	-12.1222
▁vicinanz	-12.1257
▁sessual	-12.127
▁alfabetizza	-12.1291
▁poetic	-12.1299
▁corrispond	-12.1318
▁Curios	-12.1389
▁Joseph	-12.1389
▁Professor	-12.1389
▁abbigliament	-12.1389
▁amministrativ	-12.1389
▁decifrar	-12.1389
▁elettromagnetic	-12.1389
▁emicrani	-12.1389
▁inesplorat	-12.1389
▁presidenzial	-12.1389
▁sostituzion	-12.1389
▁Ricerca	-12.1389
▁fantasma	-12.1389
▁fuoriuscit	-12.1389
▁sorvol	-12.1389
▁Scommetto	-12.1389
▁subacque	-12.1389
▁Afgan	-12.1389
▁rimanga	-12.1389
▁aggeggi	-12.1389
▁displa	-12.1389
▁meditazione	-12.1389
▁edilizi	-12.1389
▁multa	-12.1389
▁scatenat	-12.1389
▁localmente	-12.1389
▁favorit	-12.1389
▁espuls	-12.1389
▁Cristo	-12.1389
▁estrovers	-12.1389
▁malvagi	-12.1389
▁gomit	-12.1389
▁impotent	-12.1389
▁logistic	-12.139
▁popolat	-12.139
▁spruzz	-12.1391
▁lesbic	-12.1392
▁convincerl	-12.1393
▁slitt	-12.1396
▁promozion	-12.1399
▁incentrat	-12.1399
▁addett	-12.1402
▁perforat	-12.1403
▁rotond	-12.1404
▁situat	-12.1408
▁intricat	-12.1408
▁giocher	-12.141
▁ridefinir	-12.1417
▁vignettist	-12.1439
▁minimizza	-12.1471
▁evident	-12.1493
▁Dietr	-12.1495
▁punit	-12.1499
▁attivar	-12.1546
▁candid	-12.1551
▁integrant	-12.1589
cortecc	-12.1613
▁riparazion	-12.162
pruden	-12.1622
▁ghiacci	-12.1656
ntriamo	-12.1669
!	-16.0888
♫	-16.0889
—	-16.089
)	-16.0891
:	-16.0892
?	-16.0893
,	-16.0894
È	-16.0894
