<unk>	0
<s>	0
</s>	0
▁	-1.71961
の	-3.46973
を	-3.92717
は	-4.01484
が	-4.04179
に	-4.18074
で	-4.71358
と	-4.75067
です	-4.91503
も	-5.26131
や	-5.42856
から	-5.51511
か	-5.52363
「	-5.55593
し	-5.58479
▁この	-5.67121
(	-5.79182
な	-5.82851
する	-5.88643
る	-6.12613
ました	-6.13467
た	-6.13586
い	-6.1526
ます	-6.17081
▁そして	-6.23015
した	-6.24269
▁その	-6.288
という	-6.34244
して	-6.35048
のです	-6.35752
ス	-6.35965
▁これは	-6.39547
て	-6.39699
には	-6.41001
では	-6.41349
1	-6.41629
▁私は	-6.46098
り	-6.46894
でした	-6.52534
しました	-6.583
人	-6.59496
します	-6.60901
2	-6.64706
く	-6.68563
▁笑	-6.70784
年	-6.77085
▁しかし	-6.77849
ル	-6.80053
ら	-6.80139
でしょう	-6.80535
的な	-6.81808
しています	-6.84237
ない	-6.85758
として	-6.85995
ー	-6.86493
だ	-6.88286
って	-6.88436
す	-6.91464
き	-6.95758
ク	-6.95907
もの	-6.9895
こと	-6.99596
この	-7.00149
ね	-7.00297
でも	-7.00833
3	-7.00854
さ	-7.0164
ています	-7.0207
について	-7.0405
▁でも	-7.07141
まで	-7.08244
ラ	-7.09716
▁拍手	-7.09882
があります	-7.09908
性	-7.10441
している	-7.10554
リ	-7.13083
ド	-7.13276
つ	-7.14583
時	-7.14808
▁それは	-7.15904
できる	-7.1737
います	-7.17535
的	-7.18924
のは	-7.19124
う	-7.20658
力	-7.21422
ン	-7.21502
ま	-7.21557
み	-7.21949
数	-7.22134
ことを	-7.22322
手	-7.22626
者	-7.25233
お	-7.25437
▁私たちは	-7.25811
;	-7.2601
カ	-7.27102
にも	-7.27404
見	-7.27844
ト	-7.28217
考え	-7.28493
んです	-7.28684
ア	-7.28915
▁私の	-7.29442
国	-7.30601
ことです	-7.31396
った	-7.31662
よ	-7.32504
▁私が	-7.33943
わ	-7.34132
された	-7.35965
その	-7.3667
的に	-7.36692
大	-7.37284
水	-7.37493
からです	-7.37746
いる	-7.38303
なのです	-7.38766
出	-7.39393
ている	-7.40336
なら	-7.40674
より	-7.40986
本	-7.41191
ot	-7.41258
マ	-7.41347
だと	-7.41695
日	-7.42373
中	-7.42424
一	-7.4275
イ	-7.42866
問題	-7.42889
がある	-7.43678
人の	-7.43843
いた	-7.44075
だけ	-7.44141
ブ	-7.44379
qu	-7.45093
のか	-7.48055
ものです	-7.48208
4	-7.48553
▁これが	-7.48598
レ	-7.48754
ム	-7.49015
によって	-7.50388
ように	-7.5053
物	-7.51189
ロ	-7.51972
ことは	-7.52133
ある	-7.52203
後	-7.53221
コ	-7.53906
め	-7.53967
5	-7.54621
体	-7.54962
事	-7.55199
▁つまり	-7.55353
下	-7.556
つの	-7.55631
である	-7.56015
時間	-7.56018
など	-7.56475
分	-7.56589
いい	-7.57008
化	-7.58302
▁彼は	-7.58776
社会	-7.59372
え	-7.59584
され	-7.59634
▁もし	-7.6015
人が	-7.60832
上	-7.60972
すると	-7.61284
研究	-7.61333
家	-7.61623
話	-7.6244
んだ	-7.62783
▁そこで	-7.62981
ですが	-7.63179
▁1	-7.63199
とは	-7.63534
フ	-7.63537
6	-7.64054
タ	-7.6407
ません	-7.65548
だった	-7.66306
技術	-7.66325
子	-7.66955
リー	-7.67485
ことが	-7.67833
地	-7.68588
ということです	-7.68617
ほど	-7.68674
▁また	-7.69161
ミ	-7.69278
▁今	-7.69298
生	-7.69956
度	-7.71014
▁とても	-7.71308
への	-7.7315
エ	-7.73317
10	-7.73421
良い	-7.73905
気	-7.74202
ような	-7.74788
▁彼らは	-7.74792
回	-7.74999
実	-7.75012
にある	-7.75064
人は	-7.75095
先	-7.75852
いました	-7.76031
ではありません	-7.76152
学	-7.76335
ズ	-7.76393
される	-7.76411
▁2	-7.76454
外	-7.7742
へ	-7.77897
ッ	-7.78068
行	-7.78091
バ	-7.78393
ではなく	-7.78411
点	-7.78411
前	-7.78768
▁それが	-7.78771
車	-7.78772
あ	-7.79523
いて	-7.7959
オ	-7.8033
変化	-7.8067
心	-7.80673
になる	-7.80791
方	-7.80824
人間	-7.81361
ナ	-7.81504
大きな	-7.81752
8	-7.82095
目	-7.8211
私の	-7.82524
今	-7.83343
そう	-7.83509
れ	-7.83646
ん	-7.84644
っています	-7.85183
でしょうか	-7.85633
かもしれません	-7.857
ことに	-7.86203
ニ	-7.86825
のように	-7.8693
情報	-7.87586
私は	-7.8777
ること	-7.87952
ウ	-7.88299
高	-7.88549
▁そう	-7.88596
どう	-7.89264
理解	-7.89438
感	-7.89686
何	-7.89756
データ	-7.89787
通	-7.89939
できます	-7.90497
ると	-7.90595
不	-7.91671
7	-7.91765
よりも	-7.9195
世界	-7.91988
っている	-7.92041
光	-7.92092
写真	-7.92242
ところ	-7.92705
であり	-7.92833
発	-7.92908
よう	-7.92993
システム	-7.92995
結果	-7.93052
なかった	-7.93624
のような	-7.94697
場所	-7.94734
関係	-7.94855
形	-7.94946
たい	-7.95052
海	-7.95122
無	-7.95273
万	-7.95337
▁ある	-7.95562
とき	-7.95916
用	-7.96516
▁例えば	-7.96848
細胞	-7.97294
ば	-7.97425
られる	-7.97593
グ	-7.97638
ダ	-7.97798
れば	-7.97827
と思います	-7.97905
デザイン	-7.98241
っ	-7.98454
▁それ	-7.99111
▁なぜ	-7.9972
の中で	-7.99738
を見	-7.99766
け	-8.00344
ット	-8.00837
環境	-8.00849
メ	-8.01059
こう	-8.01177
仕事	-8.01327
女性	-8.02053
▁何	-8.02394
ター	-8.02397
シ	-8.02437
スト	-8.03004
9	-8.03737
ましょう	-8.03913
A	-8.04016
経済	-8.04507
になります	-8.04743
ネ	-8.04805
▁他の	-8.05258
なく	-8.05395
20	-8.0579
音	-8.0581
▁これらの	-8.06006
▁3	-8.06167
▁私たちの	-8.06511
C	-8.06564
科学	-8.06594
キ	-8.06607
年間	-8.06625
量	-8.06824
状況	-8.0697
必要	-8.07823
▁さて	-8.07935
▁我々は	-8.08101
月	-8.08411
動物	-8.08471
プ	-8.08611
前に	-8.0869
よく	-8.08975
入	-8.09356
▁だから	-8.09712
ジ	-8.09786
イン	-8.10276
チ	-8.10366
答え	-8.10401
頭	-8.10651
▁これ	-8.10757
バー	-8.10784
素晴らしい	-8.10905
新しい	-8.11252
サ	-8.11475
家族	-8.1161
ではない	-8.11617
ディ	-8.11911
場	-8.12233
ガ	-8.12406
経験	-8.12597
長	-8.12636
思い	-8.12878
▁ここで	-8.13124
を使って	-8.13243
ティ	-8.13447
私が	-8.13613
こ	-8.13735
▁さらに	-8.14098
ですね	-8.14531
行動	-8.14725
線	-8.15024
▁このような	-8.15275
ていました	-8.15361
ために	-8.15519
都市	-8.16109
テ	-8.1629
例	-8.16386
ビ	-8.16571
S	-8.16594
小さな	-8.16618
む	-8.16798
組織	-8.16856
モ	-8.17188
生活	-8.17321
じ	-8.17338
多くの	-8.17397
エネルギー	-8.17501
▁私たちが	-8.17885
所	-8.17976
場合	-8.18115
面	-8.18375
▁ただ	-8.18577
30	-8.18783
男性	-8.19024
ず	-8.19045
ので	-8.19058
による	-8.19367
言葉	-8.19427
▁なぜなら	-8.19735
間	-8.19875
▁自分の	-8.19981
作	-8.20094
とても	-8.20551
意味	-8.20761
教育	-8.21223
動	-8.21377
しない	-8.21492
“	-8.21893
ご	-8.21966
着	-8.22006
▁世界	-8.22023
があり	-8.22201
しか	-8.22259
▁皆さん	-8.22415
空	-8.22515
『	-8.22573
足	-8.22838
.	-8.23
ドル	-8.23132
▁こんな	-8.23177
歳	-8.23248
▁実際	-8.23274
理由	-8.23284
金	-8.23427
薬	-8.2351
e	-8.23681
ハ	-8.23714
名	-8.24
あります	-8.24201
人々が	-8.24426
取り	-8.24497
ベ	-8.24534
流	-8.24674
▁もっと	-8.24686
において	-8.24872
ながら	-8.24931
言いました	-8.24993
存在	-8.25033
ック	-8.2514
合	-8.25254
▁アメリカ	-8.25523
会社	-8.25528
せ	-8.26018
脳	-8.26038
状態	-8.26062
されています	-8.26105
なる	-8.2615
生物	-8.26691
知	-8.26959
方法	-8.27085
していました	-8.27104
50	-8.2731
D	-8.27465
すべて	-8.27542
全体	-8.27561
初めて	-8.2759
法	-8.27907
ツ	-8.2793
活動	-8.27943
死	-8.28077
種	-8.28182
▁どう	-8.28184
ゴ	-8.28199
a	-8.28208
▁それを	-8.28483
のでしょうか	-8.28713
にとって	-8.28848
現実	-8.29106
作品	-8.29108
なんて	-8.29241
約	-8.29349
頃	-8.29358
されました	-8.29666
機能	-8.29739
年に	-8.30039
他の	-8.30285
語	-8.3038
道	-8.30465
部	-8.30595
生き	-8.30764
患者	-8.30822
残	-8.30857
子供	-8.31041
何か	-8.31381
o	-8.31455
のために	-8.31756
パ	-8.31817
僕	-8.31824
何を	-8.31943
のある	-8.3222
に対して	-8.32226
付け	-8.32691
ずっと	-8.32693
人類	-8.32766
部分	-8.3289
もあります	-8.32964
ほとんど	-8.33314
▁それで	-8.33559
させ	-8.3373
▁新しい	-8.33766
一番	-8.33955
のでしょう	-8.34238
たのです	-8.34554
たり	-8.34822
身	-8.35114
自然	-8.3514
重	-8.35341
▁多くの	-8.35499
映画	-8.35582
重要な	-8.35643
▁まず	-8.35664
ぶ	-8.35809
同じ	-8.3611
会	-8.36387
100	-8.36492
立	-8.36856
▁これを	-8.36871
開発	-8.37054
へと	-8.37285
デ	-8.37362
すれば	-8.37383
発見	-8.37855
カー	-8.37918
影響	-8.37972
すること	-8.38018
M	-8.38036
能力	-8.38051
させる	-8.38381
▁本当に	-8.38404
全て	-8.38714
企業	-8.38838
教え	-8.38922
一人	-8.3894
▁もう	-8.38958
機	-8.3913
ボ	-8.39245
▁もちろん	-8.39297
私達	-8.39507
▁一	-8.39569
全	-8.39684
▁私	-8.39695
▁20	-8.39844
主	-8.3994
だけでなく	-8.40036
▁お	-8.40174
▁ありがとうございました	-8.4035
していた	-8.4037
彼女	-8.40502
調査	-8.40661
ち	-8.40968
々	-8.41056
倍	-8.41173
るのです	-8.41277
に対する	-8.41392
▁そんな	-8.41623
ノ	-8.41733
人に	-8.41834
進化	-8.41835
ありません	-8.41879
表	-8.41904
▁非常に	-8.41947
愛	-8.41955
E	-8.41998
を持つ	-8.42208
になりました	-8.42231
▁彼女は	-8.4254
感じ	-8.42735
できない	-8.42776
▁どんな	-8.42826
プロジェクト	-8.42962
説明	-8.43049
話を	-8.43139
されている	-8.43248
リン	-8.43373
成長	-8.43399
遺伝子	-8.43471
に関する	-8.43568
未来	-8.43576
ていた	-8.43985
言う	-8.44018
テクノロジー	-8.44091
セ	-8.4412
内	-8.44267
学校	-8.44407
アイデア	-8.44447
▁同じ	-8.44774
色	-8.44875
したり	-8.45242
価値	-8.45357
文化	-8.45408
られ	-8.45553
i	-8.4573
真	-8.4578
における	-8.45802
ケ	-8.4589
口	-8.45972
いくつか	-8.46083
を見て	-8.4612
られた	-8.46162
木	-8.46531
ソ	-8.46565
実験	-8.46937
時に	-8.47118
したのです	-8.47293
マン	-8.4731
私	-8.47353
人たち	-8.47366
人々	-8.47387
悪	-8.4743
成功	-8.47472
本当に	-8.47553
になった	-8.47559
母	-8.47566
自分の	-8.47573
皆さん	-8.47639
年の	-8.47854
そうです	-8.47935
医療	-8.48085
B	-8.48301
人生	-8.48485
になり	-8.4851
200	-8.48549
ものを	-8.48644
治療	-8.48921
モデル	-8.49079
理	-8.49192
になって	-8.49199
風	-8.50022
彼	-8.50363
▁実は	-8.50452
たら	-8.50947
新	-8.51172
P	-8.51182
達	-8.51392
だろう	-8.5147
元	-8.51756
んで	-8.52033
山	-8.52111
きました	-8.52156
成	-8.52205
熱	-8.52233
ビデオ	-8.52241
来	-8.52263
地域	-8.52347
I	-8.52423
億	-8.52534
健康	-8.52562
最も	-8.52592
率	-8.52647
夜	-8.52701
とも	-8.52841
神	-8.52841
一つ	-8.52982
子ども	-8.53066
により	-8.53117
質問	-8.53157
ことで	-8.53197
となる	-8.53343
▁ア	-8.53517
事実	-8.53591
州	-8.53627
出す	-8.53631
目に	-8.53707
直	-8.53757
物語	-8.53935
ロボット	-8.53977
自	-8.53981
しく	-8.54099
皆	-8.5421
病気	-8.54234
動き	-8.54391
▁それから	-8.54523
食	-8.54525
可能性	-8.54887
を作る	-8.5489
同	-8.55064
型	-8.55143
解	-8.55155
大きく	-8.55157
想像	-8.55197
T	-8.5525
役	-8.55491
▁-	-8.55549
ため	-8.55893
15	-8.55931
ホ	-8.5603
える	-8.56153
ぎ	-8.56213
ります	-8.5623
▁ですから	-8.56537
わけです	-8.56586
声	-8.56902
いません	-8.5705
少し	-8.57294
しい	-8.57375
ザ	-8.57376
人々は	-8.57444
それ	-8.57506
政府	-8.57593
▁現在	-8.57942
立ち	-8.5806
質	-8.58136
宇宙	-8.58166
親	-8.58452
私たちは	-8.58473
しましょう	-8.58474
m	-8.58774
フィ	-8.58971
▁...	-8.59128
ピ	-8.5914
ライ	-8.59342
R	-8.59497
事を	-8.60202
ヒ	-8.60294
ということ	-8.60739
これ	-8.60847
ど	-8.60912
非常に	-8.61009
通り	-8.61032
▁我々の	-8.61187
構造	-8.61242
ぐ	-8.61297
とか	-8.61299
市場	-8.61377
かった	-8.6142
たくさん	-8.61484
もっと	-8.61555
街	-8.61617
なければ	-8.61718
れる	-8.61794
運動	-8.62134
すべき	-8.62245
指	-8.62388
と言う	-8.62391
アメリカ	-8.62492
ませんでした	-8.62624
▁彼の	-8.62826
明	-8.6298
起こ	-8.63061
▁実際に	-8.63347
病	-8.63358
を持って	-8.63473
反応	-8.63531
40	-8.63556
がありました	-8.63611
違う	-8.63663
空間	-8.63664
男	-8.63691
半	-8.63692
書	-8.63733
▁私達は	-8.63795
ール	-8.64106
といった	-8.64264
有	-8.64284
▁まだ	-8.64496
と同じ	-8.6456
したい	-8.64636
▁私たち	-8.6466
正	-8.64699
▁最も	-8.64805
されます	-8.64917
ろ	-8.64987
感情	-8.65226
何も	-8.65331
なんです	-8.6554
するのです	-8.66119
違い	-8.66327
ロー	-8.66463
たち	-8.66624
ラン	-8.6664
自由	-8.66741
結	-8.66832
中に	-8.67015
定	-8.67097
顔	-8.67114
リア	-8.67194
面白い	-8.6723
計画	-8.67331
星	-8.67439
戦	-8.67482
投資	-8.67724
考える	-8.6782
きます	-8.67881
多く	-8.67899
▁地球	-8.67901
大学	-8.67902
放	-8.67937
ばかり	-8.67993
後に	-8.67997
にいる	-8.68185
というのは	-8.68267
引き	-8.68299
人々の	-8.6853
夢	-8.68554
局	-8.688
戦争	-8.68804
解決	-8.68848
▁素晴らしい	-8.68951
ヘ	-8.69194
の中に	-8.69223
さん	-8.69297
作り	-8.69388
あり	-8.69715
グループ	-8.69753
ゲーム	-8.69753
以上	-8.69799
千	-8.69847
返	-8.69888
図	-8.70108
良く	-8.7015
文	-8.70398
意識	-8.70542
難しい	-8.70591
代	-8.70634
減	-8.70689
てください	-8.70689
効果	-8.70707
電話	-8.70807
曲	-8.70823
び	-8.7088
▁特に	-8.70935
それを	-8.70944
二	-8.70946
▁今日	-8.71209
友人	-8.71272
レー	-8.71343
するのは	-8.71359
同時に	-8.71367
上で	-8.71424
▁それに	-8.71471
続け	-8.71668
可能	-8.71786
ラー	-8.72297
ジェ	-8.72478
なり	-8.72488
いない	-8.72525
チーム	-8.72525
だけで	-8.72536
▁あの	-8.7255
程	-8.72606
父	-8.72615
地球	-8.729
論	-8.73045
見て	-8.73168
上げ	-8.73348
選択	-8.7337
プログラム	-8.73373
また	-8.73421
込み	-8.73576
見える	-8.73661
なので	-8.7376
もう	-8.73767
興味	-8.73791
▁ここに	-8.73803
人口	-8.74137
力を	-8.74175
私に	-8.74273
s	-8.74335
壁	-8.74369
機械	-8.74514
実際に	-8.75179
てきました	-8.75336
知識	-8.75381
小	-8.7543
機会	-8.75554
変	-8.75603
うまく	-8.75657
装置	-8.7567
言語	-8.75684
植物	-8.75824
科学者	-8.75969
られます	-8.76128
ビジネス	-8.76248
どのように	-8.76292
▁ありがとう	-8.76307
表現	-8.76551
全ての	-8.76672
だと思います	-8.76793
将来	-8.76835
するために	-8.77297
やって	-8.77435
自ら	-8.77462
受け	-8.77554
歌	-8.77569
増	-8.77621
りました	-8.77648
持ち	-8.77692
電	-8.77799
利用	-8.77824
はありません	-8.77972
対	-8.782
ポ	-8.78226
再	-8.78257
課題	-8.78313
らない	-8.78569
建物	-8.78636
別の	-8.7886
台	-8.78904
を受け	-8.78943
使用	-8.79114
t	-8.7917
絵	-8.79199
お金	-8.7923
ギ	-8.79358
の中	-8.79458
そ	-8.796
紙	-8.79735
▁我々が	-8.79816
たちは	-8.79826
O	-8.80077
必要な	-8.80176
ネットワーク	-8.80268
異なる	-8.80302
そこ	-8.8039
げ	-8.80434
▁彼らの	-8.80451
近	-8.8049
子供たち	-8.80563
シャ	-8.80581
アン	-8.80585
ヤ	-8.80588
を変え	-8.80643
▁ここ	-8.8076
じゃない	-8.80792
土	-8.80828
べき	-8.80862
F	-8.80872
誰	-8.80984
認識	-8.81029
時代	-8.81345
側	-8.81509
人も	-8.81595
名前	-8.81734
ことができます	-8.81769
個人	-8.81798
品	-8.81907
を与え	-8.81968
一緒に	-8.82048
学生	-8.82145
実現	-8.82187
生産	-8.82205
議論	-8.82265
▁大きな	-8.82308
過	-8.82313
しません	-8.82365
世代	-8.82581
▁より	-8.82996
失	-8.83028
だからです	-8.83063
っと	-8.83133
物質	-8.83214
見え	-8.83219
情報を	-8.83221
分の	-8.83223
協力	-8.83236
始めました	-8.83353
ないのです	-8.83597
非	-8.83647
ニー	-8.83675
▁大	-8.83785
ーン	-8.8381
と思う	-8.84015
人を	-8.84084
天	-8.84195
体験	-8.84296
移動	-8.84311
示	-8.84319
しているのです	-8.84335
疑問	-8.84456
政治	-8.84472
ルー	-8.84484
目的	-8.84507
現在	-8.84541
年前	-8.84769
流れ	-8.84794
位	-8.84845
▁4	-8.85051
血	-8.8508
自己	-8.85091
次	-8.85143
するか	-8.85153
作業	-8.85157
当	-8.85229
▁10	-8.85279
くらい	-8.85395
▁様々な	-8.85404
ことも	-8.85405
書き	-8.85416
▁自分	-8.85454
▁マ	-8.85457
ート	-8.85484
音楽	-8.85538
層	-8.85563
12	-8.85669
ペ	-8.85699
支援	-8.85728
器	-8.85821
上の	-8.85876
骨	-8.85876
命	-8.86005
始め	-8.86011
われ	-8.86039
▁あらゆる	-8.86107
最	-8.86134
船	-8.86166
これを	-8.86201
私たちの	-8.8633
新たな	-8.86372
アル	-8.86691
保護	-8.86721
産	-8.8692
変え	-8.86939
歴史	-8.8696
てきた	-8.87044
できた	-8.87061
予測	-8.87183
ているのです	-8.87215
すごい	-8.87244
DNA	-8.87508
よね	-8.8751
何が	-8.87633
渡	-8.87638
経	-8.87746
姿	-8.8783
問題は	-8.87849
画像	-8.87852
生命	-8.87899
▁何か	-8.88091
▁その後	-8.88093
▁みんな	-8.88153
原因	-8.88164
以前	-8.88182
したら	-8.88206
暴力	-8.88217
理論	-8.88304
障害	-8.88312
なのか	-8.88473
試	-8.88536
頼	-8.88651
端	-8.88657
トン	-8.88725
切	-8.88948
反	-8.88954
市民	-8.89004
マー	-8.89011
悪い	-8.8903
るべき	-8.89211
だけです	-8.8931
▁音楽	-8.89377
配	-8.89428
コー	-8.89525
系	-8.89553
まま	-8.89638
惑星	-8.8964
員	-8.89681
があった	-8.89728
ようと	-8.8977
記録	-8.89838
重要	-8.90081
社	-8.90083
さえ	-8.90131
もなく	-8.90136
以上の	-8.90137
の一部	-8.90156
瞬間	-8.90164
しようと	-8.90254
が必要です	-8.90321
使う	-8.90405
だって	-8.90437
別	-8.90508
石	-8.90596
かな	-8.90714
せる	-8.90812
自身	-8.90902
要素	-8.91008
信じ	-8.91171
観	-8.91229
ひ	-8.91261
部屋	-8.91396
旅	-8.91463
集	-8.91476
p	-8.91505
魚	-8.91505
60	-8.9158
を取り	-8.91685
サー	-8.91731
式	-8.91954
18	-8.92144
あなた	-8.92168
室	-8.92251
▁最後に	-8.9235
多	-8.92402
完全に	-8.92615
すぐに	-8.92616
管理	-8.92622
ソン	-8.92747
考え方	-8.92796
どんな	-8.92832
▁こうした	-8.92964
精神	-8.93059
▁次の	-8.93171
言い	-8.9335
行く	-8.93361
なります	-8.93421
▁脳	-8.93435
興味深い	-8.93501
もので	-8.93547
安全	-8.93556
責任	-8.93566
の問題	-8.93572
80	-8.93636
オー	-8.93651
売	-8.93716
コン	-8.93856
周り	-8.93882
限	-8.93892
▁こう	-8.9398
メディア	-8.9401
皆さんに	-8.94019
コンピューター	-8.94034
ける	-8.94061
映像	-8.9409
▁全ての	-8.94114
電気	-8.94184
つけ	-8.94387
感覚	-8.94698
未	-8.94761
仕事を	-8.94798
手を	-8.94889
年代	-8.94956
G	-8.94962
ッド	-8.95021
だから	-8.951
ガン	-8.95193
ワ	-8.95328
期	-8.95418
平	-8.95461
美しい	-8.95505
分子	-8.9556
自分たち	-8.95561
ップ	-8.95581
思う	-8.95639
N	-8.95664
毎日	-8.95719
こんな	-8.95722
私たちが	-8.95727
要	-8.95751
メートル	-8.95846
集団	-8.95851
参加	-8.95904
火	-8.95986
可能な	-8.96015
傷	-8.9602
▁5	-8.96159
を持ち	-8.96286
つき	-8.96292
することで	-8.96361
かもしれない	-8.96558
けど	-8.96675
記憶	-8.96738
適	-8.9682
素	-8.96992
朝	-8.97096
行き	-8.97244
分野	-8.97252
▁これまで	-8.97525
▁僕は	-8.97594
をする	-8.97613
ご覧	-8.9762
ぼ	-8.9763
アー	-8.97652
-	-8.97752
,	-8.97817
逆	-8.97817
なければなりません	-8.97851
相手	-8.97903
神経	-8.97924
優	-8.97944
リスク	-8.97967
レン	-8.97971
最初の	-8.98078
長い	-8.98101
これは	-8.98147
▁次に	-8.98166
様々な	-8.98184
者の	-8.9826
パターン	-8.98544
宗教	-8.98544
める	-8.98574
よい	-8.98578
製品	-8.9869
が必要	-8.98787
▁少し	-8.98963
終わり	-8.99276
資金	-8.99282
してきました	-8.99364
送	-8.99374
キャ	-8.99454
助け	-8.99552
正しい	-8.99672
出来る	-8.99691
基本	-8.99857
ジャ	-8.99879
公	-8.99924
軍	-8.99946
今日	-8.99999
落ち	-9.00032
L	-9.00198
病院	-9.00209
誰か	-9.00311
選	-9.00385
キロ	-9.00537
同様	-9.00564
複雑な	-9.00566
ビー	-9.00623
言って	-9.00623
▁あなたの	-9.00676
はずです	-9.00879
h	-9.01073
カメラ	-9.01129
あった	-9.01192
コンピュータ	-9.01238
太陽	-9.01267
パン	-9.01276
消	-9.01299
提供	-9.01467
強い	-9.0159
パー	-9.016
的で	-9.01663
高い	-9.01744
▁彼らが	-9.01782
人と	-9.01992
方が	-9.02205
派	-9.02258
機関	-9.02267
危険	-9.02275
脳の	-9.0233
伝え	-9.0233
フェ	-9.02384
訳	-9.02403
学者	-9.02507
▁あなた	-9.02511
最初に	-9.0258
ものは	-9.02615
ものでした	-9.02645
▁何が	-9.02743
様	-9.02865
難	-9.03138
理由は	-9.03152
事が	-9.03215
の世界	-9.03265
来た	-9.03336
中の	-9.03382
▁人間の	-9.03389
破	-9.03395
当時	-9.0341
アフリカ	-9.03467
確か	-9.03595
0	-9.03867
出し	-9.03892
身体	-9.03969
▁これから	-9.03996
を作り	-9.04077
切り	-9.04082
がない	-9.0413
計算	-9.04172
▁世界の	-9.04263
根	-9.04342
ヶ月	-9.04486
君	-9.04555
かけ	-9.04601
はとても	-9.04646
されて	-9.04794
楽	-9.04838
格	-9.04903
波	-9.04927
聞いて	-9.05017
強	-9.05022
ランド	-9.05034
どこ	-9.05141
守	-9.05175
▁彼が	-9.05249
動か	-9.05293
ざ	-9.05332
▁どの	-9.05448
るのは	-9.05449
探	-9.05466
かけて	-9.05608
のではなく	-9.0563
しても	-9.0565
決め	-9.05662
始めた	-9.05718
幸せ	-9.05754
殺	-9.05794
立て	-9.05849
設計	-9.05923
業	-9.05937
テスト	-9.05999
スター	-9.06034
砂	-9.06114
言	-9.063
恐怖	-9.06314
言った	-9.06394
分かる	-9.06404
氷	-9.06508
第	-9.06517
歳の	-9.06837
としたら	-9.06844
ニューヨーク	-9.0689
▁彼ら	-9.06959
べ	-9.07035
密	-9.07055
まり	-9.07057
もない	-9.07104
異	-9.0724
秒	-9.07303
サン	-9.0736
そういう	-9.07406
源	-9.0749
昔	-9.07502
飛び	-9.07506
破壊	-9.07508
話し	-9.07542
手段	-9.07542
ビル	-9.07578
▁ちょっと	-9.0759
紹介	-9.0766
イメージ	-9.07702
核	-9.07879
シュ	-9.07886
週間	-9.08085
ヨーロッパ	-9.08102
土地	-9.08163
失敗	-9.08305
深く	-9.08338
の話	-9.08475
▁そこに	-9.08703
▁小さな	-9.08898
防	-9.08902
事は	-9.08961
▁過去	-9.09011
比	-9.09098
負	-9.09114
来る	-9.09239
見る	-9.09257
生徒	-9.09328
開	-9.09342
創造	-9.09442
プロ	-9.09501
ひとつ	-9.09506
ものが	-9.09634
いつ	-9.09667
忘れ	-9.09708
利益	-9.09721
ング	-9.09725
▁これら	-9.09753
医師	-9.09805
娘	-9.09924
最後の	-9.10034
11	-9.10097
救	-9.10105
込んで	-9.10106
時間を	-9.10117
希望	-9.1013
注意	-9.10135
信頼	-9.10137
相	-9.10202
規模	-9.10229
極	-9.10295
アリ	-9.103
いつも	-9.10307
方法を	-9.10309
つく	-9.1043
レベル	-9.10496
すぐ	-9.1054
建築	-9.10677
周	-9.10774
落	-9.10844
国家	-9.1087
っていました	-9.1092
進歩	-9.10959
使い	-9.11066
務	-9.11149
まだ	-9.11151
やり方	-9.11179
関心	-9.11198
数字	-9.11215
向け	-9.1141
っていた	-9.11485
芸術	-9.11506
▁あるいは	-9.11528
発明	-9.1163
としても	-9.11807
わかります	-9.11913
危機	-9.11994
友達	-9.12017
ための	-9.121
裏	-9.12197
それら	-9.12226
25	-9.12263
▁アフリカ	-9.12299
こそ	-9.12327
ーション	-9.12402
育	-9.12409
権	-9.1243
学習	-9.12431
手術	-9.12448
分かります	-9.12514
どこに	-9.12533
左	-9.1259
ったり	-9.12594
▁19	-9.12678
万人	-9.1272
ください	-9.12726
限り	-9.12755
世紀	-9.12778
割	-9.12781
最大の	-9.12782
帰	-9.12802
▁別の	-9.12825
かどうか	-9.1288
領域	-9.13037
息子	-9.13069
彼は	-9.13298
だったのです	-9.13363
付	-9.13374
簡単に	-9.13414
ご存知	-9.13459
貧困	-9.1346
たちが	-9.13495
を通して	-9.13509
れた	-9.13579
北	-9.13633
進	-9.13808
先生	-9.1385
ゲ	-9.13864
細	-9.13874
▁まさに	-9.13875
デジタル	-9.13883
大変	-9.13905
母親	-9.13919
実際	-9.13977
ようです	-9.14067
データを	-9.14071
できません	-9.14095
評価	-9.14097
がん	-9.14202
▁あなたは	-9.14226
関連	-9.14312
聴	-9.14513
テレビ	-9.14523
の間	-9.14542
私を	-9.14546
ても	-9.14587
人々に	-9.14681
▁最近	-9.14708
右	-9.14711
店	-9.14737
資源	-9.1474
期待	-9.14745
物を	-9.14922
u	-9.15023
近く	-9.15031
ていて	-9.15043
したこと	-9.15062
シー	-9.15069
ヒト	-9.15072
世界の	-9.15206
行われ	-9.15225
低	-9.15249
行った	-9.15298
転	-9.15498
交	-9.15519
化学	-9.15603
目標	-9.1561
中で	-9.15806
教	-9.15826
撮影	-9.15853
急	-9.16019
y	-9.16031
でき	-9.1604
▁インターネット	-9.16088
既に	-9.16129
ロン	-9.16188
と思いました	-9.16313
類	-9.16448
撃	-9.16463
仕組み	-9.16472
処理	-9.16478
は何	-9.16622
三	-9.16673
民主主義	-9.16685
分析	-9.16686
と共に	-9.16691
インド	-9.1671
数学	-9.16734
▁これで	-9.16773
のですが	-9.16787
世界で	-9.16885
ふ	-9.16889
知っている	-9.16915
白	-9.16962
等	-9.1709
▁笑い	-9.17159
リング	-9.17199
箱	-9.17343
明らかに	-9.17404
コミュニティ	-9.17459
▁我々	-9.17523
味	-9.1755
服	-9.1764
持って	-9.17688
ていく	-9.17709
コスト	-9.1773
世界を	-9.17733
者が	-9.17791
▁クリス	-9.17833
の間に	-9.17978
どちら	-9.18005
文字	-9.18218
サービス	-9.18227
みなさん	-9.18235
ード	-9.18269
人達	-9.18304
発展	-9.18329
▁最初の	-9.18436
改善	-9.18453
職	-9.18599
抗	-9.18652
村	-9.18667
H	-9.18667
見た	-9.18827
汚	-9.18885
に関して	-9.18902
働き	-9.1897
のことを	-9.18986
使	-9.18997
のことです	-9.1903
時には	-9.1913
ますが	-9.19163
断	-9.19296
レイ	-9.193
プロセス	-9.19343
攻撃	-9.19345
があって	-9.19395
▁皆	-9.19426
感じる	-9.19529
ようになりました	-9.19541
あまり	-9.19776
川	-9.19793
▁あなたが	-9.19816
官	-9.19824
こちら	-9.19902
消費	-9.19957
受	-9.20006
W	-9.20018
意	-9.20025
を使い	-9.20032
ですよね	-9.20056
平均	-9.20138
存	-9.20178
過ぎ	-9.20228
方法で	-9.20391
ることができます	-9.20429
犬	-9.20471
わけ	-9.20487
かれ	-9.20537
l	-9.20605
であること	-9.20693
視覚	-9.20705
画	-9.20739
に行く	-9.2103
▁このように	-9.21115
▁全く	-9.21145
を見つけ	-9.21258
国際	-9.21295
東	-9.21317
造	-9.21362
走	-9.21423
などの	-9.21518
ワー	-9.2154
我々の	-9.21593
革命	-9.21607
気に	-9.21698
ニュース	-9.21738
政策	-9.21844
まれ	-9.21938
国の	-9.21953
ことになります	-9.21968
世	-9.21996
▁どうやって	-9.22036
話す	-9.22037
行為	-9.2204
乗	-9.22077
石油	-9.22079
▁中国	-9.22107
自体	-9.22204
者は	-9.22307
為に	-9.22334
70	-9.22381
代わりに	-9.22457
ですか	-9.22481
ときに	-9.22593
枚	-9.22768
意見	-9.22988
世界に	-9.23221
概念	-9.23235
他	-9.23256
▁おそらく	-9.23305
るために	-9.23368
続ける	-9.23391
▁それでも	-9.23468
欲しい	-9.23479
TED	-9.23489
取	-9.23514
若者	-9.23522
組	-9.23666
はこの	-9.23742
90	-9.23781
▁TED	-9.23914
イギリス	-9.23936
暮らし	-9.2396
症	-9.23971
の一つ	-9.23987
らせ	-9.24019
害	-9.24134
ほぼ	-9.24179
込む	-9.24179
効率	-9.24182
位置	-9.24183
青	-9.24195
るように	-9.24276
作った	-9.24317
を使う	-9.24333
▁インド	-9.24362
横	-9.24397
飛行機	-9.24423
まったく	-9.24516
のための	-9.24557
ウイルス	-9.24644
バイ	-9.24741
自分で	-9.24805
かかる	-9.24896
を探し	-9.25015
合い	-9.25211
段階	-9.25313
起	-9.2532
あげ	-9.25444
存在する	-9.25451
更に	-9.25535
▁世界中の	-9.25548
▁これらは	-9.25568
それぞれ	-9.25584
なった	-9.25632
ただ	-9.25648
他人	-9.25705
▁よく	-9.25712
ファ	-9.25734
産業	-9.25807
リスト	-9.25867
単に	-9.25912
ないと	-9.25963
聞き	-9.26055
にして	-9.2606
▁自分が	-9.26128
ガー	-9.26215
られました	-9.26233
出来事	-9.2625
やり	-9.26313
大統領	-9.26314
妻	-9.26314
両親	-9.26331
人々を	-9.26358
ここで	-9.26364
心配	-9.26373
ないでしょう	-9.26392
ったのです	-9.26415
あって	-9.26435
考えました	-9.26444
除	-9.26528
いか	-9.26596
あらゆる	-9.26709
法律	-9.26803
できるのです	-9.26921
ろうと	-9.26932
隣	-9.27039
役割	-9.2706
▁宇宙	-9.27075
ックス	-9.27077
ッシュ	-9.2709
注目	-9.27198
いく	-9.27358
ていない	-9.27374
ことでしょう	-9.27386
にあります	-9.27513
詩	-9.27525
仲間	-9.27544
リーダー	-9.27568
ツール	-9.27573
利	-9.2759
いで	-9.27686
を見る	-9.27709
500	-9.27759
b	-9.27769
確認	-9.27772
判断	-9.27773
結婚	-9.27775
反対	-9.27777
拡大	-9.2778
地図	-9.27851
このような	-9.27901
地球上	-9.27933
問題を	-9.28032
あたり	-9.2813
座	-9.28212
調べ	-9.28233
いるのです	-9.28261
c	-9.28283
恐れ	-9.28359
保	-9.28413
てみると	-9.28456
強く	-9.28495
冷	-9.28504
増加	-9.28517
ハン	-9.28566
きた	-9.28603
創	-9.28659
わかる	-9.28664
▁まるで	-9.28686
タイ	-9.28722
アイ	-9.28744
毎	-9.28792
問題に	-9.28797
容	-9.28916
d	-9.28959
の数	-9.28992
権利	-9.29008
専門家	-9.29071
上手く	-9.29082
方は	-9.29108
▁米国	-9.29225
信号	-9.29249
銀行	-9.2925
対象	-9.29255
に入れ	-9.2926
巨大な	-9.293
界	-9.29405
なかったのです	-9.29431
国民	-9.29438
ハー	-9.2947
しよう	-9.29539
毎年	-9.29622
▁しかも	-9.29636
のない	-9.2964
仕	-9.2964
インターネット	-9.29676
現象	-9.29747
戻	-9.29751
女性の	-9.29762
メール	-9.29806
南	-9.29828
99	-9.2986
ところで	-9.29965
向き	-9.29984
触れ	-9.30007
何度も	-9.30008
てしまう	-9.30019
方向	-9.30075
ュ	-9.30087
ナー	-9.30111
全く	-9.30137
なくても	-9.30165
あと	-9.30227
共同	-9.30254
となり	-9.30386
社会的	-9.30464
U	-9.30492
末	-9.30492
パーセント	-9.305
アフリカの	-9.30536
ピー	-9.30539
▁彼女の	-9.30602
特定の	-9.3063
虫	-9.30743
公開	-9.30758
年前に	-9.30803
わずか	-9.30815
私にとって	-9.30864
引	-9.30905
装	-9.30986
鳥	-9.30995
気が	-9.31002
お話	-9.31025
の研究	-9.31046
これらの	-9.31058
をつけ	-9.31127
好	-9.31156
▁かなり	-9.3118
円	-9.31247
n	-9.31311
精	-9.31436
制御	-9.31502
バス	-9.31531
赤	-9.31539
上に	-9.31574
片	-9.31704
余	-9.31751
テロ	-9.31766
広	-9.31954
ことでした	-9.32038
チャ	-9.32106
若い	-9.32114
離れ	-9.32178
伝	-9.32212
癌	-9.32264
準備	-9.32265
対応	-9.32276
食料	-9.32281
ここに	-9.32291
種類の	-9.32345
してください	-9.32358
事に	-9.32366
ありました	-9.32384
ステ	-9.32422
速	-9.3253
ことができる	-9.32552
ついて	-9.32652
することです	-9.32716
るでしょう	-9.32737
▁私達の	-9.3276
予想	-9.32781
当然	-9.32787
個	-9.32822
モン	-9.32857
ありませんでした	-9.32866
女性が	-9.32868
想	-9.32936
現代	-9.32937
問	-9.3294
説	-9.32979
することは	-9.32985
のうち	-9.33004
クリ	-9.33017
▁どうして	-9.33024
知らない	-9.33081
住	-9.33082
張	-9.33095
超	-9.33212
視	-9.33235
小さい	-9.33291
るか	-9.333
でしたが	-9.33307
再び	-9.3332
始める	-9.33367
はどう	-9.33382
お金を	-9.33405
工	-9.33447
思わ	-9.33484
差	-9.33495
ところです	-9.33514
づけ	-9.33538
家庭	-9.33574
どこか	-9.33613
気持ち	-9.33625
送り	-9.33634
屋	-9.33687
隠	-9.33737
の場合	-9.33755
合う	-9.33768
選択肢	-9.33812
通常	-9.33824
してきた	-9.33884
事です	-9.33915
▁こういった	-9.33932
食べ物	-9.33934
歩	-9.33973
滅	-9.3406
誰かが	-9.34087
を作って	-9.3417
温	-9.3421
一部	-9.34227
したのは	-9.34258
だろうか	-9.34261
美	-9.34279
大きい	-9.34331
けれど	-9.34332
みんな	-9.34345
内容	-9.34351
ここ	-9.34396
路	-9.34397
再生	-9.34456
全部	-9.34528
▁たくさんの	-9.3455
献	-9.3459
子どもたち	-9.34684
主義	-9.34704
彼らは	-9.34853
カル	-9.34864
聞く	-9.34914
ッチ	-9.34962
深	-9.35037
そうな	-9.35088
▁誰も	-9.35097
見つけ	-9.35109
▁いつも	-9.3514
働く	-9.35207
の方が	-9.35231
離	-9.35317
になると	-9.35342
患	-9.35372
人間の	-9.35431
そのような	-9.35439
一度	-9.35568
敵	-9.35641
順	-9.35641
繰り返し	-9.35642
気候変動	-9.35642
つ目は	-9.35728
▁私も	-9.35735
打ち	-9.35786
▁コンピュータ	-9.35832
ですよ	-9.35849
富	-9.35905
特徴	-9.35906
みました	-9.36012
止	-9.36033
不可能	-9.36038
それは	-9.36042
移	-9.36062
出来	-9.36069
彼の	-9.36124
それが	-9.36175
ベル	-9.36243
▁今では	-9.36312
望	-9.3636
接	-9.36362
思考	-9.36437
いき	-9.36443
記事	-9.36555
簡単な	-9.36634
覚え	-9.36645
ネット	-9.3667
観察	-9.36763
原	-9.36888
手に	-9.36893
ダー	-9.36898
氏	-9.36971
訓練	-9.36971
銀河	-9.36971
好きな	-9.36973
見方	-9.37006
ならば	-9.37126
子供達	-9.37156
花	-9.37234
穴	-9.37239
為	-9.37243
定義	-9.37248
運転	-9.37248
独	-9.37476
消え	-9.3752
試み	-9.37668
見えない	-9.37807
無い	-9.37955
複雑	-9.37965
▁あまり	-9.3802
客	-9.38032
警察	-9.38049
生まれ	-9.38143
進め	-9.38224
困難	-9.38234
女	-9.38408
得	-9.38416
の一	-9.38465
目を	-9.38511
様子	-9.38523
共通	-9.38533
苦	-9.3856
在	-9.38566
ジュ	-9.38619
制度	-9.38632
のため	-9.38653
なんだ	-9.38673
会話	-9.38745
コード	-9.38786
書いて	-9.38823
必要があります	-9.38867
道具	-9.38881
統計	-9.39139
決定	-9.39147
であれば	-9.39171
まとめ	-9.39222
得る	-9.39278
▁こちらは	-9.39377
入り	-9.39416
遊び	-9.39418
両	-9.39439
すでに	-9.39509
件	-9.39528
まった	-9.39628
大切な	-9.3968
値	-9.39693
費	-9.39722
方を	-9.39858
答えは	-9.39887
古い	-9.39901
角	-9.39956
夫	-9.39956
銃	-9.3996
違います	-9.39972
種の	-9.39993
日に	-9.40001
てくれる	-9.40067
中国	-9.40087
ルール	-9.40115
表面	-9.40128
まず	-9.40153
もう一つ	-9.40199
及	-9.40218
デザイナー	-9.40236
ひどい	-9.40236
少なくとも	-9.40246
育て	-9.40288
肉	-9.40426
を変える	-9.40476
場所に	-9.40509
ものに	-9.40515
になっています	-9.4052
平和	-9.40521
センター	-9.40531
真実	-9.40561
一つの	-9.40712
なもの	-9.40906
かなり	-9.40936
深い	-9.41007
時間が	-9.41039
操作	-9.41078
を調べ	-9.4111
と一緒に	-9.41127
持つ	-9.41144
医者	-9.41264
おり	-9.41315
これが	-9.41346
f	-9.41349
ジョン	-9.41356
があるのです	-9.41369
次元	-9.41384
▁今まで	-9.41406
たのは	-9.41418
ほんの	-9.41422
電子	-9.41437
お話し	-9.4144
全員	-9.41452
野	-9.41476
を行う	-9.41539
もありません	-9.41556
最高	-9.41562
状	-9.4157
捨て	-9.41635
製造	-9.41638
成果	-9.41647
やる	-9.41664
分け	-9.41863
いたのです	-9.41881
ページ	-9.4191
乳	-9.4191
女の子	-9.41912
自分	-9.41913
額	-9.41925
能	-9.42107
王	-9.42183
特	-9.42185
人物	-9.42193
解決策	-9.422
上昇	-9.42205
主張	-9.42216
我々は	-9.42266
知る	-9.42271
することが	-9.42323
お互い	-9.42334
と思った	-9.42417
間に	-9.42461
教師	-9.42483
取り組み	-9.42496
最終的に	-9.42504
すごく	-9.42565
置	-9.42623
島	-9.42756
つながり	-9.42759
援助	-9.42759
突然	-9.42762
確	-9.42774
すぎ	-9.42823
調	-9.42931
ブル	-9.42957
トラ	-9.42959
起きた	-9.42963
どの	-9.43037
良	-9.43045
を感じ	-9.43081
つ目の	-9.43101
過程	-9.43118
他に	-9.43153
次の	-9.43222
▁すべての	-9.43242
億ドル	-9.43268
に出	-9.43272
善	-9.43307
診断	-9.43331
願	-9.43353
をして	-9.43393
g	-9.43395
つか	-9.43424
についての	-9.43456
現	-9.43492
使える	-9.43516
かもしれませんが	-9.43558
席	-9.43612
医学	-9.43631
家に	-9.43689
始まり	-9.43726
上がり	-9.43741
連	-9.43761
多い	-9.4378
▁こういう	-9.43782
専門	-9.43814
グラフ	-9.43849
ようなものです	-9.4386
像	-9.43863
激	-9.43874
一体	-9.43881
ほどの	-9.43952
一方で	-9.43962
他にも	-9.43969
わけではありません	-9.43994
空気	-9.44059
サイ	-9.44196
▁私達が	-9.44223
会場	-9.44273
前の	-9.44281
何かを	-9.44358
情	-9.44366
ハイ	-9.44446
腫	-9.44474
なくて	-9.44489
写真を	-9.44501
r	-9.44503
微生物	-9.44571
突	-9.44599
時期	-9.44627
しながら	-9.44652
国々	-9.44702
出て	-9.44768
▁一方	-9.44792
比べ	-9.44795
はじめ	-9.44859
によると	-9.45219
養	-9.45341
ブラ	-9.45394
であると	-9.45403
遠く	-9.45603
と呼ばれる	-9.45713
さらに	-9.45739
ぞ	-9.45801
つは	-9.45836
向	-9.45909
があれば	-9.45978
制	-9.46021
だけではなく	-9.46075
ダン	-9.46077
演	-9.46218
ワクチン	-9.46221
演奏	-9.46224
となります	-9.4623
様な	-9.46234
米	-9.46354
運	-9.46413
作る	-9.46464
ヨ	-9.46515
総	-9.46515
を得る	-9.46516
古	-9.46562
農業	-9.46596
中心	-9.46604
ことがあります	-9.46604
二人	-9.46695
証拠	-9.46812
貧しい	-9.46823
いませんでした	-9.46844
呼び	-9.47022
▁誰もが	-9.47027
頂	-9.47031
検査	-9.47107
最後	-9.47144
団体	-9.47156
乗り	-9.47337
アップ	-9.4734
帯	-9.47353
方法は	-9.47354
共有	-9.47383
飛行	-9.47397
できるように	-9.47453
考えて	-9.47482
起きている	-9.47539
絶	-9.47656
距離	-9.477
年後	-9.47711
思いやり	-9.4774
過ごし	-9.47743
▁かつて	-9.47787
と言われ	-9.47838
終	-9.4791
言われ	-9.47964
弾	-9.47994
二つの	-9.48009
携帯電話	-9.48012
工場	-9.48033
構成	-9.48044
あれ	-9.48091
増え	-9.48179
料	-9.48201
製	-9.48207
▁そこから	-9.48226
すべての	-9.48436
直接	-9.48462
加	-9.48516
第一	-9.48525
達は	-9.48568
▁常に	-9.48582
賞	-9.48588
普通の	-9.48598
万ドル	-9.48605
証明	-9.48611
すら	-9.48672
はず	-9.48728
止め	-9.48785
することができます	-9.48795
られない	-9.48805
番	-9.49067
腕	-9.49202
起こった	-9.49337
実行	-9.49441
追い	-9.4949
同僚	-9.49505
を持っている	-9.49523
られている	-9.49549
驚くべき	-9.49605
しているのは	-9.49613
してくれる	-9.49631
ることで	-9.49685
プラ	-9.49687
微	-9.49706
息	-9.49717
しろ	-9.49756
重要です	-9.49772
ゆ	-9.49809
程度	-9.4981
投票	-9.49811
エン	-9.4982
唯一の	-9.49861
近い	-9.49972
していない	-9.50035
選挙	-9.50117
ってきた	-9.50126
最近	-9.50183
の話を	-9.50206
▁私には	-9.50396
英語	-9.50428
対処	-9.50431
形で	-9.50435
収	-9.50473
つもり	-9.50474
本当の	-9.50489
れない	-9.50623
を見ると	-9.50661
居	-9.50667
浮	-9.50726
不安	-9.50737
やすい	-9.50742
高く	-9.50745
ニュー	-9.50856
自分自身	-9.50978
毛	-9.51034
軽	-9.51034
テーマ	-9.51034
半分	-9.51118
十分	-9.51123
尋ね	-9.51133
学ぶ	-9.51146
報	-9.51296
首	-9.51331
▁たった	-9.51382
達成	-9.51397
ジョ	-9.51429
知っています	-9.51551
底	-9.51616
めて	-9.51623
剤	-9.51652
物事	-9.5172
えて	-9.51764
については	-9.51803
かというと	-9.51854
投	-9.51869
固	-9.51945
退	-9.51949
嫌	-9.51949
取って	-9.51959
はっきり	-9.51963
ニューロン	-9.51973
ずに	-9.51982
技術を	-9.52059
なん	-9.5208
材	-9.52087
場所で	-9.52154
くる	-9.52174
世界中で	-9.52206
チェ	-9.52259
洗	-9.52274
維持	-9.52277
億人	-9.52279
細菌	-9.52283
間違い	-9.52395
生物学	-9.52417
をしました	-9.52497
抜け	-9.52511
読	-9.52614
込まれ	-9.52695
を持っています	-9.52782
するのに	-9.52836
ガス	-9.52851
を通じて	-9.529
公共	-9.5291
られています	-9.52925
があると	-9.52929
を作りました	-9.53003
わかりません	-9.53006
していく	-9.53036
そこに	-9.53127
院	-9.53166
16	-9.53184
k	-9.53188
w	-9.53215
優れた	-9.53233
うちに	-9.53278
発表	-9.53324
人間が	-9.53324
というもの	-9.53347
使われ	-9.53393
緑	-9.53403
していて	-9.53431
言葉を	-9.53455
最高の	-9.53509
範	-9.53526
捕	-9.53528
フランス	-9.53531
提案	-9.53534
▁こうして	-9.53604
通信	-9.5366
我	-9.53753
列	-9.53833
入れ	-9.53839
傾向	-9.5385
少女	-9.53853
キー	-9.53899
各	-9.53913
計	-9.53977
ニア	-9.54158
と言って	-9.54165
際	-9.54206
ならない	-9.54235
大切	-9.54317
に行き	-9.54343
でもあります	-9.54356
果	-9.54398
活	-9.5446
ちょうど	-9.54483
刑務所	-9.54483
黒人	-9.54494
自動車	-9.54519
事故	-9.54527
至	-9.54543
圧	-9.54627
▁今日は	-9.5475
になるでしょう	-9.54779
辺	-9.54791
商品	-9.54808
犯罪	-9.54854
分かって	-9.5487
自身の	-9.54993
ようになる	-9.55045
知って	-9.5518
建設	-9.55196
▁その結果	-9.55238
していること	-9.55377
ドイツ	-9.55444
すばらしい	-9.55444
挑戦	-9.55448
て下さい	-9.55468
er	-9.55474
どれだけ	-9.55503
なって	-9.55515
様に	-9.55516
挙げ	-9.55522
後ろ	-9.55589
メッセージ	-9.55726
集め	-9.55805
彼らの	-9.55807
聞こえ	-9.5591
単純な	-9.55966
登	-9.56058
どのような	-9.56065
草	-9.56082
▁今は	-9.56164
考えた	-9.56177
らず	-9.56228
ノー	-9.56236
組み合わせ	-9.56363
十	-9.56404
▁たとえば	-9.56415
戦略	-9.56422
思います	-9.56431
ことができ	-9.56495
たいと思います	-9.56568
市	-9.56635
目の	-9.56643
然	-9.56661
見せ	-9.56728
応	-9.5679
のようなもの	-9.56811
語り	-9.56826
例を	-9.56913
出した	-9.56915
嘘	-9.57067
歯	-9.57068
ヴィ	-9.57068
施設	-9.5707
▁それぞれの	-9.57082
アメリカ人	-9.57145
言える	-9.57176
会議	-9.57276
日本	-9.57289
てしまった	-9.57297
HIV	-9.57395
登場	-9.57425
みたい	-9.57473
族	-9.57532
人生を	-9.57544
問題です	-9.57688
でさえ	-9.5769
を集め	-9.57701
を見せ	-9.57718
情熱	-9.57747
火星	-9.57756
生まれた	-9.57821
出して	-9.57895
▁ほとんどの	-9.5792
積	-9.57983
合わせ	-9.58003
供給	-9.58055
刺激	-9.58059
知られ	-9.581
行動を	-9.58153
見られる	-9.58157
したいと思います	-9.58173
題	-9.58224
になっている	-9.58229
ごく	-9.58304
るもの	-9.58371
耳	-9.58462
問い	-9.5851
背	-9.5859
ゼ	-9.58662
森	-9.58715
労働	-9.5872
素材	-9.58731
交通	-9.58775
少ない	-9.58944
念	-9.5896
ウェ	-9.58969
勝	-9.59037
多様性	-9.59051
なさい	-9.59065
声を	-9.59076
子供の	-9.59164
テン	-9.59234
▁今の	-9.59306
水を	-9.59317
士	-9.59361
迫	-9.59385
なくなる	-9.59388
するための	-9.59407
回復	-9.59427
はその	-9.59498
弱	-9.59508
短	-9.59518
に行って	-9.59561
続き	-9.59569
特別な	-9.59619
完	-9.5964
13	-9.59643
感謝	-9.59727
バイオ	-9.59779
ろう	-9.59803
飲	-9.5984
するという	-9.59879
静	-9.59942
くれ	-9.59998
どんどん	-9.60058
森林	-9.60061
思い出	-9.60087
過去	-9.60157
こそが	-9.60161
の上に	-9.60162
ないこと	-9.60215
を得	-9.60282
19	-9.60342
給	-9.60387
脚	-9.60396
授業	-9.604
我々が	-9.60425
もある	-9.60444
サイト	-9.6047
していません	-9.60566
価格	-9.60608
注	-9.60619
好き	-9.60644
決して	-9.60649
馬	-9.60734
偉大な	-9.60735
赤ちゃん	-9.60738
を見た	-9.6077
女性は	-9.60775
14	-9.60811
するのか	-9.60971
起こる	-9.60984
必要がある	-9.61007
待	-9.61031
闘	-9.61058
V	-9.61075
思え	-9.61092
研究者	-9.61118
大気	-9.61131
民	-9.61136
早く	-9.61167
発生	-9.61172
私たち	-9.61176
するには	-9.61314
彼らに	-9.61319
衝突	-9.61418
父親	-9.61462
ており	-9.61473
られて	-9.61499
▁いや	-9.61517
アート	-9.61555
ようになります	-9.61605
きて	-9.61613
させて	-9.61615
を入れ	-9.61645
の大きさ	-9.61679
▁現在の	-9.61821
業界	-9.61821
ジー	-9.61921
覚	-9.62011
たとき	-9.62077
基準	-9.62103
燃料	-9.62103
条件	-9.62104
なぜ	-9.62119
ではないのです	-9.62218
触	-9.62234
300	-9.62273
に戻り	-9.62356
クス	-9.62365
復	-9.62393
整	-9.62435
幅	-9.62444
X	-9.62447
支配	-9.62452
含まれ	-9.62463
事業	-9.62481
収入	-9.62481
科	-9.62531
体の	-9.62541
と思って	-9.62546
見られます	-9.62565
間の	-9.62584
師	-9.62636
事件	-9.62642
建て	-9.62646
見ている	-9.62655
行う	-9.62682
も同じ	-9.62694
手法	-9.62727
原子	-9.62747
決	-9.6276
ゲノム	-9.62793
町	-9.62793
フォー	-9.62825
カン	-9.62872
当て	-9.62874
分かりません	-9.62875
道路	-9.62878
去	-9.62931
デン	-9.62981
許	-9.63118
カード	-9.63198
▁いかに	-9.63283
期間	-9.63364
匹	-9.63489
岩	-9.63489
活用	-9.63528
自分を	-9.63532
バン	-9.63533
作られ	-9.63534
働	-9.63627
何千	-9.63747
私たちに	-9.63801
小さく	-9.63841
監視	-9.63842
減少	-9.63888
クロ	-9.63898
視点	-9.63899
本当	-9.63946
なければならない	-9.63956
ていません	-9.63959
買	-9.63962
得られる	-9.63986
記	-9.63987
従	-9.64054
週	-9.64066
こう言いました	-9.64086
西	-9.64161
▁&#93;	-9.64189
組み	-9.64228
用の	-9.64387
そのもの	-9.64423
かせ	-9.6446
ディー	-9.64511
児	-9.64522
基本的な	-9.64524
▁&#9	-9.64541
講演	-9.64545
タイプ	-9.64587
信	-9.64677
は非常に	-9.64724
持	-9.64744
明らか	-9.648
▁皆さんは	-9.64836
葉	-9.64883
ウン	-9.64936
たちの	-9.64937
食べ	-9.65026
話題	-9.65049
ければ	-9.65092
ゾ	-9.65249
活動を	-9.65285
ウィ	-9.6539
てしまいます	-9.65416
出身	-9.65475
いろいろな	-9.65532
言え	-9.65562
来て	-9.65576
を求め	-9.65591
/	-9.65605
アクセス	-9.65605
なのは	-9.6563
痛	-9.65705
分かった	-9.65786
学び	-9.65854
イノベーション	-9.65962
向上	-9.66017
日の	-9.66152
させた	-9.66203
長期	-9.66252
のだと	-9.66258
17	-9.66269
誤	-9.66301
巣	-9.66321
若	-9.66372
ウェブ	-9.66375
有名な	-9.66474
ためです	-9.66499
何百	-9.66571
生きる	-9.66622
んでいる	-9.66665
キング	-9.66698
観客	-9.66698
をかけ	-9.66729
生活を	-9.66783
するもの	-9.66831
道を	-9.66862
段	-9.66952
習	-9.66986
するため	-9.66989
しなければなりません	-9.66994
なりました	-9.67005
導	-9.67022
犯	-9.67035
アフガニスタン	-9.67041
博士	-9.67042
何百万	-9.67069
エル	-9.67078
機器	-9.67093
れて	-9.67109
がありません	-9.67203
に向かって	-9.67217
せず	-9.67272
種類	-9.67331
た時	-9.67413
変わり	-9.67414
下さい	-9.67455
いたら	-9.67463
初	-9.67546
可能です	-9.67584
付き	-9.67663
埋め	-9.67741
寝	-9.67767
輪	-9.67767
ありがとうございます	-9.67767
単純	-9.67908
ミー	-9.6802
照	-9.68062
聞いた	-9.68117
混	-9.68125
だと思う	-9.68134
起きる	-9.68164
▁まずは	-9.68165
折	-9.68228
術	-9.68409
K	-9.68483
怖	-9.68497
づ	-9.68497
カリフォルニア	-9.68499
牛	-9.68499
以下	-9.68505
思って	-9.6856
知り	-9.68568
速度	-9.68595
できました	-9.68714
極めて	-9.68722
▁ここでは	-9.68764
てくれ	-9.68855
幸福	-9.68867
わたし	-9.68882
見えます	-9.68985
ほ	-9.68992
追	-9.69023
トリ	-9.69054
いって	-9.69068
省	-9.69235
検索	-9.69236
法則	-9.69239
違った	-9.69249
伝える	-9.69267
低い	-9.6932
大好き	-9.69343
からね	-9.69345
そうと	-9.69494
ないように	-9.69513
具	-9.6954
▁その時	-9.69559
崩壊	-9.69606
当たり	-9.69786
笑	-9.698
大量	-9.69837
毒	-9.69902
るのか	-9.6993
才	-9.69955
取り組む	-9.69977
チャンス	-9.69977
測定	-9.69991
限界	-9.69997
完成	-9.7
の多くは	-9.70024
思っている	-9.7007
が見えます	-9.70092
となりました	-9.70117
黒	-9.70124
▁ここは	-9.70127
いただき	-9.70149
もありました	-9.70201
欠	-9.70233
買い	-9.70252
チャー	-9.70268
▁そのため	-9.70333
スライド	-9.70351
高校	-9.70385
取引	-9.70448
システムを	-9.70557
やめ	-9.7056
人工	-9.70606
▁今や	-9.7061
伝統	-9.70619
誰でも	-9.70659
介	-9.70689
床	-9.70724
革新	-9.70776
オン	-9.70799
ることができる	-9.70827
無理	-9.70844
国内	-9.70965
たかった	-9.70983
痛み	-9.70987
命を	-9.70999
べきです	-9.71018
変わる	-9.71045
▁今日の	-9.71083
携帯	-9.71089
ステージ	-9.71101
述べ	-9.71102
卒業	-9.71106
喜び	-9.71109
応用	-9.71146
どうやって	-9.71197
に入り	-9.71202
出る	-9.71238
できること	-9.71259
字	-9.71356
行って	-9.71369
工学	-9.7139
眠	-9.71478
絶滅	-9.7149
所有	-9.71561
ちょっと	-9.71589
月に	-9.7164
政治家	-9.71698
を引き	-9.7181
何でも	-9.71815
爆発	-9.71887
振	-9.7189
論文	-9.71902
何故	-9.71967
ファー	-9.7213
留	-9.72169
▁そこには	-9.72204
広げ	-9.72241
死ぬ	-9.72257
理想	-9.7228
と思われ	-9.72298
お願い	-9.72318
地域の	-9.72321
変革	-9.72357
本質	-9.7236
▁それとも	-9.7236
▁誰が	-9.72364
駆	-9.72374
をもたらし	-9.72508
子供が	-9.72523
危険な	-9.72584
握	-9.72619
並	-9.72733
米国	-9.72858
人たちが	-9.72861
受け入れ	-9.72916
と言った	-9.72944
るため	-9.72967
進んで	-9.72988
延	-9.73002
鳴	-9.73002
たいのです	-9.73019
来ました	-9.73061
研究室	-9.73171
ビン	-9.7319
思った	-9.73208
だろうと	-9.73229
罪	-9.7338
自転車	-9.73387
橋	-9.73387
導入	-9.73419
が生まれ	-9.73438
の通り	-9.73448
言います	-9.73581
集中	-9.73621
そんな	-9.73643
球	-9.7366
起こっている	-9.73709
ロス	-9.7371
遺伝	-9.73732
属	-9.73746
号	-9.73747
オープン	-9.73773
晩	-9.73773
材料	-9.73782
決断	-9.73784
もっとも	-9.73795
ザー	-9.73827
いう	-9.73862
セント	-9.73889
ごとに	-9.7392
タン	-9.73942
込め	-9.7396
互いに	-9.73979
共	-9.74043
内の	-9.74056
心を	-9.7413
菌	-9.74148
コミュニケーション	-9.7416
ブラジル	-9.7416
競争	-9.74162
食事	-9.74188
所得	-9.74201
ことができました	-9.74423
か月	-9.74519
使って	-9.7454
雨	-9.74541
窓	-9.7455
新聞	-9.74565
方に	-9.74585
制作	-9.74609
大陸	-9.74619
大学の	-9.74622
させます	-9.74702
▁それでは	-9.74733
なりません	-9.74745
両方	-9.748
Google	-9.7494
認め	-9.74974
全てが	-9.74974
たった	-9.75017
医	-9.75019
考えている	-9.75036
を与える	-9.75067
しており	-9.75103
してしまう	-9.75137
飲み	-9.75161
気分	-9.7527
たいと	-9.75277
起こり	-9.75286
象	-9.75305
戦い	-9.75322
心臓	-9.75324
跡	-9.75324
夏	-9.75332
秘密	-9.7534
内で	-9.75354
パワー	-9.75374
を食べ	-9.75389
ある日	-9.75446
宇宙の	-9.75506
環境に	-9.75532
突き	-9.75545
なっている	-9.75554
少年	-9.75581
を示し	-9.75591
誰も	-9.75663
ケース	-9.75718
スーパー	-9.75727
与えられ	-9.75782
の歴史	-9.75804
年も	-9.75808
一日	-9.75899
時代に	-9.76025
とおり	-9.76187
疑	-9.76209
研究所	-9.76211
▁今後	-9.76215
わかって	-9.76248
シェ	-9.76268
達が	-9.76291
ことができるのです	-9.76298
死に	-9.76412
現れ	-9.76427
人です	-9.76443
症状	-9.7646
欲	-9.76477
心に	-9.76517
脈	-9.76518
アジア	-9.76519
マウス	-9.76519
食糧	-9.7652
単なる	-9.76539
セックス	-9.76554
大人	-9.76564
患者の	-9.76591
離れた	-9.76618
心の	-9.76652
の中の	-9.76683
もう一度	-9.76687
21	-9.76875
案	-9.76885
丸	-9.76917
衛星	-9.76919
した時	-9.77008
加え	-9.77055
逃げ	-9.77058
しなかった	-9.77059
というものです	-9.77109
であろう	-9.77135
地域で	-9.77182
ちゃ	-9.77188
であった	-9.77196
でなく	-9.77252
人生の	-9.7728
ソフトウェア	-9.77317
恋	-9.77317
ロンドン	-9.77317
適応	-9.77332
意図	-9.77346
画面	-9.77412
しているか	-9.77604
点は	-9.77622
大丈夫	-9.77718
有効	-9.77734
と言います	-9.77761
なのに	-9.77806
より良い	-9.77808
得られ	-9.77997
処	-9.78017
費用	-9.78031
音を	-9.78096
軸	-9.78121
兵士	-9.78127
炭素	-9.78127
年齢	-9.78183
暗	-9.78289
縮	-9.78503
物語を	-9.78505
であれ	-9.78524
福	-9.78526
卵	-9.78526
簡単	-9.78536
十分な	-9.7855
少	-9.78563
が好き	-9.7857
モノ	-9.78638
車を	-9.78658
だよ	-9.78769
歩いて	-9.7881
オス	-9.78825
校	-9.78913
色の	-9.78938
みます	-9.78961
英国	-9.78967
もう少し	-9.79015
安	-9.79073
構築	-9.79153
どれ	-9.79201
いている	-9.79201
たくない	-9.79213
言うと	-9.79282
悲	-9.79291
鉄	-9.79337
コントロール	-9.79341
▁ここから	-9.79554
抜	-9.7962
マイ	-9.79648
したとき	-9.79665
年代に	-9.79706
その他	-9.79725
著	-9.79733
改	-9.79734
酸	-9.79738
響	-9.79746
俺	-9.79751
脱	-9.79751
ったら	-9.79827
降り	-9.79831
てくれた	-9.79866
重要なのは	-9.79876
サル	-9.79939
時点で	-9.79943
▁彼女が	-9.80033
ユー	-9.80049
が起き	-9.80073
赤い	-9.80095
乱	-9.80156
アイディア	-9.80162
ポイント	-9.80162
ティー	-9.80201
24	-9.80226
することに	-9.80307
電力	-9.80345
歩き	-9.80348
長く	-9.80428
グラ	-9.80533
権力	-9.80544
ライン	-9.80547
クト	-9.80552
スピード	-9.80576
上げる	-9.80579
オンライン	-9.80582
予定	-9.8059
学校に	-9.80649
気づき	-9.80773
書いた	-9.80795
信じられない	-9.80812
年で	-9.80816
設	-9.80833
アイデアを	-9.80842
▁皆さんの	-9.80857
てくれます	-9.80961
技	-9.80973
アプローチ	-9.80991
ることです	-9.81041
マス	-9.81084
を見つける	-9.81094
確率	-9.81154
クター	-9.81158
に対し	-9.81186
政府は	-9.81207
ソー	-9.81253
こともあります	-9.81311
違って	-9.81326
広告	-9.81416
ことはできません	-9.81425
似	-9.81444
流行	-9.81552
隊	-9.81587
満	-9.81683
したもの	-9.81684
失われ	-9.81732
ご存じ	-9.81826
恐ろしい	-9.81826
鍵	-9.81826
語る	-9.8187
解明	-9.81889
ゼロ	-9.81895
マシン	-9.81907
ゴール	-9.81909
を理解し	-9.8193
ファン	-9.81954
みたいな	-9.81982
内に	-9.82008
彼に	-9.82017
だということです	-9.82072
できるか	-9.82124
園	-9.82233
盗	-9.82246
料理	-9.82275
の時代	-9.82315
住民	-9.82368
ナノ	-9.82411
ボール	-9.82411
するように	-9.82416
散	-9.82417
もちろん	-9.8243
いれば	-9.82446
グローバル	-9.82453
政府の	-9.82493
ついた	-9.82499
できれば	-9.82561
てる	-9.82616
を見てみましょう	-9.8263
荷	-9.82668
教授	-9.82673
今年	-9.82677
進む	-9.82725
個の	-9.82736
置いて	-9.82743
人たちは	-9.82816
を理解する	-9.82818
際に	-9.82825
そういった	-9.82862
シン	-9.82924
経済的	-9.8297
群	-9.83021
例です	-9.83065
ぐらい	-9.83095
要因	-9.83129
のおかげで	-9.83191
▁実際には	-9.83216
▁これも	-9.83235
トップ	-9.8326
トロ	-9.83304
りません	-9.83462
担	-9.83491
を作った	-9.83493
誘	-9.83514
金融	-9.83523
タス	-9.83553
無く	-9.83589
れます	-9.83654
▁皆が	-9.83694
にとっては	-9.83745
証	-9.83855
写	-9.8392
えば	-9.83948
予防	-9.83954
まさに	-9.8398
生息	-9.84008
生存	-9.8403
でない	-9.84048
百万	-9.84071
でもありません	-9.84077
価	-9.84086
ラボ	-9.84103
結び	-9.8422
学んだ	-9.84226
スタ	-9.84258
立って	-9.84296
J	-9.84373
観測	-9.84386
お見せしましょう	-9.8439
ベッド	-9.84438
モー	-9.84446
自分が	-9.84456
出しました	-9.84487
イラン	-9.84512
ケア	-9.84649
ジャー	-9.84669
るような	-9.84673
壊	-9.84688
同じような	-9.84711
したものです	-9.84747
抱	-9.84776
眼	-9.84801
載	-9.84803
x	-9.84804
栄養	-9.84807
文字通り	-9.8484
シア	-9.84896
共に	-9.84953
年には	-9.85088
腹	-9.85096
できて	-9.85096
の中心	-9.85135
特に	-9.85215
生態系	-9.85237
支持	-9.8524
考えてみてください	-9.85247
ているのは	-9.85252
はどうでしょう	-9.85255
無視	-9.85297
すぎる	-9.85328
00	-9.85344
多数	-9.85422
が現れ	-9.8544
する事	-9.85475
映	-9.85486
内部	-9.85531
についてです	-9.85556
継	-9.85668
二酸化炭素	-9.85672
マラリア	-9.85672
グリーン	-9.85673
気に入	-9.85675
展示	-9.85677
文明	-9.85729
正確に	-9.85775
見てみましょう	-9.85813
どういう	-9.8583
不足	-9.85859
バラ	-9.85874
動く	-9.85881
常に	-9.85919
▁私はこの	-9.86027
築	-9.86094
タンパク質	-9.86109
脳は	-9.86144
沢山	-9.86173
助	-9.86188
ますか	-9.86223
とともに	-9.86314
降	-9.8645
に住む	-9.86453
る事	-9.86477
始めて	-9.86487
沢山の	-9.86491
住んで	-9.86499
あるのです	-9.86524
治	-9.86537
従来	-9.86572
は何でしょう	-9.86586
全てを	-9.86676
科学的	-9.86682
たちに	-9.86743
物体	-9.86841
団	-9.86879
可	-9.86936
作り上げ	-9.86942
兆	-9.86961
算	-9.86976
変わった	-9.86979
ドー	-9.86986
することを	-9.87069
かつ	-9.87146
ができ	-9.87173
こんな風に	-9.87215
フォ	-9.87217
するでしょう	-9.87218
となって	-9.87237
ものと	-9.87259
ライト	-9.8728
になるのです	-9.87288
劇	-9.87329
こともできます	-9.87355
or	-9.87375
護	-9.87415
バクテリア	-9.8743
ヌ	-9.8743
場所です	-9.8745
集まり	-9.87465
変わって	-9.87488
正しく	-9.875
ここにいる	-9.87586
描き	-9.87628
あなたの	-9.87773
ビア	-9.878
くて	-9.8781
布	-9.87823
温度	-9.87852
およそ	-9.87876
を持った	-9.87884
番組	-9.87889
結論	-9.87929
告	-9.88037
化する	-9.88048
を受けた	-9.8805
求める	-9.88161
大半	-9.88177
老	-9.88198
意味で	-9.88232
訴え	-9.88247
覆	-9.8825
課	-9.88314
酸素	-9.88335
は全て	-9.88428
生きている	-9.88435
じゃ	-9.88439
取り上げ	-9.88523
お話しします	-9.8854
日々	-9.88586
してくれました	-9.88636
が出来	-9.88704
日間	-9.88724
を示す	-9.88758
休	-9.88769
198	-9.88778
言っている	-9.88793
適切な	-9.88802
質問を	-9.88826
ロシア	-9.88827
合成	-9.88871
旅行	-9.88881
生命の	-9.88902
管	-9.88953
▁それらの	-9.88985
作れる	-9.89003
多くの人が	-9.891
的なもの	-9.89156
時代の	-9.89176
v	-9.89215
寄せ	-9.89215
セル	-9.89243
してくれ	-9.89277
立場	-9.89356
やっている	-9.89444
打	-9.89445
するような	-9.8945
イー	-9.89451
止ま	-9.89455
始めます	-9.89494
をもって	-9.8951
選手	-9.8953
ある意味	-9.89552
陸	-9.89565
政治的	-9.89605
効	-9.89628
わせ	-9.89632
和	-9.8965
勉強	-9.89675
加速	-9.89677
インフラ	-9.89703
済	-9.89712
となった	-9.89723
400	-9.8973
しゃ	-9.89811
と同じように	-9.89895
くれる	-9.90042
測	-9.90052
筋	-9.90119
興奮	-9.90128
今回	-9.90246
はまだ	-9.90251
2000	-9.90291
クション	-9.90333
分からない	-9.90506
タル	-9.90519
を使った	-9.90539
だけではありません	-9.90555
年前の	-9.90567
アルゴリズム	-9.90584
板	-9.90584
同士	-9.9061
持っている	-9.90626
ご紹介	-9.90627
を手に	-9.9064
割合	-9.9064
豊か	-9.90713
みな	-9.90715
と考えています	-9.9076
に戻	-9.90869
という言葉	-9.90928
人もいます	-9.90964
をもたらす	-9.90967
爆	-9.90999
聖	-9.91024
強力な	-9.91037
紛争	-9.91043
世紀の	-9.91069
人種	-9.91077
ってきました	-9.9109
広がり	-9.91136
言いたい	-9.91325
on	-9.91348
耳に	-9.91397
残り	-9.91417
振り	-9.91428
後で	-9.91435
生き物	-9.91451
青い	-9.91457
針	-9.91463
▁すなわち	-9.91503
象徴	-9.91504
トイレ	-9.91508
粒子	-9.91512
気候	-9.91522
フラ	-9.91549
えた	-9.91569
サイズ	-9.91572
いった	-9.91606
諸国	-9.91619
やった	-9.91626
していると	-9.9167
域	-9.91768
ことだ	-9.91933
みると	-9.91944
礼	-9.91966
自閉症	-9.91966
基礎	-9.91967
だという	-9.92066
やすく	-9.92093
撮	-9.92099
越	-9.92112
落とし	-9.92121
などです	-9.9213
実験を	-9.92131
できるでしょう	-9.92225
高度	-9.92237
ナイ	-9.92293
と呼ばれ	-9.92304
誕生	-9.92308
はありませんでした	-9.92322
ラル	-9.92346
最初	-9.92389
刑	-9.92431
奥	-9.92431
移植	-9.92435
トーク	-9.92437
確信	-9.92442
単語	-9.92455
正直	-9.92502
付いて	-9.92547
回転	-9.92625
複	-9.92746
クラ	-9.92796
我々	-9.92813
巨大	-9.92816
ar	-9.92851
易	-9.92889
予算	-9.92904
今でも	-9.92914
マイル	-9.92941
かかって	-9.92952
されていました	-9.92956
わからない	-9.92976
回路	-9.92991
現場	-9.93038
キュ	-9.93097
頭に	-9.93174
わない	-9.9321
▁この問題	-9.93229
お見せ	-9.93254
議会	-9.9328
彼らを	-9.93296
いること	-9.93347
影	-9.93358
環	-9.93365
イスラエル	-9.93368
メキシコ	-9.93368
km	-9.93396
国連	-9.93403
メッセージを	-9.93428
スペース	-9.93491
を示しています	-9.93527
満足	-9.93546
途	-9.93566
の違い	-9.93611
ダンス	-9.93647
短い	-9.93684
版	-9.93766
貧	-9.93816
編	-9.93826
揺	-9.9384
狂	-9.9384
を行い	-9.93852
を持た	-9.93856
ある種の	-9.93872
繋がり	-9.93873
のようです	-9.9388
楽しい	-9.93888
占め	-9.93984
ようになり	-9.94042
怒り	-9.94056
ナン	-9.94079
備え	-9.94108
可能性を	-9.94111
売り	-9.94116
二つ	-9.94122
見ると	-9.94159
学校で	-9.9422
を生み出す	-9.9427
言えば	-9.94271
粉	-9.94305
充	-9.94314
イラク	-9.94315
改革	-9.94315
in	-9.94346
を知る	-9.94347
いくら	-9.94386
動作	-9.94467
住む	-9.94468
生成	-9.94501
格差	-9.94525
ときには	-9.94571
ダイ	-9.94603
てしまいました	-9.94703
初め	-9.94705
体内	-9.94753
潜	-9.94782
つける	-9.94782
圏	-9.9479
肺	-9.9479
偶然	-9.94791
削減	-9.94801
食べる	-9.94868
自分に	-9.94884
レベルで	-9.9499
作用	-9.95026
を加え	-9.95193
そのまま	-9.95212
到達	-9.95278
取り入れ	-9.95312
ほしい	-9.95371
なんか	-9.95414
届け	-9.95459
する方法	-9.9547
を起こし	-9.95539
考えると	-9.95566
を止め	-9.95577
生じ	-9.95717
ぬ	-9.95724
酷	-9.95749
詳細	-9.9575
魔法	-9.95762
約束	-9.95771
指導者	-9.95797
事態	-9.95824
▁さあ	-9.95889
出てくる	-9.95918
手紙	-9.95982
既	-9.96014
いだ	-9.96086
認知	-9.96131
求め	-9.96206
安定	-9.96216
薄	-9.96232
解釈	-9.9624
ストレス	-9.96264
のひとつ	-9.96271
いつか	-9.96277
臓器	-9.9629
難民	-9.96294
描く	-9.96301
は全く	-9.96376
奇妙な	-9.96383
オーストラリア	-9.96718
チンパンジー	-9.96718
悩	-9.96718
▁とにかく	-9.96718
運営	-9.96724
独立	-9.9676
最新	-9.96779
部品	-9.96796
どれほど	-9.96811
インドの	-9.96936
発達	-9.96951
ゴミ	-9.96964
日常	-9.96995
影響を与え	-9.97018
協	-9.97042
さら	-9.97068
平等	-9.97198
試験	-9.97204
ぁ	-9.97206
就	-9.97206
樹	-9.97206
望む	-9.97258
確実	-9.9728
年から	-9.97293
消費者	-9.97361
について話し	-9.97394
義	-9.97419
▁それも	-9.97469
立ち上げ	-9.97612
起き	-9.97649
Y	-9.97683
ゆっくり	-9.97696
プラスチック	-9.97696
雲	-9.97696
故郷	-9.97696
うち	-9.97709
予	-9.97752
しているのか	-9.97753
を始め	-9.9782
話です	-9.97844
農	-9.97912
連れ	-9.98
ようになった	-9.98036
上がって	-9.98075
なくなります	-9.98173
包	-9.98179
偽	-9.98188
呼吸	-9.98191
業者	-9.98228
育ち	-9.98241
白人	-9.98243
ジャン	-9.98292
ローン	-9.98308
に入って	-9.98345
働いて	-9.98362
いきます	-9.98402
だけでは	-9.98414
▁母は	-9.98429
待って	-9.98445
する必要があります	-9.98452
思いました	-9.9847
ドア	-9.98478
を守る	-9.98487
ゲイ	-9.9854
磁	-9.9867
今まで	-9.98671
焼	-9.98684
兄弟	-9.98685
勇気	-9.9869
座って	-9.98697
幹細胞	-9.98704
うる	-9.98778
こんなこと	-9.9878
側面	-9.98807
そんなこと	-9.98834
芸術家	-9.98845
合わせて	-9.98894
政府が	-9.98922
気づきました	-9.98944
んですよ	-9.98998
なれば	-9.99015
性質	-9.9902
いけない	-9.99063
を生み出し	-9.99068
世界は	-9.99127
▁僕が	-9.99154
誌	-9.99177
インタビュー	-9.99181
羽	-9.99181
謎	-9.99181
閉じ	-9.992
僕ら	-9.99276
もあり	-9.99296
al	-9.99305
いただけ	-9.9931
▁どうすれば	-9.99348
形成	-9.99383
原理	-9.99406
くれました	-9.99423
部門	-9.99428
単	-9.99447
わかった	-9.99489
ことがある	-9.99499
補	-9.99673
糸	-9.99681
ベン	-9.99819
ブランド	-9.99831
与え	-9.99886
望み	-9.99928
勢	-9.99934
所に	-9.99969
費やし	-9.99974
遠	-9.99978
最大	-9.99995
でもある	-10.0004
の高い	-10.0007
示す	-10.0008
広い	-10.001
ていなかった	-10.0014
エンジニア	-10.0018
起業家	-10.0018
いずれ	-10.0018
史上	-10.0026
支え	-10.0027
ことではありません	-10.0028
に必要な	-10.0031
もまた	-10.004
差し	-10.0046
る必要があります	-10.0048
構	-10.005
共感	-10.0054
本物	-10.0059
庭	-10.0064
グーグル	-10.0069
エジプト	-10.0069
膨大な	-10.0069
飼	-10.0069
恐竜	-10.0069
ストーリー	-10.0069
永遠	-10.0069
対策	-10.007
自信	-10.0072
繋	-10.008
ついに	-10.0081
it	-10.0086
百	-10.0098
広く	-10.01
▁そしてこの	-10.0105
▁人間は	-10.0107
千万	-10.0115
投げ	-10.0115
物理	-10.0117
パートナー	-10.012
襲	-10.012
無駄	-10.012
必ず	-10.0121
込んだ	-10.0123
待ち	-10.0123
ダメ	-10.0126
に行った	-10.0127
▁ええ	-10.013
▁父は	-10.013
特性	-10.0134
いても	-10.0136
言わ	-10.0157
しませんでした	-10.0159
カイ	-10.0161
そうだ	-10.0162
大量の	-10.0162
万人の	-10.0165
印刷	-10.0171
真ん中	-10.0171
規制	-10.0171
調整	-10.0172
保存	-10.0173
古代	-10.0174
教会	-10.0176
者たち	-10.0177
ニック	-10.0178
ニング	-10.018
に来て	-10.018
レス	-10.0183
聞	-10.0183
悪く	-10.0185
作られた	-10.0193
ペン	-10.0194
歩く	-10.0195
えます	-10.0196
奪	-10.0197
ことなのです	-10.0197
るのに	-10.0198
関	-10.02
at	-10.0203
何年も	-10.0206
全員が	-10.021
に入る	-10.0217
についても	-10.0217
資本	-10.0219
させること	-10.022
望遠鏡	-10.0222
靴	-10.0222
接続	-10.0223
聴衆	-10.0223
混乱	-10.0223
再現	-10.0225
セン	-10.0226
統合	-10.0228
▁ああ	-10.0229
es	-10.0229
長い間	-10.0231
ボー	-10.024
扱い	-10.0243
くなる	-10.0246
けば	-10.0256
対話	-10.0258
キン	-10.0259
を始めました	-10.0262
以来	-10.027
四	-10.0273
洞窟	-10.0273
要求	-10.0274
舞台	-10.0275
ことにしました	-10.0277
数年	-10.028
出版	-10.0282
読んで	-10.0282
パイ	-10.0289
だったら	-10.0292
と私は	-10.0293
を開け	-10.0296
が多い	-10.0299
ませ	-10.0303
と呼ぶ	-10.032
兵	-10.0323
探査	-10.0326
制限	-10.0328
次第	-10.0329
扱う	-10.0331
解放	-10.0333
の中には	-10.0337
巻き	-10.0343
以外の	-10.0343
ここまで	-10.0347
ッツ	-10.035
コミュニティー	-10.035
▁ところが	-10.0355
面で	-10.0373
厳	-10.0375
カナダ	-10.0377
検討	-10.0377
脅威	-10.0378
の間で	-10.0378
基盤	-10.0378
ウェブサイト	-10.0378
成績	-10.0379
ていたのです	-10.0383
▁これには	-10.0385
体制	-10.0387
の写真です	-10.0391
態	-10.0403
切れ	-10.0404
っているのです	-10.0409
あるでしょう	-10.0409
ということは	-10.0421
刻	-10.0429
網	-10.0429
皮膚	-10.043
祖母	-10.0431
ということを	-10.0434
速く	-10.0435
広め	-10.044
メン	-10.0443
考えています	-10.0459
an	-10.0462
なっています	-10.0467
ワイ	-10.047
▁それらは	-10.0476
採	-10.0477
級	-10.0482
きっかけ	-10.0482
縁	-10.0482
素敵な	-10.0482
バランス	-10.0482
始まった	-10.0483
去年	-10.0484
教室	-10.0486
作成	-10.0487
農家	-10.0493
らせる	-10.0494
隠れ	-10.0497
自由に	-10.0502
入った	-10.0505
を見てください	-10.0505
一方	-10.0508
議	-10.0514
検	-10.0528
階	-10.0532
賛	-10.0533
しっかり	-10.0535
しばらく	-10.0535
党	-10.0535
奴隷	-10.0535
胸	-10.0535
勤	-10.0535
飾	-10.0535
スケール	-10.0535
こんな感じ	-10.0536
才能	-10.0536
してみましょう	-10.0537
背景	-10.0542
チップ	-10.0544
入って	-10.0551
ハチ	-10.0554
テル	-10.0555
があること	-10.0559
戻って	-10.0561
ことはありません	-10.0569
アナ	-10.0572
回る	-10.058
つつある	-10.0584
下げ	-10.0587
便	-10.0588
刺	-10.0588
ミツバチ	-10.0588
荒	-10.0588
テーブル	-10.0588
成し遂げ	-10.0588
スキャン	-10.0588
相互	-10.0589
なくなった	-10.0594
無料	-10.0595
もいます	-10.0597
▁次は	-10.0598
していたのです	-10.0598
発電	-10.06
一歩	-10.0602
っていて	-10.0612
で最も	-10.0615
シーン	-10.0618
覚えています	-10.0624
以上に	-10.0625
このプロジェクト	-10.0628
豊かな	-10.063
大規模な	-10.063
んでいます	-10.063
世界中の	-10.0634
舞	-10.064
祖父	-10.0641
なくてはなりません	-10.0642
把握	-10.0642
販売	-10.0642
っぽ	-10.0642
難しく	-10.0649
に向けて	-10.0655
大きさ	-10.0655
エイ	-10.0658
自然に	-10.0659
見られ	-10.0661
たもの	-10.0663
目の前	-10.0669
特定	-10.0669
バル	-10.0675
てくる	-10.0678
持続	-10.0689
に参加し	-10.0691
仮	-10.0692
わけで	-10.0694
規	-10.0694
的です	-10.0695
45	-10.0696
たどり着	-10.0696
袋	-10.0696
アプリ	-10.0696
爆弾	-10.0697
地下	-10.0698
黄色	-10.07
読む	-10.0701
都	-10.0705
治療法	-10.0708
借り	-10.0714
特別	-10.0717
初期の	-10.0724
暴	-10.0729
皮	-10.0739
射	-10.0746
油	-10.0748
廃	-10.075
ほうが	-10.075
報道	-10.0756
年以上	-10.0759
言っています	-10.0765
遊	-10.0786
アメリカで	-10.0788
地上	-10.0789
という事です	-10.0796
談	-10.0803
スポーツ	-10.0804
寄付	-10.0805
に関わる	-10.081
踏み	-10.0813
続いて	-10.0814
続く	-10.0815
世界中に	-10.0815
スタン	-10.0818
さない	-10.0821
ジョー	-10.0825
慣れ	-10.0833
戻す	-10.0838
分かりました	-10.0843
重要なこと	-10.0845
西洋	-10.0848
ずつ	-10.0856
ことになる	-10.0857
報告	-10.0858
脅	-10.0859
双	-10.0859
説得	-10.0861
職場	-10.0866
1000	-10.0866
ユ	-10.0873
セット	-10.0876
手助け	-10.088
やってみ	-10.089
海洋	-10.0895
寄	-10.0896
あなた方	-10.0899
ないからです	-10.09
グル	-10.0911
と思っています	-10.0912
茶	-10.0914
いろんな	-10.0914
配列	-10.0916
寿命	-10.0916
めた	-10.0922
現地	-10.0923
であっても	-10.0927
ファイ	-10.0933
その通り	-10.094
想像力	-10.0947
を探す	-10.0949
大事な	-10.0951
を取る	-10.0952
基	-10.0955
提	-10.0956
彼らが	-10.0961
裁判	-10.0962
束	-10.0966
湾	-10.0969
気づいた	-10.0969
連絡	-10.0969
交換	-10.0969
現状	-10.0971
眺め	-10.0971
見つけた	-10.0984
▁より多くの	-10.0985
誰もが	-10.0986
直感	-10.0987
▁現代の	-10.0993
シンプル	-10.0996
みたいに	-10.1001
そんなに	-10.1003
方向に	-10.1006
渡り	-10.1015
の半分	-10.1017
幸運	-10.1017
▁そしてその	-10.102
設置	-10.1021
盛	-10.1024
きちんと	-10.1025
金属	-10.1028
ポー	-10.1031
スクリーン	-10.1035
与える	-10.1035
それほど	-10.1038
▁まあ	-10.1043
ておく	-10.1045
地元	-10.1047
クラス	-10.105
分野で	-10.105
進み	-10.1052
含	-10.1056
望んで	-10.106
の話です	-10.1067
自分達	-10.1073
キャンプ	-10.108
ワシントン	-10.108
解析	-10.1081
経営	-10.1082
どれくらい	-10.1082
南極	-10.1083
民間	-10.1087
るようになりました	-10.1087
回り	-10.1093
ちょっとした	-10.1095
描いて	-10.1101
聞かれ	-10.1102
創造性	-10.1103
ショー	-10.1111
排出	-10.1111
を抱え	-10.1118
信じる	-10.1122
大変な	-10.1128
方も	-10.1128
同じように	-10.113
察	-10.1134
払	-10.1135
婦	-10.1136
慢	-10.1137
楽しみ	-10.1138
によれば	-10.1139
初の	-10.1141
第二	-10.1141
チェック	-10.1141
番目の	-10.1149
色々な	-10.1153
されていない	-10.1154
▁当時の	-10.1155
させました	-10.1159
知的	-10.116
シンプルな	-10.1165
場面	-10.1165
を行いました	-10.1167
せば	-10.1174
願い	-10.1176
植え	-10.1176
を受ける	-10.1182
ってくる	-10.1187
けて	-10.1188
聞きました	-10.119
隔	-10.1193
ガラス	-10.1193
薬物	-10.1194
特許	-10.1194
お分かり	-10.1204
進行	-10.1204
排	-10.1214
に変え	-10.1219
結びつけ	-10.122
事例	-10.1223
になったのです	-10.1227
せます	-10.1227
トレー	-10.1233
ッキ	-10.1243
拍	-10.1249
批判	-10.125
を提供し	-10.1267
数値	-10.1275
立つ	-10.1275
そして	-10.1277
作家	-10.1278
呼んで	-10.1296
区	-10.1299
パス	-10.1302
完全な	-10.1304
称	-10.1305
=	-10.1307
に基づいて	-10.1307
なきゃ	-10.1307
サンプル	-10.1307
溢れ	-10.1308
追跡	-10.1308
ものだと	-10.1311
してくれた	-10.1312
トラック	-10.1312
分解	-10.1313
るんだ	-10.1313
知りたい	-10.1317
任	-10.1318
マル	-10.1321
経済成長	-10.1325
するのが	-10.1341
学びました	-10.1342
▁そのうち	-10.135
を用いて	-10.1351
税	-10.1362
絶対	-10.1363
ていること	-10.1363
印	-10.1364
凍	-10.1364
序	-10.1364
昆虫	-10.1364
何らかの	-10.1365
祖先	-10.1366
担当	-10.1366
どうしたら	-10.1367
かかります	-10.1371
価値観	-10.1372
られません	-10.1373
っち	-10.138
使われる	-10.1387
出します	-10.139
ピン	-10.1392
ヴァ	-10.1394
終え	-10.1398
が高い	-10.1404
読み	-10.1404
引っ	-10.1405
▁そこで私は	-10.1411
600	-10.1414
判	-10.1418
方法です	-10.1419
脂	-10.1422
▁どうもありがとう	-10.1422
保険	-10.1422
発見した	-10.1426
代表	-10.1432
野生	-10.1432
かかりました	-10.1436
つつあります	-10.1437
地方	-10.144
ジン	-10.1443
上手	-10.1443
まって	-10.1451
ネー	-10.1452
と言い	-10.1461
てみましょう	-10.1461
ピア	-10.1471
策	-10.1477
ナイジェリア	-10.148
展開	-10.1481
ものではありません	-10.1484
男女	-10.1484
取った	-10.1485
ジョージ	-10.1487
彼女たち	-10.1489
たくさんあります	-10.1493
賢い	-10.1494
見たこと	-10.1513
体重	-10.1516
過程で	-10.1529
雪	-10.1539
探索	-10.1539
禁止	-10.154
容易	-10.154
メント	-10.1541
支払	-10.1547
▁これこそ	-10.1548
分類	-10.1553
備	-10.1562
いないのです	-10.1565
年後に	-10.1566
教える	-10.1577
蚊	-10.1598
熟	-10.1598
恒星	-10.1598
乗り越え	-10.1598
編集	-10.1599
っぱ	-10.16
一致	-10.1604
重力	-10.1606
を発見し	-10.1607
訴	-10.1608
んでしょう	-10.1609
イルカ	-10.1609
建築家	-10.1618
を利用し	-10.1629
の下に	-10.1629
説明する	-10.1635
続けて	-10.1638
したいのは	-10.1639
付ける	-10.1643
十分に	-10.1643
シャー	-10.1644
尽	-10.1647
逃	-10.1648
替え	-10.165
秘	-10.1654
屋根	-10.166
収集	-10.166
技術者	-10.1665
っていく	-10.1666
考えてみましょう	-10.1667
どこで	-10.1667
多くの人	-10.1669
ようとしています	-10.167
早	-10.1675
▁それまで	-10.1681
上げて	-10.1683
ないので	-10.1686
に乗って	-10.1688
ごと	-10.1693
撮った	-10.1703
他者	-10.1707
アーティスト	-10.1716
典	-10.1716
免疫	-10.1716
暮らす	-10.1716
雑誌	-10.1717
避け	-10.1719
ブリ	-10.1719
ロイ	-10.172
これら	-10.1721
はるかに	-10.1723
ひとり	-10.1731
これから	-10.1736
が起こる	-10.1747
しかありません	-10.1755
行っている	-10.1757
置き	-10.1767
ウォー	-10.1772
使っている	-10.1773
されること	-10.1774
輝	-10.1776
鉱	-10.1776
アラブ	-10.1777
移民	-10.1778
関わって	-10.1779
太陽光	-10.1788
合って	-10.1796
認	-10.1797
150	-10.1806
たかったのです	-10.1813
▁こちらの	-10.1815
上がる	-10.1817
チュ	-10.1825
スキー	-10.1827
死亡	-10.1836
インフルエンザ	-10.1837
貼	-10.1837
男の子	-10.1837
意味する	-10.1847
知らせ	-10.1848
生まれました	-10.1859
含め	-10.186
目指し	-10.1863
途中	-10.1872
損	-10.1894
章	-10.1895
猫	-10.1897
鼻	-10.1897
電池	-10.1898
海岸	-10.1899
飛ば	-10.1899
出せる	-10.1901
交流	-10.1905
入力	-10.1923
どうなるか	-10.1925
活性化	-10.1934
向かう	-10.1935
てくれました	-10.1941
音声	-10.1945
施	-10.1953
株	-10.1958
報酬	-10.1958
関わり	-10.1958
許可	-10.1959
航空	-10.1959
動画	-10.1961
広がって	-10.1962
絶対に	-10.1963
人気	-10.1965
を起こす	-10.1972
あるもの	-10.1986
せて	-10.1995
人権	-10.1998
常	-10.1999
生まれる	-10.2
徒	-10.2015
推	-10.2016
遺	-10.2017
労働者	-10.2019
房	-10.2019
書かれてい	-10.2021
探検	-10.2021
血管	-10.2021
探し	-10.2024
ブロック	-10.2025
を用い	-10.204
物理的	-10.2045
これまで	-10.2045
のせいで	-10.2046
わず	-10.2056
マーク	-10.2063
メス	-10.2066
自動	-10.2066
遅	-10.207
しているからです	-10.2071
デモ	-10.2073
学んで	-10.208
参	-10.208
被験者	-10.2081
一般的な	-10.2081
スキル	-10.2081
ユーザー	-10.2082
センサー	-10.2083
匂い	-10.2085
集まって	-10.2087
続	-10.2088
することも	-10.2099
直す	-10.2101
方々	-10.2106
できなかった	-10.2107
ポリ	-10.2108
僕たち	-10.2112
遠い	-10.2113
しなければ	-10.2125
ボン	-10.2126
最も重要な	-10.2127
げる	-10.2129
レット	-10.2129
35	-10.2138
住んでいる	-10.214
大学で	-10.214
麻	-10.214
オフィス	-10.2143
武器	-10.2144
衝撃	-10.2144
確保	-10.2145
設定	-10.2146
嫌い	-10.2146
コール	-10.2148
つつ	-10.2155
いろいろ	-10.2156
愛する	-10.217
笑い	-10.2172
長年	-10.2183
張り	-10.2185
化した	-10.2191
似た	-10.2193
されていた	-10.2199
診	-10.2204
太	-10.2206
抗生物質	-10.2206
幸い	-10.2209
実施	-10.221
何人か	-10.2211
彼ら	-10.2214
なるでしょう	-10.2216
移行	-10.2216
いたのは	-10.2216
新しく	-10.2217
いるのは	-10.2227
ことが出来ます	-10.2232
を利用して	-10.2236
例外	-10.2239
いいですか	-10.2246
帰って	-10.2246
止める	-10.2251
有名	-10.2255
生体	-10.2258
するよう	-10.2261
修	-10.2264
雑	-10.2268
厚	-10.2269
餌	-10.2269
棒	-10.2269
コーヒー	-10.2269
推測	-10.2269
仮想	-10.227
番目	-10.2271
と考える	-10.2272
メンバー	-10.2272
向こう	-10.2276
やっと	-10.2282
しようとする	-10.2284
になること	-10.2285
とは何か	-10.2289
表示	-10.2291
75	-10.2294
みましょう	-10.2295
だということ	-10.2296
大事	-10.23
見解	-10.2305
掛け	-10.2307
▁というのも	-10.231
re	-10.2326
獲	-10.2331
ソフト	-10.2332
狭	-10.2332
腺	-10.2332
以降	-10.2332
が増え	-10.2332
美術館	-10.2332
吸収	-10.2333
存在します	-10.2334
動機	-10.2336
時々	-10.2338
私たちを	-10.2342
タイム	-10.2342
有機	-10.2343
いつでも	-10.235
運命	-10.2352
世の中	-10.2361
の仕方	-10.2369
パラ	-10.2376
感じた	-10.2377
抑え	-10.2388
快	-10.2391
最終	-10.2392
数千	-10.2394
髪	-10.2396
冬	-10.2396
巡	-10.2396
恩恵	-10.2396
エンジン	-10.2397
フル	-10.2397
筋肉	-10.2397
信念	-10.2397
踊	-10.2397
厳しい	-10.2398
ご覧ください	-10.24
左側	-10.24
われる	-10.2401
▁CA	-10.2401
と同様に	-10.2402
を手に入れ	-10.2404
論理	-10.2406
▁この国	-10.2413
あまりにも	-10.242
最悪の	-10.2429
掘	-10.2433
トム	-10.2441
効果的	-10.2447
されない	-10.2457
教訓	-10.246
考慮	-10.246
輸送	-10.2461
境界	-10.2461
周辺	-10.2462
右側	-10.2464
子供の頃	-10.2465
ほか	-10.2465
くれた	-10.2478
変わりました	-10.25
間違って	-10.2502
を得て	-10.2508
続けています	-10.2509
わかりました	-10.2511
入れる	-10.2516
困	-10.2522
さまざまな	-10.2524
始まる	-10.2525
拡張	-10.2525
それだけ	-10.2525
入手	-10.2525
単位	-10.2526
一連の	-10.2526
死亡率	-10.2526
育った	-10.2532
is	-10.2534
感じました	-10.2534
適用	-10.2537
らしい	-10.2549
▁そうすれば	-10.2554
いったい	-10.2555
会った	-10.2559
サイン	-10.2567
th	-10.2569
大勢	-10.2575
婚	-10.2588
暖	-10.2589
塗	-10.2589
恐らく	-10.2589
療法	-10.2589
財団	-10.259
組み立て	-10.2591
ケニア	-10.2594
太陽系	-10.2594
地区	-10.2594
残る	-10.26
似ています	-10.2603
という事	-10.2606
ブログ	-10.261
とっても	-10.2612
近所	-10.2616
ハエ	-10.2622
必要なのは	-10.2634
起こります	-10.2635
耐え	-10.2637
することができ	-10.2647
大部分	-10.2647
ことなく	-10.2649
営	-10.2652
典型的な	-10.2655
堂	-10.2655
貸	-10.2655
冒険	-10.2655
規則	-10.2655
を選び	-10.2655
階級	-10.2655
つま	-10.2657
北極	-10.2658
しかない	-10.2659
と言えます	-10.2662
年までに	-10.2666
白い	-10.2679
なかったら	-10.2682
を受けました	-10.2684
ひと	-10.2693
この話	-10.2703
ようなもの	-10.2712
するべき	-10.2713
大きな問題	-10.2717
ないもの	-10.2718
滑	-10.272
露	-10.272
pos	-10.272
リズム	-10.272
個々の	-10.2721
候補	-10.2721
石炭	-10.2721
否定	-10.2722
光景	-10.2723
出会い	-10.2728
結合	-10.2733
感じます	-10.2737
ポート	-10.2753
化学物質	-10.276
生命体	-10.2762
見ることができます	-10.2768
友	-10.2774
漁	-10.2774
みて	-10.2784
にもかかわらず	-10.2787
かも知れません	-10.2787
しばしば	-10.2787
請	-10.2787
と呼んでいます	-10.2787
過ごす	-10.2787
ダーウィン	-10.2787
焦点	-10.2788
資産	-10.2788
損傷	-10.2788
飛ぶ	-10.2788
資本主義	-10.2795
発想	-10.2796
クリック	-10.2801
過去の	-10.2803
べきだ	-10.2805
いきました	-10.2819
続けました	-10.2822
に戻って	-10.2825
変わ	-10.2826
ション	-10.2831
深刻な	-10.2836
ドリ	-10.2838
バック	-10.2844
互	-10.285
財	-10.2851
を迎え	-10.2851
となっています	-10.2853
想像してみてください	-10.2853
肩	-10.2853
腸	-10.2853
祝	-10.2853
近づいて	-10.2853
クジラ	-10.2853
苦しみ	-10.2854
こういう	-10.2854
吸	-10.2854
たびに	-10.2855
吹き	-10.2858
数週間	-10.2868
リンク	-10.2871
ホール	-10.2872
指示	-10.288
用意	-10.2883
を使います	-10.2884
ケン	-10.2899
以外	-10.2903
携	-10.2919
を訪れ	-10.2919
図書館	-10.292
ジャーナリスト	-10.292
頑	-10.292
ラジオ	-10.292
根本的な	-10.292
連邦	-10.292
あふれ	-10.2921
なくなりました	-10.2922
文章	-10.2922
左右	-10.2924
生物学者	-10.293
異常	-10.2932
世紀に	-10.2932
れません	-10.2934
▁いいえ	-10.2934
をお見せします	-10.2936
おかげで	-10.2938
合わ	-10.2941
と考えられ	-10.2941
ショ	-10.2942
水素	-10.2944
いくつ	-10.2949
南アフリカ	-10.2955
被害者	-10.2957
指数	-10.2959
走り	-10.296
ものなのです	-10.2963
出せ	-10.2964
ものだ	-10.2973
孫	-10.2983
が必要だ	-10.2984
開き	-10.2984
それ以上	-10.2985
GDP	-10.2988
寒	-10.2988
フリー	-10.299
テロリスト	-10.2991
デュ	-10.2994
ダウン	-10.2994
グレー	-10.2996
食品	-10.2997
なのでしょうか	-10.2997
初期	-10.2998
群れ	-10.2999
形式	-10.3002
政権	-10.3005
出会った	-10.3008
行っています	-10.3008
だけど	-10.301
ていきます	-10.3011
なお	-10.3014
ロール	-10.3016
同意	-10.3018
ようでした	-10.3031
駆け	-10.3032
を読み	-10.3032
呼ばれ	-10.3032
▁この技術	-10.3036
▁私たちには	-10.305
屈	-10.3055
ちゃんと	-10.3055
急速に	-10.3056
不可欠	-10.3056
採取	-10.3057
並べ	-10.3058
受賞	-10.3058
役立つ	-10.3058
公平	-10.3061
こう言う	-10.3062
さま	-10.3065
経済学者	-10.3068
老化	-10.307
これほど	-10.3073
必要がありました	-10.3073
メイ	-10.3073
がちです	-10.3073
千人	-10.3082
カップ	-10.3083
ことについて	-10.3087
文書	-10.3094
与	-10.3115
プラン	-10.3119
知りません	-10.3121
貴	-10.3124
ネズミ	-10.3124
ってしまう	-10.3125
ホテル	-10.3127
採用	-10.313
なしで	-10.3134
多分	-10.3136
かつて	-10.3138
されていません	-10.3147
扱	-10.3149
感動	-10.3155
このように	-10.3157
描いた	-10.3157
に行きました	-10.3158
分間	-10.3179
数百	-10.3186
分離	-10.3192
鏡	-10.3193
好奇心	-10.3193
羊	-10.3193
レストラン	-10.3193
習慣	-10.3194
伸び	-10.3194
氷河	-10.3194
退屈	-10.3194
発展途上国	-10.3194
ことになりました	-10.3195
血液	-10.3195
改良	-10.3195
ステップ	-10.3197
最低	-10.3198
自殺	-10.32
安全な	-10.3201
サイバー	-10.3201
私の人生	-10.3214
時計	-10.3219
リオ	-10.3232
議員	-10.3256
出来ない	-10.3258
塩	-10.3262
現れる	-10.3263
収穫	-10.3263
イタリア	-10.3263
抽象	-10.3263
節約	-10.3265
▁ほら	-10.3267
を失い	-10.3267
部族	-10.3268
エイズ	-10.3268
つ目	-10.3269
を書く	-10.3269
我々に	-10.3273
分かっています	-10.328
IS	-10.328
の一つです	-10.3285
▁もはや	-10.3285
観点から	-10.3295
は常に	-10.3295
ロック	-10.3304
分かれ	-10.331
っこ	-10.332
質量	-10.3321
▁ただし	-10.3324
カラ	-10.3328
キャンペーン	-10.3333
サンフランシスコ	-10.3333
プレゼン	-10.3333
炎	-10.3333
標準	-10.3333
花粉	-10.3334
を見つけました	-10.3334
着陸	-10.3337
ウェイ	-10.3341
液体	-10.3341
少数	-10.3345
見つめ	-10.3366
向かい	-10.3372
移り	-10.3381
してもらい	-10.3384
もらい	-10.3384
ているのか	-10.3388
知った	-10.3388
ウル	-10.3392
800	-10.3394
だめ	-10.3401
拠	-10.3402
唱	-10.3403
締	-10.3403
いわゆる	-10.3403
ねばなりません	-10.3403
プライバシー	-10.3403
湖	-10.3403
灯	-10.3403
重大な	-10.3403
殺人	-10.3403
原則	-10.3404
を買う	-10.3404
安価	-10.3404
仮説	-10.3404
違法	-10.3405
に過ぎません	-10.3406
怒	-10.3407
ボタン	-10.3407
地面	-10.3408
ならず	-10.3414
倒	-10.3421
説明します	-10.3425
アフリカで	-10.3437
取る	-10.3437
使え	-10.3442
故	-10.3444
っていません	-10.345
おそらく	-10.3452
おうと	-10.3452
折り	-10.3454
分かり	-10.3458
▁そこは	-10.346
と考えます	-10.347
泳	-10.347
いいでしょう	-10.3471
償	-10.3474
そもそも	-10.3474
スティーブ	-10.3474
肥満	-10.3474
を経て	-10.3477
かかり	-10.3477
つながって	-10.3479
と言えば	-10.3489
せずに	-10.3505
歳の時	-10.3507
プレ	-10.3507
ことが出来る	-10.351
死んだ	-10.3513
▁その他の	-10.3521
始まりました	-10.3529
開いて	-10.3532
見かけ	-10.3533
しまい	-10.3537
司	-10.3538
真似	-10.3541
NASA	-10.3546
パソコン	-10.3546
罰	-10.3546
追求	-10.3546
イスラム	-10.3549
どういうこと	-10.355
le	-10.3551
地点	-10.3553
を作ること	-10.356
まれた	-10.3561
デス	-10.3564
ベルト	-10.3564
不正	-10.3576
▁最初は	-10.3577
活動家	-10.3595
死んで	-10.36
ということでした	-10.36
するとき	-10.3602
統	-10.3606
衆	-10.3606
境	-10.3609
削	-10.3616
妙	-10.3617
却	-10.3618
徐々に	-10.3618
もらう	-10.3618
柔軟	-10.3618
を選ぶ	-10.3619
風景	-10.3619
どころ	-10.3626
呼	-10.3627
伝達	-10.3627
になれる	-10.3631
手に入れ	-10.3632
CO	-10.3633
優先	-10.3635
水中	-10.3643
民族	-10.3643
スタート	-10.3647
ることにしました	-10.3648
中国の	-10.3652
本来	-10.3656
ハム	-10.3664
られるように	-10.3665
得た	-10.3666
占	-10.3668
だったので	-10.3671
▁そうして	-10.3675
スロー	-10.3683
均	-10.3689
林	-10.3689
煙	-10.369
弁護士	-10.369
顕微鏡	-10.369
必ずしも	-10.369
検証	-10.3691
排出量	-10.3694
マイクロ	-10.3696
数え	-10.3698
ティング	-10.37
外交	-10.3704
立た	-10.3704
解読	-10.3707
必要とする	-10.3712
全く同じ	-10.3713
お前	-10.3717
座り	-10.3717
正義	-10.3718
と思っていました	-10.3719
生物学的	-10.3721
気温	-10.3727
始まります	-10.3752
知性	-10.3757
ベース	-10.3759
閉	-10.376
評	-10.3762
▁ちなみに	-10.3763
終わった	-10.3763
信仰	-10.3763
関与	-10.3763
苦労	-10.3764
修復	-10.3764
▁じゃあ	-10.3764
悲劇	-10.3768
んだよ	-10.377
安心	-10.3771
つながる	-10.3771
トリック	-10.3778
に会い	-10.3779
てきて	-10.3802
暗い	-10.3805
設立	-10.3808
払う	-10.3809
おいて	-10.3814
影響力	-10.3816
燃	-10.3818
貨	-10.3833
慮	-10.3836
沈	-10.3836
詳しく	-10.3837
ブラックホール	-10.3837
自宅	-10.3837
抗議	-10.3838
配置	-10.384
外科医	-10.384
同じことを	-10.3841
決めました	-10.3845
変更	-10.3847
歩行	-10.3848
なってしまう	-10.385
建	-10.3852
もたらす	-10.3852
寄り	-10.3859
国境	-10.3882
んだろう	-10.3883
優秀な	-10.3884
なのだ	-10.389
てはいけない	-10.3891
主な	-10.3898
節	-10.3907
ヴ	-10.391
藻	-10.3911
キャラクター	-10.3911
パキスタン	-10.3911
博物館	-10.3911
獄	-10.3911
詞	-10.3911
香	-10.3911
▁残念ながら	-10.3911
ひどく	-10.3911
住宅	-10.3911
注射	-10.3912
見つかり	-10.3912
義務	-10.3912
良かった	-10.3916
選んだ	-10.393
追加	-10.3933
お見せした	-10.3949
積み	-10.395
女性たち	-10.3955
197	-10.3957
生まれて	-10.3957
▁そのために	-10.396
面積	-10.3961
必要はありません	-10.3965
標	-10.3965
付けられ	-10.3972
齢	-10.3974
スタッフ	-10.3978
被	-10.3984
維	-10.3985
にも関わらず	-10.3985
塊	-10.3985
ギリシャ	-10.3985
ヒーロー	-10.3985
真剣に	-10.3985
需要	-10.3985
投稿	-10.3985
考えていました	-10.3986
変換	-10.3986
頂き	-10.399
表情	-10.3991
更	-10.3993
トゥ	-10.3994
対立	-10.3997
ればいい	-10.3998
重要性	-10.4022
を取り出し	-10.4029
だけでも	-10.4029
あげる	-10.4058
禁	-10.406
スペイン	-10.406
ウィルス	-10.406
ドゥ	-10.4063
検出	-10.4063
マイク	-10.4073
発言	-10.4074
段階で	-10.4075
無限	-10.4076
ペット	-10.4076
中東	-10.4083
原子力	-10.4084
何十	-10.4085
ic	-10.4086
数ヶ月	-10.409
移住	-10.4093
に注目し	-10.4105
一生	-10.4108
道徳	-10.4117
物理学	-10.4117
▁なんと	-10.4119
不満	-10.4119
海外	-10.4129
不思議	-10.4131
略	-10.4134
競	-10.4135
アイデンティティ	-10.4136
セキュリティ	-10.4136
申し上げ	-10.4136
いっぱい	-10.4136
が存在し	-10.414
形態	-10.4141
していきます	-10.4146
取り組んで	-10.4149
自然な	-10.4153
肉体	-10.4158
を求めて	-10.4165
簡単です	-10.4171
en	-10.4188
どこでも	-10.42
ミン	-10.4201
争	-10.4201
せない	-10.4201
頭の中	-10.4202
政	-10.4206
てしまうのです	-10.4206
万年前	-10.4207
迷	-10.4212
アインシュタイン	-10.4212
ボランティア	-10.4212
枝	-10.4212
驚くほど	-10.4212
鮮	-10.4212
主要な	-10.4213
を含む	-10.4213
ようやく	-10.4213
辞書	-10.4213
計測	-10.4214
減らす	-10.4214
録音	-10.4216
分裂	-10.4217
タイムズ	-10.4218
美しく	-10.4219
を作り出し	-10.4219
▁やがて	-10.422
勧め	-10.422
引用	-10.4224
地帯	-10.4224
なくなって	-10.4226
コピー	-10.4229
てしまって	-10.4231
PC	-10.4234
ランク	-10.4238
がいかに	-10.4241
大いに	-10.4243
信用	-10.4251
最悪	-10.4259
言っていました	-10.4276
主義者	-10.4278
始めたのです	-10.428
答	-10.4288
貯	-10.4289
館	-10.4289
妹	-10.4289
スウェーデン	-10.4289
戸	-10.4289
スピーチ	-10.4289
遡	-10.4289
スーツ	-10.429
ハウス	-10.429
終わる	-10.429
小説	-10.4294
多くの人々	-10.4296
間違った	-10.4297
可能にし	-10.4298
描かれ	-10.4299
信じている	-10.4302
合法	-10.4306
広がる	-10.4307
らしく	-10.4311
することができる	-10.4312
個人的な	-10.4332
に直面し	-10.4339
ワイン	-10.4342
ブルー	-10.4346
参加者	-10.4352
経路	-10.4355
液	-10.4356
を提供する	-10.4358
考えてみ	-10.4364
裕	-10.4366
完璧な	-10.4367
リアルタイム	-10.4367
リチャード	-10.4367
田舎	-10.4367
気づか	-10.4367
独自の	-10.4368
抽出	-10.4369
公園	-10.4369
プリンタ	-10.437
麻薬	-10.437
を超える	-10.4379
曲線	-10.4383
作りました	-10.4413
遅れ	-10.4423
ってしまいました	-10.4428
デイ	-10.4435
使った	-10.4439
侵	-10.4441
に目を向け	-10.4441
かれる	-10.4445
辛	-10.4445
豚	-10.4445
巧	-10.4445
懸念	-10.4445
聞かせ	-10.4446
持続可能な	-10.4447
▁残りの	-10.445
勝ち	-10.445
行われた	-10.4458
を生み	-10.446
低下	-10.4464
少なく	-10.4466
リック	-10.4481
ように見えます	-10.4487
につれて	-10.4494
夢中	-10.451
使い方	-10.4511
聞いたこと	-10.4513
見えません	-10.4513
講	-10.4523
執	-10.4524
コウモリ	-10.4524
噴	-10.4524
恥	-10.4524
パスワード	-10.4524
だらけ	-10.4524
印象	-10.4525
推進	-10.4525
分かっている	-10.4527
多様な	-10.4527
すればいい	-10.453
介入	-10.453
に渡って	-10.453
サンゴ	-10.4534
飛んで	-10.4535
歴史上	-10.4537
健康な	-10.454
しまう	-10.4541
個体	-10.4546
お話しした	-10.4551
成功した	-10.4569
を得た	-10.4575
起こりました	-10.4578
したいのです	-10.4581
しまいます	-10.4591
ギャ	-10.4602
ハーバード	-10.4603
灰	-10.4603
看	-10.4603
克服	-10.4603
繁栄	-10.4603
第三	-10.4607
ベイ	-10.4608
振動	-10.4609
骨格	-10.4609
埋	-10.4609
もらった	-10.4619
ころ	-10.4619
軍事	-10.463
お話します	-10.4632
以外に	-10.4633
ra	-10.4638
被害	-10.4641
門	-10.4643
なくなり	-10.4645
を表し	-10.4648
正常	-10.4649
チョ	-10.4656
ロード	-10.466
尋ねました	-10.466
サム	-10.4662
知りました	-10.4665
作ろうと	-10.4675
奏	-10.4682
生き延び	-10.4683
叩	-10.4683
哺乳類	-10.4683
癒	-10.4683
臭	-10.4683
魂	-10.4683
オバマ	-10.4683
にわたって	-10.4683
腐敗	-10.4683
スコット	-10.4683
奇跡	-10.4684
パリ	-10.4684
MIT	-10.4685
値段	-10.4685
なくてはいけません	-10.4687
回答	-10.4688
楽器	-10.4689
をもつ	-10.4689
制約	-10.469
分布	-10.4693
神経細胞	-10.4699
を作り出す	-10.4702
ようとする	-10.4705
2009	-10.4707
帰り	-10.4721
子ども達	-10.4722
陰	-10.4729
だれ	-10.4739
信じています	-10.474
越え	-10.4742
資	-10.475
エア	-10.4754
亡	-10.4759
途上国	-10.4763
傾	-10.4763
宿	-10.4763
債	-10.4764
鬱	-10.4764
GPS	-10.4764
美しさ	-10.4764
蓄積	-10.4764
▁地元の	-10.4764
転換	-10.4765
住み	-10.4765
暗号	-10.4765
ハッカー	-10.4766
全然	-10.4769
を開発し	-10.4773
明日	-10.4773
世話	-10.4778
見出し	-10.4779
製作	-10.4781
社会的な	-10.4784
道徳的	-10.4785
使われています	-10.4787
物理学者	-10.4793
早い	-10.4793
シェア	-10.4795
科医	-10.4808
ボート	-10.4809
出すこと	-10.4809
かしら	-10.4813
を用意し	-10.4821
ここにある	-10.4824
チン	-10.4828
史	-10.4832
et	-10.4844
比較的	-10.4845
テキスト	-10.4845
連続	-10.4846
気付いた	-10.4849
もらいました	-10.4849
存在しない	-10.485
と呼ばれるもの	-10.4859
食物	-10.4867
欠け	-10.487
困難な	-10.4872
につれ	-10.4881
たいてい	-10.4885
シート	-10.4887
聞こえる	-10.4891
何十億	-10.4897
影響を受け	-10.4903
込	-10.4905
お見せする	-10.4907
開け	-10.4909
大型	-10.4921
令	-10.4926
練	-10.4926
盤	-10.4927
冊	-10.4927
蜂	-10.4927
▁どうもありがとうございました	-10.4927
ロケット	-10.4927
おもちゃ	-10.4927
培養	-10.4927
守り	-10.4929
空港	-10.4929
姿勢	-10.4929
気づいて	-10.493
戦闘	-10.4931
を紹介します	-10.4933
記者	-10.4934
届く	-10.4939
ミュ	-10.4942
これだけ	-10.4943
ホー	-10.4944
結果として	-10.4955
哲学	-10.4962
収め	-10.4967
始	-10.4974
取り組んでいる	-10.4987
との関係	-10.4988
しなければならない	-10.4989
踏	-10.4997
▁いま	-10.5001
はこうです	-10.5005
ソーシャル	-10.5008
▁アメリカでは	-10.5009
干	-10.501
惨	-10.501
猿	-10.501
募	-10.501
役に立つ	-10.501
探求	-10.5011
払い	-10.5012
天然	-10.5013
を重ね	-10.5014
愛情	-10.5016
喜	-10.502
にくい	-10.5027
シング	-10.503
してしまった	-10.5043
言わせ	-10.5053
が必要なのです	-10.5053
よかった	-10.506
行きました	-10.5063
驚くべきこと	-10.5066
当たり前	-10.5067
してもらう	-10.5092
歴	-10.5092
あちこち	-10.5093
恥ずかし	-10.5093
炉	-10.5093
玉	-10.5093
気づく	-10.5093
由来	-10.5094
促進	-10.5094
ジェンダー	-10.5094
外国	-10.5096
固定	-10.5098
実際のところ	-10.5098
年もの間	-10.5099
放送	-10.5101
海底	-10.5103
内側	-10.5105
部位	-10.5106
を表しています	-10.5107
解決法	-10.5109
おらず	-10.5111
通過	-10.5113
700	-10.5116
伝統的な	-10.5118
掘り	-10.5127
ワン	-10.5129
もうひとつ	-10.514
ことはできない	-10.5142
良いこと	-10.5161
英	-10.5167
幹	-10.5174
危	-10.5175
ホワイト	-10.5177
衰	-10.5177
弁	-10.5177
おかしな	-10.5177
練習	-10.5178
到着	-10.5179
聖書	-10.518
行け	-10.5182
社員	-10.5184
性能	-10.5186
作っている	-10.5193
▁本物の	-10.5194
レーザー	-10.5196
快適	-10.5196
壊れ	-10.5198
脳内	-10.5208
笑い声	-10.5215
必要があるのです	-10.5237
あるべき	-10.5245
のではないかと	-10.5245
新たに	-10.5245
できています	-10.525
負け	-10.5258
ナル	-10.5259
躍	-10.5262
蒸	-10.5262
貫	-10.5262
監督	-10.5262
臨床試験	-10.5262
継続	-10.5263
災害	-10.5263
意義	-10.5264
勝利	-10.5264
軍隊	-10.5264
ショック	-10.5265
汚職	-10.5266
運び	-10.5267
一瞬	-10.5267
相当	-10.5268
南部	-10.527
ビジョン	-10.5271
ボル	-10.5273
密度	-10.5281
シリア	-10.5285
を作ります	-10.5286
化石	-10.5287
見せる	-10.5289
以内	-10.5289
殺され	-10.5301
▁当時は	-10.5307
生産性	-10.5307
戻り	-10.5312
シル	-10.5313
カ国	-10.5314
巻	-10.5318
ペース	-10.5328
例え	-10.534
商	-10.5345
惑	-10.5345
績	-10.5345
蔵	-10.5347
iPhone	-10.5347
矛盾	-10.5347
遣	-10.5347
ペンギン	-10.5347
お母さん	-10.5347
デバイス	-10.5347
彫刻	-10.5348
警告	-10.5348
幼児	-10.5348
連携	-10.5348
指標	-10.5349
区別	-10.535
虐殺	-10.535
向かって	-10.5351
回避	-10.5352
思っています	-10.5352
誤解	-10.5352
偏見	-10.5353
態度	-10.5355
コメント	-10.5355
気付きました	-10.5363
前進	-10.5364
ポール	-10.5375
強さ	-10.5381
グラス	-10.5384
どうぞ	-10.5385
すぎて	-10.5385
できませんでした	-10.5395
戦う	-10.5395
作物	-10.5396
会う	-10.5397
セー	-10.5397
実現する	-10.5401
▁変える	-10.5401
乗せ	-10.5411
変わります	-10.5415
唯一	-10.5421
換え	-10.543
してくれます	-10.5431
昼	-10.5432
鎖	-10.5432
監	-10.5433
究	-10.5433
清	-10.5433
浴	-10.5434
華	-10.5434
テープ	-10.5434
収容	-10.5436
得意	-10.5438
非難	-10.544
コンゴ	-10.5446
を失った	-10.5449
なければいけません	-10.545
196	-10.5457
ゲン	-10.5463
っており	-10.5467
人がいる	-10.5481
待つ	-10.5487
ことのない	-10.5494
数学者	-10.551
年半	-10.5511
スラム	-10.5515
変動	-10.5518
炭	-10.5518
を思い出し	-10.5519
志	-10.5519
放射	-10.552
拾	-10.552
柱	-10.552
休暇	-10.5521
いわば	-10.5521
投与	-10.5521
儀式	-10.5522
てもらえ	-10.5524
具合	-10.5527
の下で	-10.5527
前提	-10.5527
キャリア	-10.5529
発信	-10.5529
間違いなく	-10.5529
避	-10.5539
1990	-10.5541
大規模	-10.5543
切って	-10.5546
に戻る	-10.5548
マップ	-10.5555
生理	-10.5556
体系	-10.5565
▁どれも	-10.5566
学んだこと	-10.5567
黒い	-10.557
ことが分かりました	-10.5573
クラブ	-10.5585
幼	-10.5586
洋	-10.5604
授	-10.5606
買って	-10.5608
臨床	-10.5608
こんにち	-10.5608
リーダーシップ	-10.5608
赤ん坊	-10.5608
隅	-10.5608
感染症	-10.5608
および	-10.5608
スイッチ	-10.5608
枠組み	-10.5609
意志	-10.5609
命令	-10.561
知恵	-10.561
一杯	-10.5611
なくてはならない	-10.5611
基金	-10.5612
反対側	-10.5614
話し合い	-10.5623
皮質	-10.5624
どのようにして	-10.5627
立った	-10.5628
送金	-10.5634
人形	-10.5637
描	-10.5647
支払い	-10.565
して下さい	-10.5678
不幸	-10.5684
サラ	-10.5694
膜	-10.5696
怪	-10.5697
遥	-10.5697
ポンド	-10.5697
ヒント	-10.5697
講義	-10.5697
職業	-10.5701
確立	-10.5704
超え	-10.5709
走る	-10.5719
問題を解決	-10.572
どのくらい	-10.5723
ノート	-10.5733
バーグ	-10.5741
人材	-10.5742
問いかけ	-10.5743
届	-10.5755
再利用	-10.5774
不十分	-10.5777
決めた	-10.5783
儀	-10.5785
領	-10.5785
アマゾン	-10.5786
安全保障	-10.5786
すっかり	-10.5786
貴重な	-10.5786
イエス	-10.5786
明るい	-10.5786
直面する	-10.5786
登録	-10.5787
指摘	-10.5787
皮肉	-10.5787
満ち	-10.5789
遊ぶ	-10.579
知覚	-10.5793
小型	-10.5798
女子	-10.5801
当初	-10.5807
用語	-10.582
目指す	-10.5822
多いのです	-10.5826
着く	-10.5828
圧力	-10.5833
飛	-10.5851
溶け	-10.5852
お伝え	-10.586
言われた	-10.5861
尊	-10.5875
繁	-10.5876
丘	-10.5876
硬	-10.5876
絞	-10.5876
葬	-10.5876
貯蓄	-10.5876
保証	-10.5878
早期	-10.5878
反映	-10.5879
耐性	-10.588
不思議な	-10.5882
知らず	-10.5883
透明性	-10.5884
世界で最も	-10.5892
神話	-10.5895
レンズ	-10.5897
ランプ	-10.5902
大体	-10.5904
代替	-10.5907
求められ	-10.5911
てもらい	-10.5928
もらって	-10.5929
人にとって	-10.5929
生じる	-10.5933
65	-10.5946
操	-10.5964
攻	-10.5966
幾	-10.5966
縦	-10.5967
冒	-10.5967
方程式	-10.5967
涙	-10.5967
遍	-10.5967
Facebook	-10.5967
ヒュー	-10.5967
墓	-10.5967
思い浮かべ	-10.5967
緊急	-10.5967
イスラム教	-10.5968
ぜひ	-10.5968
後悔	-10.597
取得	-10.597
救急	-10.5972
どこへ	-10.5973
ホーム	-10.5973
障害者	-10.5975
迎え	-10.5976
漁業	-10.5984
センチ	-10.5984
差別	-10.5986
悪いこと	-10.5988
幼い	-10.5989
定め	-10.599
複製	-10.5991
どうなるでしょう	-10.5995
一例	-10.6002
無線	-10.6008
シティ	-10.6009
ペル	-10.601
去り	-10.6014
人間関係	-10.6025
安く	-10.6028
に達し	-10.6028
神経科学	-10.603
お話しする	-10.6042
犯罪者	-10.6045
as	-10.6048
一定	-10.6048
因	-10.6049
指導	-10.6054
開始	-10.6056
春	-10.6057
馬鹿	-10.6058
融合	-10.6059
旧	-10.6059
酒	-10.6059
ランダム	-10.6059
署	-10.6059
根本的に	-10.6059
浮かび	-10.6059
緊張	-10.6059
設備	-10.606
商業	-10.606
パーティー	-10.6061
賛成	-10.6062
決まり	-10.6062
悲しい	-10.6063
ワーク	-10.6065
ッグ	-10.6067
なんとか	-10.6071
の前で	-10.6072
さず	-10.6072
示した	-10.6074
可能性がある	-10.6078
を送る	-10.6082
数十年	-10.6086
サメ	-10.6099
を見れば	-10.6106
買え	-10.6107
すべきこと	-10.6133
少しだけ	-10.6134
ウォ	-10.6141
とても重要な	-10.6144
候	-10.6147
筆	-10.6151
太平洋	-10.6151
Q	-10.6151
Twitter	-10.6151
イベント	-10.6151
マイケル	-10.6151
賄	-10.6151
シカゴ	-10.6151
伐採	-10.6151
アパート	-10.6151
野菜	-10.6152
なかなか	-10.6152
権威	-10.6152
を使えば	-10.6152
兵器	-10.6153
なかったからです	-10.6153
記号	-10.6153
財産	-10.6153
反射	-10.6154
濃度	-10.6155
合理的	-10.6155
強制	-10.6155
起きて	-10.6156
最善	-10.6156
公式	-10.6158
ポリオ	-10.616
▁しかしそれ	-10.6164
を集めて	-10.6174
考えていた	-10.6176
不明	-10.6178
ある程度	-10.6181
2007	-10.6182
受け入れる	-10.6184
重さ	-10.6191
について考える	-10.6212
外に出	-10.6218
払って	-10.6225
と信じています	-10.6229
撮影した	-10.6229
少しずつ	-10.6231
喜んで	-10.6232
行われている	-10.6234
立っている	-10.624
魔	-10.6242
スタイル	-10.6245
甲	-10.6245
頻繁に	-10.6245
純粋	-10.6245
ヴェ	-10.6245
おかしい	-10.6245
知らなかった	-10.6246
世界を変え	-10.6247
つあります	-10.6248
ピアノ	-10.6248
起源	-10.6249
理解できる	-10.625
なかったので	-10.6252
を引き起こし	-10.6252
ポスター	-10.6252
必要としている	-10.6254
北部	-10.6256
シャツ	-10.626
ようになって	-10.627
こう言った	-10.628
使えます	-10.628
間違っている	-10.6285
賢	-10.6295
量子	-10.6305
il	-10.6311
完全	-10.6315
済み	-10.6328
知能	-10.6331
こっち	-10.6333
教育を受け	-10.6337
耳を傾け	-10.6339
フィードバック	-10.6339
フェイスブック	-10.6339
渋滞	-10.6339
契約	-10.6339
競技	-10.634
にせよ	-10.634
根拠	-10.6341
農場	-10.6345
形状	-10.6351
関係者	-10.6351
▁この写真は	-10.6353
出現	-10.6354
思	-10.6357
と呼ばれています	-10.6358
効果的な	-10.6364
ニーズ	-10.6365
ッカー	-10.637
出来た	-10.6371
元気	-10.6374
数年前に	-10.6376
海水	-10.6378
出産	-10.6381
やりたい	-10.6382
そこまで	-10.6393
できるようになる	-10.6395
ることもできます	-10.6397
わけではない	-10.64
生み出し	-10.6404
お気に入り	-10.6405
出かけ	-10.6406
必	-10.6412
to	-10.6412
を変えること	-10.6413
よくある	-10.6417
好み	-10.6418
使われている	-10.6418
速い	-10.642
専	-10.642
景	-10.6425
裂	-10.6429
律	-10.643
警	-10.6432
オープンソース	-10.6434
従業員	-10.6434
棚	-10.6434
膝	-10.6434
衣	-10.6434
納得	-10.6435
代謝	-10.6435
便利	-10.6436
取材	-10.6437
送信	-10.6438
強調	-10.6438
激しい	-10.6441
演じ	-10.6444
事柄	-10.6444
取り組んでいます	-10.6444
ed	-10.6446
分散	-10.6446
必要性	-10.6447
行きます	-10.6453
画家	-10.646
私の仕事	-10.6461
まるで	-10.6465
あるいは	-10.6475
を必要とし	-10.648
平均的な	-10.6481
けどね	-10.6483
上がった	-10.6484
1950	-10.6494
安い	-10.65
送られ	-10.6502
増える	-10.6519
はずだ	-10.6523
試してみ	-10.6528
促	-10.6529
五	-10.653
糖尿病	-10.653
ホルモン	-10.6531
潮	-10.6531
遮	-10.6531
先進国	-10.6531
脊髄	-10.6531
保健	-10.6531
階段	-10.6532
スクール	-10.6532
器具	-10.6534
処方	-10.6547
機構	-10.6554
直面している	-10.6556
ローマ	-10.6561
導き	-10.658
支	-10.6584
働いている	-10.6585
発光	-10.6586
誰にも	-10.6587
出来ます	-10.6609
といえば	-10.661
識	-10.6621
を動かし	-10.6623
陽	-10.6627
肌	-10.6627
冠	-10.6628
揃	-10.6628
湿	-10.6628
高齢者	-10.6628
天井	-10.6628
思想	-10.6629
地震	-10.663
放射線	-10.6631
亡くなりました	-10.6636
レイプ	-10.6641
こう言います	-10.6642
違	-10.6646
溶	-10.6654
感じている	-10.6656
正確	-10.6659
ものすごく	-10.6666
ビット	-10.6668
いかない	-10.6669
地表	-10.6671
遅く	-10.6671
利点	-10.6674
見た目	-10.6677
利用できる	-10.6677
魅力的	-10.6687
ch	-10.6688
ウィン	-10.6689
始めています	-10.6693
変えられる	-10.6701
ジム	-10.6701
グラム	-10.6707
読者	-10.6707
ビール	-10.6708
考	-10.6708
合った	-10.6717
サイクル	-10.6718
粒	-10.6721
起きています	-10.6722
を超えて	-10.6724
覗	-10.6726
YouTube	-10.6726
置き換え	-10.6726
といいます	-10.6727
てもらう	-10.6729
及び	-10.6732
週間後	-10.6732
近代	-10.6736
公表	-10.6737
大衆	-10.674
片方	-10.6741
本質的に	-10.6743
ワット	-10.6744
死者	-10.6748
出そうと	-10.6749
もらえる	-10.675
正確な	-10.6754
最中	-10.6756
接触	-10.678
告げ	-10.6784
弱い	-10.6788
思える	-10.6794
ようになったのです	-10.6795
問題解決	-10.6796
チュー	-10.6797
逃れ	-10.6804
交わ	-10.6804
レッド	-10.6813
透明	-10.6817
否	-10.6823
肝	-10.6825
浸	-10.6825
豆	-10.6825
ガソリン	-10.6825
シミュレーション	-10.6825
谷	-10.6825
▁アダム	-10.6825
ストリート	-10.6825
抑制	-10.6825
常識	-10.6825
スイス	-10.6825
素早く	-10.6828
公正	-10.6834
集合	-10.684
我が国	-10.6847
もたらし	-10.6849
有用	-10.6851
何なのか	-10.6852
長生き	-10.6857
知られています	-10.686
確かめ	-10.6863
させられ	-10.6864
政治的な	-10.687
とは違う	-10.6875
考えてください	-10.6877
部隊	-10.6879
ur	-10.6879
を研究し	-10.6885
合わせる	-10.6891
心理学	-10.6895
ンダー	-10.6897
立ち向か	-10.6906
エチオピア	-10.6925
奨	-10.6925
拝	-10.6925
染色体	-10.6925
句	-10.6925
ボストン	-10.6925
尊敬	-10.6925
韓国	-10.6925
暗闇	-10.6925
選ばれ	-10.6925
混ぜ	-10.6925
構想	-10.6926
自律	-10.6927
復活	-10.6927
修正	-10.6927
祈り	-10.6931
ボックス	-10.6934
最小	-10.6935
外れ	-10.6935
やり取り	-10.6937
説明しましょう	-10.6943
留め	-10.6943
標的	-10.6943
グラマー	-10.6944
賢く	-10.6947
バンド	-10.6948
共通点	-10.6955
ローズ	-10.696
各国	-10.6978
をつくり	-10.6983
観点	-10.701
事ができます	-10.7014
仲	-10.7018
偏	-10.7019
194	-10.7022
芸	-10.7025
弟	-10.7025
伸ば	-10.7025
コンセプト	-10.7026
コンテンツ	-10.7026
ポケット	-10.7026
劣	-10.7026
委員会	-10.7026
旗	-10.7026
コロニー	-10.7026
プログラミング	-10.7026
ミッション	-10.7026
積極的	-10.7026
衛生	-10.7027
に満ちた	-10.7027
四角	-10.7027
もう一方	-10.703
共有する	-10.7031
お見せします	-10.7031
地球温暖化	-10.7031
リサイクル	-10.7034
囚人	-10.7036
提示	-10.704
抜き	-10.7044
始まって	-10.7056
ルート	-10.7059
複雑さ	-10.706
繋がってい	-10.7067
理性	-10.7079
ィ	-10.708
ことができない	-10.7084
べく	-10.709
国際的な	-10.7091
そうでない	-10.7101
項	-10.7109
イヤー	-10.7112
騒	-10.7121
になっていました	-10.7123
昇	-10.7123
牧	-10.7127
黙	-10.7127
兄	-10.7127
懐	-10.7128
MRI	-10.7128
▁アンダーソン	-10.7128
キリスト教	-10.7128
スタジオ	-10.7128
一般的に	-10.7128
掴	-10.7128
殻	-10.7128
熱帯雨林	-10.7128
意思	-10.7128
訪問	-10.7128
数学的	-10.7129
見つかる	-10.7129
損失	-10.713
断片	-10.7132
大胆	-10.7132
の中にある	-10.7135
クリスマス	-10.7136
尽くし	-10.7145
緒	-10.7147
ジェット	-10.7152
置かれ	-10.7155
▁自然界	-10.7161
静かに	-10.7163
外部	-10.7164
買った	-10.7167
魅力的な	-10.7168
になれ	-10.7183
ありがとう	-10.7189
ておきます	-10.7191
ケイ	-10.7202
沿	-10.7223
とらえ	-10.7223
と比べて	-10.7225
港	-10.7228
労	-10.7229
災	-10.723
承	-10.723
拒	-10.7231
NGO	-10.7231
Z	-10.7231
ルワンダ	-10.7231
泡	-10.7231
近づく	-10.7231
クラウド	-10.7231
勿論	-10.7231
展覧会	-10.7231
掲載	-10.7231
パズル	-10.7231
豊富	-10.7231
箇所	-10.7231
アウト	-10.7231
宣言	-10.7231
教えてくれました	-10.7235
楽しんで	-10.7236
異なった	-10.7236
苦しんで	-10.7238
ヘッド	-10.7241
と同じくらい	-10.7242
活発	-10.7243
合意	-10.7243
直線	-10.7257
ボード	-10.7257
個性	-10.7264
なければいけない	-10.7272
2005	-10.7281
行ける	-10.7283
の長さ	-10.7288
海面	-10.7291
を高め	-10.7293
考えること	-10.7295
勢い	-10.7303
ガーナ	-10.7306
高速	-10.7311
訪れ	-10.7313
覚えている	-10.732
偉	-10.7335
訊	-10.7335
に依存し	-10.7335
を引き起こす	-10.7335
メカニズム	-10.7335
ワクワク	-10.7335
倫理的	-10.7335
甘	-10.7335
オレンジ	-10.7335
栽培	-10.7335
メーカー	-10.7335
遭遇	-10.7335
▁もしかしたら	-10.7335
尊厳	-10.7335
警官	-10.7336
を生む	-10.7338
まわり	-10.7338
絶望	-10.7338
女王	-10.7338
有害	-10.7343
理解すること	-10.7348
▁だからこそ	-10.7351
下がり	-10.7352
ていきました	-10.7358
てしまい	-10.7367
面白く	-10.738
面白	-10.7381
地域社会	-10.7381
より多く	-10.7402
スタント	-10.7411
を送って	-10.7414
el	-10.7416
読んだ	-10.7418
変異	-10.7419
輸	-10.742
事が出来	-10.742
▁より大きな	-10.7424
ライフ	-10.7435
速さ	-10.7436
絡	-10.7439
アドバイス	-10.744
瓶	-10.744
に基づく	-10.744
壮大な	-10.744
エボラ	-10.744
を遂げ	-10.744
姉妹	-10.744
イスラム教徒	-10.7441
ダウンロード	-10.7441
欲求	-10.7441
収益	-10.7441
▁ご覧の通り	-10.7441
番号	-10.7442
を共有し	-10.7447
絵画	-10.7447
異なります	-10.7447
アメリカ合衆国	-10.7448
控え	-10.7449
パーク	-10.745
になりたい	-10.7452
接種	-10.7458
を守るため	-10.7459
中毒	-10.7462
ェ	-10.7462
ウォール	-10.7462
不要	-10.7462
生み出す	-10.7467
深海	-10.7469
シェル	-10.747
1960	-10.7471
地位	-10.7471
知りませんでした	-10.7472
んだけど	-10.7481
緑色	-10.7483
ことがわかります	-10.7512
をとり	-10.7517
してほしい	-10.7526
明け	-10.7531
撮り	-10.7537
録	-10.754
金額	-10.7541
抱える	-10.7542
させるため	-10.7542
岸	-10.7543
枠	-10.7546
責	-10.7546
ケーブル	-10.7547
傍	-10.7547
看護師	-10.7547
駐車場	-10.7547
に応じて	-10.7547
暑	-10.7547
腰	-10.7547
裸	-10.7547
悲しみ	-10.7547
珍しい	-10.7547
化石燃料	-10.7547
売春	-10.7548
仕掛け	-10.7548
模型	-10.7548
美術	-10.7549
推定	-10.755
足りない	-10.755
出てきます	-10.7553
対称性	-10.7553
低く	-10.7555
内戦	-10.7564
わかっています	-10.7568
利用者	-10.7571
そば	-10.7571
作れます	-10.7573
問う	-10.7578
何千もの	-10.7581
無知	-10.7588
コメディ	-10.7594
一種の	-10.76
一言	-10.7624
に従って	-10.7629
座っている	-10.7631
を使用し	-10.7631
都会	-10.7633
認められ	-10.7636
器官	-10.7638
致	-10.7643
色々	-10.7645
認める	-10.7647
短期	-10.7647
副	-10.7654
履	-10.7654
公衆衛生	-10.7654
宝	-10.7654
架	-10.7654
誠	-10.7654
還	-10.7654
オランダ	-10.7654
ファッション	-10.7654
符	-10.7654
ツイート	-10.7654
トーマス	-10.7654
リソース	-10.7654
タイトル	-10.7654
換	-10.7655
意思決定	-10.7655
年ほど前	-10.7656
という意味です	-10.7659
不平等	-10.7662
運ぶ	-10.7663
ファイル	-10.7676
知っていた	-10.768
に渡る	-10.7685
エリア	-10.7689
何とか	-10.7693
ネット上	-10.7717
私たちにとって	-10.773
de	-10.773
できず	-10.7733
革新的な	-10.7735
疑い	-10.7736
を助ける	-10.775
概	-10.7762
亡くなった	-10.7762
潔	-10.7763
励	-10.7763
没	-10.7763
z	-10.7763
きれいな	-10.7763
パレスチナ	-10.7763
封	-10.7763
嵐	-10.7763
窒	-10.7763
翼	-10.7763
歪	-10.7763
模倣	-10.7763
浮かぶ	-10.7763
幾つか	-10.7764
核融合	-10.7764
排除	-10.7765
模様	-10.7765
苦痛	-10.7765
負担	-10.7766
泳ぎ	-10.7766
光栄	-10.7766
結構	-10.7767
てはいけません	-10.7767
子孫	-10.777
重視	-10.7773
居場所	-10.7781
ビーチ	-10.7781
元々	-10.7784
数多く	-10.7787
無意識	-10.7791
食べた	-10.7793
特殊な	-10.7799
似ている	-10.7802
よりよい	-10.7843
話すこと	-10.7847
しようとしている	-10.7847
ピーク	-10.7852
付いた	-10.7854
伝えたい	-10.7868
吸い	-10.7869
裁	-10.7871
浄	-10.7873
ツイッター	-10.7873
パフォーマンス	-10.7873
机	-10.7873
素晴らしく	-10.7873
サイエンス	-10.7873
ボトル	-10.7873
診察	-10.7873
と呼びます	-10.7874
砂糖	-10.7874
想定	-10.788
楽しく	-10.7887
不安定	-10.7887
項目	-10.7893
はありますが	-10.7893
心理学者	-10.7906
可能になる	-10.7916
強力	-10.7916
地球規模	-10.7917
へ行き	-10.792
まだまだ	-10.7933
全く新しい	-10.7935
死んでしま	-10.7944
出来ません	-10.7945
ce	-10.7951
任せ	-10.796
を利用する	-10.7965
挙	-10.7967
問題を解決する	-10.7967
勝つ	-10.797
あると思います	-10.7973
マーケティング	-10.7984
丁	-10.7984
畑	-10.7984
祭	-10.7984
徹底	-10.7984
スタンフォード	-10.7984
寛容	-10.7984
敬意	-10.7985
調和	-10.7986
毎週	-10.7987
ないでください	-10.7988
侵入	-10.7988
市長	-10.7989
お話ししましょう	-10.7991
小規模	-10.7992
の多くが	-10.7994
劇的に	-10.7994
争い	-10.7995
5000	-10.7998
その中で	-10.7998
com	-10.8002
科学者たち	-10.801
導く	-10.8023
を残し	-10.8041
笑顔	-10.8047
世間	-10.8049
900	-10.8065
ってしまいます	-10.8065
訪れた	-10.8075
非常に重要な	-10.8079
訪れる	-10.8086
創作	-10.809
興	-10.8093
河	-10.8095
奇	-10.8095
腐	-10.8096
委	-10.8096
泥	-10.8096
陣	-10.8096
CEO	-10.8096
マンハッタン	-10.8096
amp	-10.8096
マグロ	-10.8096
仮定	-10.81
学ぶこと	-10.8104
つかない	-10.8105
一切	-10.8106
IT	-10.8113
プレイ	-10.8121
訳ではありません	-10.8123
ョ	-10.8128
全世界	-10.8133
ピンク	-10.8135
形成され	-10.8144
を救う	-10.8147
恐	-10.8162
影響を与える	-10.8167
工業	-10.8168
視力	-10.8181
運んで	-10.8182
不快	-10.8193
関わる	-10.8199
肢	-10.8208
ノルウェー	-10.821
マーケット	-10.821
ユーモア	-10.821
幕	-10.821
チャールズ	-10.821
治験	-10.821
比喩	-10.821
財政	-10.821
つなぎ	-10.821
宣伝	-10.821
有益	-10.8211
もあれば	-10.8212
組み込まれ	-10.8212
ビッグ	-10.8213
電球	-10.8214
水準	-10.8214
un	-10.8215
ライオン	-10.8216
兆ドル	-10.8217
職員	-10.8217
us	-10.8218
方針	-10.822
やってきて	-10.8222
先週	-10.8224
ドレス	-10.8228
両者	-10.8231
受け入れられ	-10.8247
受信	-10.8248
数百万	-10.8262
向いて	-10.828
ことができません	-10.8292
お伝えしたい	-10.8293
思っていました	-10.8309
クリーン	-10.8312
黄	-10.8316
踊り	-10.8322
沢	-10.8323
摂	-10.8324
1,000	-10.8325
に基づいた	-10.8325
キノコ	-10.8325
思いつきました	-10.8325
関節	-10.8325
統治	-10.8326
名誉	-10.8326
相互作用	-10.8326
資料	-10.8326
学べる	-10.8326
健全	-10.8326
叫び	-10.8326
ing	-10.8327
相談	-10.8327
kg	-10.8328
居住	-10.8328
信じられ	-10.8329
心臓病	-10.833
劇場	-10.8333
老人	-10.8333
パイプ	-10.8334
バージョン	-10.8337
気球	-10.8338
タウン	-10.8341
廃棄物	-10.8341
バブル	-10.8342
フォン	-10.8344
植	-10.8349
が大好きです	-10.8352
外側	-10.8357
愚か	-10.836
都市部	-10.8361
てみよう	-10.8366
ようになっています	-10.8373
を育てる	-10.8386
の名前を	-10.8391
ol	-10.8396
こういった	-10.8397
▁従って	-10.8398
獲得	-10.8423
叫	-10.8439
糖	-10.844
御	-10.844
審	-10.8441
庫	-10.8441
逸	-10.8441
究極の	-10.8441
グラフィック	-10.8441
振り返って	-10.8441
見事な	-10.8442
独裁	-10.8442
欧州	-10.8442
掲げ	-10.8443
ソーシャルメディア	-10.8443
神秘	-10.8445
首相	-10.8445
横断	-10.8446
帝国	-10.8446
発電所	-10.8449
cm	-10.845
行けば	-10.8455
実験室	-10.8455
翌日	-10.8456
を使うこと	-10.8457
ro	-10.8461
遊んで	-10.8471
また別の	-10.8472
離れてい	-10.848
疲れ	-10.8487
を設立し	-10.8492
かかわ	-10.8493
哲学者	-10.851
されており	-10.8513
借	-10.8519
奇妙	-10.8522
必要はない	-10.8538
覆われ	-10.855
もたらされ	-10.8556
威	-10.8557
させられる	-10.8557
援	-10.8558
虚	-10.8559
釣	-10.8559
タイミング	-10.8559
慎	-10.8559
敷	-10.8559
プラットフォーム	-10.8559
磨	-10.8559
綿	-10.8559
鯨	-10.8559
▁The	-10.8559
大臣	-10.8559
沿岸	-10.8559
沈黙	-10.8559
開催	-10.856
補助	-10.856
ラクダ	-10.8561
つなげ	-10.8561
▁BF	-10.8562
縮小	-10.8563
サポート	-10.8564
バッグ	-10.8564
照明	-10.8565
通貨	-10.8565
小屋	-10.8566
対抗	-10.8567
思いついた	-10.8568
動いている	-10.857
ジェーン	-10.8571
ハイチ	-10.8571
好む	-10.8572
専用	-10.8576
手に入る	-10.8576
テント	-10.8586
使命	-10.8588
知っていました	-10.8589
強化	-10.8595
フォード	-10.86
無かった	-10.8601
を創り	-10.8607
つけられ	-10.8611
の様子です	-10.8617
似たような	-10.8628
ぜ	-10.8646
年以内に	-10.8655
暮	-10.8666
ように見える	-10.8671
己	-10.8676
即	-10.8677
ウガンダ	-10.8678
縛	-10.8678
奴	-10.8678
記述	-10.8678
睡眠	-10.8678
二度と	-10.8678
賃金	-10.8679
ギャップ	-10.868
任務	-10.868
てほしい	-10.8682
税金	-10.8683
切断	-10.8685
に至るまで	-10.8685
195	-10.8688
小惑星	-10.8689
凄い	-10.8693
彼女達	-10.8694
ミーム	-10.8696
1970	-10.8707
背中	-10.8709
各地	-10.8709
続けている	-10.8721
ことがわかりました	-10.8724
開かれ	-10.8743
の一員	-10.8748
求	-10.8757
与えてくれ	-10.8761
ようとしている	-10.8773
働きかけ	-10.8779
廃棄	-10.8781
気付き	-10.8791
打ち上げ	-10.8792
納	-10.8797
免	-10.8798
乾燥	-10.8798
RNA	-10.8798
ターゲット	-10.8798
テキサス	-10.8798
敏	-10.8798
斜	-10.8798
繰り返す	-10.8798
豪	-10.8798
ヵ	-10.8798
書かれた	-10.8798
とはいえ	-10.8799
トレーニング	-10.8799
記念	-10.8801
論争	-10.8801
類似	-10.8801
諦め	-10.8801
判明し	-10.8802
視野	-10.8802
スケッチ	-10.8802
多少	-10.8802
根絶	-10.8803
基地	-10.8808
教えてくれる	-10.8808
保全	-10.8809
火山	-10.8812
を元に	-10.8816
治療を受け	-10.8822
行進	-10.8823
させてください	-10.8823
木々	-10.8823
繋がる	-10.8835
心の中	-10.8838
路上	-10.8852
天体	-10.8864
発展させ	-10.8864
をもとに	-10.887
応え	-10.8871
を高める	-10.8878
ヶ	-10.8916
雄	-10.892
いらっしゃる	-10.892
コロンビア	-10.892
ロサンゼルス	-10.892
盟	-10.892
籍	-10.892
ハリウッド	-10.892
心臓発作	-10.892
忠	-10.892
悲惨な	-10.892
矢	-10.892
霊	-10.892
リベラル	-10.892
吐	-10.892
解剖	-10.892
ワールド	-10.892
滞在	-10.8921
親友	-10.8924
義足	-10.8927
わかり	-10.893
飲む	-10.8931
同等	-10.8931
支出	-10.8932
幸運にも	-10.8937
ないといけない	-10.8939
働いています	-10.8939
頂点	-10.8944
燃え	-10.8949
盲目	-10.8958
and	-10.8961
ることができた	-10.8971
グローバル化	-10.8983
こういうこと	-10.8983
いけません	-10.8987
を支える	-10.8989
吹	-10.9034
栄	-10.9039
耕	-10.9044
跳	-10.9044
プリント	-10.9044
スマートフォン	-10.9044
蚊帳	-10.9044
最良の	-10.9044
掃除	-10.9044
網膜	-10.9044
人種差別	-10.9044
から始めましょう	-10.9045
家畜	-10.9046
▁DH	-10.9046
できている	-10.9047
証言	-10.9047
にすぎません	-10.9047
西部	-10.9052
試合	-10.9063
辞め	-10.9064
出会う	-10.9066
いただく	-10.9066
若い女性	-10.907
プール	-10.9074
お腹	-10.9084
ヴァン	-10.9105
見つけられ	-10.9117
させようと	-10.9153
だと思っています	-10.916
表示され	-10.9168
バッテリー	-10.9169
仏	-10.9169
最先端	-10.9169
アニメーション	-10.9169
コンクリート	-10.9169
崖	-10.9169
帽	-10.9169
忙	-10.9169
芽	-10.9169
精神疾患	-10.9169
絶えず	-10.9169
楽しむ	-10.9169
エリート	-10.9169
季節	-10.9169
永久	-10.9169
欧米	-10.9169
武装	-10.9169
▁ブルーノ	-10.9169
摂取	-10.917
地下鉄	-10.917
余裕	-10.917
フレーム	-10.9171
残念なことに	-10.9172
モーター	-10.9178
ねぇ	-10.9179
崩れ	-10.9204
私のお気に入り	-10.9207
に値する	-10.9231
▁それ以外	-10.9238
を観察し	-10.927
待っている	-10.9281
祖	-10.9283
を愛し	-10.9283
票	-10.9294
幻	-10.9295
パイロット	-10.9295
教科書	-10.9295
振る舞い	-10.9295
剥	-10.9295
トンネル	-10.9295
ノイズ	-10.9295
パネル	-10.9295
英雄	-10.9295
にわたる	-10.9296
洞察	-10.9296
掛かり	-10.9296
繰り	-10.9297
給料	-10.9298
OK	-10.93
道のり	-10.9302
主導	-10.9303
うまくいく	-10.9304
明白	-10.9306
実証	-10.9308
別れ	-10.9308
自動的に	-10.9309
呼ぶ	-10.9311
経ち	-10.9313
回収	-10.9313
話しかけ	-10.9316
精度	-10.9318
じっと	-10.9321
を形成し	-10.9358
行政	-10.9399
翌	-10.9407
模	-10.9418
濃	-10.9419
挑	-10.9422
棄	-10.9423
遂	-10.9423
周波数	-10.9423
宮	-10.9423
添	-10.9423
穏	-10.9423
共和党	-10.9423
又	-10.9423
緯	-10.9423
腎臓	-10.9423
オリンピック	-10.9423
著作権	-10.9423
マイナス	-10.9423
マジック	-10.9423
うつ病	-10.9423
西欧	-10.9424
飛躍	-10.9424
防衛	-10.9424
あんた	-10.9424
ビッグバン	-10.9424
やりとり	-10.9424
楽観的	-10.9424
新興	-10.9426
折り紙	-10.9426
階層	-10.9427
天才	-10.9428
複合	-10.9431
結核	-10.9435
に住んでいます	-10.9437
親切	-10.9438
限られた	-10.9439
正解	-10.9439
っちゃ	-10.9449
大西洋	-10.9449
優秀	-10.9469
中国語	-10.9478
ここ数年	-10.9484
たいと思っています	-10.9492
ブラック	-10.9512
景色	-10.9543
対称	-10.9549
釈	-10.9551
ドラッグ	-10.9553
砕	-10.9553
ユダヤ人	-10.9553
乏	-10.9553
絆	-10.9553
とは限りません	-10.9553
清掃	-10.9553
模索	-10.9553
サンゴ礁	-10.9553
運ばれ	-10.9554
拒否	-10.9554
企画	-10.9554
貯蔵	-10.9554
▁もしあなたが	-10.9554
人工知能	-10.9554
憲法	-10.9554
条約	-10.9556
格好	-10.9559
検知	-10.956
殺害	-10.956
データベース	-10.956
保有	-10.9563
メタン	-10.9565
技術革新	-10.957
裁判所	-10.957
数々の	-10.9575
宇宙船	-10.9589
とても興味深い	-10.9609
全く違う	-10.962
倒れ	-10.9645
目で見	-10.9657
に連れて	-10.9668
ゴルフ	-10.9668
を避ける	-10.967
到	-10.968
条	-10.9681
織	-10.9684
影響を及ぼし	-10.9685
往	-10.9685
桁	-10.9685
溝	-10.9685
潰	-10.9685
誓	-10.9685
鉛	-10.9685
勇敢	-10.9685
皿	-10.9685
勘	-10.9685
簡潔	-10.9685
蛍光	-10.9685
緩和	-10.9685
遠隔	-10.9686
連鎖	-10.9686
除去	-10.9688
面倒	-10.969
産業革命	-10.969
じゃありません	-10.9691
騒音	-10.9693
教員	-10.9693
不可	-10.9694
入院	-10.9698
デート	-10.9704
をつくる	-10.9704
受け取り	-10.9707
学生たち	-10.971
てきています	-10.9714
呼びかけ	-10.9724
映し出	-10.9732
のあり方	-10.9732
個別	-10.9752
に加えて	-10.9753
ag	-10.978
も必要です	-10.979
歩道	-10.9795
ァ	-10.9796
媒	-10.9811
遭	-10.9818
フェミニスト	-10.9818
脇	-10.9818
漂	-10.9818
診療所	-10.9818
シリーズ	-10.9818
トランス	-10.9818
胎児	-10.9819
▁ブラウン	-10.9819
とは言えません	-10.9819
考案	-10.9819
民主的	-10.982
未満	-10.9822
持てる	-10.9822
当たる	-10.9823
ご紹介しましょう	-10.9824
協会	-10.9825
読み書き	-10.9827
調理	-10.9828
書類	-10.9829
目を向け	-10.9831
用いられ	-10.9851
が発生し	-10.9876
取れる	-10.9892
を連れて	-10.991
辞	-10.993
作れ	-10.994
巨	-10.9947
益	-10.995
ter	-10.995
ユニーク	-10.9953
凡	-10.9953
国立公園	-10.9953
漏	-10.9953
芝	-10.9953
謀	-10.9953
FBI	-10.9953
コンドーム	-10.9953
揚	-10.9953
滴	-10.9953
熊	-10.9953
身近な	-10.9953
トルコ	-10.9954
阻止	-10.9954
塩基	-10.9954
シンボル	-10.9954
捕まえ	-10.9954
核兵器	-10.9955
夫婦	-10.9955
とは思いません	-10.9956
タイタン	-10.9957
決意	-10.9957
ダイヤ	-10.9958
先祖	-10.9958
社交	-10.9962
悪化し	-10.9962
▁それ以来	-10.9963
震え	-10.9977
輸出	-10.9978
加工	-10.998
これら全て	-10.9987
深刻	-10.9991
から抜け出	-11.0006
大事なこと	-11.0008
使わない	-11.0017
マルチ	-11.0037
届き	-11.0064
永	-11.009
冷蔵庫	-11.009
泊	-11.009
雷	-11.009
オーケストラ	-11.009
ナショナル	-11.009
扉	-11.009
NSA	-11.009
ハイテク	-11.009
具体的に	-11.009
間違え	-11.009
カロリー	-11.009
児童	-11.009
肝臓	-11.009
原始的	-11.0091
虐待	-11.0091
肥料	-11.0091
に従う	-11.0092
野球	-11.0093
お話ししたいと思います	-11.0094
はありますか	-11.0095
団結	-11.0096
上司	-11.01
おわかり	-11.0106
チューブ	-11.0107
必死	-11.0117
どんなものか	-11.0132
に恵まれ	-11.0136
投げかけ	-11.0141
お陰で	-11.015
に至る	-11.0194
取られ	-11.0206
日常生活	-11.0223
闇	-11.0229
逮捕され	-11.0229
鋭	-11.0229
卓	-11.0229
戒	-11.0229
鶏	-11.0229
宇宙飛行士	-11.0229
シフト	-11.0229
ガイド	-11.0229
を訪ね	-11.0229
邪魔	-11.0229
操縦	-11.023
小麦	-11.023
ぴったり	-11.023
副作用	-11.023
ともかく	-11.023
整備	-11.0231
が得られます	-11.0231
ショップ	-11.0232
技能	-11.0232
習得	-11.0232
意欲	-11.0233
泳ぐ	-11.0233
磁石	-11.0233
聴覚	-11.0234
にさらされ	-11.0234
修理	-11.0234
再構築	-11.0234
▁ご覧のように	-11.0235
著書	-11.0235
切除	-11.0237
を測る	-11.0238
合計	-11.0241
開放	-11.0241
なくちゃ	-11.0247
自分の人生	-11.0257
やって来て	-11.0315
服を着	-11.0321
チャレンジ	-11.0348
保護区	-11.035
を挙げて	-11.0355
パパ	-11.0362
恵	-11.0366
因子	-11.0367
酔	-11.037
哀	-11.037
憂	-11.037
錠	-11.037
頭蓋骨	-11.037
ダイエット	-11.037
チョコレート	-11.037
デイビッド	-11.037
孔	-11.037
砲	-11.037
随	-11.037
麗	-11.037
気付く	-11.037
分泌	-11.037
デレク	-11.037
狩猟	-11.037
終わらせ	-11.037
だんだん	-11.037
第二次世界大戦	-11.037
美味し	-11.037
欠陥	-11.0371
高速道路	-11.0371
スコア	-11.0371
規範	-11.0372
存続	-11.0372
系統	-11.0373
を超えた	-11.0373
クラゲ	-11.0373
NY	-11.0374
知り合い	-11.0374
サッカー	-11.0375
懸	-11.0512
淡	-11.0513
湧	-11.0513
譜	-11.0513
郡	-11.0513
噛	-11.0513
棲	-11.0513
寿	-11.0651
覧	-11.0655
敬	-11.0657
紀	-11.0657
晒	-11.0658
貝	-11.0658
駐	-11.0658
骸	-11.0658
凝	-11.0658
飽	-11.0658
替	-11.0768
祈	-11.0796
洞	-11.0804
尻	-11.0805
乾	-11.0805
憎	-11.0805
撤	-11.0805
札	-11.0805
掛	-11.0861
諸	-11.0916
将	-11.0952
緩	-11.0954
彫	-11.0954
姉	-11.0954
疫	-11.0954
贈	-11.0954
僅	-11.0954
塔	-11.0954
寂	-11.0954
ォ	-11.1082
肥	-11.1104
催	-11.1105
邪	-11.1105
狩	-11.1106
稀	-11.1106
[	-11.1106
尺	-11.1106
嗅	-11.1106
旋	-11.1106
準	-11.1252
摘	-11.1258
田	-11.1259
塞	-11.1259
舗	-11.1259
醜	-11.1259
ャ	-11.137
震	-11.1384
囚	-11.1399
廷	-11.1416
晴	-11.1416
枯	-11.1416
殿	-11.1416
缶	-11.1416
筒	-11.1416
尾	-11.1573
弦	-11.1574
銭	-11.1574
兼	-11.1574
岐	-11.1574
竹	-11.1574
譲	-11.1574
隙	-11.1574
鼓	-11.1574
査	-11.1733
剣	-11.1735
烈	-11.1736
寸	-11.1736
妬	-11.1736
託	-11.1736
鑑	-11.1736
儲	-11.1736
航	-11.1893
宣	-11.1898
夕	-11.1898
京	-11.1899
況	-11.1899
尿	-11.19
庁	-11.19
彩	-11.19
挿	-11.19
陥	-11.1997
功	-11.2064
髄	-11.2066
券	-11.2066
秋	-11.2066
糞	-11.2066
啓	-11.2066
粘	-11.2234
敗	-11.2234
希	-11.2235
臨	-11.2235
遇	-11.2236
ぺ	-11.2236
汗	-11.2236
渇	-11.2236
臓	-11.2383
滞	-11.2407
搾	-11.2408
据	-11.2408
健	-11.2581
久	-11.2584
忍	-11.2584
蛇	-11.2584
俗	-11.2584
奉	-11.2584
罹	-11.2584
苛	-11.2584
駅	-11.2584
耐	-11.2623
ゃ	-11.2704
衝	-11.276
索	-11.2761
仰	-11.2762
礁	-11.2762
紡	-11.2762
蜜	-11.2762
~	-11.2762
賊	-11.2762
痕	-11.2762
瞬	-11.2922
虐	-11.2938
垂	-11.2942
浪	-11.2944
+	-11.2944
紫	-11.2944
陶	-11.2944
丈	-11.2944
併	-11.3129
六	-11.3129
堅	-11.3129
朗	-11.3129
蹴	-11.3129
壇	-11.3129
凄	-11.3294
銀	-11.3314
霧	-11.3318
飯	-11.3318
胚	-11.3318
胞	-11.3509
帳	-11.351
沸	-11.351
爪	-11.351
顕	-11.351
廊	-11.351
搬	-11.351
由	-11.37
透	-11.3704
里	-11.3706
歓	-11.3706
俳	-11.3706
沖	-11.3706
征	-11.3706
瞑	-11.3706
騙	-11.3706
徳	-11.3904
池	-11.3905
怠	-11.3906
猛	-11.3906
鋼	-11.3906
塵	-11.3906
溜	-11.3906
謝	-11.4105
簡	-11.4109
憶	-11.411
僧	-11.411
弓	-11.411
溺	-11.411
ゅ	-11.411
召	-11.411
棟	-11.411
藤	-11.411
泉	-11.4319
伏	-11.4319
浜	-11.4319
喘	-11.4319
憩	-11.4319
叔	-11.453
寛	-11.4531
批	-11.4531
捜	-11.4531
鎮	-11.4532
愉	-11.4532
妄	-11.4532
柄	-11.4727
井	-11.4747
柔	-11.4749
軟	-11.4749
垣	-11.4749
舌	-11.4749
浅	-11.4749
痘	-11.4749
綴	-11.4749
蓋	-11.4749
擬	-11.4749
栓	-11.4749
畳	-11.4749
紐	-11.4749
則	-11.4967
紛	-11.4971
括	-11.4971
伺	-11.4971
城	-11.4971
憧	-11.4971
疎	-11.4971
窮	-11.4971
縫	-11.4971
茂	-11.4971
融	-11.5193
脊	-11.5198
腔	-11.5198
傑	-11.5198
曰	-11.5198
漕	-11.5198
獣	-11.5198
蓄	-11.5223
抑	-11.5226
革	-11.5351
胆	-11.5421
杯	-11.5424
稿	-11.543
壮	-11.5431
軒	-11.5431
呪	-11.5431
喋	-11.5431
潤	-11.5431
胃	-11.5431
鳩	-11.5431
枢	-11.5431
阻	-11.5668
博	-11.5668
純	-11.5669
八	-11.5669
牢	-11.5669
銅	-11.5669
粗	-11.5669
欧	-11.591
武	-11.5911
緊	-11.5911
渦	-11.5913
貌	-11.5913
湯	-11.5913
訪	-11.6036
拡	-11.615
畜	-11.6158
卒	-11.6159
係	-11.6163
縄	-11.6163
寺	-11.6163
赦	-11.6163
杖	-11.6163
胎	-11.6419
佐	-11.6419
雅	-11.6419
喧	-11.6419
羅	-11.6419
赴	-11.6419
峡	-11.6419
摩	-11.6419
刷	-11.6682
ぷ	-11.6683
綱	-11.6683
蔑	-11.6683
喚	-11.6683
斬	-11.6683
陳	-11.6683
牡	-11.6683
猟	-11.6953
刃	-11.6953
喉	-11.6953
憤	-11.6953
亜	-11.6953
喝	-11.6953
噂	-11.6953
挫	-11.6953
槽	-11.6953
澄	-11.6953
顎	-11.6953
雌	-11.6953
以	-11.7135
展	-11.7221
径	-11.7229
勉	-11.7229
菜	-11.723
奮	-11.723
梱	-11.7231
狼	-11.7231
坂	-11.7231
松	-11.7231
皇	-11.7231
紋	-11.7231
箋	-11.7231
苗	-11.7231
婆	-11.7231
療	-11.7508
暇	-11.7516
涼	-11.7516
呈	-11.7516
帆	-11.7516
叢	-11.7516
灌	-11.7516
蛮	-11.7516
企	-11.7808
珍	-11.7808
姦	-11.781
蘇	-11.781
膵	-11.781
慣	-11.795
帝	-11.8099
粋	-11.8113
眉	-11.8113
笛	-11.8113
讃	-11.8113
柵	-11.8113
珠	-11.8113
販	-11.8425
ぴ	-11.8425
培	-11.8425
睡	-11.8425
季	-11.8426
漑	-11.8426
瓦	-11.8426
蚕	-11.8426
諾	-11.8426
亀	-11.8426
咲	-11.8426
濡	-11.8426
姫	-11.8426
懲	-11.8426
疹	-11.8426
悔	-11.8737
尋	-11.8739
衛	-11.8741
宅	-11.8745
択	-11.8747
舎	-11.8748
吊	-11.8749
滝	-11.8749
碑	-11.8749
虜	-11.8749
蝶	-11.8749
訛	-11.8749
鍋	-11.8749
j	-11.8749
’	-11.8749
刈	-11.8749
罠	-11.8749
盲	-11.8978
焦	-11.9076
誉	-11.9079
妥	-11.9081
欺	-11.9082
濫	-11.9082
凧	-11.9082
疲	-11.9289
賃	-11.9424
偶	-11.9426
恩	-11.9427
梁	-11.9427
郎	-11.9427
隻	-11.9427
#	-11.9427
卿	-11.9427
曾	-11.9427
牙	-11.9427
崩	-11.9682
憲	-11.9781
鈍	-11.9784
虹	-11.9784
七	-11.9784
絹	-11.9784
瞳	-11.9784
糧	-12.0152
郷	-12.0154
慰	-12.0154
漬	-12.0154
臆	-12.0154
頓	-12.0154
卑	-12.0154
宙	-12.0154
宛	-12.0154
挟	-12.0154
畏	-12.0154
肘	-12.0154
鍛	-12.0154
舵	-12.0154
薦	-12.0154
昏	-12.0154
恒	-12.0537
掃	-12.0538
銘	-12.0539
凶	-12.0539
耗	-12.0539
寧	-12.0539
寮	-12.0539
欄	-12.0539
胴	-12.0539
蟻	-12.0539
戯	-12.0539
掻	-12.0539
貞	-12.0539
鷹	-12.0539
幽	-12.0539
喫	-12.0939
該	-12.0939
@	-12.0939
堕	-12.0939
姪	-12.0939
癖	-12.0939
罵	-12.0939
釘	-12.0939
閃	-12.0939
鞭	-12.0939
咳	-12.0939
惧	-12.0939
斉	-12.0939
旨	-12.0939
漢	-12.0939
馴	-12.0939
惜	-12.0939
錯	-12.1355
竜	-12.1355
囁	-12.1355
尚	-12.1355
賜	-12.1355
刀	-12.1355
呂	-12.1355
斧	-12.1355
遷	-12.1355
×	-12.1355
沼	-12.1355
逐	-12.1355
鞍	-12.1355
頬	-12.1355
悼	-12.1356
惚	-12.1356
輩	-12.1356
騎	-12.1356
供	-12.1785
趣	-12.1789
ぉ	-12.179
墜	-12.179
筈	-12.179
嫁	-12.179
沙	-12.179
偵	-12.179
憑	-12.179
撒	-12.179
酵	-12.2244
宗	-12.2244
脆	-12.2244
貪	-12.2245
股	-12.2245
錬	-12.2245
塑	-12.2245
斑	-12.2245
荘	-12.2245
鐘	-12.2245
‐	-12.2245
•	-12.2245
匠	-12.2245
醸	-12.2245
髭	-12.2245
只	-12.2245
埃	-12.2245
曽	-12.2245
濁	-12.2245
糊	-12.2245
ぇ	-12.2681
喩	-12.272
徹	-12.272
唇	-12.2721
曇	-12.2721
嚢	-12.2721
暦	-12.2721
紅	-12.2721
鉢	-12.2721
盆	-12.2721
伸	-12.3216
堆	-12.322
鹿	-12.322
剃	-12.3221
袖	-12.3221
郭	-12.3221
鋳	-12.3221
坑	-12.3221
閣	-12.3221
曝	-12.3221
伯	-12.3221
幸	-12.3716
ぽ	-12.3744
述	-12.3746
需	-12.3746
凌	-12.3747
盾	-12.3747
稲	-12.3747
貰	-12.3747
謳	-12.3747
隆	-12.3747
玩	-12.3747
褐	-12.3747
轄	-12.3747
忘	-12.4149
麦	-12.4301
研	-12.4302
敢	-12.4303
煩	-12.4303
靭	-12.4303
乞	-12.4303
呆	-12.4303
邸	-12.4303
塀	-12.4303
捻	-12.4303
枕	-12.4303
縞	-12.4303
九	-12.4303
忌	-12.4303
扇	-12.4303
稜	-12.4303
篤	-12.4303
蛾	-12.4303
那	-12.4303
ぱ	-12.4863
刊	-12.4891
吉	-12.4891
煮	-12.4891
累	-12.4891
繕	-12.4891
錐	-12.4891
壕	-12.4891
慨	-12.4891
煽	-12.4891
艇	-12.4891
艦	-12.4891
萎	-12.4891
舟	-12.4891
蝕	-12.4891
弊	-12.4891
旬	-12.4891
籠	-12.4891
拳	-12.5516
掌	-12.5516
吟	-12.5516
沃	-12.5516
淵	-12.5516
甥	-12.5516
傘	-12.5516
班	-12.5516
簿	-12.5516
濾	-12.5516
豊	-12.6141
勇	-12.6173
徴	-12.6181
秀	-12.6182
勧	-12.6821
誕	-12.6893
愚	-12.7428
匂	-12.7619
繰	-12.7651
童	-12.7666
礎	-12.7666
控	-12.8427
討	-12.8498
険	-12.8498
府	-12.8499
伐	-12.8499
倣	-12.8499
些	-12.85
把	-12.9408
僚	-13.0406
憐	-13.0409
験	-13.1499
掲	-13.1502
晶	-13.1518
唯	-13.2743
駄	-13.2762
蛍	-13.2766
腎	-13.277
ゥ	-13.3985
穀	-13.4185
析	-13.4187
哲	-13.4193
訓	-13.4197
殊	-13.4198
督	-13.4198
渋	-13.4198
迎	-13.5749
捨	-13.5828
契	-13.5863
詳	-13.786
克	-13.7864
玄	-13.7865
倉	-13.7865
窟	-13.7865
坊	-13.7865
賭	-14.0321
戚	-14.0363
拓	-14.0364
q	-14.0364
酬	-14.0364
謙	-14.0365
詐	-14.0365
稚	-14.0365
眺	-14.3563
抽	-14.3589
箇	-14.3692
喪	-14.3697
穫	-14.3698
矛	-14.3698
諦	-14.8536
械	-14.8625
韓	-14.8685
臣	-14.8691
昆	-14.8698
須	-14.8698
燥	-14.8698
隷	-14.8698
扁	-14.8698
桃	-14.8698
爬	-15.847
暫	-15.8471
蛋	-15.8472
晰	-15.8473
閾	-15.8474
醒	-15.8475
虔	-15.8476
繍	-15.8477
渓	-15.8478
楕	-15.8479
寓	-15.848
讐	-15.8481
蜘	-15.8482
蛛	-15.8483
菓	-15.8484
膏	-15.8485
峙	-15.8486
汝	-15.8487
妖	-15.8488
吠	-15.8489
倹	-15.849
膀	-15.8491
胱	-15.8492
纂	-15.8493
遙	-15.8494
洒	-15.8495
彙	-15.8496
紳	-15.8497
瀬	-15.8498
娩	-15.8499
堪	-15.85
馳	-15.8501
溢	-15.8502
鹸	-15.8502
饉	-15.8503
礫	-15.8504
戮	-15.8505
呑	-15.8506
僻	-15.8507
侶	-15.8508
矯	-15.8509
痩	-15.851
甚	-15.8511
盪	-15.8512
勃	-15.8513
陪	-15.8514
蒙	-15.8515
騰	-15.8516
蔭	-15.8517
蠣	-15.8518
聡	-15.8519
汲	-15.852
斐	-15.8521
傲	-15.8522
采	-15.8523
嘩	-15.8524
粧	-15.8525
於	-15.8526
肯	-15.8527
椎	-15.8528
焉	-15.8529
淘	-15.853
愕	-15.8531
牽	-15.8532
汎	-15.8533
措	-15.8534
泄	-15.8535
葛	-15.8536
拭	-15.8537
贅	-15.8538
娯	-15.8539
挨	-15.854
拶	-15.8541
綻	-15.8542
痢	-15.8543
瀕	-15.8544
這	-15.8545
綺	-15.8546
慌	-15.8547
°	-15.8548
享	-15.8549
訣	-15.855
祉	-15.8551
擦	-15.8552
拷	-15.8553
拐	-15.8554
沌	-15.8555
怯	-15.8556
瞭	-15.8557
瑚	-15.8558
珊	-15.8559
迅	-15.856
雰	-15.8561
諜	-15.8562
隕	-15.8563
郵	-15.8564
曖	-15.8565
昧	-15.8566
崇	-15.8567
_	-15.8568
肖	-15.8569
汰	-15.857
殴	-15.8571
嫉	-15.8572
披	-15.8573
叶	-15.8574
侮	-15.8575
洪	-15.8576
賂	-15.8577
擁	-15.8578
]	-15.8579
褒	-15.858
津	-15.8581
撲	-15.8582
硫	-15.8583
唆	-15.8584
訟	-15.8585
旦	-15.8586
預	-15.8587
拘	-15.8588
彗	-15.8589
幣	-15.859
衡	-15.8591
蔓	-15.8592
是	-15.8593
莫	-15.8594
嘆	-15.8595
搭	-15.8596
濯	-15.8597
悟	-15.8598
辱	-15.8599
餓	-15.86
肪	-15.8601
捧	-15.8602
貿	-15.8603
翻	-15.8604
狙	-15.8605
痺	-15.8606
厄	-15.8607
閲	-15.8608
−	-15.8609
逮	-15.861
秩	-15.8611
壌	-15.8612
冗	-15.8613
循	-15.8614
辿	-15.8615
徐	-15.8616
妨	-15.8617
涯	-15.8618
嬉	-15.8619
哺	-15.862
惹	-15.8621
如	-15.8622
娠	-15.8623
郊	-15.8624
漫	-15.8625
殆	-15.8626
午	-15.8627
飢	-15.8628
繊	-15.8629
顧	-15.863
〜	-15.8631
頻	-15.8632
剰	-15.8633
践	-15.8634
泣	-15.8635
渉	-15.8636
軌	-15.8637
了	-15.8638
孤	-15.8639
倫	-15.864
椅	-15.8641
揮	-15.8642
購	-15.8643
曜	-15.8644
停	-15.8645
貢	-15.8646
慈	-15.8647
誇	-15.8648
稼	-15.8649
犠	-15.865
牲	-15.8651
漠	-15.8652
央	-15.8653
瘍	-15.8654
妊	-15.8655
殖	-15.8656
詰	-15.8657
伴	-15.8658
璧	-15.8659
招	-15.866
申	-15.8661
～	-15.8662
努	-15.8663
抵	-15.8664
雇	-15.8665
疾	-15.8666
魅	-15.8667
捉	-15.8668
膨	-15.8669
昨	-15.867
邦	-15.8671
較	-15.8671
依	-15.8672
押	-15.8673
般	-15.8674
囲	-15.8675
紹	-15.8676
康	-15.8677
♪	-15.8678
障	-15.8679
普	-15.868
』	-15.8681
♫	-15.8682
染	-15.8683
!	-15.8684
驚	-15.8685
”	-15.8686
—	-15.8687
%	-15.8688
:	-15.8689
&	-15.869
―	-15.8691
。	-15.8692
・	-15.8693
泌	-15.8694
)	-15.8694
?	-15.8695
匿	-15.8696
」	-15.8696
剖	-15.8697
勿	-15.8697
ょ	-15.8697
距	-15.8698
膚	-15.8698
栽	-15.8698
、	-15.8698
宇	-15.8698
