<unk>	0
<s>	0
</s>	0
▁,	-2.94661
ს	-3.12613
▁.	-3.19133
ა	-3.32605
ი	-3.62244
▁	-3.6674
▁და	-3.84296
თ	-3.89624
;	-4.36922
▁რომ	-4.40232
▁&	-4.40259
ot	-4.42283
qu	-4.42463
▁ეს	-4.58994
ში	-4.73088
მ	-4.78127
ის	-4.87107
▁არ	-4.93702
ად	-4.94075
დ	-5.06491
აც	-5.15886
▁ჩვენ	-5.17825
ზე	-5.18993
▁მე	-5.27008
▁თუ	-5.28003
▁ის	-5.29916
▁არის	-5.30654
▁ამ	-5.32453
▁?	-5.42525
ც	-5.54851
▁მაგრა	-5.63392
ო	-5.77415
▁:	-5.77532
მა	-5.79868
▁იყო	-5.82303
ები	-5.83516
▁რომელიც	-5.86906
ენ	-5.88614
▁რა	-5.89886
▁უნდა	-5.9059
▁)	-5.93047
(	-5.93301
-	-5.99851
ით	-6.01227
▁თქვენ	-6.0276
ე	-6.05005
და	-6.06123
▁უფრო	-6.16272
▁ძალიან	-6.21204
▁რაც	-6.23831
▁კი	-6.24608
▁როგორც	-6.26164
▁მათ	-6.27144
▁არა	-6.31782
ოთ	-6.34472
▁ისინი	-6.35913
ების	-6.37427
▁ასე	-6.37802
ებს	-6.38194
▁მას	-6.41308
▁ყველა	-6.41874
▁ან	-6.41982
▁გა	-6.45233
▁შემდეგ	-6.45774
▁სა	-6.49337
თან	-6.50079
▁მხოლო	-6.5147
▁როგორ	-6.51738
▁ჩემი	-6.52268
▁მ	-6.52539
▁სიცილი	-6.52617
▁როცა	-6.52848
ული	-6.53059
▁შეიძლება	-6.53777
▁-	-6.56716
▁ერთ	-6.5878
▁სხვა	-6.59871
▁დიდი	-6.60091
▁აქ	-6.60696
▁წლის	-6.61786
ეს	-6.63053
ტ	-6.64296
იდან	-6.65751
ან	-6.66103
▁ერთი	-6.66283
▁რას	-6.70576
▁იმ	-6.71746
ება	-6.72844
ვ	-6.73904
ნ	-6.75024
▁ჩვენი	-6.76725
.	-6.77785
რ	-6.80254
ეთ	-6.80549
▁რადგან	-6.81271
▁როდეს	-6.81579
ხ	-6.85622
▁არსებობ	-6.8581
თვის	-6.88349
▁გამო	-6.8857
▁ვერ	-6.89216
▁მან	-6.89314
▁სად	-6.90317
▁ი	-6.905
უ	-6.93388
▁მისი	-6.9432
▁მო	-6.9533
დი	-6.95805
▁ვ	-6.96409
▁ახლა	-6.98953
შ	-7.00148
გ	-7.01708
დნენ	-7.02945
▁შე	-7.03631
დან	-7.04783
▁ამას	-7.04972
▁ამის	-7.05197
▁რატომ	-7.05485
▁ასევე	-7.06042
ლებიც	-7.0617
▁...	-7.06276
▁აქვს	-7.06418
▁რომელს	-7.06576
ვე	-7.08848
▁აი	-7.08896
▁კარგი	-7.10155
▁–	-7.11534
▁უ	-7.11913
▁მინდ	-7.1261
▁ყველაზე	-7.12663
კ	-7.14452
იან	-7.14894
▁ვფიქრობ	-7.17176
ლი	-7.1732
ნი	-7.18426
ულ	-7.19604
ბ	-7.20876
▁რაღაც	-7.21343
▁მეორე	-7.2259
▁კიდევ	-7.23455
ონ	-7.24155
▁ამიტომ	-7.24472
▁თუმცა	-7.26294
▁ვარ	-7.26396
მიტომ	-7.27176
▁არიან	-7.28127
ვა	-7.28592
ისთვის	-7.28725
▁მაშინ	-7.29228
▁შეგვიძლია	-7.29724
▁—	-7.29724
▁შესახებ	-7.30727
▁იქნება	-7.30792
ური	-7.31207
▁აპლოდისმენტები	-7.3174
▁დღეს	-7.32336
▁ისე	-7.32707
ლ	-7.3333
▁ასეთი	-7.34184
▁მათი	-7.34305
▁ხდება	-7.3487
▁პირველი	-7.36397
▁მის	-7.36426
▁წინ	-7.37205
ოდა	-7.37642
▁გვაქვს	-7.3806
▁ორი	-7.38115
უკვე	-7.38741
▁მი	-7.38929
ოს	-7.3925
▁იცი	-7.40081
▁პატარა	-7.40233
▁ყველაფერი	-7.40265
წ	-7.40393
▁გადა	-7.40487
ურ	-7.40919
ფ	-7.41018
ელი	-7.41528
დით	-7.41727
▁დრო	-7.42302
▁მთელ	-7.43143
ვიდრე	-7.4362
გან	-7.43807
▁იქ	-7.44589
ებით	-7.44881
▁მეტი	-7.45419
▁შენ	-7.45428
პ	-7.45659
▁ბევრი	-7.46229
▁თქვენი	-7.46321
▁ადამიანი	-7.46791
▁უბრალო	-7.48306
▁რამ	-7.49609
ჯერ	-7.51633
▁ერთად	-7.5221
▁ცხოვრება	-7.52574
▁შორის	-7.53333
▁მაგალით	-7.53414
ქ	-7.53915
▁ახალი	-7.54182
ამდე	-7.54549
ერ	-7.54688
▁შეუძლია	-7.55141
▁ისეთი	-7.55649
▁შეგიძლია	-7.55786
▁რამდენიმე	-7.55809
▁იყოს	-7.56168
ებში	-7.56506
▁არც	-7.57806
▁ცოტა	-7.5841
▁ე	-7.58961
ტი	-7.59061
▁მადლობა	-7.59961
▁გ	-7.6037
ელ	-7.61289
ზ	-7.61631
▁დროს	-7.61708
▁სულ	-7.61723
ამედ	-7.63165
დება	-7.63866
▁ბევრ	-7.63989
რე	-7.64658
▁სამყაროს	-7.6471
▁მოდი	-7.64825
რო	-7.65232
▁თავის	-7.65267
ობა	-7.65273
ობის	-7.65458
▁ნიშნავ	-7.6672
მე	-7.66743
▁სამყარო	-7.68286
▁ვიცით	-7.69474
▁წელს	-7.69524
ერთი	-7.69968
▁ადამიანებ	-7.69991
▁ჩვენს	-7.70453
მდე	-7.70686
▁ხედავ	-7.71718
კი	-7.7289
▁სი	-7.73315
ობით	-7.73323
▁ჩემს	-7.73596
სთან	-7.74315
▁ამბობ	-7.75001
▁ვართ	-7.75076
▁ადამიანები	-7.75901
▁ორ	-7.76262
▁ჩემ	-7.77976
▁აკეთებ	-7.78193
ვი	-7.78989
▁ადამიანის	-7.79362
▁იდეა	-7.79499
▁განმავლობაში	-7.79814
▁საქმე	-7.79815
▁ჯერ	-7.79874
▁ნაწილი	-7.79979
▁ჩა	-7.80516
რი	-7.82654
▁ხალხი	-7.82982
▁იმის	-7.82991
▁იგივე	-7.83017
▁სხვადასხვა	-7.83742
▁სწორედ	-7.84017
▁დიდ	-7.8445
▁თავს	-7.84493
▁საკუთარი	-7.84672
▁საჭირო	-7.84679
▁ალბათ	-7.84749
▁შემთხვევაში	-7.85077
▁ბოლო	-7.85231
▁პრობლემა	-7.86814
ებთ	-7.87093
▁ვიყავი	-7.88096
ახლოებით	-7.88403
▁მსოფლიოს	-7.88428
▁მიერ	-7.88509
ბა	-7.88843
▁გვ	-7.88863
▁ადამიან	-7.89189
▁თქმა	-7.89989
▁იგი	-7.91056
▁კარგად	-7.91232
ნენ	-7.91338
▁ცხოვრების	-7.92976
▁სანა	-7.94698
▁მსოფლიო	-7.94925
▁სკოლა	-7.95219
▁10	-7.95638
▁მნიშვნელოვანი	-7.95642
▁20	-7.96309
▁იმას	-7.96757
▁აქვთ	-7.96828
▁თქვა	-7.97427
▁სინამდვილეშ	-7.978
▁რამე	-7.99396
ანუ	-7.99437
▁მოხდ	-7.99534
▁კითხვა	-7.9979
▁საკუთარ	-8.00033
სთვის	-8.00163
▁ნა	-8.00194
▁ვი	-8.0137
ღ	-8.01521
▁გზა	-8.02268
▁ნამდვილ	-8.02334
მის	-8.03118
ებზე	-8.03306
▁საკმაო	-8.03894
ლად	-8.04119
▁პირველ	-8.04252
▁დღე	-8.04763
▁ხართ	-8.05012
ხედავთ	-8.055
ძ	-8.06034
▁სამი	-8.06349
აქვს	-8.07185
▁ისევ	-8.07354
▁შექმნა	-8.07729
▁ფიქრობ	-8.08318
▁წელი	-8.08762
ორ	-8.09082
▁მიზეზი	-8.09147
▁მართლა	-8.09944
ინ	-8.10005
▁აღარ	-8.12301
▁სისტემა	-8.12659
▁ვის	-8.12663
ებ	-8.13012
▁მიმართ	-8.13952
▁ვიცი	-8.14083
▁ბ	-8.14141
ისგან	-8.14435
▁გამ	-8.1487
▁ზუსტად	-8.14955
▁ხშირ	-8.14963
▁მაშ	-8.14999
▁გარეშე	-8.15
▁თეორია	-8.1512
▁არაა	-8.15163
ყ	-8.15776
▁იყვნენ	-8.16152
▁იმისა	-8.16793
ობ	-8.17034
▁გარშემო	-8.17321
▁იმაზე	-8.17427
▁რომლის	-8.17457
ჯ	-8.17465
▁ვხედავთ	-8.17773
▁თქვენს	-8.17808
▁მაინც	-8.18526
ზი	-8.189
▁წა	-8.1938
▁ყოველ	-8.19565
იც	-8.19566
არ	-8.19651
▁საუკეთესო	-8.19745
▁ამაზე	-8.20108
▁გან	-8.20242
▁გვინდ	-8.20986
▁რომელ	-8.21303
▁მზის	-8.22289
▁პასუხი	-8.22637
რა	-8.2285
▁იქნებოდა	-8.23736
▁გავ	-8.24192
▁შავი	-8.24648
▁ადგილი	-8.24656
▁ყველაფერ	-8.24771
▁უკან	-8.24794
ვარ	-8.24848
▁სოციალურ	-8.24895
ებული	-8.25297
▁სრული	-8.2595
„	-8.26076
▁შესაბამის	-8.26076
ლო	-8.26212
▁მეტ	-8.26224
▁გვჭირდება	-8.26432
▁კრის	-8.27694
ტო	-8.28238
▁მცირე	-8.28725
▁საინტერესო	-8.28726
▁შესაძლებელი	-8.28782
▁როგორიც	-8.29402
▁ზოგ	-8.29485
ანი	-8.29979
▁სამყაროში	-8.30368
▁რამდენად	-8.30369
ნე	-8.30522
ლა	-8.30701
▁მეტად	-8.30882
▁ქალ	-8.30898
▁არაფერი	-8.31089
▁მსგავსი	-8.31467
▁შესანიშნავი	-8.31768
▁აღ	-8.31827
▁აზრი	-8.31961
▁მათგანი	-8.31962
▁იმისთვის	-8.31967
▁იღებ	-8.32214
ვინც	-8.32304
▁სურათი	-8.32416
▁მნიშვნელოვანია	-8.32483
▁მსოფლიოში	-8.32741
▁მუშაობს	-8.32991
ავს	-8.33515
ჩ	-8.34499
▁განსხვავებული	-8.34945
▁ძირითად	-8.35673
▁სახის	-8.35681
▁ჩანს	-8.35684
▁შესაძლოა	-8.36131
▁რამდენი	-8.3642
კენ	-8.36422
▁კ	-8.36548
▁000	-8.37032
▁რთული	-8.37176
▁თითქოს	-8.3718
▁სივრცე	-8.3721
ერი	-8.38272
▁თავი	-8.38945
▁როგორი	-8.39339
ავ	-8.39851
▁ვა	-8.39898
▁ყოველთვი	-8.39954
▁რიჩარდ	-8.40085
▁გაქვ	-8.40518
▁მომ	-8.40787
▁50	-8.41241
▁ხ	-8.41314
▁უამრავ	-8.416
▁მართალი	-8.41601
ap	-8.41603
ნა	-8.41604
os	-8.41608
▁შევ	-8.41937
ალი	-8.41988
ჭ	-8.42026
ერთ	-8.42325
ალ	-8.42691
დეთ	-8.4272
ვით	-8.42884
▁თავისი	-8.43495
▁მოკლე	-8.4411
▁ხალხს	-8.44688
▁კონკრეტულ	-8.44701
ნო	-8.44796
ებოდა	-8.44802
▁ქალი	-8.4489
რათა	-8.45063
5	-8.45221
▁ერთადერთ	-8.45735
ებიან	-8.46068
ბი	-8.46077
▁ხომ	-8.46302
▁სწრაფად	-8.46349
ტარ	-8.46563
ლის	-8.46639
▁ცნობიერება	-8.46751
▁მნიშვნელობა	-8.46798
▁3	-8.46833
▁ნაკლებ	-8.47021
▁ასეთ	-8.47061
დეს	-8.47196
▁ფიქრობთ	-8.47698
▁ისეთ	-8.47997
▁მთავარი	-8.4837
ლე	-8.48863
▁ტვინის	-8.49054
ცემ	-8.49079
▁პირველად	-8.4908
▁ჰქონდა	-8.49119
0	-8.49228
ვალ	-8.493
▁ახალ	-8.49535
▁მიუხედავა	-8.49546
▁რომლებსაც	-8.4956
▁მილიარდი	-8.50206
ავთ	-8.5029
8	-8.50322
▁აზრით	-8.50426
▁რომელმა	-8.50461
▁უკეთესი	-8.50794
▁ისაა	-8.51249
▁ყოველი	-8.51518
▁მქონდ	-8.51552
▁ძალა	-8.51918
▁რომელთა	-8.52025
იანი	-8.52111
▁ყველას	-8.52582
▁ფული	-8.52845
▁ჩემთვის	-8.53123
▁ქალები	-8.53328
▁საშუალო	-8.53966
▁5	-8.54096
▁კვლავ	-8.54626
▁მანძილზე	-8.54626
▁წარმოიდგინე	-8.54626
▁კვლევა	-8.54667
ეც	-8.54839
ნებ	-8.55028
▁ენერგია	-8.55147
▁მაგალითი	-8.55868
ოდეს	-8.56254
▁საბოლოო	-8.56381
▁ქმნი	-8.56388
▁კაცი	-8.56434
▁იმედი	-8.56567
▁რეალურად	-8.56579
▁ნაწილ	-8.56808
▁ჩავ	-8.57295
წვ	-8.57623
▁ცუდი	-8.58069
▁შ	-8.58202
▁ტიპი	-8.58486
დის	-8.58614
▁ჰ	-8.58921
▁ჯ	-8.59445
▁ვთქვა	-8.59985
▁იყენებ	-8.60047
▁ფორმა	-8.60447
▁ბავშვები	-8.60729
▁ხელ	-8.60815
▁აღმოჩნდ	-8.61073
▁ფაქტი	-8.61108
▁ფაქტიურ	-8.61172
ისათვის	-8.61531
▁100	-8.6177
▁მიხედვით	-8.61836
მხრივ	-8.61853
▁დავ	-8.63482
▁თითქ	-8.63651
▁იმდენ	-8.63738
▁2	-8.63936
▁დროის	-8.64121
▁მარტო	-8.6431
▁მაღალი	-8.64484
e	-8.65038
▁დავიწყე	-8.6522
▁სიცოცხლის	-8.65646
▁შემიძლია	-8.65646
▁ერთხელ	-8.65648
▁გარდა	-8.65738
▁პროცენტი	-8.65909
▁ხან	-8.65945
▁ცნობიერების	-8.66067
ეტ	-8.66079
▁მგონი	-8.66091
▁ხელი	-8.66447
▁სამუშაო	-8.6704
▁სიტყვა	-8.67607
▁ფიზიკურ	-8.67607
▁გამოყენება	-8.67618
▁ახლოს	-8.68335
▁ადამიანების	-8.68546
▁შემ	-8.68858
▁სამ	-8.69485
▁თანამედროვე	-8.69607
▁ეხლა	-8.69609
▁რე	-8.70015
▁გადავ	-8.70114
ფი	-8.71366
ტე	-8.71562
▁გითხრა	-8.71648
▁შესაძლებლობა	-8.71653
▁ზრდა	-8.71677
▁თითოეულ	-8.7168
▁ვინ	-8.71698
▁არასდროს	-8.71836
▁ეკონომიკურ	-8.71961
▁ახალგაზრდა	-8.7203
ებულ	-8.72456
▁გარკვეული	-8.72884
▁მუშაობ	-8.73184
ზეც	-8.73504
▁მრავალ	-8.73731
▁პლანეტა	-8.73731
▁იწყებ	-8.73808
ილი	-8.73837
▁მოხდება	-8.7401
▁საშუალება	-8.74103
▁30	-8.74159
▁სახლში	-8.74173
▁ზოგიერთი	-8.74188
▁ხნი	-8.74331
s	-8.74605
▁ნება	-8.74619
ოდ	-8.7475
რები	-8.74816
▁გრძნობ	-8.74998
▁ისტორია	-8.75269
▁ტვინი	-8.75294
▁ბოლოს	-8.75685
▁საკმარისი	-8.75745
▁შიგნით	-8.75859
▁ვსაუბრობ	-8.75859
▁შედარებით	-8.75882
▁დედა	-8.76046
▁თავიდან	-8.76089
▁შედეგად	-8.76105
▁მეცნიერება	-8.76679
გრ	-8.76871
▁კა	-8.76918
ობას	-8.77048
▁მილიონი	-8.77358
▁შენი	-8.77421
ებისთვის	-8.77588
▁ხმა	-8.77608
9	-8.77677
ვის	-8.77678
ხედ	-8.77785
▁სჭირდება	-8.78033
▁სინათლი	-8.78033
▁უდიდეს	-8.78033
▁განსხვავება	-8.78033
▁რიგში	-8.78044
ებელი	-8.78103
▁მესამე	-8.78605
ნის	-8.78933
ლებით	-8.78946
▁განსხვავებულ	-8.79155
▁შედეგი	-8.79426
▁მარტივი	-8.79533
▁რომლებ	-8.79697
ხარ	-8.79735
ოდი	-8.79908
▁200	-8.80173
▁ვიდეო	-8.80205
▁ცხოვრობ	-8.80255
▁ნაცვლ	-8.80255
▁დიახ	-8.80258
▁მეც	-8.80311
▁მომავალი	-8.80435
▁მხარე	-8.80823
▁ბიზნეს	-8.809
▁დაბალი	-8.81286
▁წინა	-8.81501
▁მდგომარეობა	-8.81711
▁ცნობილი	-8.81809
▁ჩვენთვის	-8.81948
▁საერთო	-8.8198
წევ	-8.82418
▁ვუთხარი	-8.82528
▁უნივერსიტეტ	-8.82528
▁წარმოადგენ	-8.82528
▁გავლენა	-8.82528
▁ცვლილება	-8.82534
▁საზოგადოება	-8.82535
▁შვილი	-8.82628
▁გაგ	-8.82801
▁მოდელი	-8.83153
პო	-8.83202
კავ	-8.83335
▁ავ	-8.83341
▁მა	-8.83676
▁6	-8.83801
▁რისი	-8.83962
ილ	-8.84096
▁დოლარი	-8.84258
ჟ	-8.84263
ვრ	-8.84458
ნელ	-8.8466
▁წარმოდგენა	-8.84854
▁შორს	-8.84855
▁რაიმე	-8.8488
▁უნარი	-8.85462
▁შევძლებ	-8.85468
▁ალ	-8.85548
▁უცნაური	-8.85861
▁რამეს	-8.86431
▁დე	-8.86482
▁შემდეგი	-8.86516
▁ქ	-8.86528
ცნობ	-8.86917
▁ბავშვი	-8.87122
▁ამერიკის	-8.87234
▁მუდმივ	-8.87234
▁სტრუქტურა	-8.87234
▁ცოდნა	-8.87234
▁ვაპირებ	-8.87242
▁გლობალურ	-8.87369
▁ზემოთ	-8.87556
▁ამო	-8.87682
▁15	-8.87761
▁ნებისმიერ	-8.87839
▁ას	-8.8789
▁გამოცდილება	-8.8816
▁წიგნი	-8.88165
▁გარეთ	-8.88256
▁საკითხი	-8.88486
▁ოჯახის	-8.88577
▁ექსპერიმენტი	-8.88602
▁ადრე	-8.88738
▁რის	-8.89256
▁დღევანდელ	-8.89673
▁გაკეთება	-8.89687
დებით	-8.89737
▁შეძლებ	-8.89746
▁ენერგიის	-8.8991
ბთ	-8.90497
▁გე	-8.90633
▁მითხრა	-8.90839
▁მაგ	-8.90905
▁4	-8.91034
▁ძლიერი	-8.91114
კო	-8.91232
ლობა	-8.91597
ნახ	-8.91684
უნ	-8.91718
▁შედეგები	-8.91997
ევ	-8.92027
▁ხოლო	-8.92174
▁სიყვარული	-8.92264
▁წარმო	-8.92526
▁სიცოცხლე	-8.92709
▁რეალობა	-8.92932
ქმ	-8.93021
რის	-8.93058
▁იზრდება	-8.93071
a	-8.93109
▁ნაკლები	-8.93279
▁ერთმანეთს	-8.93381
▁კულტურა	-8.93382
▁რთულია	-8.93429
აგან	-8.935
▁აჩვენებ	-8.93771
ათვის	-8.93831
▁ინფორმაცია	-8.93894
▁ნებისმიერი	-8.9409
▁შესა	-8.94241
ულად	-8.94413
▁ინდოეთში	-8.94737
▁რამოდენიმე	-8.94737
▁დამოკიდებული	-8.9474
▁ახსნა	-8.94751
▁შეუძლებელია	-8.94756
▁შემო	-8.94826
▁იქნა	-8.94888
▁კვირა	-8.94914
▁საშუალებას	-8.95047
▁გავა	-8.95068
▁გზი	-8.95107
წყ	-8.95124
▁ნიუ	-8.95213
▁რაოდენობა	-8.95455
▁გაუ	-8.95487
▁დონეზე	-8.95507
▁ადამიანურ	-8.95515
▁გვქონდ	-8.95624
▁დავა	-8.95979
▁მოვ	-8.96089
▁შეგ	-8.96237
▁სხეულ	-8.96434
▁წუთ	-8.96451
▁დონე	-8.96585
▁გამოვ	-8.96885
▁სახელი	-8.9689
▁ცდილობ	-8.97081
▁ამერიკა	-8.97369
▁ყოფილიყო	-8.97372
▁მომეცი	-8.97388
▁ვარსკვლავ	-8.9741
▁იმაში	-8.97718
▁რომელი	-8.9785
▁მოგ	-8.98014
▁დოლარ	-8.98048
▁მომავალში	-8.98206
▁განსაკუთრებულ	-8.98414
▁სწორი	-8.98681
ფე	-8.98773
ებდა	-8.98862
▁ჰო	-8.98875
რებ	-8.98933
▁ნამდვილი	-8.9896
▁მილიარდ	-8.98979
გვ	-8.98991
▁განსაკუთრებ	-8.99009
▁საათი	-8.99025
▁შიში	-8.99065
▁ქვეშ	-8.99138
▁ოქსიტოცინი	-8.99216
▁8	-8.99234
▁მსგავს	-8.9966
▁მაგარი	-9.00084
▁ხვრელი	-9.0009
▁ვიყო	-9.00159
3	-9.00262
▁ხარ	-9.00393
▁ხე	-9.00412
▁ქალაქ	-9.00697
▁აუდიტორია	-9.00725
ყო	-9.00847
▁საერთოდ	-9.00864
▁გინდათ	-9.01087
▁რეალური	-9.01192
ფიქრ	-9.01385
ნაირად	-9.01637
▁ქვეყნებ	-9.01763
ტყ	-9.02035
თავად	-9.02079
ტის	-9.02113
2	-9.02249
▁ზოგიერთ	-9.02313
ძი	-9.02571
▁მათგან	-9.02765
▁ტექნოლოგია	-9.02849
▁გეტყვი	-9.0285
▁ხუთი	-9.0285
▁აშშ	-9.0285
▁მოსახლეობის	-9.02853
▁მონაცემები	-9.02882
▁მოვლენა	-9.02888
▁გონება	-9.0296
▁საკმარის	-9.02999
▁ვინმე	-9.03007
▁ორივე	-9.03303
▁სიტყვები	-9.03406
▁ხელს	-9.03738
▁ზოგი	-9.03796
▁გი	-9.03868
▁გაცი	-9.04268
▁დედამიწა	-9.04426
გე	-9.04589
ჩი	-9.04698
▁მომავალ	-9.04765
▁მოძრაობა	-9.04788
ებმა	-9.05115
▁1	-9.05324
▁მართლ	-9.05327
▁განზომილებები	-9.05365
▁დი	-9.05673
▁შეგრძნება	-9.05707
▁დავიწყო	-9.05707
▁თავიანთ	-9.05713
▁რომელიმე	-9.05769
▁ღმერთ	-9.05945
▁ფ	-9.0598
▁თავ	-9.0612
▁წამი	-9.06129
კრ	-9.0622
▁მიზანი	-9.0655
▁უზარმაზარი	-9.0663
ვენ	-9.06632
▁ბავშვებს	-9.06637
▁ოდეს	-9.07084
▁მორალური	-9.07148
▁ნაწილში	-9.07189
▁ომის	-9.07512
▁გააკეთო	-9.07616
▁ოთხი	-9.07749
▁მთლიან	-9.07852
▁ორგანო	-9.08248
▁სიკვდილი	-9.08277
▁ჩამო	-9.08491
▁გალაქტიკი	-9.08648
▁საზოგადოებრივ	-9.08648
▁ყველაფრის	-9.08648
▁წარმატებულ	-9.08648
▁ვიცოდი	-9.08648
▁პროგრამა	-9.08648
▁დაიწყო	-9.08649
ინა	-9.08663
▁მანქანა	-9.08682
▁ბავშვების	-9.08684
▁გააჩნია	-9.08692
▁გვერდ	-9.08702
▁პირდაპირ	-9.08903
▁განათლება	-9.08921
▁მიზეზ	-9.08984
▁საოცარი	-9.0902
▁დაკავშირებული	-9.09434
▁განათლების	-9.0968
▁ინ	-9.09721
ლები	-9.09988
ბუ	-9.1002
▁დროში	-9.10401
ვლის	-9.10602
▁წლებ	-9.10798
o	-9.10829
ებენ	-9.10918
▁ვარსკვლავი	-9.10922
▁ფი	-9.10945
▁19	-9.11184
ნდაც	-9.11361
▁7	-9.11487
▁პოლიტიკური	-9.11627
▁წელიწად	-9.11679
▁სამსახური	-9.11679
▁სისტემის	-9.11691
რუ	-9.11882
▁გახდა	-9.11893
ჰ	-9.12039
▁პრობლემები	-9.12062
▁ჩვენგან	-9.12062
ავე	-9.12075
▁იმისათვის	-9.12225
▁ფიქრი	-9.12272
▁პირად	-9.12459
▁ჰქონდათ	-9.1247
▁ბევრს	-9.12709
▁პრო	-9.12928
ნაირი	-9.12986
▁ათას	-9.13028
▁გარემო	-9.13035
▁ამბავი	-9.13362
▁ძველი	-9.13363
▁ბავშვ	-9.13739
ფერ	-9.13817
ტორ	-9.13906
▁დღი	-9.14015
ებად	-9.14124
ობს	-9.1431
▁კარ	-9.14689
▁უმეტეს	-9.14696
▁მუსიკა	-9.14795
▁გალაქტიკა	-9.14803
▁დაკავშირებით	-9.14803
▁ექსტრა	-9.14803
▁ვამბობ	-9.14803
▁მშვენიერი	-9.14811
▁ადგილას	-9.1485
▁ცხოვრებას	-9.1494
▁ვუ	-9.14955
▁ქვემოთ	-9.14972
ებიდან	-9.15046
უმ	-9.15082
▁სხეულის	-9.15181
▁შემოსავალ	-9.15194
▁ქალებს	-9.15194
▁შავ	-9.15403
6	-9.15455
დე	-9.15474
▁ტვინ	-9.15686
▁მამა	-9.15897
▁მყოფ	-9.16087
▁სახე	-9.16124
▁მუშაობა	-9.16176
ონი	-9.16197
▁ბედნიერი	-9.1621
▁იქნებ	-9.16439
▁ჩ	-9.1644
გა	-9.16446
▁საკითხ	-9.16704
4	-9.16795
ულია	-9.17226
▁პირ	-9.17305
▁კვ	-9.17321
▁მზე	-9.1742
▁დაგ	-9.17463
▁გამოიყურებ	-9.17515
▁ღირს	-9.17844
▁ჩინეთ	-9.17887
▁მქონე	-9.18029
▁პლანეტი	-9.18029
▁ცოდნი	-9.18029
▁ამჟამ	-9.18029
▁ახდენ	-9.18029
▁საბაზ	-9.1803
▁საშინელ	-9.18031
▁შეიცვალ	-9.18033
▁შეხედე	-9.18036
▁დარწმუნებული	-9.18051
▁40	-9.18097
▁ეფექტი	-9.1813
▁ომ	-9.18265
▁დაუ	-9.1844
▁ვცხოვრობთ	-9.1862
ხოვ	-9.1879
▁დედამიწაზე	-9.18841
▁პიროვნება	-9.18913
▁S	-9.18935
▁ეფექტური	-9.19005
▁გულ	-9.19058
▁საუბარი	-9.19076
▁პროექტ	-9.19088
▁დაავადება	-9.19156
ტები	-9.19208
▁წესი	-9.19314
▁დარჩ	-9.19663
ქი	-9.19669
▁18	-9.19941
▁ვე	-9.20098
სათვის	-9.20242
▁მოწყობილობა	-9.20319
▁დასა	-9.20409
მატებ	-9.20477
▁პროექტი	-9.20509
ხილ	-9.20575
▁მასზე	-9.20632
▁პა	-9.20764
▁12	-9.20852
უქ	-9.20867
▁სურათ	-9.20999
ებთან	-9.21002
სწავლ	-9.21035
▁რომელზე	-9.21079
▁წინააღმდეგ	-9.21359
▁დახმარება	-9.21362
▁ვეძახი	-9.21362
▁სავარაუდო	-9.21362
▁შემეძლო	-9.21362
▁TED	-9.21362
▁ვკითხე	-9.21364
▁ფულს	-9.21368
▁ინფორმაციის	-9.21369
▁როდის	-9.21394
▁ბედნიერება	-9.2143
▁რიცხვი	-9.21437
▁იწვევ	-9.21442
▁ნეირონები	-9.21447
ხან	-9.21456
▁ბუნებრივი	-9.21478
▁მიიღო	-9.21512
ლდ	-9.21574
ფარ	-9.21835
▁დაფიქრდ	-9.21906
▁A	-9.22027
▁ქვეყანაში	-9.2209
in	-9.22107
▁რამდენ	-9.22115
რჩევ	-9.22143
▁მით	-9.2217
▁იტყვი	-9.22347
▁კომპიუტერ	-9.22463
▁გოგო	-9.22512
▁კო	-9.22512
▁მივ	-9.22679
ებისგან	-9.22723
▁უჯრედებს	-9.22759
▁ნახევარი	-9.22808
ჩენ	-9.23299
▁ზოგად	-9.23384
▁ვარსკვლავები	-9.23478
▁თამაში	-9.23796
▁წყალი	-9.23898
▁კომპიუტერი	-9.24119
ლება	-9.24131
▁თემა	-9.24209
▁მეთოდი	-9.24311
ტური	-9.24414
i	-9.24496
▁პროგრესი	-9.24724
▁საყვარელ	-9.2481
▁სოფელ	-9.2481
▁შორეულ	-9.24811
▁კვანტურ	-9.24811
▁განიცდი	-9.24813
▁გოგონა	-9.24838
▁წყალ	-9.24892
▁საზოგადოების	-9.24959
▁ტრ	-9.24966
▁ცვლი	-9.24969
▁პროცესი	-9.25037
▁ამგვარ	-9.2525
▁გასა	-9.25286
ისას	-9.25293
მაც	-9.25601
▁უკეთეს	-9.25752
▁ცენტრი	-9.25817
▁ვაკეთებთ	-9.25981
▁ექსპერიმენტ	-9.25983
▁ეკონომიკა	-9.26042
▁მასა	-9.26045
▁ბუნება	-9.26187
რება	-9.26392
ელო	-9.26402
▁იდეები	-9.26649
▁სფერო	-9.26679
▁ზრდის	-9.26793
▁საიდან	-9.26954
▁წუთი	-9.27041
ნია	-9.27053
▁ქვეყნები	-9.27179
▁არსებული	-9.27444
შვებ	-9.27535
კითხ	-9.28012
▁მოვი	-9.28211
▁ოთახში	-9.28382
▁შეეძლო	-9.28382
▁ხაზი	-9.28386
▁გჭირდება	-9.28388
▁მზად	-9.28389
▁სიმების	-9.28413
▁საშუალებით	-9.28423
▁უმრავლესობა	-9.28424
▁თვითონ	-9.28444
▁ქვეყნის	-9.2853
▁თეორიის	-9.28714
მართ	-9.28858
▁დაწერა	-9.28858
▁შეკითხვა	-9.28867
▁გაგება	-9.28892
▁კვირი	-9.28972
▁ეხება	-9.29028
▁სივრცის	-9.29215
ინი	-9.29223
▁გახ	-9.29291
▁ჩვეულებრივ	-9.29342
ვნებ	-9.29458
▁ტექნოლოგიები	-9.29543
ისკენ	-9.29606
▁ყურ	-9.29764
▁სახელ	-9.29828
▁გააკეთ	-9.29837
▁ადრეულ	-9.29877
ვიღებთ	-9.29901
▁მარ	-9.30612
რჩება	-9.30631
▁თაობა	-9.30707
ზარ	-9.30724
▁თქვენთვის	-9.31156
▁სრულ	-9.31168
გრძ	-9.312
ძებნ	-9.31523
▁ვინა	-9.31658
▁გვი	-9.3198
▁კოსმოსურ	-9.32086
▁საჯარო	-9.32086
▁სერიოზულ	-9.32086
▁ყურადღება	-9.32086
▁ვთქვი	-9.32086
▁გასაოცარი	-9.32087
▁ძალადობა	-9.3209
▁ვნახო	-9.32098
▁შევცვალო	-9.321
▁გუნდ	-9.3211
▁მიწა	-9.32121
▁შემდგომ	-9.32141
▁სიამოვნება	-9.32165
▁კვლევის	-9.32167
▁ვიღაც	-9.32214
▁თვისება	-9.32236
▁ხელოვნება	-9.32237
რდ	-9.32269
▁ასაკში	-9.32333
▁უკეთ	-9.32444
ყოფი	-9.32498
ნდო	-9.32552
ოვანი	-9.32701
▁მასწავლებელი	-9.3284
▁სფეროში	-9.33036
ირება	-9.33087
▁ევოლუცია	-9.33279
▁გავაკეთოთ	-9.33288
▁თავში	-9.33289
7	-9.33296
▁არაფერ	-9.33325
▁ადგილები	-9.33352
ტიკ	-9.33386
▁ფუნდამენტური	-9.33406
▁აღმოვაჩინეთ	-9.33414
▁ხარისხი	-9.33458
▁არჩევანი	-9.3347
▁ზომა	-9.33527
▁ფოტო	-9.33944
▁ლამაზი	-9.34068
▁ეკონომიკის	-9.34181
იათ	-9.34323
▁კარიერა	-9.34424
▁ნუ	-9.34434
1	-9.34486
t	-9.34652
▁ერთმანეთის	-9.34848
▁გავი	-9.34943
▁შემთხვევა	-9.35038
▁პაციენტ	-9.35096
კვლევ	-9.35668
ვაჭრო	-9.35904
▁დარბაზ	-9.35932
▁საუკუნი	-9.35932
▁ცხადი	-9.35932
▁დასაწყისი	-9.35932
▁მიღება	-9.35932
▁ვისწავლე	-9.35932
▁ციხეში	-9.35935
▁ექნება	-9.35936
▁დამატებით	-9.3594
▁ზომის	-9.35954
▁თქვენგანი	-9.35972
▁ცოლ	-9.35974
▁სამეცნიერო	-9.3599
ხარჯ	-9.3603
▁გმადლობთ	-9.36059
▁გვეუბნებ	-9.36095
▁მაგნიტურ	-9.36196
▁ძნელი	-9.36206
ებიც	-9.36252
▁ბრძოლა	-9.36256
▁კარგით	-9.36401
▁შეცვალო	-9.36616
▁რვა	-9.36718
▁ყ	-9.3673
▁ვიყენებთ	-9.36739
▁კერძო	-9.36753
▁კონ	-9.3682
▁პრინციპ	-9.36832
▁ხელოვნური	-9.36894
ველ	-9.37003
▁ტვინში	-9.37043
▁წლების	-9.37084
▁ოთხ	-9.37184
▁ჯგუფი	-9.37256
▁მკურნალობის	-9.37263
▁პ	-9.37292
▁საზოგადოებებ	-9.37401
▁აღიარებ	-9.37469
ფო	-9.37598
▁მეტს	-9.37784
▁სახლი	-9.38567
აგ	-9.3864
▁შექმნ	-9.3864
▁არანაირ	-9.38816
ზომ	-9.38977
აქ	-9.39051
▁სტ	-9.39174
ლაპარაკ	-9.39361
▁ვმუშაობ	-9.3957
▁მშობლები	-9.39766
დოთ	-9.3989
▁განზომილება	-9.39932
▁სუფთა	-9.39932
▁ფიზიკა	-9.39932
▁წლამდე	-9.39932
▁გვიჩვენებ	-9.39939
▁ავიღო	-9.3994
▁გავიგო	-9.3994
▁კომპანია	-9.39953
▁შევხედოთ	-9.39959
▁სწავლობ	-9.39968
▁უმეტესობა	-9.40069
▁იცვლება	-9.40172
▁სწავლა	-9.4018
▁გაჩვენებ	-9.40211
ჭრ	-9.40268
▁მაჩვენებელი	-9.404
▁ისტორიის	-9.40503
▁B	-9.40639
▁თავზე	-9.40751
▁იარაღი	-9.4078
▁რუკა	-9.40787
ტერი	-9.40799
▁დავიწყებ	-9.40839
ურად	-9.40865
▁გზები	-9.40962
▁ნაბიჯი	-9.40987
▁მდიდარი	-9.41128
ედან	-9.41161
▁მიყვარს	-9.41329
▁ბედნიერების	-9.41367
▁წავიდ	-9.41536
▁დიდებული	-9.41651
▁მივიღე	-9.41845
▁ყავ	-9.4198
▁დაკვირვება	-9.41997
▁პარ	-9.42048
▁მამაკაცებ	-9.42115
▁მიზნ	-9.4241
▁თვის	-9.42418
▁მილი	-9.42567
▁მარტივია	-9.42591
▁სტრესი	-9.42616
▁ხვრელ	-9.4262
▁გახდებ	-9.42712
ენის	-9.42914
ივრ	-9.43107
▁ქვეყანა	-9.43192
ავინ	-9.43505
▁შესაძლებლობები	-9.43529
რად	-9.43672
▁სინათლე	-9.43753
▁ინდოეთი	-9.43845
ბით	-9.43898
D	-9.44096
მწვანე	-9.44096
▁დასაწყისში	-9.44098
▁ვგულისხმობ	-9.44098
▁რწმენა	-9.44098
▁აუცილებლ	-9.44098
▁გაჩვენოთ	-9.44098
▁მოითხოვ	-9.44099
▁საღამო	-9.44099
▁შეიქმნა	-9.44099
▁ბნელი	-9.441
▁იაპონია	-9.441
▁მთავრობა	-9.44102
▁შევქმნა	-9.44105
▁გადავწყვიტე	-9.44105
▁ატარებ	-9.44106
▁გვაძლევ	-9.44109
▁ყოველდღიურ	-9.44113
▁თვით	-9.44176
▁გამოიწვი	-9.4422
▁გოლფის	-9.44311
▁ცენტრში	-9.4446
▁მიიღებ	-9.44468
▁ვიფიქრე	-9.44503
▁სავსე	-9.44614
▁დედამიწის	-9.44623
▁ენა	-9.44704
▁შანსი	-9.44745
ინახავ	-9.44781
▁თემ	-9.44859
▁შეცდომა	-9.44876
▁წყლის	-9.45027
▁ბე	-9.45282
▁სიტუაცია	-9.45456
ღაც	-9.45479
ჭი	-9.45496
▁წამო	-9.45675
▁წრე	-9.45844
გენ	-9.45917
▁სახლ	-9.45973
პირ	-9.4599
▁ხალხის	-9.46145
▁შექმნის	-9.4634
ხე	-9.46511
▁კრ	-9.46597
ბინ	-9.46659
▁შეუ	-9.46822
▁ხალხ	-9.46909
ვს	-9.47028
▁გაგვ	-9.47089
ტურ	-9.47134
▁მეცნიერების	-9.47191
არი	-9.47209
▁ცვლილებები	-9.4722
▁უჯრედები	-9.47366
▁გააკეთებ	-9.47546
ვლა	-9.47665
▁ექიმი	-9.47807
ხი	-9.47879
▁თვე	-9.47976
▁გავაკეთე	-9.48093
▁აღწერ	-9.4821
ბერ	-9.4825
▁გადმო	-9.48328
▁საიდუმლო	-9.48337
▁ფიზიკის	-9.48446
▁ხოლმე	-9.48446
▁გულისხმობ	-9.48446
▁მძიმე	-9.48446
▁პოლიტიკა	-9.48446
▁ვგრძნობ	-9.48446
▁გიჟურ	-9.48447
▁მოსწავლე	-9.48447
▁წინაშე	-9.48447
▁ღამე	-9.48448
▁სამუდამო	-9.48449
▁ხედვა	-9.48451
▁ვნახე	-9.48452
▁მივიღო	-9.48453
▁აღქმა	-9.48454
▁დაინახო	-9.48467
▁მოსახლეობა	-9.48467
▁ქცევა	-9.48508
▁ხვდებ	-9.48603
▁ციფრულ	-9.48625
▁ადგილზე	-9.48682
▁ცუდ	-9.48691
▁ენტროპია	-9.48706
▁მიდგომა	-9.48742
▁ჯანმრთელობა	-9.48782
▁გავაკეთებ	-9.48814
▁წიგნ	-9.48863
▁ნახო	-9.48912
ცია	-9.48983
ალური	-9.49007
▁კანონები	-9.49026
▁ჰაერი	-9.49139
▁ობიექტი	-9.49194
▁ხდებოდ	-9.49315
▁გრძელდებ	-9.49418
▁არსებულ	-9.49786
რიგ	-9.49812
▁შემთხვევით	-9.49853
რინ	-9.49942
▁ინფორმაციას	-9.50015
▁აღწევ	-9.50034
▁ასაკის	-9.50111
▁ადვილი	-9.50135
ტერ	-9.50266
I	-9.50369
▁მასში	-9.5043
▁მასშტაბ	-9.50731
ულები	-9.50771
ხო	-9.50959
ველი	-9.51067
▁მომავლის	-9.51122
▁ძლიერ	-9.51337
▁საათ	-9.51724
▁ფაქტ	-9.51818
▁შეგვ	-9.51986
ბილ	-9.52117
,000	-9.52311
▁რაღაცა	-9.52368
ხსენებ	-9.52632
უსი	-9.52762
ზის	-9.5279
▁მოსწონ	-9.52992
▁პლანეტები	-9.52992
▁წარმატების	-9.52992
▁ძალადობის	-9.52993
▁განვითარების	-9.52995
▁დანახვა	-9.52996
▁მივიღებთ	-9.53097
▁უყურებ	-9.53221
20	-9.53269
▁ინდოეთის	-9.53269
▁რომლით	-9.53284
▁გამოდის	-9.53379
▁მამაკაცი	-9.53447
▁შეერთებულ	-9.53477
ებლად	-9.53725
ნახავთ	-9.53764
▁ზედმეტ	-9.53927
ობაში	-9.54073
▁ინტელექტი	-9.5419
▁გარემოს	-9.54204
▁მეგობრებ	-9.54287
იმავე	-9.54604
▁კანონი	-9.5464
▁რაღაცეები	-9.54881
▁ოჯახურ	-9.54883
პორ	-9.54895
▁გამოვიდ	-9.54898
▁სხეული	-9.54967
ტუ	-9.55145
▁სტრეს	-9.55594
▁შტატ	-9.55866
▁60	-9.55963
▁ხარისხ	-9.56008
▁შექმნილი	-9.56241
▁განა	-9.5683
▁პრობლემებ	-9.56889
ისაგან	-9.57208
ნტი	-9.57225
▁ბავშვის	-9.57243
ღა	-9.5727
▁მომენტი	-9.5744
▁სიკვდილის	-9.57457
ლერი	-9.57486
▁გახდე	-9.5749
ტონ	-9.57523
ბე	-9.57622
წყობ	-9.57645
▁ინტერეს	-9.57658
▁აღმოაჩენ	-9.57754
▁გამომდინარე	-9.57754
▁განსხვავდებ	-9.57754
▁ვიცხოვრო	-9.57754
▁მეშვეობით	-9.57754
▁ორგანიზაცია	-9.57754
▁რეაქცია	-9.57754
▁სამწუხარო	-9.57754
▁სამხრეთ	-9.57754
▁ღვინო	-9.57754
▁ჰქვია	-9.57754
▁შევძელი	-9.57754
▁შეცვლა	-9.57754
▁ბურთი	-9.57754
▁განვითარებულ	-9.57754
▁ღირებულება	-9.57794
▁დააკვირდ	-9.578
▁გახსოვ	-9.57813
▁აფეთქება	-9.57873
ლობ	-9.57893
▁ზღვარ	-9.5798
▁ურთიერთობა	-9.5799
▁არსებით	-9.58055
▁რაოდენობი	-9.58071
▁სამიზნე	-9.58105
▁დილი	-9.58147
ხვი	-9.58193
▁იფიქრო	-9.58205
კვირ	-9.58245
ონის	-9.58252
▁იმით	-9.58257
▁უფლება	-9.58275
▁ოჯახ	-9.58398
▁არავის	-9.58482
▁ბრენდ	-9.58502
იზმი	-9.58518
▁გულის	-9.58611
▁მიმდინარეობ	-9.58728
▁იგივეა	-9.59097
▁მსგავსად	-9.59124
გონებ	-9.59128
▁მოძრაობ	-9.59146
მჯერა	-9.59291
▁მილიონ	-9.59326
▁მნიშვნელოვან	-9.60055
▁ხელში	-9.60097
▁ერ	-9.60173
სავით	-9.60316
▁ათასი	-9.60492
▁ბირთვულ	-9.60552
კეტ	-9.60604
ეული	-9.60898
ბრუნებ	-9.60962
▁ამასთან	-9.60963
▁მოვიდ	-9.60993
აცია	-9.61063
საუბრ	-9.61198
▁დენ	-9.61266
▁აგ	-9.61337
▁მექანიზმი	-9.61407
▁ჩვეულებრივი	-9.61415
▁მდგომარეობ	-9.61452
ლურ	-9.61482
▁კაცები	-9.61617
▁წევრებ	-9.617
▁დაბრუნდ	-9.61951
▁სტრესის	-9.62054
▁მიმ	-9.6211
▁9	-9.62121
ლოდ	-9.62228
▁გამი	-9.62276
▁ჭეშმარიტ	-9.6232
▁აღმ	-9.62599
ვდივარ	-9.62749
▁სუპერ	-9.62753
▁თავისუფალ	-9.62754
▁კეთილდღეობა	-9.62754
▁კუთხე	-9.62754
▁მივხვდი	-9.62754
▁მიღწევა	-9.62754
▁მშობელ	-9.62754
▁სტრუქტური	-9.62754
▁შევქმენით	-9.62754
▁წარმოქმნი	-9.62754
▁ჯანდაცვის	-9.62754
▁ვიცოდე	-9.62754
▁შეეხებ	-9.62754
▁შეძლო	-9.62754
▁მომწონ	-9.62754
▁შევისწავლ	-9.62755
▁მცენარე	-9.62755
▁განსხვავები	-9.62755
▁ღეროვან	-9.62756
▁წავედი	-9.62756
▁წარმოქმნა	-9.62758
ობრივ	-9.62764
▁გვჯერა	-9.62765
▁მივედი	-9.62772
▁დემოკრატია	-9.62791
▁მილიონობით	-9.628
▁აფეთქების	-9.62815
▁მეოთხე	-9.62815
▁ღია	-9.62823
▁მსხვერპლი	-9.62867
▁ბომბი	-9.62867
▁მოგვც	-9.62895
▁ამერიკელი	-9.62929
▁უპასუხ	-9.62932
▁პერიოდში	-9.62977
▁რისკი	-9.62989
▁საფრთხე	-9.63
▁აუცილებელი	-9.63114
▁ტკივილი	-9.63193
▁საუკუნეში	-9.63243
▁16	-9.63257
▁პრობლემაა	-9.63327
▁ფულის	-9.63332
▁საკვები	-9.63359
▁პროცესში	-9.63427
კარგ	-9.63478
▁უარესი	-9.63487
ცაა	-9.63537
▁ორგანიზმში	-9.63575
▁უთხრა	-9.63638
▁იქნები	-9.63704
▁უკანასკნელი	-9.63724
▁კომპიუტერულ	-9.63779
▁შეიცავს	-9.63851
▁ვარსკვლავის	-9.63853
▁მშობლებ	-9.63863
▁ფსიქოლოგიურ	-9.63928
▁გადაწყვეტილება	-9.63943
▁გამოგ	-9.6407
იყავით	-9.64137
▁დაავადების	-9.64183
რებული	-9.64305
წყებ	-9.64433
▁აღარა	-9.64487
ობენ	-9.64566
▁მოსა	-9.64738
▁აჩვენ	-9.6476
▁ხსნის	-9.64827
▁მდგომარეობაში	-9.64856
ობაზე	-9.64868
▁უთანასწორობა	-9.65031
▁ოჯახი	-9.65158
ვლე	-9.6519
▁მსურ	-9.65214
▁გაუმჯობესება	-9.65221
▁ინტელექტის	-9.65323
C	-9.65368
▁11	-9.65746
▁გვე	-9.65913
▁წელ	-9.66064
▁წლი	-9.66147
▁არჩევან	-9.66185
▁გადაწყვეტილებებ	-9.6626
ქცევის	-9.66293
▁რთულ	-9.66299
▁როლი	-9.66393
▁დავი	-9.66541
ავად	-9.66681
ხლ	-9.66728
▁გამოც	-9.66735
ტოვებ	-9.66809
▁თან	-9.67037
▁ფერ	-9.67116
▁უნარები	-9.67217
▁პროცენტ	-9.67289
▁სასარგებლო	-9.67351
ყვი	-9.67362
▁ვცდილობ	-9.67371
სწორ	-9.6759
▁თანასწორ	-9.67747
▁ვინმეს	-9.67848
მოქალაქ	-9.68016
▁არაჩვეულებრივ	-9.68017
▁გამოყენებით	-9.68017
▁გრავიტაციულ	-9.68017
▁იშვიათ	-9.68017
▁მთვარე	-9.68017
▁განვითარებად	-9.68017
▁დავინახო	-9.68018
▁ჰგავ	-9.68019
▁აღმოჩენა	-9.68019
▁გამოწვევა	-9.68019
▁მზარდ	-9.68024
▁პოსტ	-9.68024
ir	-9.68025
▁მარცხენა	-9.68025
▁ეძებ	-9.68025
▁ცვლილების	-9.68026
▁სახით	-9.68029
▁მოხალისე	-9.68034
▁პრობლემის	-9.68035
▁198	-9.68052
▁უკავშირდებ	-9.68062
▁ბებია	-9.68084
▁პრე	-9.68096
▁გამოცდილი	-9.68119
▁დაინახავთ	-9.68142
▁ქალის	-9.68156
▁ინგლისური	-9.68245
▁დაბერებ	-9.68309
▁ნახე	-9.68332
▁მოე	-9.6841
▁დონი	-9.68469
▁მარტივად	-9.68473
▁ექვსი	-9.68548
▁გვსურ	-9.6855
▁მორალურ	-9.68632
▁ქონდა	-9.68677
▁მუშაობდა	-9.68691
▁სან	-9.68712
▁ემოცია	-9.68792
▁გამოსვლა	-9.68838
▁კოლეჯი	-9.68875
▁იქცევ	-9.68908
▁დაიწყეს	-9.6892
▁ბუნების	-9.69176
ბის	-9.69178
▁თქვე	-9.69238
▁ლაბორატორია	-9.69367
▁სადღ	-9.69425
▁ადგილებ	-9.69436
▁თვისებები	-9.69459
▁ანტი	-9.69472
▁ორგანიზმ	-9.69476
▁რო	-9.69491
▁ლე	-9.69545
ებინა	-9.69566
▁კავშირი	-9.69601
ნეს	-9.69894
▁დანარჩენი	-9.69958
▁არაბულ	-9.70278
▁ექ	-9.70307
▁ჯანმრთელ	-9.70357
▁აღმოაჩინ	-9.70681
ღვ	-9.70855
▁194	-9.71021
▁სკ	-9.71188
▁ელ	-9.71252
▁ფერი	-9.71272
▁ნელ	-9.71754
გზავნ	-9.71796
ვო	-9.71876
▁მოუ	-9.72233
▁ასტრონომებ	-9.72434
▁ვფიქრობდი	-9.72472
დგენ	-9.72584
▁კოლეჯ	-9.72673
▁სწორ	-9.72709
▁ხანი	-9.72873
▁ჩვენგანი	-9.72985
▁გავიგე	-9.73005
▁კლ	-9.73035
▁გვესმ	-9.73263
ებულია	-9.73397
რეკ	-9.73432
თაშორის	-9.73453
ბეჭდ	-9.73468
▁გამომ	-9.73482
▁აღწერს	-9.73511
▁ელექტრო	-9.73524
▁გინდა	-9.73531
▁პროფესი	-9.73572
▁გრავიტაცია	-9.73572
▁მცდარი	-9.73572
▁რელიგიურ	-9.73572
▁სექტორ	-9.73572
▁სიმართლე	-9.73572
▁უსასრულო	-9.73572
▁ჰქონდე	-9.73572
▁წყარო	-9.73572
▁შეიძლებოდ	-9.73573
▁კუთხი	-9.73573
▁პირობები	-9.73573
ეკეთებინა	-9.73578
▁ოჰ	-9.73587
მართავ	-9.73589
▁ნაწილობრივ	-9.73594
▁14	-9.73594
▁შოკ	-9.73596
▁ყველგან	-9.736
▁უმნიშვნელო	-9.73606
▁ტყე	-9.73618
▁განადგურებ	-9.73623
▁პოლიტიკურ	-9.73667
▁დაიწყებ	-9.73695
▁გული	-9.73722
▁აღმოაჩინეს	-9.73723
▁მიღებული	-9.7373
▁ახლახან	-9.73735
▁დასასრული	-9.73845
▁ჯონ	-9.7386
▁განსაზღვრავ	-9.7409
▁ცალ	-9.741
▁გამოგვ	-9.7416
▁კითხვები	-9.74165
▁გვექნებ	-9.74234
▁იყიდ	-9.74297
▁ჯგუფ	-9.74298
დებოდა	-9.74388
▁გადაწყვეტ	-9.74391
▁იდეალური	-9.7446
▁საფუძველი	-9.74462
▁სიკვდილ	-9.74631
▁გაიგო	-9.74648
რონ	-9.74755
▁მეგობარი	-9.74778
ვრი	-9.74977
▁უყვარ	-9.75044
ეში	-9.75104
ლენ	-9.75114
ვიდა	-9.75138
▁ოქსიტოცინ	-9.75381
▁ხვრელები	-9.75553
▁ძველ	-9.75728
▁გარკვეულ	-9.75909
ედო	-9.76125
▁70	-9.76134
▁სია	-9.7619
▁ზედაპირ	-9.76263
ნაირ	-9.76438
▁C	-9.7645
▁დაბალ	-9.76736
▁ხმი	-9.76762
▁არსებობის	-9.76808
▁არასწორ	-9.76879
თქმა	-9.77004
იყვან	-9.7704
▁შემთხვევითი	-9.77075
▁თვალი	-9.77165
▁აღმოვაჩინე	-9.77359
▁შვილებ	-9.77372
▁გაფართოება	-9.77383
▁მონაწილე	-9.77649
▁ცეცხლი	-9.77657
▁ღრმა	-9.77679
▁ნეირონების	-9.778
▁ინტერესი	-9.77936
▁ბიჭი	-9.78024
▁ცხოვრები	-9.78187
▁150	-9.78199
დევნო	-9.7848
▁მასწავლებლები	-9.78695
▁დიდად	-9.78866
▁შეხედავ	-9.78909
ნიშნა	-9.78954
▁სხვები	-9.78991
▁ურთიერთ	-9.79109
▁ძაღლი	-9.79115
▁ჩატარ	-9.79154
p	-9.79441
▁აფრიკაში	-9.79455
▁გამოვიყენოთ	-9.79455
▁გამოყენების	-9.79455
▁განაცხად	-9.79455
▁დეპრესია	-9.79455
▁ვიბრაცი	-9.79455
▁კაცობრიობის	-9.79455
▁კედელ	-9.79455
▁კეთილდღეობის	-9.79455
▁კოლეგა	-9.79455
▁მოგზაურობ	-9.79455
▁მწვერვალ	-9.79455
▁პირობებში	-9.79455
▁რელიგია	-9.79455
▁ყოფნა	-9.79455
▁ექსპერტ	-9.79455
▁მიმართულებით	-9.79456
▁ფორმით	-9.79457
▁ფაქტორი	-9.79457
▁იმსახურებ	-9.79457
▁საწყის	-9.79458
▁ადგილობრივ	-9.79459
▁აჩქარებ	-9.79459
▁კიდეც	-9.79465
▁შინაგან	-9.79466
იყო	-9.79477
▁სწავლება	-9.79477
▁გამოიმუშავებ	-9.79479
▁გვყავ	-9.79488
▁სწავლების	-9.79501
▁შეხვდ	-9.79516
▁ასრულებ	-9.79517
▁აპირებ	-9.79522
▁შედგება	-9.79544
▁წლიდან	-9.79558
▁ქორწინებ	-9.7956
▁ინგლისურ	-9.79568
▁ნეირონი	-9.79603
▁დემოკრატიის	-9.79681
▁კეთება	-9.79751
▁მომენტში	-9.79835
კერ	-9.79891
ხუც	-9.79913
▁ჭეშმარიტება	-9.79969
არა	-9.8
▁შვიდი	-9.8005
▁კილომეტრი	-9.80088
▁სიმსივნის	-9.8009
▁იპოვი	-9.80099
▁შუაში	-9.80156
▁ვცდილობდი	-9.80184
▁სტუდენტები	-9.80276
▁სწორად	-9.803
▁უნივერსალური	-9.80345
▁ალბათობა	-9.80412
▁კარლ	-9.80437
▁საუბრობ	-9.805
ტანა	-9.80513
▁მომი	-9.80535
▁უწოდებ	-9.80554
▁ქვა	-9.80717
▁თეთრი	-9.80738
▁ნათება	-9.80746
▁თამაშ	-9.80753
▁გაკვეთილი	-9.80761
▁სურათები	-9.80913
არტ	-9.80923
▁პრაქტიკულ	-9.80941
▁ინტერნეტი	-9.8098
გრამ	-9.81038
▁ძალაუფლება	-9.81209
▁არცერთი	-9.81213
▁ორგანოები	-9.81254
▁ღრმად	-9.81262
ებდი	-9.8132
▁ევოლუციის	-9.81348
▁90	-9.81362
▁პიროვნების	-9.81415
▁ცარიელი	-9.81426
▁აზროვნება	-9.81446
ვითარებ	-9.81516
რიცხვ	-9.81522
▁ფეხ	-9.81668
▁ბედნიერ	-9.8169
▁წერტილ	-9.81727
ირებულ	-9.81786
▁ნორდენის	-9.81883
▁სხვებ	-9.81932
დგა	-9.81974
▁ნო	-9.82058
▁ისტორიაში	-9.82064
კური	-9.82185
რული	-9.82185
▁დასავლეთ	-9.82195
▁სწრაფი	-9.82197
▁მოქმედება	-9.82297
▁ამბავ	-9.82298
უნდა	-9.82308
▁ვაკეთებ	-9.82355
▁ამაში	-9.82407
▁უჯრედებით	-9.82634
▁ნულ	-9.8264
▁I	-9.82932
▁მოქმედებს	-9.82957
▁ადამიანთა	-9.82962
▁უცნაურ	-9.82993
▁წესები	-9.83085
▁გადამ	-9.83317
დიან	-9.83348
▁კალ	-9.83615
ხელა	-9.83667
▁ქსოვილ	-9.83688
▁პრობლემას	-9.83753
▁ხიდ	-9.838
▁გრძნობა	-9.83891
▁რაოდენობას	-9.84
00	-9.84053
▁პროფესორ	-9.84134
▁დამი	-9.84229
▁წარმატებას	-9.84306
▁ქალაქის	-9.84308
▁ვუყურებ	-9.84324
▁გარ	-9.84368
ცილებ	-9.84461
▁80	-9.84534
ქცევ	-9.8456
ვალე	-9.84562
▁შეცვალ	-9.8464
▁საქმიანობ	-9.84746
▁ბრ	-9.85091
კეთებ	-9.85095
▁კლას	-9.85126
▁ძალ	-9.85333
▁უჯრედ	-9.85345
▁აზრ	-9.85412
▁ნეირო	-9.85444
▁დატოვ	-9.85497
▁მჭირდებ	-9.85505
▁ვიღაცა	-9.85542
▁ბრიტანეთ	-9.85542
▁სკოლებ	-9.85583
▁წარმოუდგენ	-9.8564
▁სტიმულ	-9.85703
მუდამ	-9.85703
E	-9.85704
▁მათემატიკა	-9.85705
▁მნიშვნელოვნ	-9.85705
▁პოვნა	-9.85705
▁საავადმყოფო	-9.85705
▁სასაცილო	-9.85705
▁ტელევიზორ	-9.85705
▁ტექნოლოგიურ	-9.85705
▁ხელმისაწვდომი	-9.85705
▁მარჯვენა	-9.85705
▁გენომი	-9.85705
▁სამეფო	-9.85705
▁ათწლეულ	-9.85705
▁მარცხნივ	-9.85705
▁ოთახი	-9.85706
▁მარტინ	-9.85706
▁უნდოდა	-9.85706
▁შეისწავლ	-9.85709
▁განცდა	-9.8571
▁ექნებოდა	-9.85717
▁გესაუბრ	-9.85723
▁ღმერთი	-9.85724
▁მაინტერესებ	-9.85725
▁ტაში	-9.85725
▁17	-9.85726
▁აქტიურ	-9.8573
▁წამში	-9.85745
▁სიმპტომებ	-9.8575
▁გადაღებ	-9.85755
▁მასიური	-9.85764
▁ენერგიით	-9.85765
▁აძლევ	-9.85781
▁თავისთავად	-9.85819
კვეთ	-9.85822
▁ბუშტი	-9.85865
▁მყავ	-9.85865
▁გსურ	-9.85873
▁გალაქტიკები	-9.85874
▁ქვედა	-9.85886
▁ქიმიურ	-9.85967
▁გავრცელებული	-9.85981
▁სექსუალურ	-9.86012
▁შედეგ	-9.86106
სებრი	-9.86118
▁მასშტაბით	-9.86168
▁იორკ	-9.86313
▁ხდ	-9.86351
▁რეალობის	-9.8636
▁მანქანები	-9.86388
▁ცდილობენ	-9.86405
▁შეზღუდული	-9.86524
▁დარჩენილი	-9.86529
▁ყოფილა	-9.866
▁გთხოვთ	-9.86609
▁არგუმენტი	-9.86635
▁დაფა	-9.86658
▁ბიოლოგიური	-9.86735
▁რიგი	-9.86794
▁დამოკიდებულება	-9.86825
▁სიარული	-9.86867
ეულ	-9.86928
▁ტიპიური	-9.86946
▁დავუ	-9.86998
▁ჟღერ	-9.87003
▁ვაკეთებდი	-9.87008
▁სტუდენტი	-9.87016
▁ბიჭები	-9.87038
ებო	-9.87109
ობთ	-9.87139
▁მეცნიერ	-9.87192
▁მყარ	-9.87211
აციის	-9.8726
▁ველის	-9.87556
ძლი	-9.87581
▁ნაწილებ	-9.87636
▁იმათ	-9.8769
▁პირი	-9.87709
▁მასწავლებლებ	-9.87828
▁ეგ	-9.87838
▁მეტია	-9.8786
▁უსაფრთხო	-9.87907
▁ტელესკოპი	-9.88011
კურ	-9.88141
▁სკოლის	-9.88151
▁ვიყავით	-9.88159
▁ხვალ	-9.8822
უბ	-9.88241
ილია	-9.88322
▁იმუშავებ	-9.88458
▁დანარჩენ	-9.88547
▁ღირებულებები	-9.88683
▁პოლიცია	-9.88765
▁ფლ	-9.88782
▁რეალურ	-9.88886
▁თვალ	-9.88922
▁ფენ	-9.89068
▁ჟურნალ	-9.89126
▁ჯგუფებ	-9.89292
▁ფრ	-9.89365
▁ჩინეთი	-9.89496
რულ	-9.8956
▁მაღალ	-9.89665
▁თვალებ	-9.89828
ლების	-9.89852
ოგ	-9.89858
▁წარ	-9.89947
უხ	-9.89978
▁ცა	-9.90043
▁ფსიქოლოგი	-9.90051
▁მუშაობის	-9.90225
▁გავაკეთო	-9.90276
▁რეგიონ	-9.90413
r	-9.90481
▁თქვენგან	-9.90624
ევს	-9.90837
▁ბატონ	-9.90871
▁ტესტი	-9.90911
ენახა	-9.90933
რუნ	-9.90978
▁მონაცემებ	-9.91165
▁სლაიდ	-9.91269
▁ჰაერ	-9.91326
ოლოგ	-9.91374
თვლით	-9.91421
შლი	-9.91473
▁უთანასწორო	-9.91493
▁აბა	-9.91519
▁სექსი	-9.91538
დებო	-9.9159
▁კითხვებ	-9.9166
▁ნამ	-9.9178
▁შევხედავ	-9.91877
▁მიიღე	-9.92
▁ბუშ	-9.92225
▁დგა	-9.92242
მედიცინ	-9.92255
▁პროცეს	-9.92269
▁სცენა	-9.923
▁უკუ	-9.92312
ჰაერო	-9.92361
▁მარცხ	-9.92362
▁ინდივიდ	-9.92371
ზღუდ	-9.92371
▁კალიფორნი	-9.92371
▁გაიზარდა	-9.92371
▁ვალდებულები	-9.92371
▁ვიქნები	-9.92371
▁ილუზია	-9.92371
▁ინტერვიუ	-9.92371
▁კოლეგებ	-9.92371
▁მეხსიერება	-9.92371
▁მსჯელობა	-9.92371
▁საწინააღმდეგო	-9.92371
▁ტექნოლოგიი	-9.92371
▁შთაგონებ	-9.92371
▁ციფრებ	-9.92371
▁ჭკვიანი	-9.92371
▁ხანგრძლივობა	-9.92371
▁ხელოვნების	-9.92371
▁ხასიათ	-9.92371
▁გავიაზრ	-9.92371
▁გაიზრდებ	-9.92372
▁გაკეთდ	-9.92372
▁გუშინ	-9.92372
▁პროფესიონალ	-9.92372
▁შეხება	-9.92374
▁ჩრდილო	-9.92374
▁მივაღწიო	-9.92374
▁ოთხთვალა	-9.92375
▁გავხდი	-9.92375
▁თანხა	-9.92379
ნათ	-9.92384
▁ჰყავ	-9.9239
ქმნელ	-9.92395
▁სოფლი	-9.92396
▁სურთ	-9.924
▁13	-9.92403
▁ძირ	-9.92404
▁ინჟინერი	-9.92407
▁ჰკითხ	-9.92408
▁24	-9.92411
▁დღესდღეობით	-9.92412
▁დემოკრატიულ	-9.92423
▁ჯანმრთელობის	-9.92435
▁ფორმის	-9.92447
▁ფუნტ	-9.92449
▁აგრე	-9.92468
▁ჯამ	-9.92492
▁მალე	-9.92492
▁გარეუბნებ	-9.92502
ჩნდება	-9.92508
▁ცენტრალურ	-9.92525
▁ნორმალური	-9.92554
ღონ	-9.92586
▁ტომ	-9.92664
▁აღიქვამ	-9.92704
▁მიდის	-9.92739
▁საუბრის	-9.92746
▁ემოციურ	-9.92891
▁მამაკაცები	-9.92917
▁ჰარ	-9.92973
ალა	-9.93035
▁ატომ	-9.93061
▁მიუ	-9.93165
არსებ	-9.93189
▁შესაძლებლობებ	-9.93406
▁პერ	-9.93481
▁მაღლ	-9.93607
ავენ	-9.93637
▁მატერიალურ	-9.93655
▁გამოსავალი	-9.93694
▁თვეში	-9.93813
▁ვერც	-9.93831
▁კანი	-9.93845
▁პასუხს	-9.93908
▁მორ	-9.93963
▁სიამოვნები	-9.93971
პარ	-9.94031
ბელ	-9.94086
▁მტკიცე	-9.94105
▁სიმღერა	-9.94379
▁პრინციპი	-9.94396
▁ერთიან	-9.94526
▁გასულ	-9.94534
▁ექიმ	-9.94554
▁სფეროს	-9.94563
▁უჯრედი	-9.9475
უშვ	-9.94754
▁სურვილი	-9.94768
▁ჯგუფის	-9.94933
▁თანა	-9.9507
▁რით	-9.95318
▁იცოდ	-9.95589
▁სე	-9.95615
▁წერტილი	-9.95626
▁დატოვებ	-9.95626
▁თაობ	-9.95726
▁დაწყებ	-9.95823
▁ამბები	-9.95956
▁ომი	-9.96007
▁ზეგამტარი	-9.9607
▁კარგ	-9.96237
▁შტატებ	-9.96471
კან	-9.96526
▁იცოდე	-9.96585
ყავ	-9.96658
▁ბუნებას	-9.96671
▁ადვილ	-9.96812
დევ	-9.96819
▁ვხედავ	-9.96833
ძლებ	-9.96984
▁რესურსები	-9.97031
▁დაკარგ	-9.97089
▁კარი	-9.97125
▁სიგნალ	-9.97126
▁25	-9.97245
▁თქვენგანს	-9.97246
▁შეცვლის	-9.97253
▁კვლევები	-9.9736
ჭირდებოდა	-9.97399
▁წავიდე	-9.97424
თუ	-9.97457
▁პროდუქტი	-9.97461
▁მეგობრები	-9.97486
▁აგებ	-9.97503
▁სხვებს	-9.97527
▁ფორ	-9.97617
სურს	-9.97737
ყვანა	-9.97744
სმენია	-9.9781
აღწევ	-9.97858
▁ჯგუფს	-9.97898
▁სიცოცხლეს	-9.97964
▁ლექსიკონ	-9.98004
ბო	-9.98137
▁ასი	-9.98159
▁გრაფიკ	-9.98301
▁ფონდი	-9.98342
▁ავად	-9.98348
▁თვლი	-9.984
▁ხანა	-9.98481
▁ნაკადი	-9.98531
▁საკვების	-9.98652
მთავრ	-9.98903
▁სხვების	-9.99099
▁ინგლის	-9.99109
▁უჯრედების	-9.9912
▁იფიქრე	-9.9918
▁დაზიანებ	-9.99318
▁ავიღებ	-9.99336
▁ტესტ	-9.99374
▁თითო	-9.99418
▁გამოვიყენე	-9.99419
წვევ	-9.99419
▁ფოკუს	-9.99491
თამაშო	-9.99512
▁ატმოსფერო	-9.99514
▁განვითარდ	-9.99514
▁ეძახ	-9.99514
▁კატეგორი	-9.99514
▁მცდელობ	-9.99514
▁ბალანს	-9.99514
▁გაგიზიარ	-9.99514
▁გონებრივ	-9.99514
▁ელექტრულ	-9.99514
▁ეროვნულ	-9.99514
▁ვხვდები	-9.99514
▁თანაგრძნობა	-9.99514
▁ირგვლივ	-9.99514
▁კლიმატი	-9.99514
▁მოულოდნელ	-9.99514
▁ნივთებ	-9.99514
▁პენსია	-9.99514
▁სტრატეგია	-9.99514
▁ცოცხალი	-9.99514
▁სასწაულ	-9.99514
▁ამოცანა	-9.99514
▁ღვინის	-9.99514
▁დავინახე	-9.99515
▁გეგმა	-9.99515
▁ვიწყებთ	-9.99515
▁დამთავრებული	-9.99516
▁ვწერ	-9.99516
▁ერაყ	-9.99516
▁არჩევ	-9.99516
▁კეთილ	-9.99516
▁წასვლა	-9.99516
▁ნდობა	-9.99518
▁უპირატესობა	-9.99518
▁მიმართებაში	-9.99521
▁ჩაატარ	-9.99521
▁ვერაფერ	-9.99523
▁მიგვიყვან	-9.99524
▁შესრულება	-9.99524
▁ფაქტობრივ	-9.99525
▁გვაჩვენ	-9.99527
▁მახსოვ	-9.99529
▁მტკივნეული	-9.9953
▁გესმი	-9.99542
▁თანამშრომლებ	-9.99545
▁ხელები	-9.99548
▁შესწავლა	-9.9955
წუხ	-9.99555
▁მოყვარულ	-9.99556
▁სჯერა	-9.99563
▁საქმის	-9.99565
▁ბიჭ	-9.99587
▁მედიცინა	-9.99615
▁ამოხსნ	-9.99623
▁გამოუ	-9.99625
▁რაციონალურ	-9.99631
აშორის	-9.9967
▁სტუდენტებ	-9.99675
ხვევ	-9.99679
▁სერია	-9.99693
თაგანი	-9.99706
▁რჩევა	-9.99713
▁ბრიტანეთი	-9.99724
▁სახეობა	-9.99749
იციან	-9.99759
▁კიბო	-9.99803
▁იგრძნობ	-9.99807
▁მასალა	-9.99837
▁მეცნიერი	-9.99872
▁ყოფნის	-9.99888
▁სტილ	-9.99891
▁პრობლემების	-9.9993
▁გვეხმარებ	-9.99936
▁სახელმწიფო	-10.0001
▁მოხდე	-10.0007
▁დასასრულ	-10.0008
▁დავუბრუნდე	-10.0017
▁ნათელი	-10.0026
▁ზედა	-10.0032
▁ზრდასრულ	-10.0033
▁გარე	-10.0034
▁განვიხილოთ	-10.004
▁კულტურის	-10.004
▁ცნობიერი	-10.0047
ოლი	-10.0056
▁წინასწარმეტყველ	-10.0079
▁მოვა	-10.008
on	-10.0086
▁მკურნალობა	-10.0091
▁ტექნიკურ	-10.0097
ზო	-10.0101
▁ნაწილები	-10.0104
▁ლექსიკონი	-10.0107
▁ობიექტები	-10.0107
▁მონაცემ	-10.0109
▁წარმატება	-10.0115
ნება	-10.0127
▁პე	-10.0131
▁აზრები	-10.0148
▁იმედ	-10.015
▁ნაწილაკ	-10.0154
50	-10.0156
▁სამუშაოს	-10.0169
▁სტრუქტურები	-10.017
▁თვალები	-10.0178
ყოფა	-10.0191
▁იკითხ	-10.0211
▁ველ	-10.0217
▁რამის	-10.0217
▁საერთ	-10.0224
▁შვილები	-10.0226
▁ემოციები	-10.023
▁წილ	-10.0236
▁კულტურ	-10.0241
ყარ	-10.0241
▁გამართ	-10.0259
▁გამოჩნდ	-10.0266
▁შედეგებს	-10.027
▁ბირთვ	-10.0278
▁აინშტაინი	-10.0293
▁ლიდერი	-10.0293
▁პასუხებ	-10.0304
▁როლ	-10.0306
▁პლ	-10.0312
▁ჯანმრთელი	-10.0319
▁კოლ	-10.0328
▁მითხრ	-10.0352
▁პოლიცი	-10.0354
▁ფსიქოლოგ	-10.0356
▁ფილმი	-10.0362
რწმუნ	-10.0387
▁აზრს	-10.0391
ღე	-10.0414
ელები	-10.0427
▁ცნობილია	-10.043
კარ	-10.044
რიცხ	-10.0442
▁ნაწილაკები	-10.0443
▁ფუნდამენტურ	-10.0457
▁ქალიშვილი	-10.0458
▁სურათია	-10.0463
▁ქვ	-10.0479
▁ისტორიები	-10.0481
▁რადიუსი	-10.0513
▁მოდელ	-10.0515
ბოლო	-10.0516
▁დედაჩემი	-10.0532
ძლევ	-10.0547
▁ბავშვთა	-10.0549
იყავი	-10.0553
ელე	-10.0554
▁ზედმეტი	-10.0562
▁შტატები	-10.0568
ებები	-10.0598
▁ფართო	-10.0601
▁რომლებზე	-10.0612
იღო	-10.0616
▁ზეთ	-10.0624
▁სისხლ	-10.0628
ასდროს	-10.0648
▁პირდაპირი	-10.0653
▁ვასწავლი	-10.0658
ებრ	-10.0664
ამერიკელ	-10.0668
ქვეყნ	-10.0669
▁საკ	-10.0675
დგომა	-10.0688
ანადგურებ	-10.0696
▁საოცრ	-10.0706
ჭერი	-10.0707
სპექტ	-10.0711
▁უმრავლეს	-10.0711
▁ბიო	-10.0712
▁პაციენტები	-10.0713
▁მონაწილეობ	-10.0716
u	-10.0719
ეყენებინა	-10.0721
▁გამოწვეული	-10.0721
▁გექნება	-10.0721
▁დავბრუნდი	-10.0721
▁ეპოქა	-10.0721
▁ვიმედოვნებ	-10.0721
▁თვალსაზრისით	-10.0721
▁კონტექსტ	-10.0721
▁მაღაზი	-10.0721
▁მდგრად	-10.0721
▁მეუღლე	-10.0721
▁ნაშრომ	-10.0721
▁ოდნავ	-10.0721
▁პოლიტიკოსებ	-10.0721
▁სამსახურში	-10.0721
▁სასამართლო	-10.0721
▁საჭმელი	-10.0721
▁სპეციფიურ	-10.0721
▁ღილაკ	-10.0721
▁შავკანიან	-10.0721
▁შეგვეძლებ	-10.0721
▁შეესაბამებ	-10.0721
▁შევძლო	-10.0721
▁ცივილიზაცია	-10.0721
▁ციფრი	-10.0721
▁წარმოიდგინო	-10.0721
▁მეზობელ	-10.0721
▁კამერა	-10.0721
▁საწოლ	-10.0721
ვწერე	-10.0721
▁მანძილი	-10.0721
▁ჩავატარე	-10.0721
ანგარიშ	-10.0721
▁გზავნილი	-10.0721
▁ვისაუბრო	-10.0721
▁დინების	-10.0721
▁ვეძებ	-10.0721
▁მარჯვნი	-10.0721
▁შიმშილ	-10.0721
▁ინდოელ	-10.0721
▁მიღმა	-10.0721
▁სუპერმასიურ	-10.0721
▁სიკვდილიანობი	-10.0721
▁კლასიკურ	-10.0721
▁შოუ	-10.0721
▁ვიფიქრო	-10.0722
▁საგნები	-10.0722
▁მულტი	-10.0723
▁პოზიცია	-10.0724
▁გონების	-10.0725
▁კანად	-10.0725
▁დაფუძნებული	-10.0725
▁მოგვიანებ	-10.0725
▁სიტყვი	-10.0726
▁წვერ	-10.0726
▁ამდენი	-10.0726
▁იმყოფებ	-10.0727
▁წარმოუდგენელი	-10.0729
▁სრულყოფილ	-10.0729
▁ბიოლუმინესცენცი	-10.0729
▁1960	-10.0729
▁გამეგ	-10.073
▁ბადე	-10.0731
▁ფორმირ	-10.0731
▁ნაცნობ	-10.0732
▁სახეობის	-10.0733
თხოვნ	-10.0734
კვებ	-10.0739
▁არჩევნებ	-10.0741
▁დაზიანებული	-10.0742
▁გაქრ	-10.0743
▁მოხმარებ	-10.0743
▁ქუჩ	-10.0743
▁ბრიტანელ	-10.0749
▁შუა	-10.075
▁ევოლუციურ	-10.0751
▁სითხე	-10.0759
▁მისაღებ	-10.0765
▁ეკრანზე	-10.0767
▁შარდი	-10.0771
al	-10.0772
▁საშუალებები	-10.0772
ერგ	-10.0773
▁იცნობ	-10.0779
▁ითვლებ	-10.078
▁მოყოლ	-10.0783
▁ლურჯ	-10.0787
ვასრულებ	-10.079
▁ძალზე	-10.079
ზონ	-10.08
91	-10.0813
▁ვებ	-10.0813
▁განზომილებებ	-10.0815
▁დადებითი	-10.0816
დინება	-10.0828
▁ნაკად	-10.0828
▁კიბე	-10.0832
ლევ	-10.0833
▁კლასის	-10.0836
▁გამოიყენო	-10.0837
▁საქმიანობა	-10.0841
▁ობიექტურ	-10.0845
▁ცხოველებ	-10.0846
▁გავუ	-10.0847
▁კანონებ	-10.085
ტებს	-10.0851
▁დაინტერესებულ	-10.0855
▁50-	-10.086
▁გამოგონება	-10.0861
▁ამბებს	-10.0863
▁დაგი	-10.0864
წოდებ	-10.0871
▁მოქმედებ	-10.0871
▁ინტელექტ	-10.0922
▁ქვია	-10.0927
▁მამაკაც	-10.0937
▁ოცნება	-10.0937
▁ქსოვილი	-10.0976
at	-10.0989
▁აუ	-10.0989
▁წერა	-10.0992
▁ათი	-10.1006
ედი	-10.1013
ბარ	-10.1016
▁საკითხებ	-10.1018
▁მთა	-10.1024
▁მტკიცებულება	-10.1025
▁მიკრო	-10.1025
▁თავისუფლ	-10.1029
▁გამე	-10.1036
▁მასშტაბებ	-10.1067
an	-10.1072
გნებ	-10.1075
▁გენდერულ	-10.1079
▁სისტემები	-10.1089
▁მეტრი	-10.1095
წია	-10.1095
▁ჩინეთის	-10.1101
▁უცნობი	-10.1106
▁ნეიროგენეზს	-10.1115
ეშინია	-10.1142
▁ნახატ	-10.1142
▁ცხოველების	-10.1145
▁ნახშირბადი	-10.1163
▁რისკ	-10.1163
▁უცნობ	-10.1181
შენ	-10.1202
▁ერთდრო	-10.1223
▁ახალგაზრდებ	-10.1225
▁გოგოებ	-10.1252
▁შენობა	-10.1255
ოდე	-10.1257
ადმი	-10.126
სტატ	-10.1261
▁მარკ	-10.1262
▁სარგებელი	-10.1263
ფენ	-10.1265
▁აბსოლუტურ	-10.1273
▁პაციენტი	-10.1275
▁კომპანიები	-10.1277
▁ცარიელ	-10.1278
▁საუბარ	-10.1282
▁უზარმაზარ	-10.1282
▁ცნობილ	-10.1283
გვე	-10.1284
▁ბილ	-10.1285
▁უთანასწორობ	-10.1287
ბედნიერ	-10.129
ჩნდა	-10.1294
▁ქალბატონ	-10.1306
▁თავებ	-10.1313
ბრუნდებ	-10.1315
▁ცნობიერებაზე	-10.1315
▁ქვეყნების	-10.1332
▁სირთულე	-10.1334
იზაცია	-10.1346
▁გად	-10.1359
ექმნა	-10.1361
▁უარი	-10.1366
▁მატერია	-10.1378
▁რეალობას	-10.1382
▁მიმდინარე	-10.1383
▁გაზ	-10.1387
es	-10.1387
▁მოგვი	-10.1398
ნური	-10.1406
▁ფას	-10.1416
▁მომენტები	-10.1423
ეღო	-10.1433
▁პაციენტის	-10.1461
▁მივცე	-10.147
▁განსაზღვრ	-10.1471
▁ოჯახები	-10.1473
▁ტკივილ	-10.148
ჭრა	-10.1487
▁მისც	-10.1487
▁ავიღე	-10.1495
ეჭვ	-10.1502
▁აღნიშნ	-10.1503
▁შარ	-10.1508
ტონი	-10.1509
▁ჩაუ	-10.1524
ხვედრ	-10.1524
▁უყურებს	-10.154
▁ფორმები	-10.154
▁თავდა	-10.1542
გრძნო	-10.1542
▁ნივთი	-10.1553
ფუნქციონირ	-10.1554
▁ლიტერატურ	-10.1554
▁ფეხსაცმელ	-10.1554
▁ფილოსოფია	-10.1554
▁შეუსაბამო	-10.1554
▁ჰორიზონტ	-10.1554
ინჟინრ	-10.1554
▁გარდაიცვალ	-10.1554
▁გასართობ	-10.1554
▁გქონდე	-10.1554
▁დამნაშავე	-10.1554
▁დირექტორ	-10.1554
▁ვიტყოდი	-10.1554
▁ვყოფილიყავი	-10.1554
▁ინსტიტუტი	-10.1554
▁კოსმოსში	-10.1554
▁მოძალადე	-10.1554
▁მფლობელ	-10.1554
▁მჭიდრო	-10.1554
▁მხიარულ	-10.1554
▁რიტუალ	-10.1554
▁სახურავ	-10.1554
▁ურთიერთქმედებ	-10.1554
▁უღარიბეს	-10.1554
▁უჩვეულო	-10.1554
▁ყიდვა	-10.1554
▁ციტატა	-10.1554
▁წარმოვიდგინ	-10.1554
▁კორელაცი	-10.1554
▁მოგწონ	-10.1554
▁ქმედება	-10.1554
▁შევეცდები	-10.1554
▁ვქმნი	-10.1554
▁მეტისმეტ	-10.1554
▁მთავრობის	-10.1554
▁ფართოვდება	-10.1554
▁მოთხოვნა	-10.1554
▁გამოაქვეყნ	-10.1554
▁გადამწყვეტ	-10.1554
▁სიზუსტი	-10.1555
▁ჩამოყალიბებ	-10.1555
▁უკუკავშირ	-10.1555
▁ბანკ	-10.1555
▁ძიება	-10.1555
▁რადიაცი	-10.1555
▁აღქმის	-10.1556
▁სვამ	-10.1556
▁ზიანი	-10.1556
▁დასჭირდა	-10.1556
▁გადარჩენა	-10.1557
ოლოგია	-10.1557
▁ვაშლი	-10.1558
▁შესწავლი	-10.1559
▁შუქი	-10.1559
▁მდებარეობ	-10.156
▁კონორ	-10.1561
▁შეჭამ	-10.1562
▁მიაღწევ	-10.1562
▁სცენარი	-10.1563
▁მანქანის	-10.1563
▁მივდივარ	-10.1566
▁შემწყნარებლობა	-10.1566
▁ენტროპიის	-10.1567
▁განაწილებ	-10.1568
▁სასიამოვნო	-10.1569
▁საზღვარ	-10.1571
▁გაძლევ	-10.1572
▁მეკითხებ	-10.1573
შვილ	-10.1573
▁იძლევ	-10.1574
▁უარყოფით	-10.1574
▁დაწყებული	-10.1577
ტრიალებ	-10.1581
▁ფუტი	-10.1581
რღვევა	-10.1583
▁ეკუთვნის	-10.1583
▁გაიგებ	-10.1584
ვლინ	-10.1586
▁მიპასუხ	-10.1587
▁უწევ	-10.1587
▁მოძრაობას	-10.1596
▁სიმდიდრე	-10.1598
▁თანასწორობა	-10.1598
▁მოძრაობენ	-10.1605
▁შვა	-10.1609
ყრ	-10.161
ვლით	-10.161
▁ბრმა	-10.1612
▁შემოქმედებით	-10.1615
▁1000	-10.1618
▁400	-10.1619
▁მექანიზმ	-10.162
▁სინათლეს	-10.1625
▁ისტორიას	-10.1629
▁ერთგვარ	-10.1631
▁ვმუშაობდი	-10.1631
▁გამოყოფ	-10.1632
▁თქვ	-10.1637
▁ინტერნეტის	-10.1637
▁წვეულება	-10.1639
▁ფლუქტუაციები	-10.1641
▁გამოვიყენებთ	-10.1641
▁ინტერნეტში	-10.1642
▁გასაგები	-10.1642
▁მისცემ	-10.1643
▁გვერდით	-10.1645
ოვან	-10.1646
▁ანდერსონი	-10.165
▁პიკ	-10.1652
▁დავაკვირდ	-10.1664
▁პერიოდი	-10.1669
▁არსებები	-10.167
▁ფუ	-10.1674
▁გენეტიკურ	-10.1676
▁ყუთი	-10.1679
დიოდა	-10.1684
▁დონა	-10.1687
ქონი	-10.169
▁მეტიც	-10.169
▁ოფის	-10.1695
▁3-	-10.1697
▁ვეუბნები	-10.1702
▁ტანჯვა	-10.1707
▁მამაჩემი	-10.1708
▁300	-10.1725
ამუშავებ	-10.1729
ნიშვნ	-10.1733
▁ნახევარ	-10.1748
▁ველი	-10.1763
▁ეკ	-10.1769
▁ხერხ	-10.178
▁დავუშვ	-10.1781
▁შინ	-10.1783
▁მეცნიერული	-10.1784
▁მოლეკულა	-10.1795
▁კვლევების	-10.1796
▁ატომები	-10.1822
▁მოკვდა	-10.1832
▁უხილავი	-10.1858
▁ტალღები	-10.1868
ვინ	-10.1875
▁საშუალოდ	-10.1891
oot	-10.1895
მცველ	-10.1899
▁მოწყობილობ	-10.1901
▁ძალები	-10.1908
სწრ	-10.193
▁მიაღწი	-10.1936
▁პროცესის	-10.1942
▁დაბადების	-10.1948
▁ობიექტ	-10.1952
▁გავზომ	-10.1953
▁ნეირონ	-10.1954
ხართ	-10.1962
▁მართავ	-10.1967
▁ნახატი	-10.1984
ავდა	-10.1996
▁სტატისტიკა	-10.2005
▁ნეიროგენეზ	-10.2013
ემო	-10.2019
▁ცხოველი	-10.202
▁იცხოვრო	-10.204
▁ინტერნეტ	-10.2048
▁500	-10.2064
ხვალ	-10.2076
▁ეფექტურ	-10.2077
ყვნენ	-10.2079
▁დაბადებ	-10.208
▁ნორდენ	-10.2093
▁ლიდერებ	-10.2097
▁ნავთობის	-10.2115
▁ნავთობი	-10.2119
სრულებ	-10.214
▁დიდებულ	-10.214
▁პაციენტებ	-10.2142
▁გრძნობები	-10.217
▁ასეც	-10.2172
▁ასაკი	-10.2173
▁ტყუპ	-10.2177
▁რაღაცის	-10.2188
▁მდიდარ	-10.219
▁მიზან	-10.2191
ბული	-10.2192
▁მთავარ	-10.2196
S	-10.2197
ჯელ	-10.2199
ზოგ	-10.2202
▁მარტივ	-10.2223
▁მხარ	-10.2225
▁შიმპანზეები	-10.2253
მოდ	-10.2257
პირებ	-10.2257
▁მიგვ	-10.2261
▁ერთმანეთ	-10.2262
d	-10.2263
სახლ	-10.2265
უშავ	-10.2267
▁გაუმჯობესებ	-10.2268
▁გამოცდილებ	-10.227
ულიყო	-10.2271
▁ლოგიკ	-10.2273
ზოგავ	-10.2281
▁ნეირონებ	-10.2289
▁მმართველ	-10.2301
▁რევოლუცი	-10.2307
მრავლ	-10.2314
▁გაკვეთილ	-10.2316
რევა	-10.2318
▁გადაწყვეტა	-10.233
▁ვიცნობ	-10.2337
▁ქვე	-10.2342
▁ვატარებ	-10.2348
▁ჩანდ	-10.2349
▁მივი	-10.2353
▁საუკუნე	-10.2357
▁ელემენტ	-10.2389
ზრდ	-10.2394
▁ყველანაირ	-10.2401
▁ვისაუბრე	-10.2423
▁სტრესს	-10.2423
▁სლაიდი	-10.2424
▁ქუჩა	-10.2436
▁გალაქტიკებ	-10.2438
▁შემოქმედ	-10.2444
კონტროლო	-10.2453
▁იუპიტერ	-10.2463
▁ტემპერატურ	-10.2463
▁ძვირად	-10.2463
▁წვდომ	-10.2463
განმანათლებლო	-10.2463
გაღიზიან	-10.2463
▁ალექსანდრე	-10.2463
▁გვიყვარ	-10.2463
▁დასკვნა	-10.2463
▁ვახდენ	-10.2463
▁იატაკ	-10.2463
▁კუნძულ	-10.2463
▁მეხუთე	-10.2463
▁მიმზიდველ	-10.2463
▁მცირდებ	-10.2463
▁რესტორან	-10.2463
▁სამაგიერო	-10.2463
▁სიგიჟე	-10.2463
▁სიმფონი	-10.2463
▁სიღარიბე	-10.2463
▁სიღრმე	-10.2463
▁სპეციალურ	-10.2463
▁ფეხშიშველ	-10.2463
▁შევხვდი	-10.2463
▁შეზღუდვებ	-10.2463
▁წმინდა	-10.2463
ამოძრავებ	-10.2463
▁ნეოკორტექსი	-10.2463
▁შევქმნი	-10.2463
▁შვედეთ	-10.2463
▁შეფასებ	-10.2463
▁კურს	-10.2463
▁პირიქით	-10.2463
▁იქმნება	-10.2463
▁მოვათავს	-10.2463
▁ნაჩვენები	-10.2463
▁სტივენ	-10.2463
▁ფსკერ	-10.2463
▁ღრუბელ	-10.2463
▁დანახვის	-10.2463
▁ქონდე	-10.2463
▁ყვითელ	-10.2463
▁სტატუს	-10.2463
▁შრომი	-10.2463
▁მოახერხ	-10.2463
▁წარმოდგენი	-10.2463
▁გვხვდებ	-10.2464
▁სიჩქარი	-10.2464
▁კომუნიკაცია	-10.2464
იგრძენი	-10.2464
▁მოიცავ	-10.2464
▁შემცირება	-10.2464
▁მოგვცემ	-10.2465
▁ტოლი	-10.2465
▁ნდობი	-10.2465
ბლოკ	-10.2465
▁წარმოშობ	-10.2466
▁დავეხმაროთ	-10.2466
▁რადიო	-10.2466
▁ითხოვ	-10.2466
სახად	-10.2467
▁კაცმა	-10.2467
▁შენობებ	-10.2467
▁სწავლის	-10.247
▁მოკლ	-10.247
▁ქარი	-10.247
▁ვაჭრობ	-10.2471
ძრ	-10.2471
▁ციხ	-10.2474
▁დილა	-10.2475
ცხადებ	-10.2476
▁ფარგლებში	-10.2477
▁ისწავლო	-10.248
ბრუნო	-10.2481
▁მიგ	-10.2483
ცოც	-10.2491
▁ვნება	-10.2503
▁მოგება	-10.2508
▁მოხ	-10.2509
▁გორ	-10.2513
▁რადიკალურ	-10.2513
▁ქცევებ	-10.2513
▁ნაციონალურ	-10.2514
▁ძაღლ	-10.2517
▁შშ	-10.252
▁დავინახავ	-10.2528
▁აკადემიურ	-10.2529
▁ენერგეტიკულ	-10.2531
▁ძალისხმევ	-10.2533
ღარ	-10.2537
▁წარსულში	-10.2543
▁თანამშრომლობ	-10.2553
▁კვალ	-10.2558
▁თეორიულ	-10.2561
▁ანალიზი	-10.2576
▁წყვილ	-10.2579
უნებ	-10.2582
▁შეგეძლო	-10.2585
▁ჩარლი	-10.2587
▁მაგიდა	-10.2596
▁წერი	-10.2596
▁ტერმინი	-10.2598
▁შემთხვევები	-10.2599
▁ენაზე	-10.26
ხვიდე	-10.2622
▁ვან	-10.2623
განახო	-10.2628
▁000-	-10.2634
▁ყურადღების	-10.2643
▁მექანიზმები	-10.2644
▁ლოგიკურ	-10.2656
▁მდგომარეობის	-10.2662
▁ფასი	-10.2677
▁წყვეტ	-10.268
▁ესენი	-10.27
▁მოწყობილობები	-10.2703
▁ქაღალდი	-10.2704
▁ბიოლოგია	-10.2708
▁უშვებ	-10.2714
er	-10.2721
▁მთლიანი	-10.2727
▁75	-10.2732
▁კაცებ	-10.2737
▁გამოიყენება	-10.2741
ლობის	-10.2742
▁უფ	-10.275
▁ნერვულ	-10.2752
ხერხ	-10.2757
▁რობოტები	-10.276
▁ერთიანობ	-10.2764
▁თაგვი	-10.2766
ბრძანებ	-10.2768
▁სიმსივნე	-10.2776
▁აბსოლუტური	-10.278
ქვეშა	-10.2799
ემართა	-10.2801
▁მართვა	-10.281
▁გოგონები	-10.2811
ქვა	-10.2823
▁რამეები	-10.2824
ამაყ	-10.2826
ებოდი	-10.2828
▁ასო	-10.2832
▁ნელა	-10.2843
▁გააკეთეს	-10.2854
▁ადგილს	-10.2877
▁ეკრან	-10.2898
▁ეხმარებ	-10.291
▁ეტაპ	-10.2919
▁ჰმ	-10.2919
▁არასწორი	-10.2921
▁ბოთლი	-10.2945
c	-10.295
▁თაგვებ	-10.2955
▁დეტალებ	-10.2958
▁ნახევარს	-10.2959
ებელ	-10.2967
▁მიღწევები	-10.297
▁ჩვეულ	-10.297
▁წიგნები	-10.2972
▁ჩაგ	-10.2975
▁ზრდი	-10.2978
▁ზედაპირი	-10.2987
▁გენდერ	-10.3011
▁საკითხები	-10.3018
▁სხვაობა	-10.3018
▁გზაზე	-10.302
▁ფსიქოლოგია	-10.303
მართლებ	-10.3047
იერებ	-10.3066
▁მიხვდ	-10.3067
ობდა	-10.3069
დასტურ	-10.3086
▁მატერიალ	-10.3092
▁დიზაინი	-10.3102
▁იზრდებ	-10.3102
▁ვიყენებ	-10.311
▁იარაღ	-10.3127
▁სიმსივნეს	-10.3134
▁ამბების	-10.3136
▁იმუშავ	-10.3139
▁გინდ	-10.3144
ძრავი	-10.3147
▁ბიზნესი	-10.3166
▁წუთით	-10.317
▁მილ	-10.3178
ახალი	-10.3179
▁დაცულ	-10.319
▁უცხო	-10.3202
▁მოცემულ	-10.3202
▁პრაქტიკ	-10.321
,	-10.321
სხვა	-10.3218
▁დაკავშირებულ	-10.3234
▁მეცნიერებ	-10.3236
ახლა	-10.3243
▁კერძ	-10.3247
▁შეცდომები	-10.3247
ჭამ	-10.3256
▁ტექნიკ	-10.326
▁კვდებ	-10.328
▁ფინანს	-10.3285
▁მომე	-10.33
▁დიაბეტ	-10.3322
▁ანალიზ	-10.3339
▁კიდურ	-10.3346
ხსენი	-10.3359
▁მოსაზრება	-10.3367
▁განმარტ	-10.3372
▁თაობის	-10.3372
▁ვახსენე	-10.3373
ღერ	-10.3379
▁მეთოდ	-10.3382
▁იეროგლიფი	-10.3403
▁მონაცემი	-10.3414
▁ჰე	-10.3419
▁ბუნებრივ	-10.3427
უნდ	-10.3427
▁სტრესულ	-10.3441
▁იგრძნო	-10.3443
▁კაპიტალ	-10.3447
გონა	-10.3451
ექცია	-10.3461
რცში	-10.3463
▁ავტომატურ	-10.3463
▁ავღანეთ	-10.3463
▁აწარმოებ	-10.3463
▁ბიბლიოთეკ	-10.3463
▁ბოლცმან	-10.3463
▁დაბრკოლებ	-10.3463
▁დასჭირდება	-10.3463
▁ვაშინგტონ	-10.3463
▁ვუპასუხე	-10.3463
▁თერაპი	-10.3463
▁იდენტური	-10.3463
▁კანდიდატ	-10.3463
▁კონფლიქტ	-10.3463
▁მათემატიკურ	-10.3463
▁მეტაფორ	-10.3463
▁მივაღწიე	-10.3463
▁მომხმარებელ	-10.3463
▁მსუბუქ	-10.3463
▁ნიმუში	-10.3463
▁პაკისტან	-10.3463
▁პარასკევ	-10.3463
▁პარტნიორ	-10.3463
▁ჟილეტ	-10.3463
▁საკამათო	-10.3463
▁საპირისპირო	-10.3463
▁საქონელ	-10.3463
▁ღვიძლი	-10.3463
▁შეგვეძლო	-10.3463
▁წამყვან	-10.3463
▁ამოცანები	-10.3463
▁განხორციელებ	-10.3463
▁მათემატიკი	-10.3463
▁მოიპოვ	-10.3463
▁ნერვიულობ	-10.3463
▁პრევენცი	-10.3463
▁რობერტ	-10.3463
▁შემოსავლის	-10.3463
▁ჯანდაცვა	-10.3463
▁დახმარების	-10.3463
▁ვარჯიში	-10.3463
▁სიდიდე	-10.3463
▁გიგანტურ	-10.3463
▁სამზარეულო	-10.3463
▁მუსიკი	-10.3463
▁სიმბოლო	-10.3463
▁უშუალო	-10.3463
▁წარმოდგენები	-10.3463
-19	-10.3463
▁ქერქ	-10.3463
ესაჭიროება	-10.3463
▁კუნთი	-10.3463
▁ასახავ	-10.3463
▁განხილვ	-10.3463
▁გამრუდებ	-10.3463
▁შემოსავლებ	-10.3463
▁ვაკვირდებ	-10.3463
▁რესურსი	-10.3463
▁ეტყვი	-10.3463
▁ოდენობ	-10.3463
▁სარკი	-10.3463
▁სტატია	-10.3463
▁უფასო	-10.3463
▁ხედვის	-10.3463
▁განიცად	-10.3463
▁ევროპის	-10.3463
▁მკვეთრ	-10.3463
▁გამოიწვევ	-10.3463
▁დნმ	-10.3464
▁წესრიგ	-10.3464
▁გამოთვლა	-10.3464
▁გარკვევა	-10.3464
▁იტყოდ	-10.3464
▁ფასეული	-10.3464
▁ელექტრონულ	-10.3464
▁სკოტ	-10.3464
▁გარდაქმნა	-10.3464
▁ძმებ	-10.3465
▁ნაკრებ	-10.3465
▁შეხვედრა	-10.3465
▁გადაწყვიტა	-10.3465
▁დევიდ	-10.3465
▁კოსმოლოგ	-10.3465
▁უხეშ	-10.3465
▁ვოლ	-10.3465
▁მივყავარ	-10.3466
▁პარიზ	-10.3466
სათანადო	-10.3466
▁სიმაღლ	-10.3466
მუდმ	-10.3466
▁დაგვეხმარ	-10.3467
▁ეწოდება	-10.3467
▁სცენი	-10.3467
▁აქტივობის	-10.3467
▁ელექტრონები	-10.3468
▁ადგილ	-10.3468
▁ხარჯავ	-10.3468
▁27	-10.3468
▁დაცვის	-10.3468
▁აინტერესებ	-10.3469
▁ამცირებ	-10.3469
▁შეხედო	-10.3469
▁დამახსოვრებული	-10.3469
▁ლაპარაკობ	-10.3469
▁ვუწოდებთ	-10.347
▁შეიძ	-10.347
▁განკურნება	-10.347
▁ზონდ	-10.347
დექი	-10.3471
▁ძმა	-10.3472
▁ბრალი	-10.3472
▁საგანი	-10.3473
0-	-10.3474
▁ადამ	-10.3475
▁აგერ	-10.3475
▁სჭირდებოდა	-10.3479
▁თანახ	-10.3481
▁ერთმანეთთან	-10.3481
▁კურსი	-10.3484
▁აქტივობა	-10.3486
ედგინა	-10.3488
▁მდინარე	-10.3488
▁მაჩვენებ	-10.3489
▁სამჯერ	-10.3495
▁წამს	-10.3496
▁ბედი	-10.3497
▁საშიში	-10.3503
▁პრეზიდენტ	-10.3507
▁1.	-10.3509
▁მაგია	-10.3512
▁სასწავლ	-10.3513
▁განვ	-10.3513
დგინ	-10.3515
▁ბარ	-10.3532
▁გამორჩეულ	-10.3535
▁მამებ	-10.3535
▁ორსულ	-10.3536
▁დარვინის	-10.3537
▁ამერიკული	-10.3539
▁რწმენის	-10.3541
▁მხარი	-10.3542
ყოლი	-10.3542
ვრივ	-10.3544
▁იაფ	-10.3548
▁სიტყვებს	-10.3551
▁გაჩნდა	-10.3552
▁მოსაზრებ	-10.356
▁ლოს	-10.3561
▁ოდისევსი	-10.3566
▁ინდივიდუალური	-10.357
▁კვადრატულ	-10.3587
▁სასარგებლოდ	-10.3594
▁სადგურ	-10.3595
▁კინო	-10.3599
▁შთამბეჭდავი	-10.36
▁ჩართული	-10.36
▁ლაპარაკი	-10.3604
▁დიაბეტი	-10.3606
▁გაურკვევლობა	-10.3609
▁ძალის	-10.3609
▁ნაკლებობა	-10.3625
▁უნიკალური	-10.363
▁ნივთიერება	-10.3632
წერი	-10.3633
▁ფართოდ	-10.3637
ჩვე	-10.3639
▁ასპექტ	-10.364
▁ფინანსურ	-10.3644
აჩნია	-10.3646
▁ოჯახში	-10.3647
▁სახეზე	-10.3657
▁წამლები	-10.3665
▁უჯრედებ	-10.3682
▁ნეირომეცნიერებ	-10.369
▁დამტკიცებ	-10.3691
▁მომზადება	-10.3692
მტკიცებ	-10.3695
▁წევრ	-10.3697
▁მარკეტინგი	-10.3699
ეტის	-10.3706
▁ნათქვამი	-10.3711
le	-10.3713
რქვა	-10.3725
▁ბრძოლის	-10.3729
ეწყო	-10.3733
▁ჭამ	-10.3734
▁სვეტ	-10.3764
▁ადამიანისთვის	-10.3764
▁გარემოში	-10.3778
▁შეხედულებ	-10.3779
▁ბაზა	-10.3782
▁სკოლ	-10.3782
▁ღირებული	-10.3786
▁ფენომენი	-10.3788
ოქს	-10.3792
▁სხვათა	-10.3794
▁მატრიცას	-10.3801
▁ნაწილაკების	-10.3803
▁ცვლილებებს	-10.3836
▁ეკონომისტებ	-10.3858
▁ორგანიზაციები	-10.3863
▁მითოლოგია	-10.3868
▁სიგნალი	-10.3873
▁წარსულ	-10.3881
▁ტელესკოპ	-10.3923
▁185	-10.3925
კას	-10.3932
დანაშაულებ	-10.3933
▁სამყაროები	-10.3939
აგრძელებ	-10.3941
▁მასალი	-10.3942
▁კუბი	-10.3965
ბლა	-10.3969
▁სახეები	-10.4007
ed	-10.401
▁რამეებ	-10.4028
▁წარსული	-10.4035
▁შიმპანზე	-10.4056
ეთანხმები	-10.4077
▁ცენტრ	-10.409
▁წერ	-10.4098
▁ხსნი	-10.4119
▁გაგები	-10.4124
ვდება	-10.4125
▁მეცნიერები	-10.4132
▁ნივთიერებებ	-10.4144
▁საზოგადოებები	-10.4146
▁ტალღა	-10.415
მოსვლა	-10.4198
ეშინოდა	-10.4201
▁სიტუაცი	-10.4208
▁შესაძლო	-10.4209
▁მადლობ	-10.4211
▁22	-10.4217
▁მნიშვნელობ	-10.4222
▁ექიმები	-10.4224
კითხვის	-10.4225
▁შეხედულებებ	-10.4232
▁ფილმ	-10.4232
ტული	-10.4233
▁გვიან	-10.4234
▁დანაშაულ	-10.4264
▁ჯგუფები	-10.4266
იყოფა	-10.4275
▁მოგიყვე	-10.4275
▁ასწავლი	-10.4276
წყვეტ	-10.4283
▁აზროვნებ	-10.4287
▁გზებ	-10.4291
▁აბ	-10.4304
▁შესანიშნავ	-10.4304
T	-10.4305
ნგი	-10.4309
გონია	-10.4311
▁ურთიერთობები	-10.4316
▁ინსტრუმენტი	-10.4316
▁გიჩვენ	-10.4347
▁დათვ	-10.4349
▁მუსლიმ	-10.4357
ბალანსებ	-10.436
პტ	-10.4365
▁ვცხოვრობ	-10.4365
წინ	-10.4372
▁გაგრძელდე	-10.4372
10	-10.4379
ნაწილებ	-10.4381
▁კონტროლის	-10.4387
▁შედეგებ	-10.4388
მარჯვ	-10.4404
▁ყუთ	-10.4409
▁შემთხვევებ	-10.4409
▁მეცნიერულ	-10.4414
▁დაავადებების	-10.4433
ყიდი	-10.4436
▁კილომეტრ	-10.4452
▁მანქანებ	-10.4462
▁ასტრონომ	-10.4471
ყვება	-10.4486
ავდნენ	-10.4491
▁იზამ	-10.4516
▁ღარიბ	-10.4524
ინფორმაცი	-10.4531
ტელეფონ	-10.454
წავლ	-10.4545
▁აშენებ	-10.4545
მშვიდ	-10.4556
ნორმალურ	-10.4564
▁196	-10.4566
▁მხრ	-10.4567
დღეობით	-10.4567
▁ჯილდო	-10.4568
რთულ	-10.457
▁არქიტექტურ	-10.4574
▁გიმნოსოფოს	-10.4574
▁იდენტობ	-10.4574
▁საბერძნეთ	-10.4574
▁სიჩუმე	-10.4574
▁ტენდენცია	-10.4574
▁უბიძგ	-10.4574
▁შეიცვლებ	-10.4574
▁შეჯიბრ	-10.4574
▁ხანგრძლივი	-10.4574
▁აბსტრაქტულ	-10.4574
▁ამჟამინდელ	-10.4574
▁აშკარა	-10.4574
▁გაბედულ	-10.4574
▁გერმანიაში	-10.4574
▁გიყვარ	-10.4574
▁გრავიტაციის	-10.4574
▁დაუჯერებელი	-10.4574
▁დახვეწილ	-10.4574
▁დახმარებით	-10.4574
▁ვაფასებ	-10.4574
▁ვაღიარო	-10.4574
▁ვიბრირებ	-10.4574
▁ვიზუალურ	-10.4574
▁ვირტუალურ	-10.4574
▁ვყოფილვარ	-10.4574
▁ზეგავლენ	-10.4574
▁თეძო	-10.4574
▁კმაყოფილი	-10.4574
▁ლექციებ	-10.4574
▁მანჰეტენ	-10.4574
▁მაქსიმალურ	-10.4574
▁მიზიდულობ	-10.4574
▁მოვახდინოთ	-10.4574
▁მომხდარ	-10.4574
▁მოსალოდნელი	-10.4574
▁პატივისცემა	-10.4574
▁რელიგიის	-10.4574
▁რობოტი	-10.4574
▁სამართლიანობა	-10.4574
▁სამსახურს	-10.4574
▁სამხედრო	-10.4574
▁სენსორულ	-10.4574
▁სისწრაფი	-10.4574
▁ტრადიციულ	-10.4574
▁უაზრო	-10.4574
▁უზენაეს	-10.4574
▁ყოველწლიურ	-10.4574
▁ძვირი	-10.4574
▁წარმოგიდგენ	-10.4574
▁გამოსახულება	-10.4574
▁დავდიოდი	-10.4574
▁დასავლურ	-10.4574
▁თარიღ	-10.4574
▁პრემიერ	-10.4574
▁ფრაზა	-10.4574
▁ცხვირ	-10.4574
▁ჯორჯ	-10.4574
რეაქტორ	-10.4574
▁ანჯელეს	-10.4574
▁გლობალიზაციი	-10.4574
▁სიჩქარე	-10.4574
▁ტრილიონ	-10.4574
▁ღირდ	-10.4574
▁ვსწავლობ	-10.4574
▁მონადირე	-10.4574
▁შემთხვევის	-10.4574
▁გეგმებ	-10.4574
▁მომხრე	-10.4574
▁ფართე	-10.4574
▁რუქა	-10.4574
▁კრიზის	-10.4574
▁ვაწყდები	-10.4574
▁ბრუნავ	-10.4574
▁ზეფირ	-10.4574
▁დარტყმ	-10.4574
▁უცხოპლანეტელები	-10.4574
▁ლექცია	-10.4574
▁თამამ	-10.4574
▁შეამცირებ	-10.4574
▁კამერი	-10.4574
მტვერ	-10.4574
▁აგიხსნ	-10.4574
▁ეკოლოგიურ	-10.4574
▁ზიანს	-10.4574
▁ღამის	-10.4575
▁კაშკაშ	-10.4575
▁უცებ	-10.4575
▁ბრწყინვალე	-10.4575
▁დოზ	-10.4575
▁ევროზონ	-10.4575
▁ფარდობით	-10.4575
▁ვილაპარაკო	-10.4575
▁კომეტ	-10.4575
▁აღმოჩენის	-10.4575
▁სტატიკურ	-10.4575
▁სატურნ	-10.4575
▁ფერმერ	-10.4575
▁აღვიქვამ	-10.4575
▁გადაჭრის	-10.4575
▁შესაძლებლობის	-10.4575
▁გავიარე	-10.4575
▁საგნებს	-10.4575
▁შვილო	-10.4575
▁ითქვა	-10.4575
▁განიხილავ	-10.4575
▁მთხოვ	-10.4575
▁გაზრდის	-10.4576
ac	-10.4576
▁მიღწევის	-10.4576
or	-10.4576
▁გავლენი	-10.4576
▁გამოქვეყნდ	-10.4577
▁ბაღ	-10.4577
▁ჰომო	-10.4577
▁საზომი	-10.4577
▁აკონტროლებ	-10.4577
▁გამარჯვებ	-10.4577
▁დაფარული	-10.4577
▁მოტივაცია	-10.4577
▁მუსიკალურ	-10.4577
აკლია	-10.4577
▁197	-10.4578
▁გახლავ	-10.4578
▁ინტერ	-10.4578
▁მედიცინის	-10.4578
▁გამოხატავ	-10.4579
▁განაგრძობ	-10.4579
▁თითის	-10.4579
სინჯა	-10.458
▁ვპასუხობ	-10.4581
▁ცხელ	-10.4581
▁აყენებ	-10.4581
▁ეგონა	-10.4582
▁დავალება	-10.4582
▁დაიბად	-10.4582
▁მახე	-10.4583
▁32	-10.4584
▁ნიუტონ	-10.4584
▁ვრცელდებ	-10.4584
▁ყოველდღ	-10.4584
▁45	-10.4585
▁მეთქვა	-10.4585
▁თანხი	-10.4585
ამდენად	-10.4585
▁მყი	-10.4585
▁ინფორმაციულ	-10.4586
▁პროგრამირება	-10.4586
▁სიგრძ	-10.4589
▁კაპიტალიზმ	-10.4592
▁მივიდ	-10.4592
▁ანალოგი	-10.4594
▁უწყობ	-10.4596
▁კომპანიის	-10.4596
▁ობიექტებს	-10.4597
▁ხარჯები	-10.4601
ხორც	-10.4602
▁ბიჭებს	-10.4602
▁მოძებნ	-10.4606
▁არისტოტელე	-10.4611
▁ათენ	-10.4621
▁ქულებ	-10.4621
ნობელ	-10.4622
▁ვისაუბრებ	-10.4625
▁აისახებ	-10.4625
▁სუსტი	-10.4626
▁გავაერთიან	-10.4632
▁წარმოება	-10.4633
▁პოტენციალი	-10.4638
ლანდ	-10.4643
▁ზრუნვა	-10.4645
▁მედია	-10.4651
▁მეუბნებ	-10.4651
▁განაპირობებ	-10.4655
▁გაზეთ	-10.4659
▁სუბიექტური	-10.466
▁წამალი	-10.466
▁რეგენერაციულ	-10.4661
დროულ	-10.4661
▁ჩატარებულ	-10.4664
▁ცდა	-10.4666
▁გამოცდი	-10.4667
თესავ	-10.4668
▁გავხა	-10.4675
კიდე	-10.4681
▁ყოფილი	-10.4686
▁მკითხა	-10.4692
▁ნიშანი	-10.4694
▁ორბიტა	-10.4714
▁სექს	-10.4719
▁ნეო	-10.4719
▁სურვილები	-10.472
▁მოგვე	-10.4721
▁შინაარსი	-10.4722
▁ამბის	-10.4724
▁სულელური	-10.4728
შალა	-10.4731
▁ბედნიერები	-10.4733
▁მინ	-10.4735
▁გრძელი	-10.4736
▁მოკვდებ	-10.4739
▁2000	-10.4743
ვება	-10.4749
▁საჭიროება	-10.4749
▁წინსვლა	-10.4749
▁გასაღებ	-10.4753
▁შეამჩნიე	-10.4759
▁თეთრკანიანი	-10.4762
▁მოვლენებ	-10.4763
უდის	-10.4764
▁რევოლუციის	-10.4772
▁ასეთივე	-10.4778
▁ტალღებ	-10.4779
▁მიყვარ	-10.4789
▁ქრება	-10.479
▁გიჩვენებ	-10.4809
▁განათლებაზე	-10.481
▁ამზადებ	-10.4812
▁ძვირფასი	-10.483
▁ვაქცი	-10.4832
▁პერსპექტივა	-10.4832
▁დეტალური	-10.4835
▁მინისტრი	-10.4836
▁ინსტრუმენტ	-10.4839
▁ურთიერთობებ	-10.4839
▁კითხვის	-10.4845
▁190	-10.4848
▁T	-10.485
▁ღარიბი	-10.4855
▁დეტალი	-10.4862
▁ფასეულობ	-10.4864
▁გვითხრა	-10.487
▁თირკმელი	-10.4871
▁თვითმფრინავი	-10.4879
▁გუგლი	-10.4888
▁გაგვე	-10.4889
▁შეცვლი	-10.4891
▁ფილოსოფოსი	-10.4899
▁10-	-10.4901
▁სიახლეები	-10.4905
ვილი	-10.4912
ებამდე	-10.4915
▁ასწავლ	-10.4917
▁წერილი	-10.4925
▁გმირი	-10.4942
▁კლავ	-10.4958
▁ქალიშვილ	-10.4976
▁ახლო	-10.4988
▁ცივი	-10.4991
▁დიზაინ	-10.4994
▁საჩუქარი	-10.4994
▁სათაური	-10.4998
▁განათლებ	-10.4999
▁დანაშაულის	-10.5014
▁ოჯახებ	-10.5017
▁დინამიკ	-10.5048
ვიღებ	-10.5053
▁კარიერ	-10.5071
▁უარ	-10.5096
მოქმედებ	-10.5111
▁მოძრაობის	-10.5112
▁მკვლევარებ	-10.5116
▁უნარებ	-10.5116
▁დებატები	-10.5119
▁ტუალეტი	-10.5125
▁აღვ	-10.5138
▁მიხვდებ	-10.5138
ინოთ	-10.5153
▁ლამაზ	-10.5154
▁მოძრაობები	-10.5159
▁სურათებ	-10.5174
▁შექმნილ	-10.5211
▁ეტაპი	-10.5219
კლავ	-10.5224
▁600	-10.5227
▁კატა	-10.5234
ჩვენებ	-10.5239
▁დევ	-10.5266
▁ჩემნაირ	-10.5268
ისტები	-10.5304
▁მოლეკულები	-10.532
▁ღარიბებ	-10.5344
არტყ	-10.5364
მყარ	-10.5367
▁გოგონებ	-10.5368
▁ტიპ	-10.537
▁განმ	-10.5374
იდო	-10.5377
ნეტა	-10.538
▁უსაფრთხოებ	-10.5384
▁კონცეფცი	-10.539
▁მომც	-10.54
▁ჯუ	-10.5409
▁ყველ	-10.5409
▁შიმპანზეებ	-10.5434
მარტო	-10.5439
▁კონტროლი	-10.5444
▁ნოტ	-10.5445
▁გავლი	-10.5447
▁სივრც	-10.5447
▁სიმღერ	-10.5448
▁ძალაუფლებ	-10.5449
ვირჩევ	-10.5476
▁უნ	-10.5484
ხავ	-10.5485
▁შევძლებდი	-10.5487
ნადგურ	-10.5487
▁გააკეთე	-10.5499
▁ხელოვნურ	-10.5504
▁კორ	-10.5517
▁ნაწილაკებ	-10.5523
▁მეგობარ	-10.5549
▁ჟღერდ	-10.5561
▁ცხოველ	-10.5562
A	-10.5564
გვჭირდება	-10.5568
▁ექსპერიმენტები	-10.5577
▁დაავადებები	-10.5583
ამზადებ	-10.5584
▁ვნახავ	-10.5592
▁თხ	-10.5606
▁ხდები	-10.5609
▁წამლ	-10.561
▁დეტალურ	-10.5614
▁ზემო	-10.5621
▁მოვლენები	-10.5625
▁ძვირფას	-10.5631
▁ასაკ	-10.5632
▁დავაკვირდე	-10.5659
▁მოკვ	-10.5676
ეცემა	-10.5676
▁ოცნებ	-10.5681
▁ასტეროიდი	-10.5698
▁ევრო	-10.5704
▁თეთრ	-10.5709
▁ცვლილებებ	-10.5731
▁დარვინ	-10.5732
▁მანამ	-10.5742
▁დემოკრატ	-10.575
▁გაჩვენე	-10.5751
▁ზღვა	-10.5763
გნ	-10.5771
უმჯობესებ	-10.5772
▁პერსონალ	-10.5777
არღვევ	-10.5782
კურნავ	-10.5783
▁მიღებულ	-10.5787
▁აქტივ	-10.5789
ხსოვ	-10.5797
▁ნორმა	-10.5801
▁უარყოფ	-10.5802
უბედურ	-10.5806
სიამოვნო	-10.5808
▁გამოსახ	-10.5808
ცეკვა	-10.5811
აერთიანებ	-10.5814
▁შეუძლებელ	-10.5815
ინჟინერ	-10.5817
ჭირდე	-10.5818
ჭირა	-10.5819
▁იქცე	-10.5822
არკვევ	-10.5824
▁ჰიპოთეტ	-10.5824
▁ბიომასალ	-10.5824
▁გადაადგილებ	-10.5824
▁გაიფანტ	-10.5824
▁გაცნობიერებ	-10.5824
▁გულწრფელ	-10.5824
▁ინსტიქტ	-10.5824
▁იღბლიან	-10.5824
▁მიდრეკილებ	-10.5824
▁მუზეუმ	-10.5824
▁რეჟიმ	-10.5824
▁უდაბნო	-10.5824
▁წინასწარ	-10.5824
▁ჰიპოკამპ	-10.5824
▁ჰორმონი	-10.5824
განზომილებიან	-10.5824
დოქტორ	-10.5824
ზაფხულ	-10.5824
▁არაკომფორტულ	-10.5824
▁აღფრთოვანებული	-10.5824
▁გადაწყვიტე	-10.5824
▁გალაქტიკათშორის	-10.5824
▁განვიცადე	-10.5824
▁გრძელვადიან	-10.5824
▁დომინირებ	-10.5824
▁დონორ	-10.5824
▁დოფამინი	-10.5824
▁ვითარდება	-10.5824
▁ვნერვიულობ	-10.5824
▁თანაგრძნობი	-10.5824
▁თანამშრომელ	-10.5824
▁თვალსაჩინო	-10.5824
▁იზოლირებულ	-10.5824
▁იმპულს	-10.5824
▁ინოვაცია	-10.5824
▁ინტენსიურ	-10.5824
▁იუმორი	-10.5824
▁კაბინეტ	-10.5824
▁მახასიათებელი	-10.5824
▁მოვისმინე	-10.5824
▁მოვკვდები	-10.5824
▁მოთავსებული	-10.5824
▁მოთამაშე	-10.5824
▁მსოფლმხედველობა	-10.5824
▁მხარდაჭერი	-10.5824
▁პლანეტებზე	-10.5824
▁პოპულარული	-10.5824
▁სანტიმეტრ	-10.5824
▁საპასუხო	-10.5824
▁საცხოვრებელ	-10.5824
▁სინაპს	-10.5824
▁უახლოეს	-10.5824
▁ფლეიტებ	-10.5824
▁შთაბეჭდილება	-10.5824
▁ჩახლართულ	-10.5824
▁ძლევამოსილ	-10.5824
▁წარმომავლობ	-10.5824
▁ჭკვიანურ	-10.5824
▁ჰიპოთეზ	-10.5824
▁აპოლო	-10.5824
▁ბაქტერიებ	-10.5824
▁გამოვიკვლი	-10.5824
▁გვთავაზობ	-10.5824
▁მივდიოდი	-10.5824
▁მონაკვეთ	-10.5824
▁პედაგოგ	-10.5824
▁სიმართლის	-10.5824
▁უმველტ	-10.5824
▁ცხრა	-10.5824
▁ვთხოვე	-10.5824
▁ქიმია	-10.5824
▁ყინული	-10.5824
▁ამაღელვებელი	-10.5824
▁მალალა	-10.5824
▁ნაპრალ	-10.5824
▁ოქრო	-10.5824
▁ჰარვარდი	-10.5824
▁გაეგო	-10.5824
▁განსხვავებები	-10.5824
▁გითხარი	-10.5824
▁ნარჩენებ	-10.5824
▁ახლანდელ	-10.5824
▁ცხენი	-10.5824
▁იმიტირებ	-10.5824
▁ხელფას	-10.5824
▁წახალისებ	-10.5824
რეაგირებ	-10.5824
▁გვაინტერესებ	-10.5824
▁სიკვდილიანობა	-10.5824
▁ადაპტ	-10.5824
▁ვიტყვი	-10.5824
▁მიმართულება	-10.5824
▁მოპოვებ	-10.5824
▁უთხარი	-10.5824
▁იუსორ	-10.5824
▁წინაპრებ	-10.5824
▁გლუ	-10.5824
▁მიღების	-10.5824
▁მყისიერ	-10.5824
▁კრატერი	-10.5824
▁ზღვი	-10.5824
▁სჯეროდა	-10.5824
▁ხომალდი	-10.5824
▁გლობალიზაცია	-10.5824
იბოძე	-10.5824
▁ფონზე	-10.5824
▁ლაქებ	-10.5824
▁მიჰყვე	-10.5824
▁მღვდ	-10.5824
▁ბიძგი	-10.5824
▁ლაქა	-10.5825
▁ახერხებ	-10.5825
▁განცდებ	-10.5825
lo	-10.5825
▁სხივ	-10.5825
▁აფეთქდ	-10.5825
▁აღზრდი	-10.5825
▁ჩერდებ	-10.5825
▁მისტერია	-10.5825
▁შევეხ	-10.5825
▁ნიჭი	-10.5825
▁თავისებურ	-10.5825
▁საფუძვლად	-10.5825
▁ჩინურ	-10.5825
▁ავხსნა	-10.5825
▁აღდგენა	-10.5826
▁ტყვი	-10.5826
▁შეტევ	-10.5826
▁ვისწავლო	-10.5826
▁სულიერი	-10.5826
▁ქცევით	-10.5826
▁დაშვებული	-10.5826
▁შევამცირ	-10.5826
▁ჭირდება	-10.5826
▁გამოსვლის	-10.5826
▁განცდი	-10.5827
▁ბლოკავ	-10.5827
▁სიმებს	-10.5827
კვანძ	-10.5827
ar	-10.5827
▁ზრუნავ	-10.5827
▁შეასრულ	-10.5827
▁წარწერ	-10.5828
▁საკეტი	-10.5828
▁ინდურ	-10.5828
თხრობ	-10.5828
▁99	-10.5829
▁ქირურგი	-10.5829
▁ზუსტი	-10.5829
▁მაისურ	-10.5829
▁ინფექცი	-10.583
is	-10.5831
▁ძილი	-10.5831
▁დისკუსია	-10.5831
▁კონფერენცია	-10.5833
შფოთვ	-10.5834
▁ხმები	-10.5834
▁ზომები	-10.5834
▁მიცემა	-10.5834
▁მტრ	-10.5834
▁უწყვეტ	-10.5834
▁ურთიერთობის	-10.5835
▁ერიკ	-10.5836
▁სიხშირე	-10.5836
▁ინვესტიციებ	-10.5836
▁გამოიყენეს	-10.5836
▁გააუმჯობეს	-10.5838
▁მოხვედრ	-10.584
▁იმიგრაცი	-10.584
▁ესაუბრ	-10.584
▁იჯდ	-10.5841
▁დაკვირვებით	-10.5843
▁დაშორებით	-10.5843
▁უკვდავების	-10.5843
▁ანათებ	-10.5843
▁გამოსახული	-10.5844
▁რამდენჯერ	-10.5846
▁იდე	-10.5847
▁ოპერაცია	-10.5847
▁იგებ	-10.5847
▁განვაგრძობ	-10.5849
▁დედამის	-10.5851
▁ტონა	-10.5852
▁კულტურული	-10.5852
▁ტელეფონი	-10.5852
▁მოხდენა	-10.5853
▁ტოვებს	-10.5854
▁განსაზღვრული	-10.5855
კაცრ	-10.5856
▁დაწერილ	-10.5859
▁პროგრეს	-10.5862
▁ჯდება	-10.5863
▁გმირები	-10.5865
▁აზრიანი	-10.5866
▁ბავშვებმა	-10.5868
თავისუფლებ	-10.5871
▁შემწყნარებლ	-10.5873
▁გადმოსა	-10.5875
▁შემოქმედება	-10.5875
▁კავშირში	-10.5876
▁გეუბნებ	-10.5878
▁გარდაუვალი	-10.5883
▁ბავშვებზე	-10.5886
ნაწილ	-10.5887
▁გაშვებ	-10.5887
▁კვლევებ	-10.5889
▁ინგრედიენტები	-10.5891
▁იფიქრებ	-10.5891
არჩევნ	-10.5893
▁ირჩევ	-10.5894
▁ევროპაში	-10.5894
▁ოკეანეში	-10.5895
▁60-	-10.59
▁დანიშნულება	-10.5905
▁კონფიგურაცია	-10.5905
▁კამპანია	-10.5905
▁აღმოჩენილი	-10.5914
▁ვარსკვლავებს	-10.5914
▁ენით	-10.5917
▁ქურ	-10.592
▁პატიმარი	-10.5922
and	-10.5922
▁ლათინურ	-10.5922
▁თამაშობ	-10.5929
უშვებ	-10.5931
▁კეთები	-10.5933
▁კლინიკურ	-10.5934
ქორწინო	-10.5934
▁ლიბერალურ	-10.5936
▁გამოიყენებ	-10.5936
▁რეგენერაცია	-10.5938
▁ვთვლი	-10.5943
▁უნარშეზღუდულობ	-10.595
ვუწოდებ	-10.5951
▁ასტეროიდ	-10.5951
▁ორბიტაზე	-10.5957
ტეხ	-10.5957
▁საქციელი	-10.5965
▁აღნიშნავ	-10.5967
▁ცენტრებ	-10.5968
▁მივცემ	-10.5971
▁სისხლის	-10.5982
▁ბლოკჩეინი	-10.5985
▁ჰალ	-10.5986
▁ეთქვა	-10.599
▁მკვლელობ	-10.6002
▁სასურველი	-10.6002
იანებში	-10.6004
ეშვა	-10.6015
▁წითელი	-10.6019
▁ბო	-10.6022
▁კლასში	-10.6024
▁დელი	-10.6026
▁გამოიყურებოდ	-10.6036
▁განცალკევებული	-10.6039
▁უმაღლესი	-10.6039
▁ისტორიულ	-10.6044
▁წერტილები	-10.6046
▁დაავადებულ	-10.6049
▁მასწავლებელ	-10.6065
▁ბავშვობა	-10.6091
▁მიტან	-10.6092
ბოდიშ	-10.6106
▁სტანდარტები	-10.6113
▁ჰერ	-10.6119
▁მეთოდები	-10.6133
▁მობილური	-10.6139
▁იმოქმედ	-10.6145
▁ახსენ	-10.615
რვა	-10.618
▁ქმედებები	-10.6189
▁მოაქვ	-10.619
ვალების	-10.6205
▁ქალბატონებ	-10.6217
▁ექსტაზი	-10.623
▁რითი	-10.6233
▁გაერთიანებული	-10.6236
▁ვაჩვენე	-10.6258
▁შენარჩუნებ	-10.6259
▁ვაჟი	-10.6262
▁250	-10.6266
უერთდ	-10.6287
▁მლ	-10.6289
▁გაფართოებ	-10.6295
▁დიაგნოზი	-10.6303
ენილი	-10.6313
▁პროცესები	-10.6337
▁მატერიალები	-10.6343
სრულდება	-10.6348
▁მახასიათებლები	-10.6359
▁გასწ	-10.6369
▁პროდუქტ	-10.637
რთულებ	-10.6378
▁კუ	-10.6419
▁სუპერინტელექტი	-10.6453
▁საწვავი	-10.6454
▁იდგ	-10.6482
▁იდეის	-10.649
▁გაიარ	-10.6492
▁აღმოაჩინო	-10.6495
▁ეკრანის	-10.6506
ახურებ	-10.6516
▁მოლეკულებ	-10.6522
კლას	-10.6535
▁დაკვირვებებ	-10.6538
პირდი	-10.6543
▁სპეციალისტ	-10.6546
ოფლ	-10.6548
▁რეგენერაციის	-10.6557
თვალო	-10.6559
იტაც	-10.6577
▁მომენტ	-10.6578
▁მკვლევარ	-10.6586
▁შევიდ	-10.6597
დგება	-10.6605
▁ჟანგბადი	-10.6637
▁მომენტებ	-10.667
▁მოგცე	-10.6676
▁ბოთლებ	-10.6678
▁დაინტერეს	-10.6686
▁რაღაცეებ	-10.6687
იჯი	-10.6747
▁მოგვ	-10.6747
▁ცივ	-10.6751
ეხმარება	-10.6756
▁მატრიცა	-10.6779
▁ვაჟ	-10.679
▁თქმ	-10.6791
▁რობოტებ	-10.6791
მაღლ	-10.6793
ტინა	-10.6793
იჯერებ	-10.6799
▁ბიოლოგი	-10.6818
ხმარებოდ	-10.6835
▁სიახლე	-10.6837
▁მაგნიტი	-10.6844
ჩვენ	-10.6845
▁გამოკითხ	-10.6849
ეუბნება	-10.6855
▁ზეგამტარ	-10.6856
▁საღ	-10.6858
▁დაკარგულ	-10.6863
ვდგები	-10.6867
▁დამოუკიდებლ	-10.6868
▁უზრუნველყო	-10.6888
იზაცი	-10.6893
▁აუდიტორი	-10.6894
ჩინა	-10.6896
▁ღირებულ	-10.6965
▁ყურადღები	-10.697
▁სხეულები	-10.697
▁დეტალები	-10.6987
B	-10.6991
წინასწარმეტყველ	-10.6993
▁მისცე	-10.7005
▁დაკვირვების	-10.7031
ტეტ	-10.7032
▁გენეტიკ	-10.704
▁გთხოვ	-10.7041
ხვდა	-10.7049
ეფექტ	-10.7074
▁კვადრატ	-10.7075
▁ლიდერ	-10.7158
▁გეშინ	-10.7172
▁დასრულდ	-10.7181
იკითხო	-10.7185
მეორე	-10.7188
▁უყურე	-10.7202
აფეთქებ	-10.7207
ბომბ	-10.7211
ქმნა	-10.7211
მანქან	-10.7215
მოწმებ	-10.7222
გარეუბნ	-10.7224
ეცოდინება	-10.723
▁პროგნოზი	-10.7236
▁ალბათობი	-10.7241
მიგრაცი	-10.7241
აღელვებ	-10.7242
მკურნალო	-10.7242
▁სხვის	-10.7243
კონფერენცი	-10.7243
▁მიწის	-10.7247
▁დავტოვე	-10.725
აკმაყოფილებ	-10.7251
ჩქარ	-10.7251
▁მაგისტრ	-10.7252
▁ოპტიმიზ	-10.7253
▁უმცირეს	-10.7253
▁უმჯობეს	-10.7253
ახლოვებ	-10.7253
ფილოსოფიურ	-10.7253
▁ავტომობილ	-10.7253
▁აკავშირებ	-10.7253
▁ალტრუიზმ	-10.7253
▁ანესთეზი	-10.7253
▁აქტუალური	-10.7253
▁აღსაწერად	-10.7253
▁გავმხდარ	-10.7253
▁გამომეტყველებ	-10.7253
▁განლაგებულ	-10.7253
▁განპირობებული	-10.7253
▁გემრიელი	-10.7253
▁დამოუკიდებელ	-10.7253
▁დამწვრობ	-10.7253
▁დეტექტორ	-10.7253
▁დინამიურ	-10.7253
▁ეუბნები	-10.7253
▁ვიპოვო	-10.7253
▁ვღებულობ	-10.7253
▁თავდაპირველ	-10.7253
▁თანაშემწე	-10.7253
▁თანმიმდევრ	-10.7253
▁კალუცო	-10.7253
▁კაპიტან	-10.7253
▁კომბინაცი	-10.7253
▁კონცენტრაცია	-10.7253
▁კოსმოსი	-10.7253
▁კრეატიული	-10.7253
▁კრიტიკა	-10.7253
▁ლევიტაცია	-10.7253
▁ლუთერ	-10.7253
▁მატრიცის	-10.7253
▁მზრუნველ	-10.7253
▁მიიჩნევ	-10.7253
▁მიწიერი	-10.7253
▁მკვდარი	-10.7253
▁ნამცხვარ	-10.7253
▁ნახტომი	-10.7253
▁ნიშნები	-10.7253
▁პატრიარქალურ	-10.7253
▁პიროვნულ	-10.7253
▁პლანეტარიუმ	-10.7253
▁პოზიტიური	-10.7253
▁პროტეომიკებ	-10.7253
▁საზიანო	-10.7253
▁საზღვრები	-10.7253
▁საზღვრებს	-10.7253
▁საპენსიო	-10.7253
▁სახიფათო	-10.7253
▁სიბრძნე	-10.7253
▁სილამაზე	-10.7253
▁სიძულვილ	-10.7253
▁სქესის	-10.7253
▁ტანსაცმელ	-10.7253
▁ტერიტორი	-10.7253
▁ტკბილი	-10.7253
▁ტრადიცია	-10.7253
▁ტრადიციები	-10.7253
▁ტრანსგენდერ	-10.7253
▁უახლეს	-10.7253
▁ულტრა	-10.7253
▁უსარგებლო	-10.7253
▁ფილოსოფიის	-10.7253
▁ფირფიტ	-10.7253
▁ფუნქცია	-10.7253
▁ფუნქციებ	-10.7253
▁ღალატი	-10.7253
▁შეგრძნებებ	-10.7253
▁შეთქმულებ	-10.7253
▁ჩარჩო	-10.7253
▁ცივილიზაციები	-10.7253
▁ცივილიზაციის	-10.7253
▁წარმოიქმნებ	-10.7253
▁წარმოსახვა	-10.7253
▁ჯარისკაც	-10.7253
▁ჰუმანიტარულ	-10.7253
▁2012	-10.7253
▁გაგიგია	-10.7253
▁გარდაცვლილ	-10.7253
▁დავასრულო	-10.7253
▁ვდგავარ	-10.7253
▁იმუშაო	-10.7253
▁კატასტროფ	-10.7253
▁კომფორტ	-10.7253
▁კრიტიკულ	-10.7253
▁ლონდონ	-10.7253
▁მოახდენ	-10.7253
▁მოლოდინი	-10.7253
▁ნევროლოგ	-10.7253
▁ფანტასტიკ	-10.7253
▁ფილტრ	-10.7253
▁შთააგონ	-10.7253
▁წარმოგიდგინ	-10.7253
▁წვლილი	-10.7253
ვარჯიშე	-10.7253
▁გაჩერდ	-10.7253
▁დრამატულ	-10.7253
▁ვიპოვე	-10.7253
▁კითხულობ	-10.7253
▁მენტალურ	-10.7253
▁აღძრავ	-10.7253
▁მდიდრებ	-10.7253
▁მრავალფეროვან	-10.7253
▁ჩამოაყალიბ	-10.7253
▁ხაზები	-10.7253
▁ინტელექტუალურ	-10.7253
▁შაქრი	-10.7253
▁ცისფერ	-10.7253
▁გაზომვა	-10.7253
▁დავიბადე	-10.7253
▁შემდგარ	-10.7253
▁გრადუს	-10.7253
▁ბოროტ	-10.7253
▁მატერიის	-10.7253
▁დამუშავება	-10.7253
▁სწამ	-10.7253
▁მომსახურებ	-10.7253
93;	-10.7253
▁გაკეთებული	-10.7253
▁ქარხანა	-10.7253
▁დაგარწმუნ	-10.7253
▁კენედი	-10.7253
▁ევროკავშირ	-10.7253
▁მოქალაქეებ	-10.7253
▁შრომა	-10.7253
▁სიმაღლეზე	-10.7253
▁ვიპოვი	-10.7253
▁მოსმენა	-10.7253
▁ქანდაკება	-10.7253
▁ჩამოყალიბდ	-10.7253
▁უბნებ	-10.7253
ჯახო	-10.7253
▁არაფრის	-10.7253
▁ვხარჯავ	-10.7253
▁განვსაზღვრო	-10.7253
▁სმითი	-10.7253
▁გააზრება	-10.7253
▁კაბელი	-10.7253
▁ვცადე	-10.7253
▁მიმავალ	-10.7253
▁ადასტურებ	-10.7253
▁ჩამორჩ	-10.7253
▁აღმოჩენებ	-10.7253
▁გვასწავლ	-10.7253
▁შევცვლი	-10.7253
▁ფოსო	-10.7253
▁კამათი	-10.7254
▁კომპოზი	-10.7254
▁სურდა	-10.7254
▁არავითარ	-10.7254
▁შუში	-10.7254
▁მშენებლობ	-10.7254
სხვავებ	-10.7254
▁ლურია	-10.7254
▁ვცადო	-10.7254
▁მოგინდე	-10.7254
▁ვიზრდებ	-10.7254
▁ქეის	-10.7254
▁შემცირები	-10.7254
▁მშობლიურ	-10.7255
▁ნახვა	-10.7255
▁გთავაზო	-10.7255
▁ეტყო	-10.7255
▁გადაცემა	-10.7255
▁ქსელი	-10.7255
▁მხედველობა	-10.7255
▁ცნება	-10.7255
▁გასვლა	-10.7255
▁ტრანს	-10.7255
▁სექტემბერ	-10.7256
▁კორპორაცი	-10.7256
▁იკარგებ	-10.7256
▁მოვიყვან	-10.7256
▁აგენტ	-10.7256
▁ბიუჯეტი	-10.7257
▁სიყვარულს	-10.7257
ჭირო	-10.7257
▁ველოდი	-10.7257
▁წახვიდე	-10.7258
oo	-10.7258
▁მიდიხარ	-10.7258
▁თანხებ	-10.7258
▁ინვესტიცია	-10.7258
ყოლოდ	-10.7258
▁შეამჩნევთ	-10.7259
მოვიღე	-10.7259
▁მოგონება	-10.7259
▁ახასიათებ	-10.726
▁ქველმოქმედება	-10.726
▁საძიებ	-10.726
▁გადარჩენის	-10.726
▁გამოკითხვა	-10.7261
▁კუჭ	-10.7261
▁მოვიქცე	-10.7261
▁ქმარ	-10.7262
▁ჩანაწერი	-10.7263
▁ვიყიდ	-10.7263
ყვავ	-10.7263
▁რაკეტებ	-10.7263
▁შეკავებ	-10.7265
ნერგო	-10.7265
▁გულუხვ	-10.7265
▁გამოვედი	-10.7266
▁გყავ	-10.7266
კვრივ	-10.7266
▁ამტკიცებ	-10.7266
▁იხდი	-10.7267
▁პოლ	-10.7267
▁მსხვერპლებ	-10.7267
▁რაციონი	-10.7268
▁გადავედი	-10.7268
▁65	-10.7268
▁ფულად	-10.7268
ცეკვავდ	-10.7268
▁ზევით	-10.7269
▁მომხმარებლებ	-10.7269
▁ჯეი	-10.7269
▁დაძლევა	-10.7269
▁მშვიდობ	-10.727
▁გარეუბან	-10.727
▁ხორცი	-10.7271
▁მიდიან	-10.7271
▁ჩვილ	-10.7272
აწინა	-10.7273
▁ტედ	-10.7273
▁ნამუშევარ	-10.7274
▁განმარტება	-10.7276
თავაზ	-10.7278
▁დაუჭირ	-10.728
▁თანაბარ	-10.7281
▁აზია	-10.7281
▁ძიების	-10.7285
▁1950	-10.7288
▁აშენებული	-10.7292
▁მარკეტინგში	-10.7293
▁დედებ	-10.7295
ლაინ	-10.7295
▁აჩენ	-10.7295
▁გაივლი	-10.7297
▁ექსპ	-10.7298
▁აჰ	-10.7301
▁დავარქვ	-10.7302
▁თევზი	-10.7303
▁პოლიტ	-10.7304
▁საფუძველზე	-10.7305
▁ყოველგვარ	-10.7311
▁გამოიგონ	-10.7317
▁წაიკითხ	-10.7319
▁იქონი	-10.7321
▁საფო	-10.7321
▁იცავ	-10.7323
▁ნაჭერ	-10.7327
▁თვენ	-10.7328
გივე	-10.7334
▁უეც	-10.7335
▁იმუნ	-10.7348
▁დაეხმარ	-10.7348
▁გაუკეთ	-10.7351
▁შენიშნ	-10.7357
ზარალ	-10.7358
რიგებ	-10.736
▁ვერსია	-10.7364
▁სტატისტიკურ	-10.7365
▁ისტორი	-10.7366
▁ეჭვი	-10.7372
▁გამოყოფილ	-10.7372
▁წრ	-10.7376
▁ისწავლე	-10.7393
▁ხალხისთვის	-10.7395
ვამტკიცებ	-10.7397
▁საჭიროებებ	-10.7398
მტკიც	-10.74
▁მოიქცე	-10.7403
▁გადაწყვეტილებ	-10.7409
პასუხისმგებლობა	-10.7417
▁თანდა	-10.7432
ყალიბებ	-10.7433
რიანი	-10.7439
წერო	-10.7442
▁ჟურნალის	-10.7446
▁შედ	-10.7449
▁დაარტყა	-10.745
▁პირობა	-10.7461
▁კინგ	-10.7466
▁შედგ	-10.7469
▁დევნ	-10.7471
▁გამოჩნდებ	-10.7473
▁ნიკ	-10.7473
▁გამოვც	-10.7487
▁იქვე	-10.7495
რეცხ	-10.7496
▁ფონდ	-10.7501
▁წერილ	-10.7506
▁გრაფიკზე	-10.7509
▁იპოვ	-10.7529
▁ეხებოდ	-10.753
▁ბაზრები	-10.7531
▁ოცნებები	-10.7541
▁იუ	-10.7542
წირა	-10.7549
▁პი	-10.7585
ოლოგიურ	-10.7596
▁წეს	-10.7599
▁ინდუსტრიულ	-10.7605
▁ჟა	-10.7605
▁ცხოვრებისეულ	-10.7607
სახელებ	-10.7617
▁გამოსცადე	-10.7618
ქნა	-10.7628
▁ვაკ	-10.7643
▁სტანდარტულ	-10.7647
▁მოვახერხე	-10.7649
▁სირთულეები	-10.7654
▁მიაგნ	-10.7668
აგზავნი	-10.7675
▁აიღო	-10.7681
▁გუ	-10.7691
▁რეგიონებ	-10.7703
ეწვი	-10.7708
▁ექსპერიმენტებ	-10.7711
▁გამორთ	-10.7713
▁ფეხი	-10.772
▁ცეცხლ	-10.7723
ბოლ	-10.7729
▁მიგვაჩნ	-10.7733
ფუძნებ	-10.7737
უდგე	-10.7789
ირების	-10.7818
რითმი	-10.7836
სრულებლ	-10.7846
ხმაურ	-10.7869
მაგი	-10.7888
▁კონსერვატორებ	-10.79
▁აღმოჩნდებ	-10.7904
▁ტუალეტებ	-10.7938
ფრენ	-10.7941
▁იპოვო	-10.7957
ll	-10.7962
▁კონტროლ	-10.7972
▁გამოიყენ	-10.801
▁მთლ	-10.8024
ვაკეთოთ	-10.8043
▁ავტორი	-10.805
ბორ	-10.8073
ხსნა	-10.8085
en	-10.8104
▁სტანდარტ	-10.8108
▁დაავადებებ	-10.8138
▁დასავლეთი	-10.8142
▁მასწავლებლის	-10.815
▁მოდიოდ	-10.8151
▁გადარჩე	-10.8158
▁მოგვიწ	-10.8175
უპ	-10.8178
▁ტალღ	-10.8189
▁უფლებებ	-10.8201
წილად	-10.8201
კოპ	-10.8214
▁ფილოსოფოს	-10.8244
▁მასწავლებელთა	-10.8258
▁გადადი	-10.8282
▁ახალგაზრდობ	-10.8295
▁ჟანგბად	-10.8299
▁სათაურ	-10.8299
ეწია	-10.8311
▁დანადგარებ	-10.832
▁რჩებ	-10.8323
▁აღიარ	-10.8324
▁შემოდი	-10.8329
▁მოწყობილ	-10.8346
▁კომპიუტერები	-10.8348
▁თვლიდ	-10.8351
▁ბავშვებ	-10.8378
ქორწინ	-10.8379
▁ნერვ	-10.8391
▁55	-10.8407
თხელ	-10.8419
▁გახსნ	-10.8436
ჯანსაღი	-10.8448
ხვეული	-10.849
ტიკური	-10.8497
▁გასცემ	-10.8529
▁ორბიტ	-10.8533
▁პერსპექტივ	-10.8534
▁მომზადებ	-10.8536
▁უფლებების	-10.8547
▁რუკ	-10.8552
▁ერთიდაი	-10.8559
▁საფუძველ	-10.8582
ქრ	-10.8582
▁უკანასკნელ	-10.8584
▁ამერიკელების	-10.8593
▁გავიდ	-10.8595
▁მოხვდ	-10.8599
▁არცერთ	-10.8612
იცოცხლო	-10.8612
▁ბაზრ	-10.8613
▁ავადმყოფობ	-10.8617
აყენ	-10.8624
▁უმაღლეს	-10.8634
▁განცალკევებულ	-10.8634
▁ორგანოებ	-10.8635
▁თეთრკანიან	-10.8636
▁უნიკალურ	-10.8638
ვრები	-10.8646
ნახევარ	-10.8653
მარტივ	-10.8654
▁შანს	-10.8656
▁კონტრაქტ	-10.8658
▁იდეალურ	-10.866
მსგავს	-10.8663
▁იდეებ	-10.8683
ვადგინო	-10.8686
▁ჩარლ	-10.8687
მოსავალი	-10.8688
▁ბიოლოგიურ	-10.8698
▁განვიხილო	-10.8706
▁ბოთლ	-10.8731
▁ზრდასრულებ	-10.8731
▁საბრძოლ	-10.8732
სასრული	-10.8732
▁ფლუქტუაცი	-10.8741
სვლაში	-10.8745
n	-10.8748
▁თავდაჯერებულ	-10.8752
▁მუშა	-10.8758
ee	-10.8772
11	-10.8779
მცირებ	-10.8791
▁სამიზნ	-10.8792
▁მოახდინო	-10.8794
▁ამოვ	-10.8795
▁აკვირდებ	-10.8816
▁ვუწოდ	-10.8817
▁სიგნალები	-10.8819
▁ევროპა	-10.8825
შემძლე	-10.8829
▁გოლფ	-10.8829
ტრუ	-10.8832
▁აღიქვა	-10.8832
შუა	-10.8844
▁გაიგე	-10.886
▁თევზ	-10.8861
მსხვერპლ	-10.8862
ხდე	-10.8873
ბოდათ	-10.888
საზღვრო	-10.8882
▁პრობლე	-10.8886
ციონალურ	-10.8888
▁ოკეანე	-10.8889
▁ტიპიურ	-10.8889
ვიტანო	-10.8891
მოქმედო	-10.8891
რჩეულ	-10.8892
ტრანზიტ	-10.8896
კომპანი	-10.8898
ახორციელებ	-10.8908
ზუსტ	-10.8909
ყენება	-10.891
დისკუსი	-10.891
სუნთქვა	-10.8911
ქირურგ	-10.8912
▁პარკი	-10.8912
არჩენ	-10.8913
კლებს	-10.8914
▁ფსიქო	-10.8916
ეწერა	-10.8917
მოვლენ	-10.8918
▁გარდაქმნებ	-10.8919
▁ეგვიპტ	-10.8919
▁ეკლესია	-10.8919
▁პროგნოზებ	-10.8919
▁სიბნელე	-10.8919
▁ტრანზისტორ	-10.8919
▁უახლოვდებ	-10.8919
▁ქრისტიან	-10.8919
▁ცერემონი	-10.8919
ბიუროკრატიულ	-10.8919
ექსტრემისტ	-10.8919
ტრანსნაციონალური	-10.8919
უმნიშვნელოვანესი	-10.8919
ცოდნოდა	-10.8919
▁აბსოლიტურ	-10.8919
▁ავტოსადგომებ	-10.8919
▁ალტერნატივ	-10.8919
▁ალტრუისტ	-10.8919
▁ამოიწურ	-10.8919
▁აპოფისი	-10.8919
▁ასახსნელ	-10.8919
▁აღიგზნებ	-10.8919
▁აღმოვაჩინო	-10.8919
▁აღსანიშნავ	-10.8919
▁აღჭურვილ	-10.8919
▁აჩერებ	-10.8919
▁აცნობიერებ	-10.8919
▁ახსნის	-10.8919
▁ბრექსიტი	-10.8919
▁გააანალიზ	-10.8919
▁გააცნობიერ	-10.8919
▁გაახალგაზრდავებ	-10.8919
▁გამოიხატ	-10.8919
▁განსაცვიფრებელი	-10.8919
▁გიპასუხებ	-10.8919
▁დაგეგმვ	-10.8919
▁დაკავშირება	-10.8919
▁დამაჯერებელი	-10.8919
▁დაქირავებ	-10.8919
▁დედოფალ	-10.8919
▁დეპრესიის	-10.8919
▁დურკჰეიმ	-10.8919
▁ელექტროენერგი	-10.8919
▁ექსტრემიზმ	-10.8919
▁ველოსიპედ	-10.8919
▁ვიქნებოდი	-10.8919
▁ვმოგზაურობ	-10.8919
▁ვპოულობ	-10.8919
▁ვუთხრა	-10.8919
▁ზურგ	-10.8919
▁თინეიჯერ	-10.8919
▁იძულებულ	-10.8919
▁კალიგრაფი	-10.8919
▁კლავიატურ	-10.8919
▁კოგნიტურ	-10.8919
▁ლეპტოპი	-10.8919
▁ლოკალური	-10.8919
▁მალარია	-10.8919
▁მეხსიერების	-10.8919
▁მიკერძოებ	-10.8919
▁მინიმუმ	-10.8919
▁მკვდრე	-10.8919
▁მოკრძალებულ	-10.8919
▁მომდინარე	-10.8919
▁მოცულობაში	-10.8919
▁მსჯელობის	-10.8919
▁მღელვარება	-10.8919
▁მცხოვრებ	-10.8919
▁ნეგატიური	-10.8919
▁ორგანიზაციის	-10.8919
▁პოეზი	-10.8919
▁პროტეინებ	-10.8919
▁საქველმოქმედო	-10.8919
▁საყოველთაო	-10.8919
▁საჭმელს	-10.8919
▁სილამაზი	-10.8919
▁სიურპრიზ	-10.8919
▁სიღარიბი	-10.8919
▁სტრუქტურულ	-10.8919
▁სუპერსტიმული	-10.8919
▁ტესტოსტერონი	-10.8919
▁ტოლფასი	-10.8919
▁უკიდურეს	-10.8919
▁უმცროს	-10.8919
▁ურბანულ	-10.8919
▁უსამართლობ	-10.8919
▁ფანტასტიური	-10.8919
▁ფანჯრ	-10.8919
▁ფერომაგნიტურ	-10.8919
▁ფიზიკოსები	-10.8919
▁ფლეიტა	-10.8919
▁ღებულობ	-10.8919
▁შეეძლება	-10.8919
▁შევიტყვე	-10.8919
▁შემაშფოთებელ	-10.8919
▁შემცირდ	-10.8919
▁შეწყვიტ	-10.8919
▁შეჯახების	-10.8919
▁ცდუნება	-10.8919
▁ხელსაყრელ	-10.8919
ემხრობ	-10.8919
ნაწლავ	-10.8919
▁ბორბალ	-10.8919
▁გავადიდებ	-10.8919
▁გამძლე	-10.8919
▁დამახინჯებულ	-10.8919
▁ვაიძულ	-10.8919
▁ვივარაუდ	-10.8919
▁ვიმეორებ	-10.8919
▁თანამდებობ	-10.8919
▁კოშმარ	-10.8919
▁მოგვწონ	-10.8919
▁მოსაწყენ	-10.8919
▁მოცეკვავე	-10.8919
▁მსმენელ	-10.8919
▁პატიმრ	-10.8919
▁რეცეპტორები	-10.8919
▁სიცხად	-10.8919
▁ტყუილ	-10.8919
▁უყურო	-10.8919
▁შეეჯახ	-10.8919
▁შერწყმ	-10.8919
▁შოკოლადი	-10.8919
▁შუაგულ	-10.8919
სტანცი	-10.8919
ძღოლ	-10.8919
▁აფასებ	-10.8919
▁აღმოვჩნდ	-10.8919
▁ვაწარმო	-10.8919
▁შემოგთავაზ	-10.8919
▁ახლებურ	-10.8919
▁განახლება	-10.8919
▁ვარაუდი	-10.8919
▁მოქნილ	-10.8919
▁ნორმებ	-10.8919
უტაცია	-10.8919
ხუმრობ	-10.8919
▁გარდაქმნი	-10.8919
▁ვენერიულ	-10.8919
▁ვიზამ	-10.8919
▁ოუუ	-10.8919
▁სპორტულ	-10.8919
▁სქემ	-10.8919
▁ფილიპ	-10.8919
▁კედლ	-10.8919
▁საუზმ	-10.8919
▁საღებავი	-10.8919
▁შაბათ	-10.8919
▁შეკუმშ	-10.8919
▁აირჩი	-10.8919
▁მუხტი	-10.8919
▁პოლიტიკის	-10.8919
▁სირთულის	-10.8919
▁ჩავატარო	-10.8919
▁ფრთხილ	-10.8919
▁ანთროპ	-10.8919
საკვირველი	-10.892
▁აღტაცებ	-10.892
▁ვარსებობ	-10.892
▁ყალბ	-10.892
▁ჟესტ	-10.892
▁ბრედლი	-10.892
▁დანახარჯებ	-10.892
▁იმპერი	-10.892
▁სიცხე	-10.892
▁შევასრულ	-10.892
▁გამოქვეყნებულ	-10.892
▁წარმოიდგენ	-10.892
▁შვილიშვილებ	-10.892
▁შეშინებულ	-10.892
▁ჰქონია	-10.892
▁გადავრჩ	-10.892
▁ერთობლი	-10.892
ფურცლ	-10.892
▁არიზონა	-10.892
▁გაზრდილ	-10.892
▁აღზრდა	-10.892
▁მიუთითებ	-10.892
ჯდომა	-10.892
▁იბადება	-10.892
▁გამრავლება	-10.892
▁ეგოისტ	-10.892
▁შევეცად	-10.892
▁შეგროვებ	-10.892
▁უკავია	-10.892
▁წავიკითხე	-10.892
აღმოსავლეთ	-10.892
ეცხოვრა	-10.892
▁პროგრამებ	-10.892
▁კითხვით	-10.892
▁მოისმინ	-10.892
▁ააშენე	-10.892
▁ნატეხი	-10.892
ემუქრებ	-10.892
ვტოვო	-10.892
▁ჭკვიანებ	-10.892
▁განწყობა	-10.892
▁ვორენ	-10.892
▁წყნარ	-10.892
▁პროტონებ	-10.892
▁სიღრმისეული	-10.892
▁ჩამოკიდ	-10.892
▁მარაგი	-10.892
▁გაზომავ	-10.892
▁მორალის	-10.892
▁გადარჩენილ	-10.892
▁სტრატ	-10.892
▁გატაცებ	-10.892
▁დატვირთვ	-10.892
▁პატარებ	-10.892
▁გამოავლინ	-10.892
▁გარდაიქმნ	-10.892
▁შეფარდებ	-10.892
▁Apple	-10.892
▁ყვავილ	-10.892
▁ჩამოვედი	-10.892
▁კასინი	-10.892
▁გამწვანებ	-10.892
აგრძნობინ	-10.892
▁მოვიმოქმედო	-10.892
▁გვეჩვენებ	-10.8921
▁უკვდავობ	-10.8921
▁გადასვლა	-10.8921
▁მაჰა	-10.8921
▁მივეცი	-10.8921
კაკუ	-10.8921
აფინანს	-10.8921
▁გამოწვევებ	-10.8921
▁სთხოვ	-10.8921
▁გავარკვიო	-10.8921
▁სახეობებ	-10.8921
▁შეჯახება	-10.8921
▁გადამუშავებ	-10.8921
▁მიიწევ	-10.8921
▁პრემიი	-10.8921
▁იაპონიის	-10.8921
ნგრევ	-10.8921
▁გათვალისწინები	-10.8921
▁მენჯ	-10.8921
ter	-10.8921
▁ტომობრივ	-10.8921
▁მრუდ	-10.8921
▁იარსებებ	-10.8921
იცანით	-10.8921
▁ჯონათან	-10.8921
▁ნომერ	-10.8922
▁გამოცანა	-10.8922
▁მოუვიდა	-10.8922
▁გადაიქცევ	-10.8922
▁ზემოქმედებ	-10.8922
▁ბარიერ	-10.8922
▁კორეა	-10.8922
▁ელისონ	-10.8922
oc	-10.8922
ვამთავრებ	-10.8922
▁ზოლი	-10.8922
▁მეტწილად	-10.8922
▁გადასცემ	-10.8923
▁ვკითხო	-10.8923
▁დისკი	-10.8923
მტვრი	-10.8923
▁კეთდებ	-10.8923
▁ჰოკინგ	-10.8924
▁შეხედვ	-10.8924
▁დავსვა	-10.8924
▁შემქმნელ	-10.8925
▁სისწრაფე	-10.8925
▁გაერო	-10.8926
▁ართმევ	-10.8926
▁მანქანურ	-10.8926
▁გავატარე	-10.8927
▁ვხატავ	-10.8927
▁დაგვეჯახ	-10.8927
▁ჩუმ	-10.8928
▁ბაზარი	-10.8928
▁აფრიკი	-10.8928
▁სანახავა	-10.8928
▁მიწოდება	-10.8928
▁95	-10.8928
▁გაცვლი	-10.8929
▁ეგზოტი	-10.8929
▁არჩეულ	-10.893
▁გიწევ	-10.893
▁ქაფ	-10.8931
▁ეწინააღმდეგებ	-10.8932
▁23	-10.8932
▁ვქნა	-10.8933
▁52	-10.8934
▁შეწყვეტ	-10.8934
ბეჭდილი	-10.8935
▁გადაჭრა	-10.8935
▁ტუნ	-10.8935
▁გახადო	-10.8937
▁ლოდინი	-10.8938
▁გადაკვეთ	-10.8938
▁კოლექცი	-10.8939
▁თითები	-10.8939
▁დაიბეჭდ	-10.8939
▁გამოვლენ	-10.894
▁დაკარგვა	-10.894
▁ესროლ	-10.894
▁ღრუბლებ	-10.8941
▁ასტრონომიულ	-10.8941
▁შესაძ	-10.8941
▁ტრანზიტი	-10.8943
▁განკურნ	-10.8943
▁პიტერ	-10.8945
მენდა	-10.8946
▁უსმენ	-10.8946
▁მებრძოლ	-10.8947
▁ეკონომიკ	-10.8948
▁უკეთესობის	-10.8951
▁ჯობ	-10.8952
▁ქმრ	-10.8953
▁ოპერაციის	-10.8954
▁ათასჯერ	-10.8954
▁შენელებ	-10.8955
▁უზრუნველყოფ	-10.8955
▁დაცვა	-10.8955
▁ხრიკებ	-10.896
▁მაგიურ	-10.8962
▁ჩარევ	-10.8963
ბაბუ	-10.8965
▁მამაკაცებისთვის	-10.8967
▁შეიგრძნობ	-10.8968
ვიყვანე	-10.897
▁მესმის	-10.8973
საქმებ	-10.8975
▁გადავაქცი	-10.8976
▁გამოჩენ	-10.8978
არჩინ	-10.8978
▁აუდიო	-10.8978
▁მივუახლოვდე	-10.8982
▁სხვაგვარ	-10.8985
▁ელექტრომაგნიტურ	-10.8987
▁თეორიები	-10.8993
▁მომგებიან	-10.8993
▁ცენტრიდან	-10.8994
▁გავითვალისწინ	-10.8995
▁მეტრო	-10.8996
▁დავამატ	-10.8997
▁ცდები	-10.8997
▁შემოვიდ	-10.9003
მომცემი	-10.9005
▁გამოგვე	-10.9008
▁ავღნიშნე	-10.901
▁ვზრ	-10.9016
▁აიწი	-10.9016
▁განტოლებები	-10.9016
▁აგებული	-10.902
▁კვება	-10.9021
მდებარე	-10.9024
▁იეროგლიფ	-10.9024
პარკინგ	-10.9026
▁მტკიცებულებები	-10.9027
▁მოხარ	-10.9028
▁დაფასებ	-10.9028
ადარდებ	-10.9035
▁ავაგ	-10.9035
▁მედიკამენტებ	-10.9045
▁ეგზ	-10.9047
▁მოახდინ	-10.9047
▁ვასწავლიდი	-10.9065
ლეო	-10.9074
▁დათვები	-10.9078
▁ვხედავდი	-10.908
▁აღება	-10.9091
▁როგორებიც	-10.9093
▁სულელი	-10.9101
ნიკურ	-10.9102
▁ნათლ	-10.9108
▁გავიგებ	-10.911
▁მეცნიერებმა	-10.9115
▁დინოზავრებ	-10.9118
საჯ	-10.9118
ხარჯებ	-10.912
თვალა	-10.9132
▁მეუბნებოდ	-10.9134
▁სტერეოტიპები	-10.9137
▁ვატარებდი	-10.9143
ყრუ	-10.9144
▁ხმამაღ	-10.9157
▁მოტივირებულ	-10.9167
▁წარმოვადგინ	-10.9169
▁მმართველობი	-10.918
▁მედიის	-10.9189
ვებული	-10.9198
▁120	-10.921
▁ავადმყოფობები	-10.9231
▁გაანადგურ	-10.9234
▁ინსტიტუციებ	-10.9238
▁ღარიბების	-10.9246
ხმარებლ	-10.9248
▁მიდიოდ	-10.9262
▁უმუშევრობ	-10.9272
ეტარებინა	-10.9279
▁ვირ	-10.9283
▁ნათებ	-10.929
▁დაწევა	-10.9298
ტყუებ	-10.9303
▁დანარჩენებ	-10.9307
▁ამერიკელებ	-10.9315
▁იტანჯ	-10.9318
ყვარხარ	-10.9333
▁უცხოურ	-10.9343
▁კოდი	-10.9348
▁დედაჩემ	-10.9363
▁შევადარო	-10.9371
▁გადაიქც	-10.9389
▁მადლიერებ	-10.9426
▁იპოვე	-10.9431
▁ენები	-10.9434
პასუხობ	-10.9439
▁ბრე	-10.946
ქრობ	-10.9461
▁შეკითხვებ	-10.9484
▁ტყუპები	-10.9489
ვაქცევ	-10.95
▁მკრთალ	-10.9501
ცვალო	-10.9505
l	-10.9509
▁ახლ	-10.9512
▁სხვადასხვანაირ	-10.9517
▁არგუმენტებ	-10.9519
იქცა	-10.9524
▁ნაბიჯ	-10.9528
▁კომპანიებ	-10.9544
▁სარგებელ	-10.9554
▁რესურსებ	-10.9555
▁დანადგარ	-10.9557
▁ფეხებ	-10.956
▁კანონ	-10.9592
▁ძე	-10.9598
▁დეტალ	-10.9609
▁აიღე	-10.9622
▁ალგორითმებ	-10.9623
ეტანა	-10.9667
▁მოვლ	-10.9678
▁წითელ	-10.9698
შენების	-10.9702
▁ოც	-10.9702
▁ნაბიჯებ	-10.9706
▁სწრაფ	-10.972
▁დემონსტრ	-10.976
▁შეცდომ	-10.9766
▁ფერებ	-10.9768
▁უნარ	-10.977
▁იწე	-10.977
▁ცნობისმოყვარე	-10.9777
▁მკურნალობ	-10.9826
▁მიღწევებ	-10.9831
▁პრინციპები	-10.9831
ინტერესებ	-10.9852
▁პრინ	-10.9859
▁სერ	-10.9893
ჯერობი	-10.9931
▁სურვილ	-10.9937
▁ეთანხმებ	-10.9948
▁გრა	-10.9951
▁საწვავ	-10.9953
▁სუპერინტელექტ	-10.9954
ჯექ	-10.9955
▁ღირებულებებ	-10.996
▁ცნობისმოყვარეობ	-10.9963
▁სისტემებ	-10.997
ოცე	-10.9977
▁ახალგაზრდ	-10.998
▁გავზომე	-10.9983
▁გაიაზრო	-11.002
▁შეცდომებ	-11.0025
▁სტე	-11.0055
▁მახასიათებლებ	-11.0089
▁გაიხსენ	-11.01
▁მოსდ	-11.01
▁დაინახა	-11.0105
ქციო	-11.0114
▁მოტივ	-11.0115
▁ალგორითმ	-11.0122
სახელ	-11.0129
▁ეკონომისტ	-11.0135
ქონდა	-11.0153
▁გრძელ	-11.0167
ლვა	-11.0233
▁დავუბრუნდებ	-11.0244
მკრთალი	-11.0253
▁ეხებ	-11.0257
to	-11.0258
კეთე	-11.0259
▁პერიოდ	-11.0278
კვდავ	-11.0287
▁სტრუქტურებ	-11.0294
უძლებ	-11.0329
la	-11.0329
სიამოვნებ	-11.033
ბრივ	-11.0344
▁ყურები	-11.0352
▁პასუხ	-11.0353
მყოფებ	-11.0377
▁ინდუსტრი	-11.0386
▁ფილმებ	-11.0386
▁გაერთიან	-11.0392
ლოგიური	-11.0406
▁გამოსცად	-11.0416
ls	-11.0419
ძლიერებ	-11.0426
▁მინისტრ	-11.0443
იშლე	-11.0444
▁ბუნები	-11.0463
▁შეიცავ	-11.0463
ატყუე	-11.0478
▁ცნობიერ	-11.0509
▁გამოსავალ	-11.0526
▁მიზნების	-11.0537
▁სიარულ	-11.0537
▁ტანჯვ	-11.054
▁უთხრ	-11.0547
▁ფრანგ	-11.0548
▁დამოკიდებულებ	-11.0551
▁საუბრობდ	-11.0554
▁უწოდ	-11.0554
▁ცნობიერები	-11.0559
ეკითხა	-11.0567
დვილ	-11.0575
▁ემოციებ	-11.0582
▁გამოგონებ	-11.0594
ესწავლა	-11.06
▁უნივერსალურ	-11.0601
რტყამ	-11.0617
ni	-11.0621
იზიდავ	-11.0637
▁სულელურ	-11.0638
▁შთამბეჭდავ	-11.0638
▁ჩართულ	-11.0643
▁შეზღუდულ	-11.0643
▁დარჩენილ	-11.0643
▁უარეს	-11.0645
▁საოცარ	-11.0648
სადგურ	-11.0653
▁გაუშვ	-11.0655
ღირებული	-11.0655
უჯრედ	-11.0658
▁უკეთებ	-11.066
▁სტერეოტიპ	-11.0661
ცენტრ	-11.0661
გვერდ	-11.0663
გარეთ	-11.0663
მოკლე	-11.0664
▁ქრებ	-11.0669
მართლა	-11.0678
▁საქციელ	-11.0689
აღწიო	-11.0703
ჩემ	-11.0721
▁გამოვიყენებ	-11.0729
▁კლინიკ	-11.074
▁მართვ	-11.0742
ეთქვა	-11.0743
▁გამოცდილებებ	-11.0756
▁რაოდენ	-11.0759
▁კიბეებ	-11.0767
▁აკადემი	-11.0768
▁გაკვეთილებ	-11.079
ბარძაყი	-11.0806
▁მოიყვან	-11.0807
▁მოიხ	-11.0808
ეფექტურ	-11.0818
▁ოკეან	-11.0841
▁მოიქც	-11.0842
ემართება	-11.0852
▁შეიგრძნო	-11.0861
▁შეხედა	-11.0861
▁შეძლე	-11.0882
▁გავხდე	-11.0884
პოზიცი	-11.0888
▁დავფიქრდე	-11.0888
▁დაშორებ	-11.089
ხრიკ	-11.0893
▁ჩვ	-11.0898
▁სისტე	-11.0901
ვრცელდ	-11.0902
ვაკავშირებ	-11.0903
ზარდე	-11.0903
▁თანაბ	-11.0908
ჩრდილ	-11.0908
ტელევიზი	-11.0909
ყრდნობ	-11.0909
ხასიათებ	-11.091
იფიკაცი	-11.091
გრესის	-11.0913
▁აფრი	-11.0914
▁საკუთ	-11.0916
ფუნქციურ	-11.0916
ვყოფ	-11.0917
საფუძვლ	-11.0917
მფრინავი	-11.0919
მონტაჟ	-11.0919
ცალკევებ	-11.0919
თაღლით	-11.0919
▁აგროვებ	-11.0919
▁აღმოფხვრ	-11.0919
▁დეფორმაცი	-11.0919
▁ინფლაცი	-11.0919
▁კემბრიჯი	-11.0919
▁ლიმიტი	-11.0919
▁მოღვაწე	-11.0919
▁ნარკოტიკებ	-11.0919
▁სპეციალიზ	-11.0919
▁სტერლინგ	-11.0919
▁ფანტომ	-11.0919
▁ქორწილ	-11.0919
▁შეტყობინებ	-11.0919
▁ჭუჭრუტან	-11.0919
გამარჯობა	-11.0919
გეოგრაფიულ	-11.0919
იბიძგებ	-11.0919
ისტენციალურ	-11.0919
ნეიტრალურ	-11.0919
სასიკვდილო	-11.0919
ტყორცნ	-11.0919
წონასწორ	-11.0919
▁2015	-11.0919
▁ალკოჰოლი	-11.0919
▁არასამართლიან	-11.0919
▁ასტრონავტ	-11.0919
▁ასხივებ	-11.0919
▁აღსაქმელ	-11.0919
▁ახსნები	-11.0919
▁ბაქტერია	-11.0919
▁ბიოგრაფია	-11.0919
▁ბირჟ	-11.0919
▁ბჰარატ	-11.0919
▁გავჩერდ	-11.0919
▁გამონაკლის	-11.0919
▁გამჭირვალობა	-11.0919
▁გარემოსდაცვით	-11.0919
▁გაფრთხილებ	-11.0919
▁გაჭირვებ	-11.0919
▁გეომეტრი	-11.0919
▁გერინგი	-11.0919
▁დაგროვება	-11.0919
▁დამთხვევა	-11.0919
▁დეკემბერ	-11.0919
▁დელფინი	-11.0919
▁დეპრესიულ	-11.0919
▁დიაგნოსტიკ	-11.0919
▁დისკრიმინაცი	-11.0919
▁დომინანტ	-11.0919
▁დუპლექს	-11.0919
▁ერთსქესიან	-11.0919
▁ვაღიარებ	-11.0919
▁ვაცნობიერებ	-11.0919
▁ვიეტნამ	-11.0919
▁ვიმუშაო	-11.0919
▁ვიცხოვრებ	-11.0919
▁ვუზიარებ	-11.0919
▁ვღელავ	-11.0919
▁ვშიშობ	-11.0919
▁ზვიგენ	-11.0919
▁თანამგზა	-11.0919
▁იბრძვი	-11.0919
▁იბრძოდ	-11.0919
▁იდიოტი	-11.0919
▁იერარქი	-11.0919
▁იმედგაცრუებ	-11.0919
▁იმიგრანტებ	-11.0919
▁ინფრასტრუქტურ	-11.0919
▁კმაყოფილება	-11.0919
▁კოგნიტიურ	-11.0919
▁კოლექტიურ	-11.0919
▁კომპლიმენტ	-11.0919
▁კონცენტრირებ	-11.0919
▁კუნთოვან	-11.0919
▁ლანდშაფტ	-11.0919
▁მაქსიმუმ	-11.0919
▁მგრძნობიარე	-11.0919
▁მედუზა	-11.0919
▁მემკვიდრეობით	-11.0919
▁მენეჯმენტი	-11.0919
▁მიანიშნებ	-11.0919
▁მივიჩნევ	-11.0919
▁მინიშნებ	-11.0919
▁მიღწეული	-11.0919
▁მოვიქეცი	-11.0919
▁მოვუსმინ	-11.0919
▁მოთხოვნილებ	-11.0919
▁მოსამართლე	-11.0919
▁მოწინააღმდეგე	-11.0919
▁მწვრთნელ	-11.0919
▁მხარდაჭერა	-11.0919
▁ნიჟარ	-11.0919
▁ნიშნულ	-11.0919
▁ობიექტივაცია	-11.0919
▁პარადოქსი	-11.0919
▁პლანეტებს	-11.0919
▁პოტენციურ	-11.0919
▁პროდუქცია	-11.0919
▁რებოქსეტინი	-11.0919
▁რეკომენდაცი	-11.0919
▁რესტორნ	-11.0919
▁რეფერენდუმი	-11.0919
▁საყრდენ	-11.0919
▁საჩუქრები	-11.0919
▁სინდრომი	-11.0919
▁სირცხვილ	-11.0919
▁სისულელე	-11.0919
▁სიცარიელე	-11.0919
▁სუბიექტი	-11.0919
▁ტრაგიკულ	-11.0919
▁ტრანსფორმ	-11.0919
▁უთანხმოებ	-11.0919
▁უყურადღებო	-11.0919
▁ფეხბურთი	-11.0919
▁შანხაი	-11.0919
▁შემეცნებ	-11.0919
▁შეპყრობილ	-11.0919
▁შესამჩნევ	-11.0919
▁შეყვარებულს	-11.0919
▁ციურიხ	-11.0919
▁ცხრილ	-11.0919
▁წვრთნ	-11.0919
▁ჭურჭელ	-11.0919
▁ხელშეკრულებ	-11.0919
▁ჯანდაბა	-11.0919
▁ჯაჭვი	-11.0919
▁ჯენიფერ	-11.0919
ეკრძალ	-11.0919
იპყრობ	-11.0919
კარნახობ	-11.0919
პატიჟ	-11.0919
▁აბსურდ	-11.0919
▁ანდროიდ	-11.0919
▁გადაიხადო	-11.0919
▁გაერკვ	-11.0919
▁გაზიარება	-11.0919
▁გამკლავება	-11.0919
▁გამოთვლებ	-11.0919
▁გამოიკვლი	-11.0919
▁განმეორდ	-11.0919
▁ექსპედიცი	-11.0919
▁ექსტრავერტ	-11.0919
▁ვიბადებით	-11.0919
▁ვკარგავთ	-11.0919
▁იზიარებ	-11.0919
▁იზოლაცი	-11.0919
▁ისარგებლ	-11.0919
▁კომპონენტი	-11.0919
▁მეგობრის	-11.0919
▁ოპტიკურ	-11.0919
▁ორიგინალ	-11.0919
▁პრივილეგი	-11.0919
▁სარბენ	-11.0919
▁საქონლის	-11.0919
▁სპერმ	-11.0919
▁სტენფორდ	-11.0919
▁ტემპ	-11.0919
▁უსინათლო	-11.0919
▁ფსიქიატრ	-11.0919
▁ფუტკრები	-11.0919
▁ქრისტე	-11.0919
▁ღიმილ	-11.0919
▁შეგრძნების	-11.0919
▁შემადგენლობ	-11.0919
▁ძალუძ	-11.0919
▁ძროხ	-11.0919
▁ჭიანჭველ	-11.0919
▁ათეისტებ	-11.0919
▁ასახული	-11.0919
▁გაზიარები	-11.0919
▁დამახასიათებელ	-11.0919
▁თხევად	-11.0919
▁იყურებ	-11.0919
▁მაიკლ	-11.0919
▁მამიკო	-11.0919
▁მორჩილებ	-11.0919
▁სანაცვლო	-11.0919
▁სარკე	-11.0919
▁საფასურ	-11.0919
ირბინე	-11.0919
კონტინენტ	-11.0919
▁ავაშენე	-11.0919
▁აღთქმულ	-11.0919
▁ვიგრძნობ	-11.0919
▁მივაგენი	-11.0919
▁პიონერ	-11.0919
▁პოპულაცი	-11.0919
▁სათქმელ	-11.0919
ტრივიალურ	-11.0919
▁გავიხსენ	-11.0919
▁გამოხატულება	-11.0919
▁გარდავქმნ	-11.0919
▁დასკვნებ	-11.0919
▁კომპლექსურ	-11.0919
▁მედიტაცი	-11.0919
▁მოვისმინო	-11.0919
▁მუცელ	-11.0919
▁ტერორის	-11.0919
▁წყლულ	-11.0919
თეატრ	-11.0919
▁გავემგზავრე	-11.0919
▁ვეტერან	-11.0919
▁ვლაპარაკობ	-11.0919
▁თერმულ	-11.0919
▁სტეფან	-11.0919
▁უმთავრეს	-11.0919
▁ქვეითდება	-11.0919
▁ღამით	-11.0919
▁გავზარდო	-11.0919
▁გაკვირვებული	-11.0919
▁თავდასხმ	-11.0919
▁პლასტ	-11.0919
▁ესპანურ	-11.0919
▁იაკიმა	-11.0919
▁მარცვალ	-11.0919
▁მრავალფეროვნებ	-11.0919
▁ფაზა	-11.0919
▁მოუტან	-11.0919
▁ფურგონ	-11.0919
▁ჩევნ	-11.0919
▁წვრილ	-11.0919
ახუტებ	-11.092
▁ანჯელინ	-11.092
▁გასაუბრება	-11.092
▁პატარძ	-11.092
▁ცხიმ	-11.092
▁გაგიკვირდე	-11.092
▁დაბნეულ	-11.092
▁სიბერე	-11.092
ფასებელი	-11.092
▁აშლილობ	-11.092
▁საბანკ	-11.092
▁სიბრაზ	-11.092
▁ქმნილებებ	-11.092
▁შუბლ	-11.092
▁გზავნილებ	-11.092
▁დაფინანსები	-11.092
▁საგრძნობ	-11.092
ASA	-11.092
ხატვა	-11.092
▁პასტა	-11.092
▁ავსტრ	-11.092
▁სახსარ	-11.092
▁უიმედო	-11.092
▁გავრცელება	-11.092
▁შეეხო	-11.092
▁განვიცდი	-11.092
ვუძახ	-11.092
▁დეპარტამენტ	-11.092
▁დიაგრამ	-11.092
▁პრიზ	-11.092
▁აკეთო	-11.092
▁ფორმულებ	-11.092
▁შემოთავაზებ	-11.092
ვიტანე	-11.092
▁გამოსადეგი	-11.092
▁ბმულებ	-11.092
▁რუქებ	-11.092
▁ფესვ	-11.092
▁ვირთხ	-11.092
▁უილიამ	-11.092
▁შერილ	-11.092
▁გენიალურ	-11.092
▁თაფლ	-11.092
პროტესტ	-11.092
▁ბგერ	-11.092
▁მოგიწევ	-11.092
▁უქმნი	-11.092
▁ცურვი	-11.092
▁მოზარდ	-11.092
▁განვლილ	-11.092
▁აღვწერო	-11.092
დასაჭერად	-11.092
▁მენეჯერ	-11.092
▁პროვინცი	-11.092
▁შეურაცხყ	-11.092
▁სითბო	-11.092
▁ლაზერ	-11.092
▁ემსახურებ	-11.092
▁გაგაცნობ	-11.092
▁განვავითარ	-11.092
ეტოვებინა	-11.092
▁გააზრებულ	-11.092
▁ათასწლეულ	-11.092
▁გამომსვლელ	-11.092
▁არომატ	-11.092
▁მარცვლ	-11.092
▁დავუთმო	-11.092
▁აწიო	-11.092
▁გაზომვი	-11.092
▁გარდაცვალებ	-11.092
▁ბრიჯი	-11.092
▁დამარცხებ	-11.092
▁ჩანაცვლებ	-11.092
▁ეთიკურ	-11.092
▁ჩასვლა	-11.092
▁რომანტიკ	-11.092
▁ჩინელ	-11.0921
ლეგალურ	-11.0921
▁იისფერ	-11.0921
▁დავრწმუნდ	-11.0921
▁დგები	-11.0921
▁აღინიშნ	-11.0921
ur	-11.0921
▁ბარათებ	-11.0921
DA	-11.0921
▁წარმოიშვ	-11.0921
▁ეტაპობრივ	-11.0921
ციუმი	-11.0921
▁აზიელ	-11.0921
▁ჰქონოდა	-11.0921
▁Ti	-11.0921
▁შემოსაზღვრული	-11.0922
▁შეკრებ	-11.0922
▁წავსულიყავი	-11.0922
გეჩვენება	-11.0922
▁ვიქცევი	-11.0922
▁სერვის	-11.0922
▁პატრ	-11.0922
▁წუხილ	-11.0922
▁დაბინძურებული	-11.0922
▁სალამ	-11.0922
▁ყიდულობ	-11.0922
▁ქაოს	-11.0922
▁გაგრძელება	-11.0923
▁გაოცებ	-11.0923
ou	-11.0923
▁მოეწონა	-11.0923
▁ვიგებ	-11.0923
▁გასაკეთებ	-11.0923
▁შეუმჩნეველი	-11.0923
▁იარდი	-11.0923
ds	-11.0923
▁გენიოსი	-11.0924
▁მოგონებებ	-11.0924
▁ყოვლი	-11.0924
▁სიბერის	-11.0925
▁მოგიყვან	-11.0925
▁რაზან	-11.0925
▁ადმიან	-11.0925
ფერხებ	-11.0925
ფარდობ	-11.0925
▁ჯეიმს	-11.0925
▁შეადარე	-11.0925
▁დასვენებ	-11.0925
▁რძი	-11.0926
▁გაიმეორ	-11.0926
▁ელექტროდები	-11.0926
▁დოკუმენტი	-11.0926
▁ნაწყვეტ	-11.0927
▁სახალისო	-11.0927
▁წახვალ	-11.0927
▁ნახევრ	-11.0927
ჯამებ	-11.0927
▁გროვ	-11.0927
▁რიცხვები	-11.0928
▁47	-11.0928
ყოლება	-11.0928
▁რჩეული	-11.0928
ითქვამ	-11.0929
▁კომუნიკაციის	-11.0929
▁პატივი	-11.0929
▁შეიტან	-11.093
▁მოიტან	-11.0931
▁მშვიდობისა	-11.0931
▁ნებისყოფ	-11.0932
▁ფენაში	-11.0932
▁სერიალები	-11.0932
▁მეორდებ	-11.0932
მაწუხებ	-11.0932
▁2002	-11.0932
▁წავიყვან	-11.0933
▁გაეცი	-11.0933
▁ქონებ	-11.0934
▁გაერთიანება	-11.0934
▁მოვედი	-11.0934
▁ნაციონალიზმ	-11.0934
▁ითვალისწინებ	-11.0934
▁მეტყვი	-11.0934
▁თესლ	-11.0935
▁რჩევის	-11.0935
▁წრიულ	-11.0935
▁მასაჟ	-11.0935
▁ბედს	-11.0936
▁სხვისთვის	-11.0936
▁ახსოვ	-11.0936
▁გემო	-11.0936
▁ფრენა	-11.0937
▁ტელეფონები	-11.0937
▁გასასვლელ	-11.0937
▁მხედველობი	-11.0937
▁სისქ	-11.0938
▁დაღმა	-11.0938
▁შეხების	-11.0938
▁გრეი	-11.0938
▁მოჩვენებ	-11.0939
▁გამშვებ	-11.0939
▁აიშა	-11.0939
ალაგებ	-11.094
▁პოზიციებ	-11.094
▁მორიგ	-11.0941
▁21-	-11.0941
▁დემონსტრაცია	-11.0941
▁ვაგრძელებ	-11.0941
▁ინდექსი	-11.0943
▁პროგნოზირებ	-11.0943
▁განვკურნ	-11.0944
▁გარემოებებ	-11.0947
▁1990	-11.0947
▁დედის	-11.0947
▁ვუშვებ	-11.0948
▁უბედურებ	-11.0949
▁მიწებ	-11.095
▁კარლოს	-11.0951
▁მკაცრ	-11.0951
▁დავფიქრდები	-11.0951
▁გვეცოდინებ	-11.0953
▁ტორტ	-11.0953
▁დაგრჩ	-11.0954
ეძინა	-11.0954
▁ვუკავშირ	-11.0954
მოყვარე	-11.0954
▁ჟურნალისტ	-11.0955
▁დაიხარჯ	-11.0955
▁კორეი	-11.0956
▁დაბრუნება	-11.0956
▁მიიყვან	-11.0956
▁საუკუნეებ	-11.0957
▁საოცრება	-11.0957
▁შეტანა	-11.0957
▁მისვლა	-11.0959
▁ელიტურ	-11.0959
რუსულ	-11.096
▁წავალ	-11.0961
▁გავხდები	-11.0962
▁ჯიბ	-11.0963
▁სრულებით	-11.0963
ავიწყდებ	-11.0963
▁განზრახვი	-11.0964
▁მენდე	-11.0964
▁სუბ	-11.0965
ფრაზი	-11.0967
▁განათლებულებ	-11.0968
▁შევიმუშავე	-11.0969
▁ვიდეოებ	-11.0969
▁გავუკეთ	-11.097
▁თავისუფლება	-11.0971
▁მასწავლ	-11.0973
▁დარწმუნებ	-11.0974
▁გავაუმჯობეს	-11.0976
▁დასწრებ	-11.0976
▁ქალებზე	-11.0977
▁ნების	-11.0977
▁შერჩევ	-11.0981
ოკალი	-11.0984
თეთრ	-11.0987
▁კვირები	-11.0991
ანავე	-11.0994
მნიშვნელ	-11.0994
▁აღვნიშნო	-11.0996
▁ლოდი	-11.0997
▁საწყობ	-11.0998
▁ნულოვან	-11.0999
▁ქათ	-11.1004
ტოკი	-11.1007
▁ვოი	-11.1011
▁შევამოწმ	-11.1012
▁მოხვდე	-11.1013
▁მცველებ	-11.102
▁გამგზავ	-11.102
▁დავაბრუნ	-11.102
▁უგულებელყოფ	-11.1021
▁იქნებოდ	-11.1022
▁მოგაწ	-11.1029
▁იზამდ	-11.103
▁დაავადებ	-11.103
უჭერ	-11.103
იცრუ	-11.1042
▁გონიერ	-11.1044
▁ღირსეულ	-11.1045
▁აკვირდებოდ	-11.1048
▁ცემა	-11.1052
▁კომერცი	-11.1056
▁აგდებ	-11.1062
▁ხილულ	-11.1063
არშან	-11.1065
▁დამთავრდ	-11.1065
ქონოდა	-11.1066
▁მიყვებ	-11.1073
▁ეფექტურობა	-11.1076
▁ენერგიულ	-11.1076
▁აღწერილ	-11.1083
▁დედამიწ	-11.1087
▁გააგრძელ	-11.1091
▁ოკ	-11.1092
▁შემთხვევითობა	-11.1105
ამბო	-11.1112
ძველებ	-11.1114
▁ჩახედ	-11.1114
▁სხედ	-11.1123
▁კარგავ	-11.1123
▁სწრაფვ	-11.1123
▁კარიკატურები	-11.113
▁განათებ	-11.1131
ამრავლებ	-11.1132
▁იცოცხლებ	-11.1135
უხედავა	-11.1154
▁მდგომ	-11.1164
▁პირების	-11.1166
▁ტუალეტ	-11.1172
▁ფილოსოფოსები	-11.1174
▁დაკვირვებ	-11.1174
▁გადაეცემ	-11.1177
▁დაამტკიც	-11.1187
▁გამოთვალ	-11.1201
▁უბან	-11.1206
ვუშვი	-11.1216
მამაცი	-11.1217
ხედავ	-11.122
▁დაარქვ	-11.1225
▁ვიყენებდი	-11.123
▁კიდურებ	-11.1233
▁ექიმებ	-11.1234
სასვლელ	-11.124
▁გაიმარჯ	-11.1243
100,000	-11.125
▁ვიცნობდი	-11.1255
ვაძლევ	-11.1259
▁წარმომადგენლებ	-11.1261
თანხმდებ	-11.1265
▁აღდგ	-11.1278
▁გავიზარდ	-11.1286
▁განისაზღვრებ	-11.1287
▁პერსონალურ	-11.1289
▁ტარებ	-11.1295
▁ფრანგულ	-11.1307
▁გადარჩევ	-11.1309
▁გემი	-11.1311
▁გაგრძელდ	-11.1312
▁თაგვ	-11.1333
▁ჯარ	-11.1338
▁ჯგუფურ	-11.1356
▁იარაღები	-11.1358
ვავსებ	-11.1366
წყობილ	-11.1378
ანდრას	-11.1405
▁ვუყურებდი	-11.1408
▁ნივთიერებ	-11.1411
▁ტელესკოპები	-11.1417
▁თავდადებ	-11.1427
▁გასცე	-11.1432
▁დავუბრუნდ	-11.1438
▁მივიდე	-11.1443
▁ტესტებ	-11.1448
▁წყალობ	-11.1461
▁შეექმნ	-11.1485
▁მოცემულობ	-11.1497
▁დღიურ	-11.1497
ყოლა	-11.1501
▁განმარტების	-11.1507
▁მოგიყვებ	-11.1508
▁ანტიდეპრესანტებ	-11.1511
▁რადიუს	-11.1517
ცხარე	-11.1521
▁მოხვდები	-11.1545
▁ისაუბრე	-11.157
ოტა	-11.1574
▁გააჩ	-11.1586
▁მოძრავ	-11.1621
ვნე	-11.1636
▁ჟურნალებ	-11.1696
▁მოჰყვებ	-11.1727
▁გავიდე	-11.1745
▁წლიურ	-11.1746
ამჩნევთ	-11.1747
▁მგზავრობ	-11.1753
000	-11.1781
▁გაიხსენო	-11.1812
▁კავშირ	-11.1823
▁ლიბერალ	-11.1868
▁პიროვნებ	-11.1873
▁სტატისტიკ	-11.1893
▁ავხსნი	-11.1899
დიხარ	-11.1903
ვთანხმდები	-11.1976
▁საწარმოებ	-11.199
▁გაქცევ	-11.2043
▁მომცე	-11.2044
გაყიდვ	-11.2057
ფიტ	-11.2108
ლებელი	-11.2132
▁გაიარო	-11.219
▁აინშტაინ	-11.221
▁დებატებ	-11.2219
▁ჩავე	-11.2219
▁კუბ	-11.2226
▁ემოცი	-11.2257
▁მიაღწიო	-11.2271
▁ორგანიზმები	-11.2274
მიზნებ	-11.2286
44	-11.2293
▁199	-11.2314
▁კონსერვატორ	-11.2323
ნარი	-11.2337
გვარი	-11.2408
▁საშუალებ	-11.2418
▁თავისუფლების	-11.2463
▁მოჰყვ	-11.247
შეცვლილ	-11.2472
▁წრეებ	-11.2473
ოცნებობ	-11.2498
▁გმირ	-11.2504
▁ტექნოლოგიებ	-11.2557
ბრძან	-11.2561
▁ამბებ	-11.2562
▁ფენომენ	-11.2592
▁ისტორიებ	-11.2594
▁გაერთიანებულ	-11.2603
▁გადავიდ	-11.2612
აგდე	-11.2667
▁თვისებებ	-11.2699
ილიყო	-11.2719
▁თვითმფრინავ	-11.272
▁მოვახერხ	-11.2727
▁თირკმელ	-11.2736
▁შევადარ	-11.2751
▁ფასეულობებ	-11.2752
▁ყოფილ	-11.2779
▁ნათქვამ	-11.2779
▁მობილურ	-11.278
ღვრ	-11.2798
ახმარ	-11.2813
▁წყლი	-11.2824
ვხსნიდი	-11.2825
▁ნეირომეცნიერ	-11.2831
▁ვხსნი	-11.2851
საღები	-11.2855
ახალისებ	-11.2875
▁წესებ	-11.2887
▁ურჩ	-11.2913
▁მამაჩემ	-11.2933
▁დაიწყე	-11.2938
მონაზ	-11.2938
ალიზებული	-11.2966
▁მოყვა	-11.2973
▁ოფისებ	-11.2975
▁შეამჩნი	-11.2986
▁შორი	-11.2992
ვარდები	-11.2999
▁ტერმინ	-11.3026
▁გაურკვევლობ	-11.3037
უბანში	-11.3039
▁ანიჭებ	-11.3048
▁შეგვწე	-11.3054
▁ინტუიცი	-11.3082
იმუშავებ	-11.3086
▁დაეჯახ	-11.3103
▁დაეთანხმ	-11.3114
▁მაგიდ	-11.313
▁მაჩვენებელ	-11.3132
▁ნიშან	-11.3136
▁გასაგებ	-11.3138
▁ნათელ	-11.3146
▁ექვს	-11.3152
ნამდვილ	-11.3164
16	-11.3165
▁შეერთებ	-11.3166
სოციალურ	-11.3166
▁ინდივიდუალურ	-11.3167
საჯო	-11.3168
იორკ	-11.3171
ვიფიქრე	-11.3175
იღებთ	-11.3178
▁ძალისხმევის	-11.3213
სფეროს	-11.3213
▁ლათინ	-11.3214
▁შემოქმედებითობ	-11.3241
კომერციულ	-11.3247
▁გლობალ	-11.3261
▁შეკითხვ	-11.3262
▁უმუშევრ	-11.3268
▁განტოლებ	-11.327
▁საფრთხ	-11.3284
▁დავხატ	-11.3287
▁სითხ	-11.3302
▁წაიკითხო	-11.3304
ოპერაცი	-11.3318
ფიქრებინ	-11.3318
იშნა	-11.3326
▁მაჩვენ	-11.3327
▁დაწერ	-11.3328
▁უდრ	-11.3338
▁შევხედ	-11.3342
ფეთქ	-11.3347
მოქმედა	-11.3351
▁მივყვე	-11.3366
თვალისწინებ	-11.3369
ჩანაწერ	-11.3373
მშვენიერ	-11.3378
▁195	-11.338
▁ნამუშევ	-11.3381
ინვესტიცი	-11.3385
ღრუბლ	-11.3386
არსე	-11.3388
▁ინდექ	-11.339
ლექსი	-11.3393
▁ვხდებ	-11.3394
▁შედარებ	-11.3395
▁სიხშირ	-11.3395
სიმპტომ	-11.3399
▁დამახსოვრებ	-11.3403
▁სტაბილურ	-11.3404
▁ქველმოქმედ	-11.3407
ნგლის	-11.3407
შტაბით	-11.3407
ტაქტი	-11.3407
რებულო	-11.3408
ქიტექტორ	-11.3411
ოცნებო	-11.3412
▁21	-11.3412
▁შვეიცარ	-11.3413
▁უარყო	-11.3416
ვყავარ	-11.3416
▁უპირატე	-11.3418
ანაცვლებ	-11.3418
ოფისე	-11.3419
▁უნივერს	-11.3419
▁სიღრმის	-11.3419
ბრწყინ	-11.3419
▁სახალ	-11.3419
ნტერესო	-11.3419
▁იტან	-11.3419
კორტექს	-11.3419
▁ძუძუ	-11.3419
ipedia	-11.3419
▁განვვითარდ	-11.3419
▁რეგენერირ	-11.3419
▁სასადილო	-11.3419
▁ტექნოლ	-11.3419
შედეგობრიობ	-11.3419
▁დავინტერესდ	-11.3419
▁ინტიმურ	-11.3419
▁მიიჩნი	-11.3419
▁ოქტომბერ	-11.3419
▁სვიტრ	-11.3419
cie	-11.3419
ics	-11.3419
ანაზღაურება	-11.3419
ატლანტიკ	-11.3419
აფხიზლებ	-11.3419
განეხორციელებინა	-11.3419
გშორდებათ	-11.3419
დატვირთული	-11.3419
იმახსოვრებ	-11.3419
კატალიზატორ	-11.3419
კონცენტრირდე	-11.3419
პროდუქციის	-11.3419
პროპორციულ	-11.3419
საზღვრელ	-11.3419
სახელმძღვანელოებ	-11.3419
სეირნობ	-11.3419
სიმპათი	-11.3419
ტანჯავდა	-11.3419
ტრაბახო	-11.3419
ჩხუბობ	-11.3419
ძარღვი	-11.3419
▁აეროპორტ	-11.3419
▁ავიაკომპანია	-11.3419
▁ავიცილო	-11.3419
▁ავტომატიზ	-11.3419
▁ალტერნატიულ	-11.3419
▁არასასურველ	-11.3419
▁აცოცხლებ	-11.3419
▁აწარმოო	-11.3419
▁აწმყო	-11.3419
▁ახალდაბადებულ	-11.3419
▁ბაბუაჩემი	-11.3419
▁ბრძნულ	-11.3419
▁გაბრაზებულ	-11.3419
▁გადაინაცვლ	-11.3419
▁გადალახვა	-11.3419
▁გადაწყვიტო	-11.3419
▁გაზვიადებული	-11.3419
▁გამათავისუფლო	-11.3419
▁გამოვაქვეყნე	-11.3419
▁გამოქვაბულ	-11.3419
▁განზიდვა	-11.3419
▁განკუთვნილ	-11.3419
▁განმეორებით	-11.3419
▁გაორმაგდ	-11.3419
▁გაუგებარ	-11.3419
▁გაფუჭ	-11.3419
▁გისურვებ	-11.3419
▁გიყურებ	-11.3419
▁გონივრულ	-11.3419
▁გულახდილ	-11.3419
▁დაასკვნ	-11.3419
▁დაბრმავებ	-11.3419
▁დავუკავშირ	-11.3419
▁დამეხმარ	-11.3419
▁დიალექტ	-11.3419
▁დიაპაზონში	-11.3419
▁დისკომფორტ	-11.3419
▁ემპათია	-11.3419
▁ემპირიულ	-11.3419
▁ენცელადუსი	-11.3419
▁ერთგულება	-11.3419
▁ექსტრემალურ	-11.3419
▁ეჭვგარეშე	-11.3419
▁ვისურვებდი	-11.3419
▁ვკამათობთ	-11.3419
▁ვუპასუხო	-11.3419
▁ზღაპარ	-11.3419
▁თვითკმაყოფილ	-11.3419
▁თოჯინებ	-11.3419
▁იაფფასიან	-11.3419
▁იგნორირებ	-11.3419
▁იდუმალ	-11.3419
▁ილუზიი	-11.3419
▁ინარჩუნებ	-11.3419
▁ინერტული	-11.3419
▁ინვესტირების	-11.3419
▁ინსტიტუტში	-11.3419
▁ინციდენტი	-11.3419
▁კალკულატორ	-11.3419
▁კანალეტო	-11.3419
▁კარბონატი	-11.3419
▁კაცობრიობა	-11.3419
▁კომენტარ	-11.3419
▁კონსტრუქცი	-11.3419
▁კონტრასტ	-11.3419
▁კრიტერიუმ	-11.3419
▁კრიტიკოს	-11.3419
▁ლიბერტარიანელ	-11.3419
▁მაპატიე	-11.3419
▁მახვილგონივრულ	-11.3419
▁მეტაბოლიზმ	-11.3419
▁მექანიკურ	-11.3419
▁მიკროსკოპულ	-11.3419
▁მკაფიო	-11.3419
▁მოაზროვნე	-11.3419
▁მოეწონებ	-11.3419
▁მოვახდინე	-11.3419
▁მოზღვავებ	-11.3419
▁მოლუსკი	-11.3419
▁მოსაგვარებლად	-11.3419
▁მოშორებულ	-11.3419
▁მოხიბლული	-11.3419
▁მტაცებელი	-11.3419
▁მუსიკოსი	-11.3419
▁მძლავრ	-11.3419
▁მწყემს	-11.3419
▁ორიენტირებულ	-11.3419
▁პანფსიქი	-11.3419
▁პარამეტრ	-11.3419
▁პასუხისმგებელ	-11.3419
▁პერიფერიულ	-11.3419
▁პიქსელ	-11.3419
▁პრეპარატ	-11.3419
▁პრეფერენციებ	-11.3419
▁პრიმიტიულ	-11.3419
▁რგოლები	-11.3419
▁რეკლამა	-11.3419
▁რეკლამი	-11.3419
▁რეპეტიცია	-11.3419
▁სამკუთხედ	-11.3419
▁სასოწარკვეთილ	-11.3419
▁საფეხურზე	-11.3419
▁საფეხური	-11.3419
▁სიმულაცია	-11.3419
▁სინგაპურ	-11.3419
▁სპონტანურ	-11.3419
▁სუპერორგანიზმ	-11.3419
▁ტამიფლუ	-11.3419
▁ტენდენციებ	-11.3419
▁ტრენინგი	-11.3419
▁უკმაყოფილ	-11.3419
▁უსხეულო	-11.3419
▁ფავორიტ	-11.3419
▁ფედერალურ	-11.3419
▁ფეისბუკი	-11.3419
▁ფემინისტურ	-11.3419
▁ფიზიკოსი	-11.3419
▁ფილტვ	-11.3419
▁ფურცელ	-11.3419
▁ქვეცნობიერ	-11.3419
▁ღვიძლს	-11.3419
▁ყოვლისმომცველ	-11.3419
▁შარდსადენ	-11.3419
▁შეაჩერებ	-11.3419
▁შეგრძნებით	-11.3419
▁შევამჩნიე	-11.3419
▁შევაჩერო	-11.3419
▁შემოწირულ	-11.3419
▁შესაფერისი	-11.3419
▁შესაცვლელ	-11.3419
▁შეყვარებული	-11.3419
▁შთამომავლ	-11.3419
▁ჩაყვინთ	-11.3419
▁ციკლურ	-11.3419
▁ცილინდრ	-11.3419
▁წარმოვიდგენ	-11.3419
▁წარუმატებელ	-11.3419
▁ჭკუ	-11.3419
▁ჯოჯოხეთი	-11.3419
აყურებელი	-11.3419
თაყვან	-11.3419
მსუბუქებ	-11.3419
▁აბსტრაქციებ	-11.3419
▁ადვოკატ	-11.3419
▁ამორალურ	-11.3419
▁აპოკალიფ	-11.3419
▁გაიზარდო	-11.3419
▁გამოსახულებებ	-11.3419
▁გამოფხიზლ	-11.3419
▁გარდაუვლ	-11.3419
▁გასეირნებ	-11.3419
▁დაარღვი	-11.3419
▁ეზოთერულ	-11.3419
▁ეკვადორ	-11.3419
▁ეუფლებ	-11.3419
▁ვირჯინი	-11.3419
▁ზეწოლ	-11.3419
▁თანაავტორ	-11.3419
▁თეფშ	-11.3419
▁იზოლირება	-11.3419
▁იმოძრავე	-11.3419
▁იმპლანტ	-11.3419
▁ინტეგრაცი	-11.3419
▁ინტროვერ	-11.3419
▁კოეფიციენტ	-11.3419
▁კუთვნილებ	-11.3419
▁ლათონო	-11.3419
▁ლექციის	-11.3419
▁მალარიის	-11.3419
▁მგრძნობელობ	-11.3419
▁მეგობრობ	-11.3419
▁მოშორები	-11.3419
▁მშრომელ	-11.3419
▁მწერალ	-11.3419
▁ნახშირორჟანგ	-11.3419
▁ნიღაბ	-11.3419
▁ობსერვატორი	-11.3419
▁ორგანიზების	-11.3419
▁ორიენტაცი	-11.3419
▁პლატფორმ	-11.3419
▁რაციონალობ	-11.3419
▁რეაქციებ	-11.3419
▁სემინარ	-11.3419
▁სოციოლოგი	-11.3419
▁სუპერნოვა	-11.3419
▁ტერორიზმ	-11.3419
▁ტრაგედი	-11.3419
▁ტრანზაქცი	-11.3419
▁უნებლიე	-11.3419
▁ფოტოგრაფი	-11.3419
▁შეაგროვ	-11.3419
▁შემადგენელ	-11.3419
▁შექსპირ	-11.3419
▁შეხვედრებზე	-11.3419
▁შრიფტ	-11.3419
▁ჩემპიონ	-11.3419
▁ცრურწმენ	-11.3419
▁წარმოგვიდგე	-11.3419
▁წარმოდგენებს	-11.3419
▁წარუმატებლობ	-11.3419
▁ჯეფერსონ	-11.3419
დაქვეითებულ	-11.3419
ციმციმ	-11.3419
ცოცხლობ	-11.3419
▁ადგილმდებარეობ	-11.3419
▁ბავშობ	-11.3419
▁გავთხოვდ	-11.3419
▁განუწყვეტ	-11.3419
▁დანაზოგებ	-11.3419
▁ვათავსებ	-11.3419
▁ვარდისფერ	-11.3419
▁თერმო	-11.3419
▁ინტეგრირებ	-11.3419
▁ინფრა	-11.3419
▁კლიმატურ	-11.3419
▁მიბმული	-11.3419
▁მიიღწე	-11.3419
▁ოპტიმისტ	-11.3419
▁პლაცებო	-11.3419
▁რეგულა	-11.3419
▁რეკონსტრუქცი	-11.3419
▁სარდაფ	-11.3419
▁ქმედების	-11.3419
▁ღუმელ	-11.3419
▁შეინიშნებ	-11.3419
▁შოვნ	-11.3419
▁შუნტირებ	-11.3419
▁ჰიტლერ	-11.3419
ვახსენო	-11.3419
ღვიძა	-11.3419
ღვიძებ	-11.3419
▁გვაწვდი	-11.3419
▁მთავრობებ	-11.3419
▁მიუღია	-11.3419
▁პოულობ	-11.3419
▁სამოთხე	-11.3419
▁სიმცირ	-11.3419
▁შევაფას	-11.3419
▁ძაფებ	-11.3419
▁გამოსვლები	-11.3419
▁გულგრილ	-11.3419
▁დაიქირა	-11.3419
▁დანახარჯი	-11.3419
▁დასაბუთებ	-11.3419
▁ემულირებ	-11.3419
▁ინსულინი	-11.3419
▁მექსიკ	-11.3419
▁საბჭო	-11.3419
▁ქსელში	-11.3419
▁ჩვევები	-11.3419
აკრიტიკებ	-11.3419
ვარაუდობ	-11.3419
▁აღქმული	-11.3419
▁ბარბარა	-11.3419
▁ბრძენ	-11.3419
▁გადავხედოთ	-11.3419
▁გამოვლინება	-11.3419
▁ელექსირ	-11.3419
▁მწვავე	-11.3419
▁ნაადრევ	-11.3419
▁რკინი	-11.3419
▁ჩაერთვებ	-11.3419
▁ცურვა	-11.3419
▁ძაფი	-11.3419
▁ჭიქა	-11.3419
კუპამ	-11.3419
▁კაროლინ	-11.3419
▁ჰარმონი	-11.3419
▁ვცდები	-11.3419
▁იმეორებ	-11.3419
▁ნახშირი	-11.3419
▁წინაღობა	-11.3419
ავრცელებ	-11.3419
▁ბიოლოგებ	-11.3419
▁დაჯილდოვ	-11.3419
▁მოსასმენ	-11.3419
▁სატელიტ	-11.3419
▁სიმშვიდე	-11.3419
ხვეწა	-11.342
▁განუვითარ	-11.342
▁გეტყოდ	-11.342
▁ვალდებული	-11.342
▁ტატუ	-11.342
▁უვიცობ	-11.342
▁ბანაკ	-11.342
▁ისურვებ	-11.342
▁ჩაკეტილ	-11.342
▁გაიტან	-11.342
▁დაკვრ	-11.342
▁ვარიაციები	-11.342
▁კუნთებ	-11.342
▁წინანდელ	-11.342
▁მარგარ	-11.342
▁მეგატონ	-11.342
▁უიტენ	-11.342
▁კლონირებ	-11.342
▁წარმოადგინ	-11.342
▁ესპანელ	-11.342
▁კლასიფიცირ	-11.342
გამომრიცხავ	-11.342
▁გრანდ	-11.342
▁ვაშენებ	-11.342
▁სპორტი	-11.342
▁შუქნიშ	-11.342
▁წავიკითხავ	-11.342
▁საეჭვო	-11.342
▁ბალეტ	-11.342
▁მაკრო	-11.342
▁გამოსაყენებ	-11.342
▁განთავსებ	-11.342
▁გვაგრძნობინებ	-11.342
▁იჭერ	-11.342
▁სამსახურებ	-11.342
▁შუალედ	-11.342
▁პროგრამულ	-11.342
▁სანაპირო	-11.342
▁უდავო	-11.342
▁უსვამ	-11.342
▁მჟავ	-11.342
▁გადავიღე	-11.342
რქმევ	-11.342
▁ვმღერ	-11.342
▁მომართული	-11.342
▁ფაქტორები	-11.342
▁წამოიწყ	-11.342
▁ააშენო	-11.342
▁ვაჩვენო	-11.342
▁ტრახე	-11.342
▁დაჭერა	-11.342
▁ბრუნვ	-11.342
▁სიხარბ	-11.342
▁ღერძ	-11.342
▁ბუდე	-11.342
ეხდინა	-11.342
▁გადაუხად	-11.342
▁უხერხულ	-11.342
▁განვიხილავ	-11.342
▁კვარკ	-11.342
▁წარმომიდგე	-11.342
▁ჰავაი	-11.342
▁ვასკვ	-11.342
▁დამადასტურებ	-11.342
▁ეჩვენება	-11.342
▁მეტყველ	-11.342
▁სისხლძარღვოვან	-11.342
▁დაზოგვა	-11.342
▁ბიჯებ	-11.342
▁იღუპებ	-11.342
▁პათოლოგი	-11.342
ტკივა	-11.342
▁ევროპულ	-11.342
▁მივმართო	-11.342
▁წინაპირობ	-11.342
▁მსოფლ	-11.342
▁ჟღა	-11.342
▁ჩაიკეტ	-11.342
ფიცირებ	-11.342
▁დახურულ	-11.342
▁შეიცვლი	-11.342
დაუმუშავებ	-11.342
▁ლოცვ	-11.342
▁ნახაზ	-11.342
▁ვაგროვებ	-11.342
სადეგ	-11.342
▁მიჩვეულ	-11.342
▁დაღმართ	-11.342
▁სნობ	-11.342
მზარეულ	-11.342
▁ტეხას	-11.342
იკვრებ	-11.342
▁კოცონ	-11.342
▁სტიმულირების	-11.342
▁აქტივობებ	-11.3421
▁გამოიმუშა	-11.3421
▁შევინახ	-11.3421
▁კარიკატურისტ	-11.3421
იარულო	-11.3421
▁ვარდნებ	-11.3421
უძღვ	-11.3421
▁დამუშავების	-11.3421
მომხმარებლ	-11.3421
მინდე	-11.3421
▁აქვეყნებ	-11.3421
▁ჩართო	-11.3421
▁იწონი	-11.3421
▁უკრავ	-11.3421
▁საჩვენებლ	-11.3421
▁შევიცვალ	-11.3421
ირბინო	-11.3421
▁ვესაუბრებ	-11.3421
▁შესძლებ	-11.3421
▁დამთავრების	-11.3421
▁ანომალ	-11.3421
▁ლონგ	-11.3421
▁ვეკითხებ	-11.3421
ღიმო	-11.3421
▁ინფორმაციით	-11.3421
▁გაზრდა	-11.3422
▁გაუკეთებია	-11.3422
▁საზარელ	-11.3422
▁ადარებ	-11.3422
▁გატარებულ	-11.3422
▁ტვიტ	-11.3422
▁ვანიჭებთ	-11.3422
არქეოლოგ	-11.3422
▁დავიჯერო	-11.3422
ვიწრო	-11.3422
▁გავცემთ	-11.3422
▁გამომწვევ	-11.3422
▁სუზ	-11.3422
▁სოფლებ	-11.3423
▁შეეცდებ	-11.3423
▁დამეწერა	-11.3423
▁გამოვიგონ	-11.3423
▁განწყობის	-11.3423
▁დაკმაყოფილებ	-11.3423
▁გაჩენის	-11.3423
შეშდება	-11.3423
▁ისლამისტ	-11.3423
ირჩევნია	-11.3423
▁ვილაპარაკე	-11.3423
▁აღმოსა	-11.3423
▁სახელწოდებ	-11.3423
▁საოცრებებ	-11.3423
▁ფოკუსირება	-11.3423
▁შესრულებულ	-11.3423
▁მაგვარი	-11.3424
▁პენსიონერ	-11.3424
ვსულიყავი	-11.3424
▁გავერკვ	-11.3424
▁მოტორულ	-11.3424
▁მოწინა	-11.3424
▁Ar	-11.3424
▁პარკერ	-11.3424
▁ტილო	-11.3424
▁პალმ	-11.3425
▁დასაძლევ	-11.3425
▁შეუწყობ	-11.3425
▁ვიმყოფებ	-11.3425
ec	-11.3425
▁სავარჯიშო	-11.3425
▁შეხვედრის	-11.3425
▁მკითხე	-11.3425
▁რობინ	-11.3425
▁სასტიკ	-11.3426
ღუპ	-11.3426
▁გხდი	-11.3426
▁ამოცნობა	-11.3426
▁შვეიცარიელ	-11.3426
▁მაძლევდ	-11.3426
ესწრებოდ	-11.3426
▁მტკიცებით	-11.3426
▁გამოსწორებ	-11.3427
▁ვალუტა	-11.3427
▁წვიმ	-11.3427
▁ათობით	-11.3427
იტყობ	-11.3427
▁მარქსისტ	-11.3427
▁შეუსრულებ	-11.3427
ღიმებ	-11.3428
▁გქონდა	-11.3428
▁დამაფიქრ	-11.3428
▁ტოტებ	-11.3428
▁93	-11.3428
▁ამოღებ	-11.3428
▁პატივს	-11.3428
▁კლეი	-11.3429
▁ნათესავ	-11.3429
▁შეძენ	-11.3429
დემოკრატიებში	-11.3429
▁უზრუნველყოფილი	-11.3429
▁შეწყდ	-11.3429
▁რიგზე	-11.343
ყოვნებ	-11.343
პონტ	-11.343
იკეთებია	-11.343
▁ვსვამდი	-11.343
▁აუხსნ	-11.3431
▁ზომავს	-11.3431
▁კონტაქტ	-11.3432
▁ტელევიზია	-11.3433
▁აჩრდილ	-11.3433
▁იდეოლოგი	-11.3433
▁დავბრუნდები	-11.3433
ხტომა	-11.3433
▁98	-11.3433
▁გულისცემ	-11.3433
▁ვუყო	-11.3434
▁გამოსავლ	-11.3434
▁2004	-11.3434
ტრანსპორტირებ	-11.3435
▁ქუდ	-11.3435
▁ააგო	-11.3436
▁დასანახ	-11.3436
▁ამინდი	-11.3436
▁გიგა	-11.3436
▁პროცესორ	-11.3436
▁სტაბილურობა	-11.3437
თანამშრომლობ	-11.3437
▁სკამ	-11.3437
▁37	-11.3437
▁დასრულების	-11.3438
▁სისხლძარღვებ	-11.3438
▁ჩავარდ	-11.3439
▁მავთულ	-11.3439
▁დასჯა	-11.3439
▁აწევი	-11.344
▁ჩართულობა	-11.344
IS	-11.3441
ნაკლო	-11.3441
მოგვყავ	-11.3442
▁გავმართ	-11.3443
▁ათეულ	-11.3444
▁შეამოწმე	-11.3445
▁ეზო	-11.3446
▁ეგრე	-11.3446
▁ლინ	-11.3446
▁ეწევი	-11.3446
▁კოსტ	-11.3447
▁დასახლების	-11.3447
▁შევედი	-11.3447
▁შესულ	-11.3447
▁ჩანაწერებ	-11.3447
▁გაამართლ	-11.3448
▁ვიკვლევ	-11.3449
▁ჩამოვთვ	-11.3449
▁ფეინმან	-11.3451
▁ეფექტებ	-11.3452
▁ენდობ	-11.3453
▁ამიხსნ	-11.3454
▁მშვენიერებ	-11.3454
▁გჭირ	-11.3454
▁პუბლიკაციურ	-11.3456
პოლის	-11.3457
▁ლტოლვილებ	-11.346
▁ტაბ	-11.3462
▁პასუხისმგებლიან	-11.3462
▁მომხმარებლის	-11.3469
▁დაბრუნებულ	-11.3476
▁პროპ	-11.3477
▁ჩადენი	-11.3479
▁ასაკოვან	-11.348
▁დამკვირვებელ	-11.348
ვარტყამ	-11.3482
ცხოვრია	-11.3485
▁ფორმებ	-11.3486
▁ამოწურვ	-11.3491
▁განვმარტ	-11.3491
▁მოგვარ	-11.3492
▁მაშინდელ	-11.3494
▁არეალ	-11.3495
მალავ	-11.3496
▁გასტან	-11.3497
▁გაფილტრულ	-11.3499
▁იცვლებოდ	-11.35
იჯდება	-11.3502
▁მმართველობა	-11.3504
▁ზონებ	-11.3508
ხატავ	-11.3513
შეყრი	-11.3514
▁წამოვიდ	-11.3515
▁ფსიქიკურ	-11.3519
▁ნეკ	-11.3521
▁დეიდ	-11.3522
ეტაკე	-11.3523
იხილავ	-11.3524
▁გართობ	-11.3529
▁ეკუთვნ	-11.3538
▁ჩამოვიდ	-11.3539
▁მივყვებ	-11.3545
▁ჩათვალ	-11.3552
აღამ	-11.3567
ვდილ	-11.3582
▁ამოიცნო	-11.3594
უმბი	-11.3615
▁შევინარჩუნ	-11.3627
▁ვერანაირ	-11.3632
ქაჩ	-11.364
▁ერთიანდებ	-11.365
აზრებ	-11.3672
▁დაბრუნების	-11.3686
▁გვესმოდ	-11.3707
▁არაინტუიციურ	-11.3714
▁გავანადგურე	-11.3734
სიერა	-11.3745
▁პრიორიტეტებ	-11.3771
▁აიძულებ	-11.3775
▁პერიოდულ	-11.3779
▁მხატვრებ	-11.3788
ვაყალიბებ	-11.3791
აჭერ	-11.3792
▁დამისვ	-11.3796
ეზომა	-11.3797
ეჯახება	-11.3797
თხარო	-11.381
ტრაქტორი	-11.3842
▁მიმეღ	-11.3846
▁ასვლა	-11.3851
აპყ	-11.3854
ნგერი	-11.3905
ხალისე	-11.3907
▁ეფექტურობი	-11.3909
ვიაზრებ	-11.3914
▁დაეხმარო	-11.3924
▁ხელსაწყოებ	-11.3926
▁მუსლიმურ	-11.3965
▁გერმანელებ	-11.3978
რთმევ	-11.4008
▁მაგნიტ	-11.4017
▁უნახავ	-11.4029
უხვი	-11.4037
▁უზრუნველყ	-11.4061
ბატონებ	-11.4067
▁პერსონაჟებ	-11.4069
▁უჭირ	-11.4072
▁ანალოგიურ	-11.4086
▁სმენი	-11.4121
▁მასწავლებლ	-11.4129
▁პროფესორებ	-11.4141
▁შემოხვე	-11.4168
▁დამოუკიდებლობ	-11.4173
▁ვყვებ	-11.4183
არებინა	-11.4193
▁იოლ	-11.4193
ასტრონომია	-11.4239
ქნებოდა	-11.4245
ბრალ	-11.4298
▁მეზობლებ	-11.4362
ჯაბ	-11.4375
ბრძოლო	-11.4396
▁ისლამ	-11.4417
▁კავშირებ	-11.4455
▁დაშლ	-11.4576
▁მიხ	-11.4591
არწმუნებ	-11.4597
▁მომავლ	-11.4646
კეტავ	-11.467
▁გავცე	-11.4676
▁ევოლუცი	-11.471
▁გაიაზრ	-11.471
უარე	-11.4711
▁დავბრუნდე	-11.4733
▁ტოლერანტ	-11.4744
▁მომიწ	-11.4761
ახლობლ	-11.4808
▁ნახშირბად	-11.4813
▁გავაგრძელ	-11.4852
▁ნაცისტებ	-11.4877
▁დათანხმდ	-11.4891
▁ვაკონტროლ	-11.4924
▁გაიცნო	-11.4924
▁ჩვეულებ	-11.493
nce	-11.4934
▁გადანერგვ	-11.4937
დანერგვას	-11.4971
▁ლიბერალებ	-11.4974
▁გაყიდ	-11.4996
▁ფოტოებ	-11.5005
▁ნაცისტ	-11.5022
▁ენერგი	-11.5038
▁არგუმენტ	-11.5067
▁საწარმო	-11.5086
▁მტკიცებულებ	-11.517
▁უფლებ	-11.5233
▁წარმარ	-11.5262
▁მექნებ	-11.5281
▁სტუდენტ	-11.534
▁თეორი	-11.5367
▁მითოლოგი	-11.5402
▁ამჩნევ	-11.5414
▁მგზავრ	-11.5417
აზროვნებ	-11.5455
▁წარმოჩ	-11.5458
▁უხილავ	-11.5475
ჭირდა	-11.5568
▁გაჩნდებ	-11.5568
▁მეზობლ	-11.5572
სვეტები	-11.5716
ვცვალო	-11.5729
▁გვქონ	-11.5734
▁გუგლ	-11.5764
▁ზეგამტარებ	-11.5765
▁ნავთობ	-11.5773
▁ანტიდეპრესანტ	-11.5776
▁მნიშვ	-11.5816
▁მარკეტინგ	-11.5817
▁ლაბორატორი	-11.5818
ყალიბ	-11.5823
▁ანალოგ	-11.5866
▁პერსონაჟ	-11.5913
ატრიალ	-11.5941
▁რეალობ	-11.5995
ქცეოდ	-11.5997
▁მშობლ	-11.6082
▁მჭირდ	-11.613
▁ასპექტებ	-11.6162
▁ბრენდებ	-11.6171
▁უმუშევ	-11.6225
▁სასურველ	-11.6243
▁მხატვრ	-11.6261
▁მოტივირებ	-11.627
▁აიძულ	-11.6278
▁პასუხისმგებლ	-11.6286
▁წყვილებ	-11.6286
▁პროდუქტებ	-11.6294
განმარტებ	-11.632
პასუხა	-11.6321
▁ანდერსონ	-11.6326
ვიცნო	-11.6327
▁შვიდ	-11.6374
▁წვეულებ	-11.6375
▁კარიკატურ	-11.6386
▁უნარშეზღუდულ	-11.6388
ვიქცე	-11.6392
უყენებ	-11.6443
▁პატიმარ	-11.6469
▁სუბიექტურ	-11.647
ათბობ	-11.6472
▁წამალ	-11.6472
კავშირი	-11.6472
▁ამერიკულ	-11.6472
▁აუცილებელ	-11.6479
▁ძნელ	-11.6482
პროექტ	-11.6485
სახელმწიფო	-11.649
▁აღმოჩენილ	-11.6492
ეკონომიკურ	-11.6496
მომავალი	-11.6502
გონიერი	-11.6535
▁სარგებლ	-11.6539
▁ნაციონალ	-11.6547
▁რადიკალ	-11.6548
▁ქვემო	-11.6551
▁შემწყნარებ	-11.6557
სვლელ	-11.6559
▁სექსუალ	-11.6567
▁აღიარებულ	-11.6567
▁საზოგადო	-11.6575
▁ეჯახებ	-11.6576
სიყვარულ	-11.66
▁ბრიტან	-11.6604
სახება	-11.6648
ამუშაოს	-11.6651
▁ამოწურ	-11.6654
▁მდინარ	-11.6659
▁დაგვანახ	-11.6667
▁კომპ	-11.6667
იწვიო	-11.6668
▁განზრახ	-11.6674
▁ფუნდამენტ	-11.6674
▁საზღვა	-11.6678
▁განვაგრძო	-11.6679
ათხოვებ	-11.6694
▁ლტოლვი	-11.6696
ისუნთქე	-11.6698
ასწრებ	-11.6701
ძლიერეს	-11.6712
ინდომე	-11.6713
პროგრამირებ	-11.6713
პატივ	-11.6724
სისხლძარღვ	-11.6726
▁მოსახლე	-11.673
ტრანსპორტ	-11.6732
ბერგი	-11.6736
დოკუმენტ	-11.6737
▁განაგრძო	-11.6737
▁მარქსი	-11.6742
▁დანერგ	-11.6743
▁ჰოკინ	-11.6744
ალიზაციის	-11.6744
მტკივნეულ	-11.6745
▁კორპორა	-11.6745
აგვარებ	-11.6745
▁სექტემბ	-11.6745
▁შეუმჩნევ	-11.6746
▁ეწოდ	-11.6746
წყვიტა	-11.6746
ვწყვიტე	-11.6747
▁პენსიონ	-11.6747
კრატ	-11.6747
ტვირთო	-11.6748
ელახა	-11.6748
საზღვრავ	-11.675
▁აღვიქვ	-11.675
მშენებლო	-11.675
ღწევის	-11.6751
▁Appl	-11.6751
ამარცხებ	-11.6751
ატვირთვ	-11.6751
ვარკვი	-11.6752
წლეულ	-11.6752
კაშკაშე	-11.6752
გენიოს	-11.6752
მოძრაო	-11.6752
▁უცხოპლანეტ	-11.6752
ეფციები	-11.6753
▁რეცეპტ	-11.6753
▁ადმინისტრაცი	-11.6753
ცოდინრ	-11.6753
▁Atla	-11.6753
▁გადაადგილდებ	-11.6753
▁ვეჯახებ	-11.6753
▁იღგზნებ	-11.6753
▁მეწარმე	-11.6753
▁სიმეტრი	-11.6753
▁ფსევდო	-11.6753
ავისეირნ	-11.6753
აპატიმრე	-11.6753
გარიშვალდებულება	-11.6753
ეგრძელებინა	-11.6753
ევიწყებინა	-11.6753
ემახსოვრება	-11.6753
ვაცოცხლებ	-11.6753
თერაპევტ	-11.6753
თრგუნ	-11.6753
იგულისხმ	-11.6753
ინფარქტ	-11.6753
კვალიფიციურ	-11.6753
კვერცხისეულ	-11.6753
მემარჯვენე	-11.6753
მოსამსახურე	-11.6753
მწყვდეული	-11.6753
მჭვრეტელი	-11.6753
რელევანტურ	-11.6753
უძლურებ	-11.6753
ფიქორბ	-11.6753
ფრქვევი	-11.6753
ყოყმან	-11.6753
შედეგობრივ	-11.6753
ჩოგბურთ	-11.6753
ცირკულ	-11.6753
▁20-30	-11.6753
▁2014	-11.6753
▁აანაზღაურ	-11.6753
▁აგნოსტიკ	-11.6753
▁ავიაკომპანიი	-11.6753
▁ავტონომია	-11.6753
▁აიშნტაინ	-11.6753
▁ამბიციურ	-11.6753
▁ამბოხებებ	-11.6753
▁არაბუნებრივ	-11.6753
▁არამატერიალურ	-11.6753
▁არასაკმარის	-11.6753
▁არასრულყოფილი	-11.6753
▁არდადეგებ	-11.6753
▁ასიმეტრიულ	-11.6753
▁ასტროფიზიკ	-11.6753
▁ატლანტა	-11.6753
▁აფიქსირებ	-11.6753
▁ახალშობილ	-11.6753
▁ბაკალავრი	-11.6753
▁ბერძენ	-11.6753
▁ბიბლიაში	-11.6753
▁ბიოტექნოლოგი	-11.6753
▁ბომბდამშენ	-11.6753
▁ბრენსონი	-11.6753
▁ბროშურ	-11.6753
▁ბრტყელეკრანიან	-11.6753
▁გადასაჭრელ	-11.6753
▁გადაჭიმული	-11.6753
▁გავიღვიძ	-11.6753
▁გავუმკლავდ	-11.6753
▁გავყევი	-11.6753
▁გაითავისო	-11.6753
▁გამბედაობა	-11.6753
▁გამომიცდია	-11.6753
▁გამომუშავება	-11.6753
▁გამოცოცხლება	-11.6753
▁გამოხატვი	-11.6753
▁გამოჯანმრთელ	-11.6753
▁გამჭრიახობა	-11.6753
▁განკარგულებაში	-11.6753
▁განუყოფელ	-11.6753
▁განწირულ	-11.6753
▁განხორციელდ	-11.6753
▁გასამკლავებლად	-11.6753
▁გაუტყეურებ	-11.6753
▁გაცოცხლ	-11.6753
▁გენოციდ	-11.6753
▁გერიატრ	-11.6753
▁გერონტოლოგ	-11.6753
▁გექმნება	-11.6753
▁გვიყურებ	-11.6753
▁გრანდიოზულ	-11.6753
▁დაადანაშაულ	-11.6753
▁დააფიქსირ	-11.6753
▁დაგჭირდება	-11.6753
▁დავკმაყოფილდე	-11.6753
▁დავფრინავ	-11.6753
▁დაივიწყე	-11.6753
▁დამაიმედებელ	-11.6753
▁დამქანცველ	-11.6753
▁დასახიჩრება	-11.6753
▁დაუკავშირდ	-11.6753
▁დაუძახებ	-11.6753
▁დაქვეითება	-11.6753
▁დეგუსტაცი	-11.6753
▁დედმამიშვილ	-11.6753
▁დეფიციტ	-11.6753
▁ეკონტაქტებ	-11.6753
▁ემორჩილებ	-11.6753
▁ენთუზიასტ	-11.6753
▁ეპიზოდ	-11.6753
▁ერთადგილიან	-11.6753
▁ეუბნებოდ	-11.6753
▁ექსკურსია	-11.6753
▁ექსპლუატაცი	-11.6753
▁ვაანალიზებ	-11.6753
▁ვებრძვი	-11.6753
▁ვემზადებოდი	-11.6753
▁ვიპოვნე	-11.6753
▁ვიყურები	-11.6753
▁ვიშნუ	-11.6753
▁ვიცოცხლებ	-11.6753
▁ვკითხულობდი	-11.6753
▁ვუყურო	-11.6753
▁ვწვრთნი	-11.6753
▁ზაქარია	-11.6753
▁თავგადას	-11.6753
▁თავშესაფარ	-11.6753
▁თავშესაფრ	-11.6753
▁თალიბან	-11.6753
▁თანამემამულე	-11.6753
▁თანაუგრძნ	-11.6753
▁თარგმნ	-11.6753
▁თეოკრატი	-11.6753
▁იაპონელ	-11.6753
▁ითარგმნ	-11.6753
▁ილუზიონისტ	-11.6753
▁ილუსტრაცია	-11.6753
▁იმმუნოლოგიურ	-11.6753
▁ინვესტირებას	-11.6753
▁ინოვაციები	-11.6753
▁ინსტინქტ	-11.6753
▁ინსტიტუტები	-11.6753
▁ინსტრუქტორ	-11.6753
▁ინსტრუქცი	-11.6753
▁ინტერაქტიული	-11.6753
▁იხურება	-11.6753
▁კალუზა	-11.6753
▁კაპსულა	-11.6753
▁კარტიკეა	-11.6753
▁კეთილსინდისიერ	-11.6753
▁კომედიები	-11.6753
▁კონკურენტ	-11.6753
▁კონცეპცია	-11.6753
▁კოორდინ	-11.6753
▁კორეელებ	-11.6753
▁ლაურეატ	-11.6753
▁ლევიათან	-11.6753
▁ლექსიკოგრაფ	-11.6753
▁ლოგინ	-11.6753
▁მანიპულირებ	-11.6753
▁მარშრუტ	-11.6753
▁მაყურებლებ	-11.6753
▁მახინჯ	-11.6753
▁მეგობრულ	-11.6753
▁მეეგერენ	-11.6753
▁მენტალიტეტ	-11.6753
▁მეურნეობა	-11.6753
▁მივუახლოვდი	-11.6753
▁მიმოხილვ	-11.6753
▁მინიმალური	-11.6753
▁მისაწვდომ	-11.6753
▁მიუახლოვდ	-11.6753
▁მოამზადა	-11.6753
▁მოვრჩე	-11.6753
▁მოიშორო	-11.6753
▁მომხიბვლელ	-11.6753
▁მოსალონდელ	-11.6753
▁მოსაპოვებ	-11.6753
▁მოშორება	-11.6753
▁მოწინააღმდეგის	-11.6753
▁მოწყვლად	-11.6753
▁მსახიობ	-11.6753
▁მსუყე	-11.6753
▁მუსიკოსები	-11.6753
▁მძაფრ	-11.6753
▁მწარმოებელ	-11.6753
▁ნაპერწკალ	-11.6753
▁ნარატივებ	-11.6753
▁ნაცრისფერ	-11.6753
▁ნაწიბური	-11.6753
▁ნახშიროჟანგ	-11.6753
▁ნეოკონსერვატიზმ	-11.6753
▁ნიშნით	-11.6753
▁ნოემბერ	-11.6753
▁ორკესტრ	-11.6753
▁ორშაბათ	-11.6753
▁პანდორა	-11.6753
▁პარაშუტი	-11.6753
▁პენიცილინ	-11.6753
▁პიტსბურგი	-11.6753
▁პოპულარობ	-11.6753
▁პორტუგალი	-11.6753
▁პრაქს	-11.6753
▁პრეზენტ	-11.6753
▁პროტოტიპ	-11.6753
▁ჟენევ	-11.6753
▁რეაბილიტაცია	-11.6753
▁რეგისტრაცი	-11.6753
▁რედაქტორებ	-11.6753
▁რედაქტორი	-11.6753
▁რეპროდუქციულ	-11.6753
▁რეცენზი	-11.6753
▁რწმენებ	-11.6753
▁სააგენტო	-11.6753
▁სამართლებრივ	-11.6753
▁სამართლიანი	-11.6753
▁სამომავლო	-11.6753
▁საპარიკმახერო	-11.6753
▁სასტუმრო	-11.6753
▁სასულიერო	-11.6753
▁სასწაულებრივ	-11.6753
▁სასწრაფო	-11.6753
▁საფრანგეთში	-11.6753
▁საყიდლად	-11.6753
▁საშვილოსნო	-11.6753
▁საშიშროებ	-11.6753
▁საცხოვრებლებ	-11.6753
▁საძინებელ	-11.6753
▁სახანძრო	-11.6753
▁სენტიმენტ	-11.6753
▁სერტიფიკატ	-11.6753
▁სიბრტყე	-11.6753
▁სიბრძნი	-11.6753
▁სიგარეტ	-11.6753
▁სიდედრ	-11.6753
▁სიკეთის	-11.6753
▁სიმსუქნ	-11.6753
▁სიმულაციის	-11.6753
▁სიმძლავრ	-11.6753
▁სირინოზებ	-11.6753
▁სისასტიკე	-11.6753
▁სიტკბო	-11.6753
▁სკეპტიკოსებ	-11.6753
▁სოლიდარობ	-11.6753
▁სპეკულაცი	-11.6753
▁სპონსორ	-11.6753
▁სპორტსმენ	-11.6753
▁სტრატეგიულ	-11.6753
▁სტრუქტურომანი	-11.6753
▁სუვერენიტეტი	-11.6753
▁სუპერკომპიუტერ	-11.6753
▁ტელეგრაფი	-11.6753
▁ტექსტებ	-11.6753
▁ტვირთ	-11.6753
▁ტრამპი	-11.6753
▁ტრანსფობი	-11.6753
▁ტრეინინგ	-11.6753
▁ტრიუმფი	-11.6753
▁ტრიუფელებ	-11.6753
▁ტროპიკულ	-11.6753
▁უბიწო	-11.6753
▁უმიზეზო	-11.6753
▁უნდობლობა	-11.6753
▁უნივერმაღ	-11.6753
▁უსიტყვო	-11.6753
▁უღრმეს	-11.6753
▁უწიგნურ	-11.6753
▁უხამსი	-11.6753
▁ფანჯარა	-11.6753
▁ფილანტროპ	-11.6753
▁ფიქსირდებ	-11.6753
▁ფრაგმენტი	-11.6753
▁ფრანცისკო	-11.6753
▁ფუნქციონალ	-11.6753
▁ქსენოფობ	-11.6753
▁ღატაკ	-11.6753
▁შადრევნები	-11.6753
▁შეაჩერო	-11.6753
▁შევარჩიე	-11.6753
▁შევაჯამო	-11.6753
▁შევიგრძნობ	-11.6753
▁შეთანხმებები	-11.6753
▁შეიკრიბ	-11.6753
▁შეშფოთებ	-11.6753
▁შეძახილები	-11.6753
▁შთაგვაგონ	-11.6753
▁შოკისმომგვრელ	-11.6753
▁ჩამოაგდო	-11.6753
▁ჩამოვარდნ	-11.6753
▁ჩიკაგო	-11.6753
▁ცენტრიფუგ	-11.6753
▁ციკლი	-11.6753
▁ციკლონ	-11.6753
▁ცინიკოს	-11.6753
▁ცოცხლად	-11.6753
▁წამოვიწყე	-11.6753
▁წარმოსახვის	-11.6753
▁წრფივი	-11.6753
▁ხაფანგ	-11.6753
▁ხრტილოვან	-11.6753
▁ჰალუცინაცი	-11.6753
ეშენებინა	-11.6753
ნერვიულებ	-11.6753
▁აპლიკაცია	-11.6753
▁აპლოდისმე	-11.6753
▁აღმოვაჩნ	-11.6753
▁ახშობ	-11.6753
▁ბითჯაზ	-11.6753
▁ბიძაშვილ	-11.6753
▁ბრიტნი	-11.6753
▁ბურკე	-11.6753
▁გაგვიზიარ	-11.6753
▁განზომილების	-11.6753
▁გასაჭირ	-11.6753
▁დავიჭერ	-11.6753
▁დაივიწყო	-11.6753
▁დამთრგუნველ	-11.6753
▁დიამეტრ	-11.6753
▁ვარკვლავ	-11.6753
▁ვიმუშავო	-11.6753
▁ვიოლინო	-11.6753
▁ზიზღი	-11.6753
▁თავგადასავლებ	-11.6753
▁იდენტიფიცირებ	-11.6753
▁ინდუიზმ	-11.6753
▁ინსტიტუციონალურ	-11.6753
▁ლინგვისტ	-11.6753
▁მეგასტრუქტურ	-11.6753
▁მიახლოება	-11.6753
▁მიყურებ	-11.6753
▁მოთანამშრომლე	-11.6753
▁ნარატივი	-11.6753
▁სამართლიანად	-11.6753
▁საყვარლ	-11.6753
▁სისუფთავე	-11.6753
▁სუბიექტებ	-11.6753
▁ტრავმულ	-11.6753
▁ფაქიზ	-11.6753
▁ფილოსფ	-11.6753
▁ქრონიკ	-11.6753
▁შეაფასო	-11.6753
▁შეინარჩუნ	-11.6753
▁შთამაგონე	-11.6753
▁ჩაანაცვლ	-11.6753
▁ძუძუმწოვრებ	-11.6753
▁წარმოსადგენ	-11.6753
▁წინასწარგანწყობ	-11.6753
▁ჭარბ	-11.6753
აფრთოვანებ	-11.6753
გაუპატიურე	-11.6753
ვსინჯე	-11.6753
პატენტ	-11.6753
რეზონანს	-11.6753
▁Bri	-11.6753
▁აპათი	-11.6753
▁ბინძურ	-11.6753
▁გადმოგცე	-11.6753
▁გამოსხივებ	-11.6753
▁გასახდელებ	-11.6753
▁დანგრეულ	-11.6753
▁დარმწუნ	-11.6753
▁ივარაუდ	-11.6753
▁კალათბურთ	-11.6753
▁მოთავსება	-11.6753
▁მომხიბლ	-11.6753
▁ნაწერებ	-11.6753
▁ნახევარწრე	-11.6753
▁პოლონეთ	-11.6753
▁პრიმატებ	-11.6753
▁საძირკველ	-11.6753
▁სიბრალული	-11.6753
▁ტირილი	-11.6753
▁უთქვამ	-11.6753
▁უქონლობ	-11.6753
▁შევიკრიბ	-11.6753
▁შრომობ	-11.6753
▁ჩაწერა	-11.6753
▁ძვლები	-11.6753
დღესასწაულ	-11.6753
▁ავაშენო	-11.6753
▁გაანალიზ	-11.6753
▁გადაიხდი	-11.6753
▁გაფრინდ	-11.6753
▁დედიკო	-11.6753
▁ეპიკურ	-11.6753
▁ვიმსჯელ	-11.6753
▁თანდათანობით	-11.6753
▁იძახ	-11.6753
▁კენიონი	-11.6753
▁ნიგერი	-11.6753
▁სახელოსნო	-11.6753
▁ფლორიდ	-11.6753
▁ჰელიუმ	-11.6753
ლაშქრ	-11.6753
ძარცვ	-11.6753
წმინდო	-11.6753
▁აბრალებდ	-11.6753
▁გავაცნობიერე	-11.6753
▁გაუმკლავდ	-11.6753
▁დანაკარგებ	-11.6753
▁ვუსვამ	-11.6753
▁კოსმეტიკ	-11.6753
▁მინიჭებ	-11.6753
▁მოწმენ	-11.6753
▁ნიადაგ	-11.6753
▁რბოლა	-11.6753
▁საზიზღ	-11.6753
▁სკანდალ	-11.6753
▁ტაბლეტ	-11.6753
▁ტაფა	-11.6753
▁ტუბერკულოზი	-11.6753
▁ფრაზები	-11.6753
▁ქაოტურ	-11.6753
▁შაქარ	-11.6753
▁შემუშავებულ	-11.6753
▁შეჩერებ	-11.6753
▁ძალწირებ	-11.6753
მცენარ	-11.6753
ნარცხებ	-11.6753
პოზიციონირებ	-11.6753
▁ბალახ	-11.6753
▁გადასახადებს	-11.6753
▁განეშა	-11.6753
▁გარეგნობ	-11.6753
▁გაჩერებ	-11.6753
▁მოიხსენიებ	-11.6753
▁პროთეზ	-11.6753
▁ფენიქს	-11.6753
▁წაკითხვა	-11.6753
ტოქსიკ	-11.6753
▁აღმოჩენით	-11.6753
▁კრისტალებ	-11.6753
▁მოუსმინ	-11.6753
▁მოცულობი	-11.6753
▁მუმბაი	-11.6753
რგოლი	-11.6753
▁ანიმაცია	-11.6753
▁გრაფიტი	-11.6753
▁იდარდო	-11.6753
▁მოათავსო	-11.6753
▁ომეგა	-11.6753
▁შეჩერდე	-11.6753
-15	-11.6753
მთვრალი	-11.6753
ჩამწერ	-11.6753
▁აიხსნებ	-11.6753
▁გემოვნება	-11.6753
▁ლოყები	-11.6753
▁მივხვდე	-11.6753
▁მიმოვიხედ	-11.6753
▁საყაროს	-11.6753
▁სთავაზობ	-11.6753
▁ტიტან	-11.6753
გეგმო	-11.6753
▁ლოგო	-11.6753
▁სპეკულირება	-11.6753
ხმელეთ	-11.6753
▁დავშალ	-11.6753
▁მეტეორი	-11.6753
▁კალორიებ	-11.6753
საპიენს	-11.6753
▁აპარატ	-11.6753
▁გამოცხადდ	-11.6753
▁მიმდევრებ	-11.6753
▁ჩართავ	-11.6753
▁ჭრილობ	-11.6753
▁ხედვები	-11.6753
▁ჰაბლ	-11.6753
▁გამოიტან	-11.6753
▁დავამონტაჟე	-11.6753
▁ლიფტ	-11.6753
▁პილოტ	-11.6753
▁ანალიტიკურ	-11.6753
▁ოთახებ	-11.6753
▁მიკროფონ	-11.6753
▁ნაციზმი	-11.6753
▁სამკაულ	-11.6753
▁შვედებ	-11.6753
▁ჰოლანდი	-11.6753
▁ამომრჩევ	-11.6753
▁განიხილებ	-11.6753
▁კერალა	-11.6753
▁კლიენტ	-11.6753
▁მოგეწონებათ	-11.6753
აკურატულ	-11.6753
ვეჩვი	-11.6753
ხვეწო	-11.6753
▁წარიმართ	-11.6753
▁გააღო	-11.6753
▁კედებ	-11.6753
▁რუსეთ	-11.6753
▁დანაწევრებ	-11.6753
მახვილებ	-11.6753
▁პარკინსონი	-11.6753
▁პროდუქტიულობა	-11.6753
▁არნოლდ	-11.6753
▁მოზრდილ	-11.6753
▁დავადგინე	-11.6753
▁იშოვ	-11.6753
▁ჩამოთვლა	-11.6753
▁ონკოლოგ	-11.6753
▁შეეკითხ	-11.6753
▁ამჟღავნებ	-11.6753
▁უხსნი	-11.6753
▁ჩავრთე	-11.6753
▁ხოცავ	-11.6753
ინტრიგ	-11.6753
▁მიირთმევ	-11.6753
▁სიცრუე	-11.6753
▁გამოხატული	-11.6753
▁ემისია	-11.6753
▁ვადარებ	-11.6753
▁გამოვკითხე	-11.6753
აქეზ	-11.6753
▁ბრაუნ	-11.6753
▁პანელები	-11.6753
▁გაგრძნობინებ	-11.6753
▁სტატიის	-11.6753
▁მივატოვ	-11.6753
▁მოყვანილ	-11.6753
ატყუარ	-11.6753
▁ვახერხებ	-11.6753
▁მაკკ	-11.6753
▁ქარტი	-11.6753
▁დავკარგე	-11.6753
▁მხატვარ	-11.6753
▁რიკა	-11.6753
▁წააგავ	-11.6753
▁მოვიხმარ	-11.6753
▁ასოცირებ	-11.6753
▁ჩართვ	-11.6753
▁საფუძვლიან	-11.6753
▁მობილობა	-11.6753
▁წინადადება	-11.6753
იშვერ	-11.6753
▁გეგონება	-11.6753
თეზისი	-11.6753
▁ინგლისურენოვან	-11.6753
▁საჰარ	-11.6753
▁შევკრებ	-11.6753
▁გასაოც	-11.6753
▁ებრაელ	-11.6753
ვიყვირე	-11.6753
▁ივნის	-11.6753
▁ღრუ	-11.6753
სტრირებ	-11.6753
ლუპი	-11.6753
▁ფსიქოპა	-11.6753
კეცილ	-11.6753
▁ძვრებ	-11.6753
▁ათლეტ	-11.6753
▁თამილ	-11.6753
▁ჯილიან	-11.6753
▁გარღვევის	-11.6753
▁გჯეროდე	-11.6753
▁სამართალ	-11.6753
▁დასახლებებ	-11.6753
▁შეჰყ	-11.6753
▁ბრუკ	-11.6753
▁კლავისინ	-11.6753
▁ბანგ	-11.6754
▁გავშალ	-11.6754
▁ფაილებ	-11.6754
▁ჩაცმულ	-11.6754
▁ესექს	-11.6754
▁მომსწრე	-11.6754
დაზღვე	-11.6754
▁მკლავები	-11.6754
▁ტრანსპლანტაციის	-11.6754
▁გადაუდებ	-11.6754
▁რუტინ	-11.6754
▁დასახლებული	-11.6754
▁აწყდებ	-11.6754
▁აღადგენ	-11.6754
▁სიგანე	-11.6754
▁სცადე	-11.6754
▁პროფილ	-11.6754
▁მოიზიდ	-11.6754
▁ანაზღაურების	-11.6754
▁გაცვლა	-11.6754
AS	-11.6754
კლიპი	-11.6754
▁პოლარულ	-11.6754
▁აამაღლ	-11.6754
▁დარღვევი	-11.6754
▁ხარვეზ	-11.6754
▁ეთნიკურ	-11.6754
▁შემოწმდ	-11.6754
▁ამაღლებ	-11.6754
▁დამკვიდრებ	-11.6754
▁პერანგ	-11.6754
▁მშპ	-11.6754
▁ფოტონებს	-11.6754
რყევ	-11.6754
ვალუტ	-11.6754
წლოვან	-11.6754
▁იმეილი	-11.6754
▁მთხრობელ	-11.6754
▁მიეწ	-11.6754
მზიდავ	-11.6754
▁მირეკავ	-11.6754
▁ამოგვი	-11.6754
ბიურო	-11.6754
აპოვნი	-11.6754
▁დავალებებ	-11.6754
▁სძენ	-11.6754
▁გააქრობ	-11.6754
▁გვახსენებ	-11.6754
▁ორღან	-11.6754
▁შეთხზ	-11.6754
▁განხილულ	-11.6754
▁საითკენ	-11.6754
▁ელემენტარულ	-11.6754
▁შერეული	-11.6754
▁გიჭირ	-11.6754
▁შენიღბ	-11.6754
▁შევეგ	-11.6754
▁დაინგრ	-11.6754
▁მენტორ	-11.6754
▁მოკავშირეებ	-11.6754
შველიებ	-11.6754
იჭირე	-11.6754
▁ბიზნესმენი	-11.6754
▁განწყობებ	-11.6754
▁გეკითხებ	-11.6754
▁ვიფიქრებდი	-11.6754
▁კლუნი	-11.6754
▁ცილა	-11.6754
▁ამთავრებ	-11.6754
▁გოლფერები	-11.6754
▁დაამთავრებ	-11.6755
▁ვილოც	-11.6755
▁საწყალ	-11.6755
tic	-11.6755
▁ზმნ	-11.6755
▁გათვლებ	-11.6755
▁ვენერა	-11.6755
▁გავუსვა	-11.6755
▁წყალბად	-11.6755
▁დაახოები	-11.6755
▁უთმობ	-11.6755
▁კოცნი	-11.6755
▁გამიხარდ	-11.6755
▁იძენ	-11.6755
▁ლექსიკ	-11.6755
▁გადაწყობა	-11.6755
▁ხარჯვა	-11.6755
▁პარტია	-11.6755
▁ჩააბარ	-11.6755
▁სისტემურ	-11.6755
მოსაცდელ	-11.6755
▁დავცინ	-11.6755
▁დილემ	-11.6755
▁მოქცევა	-11.6755
რეტრო	-11.6755
▁განასხვავებ	-11.6755
▁შემოიტან	-11.6755
▁ჩამონათვ	-11.6755
▁ვერმეერ	-11.6755
▁წითლ	-11.6755
▁შატო	-11.6755
▁უსმინ	-11.6756
▁სისტემატიურ	-11.6756
▁კბილებ	-11.6756
უმენტი	-11.6756
▁წააწყდ	-11.6756
▁მოგვეჩვენ	-11.6756
ტროფი	-11.6756
▁ტელე	-11.6756
▁პოპ	-11.6756
▁მოიძებნ	-11.6756
▁ხმარობ	-11.6756
▁ყალიბდებ	-11.6756
▁ფლოტ	-11.6756
▁გაგივლი	-11.6756
▁მოხსენება	-11.6756
▁წინააღმდეგობებ	-11.6756
▁პლუს	-11.6756
▁გეითსი	-11.6756
▁დათბობა	-11.6756
▁ღორ	-11.6756
▁დოკუმენტურ	-11.6757
▁ფეთქდებ	-11.6757
აწყვეტინ	-11.6757
შხამ	-11.6757
ლაქის	-11.6757
▁დამერწმუნე	-11.6757
▁წინადადები	-11.6757
▁მოიფიქრ	-11.6757
▁გკითხო	-11.6757
▁უცბა	-11.6757
▁დაუფიქრდ	-11.6757
სძინა	-11.6757
▁შეინახ	-11.6757
▁მოსწრებ	-11.6757
▁ცაციებ	-11.6757
ვცდებოდ	-11.6757
▁სპირალ	-11.6757
ახსენდება	-11.6757
▁გააგზავნ	-11.6757
▁დაინახე	-11.6758
▁ბარათი	-11.6758
▁ფოკუსირებულ	-11.6758
პროფე	-11.6758
▁ჩამოტვირთ	-11.6758
▁ბიძ	-11.6758
▁პოლუს	-11.6758
▁ზამ	-11.6758
▁უმალ	-11.6758
▁მანევრ	-11.6758
▁გაუქმებ	-11.6758
▁გავწი	-11.6759
მიგრირებ	-11.6759
▁ჩავვარდ	-11.6759
▁განქორწინდ	-11.6759
▁ესთეტიკ	-11.6759
▁აუზებ	-11.6759
წყნარე	-11.6759
ისმაგვარ	-11.676
ყუჩ	-11.676
▁თვიან	-11.676
▁გადახტ	-11.676
▁შეითვისო	-11.6761
▁მორგებ	-11.6761
ძვრა	-11.6761
ტიურე	-11.6762
▁კადრებ	-11.6762
▁კენზი	-11.6763
▁კოლონოსკოპი	-11.6764
▁არქიტექტორებ	-11.6764
▁სცადო	-11.6765
▁შემემთხვ	-11.6765
▁ჯონსონ	-11.6765
▁დააყენე	-11.6766
▁ვცლი	-11.6766
ფორდი	-11.6766
▁გაძლიერება	-11.6768
▁სიდიდი	-11.6769
▁გაჩენილ	-11.6769
▁მეთოდოლოგი	-11.6769
▁გამოვცადე	-11.677
▁ლარი	-11.677
▁იოგები	-11.677
▁როიალ	-11.677
▁დამეთანხმებ	-11.677
▁კერას	-11.677
▁მოკავშირ	-11.6771
უშები	-11.6771
▁შეისუნთქ	-11.6771
▁მიწისქვეშ	-11.6772
ჟანგ	-11.6773
▁შიდსი	-11.6773
ბურნ	-11.6774
▁ფუნდამენტალურ	-11.6776
▁ნომრ	-11.6776
▁ალექს	-11.6778
▁გააღე	-11.6778
▁დაბომბვ	-11.6779
▁აგებულებ	-11.678
▁გვჯეროდ	-11.678
მწიფ	-11.678
მოვწიო	-11.6781
ნბერგ	-11.6781
▁აღელვებულ	-11.6782
▁სანთელ	-11.6783
▁ჭირ	-11.6783
▁გამაფრთხილებ	-11.6784
▁ლაბ	-11.6784
მორტყმ	-11.6784
▁სადისტურ	-11.6786
▁გემები	-11.6788
▁ოკენი	-11.6791
▁ვავნ	-11.6791
▁სიძლიერე	-11.6794
▁მინუს	-11.6795
▁კლასელებ	-11.6798
▁გიყვებ	-11.6801
ნდომებ	-11.6804
▁ნეპ	-11.6806
▁გვეგონ	-11.681
ოკრატიულ	-11.681
▁დავუსვ	-11.681
▁ბრაილ	-11.681
▁მოიცილ	-11.6812
ევალებოდა	-11.6816
▁მთავრდებ	-11.6817
▁სიამოვნებებ	-11.6819
▁გათხოვ	-11.6821
▁გამოვხატ	-11.6824
▁აფეთქებებ	-11.6824
სახური	-11.6829
ახვედრებ	-11.683
იზებას	-11.6831
ვუქმნ	-11.6832
▁დაიცავ	-11.6835
ცურავ	-11.6838
▁ეტლ	-11.6838
▁მოექცე	-11.6841
▁აღსასრულ	-11.6844
▁სტიუ	-11.6848
▁ხსენებულ	-11.6849
▁წარმოთქმ	-11.6849
▁კოდებ	-11.6849
▁სტუდენტობი	-11.6853
▁აგუს	-11.6854
მოთქმული	-11.6856
▁გასწავლი	-11.6857
ნაყოფის	-11.6868
▁ეჭვებ	-11.687
▁უხდებ	-11.6872
▁მოგვიტან	-11.6874
▁მიემართებ	-11.6882
▁მანძილებ	-11.6887
▁გამოგადგე	-11.6887
▁გაბნე	-11.6888
ინდუსტრიალიზებულ	-11.6891
▁წამიყვან	-11.6893
იკონის	-11.6895
ერგეი	-11.6897
განაკვეთ	-11.6907
▁დამყარებ	-11.6908
▁მიმაბ	-11.691
▁დამემართ	-11.6911
▁გამაცნ	-11.6921
▁მოდურ	-11.6928
▁დაგვრჩ	-11.6929
▁მოდულ	-11.6947
▁მესიჯ	-11.6948
▁გახშირ	-11.6951
ყენებთ	-11.6961
იფილი	-11.697
▁მოგვეცე	-11.6983
▁გამაჩნ	-11.7006
▁შემოუარ	-11.7022
▁მართებულ	-11.7025
▁ცადო	-11.7048
▁სოლ	-11.7053
მოდერნიზ	-11.7055
▁გამოდგებ	-11.7055
▁იცოცხლ	-11.7058
▁ელემენტებ	-11.7064
აპონი	-11.711
▁თავდაჯერებულობი	-11.7128
▁მოაღწი	-11.7137
▁ავსებ	-11.7225
მოწყობი	-11.7232
▁საძებ	-11.7252
ანიჭებდა	-11.7295
▁გამოყვან	-11.7328
▁შევდგ	-11.7345
▁კეთილშობილ	-11.735
▁გავიკეთ	-11.7388
▁გადატრიალ	-11.7419
ებრუნები	-11.7554
▁ამოვხს	-11.7566
▁გამოუჩნდ	-11.7569
▁სლაიდებ	-11.7583
▁გამოცვლ	-11.7608
▁გააერთიან	-11.7631
გამოძიებ	-11.764
▁წამოსულ	-11.7695
მორფ	-11.7823
ვუდს	-11.7829
ტალღოვან	-11.783
▁დაიტან	-11.7857
▁ორაზროვ	-11.7893
▁წამოდგ	-11.8016
nt	-11.8016
▁რეგენერაცი	-11.8058
▁გავთავისუფლ	-11.8074
▁დაფებ	-11.8197
მოტივაცი	-11.8317
მოიყვანო	-11.8437
▁მორალურობი	-11.8442
▁ვიჯე	-11.8576
ხელმძღვანელობ	-11.8618
წითელს	-11.8669
▁იცხოვრ	-11.8727
გახსნილ	-11.882
მწარე	-11.8849
▁გვჭირდებ	-11.889
▁გაგვაჩნ	-11.8965
პრინტერ	-11.8987
▁გადავაკეთ	-11.8994
კონტროლებ	-11.9034
ტინგ	-11.9039
ნახულე	-11.912
▁შემორჩ	-11.9149
ტოლერანტულ	-11.9262
▁ხელმძღვანელ	-11.9291
▁მოლეკულ	-11.9342
ატომურ	-11.9438
ყოფნის	-11.9479
დინამიკი	-11.9484
აქციე	-11.9486
კრედიტო	-11.9555
ნობდი	-11.9556
ვაცილე	-11.9557
როსკოპი	-11.959
▁ორგანიზაციებ	-11.9591
de	-11.9613
პრობ	-11.9628
▁დიაგნოზ	-11.9706
▁საჩუქარ	-11.9713
ეზიარები	-11.9755
▁გვიწე	-11.9814
ეწინააღმდეგ	-11.9818
ისლამურ	-11.9869
▁შენარჩუნ	-11.9875
▁ბრძოლ	-11.9892
▁დაფუძნ	-11.9905
▁ექსტაზ	-11.9987
ვყვები	-12.0067
▁სიტყვებ	-12.0089
▁მადლიერ	-12.013
▁ქმედებებ	-12.0149
▁გაუმჯობეს	-12.0222
▁ქაღალდ	-12.0256
▁გვითხრ	-12.0264
▁გაჩნდ	-12.0323
ჟანგბადის	-12.0349
▁ებრძო	-12.0405
ხალისო	-12.0557
▁გერმანელ	-12.0587
▁ხელსაწყო	-12.0687
ავაწყო	-12.0691
▁ინსტიტუცი	-12.0695
▁ვეუბნებ	-12.0719
იტანჯე	-12.0734
უყვებოდ	-12.0734
▁განისაზღვრ	-12.0772
▁წარმომადგენლ	-12.0818
ვუწყო	-12.083
▁დამხმარე	-12.0854
▁მკვლელ	-12.0934
ჯგუფი	-12.0937
▁შეგეძლ	-12.0965
▁შინაარს	-12.0979
▁პრიორიტეტ	-12.0996
▁ბლოკჩეინ	-12.1008
▁სიმსივნ	-12.1062
▁დინოზავრ	-12.1077
თანამშრომლ	-12.11
▁ოდისევს	-12.1144
გამორთვი	-12.1189
ვთანხმდ	-12.1196
▁იცვლებ	-12.1206
ღმერთებ	-12.1218
მოძიება	-12.1229
ლურჯებ	-12.124
იარაღებ	-12.1277
ეკუთვნი	-12.1279
▁რწმენი	-12.1286
▁ენტროპი	-12.1292
▁ენერგეტიკ	-12.1303
▁განაპირობ	-12.132
მოწერ	-12.1325
ჯდომი	-12.1345
▁კონფიგურაცი	-12.137
▁დანიშნულებ	-12.137
▁კამპანი	-12.137
▁ზრუნვ	-12.1373
▁მიდგომ	-12.1386
▁გამორჩე	-12.1427
▁ავღნიშნ	-12.1436
▁ინგრედიენტ	-12.1436
▁გარდაუვალ	-12.1471
▁სუსტ	-12.1473
▁გავრცელებულ	-12.148
მიხვდ	-12.1486
▁შესაძლებელ	-12.1487
დაკავშირებულ	-12.1488
პრეზიდენტ	-12.1489
მგებიანი	-12.1494
ჯგუფებ	-12.1495
ქიმიურ	-12.1495
▁სიმდიდრ	-12.1496
ციფრულ	-12.1497
ხელოვნება	-12.1497
ნაკლებ	-12.1499
გარეშე	-12.15
▁ელექტრომაგნიტ	-12.1518
▁ფსიქიკ	-12.1531
ვუახლოვდებ	-12.1533
▁აღვნიშნ	-12.1542
გიქმნი	-12.1543
▁გმადლობ	-12.1546
ითვალისწინე	-12.1548
▁არისტოტელ	-12.1553
ამოწმე	-12.1563
ემთხვა	-12.1577
▁შიმპანზ	-12.1589
კავშირდები	-12.1599
▁დამკვირვებ	-12.1617
▁დახატა	-12.1618
▁კომპეტენტურ	-12.1627
ვაგროვე	-12.1653
▁ფარგლებ	-12.1661
▁უკვდავებ	-12.1661
გიჯდე	-12.1664
▁ინდივიდუალ	-12.168
▁ფეინმ	-12.1682
ფორმირდე	-12.1687
მოქმედი	-12.1687
-100	-12.1688
მდიდრეს	-12.169
მხედველობ	-12.1691
ფრინავდ	-12.1693
უმჯობესო	-12.1694
აშორო	-12.1696
▁სასიამოვნ	-12.1719
ციონალიზმი	-12.1721
ეწონა	-12.1726
დამოკიდებულ	-12.1727
▁დავეხმარ	-12.1734
სწრაფეს	-12.1734
▁შესაძლებლ	-12.1735
▁ბიუჯე	-12.1736
ზრუნავდ	-12.1739
ავარჯიშო	-12.174
ავაკონტროლ	-12.1741
მაინტერეს	-12.1742
ვექცე	-12.1744
▁გვიჩვენე	-12.1746
შვიდე	-12.1749
ვანიჭებ	-12.1749
მოიწვი	-12.175
ენარჩუნები	-12.175
არკვიო	-12.175
ემთხვევა	-12.1751
ამკვიდრებ	-12.1751
ჭკვიანე	-12.1751
ნაზღაურები	-12.1751
შორდები	-12.1751
▁აღმოჩ	-12.1751
▁ტრანსპლანტ	-12.1751
გვხვდე	-12.1752
ქანდაკ	-12.1752
▁ქარხ	-12.1752
მჟღავნ	-12.1752
აჯილდოვე	-12.1753
ფეროვნ	-12.1753
მოხატულ	-12.1753
▁განვსაზღ	-12.1753
ემგზავრ	-12.1753
▁უპრეცე	-12.1753
cti	-12.1753
eli	-12.1753
▁ტუბერკულ	-12.1753
▁კეინზი	-12.1753
მემარცხენე	-12.1753
მხნევებ	-12.1753
პერიმენტი	-12.1753
▁რესპუბლიკ	-12.1753
კლაკნ	-12.1753
კორექტულ	-12.1753
მილიმეტრი	-12.1753
▁არაღიარების	-12.1753
▁ბაქტერიის	-12.1753
▁ბიჰევიორი	-12.1753
▁გაუჩერებლ	-12.1753
▁გულშემატკივრ	-12.1753
▁დაგვაპატიმრ	-12.1753
▁დაგვერწმუნებინ	-12.1753
▁დამპყრობ	-12.1753
▁დაფიქსირებ	-12.1753
▁დეგრადირებ	-12.1753
▁დისციპლინა	-12.1753
▁ეხუტები	-12.1753
▁თვითშეფასებ	-12.1753
▁იმპერატ	-12.1753
▁ინდონეზია	-12.1753
▁ინფრომაცი	-12.1753
▁იპრონი	-12.1753
▁კამბოჯ	-12.1753
▁კანონზომიერებ	-12.1753
▁კონსულტანტ	-12.1753
▁კონტრაცეპ	-12.1753
▁მახასიათებლის	-12.1753
▁მიიჩნეოდ	-12.1753
▁მიჩქმალ	-12.1753
▁მღელვარების	-12.1753
▁პესიმისტ	-12.1753
▁რეფორმა	-12.1753
▁სენსიტიურ	-12.1753
▁სპეცილ	-12.1753
▁უტყუარ	-12.1753
▁შეუღწევად	-12.1753
▁შუასაუკუნ	-12.1753
▁შურისძიებ	-12.1753
▁ცოცხალთა	-12.1753
▁წნევის	-12.1753
▁ჰეტეროსექსუალ	-12.1753
612	-12.1753
ica	-12.1753
unn	-12.1753
აინფორმირებულობ	-12.1753
ამშრალო	-12.1753
ანაღვლებდა	-12.1753
ასტიმულირებ	-12.1753
აჭარბებ	-12.1753
გარიშვალდებულები	-12.1753
დასამახსოვრებელი	-12.1753
ეანალიზებინა	-12.1753
ემარცხებინა	-12.1753
ემუშავებინა	-12.1753
ვაფიქსირე	-12.1753
ვისწრაფვოდი	-12.1753
იახლოვდება	-12.1753
კლუზიურ	-12.1753
კორექტირ	-12.1753
მოგზაურებ	-12.1753
მოძრავა	-12.1753
მცოდნეობ	-12.1753
ნისკარტებ	-12.1753
ნჯამინ	-12.1753
ომარეობა	-12.1753
პატრიოტიზმი	-12.1753
პროდიუსერ	-12.1753
რცხვენია	-12.1753
სინთეზი	-12.1753
სტუმრობდ	-12.1753
უთანაგრძნობ	-12.1753
უპირისპირდე	-12.1753
ქცეულიყო	-12.1753
შემოსავლიან	-12.1753
ჩურჩულ	-12.1753
ხამხამებ	-12.1753
ხრაშუნ	-12.1753
▁SETI	-12.1753
▁აანალიზებ	-12.1753
▁აგიღწერ	-12.1753
▁ადგილსამყოფელ	-12.1753
▁ადრენალინი	-12.1753
▁ადრინდელ	-12.1753
▁ავტოსადგომი	-12.1753
▁აკისრია	-12.1753
▁აკუმულირ	-12.1753
▁ამოვარდნილი	-12.1753
▁ანდერსენ	-12.1753
▁ანტაგონისტურ	-12.1753
▁ანტისემიტიზმი	-12.1753
▁აპლიკაციებ	-12.1753
▁აპრილ	-12.1753
▁არამდგრად	-12.1753
▁არაობიექტურ	-12.1753
▁ასიმეტრია	-12.1753
▁ასოციაცია	-12.1753
▁ასტროიდ	-12.1753
▁ატმოსფერულ	-12.1753
▁აუქციონ	-12.1753
▁აფრქვ	-12.1753
▁აღგიწერ	-12.1753
▁აღმოცენ	-12.1753
▁აყვანილ	-12.1753
▁აჯანყ	-12.1753
▁ბენზოგასამ	-12.1753
▁ბერძნებ	-12.1753
▁ბეშქენ	-12.1753
▁ბიუკენენ	-12.1753
▁ბოინგის	-12.1753
▁ბორცვ	-12.1753
▁ბოსტნეულ	-12.1753
▁ბრაგერმა	-12.1753
▁გაამზადეთ	-12.1753
▁გაარღვიო	-12.1753
▁გაასამართლ	-12.1753
▁გაბოროტ	-12.1753
▁გადავინაცვლე	-12.1753
▁გადამყლაპ	-12.1753
▁გადაპროგრამებ	-12.1753
▁გადმოვხტ	-12.1753
▁გაენადგურებინა	-12.1753
▁გაზვიადება	-12.1753
▁გაიზიარებ	-12.1753
▁გალქტიკა	-12.1753
▁გამაოგნებელი	-12.1753
▁გამაყუჩებლები	-12.1753
▁გამომგონებლის	-12.1753
▁გამონაბოლქვ	-12.1753
▁გამონათქვამებ	-12.1753
▁გამონათქვამი	-12.1753
▁გამოსაცვლელ	-12.1753
▁გამჭირვალე	-12.1753
▁გამჯდარი	-12.1753
▁განაღვლებ	-12.1753
▁განგიმარტ	-12.1753
▁განესაზღვრა	-12.1753
▁განზოგადება	-12.1753
▁განივითარო	-12.1753
▁განმაცვიფრებელი	-12.1753
▁განმეორებადი	-12.1753
▁განტვირთ	-12.1753
▁განუცხად	-12.1753
▁გაოგნებული	-12.1753
▁გაპმინდერ	-12.1753
▁გარყვნი	-12.1753
▁გარშემორტყმული	-12.1753
▁გასინჯო	-12.1753
▁გაუგებრობ	-12.1753
▁გაუსაძლის	-12.1753
▁გაუცხოება	-12.1753
▁გაუხშო	-12.1753
▁გენიტალი	-12.1753
▁გვაიძულ	-12.1753
▁გვატყობინებ	-12.1753
▁გიპასუხო	-12.1753
▁გუბურა	-12.1753
▁გუბურები	-12.1753
▁გუიჯოუ	-12.1753
▁გულმოდგინე	-12.1753
▁გქვიათ	-12.1753
▁გძინავ	-12.1753
▁დაბეგვრ	-12.1753
▁დაგეგმარებ	-12.1753
▁დაემორჩილ	-12.1753
▁დავბოდიალობ	-12.1753
▁დაიმსახურ	-12.1753
▁დაიპყრო	-12.1753
▁დაპროგრამებ	-12.1753
▁დაუგეგმავ	-12.1753
▁დაუღალავ	-12.1753
▁დაფოტოშოპებული	-12.1753
▁დაძაბულობ	-12.1753
▁დაწესებულებ	-12.1753
▁დახმარებებ	-12.1753
▁დგომის	-12.1753
▁დედააზრი	-12.1753
▁დედაქალაქ	-12.1753
▁დეტეკტორი	-12.1753
▁დიალოგი	-12.1753
▁დიოქსიდი	-12.1753
▁დიპლომ	-12.1753
▁დისკრეტულ	-12.1753
▁დიქტატორი	-12.1753
▁დოვლათი	-12.1753
▁დოქტრინ	-12.1753
▁დუალიზმი	-12.1753
▁ეთამაშებ	-12.1753
▁ეიფორი	-12.1753
▁ეკიპაჟი	-12.1753
▁ეკოლოგიის	-12.1753
▁ეკონომიურ	-12.1753
▁ეკოსისტემ	-12.1753
▁ემბრიონ	-12.1753
♫	-13.1742
%	-13.1743
!	-13.1744
“	-13.1745
”	-13.1746
—	-13.1747
–	-13.1748
)	-13.1749
:	-13.175
?	-13.1751
q	-13.1752
&	-13.1753
