<unk>	0
<s>	0
</s>	0
▁.	-2.98891
▁,	-3.298
▁	-3.85634
;	-4.18781
▁&	-4.2203
ot	-4.22107
qu	-4.22206
н	-4.64511
ге	-4.79497
ға	-4.8942
ды	-5.13619
▁бір	-5.16364
м	-5.16407
п	-5.17048
▁?	-5.33088
ді	-5.33538
(	-5.35511
▁)	-5.35531
ң	-5.36438
мен	-5.38029
▁мен	-5.39459
▁және	-5.44265
▁Бұл	-5.46578
-	-5.46827
ның	-5.50803
і	-5.51404
ы	-5.52194
▁бұл	-5.57938
▁:	-5.5796
дың	-5.65861
▁үшін	-5.66106
▁деп	-5.70255
▁бар	-5.71003
қ	-5.72085
▁-	-5.73418
ған	-5.78167
а	-5.78411
▁біз	-5.804
ып	-5.82472
▁да	-5.85141
да	-5.85745
дің	-5.90181
▁еді	-5.92097
дан	-5.95869
▁емес	-5.96029
«	-5.98972
▁не	-5.99136
▁керек	-5.99784
▁»	-6.0255
де	-6.02973
у	-6.04343
▁осы	-6.05954
▁де	-6.06288
е	-6.10982
▁болды	-6.12229
ақ	-6.16119
▁Мен	-6.18566
қа	-6.19497
▁Біз	-6.1965
▁адам	-6.19843
ке	-6.19981
▁ол	-6.20442
нің	-6.22646
▁Күлкі	-6.23305
к	-6.24187
▁олар	-6.24945
▁туралы	-6.31035
▁жақсы	-6.34358
▁көп	-6.37709
▁б	-6.37807
▁Ол	-6.38709
▁деген	-6.42377
▁Бір	-6.46313
іп	-6.46884
▁Олар	-6.47623
гі	-6.49357
▁өз	-6.49892
▁жыл	-6.50426
▁!	-6.52427
ша	-6.52943
▁адамдар	-6.54696
▁болады	-6.56723
з	-6.58921
▁с	-6.59247
ғы	-6.60955
▁жұмыс	-6.61231
▁өте	-6.64309
лық	-6.6488
ер	-6.65818
▁қалай	-6.66672
▁оны	-6.66835
▁басқа	-6.67898
р	-6.70744
▁Қол	-6.71648
▁сіз	-6.72586
▁мүмкін	-6.7261
ты	-6.72936
▁Ал	-6.7331
ен	-6.73558
се	-6.73889
сіз	-6.73975
▁С	-6.74923
▁болса	-6.75779
ан	-6.76014
сыз	-6.76066
▁кейін	-6.76135
ден	-6.76789
.	-6.78107
▁менің	-6.79371
мыз	-6.8013
▁жоқ	-6.80676
ын	-6.81763
ің	-6.8192
ың	-6.82945
сы	-6.83438
▁жерде	-6.83481
▁ғана	-6.83818
▁сол	-6.8552
и	-6.85794
уға	-6.86369
дағы	-6.87074
мын	-6.90692
ті	-6.90766
ін	-6.92791
▁Біра	-6.92856
▁ал	-6.93005
▁екенін	-6.93397
▁сияқты	-6.9412
еді	-6.95559
ай	-6.97053
▁кезде	-6.97189
с	-6.9802
й	-6.98811
нан	-6.99126
маған	-6.99252
ны	-6.99514
▁үлкен	-6.99912
▁келеді	-7.00036
▁ең	-7.00332
ңыз	-7.00916
пен	-7.01386
▁екі	-7.01959
▁оның	-7.02386
▁Т	-7.03158
▁нәрсе	-7.04231
дық	-7.05322
▁М	-7.05773
алып	-7.07601
ген	-7.08897
▁балалар	-7.08971
дым	-7.08995
▁соғу	-7.10048
▁болған	-7.11503
еше	-7.11749
▁Сонымен	-7.11858
▁О	-7.12394
▁қара	-7.12512
▁Осы	-7.12717
▁Ег	-7.12785
▁қажет	-7.13294
▁тұр	-7.1345
▁тек	-7.13558
ндай	-7.13843
▁әлем	-7.1417
ңіз	-7.14468
нен	-7.14507
▁қарай	-7.14878
▁—	-7.15461
ады	-7.16392
▁арқылы	-7.17367
▁Б	-7.17698
лар	-7.18221
▁К	-7.1837
сын	-7.18942
▁мына	-7.19842
▁білім	-7.20724
▁дейін	-7.21323
▁Е	-7.22461
▁т	-7.22557
▁өмір	-7.22938
тың	-7.23236
▁болатын	-7.2518
▁ба	-7.25426
▁болып	-7.2564
дегі	-7.25982
ына	-7.26753
міз	-7.27092
▁пен	-7.27392
ында	-7.27756
▁бәрі	-7.29236
▁уақыт	-7.29373
▁Менің	-7.30115
▁Ө	-7.30737
дай	-7.30898
▁ма	-7.31136
▁Себебі	-7.31676
ыз	-7.32194
▁жатқан	-7.32227
▁жатыр	-7.32235
мін	-7.32983
ыңыз	-7.33385
▁жаңа	-7.33498
алады	-7.33689
дар	-7.34766
▁болу	-7.36605
▁күн	-7.37209
▁екен	-7.38728
▁о	-7.39691
▁әрі	-7.4001
▁маңызды	-7.40821
▁келді	-7.40933
▁болуы	-7.41355
▁шығар	-7.41668
▁жер	-7.4182
та	-7.42968
▁жаса	-7.43119
▁қазір	-7.43316
ни	-7.43525
дік	-7.43701
▁әр	-7.44269
▁неме	-7.44923
▁бала	-7.45178
айда	-7.45476
▁соң	-7.45936
▁барлық	-7.46139
▁үй	-7.46165
▁со	-7.4649
рақ	-7.46514
▁сөз	-7.46639
▁Сол	-7.46687
т	-7.47116
▁бұ	-7.47225
▁қайта	-7.48237
л	-7.48789
▁Мынау	-7.48792
▁оларды	-7.48805
▁оқу	-7.49346
▁И	-7.50199
▁уақытта	-7.50862
▁–	-7.50994
▁сіздер	-7.51044
егер	-7.51254
не	-7.5129
▁қа	-7.51449
ым	-7.51866
месе	-7.51977
▁келген	-7.5265
▁бұрын	-7.53488
▁жас	-7.5384
▁ретінде	-7.53875
▁болар	-7.55074
▁қиын	-7.56345
▁себебі	-7.5649
▁керемет	-7.56573
▁Сіз	-7.57093
▁бола	-7.57224
▁пайда	-7.58375
▁бас	-7.6003
▁жағдай	-7.60085
▁деді	-7.6024
▁жол	-7.60403
▁бе	-7.60865
▁бол	-7.6137
▁ағылшын	-7.62273
▁бірі	-7.62941
▁кітап	-7.63001
інде	-7.6311
▁беру	-7.6448
▁Рақмет	-7.65306
▁Енді	-7.65426
▁бірн	-7.65726
етін	-7.66147
ше	-7.66209
▁қол	-7.66242
▁ой	-7.6757
▁мүмкіндік	-7.67677
▁жасау	-7.68079
▁үш	-7.68121
%	-7.68428
▁Әр	-7.68444
саңыз	-7.68548
▁осылай	-7.68567
лі	-7.68707
дей	-7.68841
▁дейді	-7.6887
йды	-7.68878
іңіз	-7.6964
тын	-7.69965
лер	-7.69994
ар	-7.70642
▁мұны	-7.70675
▁көр	-7.70788
▁жасай	-7.71046
▁к	-7.7189
ойынша	-7.72157
▁қанша	-7.72643
▁қарап	-7.73129
▁ж	-7.73592
▁орман	-7.7368
іпті	-7.74117
▁Д	-7.74198
▁бойы	-7.74532
▁аламыз	-7.75507
▁Со	-7.75639
▁одан	-7.76367
ә	-7.77091
▁дұрыс	-7.77369
▁нәрсені	-7.77563
▁бастады	-7.7794
▁көрді	-7.78152
нда	-7.78281
▁жауап	-7.78582
лік	-7.78859
▁ата	-7.79581
▁тұрған	-7.80722
▁А	-7.80757
▁ала	-7.80989
▁рет	-7.81097
▁көз	-7.81151
б	-7.81247
▁бізді	-7.81395
тан	-7.81693
ымыз	-7.81791
ине	-7.81818
ші	-7.81931
▁ме	-7.82051
▁кішкентай	-7.82122
▁береді	-7.82223
са	-7.82549
▁байланысты	-7.8267
▁компьютер	-7.82921
▁Мысал	-7.8315
▁ішінде	-7.83345
шы	-7.83569
▁әртүрлі	-7.84552
▁Сөйтіп	-7.85735
атын	-7.86043
▁аласыз	-7.86278
▁қана	-7.86333
▁оқиға	-7.8669
імді	-7.86834
▁қатар	-7.86855
▁бірінші	-7.87015
▁кез	-7.87219
ім	-7.87434
▁жылы	-7.87472
▁істей	-7.87629
іне	-7.87996
▁күні	-7.88359
▁болғаны	-7.8844
▁отыр	-7.88534
▁ми	-7.88534
▁істе	-7.89041
▁су	-7.89098
қтан	-7.89386
▁отырып	-7.89865
▁жеке	-7.90216
▁біреу	-7.90231
▁...	-7.91226
▁а	-7.92523
▁20	-7.92634
▁Америка	-7.92657
▁бәрін	-7.93067
шан	-7.93268
▁Бұ	-7.93395
пайым	-7.9375
▁әсер	-7.93938
▁ойлап	-7.94211
нде	-7.94276
▁мектеп	-7.9429
▁жүзе	-7.94332
дер	-7.94499
▁Ж	-7.95114
ылай	-7.95598
▁онда	-7.96207
▁жа	-7.9712
▁ай	-7.97187
теген	-7.97198
▁қызық	-7.97261
яғ	-7.97308
▁аз	-7.9735
▁2	-7.97711
▁Осылай	-7.97782
▁Қазір	-7.97851
ілікті	-7.98046
▁тәжірибе	-7.98356
▁кейбір	-7.99116
▁Қ	-7.99677
д	-7.99828
бен	-7.99837
▁тағы	-7.99853
ынан	-8.00119
▁алатын	-8.00476
▁көрсете	-8.00878
▁алу	-8.00932
▁Не	-8.01303
▁мені	-8.0146
▁істеу	-8.01594
▁Мына	-8.01944
▁ғой	-8.02071
▁оңай	-8.02099
▁осындай	-8.02525
▁жүйе	-8.03015
ларды	-8.03224
▁айтты	-8.03268
▁р	-8.03389
▁жоғары	-8.03551
▁білу	-8.03609
▁оқыту	-8.03748
▁сұрақ	-8.03808
▁кетті	-8.04359
▁та	-8.04561
▁жан	-8.0466
▁қалды	-8.05283
▁әрбір	-8.05293
▁Міне	-8.05559
ымды	-8.05677
▁дәл	-8.06533
▁көру	-8.06684
▁болатынын	-8.07052
▁тұратын	-8.07401
▁айтып	-8.0745
інің	-8.07636
▁10	-8.07872
▁қ	-8.07873
▁мәселе	-8.08183
▁адамдарды	-8.0865
▁орта	-8.09509
йткен	-8.09886
▁табу	-8.10179
лы	-8.10723
сі	-8.10863
тін	-8.10899
▁берді	-8.10959
▁Көп	-8.11438
▁тәрізд	-8.11494
дім	-8.11645
▁ө	-8.11685
▁Ш	-8.11806
лады	-8.11899
▁бі	-8.12486
▁көңіл	-8.12721
▁Сіздер	-8.12741
▁дедім	-8.12758
▁алды	-8.12998
▁ғылым	-8.1347
▁қай	-8.13691
▁баста	-8.13821
▁4	-8.14126
▁3	-8.1422
▁алғашқы	-8.15197
▁көмектесе	-8.15252
йтын	-8.15462
сақ	-8.1604
▁пе	-8.16215
іміз	-8.16275
үкіл	-8.16331
▁TED	-8.16378
▁тамаша	-8.16398
▁өзім	-8.1642
ондықта	-8.16839
▁барлығы	-8.16949
еміз	-8.17318
▁жоба	-8.17493
▁математика	-8.17498
▁100	-8.17578
▁айта	-8.17814
те	-8.18015
▁жерг	-8.1808
▁таңда	-8.18302
рек	-8.18499
▁көбі	-8.19181
▁әйел	-8.19319
e	-8.19357
жайлы	-8.19565
ық	-8.19642
▁бұны	-8.19754
▁қайда	-8.19921
▁әлі	-8.20015
▁дүние	-8.20158
стан	-8.20352
▁жай	-8.20701
▁қала	-8.20712
▁и	-8.21347
▁ұста	-8.21488
▁шапалақтау	-8.21643
▁Балалар	-8.21658
▁күлкі	-8.21688
▁үнем	-8.21782
▁ешқа	-8.21787
тің	-8.21822
▁түрлі	-8.21967
▁сен	-8.22024
▁жүр	-8.22132
▁әйелдер	-8.22349
▁түсіну	-8.22461
▁жету	-8.22612
▁жүз	-8.2297
▁ұстаз	-8.235
майды	-8.23772
▁Ф	-8.23774
▁ұстаздар	-8.23929
▁шешім	-8.24002
ының	-8.24086
▁көре	-8.24324
амыз	-8.2456
▁жолы	-8.25149
▁ақпарат	-8.25408
▁кө	-8.26189
ыңызды	-8.26355
▁енді	-8.26547
▁қараған	-8.2667
амын	-8.26677
▁таң	-8.26957
▁қоса	-8.27027
▁ерекше	-8.27129
▁&#9	-8.27197
ш	-8.27262
▁келсе	-8.27612
▁Өз	-8.27805
тар	-8.27845
▁ақыл	-8.27862
▁Адам	-8.27883
▁түсінді	-8.28434
о	-8.28735
▁қыз	-8.2876
▁қолдан	-8.29068
▁аяқ	-8.29139
▁Бірінші	-8.29284
ымен	-8.29937
▁қалған	-8.30063
ғым	-8.30136
▁апта	-8.30593
▁ет	-8.306
▁оға	-8.3062
▁мәлімет	-8.31226
▁көмектес	-8.31471
▁таба	-8.31534
▁қойды	-8.31731
▁шама	-8.31835
ла	-8.31911
▁Оны	-8.32067
лықты	-8.32577
▁шықты	-8.32819
тік	-8.32977
▁АҚШ	-8.33079
▁қатты	-8.33187
▁топ	-8.33199
тағы	-8.33293
▁тиіс	-8.333
лған	-8.33329
▁болашақ	-8.33379
▁тұрады	-8.33445
▁аса	-8.33796
▁ойлады	-8.33892
▁ойлаймы	-8.3407
▁қой	-8.34149
▁орнын	-8.34255
▁келмей	-8.34283
▁жетістік	-8.34338
▁тапты	-8.34429
ейін	-8.35
▁шыққан	-8.35215
▁етті	-8.35373
ау	-8.35546
▁осыны	-8.35898
ні	-8.3592
икалық	-8.36033
▁өткен	-8.36112
▁жаста	-8.36113
на	-8.36819
▁сайы	-8.37083
▁жасаған	-8.37095
▁көмегі	-8.37603
йді	-8.38745
▁Ағылшын	-8.39329
▁араб	-8.39349
▁Екі	-8.39405
▁Адамдар	-8.39497
▁Э	-8.3951
▁сондай	-8.39534
ізге	-8.39536
▁істейді	-8.39934
▁тіл	-8.40016
▁бастадық	-8.40018
▁миллион	-8.40083
▁дауыс	-8.4029
1	-8.40505
▁ш	-8.40559
▁ти	-8.40612
t	-8.40834
▁келе	-8.41001
▁сал	-8.41209
▁үйрену	-8.41224
▁өзін	-8.41342
▁тілі	-8.41672
▁арнал	-8.41805
▁біл	-8.4189
▁пайыз	-8.42607
▁жақын	-8.42632
▁бөлігі	-8.43012
▁ке	-8.43042
уымыз	-8.43049
▁оқи	-8.43125
▁сұрады	-8.43221
емін	-8.43255
▁өзі	-8.43314
▁қарама	-8.434
▁ағаш	-8.43582
▁қарсы	-8.43608
сін	-8.43748
4	-8.43951
▁соңғы	-8.4396
▁соны	-8.4417
▁негізг	-8.44516
▁тоқта	-8.44792
▁сұрақтар	-8.44891
▁ә	-8.45082
▁мың	-8.45247
▁шыға	-8.45283
▁оқы	-8.45368
ағы	-8.45961
▁Африка	-8.45996
▁Әуе	-8.46025
▁келетін	-8.46077
▁екендігін	-8.46158
▁іске	-8.46236
▁қолдана	-8.46243
▁сақта	-8.46269
асыз	-8.46316
▁алмайды	-8.46472
▁ақша	-8.46678
▁ойла	-8.46868
▁Әрі	-8.46897
▁статистика	-8.46944
айды	-8.4727
▁төмен	-8.47273
▁жина	-8.47355
▁аламы	-8.47486
▁жүрген	-8.47534
▁алдық	-8.47933
▁карта	-8.48148
▁отырған	-8.48269
ғанда	-8.48389
▁өзіміз	-8.48462
сына	-8.48479
▁Бұны	-8.48509
▁Бүгін	-8.48746
3	-8.49026
▁телефон	-8.49152
▁ше	-8.49179
▁бара	-8.49263
▁кім	-8.49807
▁5	-8.49895
▁тілінде	-8.49948
▁сала	-8.50253
▁қорқыныш	-8.50846
гер	-8.5142
▁құр	-8.51515
айын	-8.5162
▁мәселені	-8.5163
▁минут	-8.51631
▁ие	-8.51693
▁күнде	-8.51895
ма	-8.51994
▁қабырға	-8.5207
▁байланыс	-8.52125
▁білетін	-8.52187
▁шынайы	-8.52909
▁ауыр	-8.53058
▁шапалақ	-8.53137
▁матрица	-8.53139
▁мүлде	-8.53139
▁Үлкен	-8.53139
▁Рахмет	-8.53144
▁қатысты	-8.53169
▁мықты	-8.53243
▁келіп	-8.53357
лді	-8.53411
▁өлім	-8.53467
▁басы	-8.53639
▁өмірін	-8.53968
▁қоғам	-8.53969
▁білемін	-8.54008
ақмет	-8.54038
▁Мүмкін	-8.54135
▁әрпі	-8.54439
▁сурет	-8.54513
кім	-8.54569
▁қабылдау	-8.54715
▁керектігін	-8.54856
▁бері	-8.54877
өзімді	-8.54888
▁Құдай	-8.55558
▁пайдалан	-8.55808
лып	-8.55885
▁айту	-8.55931
▁киім	-8.56084
▁тобы	-8.56467
тер	-8.56513
▁Ко	-8.5665
сек	-8.57029
▁көрі	-8.57052
▁жалғ	-8.57374
▁жаңалық	-8.57502
▁30	-8.57881
▁Сан	-8.57956
▁жасады	-8.58155
▁бастап	-8.58182
▁түр	-8.58417
▁мысал	-8.58487
▁таста	-8.58806
▁қорқынышты	-8.59496
▁алмайтын	-8.59662
▁рух	-8.59907
лай	-8.6007
▁оқушылар	-8.60151
▁болғанда	-8.60205
іңізді	-8.60318
▁Бар	-8.60443
▁айт	-8.60498
i	-8.60563
▁идея	-8.60641
▁табиғ	-8.60693
▁Я	-8.60831
▁ештеңе	-8.60831
▁ешкім	-8.60849
кі	-8.60868
▁жасалған	-8.60964
кені	-8.61059
▁білемі	-8.61086
▁күрделі	-8.61176
▁тура	-8.61243
ындағы	-8.61277
▁дене	-8.61548
▁беріп	-8.61597
▁мақала	-8.61732
▁қиындық	-8.61747
▁келгенде	-8.61747
▁сабақ	-8.61775
ғ	-8.61885
▁Ви	-8.6239
▁таңдау	-8.62489
ушы	-8.62554
мнің	-8.62555
▁сауалнама	-8.62617
▁көрген	-8.6281
▁басты	-8.62938
▁түс	-8.63048
▁Кей	-8.63053
із	-8.63055
▁көрсету	-8.63177
▁са	-8.63186
▁жағына	-8.63252
▁жиі	-8.6331
▁жаз	-8.63312
▁хабар	-8.63317
▁Мұны	-8.63389
▁жеткілік	-8.63429
▁Қа	-8.6344
▁орында	-8.63497
▁Бі	-8.63543
лікті	-8.636
▁ойлау	-8.6371
▁болғанды	-8.63988
▁те	-8.64009
▁Х	-8.64212
ия	-8.64246
▁жібер	-8.64411
▁іс	-8.64466
▁досым	-8.64783
▁жеткен	-8.65002
бір	-8.65012
▁халық	-8.65084
тен	-8.6538
▁жазу	-8.65502
▁жеткіз	-8.65531
ап	-8.6559
өйт	-8.65627
уы	-8.65725
▁деймі	-8.66109
▁бірде	-8.66661
▁кеткен	-8.66748
▁тез	-8.66788
▁орын	-8.6682
▁ішіне	-8.67071
▁анықтау	-8.67091
▁арт	-8.67156
▁Араб	-8.67228
▁саны	-8.67271
діктен	-8.67327
ңыздар	-8.67367
▁жағында	-8.67482
▁негіздел	-8.67532
▁ел	-8.67839
▁алмады	-8.67887
▁ту	-8.6801
мды	-8.68016
▁сай	-8.68067
лды	-8.6846
сеңіз	-8.68475
онымен	-8.68568
▁электр	-8.68866
▁әлеуметтік	-8.69165
♪	-8.69165
▁қосымша	-8.69167
▁назар	-8.69168
▁ұзақ	-8.6917
▁өскен	-8.69178
▁келесі	-8.69246
▁пайдалы	-8.69357
▁П	-8.69397
▁соңында	-8.69419
▁үміт	-8.69425
▁жасадық	-8.69801
▁Кейбір	-8.69945
▁бос	-8.69985
▁барын	-8.70193
ілді	-8.70689
▁Мұ	-8.70752
▁абсолютті	-8.70775
▁көрсетті	-8.70919
▁доллар	-8.70925
ль	-8.71067
▁зертте	-8.71259
▁тырыс	-8.71325
▁сынып	-8.71488
▁мүмкіндігі	-8.71517
▁отбасы	-8.71537
▁Алла	-8.71562
▁нақты	-8.71588
▁дизайн	-8.71817
▁көргенде	-8.71926
▁қажетті	-8.71976
▁жазды	-8.72391
▁шығу	-8.72468
▁секі	-8.7265
ларын	-8.72675
▁сөзі	-8.72992
▁бо	-8.72996
▁алдым	-8.73121
▁көрсет	-8.73168
▁есе	-8.73291
▁шындығы	-8.73522
▁Өзім	-8.73702
▁мән	-8.73843
▁ойым	-8.73965
▁көзі	-8.74401
▁деректер	-8.7454
▁200	-8.7461
▁жылдар	-8.7461
▁қалаған	-8.74613
▁айтқанда	-8.74677
▁соғыс	-8.74689
9	-8.75053
рып	-8.75366
▁өрт	-8.75463
▁тү	-8.75544
▁әйелдері	-8.75671
▁білдіре	-8.75712
етіп	-8.7601
мет	-8.76242
ызға	-8.76323
▁мысалы	-8.76324
▁тығы	-8.76484
ка	-8.76525
5	-8.76682
▁тапсырма	-8.76799
▁д	-8.76853
▁ұқсас	-8.76885
▁тау	-8.77364
ғысы	-8.77694
▁шығара	-8.77759
▁үйлер	-8.77941
p	-8.78237
▁кәсіби	-8.78262
▁алғыс	-8.78336
ймыз	-8.78345
▁үздік	-8.78346
▁тұрса	-8.78349
▁суреті	-8.78364
▁мұндай	-8.78412
▁Шын	-8.78415
▁себеп	-8.7842
▁үйі	-8.78485
▁айтар	-8.78511
▁көмек	-8.78546
▁нәтиже	-8.78698
▁жүйесі	-8.78835
▁бәріне	-8.78867
▁берген	-8.7906
імізді	-8.79111
інше	-8.79113
▁Соң	-8.79403
▁шын	-8.79753
▁жүйесін	-8.79826
ме	-8.79912
тым	-8.8018
▁келдім	-8.80216
сың	-8.80264
▁Басқа	-8.80405
▁жақта	-8.80614
▁15	-8.80617
▁болғанын	-8.80658
▁жылда	-8.80739
▁ұлы	-8.80874
▁басқалар	-8.81105
▁тері	-8.81169
▁зерттеу	-8.81237
▁ақпаратты	-8.81308
▁күрес	-8.81485
▁өмірде	-8.8212
▁өзге	-8.82142
майтын	-8.82312
▁бере	-8.82418
▁қолдану	-8.82421
ж	-8.82602
▁студенттер	-8.8332
▁интернет	-8.83415
лмей	-8.83498
іме	-8.83727
▁балаларды	-8.83741
▁Жақ	-8.8382
ту	-8.83828
▁дәрі	-8.84091
▁қал	-8.84094
▁кір	-8.84143
a	-8.8415
▁шығ	-8.84316
лген	-8.84352
▁бер	-8.84356
аман	-8.84429
▁кете	-8.84513
ми	-8.84637
▁суретін	-8.84737
▁білмеймі	-8.85192
▁сайт	-8.85214
▁ар	-8.85223
▁дайын	-8.85338
▁үйрен	-8.85421
▁келтір	-8.85664
ру	-8.85709
▁істі	-8.8588
▁сан	-8.86003
▁қоя	-8.86359
▁айтқан	-8.86415
қан	-8.8672
▁екінші	-8.86837
гім	-8.87199
▁еш	-8.87844
▁сәт	-8.87971
▁шығармашылық	-8.87999
▁өзіме	-8.88127
ріп	-8.88165
▁бес	-8.88235
▁әдемі	-8.88258
▁арасында	-8.88267
▁америкалықтар	-8.88277
▁толы	-8.88296
▁аталатын	-8.88302
▁қысқа	-8.88348
▁ерте	-8.88388
▁пернесін	-8.88413
▁таныс	-8.88479
▁арасындағы	-8.88485
▁сегіз	-8.88584
▁көмектесу	-8.88611
▁сұра	-8.88699
▁болмаған	-8.88984
▁өздері	-8.8908
▁1	-8.89297
▁жылдам	-8.89456
▁табиғат	-8.89518
▁етеді	-8.8963
арлық	-8.89697
сып	-8.89724
▁C	-8.89735
кініш	-8.8983
▁жоспар	-8.90342
▁қызығ	-8.90633
▁мақсаты	-8.90755
ңғы	-8.90782
▁Ә	-8.90843
▁м	-8.90862
▁ұял	-8.90876
▁жолын	-8.91089
▁іш	-8.91134
▁кісі	-8.91168
▁арнай	-8.91188
▁ас	-8.91207
▁қате	-8.91222
▁болмады	-8.91275
▁Күн	-8.91329
ңтүстік	-8.91395
▁нәтижесі	-8.91632
▁химия	-8.91701
▁хат	-8.91707
▁технология	-8.91859
▁өткіз	-8.92025
▁аш	-8.92079
▁үлгі	-8.9208
▁Жо	-8.92093
▁көретін	-8.92193
▁астында	-8.92305
ки	-8.92579
▁ескі	-8.92654
▁алған	-8.92737
▁әлемді	-8.92758
▁негіз	-8.92845
▁оқиғаны	-8.92948
▁тұ	-8.93032
сында	-8.9309
▁білді	-8.93743
▁сені	-8.93782
▁Еуропа	-8.93862
▁сәби	-8.94377
▁барысын	-8.94434
▁қиял	-8.94538
едім	-8.94769
▁жігіт	-8.94877
▁білесіз	-8.9495
▁ана	-8.95784
▁қабылда	-8.9579
▁Марио	-8.96209
▁істейтін	-8.96272
Д	-8.96372
ра	-8.96585
▁тест	-8.96797
ғажайып	-8.96825
▁мәселесі	-8.96825
▁саты	-8.96997
ліп	-8.97095
▁қан	-8.97125
▁ұқса	-8.97513
▁Жаңа	-8.9754
▁тұтас	-8.97542
▁нәрселер	-8.97829
сам	-8.97871
ани	-8.97881
▁әңгіме	-8.98366
▁жазы	-8.9883
▁түсіне	-8.98845
ілген	-8.98882
▁заман	-8.98979
ман	-8.9908
▁негізін	-8.99119
▁жаза	-8.99226
▁таныма	-8.99259
▁50	-8.99366
▁Сәттілік	-8.99367
▁халқы	-8.99368
▁Алғашқы	-8.99372
▁екеуміз	-8.9938
▁Дәл	-8.99383
▁Қалай	-8.9948
▁мәнінде	-8.99503
▁жеткізу	-8.99555
▁өсіру	-8.99564
г	-8.99604
▁сенсор	-8.99621
▁бүгінгі	-8.9966
▁үйренген	-8.99683
▁бүгін	-8.99694
▁өзің	-8.99723
▁өмірімізді	-8.99777
▁өтті	-8.998
ти	-9.00059
▁үйрету	-9.00153
▁идеялар	-9.00213
▁атты	-9.00461
▁айтады	-9.00513
▁жұмысын	-9.00614
біріне	-9.00652
▁басым	-9.00704
▁қойып	-9.00733
нып	-9.00748
▁жүйелер	-9.00847
▁орындау	-9.00852
▁жар	-9.00863
▁7	-9.00888
сің	-9.00973
тып	-9.01117
терді	-9.01439
▁жете	-9.01573
▁12	-9.01717
▁аударыл	-9.01856
аған	-9.0189
▁біле	-9.01921
ғында	-9.01943
▁анам	-9.02064
▁сәтті	-9.02109
тіп	-9.02316
▁оқ	-9.02544
▁жақсарту	-9.02674
▁Оларды	-9.02687
▁тырысты	-9.02784
▁түсті	-9.02861
▁пайғамбар	-9.03055
▁еске	-9.03383
▁сезінді	-9.03618
▁көріне	-9.03676
▁ер	-9.03842
▁баст	-9.03938
▁алмай	-9.03979
▁анықта	-9.03992
ас	-9.04013
▁25	-9.04019
▁түсі	-9.04146
▁сезім	-9.0418
ь	-9.04247
▁құрылғы	-9.04829
▁шындық	-9.04929
▁дауысы	-9.05231
▁келмейтін	-9.05253
▁6	-9.05481
ция	-9.05521
▁түрі	-9.05558
▁қос	-9.05733
ахмет	-9.05751
▁жақында	-9.05831
лерді	-9.05853
▁ұна	-9.05875
пын	-9.06156
▁кіші	-9.0616
▁сүру	-9.06269
▁алға	-9.06392
▁сөйле	-9.06797
▁тілін	-9.07032
▁Екінші	-9.07125
▁басқару	-9.07236
▁міне	-9.07466
▁кезең	-9.07685
▁алмаймы	-9.07858
рдың	-9.07962
▁көлік	-9.08508
дігін	-9.08514
▁баланы	-9.08545
▁сүй	-9.08689
▁сез	-9.08713
▁іздеу	-9.088
У	-9.08814
▁туында	-9.089
▁Г	-9.08958
▁Өт	-9.09071
ейік	-9.09269
▁оқиғалар	-9.09358
▁кеңес	-9.09369
▁баласы	-9.09394
▁түсіндір	-9.09416
▁деңгейін	-9.09735
ері	-9.09748
іңіздер	-9.09796
▁елде	-9.09822
▁байқа	-9.09859
▁қарастыр	-9.10017
өрі	-9.10179
▁нәтижесін	-9.10247
s	-9.10287
▁күші	-9.10297
▁барлығын	-9.10543
▁үйді	-9.10636
▁түн	-9.10678
▁көрін	-9.10758
▁құрал	-9.10814
▁әлде	-9.11029
▁нашар	-9.1108
▁жетпей	-9.11101
▁Үш	-9.11479
▁кері	-9.11561
▁мүмкіндіктер	-9.11611
▁Енд	-9.11666
імен	-9.11794
▁ғалам	-9.118
ц	-9.11851
▁Н	-9.11855
▁ЖК	-9.11863
▁сәйкес	-9.11867
▁жалпы	-9.11868
▁атом	-9.11868
▁кішкен	-9.1187
▁арқасында	-9.11871
▁алгебра	-9.11872
▁шеберлік	-9.11872
▁вегет	-9.11873
▁мәтін	-9.11881
▁жауабы	-9.11885
▁төрт	-9.11898
▁Құран	-9.11917
▁алғаш	-9.11917
▁сөздер	-9.11932
▁талап	-9.11958
▁Тек	-9.11968
ғын	-9.11984
▁қолда	-9.12037
▁қарым	-9.12047
▁айтатын	-9.12099
▁отырмыз	-9.12148
▁бақытты	-9.12158
▁әпкем	-9.12414
▁ойлайтын	-9.1245
▁көш	-9.12456
▁ортақ	-9.12627
▁өткізген	-9.12684
u	-9.12695
▁жоғалт	-9.12702
▁өздерін	-9.12733
▁қызмет	-9.13046
здің	-9.13069
ба	-9.13153
▁топырақ	-9.13181
▁г	-9.13268
▁оқыған	-9.1331
йтін	-9.13365
▁кет	-9.13519
▁Ұлыбритания	-9.13645
▁ортасында	-9.137
▁сыныпта	-9.13701
▁өзгерту	-9.13714
▁бәріміз	-9.13809
▁кездескен	-9.13845
▁Бізде	-9.13887
▁елдер	-9.13909
ірек	-9.13923
▁тапқан	-9.14179
▁сана	-9.14197
▁аудар	-9.14383
▁технологиялар	-9.14406
▁жайт	-9.14474
▁машина	-9.14493
▁қосыл	-9.14527
2	-9.15035
тады	-9.15121
қатынас	-9.15232
▁мәліметтер	-9.15254
▁білсе	-9.15329
▁дыбыстарды	-9.15395
▁айналды	-9.15559
00	-9.15666
▁секунд	-9.15785
▁берсе	-9.15883
ткені	-9.15889
▁асыру	-9.15921
▁қолдау	-9.15935
▁Ма	-9.15948
▁таны	-9.16004
▁көбіне	-9.16039
▁Джон	-9.16134
тыс	-9.1622
тық	-9.1627
▁Қытай	-9.16396
▁отырды	-9.16435
▁мәні	-9.16436
▁жұмысты	-9.16503
▁әже	-9.16523
▁жайында	-9.16612
▁шешу	-9.16626
▁білдір	-9.16648
лей	-9.16746
▁тұрды	-9.1681
▁қауіпті	-9.16864
▁жатты	-9.16966
▁нәрселерді	-9.16979
▁тексеру	-9.17026
▁өзгертті	-9.1715
▁алты	-9.17156
мер	-9.17424
▁жатқанын	-9.17501
▁үйренді	-9.17606
▁өмірімде	-9.17993
▁видео	-9.18005
▁тіліне	-9.18023
ырақ	-9.18049
▁көтер	-9.18298
▁оқиғасы	-9.18334
▁айналдыр	-9.18389
▁дерек	-9.18389
шылар	-9.18411
анам	-9.18484
▁от	-9.18526
▁кету	-9.18685
▁шығару	-9.18686
уі	-9.18915
▁ету	-9.18993
ік	-9.19002
▁бастал	-9.19072
▁толық	-9.19107
▁жаңалықтар	-9.19186
мді	-9.19394
▁қалу	-9.19532
▁алдын	-9.19551
▁мынада	-9.19694
▁алдында	-9.19939
▁көше	-9.19999
▁болма	-9.20223
▁Ай	-9.20451
000	-9.20474
▁оқитын	-9.20501
ымызды	-9.20552
▁екені	-9.20655
▁болмай	-9.2089
▁беретін	-9.20921
▁анықтай	-9.21067
▁қызығушылық	-9.21146
лері	-9.21378
пін	-9.21598
▁пайызы	-9.22042
▁қалдыр	-9.22157
аралық	-9.22172
▁өзіңіз	-9.22181
▁бұрынғы	-9.22211
ерге	-9.22223
▁сөзді	-9.22228
▁айтса	-9.22241
▁өзгер	-9.22478
o	-9.2264
▁миды	-9.22799
D	-9.22863
▁бағдарлама	-9.22874
ндағы	-9.22941
Ұ	-9.23237
▁қызықты	-9.23514
▁қауіп	-9.23579
А	-9.23818
▁жөн	-9.24152
▁Ч	-9.24349
уіміз	-9.24361
еген	-9.24394
▁үйде	-9.24519
әлем	-9.24708
▁маңызы	-9.24741
n	-9.24962
▁күш	-9.24974
осын	-9.25088
▁ереже	-9.25199
лап	-9.25467
ю	-9.25566
▁көпшілігі	-9.25571
▁В	-9.25713
▁сәтсіздік	-9.25757
▁компания	-9.25773
▁өзіне	-9.25856
▁қайт	-9.25884
▁тең	-9.25945
татистика	-9.25977
▁жара	-9.26018
▁ашық	-9.26081
▁куә	-9.26113
▁өсе	-9.26145
▁Крузейро	-9.26152
▁смартфон	-9.26152
▁фильм	-9.26152
▁ірімшік	-9.26152
▁пластик	-9.26152
▁класс	-9.26153
▁Popcorn	-9.26153
▁Әже	-9.26154
▁Орман	-9.26154
▁рұқсат	-9.26155
▁лидер	-9.26155
▁әсіре	-9.26156
▁тірі	-9.26158
▁Нью	-9.2616
▁па	-9.2616
▁МЕН	-9.26161
▁шоколад	-9.26162
▁Әлия	-9.26162
▁қуанышты	-9.26165
▁Көпшілік	-9.26169
▁мәж	-9.26171
▁қою	-9.26175
▁Өткен	-9.26179
▁ғалымдар	-9.26182
▁жеңіл	-9.26192
▁зор	-9.26244
▁сек	-9.26252
▁Мәселе	-9.26274
▁сауалдар	-9.26282
▁процесс	-9.26321
▁тамақ	-9.26336
▁шығатын	-9.26341
дайым	-9.26431
▁қысым	-9.26435
▁көресіз	-9.2644
▁жақ	-9.26442
▁қолын	-9.26468
▁көреміз	-9.26506
▁жүріп	-9.26588
уды	-9.26665
▁белсенді	-9.26775
▁тұрмы	-9.26777
▁көк	-9.26788
▁ешбір	-9.26801
▁жатырмыз	-9.26809
▁Үшінші	-9.26824
ұғалім	-9.26873
▁тәуелсіз	-9.2688
▁жұмысы	-9.26958
▁дейтін	-9.26998
▁сәттілік	-9.27065
▁п	-9.27174
▁әрекет	-9.27207
▁кең	-9.27317
▁иесі	-9.27425
▁соңы	-9.27531
▁ересектер	-9.27647
▁беруді	-9.27722
▁жарық	-9.27761
▁Мұнда	-9.27779
▁ашты	-9.2784
▁алса	-9.27931
йын	-9.28036
ес	-9.28117
▁Орта	-9.28171
▁балам	-9.28189
▁құра	-9.28251
▁ки	-9.28264
▁әрқа	-9.28306
▁дамыту	-9.28312
▁сандарды	-9.28382
▁болмау	-9.28386
▁мектепте	-9.2849
сінде	-9.28623
▁Біраз	-9.2893
▁тани	-9.29012
▁кітаптар	-9.29073
▁жетті	-9.29103
▁бермей	-9.2935
▁салын	-9.29364
▁кітаптарды	-9.29382
▁кезі	-9.29414
▁теңізшілер	-9.29436
▁айнала	-9.29472
▁бағала	-9.2964
▁У	-9.29787
▁біріг	-9.29885
▁бай	-9.29893
▁үйрене	-9.29895
▁Сен	-9.2995
▁істеді	-9.29999
▁рақымды	-9.30228
▁махаббат	-9.30392
▁емеспі	-9.3048
▁ысты	-9.3053
ор	-9.30668
▁Кез	-9.30725
▁қолжетім	-9.30859
▁тілдер	-9.31132
▁Бұлар	-9.31181
ард	-9.31193
▁дыбысы	-9.31205
я	-9.31245
▁бейне	-9.31269
лары	-9.31292
▁шыны	-9.31342
▁шешті	-9.31357
▁баға	-9.31359
▁жалғас	-9.31498
▁оң	-9.31505
▁жат	-9.31674
▁берме	-9.31681
▁математиканы	-9.31709
лім	-9.31902
▁тап	-9.31927
▁әдісі	-9.32099
▁ізде	-9.3218
өйтіп	-9.32182
▁жинақта	-9.32197
ысы	-9.32235
▁дүкен	-9.32307
▁жасуша	-9.32311
▁ойлаған	-9.32326
▁түскен	-9.32525
▁біра	-9.32653
▁біраз	-9.32689
▁елдерде	-9.32876
▁бағалау	-9.33003
▁әйелі	-9.33032
ылған	-9.33092
▁денесін	-9.33152
▁қонақ	-9.33493
▁жолдар	-9.33551
▁іші	-9.33631
▁ат	-9.34131
▁ілесу	-9.34161
▁Рас	-9.34209
▁құру	-9.34213
▁рас	-9.343
▁тарт	-9.34565
▁ау	-9.34717
▁саяхатта	-9.34728
▁тоғы	-9.34759
▁ағаштарды	-9.34796
кті	-9.34806
ошемет	-9.34918
▁тұрғыда	-9.34957
▁заттар	-9.34996
▁көрсетіп	-9.35086
▁жүргізді	-9.35191
▁Үндістан	-9.35245
▁төле	-9.35259
▁қозғалыс	-9.35304
▁тіке	-9.35311
▁қызым	-9.35442
▁пікір	-9.35489
▁тарих	-9.3556
елесі	-9.35659
дағыдай	-9.35678
▁мұғалім	-9.35866
ғымыз	-9.3604
▁құ	-9.36042
алды	-9.36058
▁Жерг	-9.36159
▁мектептер	-9.36199
зар	-9.36395
▁сізді	-9.36398
▁күтпе	-9.36623
▁оқуды	-9.3693
▁өт	-9.37015
▁студент	-9.37257
▁бағытта	-9.3737
▁есте	-9.37435
▁айнал	-9.37447
▁көпшілік	-9.37609
▁аяқтал	-9.37984
▁сезін	-9.38036
▁атам	-9.38118
▁дамы	-9.3812
▁Сонда	-9.38122
даған	-9.38292
ыма	-9.38379
мед	-9.38477
▁ұйықта	-9.38493
лықтай	-9.3864
ал	-9.38657
▁өзгерт	-9.38985
▁бақыла	-9.38998
7	-9.3906
▁даму	-9.39314
▁қалып	-9.3938
▁мешіт	-9.39423
▁бастаған	-9.39607
▁қо	-9.39631
▁Біреу	-9.39934
стік	-9.40243
Б	-9.40344
гіміз	-9.40669
▁шығарма	-9.40722
ндықта	-9.40753
Н	-9.40764
▁сағат	-9.40778
▁қойған	-9.40806
▁шаққа	-9.40907
▁бөл	-9.40985
▁ететін	-9.4118
▁жолды	-9.41299
▁әкесі	-9.41519
▁үрей	-9.4174
▁соларды	-9.41983
▁ұлтты	-9.42019
мейтін	-9.42081
лықтар	-9.42112
▁ша	-9.42695
c	-9.4274
тқым	-9.42771
▁есті	-9.42785
▁таза	-9.42804
▁iPhone	-9.42819
▁Google	-9.42819
▁Англия	-9.42819
▁Мэггендорфер	-9.42819
▁Оқыту	-9.42819
▁Map	-9.4282
▁емхана	-9.4282
▁эго	-9.42821
▁талантт	-9.42823
▁микро	-9.42826
▁окситоцин	-9.4283
▁жасырын	-9.42831
▁Студенттер	-9.42832
▁зейін	-9.42837
▁қасында	-9.42857
▁млн	-9.42866
▁соқыр	-9.42871
хам	-9.42873
▁бастайық	-9.42908
▁Негізі	-9.42914
▁ғаламтор	-9.42922
▁еткен	-9.42969
▁Нәтижесін	-9.43004
▁тән	-9.43037
▁сәтте	-9.43056
▁әлсіз	-9.43189
▁камера	-9.4319
▁Қайта	-9.43233
▁өңде	-9.43262
▁құмарлық	-9.43267
r	-9.43323
▁көрсеткіштер	-9.43365
▁ойлай	-9.4341
▁Сондай	-9.43435
▁жатып	-9.43465
▁осында	-9.43471
▁қараңыз	-9.435
▁Рио	-9.43517
лау	-9.43569
▁бастай	-9.43671
▁кітапты	-9.43685
▁әл	-9.43762
▁инсула	-9.43766
▁батыс	-9.43773
▁өшір	-9.43821
▁бел	-9.43844
▁Ұлы	-9.43847
рі	-9.43854
▁басында	-9.43937
▁биология	-9.43946
▁естіген	-9.43948
▁ғасыр	-9.44012
▁көрсеткен	-9.44096
▁мәдениеті	-9.44269
▁8	-9.44303
▁I	-9.44323
▁Британия	-9.44341
▁сиқыр	-9.44375
▁өздігі	-9.44456
▁бәл	-9.4458
▁Ұ	-9.4463
▁14	-9.44633
тегі	-9.44717
түстік	-9.44741
▁ұсын	-9.44798
▁қорға	-9.45006
▁жандар	-9.45047
▁ф	-9.45056
▁көшбасшы	-9.45086
ат	-9.45091
▁көрінісі	-9.45124
▁ары	-9.45131
▁қатысы	-9.45149
▁салыстыр	-9.45168
▁өнер	-9.45276
▁бөлме	-9.4541
▁міндетті	-9.45573
▁азда	-9.45574
аяу	-9.45676
▁ауыз	-9.45685
▁енгіз	-9.457
▁жүгірт	-9.45755
ірік	-9.45828
тор	-9.46081
▁өзегі	-9.46099
▁өзіңізді	-9.4611
▁пайызын	-9.46143
▁байқады	-9.4626
▁күшті	-9.4627
▁дербес	-9.46306
▁199	-9.4631
▁түсін	-9.46376
▁оқырман	-9.46452
▁Ми	-9.4649
▁Са	-9.46498
▁суретті	-9.46541
айым	-9.46544
▁Ло	-9.4675
▁алмайсы	-9.46783
▁D	-9.46847
▁Тама	-9.46866
▁ұқсай	-9.46916
за	-9.4693
▁үміттенемі	-9.46999
▁қайғы	-9.47002
▁құралы	-9.47016
қыш	-9.47229
есіз	-9.47244
▁Бірде	-9.47309
▁ұшыра	-9.47545
▁Қала	-9.47601
▁ашу	-9.47858
▁астына	-9.47888
▁ақылд	-9.47903
▁жүрді	-9.47975
▁мақсатымыз	-9.4799
▁жіберді	-9.48025
▁жариялады	-9.48143
▁жет	-9.48192
▁э	-9.48219
би	-9.48544
хан	-9.48609
▁сый	-9.48628
▁басын	-9.48705
▁күл	-9.48753
▁айтқым	-9.48872
▁соңына	-9.48913
▁жерді	-9.48971
▁келіс	-9.48973
▁зерттеулер	-9.49004
▁жаққа	-9.49277
▁Қай	-9.49282
▁суреттер	-9.49344
▁стандартт	-9.49411
▁Шынды	-9.49586
▁жасайтын	-9.49716
ви	-9.49802
▁мойында	-9.49885
▁мүмкіндіктері	-9.49904
уді	-9.50039
▁әдіс	-9.50147
▁жеткізе	-9.50186
▁Жа	-9.50214
▁сат	-9.50228
айық	-9.50567
▁көзқарас	-9.50591
▁кітабы	-9.50598
▁уайымда	-9.50663
▁аптада	-9.5091
▁есеп	-9.5109
егейл	-9.51256
ол	-9.51353
▁Үй	-9.5162
▁құрастыр	-9.51638
▁жүзі	-9.51767
▁жағалау	-9.51894
▁Әлемде	-9.51991
им	-9.52109
одан	-9.52143
▁салған	-9.52148
▁бөлігін	-9.52384
▁құралдар	-9.52462
▁ү	-9.52512
▁бақылау	-9.52536
▁қайты	-9.52699
▁Өмір	-9.52715
▁ойы	-9.52792
кке	-9.52819
ара	-9.52907
▁жасағанда	-9.52987
▁кү	-9.53063
▁Мені	-9.532
рдің	-9.53204
▁сыртқ	-9.53434
0	-9.5378
▁атқар	-9.53787
▁академия	-9.53954
ларына	-9.54061
▁сенім	-9.54137
▁жасушал	-9.54176
леді	-9.54292
▁дыбыс	-9.54325
ңызды	-9.54335
▁еркін	-9.54397
▁жатқанда	-9.54406
▁Алды	-9.54544
▁аңғары	-9.54724
гей	-9.54737
▁Кітап	-9.54873
▁қосты	-9.54896
▁белгіл	-9.55052
▁қолым	-9.55082
▁орны	-9.55181
гіш	-9.55379
▁кітабын	-9.55435
рын	-9.55778
▁ойын	-9.55836
▁аты	-9.55943
▁жарты	-9.56122
▁киі	-9.56183
▁түрін	-9.56398
▁алдың	-9.56399
▁қабілеті	-9.56436
▁қайтала	-9.56536
тты	-9.56557
▁есік	-9.56805
▁Де	-9.56807
▁өзен	-9.57011
▁махаббатты	-9.57012
▁орай	-9.57206
▁қауымдастық	-9.57239
▁қойса	-9.57386
ттық	-9.57595
▁Сөз	-9.576
▁бірнәрсе	-9.57607
шағын	-9.57746
біз	-9.57809
▁көрініс	-9.57918
▁істер	-9.57939
тері	-9.58032
э	-9.58073
жақты	-9.58171
▁құнды	-9.5824
▁ескер	-9.58346
▁кел	-9.58449
▁істеген	-9.58475
▁бет	-9.58575
6	-9.58833
▁жұмса	-9.59088
▁болмас	-9.59152
▁істерді	-9.59607
C	-9.59686
▁дыбыстар	-9.59827
▁өздеріні	-9.59853
▁дерект	-9.59883
▁алаңда	-9.59886
▁кедей	-9.599
▁Ү	-9.59908
▁жобам	-9.59971
уден	-9.60031
▁тар	-9.60035
▁түб	-9.60061
▁түсіндіре	-9.60066
май	-9.60165
▁өсі	-9.60239
▁тоқтату	-9.60344
▁айырма	-9.60606
▁артқа	-9.60629
▁бізде	-9.60674
▁пар	-9.6078
▁мұхит	-9.60825
егі	-9.60834
▁Ник	-9.60835
▁адамдары	-9.60876
▁мақалалар	-9.60985
▁З	-9.60998
малы	-9.61071
▁дизайны	-9.61084
▁Жә	-9.61108
▁көрсеткім	-9.61258
▁рақ	-9.6133
▁құла	-9.61629
▁шек	-9.61642
▁әдеби	-9.61819
▁оқушы	-9.61832
▁арна	-9.62051
▁Джо	-9.62124
▁жағдайды	-9.62127
риан	-9.6213
▁Қазірг	-9.62187
▁өзгерте	-9.62225
▁дизайнын	-9.62317
▁нені	-9.62341
▁то	-9.62353
▁ерікті	-9.62389
▁ре	-9.62451
▁қосу	-9.62467
▁экономика	-9.62669
▁әуе	-9.62732
Саад	-9.62819
▁Гаити	-9.62819
▁Ештеңе	-9.62819
▁Пирамиданы	-9.62819
▁брайль	-9.62819
▁гуманитар	-9.62819
▁инновация	-9.62819
▁қайырымдылық	-9.62819
▁қымбат	-9.62819
▁автобус	-9.62819
▁жасөспірім	-9.62819
▁Flickr	-9.62819
▁Отбасым	-9.62819
▁онлайн	-9.62819
▁кәсіпкер	-9.62821
▁сілкінісі	-9.62823
▁қашықтықта	-9.62823
▁әйнек	-9.62823
▁дижитал	-9.62824
▁инкубатор	-9.62824
▁Умм	-9.62827
▁жою	-9.62837
▁қайнар	-9.62843
▁зерттеуші	-9.62843
▁сілтеме	-9.62853
▁қорытынды	-9.62858
▁орналасқан	-9.62859
▁құтыл	-9.62871
▁сенімдімін	-9.62873
▁зә	-9.62873
▁мейірімділік	-9.62877
▁зиян	-9.62879
▁аяқта	-9.6288
▁Бос	-9.6288
▁әділет	-9.6289
▁миль	-9.62913
▁жақпа	-9.62923
страл	-9.6293
▁Жалғ	-9.62932
▁білесің	-9.62946
▁сәл	-9.6295
▁біріктіру	-9.6299
▁Ба	-9.62996
▁айтпақ	-9.62998
▁достарым	-9.63003
▁қарқын	-9.63018
▁әзіл	-9.63028
▁Анам	-9.63105
▁дей	-9.63122
▁көрсететін	-9.63134
▁отырмын	-9.63281
▁Бүкіл	-9.63281
▁жануарлар	-9.6331
▁анасы	-9.63311
▁үлкендер	-9.63338
▁амалдар	-9.63364
▁ғасырлар	-9.63381
▁дер	-9.63389
▁Эс	-9.63435
▁байлау	-9.63436
▁сенімді	-9.6349
▁би	-9.63524
▁тамыр	-9.63534
▁электронд	-9.63582
▁радиоактивті	-9.63597
▁мақтан	-9.63621
▁ақырын	-9.63636
▁ылғал	-9.63674
▁қира	-9.6369
▁көрме	-9.63769
▁Батыс	-9.63853
▁символдар	-9.63871
▁теңіз	-9.64005
иялық	-9.64012
ылды	-9.64054
▁азық	-9.64081
▁алынған	-9.64084
▁апар	-9.641
▁Жай	-9.64136
▁Том	-9.64166
▁сусын	-9.6419
▁тік	-9.64209
▁сыртта	-9.64253
▁болуымыз	-9.64468
▁ояту	-9.64521
▁е	-9.64522
▁ұл	-9.64567
80	-9.64596
▁мін	-9.64653
▁білмей	-9.64683
▁S	-9.647
▁қағидат	-9.647
▁жалған	-9.64787
▁алма	-9.64855
әне	-9.64863
▁мағына	-9.64926
ос	-9.64942
латын	-9.64964
кен	-9.65056
▁есімі	-9.6507
▁пайдалана	-9.6516
▁болатыны	-9.65172
▁16	-9.65308
▁кітаптарым	-9.65331
▁тор	-9.65402
▁әкелу	-9.65413
▁201	-9.65498
▁жасушалар	-9.65668
▁өнім	-9.65669
▁мәдениет	-9.65765
▁тапсыр	-9.65873
▁мектебі	-9.65882
▁жағдайлар	-9.66053
▁негізі	-9.6609
▁жүргізіл	-9.66126
▁алмайсыз	-9.66132
▁ауру	-9.66191
▁сөйлес	-9.66235
▁бөліс	-9.66268
▁таңба	-9.66319
▁тексерді	-9.66354
қтар	-9.66375
сіздер	-9.66437
▁ғылымдар	-9.66498
ңызда	-9.66513
▁арманда	-9.66533
▁өсір	-9.66636
ияда	-9.66647
▁бағдарламасы	-9.66668
▁Су	-9.66713
▁ұш	-9.66735
▁жұмыстарын	-9.66793
▁өс	-9.6699
асқан	-9.66994
▁Марк	-9.67188
тіктер	-9.6726
алдық	-9.67274
▁атал	-9.67394
рмен	-9.67522
▁кіріс	-9.67618
▁түйіні	-9.67637
▁19	-9.67661
▁дәрігер	-9.67695
▁бейім	-9.67705
▁Сендер	-9.67742
гісі	-9.67825
лігі	-9.679
▁ұйғарды	-9.67984
тивті	-9.6805
қты	-9.68065
▁Интернетте	-9.68352
▁беріңіз	-9.68416
▁шыңын	-9.6845
▁Калифорния	-9.68495
тай	-9.68763
рзан	-9.68809
▁арман	-9.6906
▁ақ	-9.69081
▁Газет	-9.69094
▁қуат	-9.6911
▁қатыса	-9.69148
▁шығы	-9.69178
▁артқан	-9.69202
▁тастау	-9.69232
деді	-9.69238
▁На	-9.69369
▁Сандар	-9.69373
▁әдебиет	-9.6947
▁билік	-9.69553
▁Ке	-9.69591
лу	-9.69637
▁ашы	-9.69794
▁болжа	-9.69823
ұрыс	-9.69913
▁бейімдел	-9.69993
▁үкіметті	-9.70152
▁уақытым	-9.70161
▁құтқар	-9.70206
орк	-9.70346
▁тізім	-9.70407
тары	-9.70437
▁ара	-9.70473
▁ұшақ	-9.7059
▁қы	-9.70746
▁бөліктер	-9.70785
▁жетіл	-9.70862
▁қабілетт	-9.70882
мей	-9.70937
тіңіз	-9.71162
меген	-9.71227
▁ор	-9.71313
▁өміріңіз	-9.71397
▁Өзіміз	-9.71499
▁сүр	-9.71623
▁көшеде	-9.71781
ерді	-9.71948
▁көрсетемі	-9.72022
▁өзгеріс	-9.72098
▁есімд	-9.72135
▁Табыс	-9.72138
▁үн	-9.72159
▁Р	-9.72234
▁сақтай	-9.72281
▁елі	-9.72363
▁Та	-9.72437
ақсы	-9.72512
▁Бала	-9.72648
▁по	-9.72819
▁баянда	-9.72856
▁арты	-9.72887
▁алда	-9.72945
▁бағыт	-9.72959
атып	-9.7302
▁таңбаны	-9.73118
алар	-9.73143
▁молекула	-9.73187
▁хабарлас	-9.73273
▁қасиетт	-9.73401
▁тоқтата	-9.73468
▁заттарды	-9.73517
▁ойна	-9.73732
▁бөлмеде	-9.7377
▁аудан	-9.73818
▁амал	-9.73996
▁болашағын	-9.74096
▁қайталан	-9.74171
▁белгі	-9.74176
▁істеймі	-9.74414
▁дәстүрл	-9.74461
келген	-9.74469
▁білер	-9.74584
▁Ди	-9.74628
▁жегіштер	-9.75076
▁сақтау	-9.75093
▁тұры	-9.75102
▁сағатта	-9.7514
шісі	-9.75186
▁сенемі	-9.75244
▁жазба	-9.75304
▁жалғастыра	-9.75318
▁Финляндия	-9.75374
қанды	-9.75547
▁қосылған	-9.75582
▁құрастыру	-9.75723
▁арманым	-9.75829
ықты	-9.75989
▁жүру	-9.76062
▁дайындал	-9.76231
▁Кү	-9.7627
▁Бізді	-9.76344
▁Әлем	-9.76361
▁өр	-9.76393
▁бөлісу	-9.76434
▁Әл	-9.7656
айлы	-9.76695
еулер	-9.76901
▁зат	-9.77034
▁тұру	-9.77112
▁жылжы	-9.7712
▁балаларым	-9.77133
▁рөлі	-9.77183
▁болғым	-9.77194
▁Америкада	-9.77643
▁аяғы	-9.77716
▁бой	-9.77839
▁жек	-9.77976
▁ауыл	-9.78005
▁ойлама	-9.7808
▁тақырып	-9.781
▁бойын	-9.78169
▁ұнай	-9.78306
ну	-9.78364
лерінде	-9.78364
▁Жапония	-9.78411
▁көрер	-9.78582
▁молекулалар	-9.78603
ди	-9.78807
▁сұраған	-9.78841
іңдер	-9.79048
▁Бәрін	-9.79192
тынын	-9.79268
▁Жер	-9.79282
▁санай	-9.79452
олай	-9.79471
▁таб	-9.79481
▁ағаштар	-9.79622
▁таңғалды	-9.7966
дарға	-9.79691
▁бөлшегі	-9.79702
▁тарат	-9.79806
▁ауқымд	-9.79891
▁суды	-9.79906
▁әкел	-9.80043
мізді	-9.80154
▁Өмірім	-9.80174
▁Ан	-9.80284
▁арасын	-9.80436
▁математикада	-9.80571
▁қоймай	-9.80598
▁Ит	-9.80631
▁істеуім	-9.80734
▁алғанда	-9.80744
▁орындай	-9.80886
құлақ	-9.8092
▁қаншасы	-9.8099
▁заң	-9.81194
▁бұға	-9.81196
▁ұшыр	-9.81584
▁студенттерім	-9.81784
▁түсірі	-9.81813
▁соғысты	-9.81968
▁неде	-9.82093
▁газет	-9.82142
▁жеті	-9.82149
өй	-9.82267
▁тарту	-9.82389
▁алуы	-9.82408
ей	-9.82453
▁жағы	-9.82514
ста	-9.82533
▁реакция	-9.828
шысы	-9.82814
▁мәселен	-9.82845
▁талқыла	-9.82905
бок	-9.82992
▁он	-9.82998
▁жарияла	-9.83254
нг	-9.8335
▁өмірім	-9.83399
▁Телефон	-9.83586
▁тұруы	-9.83702
▁бөлі	-9.83744
▁жүргіз	-9.83796
екі	-9.83808
▁біреуі	-9.83846
▁жо	-9.8387
▁алмаған	-9.83946
әрі	-9.83966
E	-9.84065
қайта	-9.84098
▁тоқ	-9.84105
рт	-9.84177
бын	-9.84215
▁мақсатын	-9.8425
▁жазулар	-9.84343
T	-9.84586
рге	-9.84681
▁жи	-9.84774
▁ауылда	-9.84815
▁көлемі	-9.84976
дықта	-9.84979
▁басына	-9.85059
▁демалыс	-9.85167
▁қорша	-9.85333
▁тоқтат	-9.85417
пейді	-9.85437
▁Үрей	-9.85461
▁300	-9.85491
мин	-9.8562
▁табыс	-9.85651
▁қабаты	-9.8577
▁жібере	-9.85777
арды	-9.85811
▁қанд	-9.85906
ылатын	-9.85966
▁Ел	-9.86093
▁жүре	-9.86104
▁Табиғат	-9.86226
▁бөліскен	-9.86277
▁бөлігінде	-9.86294
▁әңгімелер	-9.86418
▁себепт	-9.86506
▁олард	-9.8668
▁аралас	-9.86682
▁алар	-9.86765
▁Түсін	-9.86906
▁бастама	-9.86919
арға	-9.86946
▁тану	-9.86982
▁қателес	-9.87006
дарын	-9.87009
▁өлі	-9.87058
▁Оң	-9.8706
күй	-9.87147
▁шектеулер	-9.87313
▁Тағ	-9.87359
кер	-9.87418
▁батыр	-9.87441
▁рақым	-9.87496
ада	-9.87501
пты	-9.87508
▁жапон	-9.8768
▁бағдарла	-9.87739
▁милли	-9.87785
k	-9.87816
▁өзімшілдігіміз	-9.87819
▁Times	-9.87819
▁Ірімшік	-9.87819
▁ДНҚ	-9.87819
▁Дәрігер	-9.87819
▁Математика	-9.87819
▁Райли	-9.87819
▁Тунисте	-9.87819
▁Хикая	-9.87819
▁босқындар	-9.87819
▁браузер	-9.87819
▁бутерброд	-9.87819
▁журналист	-9.87819
▁зерделеу	-9.87819
▁медицина	-9.87819
▁мемлекет	-9.87819
▁нүкте	-9.87819
▁проблема	-9.87819
▁триптофан	-9.87819
▁энергия	-9.87819
▁Қабырға	-9.87819
▁ӨҰОК	-9.87819
▁Сирия	-9.87819
▁Сәби	-9.87819
▁африка	-9.87819
▁биомасса	-9.87819
▁доктор	-9.87819
▁итермеле	-9.87819
▁пирамида	-9.87819
▁сигнал	-9.87819
▁өсімдіктер	-9.87819
уппам	-9.87819
▁серотонин	-9.87819
▁таймлайн	-9.87819
▁мырза	-9.87819
▁құпиясы	-9.8782
▁өнертабыс	-9.8782
▁дәйек	-9.8782
▁жаңбыр	-9.8782
▁театр	-9.8782
▁келбеті	-9.87821
▁Руанда	-9.87822
▁нысан	-9.87823
▁сарапта	-9.87823
▁ұйымдастыр	-9.87823
▁Адамзат	-9.87824
▁аурухана	-9.87825
▁Қоғам	-9.87825
▁сөйлейтін	-9.87826
▁Руми	-9.87827
▁Ешкім	-9.87828
▁веб	-9.87832
▁Сауд	-9.87833
▁клиенттер	-9.87834
▁лагері	-9.87836
▁бұйыр	-9.87839
▁метр	-9.87839
▁қоқыс	-9.87842
▁Алғаш	-9.87843
▁ыңғайсыз	-9.87844
▁жаратқан	-9.87845
▁таңертең	-9.87846
▁бактерия	-9.87847
▁Әкем	-9.87848
▁ойнайтын	-9.87856
▁мү	-9.87856
▁оқыды	-9.87857
▁био	-9.87857
▁үлесі	-9.87866
▁слайд	-9.87872
▁Электрон	-9.87873
▁икем	-9.87877
▁жетелейтін	-9.8788
▁ғимараттар	-9.87881
▁Камер	-9.87881
▁астам	-9.87884
▁оралайық	-9.87885
▁терезе	-9.87893
▁жетілдіру	-9.87893
▁лайықты	-9.87896
▁Ав	-9.879
▁екеуіміз	-9.87911
▁басшылық	-9.87912
▁қиындықтар	-9.87912
▁дін	-9.87914
▁деңгей	-9.87916
▁түсір	-9.87927
▁қызығушылығы	-9.8793
мобиль	-9.87934
▁адамзат	-9.87938
▁тағам	-9.87945
▁Бит	-9.87961
▁шектеулі	-9.87973
▁шақырым	-9.87976
▁бағытталған	-9.87994
▁Лос	-9.88
▁есептеу	-9.88002
▁оқушысы	-9.88002
▁кілт	-9.88003
▁Ұстаздар	-9.88003
▁шү	-9.88008
▁кететін	-9.88019
▁бейнелеу	-9.88024
▁ойлайсыз	-9.88024
▁әркім	-9.88037
▁Жұмыс	-9.88043
▁тұра	-9.88044
▁қауіпсіз	-9.88051
▁сұмдық	-9.88059
▁ұсынады	-9.88076
▁жүретін	-9.88085
▁төнген	-9.88138
беб	-9.88143
▁көші	-9.88144
▁құбылыс	-9.88146
▁түстер	-9.88152
▁қойыңыз	-9.88155
▁ұзын	-9.88159
▁көркем	-9.88165
▁есебін	-9.88226
▁салатын	-9.88242
леріне	-9.88247
▁жеміс	-9.8825
▁түсіндіру	-9.88317
▁ойлаңыз	-9.88318
▁артық	-9.88321
▁поли	-9.88327
▁35	-9.88353
▁Аса	-9.88364
▁Сөйтсе	-9.88386
▁еріктілер	-9.88395
▁араластыр	-9.88414
▁балаларын	-9.88428
▁өзгеруі	-9.88451
▁материалдар	-9.88451
▁инженерия	-9.88465
▁белгісі	-9.88481
▁мұғалімдер	-9.88486
▁басылым	-9.88486
▁емдеу	-9.8849
▁жиналып	-9.88558
ала	-9.88579
▁араласқан	-9.88595
▁сах	-9.8862
▁Ге	-9.88737
▁өтпе	-9.88747
▁аударған	-9.88749
▁үлгер	-9.88853
▁өмірі	-9.88941
▁Ата	-9.88962
▁түсінеді	-9.8897
▁музыка	-9.88977
▁беріл	-9.88978
ымда	-9.88989
▁жетеді	-9.8907
▁сылан	-9.8909
▁жоспарла	-9.89119
▁жиналған	-9.8912
▁жатқандығын	-9.89124
▁табандылы	-9.89162
▁шарла	-9.89181
▁теріңіз	-9.89233
br	-9.8929
▁өздеріңіз	-9.89292
▁ойды	-9.89299
▁кеш	-9.89356
▁құрылымы	-9.89359
▁асыр	-9.89429
▁Мін	-9.89449
уын	-9.89456
ab	-9.89458
лмайды	-9.89539
нсульт	-9.89573
▁батпырауықты	-9.89574
▁айтпай	-9.89601
▁процесін	-9.89777
▁қар	-9.89792
▁жобасы	-9.89808
▁қолымыз	-9.89847
▁Бақыт	-9.89941
▁принтер	-9.89982
▁есептей	-9.90005
▁аударма	-9.90019
▁шебері	-9.9002
▁От	-9.90025
▁материал	-9.90042
▁қиялдай	-9.90047
▁таңғаларлы	-9.90059
▁түсінген	-9.90095
▁ғажа	-9.901
▁F	-9.9012
8	-9.90135
лігін	-9.9016
▁ұнатпа	-9.90216
▁Ондай	-9.90224
▁дәріс	-9.90254
▁көбей	-9.90262
ңізші	-9.90309
▁бау	-9.90339
▁кешір	-9.90413
еремет	-9.90481
▁жариялан	-9.90514
▁жұмыста	-9.90592
▁сонда	-9.90738
▁алдағы	-9.90746
▁салыстыра	-9.90776
▁сізде	-9.90792
ушылар	-9.90827
▁әм	-9.90828
▁қоректен	-9.90943
▁күйеуі	-9.90959
▁айда	-9.90995
▁сыныптар	-9.90999
▁құлдырау	-9.91025
▁тұт	-9.91032
▁берілме	-9.9108
▁әлдебір	-9.91138
▁T	-9.91154
▁оян	-9.91161
оңғы	-9.91249
▁жазған	-9.91267
▁ауыстыр	-9.91296
▁зерттеуде	-9.91345
▁десе	-9.91421
▁толған	-9.91513
▁құлаған	-9.91529
▁біріктір	-9.91538
▁болатындығын	-9.91624
▁құрылы	-9.91625
▁Осында	-9.91681
▁мақсаттар	-9.91749
ағыз	-9.91775
ікті	-9.91787
▁Он	-9.91825
▁білме	-9.9183
▁Нег	-9.91871
▁қалар	-9.91913
орында	-9.91929
▁Есікті	-9.91989
▁шай	-9.92076
▁11	-9.92082
▁бөлек	-9.92101
▁буынд	-9.92114
▁ұмытпа	-9.92118
есе	-9.92169
▁орындар	-9.92181
▁Да	-9.92184
▁я	-9.92201
▁сөйлей	-9.9222
▁қорек	-9.9232
▁кездестірді	-9.92335
инк	-9.92377
▁салды	-9.92398
лығы	-9.92451
▁бейнежазба	-9.92692
▁үлгісі	-9.92711
▁қамт	-9.92717
▁табыл	-9.92978
▁атады	-9.92989
теп	-9.92994
аңыз	-9.93023
▁қорқ	-9.93025
▁Пр	-9.93108
▁мұн	-9.93116
▁Құдайды	-9.93144
▁форма	-9.93334
▁тексер	-9.9343
▁қалдыры	-9.93438
▁Мэдди	-9.93455
▁ғажайып	-9.93486
▁Фр	-9.93565
▁Шығыс	-9.9359
ондағы	-9.936
▁ұсыныс	-9.93673
▁көрмей	-9.93856
▁тапсырмалар	-9.93909
▁шешімдер	-9.93991
▁салуды	-9.94021
▁бизнесі	-9.94029
▁Фран	-9.94089
▁Рес	-9.94148
▁таңғы	-9.94152
or	-9.94281
▁күй	-9.94321
▁зерттеуді	-9.94324
ыл	-9.9435
▁іште	-9.94356
айы	-9.94371
мания	-9.94391
сем	-9.9453
▁шы	-9.9453
аналар	-9.94602
▁же	-9.94683
алайық	-9.94749
▁кезім	-9.94768
▁уақыты	-9.94773
▁әріптестерім	-9.94773
▁көріңіз	-9.94954
лерін	-9.95031
▁орындық	-9.95155
▁білген	-9.95223
▁баруды	-9.95383
▁жасалатын	-9.95575
▁болмыс	-9.95577
▁істегенім	-9.95603
▁Бә	-9.95783
ания	-9.95807
▁үстін	-9.95917
▁иесіне	-9.95925
наға	-9.96006
▁аурулар	-9.96049
▁қосы	-9.96065
▁қуан	-9.96095
▁түрд	-9.9616
ыс	-9.96304
▁Кол	-9.96319
▁бөлісті	-9.96368
▁Бәрі	-9.96373
▁қолданыл	-9.96415
бе	-9.96425
▁қолданы	-9.96589
▁құл	-9.96591
ығын	-9.96594
▁шашы	-9.96658
▁күндер	-9.96658
▁көмектескен	-9.96663
▁көпшілікті	-9.96683
▁ойларымыз	-9.96718
▁сұрап	-9.96789
ge	-9.96853
▁балалары	-9.96909
▁шақырды	-9.96985
▁компьютерлер	-9.97061
▁болжау	-9.97073
▁кезеңде	-9.97105
▁принтерде	-9.97126
▁сауда	-9.97187
ықт	-9.97222
▁бөлісе	-9.97231
▁қаржы	-9.97254
▁келу	-9.97344
▁Осыны	-9.97413
йық	-9.97478
▁қиы	-9.97483
сынан	-9.97774
▁бөлу	-9.97819
▁Күл	-9.97979
▁кол	-9.97987
▁қолыңыз	-9.98088
уыз	-9.98103
ойымызда	-9.98116
ғанын	-9.98153
▁қатысу	-9.98187
▁ди	-9.98192
▁н	-9.98225
▁тыңда	-9.98229
▁бөлшек	-9.9829
▁отырғыз	-9.98351
▁дамыта	-9.98539
елей	-9.98543
▁ойлар	-9.98762
▁шығаратын	-9.98769
үр	-9.99069
естен	-9.99092
орган	-9.99128
қарсы	-9.99137
▁ада	-9.99175
▁Мел	-9.99202
▁суар	-9.99378
▁Кім	-9.99502
▁қалауы	-9.99591
▁тарты	-9.99619
▁есікті	-9.99639
▁күт	-9.99711
▁тыңдай	-9.99751
▁жүзінде	-9.99762
▁дамуы	-9.99788
▁болмайтын	-9.99827
▁мұғалімі	-9.99828
▁мұсылмандар	-9.99886
▁Өл	-10.0006
▁мақсат	-10.0012
▁барған	-10.0013
▁рахаттан	-10.0014
рат	-10.0027
▁көтеріл	-10.0031
тқа	-10.0048
▁естіді	-10.0051
▁Ар	-10.0052
ле	-10.0063
▁алаңын	-10.0065
▁жаңалықты	-10.0067
▁үрейді	-10.0075
▁хаос	-10.0077
▁бұлар	-10.0087
ысты	-10.0103
▁тұрғындар	-10.0106
▁материалды	-10.011
індегі	-10.0123
▁Хан	-10.0125
нымен	-10.0129
▁Түр	-10.0146
▁кездер	-10.015
▁Бер	-10.0153
▁қызықтыр	-10.017
нго	-10.0181
▁қаша	-10.0209
▁Ад	-10.0213
от	-10.0219
▁танк	-10.0223
▁жинады	-10.023
▁жазыл	-10.024
▁сезді	-10.0248
▁қыр	-10.0253
▁өзгерістер	-10.0267
ықта	-10.027
жа	-10.0271
▁си	-10.0286
▁уақытт	-10.0291
▁90	-10.0293
▁дәреже	-10.0296
саған	-10.0299
ылады	-10.0301
дерді	-10.0307
тпеген	-10.0313
▁халықт	-10.0317
аль	-10.0322
▁амалы	-10.0324
▁мыңда	-10.0325
13	-10.0335
▁қызы	-10.0336
▁бастағанда	-10.0338
еге	-10.034
▁сіңір	-10.0379
кс	-10.0383
▁Би	-10.04
▁бор	-10.0413
▁баратын	-10.0426
▁Га	-10.043
▁дегенім	-10.0441
▁аңғар	-10.0449
▁кеңсе	-10.0452
▁картасын	-10.0459
тон	-10.05
▁ойланы	-10.0519
▁істеуді	-10.0525
▁рөлін	-10.0526
лайтын	-10.0531
▁хабарла	-10.0534
▁бу	-10.0536
▁алмау	-10.054
нды	-10.0566
▁пайдалану	-10.0567
▁мұра	-10.0576
▁тырысу	-10.058
▁зерттей	-10.0605
ло	-10.0638
▁Барлы	-10.0639
қтарды	-10.0643
ри	-10.0659
▁Аз	-10.066
▁жасағым	-10.0663
▁тудыр	-10.067
▁бұрылы	-10.068
мызда	-10.0692
▁артты	-10.07
▁асыра	-10.07
▁өтіп	-10.0723
ф	-10.073
▁элемент	-10.074
▁бейнеле	-10.0746
▁Бил	-10.0749
елік	-10.0754
ter	-10.0771
▁жанына	-10.0796
ука	-10.0806
▁тал	-10.0814
▁газеттерді	-10.0845
▁алуды	-10.0846
атынын	-10.0872
▁айналыс	-10.0873
▁әйелдерді	-10.0882
▁нейрондар	-10.0882
▁керекті	-10.0885
▁дейсіз	-10.0887
▁жобаны	-10.0914
▁айна	-10.0931
▁жасымда	-10.0948
деген	-10.0949
▁сұраса	-10.095
алы	-10.0958
▁кезімізд	-10.0958
▁жүрегім	-10.0962
▁қабылдай	-10.0965
▁отырғандар	-10.0967
▁жетістіктер	-10.0974
ңдар	-10.0975
▁Айта	-10.0977
g	-10.0979
▁математик	-10.0979
аз	-10.0982
▁Финляндияда	-10.0983
▁химияны	-10.0988
▁жоқпы	-10.1009
▁Жыл	-10.1013
os	-10.1036
▁қалыпт	-10.1047
▁ойымыз	-10.1053
▁шақыр	-10.1056
▁себептер	-10.1065
▁кере	-10.1076
▁оқытуды	-10.1081
ліктен	-10.1088
▁қыздар	-10.1088
▁істеуін	-10.1098
▁Ап	-10.1099
қанда	-10.1108
▁нег	-10.1119
мақ	-10.1124
рды	-10.1126
▁жетеле	-10.1128
▁аймақта	-10.1145
ли	-10.1153
ішті	-10.1153
біріміз	-10.1166
▁бастық	-10.1169
іспен	-10.1183
▁кеме	-10.1185
▁ұсынды	-10.1203
ография	-10.1209
▁оқушыларды	-10.121
▁ұстаздарды	-10.121
▁айтамы	-10.1214
▁тәжірибені	-10.1239
▁сын	-10.1239
▁жерлер	-10.1245
▁жылу	-10.1249
▁жүгір	-10.1254
ушілер	-10.126
▁тұрғы	-10.1266
тегін	-10.1267
▁өндіріс	-10.1268
▁төсе	-10.1281
▁қадам	-10.1282
▁жасаса	-10.1283
▁үміттен	-10.1284
▁жабы	-10.1284
▁сауалнаманы	-10.1286
кір	-10.129
▁бойымызда	-10.1299
х	-10.1308
▁ден	-10.1311
рамын	-10.1313
▁оларда	-10.1323
лик	-10.1324
ікке	-10.1325
▁салмақ	-10.1328
бу	-10.133
▁сауаттылығы	-10.1339
▁шар	-10.134
▁рес	-10.1344
▁сұрақтарды	-10.1348
▁идеяны	-10.135
▁Ана	-10.135
▁картаны	-10.1352
▁қалдық	-10.1352
▁кездес	-10.1365
▁тілді	-10.1371
ология	-10.1372
▁дәлел	-10.138
ісі	-10.1386
циясы	-10.1389
▁тіршілі	-10.1418
▁әдістер	-10.1424
▁сонша	-10.1425
рыққа	-10.1425
ура	-10.1427
▁тұрғыз	-10.1442
▁жылжыт	-10.1444
дерін	-10.1451
▁оқушылары	-10.1464
Ш	-10.1475
▁түп	-10.1477
ва	-10.1486
▁9	-10.1487
▁тұрмыс	-10.1495
гіңіз	-10.1496
▁нарық	-10.1516
▁бұлт	-10.1521
▁кітаптары	-10.1528
тім	-10.1536
дарды	-10.1549
▁сәттер	-10.1551
▁сәті	-10.1562
▁авто	-10.1565
▁400	-10.1567
ққа	-10.1572
▁анық	-10.1574
▁Есік	-10.1575
ғандарыңыз	-10.1582
нша	-10.1583
▁ертең	-10.1591
▁хабарлама	-10.1595
мыздағы	-10.1606
▁сы	-10.162
▁көзім	-10.1622
▁нем	-10.1623
саң	-10.1625
ір	-10.1629
▁санына	-10.163
▁баласын	-10.1646
▁деңгейі	-10.1648
▁тас	-10.1651
тика	-10.1662
зақ	-10.1674
▁Ау	-10.1686
▁дауысым	-10.1698
еріс	-10.1713
▁ұстан	-10.172
▁азайт	-10.1725
▁бастау	-10.1737
▁міндет	-10.1755
S	-10.1757
күйін	-10.176
ялық	-10.1764
▁ғасырд	-10.1771
▁сұрағы	-10.1771
P	-10.1771
▁аст	-10.178
▁хикая	-10.1781
▁сенің	-10.1781
О	-10.1789
В	-10.1792
I	-10.1795
▁қор	-10.1796
▁бағдарламасын	-10.1799
▁алай	-10.18
▁мейрам	-10.1801
▁үшінші	-10.1806
ктен	-10.1812
генін	-10.1816
▁жағдайы	-10.1822
▁ойларым	-10.1823
тап	-10.1834
▁Сараевода	-10.1834
▁дәуірі	-10.1837
▁мәдени	-10.1842
генде	-10.1845
гін	-10.1849
▁тапқанда	-10.1851
▁әсері	-10.1857
бай	-10.1865
басын	-10.1874
▁индекс	-10.1878
яқ	-10.1886
▁түрт	-10.1888
▁Қара	-10.1889
улары	-10.1902
▁ұқты	-10.1907
лмейтін	-10.1913
атындар	-10.1916
▁ұпай	-10.1921
▁шеше	-10.1928
▁толқын	-10.1929
▁атқара	-10.193
▁дегені	-10.1938
▁кездесті	-10.1939
▁алыс	-10.1944
▁кедергі	-10.1953
▁түй	-10.1976
▁радиоактив	-10.1978
▁Ри	-10.1987
▁тастай	-10.1992
▁туды	-10.1999
▁Испан	-10.2003
▁жанында	-10.2009
ғанды	-10.202
салдарына	-10.2021
тістік	-10.2021
▁сұрақты	-10.2025
▁екіншісі	-10.2028
▁Шынын	-10.2029
▁түсінемі	-10.203
▁Бей	-10.2053
▁кетпе	-10.2054
▁За	-10.207
▁шө	-10.2075
▁ауа	-10.2079
▁блог	-10.2085
▁18	-10.2088
m	-10.209
▁меңгер	-10.2091
▁мұсылман	-10.2091
▁Порт	-10.2096
▁байқаған	-10.2097
▁сауал	-10.2098
▁Әдетте	-10.2099
▁Көбі	-10.2103
лмады	-10.2107
рея	-10.2108
▁перне	-10.2109
▁өркендеу	-10.2109
▁қоңыр	-10.2111
▁Студент	-10.2112
▁инженер	-10.2112
ree	-10.2115
▁Дизайн	-10.2115
Принс	-10.2115
▁Анжело	-10.2115
▁Көмектес	-10.2115
▁Малайзия	-10.2115
▁Махаббат	-10.2115
▁Рафидах	-10.2115
▁Севита	-10.2115
▁Тарих	-10.2115
▁Тәжірибе	-10.2115
▁Шанхай	-10.2115
▁бәсекелес	-10.2115
▁диагноз	-10.2115
▁жауапкершілік	-10.2115
▁жиіркен	-10.2115
▁жігерлендір	-10.2115
▁мәнісісің	-10.2115
▁ноутбу	-10.2115
▁пицца	-10.2115
▁презентация	-10.2115
▁профессоры	-10.2115
▁революция	-10.2115
▁репортер	-10.2115
▁сұхбаттас	-10.2115
▁француз	-10.2115
▁эксперимент	-10.2115
▁құштарлық	-10.2115
▁ұжым	-10.2115
▁өнеркәсіп	-10.2115
▁Орлеан	-10.2115
▁Технология	-10.2115
▁Эксетер	-10.2115
▁жәрдем	-10.2115
▁олқылықтар	-10.2115
▁оңалту	-10.2115
▁планета	-10.2115
▁Ливан	-10.2115
▁аудитория	-10.2115
▁бюрократия	-10.2115
▁лого	-10.2115
▁велосипед	-10.2115
▁гипер	-10.2115
▁Панама	-10.2115
▁диета	-10.2115
▁есірткі	-10.2115
▁ықпал	-10.2115
▁үзінді	-10.2115
▁Импери	-10.2115
▁Фильм	-10.2115
▁температура	-10.2115
▁кестесі	-10.2115
▁Жалпы	-10.2115
▁көшірмесі	-10.2115
▁команда	-10.2115
▁өлтір	-10.2115
▁әліпби	-10.2115
ace	-10.2115
▁барбекю	-10.2115
▁меңзе	-10.2116
▁таңқалдырған	-10.2116
▁каллиграфия	-10.2116
▁түйгенім	-10.2116
ing	-10.2116
▁сырланған	-10.2116
▁жапырақ	-10.2116
▁мүшесі	-10.2116
▁Шақыр	-10.2116
▁Құттықта	-10.2116
▁Тоқта	-10.2116
▁орналастыр	-10.2116
▁радио	-10.2116
▁онжылдық	-10.2116
▁Мәтін	-10.2116
▁игерілме	-10.2116
эри	-10.2116
▁Имам	-10.2116
▁сөндірушілер	-10.2116
▁Крис	-10.2116
ome	-10.2117
ью	-10.2117
▁нәресте	-10.2117
▁1,5	-10.2117
▁естімей	-10.2117
▁шетел	-10.2117
▁сыймайтын	-10.2117
▁сәуір	-10.2117
▁жауынгер	-10.2117
▁СМ	-10.2117
▁бүтін	-10.2117
▁фото	-10.2117
▁Білмеймі	-10.2118
▁жетістігі	-10.2118
▁төбешік	-10.2119
▁қайсысы	-10.2119
▁сағызы	-10.2119
▁клиникалар	-10.2119
▁Марта	-10.2119
▁туғыза	-10.2119
▁геометри	-10.212
▁айырыл	-10.212
▁өсіреміз	-10.212
▁қақпа	-10.212
▁Ислам	-10.212
▁батылдық	-10.2121
▁Маңызды	-10.2121
▁Нақты	-10.2121
▁Сұрақтар	-10.2121
▁түсінгенім	-10.2121
▁қатысқан	-10.2121
ou	-10.2121
▁тұлға	-10.2121
▁эми	-10.2122
▁тыңдаушылар	-10.2122
▁қоңырау	-10.2122
▁өкінішті	-10.2122
▁алдарыңыз	-10.2122
▁таусыл	-10.2123
▁тоғай	-10.2123
▁белгісіздік	-10.2123
▁Мақсатың	-10.2123
▁мақтау	-10.2123
▁Морган	-10.2125
▁басылымдар	-10.2125
▁Таным	-10.2126
▁бояу	-10.2126
▁демал	-10.2126
ro	-10.2126
▁заңгер	-10.2127
▁кеңейту	-10.2128
вид	-10.2129
▁Бәріңіз	-10.213
▁көшбасшылар	-10.213
▁жазушы	-10.213
▁Көбіне	-10.213
есің	-10.2131
▁қорықпа	-10.2131
▁Бірлес	-10.2131
▁жүргізген	-10.2131
▁Жаратқан	-10.2132
▁Жақында	-10.2132
▁Ешқа	-10.2132
▁талпын	-10.2135
▁бөлшектер	-10.2135
▁ресурстар	-10.2135
ортугал	-10.2135
▁бағалай	-10.2135
▁екеуі	-10.2136
▁өзгелер	-10.2137
▁қағаз	-10.2138
▁сүйре	-10.2139
▁шабыттан	-10.2139
▁ойландым	-10.214
▁видеолар	-10.214
▁есігін	-10.2141
▁ұсақ	-10.2142
▁анализді	-10.2142
▁ұғым	-10.2144
дығын	-10.2144
▁жерің	-10.2146
▁кеңесші	-10.2147
тарын	-10.2147
йтс	-10.2148
▁химик	-10.2148
▁қорапша	-10.2149
▁жабынды	-10.2149
▁табыст	-10.2149
▁білмедім	-10.215
▁дүниелер	-10.215
▁түсінбейді	-10.2151
▁бермейтін	-10.2152
▁жазатын	-10.2153
▁көпшілігіміз	-10.2154
▁зерттеген	-10.2155
▁мәзір	-10.2155
▁азаматтар	-10.2157
▁отырғаным	-10.2158
ңды	-10.2159
▁жұмысшылар	-10.216
▁Сара	-10.216
▁мамандық	-10.2164
▁Басым	-10.2166
▁Байқа	-10.2167
▁сапасы	-10.2168
ойд	-10.2169
▁өлшеу	-10.2169
▁Кал	-10.217
түлік	-10.2174
▁адамгершілікті	-10.2177
▁қапта	-10.2179
▁Ес	-10.218
▁Мак	-10.2181
▁кодтау	-10.2182
▁ашпа	-10.2183
▁дизайнер	-10.2183
қыңыз	-10.2183
▁идеямыз	-10.2184
▁Бру	-10.2185
▁мол	-10.2185
▁түзетулер	-10.2185
дәрмек	-10.2186
▁әзірлеген	-10.2189
▁суық	-10.2189
▁демей	-10.2191
▁төзімді	-10.2192
▁елестету	-10.2192
▁түсіру	-10.2193
▁Фл	-10.2194
al	-10.2195
▁M	-10.2196
▁өрмеле	-10.2197
▁ағза	-10.2197
▁құрдық	-10.2198
▁Күнде	-10.2199
▁құшақта	-10.2199
▁әзірлеу	-10.2199
▁шектеу	-10.2201
▁Ұшақ	-10.2204
▁қиялдау	-10.2204
▁сөйлесу	-10.2205
▁сайтта	-10.2205
▁дәрігерлер	-10.2208
▁қозғалт	-10.2208
▁құрлықта	-10.2208
▁миллионер	-10.2208
▁сенбей	-10.2208
▁аспан	-10.2209
▁теңдеу	-10.221
▁Робин	-10.2211
әуекел	-10.2212
▁шақты	-10.2215
▁сия	-10.2217
▁Қыз	-10.2223
▁елестетіңіз	-10.2224
▁талас	-10.2225
▁қансырау	-10.2227
▁уақытымыз	-10.2228
▁істемей	-10.2229
грамма	-10.2234
ет	-10.2239
▁Жү	-10.2242
▁үйре	-10.2243
ттағы	-10.2249
▁тақырыбы	-10.225
▁оқырмандар	-10.2251
▁армандарын	-10.2253
▁Бәріміз	-10.2254
▁сөрем	-10.2255
умен	-10.2259
▁психология	-10.2259
▁медиа	-10.226
▁техника	-10.226
▁жарқыл	-10.2261
▁нұр	-10.2266
жи	-10.2267
▁қарайық	-10.2267
▁кон	-10.2271
▁қателіктер	-10.2274
еттен	-10.2275
▁реп	-10.2279
іздегі	-10.2288
▁тұтыну	-10.2291
▁түйінде	-10.2291
▁ерекшелен	-10.2291
әкіл	-10.2292
▁қалың	-10.2296
▁сабағын	-10.23
▁жүргізу	-10.2303
▁жүгіру	-10.2307
тпен	-10.2308
▁Бр	-10.2309
▁алшақтық	-10.2309
▁қызықтыратын	-10.2309
▁Қызық	-10.2311
▁пішінін	-10.2315
▁үңілсе	-10.2316
▁оңтүстік	-10.2316
▁сау	-10.2318
▁қызыл	-10.2319
лығын	-10.2322
▁тоқтатқан	-10.2326
▁d	-10.2327
▁отырсыз	-10.2329
▁ұқсамай	-10.2329
▁200-	-10.2329
▁Филадельфияда	-10.233
▁кінәлі	-10.2332
ірге	-10.2339
▁жұ	-10.234
▁Дж	-10.234
▁Гол	-10.2343
▁әкем	-10.235
▁саяс	-10.2352
▁лайық	-10.2352
дету	-10.2352
▁индексті	-10.2359
▁жұп	-10.2361
▁ережесі	-10.2366
▁жартысына	-10.237
▁мазмұны	-10.2371
▁түк	-10.2375
▁комм	-10.2376
▁Онда	-10.2376
ритандықтар	-10.2381
▁Ая	-10.2381
▁аяғын	-10.2385
▁Кең	-10.2387
▁белгілері	-10.2392
▁желіде	-10.2395
▁тақырыпта	-10.2396
▁ажырас	-10.24
▁дәуір	-10.2402
▁күтуші	-10.2402
▁өнімді	-10.2404
▁санды	-10.2407
▁Атам	-10.2408
▁білімдері	-10.2413
▁жаратылыста	-10.2416
▁даналық	-10.2426
▁роботты	-10.2428
▁балаларымыз	-10.2429
▁таныстырды	-10.2429
рға	-10.2431
▁әріптері	-10.2432
▁жылдай	-10.2434
▁бөлмесін	-10.2438
▁жетпейтін	-10.2441
▁өсу	-10.2448
▁Сараевоны	-10.245
кел	-10.2451
▁аза	-10.2453
▁мақсатым	-10.2457
▁несі	-10.2461
▁хикаялар	-10.2461
▁рақымдылықты	-10.2461
▁P	-10.2464
▁жеріне	-10.2467
шасы	-10.2469
▁бөліскім	-10.2469
▁шық	-10.2474
▁Елестеті	-10.2476
▁айналатын	-10.2477
▁алыста	-10.2477
▁ұқтыр	-10.2481
▁есім	-10.249
▁қалыптастыр	-10.2491
▁мақсатың	-10.2502
▁жарықты	-10.2504
▁жақсарт	-10.2506
▁Біле	-10.2507
▁созыл	-10.2512
▁бітір	-10.2512
вил	-10.2514
▁өтінді	-10.2514
▁ес	-10.2515
▁түсінетін	-10.2518
▁Барлығы	-10.2519
▁Босния	-10.2521
▁Мысыр	-10.2521
▁қасы	-10.2522
▁бөлінуі	-10.2524
▁өткізу	-10.2526
дарда	-10.2529
▁сипаттар	-10.2532
▁көрсетпей	-10.2541
▁кезін	-10.2542
▁аштық	-10.2547
l	-10.2547
▁айналам	-10.2553
▁Ду	-10.2555
▁көлемінде	-10.2556
▁формасы	-10.2561
▁бауыр	-10.2566
ог	-10.2568
▁газеттер	-10.2573
▁асы	-10.2578
▁дағдылар	-10.258
уыс	-10.2581
беріңіздер	-10.2587
▁60	-10.26
▁жағым	-10.2604
▁қалғанын	-10.2607
▁стилінде	-10.2618
▁жеткізген	-10.2622
пайы	-10.2627
▁маңыз	-10.2627
▁жазуды	-10.2633
ологтар	-10.264
▁тақырыптар	-10.2646
▁Анна	-10.2651
▁зерттеді	-10.2654
▁ұлты	-10.2659
▁әрекеті	-10.2659
▁E	-10.2662
▁мысалдар	-10.268
▁бұз	-10.2681
▁дәмі	-10.2685
уым	-10.2688
алатынын	-10.2688
▁жылды	-10.2691
ытай	-10.2691
▁аяқтарын	-10.2697
▁шеш	-10.271
▁Гонконг	-10.2714
▁ыңғайла	-10.2715
ауып	-10.2719
▁қоғамды	-10.2719
▁дәлелде	-10.2742
▁тара	-10.2753
▁күйеу	-10.2754
▁тексері	-10.2758
▁досы	-10.2779
▁кешке	-10.278
ек	-10.2784
▁жариялаған	-10.2786
▁сүре	-10.2786
▁түсетін	-10.2786
▁жал	-10.2801
▁құрмет	-10.2802
іспеушілі	-10.2806
ішкентай	-10.2806
▁нейрон	-10.2807
лғанын	-10.281
▁міндеті	-10.2811
▁жазбалар	-10.2819
▁Қолыңыз	-10.2831
түрлі	-10.2853
▁байқау	-10.2855
бы	-10.2866
бү	-10.2869
▁ұялмай	-10.2873
▁Айнала	-10.2893
▁ауылында	-10.29
▁соншалық	-10.2901
he	-10.2902
▁Жоспар	-10.2906
▁жалғастыр	-10.2908
▁күлді	-10.2914
йін	-10.2914
▁кездестір	-10.2928
▁дамуына	-10.2931
леріңіз	-10.2936
тілігін	-10.2936
▁шайқас	-10.2939
▁жүкте	-10.2944
етті	-10.2952
▁байланысы	-10.2955
▁сауаттылығын	-10.2958
▁өту	-10.2964
▁қабырғасын	-10.2967
▁Ра	-10.2967
етінін	-10.2972
в	-10.2974
▁мат	-10.2984
▁Жарай	-10.2984
йсыз	-10.2985
▁дәрігерім	-10.2986
мда	-10.2986
▁Ру	-10.2991
▁әрекетті	-10.2991
▁заңы	-10.2992
▁шақ	-10.2995
▁балама	-10.3
▁мақсатыңыз	-10.3002
▁төмендету	-10.3003
гінде	-10.3006
▁түбінде	-10.3009
▁Польшада	-10.3014
▁қолдары	-10.3023
▁жәндікт	-10.3028
▁үкіметі	-10.3031
▁түзе	-10.304
▁Пластикт	-10.304
▁іздеген	-10.3044
▁толықт	-10.3045
амаша	-10.3068
▁қабатты	-10.3073
le	-10.3083
▁Фу	-10.3096
▁айғай	-10.3101
▁бұр	-10.3107
▁суретші	-10.3109
▁өнерін	-10.311
▁кит	-10.3121
▁ұйықтай	-10.3127
▁әдісті	-10.3135
▁тарады	-10.3138
▁әкелді	-10.3143
▁арыл	-10.3144
▁сезімдерді	-10.3144
▁қалса	-10.316
ил	-10.3162
▁биле	-10.3165
реді	-10.3169
▁сабақтарын	-10.3171
▁По	-10.3174
▁мәселесін	-10.3182
▁0	-10.3184
▁келме	-10.3187
енді	-10.3195
▁алас	-10.32
▁түсінбей	-10.3201
ықтар	-10.3206
▁үдерісте	-10.3208
▁асуы	-10.3223
▁міндетін	-10.3226
▁Картада	-10.3232
еттерді	-10.3241
▁пікірі	-10.3242
▁ретте	-10.3243
иіл	-10.3243
аулы	-10.3248
▁аула	-10.3254
▁Ша	-10.3258
▁мыс	-10.326
▁төсекте	-10.326
▁өлшей	-10.3263
лмай	-10.3263
ушылық	-10.3272
▁үстіне	-10.3281
▁тұрғындарды	-10.3285
▁үшеуі	-10.3286
лика	-10.3286
▁білік	-10.3288
▁мазала	-10.3289
▁әріп	-10.3292
▁пла	-10.33
▁бағдарламалары	-10.3309
ры	-10.332
▁барды	-10.333
▁мағынасы	-10.3331
▁азай	-10.3336
мпа	-10.3338
▁ауқым	-10.334
▁ха	-10.3351
,	-10.3355
асында	-10.3357
еу	-10.3362
▁қау	-10.3365
▁бөлшегін	-10.3366
анысқаным	-10.3367
▁пікірлер	-10.3368
▁тәжірибеміз	-10.337
▁ұшу	-10.3387
▁жүзде	-10.3391
▁тиі	-10.3392
▁таңғалдыр	-10.3408
су	-10.3418
▁орнаты	-10.3422
▁қаш	-10.3424
ель	-10.343
▁тұрақты	-10.3438
шылық	-10.344
▁күресу	-10.3441
▁қабат	-10.3445
▁Болашақт	-10.3458
▁белсенділігі	-10.3461
▁достар	-10.3477
▁қасиеттері	-10.3479
асы	-10.3482
клин	-10.3485
▁рах	-10.3493
пат	-10.3506
▁тұрғаным	-10.3521
be	-10.3524
▁шерте	-10.3528
▁бейнелен	-10.3536
▁еңбек	-10.3536
▁Өзіңізді	-10.3538
▁дауыст	-10.3548
таны	-10.3557
▁атала	-10.356
▁аяғына	-10.3561
▁Нейро	-10.3563
ңырау	-10.3566
ақысын	-10.3567
▁берер	-10.3572
▁жатқандар	-10.3584
▁аспа	-10.3589
▁дауыл	-10.3594
▁жасаймы	-10.3609
▁айналамыз	-10.3612
ездейсоқ	-10.362
ңізді	-10.3622
▁жасым	-10.364
▁ұмыта	-10.3648
сіне	-10.3652
ро	-10.3653
▁түсінбе	-10.3658
▁Жылда	-10.3665
▁Екіншісі	-10.3669
▁сөзін	-10.3679
▁кей	-10.368
▁сынақта	-10.3683
▁жағдайын	-10.3687
▁айры	-10.3694
▁ақшам	-10.3702
инг	-10.3706
▁ормандар	-10.3709
қай	-10.3722
▁қабы	-10.3727
▁әдістеме	-10.3729
▁орал	-10.3749
калық	-10.3756
▁сканерлеу	-10.376
▁арттыра	-10.3763
▁жүріс	-10.3764
▁көршілер	-10.3768
ирек	-10.3768
арының	-10.377
шық	-10.3773
▁ести	-10.3781
in	-10.3781
ғыз	-10.3801
▁жетістіктерін	-10.3808
▁үнде	-10.3814
▁жарақат	-10.3829
▁отыру	-10.3837
▁ауыс	-10.3839
▁саламы	-10.3844
▁ая	-10.3851
▁шешіл	-10.3854
▁тілде	-10.3858
▁мектепт	-10.3863
▁псих	-10.3885
па	-10.3886
сте	-10.3894
▁жеңу	-10.3905
▁Музыканы	-10.3911
ландия	-10.3912
▁сұрай	-10.3913
имал	-10.3914
▁жүрегі	-10.3929
▁Балалы	-10.3934
гіне	-10.3943
▁Оқи	-10.3947
▁күйзеліст	-10.3948
▁жөнін	-10.3956
кей	-10.3958
▁көрсеткіші	-10.3979
▁бөлісуді	-10.3989
суы	-10.4002
▁шығармашылықты	-10.4005
▁кре	-10.4006
▁қабілеттер	-10.4007
▁тарихын	-10.4008
немі	-10.4016
▁келгені	-10.4045
▁атау	-10.4045
▁тық	-10.4045
аты	-10.4054
▁алсаңыз	-10.4054
▁майда	-10.4058
▁бізд	-10.4061
ымдар	-10.4078
▁анықтады	-10.4104
ларының	-10.4106
ауға	-10.4106
йынша	-10.4113
▁жері	-10.4117
астапқы	-10.4131
нген	-10.415
▁жазуын	-10.4155
▁Өмірде	-10.416
▁ұмыт	-10.416
▁үкімет	-10.4163
▁бары	-10.4183
▁деңгейде	-10.4186
▁қабылдады	-10.4189
▁алмаса	-10.4192
▁өтке	-10.4194
▁маң	-10.4195
▁айтқаны	-10.4204
▁сендер	-10.4208
▁тудыра	-10.421
▁Еуропада	-10.4221
▁тір	-10.4222
ларым	-10.423
▁көрінбей	-10.4232
енде	-10.4235
ліс	-10.4235
▁түріне	-10.4237
▁нәтижелерін	-10.4244
▁мұнара	-10.4253
▁Мектеп	-10.4268
▁аймағы	-10.4275
▁байла	-10.4279
егін	-10.428
▁терең	-10.4288
рының	-10.4293
ари	-10.4309
▁отырғызыл	-10.4323
▁эк	-10.4325
▁білімі	-10.4332
▁істесе	-10.4335
▁Л	-10.4339
▁ойлан	-10.4341
▁Алдым	-10.4352
▁күйзел	-10.4353
ре	-10.4356
маймы	-10.4356
▁болашағы	-10.4363
▁штат	-10.4371
▁ашыл	-10.4384
▁құрылғылар	-10.4405
▁Пар	-10.4407
er	-10.4416
▁студенттері	-10.4418
▁жау	-10.4419
▁айналас	-10.4419
▁сыныпт	-10.4419
істік	-10.4422
▁кезек	-10.4424
▁көмектеспе	-10.4427
ңіздер	-10.4431
три	-10.4432
▁мәселелерді	-10.4447
▁сүруін	-10.4452
▁қолы	-10.4454
▁кеңесім	-10.4456
уып	-10.4458
▁басыл	-10.4463
они	-10.4485
қатер	-10.4487
▁600	-10.4511
сима	-10.453
ені	-10.4534
ама	-10.4553
▁мәліметт	-10.4555
▁таным	-10.4557
▁ты	-10.457
ндегі	-10.457
▁дарын	-10.4584
▁бөлісемі	-10.4602
▁нәтижелер	-10.4632
шта	-10.4651
ыр	-10.4668
▁ауруы	-10.4676
улан	-10.4689
▁тірке	-10.4707
▁мүмкіндігін	-10.4708
▁мезет	-10.4711
▁бауды	-10.4715
қайда	-10.4726
▁Музыка	-10.4729
▁Ойла	-10.4735
▁тіс	-10.4749
▁жуы	-10.4755
▁Өмірімд	-10.476
езімде	-10.4767
▁күйзеліс	-10.4768
▁топырақта	-10.4775
▁мәліметтері	-10.4784
▁тұжырымдар	-10.4787
рд	-10.4791
▁көтері	-10.48
▁ұ	-10.4801
спейтін	-10.4801
▁жы	-10.4803
▁Жас	-10.4809
▁Өзіңіз	-10.481
▁раз	-10.4812
▁аласы	-10.4817
▁жарақатт	-10.4822
ызды	-10.4825
йт	-10.4835
▁өзгеріст	-10.4838
▁жобалары	-10.4838
мі	-10.4839
▁өлше	-10.4841
▁пайызына	-10.4853
▁Интернет	-10.4856
▁Иса	-10.4857
▁ра	-10.4865
▁сары	-10.4879
▁қойы	-10.4887
ne	-10.4887
▁пәндер	-10.4887
▁басқар	-10.4892
он	-10.4898
▁сканерлеуді	-10.4901
хана	-10.4903
▁білгім	-10.4917
▁талқылады	-10.492
▁про	-10.492
▁беруде	-10.4921
▁үдеріс	-10.4933
▁әдістемені	-10.4938
▁Жапонияны	-10.4938
▁қаласа	-10.4942
алық	-10.4944
▁келіңіз	-10.4945
ин	-10.4945
▁университет	-10.4947
▁картасы	-10.4947
▁сипат	-10.4949
▁оят	-10.4963
▁өнері	-10.4977
▁түсінбеді	-10.4984
▁естимі	-10.4992
▁иесін	-10.5
ететінін	-10.5004
▁құтқару	-10.5008
кте	-10.5014
▁сөзбе	-10.5022
▁жүрек	-10.5026
▁сон	-10.5026
▁жүйені	-10.5033
▁біразы	-10.5043
▁құрды	-10.505
▁Кө	-10.5051
▁жалғасы	-10.5051
фит	-10.506
▁күнін	-10.5062
асына	-10.5066
▁дән	-10.5068
▁ескір	-10.5068
ылық	-10.5069
мек	-10.507
▁Ку	-10.5092
▁эт	-10.5099
▁жағын	-10.5105
қыр	-10.5105
әж	-10.5108
▁болс	-10.5111
▁атым	-10.5112
▁пайдасы	-10.5128
▁беті	-10.515
▁қасиетін	-10.5157
▁на	-10.516
уд	-10.5179
10	-10.5181
▁жерінде	-10.5185
дерде	-10.5185
ынша	-10.5205
▁дәстүр	-10.5208
▁алмас	-10.5208
▁кейбіреу	-10.5211
▁Ағашт	-10.5212
b	-10.5215
дау	-10.5216
▁қаза	-10.5227
▁қалдыру	-10.523
▁Бас	-10.523
▁бейімде	-10.5233
сым	-10.5234
▁жалда	-10.524
▁жей	-10.5241
▁ақы	-10.5245
▁еті	-10.5252
▁Үйрен	-10.5262
▁үйлерді	-10.5265
▁тоқт	-10.527
еттің	-10.5283
еп	-10.5286
ларда	-10.529
▁қателік	-10.5297
ққан	-10.5299
ализ	-10.5308
▁күрделен	-10.5324
лмауы	-10.5329
▁менде	-10.533
▁Ішін	-10.5331
▁қон	-10.5336
▁сөздерд	-10.5365
оза	-10.5381
▁бетін	-10.5382
▁Түрл	-10.5387
▁көрсе	-10.5388
▁денесі	-10.5391
▁болжам	-10.5393
▁қосылма	-10.5397
▁нәтижені	-10.5398
▁Сон	-10.5407
▁сезімде	-10.5432
▁Сына	-10.5433
▁ортасы	-10.5441
мби	-10.5441
▁ұнатамы	-10.5442
▁туы	-10.5449
▁сү	-10.5458
▁түсе	-10.5461
▁аяқты	-10.5463
бестік	-10.547
▁тая	-10.5475
арапат	-10.5475
▁тазала	-10.5476
месі	-10.5476
▁Мұн	-10.5481
аймыз	-10.5487
бор	-10.5501
▁жатырмы	-10.5515
▁орталық	-10.5517
▁компанияны	-10.5518
ңдер	-10.5519
▁Карта	-10.552
ип	-10.5528
▁Қо	-10.5537
▁белгіле	-10.554
▁күйеуім	-10.5541
▁шатасты	-10.5545
өзі	-10.5579
▁Қытайда	-10.5585
тхана	-10.5587
▁бөліктерін	-10.5602
▁болуына	-10.5623
▁нұсқа	-10.5631
▁мәдениетін	-10.5632
фи	-10.564
▁сынақ	-10.5644
неді	-10.5649
▁орманда	-10.5656
▁өзгертк	-10.5658
▁бағдарламаны	-10.566
▁жоспары	-10.5663
▁Ақыр	-10.5667
▁көтерілі	-10.5676
▁айналдырды	-10.5683
▁түйін	-10.5684
▁пән	-10.5701
▁арманы	-10.5706
дыңыз	-10.5723
▁берейі	-10.5726
▁оқуын	-10.5727
уші	-10.5727
▁бұрыл	-10.573
▁санама	-10.5732
▁жүргізе	-10.5737
▁бөлім	-10.574
▁сабақтар	-10.5745
▁әлемде	-10.5762
▁Ақыры	-10.5763
сетін	-10.5774
ымыздағы	-10.5783
▁үсті	-10.5794
дері	-10.5806
ымызда	-10.5807
▁қолдануды	-10.581
ылыс	-10.581
▁атап	-10.5812
▁білуі	-10.5816
▁компьютерді	-10.5817
▁қадағала	-10.5821
▁Ха	-10.5828
ымын	-10.5833
ов	-10.5833
▁күті	-10.5835
▁салыстыру	-10.5836
▁шаш	-10.5843
▁айналдыра	-10.5843
▁қалғанда	-10.5846
▁санақ	-10.585
ілерді	-10.5851
пе	-10.5857
атив	-10.5858
▁Ск	-10.586
ве	-10.586
▁үшеуін	-10.5875
▁жел	-10.5894
▁сыр	-10.5895
рлық	-10.5899
▁Жауап	-10.5905
▁ойлайм	-10.5913
▁көмектесемі	-10.5921
▁кемі	-10.5923
мақты	-10.5923
▁шындықт	-10.5926
▁атама	-10.5927
▁долларды	-10.5931
▁жолда	-10.5933
▁айналасын	-10.5935
▁желі	-10.5948
▁дүниені	-10.595
яды	-10.5954
▁орнат	-10.5958
▁қалыпта	-10.5962
▁Түп	-10.5962
▁ит	-10.5992
рыңыз	-10.6006
кісі	-10.6007
▁ісі	-10.6007
тайды	-10.6023
мені	-10.6024
▁өнімдер	-10.603
▁сақ	-10.6035
анттар	-10.6036
▁Кішкен	-10.6047
імде	-10.6051
▁тигіз	-10.6054
пті	-10.6055
▁қалмай	-10.606
▁тө	-10.6062
▁дәстүрі	-10.6064
▁алармы	-10.6067
▁үйсіз	-10.6082
▁рөл	-10.6083
темін	-10.6087
▁Таң	-10.6092
▁Осын	-10.6096
нше	-10.61
▁Аяғ	-10.6105
▁қылы	-10.6112
▁қалыптас	-10.6113
ун	-10.613
▁айында	-10.6136
рында	-10.614
▁үйлен	-10.6144
▁Американы	-10.6146
форма	-10.6161
▁жатса	-10.6167
▁шағы	-10.6188
▁құралдары	-10.619
▁Оқу	-10.6194
▁санын	-10.6199
ыш	-10.6199
▁Қорқыныш	-10.62
▁түсу	-10.6201
▁жаттығ	-10.6213
▁дағды	-10.622
▁жетуді	-10.6222
лекст	-10.6227
ум	-10.623
▁мұ	-10.6231
ис	-10.6233
▁жоқты	-10.6248
▁көзін	-10.6259
▁сөздері	-10.6259
▁жеу	-10.6263
лысқан	-10.6276
▁көруім	-10.6279
▁ұғ	-10.628
▁біріктіре	-10.6281
▁жетілдіре	-10.6286
▁Бол	-10.6299
▁үйрет	-10.6302
деп	-10.6304
▁бастаймы	-10.6304
▁сандар	-10.631
▁төмендет	-10.6313
▁әлемі	-10.6317
▁білімім	-10.6319
▁бағыттал	-10.6321
▁болатындығы	-10.6341
▁статистиканы	-10.6341
пайтын	-10.6343
тандыр	-10.6345
си	-10.6347
лайды	-10.6348
▁суреттерін	-10.635
▁ұмыты	-10.6352
▁бұрыш	-10.6352
ңді	-10.636
▁біртүрлі	-10.6361
▁көшті	-10.6366
аттық	-10.6369
▁кем	-10.6387
▁Па	-10.6389
▁үйім	-10.6413
сымен	-10.642
татын	-10.6431
ул	-10.6438
▁сим	-10.6447
▁мамандығы	-10.6458
▁қиыны	-10.6464
▁қолданыла	-10.6465
▁ұр	-10.6466
▁Тү	-10.6468
▁қадамы	-10.6475
▁жылд	-10.6488
▁пи	-10.649
алуына	-10.6496
қия	-10.6502
▁Боснияда	-10.6503
тендір	-10.6507
▁ойлары	-10.6507
дығы	-10.6514
▁ем	-10.6521
▁үйіне	-10.6523
ндық	-10.6529
▁қойма	-10.6557
▁қызметі	-10.6568
▁синдромы	-10.6575
ағын	-10.6577
ир	-10.6577
қталған	-10.6581
▁ұсыны	-10.6582
▁қағида	-10.6586
рин	-10.6593
▁ортаны	-10.6599
▁40	-10.6602
ермен	-10.6604
деріне	-10.6604
▁мот	-10.6619
▁кә	-10.6623
мауы	-10.664
▁беруі	-10.664
түсті	-10.6641
▁сүйен	-10.6643
▁рақымдылық	-10.6645
▁жұмыстары	-10.6658
▁ажыра	-10.6667
қабатты	-10.6674
▁түсінікт	-10.6679
шама	-10.6686
,000	-10.6689
▁қаласы	-10.6693
▁кітабым	-10.6695
С	-10.6698
▁хо	-10.6698
▁Таб	-10.6703
бек	-10.671
▁Мақсатым	-10.671
▁Ту	-10.6714
ub	-10.6714
▁мекеме	-10.6722
19	-10.6742
▁Сенің	-10.6742
▁198	-10.6743
ныма	-10.6744
быр	-10.6763
И	-10.6764
▁батпырауық	-10.6766
Т	-10.6771
▁желілер	-10.6775
▁қата	-10.678
қабат	-10.6785
Ф	-10.6786
ығы	-10.6787
емес	-10.6795
жек	-10.6796
мдерді	-10.6797
Қ	-10.6797
▁сөйлесе	-10.6802
▁жария	-10.6803
таныс	-10.6812
▁жартысы	-10.6813
▁өшірі	-10.6814
▁ота	-10.6819
жат	-10.6819
скен	-10.6821
сіздік	-10.6823
▁кедергілерд	-10.6829
ылтыр	-10.6829
рмасын	-10.683
айып	-10.6839
жылдық	-10.6844
Ә	-10.6844
▁автор	-10.6848
сат	-10.6855
▁ағашт	-10.6857
▁балық	-10.6857
▁Британ	-10.6861
▁өтін	-10.6862
йда	-10.6869
Ж	-10.6871
▁мазалай	-10.6874
▁алаң	-10.6874
▁әзірле	-10.6884
сқа	-10.6895
▁логика	-10.6898
бра	-10.6899
тыр	-10.6903
▁мансабы	-10.6907
▁солар	-10.6907
тарыңыз	-10.6909
ілім	-10.6909
▁Әй	-10.6914
спу	-10.6921
рылыс	-10.6924
шік	-10.6925
▁саласы	-10.693
▁ылғ	-10.6934
▁қансыра	-10.6936
дейсіз	-10.694
▁жоғар	-10.694
едел	-10.6948
▁байқай	-10.6948
▁ұлын	-10.6955
▁Роб	-10.6962
▁сәуле	-10.6967
▁тұжырым	-10.6969
▁сенбе	-10.697
▁танысты	-10.6974
дігіне	-10.6975
▁Құд	-10.6976
▁Идея	-10.6977
▁алатыным	-10.6983
▁мә	-10.6984
тура	-10.6986
▁жағдайд	-10.699
▁маза	-10.6991
дарының	-10.7008
▁ересек	-10.701
▁түзету	-10.7026
▁пікірін	-10.7026
▁пыс	-10.7026
▁пернесі	-10.7029
терде	-10.7035
▁үстем	-10.7037
аны	-10.7043
▁саяхат	-10.7044
▁Сараево	-10.7045
▁символ	-10.7046
▁жағажай	-10.7046
▁азамат	-10.705
тник	-10.7053
▁құжат	-10.7055
вад	-10.7056
▁екеу	-10.7062
үйді	-10.7064
мшесі	-10.7064
▁британ	-10.7066
▁айға	-10.7066
▁тінтуір	-10.7066
▁толығ	-10.7077
▁Мар	-10.7079
сон	-10.7079
▁ресурс	-10.7083
ст	-10.7086
▁Жапон	-10.7087
▁жанашыр	-10.7092
▁сауатты	-10.7092
▁Табиғ	-10.7093
ауалнама	-10.7099
гур	-10.7102
▁тере	-10.7102
ридж	-10.7102
▁америка	-10.7103
▁орналас	-10.7103
▁сыныбы	-10.7105
ұх	-10.7106
▁әрқайсы	-10.7106
омпьютер	-10.7107
ұсылмандар	-10.7108
бетте	-10.7108
▁сөндіру	-10.7109
▁ғалым	-10.711
өпшілігіміз	-10.711
▁түзет	-10.7111
околад	-10.7111
ездескен	-10.7112
▁көршілерім	-10.7114
▁сілкін	-10.7114
▁опера	-10.7115
▁мейірімді	-10.7115
▁жануар	-10.7115
orld	-10.7115
▁Крузеро	-10.7115
▁магнит	-10.7115
▁фабрика	-10.7115
▁шұғыл	-10.7115
▁Зерттеу	-10.7115
▁Капитан	-10.7115
▁Кәсіби	-10.7115
▁Уақыт	-10.7115
▁жәшігін	-10.7115
▁инжинери	-10.7115
▁модельд	-10.7115
▁мұқабаларын	-10.7115
▁нәпілдер	-10.7115
▁саусақтар	-10.7115
▁тұңғиы	-10.7115
▁философ	-10.7115
Леоне	-10.7115
▁Андерсон	-10.7115
▁Архитектура	-10.7115
▁Бангладеш	-10.7115
▁Бағдат	-10.7115
▁Бритни	-10.7115
▁Весслинг	-10.7115
▁График	-10.7115
▁Дүние	-10.7115
▁Журнал	-10.7115
▁Клиенттер	-10.7115
▁Либерия	-10.7115
▁Лондон	-10.7115
▁Маймыл	-10.7115
▁Нигерия	-10.7115
▁Нүкте	-10.7115
▁Презентация	-10.7115
▁Уайымдама	-10.7115
▁Уашиңтон	-10.7115
▁Украинада	-10.7115
▁Чернобыль	-10.7115
▁бұғатталған	-10.7115
▁вирус	-10.7115
▁диплом	-10.7115
▁дөңгеле	-10.7115
▁жауапкершілігін	-10.7115
▁империя	-10.7115
▁инвестиция	-10.7115
▁интерфейсін	-10.7115
▁критерий	-10.7115
▁күйгелекті	-10.7115
▁күлімсіре	-10.7115
▁лингвистер	-10.7115
▁менменшілді	-10.7115
▁метафора	-10.7115
▁новелла	-10.7115
▁нәски	-10.7115
▁оптимист	-10.7115
▁президент	-10.7115
▁редакторы	-10.7115
▁серіктес	-10.7115
▁спонсор	-10.7115
▁схема	-10.7115
▁сценарий	-10.7115
▁утопия	-10.7115
▁цунами	-10.7115
▁шынықтыру	-10.7115
▁шұлықты	-10.7115
▁ығыстыр	-10.7115
▁эмоция	-10.7115
▁қызметкерлері	-10.7115
▁өркениетті	-10.7115
▁Таити	-10.7115
▁диагностика	-10.7115
▁немерелер	-10.7115
▁скайп	-10.7115
▁фермалар	-10.7115
▁қылмыс	-10.7115
опедия	-10.7115
▁Бақылау	-10.7115
▁Достарым	-10.7115
▁Көңіл	-10.7115
▁Принсип	-10.7115
▁Сенсорл	-10.7115
▁Серуенде	-10.7115
▁Сингапур	-10.7115
▁Уэльст	-10.7115
▁Химия	-10.7115
▁Швейцария	-10.7115
▁Эстония	-10.7115
▁Ясмин	-10.7115
▁аналог	-10.7115
▁ақиқат	-10.7115
▁бейформал	-10.7115
▁гамбургер	-10.7115
▁гитара	-10.7115
▁гормон	-10.7115
▁денсаулығы	-10.7115
▁дереккөз	-10.7115
▁еуропалық	-10.7115
▁замандастары	-10.7115
▁менеджмент	-10.7115
▁микроскоп	-10.7115
▁мотоциклд	-10.7115
▁нәсілді	-10.7115
▁сұқбат	-10.7115
▁текетірес	-10.7115
▁тропик	-10.7115
▁тәрбие	-10.7115
▁уағызда	-10.7115
▁функция	-10.7115
▁ілгерілеуд	-10.7115
▁қарсыласым	-10.7115
▁қисынсыз	-10.7115
▁құдайылық	-10.7115
▁Әріптестерім	-10.7115
▁Дәрістер	-10.7115
▁Дөңгеле	-10.7115
▁стерилде	-10.7115
▁түтікше	-10.7115
▁іріктей	-10.7115
▁Қуаныш	-10.7115
▁Ивуар	-10.7115
▁аяттарын	-10.7115
▁икона	-10.7115
▁мердігер	-10.7115
▁радикал	-10.7115
▁синтезде	-10.7115
▁топтастыр	-10.7115
▁қалжыңда	-10.7115
▁қорабын	-10.7115
▁Бурхан	-10.7115
▁жарнама	-10.7115
▁спектометрия	-10.7115
▁Жағдай	-10.7115
▁артерия	-10.7115
▁заряды	-10.7115
ляция	-10.7115
▁Викториандықтар	-10.7115
▁диабет	-10.7115
▁жабыстыр	-10.7115
▁нөсер	-10.7115
▁тоқырауда	-10.7115
климат	-10.7115
▁хуту	-10.7115
▁экзо	-10.7115
▁ластану	-10.7115
▁әріптестікті	-10.7115
▁батарея	-10.7115
▁денсаулықт	-10.7115
▁табақшалард	-10.7115
▁маркетинг	-10.7115
▁баспагерлер	-10.7115
▁ілгері	-10.7115
▁Жасуша	-10.7115
▁Онлайн	-10.7115
▁Ұялы	-10.7115
▁Канада	-10.7115
▁есеңгіре	-10.7115
▁өлкең	-10.7115
▁жалаңа	-10.7115
▁таралым	-10.7115
кшелі	-10.7115
▁жұбаныш	-10.7115
sh	-10.7115
▁ызалан	-10.7115
▁қысқартты	-10.7115
▁прототип	-10.7116
▁Өзгелер	-10.7116
eader	-10.7116
▁БАҚ	-10.7116
▁мәңгі	-10.7116
▁постер	-10.7116
утболка	-10.7116
▁Асма	-10.7116
▁Дизайнерлер	-10.7116
▁иемден	-10.7116
▁кіргіз	-10.7116
▁күшейт	-10.7116
▁қозғалатындар	-10.7116
▁Гелл	-10.7116
▁ілмек	-10.7116
▁келекеле	-10.7116
▁рақаттан	-10.7116
▁құнарл	-10.7116
▁Топырақ	-10.7116
▁семіздік	-10.7116
▁ымыра	-10.7116
▁батыл	-10.7116
▁термин	-10.7116
▁өтініш	-10.7116
▁фотоаппарат	-10.7116
▁әлеуеті	-10.7116
▁құлшыныс	-10.7116
▁Швец	-10.7116
ack	-10.7116
▁ақымақтық	-10.7116
▁оператор	-10.7116
▁қуғын	-10.7116
онахтар	-10.7116
▁ұлғая	-10.7116
▁биотехнология	-10.7116
▁Үздік	-10.7116
▁клип	-10.7116
▁әуре	-10.7116
▁шөптер	-10.7116
▁қаңтард	-10.7116
▁Лука	-10.7116
▁музей	-10.7116
▁әдепсіз	-10.7116
▁сыныптастар	-10.7116
▁желкен	-10.7116
▁Эфиопия	-10.7116
▁тазарту	-10.7116
▁лақтыра	-10.7116
▁түйсікт	-10.7116
▁қатысушыларды	-10.7116
▁режим	-10.7116
▁Tree	-10.7116
▁тангенсі	-10.7116
▁Шешім	-10.7116
▁қарттар	-10.7116
▁септесе	-10.7116
▁Серіктестік	-10.7117
▁соғыспайтын	-10.7117
▁энерге	-10.7117
▁Биікті	-10.7117
▁қалтафон	-10.7117
▁депрессия	-10.7117
▁ешнәрсе	-10.7117
▁Физика	-10.7117
▁тілшілер	-10.7117
▁саясаткерлер	-10.7117
▁Go	-10.7117
▁апаттар	-10.7117
▁Ках	-10.7117
▁императ	-10.7117
▁қасапшы	-10.7117
▁Архитектор	-10.7117
▁оюлар	-10.7117
▁ойыншық	-10.7117
▁Өрмек	-10.7117
▁пернелерін	-10.7117
▁Лидер	-10.7117
▁Пікірлер	-10.7117
▁қорыққан	-10.7117
▁балшық	-10.7117
▁Жазба	-10.7117
▁тазалаймыз	-10.7117
▁ғаламшард	-10.7117
▁ұйқыда	-10.7118
▁Оқырмандар	-10.7118
▁жедел	-10.7118
▁мүмкіншілігі	-10.7118
▁Тибет	-10.7118
▁Джей	-10.7118
▁жаңашылдық	-10.7118
▁Кешір	-10.7118
▁шолу	-10.7118
▁Ерте	-10.7118
▁кемшілік	-10.7118
▁ЖКО	-10.7118
▁ерушілер	-10.7118
ендерім	-10.7118
▁баяула	-10.7118
▁ықыласым	-10.7118
▁көмірқышқыл	-10.7118
▁роботтар	-10.7118
▁түпнұсқа	-10.7118
▁Ресей	-10.7119
шықтарда	-10.7119
▁география	-10.7119
▁Туиттер	-10.7119
▁супер	-10.7119
il	-10.7119
▁романдағы	-10.7119
▁қарсылығы	-10.7119
▁қызметкері	-10.7119
nie	-10.712
▁Герман	-10.712
▁бітуін	-10.712
▁Бұрынғы	-10.712
▁Тіршілік	-10.712
▁100,000	-10.712
▁сипатталған	-10.712
▁Кином	-10.712
▁трансформ	-10.712
▁тутси	-10.7121
▁тәртіп	-10.7121
▁Сыртқ	-10.7121
▁сұлулығы	-10.7121
▁әскери	-10.7121
▁дымқыл	-10.7121
эль	-10.7121
валь	-10.7121
▁ұрпақтар	-10.7121
ульт	-10.7121
▁шабыттандыр	-10.7121
▁теже	-10.7121
▁жойыл	-10.7121
▁Қорқынышымыз	-10.7122
▁зона	-10.7122
▁америкалық	-10.7122
▁ауызашар	-10.7122
▁шығындарды	-10.7122
▁Соғыс	-10.7122
▁сұраныс	-10.7122
▁Қорша	-10.7122
▁қайыр	-10.7122
li	-10.7122
гация	-10.7123
▁бақытсыз	-10.7123
on	-10.7123
▁ерекшелігін	-10.7123
▁метеор	-10.7123
▁халал	-10.7124
▁жабайы	-10.7124
▁сенбейтін	-10.7124
▁ортақтас	-10.7124
▁кездеспейді	-10.7124
▁стратегия	-10.7124
▁қамау	-10.7124
▁суфизм	-10.7124
▁қанаттары	-10.7124
▁балабақша	-10.7124
▁әсем	-10.7124
▁сапарлары	-10.7124
▁сызба	-10.7124
▁спорт	-10.7125
▁Ақша	-10.7125
▁табылатын	-10.7125
▁талпыныс	-10.7125
▁сөйлейтіндер	-10.7125
▁Елиас	-10.7126
▁сыныбымыз	-10.7126
▁бөтелке	-10.7126
▁қазына	-10.7127
▁невролог	-10.7127
▁әрқайсымыз	-10.7127
▁ойлайсың	-10.7127
ct	-10.7127
ap	-10.7127
▁жоғалтқан	-10.7127
▁бүлдіршіндер	-10.7128
ead	-10.7128
▁Бридж	-10.7128
▁Кесте	-10.7128
▁өкініш	-10.7128
▁келешек	-10.7128
▁секіру	-10.7129
▁қауымдар	-10.7129
▁Газеттер	-10.713
▁тіркестер	-10.713
▁айналғанын	-10.713
▁үйіріл	-10.713
▁келісетін	-10.713
▁еститін	-10.713
▁иіс	-10.713
▁біріктіретін	-10.713
▁байқайсыз	-10.713
▁ыдыс	-10.713
сыздығы	-10.7131
▁көтеретін	-10.7131
▁сүретін	-10.7131
▁жұмсайтын	-10.7131
▁маймыл	-10.7131
▁залда	-10.7131
ta	-10.7131
▁пә	-10.7132
▁тартсаңыз	-10.7132
▁Мәс	-10.7132
▁Жұмысым	-10.7132
езгіл	-10.7132
▁куәгер	-10.7132
▁қыдыр	-10.7133
▁қауым	-10.7133
▁Тұрғы	-10.7133
▁енгізіңіз	-10.7133
▁агенттік	-10.7133
▁шатастырма	-10.7133
▁маск	-10.7134
▁шомы	-10.7135
▁ұрына	-10.7136
▁тұзақ	-10.7136
▁комп	-10.7136
▁көршілеріміз	-10.7136
стерині	-10.7136
▁сеніміміз	-10.7137
ейбітшілік	-10.7137
малдан	-10.7138
▁тыңдаймыз	-10.7138
▁сандыра	-10.7139
▁Іс	-10.7139
▁жанашырлық	-10.7139
енбеу	-10.7139
▁іздері	-10.7139
▁кепіл	-10.7139
▁сұрайсыз	-10.714
▁Әдеттегі	-10.7141
,5	-10.7141
▁ғимараттарды	-10.7141
▁сұл	-10.7143
▁көбейген	-10.7143
▁кезеңінде	-10.7144
▁етуіміз	-10.7144
▁қуатты	-10.7144
▁көресіздер	-10.7144
▁галер	-10.7146
▁тарақандар	-10.7147
▁жеткізуші	-10.7148
▁қиялымыз	-10.7148
▁жапондық	-10.7148
▁Ион	-10.7148
▁Чарл	-10.7148
▁артықшылығы	-10.7148
▁жазушылар	-10.7149
▁Инд	-10.715
om	-10.715
▁Фил	-10.7151
▁жаралан	-10.7152
▁табиғатымыз	-10.7152
офо	-10.7152
▁хи	-10.7152
▁теле	-10.7152
▁әдеттер	-10.7153
сіре	-10.7154
▁төбе	-10.7154
▁ұстаным	-10.7155
▁тоқтатамыз	-10.7155
▁үстел	-10.7155
▁меңгеру	-10.7156
аулаушы	-10.7157
▁қоғамымыз	-10.7157
атқанымыз	-10.7157
▁ұя	-10.7158
▁автомат	-10.7158
▁экономикасы	-10.7159
Анджелесте	-10.716
▁Басқалар	-10.7161
▁шеңбері	-10.7161
▁тартады	-10.7161
▁жақсартатынын	-10.7162
▁Гана	-10.7163
▁1800	-10.7164
▁мамандар	-10.7164
▁тінтуірмен	-10.7164
▁қорқынышымыз	-10.7165
CS	-10.7168
▁зерттеуіміз	-10.7168
гун	-10.7168
▁орындалады	-10.7169
▁кеңсеміз	-10.717
▁капитан	-10.717
▁ілін	-10.717
▁ілімі	-10.7171
▁ұрла	-10.7171
▁тудырған	-10.7171
▁айтқанымыз	-10.7171
уыңыз	-10.7172
▁ұстаздарымыз	-10.7173
▁өсінділер	-10.7174
▁бейнет	-10.7175
▁Өздерің	-10.7175
▁БА	-10.7175
▁пәтер	-10.7176
▁шекарасын	-10.7178
▁Блогымызд	-10.7179
▁іздедім	-10.7179
цияны	-10.7181
▁мұнда	-10.7182
▁тастағанда	-10.7182
▁қызыққан	-10.7184
уырда	-10.7184
▁бастайтыным	-10.7184
▁жағажайд	-10.7185
▁Бра	-10.7185
▁құрылуы	-10.7185
абақ	-10.7186
▁тыңдаушы	-10.7186
▁белгісіз	-10.7187
жолдар	-10.7188
▁өткенім	-10.7188
▁көрінген	-10.7192
екс	-10.7192
▁Ив	-10.7192
▁құжаттары	-10.7193
▁қалаларды	-10.7193
ментті	-10.7194
▁жемей	-10.7194
▁тұрақтылығы	-10.7194
▁отбасымыз	-10.7195
тігін	-10.7196
▁авторлары	-10.7196
▁болашағымыз	-10.7197
▁дінім	-10.7197
▁жуығы	-10.7198
ассета	-10.7199
▁қойылым	-10.7199
лестіру	-10.72
рифм	-10.72
үңілгеніңіз	-10.7201
▁ойласаңыз	-10.7201
▁Кедейлігі	-10.7202
нституты	-10.7203
▁қаупі	-10.7207
▁болмасын	-10.7207
▁мор	-10.7208
▁прото	-10.7208
▁айтыңыз	-10.7209
▁сөрелер	-10.7211
▁11-	-10.7211
▁естеліктер	-10.7212
▁жақсарта	-10.7212
▁кездесуім	-10.7213
▁ауырады	-10.7213
▁Қалған	-10.7214
▁фунт	-10.7215
▁үйінді	-10.7216
ауды	-10.722
▁парта	-10.7222
ой	-10.7223
▁сопылар	-10.7225
▁обыр	-10.7227
▁жатпа	-10.723
жылдар	-10.7235
▁индустри	-10.7237
▁жүктей	-10.7239
▁шарықтау	-10.7243
▁шалғ	-10.7244
еулі	-10.7245
анализ	-10.7245
▁жатырсың	-10.7247
▁Нев	-10.725
▁аяқкиімі	-10.7251
▁басқарма	-10.7253
▁G	-10.7254
▁игер	-10.7255
▁Идеялар	-10.7255
орап	-10.7256
▁жауын	-10.7257
▁болжамдар	-10.7258
▁шегі	-10.7258
▁әңгімесі	-10.7259
▁Латын	-10.7259
▁жабды	-10.7263
▁парақта	-10.7263
▁күнә	-10.7264
▁Тест	-10.7264
▁сәулесі	-10.7266
ызғаныш	-10.7266
жапсырма	-10.7267
▁күйге	-10.7269
▁ендірме	-10.7271
құйры	-10.7271
▁Түсір	-10.7272
▁идеясын	-10.7273
▁нұсқаул	-10.7274
6-	-10.7275
▁жіберу	-10.7275
▁қызметтері	-10.7277
ырлы	-10.7279
▁Мис	-10.7279
▁шалды	-10.728
▁дизайын	-10.728
▁жалғастырған	-10.7282
вер	-10.7282
екті	-10.7283
тпақ	-10.7285
▁әй	-10.7285
▁шегіне	-10.7286
▁бірлес	-10.7288
▁заттек	-10.7291
онте	-10.7291
▁ед	-10.7293
▁айналысатын	-10.7294
▁асатынын	-10.7295
▁заңды	-10.7296
таласпа	-10.7297
▁мұң	-10.7298
▁Еш	-10.7298
уылған	-10.7299
▁Испания	-10.7301
▁Рам	-10.7301
▁шатыр	-10.7304
сенбі	-10.7305
▁күткені	-10.7306
▁көпшілігіңіз	-10.7307
▁ұялған	-10.7307
ракты	-10.7307
алымдар	-10.7307
▁азап	-10.7308
▁тату	-10.731
▁үндемей	-10.7314
▁ойындар	-10.7319
▁есей	-10.7322
▁Ван	-10.7323
▁шынайылық	-10.7323
▁қонақүй	-10.7324
▁сезімдеріміз	-10.7325
▁бұры	-10.7326
▁әндер	-10.7327
▁кірісті	-10.7328
▁мансабыңыз	-10.733
▁Көкте	-10.733
▁елікте	-10.7331
▁Ирақта	-10.7332
летт	-10.7332
▁бағытт	-10.7334
▁парақшасын	-10.7339
сберг	-10.7339
▁алмастыр	-10.7339
▁жазылуын	-10.734
▁атаулары	-10.7351
▁Эк	-10.7351
▁мақсатты	-10.7356
▁ұйымдас	-10.7358
оби	-10.7362
▁түрлері	-10.7362
▁теңесті	-10.7362
▁нөмірін	-10.7366
▁Алтын	-10.7366
▁Түсінген	-10.7367
▁ұйымы	-10.7372
▁қолданды	-10.7374
▁басындағы	-10.7375
▁баура	-10.7376
▁қирау	-10.7388
▁әрекеттерд	-10.7388
шкі	-10.7394
▁жолымызд	-10.7396
▁үстеме	-10.7398
▁жаңарт	-10.74
натын	-10.7404
▁таныстыр	-10.7406
лдене	-10.7409
▁жасағаның	-10.7417
▁бұзба	-10.7418
▁шығарсыз	-10.742
▁соғы	-10.7425
▁Тас	-10.7427
▁толқындар	-10.7428
▁жанындағы	-10.7429
▁етке	-10.7431
▁жатқаны	-10.7434
ылт	-10.7435
▁қорқыныштар	-10.7435
бада	-10.7438
▁көретіндігі	-10.7442
▁науқастар	-10.7442
▁сүйсін	-10.7442
▁айлар	-10.7444
рург	-10.7445
▁Жарат	-10.7446
▁бәріңіз	-10.7447
шағы	-10.7453
▁аймақтар	-10.7461
▁Барлығың	-10.7466
▁жігіттер	-10.7466
▁шамын	-10.7469
▁эс	-10.7475
▁саясатын	-10.7477
▁иде	-10.7482
▁айтсаң	-10.7484
▁талға	-10.7484
▁ұлықта	-10.7495
дігіңіз	-10.7497
▁ұстау	-10.7503
есіздер	-10.7504
▁аяқтады	-10.7507
▁әуен	-10.7508
▁жеңді	-10.751
анаттары	-10.7511
коф	-10.7512
▁ашылу	-10.7512
▁газы	-10.7514
ина	-10.7516
▁дәлелдеу	-10.7519
▁дауылдарды	-10.752
▁ұқсау	-10.7528
ұғынды	-10.7529
▁маңыздылығы	-10.7531
▁айтқаным	-10.7538
▁тіреді	-10.754
▁Пол	-10.7542
▁бояды	-10.7546
▁дыбыстау	-10.755
▁қатыр	-10.755
дарыңыз	-10.755
▁аралдары	-10.7556
▁артуы	-10.756
▁ұстанған	-10.7561
▁7-	-10.7561
▁байлық	-10.7563
▁ұмытты	-10.7565
▁көшір	-10.7571
▁шекте	-10.7576
окус	-10.7576
▁құп	-10.7576
▁Зал	-10.7579
▁толтыр	-10.7581
▁тұрамы	-10.7588
▁қорған	-10.759
an	-10.7593
▁балықшы	-10.7595
лл	-10.7595
▁ырға	-10.7596
▁үйлесім	-10.7597
▁жарқы	-10.7597
▁пікірлес	-10.7602
▁құрай	-10.7604
▁штаттарында	-10.7609
▁қауымдастығы	-10.7616
▁жүрмі	-10.762
▁ци	-10.7622
▁бей	-10.7624
ттандыр	-10.7625
▁ұмыту	-10.7628
▁Мақала	-10.7629
▁Таңда	-10.763
аспа	-10.7631
▁көрсеткі	-10.7632
▁көшелерін	-10.7634
▁тұрғын	-10.7642
▁еткені	-10.7648
затты	-10.7652
▁Ұста	-10.7656
▁көзқарасым	-10.7661
лінде	-10.7661
▁шеккен	-10.7662
▁есту	-10.7664
▁испан	-10.7672
пына	-10.7673
▁Үрейіміз	-10.7673
▁гүлде	-10.7675
▁рейтингі	-10.7678
▁бақыт	-10.7681
▁синдромына	-10.7685
▁контенті	-10.7686
▁қараңғылық	-10.7687
▁кедергілер	-10.7689
▁салу	-10.7689
▁миы	-10.7692
▁шетіне	-10.7694
▁студентті	-10.7697
періште	-10.7698
птар	-10.7699
скіндер	-10.7702
есіңізде	-10.7703
ациентт	-10.7703
▁көрсетер	-10.7706
▁сілтемелер	-10.771
▁жем	-10.771
▁Жанын	-10.7715
▁кетер	-10.7717
▁теория	-10.7718
▁биыл	-10.7719
▁мұхитын	-10.7719
▁табиғатты	-10.772
лда	-10.7721
▁тіге	-10.7722
▁ұстай	-10.7724
▁Никол	-10.7724
іс	-10.7727
умб	-10.7728
▁туындысы	-10.7728
кемесінің	-10.7729
▁жобаларым	-10.7732
▁граф	-10.7734
рейік	-10.7735
▁Нәтижені	-10.7742
ам	-10.7743
▁1-	-10.7743
▁парақт	-10.7744
▁блогымд	-10.7744
▁шошы	-10.7746
▁Құс	-10.7747
▁жасушаларды	-10.7753
▁қалғандары	-10.7757
▁тапшылы	-10.7758
▁ауытқу	-10.7758
▁23	-10.776
▁Тыңдаңыз	-10.776
өрт	-10.7763
▁сене	-10.7765
▁ақау	-10.7771
▁фи	-10.7773
▁жылыну	-10.7773
▁ынталандыру	-10.7773
▁инфо	-10.7775
лек	-10.7781
игура	-10.7784
ркест	-10.7792
▁ұсынамы	-10.7793
▁әрекеттер	-10.7794
▁Тер	-10.7796
▁көшкен	-10.7798
ұрмысымызды	-10.7798
имп	-10.7799
▁айтпағ	-10.7802
▁қамти	-10.7802
▁түле	-10.7804
▁4-	-10.7806
▁қызғ	-10.781
▁Үйіміз	-10.781
▁мамандығын	-10.782
імі	-10.7822
▁діндер	-10.7825
▁Ти	-10.7829
▁тіріле	-10.7829
▁мәдениетт	-10.7831
▁өлшем	-10.7833
ізді	-10.7834
▁қайтару	-10.7834
▁педагогика	-10.7842
▁жалдама	-10.7849
▁Тайванды	-10.7854
өрес	-10.7857
▁желілерд	-10.7859
▁елестете	-10.7864
▁стандарты	-10.7869
▁бәс	-10.7873
▁әңгімелері	-10.7873
▁мерзім	-10.7873
▁Чи	-10.7874
▁Мәліметт	-10.7876
▁аралығы	-10.7887
▁ірі	-10.7888
▁курсын	-10.7891
▁құрлы	-10.7892
▁Сенімд	-10.7896
▁қоршау	-10.7896
імізде	-10.7896
амил	-10.7903
▁басымыз	-10.7906
түрлілік	-10.791
ыныш	-10.7929
қы	-10.7929
▁бейнелері	-10.793
▁баспа	-10.793
озғалыс	-10.7931
ограф	-10.7938
▁ақшалары	-10.7941
▁қозғал	-10.7941
▁алам	-10.7942
▁шо	-10.7943
▁құқық	-10.7945
Хол	-10.7946
из	-10.7951
▁клиника	-10.7952
▁бөлін	-10.7952
сси	-10.7953
▁бұрышты	-10.7958
▁сұрайын	-10.796
▁сұрама	-10.7961
▁топтар	-10.7961
▁басымызд	-10.7963
▁топырақты	-10.7964
▁дүниежүзін	-10.7976
лерім	-10.7979
іңізде	-10.7981
▁Әрқа	-10.7982
▁болжамым	-10.7989
▁шег	-10.8001
▁көзқарасымыз	-10.8006
▁ондық	-10.8009
▁Пал	-10.8013
тсе	-10.802
тик	-10.802
▁Шал	-10.8027
▁зақымдану	-10.8034
▁хабарламалар	-10.804
▁қызға	-10.8054
изм	-10.8055
ез	-10.8055
▁жалғасатын	-10.8059
талас	-10.8059
▁кірген	-10.806
▁құштарлығын	-10.8067
▁дизайнерлері	-10.8068
ылым	-10.807
▁ойнауд	-10.8089
▁бизнесте	-10.8111
▁Қорқынышты	-10.8113
▁Интернетт	-10.8121
етуші	-10.8122
▁қозғалтқы	-10.8124
басы	-10.8125
▁кіріктір	-10.8137
▁өзгерген	-10.814
▁символды	-10.8148
▁сәбилер	-10.8149
▁Еле	-10.8155
▁зерттеушілері	-10.8156
▁күмән	-10.8156
▁мәнін	-10.8159
▁күрест	-10.8164
▁оқығы	-10.8165
▁тірел	-10.8177
зияда	-10.8178
▁жинаған	-10.8183
▁сағатыңыз	-10.8184
аға	-10.8191
▁екіншісін	-10.8191
шин	-10.8192
▁үміттенді	-10.8195
ндар	-10.82
йып	-10.8201
гінд	-10.8206
d	-10.821
▁араңызд	-10.8214
▁мүмкіндігіміз	-10.8215
▁тасы	-10.8215
▁асыратын	-10.8215
ктік	-10.8215
тақта	-10.8218
▁шығармалары	-10.8223
ткі	-10.8225
▁Жаным	-10.8226
▁бейнесін	-10.8226
▁үйіміз	-10.8226
▁Ара	-10.8227
▁түсірді	-10.8227
▁Жасыр	-10.8234
туға	-10.8239
▁Жаз	-10.8242
▁табан	-10.8243
вация	-10.8247
▁авторы	-10.8247
▁көпт	-10.8248
▁ұмтылды	-10.8248
▁келісе	-10.825
▁шықса	-10.8253
▁құрам	-10.8257
▁кеңісті	-10.826
кан	-10.8262
▁құйыл	-10.8266
▁тұста	-10.8269
ав	-10.8269
▁ұстаздық	-10.8272
алқын	-10.8279
▁тәсілдер	-10.8286
айтын	-10.8289
▁экранын	-10.8289
▁кезе	-10.8291
▁сопы	-10.8295
▁жалғастыры	-10.8297
▁тигізе	-10.8299
▁құрылғысын	-10.8299
▁танысу	-10.8299
қша	-10.8303
ғынан	-10.8305
▁был	-10.8307
луы	-10.8309
▁қоры	-10.8311
▁елестетті	-10.8318
дарым	-10.832
▁ан	-10.8325
есопотам	-10.8331
▁болғаным	-10.8332
ғына	-10.8342
ауыс	-10.8344
қат	-10.8346
la	-10.8351
▁қада	-10.8353
▁сүйе	-10.8356
▁реакциясын	-10.8356
▁дауыста	-10.8363
▁айқа	-10.8369
▁нарықта	-10.8376
қырау	-10.8385
▁Қажет	-10.8389
істері	-10.8411
▁сайттарда	-10.8411
▁жақтауда	-10.8413
▁тәсіл	-10.8414
ондықт	-10.842
▁өнімдері	-10.842
▁мешітте	-10.8424
▁Есі	-10.8426
▁олжа	-10.843
▁соқ	-10.8431
▁тие	-10.8434
пес	-10.8443
▁дәрілер	-10.8448
▁үйлерін	-10.845
▁мания	-10.8452
жайын	-10.8456
▁жинағы	-10.8459
▁қорқыт	-10.8465
рісін	-10.8474
га	-10.8476
▁кемелер	-10.8477
▁көздер	-10.8484
▁көм	-10.8485
рок	-10.8485
▁Жауапта	-10.8488
▁қорқыныштарына	-10.85
▁қиыншылы	-10.8504
▁пайғамбарды	-10.8518
еб	-10.8519
▁қарау	-10.8525
▁деу	-10.8528
▁ест	-10.8528
масы	-10.853
шілік	-10.853
лит	-10.8531
йтпақ	-10.8538
▁Гард	-10.8538
▁қолдарын	-10.8543
дейтін	-10.8556
яу	-10.8564
▁үрейімізді	-10.8573
▁дүкендерін	-10.8575
▁жаңалығы	-10.8579
▁анықтама	-10.8584
▁салмақты	-10.8586
▁Әңгімені	-10.8586
▁Ағ	-10.8589
▁мәлімдемелерді	-10.8593
▁дыбыста	-10.8594
▁айналысу	-10.8595
емі	-10.8597
▁қадағалау	-10.8604
өбек	-10.8611
пап	-10.8618
man	-10.8624
аналы	-10.8624
ова	-10.8624
ларың	-10.863
▁толықтыру	-10.8639
ино	-10.8644
луына	-10.865
ласаңыз	-10.8658
▁миын	-10.8661
▁бағы	-10.8671
▁Арабия	-10.8683
▁науқаст	-10.8685
▁ұлтт	-10.869
ынау	-10.8706
▁қасындағы	-10.8711
▁Өзіңізде	-10.8716
ынық	-10.8716
қтың	-10.8719
▁бастайын	-10.8726
▁алғашқылар	-10.8734
мил	-10.8734
▁барлықтары	-10.8735
▁s	-10.8747
▁Суретт	-10.8749
▁баулары	-10.8756
▁Ме	-10.8756
ріңізді	-10.8764
ур	-10.8777
▁студенттеріміз	-10.8793
▁мағынасын	-10.8807
▁елестет	-10.8819
старына	-10.8821
дыратын	-10.8821
скенде	-10.8822
▁матростарын	-10.8827
▁етпе	-10.8832
▁тол	-10.8841
▁үйретті	-10.8846
▁оран	-10.8848
кенде	-10.8849
▁қи	-10.8852
▁жұмсай	-10.8853
▁мөлшерін	-10.8862
▁пәнін	-10.8862
ейрамхана	-10.8866
▁көбейе	-10.8871
▁Дели	-10.8871
▁қалайтын	-10.8878
▁қайығын	-10.8882
▁қатыс	-10.8884
▁ұнат	-10.8896
▁қасиет	-10.8904
▁болғандығы	-10.891
оры	-10.8911
▁ұғу	-10.8921
ріңіз	-10.8927
▁аудармашы	-10.894
аму	-10.8941
майлы	-10.8948
▁жылғ	-10.8949
▁ұмтыл	-10.8955
дерлік	-10.8962
мес	-10.8967
енциясы	-10.8975
▁жетк	-10.8979
▁жаным	-10.8979
шым	-10.8993
бо	-10.8994
▁әлеміне	-10.8994
масын	-10.9005
▁Толы	-10.9006
▁түсінік	-10.901
▁негіздей	-10.9025
▁қолдай	-10.9027
сілі	-10.9031
▁баспана	-10.9032
▁Марионы	-10.9045
▁адамы	-10.9049
тығына	-10.9059
▁сәттері	-10.9062
▁әдістерін	-10.9066
▁Ұстаз	-10.9072
▁шам	-10.9074
▁өткізді	-10.9079
▁пайдаланы	-10.9087
▁тазалау	-10.9088
▁шарап	-10.9092
ян	-10.9096
▁білгенде	-10.9097
▁үйлес	-10.9104
▁тізімін	-10.9111
▁атауын	-10.9118
▁сәбиі	-10.9125
▁іздеуді	-10.9127
▁тұрғандар	-10.9129
ындысы	-10.914
▁шабытт	-10.914
▁рухына	-10.9145
лса	-10.9152
▁орн	-10.9152
▁істеме	-10.9153
▁жаны	-10.9155
▁айтпа	-10.9165
▁айқында	-10.9166
рткі	-10.9169
▁жағалаулар	-10.9173
▁орталықта	-10.9173
so	-10.9177
▁мәліметі	-10.9178
▁тұрғындары	-10.918
▁Қызы	-10.9184
▁сауаты	-10.9191
▁сөзіме	-10.9191
бірі	-10.9193
дейі	-10.9195
▁достары	-10.9196
▁кідір	-10.9204
▁компаниясы	-10.9204
▁жағалауына	-10.9212
▁қасиеттер	-10.9213
▁бұзу	-10.9213
▁Ху	-10.9213
қатынасы	-10.9215
▁Қы	-10.9227
▁әрбіреуі	-10.9228
ерлер	-10.9231
▁ко	-10.9241
▁таңғал	-10.9247
уас	-10.9255
▁Ішіне	-10.9276
ерон	-10.9293
▁университетт	-10.9296
ағанда	-10.9301
▁өткізі	-10.9304
▁Көш	-10.9322
▁өлу	-10.9328
иік	-10.9335
бора	-10.9339
▁келтіре	-10.9341
▁басқаруда	-10.9344
▁тілдерінде	-10.9345
ңа	-10.936
▁тудыратыны	-10.9365
▁болм	-10.9374
▁қыздары	-10.9381
▁себептерін	-10.9382
▁бөлмелер	-10.9399
стен	-10.9405
▁жалғастырды	-10.9407
▁күрделене	-10.9412
▁Үн	-10.9413
анды	-10.9423
ұшақта	-10.9441
▁физик	-10.9443
▁дыбысты	-10.9445
▁мәселелер	-10.9446
▁сұрасаңыз	-10.9457
▁ойлану	-10.9466
▁Әйел	-10.9469
ғыңыз	-10.9473
зе	-10.9474
теуі	-10.9476
дары	-10.9484
▁өш	-10.9494
лдың	-10.9496
▁еліміз	-10.95
▁істеуде	-10.9501
▁газетті	-10.9506
▁сә	-10.9513
▁епті	-10.9535
▁грек	-10.954
▁батырлы	-10.9546
ратын	-10.955
▁сіздерді	-10.9553
▁әдебиетті	-10.9558
▁қызды	-10.9562
▁дау	-10.9567
нттар	-10.9569
▁өткізе	-10.9586
▁нейрондары	-10.959
▁Неме	-10.9592
сихологтар	-10.9599
▁арал	-10.9601
▁Ой	-10.9602
▁болжамы	-10.9607
▁өзімізді	-10.963
▁басқарыла	-10.9631
▁отбасын	-10.9632
▁Делиде	-10.9637
▁орталығында	-10.9639
торы	-10.964
▁дос	-10.9641
▁жетекші	-10.9648
▁шығарды	-10.9651
ніш	-10.9652
маңыз	-10.9654
▁сенімсіздік	-10.9654
▁өндіре	-10.9662
▁үйрете	-10.9662
стық	-10.9669
▁бақылай	-10.9669
▁қызыға	-10.969
▁өртті	-10.9691
▁қашу	-10.9696
▁қатарластар	-10.9703
▁көшірі	-10.9715
сер	-10.9746
сми	-10.9761
ху	-10.9767
▁тексеріле	-10.9767
ast	-10.9786
гар	-10.9793
▁қарта	-10.9802
сыңыз	-10.982
▁аралық	-10.982
▁қабатт	-10.9825
▁атанды	-10.9831
▁айы	-10.984
▁Тілді	-10.9844
өл	-10.9852
▁элементт	-10.9853
ыққа	-10.9855
імін	-10.9862
атор	-10.9865
▁Көрі	-10.9871
▁Же	-10.9877
▁Джонст	-10.9881
▁мар	-10.9885
▁фавеланы	-10.9887
▁тан	-10.9899
▁ла	-10.9912
▁мағынаны	-10.9916
▁әке	-10.9922
▁мінез	-10.9925
▁бейнеде	-10.9928
▁құрамын	-10.993
▁белгілен	-10.9942
▁табиғатта	-10.9946
ессіз	-10.9946
▁жетілдір	-10.9947
▁анықтаса	-10.9951
атты	-10.9952
▁тұтына	-10.9953
▁пәндерді	-10.9972
▁жатқаныңыз	-10.9973
итті	-10.9978
▁жатқ	-11.0004
▁минутта	-11.0006
▁ағ	-11.0018
▁жетіспе	-11.0021
таль	-11.0028
▁жырақ	-11.0031
олжетімді	-11.004
▁кездесуі	-11.0045
▁бетіне	-11.0051
▁жігітті	-11.0064
лайық	-11.0067
▁қарыз	-11.0067
▁елесте	-11.0075
▁мақалалары	-11.0079
ыны	-11.0083
▁Мектепте	-11.0095
▁се	-11.0113
▁беретінін	-11.0113
палы	-11.0117
▁жиынтығы	-11.0123
▁қасиеттерді	-11.0144
▁басшы	-11.0147
▁достарын	-11.0149
▁ұға	-11.0151
▁сеп	-11.0158
▁алын	-11.0167
▁шынын	-11.0179
▁таңбасы	-11.0185
астап	-11.0193
▁саз	-11.0195
епті	-11.02
▁Қу	-11.0214
адағы	-11.0222
ермеп	-11.0227
▁кеткенім	-11.0233
▁білмеді	-11.024
▁академиясы	-11.0245
▁мысалым	-11.0247
▁кешті	-11.0253
▁ене	-11.0254
▁біздер	-11.0259
зетте	-11.0263
▁күшін	-11.0266
▁үрейі	-11.0267
оңында	-11.0272
асындағы	-11.0283
ғаным	-11.0284
▁Аи	-11.0295
▁Ше	-11.033
▁жарт	-11.0339
▁дә	-11.0347
▁Гар	-11.035
▁Нд	-11.0351
▁бақылауым	-11.0357
разы	-11.0359
гің	-11.0364
тындығын	-11.0375
▁хаосты	-11.0377
▁Үндістанда	-11.0379
▁әсерлер	-11.0386
▁есепте	-11.0397
еск	-11.0403
▁идеялары	-11.0407
▁теб	-11.0407
ажайып	-11.041
▁істеуі	-11.0434
▁жеткі	-11.0446
▁тәжірибем	-11.0449
▁шыда	-11.045
▁сапарым	-11.0454
оя	-11.0461
стай	-11.0476
▁ұстаздарына	-11.0477
▁аудару	-11.0479
▁из	-11.0479
▁тұрғаны	-11.0494
▁тырысы	-11.0503
▁құрға	-11.0519
▁ашуда	-11.0524
▁сұрақтары	-11.0526
▁Ле	-11.0536
лаға	-11.0537
рыңыздан	-11.0541
▁бөліскенде	-11.0544
▁Шығыста	-11.0555
▁аяқталма	-11.0561
▁жағдайларда	-11.0573
мм	-11.0573
▁дүнием	-11.0601
▁мұрасы	-11.0609
▁сөйлесті	-11.0622
▁аудармасы	-11.0623
▁жү	-11.0624
▁онша	-11.0626
еви	-11.0629
онда	-11.0639
12	-11.0657
▁тұжырымдары	-11.0665
▁факт	-11.0667
▁Ақырын	-11.0669
▁қарады	-11.0673
▁соғыл	-11.0673
▁Фе	-11.0677
▁сағатт	-11.069
▁тұрақта	-11.0705
▁интернетт	-11.0716
▁тарау	-11.0722
ысым	-11.0731
▁үйін	-11.0744
▁тобын	-11.0749
▁атқару	-11.0752
▁күресуші	-11.0752
тұруым	-11.0755
▁психи	-11.0765
андылық	-11.0776
ерт	-11.0784
▁Ангола	-11.0785
▁бауы	-11.0795
ипа	-11.0804
▁құй	-11.0806
▁өркендеуді	-11.0811
▁саясатт	-11.0817
еттік	-11.0817
▁до	-11.0847
▁бизнес	-11.0853
етінде	-11.0854
▁астын	-11.0862
▁қосылғанда	-11.0863
▁Там	-11.0872
ыңызда	-11.0898
асқа	-11.0904
▁әрекетін	-11.092
▁теңдес	-11.0923
ация	-11.0936
▁2-	-11.0939
ртқа	-11.0942
▁латын	-11.0948
екпе	-11.0949
▁саябақта	-11.0951
▁тауды	-11.0951
ателеспес	-11.0961
▁жасанды	-11.0963
▁ойлана	-11.098
▁артына	-11.0986
▁рухта	-11.0996
теу	-11.1002
▁ауданын	-11.1005
қмет	-11.1006
▁Тіл	-11.1009
▁саябақт	-11.1017
▁дәрежеде	-11.1023
ариядағы	-11.1028
▁жыми	-11.1033
▁жатқанымыз	-11.104
▁жұмысымд	-11.1048
▁аймағын	-11.1054
нист	-11.1061
▁қабілет	-11.108
▁дәм	-11.1087
▁қорқыныштысы	-11.1088
▁дағдыларын	-11.109
аламыз	-11.1102
▁тереңд	-11.1109
▁оқушыларым	-11.1127
▁білетінін	-11.1133
ары	-11.1138
▁факті	-11.1139
▁ойлағанда	-11.114
ретін	-11.114
▁мұнараны	-11.1149
▁өзгерістерді	-11.1151
▁іст	-11.1155
▁өркендеуі	-11.1162
▁Анголада	-11.1175
▁теңде	-11.1179
▁жегіштерд	-11.1184
изация	-11.1205
▁айналы	-11.1234
үйінде	-11.1242
▁сезі	-11.1243
еме	-11.1243
▁іздеді	-11.1269
ыпты	-11.1269
▁ерекшелей	-11.1271
▁ерекшеле	-11.1283
▁оқыта	-11.129
пеймі	-11.1295
▁жүгіртк	-11.1301
елден	-11.1313
тқызу	-11.1319
▁жүгірте	-11.1321
йламай	-11.133
▁түсінбеймі	-11.1335
▁еге	-11.1337
▁мүмкіншілік	-11.1338
латындығын	-11.1341
әртүрлілік	-11.1346
▁елші	-11.1348
тысы	-11.1352
▁бөлуді	-11.1355
▁істегенде	-11.1356
▁көрсеткіш	-11.1367
▁газеттерде	-11.1383
▁елінде	-11.1405
ктерді	-11.1408
▁бөлімін	-11.1415
▁қолында	-11.1415
▁елдерді	-11.1416
▁видеода	-11.1421
туші	-11.1423
▁тарауда	-11.1425
рсыз	-11.1426
жем	-11.1427
▁алысқа	-11.1427
арда	-11.1431
ғана	-11.1431
ух	-11.1433
қын	-11.1441
ығында	-11.1451
▁айтқандарың	-11.1453
зік	-11.1456
▁өл	-11.1461
ізбе	-11.148
сырын	-11.1485
▁үнемде	-11.1495
үрген	-11.1499
оци	-11.1501
▁талқылай	-11.1526
талды	-11.1536
▁жерлерім	-11.1557
▁сапар	-11.157
▁орындалма	-11.1572
▁мәселелерін	-11.1587
алап	-11.1603
ндығын	-11.1605
шу	-11.1619
▁келмейтіні	-11.1623
арым	-11.1633
▁айтпас	-11.1634
▁баяндау	-11.1638
▁Қан	-11.1644
тарға	-11.1669
ист	-11.1672
▁ұната	-11.1675
▁ұмтылы	-11.1677
▁өрме	-11.1678
елді	-11.1682
▁тақырыпты	-11.1698
▁кішіре	-11.1698
▁әкелі	-11.1698
▁Жар	-11.1703
жазбада	-11.1729
▁алғы	-11.1731
лығымыз	-11.1732
▁аударды	-11.1734
▁визуал	-11.1737
▁бағаламай	-11.1747
ронта	-11.175
▁Жет	-11.1754
улар	-11.1792
▁көшесі	-11.1795
▁кеті	-11.1799
▁тұтын	-11.1811
▁тастады	-11.1827
▁жауы	-11.1832
▁Солтү	-11.1856
дейді	-11.186
▁Ис	-11.1861
елесті	-11.187
иды	-11.1871
▁жеңуд	-11.1876
▁еңбект	-11.188
ларымызды	-11.1883
▁бөлімі	-11.1889
▁рахаттана	-11.1889
▁Ала	-11.1911
▁пр	-11.1911
▁тер	-11.1912
лин	-11.1915
▁мағ	-11.1919
▁жиынтығын	-11.1919
мат	-11.192
▁айтыла	-11.192
de	-11.1925
айтып	-11.1933
▁таңбасын	-11.1942
▁Америкалық	-11.1943
ха	-11.1947
▁мәселелері	-11.195
▁саласын	-11.1952
лауыңыз	-11.1968
▁келісті	-11.1971
▁қасиеті	-11.1977
шықтық	-11.1982
▁сөзім	-11.1996
▁ак	-11.1997
ел	-11.2
▁шығармалар	-11.2013
▁Нор	-11.202
▁Кон	-11.2023
▁мұсылмандарды	-11.2024
сындағы	-11.2035
▁Ті	-11.204
ағала	-11.2048
▁айтам	-11.2049
гра	-11.205
рде	-11.2052
▁ұлым	-11.2054
▁қаласында	-11.2065
▁дайындау	-11.207
500	-11.2088
анымдар	-11.2089
▁сипатт	-11.2089
▁қиялы	-11.209
▁дайындай	-11.2093
аталды	-11.2096
▁секірі	-11.2104
йлап	-11.2107
іледі	-11.211
▁қолданушы	-11.2112
▁ойлауы	-11.2123
ғасы	-11.2134
емократия	-11.2134
ейді	-11.2135
▁құрады	-11.2163
▁Қараңыз	-11.2171
▁баруы	-11.2174
▁Кур	-11.2179
▁сөзіне	-11.2191
▁қас	-11.2195
▁фавела	-11.2196
▁мойындай	-11.2205
▁өзгертпе	-11.2207
▁ұстазб	-11.221
хат	-11.2212
▁пайдасын	-11.2213
есі	-11.2219
циал	-11.2221
▁шығыс	-11.2222
адамдар	-11.2237
аласыз	-11.2239
ерлі	-11.2251
органи	-11.2258
▁үнемд	-11.2283
дыққа	-11.231
▁күзді	-11.2315
▁Ам	-11.2321
пи	-11.2325
▁жетер	-11.2328
▁отырғанда	-11.2333
тқыз	-11.2339
сүйер	-11.235
▁аудармасын	-11.2358
▁тобына	-11.2366
▁қару	-11.2368
▁нәрсесі	-11.2374
▁басқан	-11.2378
▁туынд	-11.2394
▁уайымдау	-11.2424
▁ойластыр	-11.2427
▁қатарластары	-11.2429
▁сырт	-11.2435
уылын	-11.2435
▁жалғаса	-11.2448
шқан	-11.2449
▁ескерт	-11.2452
▁тыңдама	-11.2456
алдым	-11.2457
▁құралдарын	-11.2475
▁кездесу	-11.2479
▁айналыса	-11.2483
▁жүргізіп	-11.2491
▁сөйл	-11.2495
▁ағы	-11.2498
▁Сант	-11.2504
▁күлі	-11.2518
▁орталығын	-11.2527
▁жетекшіл	-11.2528
▁жазуы	-11.2532
▁сезсе	-11.2547
▁көрмеймі	-11.2551
ит	-11.2557
▁сипатта	-11.2564
ғандарын	-11.2573
йроби	-11.2574
▁шыққанын	-11.2576
ларымыз	-11.259
▁көбейт	-11.2602
▁сенімсіз	-11.2603
▁өткізсе	-11.2617
ағалаулар	-11.2623
лмаса	-11.2649
▁ақшасы	-11.2666
абайы	-11.2673
▁арасы	-11.2676
▁қорқы	-11.2685
▁әріптестер	-11.2704
егім	-11.2713
▁мәліметін	-11.2714
иді	-11.2717
▁қайтад	-11.2722
стар	-11.2725
▁кездесе	-11.2732
▁дайында	-11.2733
▁Әйелі	-11.2743
▁зерттеулерді	-11.2744
▁жарай	-11.2746
▁шерт	-11.2757
алыс	-11.276
▁айналысамы	-11.2766
▁ғашықт	-11.2779
▁бұзы	-11.2791
▁жазыла	-11.281
▁То	-11.2811
налған	-11.2814
▁физи	-11.2823
▁белсенділігін	-11.2831
▁бару	-11.2833
▁қаржыны	-11.2843
мағанын	-11.2908
стім	-11.2914
▁тудыратын	-11.2917
▁қызымы	-11.2924
▁тәу	-11.2924
▁сыры	-11.2934
▁Құдайд	-11.2936
делік	-11.294
▁қалғаны	-11.2951
но	-11.2951
ктеріңізді	-11.2953
ерлік	-11.2955
▁Болашақ	-11.296
▁Ағаш	-11.2967
▁белгілей	-11.2976
▁айналасында	-11.2984
▁әріптес	-11.2996
▁сөздерін	-11.3
▁естіг	-11.3001
ұялы	-11.3011
▁сауд	-11.3011
▁жоғарыда	-11.302
▁сө	-11.3028
▁лас	-11.3049
▁Бұн	-11.3056
рон	-11.3056
анда	-11.3057
▁негізде	-11.3057
▁мектептерде	-11.3082
▁жөні	-11.3099
лон	-11.3113
▁шабыт	-11.3125
енд	-11.3125
▁келуі	-11.3128
ерто	-11.3129
ірі	-11.3132
▁зерттеуім	-11.3137
беген	-11.3162
▁жақсар	-11.3164
актика	-11.3168
▁жұм	-11.3195
▁тапсыра	-11.3208
ө	-11.3223
дедім	-11.3226
желерін	-11.3231
▁соғ	-11.3288
қара	-11.3296
ик	-11.3304
йтпе	-11.3332
▁аға	-11.3344
▁көңілім	-11.3345
▁көргені	-11.3347
ана	-11.335
▁болғандары	-11.3353
иан	-11.3355
▁арам	-11.3357
аңыздар	-11.3362
▁Те	-11.3367
тарда	-11.3368
id	-11.3369
▁Жапонияда	-11.3369
нерлер	-11.3374
▁басылы	-11.3374
асыл	-11.3379
екте	-11.3379
бетті	-11.338
▁жобалар	-11.3388
сең	-11.3388
мшілік	-11.3389
▁науқас	-11.3406
панасыз	-11.3413
рви	-11.3431
▁Қар	-11.3435
▁өзгені	-11.3448
бес	-11.346
езек	-11.3473
▁роман	-11.3497
▁үйренуі	-11.3507
қтай	-11.3521
▁во	-11.3541
лерде	-11.3543
▁суретім	-11.3543
▁ете	-11.3547
лдым	-11.3547
▁агент	-11.3555
▁ойлауды	-11.3561
іскен	-11.3568
▁ғашық	-11.3583
еймі	-11.3583
▁Біріг	-11.3592
▁зер	-11.3602
▁картада	-11.3607
жы	-11.3612
▁Калифорнияда	-11.3626
▁жастар	-11.3626
қаққан	-11.3633
▁бойымыз	-11.3637
▁мақсатымызды	-11.3637
тілік	-11.3648
атынына	-11.3652
▁сызы	-11.3656
▁матростары	-11.3682
▁айналад	-11.3684
▁алы	-11.37
▁балаларыңыз	-11.3711
артады	-11.3716
ақшасын	-11.3719
алған	-11.3725
▁жақтары	-11.3728
▁қыл	-11.3735
▁шешуде	-11.3749
уіңіз	-11.3768
ика	-11.3768
тті	-11.377
▁аналар	-11.3787
индер	-11.3787
шілер	-11.3796
▁кездестірме	-11.381
формалар	-11.3831
ебе	-11.3837
▁денем	-11.384
ку	-11.384
▁өткенде	-11.3841
es	-11.3842
▁Мысы	-11.3843
алғанымыз	-11.3848
▁тәсілі	-11.3848
▁оқырманы	-11.3851
▁түйі	-11.3851
▁Сіздерді	-11.3859
▁Финляндияны	-11.3862
бі	-11.3869
үйге	-11.3873
засы	-11.389
▁ұйғар	-11.3891
▁ойланды	-11.3891
өз	-11.3893
▁пл	-11.3898
▁Сурет	-11.3904
▁етер	-11.3908
ысып	-11.391
▁түсім	-11.3919
абысқа	-11.3926
▁тануы	-11.3931
▁Пластик	-11.3935
▁кеп	-11.3947
▁қосылы	-11.3961
рай	-11.3965
▁жәндік	-11.3983
▁суретшіл	-11.3985
▁фа	-11.3996
есіме	-11.3997
▁түсінбес	-11.3998
▁толықтыр	-11.4006
▁жазбаны	-11.4007
▁Польша	-11.4012
▁жұқ	-11.4015
nd	-11.4017
жазбаларын	-11.402
ma	-11.4023
▁жетілді	-11.4025
▁192	-11.4047
▁басқасын	-11.4064
анға	-11.4068
▁мәлімдемелер	-11.4069
▁Әңгіме	-11.4075
▁Кеш	-11.4091
кіл	-11.4099
кші	-11.4099
▁жүкт	-11.4113
▁қашық	-11.4116
етон	-11.4133
▁үрейіміз	-11.4143
▁орт	-11.4149
▁әсерін	-11.4155
▁қызықтыра	-11.4157
▁сырты	-11.4162
▁түпте	-11.4164
▁Франк	-11.4166
үңгі	-11.4173
андар	-11.4174
▁жалғастырасы	-11.4174
▁төменг	-11.4202
▁ойыңыз	-11.4227
▁жандан	-11.423
▁қалаймы	-11.4242
▁бейімд	-11.4248
▁қосайы	-11.4267
▁жолдарды	-11.4268
кіні	-11.4273
▁түбі	-11.4284
ук	-11.4284
әкі	-11.4289
лықтарын	-11.4294
▁атаймы	-11.4301
th	-11.4317
айлық	-11.4317
▁Мэддид	-11.4321
▁молекуланы	-11.4321
▁Жоспарым	-11.4328
▁жанын	-11.4336
▁елест	-11.4339
око	-11.4356
▁Ре	-11.4357
▁қожа	-11.4359
▁қарақшыл	-11.4367
ақтай	-11.4368
▁үйле	-11.4369
▁орындарды	-11.4372
▁айқын	-11.4382
еңдер	-11.4389
▁әйелді	-11.4393
▁ату	-11.4395
▁шыңы	-11.4398
▁шайқа	-11.4402
▁дүкендер	-11.4403
▁қорект	-11.4404
гені	-11.4406
▁тр	-11.4409
▁Айнал	-11.4416
арви	-11.4429
әл	-11.4429
▁кейі	-11.443
▁айыр	-11.4431
стікті	-11.4442
98	-11.4445
▁абсолют	-11.4449
ұл	-11.4455
лю	-11.4473
істерді	-11.448
теріңіз	-11.4481
▁бағдарламалар	-11.4482
▁өндір	-11.4484
▁тұрақтылы	-11.4501
▁кітапта	-11.4501
▁деңгейінде	-11.4532
анғысы	-11.4533
▁оқыма	-11.4549
▁бағалаймы	-11.4563
ндер	-11.4567
рады	-11.4568
▁бағал	-11.4576
ент	-11.4584
▁қорқыныштарын	-11.4588
рмыз	-11.4588
▁төсект	-11.4589
▁Сізді	-11.4595
яс	-11.4595
▁экран	-11.4596
стың	-11.4598
▁Сат	-11.4603
▁зерттеуі	-11.4603
олжам	-11.4609
▁Аты	-11.461
ланған	-11.4616
▁сыз	-11.4629
бірін	-11.4646
талған	-11.4649
▁түсуі	-11.4659
сқан	-11.4669
▁түскенд	-11.467
▁сауат	-11.4673
▁қарастыры	-11.4699
игі	-11.4715
поте	-11.4716
йтып	-11.4723
▁тұрғанда	-11.4724
жап	-11.4725
▁ег	-11.4727
▁сұрау	-11.4733
ілер	-11.4734
▁сына	-11.474
уындым	-11.4753
▁жаңалықтарды	-11.4758
▁Құдайы	-11.478
бас	-11.4784
сындағыдай	-11.4788
дігі	-11.48
▁көмектесіңіз	-11.4805
▁қалуы	-11.4821
▁сабақт	-11.4827
▁бит	-11.4837
▁Фа	-11.4838
▁күмәнд	-11.4839
ттары	-11.4841
▁түсірг	-11.4842
▁қараса	-11.4842
▁Айт	-11.4843
▁қорғай	-11.4844
▁қозғалмай	-11.4851
енсеңіз	-11.4868
егей	-11.4868
▁сұрағым	-11.4871
▁ниетт	-11.4878
▁тапқы	-11.4883
▁зерттеушілер	-11.489
▁бұра	-11.4892
амды	-11.4903
суда	-11.4911
ния	-11.492
▁Гонконгт	-11.4925
▁қаға	-11.4926
кіндігін	-11.4935
▁етіңіз	-11.4939
▁міндеттісі	-11.4945
▁архитект	-11.4946
ақтылық	-11.4949
адан	-11.4949
▁Шапалақ	-11.496
қтарын	-11.4966
▁Сонд	-11.4968
лкі	-11.4973
▁тобымд	-11.4985
шаға	-11.4985
▁құрылғым	-11.4986
еріндегі	-11.4993
▁құрса	-11.4997
▁құштарлығы	-11.5008
аның	-11.502
ут	-11.5026
▁адал	-11.5029
▁дизайнерлер	-11.5029
▁соғыст	-11.5029
▁шектел	-11.5032
▁миллионы	-11.5045
▁әйелде	-11.505
▁көретіні	-11.5052
▁Құр	-11.5054
▁машинаны	-11.5073
▁зақымдан	-11.5093
зайып	-11.5106
▁мектебім	-11.512
▁Жаза	-11.5121
▁Тө	-11.5122
▁қатарында	-11.5123
▁Ұлыбританияда	-11.5126
▁жүрсі	-11.5127
ем	-11.513
▁жылыт	-11.5133
▁көршіле	-11.5141
тетін	-11.5143
апты	-11.5161
▁иеле	-11.5161
▁тәсілде	-11.5162
▁табиғаты	-11.5169
▁Бет	-11.517
кері	-11.5177
▁керектігіне	-11.5179
▁өле	-11.5179
▁дүниежүзі	-11.5187
▁Кедейл	-11.5198
ларыңыз	-11.5205
спи	-11.5209
▁болуым	-11.5217
▁Пи	-11.5225
▁мөлшері	-11.5229
▁мөлшер	-11.524
▁стилін	-11.5241
▁Кел	-11.5246
▁өткі	-11.5252
тат	-11.5255
ңғыш	-11.5275
азу	-11.5285
▁тегі	-11.5288
шылығым	-11.5294
▁пікірлері	-11.5298
▁сола	-11.5309
▁Аш	-11.5312
тарында	-11.5341
▁жерд	-11.5349
▁курс	-11.5358
▁Бау	-11.536
▁Құ	-11.5361
▁қозғалта	-11.5371
▁Жасы	-11.538
▁көрсетуді	-11.5386
мысына	-11.5393
гал	-11.5396
▁мерзімд	-11.5414
▁шығармас	-11.5415
рімді	-11.5424
▁беремі	-11.5427
▁Тайванд	-11.5431
оп	-11.5441
▁қозға	-11.5445
▁педагог	-11.5455
дам	-11.5465
▁құлдыра	-11.548
деу	-11.5485
▁мид	-11.5487
▁бейнесі	-11.5498
ыстыратын	-11.5511
▁орманында	-11.5519
▁алушы	-11.5522
▁шал	-11.5522
▁айтқандары	-11.5533
оншақ	-11.5564
▁көзіме	-11.5572
▁соғыста	-11.5574
сап	-11.5576
іздер	-11.5582
▁Сенім	-11.5583
▁үмітім	-11.5589
▁ынталандыр	-11.5597
▁айналысқ	-11.5613
▁ұстаздарын	-11.5618
▁Біреуі	-11.5619
маларды	-11.5624
▁ауытқ	-11.5629
▁Тыңда	-11.5634
▁үмітте	-11.5641
▁қалам	-11.5644
▁жоқта	-11.5646
ілетін	-11.566
▁Қолыңызда	-11.5663
пейтін	-11.5666
мызды	-11.5666
▁миында	-11.5671
▁Қолым	-11.5673
▁шош	-11.5674
зия	-11.5678
▁шеші	-11.5678
▁жейд	-11.5679
граф	-11.5682
спен	-11.5686
елі	-11.5695
рау	-11.5695
▁тізі	-11.5708
▁мақал	-11.5711
ектен	-11.5715
тасқан	-11.5718
зо	-11.5719
уында	-11.572
▁Елестет	-11.573
тке	-11.5733
▁сап	-11.5734
летін	-11.5747
▁етуі	-11.5749
еріштелер	-11.5756
мысқы	-11.5759
циент	-11.576
▁жаң	-11.5761
уына	-11.5762
асынан	-11.5763
ақытты	-11.5767
рді	-11.5768
▁сілте	-11.577
▁тапқаны	-11.578
▁көрінбе	-11.5784
▁сән	-11.5793
▁рейтинг	-11.5799
▁көзде	-11.5804
▁гүл	-11.5805
іні	-11.5808
▁испанд	-11.5812
▁технологияны	-11.5816
гендерің	-11.5817
онды	-11.5821
▁ауданы	-11.5824
▁құқы	-11.5827
▁керектігі	-11.5833
▁бата	-11.5838
дасы	-11.584
итын	-11.5846
▁адамдард	-11.5849
има	-11.5856
ындай	-11.5857
▁естігі	-11.5867
▁ыңғайл	-11.5867
▁ересекте	-11.587
асты	-11.5874
ткен	-11.5876
▁орындауым	-11.5881
▁120	-11.5883
абыр	-11.5892
пай	-11.5907
шілікті	-11.5912
▁шебер	-11.5916
▁Мақал	-11.5916
▁қалыптасты	-11.5923
қтары	-11.5923
▁Сөзд	-11.5927
▁қауымдастығын	-11.5933
▁бейнелер	-11.5936
▁қараңғы	-11.5936
▁әріптер	-11.5949
аша	-11.5951
▁штаттары	-11.5953
ең	-11.5956
▁ескере	-11.5958
▁тізімі	-11.5968
здігін	-11.5969
▁іспе	-11.5971
▁үшеу	-11.5975
ффи	-11.5976
▁ескері	-11.598
▁мын	-11.5981
аби	-11.5982
рам	-11.5994
▁студенті	-11.6012
дігім	-11.6014
▁там	-11.6016
едейлік	-11.602
алынған	-11.6033
▁үр	-11.6036
▁түске	-11.6043
▁ыңғай	-11.6052
лаш	-11.6061
▁әріптестерін	-11.6063
▁Орган	-11.6065
▁250	-11.6066
▁жасаушы	-11.6073
сей	-11.6075
ед	-11.6076
үй	-11.6076
▁шет	-11.6088
▁контент	-11.6103
фон	-11.6108
▁мазмұн	-11.6109
▁түсіре	-11.6111
▁150	-11.6125
▁ұсына	-11.6128
рқын	-11.6129
▁қабырғасы	-11.6148
▁гра	-11.6157
▁жағалауын	-11.6161
▁жаратылыс	-11.6165
▁уайым	-11.617
▁күту	-11.6185
көп	-11.6187
анымды	-11.619
ориямыз	-11.6203
ласты	-11.621
йх	-11.621
керу	-11.6213
▁төменде	-11.6214
▁істейсіз	-11.6218
кіндік	-11.622
▁ұнатпай	-11.6221
йо	-11.6226
стыр	-11.6227
икация	-11.6233
▁Нем	-11.6243
▁мақсатта	-11.6247
▁соғысы	-11.625
▁Әлемд	-11.6251
▁кі	-11.6251
▁Визуал	-11.6255
ғып	-11.6256
▁дауылда	-11.6256
лдығын	-11.6257
▁апара	-11.6259
▁Филадельфия	-11.6263
▁кінәл	-11.6268
▁мақалада	-11.6269
▁жылай	-11.6269
дарымыз	-11.6277
▁есіңіз	-11.6278
▁Голл	-11.6285
▁орындауы	-11.6289
▁британдық	-11.6291
ушым	-11.6298
емдеу	-11.6301
▁әсерле	-11.6302
сіп	-11.6303
тальд	-11.6311
▁Дар	-11.6319
▁пішін	-11.632
▁үңіл	-11.6341
▁алшақт	-11.6344
▁көрем	-11.6358
ылмағанда	-11.6361
нін	-11.6365
орын	-11.6365
▁Ұл	-11.6376
ив	-11.6377
▁Батыст	-11.6385
кірген	-11.639
▁армандады	-11.639
▁Қызығ	-11.6395
алдаған	-11.64
▁құбы	-11.6405
жоқ	-11.6415
нәрсе	-11.6417
талады	-11.6417
ү	-11.6418
▁жегіште	-11.6427
семіз	-11.6427
▁кемел	-11.6436
зде	-11.6441
▁дам	-11.6447
▁беретіні	-11.6457
▁жатқандығы	-11.6463
▁Қалта	-11.6467
ид	-11.6469
арман	-11.6474
роли	-11.6479
▁әпке	-11.6485
▁өнімі	-11.6487
ырлар	-11.6487
ілік	-11.6491
иядағы	-11.6492
бесе	-11.6492
▁робот	-11.6494
иялы	-11.6496
ауыз	-11.6503
әзір	-11.6505
▁тұжырымда	-11.6507
▁нөмір	-11.651
еліктен	-11.6512
▁газетте	-11.6515
оқтаған	-11.6532
▁бөлікте	-11.6537
асың	-11.6542
▁сөре	-11.6544
қушыларымыз	-11.6546
▁карто	-11.6549
▁аралдар	-11.6557
▁меди	-11.6557
▁машин	-11.6557
үйсін	-11.6569
▁тақырыбын	-11.6571
▁парақша	-11.6572
▁белгілер	-11.6579
▁нә	-11.659
ырлық	-11.6596
ұқықтар	-11.6597
фор	-11.6606
ұқсат	-11.6609
▁қабылдауда	-11.6611
▁жетіс	-11.6612
▁Кет	-11.6625
▁қиялда	-11.6628
түйе	-11.6633
ом	-11.6634
▁ви	-11.6636
бетіне	-11.6639
шығыс	-11.6641
жағына	-11.6644
сөз	-11.6645
Po	-11.6649
ида	-11.6651
көздер	-11.6652
▁жазғанда	-11.6653
жауап	-11.6653
▁саласында	-11.6657
етіндер	-11.666
енген	-11.666
құмар	-11.6662
Е	-11.6665
▁түз	-11.6674
▁шығармашылы	-11.6676
▁жүгі	-11.6677
▁сабағы	-11.6678
тырды	-11.668
то	-11.668
▁кемесін	-11.6682
нбегендері	-11.6684
керемет	-11.6684
қызыл	-11.6684
өмір	-11.6686
▁жең	-11.6689
андары	-11.6689
▁Хал	-11.669
сөздер	-11.6693
байтын	-11.6699
▁қабылдауды	-11.6701
▁жылдамды	-11.6701
конгт	-11.6701
луі	-11.6703
басты	-11.6706
ныш	-11.6711
кішкентай	-11.6711
▁Көк	-11.6717
Адам	-11.6717
▁сәтсізді	-11.6717
сайтта	-11.6719
армандарым	-11.6724
зал	-11.6724
рей	-11.6724
▁мүмкіндіктерің	-11.6726
ттым	-11.6731
дизайн	-11.6733
F	-11.6737
▁фан	-11.6738
бейді	-11.6739
▁тәр	-11.6742
▁қоршауд	-11.6742
ығыңыз	-11.6744
ойындарды	-11.6744
өзіме	-11.6748
технология	-11.6748
секунд	-11.675
▁биологи	-11.6751
бет	-11.6753
гон	-11.6753
І	-11.6758
инженерия	-11.676
▁тарихы	-11.6761
іктеу	-11.6764
дәрігерлер	-11.6764
психология	-11.6764
сенсор	-11.6765
контент	-11.6765
G	-11.6766
50	-11.6766
▁жұба	-11.6767
бағдарлама	-11.6767
▁мұр	-11.6768
▁сыртын	-11.677
мұғалімдер	-11.6771
жет	-11.6771
жануарлар	-11.6773
▁аяқкиім	-11.6776
▁орманын	-11.6777
Х	-11.6777
студенттері	-11.6777
жеке	-11.6782
естік	-11.6783
M	-11.6783
▁істейтінің	-11.6784
Әл	-11.6785
▁Лат	-11.6785
тау	-11.6786
көріністе	-11.6789
▁телефоның	-11.679
тілекте	-11.679
камера	-11.6791
техника	-11.6795
▁қызметте	-11.6796
▁шарықта	-11.6799
30	-11.68
▁екендігі	-11.68
▁өтк	-11.6801
25	-11.6805
истика	-11.6809
ндустрия	-11.681
сабағын	-11.6812
кезеңі	-11.6813
▁кірі	-11.6814
▁Ира	-11.6814
йсың	-11.6814
бауы	-11.6816
шатыр	-11.6816
▁атауы	-11.6817
▁сум	-11.6821
деңгейі	-11.6821
саяс	-11.6828
орынды	-11.6829
▁қам	-11.6832
▁Ұс	-11.6833
▁оңтүсті	-11.6833
▁теңест	-11.6833
▁орна	-11.6833
▁Хо	-11.684
▁эксп	-11.684
▁кодта	-11.6841
оңтүстік	-11.6843
эк	-11.6845
▁күте	-11.685
▁Оқушы	-11.6851
00-	-11.6853
▁құшақ	-11.6857
Үй	-11.6858
ырған	-11.6862
▁нейро	-11.6862
Джо	-11.6863
▁қойыла	-11.6864
▁адамгершілік	-11.6865
айтты	-11.6868
▁жинал	-11.6871
материал	-11.6871
▁теңес	-11.6871
еріні	-11.6874
сто	-11.6875
шашын	-11.6878
комм	-11.6881
Р	-11.689
қарсылық	-11.6894
өлу	-11.6896
нститу	-11.6896
▁сізд	-11.6902
иф	-11.6902
түй	-11.6906
▁фун	-11.6906
▁түңіл	-11.6906
▁мәлім	-11.6908
рест	-11.6908
▁естелік	-11.6909
▁ғұ	-11.6909
маркет	-11.691
▁Өзімн	-11.6914
рлерді	-11.6916
әндер	-11.6918
туыңыз	-11.6918
раус	-11.692
жу	-11.6923
▁обы	-11.6925
▁ве	-11.6926
▁көремі	-11.6931
бол	-11.6931
жылт	-11.6932
▁жұмыстар	-11.6932
▁көрші	-11.6936
▁асты	-11.6949
▁есін	-11.695
▁азғ	-11.6953
тобын	-11.6954
құрт	-11.6955
▁Блог	-11.6958
иналысын	-11.6963
▁Жұмы	-11.6966
түз	-11.6969
▁доста	-11.6971
▁капита	-11.6976
▁сұмды	-11.6979
Кө	-11.6981
▁үкім	-11.6983
▁шекара	-11.6986
▁науқаста	-11.6988
иқырлы	-11.699
ья	-11.6994
химик	-11.6998
▁Ұш	-11.6999
▁шеңбер	-11.7
Анджел	-11.7003
стырған	-11.7007
▁Тес	-11.7007
▁үлке	-11.7013
▁ғимаратт	-11.7013
каны	-11.7016
▁мақта	-11.702
пікірлерд	-11.7027
▁батпырауы	-11.7037
ести	-11.7038
▁өсінді	-11.7043
иямызды	-11.7044
реттер	-11.7044
ілтемелері	-11.7046
рмандарым	-11.7046
▁орала	-11.7048
▁тарақан	-11.7049
▁мобил	-11.7049
Co	-11.705
▁қабыл	-11.705
байлық	-11.7053
▁Эко	-11.7054
▁қорап	-11.7058
▁мәз	-11.7059
▁бейбіт	-11.7059
лиф	-11.706
bo	-11.706
іркеу	-11.7061
▁артықшылы	-11.7064
▁әділ	-11.7065
сайтын	-11.7068
өзіңізд	-11.7071
▁мейірім	-11.7074
▁көлем	-11.7075
▁Мынаны	-11.7077
▁құжатта	-11.7078
манымыз	-11.7078
▁жобала	-11.708
рмандар	-11.708
йла	-11.7081
ебебі	-11.7083
үлдіршіндер	-11.7084
лав	-11.7084
▁Электр	-11.7084
▁белсен	-11.7084
байланыст	-11.7084
орлары	-11.7087
▁Тұр	-11.7088
араланған	-11.7088
ұрлым	-11.7088
▁Сұрақ	-11.7091
атпырауық	-11.7092
▁зақым	-11.7092
порт	-11.7092
өлігі	-11.7092
алабақша	-11.7093
уфизм	-11.7093
тратегия	-11.7093
аябақт	-11.7094
▁сканерле	-11.7095
оңына	-11.7097
ашарымыз	-11.7099
график	-11.71
▁жиынты	-11.71
▁ұрпақт	-11.71
ометрия	-11.71
▁жолдас	-11.7101
cr	-11.7101
▁әскер	-11.7101
өбешік	-11.7102
ілмеді	-11.7102
▁транс	-11.7102
ландыр	-11.7102
тқандар	-11.7103
таңб	-11.7103
оны	-11.7104
еткізуші	-11.7104
▁кәсіб	-11.7105
бсолютті	-11.7105
олекулалар	-11.7105
орит	-11.7105
геніңіз	-11.7105
кситоцин	-11.7106
▁бағ	-11.7106
▁клиент	-11.7107
▁қуаныш	-11.7107
▁кінә	-11.7107
омпанияны	-11.7107
утси	-11.7107
▁ықылас	-11.7107
өмірқышқыл	-11.7107
апсырмалары	-11.7108
йлағандар	-11.7108
еңізшілер	-11.7108
ЕН	-11.7109
▁жасағы	-11.7109
режесі	-11.7109
ыбысты	-11.7109
уиттерде	-11.7109
әдениет	-11.7109
▁Оқырман	-11.7109
▁мәлімдеме	-11.711
араевоны	-11.711
актив	-11.711
▁Пікір	-11.711
ашинаны	-11.711
▁топта	-11.711
ансабы	-11.7111
▁адамгерш	-11.7111
▁махабб	-11.7111
епрессия	-11.7112
▁Серіктес	-11.7112
зірлеу	-11.7112
▁арқасы	-11.7112
иллион	-11.7112
▁шақыры	-11.7112
втоматт	-11.7112
ламалары	-11.7112
дістеме	-11.7112
айғамбар	-11.7113
фиопия	-11.7113
згерістер	-11.7113
үнем	-11.7113
▁Бөте	-11.7113
нкубатор	-11.7113
ижитал	-11.7113
▁фотоаппар	-11.7114
▁инкубат	-11.7114
▁каллиграфи	-11.7114
▁сканер	-11.7114
істіктерін	-11.7115
Анджелес	-11.7115
авелада	-11.7115
өрсеткен	-11.7115
▁темпера	-11.7115
ниверситетте	-11.7115
ткіштер	-11.7115
opcorn	-11.7115
▁Викториан	-11.7115
абарлама	-11.7115
елосипед	-11.7115
▁Уаши	-11.7115
депресс	-11.7115
рлендіре	-11.7115
цикл	-11.7115
интез	-11.7115
олюция	-11.7115
▁тәжір	-11.7115
▁кәсіп	-11.7115
▁Әріптес	-11.7115
adi	-11.7115
брик	-11.7115
▁өзімшіл	-11.7115
▁фут	-11.7116
▁Матем	-11.7116
▁Гонк	-11.7116
ижит	-11.7116
ниетім	-11.7116
фейс	-11.7116
өтелке	-11.7116
hi	-11.7117
оғарыда	-11.7117
лжың	-11.7117
отта	-11.7117
қышқыл	-11.7117
ресектер	-11.7118
итеті	-11.7118
ауіпсізді	-11.7118
рқайсымыз	-11.7118
▁реф	-11.7118
ктеріміз	-11.7118
тандартт	-11.7118
▁ради	-11.7118
армаса	-11.7119
режи	-11.7119
▁пиц	-11.7119
икро	-11.7119
▁вело	-11.7119
нгли	-11.712
қтырмай	-11.712
рту	-11.712
кома	-11.7121
ельф	-11.7121
ырыла	-11.7122
ометр	-11.7122
ауалдар	-11.7122
▁ақымақ	-11.7122
узей	-11.7122
активті	-11.7122
икто	-11.7122
▁ұйқ	-11.7123
ецияда	-11.7123
терин	-11.7123
▁қаланы	-11.7123
мырасы	-11.7124
уралы	-11.7124
▁студ	-11.7125
▁бүлдір	-11.7125
▁сөндіруші	-11.7126
▁үзі	-11.7126
▁таңқал	-11.7126
Ph	-11.7126
жө	-11.7126
Ман	-11.7126
дус	-11.7126
рафт	-11.7127
жой	-11.7128
ұс	-11.7129
ытпай	-11.7131
▁Мах	-11.7131
▁инте	-11.7131
кізе	-11.7131
▁жігер	-11.7132
ліктерін	-11.7132
оэ	-11.7132
h	-11.7132
ығармашылық	-11.7133
▁Тех	-11.7133
▁әріпте	-11.7133
▁саясаткер	-11.7135
берлі	-11.7136
экс	-11.7138
қырып	-11.7138
астырды	-11.714
ндырыл	-11.7141
актерия	-11.7141
▁жаратыл	-11.7143
ютер	-11.7143
▁көрсеткіште	-11.7144
қсас	-11.7145
ріне	-11.7147
ігіт	-11.7148
логия	-11.7151
▁құлшы	-11.7151
ілігіңіз	-11.7152
▁түсте	-11.7152
ықтықта	-11.7153
теріміз	-11.7153
бесі	-11.7153
қырлы	-11.7154
іберу	-11.7155
тән	-11.7156
зиялы	-11.7156
▁зерде	-11.7158
пірім	-11.7161
ургер	-11.7161
▁жасө	-11.7162
▁дұ	-11.7163
здік	-11.7163
таңда	-11.7163
▁құж	-11.7164
графика	-11.7165
пта	-11.7166
▁сұлу	-11.7166
▁әңг	-11.7166
пірі	-11.7166
салыс	-11.7167
іншілік	-11.7168
ic	-11.7168
▁тайм	-11.7171
тва	-11.7171
фер	-11.7172
невр	-11.7174
▁Бло	-11.7175
афонда	-11.7176
▁бө	-11.7176
рмау	-11.7176
езең	-11.7177
ллиг	-11.7177
рауд	-11.7177
верс	-11.7178
▁бүл	-11.7179
сиет	-11.7179
акц	-11.7181
▁ғи	-11.7182
▁Бұрын	-11.7184
▁кездеспе	-11.7184
тандыра	-11.7185
▁сәтсіз	-11.7186
▁таңдауы	-11.7186
ea	-11.7186
▁Го	-11.7186
дістер	-11.7187
амха	-11.7187
ексеру	-11.7191
▁басса	-11.7191
рланған	-11.7193
▁құмар	-11.7194
▁Ли	-11.7195
кономика	-11.7195
шелері	-11.7195
▁сер	-11.7196
ілетінін	-11.7198
▁мона	-11.7198
імеле	-11.7198
көн	-11.7199
ылыстар	-11.7201
ғатына	-11.7201
поли	-11.7203
▁мәс	-11.7204
рха	-11.7205
лғ	-11.7209
уш	-11.721
ври	-11.7211
ландыру	-11.7215
ряды	-11.7216
ок	-11.7217
▁зо	-11.7217
сті	-11.722
анко	-11.7221
зат	-11.7223
иясы	-11.7223
бымызды	-11.7224
пкем	-11.7224
▁бү	-11.7228
▁сезіне	-11.7228
▁инд	-11.7229
ығу	-11.7229
▁сәттілі	-11.7231
▁аб	-11.7232
шинасы	-11.7233
жырымд	-11.7235
▁барбек	-11.7235
▁шатт	-11.7236
есінде	-11.7236
▁төр	-11.7238
ағалау	-11.7239
▁кіре	-11.7239
▁нәп	-11.724
циялар	-11.7242
тамыз	-11.7242
▁при	-11.7242
лиц	-11.7242
дро	-11.7243
шыларым	-11.7244
▁дәре	-11.7245
ологияда	-11.7248
нгт	-11.7248
талқы	-11.7256
▁карт	-11.7258
кетке	-11.7259
▁дол	-11.7264
конс	-11.7266
қымы	-11.7267
ілде	-11.7268
▁жиналы	-11.727
нияны	-11.7271
тігіне	-11.7273
ниел	-11.7275
шекте	-11.7278
▁маман	-11.7282
бат	-11.7283
шесіне	-11.7286
раф	-11.7287
терін	-11.7292
ияны	-11.7292
ұмыр	-11.7297
▁шаб	-11.7304
торлар	-11.7315
▁Үнді	-11.7316
холо	-11.7317
▁қош	-11.7317
тату	-11.7323
▁маркет	-11.7325
▁батп	-11.7325
▁ауылд	-11.7327
лед	-11.7333
▁бал	-11.7345
▁өлімі	-11.7346
▁спект	-11.7348
ексің	-11.7351
өрге	-11.7351
▁жасауы	-11.7352
▁сабақта	-11.7352
кетер	-11.7353
айттарда	-11.7354
рғысын	-11.7354
лықтарыңыз	-11.7359
▁жеңі	-11.7359
▁Кам	-11.736
▁ортада	-11.736
иж	-11.7362
інісі	-11.7363
▁сұрайсы	-11.7364
ажеттілік	-11.7366
▁өспе	-11.7366
▁Топ	-11.7366
7-	-11.7367
▁еле	-11.737
▁апат	-11.7373
уф	-11.7374
▁қабылдауы	-11.7375
ретті	-11.7376
об	-11.7378
барды	-11.7379
▁Үр	-11.7383
▁қиялым	-11.7392
ышымыз	-11.7395
мдері	-11.7396
кторларды	-11.7396
гия	-11.7399
▁экспер	-11.7401
▁сег	-11.7406
йлаған	-11.7407
▁баяу	-11.7408
▁Олард	-11.741
▁құд	-11.7411
мады	-11.7416
▁балаларда	-11.7416
▁Қор	-11.7417
етпейтін	-11.7419
атистика	-11.7421
▁І	-11.7421
▁құрлық	-11.7421
бей	-11.7422
нұсқада	-11.7431
юр	-11.7437
ивті	-11.7438
▁өзгере	-11.7438
2-	-11.7443
педи	-11.7443
▁ғылымда	-11.7444
сқаным	-11.7447
бең	-11.7447
кси	-11.7448
сие	-11.7448
баны	-11.7451
рхан	-11.7455
20-	-11.7455
ектесп	-11.7457
ттарыңыз	-11.7466
қпай	-11.7468
иттер	-11.7469
▁Бак	-11.747
ктик	-11.7472
аналары	-11.7482
рати	-11.7487
тігі	-11.7488
роп	-11.749
▁осылар	-11.749
▁гал	-11.7493
гг	-11.7505
раңыз	-11.7507
ықтыратын	-11.7508
▁Фи	-11.7516
лифо	-11.7518
▁Зе	-11.7522
арлар	-11.7524
▁шөп	-11.7526
▁мы	-11.7526
▁суретте	-11.7531
зула	-11.7541
кінді	-11.7541
▁үрейл	-11.7542
ушылары	-11.7545
дірме	-11.7546
нконгт	-11.7547
▁тастаған	-11.7549
▁көл	-11.7551
▁байланы	-11.7552
▁кес	-11.7555
таци	-11.7557
терлі	-11.7558
ғандарды	-11.7562
ғандығы	-11.7566
▁шыққ	-11.7567
алқы	-11.7568
екторлар	-11.7584
тация	-11.7585
ейне	-11.7586
▁тра	-11.7588
алам	-11.7594
▁табал	-11.7597
шо	-11.7597
армандарын	-11.7605
лиа	-11.761
рил	-11.7614
▁Po	-11.762
оз	-11.7629
ея	-11.763
▁отырға	-11.7632
▁Ва	-11.7634
▁жетпе	-11.7634
жайып	-11.7636
ысқа	-11.7639
милл	-11.7643
▁туд	-11.7644
ринг	-11.7647
0,	-11.7648
йымы	-11.7651
есет	-11.7657
уст	-11.7658
типі	-11.7662
▁Лу	-11.7666
▁есікт	-11.7667
▁арта	-11.7668
логикалы	-11.7671
▁озы	-11.7671
етіні	-11.7675
▁мақтаны	-11.7677
▁заманда	-11.7682
▁санам	-11.7685
ылдау	-11.7686
ділігін	-11.7689
▁сөйт	-11.7698
▁құбыл	-11.77
шылдық	-11.7704
▁Мә	-11.7704
хай	-11.771
аст	-11.7713
▁іше	-11.7717
шымыз	-11.7719
▁кетк	-11.7721
▁жүргенім	-11.7725
стер	-11.7735
▁бөліну	-11.7735
▁теңі	-11.7739
▁Ели	-11.7747
миян	-11.7747
семі	-11.7751
тырып	-11.7751
оқтығы	-11.7755
▁Ни	-11.7759
ұттықта	-11.7763
▁әлсі	-11.7769
азан	-11.777
еңе	-11.7771
▁фор	-11.7781
лад	-11.779
▁ойда	-11.7793
иман	-11.7794
▁адамд	-11.78
▁жарала	-11.7803
▁құтқары	-11.781
гілік	-11.781
дісіне	-11.7822
мендегі	-11.7822
алтафон	-11.7823
ізіне	-11.784
қтау	-11.7843
кеуіміз	-11.7843
лгебра	-11.7844
▁сенімі	-11.7849
▁дарыны	-11.7849
▁уақыттар	-11.7854
▁Алақа	-11.787
ралды	-11.7873
кет	-11.7881
▁алг	-11.7886
арл	-11.7887
▁өмірді	-11.7895
барға	-11.7914
▁Нақ	-11.792
▁төн	-11.7928
▁тұз	-11.7928
ттік	-11.7932
йнек	-11.7932
аттану	-11.7939
ланды	-11.7943
▁бейнелей	-11.795
стей	-11.7959
бә	-11.7961
ими	-11.7961
инада	-11.7971
дануд	-11.7973
арыңыз	-11.7985
луда	-11.799
тану	-11.7991
▁нәр	-11.7993
уба	-11.7998
▁ұпайы	-11.8003
іреуі	-11.801
▁салайы	-11.8026
▁бойым	-11.8027
rl	-11.8028
▁тоғ	-11.8031
▁жану	-11.8035
▁өспей	-11.8037
тса	-11.8054
қыны	-11.8057
ткенім	-11.806
денса	-11.8065
▁қайс	-11.8068
ізгі	-11.8072
▁три	-11.8073
лерімізді	-11.8076
▁келтірді	-11.8076
ымдай	-11.8077
▁ин	-11.8102
рулар	-11.8105
▁сәтсіздікт	-11.8106
мерикалықтар	-11.8115
екеті	-11.8116
леман	-11.8123
рганик	-11.8131
атта	-11.8132
ном	-11.8136
▁нашарла	-11.8137
уысы	-11.814
ұн	-11.8146
әрім	-11.8146
ндыр	-11.8149
▁Табиғатт	-11.8149
▁ағашы	-11.815
ргі	-11.8158
есік	-11.8161
адам	-11.8165
▁оралайы	-11.8165
▁Жоға	-11.8169
егіз	-11.817
▁хол	-11.8173
ион	-11.8174
аңбалард	-11.8175
ылда	-11.8183
▁сезімдер	-11.8196
ад	-11.8201
▁Өзің	-11.8203
▁құша	-11.8203
Шал	-11.8203
▁орынды	-11.8206
▁біті	-11.8215
▁үндес	-11.822
ңдерді	-11.8223
▁келемі	-11.8229
▁Мо	-11.8239
зге	-11.8254
1-	-11.8263
сіру	-11.8267
▁лин	-11.8269
ғаныңыз	-11.8274
▁вел	-11.8274
эн	-11.8275
рдық	-11.8282
▁Жұ	-11.8284
▁тәуел	-11.8285
▁салма	-11.829
қаға	-11.8297
▁тұрғыза	-11.8297
▁мықт	-11.8306
▁күнт	-11.8313
ейлі	-11.8315
0,000	-11.8321
▁университетте	-11.8323
торды	-11.8333
▁кезеңі	-11.8333
▁шаң	-11.8339
қырш	-11.834
▁бастар	-11.8343
діретін	-11.8348
йде	-11.8349
▁алаңд	-11.8359
мы	-11.8369
ашылық	-11.8373
▁зал	-11.8376
әз	-11.8384
рыс	-11.839
сқасы	-11.8391
етеді	-11.8394
▁еңбекте	-11.8398
▁үндеме	-11.8402
апқан	-11.8427
ңғыр	-11.8427
ызығушылық	-11.843
▁Мыс	-11.8432
ініш	-11.8467
лдар	-11.8471
▁Пер	-11.8473
▁әзір	-11.8491
ашықтық	-11.8495
▁шектеулері	-11.8497
рс	-11.8502
мар	-11.8507
▁ақпа	-11.8509
▁Ком	-11.8513
▁Тұ	-11.8518
аласқа	-11.8521
▁оқуы	-11.8531
нес	-11.8538
▁деме	-11.8539
алан	-11.856
сты	-11.857
▁Но	-11.8574
▁текс	-11.8592
астайтыны	-11.8597
▁қысы	-11.8604
атқаныңыз	-11.8615
▁адамдарым	-11.864
▁әкесін	-11.8641
амам	-11.8643
▁бөлшектерд	-11.8646
алын	-11.8653
▁кер	-11.8665
▁шетін	-11.8675
қылда	-11.8676
▁молекулал	-11.8677
ерд	-11.8687
еография	-11.8691
лаған	-11.8709
меран	-11.871
мон	-11.8737
▁жаб	-11.8739
етістік	-11.8739
маг	-11.8742
лдықты	-11.8759
сындай	-11.8763
кау	-11.8767
шақтағы	-11.8771
▁адамдарда	-11.8774
апай	-11.8776
▁келгенің	-11.8784
▁май	-11.8793
ірінде	-11.8797
▁жайы	-11.8805
▁мынан	-11.8807
ғаны	-11.8809
рене	-11.881
▁үм	-11.8815
▁тапсыры	-11.8817
▁бөлшекте	-11.8833
матика	-11.8836
▁қонақт	-11.8846
▁шығын	-11.8852
▁Американ	-11.8862
пографи	-11.8864
▁ағашта	-11.8877
күйлері	-11.8885
▁фра	-11.8886
▁қона	-11.8894
тасыз	-11.8898
▁жинақтал	-11.8899
үнде	-11.8907
▁түсінесі	-11.8911
▁бәсе	-11.8962
▁жолым	-11.8971
ғандарың	-11.8973
▁сая	-11.8985
▁нақ	-11.8993
жетімді	-11.902
оғар	-11.9032
тіген	-11.9034
нық	-11.904
▁Мектепт	-11.9048
ілуіміз	-11.9065
иналып	-11.9075
амас	-11.9076
таз	-11.9082
▁абс	-11.9089
▁қалаға	-11.9093
▁туа	-11.9101
▁алғанды	-11.9104
▁басп	-11.9112
▁оз	-11.9114
бал	-11.9124
оқ	-11.9135
▁но	-11.9158
аушылық	-11.9161
айқағандары	-11.9172
емді	-11.9173
▁оқушыларын	-11.9181
▁Ер	-11.9184
▁үдеріст	-11.9184
▁эн	-11.9188
▁өсірі	-11.9203
алары	-11.9214
ск	-11.9214
▁таңғ	-11.9221
▁жоғал	-11.9222
ынаған	-11.9229
стықтар	-11.9229
уи	-11.923
▁демалыст	-11.9261
▁ұйымда	-11.9267
есінің	-11.9271
▁түбін	-11.9277
лде	-11.9279
▁Бу	-11.9279
иын	-11.9282
▁алғ	-11.9306
▁Қызда	-11.9317
▁өне	-11.9324
▁тұрғызғ	-11.9333
▁төсек	-11.9338
▁Арал	-11.9351
▁Кар	-11.9359
▁қалауын	-11.9363
ыздар	-11.9368
шар	-11.9386
▁ынта	-11.9405
▁көшбасшылы	-11.9405
▁күнг	-11.941
▁есі	-11.9416
педім	-11.9452
алға	-11.9468
нуді	-11.9478
▁өмірің	-11.948
▁аудармас	-11.9485
▁ли	-11.9514
әлемде	-11.952
рмасы	-11.9524
тте	-11.9532
торына	-11.9558
анд	-11.9571
пони	-11.9577
тал	-11.958
▁еру	-11.9594
ыларың	-11.9619
қсы	-11.9635
ұрылғы	-11.9636
лдан	-11.9649
▁хаост	-11.9653
▁дем	-11.9668
▁қойыл	-11.9696
▁жылжыма	-11.9701
▁у	-11.9708
аспаған	-11.9719
мау	-11.9738
еске	-11.9747
қарасым	-11.9762
дәрме	-11.9771
асыңыз	-11.9773
нала	-11.9775
ігерлер	-11.9776
апалақтау	-11.978
тс	-11.978
▁артын	-11.9782
йтынымыз	-11.9786
хмет	-11.9797
рхитектор	-11.9797
▁мл	-11.9829
▁жабыл	-11.9832
етк	-11.9833
▁отырғызы	-11.9862
ауы	-11.9863
▁сезімдерд	-11.9881
уб	-11.9894
▁Тай	-11.9896
▁Тілд	-11.9898
▁жатқаның	-11.9901
▁өміріңізд	-11.9923
▁асп	-11.9925
бін	-11.993
▁Телефоны	-11.9944
▁тыр	-11.9947
▁әп	-11.9955
▁армандары	-11.9963
▁бизнест	-11.9982
▁Оқуд	-11.9985
нмен	-11.9989
ніс	-11.9997
▁Өзі	-12.0005
ах	-12.0005
атушы	-12.0046
ректен	-12.005
зімде	-12.0052
рынды	-12.0058
ниетті	-12.0072
▁қатынас	-12.0096
аңғыл	-12.0097
▁ора	-12.0113
ойыңызд	-12.0122
айд	-12.0129
лданды	-12.0134
йр	-12.0148
▁тех	-12.015
▁әріптестері	-12.0153
атана	-12.018
Па	-12.0185
▁даналы	-12.02
етпе	-12.0204
▁азайта	-12.0206
кін	-12.0214
▁қорыт	-12.0218
циял	-12.0223
ясын	-12.0243
рме	-12.0245
▁ги	-12.0256
амызды	-12.0257
ректерді	-12.0298
▁жинақ	-12.0323
рк	-12.0426
▁опти	-12.0446
▁біріге	-12.0449
кенін	-12.0453
офе	-12.0474
▁тұрм	-12.0483
паған	-12.0485
изуализация	-12.0496
йыз	-12.0516
уту	-12.0525
▁келгенді	-12.0526
ндықт	-12.0535
▁пі	-12.0537
шыл	-12.0549
▁тірлі	-12.0552
▁саб	-12.0578
алу	-12.058
▁пара	-12.0586
▁қателі	-12.0627
▁табы	-12.0628
нады	-12.0654
▁топырақт	-12.0662
▁ортан	-12.0668
▁мұқ	-12.0683
▁армандау	-12.0703
▁жүрект	-12.0704
▁дегенде	-12.071
абыл	-12.0713
ертеңгі	-12.0734
▁тыңдау	-12.0736
▁үрейле	-12.0774
ралық	-12.0781
ндеу	-12.0782
ккен	-12.0806
нбейтін	-12.081
оне	-12.0813
▁Ом	-12.0822
нализ	-12.0828
іншісі	-12.0831
іш	-12.0838
аяғын	-12.0844
▁сенд	-12.0847
іри	-12.0869
лют	-12.0882
▁есепт	-12.0883
▁алмайтынд	-12.0888
геніміз	-12.0897
▁ғ	-12.0903
▁нау	-12.0913
тарды	-12.0919
ресе	-12.0927
▁сыйл	-12.0943
▁құма	-12.0954
▁түсіндірме	-12.0959
сымын	-12.0985
гр	-12.0999
ракт	-12.101
опта	-12.1044
ғыс	-12.1047
▁дамыт	-12.1059
қор	-12.1069
үпнұсқа	-12.108
▁аймақт	-12.109
оның	-12.1121
▁сүйене	-12.1134
нді	-12.114
уве	-12.116
▁қағ	-12.1169
▁аймақтард	-12.1183
лдау	-12.1196
ттан	-12.1202
▁едің	-12.1204
орн	-12.1206
тіне	-12.1235
3-	-12.1244
нбес	-12.1265
▁босат	-12.1272
арлы	-12.1284
лден	-12.1292
▁Дем	-12.1299
▁құндылы	-12.1303
бейтін	-12.131
езде	-12.1341
▁істес	-12.1357
▁тат	-12.1381
▁жары	-12.1384
▁шығарасы	-12.1403
лгі	-12.1404
шара	-12.1406
▁салса	-12.1431
уім	-12.1444
нына	-12.1462
же	-12.1465
атыны	-12.149
▁арттыр	-12.1494
қшылығы	-12.1498
▁сайттард	-12.1515
▁Жаң	-12.1532
амасы	-12.1566
нәрсені	-12.1591
бере	-12.1591
▁танысқан	-12.1668
▁дайынд	-12.1697
▁оқыт	-12.1719
тастай	-12.1721
іршілік	-12.176
▁таңдан	-12.1776
▁келіспе	-12.179
▁болға	-12.1812
ерін	-12.1847
▁болжай	-12.185
▁ұшы	-12.1881
демі	-12.1884
расында	-12.1895
амин	-12.1903
беді	-12.1904
діктеріңіз	-12.1907
мо	-12.1917
▁артқ	-12.1917
ирект	-12.1942
ендіг	-12.2016
удан	-12.2024
▁сезімд	-12.2049
▁бұлға	-12.2154
▁алмағанда	-12.2167
▁оқиғам	-12.2167
пал	-12.2169
бірің	-12.217
▁әу	-12.219
▁жақты	-12.2231
▁сүйі	-12.2256
▁зерт	-12.2283
▁ұша	-12.2293
алмай	-12.233
сім	-12.2334
андыра	-12.2338
▁агентт	-12.2364
▁студентт	-12.2399
▁қауымдастықт	-12.244
▁романы	-12.2446
ңгір	-12.2452
алдар	-12.2477
пей	-12.2483
▁бастағ	-12.2504
лақ	-12.2515
▁жетелей	-12.2532
қта	-12.2561
▁болсаң	-12.2577
▁ті	-12.2579
▁Мінек	-12.2584
▁із	-12.2624
ететін	-12.2644
▁жақс	-12.2648
дарына	-12.2682
идан	-12.2688
ырдың	-12.2698
▁мо	-12.2725
кус	-12.2733
аб	-12.2736
ғың	-12.2738
der	-12.2763
▁Ро	-12.277
парсы	-12.2775
▁көріністе	-12.2818
▁шатастыр	-12.2863
аңалықтар	-12.2886
▁көмегін	-12.289
▁жә	-12.2907
тінін	-12.2908
▁Жаны	-12.291
оқыр	-12.2966
▁қабатта	-12.3023
ней	-12.3025
▁ұқ	-12.3087
▁сақтал	-12.3102
емен	-12.3126
ізден	-12.3132
▁ішін	-12.3134
▁көрсетк	-12.314
ойлау	-12.3155
▁мед	-12.317
қылық	-12.3171
сіңізде	-12.3177
бер	-12.3205
▁символы	-12.3231
▁бағдарламала	-12.3258
▁атаса	-12.3327
иі	-12.3383
лайд	-12.3385
қанын	-12.3398
әуір	-12.3401
йтіні	-12.3402
тесті	-12.3426
зіңізде	-12.3434
зінде	-12.3436
▁бірік	-12.3441
енің	-12.3445
зуализация	-12.349
рін	-12.3502
қатынасым	-12.3508
▁жұмы	-12.3537
▁жасауым	-12.3604
▁Бе	-12.3618
вод	-12.3629
арын	-12.3659
▁ста	-12.3661
рмашылық	-12.3674
дайды	-12.3675
▁жеріңд	-12.3702
▁әріптесі	-12.3722
▁анықтал	-12.3731
▁дұрыста	-12.3735
▁қарастыра	-12.3752
▁қоямы	-12.3824
▁көлікт	-12.3838
▁сұрақт	-12.3869
▁шынды	-12.3877
▁тезі	-12.3888
ақтар	-12.3895
▁ауданд	-12.3912
теді	-12.3919
рына	-12.3925
▁қыра	-12.3927
йренбеген	-12.3972
лас	-12.4012
тайық	-12.4015
байы	-12.4054
гімен	-12.4055
▁Оларда	-12.4063
▁Қаз	-12.4098
ыңдағы	-12.4098
▁істейтіні	-12.4104
▁әк	-12.4107
▁затт	-12.4121
дықтард	-12.419
анағ	-12.4214
▁жерім	-12.4227
тим	-12.4227
ындықта	-12.4229
ұ	-12.4265
▁көбе	-12.4276
▁жинай	-12.4296
▁орынд	-12.4323
▁баул	-12.4351
етуі	-12.4354
аса	-12.439
▁қашықт	-12.4392
рет	-12.4455
нж	-12.4468
йтыны	-12.4478
ңгі	-12.4518
▁әлемн	-12.4527
▁қат	-12.4569
идео	-12.4572
араңыздар	-12.4666
уда	-12.4675
▁мото	-12.4676
▁ұнама	-12.469
▁кан	-12.4699
меге	-12.4722
▁шығары	-12.4746
алдыңыз	-12.4774
▁жыла	-12.4785
ісін	-12.479
▁тәжірибел	-12.4817
▁кл	-12.4842
таңд	-12.4843
құрай	-12.4845
илл	-12.487
▁айн	-12.49
▁таңдады	-12.4904
қтағы	-12.4922
асын	-12.4971
▁Шығыст	-12.5003
рсеңіз	-12.5005
исте	-12.5016
▁Рах	-12.5031
адық	-12.5034
стыруым	-12.5039
▁қызығушылықт	-12.5093
▁Арт	-12.5102
нетін	-12.5119
▁отырс	-12.5125
▁дыбыст	-12.5166
йған	-12.5179
▁жазылы	-12.5213
▁жіберсе	-12.5216
аян	-12.5235
▁өндіріст	-12.527
▁аяқтар	-12.527
ңдағы	-12.5279
11	-12.5333
▁түйсі	-12.538
▁жатқаныңызд	-12.5389
▁Джонс	-12.5395
қса	-12.5399
▁көн	-12.5442
ектор	-12.5446
▁басқаруд	-12.5511
анында	-12.5537
▁прот	-12.5583
▁әліп	-12.5609
▁Дә	-12.564
ұндай	-12.564
▁Кин	-12.567
сымыз	-12.5737
▁отбасым	-12.5765
ағанымызда	-12.5769
▁жанд	-12.5787
▁көзқараст	-12.5801
өре	-12.5811
окс	-12.5836
қаны	-12.5862
старын	-12.5877
▁Кітапт	-12.588
▁қайтар	-12.5952
▁өміріміз	-12.5964
▁дәр	-12.5981
альды	-12.5986
гу	-12.6106
▁бұрынғыда	-12.6114
▁кеңе	-12.6117
орман	-12.6129
мократия	-12.6142
▁a	-12.6156
лсіздігім	-12.6169
▁қаз	-12.6185
ығына	-12.6211
▁тіріл	-12.624
лен	-12.6248
ойы	-12.6254
▁ұшақт	-12.6269
сінің	-12.6285
ақтағы	-12.6304
йік	-12.632
меді	-12.634
▁нан	-12.6343
кенің	-12.6348
бел	-12.6356
мекші	-12.6374
▁аяқт	-12.6398
▁етің	-12.643
санды	-12.6433
▁Аяғы	-12.6441
▁Шыным	-12.6444
хо	-12.6461
нада	-12.6473
есем	-12.6513
▁құлд	-12.6523
▁ғылымн	-12.6524
▁сауаттыл	-12.6591
▁Тір	-12.6673
ег	-12.6684
спейді	-12.6687
ққаным	-12.6697
ігім	-12.6715
▁мәліметтерд	-12.675
айған	-12.679
тіге	-12.6799
әже	-12.6807
▁Делид	-12.6861
ld	-12.6878
▁тараты	-12.6888
қаныңыз	-12.69
айз	-12.6917
ілі	-12.692
нған	-12.6929
ши	-12.6933
ымызд	-12.6983
▁ней	-12.6984
▁оята	-12.7013
▁ға	-12.7028
ауларын	-12.705
рика	-12.7092
ққанда	-12.7122
мас	-12.7151
▁жоғ	-12.7157
▁ап	-12.717
ұрылыс	-12.7174
атындығын	-12.7248
лм	-12.7293
нумен	-12.7293
олашағы	-12.7309
▁қозғалма	-12.7335
▁Даб	-12.7349
бірімізд	-12.7361
▁әдебиетт	-12.7394
тінде	-12.7401
▁жап	-12.7432
рда	-12.7463
▁орманд	-12.7487
▁жауа	-12.7491
▁ағыл	-12.7492
рларының	-12.7497
Ч	-13.0941
З	-13.0942
Я	-13.0943
#	-13.0944
Л	-13.0945
Э	-13.0946
–	-13.0947
Г	-13.0948
—	-13.0949
П	-13.095
Ү	-13.0951
!	-13.0952
Ө	-13.0953
»	-13.0954
:	-13.0955
)	-13.0956
?	-13.0957
К	-13.0958
М	-13.0959
q	-13.096
&	-13.0961
