<unk>	0
<s>	0
</s>	0
▁.	-2.97675
▁	-3.11999
▁,	-3.93426
의	-4.13684
을	-4.151
;	-4.45162
▁&	-4.4697
를	-4.52535
에	-4.53121
이	-4.55079
는	-4.58354
ot	-4.59886
qu	-4.60133
가	-4.70322
▁수	-4.92122
은	-4.98277
▁이	-4.99993
▁그	-5.23324
도	-5.26473
▁있습니다	-5.45075
로	-5.4582
에서	-5.47347
▁그리고	-5.50277
고	-5.51383
지	-5.60137
▁?	-5.60795
한	-5.67858
과	-5.6886
▁)	-5.69461
(	-5.6956
▁저는	-5.69847
▁있는	-5.71891
입니다	-5.72775
▁우리는	-5.856
으로	-5.85876
와	-5.88292
하는	-5.89124
▁제가	-5.96123
기	-6.00978
하고	-6.03252
▁더	-6.03512
인	-6.04386
할	-6.04611
요	-6.07745
▁우리가	-6.08268
▁것입니다	-6.08947
게	-6.09738
▁제	-6.15177
▁다른	-6.23986
▁하지만	-6.25068
a	-6.29821
▁한	-6.30825
만	-6.3275
▁이런	-6.3486
▁때	-6.34895
▁그래서	-6.35016
▁모든	-6.36149
▁것을	-6.37453
죠	-6.37526
들이	-6.42135
▁합니다	-6.47013
나	-6.47375
서	-6.47823
▁할	-6.49755
▁전	-6.50916
합니다	-6.51747
들을	-6.51896
▁우리	-6.52139
해	-6.52237
▁많은	-6.53675
▁것은	-6.54119
적인	-6.55084
들은	-6.56175
pos	-6.56451
리	-6.60549
▁:	-6.60619
어	-6.60913
자	-6.65631
년	-6.65748
▁웃음	-6.66811
▁겁니다	-6.67234
▁어떤	-6.67807
▁것이	-6.70969
했습니다	-6.7146
▁하는	-6.71984
하게	-6.72547
▁어떻게	-6.74634
면	-6.74785
▁대한	-6.76687
▁같은	-6.79007
된	-6.81045
▁가장	-6.82621
▁것	-6.84
일	-6.85315
▁사람들이	-6.86205
▁대해	-6.86792
적	-6.87505
▁이것은	-6.87585
습니다	-6.88552
스	-6.9039
▁중	-6.91088
▁위해	-6.98019
▁아주	-6.99254
다	-7.00042
▁자	-7.00554
▁이제	-7.01206
▁매우	-7.01822
라	-7.02178
▁바로	-7.02259
▁그들은	-7.02896
사	-7.03652
야	-7.03729
▁정말	-7.03994
수	-7.04307
들	-7.04673
▁두	-7.04818
하기	-7.04994
히	-7.06041
아	-7.07413
▁잘	-7.08203
▁일	-7.09713
시	-7.11035
▁다	-7.12504
▁여기	-7.14706
하지	-7.15761
▁박수	-7.17699
▁가지고	-7.17971
▁사실	-7.18723
적으로	-7.1916
▁그런	-7.20163
▁우리의	-7.20593
▁또	-7.23375
▁이렇게	-7.23867
▁하나	-7.23922
▁주	-7.23983
▁여러분	-7.24123
▁저	-7.24206
▁지금	-7.24789
▁말이죠	-7.2622
▁말	-7.26607
▁걸	-7.27178
▁여러분이	-7.2796
▁하고	-7.28012
▁내	-7.28018
▁이야기	-7.28095
다는	-7.28165
던	-7.29377
대	-7.29531
▁큰	-7.29749
▁했습니다	-7.30173
에게	-7.30598
▁새로운	-7.30977
▁있었습니다	-7.32115
▁볼	-7.33117
▁다시	-7.33821
▁될	-7.33912
▁안	-7.35029
▁아	-7.35619
▁몇	-7.35644
라고	-7.36041
▁함께	-7.36247
▁있다는	-7.36818
▁해	-7.37135
▁그는	-7.3742
이나	-7.38301
화	-7.38427
드	-7.38513
▁사람들은	-7.38956
▁오	-7.39284
▁됩니다	-7.39552
▁1	-7.39797
▁있고	-7.40116
▁3	-7.40801
▁이건	-7.41033
▁알	-7.41986
▁그것은	-7.42277
▁아닙니다	-7.42402
성	-7.42715
에는	-7.43136
▁라고	-7.43837
까지	-7.44039
주	-7.44132
▁아니라	-7.4511
▁때문입니다	-7.45359
다고	-7.45398
▁있을	-7.4683
▁있죠	-7.46876
▁그들	-7.47345
▁지	-7.4796
▁이것이	-7.49217
▁2	-7.49247
▁모두	-7.49609
▁왜냐하면	-7.49668
▁좋은	-7.50831
▁비	-7.50936
라는	-7.51787
해야	-7.52519
▁바	-7.52812
처럼	-7.52925
트	-7.5313
▁중요한	-7.5315
▁없습니다	-7.53237
▁대	-7.53869
▁가지	-7.53993
▁실제로	-7.54057
▁않습니다	-7.54639
▁일이	-7.55059
해서	-7.55153
진	-7.56214
치	-7.57241
니	-7.57389
▁일을	-7.57455
▁수도	-7.57493
부	-7.57581
▁부	-7.57611
▁사	-7.57757
▁작은	-7.57931
▁때문에	-7.58363
▁정도	-7.58631
▁그렇게	-7.59252
상	-7.59456
소	-7.59615
▁사람	-7.59741
보다	-7.60064
▁만약	-7.60123
이죠	-7.60204
다면	-7.60651
▁나	-7.60992
▁세	-7.61291
▁감사합니다	-7.62358
러	-7.62404
▁그들이	-7.62463
장	-7.62915
▁그러나	-7.63092
▁위한	-7.63379
▁생각	-7.63513
보	-7.63798
비	-7.64191
▁또한	-7.64256
는데	-7.65033
▁여러분은	-7.65732
원	-7.65831
하	-7.65969
▁이러한	-7.66844
들의	-7.67453
▁알고	-7.68551
지요	-7.6915
▁10	-7.69519
▁약	-7.69553
%	-7.70221
▁동안	-7.71926
▁만들	-7.72286
르	-7.72659
▁보	-7.7275
▁시	-7.72787
▁좀	-7.72934
▁없는	-7.72956
▁가	-7.73608
중	-7.7377
▁많이	-7.73796
▁통해	-7.74112
▁있어요	-7.7454
지만	-7.75558
▁사람이	-7.75874
분	-7.76328
▁들어	-7.76386
▁건	-7.77058
▁줄	-7.77157
전	-7.77997
하여	-7.78983
질	-7.79592
까요	-7.80048
선	-7.80326
▁생각합니다	-7.8107
신	-7.81174
실	-7.81462
였습니다	-7.81824
이라고	-7.82139
▁말입니다	-7.82589
려	-7.82688
되는	-7.83033
어요	-7.8323
제	-7.83707
개	-7.83811
▁것이죠	-7.83926
▁세계	-7.84337
▁5	-7.84578
며	-7.84637
▁유	-7.85608
▁그것이	-7.85932
도록	-7.86207
▁4	-7.86546
이라는	-7.86714
▁무	-7.87796
▁네	-7.87965
거나	-7.88037
▁그건	-7.88148
마	-7.88205
식	-7.88252
▁현재	-7.88414
▁물	-7.88434
-	-7.8868
▁연구	-7.88802
▁있다고	-7.89452
▁모	-7.89511
▁만들어	-7.90038
▁사용	-7.90346
▁행동	-7.90414
이었습니다	-7.9042
구	-7.90753
에서는	-7.91318
▁얼마나	-7.91521
▁되었습니다	-7.91739
▁그런데	-7.91779
든	-7.92059
었습니다	-7.9232
▁후	-7.92777
하면	-7.92895
▁물론	-7.93162
▁구	-7.93261
▁입니다	-7.93625
▁거죠	-7.94748
세	-7.94834
▁거	-7.9537
▁도시	-7.95411
▁사회	-7.95447
프	-7.95637
▁계속	-7.96016
정	-7.96296
▁신	-7.96584
▁마	-7.97108
▁차	-7.97122
이고	-7.97234
▁날	-7.9748
▁반	-7.97486
▁서로	-7.97925
▁보고	-7.98655
▁시작	-7.98782
엔	-7.99044
▁컴퓨터	-7.99626
▁지구	-8.0018
당	-8.00274
▁미국	-8.00275
데	-8.00475
건	-8.00607
▁미	-8.00731
▁다음	-8.00854
되어	-8.01163
▁20	-8.01185
체	-8.01218
▁이상	-8.01363
▁대해서	-8.0145
우	-8.01523
▁지난	-8.01702
▁되는	-8.021
▁문제	-8.02159
용	-8.0287
.	-8.03187
▁인간	-8.03342
▁만드는	-8.03509
▁선	-8.03523
▁음악	-8.04093
면서	-8.04141
▁되	-8.04328
기를	-8.04686
▁예를	-8.04735
▁있게	-8.05003
▁당신	-8.05009
▁기술	-8.05016
▁전에	-8.051
▁너무	-8.053
▁살	-8.05349
▁아이들	-8.05386
조	-8.05465
▁이야기를	-8.05579
오	-8.05785
학	-8.06091
1	-8.06127
▁디자인	-8.06364
▁어	-8.06627
▁그것을	-8.06846
▁하	-8.07185
들과	-8.07522
▁저희는	-8.07533
▁즉	-8.07535
관	-8.08073
미	-8.08177
▁않는	-8.08446
▁고	-8.08915
크	-8.09105
하죠	-8.09227
부터	-8.09427
▁거의	-8.09434
▁게	-8.09552
▁상	-8.09558
▁파	-8.09606
▁불	-8.09689
▁예	-8.09842
루	-8.09868
물	-8.10037
▁위해서	-8.10043
▁소	-8.1011
▁우주	-8.10149
란	-8.10176
▁가진	-8.10309
▁교육	-8.10427
개의	-8.11288
타	-8.12375
▁어느	-8.12807
들에게	-8.13
했던	-8.13592
▁발	-8.13632
▁관한	-8.1393
계	-8.14228
지는	-8.14298
▁개	-8.14563
여	-8.14609
▁그게	-8.15321
모	-8.15428
▁같이	-8.15618
명	-8.15688
▁이게	-8.15928
▁정	-8.15964
▁아이	-8.16085
▁여기서	-8.16094
▁분	-8.1625
▁이것을	-8.16258
▁여러	-8.16344
▁지역	-8.16361
워	-8.16707
▁오늘	-8.16812
니다	-8.16832
▁그럼	-8.16982
단	-8.17061
억	-8.17185
형	-8.17216
살	-8.17349
▁원	-8.17475
위	-8.17662
▁따라	-8.1809
▁자연	-8.18423
▁훨씬	-8.18591
▁과학	-8.189
터	-8.19194
▁정보	-8.19407
운	-8.19505
▁저의	-8.19602
▁입	-8.19648
될	-8.19699
▁6	-8.19944
▁배	-8.20261
내	-8.20352
▁완전히	-8.2048
▁사람들을	-8.2063
거	-8.20708
▁된	-8.20781
▁열	-8.20959
간	-8.21095
금	-8.21474
▁우리에게	-8.21732
▁기억	-8.21782
▁첫	-8.21908
▁해야	-8.22111
▁것에	-8.22194
▁번	-8.2242
▁것과	-8.22536
▁결정	-8.22586
▁에너지	-8.22849
▁전체	-8.22955
▁간	-8.23266
▁이미	-8.233
▁공	-8.23322
▁스스로	-8.23391
i	-8.23755
국	-8.23777
▁때문이죠	-8.24061
▁당신이	-8.2424
길	-8.24328
직	-8.24427
린	-8.24497
▁달	-8.24537
되고	-8.24686
티	-8.25135
▁항상	-8.25366
▁마치	-8.25527
▁정부	-8.25551
까	-8.25556
▁국가	-8.256
▁시간	-8.25876
▁않은	-8.26073
▁있다면	-8.26091
▁사람들	-8.26113
▁그가	-8.2613
▁변화	-8.26216
▁단지	-8.2622
▁있도록	-8.26337
▁프로젝트	-8.26423
▁사람들에게	-8.26436
파	-8.26544
▁종류	-8.26733
▁그녀는	-8.2674
▁저희	-8.26794
▁강	-8.27038
▁양	-8.27105
▁있기	-8.27112
▁일부	-8.27204
▁보면	-8.27273
▁있는지	-8.27303
▁영화	-8.2742
▁만든	-8.27566
▁저를	-8.28157
인데	-8.28221
▁아프리카	-8.28582
▁발견	-8.28701
년에	-8.28721
▁아마	-8.28908
o	-8.28921
▁혹은	-8.28923
지도	-8.29022
바	-8.29051
방	-8.29203
했고	-8.29545
▁조	-8.29553
▁자기	-8.29575
▁무엇을	-8.29817
▁기	-8.29854
▁여	-8.30017
e	-8.30086
▁이유	-8.30304
▁몸	-8.30557
▁그의	-8.30579
▁재	-8.3096
▁조금	-8.31017
▁동	-8.31482
▁무슨	-8.31498
▁자신	-8.31527
했죠	-8.31529
▁오늘날	-8.31603
▁또는	-8.31815
▁그냥	-8.32138
▁경험	-8.32179
▁경제	-8.32277
됩니다	-8.32454
▁사랑	-8.32513
▁실험	-8.32541
▁소리	-8.32549
▁있는데	-8.32613
s	-8.32783
동	-8.32821
▁생각해	-8.3318
것	-8.33266
▁산	-8.33418
▁처음	-8.33453
▁단	-8.33613
있는	-8.33653
▁인터넷	-8.33728
▁이름	-8.33754
▁않았습니다	-8.3377
▁자신의	-8.33968
▁경우	-8.34031
▁시작했습니다	-8.34332
에도	-8.34386
그	-8.34445
▁결국	-8.34541
▁개발	-8.3455
▁하지	-8.346
▁피	-8.34741
감	-8.34783
네	-8.3503
거죠	-8.35326
▁것도	-8.35645
▁영향을	-8.35724
겁니다	-8.35972
▁심	-8.35986
▁데이터	-8.36445
▁방법을	-8.36999
▁순간	-8.37043
▁난	-8.37111
▁아이디어	-8.37148
▁암	-8.3722
▁데	-8.37308
▁회사	-8.37387
▁내가	-8.37541
▁변	-8.37588
▁문제를	-8.37706
▁않고	-8.37787
▁이걸	-8.37854
▁있을까요	-8.38063
▁하죠	-8.38142
때	-8.38272
하는데	-8.3835
▁않을	-8.38395
하며	-8.38776
▁선택	-8.39062
▁본	-8.391
2	-8.39153
류	-8.39322
▁것처럼	-8.39926
디	-8.40045
문	-8.40089
릴	-8.40306
▁문제가	-8.40452
▁스	-8.40467
피	-8.40515
t	-8.40574
▁우	-8.40667
생	-8.40672
▁우린	-8.40924
교	-8.41019
▁-	-8.41093
▁실	-8.41135
▁그러면	-8.41208
걸	-8.41394
▁뇌	-8.41513
▁제게	-8.4156
겠죠	-8.41658
▁안에	-8.41707
▁여성	-8.41857
▁그걸	-8.41989
▁것들을	-8.4221
차	-8.42277
▁놀라운	-8.42304
▁시스템	-8.4245
▁새	-8.42649
▁가족	-8.42873
속	-8.42957
기도	-8.42977
론	-8.43083
▁보세요	-8.43212
같은	-8.43573
▁아니	-8.43581
▁이해	-8.43652
증	-8.43658
▁갖고	-8.43685
▁위	-8.44229
함	-8.44276
▁명	-8.44487
▁연결	-8.44637
▁실제	-8.44688
명의	-8.44694
▁등	-8.44783
행	-8.45188
배	-8.45191
▁작품	-8.45464
▁세포	-8.45473
▁인도	-8.45495
레	-8.45545
▁얘기	-8.45561
▁존재	-8.45572
▁친구	-8.45574
▁말을	-8.45835
두	-8.45977
공	-8.45993
▁말했습니다	-8.46165
▁음	-8.46232
▁의미	-8.46352
▁굉장	-8.46585
▁중국	-8.46887
었죠	-8.46957
▁누군가	-8.47025
더	-8.47042
로부터	-8.47121
▁막	-8.47128
▁이유는	-8.47154
려고	-8.47283
▁동물	-8.4745
▁남자	-8.47501
▁역사	-8.47577
▁필요한	-8.47996
▁전혀	-8.48013
▁나는	-8.48238
▁좋아	-8.48383
▁일은	-8.4868
코	-8.48704
▁결과	-8.48744
래	-8.48746
▁작업	-8.48944
▁뭔가	-8.49121
▁30	-8.4917
▁싶은	-8.49265
하면서	-8.49313
▁단어	-8.49406
▁엄청난	-8.49527
▁성장	-8.49606
▁발전	-8.49822
점	-8.49975
▁살고	-8.5008
구요	-8.50112
경	-8.50319
▁있어서	-8.50416
는지	-8.50437
▁말하는	-8.50507
▁아닌	-8.50553
▁알게	-8.50768
▁하면	-8.51285
▁정보를	-8.51319
▁책	-8.5141
심	-8.51429
월	-8.51456
▁노력	-8.51663
▁벌	-8.51696
▁사람들의	-8.51776
▁온	-8.51873
▁7	-8.51912
▁남	-8.51947
▁조직	-8.5201
▁여기에	-8.52119
▁보는	-8.52306
무	-8.52309
▁하나는	-8.52322
안	-8.52395
▁구조	-8.52709
음	-8.52824
즈	-8.52902
▁생산	-8.5293
▁만	-8.53005
카	-8.53249
▁저에게	-8.53421
으면	-8.5364
▁사진	-8.53685
세요	-8.53731
▁집	-8.5432
▁매	-8.54385
되었습니다	-8.5439
▁라는	-8.54496
▁형태	-8.54526
▁다양한	-8.54564
▁것으로	-8.54634
▁방	-8.54772
▁정말로	-8.55044
▁...	-8.5514
▁바다	-8.55238
▁기계	-8.55402
▁같습니다	-8.55527
▁연	-8.55559
▁나라	-8.55643
지를	-8.55753
한다는	-8.55926
▁부분	-8.56004
▁모델	-8.56028
▁프로그램	-8.56087
▁뒤	-8.56189
▁점	-8.5621
▁성공	-8.56442
력	-8.56451
▁들	-8.56536
▁아마도	-8.56581
▁아직	-8.56646
▁병	-8.56677
▁외	-8.56817
출	-8.56856
m	-8.57035
재	-8.5727
네요	-8.57769
▁아무	-8.57851
▁모두가	-8.57948
말	-8.57981
▁아니면	-8.582
▁것들이	-8.58287
▁후에	-8.58358
▁삶	-8.58428
▁전쟁	-8.58531
하도록	-8.58544
▁한번	-8.58641
▁종	-8.587
산	-8.58762
▁법	-8.59019
▁갈	-8.59104
▁팔	-8.59157
연	-8.5932
▁치료	-8.59389
▁특히	-8.59417
▁여전히	-8.59417
▁심지어	-8.59417
거든요	-8.59454
▁현실	-8.59541
▁설명	-8.59654
▁그러니까	-8.59658
▁당	-8.59665
법	-8.59855
▁환경	-8.6033
▁50	-8.6044
▁번째	-8.60538
시간	-8.60591
▁8	-8.60658
▁되어	-8.60788
▁여자	-8.60892
져	-8.60929
▁건강	-8.61131
▁약간	-8.61193
▁타	-8.61196
발	-8.61271
▁진화	-8.61325
▁손	-8.61481
▁한다는	-8.61662
초	-8.61693
▁A	-8.61739
▁문화	-8.61843
▁성	-8.62291
온	-8.62359
번	-8.62402
들에	-8.62439
반	-8.62464
▁인류	-8.62547
▁것들	-8.62569
▁멋진	-8.62713
▁대부분의	-8.6277
▁시간이	-8.63064
▁반응	-8.63235
▁포	-8.63333
▁보호	-8.63336
▁의사	-8.63409
▁진행	-8.63517
▁관계	-8.63533
인데요	-8.63643
▁이는	-8.63759
▁100	-8.63848
▁초	-8.63902
▁카	-8.64108
▁자동차	-8.64115
▁당신은	-8.64176
▁있어	-8.64431
▁없이	-8.64696
▁거대	-8.64717
나요	-8.64779
성을	-8.64803
▁참여	-8.6484
양	-8.64875
았	-8.64952
▁사이	-8.65023
▁시간을	-8.651
했어요	-8.65211
▁생각을	-8.65441
▁없었습니다	-8.65567
회	-8.65578
▁나무	-8.65592
버	-8.65614
▁있었죠	-8.65627
▁했죠	-8.65829
년간	-8.65903
▁몇몇	-8.66001
▁저희가	-8.66146
▁음식	-8.66311
▁그것들	-8.66336
각	-8.66396
▁기술을	-8.66637
▁찾아	-8.66771
인지	-8.67112
유	-8.67119
▁운동	-8.67256
▁속	-8.67295
y	-8.67306
품	-8.67419
▁투자	-8.67542
▁돈을	-8.67604
▁대학	-8.67713
▁마지막	-8.67765
▁장	-8.67838
되지	-8.68108
▁상태	-8.68117
▁뭐	-8.68181
있	-8.6858
▁끝	-8.68597
울	-8.68678
▁생각하는	-8.68731
자가	-8.68776
▁메	-8.68838
▁게임	-8.68886
▁되고	-8.6891
▁흥미로운	-8.69034
▁아이들이	-8.6927
▁가치	-8.69364
▁필요가	-8.69531
집니다	-8.69596
▁사람은	-8.69603
토	-8.69661
로서	-8.69944
▁계획	-8.70013
▁역할	-8.70024
▁보다	-8.70389
색	-8.70412
▁가능한	-8.70535
▁길	-8.70538
갈	-8.71189
▁필요	-8.7127
▁첫번째	-8.7128
▁시장	-8.71325
▁보이는	-8.71358
▁인구	-8.71477
▁모릅니다	-8.71777
▁일입니다	-8.71844
▁사진을	-8.71894
▁최고	-8.71934
브	-8.71967
▁하기	-8.72133
▁의해	-8.72238
▁사는	-8.72249
▁오래	-8.72258
약	-8.7235
▁그저	-8.7274
▁문제는	-8.72801
▁달러	-8.73029
▁더욱	-8.73189
▁그것	-8.73285
▁문	-8.73334
▁신경	-8.73635
▁TED	-8.73692
업	-8.73746
긴	-8.73948
달	-8.74001
▁적	-8.74039
▁서	-8.7423
▁경	-8.74235
▁치	-8.74245
▁것이라고	-8.74275
▁만들고	-8.74296
▁사실을	-8.74303
▁9	-8.7453
▁것이었습니다	-8.7461
▁장소	-8.74703
▁유전자	-8.74708
쳐	-8.74817
통	-8.74835
한다면	-8.7507
▁눈	-8.75166
▁크기	-8.75185
▁세상을	-8.75186
▁15	-8.75187
했을	-8.75212
▁만들었습니다	-8.75246
▁싶습니다	-8.75431
▁미래	-8.75505
▁로봇	-8.75545
▁답	-8.7569
였죠	-8.75701
4	-8.75774
으로부터	-8.758
▁있	-8.75869
판	-8.76028
A	-8.76041
▁감정	-8.76084
이란	-8.76232
▁돌	-8.76246
▁무엇이	-8.76297
▁내용	-8.76451
종	-8.76667
시킬	-8.76738
▁인간의	-8.76953
테	-8.77068
▁건물	-8.77068
▁곳	-8.77069
민	-8.77187
▁수준	-8.77189
▁쓰	-8.77287
▁적이	-8.77397
▁예술	-8.77429
▁사람을	-8.77529
▁각	-8.7761
▁가정	-8.7765
▁머리	-8.77685
씨	-8.77793
▁없을	-8.77906
▁참	-8.77975
▁총	-8.78038
▁도구	-8.78055
시키는	-8.78111
▁애	-8.78376
▁매일	-8.78449
▁그림	-8.78461
집	-8.78509
하거나	-8.78563
▁곳에서	-8.78765
▁표현	-8.78823
▁있지요	-8.78859
▁정치	-8.78956
▁기록	-8.79019
▁있지	-8.79061
5	-8.79099
권	-8.79127
▁방법이	-8.7932
▁먼저	-8.79401
▁힘	-8.79522
▁여러분께	-8.79571
격	-8.79783
▁해결	-8.79849
S	-8.79859
▁말할	-8.79871
3	-8.80076
▁비디오	-8.80219
▁거리	-8.80354
▁&#9	-8.80357
▁누가	-8.80369
▁전세계	-8.80463
▁세상	-8.80575
▁&#93;	-8.80633
▁잡	-8.80669
▁앞으로	-8.80696
▁S	-8.80726
▁C	-8.80851
▁노	-8.80894
▁정신	-8.81073
▁직접	-8.81112
군요	-8.81181
▁먹	-8.81204
▁학교	-8.81389
지고	-8.81461
았습니다	-8.81464
설	-8.81574
▁인	-8.81649
▁있지만	-8.81697
▁자유	-8.81712
이에요	-8.81886
다가	-8.81898
급	-8.81909
▁단계	-8.82112
▁강연	-8.82198
▁뜻	-8.82303
▁언어	-8.82355
▁되면	-8.82371
▁진짜	-8.82443
립	-8.82469
▁중에	-8.82543
▁별	-8.8258
▁마음	-8.82604
군	-8.82713
▁자체	-8.82805
박	-8.82807
겨	-8.82936
▁높은	-8.83011
▁전기	-8.83125
▁B	-8.83146
호	-8.83333
▁아버지	-8.83377
이었죠	-8.83393
▁죽	-8.8362
▁방법	-8.83787
대로	-8.83826
▁감	-8.84119
▁따라서	-8.84171
p	-8.84249
▁채	-8.84389
석	-8.84434
본	-8.8445
▁사실은	-8.84591
▁제공	-8.84601
▁보통	-8.84774
▁편	-8.84866
▁주는	-8.85327
▁호	-8.85351
▁변화를	-8.85391
▁점점	-8.85475
술	-8.85536
주의	-8.85571
▁조사	-8.85577
▁둘	-8.85769
목	-8.85773
마다	-8.85807
포	-8.85837
▁방식으로	-8.85852
▁얼굴	-8.85883
▁말씀	-8.86058
▁땅	-8.86066
▁환자	-8.86189
▁사용하는	-8.86262
▁창조	-8.86336
▁M	-8.86378
층	-8.86473
곤	-8.86514
▁인식	-8.86544
▁위험	-8.86591
▁행복	-8.86598
▁숫자	-8.86616
▁진정	-8.86652
▁팀	-8.86846
▁삶을	-8.87093
▁증가	-8.87171
▁했던	-8.87206
들도	-8.87223
더군요	-8.87364
달러	-8.87373
▁개의	-8.87398
▁원하는	-8.87457
저	-8.87813
▁곳에	-8.87906
▁필요합니다	-8.87965
▁대단	-8.88014
어서	-8.88017
▁훌륭한	-8.88092
▁영국	-8.88139
▁돌아가	-8.88206
매	-8.88543
▁사회적	-8.88797
어야	-8.88806
▁여러분들	-8.88837
니까	-8.88967
▁영상	-8.88975
▁생명	-8.89025
스트	-8.89035
등	-8.89122
▁전화	-8.89315
▁가서	-8.89552
▁천	-8.89704
r	-8.89726
▁귀	-8.898
er	-8.89847
▁물질	-8.8987
▁여러분들이	-8.90007
▁상상	-8.90299
망	-8.90332
▁개념	-8.9036
▁유지	-8.90511
C	-8.90575
▁이용	-8.90686
▁뿐만	-8.90706
▁보내	-8.90715
▁공간	-8.90772
락	-8.90772
▁기회	-8.90839
▁개인	-8.90846
▁일종	-8.90909
▁혁신	-8.90972
▁진	-8.90979
▁통해서	-8.91073
u	-8.91136
▁시대	-8.91167
▁행성	-8.91191
하려고	-8.91216
▁이것	-8.91337
▁통	-8.91354
언	-8.91503
▁작동	-8.91601
▁유럽	-8.91997
▁관리	-8.92022
▁주변	-8.92048
▁어머니	-8.92258
▁적용	-8.92259
동안	-8.92289
▁접	-8.9229
▁코	-8.92294
▁지도	-8.9232
▁동시에	-8.92353
병	-8.92453
▁커	-8.92553
만큼	-8.92809
▁늘	-8.9286
▁활동	-8.92941
▁지나	-8.92956
▁질병	-8.9299
▁버	-8.93004
▁이론	-8.93074
▁질	-8.93192
▁질문을	-8.93305
▁이동	-8.93351
b	-8.93418
록	-8.9342
해요	-8.93567
▁나이	-8.93704
▁꿈	-8.93753
▁안전	-8.93867
▁있었고	-8.93994
8	-8.9436
키	-8.94367
▁것이고	-8.94394
림	-8.9448
혀	-8.94509
▁생각했습니다	-8.94517
플	-8.94521
런	-8.94538
▁취	-8.94677
▁그리	-8.94751
태	-8.9482
▁당시	-8.94944
▁어려운	-8.95028
량	-8.95074
▁있었던	-8.95082
이라	-8.95437
▁그녀의	-8.95554
료	-8.95793
으	-8.95802
▁엄마	-8.9583
▁장치	-8.95956
▁관심을	-8.96068
▁식물	-8.96105
▁19	-8.96157
▁결	-8.96159
▁아무도	-8.96265
역	-8.96291
세기	-8.96456
셨	-8.96484
▁사고	-8.96728
▁그녀가	-8.96749
▁방법으로	-8.96762
▁묻	-8.96783
D	-8.9686
줄	-8.97039
▁사건	-8.97105
▁대신	-8.97173
▁주제	-8.972
▁방법은	-8.97263
▁대답	-8.97461
▁40	-8.97598
▁자원	-8.97675
축	-8.97677
▁시도	-8.97688
▁위에	-8.98048
리는	-8.98051
이기	-8.98078
▁올	-8.9813
▁만나	-8.98274
▁그때	-8.98292
▁집중	-8.98344
▁처음으로	-8.98346
▁악	-8.98583
00	-8.98694
▁나서	-8.98698
▁걱정	-8.98769
▁있던	-8.98855
▁각각	-8.99123
것이	-8.99164
▁좋아하는	-8.99237
▁산업	-8.99246
날	-8.99276
천	-8.99618
T	-8.99684
▁12	-8.99811
▁수학	-8.99874
▁..	-9
난	-9.00006
▁목표	-9.00095
▁수많은	-9.00103
평	-9.0017
▁왔습니다	-9.00295
▁노래	-9.00297
▁집단	-9.00327
▁대부분	-9.00352
▁리	-9.00457
▁한다고	-9.00553
▁생물	-9.00826
성이	-9.00988
▁밖에	-9.01017
an	-9.01045
적이고	-9.012
임	-9.01238
▁복잡한	-9.01279
결	-9.01343
▁쉽게	-9.01365
▁못한	-9.01555
▁기대	-9.01561
년대	-9.01599
▁그렇지	-9.01617
▁보여	-9.01845
▁만들기	-9.01867
▁합	-9.02039
작	-9.02211
▁그대로	-9.02232
▁위치	-9.02353
이며	-9.02381
▁지식	-9.02483
▁없다는	-9.0252
▁말합니다	-9.02646
▁사업	-9.02691
▁의료	-9.02729
▁베	-9.02783
▁레	-9.03032
으로서	-9.03091
적이	-9.03152
▁질문	-9.03164
▁발생	-9.03437
▁놓	-9.0364
고요	-9.03724
▁추	-9.03738
▁바랍니다	-9.03878
▁비슷한	-9.04042
▁목소리	-9.04046
▁두번째	-9.04081
불	-9.04159
에요	-9.04182
▁지원	-9.04367
▁모양	-9.04437
▁가능성	-9.0449
▁전부	-9.04492
▁의식	-9.04517
▁거기에	-9.04628
퍼센트	-9.04679
▁말이	-9.04729
거리	-9.04739
▁관찰	-9.04749
▁여러분에게	-9.04807
▁거에요	-9.04855
▁비용	-9.0489
k	-9.04906
자들이	-9.0491
▁빨리	-9.04919
▁뉴욕	-9.04948
7	-9.04955
것은	-9.0503
▁특별한	-9.0511
에서도	-9.05212
▁도움	-9.0523
▁준비	-9.05432
9	-9.05438
▁사용할	-9.05449
것을	-9.05505
▁세상에	-9.05649
자기	-9.05659
▁어쩌면	-9.05825
▁부터	-9.05904
▁마을	-9.06041
▁화	-9.06153
▁DNA	-9.0616
▁G	-9.06389
▁곧	-9.06496
▁도전	-9.06669
▁직업	-9.06699
▁실패	-9.06706
▁영역	-9.06707
▁아는	-9.06778
▁라	-9.0678
▁제대로	-9.0679
지에	-9.06865
▁서비스	-9.06977
▁지금은	-9.06986
른	-9.07159
▁안에서	-9.07379
▁전통	-9.07627
▁방식	-9.07714
족	-9.07774
▁절대	-9.07776
▁18	-9.07799
되	-9.07802
었고	-9.07847
g	-9.07936
▁사람들과	-9.07955
▁부족	-9.08014
친	-9.08076
n	-9.08132
니까요	-9.08152
가요	-9.08157
d	-9.08184
개월	-9.08305
▁정의	-9.08364
▁인생	-9.08522
▁점은	-9.08607
▁있어야	-9.0865
한테	-9.08817
▁아름다운	-9.08873
▁조각	-9.09026
▁그렇죠	-9.09056
▁표	-9.09078
▁있었어요	-9.09102
▁기업	-9.09149
▁바이러스	-9.09336
수록	-9.09357
▁병원	-9.0939
▁자신이	-9.09505
블	-9.09607
▁대단한	-9.09663
▁D	-9.09788
▁보기	-9.09818
▁갑	-9.09879
▁나은	-9.09893
했	-9.09898
퍼	-9.09914
▁생활	-9.09954
▁세대	-9.09974
외	-9.10028
▁종교	-9.10223
▁크리스	-9.10356
▁있으며	-9.10386
커	-9.10443
▁E	-9.10483
한다고	-9.10496
▁하는지	-9.10522
▁주장	-9.10738
년이	-9.10772
는데요	-9.10808
▁고통	-9.10875
합	-9.10955
▁일어나는	-9.10962
▁접근	-9.11003
▁공격	-9.11135
육	-9.11187
▁너	-9.11587
▁뭘	-9.11624
▁대화	-9.11642
▁어린	-9.11667
▁자료	-9.11736
복	-9.11852
▁쓸	-9.11891
▁나쁜	-9.12052
▁없어요	-9.12054
▁때는	-9.12059
었어요	-9.12092
▁돈	-9.12315
▁분석	-9.12458
노	-9.12514
▁시각	-9.12545
▁저와	-9.1255
▁힘을	-9.12724
기가	-9.12739
▁태양	-9.12764
▁가는	-9.12916
들로	-9.12967
▁말은	-9.12992
▁체	-9.13101
후	-9.13161
충	-9.13174
▁그럴	-9.13176
▁민주주의	-9.13181
▁계산	-9.132
▁체계	-9.1332
▁뒤에	-9.13356
▁네트워크	-9.13372
▁측정	-9.13628
▁요소	-9.13674
▁결과를	-9.13691
▁간단한	-9.13695
▁인해	-9.13727
탄	-9.13735
▁설계	-9.13758
▁해결책	-9.13767
▁효과	-9.13786
쯤	-9.13878
▁유일	-9.13946
▁세계에서	-9.13958
졌	-9.14137
표	-9.14378
▁그녀	-9.14403
▁현상	-9.14443
▁나오	-9.14455
하실	-9.14557
거야	-9.14616
▁쥐	-9.14782
▁지금까지	-9.14807
▁비행기	-9.14827
라면	-9.14873
▁패턴	-9.14922
▁계	-9.15047
▁속에	-9.15119
랑	-9.15156
▁붙	-9.1526
데요	-9.15301
▁싶어	-9.15346
향	-9.15373
▁찾을	-9.15504
▁속에서	-9.15513
율	-9.15515
▁요구	-9.15539
▁T	-9.15594
▁여행	-9.15739
▁중요	-9.15759
광	-9.1576
처	-9.15771
▁카메라	-9.15897
▁규모	-9.15897
졌습니다	-9.15954
▁수술	-9.15961
▁그랬	-9.15988
▁거예요	-9.16058
시켜	-9.16099
▁사이에	-9.16322
▁P	-9.16345
▁도움이	-9.16357
▁배우	-9.16372
▁같	-9.16388
▁관련	-9.16403
▁앞	-9.16492
으며	-9.16546
6	-9.16595
입	-9.16666
▁목	-9.16689
▁밤	-9.16721
c	-9.16869
▁마지막으로	-9.16955
l	-9.17048
▁없고	-9.17084
▁생각이	-9.17192
▁정도로	-9.1721
▁얻을	-9.17283
가지	-9.17339
▁드	-9.17409
▁단체	-9.17467
▁못하	-9.17516
▁알아	-9.17536
▁기본적으로	-9.17738
▁토	-9.17768
▁최근	-9.17781
▁심장	-9.17808
▁보시는	-9.17872
▁밀	-9.1799
▁년	-9.18069
▁했어요	-9.18181
▁종이	-9.18201
▁분야	-9.18231
▁기관	-9.18256
▁폭력	-9.18386
▁현대	-9.18527
▁허	-9.18553
▁상황	-9.18556
▁그렇다면	-9.18688
레이	-9.1871
▁그룹	-9.18769
씩	-9.18788
학자	-9.18906
▁극	-9.19116
▁세계의	-9.19184
▁않아요	-9.19224
절	-9.19296
▁것들은	-9.19338
▁하루	-9.19417
▁이곳	-9.1949
▁딸	-9.19497
▁보입니다	-9.19524
▁거기	-9.19555
▁예측	-9.19616
▁용	-9.19683
▁그들에게	-9.1974
하지만	-9.19804
▁꼭	-9.19866
▁반대	-9.1993
▁책임	-9.1997
▁확인	-9.20138
갔	-9.20173
▁대체	-9.2022
▁생명체	-9.20264
▁시민	-9.20401
투	-9.20429
▁디지털	-9.20525
▁되죠	-9.20558
▁희망	-9.20819
▁생각할	-9.20828
애	-9.20866
▁저도	-9.21132
▁핵심	-9.21159
▁내려	-9.21215
▁나온	-9.21246
겠습니다	-9.21344
▁절	-9.21377
▁능력	-9.21379
▁좋아요	-9.21413
▁되지	-9.21556
▁해서	-9.216
▁역시	-9.21634
▁만일	-9.21638
▁말하고	-9.21647
▁않았	-9.21692
냈습니다	-9.21712
▁한가지	-9.21858
▁긴	-9.21882
▁구성	-9.21888
왔습니다	-9.2195
▁문제에	-9.22091
▁죽음	-9.22183
P	-9.22286
승	-9.22345
하고자	-9.22817
▁미국의	-9.22954
▁일어나고	-9.22976
▁결혼	-9.23033
들입니다	-9.23038
▁계신	-9.23253
▁사례	-9.23291
▁화학	-9.23432
▁손을	-9.23436
▁없어	-9.23473
▁보실	-9.23639
영	-9.23708
냐	-9.23769
▁크	-9.2381
▁식	-9.23818
▁아래	-9.23889
▁포함	-9.23917
▁과정	-9.23963
▁남성	-9.24051
▁기반	-9.24198
▁봅니다	-9.24303
▁협력	-9.24305
만한	-9.24349
▁돌아	-9.24482
▁소리를	-9.24492
▁한다면	-9.24639
든지	-9.24653
▁표면	-9.24659
▁할까요	-9.24813
▁있는데요	-9.24832
▁11	-9.24866
▁어디	-9.24928
▁아이디어를	-9.2498
▁똑같은	-9.24981
▁발표	-9.24981
▁문제들	-9.25016
▁기술이	-9.25031
▁실험을	-9.25073
예	-9.25114
자를	-9.25269
▁과정을	-9.25282
▁이라고	-9.25287
였	-9.25302
너	-9.25353
만이	-9.25397
▁진실	-9.25445
▁들어가	-9.25607
하였습니다	-9.25608
듯이	-9.25619
▁전달	-9.25631
▁이를	-9.2578
▁운영	-9.25813
▁있다	-9.25837
▁명의	-9.25961
▁집에	-9.2601
하세요	-9.26075
▁어디에	-9.26138
이기도	-9.26143
하는지	-9.26145
▁연구를	-9.26189
▁받았습니다	-9.26242
▁관	-9.26284
▁깨	-9.26428
▁그러	-9.26471
▁젊은	-9.26533
▁건축	-9.26542
백	-9.26649
▁중심	-9.26657
▁상당히	-9.26684
▁생각에	-9.26685
▁말했죠	-9.2671
▁통제	-9.26778
▁H	-9.26815
름	-9.26868
▁아기	-9.27011
▁빛	-9.27256
in	-9.2731
착	-9.27442
기에	-9.27629
쪽	-9.27811
▁제품	-9.27887
▁찍	-9.28043
▁단순히	-9.28059
▁말해	-9.28167
하던	-9.28224
▁설치	-9.28233
▁연주	-9.28281
▁보게	-9.28306
▁것보다	-9.28337
▁있었는데	-9.28405
▁좋습니다	-9.28452
▁공동체	-9.2851
▁광	-9.2852
▁받는	-9.28599
▁무엇인지	-9.28683
▁힘들	-9.28685
▁백	-9.28714
▁60	-9.28825
▁과거	-9.28933
▁형성	-9.28998
했기	-9.29016
▁정책	-9.2912
f	-9.29123
▁넘	-9.29225
례	-9.29257
▁침	-9.29352
▁신뢰	-9.29352
▁그렇지만	-9.2936
낼	-9.29404
▁별로	-9.29492
▁보이지	-9.29498
▁국제	-9.29506
능	-9.29515
렸습니다	-9.29555
했다는	-9.29629
하려는	-9.29671
슨	-9.29753
▁F	-9.29762
h	-9.29817
▁왔	-9.29888
▁바꿀	-9.30036
▁어떠한	-9.30082
예요	-9.30113
▁살아	-9.30139
▁발명	-9.30143
▁처리	-9.30179
▁봅시다	-9.30209
▁책을	-9.30248
▁만큼	-9.30285
▁잠	-9.30346
M	-9.30391
▁누구	-9.30441
▁200	-9.30459
링	-9.30478
▁J	-9.30516
▁공급	-9.30523
▁속도	-9.30624
▁빠르게	-9.30772
▁받아	-9.30793
▁25	-9.30825
▁관련된	-9.30834
▁구글	-9.30973
▁크게	-9.30985
▁저기	-9.31042
▁쓰는	-9.31046
글	-9.3115
▁받았	-9.31204
▁잠시	-9.31246
열	-9.31316
▁가질	-9.31319
▁훈련	-9.31394
▁못했	-9.3147
▁보시면	-9.31473
▁담	-9.31475
▁숲	-9.31586
▁왜냐면	-9.31646
▁분자	-9.31694
움	-9.31792
▁움직임	-9.31854
▁아무것도	-9.31854
▁정확히	-9.31884
편	-9.32053
▁혁명	-9.32088
▁뿐	-9.32093
▁얼마	-9.3222
필	-9.323
▁보이	-9.3234
담	-9.32449
▁비교	-9.32522
자들은	-9.32587
▁나오는	-9.32635
▁빈	-9.32657
▁순	-9.32729
▁쪽	-9.3293
▁부르는	-9.32986
▁제안	-9.33045
▁신체	-9.33049
▁풀	-9.33051
강	-9.33057
미터	-9.33153
▁이라는	-9.33228
▁초기	-9.33388
▁학생들	-9.33391
▁받고	-9.33408
▁장애	-9.33517
올	-9.33534
▁가격	-9.33626
독	-9.33637
▁곳이	-9.33639
▁받을	-9.33711
▁이미지	-9.33718
▁헤	-9.33719
▁일어나	-9.33762
함을	-9.33813
▁짓	-9.33874
▁내부	-9.33887
▁색	-9.33949
▁증거	-9.33992
▁우선	-9.34064
께	-9.34097
▁강력한	-9.34109
▁목적	-9.3413
▁미국에서	-9.34134
▁학생	-9.34172
▁못합니다	-9.34188
▁관해	-9.34314
▁회	-9.34338
▁걸쳐	-9.34553
창	-9.34571
기로	-9.34581
▁대기	-9.34622
▁커다란	-9.34661
▁모습	-9.34694
자는	-9.348
하려	-9.34803
▁일어난	-9.34899
B	-9.3492
▁장기	-9.34928
▁타고	-9.35117
▁복	-9.35127
▁부분이	-9.35188
▁태	-9.35218
▁시스템을	-9.35301
▁부모	-9.35305
습니까	-9.3531
▁물을	-9.35365
▁분명히	-9.35448
▁작업을	-9.35543
▁비밀	-9.35666
범	-9.35683
▁다리	-9.35691
▁지속	-9.3571
▁그러한	-9.35764
근	-9.3579
▁엄청나	-9.35908
▁올라	-9.35929
▁갖게	-9.35942
▁예상	-9.36031
힌	-9.36075
▁자라	-9.36153
▁대중	-9.36238
송	-9.36371
▁불리는	-9.36508
▁일어날	-9.36578
▁불구하고	-9.36578
▁걸어	-9.36581
▁나가	-9.36665
법을	-9.36747
염	-9.36821
▁시험	-9.36854
▁어디서	-9.36992
▁아직도	-9.37003
▁적은	-9.37031
R	-9.37105
명이	-9.3712
이지요	-9.37221
▁키	-9.37248
▁수치	-9.37299
추	-9.37305
▁박테리아	-9.37306
했지요	-9.37315
▁기회를	-9.37332
▁선생님	-9.3736
▁사망	-9.37386
▁못했습니다	-9.37415
냈	-9.37566
▁역	-9.3767
▁일하는	-9.37685
▁받은	-9.37751
느	-9.37778
▁망	-9.37818
▁아니고	-9.37857
E	-9.37865
▁있었	-9.37914
▁화면	-9.37994
▁단순한	-9.3802
▁이해할	-9.38099
이지만	-9.3828
볼	-9.38298
있습니다	-9.38302
▁너무나	-9.38375
▁W	-9.38446
▁소비	-9.38467
▁주고	-9.38516
▁생각하지	-9.38551
▁삼	-9.38577
▁떠나	-9.38703
▁영	-9.3871
▁이들	-9.3877
▁않죠	-9.38778
▁운전	-9.38781
▁충분히	-9.38811
▁놀	-9.38813
▁갖	-9.38844
▁해도	-9.38872
▁말씀드리	-9.38992
▁학습	-9.39027
▁경쟁	-9.39031
했는데	-9.39302
▁있나요	-9.39308
시키고	-9.39455
였어요	-9.39504
▁평화	-9.39657
봉	-9.39766
▁따	-9.39808
▁능력을	-9.39947
▁80	-9.40061
님	-9.40095
메	-9.40138
▁기능	-9.40235
▁없죠	-9.40272
▁경찰	-9.40285
하다는	-9.40289
▁파괴	-9.4029
▁두뇌	-9.40301
겠지만	-9.40358
▁숨	-9.4038
▁아이들에게	-9.40514
년동안	-9.40563
었지요	-9.40628
▁했고	-9.40655
▁아시다시피	-9.40777
▁것인지	-9.40783
▁되기	-9.40872
▁공유	-9.40932
▁모습을	-9.40942
막	-9.40948
▁바꾸	-9.4096
▁찾는	-9.41028
▁부모님	-9.41037
▁위기	-9.4106
▁도달	-9.41072
▁거라고	-9.41087
▁비행	-9.41184
al	-9.41205
▁종종	-9.41318
▁모르는	-9.41359
▁멀리	-9.41361
▁L	-9.41437
▁두려움	-9.41535
▁전문	-9.41543
▁웃	-9.41572
▁소녀	-9.41604
▁기후	-9.41658
▁특정	-9.41703
▁이상의	-9.41705
▁반복	-9.41785
▁뉴스	-9.41799
▁와서	-9.41835
▁뿐입니다	-9.41901
▁정치적	-9.42161
▁소개	-9.42202
▁세계를	-9.42222
더니	-9.42255
▁미래에	-9.42334
▁미디어	-9.42568
왔	-9.42577
하기도	-9.42583
▁것이지요	-9.42616
▁가운데	-9.42814
▁최근에	-9.42952
▁공공	-9.42957
▁감염	-9.43088
▁물고기	-9.43092
▁실행	-9.43135
▁이후	-9.43147
▁I	-9.43172
▁수천	-9.43251
에겐	-9.43304
▁알려	-9.43376
▁울	-9.43468
해야만	-9.43504
▁활용	-9.43508
▁앞에	-9.43555
렌	-9.43588
▁믿습니다	-9.43589
▁페	-9.43595
▁생물학	-9.43622
▁언제	-9.43697
▁글쎄	-9.43849
▁점입니다	-9.43874
▁보았	-9.43909
익	-9.43936
▁인정	-9.43981
▁평균	-9.4404
▁중요합니다	-9.44045
▁이번	-9.44097
▁달리	-9.44143
주는	-9.44194
▁무언가를	-9.44231
▁것이라는	-9.44392
▁하는데	-9.44392
▁R	-9.44534
▁했	-9.44586
채	-9.44675
w	-9.44704
▁공기	-9.44714
하다고	-9.44717
▁위협	-9.44909
▁줍니다	-9.44964
스러운	-9.45169
▁매년	-9.45229
▁바라	-9.45244
or	-9.45249
▁테	-9.45412
▁장면	-9.45482
장을	-9.45509
밀	-9.45522
됐	-9.45522
▁동료	-9.45567
▁온라인	-9.45687
받	-9.45761
▁필요로	-9.4577
갑니다	-9.4578
럽	-9.45798
▁보았습니다	-9.45893
▁제일	-9.45921
▁광고	-9.45935
▁만듭니다	-9.45951
▁방문	-9.4601
▁덜	-9.46174
▁관점	-9.46207
잖아요	-9.46228
감을	-9.4623
▁찍은	-9.46236
▁낼	-9.46264
▁자주	-9.46281
▁시작합니다	-9.46324
▁범죄	-9.46369
중에	-9.46446
▁되었죠	-9.46455
▁문자	-9.46504
▁방향	-9.46504
▁처	-9.46543
▁부분을	-9.46635
I	-9.46713
▁바람	-9.46789
▁보지	-9.46794
▁얘기를	-9.4681
다른	-9.46837
▁힘든	-9.4691
▁고려	-9.46997
▁분들	-9.47071
▁못하는	-9.47142
▁사진은	-9.47153
▁가능하	-9.47204
▁그곳	-9.4724
책	-9.47271
▁화성	-9.47416
▁있을까	-9.47435
으로써	-9.47439
조차	-9.47456
▁공개	-9.47506
on	-9.47541
▁대통령	-9.47558
▁앉아	-9.47568
▁쓴	-9.47575
▁말하자면	-9.47604
것입니다	-9.47718
션	-9.47786
뜨	-9.47817
▁위대한	-9.47829
▁주요	-9.47869
▁기본	-9.47912
력을	-9.47964
▁일에	-9.48002
▁세상에서	-9.48086
▁압니다	-9.481
▁어떨까요	-9.48161
▁주위	-9.48211
▁언제나	-9.4826
냅니다	-9.48288
▁아니죠	-9.48314
▁언급	-9.48372
▁있으면	-9.4855
▁분이	-9.48553
▁제작	-9.48559
▁나머지	-9.48644
▁부르	-9.48713
▁70	-9.48764
▁경험을	-9.488
▁벽	-9.48827
▁독	-9.48828
균	-9.48857
▁믿음	-9.48916
낸	-9.48941
▁정상	-9.48956
O	-9.48962
▁여러가지	-9.48977
▁위해서는	-9.49018
▁검사	-9.49137
▁보여줍니다	-9.49199
▁그러니	-9.49232
머	-9.49283
▁들고	-9.49334
치는	-9.49361
▁때문이	-9.49362
했는지	-9.49382
▁영감	-9.49429
▁당연히	-9.49465
▁생존	-9.49471
▁기준	-9.49501
준	-9.49528
▁도로	-9.49634
▁흑인	-9.49741
▁골	-9.49776
en	-9.50001
을까요	-9.50059
▁의견	-9.50069
칠	-9.50181
▁작	-9.50214
▁90	-9.50336
듯	-9.50471
라도	-9.50629
▁때마다	-9.5063
▁일상	-9.50785
버리	-9.5082
▁딱	-9.50841
새	-9.50994
ar	-9.50999
슬	-9.5118
▁소통	-9.51199
▁변화가	-9.51212
▁시작한	-9.51287
▁달라	-9.51311
려면	-9.51389
▁보여주는	-9.51442
▁글	-9.51466
▁없었	-9.51556
▁있겠죠	-9.51575
▁효과가	-9.51618
▁들면	-9.51648
거에요	-9.5166
▁영어	-9.51665
숙	-9.51671
었던	-9.5172
이라면	-9.51748
▁폭	-9.51837
령	-9.51844
▁두가지	-9.51918
롭	-9.51943
▁못할	-9.51972
▁청	-9.51985
▁표시	-9.5211
▁분명	-9.52115
▁하나를	-9.52346
▁맡	-9.52468
▁철	-9.52492
▁계속해서	-9.52506
▁모르	-9.5254
▁의학	-9.52593
리고	-9.52638
▁탄소	-9.52645
▁많	-9.52714
▁농	-9.52779
▁다니	-9.52905
차원	-9.53055
었을	-9.53079
▁전략	-9.53137
▁확실히	-9.53145
▁이야기는	-9.53322
▁요즘	-9.53395
▁출	-9.53462
▁하나가	-9.53501
▁전자	-9.53735
▁싶	-9.53765
▁섬	-9.53805
짜리	-9.54113
▁가졌	-9.54146
수가	-9.54155
▁사람에게	-9.54175
▁거기서	-9.54207
습	-9.54346
되기	-9.54393
봤	-9.54453
▁N	-9.54472
▁수백	-9.54536
납니다	-9.54555
▁만들어진	-9.54625
악	-9.54627
▁은행	-9.54632
▁나중에	-9.54634
▁투	-9.54698
▁다르게	-9.54736
▁여성들	-9.54986
▁유명한	-9.55042
▁할머니	-9.55124
▁눈을	-9.55145
▁관심이	-9.5523
▁수행	-9.55264
▁무엇인가	-9.55332
▁불러	-9.55337
정도	-9.55354
▁원인	-9.55373
별	-9.55412
립니다	-9.55419
▁무엇일까	-9.55425
수를	-9.55535
톤	-9.55697
▁증명	-9.55716
▁보여주	-9.55805
▁길을	-9.55836
▁확신	-9.55855
▁짧은	-9.56002
▁적어도	-9.56004
▁향	-9.56065
▁촬영	-9.56296
v	-9.56298
었	-9.56386
▁원래	-9.56386
▁장비	-9.56427
▁북	-9.56445
▁프랑스	-9.56591
▁존재하는	-9.56836
▁중에서	-9.56853
▁듣고	-9.56887
▁핵	-9.5694
▁기사	-9.57145
혈	-9.57151
▁알았	-9.57162
▁충격	-9.57184
▁이란	-9.57205
▁일들	-9.5721
▁결론	-9.57226
밖에	-9.57383
▁패	-9.57454
▁과학자	-9.57614
▁빠져	-9.57761
▁살펴보	-9.57765
함으로써	-9.57804
▁오랜	-9.57816
▁금	-9.57936
푸	-9.58078
▁소프트웨어	-9.58079
▁TV	-9.58089
▁석유	-9.5809
▁평가	-9.58131
할까요	-9.58262
▁떠	-9.58275
▁되었	-9.58339
▁법칙	-9.58386
▁절반	-9.58406
re	-9.58538
▁시작할	-9.58549
▁그곳에	-9.58589
▁대화를	-9.58658
침	-9.5867
▁가게	-9.58699
▁판	-9.58808
▁누	-9.58974
▁찾고	-9.58982
야만	-9.58988
▁놀이	-9.58998
▁깊은	-9.59043
▁황	-9.59116
했다고	-9.59136
변	-9.5924
안에	-9.59261
▁통계	-9.59346
▁몇가지	-9.59457
보면	-9.59522
▁보시다시피	-9.59591
점을	-9.59684
▁많습니다	-9.59699
▁차지	-9.5973
▁이용해서	-9.59834
▁말하길	-9.59928
▁말한	-9.59946
피트	-9.59983
▁들었	-9.59986
▁생각하고	-9.60182
▁투표	-9.60212
▁벗어나	-9.60223
▁아내	-9.60245
▁특정한	-9.60304
퇴	-9.60473
튼	-9.60474
▁없다고	-9.60483
께서	-9.60499
▁하게	-9.60514
▁의존	-9.60562
먹	-9.60604
확	-9.60737
▁식으로	-9.60756
▁불가능	-9.60773
▁구멍	-9.60827
▁가고	-9.6091
▁군	-9.61016
랄	-9.61115
▁부릅니다	-9.61123
▁어쨌든	-9.61123
▁준	-9.61155
▁지지	-9.61198
▁싶었습니다	-9.61209
베	-9.61231
임을	-9.61292
▁K	-9.61341
간의	-9.61425
▁높이	-9.61433
화된	-9.61437
▁걸리	-9.61632
▁가난한	-9.61698
▁분리	-9.61791
▁넘어	-9.61803
▁공간을	-9.6185
▁작용	-9.61894
▁일본	-9.6193
▁싸	-9.61949
사가	-9.61955
▁괜찮	-9.61994
▁상황을	-9.62
▁굴	-9.62041
▁생	-9.62126
서는	-9.62127
상을	-9.62168
▁처럼	-9.62214
▁전문가	-9.62217
▁피부	-9.62247
이자	-9.62267
▁최초	-9.6227
▁지역에서	-9.62299
▁않기	-9.62367
암	-9.62398
▁회의	-9.62468
▁인지	-9.62476
▁무언가	-9.62535
▁봤	-9.62554
▁따르면	-9.62557
▁내리	-9.62608
▁흥미	-9.62668
▁느낄	-9.62681
▁멈추	-9.62681
▁대부분은	-9.62706
▁미래를	-9.62769
▁일반	-9.62842
▁원자	-9.62911
▁것인가	-9.6293
▁특별	-9.6297
▁질문은	-9.62984
▁확장	-9.63
음을	-9.63085
▁관계를	-9.63127
셨습니다	-9.63247
물을	-9.63291
▁규칙	-9.63306
▁임	-9.63334
▁평	-9.6334
▁됐	-9.63371
▁아니라는	-9.63396
▁두고	-9.63583
▁자리	-9.63621
▁검색	-9.63638
▁회복	-9.63643
▁나아가	-9.63672
▁분들이	-9.63679
▁이것들은	-9.63723
▁않으	-9.63731
▁터	-9.63733
▁양의	-9.63765
분의	-9.63826
이든	-9.63831
환	-9.63888
▁일단	-9.63897
▁퍼	-9.63932
▁찾기	-9.63945
▁다음에	-9.64135
▁감사	-9.64161
폭	-9.64172
▁더이상	-9.64282
갔습니다	-9.6434
▁선거	-9.64364
▁폐	-9.64376
▁권력	-9.64426
▁그림을	-9.64453
겠지요	-9.64454
▁거래	-9.64553
▁교통	-9.64585
▁얼음	-9.64619
▁곳으로	-9.64843
▁디	-9.64853
▁대상	-9.64944
▁강의	-9.64952
▁소유	-9.6499
겠어요	-9.65013
▁알지	-9.65178
률	-9.65196
▁점이	-9.65243
▁아니에요	-9.65274
손	-9.65357
▁감소	-9.65423
▁대신에	-9.65487
▁사실상	-9.6549
▁존	-9.6554
▁가까이	-9.65551
▁보여드리겠습니다	-9.65558
▁창	-9.65613
▁생기	-9.65706
▁왼쪽	-9.65716
▁해주	-9.6575
쉬	-9.65753
▁혼자	-9.65851
▁코드	-9.65863
▁탐험	-9.65871
▁판단	-9.65904
▁마찬가지	-9.66096
V	-9.66184
▁하늘	-9.66205
▁급	-9.66352
▁넘는	-9.66369
▁사실이	-9.66424
이었어요	-9.66488
찬	-9.66509
▁심각한	-9.66522
▁및	-9.66544
▁도착	-9.6657
▁16	-9.66657
▁추가	-9.66663
▁이들이	-9.6672
▁주로	-9.66862
▁칼	-9.66895
▁나타나	-9.67041
▁경제적	-9.67043
완	-9.67165
스크	-9.67184
더라도	-9.67239
▁기간	-9.67327
▁해요	-9.67331
▁수백만	-9.67333
▁실수	-9.67346
▁계시	-9.67354
사를	-9.67373
천만	-9.67379
▁앞서	-9.67435
자들	-9.67497
▁요청	-9.67514
였고	-9.67533
트를	-9.67584
▁머	-9.67644
▁느끼는	-9.6768
페	-9.67792
▁충돌	-9.67835
▁않는다는	-9.6785
▁가끔	-9.67856
▁쉬운	-9.67857
▁때까지	-9.6808
▁사물	-9.6808
▁가능성이	-9.68154
▁잘못된	-9.68166
▁시절	-9.68243
km	-9.68314
▁발견했습니다	-9.68321
▁무대	-9.68395
하기로	-9.68426
▁최	-9.68451
▁답을	-9.6851
▁방향으로	-9.68587
▁일들이	-9.68658
▁주목	-9.68666
▁않으면	-9.68681
▁공부	-9.68726
▁다르	-9.68727
스를	-9.68782
하셨	-9.68791
덕	-9.68806
▁21	-9.68862
▁조절	-9.68874
ic	-9.68879
▁수집	-9.68941
학적	-9.69114
▁백신	-9.6923
했지만	-9.69263
▁하여	-9.69331
▁식량	-9.69347
▁세계에	-9.69398
▁바뀌	-9.6943
▁올라가	-9.69501
▁움직이는	-9.69533
▁공포	-9.69566
탈	-9.69579
▁상품	-9.69592
▁같아요	-9.69625
▁된다는	-9.69672
을때	-9.69677
▁기본적인	-9.6968
렸	-9.69694
백만	-9.69714
▁물체	-9.6976
▁점을	-9.69824
▁흥분	-9.6984
▁나누	-9.69899
▁배울	-9.69917
▁깊이	-9.70024
▁조건	-9.70054
줬	-9.70066
▁통합	-9.70071
▁만화	-9.70099
▁각자	-9.70118
▁주었습니다	-9.70259
▁빌	-9.70265
▁인간이	-9.70281
▁될까요	-9.7029
곡	-9.70317
▁발견한	-9.70531
▁상대	-9.70556
랜드	-9.70572
험	-9.7062
▁길이	-9.70636
▁이상한	-9.70682
▁방식을	-9.70752
▁싶지	-9.70832
▁언론	-9.70857
▁밖으로	-9.70872
▁직면	-9.70878
▁뛰어	-9.70878
▁문제입니다	-9.70889
▁뇌의	-9.70923
▁이용해	-9.70987
▁위로	-9.71044
▁말하기	-9.71066
▁몰랐	-9.71093
▁동물들	-9.71112
▁중간	-9.71122
찰	-9.71136
널	-9.71168
▁HIV	-9.71197
시킵니다	-9.71197
▁만약에	-9.71235
▁공장	-9.71305
▁가치가	-9.7131
▁질문에	-9.7147
▁자료를	-9.71477
▁떨어져	-9.71539
▁가득	-9.71572
▁눈에	-9.71598
▁상황이	-9.71601
▁테러	-9.71608
▁바꾸는	-9.71614
▁좋아합니다	-9.717
▁꽃	-9.7178
▁그렇습니다	-9.71883
▁생각해보세요	-9.71936
▁재료	-9.71938
▁사람과	-9.71956
▁못하고	-9.71971
웠	-9.72058
스터	-9.72059
▁알아내	-9.72063
지역	-9.72082
옵니다	-9.72173
▁쓰고	-9.7223
▁뼈	-9.72232
▁그래	-9.72298
틀	-9.72312
▁이전	-9.72377
▁오른쪽	-9.72403
▁돈이	-9.72415
▁고용	-9.72488
▁가지게	-9.72512
▁왕	-9.72544
몬	-9.72574
▁일반적인	-9.72733
▁하며	-9.72773
▁학교에	-9.72827
▁이전에	-9.72827
▁특성	-9.72921
명을	-9.72922
▁논쟁	-9.72922
▁열정	-9.72988
이었	-9.73009
L	-9.73028
▁있을지	-9.73099
▁일이죠	-9.73099
쳤	-9.73136
▁이어	-9.73142
▁공학	-9.73183
▁되었고	-9.73242
▁싫어	-9.73269
사람	-9.73279
▁저장	-9.73312
▁생각하기	-9.73334
▁직장	-9.73338
▁캐	-9.73386
▁독일	-9.7341
▁움직이	-9.73443
▁수용	-9.735
츠	-9.73618
▁신문	-9.73757
귀	-9.73838
▁아침	-9.73936
녀	-9.73989
▁감각	-9.74015
▁하나입니다	-9.74035
▁뉴	-9.74036
▁재미있	-9.7404
▁봐	-9.74066
▁이웃	-9.74159
적입니다	-9.74192
G	-9.74208
▁개선	-9.74246
▁틀	-9.74272
▁제시	-9.74295
le	-9.74301
▁메시지	-9.74326
▁재미있는	-9.74335
▁나와	-9.74359
▁그래프	-9.74359
▁아이를	-9.74412
▁상황에서	-9.74463
▁복잡	-9.7448
▁있으	-9.7449
▁은하	-9.74584
▁인터뷰	-9.74675
▁자전거	-9.74677
▁잠깐	-9.74677
▁친구들	-9.74748
▁의도	-9.74752
▁프로	-9.74783
▁기술은	-9.74878
▁느끼	-9.74878
▁이와	-9.74945
▁여러분을	-9.74967
▁소식	-9.74974
▁분은	-9.75025
x	-9.7503
▁풍	-9.75031
▁맨	-9.75031
▁적응	-9.75037
▁관점에서	-9.75101
▁통과	-9.75139
▁시기	-9.75163
▁곳입니다	-9.75177
청	-9.75277
▁생겼	-9.75288
▁형태로	-9.7533
▁다루	-9.75372
▁만한	-9.75386
▁상호작용	-9.75387
▁것이었죠	-9.7539
▁있음을	-9.75404
▁첫째	-9.75406
▁다양성	-9.75445
▁루	-9.75532
▁않아	-9.75557
력이	-9.75665
▁의문	-9.75753
스타	-9.75856
▁이해하는	-9.7587
시킨	-9.75893
장이	-9.75976
▁가까운	-9.76101
시키	-9.76186
에게는	-9.76261
▁어렵	-9.76268
▁여러분과	-9.76366
▁행위	-9.76401
하자	-9.76455
▁좋겠	-9.76461
▁단백질	-9.76461
▁가져다	-9.76503
▁끝나	-9.76513
▁하면서	-9.76516
▁모습입니다	-9.76594
리가	-9.76624
▁모형	-9.7665
▁무기	-9.76653
소를	-9.76684
▁14	-9.76838
▁온도	-9.76892
드시	-9.77022
▁불과	-9.77056
▁사이트	-9.77113
▁중앙	-9.77222
먼	-9.77276
▁빛을	-9.77283
▁주기	-9.77287
▁사용자	-9.77388
▁받아들이	-9.77451
욕	-9.77499
▁믿는	-9.77548
▁익숙	-9.77548
▁연료	-9.77593
스는	-9.7763
ch	-9.77652
▁건설	-9.77663
▁마세요	-9.77676
▁학생들이	-9.77852
▁소년	-9.77868
▁갔습니다	-9.77893
▁밝혀	-9.77902
▁옮겨	-9.77913
▁빠른	-9.77913
▁독립	-9.77934
▁항	-9.77948
▁이끌	-9.77988
▁잡아	-9.77995
스가	-9.77997
분이	-9.78009
▁이해하기	-9.78054
▁충분한	-9.78109
▁곡	-9.78126
▁수업	-9.78172
▁데려	-9.78208
▁것이라	-9.78256
▁덕분에	-9.78279
내는	-9.78284
▁생긴	-9.78301
▁폭발	-9.78304
▁여름	-9.78322
이었고	-9.78334
케	-9.78358
▁상호	-9.78362
▁마시	-9.78382
▁신호	-9.78386
▁알려주	-9.78454
로운	-9.78542
▁일하고	-9.78549
▁상관	-9.78625
액	-9.78633
▁쓰레기	-9.78647
▁농업	-9.78668
▁주의	-9.78695
▁단순	-9.78748
▁배운	-9.78787
하려면	-9.78805
▁향해	-9.78905
▁가지는	-9.78989
▁끼	-9.78994
마일	-9.7901
▁교훈	-9.79016
봐	-9.79033
▁빈곤	-9.79039
놓	-9.79152
▁끔찍한	-9.79183
ra	-9.79274
▁들었습니다	-9.7929
▁한계	-9.7932
견	-9.79323
▁보시	-9.79358
시키기	-9.79378
▁진단	-9.79466
하다	-9.79492
▁상황에	-9.79506
▁사실입니다	-9.79706
▁끌어	-9.79716
▁낮은	-9.79758
▁진보	-9.79896
▁끌	-9.79917
▁미국인	-9.79957
▁제거	-9.79973
▁재생	-9.80062
▁공동	-9.80068
십니까	-9.8007
▁아프가니스탄	-9.80131
▁없기	-9.80131
▁옆에	-9.80131
▁누구도	-9.80231
▁다음과	-9.80294
했었습니다	-9.80352
였던	-9.80502
팅	-9.80506
▁상상해	-9.80587
▁고민	-9.8064
▁잔	-9.80701
▁생각했죠	-9.80717
▁이것에	-9.80741
해주	-9.8076
▁17	-9.80841
짝	-9.80849
▁맞추	-9.80882
▁플라스틱	-9.80882
▁대략	-9.80896
▁생태계	-9.80897
려는	-9.81104
▁활	-9.81121
▁완벽한	-9.81165
▁이익	-9.81174
▁특징	-9.81259
거라	-9.81279
▁차이	-9.81303
▁CA	-9.81304
▁마리	-9.81327
▁마약	-9.81367
▁현	-9.81368
줍니다	-9.81438
▁날아	-9.81444
리아	-9.81446
▁자리에	-9.81619
▁해보	-9.81622
▁결과는	-9.81634
▁페이지	-9.81655
▁세번째	-9.81687
▁공연	-9.81732
▁그것에	-9.8178
▁그러자	-9.81874
▁O	-9.81955
사항	-9.81959
▁물리적	-9.81962
▁이해하고	-9.81991
콘	-9.82018
▁마침내	-9.82018
▁졸업	-9.82018
▁것이기	-9.82071
▁디자이너	-9.82073
▁사막	-9.821
셔	-9.82102
▁제한	-9.82109
▁방금	-9.8212
어져	-9.82127
▁값	-9.82174
▁존재합니다	-9.82212
▁그래도	-9.82225
,	-9.82225
▁삶에	-9.82282
혹	-9.82306
▁갖는	-9.82391
시켰습니다	-9.824
▁손가락	-9.824
▁깨달았습니다	-9.82471
▁올리	-9.82651
▁상자	-9.82745
▁과학자들	-9.82756
▁13	-9.82806
존	-9.82866
▁지역에	-9.82886
▁여성이	-9.82914
▁써	-9.82938
▁제도	-9.82959
▁청중	-9.83017
▁하겠습니다	-9.83104
엄	-9.83165
*	-9.83167
▁맞는	-9.83167
▁사무실	-9.83167
년대에	-9.83197
해보죠	-9.83294
람	-9.83346
었는데	-9.83427
▁부여	-9.83457
▁파리	-9.83588
▁종양	-9.83615
▁행	-9.8379
벌	-9.83855
▁오랫동안	-9.83941
▁런던	-9.83948
▁녹색	-9.83955
맥	-9.84
▁않았어요	-9.84016
▁근	-9.8402
▁일어났	-9.84127
it	-9.84222
▁카드	-9.84268
▁힘이	-9.84376
▁도와주	-9.84423
▁쇼	-9.84471
빙	-9.84485
해보	-9.84572
▁말씀드리고	-9.84577
번째	-9.84587
킹	-9.84651
▁떨어지	-9.84721
▁마찬가지로	-9.84842
에서부터	-9.84896
▁관해서	-9.84924
▁사진이	-9.84967
잡	-9.8502
▁의미하는	-9.85115
▁안정	-9.85145
전에	-9.85366
▁케	-9.85397
▁흘러	-9.85508
▁생각하	-9.85535
▁토론	-9.85552
▁자신들의	-9.85583
▁대해서도	-9.85619
K	-9.85624
▁세포를	-9.85664
▁작가	-9.85695
뿐만	-9.85877
힐	-9.85902
▁테스트	-9.85925
▁대륙	-9.85926
▁박	-9.85933
▁느낌	-9.85948
▁말도	-9.85962
▁자극	-9.85994
▁가능합니다	-9.86031
▁아들	-9.86199
▁모두에게	-9.86206
▁알아야	-9.86211
▁슬	-9.86225
▁능력이	-9.86229
▁않게	-9.86299
▁좋지	-9.86299
▁인종	-9.86376
N	-9.86394
▁수십	-9.86481
▁죽은	-9.86521
하시	-9.86543
만명	-9.86603
▁필요하	-9.8667
기술	-9.86678
턴	-9.8669
칸	-9.86697
▁이메일	-9.86698
▁찾아내	-9.86722
▁조정	-9.86871
▁이끌어	-9.8688
▁연관	-9.8691
년전	-9.86943
▁가난	-9.86956
▁0	-9.87001
▁서서	-9.87007
▁동의	-9.87055
▁박물관	-9.87097
▁말라리아	-9.87097
▁두려워	-9.87097
▁묘사	-9.87101
▁해결할	-9.87134
▁만족	-9.87157
▁지방	-9.87282
▁외부	-9.87292
▁맥	-9.87326
닥	-9.8742
릭	-9.87422
▁했는데	-9.8743
셀	-9.87499
▁냄새	-9.87499
▁언젠가	-9.87499
▁그날	-9.87573
▁발달	-9.87593
▁경계	-9.87595
▁면에서	-9.87601
▁재정	-9.87638
▁감지	-9.87683
▁생각은	-9.87809
리스	-9.8786
▁과제	-9.87898
▁캘리포니아	-9.87902
▁결합	-9.87932
자와	-9.87932
▁교수	-9.87937
▁십	-9.87959
밖	-9.881
하겠습니다	-9.8816
▁사용하고	-9.8818
되었	-9.88186
효	-9.88268
▁범위	-9.88352
성과	-9.88382
▁의미합니다	-9.88506
선을	-9.88513
▁분들은	-9.88579
▁관련이	-9.88602
▁복제	-9.88622
▁가르쳐	-9.88713
▁멋지	-9.88734
▁전시	-9.88752
▁자금	-9.88814
▁방법입니다	-9.88832
▁아이는	-9.88854
보세요	-9.88886
▁나라에서	-9.889
겠	-9.88909
▁따르	-9.88948
▁해양	-9.8895
▁지점	-9.8896
▁클	-9.89069
▁먹이	-9.8907
로써	-9.89077
낙	-9.89108
▁먹고	-9.89115
▁얻어	-9.89122
원이	-9.89167
구나	-9.89174
▁개미	-9.89202
만으로	-9.89237
▁생각에는	-9.89247
▁보셨	-9.89268
▁춤	-9.89288
▁영향	-9.89289
▁지불	-9.89294
▁차이가	-9.89318
▁유리	-9.89477
▁의미를	-9.89511
▁웹사이트	-9.89531
▁상징	-9.89547
▁자동	-9.8956
▁시스템이	-9.89625
▁오염	-9.89638
▁물이	-9.89693
▁문장	-9.89729
▁지도자	-9.89767
▁사용합니다	-9.89785
▁시설	-9.89803
▁예로	-9.8983
하자면	-9.89859
▁수단	-9.89905
▁겨우	-9.89947
▁통신	-9.90057
▁위험한	-9.90067
▁생성	-9.90146
▁없었죠	-9.90191
▁명이	-9.90292
답니다	-9.90352
▁않지만	-9.90356
체를	-9.90371
▁증상	-9.9039
인가요	-9.90432
▁친구가	-9.90445
버린	-9.90448
성에	-9.90461
▁미생물	-9.90461
▁기울	-9.90478
▁가져	-9.90481
드는	-9.90483
▁존재하지	-9.90547
버렸	-9.90557
▁물건	-9.90608
▁떨어진	-9.90771
▁뿌리	-9.90771
▁균형	-9.90773
▁기능을	-9.90899
▁때로는	-9.90925
▁동일한	-9.90947
▁말이에요	-9.91014
극	-9.91061
▁국	-9.91115
▁다릅니다	-9.91188
▁이산화탄소	-9.91188
▁대응	-9.9121
▁브	-9.91254
에선	-9.91264
▁의미가	-9.91309
▁집에서	-9.91477
▁비율	-9.915
으니까요	-9.91502
▁폴	-9.91513
▁요리	-9.91558
해왔습니다	-9.91577
권을	-9.91588
▁슬라이드	-9.91606
▁동굴	-9.91618
▁곳은	-9.9165
▁받	-9.91764
▁뭐가	-9.91765
화를	-9.91822
▁곳을	-9.919
▁있겠	-9.91925
0	-9.91932
▁감시	-9.91955
▁그러므로	-9.92031
곳	-9.92203
▁굉장한	-9.92222
킬	-9.92255
▁말이지요	-9.92268
이드	-9.92304
▁뿐이	-9.92341
▁우리와	-9.92353
▁것인데	-9.92356
이트	-9.92369
▁콜	-9.92395
컨	-9.92448
▁금융	-9.92448
▁나라들	-9.92576
▁시간에	-9.92577
▁분야에서	-9.9258
▁손상	-9.92612
▁컴퓨터가	-9.92734
▁국가들	-9.92778
▁배웠	-9.92804
뿐	-9.92823
▁위성	-9.92838
▁할아버지	-9.92872
▁색깔	-9.92877
▁흐름	-9.92877
▁할지	-9.92907
▁나왔	-9.9298
▁가상	-9.92997
▁집을	-9.93056
▁24	-9.93081
▁여정	-9.93082
▁초대	-9.93126
▁연구소	-9.93148
이라도	-9.93196
▁된다면	-9.93206
협	-9.93222
둥	-9.93261
하겠죠	-9.93261
▁견	-9.93297
▁마주	-9.93311
▁판매	-9.93319
▁받지	-9.93431
▁썼	-9.93435
▁집으로	-9.93505
▁무시	-9.93517
같이	-9.93542
▁약속	-9.93559
▁돌아오	-9.93569
▁꺼	-9.93712
▁과학적	-9.93715
▁부탁	-9.93778
▁것들에	-9.93807
다니	-9.93829
▁강한	-9.9384
▁대표	-9.93851
▁세상이	-9.93884
▁수영	-9.93899
▁대해서는	-9.94026
▁도와	-9.94046
▁논의	-9.94049
탁	-9.94075
▁보일	-9.94086
▁문명	-9.94149
▁가슴	-9.94172
▁경우에는	-9.94208
▁마음을	-9.94218
▁기름	-9.94225
▁내는	-9.94263
▁보여주고	-9.94323
치고	-9.94373
▁보시죠	-9.94389
▁몰	-9.94554
제를	-9.9459
is	-9.94649
빠	-9.94657
거라고	-9.94738
▁절대로	-9.9477
▁시대에	-9.9489
▁지배	-9.94912
▁사라지	-9.94988
▁고대	-9.9504
ing	-9.95041
▁이유로	-9.95074
▁근데	-9.95081
▁지역의	-9.95134
▁변형	-9.95156
▁영상을	-9.95263
▁앉아서	-9.95271
▁수입	-9.95315
내고	-9.95323
주세요	-9.95337
▁벤	-9.95341
▁친	-9.95342
▁안되는	-9.95397
▁고등학교	-9.95453
▁않다는	-9.95453
롤	-9.95453
▁브라질	-9.95454
▁고양이	-9.95457
클	-9.95461
▁게놈	-9.95477
▁있으니까요	-9.95502
▁향상	-9.9558
▁그려	-9.95633
▁예술가	-9.95661
▁간에	-9.95673
▁새로	-9.95674
▁유전	-9.9569
▁바닥	-9.95765
▁남아	-9.95787
▁군대	-9.95793
▁거부	-9.95846
▁알고리즘	-9.95889
▁페이스북	-9.95889
▁근본적으로	-9.95921
▁사진입니다	-9.95921
▁평생	-9.95924
▁저항	-9.9594
▁자세히	-9.95972
▁게다	-9.96051
▁이미지를	-9.96288
▁올해	-9.963
▁원칙	-9.96343
▁놀랍	-9.96421
▁돌려	-9.96489
주의자	-9.96541
하지요	-9.96593
▁물었습니다	-9.96628
▁결과가	-9.96697
칭	-9.96712
▁쿠	-9.96769
▁휴대폰	-9.9677
▁쉬	-9.96858
▁기초	-9.96908
보다는	-9.96914
▁탄	-9.96991
련	-9.97043
es	-9.97065
하지는	-9.97088
▁경우에	-9.9716
물이	-9.97211
▁많아	-9.97233
▁남편	-9.9725
▁근본적인	-9.97272
▁공감	-9.97297
▁포기	-9.97309
▁옷	-9.97499
멸	-9.97655
▁없애	-9.97655
▁이라크	-9.97663
▁근거	-9.97666
▁인공	-9.97771
▁나아	-9.97813
▁집어	-9.97841
측	-9.98016
▁녀석	-9.98103
▁완성	-9.98109
상태	-9.98168
▁암호	-9.9826
▁적절한	-9.9827
▁알아보	-9.98282
▁논리	-9.98323
▁사이에서	-9.98331
▁알았습니다	-9.9845
▁속도로	-9.98503
▁들리	-9.98548
▁고맙습니다	-9.9855
▁멸종	-9.98551
▁떠올	-9.98606
▁지켜	-9.98612
▁없다면	-9.98649
이다	-9.98706
▁권리	-9.98797
▁관심	-9.98814
▁그에게	-9.98832
▁추적	-9.98854
▁누구나	-9.98863
럼	-9.98882
▁영향력	-9.98902
▁않았죠	-9.98918
▁밑	-9.98979
▁데에	-9.98995
▁기분	-9.99035
장치	-9.99086
▁했을	-9.99127
▁개체	-9.99135
H	-9.99172
▁편지	-9.99253
▁완벽	-9.99446
단계	-9.99449
▁보건	-9.99451
▁이스라엘	-9.99453
팀	-9.99628
황	-9.99654
접	-9.99685
▁의심	-9.99761
▁박사	-9.99789
▁지적	-9.99806
▁측면	-9.99813
마리	-9.99853
▁새롭	-9.99944
▁아빠	-9.9998
▁사용해서	-9.99983
▁소수	-9.99987
하곤	-10.0003
누	-10.0008
▁아니었습니다	-10.0017
▁지구상	-10.002
▁않는다면	-10.0025
▁탐사	-10.0026
▁현장	-10.0034
▁생물학적	-10.0045
▁알려진	-10.0048
▁배경	-10.0049
▁크고	-10.0056
▁자세	-10.0057
▁먼	-10.0062
▁해당	-10.0068
▁말하지	-10.0074
였는데	-10.0075
▁생각해보	-10.0075
괴	-10.0078
▁희생	-10.0082
0,000	-10.0083
▁확대	-10.0083
된다는	-10.0085
▁질문이	-10.009
트리	-10.01
남	-10.0102
▁보여드릴	-10.0109
▁환경에	-10.0114
관계	-10.0118
▁이식	-10.0122
▁달려	-10.0123
솔	-10.0128
▁설립	-10.0129
▁북극	-10.0129
▁혼란	-10.0136
▁입자	-10.0141
소리	-10.0148
▁가능	-10.015
▁오는	-10.0151
현	-10.0151
▁여성들이	-10.0155
▁입고	-10.0158
▁환자들	-10.0162
▁아시	-10.0167
▁생각해요	-10.0174
▁러시아	-10.0175
살이	-10.0177
▁상승	-10.0182
▁어렵습니다	-10.0188
▁오르	-10.0191
▁의지	-10.0192
▁보겠습니다	-10.0192
▁사전	-10.0197
▁척	-10.0202
얼	-10.0209
▁기부	-10.0216
▁하루에	-10.0216
▁성과	-10.0217
규	-10.022
▁과정에서	-10.0221
▁올려	-10.0222
▁조합	-10.0228
▁평범한	-10.0233
▁정리	-10.0237
▁그래요	-10.0239
▁사랑하는	-10.024
시는	-10.0252
건데	-10.026
▁네가	-10.0263
▁신호를	-10.0266
▁전에는	-10.0267
▁아닐	-10.0268
보다도	-10.0271
▁여행을	-10.0271
▁빵	-10.0275
▁도덕적	-10.0277
▁나올	-10.0279
시면	-10.028
▁센터	-10.0287
하신	-10.0292
▁마일	-10.0293
▁노동	-10.03
▁부정	-10.0303
때문에	-10.0305
되면	-10.0309
▁방해	-10.0311
자들을	-10.0313
껏	-10.0315
▁메세지	-10.0315
할때	-10.0316
▁500	-10.0323
▁주변에	-10.0324
▁낫	-10.0325
득	-10.0325
▁여기는	-10.0325
▁가스	-10.0331
▁쯤	-10.0332
▁낸	-10.0339
▁차원	-10.0341
들어	-10.0344
▁약물	-10.0345
▁생각엔	-10.0352
째	-10.0353
했었죠	-10.0356
▁정부는	-10.0357
▁개방	-10.0357
▁가능하게	-10.0357
▁읽어	-10.0362
▁열심히	-10.0362
▁살아남	-10.0363
▁최악	-10.0363
▁녹	-10.0367
▁조작	-10.0369
▁측면에서	-10.0373
▁하더군요	-10.0373
▁못했던	-10.0376
▁전까지	-10.0378
▁원조	-10.0385
▁앞에서	-10.0386
▁완전	-10.0393
아서	-10.0394
나무	-10.0398
▁배우는	-10.0398
좌	-10.0409
▁멕시코	-10.0409
▁없지만	-10.0409
▁트위터	-10.0409
▁영웅	-10.041
까지도	-10.041
▁돌아다니	-10.0411
▁모르지만	-10.0417
▁2000	-10.0424
▁저한테	-10.0428
▁연결되어	-10.0429
오는	-10.043
끼	-10.0432
▁동기	-10.0435
▁잡지	-10.0445
▁그곳에서	-10.0445
▁꾸	-10.0448
▁유명	-10.0449
패	-10.0452
▁산소	-10.0456
▁오히려	-10.0457
▁태어나	-10.0457
▁때때로	-10.0457
▁무척	-10.0459
▁살펴	-10.0459
세계	-10.0461
30	-10.0462
▁상처	-10.0464
▁당시에	-10.0476
▁주세요	-10.0477
▁자본	-10.048
▁댄	-10.0485
압	-10.0501
▁들어오	-10.0501
맨	-10.0505
▁관객	-10.0506
▁모여	-10.0506
▁목록	-10.0508
▁됐습니다	-10.0512
▁구름	-10.0513
봐야	-10.0538
▁학교에서	-10.0539
되었고	-10.0543
▁글을	-10.055
쿠	-10.0553
렉	-10.0553
▁빌딩	-10.0553
▁명확	-10.0557
▁목격	-10.0557
▁부패	-10.0558
▁쉽	-10.0558
F	-10.0559
사회	-10.0567
▁아실	-10.0569
▁분류	-10.0569
▁전환	-10.0576
▁동료들	-10.0582
▁말고	-10.0586
겼	-10.059
▁대부분이	-10.0602
▁아랍	-10.0604
▁임무	-10.0605
▁키우	-10.0608
▁모르겠습니다	-10.0609
▁개인적인	-10.0609
▁난민	-10.061
겠습니까	-10.0611
▁고향	-10.0613
▁생각하시	-10.0624
줘	-10.0624
▁물어보	-10.0639
취	-10.0643
▁보죠	-10.0649
▁인쇄	-10.0651
▁흐르	-10.0653
아야	-10.0655
▁둘러	-10.0662
끄	-10.068
▁엘	-10.0684
▁똑같이	-10.0687
▁치료를	-10.0687
▁공원	-10.0698
▁어려움	-10.0699
▁스트레스	-10.0699
▁국경	-10.0702
▁비용이	-10.0702
▁마법	-10.0704
생활	-10.0705
▁환경을	-10.0705
ri	-10.071
겠다고	-10.0715
기관	-10.0718
▁어머니는	-10.0728
▁U	-10.0732
▁아니었	-10.0733
했었	-10.0742
▁즐기	-10.0748
▁추측	-10.0749
▁위에서	-10.0749
▁편견	-10.075
▁되돌아	-10.0751
▁파악	-10.0753
▁도입	-10.0753
▁연설	-10.0755
▁있네요	-10.0755
▁하려고	-10.0764
▁하나로	-10.0764
▁가족들	-10.0767
▁시작했고	-10.0768
▁사회에서	-10.078
▁있었기	-10.0786
▁물건을	-10.0788
▁봤을	-10.0791
▁살았	-10.0797
▁개발도상국	-10.0797
▁호기심	-10.0797
▁물리	-10.0798
간에	-10.0801
▁보존	-10.0803
▁정확하게	-10.0806
▁여러분께서	-10.081
▁먹는	-10.0821
▁백만	-10.0824
킨	-10.0826
▁빙하	-10.0827
▁하지요	-10.0828
▁모아	-10.0829
▁연기	-10.0832
▁피해	-10.0835
꾼	-10.0841
▁아름다움	-10.0846
▁보십시오	-10.0851
▁늘어	-10.0853
▁이용하여	-10.086
▁실제로는	-10.0862
위에	-10.0862
▁검	-10.087
탑	-10.0896
▁믿기	-10.0896
▁원숭이	-10.0896
▁야생	-10.0898
▁성취	-10.0898
▁아름답	-10.0906
▁모래	-10.0915
당한	-10.0916
▁비해	-10.0934
▁흔들	-10.0941
▁것일까	-10.0946
▁간단	-10.0946
▁이집트	-10.0946
▁명백	-10.0951
ed	-10.0956
▁부서	-10.0959
순	-10.0961
년전에	-10.0964
▁최소한	-10.0969
▁겁	-10.0969
십시오	-10.0978
념	-10.0985
▁차이를	-10.0995
▁붕괴	-10.0996
▁실현	-10.0999
▁경험이	-10.1023
▁뇌를	-10.1032
▁부분에	-10.1035
▁제조	-10.1044
▁우리들	-10.1044
▁것이며	-10.1046
▁했지만	-10.1047
▁남아있	-10.1047
▁없었어요	-10.1054
▁여러분들께	-10.1058
▁없었던	-10.1059
▁썼습니다	-10.1059
▁문제점	-10.1061
ol	-10.1065
▁보냈습니다	-10.1066
빈	-10.107
대체	-10.1071
▁보상	-10.1077
▁국민	-10.1078
th	-10.108
▁언어를	-10.1082
▁않겠	-10.1083
▁해야할	-10.1083
▁말하면	-10.1086
▁이루어지	-10.1092
▁곤충	-10.1096
▁맞춰	-10.1098
▁배출	-10.1098
▁만들어내	-10.11
▁마련	-10.1102
기만	-10.1103
▁보여드리	-10.1106
▁한명	-10.1114
▁것이다	-10.1114
▁재단	-10.1115
돌	-10.1119
▁제목	-10.1122
▁원리	-10.1122
▁강력	-10.1127
▁이것들	-10.1127
랜	-10.1133
▁돌고래	-10.1149
▁음성	-10.1153
▁동작	-10.1156
회사	-10.116
▁시작했죠	-10.1169
▁멀	-10.117
▁조종	-10.1171
▁뒤로	-10.1172
▁일부분	-10.1179
▁옷을	-10.1181
▁이후로	-10.1183
▁백인	-10.1186
시다	-10.1192
▁손에	-10.1202
▁몸에	-10.1208
명은	-10.1216
성은	-10.1217
▁용기	-10.1217
수도	-10.1223
해줄	-10.1227
▁되었을	-10.1229
갑	-10.1232
▁구분	-10.1233
▁말로	-10.124
운동	-10.1245
▁이유입니다	-10.1247
▁믿고	-10.1252
싱	-10.1252
▁캐나다	-10.1252
▁198	-10.1255
▁솔직히	-10.1256
▁원합니다	-10.1261
▁활동을	-10.1264
▁기다리	-10.1264
▁예산	-10.1266
▁인물	-10.1274
▁아니지만	-10.1275
▁했지요	-10.1276
처럼요	-10.1279
▁위험을	-10.1282
▁내려가	-10.1285
▁있었을	-10.1289
에게서	-10.129
▁세포들	-10.1292
▁끝내	-10.1294
▁싶어요	-10.132
us	-10.1321
▁모기	-10.1326
▁하시	-10.135
z	-10.1355
▁설득	-10.1355
▁갑니다	-10.1362
▁최대	-10.1366
▁기기	-10.1368
▁모두는	-10.1379
짓	-10.1383
▁상태로	-10.139
▁살아있는	-10.1392
▁모임	-10.1399
te	-10.1401
▁버스	-10.1403
▁넣어	-10.1408
▁앤더슨	-10.1408
▁경기	-10.1409
▁보신	-10.1411
▁연락	-10.1415
▁출신	-10.1416
▁물리학	-10.1418
▁모두를	-10.1422
▁성적	-10.1444
시나요	-10.145
▁등을	-10.1451
▁이용할	-10.1456
자리	-10.1457
텔	-10.1459
핑	-10.146
▁상상해보세요	-10.1462
▁근육	-10.1462
▁타이	-10.1477
▁조용	-10.1482
el	-10.1483
▁권	-10.1487
▁죄	-10.1489
▁최선	-10.149
▁등장	-10.149
보고	-10.1492
▁불안	-10.1493
▁돼지	-10.1493
▁봤습니다	-10.1494
슈	-10.1494
▁입력	-10.1503
▁독특	-10.1513
우스	-10.152
으면서	-10.152
점이	-10.1522
▁건너	-10.1524
▁구축	-10.1526
▁것들입니다	-10.1528
nd	-10.153
▁않았던	-10.1531
▁강조	-10.1535
이었던	-10.1538
▁무리	-10.1538
트로	-10.1539
▁치료법	-10.1541
▁말해주	-10.1546
했다	-10.155
▁공통	-10.1552
▁만들었죠	-10.1554
함에	-10.1558
▁혜택	-10.1567
▁불평등	-10.1567
텐데요	-10.1587
▁유전자를	-10.1587
▁끈	-10.1591
▁방법에	-10.1592
▁어디로	-10.1593
▁예방	-10.1595
▁섞	-10.1596
잖아	-10.1598
▁없다	-10.1601
et	-10.1608
▁느꼈	-10.161
폰	-10.1617
릿	-10.162
▁논문	-10.1622
세포	-10.1628
장의	-10.1632
▁맛	-10.164
분은	-10.1641
들로부터	-10.1641
었지만	-10.1643
어진	-10.165
느냐	-10.1652
었기	-10.1653
▁드리	-10.1657
왔고	-10.1658
쪽으로	-10.1659
▁안됩니다	-10.1661
▁칩	-10.1671
▁얻게	-10.1674
▁공룡	-10.1674
▁코끼리	-10.1675
▁모르겠지만	-10.1678
▁커피	-10.1682
▁꺼내	-10.1691
▁혼	-10.1696
▁초점	-10.1698
▁않아도	-10.1698
▁손으로	-10.1703
▁이후에	-10.1713
▁그린	-10.1715
▁안보	-10.1716
묘	-10.1724
쌍	-10.1728
파운드	-10.1728
▁편집	-10.1734
과정	-10.1734
▁등등	-10.1736
월에	-10.1742
센트	-10.1742
▁아프리카에서	-10.1751
▁미치는	-10.1756
▁인생을	-10.1758
량을	-10.176
되어야	-10.1761
▁드는	-10.1766
▁세계적으로	-10.1767
▁공식	-10.1768
▁무선	-10.1771
▁세우	-10.1772
▁설명해	-10.1776
▁이슬람	-10.178
▁그렇기	-10.1782
▁나이지리아	-10.1782
▁부분입니다	-10.1782
▁교회	-10.1783
했다면	-10.1783
럴	-10.1783
해도	-10.1787
▁과연	-10.1789
▁회전	-10.1796
▁범	-10.1797
▁뜻입니다	-10.1798
▁이거	-10.1802
▁만들어야	-10.1804
▁만들었	-10.1808
▁자신에게	-10.1809
▁항공	-10.181
▁먹을	-10.181
▁열어	-10.1813
▁가르치	-10.1819
▁상상할	-10.1825
한다	-10.1835
▁어렸을	-10.1837
▁질환	-10.1839
▁농장	-10.1842
▁불편	-10.1844
▁마술	-10.1851
▁배웠습니다	-10.1852
▁바라보	-10.1853
학교	-10.1871
▁보안	-10.1877
▁보내는	-10.1877
▁보면서	-10.1881
▁궁금해	-10.1892
▁특허	-10.1892
▁혹시	-10.1892
주고	-10.1893
▁소득	-10.1896
세기에	-10.1897
▁제품을	-10.1903
▁완벽하게	-10.1906
▁시작했어요	-10.1907
▁성인	-10.1908
해볼	-10.1915
▁모습이	-10.1919
▁역사상	-10.192
▁당장	-10.1921
해지고	-10.1923
브라	-10.1924
▁다리를	-10.1927
▁라이	-10.1928
정부	-10.1929
▁소비자	-10.1933
▁석	-10.1935
▁금지	-10.1936
▁무엇	-10.1939
▁느낌이	-10.194
스키	-10.1941
▁쉽지	-10.1941
하니까요	-10.1946
골	-10.1947
▁우울증	-10.1947
▁말하죠	-10.1949
▁지역사회	-10.195
ur	-10.1951
▁막대	-10.1955
▁일자리	-10.1957
▁하도록	-10.1957
▁보낼	-10.1958
▁환	-10.1961
▁남자가	-10.1962
엘	-10.1964
▁직원	-10.1966
시아	-10.1969
▁지키	-10.1973
▁놓고	-10.1981
▁남은	-10.1982
져서	-10.1983
▁제약	-10.1985
▁작년에	-10.1988
▁깨달았	-10.1992
▁느껴	-10.2
앤	-10.2003
▁노예	-10.2007
▁무게	-10.2011
▁뉴런	-10.2012
▁임상	-10.2013
풀	-10.2016
속에	-10.2017
▁일어났습니다	-10.2017
▁놀랍게	-10.2031
▁하이	-10.2034
▁의자	-10.2044
▁드리겠습니다	-10.2046
버렸습니다	-10.205
곱	-10.205
▁필요는	-10.2055
궁	-10.2058
▁알기	-10.2062
▁중력	-10.2064
▁담당	-10.2069
시죠	-10.2069
속에서	-10.2072
▁일어나지	-10.2074
알	-10.2077
▁다음으로	-10.2092
▁제어	-10.21
▁용어	-10.21
▁이야기입니다	-10.21
▁침대	-10.2102
▁학교를	-10.211
▁워싱턴	-10.2115
섰	-10.2115
▁탐구	-10.2115
▁어린이	-10.2122
▁기계를	-10.2123
▁질문들	-10.2132
▁생각하게	-10.2135
▁마음에	-10.2136
자들에게	-10.2139
▁하였습니다	-10.2142
▁순간에	-10.2142
▁어디에서	-10.2147
▁서식지	-10.216
▁있고요	-10.2165
하진	-10.2167
▁화장실	-10.2171
야말로	-10.2172
▁브랜드	-10.2172
▁널리	-10.2172
▁남극	-10.2174
▁사냥	-10.2174
▁극복	-10.2174
▁알다시피	-10.2175
▁전형적	-10.2178
해지는	-10.2182
▁일반적으로	-10.2185
50	-10.2192
▁나의	-10.2194
철	-10.2199
▁번째로	-10.2218
▁환상	-10.2227
▁이해하지	-10.2227
▁말씀드렸	-10.2228
겐	-10.2234
방식	-10.2235
▁정당	-10.2237
▁실질적	-10.2238
▁운이	-10.224
▁들려	-10.2244
▁배우고	-10.2244
▁유사	-10.2261
참	-10.2262
▁전염	-10.2262
▁모르죠	-10.2262
인들이	-10.2266
▁어제	-10.2271
틴	-10.228
▁기후변화	-10.2285
▁분쟁	-10.2287
▁긍정적인	-10.2297
하시는	-10.2302
었다는	-10.2306
▁선택을	-10.2306
싶	-10.2308
▁구할	-10.2308
▁죽이	-10.2308
▁놀라	-10.2309
▁미치	-10.231
▁세가지	-10.2311
으니	-10.232
공학	-10.2335
왔던	-10.2335
▁착륙	-10.2343
▁경영	-10.2347
쳤습니다	-10.2351
▁들여다	-10.2353
▁서양	-10.2354
▁구매	-10.2357
▁준비가	-10.2357
▁여성의	-10.2359
버릴	-10.2365
▁밤에	-10.2368
같	-10.237
붙	-10.2372
▁지어	-10.2375
▁반면에	-10.2376
▁벨	-10.2379
▁고객	-10.238
▁탈	-10.2385
▁300	-10.2391
▁인권	-10.2391
▁핸드폰	-10.24
▁바탕으로	-10.24
▁시작하는	-10.24
▁줄어들	-10.2401
▁방송	-10.2405
▁칠	-10.2405
▁무료	-10.2414
해질	-10.2419
▁방식이	-10.242
▁그러다	-10.2425
라스	-10.2436
▁과정이	-10.2444
▁자아	-10.2452
객	-10.2452
▁건강한	-10.2458
흰	-10.2458
셋	-10.2458
▁깨닫게	-10.2458
▁암컷	-10.2459
▁교실	-10.246
▁탄생	-10.2462
놓은	-10.2467
▁장난감	-10.2468
▁거주	-10.247
▁아시아	-10.2476
▁최초로	-10.248
▁아래로	-10.2484
았죠	-10.2485
▁해석	-10.2487
▁뭐라고	-10.2489
▁바꾸어	-10.2494
▁보다는	-10.25
주셔서	-10.2503
▁깊	-10.2505
희	-10.2508
▁물어	-10.2509
▁이루어	-10.2509
▁볼까요	-10.2511
▁뭔지	-10.2517
칩니다	-10.2521
▁시골	-10.2522
▁기구	-10.2525
▁나노	-10.2534
▁기술에	-10.254
▁검은	-10.2542
▁싸우	-10.2542
▁부품	-10.2543
폐	-10.2543
버려	-10.2546
▁가야	-10.2548
▁합시다	-10.2556
▁선물	-10.2561
▁끝에	-10.2562
했는데요	-10.2571
▁안되	-10.2571
▁된다고	-10.2571
탐	-10.2573
▁낭비	-10.2576
▁짐	-10.258
▁아래에	-10.2582
▁흔히	-10.2582
▁드릴	-10.2583
▁물건들	-10.2588
▁X	-10.2593
▁사용하지	-10.2614
▁바라는	-10.2626
▁가면	-10.263
▁케냐	-10.2636
▁창문	-10.2639
▁똑같	-10.264
▁가속	-10.2642
▁논	-10.2642
해진	-10.2643
▁속으로	-10.2649
▁태도	-10.265
▁동네	-10.2652
▁있었다는	-10.2654
▁아버지가	-10.2658
▁인용	-10.2659
▁과거에	-10.2661
▁환경에서	-10.2681
▁좋았	-10.2684
▁보여드리고	-10.269
잇	-10.2694
▁일어납니다	-10.2694
▁뛰어난	-10.2697
드릴게요	-10.2698
▁한다	-10.27
▁재능	-10.2701
▁재미	-10.2703
▁되어야	-10.2711
▁발생하는	-10.2714
▁미국에	-10.2717
▁나타나는	-10.2719
▁설명할	-10.2732
▁리더	-10.2732
▁그리스	-10.2733
▁말했	-10.2734
하러	-10.2734
▁건물을	-10.2751
▁맞서	-10.2754
▁느낌을	-10.2755
▁필수	-10.2755
▁농담	-10.2756
▁대처	-10.2772
▁아침에	-10.2774
▁의한	-10.2775
식으로	-10.2784
▁상상력	-10.2799
▁호주	-10.2804
싼	-10.2809
짐	-10.2809
▁블랙홀	-10.2815
la	-10.2817
▁인상	-10.2821
▁간단히	-10.2825
▁미술	-10.2826
▁받습니다	-10.2831
▁신발	-10.2834
▁무한	-10.2834
▁어릴	-10.284
▁보장	-10.2846
▁죽을	-10.2854
▁젊은이들	-10.2857
▁틀렸	-10.2858
▁행사	-10.2859
▁감옥	-10.2862
▁안으로	-10.2864
▁찾았	-10.2865
▁폭탄	-10.2878
▁절약	-10.288
▁나옵니다	-10.2885
려서	-10.2887
되게	-10.2895
▁문서	-10.2898
시대	-10.2899
▁기분이	-10.2902
▁정확한	-10.2907
▁도시에	-10.2909
▁생리	-10.291
▁보니	-10.291
▁풀어	-10.2912
▁해안	-10.2915
▁사용한	-10.2919
as	-10.2923
내기	-10.2925
▁층	-10.2929
조차도	-10.2932
니아	-10.2934
▁빨간	-10.2935
▁세계적인	-10.2935
▁망원경	-10.2936
▁이렇습니다	-10.2936
▁동영상	-10.2936
▁나눠	-10.2936
▁온갖	-10.2936
▁풍경	-10.294
▁합쳐	-10.2942
▁녹음	-10.2944
▁인한	-10.2948
▁지능	-10.2956
▁반대로	-10.2957
▁밖에서	-10.2959
있고	-10.2959
장에서	-10.2961
에게도	-10.2965
테니까요	-10.2967
▁쓰지	-10.2968
젠	-10.2976
▁사람들도	-10.2982
혼	-10.2984
▁경향이	-10.2987
돼	-10.2988
거지	-10.2992
▁세상은	-10.2994
▁문화적	-10.2996
▁뇌는	-10.2998
▁대상으로	-10.2999
▁평등	-10.3
▁이루어진	-10.3009
▁있었지만	-10.301
▁기업들	-10.302
되었죠	-10.3043
▁글자	-10.3044
▁고정	-10.3046
옥	-10.305
획	-10.3051
왕	-10.3057
▁똑똑한	-10.3059
▁대다수	-10.306
▁직관	-10.306
▁지붕	-10.3061
▁허락	-10.3063
▁출발	-10.3064
▁형제	-10.3064
달라고	-10.3071
▁일련	-10.3071
▁다루는	-10.3077
▁파티	-10.3084
▁서구	-10.3085
텐데	-10.3101
▁연구에	-10.3106
혔	-10.3111
▁지도를	-10.3115
▁받으	-10.312
000	-10.3121
▁침팬지	-10.3121
▁호텔	-10.3123
인들은	-10.3124
▁있습니까	-10.3126
▁추구	-10.3126
▁듯	-10.3127
▁자신들	-10.313
▁남겨	-10.313
▁여겨	-10.3133
주었습니다	-10.3135
▁살인	-10.3139
▁시작하고	-10.314
▁연구가	-10.3148
▁걸렸	-10.315
▁주지	-10.3151
▁지나가	-10.3153
▁기여	-10.3153
▁한번도	-10.3164
▁얘	-10.3167
▁수정	-10.3169
했을까요	-10.317
▁공중	-10.3178
멘	-10.3181
▁캐릭터	-10.3184
▁에이즈	-10.3184
▁비롯	-10.3185
▁지혜	-10.3187
▁드리고	-10.319
▁만들어서	-10.3193
▁싶다면	-10.3199
▁사업을	-10.32
▁보수	-10.3206
▁퍼센트	-10.3209
▁단위	-10.3213
▁물질을	-10.3215
▁변화시키	-10.3221
▁합성	-10.323
자들의	-10.3243
적이지	-10.3246
▁삶이	-10.3246
탕	-10.3247
▁않나요	-10.3247
▁없게	-10.3247
▁천천히	-10.3247
땐	-10.3247
북	-10.3251
▁데리고	-10.3253
▁추출	-10.3254
▁미친	-10.3259
▁느꼈습니다	-10.3259
▁같아	-10.326
빌	-10.3261
▁화가	-10.3262
▁재배	-10.3263
▁본다면	-10.3268
▁늘어나	-10.3272
▁돼	-10.3273
▁실험실	-10.3274
▁사회에	-10.3275
▁고래	-10.3277
버리는	-10.3288
▁두개	-10.3288
▁얼	-10.3295
▁봐야	-10.3299
하길	-10.33
▁자선	-10.3304
떼	-10.3309
쾌	-10.331
▁대규모	-10.331
항	-10.3311
▁식사	-10.3312
▁전문가들	-10.3313
▁출판	-10.3314
▁찾아야	-10.3315
▁충분	-10.3321
▁거쳐	-10.3328
▁조지	-10.333
리곤	-10.3332
▁생각했어요	-10.3336
▁눈이	-10.3346
▁보냈	-10.3351
봅시다	-10.3353
문제	-10.3353
▁걸린	-10.3367
▁올바른	-10.3374
▁좋게	-10.3374
▁꼬리	-10.3374
▁같지	-10.3375
▁압력	-10.3375
▁수상	-10.3376
▁중요하다고	-10.3376
▁연습	-10.3378
▁다윈	-10.3379
▁식품	-10.338
▁취약	-10.338
▁대칭	-10.3382
▁존중	-10.3384
▁느끼게	-10.3389
▁몰랐습니다	-10.3393
▁닿	-10.3395
▁발견할	-10.3397
▁생각한	-10.3398
▁되는지	-10.3401
줬습니다	-10.341
▁의회	-10.3411
져야	-10.3413
지대	-10.3416
▁예시	-10.3421
해주세요	-10.3424
▁생겨	-10.3425
▁처음에는	-10.3425
▁남자들	-10.3433
▁변호사	-10.3438
▁활성화	-10.3438
▁목숨	-10.3438
▁트럭	-10.3438
▁150	-10.3438
▁예전에	-10.344
▁태양계	-10.3448
▁운명	-10.3453
단체	-10.3455
▁불법	-10.3456
▁확실	-10.346
▁차이점	-10.3474
▁선수	-10.3479
센	-10.348
▁생기는	-10.348
▁긴장	-10.348
▁말했어요	-10.348
스와	-10.3485
졌고	-10.3494
▁넘어서	-10.3501
▁쏟아	-10.3502
▁움직일	-10.3502
▁접촉	-10.3504
▁미국인들	-10.3508
▁털	-10.3513
▁것일	-10.3515
▁외국	-10.3518
자로서	-10.3519
▁어린이들	-10.3523
팔	-10.3523
라서	-10.3524
▁생각하기에	-10.3531
▁시행	-10.3534
▁때부터	-10.354
▁지하	-10.3548
il	-10.3553
거예요	-10.3554
▁뇌에	-10.3558
▁사람입니다	-10.3558
▁장면을	-10.356
▁확인할	-10.3562
▁참가	-10.3563
▁시민들	-10.3564
▁레이	-10.3565
▁줄일	-10.3566
엽	-10.3567
▁맞습니다	-10.3567
▁옛날	-10.3567
춰	-10.3567
▁미국은	-10.3568
▁석탄	-10.3569
▁면역	-10.3569
▁알리	-10.357
▁새끼	-10.357
▁기념	-10.3572
▁내에서	-10.3573
▁수컷	-10.3576
▁분노	-10.3578
▁괜찮은	-10.358
▁기술과	-10.3582
▁소설	-10.3583
풍	-10.3587
▁사이버	-10.3587
▁곡선	-10.3589
▁본질	-10.359
벨	-10.359
냐고	-10.3591
받는	-10.3591
꺼	-10.3594
둘	-10.3594
ve	-10.3605
▁아이들과	-10.3612
학년	-10.3626
레스	-10.3628
▁만났습니다	-10.3633
▁다양	-10.3633
▁영원히	-10.3637
▁못하게	-10.364
▁있거든요	-10.3642
셨죠	-10.3643
▁보낸	-10.3643
▁몇년	-10.365
▁비유	-10.3651
▁제공하는	-10.3659
하라고	-10.3676
▁보이죠	-10.369
밥	-10.3698
▁라디오	-10.3698
▁흡수	-10.3698
▁정체성	-10.3699
▁보여줄	-10.3703
▁처방	-10.3705
▁넘어가	-10.3705
▁사람들에	-10.3706
▁조언	-10.371
▁추정	-10.3712
▁정확	-10.3716
▁정교	-10.372
체계	-10.3726
▁기타	-10.3732
되었던	-10.3733
▁않았고	-10.3733
▁날개	-10.3735
▁당신에게	-10.3742
웨이	-10.3752
▁눈으로	-10.3759
되었다는	-10.376
▁보였습니다	-10.3763
물질	-10.3765
▁소셜	-10.3766
버리고	-10.3768
▁화석	-10.3771
▁주어진	-10.3774
▁청소	-10.3774
것과	-10.3775
▁기자	-10.3776
▁자본주의	-10.3777
자들과	-10.378
▁이용하는	-10.379
지라도	-10.379
▁아니라고	-10.3801
▁아까	-10.3807
▁경우는	-10.3815
▁걸릴	-10.3816
▁않도록	-10.3831
▁197	-10.3836
▁켜	-10.3836
▁고기	-10.3845
▁분야에	-10.3846
▁있었지요	-10.3848
부분	-10.3853
▁유발	-10.3854
▁되겠죠	-10.3854
de	-10.386
▁만들어졌	-10.3863
▁요인	-10.3864
▁비만	-10.3865
▁기원	-10.3865
따	-10.3865
▁최대한	-10.3875
▁대안	-10.3877
▁과학자들이	-10.3885
이었는데	-10.3886
▁사과	-10.3889
▁조명	-10.3894
촉	-10.3897
▁400	-10.3898
▁의사소통	-10.3898
▁펼쳐	-10.3898
시설	-10.3899
▁의해서	-10.39
▁승리	-10.3901
▁정원	-10.3902
▁비극	-10.3908
▁대학교	-10.3908
▁안전한	-10.391
▁같았습니다	-10.3912
▁선호	-10.3915
▁사람들입니다	-10.3917
▁행복한	-10.392
▁동안에	-10.392
▁열린	-10.3922
▁손실	-10.3923
▁이슈	-10.3923
과학	-10.3924
다지	-10.3925
▁시위	-10.3927
▁쓰여	-10.3935
▁확률	-10.3936
▁기존의	-10.3951
▁사상	-10.3952
가능한	-10.3953
해온	-10.3961
▁것만	-10.3962
▁마찬가지입니다	-10.3966
▁믿어	-10.3966
▁욕구	-10.3967
▁새벽	-10.3968
▁싶으	-10.397
▁상당한	-10.3971
▁휴	-10.3975
이니까요	-10.3983
억명	-10.3984
▁벽에	-10.3986
▁알려져	-10.3989
이젠	-10.3989
▁공정	-10.3997
▁작고	-10.4002
▁농부들	-10.4005
십	-10.4015
▁우리들이	-10.4017
▁불어	-10.4029
▁속의	-10.4031
쇠	-10.4031
듬	-10.4032
컬	-10.4034
▁씨앗	-10.4034
▁둘째	-10.4036
▁따른	-10.4037
스테	-10.404
▁성격	-10.4045
▁예외	-10.4045
▁엔지니어	-10.405
되었을	-10.4051
▁싶었	-10.4057
▁소위	-10.4064
▁저축	-10.4064
▁예정	-10.4069
트라	-10.4077
▁아동	-10.4088
▁도덕	-10.4093
▁그녀에게	-10.4096
▁사용해	-10.41
▁부분에서	-10.4101
펠	-10.4103
▁협상	-10.4104
▁홀	-10.4107
▁응	-10.4108
▁배열	-10.4111
▁일치	-10.4112
▁있는지를	-10.4116
▁뭘까요	-10.4118
▁적게	-10.4119
봤습니다	-10.4125
▁비난	-10.4126
▁대량	-10.4127
안에서	-10.4129
공간	-10.4131
▁샤	-10.4135
년까지	-10.4142
▁주시	-10.4145
▁엄청	-10.4155
면서도	-10.4162
▁전역	-10.4167
▁일주일	-10.4172
▁재활용	-10.4173
▁목표는	-10.4179
▁유용	-10.418
▁임신	-10.4181
것에	-10.4189
▁연속	-10.419
am	-10.4194
▁공간에	-10.4199
▁고안	-10.4203
▁그들과	-10.4205
▁요점	-10.4208
▁남기	-10.4215
▁프로젝트는	-10.4216
택	-10.4219
▁현상이	-10.4219
▁공간이	-10.4224
▁태어났	-10.4231
▁건축가	-10.4233
구조	-10.4234
▁35	-10.4237
▁교사	-10.4237
▁아인슈타인	-10.4241
▁얻기	-10.4241
▁읽었	-10.4241
▁캠페인	-10.4241
▁훌륭하	-10.4241
닉	-10.4241
▁간호사	-10.4241
▁침묵	-10.4241
▁섹스	-10.4242
되었는지	-10.4243
▁생길	-10.4248
▁이곳에	-10.4249
▁나누고	-10.4253
겼습니다	-10.4255
▁번째는	-10.4256
대학	-10.426
▁가져오	-10.427
▁이것들이	-10.4273
시켜야	-10.4278
▁작년	-10.4286
▁던지	-10.4288
▁잡고	-10.4307
흥	-10.4307
렀	-10.4308
▁인도에서	-10.431
▁MIT	-10.4311
▁끊임없이	-10.4311
▁느낍니다	-10.4311
▁도서관	-10.4311
▁생태	-10.4311
▁곳곳	-10.4313
▁최종	-10.4314
▁명령	-10.4317
었는지	-10.4317
▁개입	-10.4319
▁갈등	-10.432
▁번역	-10.4323
▁구입	-10.4323
▁유행	-10.4339
▁의사들	-10.4347
▁악기	-10.435
보겠습니다	-10.4357
▁여기에서	-10.4361
번호	-10.4366
렬	-10.4376
납	-10.4378
▁이루어져	-10.4381
▁그렇다고	-10.4381
▁블로그	-10.4381
▁즐거움	-10.4381
넷	-10.4381
▁스페인	-10.4381
▁아파트	-10.4381
▁기쁨	-10.4381
▁액체	-10.4382
▁상어	-10.4389
▁벌어지고	-10.4394
율이	-10.4395
▁의하면	-10.4396
▁철학	-10.4406
▁소음	-10.441
해봅시다	-10.441
▁반면	-10.4412
▁돕는	-10.4416
▁남부	-10.4417
▁둔	-10.442
▁희망을	-10.4422
▁보관	-10.4429
었다고	-10.4433
▁보내고	-10.4434
▁들여	-10.4436
잔	-10.4436
닌	-10.4438
▁다수	-10.4444
허	-10.4445
방법	-10.4445
▁저것	-10.4448
에너지	-10.445
헤	-10.4451
딩	-10.4452
▁듭니다	-10.4452
▁스웨덴	-10.4452
▁동정심	-10.4452
▁파트너	-10.4452
▁확산	-10.4452
▁며칠	-10.4453
▁업무	-10.4453
▁영혼	-10.4453
▁관측	-10.4454
▁표준	-10.4455
▁99	-10.4458
였을	-10.446
▁도망	-10.4463
▁사용하기	-10.4475
▁모자	-10.4476
받은	-10.4478
▁우주선	-10.4482
▁개인적으로	-10.4507
▁수익	-10.451
왔어요	-10.4512
찌	-10.452
해보면	-10.452
▁않다고	-10.4524
▁시작해서	-10.4527
▁우연	-10.453
▁회사가	-10.4532
▁조금씩	-10.4532
놓고	-10.4535
▁금속	-10.4536
▁대비	-10.4545
웠습니다	-10.4546
un	-10.456
▁퍼져	-10.4563
▁흥미롭	-10.4564
▁되는데	-10.4567
▁쓰기	-10.457
▁로봇이	-10.4579
▁방식은	-10.458
▁일할	-10.4581
▁자살	-10.4583
▁주문	-10.4584
▁일년	-10.4585
▁그러고	-10.459
▁무작위	-10.4596
삭	-10.4596
▁민간	-10.4597
▁싸움	-10.4598
▁엔진	-10.4598
으려	-10.4599
▁해답	-10.4601
▁전력	-10.4602
▁적도	-10.4604
▁편안	-10.4606
▁아프	-10.4607
▁궁극적으로	-10.4607
▁접속	-10.4609
웨	-10.4609
▁원하지	-10.4616
▁하나님	-10.4616
보죠	-10.4617
셨어요	-10.4619
▁만들어내는	-10.4626
▁돌리	-10.4627
▁일정	-10.4627
ck	-10.4635
완전한	-10.4636
▁넌	-10.4637
졌죠	-10.4637
있게	-10.4638
▁인체	-10.4642
▁만드는데	-10.4644
분야	-10.4649
▁포함한	-10.465
▁들어가는	-10.4659
▁맞아요	-10.4668
▁글로벌	-10.4668
▁멍청	-10.4668
▁따뜻	-10.4668
활동	-10.4668
▁센서	-10.4669
▁규칙을	-10.4669
▁친절	-10.467
▁갖추	-10.4671
시겠습니까	-10.4671
▁2008	-10.4672
ne	-10.4673
▁천연	-10.4675
▁참석	-10.4676
▁찾았습니다	-10.468
▁감옥에	-10.4686
▁45	-10.4686
했으며	-10.469
▁생겼습니다	-10.469
▁바라보는	-10.469
▁뿐이죠	-10.4714
▁생명의	-10.4719
▁결과물	-10.4722
씨가	-10.4723
▁밑에	-10.4728
▁매체	-10.4731
▁같죠	-10.4732
▁일으키	-10.4732
▁스스로에게	-10.4737
▁변화에	-10.4741
▁GDP	-10.4741
▁파란색	-10.4743
싸	-10.4744
▁아마존	-10.4746
▁곳이죠	-10.475
▁쪽으로	-10.4751
하느냐	-10.4755
▁타인	-10.4759
▁경로	-10.4761
▁되어있	-10.4769
▁마이크	-10.4772
▁권리를	-10.4772
버립니다	-10.4774
▁확실한	-10.478
▁이득	-10.478
▁미세	-10.4784
▁한쪽	-10.4791
ter	-10.4799
▁전국	-10.4807
▁여지	-10.4811
▁방에	-10.4812
▁샌프란시스코	-10.4815
룬	-10.4815
젤	-10.4815
▁받아들여	-10.4815
▁매력	-10.4816
▁택	-10.4816
▁노화	-10.4818
▁행운	-10.4821
▁있었는지	-10.4826
▁반영	-10.4827
▁해줍니다	-10.4828
▁짜	-10.4833
U	-10.4837
▁존재할	-10.4837
▁가르치는	-10.484
▁주입	-10.4841
할수	-10.4859
▁살아가	-10.4861
▁생각해보면	-10.4864
적이며	-10.4866
▁않았을	-10.487
▁지니	-10.4876
▁Y	-10.4878
있죠	-10.4882
▁내내	-10.4883
▁회로	-10.4885
▁민감	-10.4889
▁UN	-10.4889
▁것들이죠	-10.489
▁스캔	-10.489
쓰	-10.4891
▁감독	-10.4894
▁현명	-10.4895
꾸	-10.4895
▁머물	-10.4896
▁숨을	-10.4898
▁만난	-10.4901
하라	-10.4901
▁구역	-10.4906
▁잠재력	-10.4912
▁친구들이	-10.4915
그램	-10.492
▁나갈	-10.4922
▁전세계적으로	-10.4929
됐습니다	-10.4931
▁받게	-10.4931
▁밀어	-10.4936
▁입장	-10.4939
▁최소	-10.4941
봐요	-10.4943
▁모르고	-10.4947
▁어른	-10.4955
▁나타내	-10.4956
해주는	-10.4958
▁몰라	-10.4959
놈	-10.4959
ce	-10.496
▁점수	-10.4962
활	-10.4962
▁넣었	-10.4963
잎	-10.4963
▁무언가가	-10.4963
▁규제	-10.4964
환경	-10.4964
▁사고방식	-10.4965
▁말씀드리겠습니다	-10.4967
▁연합	-10.4971
▁모험	-10.4972
▁일으키는	-10.4972
▁투명	-10.4976
▁도울	-10.4977
▁부위	-10.4981
▁부인	-10.4987
▁중요성	-10.4989
▁순환	-10.4991
▁내놓	-10.4992
▁방지	-10.4993
▁중독	-10.4996
▁끔찍	-10.5004
▁달성	-10.5012
쟁	-10.5013
▁예전	-10.5013
▁없었고	-10.5021
▁싶어하는	-10.5024
▁전파	-10.503
렴	-10.5035
▁믿었	-10.5038
▁인터페이스	-10.5038
▁샘플	-10.5038
▁말씀드린	-10.5039
▁적당	-10.504
음에도	-10.504
▁로켓	-10.504
신다면	-10.5052
함과	-10.5052
▁해주는	-10.5057
▁말씀드릴	-10.5057
밤	-10.5064
배나	-10.5065
살짜리	-10.507
▁것인데요	-10.5075
래요	-10.5076
▁나왔습니다	-10.5077
보자	-10.5078
▁부문	-10.5082
▁가설	-10.5084
▁인생에서	-10.5086
▁전투	-10.5094
▁일어나는지	-10.5094
나가는	-10.5096
▁바닥에	-10.5108
텐	-10.5109
▁얘기할	-10.5112
겠네요	-10.5113
▁안녕하세요	-10.5114
겹	-10.5114
멜	-10.5114
뻔	-10.5114
쏘	-10.5114
▁천문학	-10.5114
▁전염병	-10.5116
▁할수	-10.512
받지	-10.5124
▁빠지	-10.5124
▁인기	-10.5125
▁감동	-10.5128
▁진동	-10.5128
▁점심	-10.5129
▁느끼고	-10.5131
▁이번에는	-10.5135
▁있거나	-10.5136
▁연구하고	-10.5141
▁와인	-10.5144
▁파란	-10.5148
▁중요하지	-10.5157
해져	-10.5158
▁그래야	-10.516
받고	-10.5162
▁생각했던	-10.5166
▁시계	-10.5166
▁바꾸고	-10.5169
▁직원들	-10.5171
▁좋아하지	-10.5172
버그	-10.5175
▁마비	-10.5178
▁보며	-10.518
▁장점	-10.5188
▁마무리	-10.5191
▁규정	-10.5191
▁2010	-10.5192
▁굳	-10.5193
스카	-10.5193
▁버튼	-10.5194
▁나타내는	-10.5198
▁북쪽	-10.52
▁실망	-10.5203
▁허용	-10.5203
▁때문이지요	-10.5204
▁어느날	-10.5204
▁초래	-10.5205
▁하더라도	-10.5207
▁계실	-10.5208
뇌	-10.5211
빛	-10.5215
▁달린	-10.5217
▁시장에	-10.5219
능력	-10.5223
▁국제적	-10.5223
▁저런	-10.5225
▁일이었습니다	-10.5228
줘야	-10.5231
▁차량	-10.5232
▁보도	-10.5236
▁전송	-10.5239
▁펜	-10.5241
▁흐	-10.5241
com	-10.5246
▁기다리고	-10.5251
▁지내	-10.5254
콩	-10.5266
▁나타냅니다	-10.5267
▁운송	-10.5268
▁에어	-10.527
▁줄기	-10.5272
▁날씨	-10.5275
▁안돼	-10.5276
▁분열	-10.5278
▁만들어낸	-10.5278
▁봄	-10.528
시장	-10.528
▁도시에서	-10.5282
▁중동	-10.5282
▁즉시	-10.5285
▁미리	-10.5285
▁창의적인	-10.5285
▁친구들과	-10.529
W	-10.5294
▁시기에	-10.5295
▁근처	-10.5298
▁시작했을	-10.5308
▁시각적	-10.531
▁신용	-10.5312
▁학생들에게	-10.5317
▁주체	-10.5324
교육	-10.5327
lo	-10.5335
▁무슬림	-10.5345
▁없지요	-10.5345
▁테러리스트	-10.5345
▁피아노	-10.5345
▁테이블	-10.5345
▁개개인	-10.5345
▁겨울	-10.5345
▁존경	-10.535
▁성별	-10.5351
▁느껴지	-10.5351
▁사용했습니다	-10.5357
볼까요	-10.5359
▁거라는	-10.5361
▁시점에서	-10.5374
다들	-10.5381
▁무지	-10.5382
▁열정을	-10.5389
▁죽는	-10.5389
▁22	-10.5391
▁세금	-10.5396
▁비슷하	-10.5401
▁던져	-10.5401
▁군인	-10.5409
되었는데	-10.5409
▁들어가서	-10.5412
되죠	-10.5416
▁덩어리	-10.5418
▁혁신적인	-10.5418
냉	-10.5423
렛	-10.5423
▁지도자들	-10.5424
▁지금부터	-10.5427
▁아이폰	-10.5427
▁섬유	-10.5428
▁돌아가서	-10.543
▁요소들	-10.5431
▁치명적	-10.5432
▁조립	-10.5438
▁필요할	-10.5438
척	-10.5446
▁만들지	-10.5448
▁지속적으로	-10.5448
▁기차	-10.5453
▁시점	-10.5457
▁들어서	-10.5458
▁무엇이든	-10.546
로우	-10.5479
▁빠르	-10.548
ir	-10.5489
▁얻었	-10.5492
세대	-10.5492
▁자산	-10.5492
▁보고서	-10.5499
턱	-10.5502
킬로미터	-10.5502
▁보이시죠	-10.5503
▁혈관	-10.551
▁얻었습니다	-10.5512
▁갔을	-10.5514
주기	-10.5523
▁위험에	-10.5529
▁다음에는	-10.553
조사	-10.553
▁풍선	-10.5536
▁받기	-10.5537
시스템	-10.5541
섬	-10.5541
▁내일	-10.5543
눈	-10.5549
▁부자	-10.5549
▁제공할	-10.5552
▁유전적	-10.5553
상에서	-10.5568
▁거짓말을	-10.5574
▁작동하는	-10.5574
▁노출	-10.5576
몽	-10.558
▁어두운	-10.5581
▁파키스탄	-10.5581
▁둘러싸	-10.5582
▁개혁	-10.5583
▁다소	-10.5585
▁계약	-10.5588
하셨습니다	-10.5589
▁시작되	-10.559
▁보이고	-10.5593
▁매달	-10.5594
▁기적	-10.5603
▁분산	-10.5603
했어	-10.5606
▁벌어지는	-10.5609
▁자녀	-10.561
▁앉아있	-10.5611
▁가져야	-10.5612
▁그동안	-10.5617
▁대출	-10.5622
40	-10.5629
센터	-10.5632
▁것이에요	-10.5633
후에	-10.5633
스런	-10.5633
▁만드	-10.5636
왔죠	-10.5638
▁앱	-10.5641
▁빛이	-10.5642
▁연구하는	-10.5643
▁대형	-10.5643
량이	-10.5654
쁜	-10.5656
id	-10.5659
▁혐오	-10.5661
밭	-10.5661
▁혈액	-10.5661
▁필요도	-10.5663
만년	-10.5668
▁불가능한	-10.5674
▁쓸모	-10.5674
▁조심	-10.5676
▁변화시킬	-10.5677
▁누구든	-10.5678
▁점차	-10.5678
▁청소년	-10.5682
▁채로	-10.5694
▁연방	-10.5698
▁주인	-10.5698
▁농부	-10.5711
▁해결하기	-10.5712
▁많지	-10.5713
졌어요	-10.5714
▁세워	-10.5718
개국	-10.5721
드리죠	-10.5729
▁연결된	-10.5737
덴	-10.5742
▁이탈리아	-10.5742
▁습관	-10.5742
협회	-10.5745
▁PM	-10.5746
하였고	-10.5747
▁조상	-10.5751
▁우연히	-10.5752
▁실천	-10.5754
▁연민	-10.5754
▁배치	-10.5757
▁해변	-10.5761
▁해낼	-10.5767
▁표정	-10.5767
▁내고	-10.577
▁세계로	-10.5773
▁시간과	-10.5774
▁미국과	-10.5778
▁왼쪽에	-10.5781
▁나라에	-10.5782
▁유용한	-10.5782
▁예측할	-10.5783
▁한편	-10.5783
▁유형	-10.5785
디어	-10.5789
▁의무	-10.5796
▁모두들	-10.5797
▁체제	-10.5803
▁기반으로	-10.5807
▁영양	-10.5811
▁동일	-10.5812
여야	-10.5816
▁펭귄	-10.5823
▁자유롭게	-10.5823
▁클릭	-10.5824
▁너머	-10.5827
▁공항	-10.5827
▁창출	-10.5828
▁도표	-10.5833
▁그보다	-10.5843
▁과정에	-10.5857
▁끼치	-10.5863
▁지나치	-10.5867
▁시작된	-10.5869
자면	-10.5869
▁사진들	-10.5869
램	-10.587
▁남쪽	-10.5871
겠군요	-10.5887
▁75	-10.5888
▁서로에게	-10.5891
▁방어	-10.5899
▁결심	-10.5904
▁특수	-10.5905
롱	-10.5905
▁보여준	-10.5909
▁노력하고	-10.591
▁유기체	-10.5912
스토	-10.5917
▁생명이	-10.5929
▁내면	-10.5933
▁들어갈	-10.5933
▁비교해	-10.5935
▁작성	-10.594
▁쳐다보	-10.5944
▁걸렸습니다	-10.5944
▁강제	-10.5945
하다가	-10.5949
▁회사들	-10.5956
▁모르겠	-10.5956
▁곰	-10.5961
▁공유하고	-10.5963
셔서	-10.5964
ow	-10.5965
렸죠	-10.5973
되었다고	-10.5976
▁이쪽	-10.5978
▁장애물	-10.5979
델	-10.598
▁지켜보	-10.5982
▁기업가	-10.5984
헌	-10.5984
▁세계화	-10.5987
픽	-10.5987
▁겪었	-10.5988
▁노트북	-10.5988
톱	-10.5988
▁그래픽	-10.5988
▁진짜로	-10.5991
▁어찌	-10.5992
▁가짜	-10.5993
▁있듯이	-10.5994
▁거짓말	-10.5997
▁사생활	-10.5997
▁관여	-10.6001
▁최상	-10.6001
▁매번	-10.6002
▁조각들	-10.6006
▁왔다	-10.6007
▁프리	-10.6018
▁아니요	-10.6021
▁흔한	-10.6022
해보고	-10.6023
사진	-10.6031
▁말해서	-10.6039
었다	-10.6045
▁효과적인	-10.6051
▁찾으	-10.6059
▁얘기해	-10.6064
실험	-10.6066
룩	-10.6071
▁캠프	-10.6071
▁바이오	-10.6072
▁영광	-10.6075
▁196	-10.6076
▁지속가능	-10.6077
드라	-10.608
▁환자가	-10.608
▁골프	-10.6082
▁생각해야	-10.6084
▁조류	-10.6095
▁흙	-10.6096
▁박스	-10.6098
▁버전	-10.6099
▁선생님들	-10.61
▁지구에서	-10.6107
▁매력적인	-10.6107
▁돌보	-10.6118
셔야	-10.6119
▁본인	-10.612
▁주머니	-10.6121
▁만들죠	-10.6124
▁붙여	-10.6129
였지요	-10.6133
▁아들이	-10.6134
▁군사	-10.6134
▁순서	-10.6137
▁없어서	-10.614
▁병원에서	-10.6141
▁떠오르	-10.6155
컵	-10.6155
▁배터리	-10.6155
▁투쟁	-10.6156
▁바퀴	-10.616
▁표본	-10.6162
▁여자들	-10.6163
▁대항	-10.6163
다시피	-10.6163
▁등록	-10.6167
▁충분하지	-10.617
▁않았지만	-10.6173
▁청년	-10.6178
▁수십억	-10.6178
▁살해	-10.6182
▁유연	-10.6185
▁위해서요	-10.6188
▁영리	-10.6204
▁후보	-10.6227
▁데려가	-10.6228
▁흔	-10.623
놀	-10.6232
▁그거	-10.6235
섭	-10.6236
켓	-10.6238
▁멈춰	-10.624
▁큽니다	-10.624
톰	-10.624
▁오바마	-10.624
▁어둠	-10.624
▁언덕	-10.624
▁제임스	-10.624
랍니다	-10.6241
▁어깨	-10.6241
▁부유	-10.6244
▁실험실에서	-10.6244
▁포스터	-10.6244
▁변환	-10.6246
▁본능	-10.6249
▁개별	-10.6249
▁절차	-10.6249
▁물리학자	-10.6251
▁팬	-10.6253
연구	-10.6259
▁불리	-10.6263
▁피해자	-10.6263
▁독감	-10.6265
▁이르는	-10.6267
▁지표	-10.6273
드립니다	-10.6273
▁애들	-10.6273
▁허가	-10.6286
해졌	-10.6289
▁연구실	-10.6314
촌	-10.6319
흘	-10.632
벗	-10.6323
▁여인	-10.6323
▁남아프리카	-10.6327
▁사망률	-10.6328
▁들자면	-10.6328
▁집안	-10.6328
▁국립	-10.6329
하거든요	-10.6337
▁복용	-10.6338
▁사진들을	-10.6348
▁아담	-10.635
▁거울	-10.6351
▁깨끗한	-10.6353
▁무엇보다도	-10.6369
▁파일	-10.6377
▁중요하게	-10.6378
ay	-10.6382
▁같았	-10.6383
▁발사	-10.6384
▁생각하면	-10.6389
해보겠습니다	-10.6393
있었	-10.6397
▁나면	-10.6398
되면서	-10.6402
▁살펴보면	-10.6405
굴	-10.641
▁현미경	-10.6412
▁나타납니다	-10.6412
▁태어난	-10.6412
위원회	-10.6412
▁교환	-10.6412
▁참고	-10.6416
▁2009	-10.6416
▁아무튼	-10.6417
▁모순	-10.6418
▁살짝	-10.6419
▁책임감	-10.642
▁최신	-10.6422
하였	-10.6426
▁남성들	-10.6426
▁얘기하고	-10.643
▁은유	-10.6433
▁비슷하게	-10.6436
▁추진	-10.6438
▁이것도	-10.6442
▁생각하실	-10.6442
▁보여드리죠	-10.6442
ha	-10.6448
ent	-10.6449
▁고무	-10.6451
▁사용되는	-10.6454
▁오른쪽에	-10.6454
▁작용하는	-10.6466
드릴	-10.6466
▁연구에서	-10.6471
받았	-10.6472
▁자격	-10.6473
▁보여줬	-10.6478
▁자신감	-10.6483
▁가량	-10.6484
▁감수	-10.6484
▁떠올리	-10.649
▁일생	-10.6493
▁투명성	-10.6495
ad	-10.6497
▁고속도로	-10.6499
▁상관없이	-10.6499
▁피드백	-10.6499
▁하버드	-10.6499
▁여기저기	-10.6499
총	-10.65
▁가져올	-10.65
▁중요하다는	-10.6502
▁절망	-10.6505
▁복잡성	-10.6505
▁알아요	-10.6512
해집니다	-10.6522
▁걸려	-10.6524
▁분해	-10.6525
▁1000	-10.6528
▁한편으로	-10.653
▁보이게	-10.6532
▁양쪽	-10.6532
있잖아요	-10.6532
▁고치	-10.6543
▁전구	-10.6557
15	-10.656
▁결과적으로	-10.6564
▁장난	-10.6582
징	-10.6583
깔	-10.6585
▁1990	-10.6586
빅	-10.6586
▁마케팅	-10.6586
▁소아마비	-10.6586
▁마이클	-10.6586
▁꼭대기	-10.6587
▁민족	-10.6587
▁1960	-10.6588
▁작곡	-10.6588
▁답변	-10.6591
kg	-10.6592
▁보편적	-10.6593
▁진료	-10.6595
▁효율	-10.6596
▁본질적으로	-10.6596
▁알아냈습니다	-10.6597
드리겠습니다	-10.6598
▁누르	-10.66
▁죽었	-10.6603
▁포함해서	-10.6608
▁가나	-10.6613
▁유산	-10.6618
만큼이나	-10.6619
치료	-10.662
해준	-10.662
▁항해	-10.6623
조직	-10.663
으시	-10.6639
▁항성	-10.6639
sh	-10.6641
▁발생한	-10.6641
▁상태에서	-10.665
▁살기	-10.6657
▁만들었고	-10.6668
칙	-10.667
벽	-10.667
튜	-10.6674
꿨	-10.6675
▁슈퍼	-10.6675
▁제외하고	-10.6675
▁노인	-10.6679
▁자리에서	-10.6683
▁비싼	-10.6683
▁Ma	-10.6687
했거든요	-10.6691
▁방출	-10.6691
▁재산	-10.6695
os	-10.6696
▁시작해	-10.6701
▁과정은	-10.6701
ge	-10.6701
▁효과적으로	-10.671
▁흔적	-10.6711
▁통한	-10.6716
▁살아있	-10.6723
해주고	-10.6724
하든	-10.6729
▁여러분들에게	-10.6742
▁종사	-10.6748
▁신비	-10.6749
▁시작하기	-10.6755
제품	-10.6757
▁아니야	-10.6757
▁낯선	-10.6764
▁씁니다	-10.6764
▁1980	-10.6766
▁알아낸	-10.6767
▁신화	-10.677
▁요약	-10.6771
▁불행히	-10.6771
▁속한	-10.6773
▁끝난	-10.6773
▁국내	-10.6775
입니까	-10.678
▁간단합니다	-10.6791
▁기존	-10.6792
▁비전	-10.6796
▁걸음	-10.6807
▁공통점	-10.6807
본다면	-10.6814
▁위치한	-10.6815
▁있을겁니다	-10.6822
▁한데	-10.6823
냐면	-10.6834
▁방안	-10.684
▁견해	-10.6841
▁하는데요	-10.6843
▁질문입니다	-10.6843
퀴	-10.6849
▁여러분들도	-10.6851
럭	-10.6854
랩	-10.6854
▁GPS	-10.6854
젖	-10.6854
▁햇빛	-10.6854
5,000	-10.6854
▁떼어	-10.6856
▁2007	-10.6859
▁남녀	-10.6859
▁모른다는	-10.6859
▁극단적	-10.6859
겠어	-10.6861
▁달려있	-10.6863
▁담배	-10.6863
▁보험	-10.6866
보기로	-10.6867
▁있구요	-10.6868
▁오후	-10.6869
▁삶에서	-10.6872
▁채워	-10.6873
▁배양	-10.6876
▁간단하게	-10.6876
▁합리적	-10.6882
▁흥미롭게	-10.6882
작업	-10.6883
▁만들어졌습니다	-10.6885
▁시작되었습니다	-10.6887
십만	-10.689
▁조화	-10.6893
▁뽑	-10.6896
▁많고	-10.6904
▁마이크로	-10.6907
▁지각	-10.6909
▁오류	-10.6917
▁적절	-10.692
▁지나면	-10.6929
잉	-10.6943
행위	-10.6945
놨	-10.6945
▁나타난	-10.6945
▁팔레스타인	-10.6945
▁방사선	-10.6945
▁렌즈	-10.6945
▁스크린	-10.6945
▁교류	-10.6946
▁폭풍	-10.6946
▁뜨거	-10.6949
▁형상	-10.6952
▁축하	-10.6953
▁번영	-10.6957
▁받아야	-10.6963
▁건데요	-10.6968
▁어딘가에	-10.6968
흐	-10.6969
▁정신적	-10.6975
▁않았다는	-10.6975
▁누구에게	-10.6985
▁장식	-10.6994
▁법안	-10.7001
▁이용한	-10.7008
▁판사	-10.7012
▁자신만	-10.7016
▁홀로	-10.7016
▁않는다고	-10.7025
해보세요	-10.7028
륙	-10.7031
▁느낀	-10.7037
▁똑똑하	-10.7037
▁생깁니다	-10.7037
덤	-10.7037
틈	-10.7037
▁어려워	-10.7037
▁꽃가루	-10.7037
▁협동	-10.7037
▁자폐증	-10.7038
▁스토리	-10.7038
▁지시	-10.7038
▁레이저	-10.7039
십니다	-10.7039
▁때문이에요	-10.7042
▁많았	-10.7042
▁주택	-10.7046
▁차별	-10.7048
▁생각하죠	-10.7051
▁계단	-10.7051
▁찾아보	-10.7055
▁권위	-10.7056
▁아직까지	-10.7058
기위해	-10.706
▁거품	-10.7065
▁동물들이	-10.7069
▁휴가	-10.707
▁빠졌	-10.7072
▁발견하게	-10.7079
▁심리학	-10.7079
▁살면서	-10.7084
▁지나지	-10.7088
▁과학과	-10.7089
▁향한	-10.7092
끔	-10.7093
▁군인들	-10.7094
▁복사	-10.7095
▁퍼지	-10.7101
했을때	-10.7102
▁저희들은	-10.7107
셨으면	-10.7122
▁하는것	-10.7126
▁스튜디오	-10.7129
▁섭취	-10.7129
▁다행히	-10.7129
▁푸른	-10.713
▁확보	-10.713
▁스타일	-10.7131
▁하얀	-10.7131
스톤	-10.7133
▁열쇠	-10.7133
▁광경	-10.7138
▁같네요	-10.7138
▁구별	-10.7141
▁초반	-10.7144
▁세균	-10.7147
▁원시	-10.7149
▁부상	-10.715
▁원한다면	-10.7151
▁볼수	-10.7156
두고	-10.7166
60	-10.7166
▁이룰	-10.717
▁번식	-10.7176
으려고	-10.7177
▁서있	-10.718
▁가집니다	-10.7193
▁경력	-10.7197
▁나가서	-10.7198
▁될겁니다	-10.7199
하셨죠	-10.72
▁마르	-10.7202
▁결국에는	-10.7204
▁죽어	-10.7211
윗	-10.7223
깜	-10.7223
▁기독교	-10.7223
▁비슷합니다	-10.7223
▁스포츠	-10.7223
▁커뮤니티	-10.7223
큐	-10.7223
▁깨달은	-10.7223
▁1,000	-10.7223
▁형편	-10.7223
▁계십니다	-10.7224
▁더불어	-10.7224
▁설정	-10.7225
▁검토	-10.7226
▁설명하는	-10.7235
▁유머	-10.7236
▁일곱	-10.7237
▁산호	-10.7237
▁노력했습니다	-10.7239
▁인사	-10.7239
▁해킹	-10.724
▁생산성	-10.7244
▁같다고	-10.7251
▁강화	-10.7253
▁피할	-10.7257
▁비판	-10.7264
바닥	-10.7276
▁시력	-10.728
▁근처에	-10.7282
닐	-10.7296
▁영국에서	-10.7298
▁가구	-10.7299
▁기술적인	-10.7305
윈	-10.7309
멍	-10.7313
졸	-10.7317
▁항생제	-10.7317
▁돌아와서	-10.7317
▁박쥐	-10.7318
▁창의성	-10.7321
▁시선	-10.7321
▁알아낼	-10.7322
▁골격	-10.7322
자마자	-10.7324
▁책상	-10.7326
▁은퇴	-10.7326
▁불행하게	-10.7328
▁실시간으로	-10.7338
답	-10.7338
▁달하는	-10.7339
▁근원	-10.734
▁구석	-10.7342
▁성공적인	-10.7349
▁로마	-10.7349
▁잠재적	-10.7352
ct	-10.7355
▁얘기하는	-10.7356
▁장소에서	-10.7358
둔	-10.736
다거나	-10.7362
▁전화기	-10.7364
▁먹어	-10.7373
▁유사한	-10.7375
▁않을까요	-10.7382
▁살아가는	-10.7387
▁어딘가	-10.7388
겠다는	-10.7401
▁이상하게	-10.7407
▁환자들이	-10.741
▁정치인들	-10.7411
김	-10.7412
▁산호초	-10.7414
▁재앙	-10.7415
▁경이로	-10.7415
▁기둥	-10.7421
▁길거리	-10.7422
▁아시는	-10.7425
▁양성	-10.7426
▁있겠지만	-10.7429
▁쉽습니다	-10.7433
▁부담	-10.7434
게끔	-10.744
▁후회	-10.7442
▁불과합니다	-10.7452
샤	-10.7464
▁바위	-10.7466
▁결정했습니다	-10.7467
▁들어있	-10.7468
▁줄여	-10.7469
겠다	-10.7471
▁가기	-10.7477
▁양식	-10.7483
천년	-10.7484
▁뽑아	-10.7492
▁지진	-10.7493
▁잃었	-10.7498
▁통화	-10.7505
▁국가들이	-10.7505
▁넘게	-10.7508
Z	-10.7509
▁프로그래밍	-10.7509
밍	-10.7509
▁소행성	-10.7509
▁유대인	-10.7509
▁지하철	-10.7509
▁혜성	-10.751
▁리듬	-10.7511
▁놀라울	-10.7511
▁채취	-10.7512
▁맥락	-10.7512
▁부작용	-10.7512
▁포장	-10.7512
▁벌어졌	-10.7513
▁복합	-10.7513
▁우리나라	-10.7516
▁선택할	-10.7518
▁누워	-10.7518
▁끝날	-10.7518
▁지닌	-10.7519
▁시리아	-10.7521
▁찾으려	-10.7523
▁Co	-10.7526
▁대변	-10.7527
▁경고	-10.7535
▁만들었어요	-10.7538
▁몇개	-10.7548
▁반사	-10.7554
▁호수	-10.7555
진다는	-10.7557
끈	-10.7561
업자	-10.7565
▁유기	-10.7569
▁가리	-10.758
앙	-10.7589
멋	-10.7593
▁기억합니다	-10.7598
만개의	-10.7601
딘	-10.7606
▁움직여	-10.7606
▁포유류	-10.7606
▁실리콘	-10.7606
▁헌신	-10.7606
▁퍼즐	-10.7606
▁거미줄	-10.7607
▁공짜	-10.7608
▁혼합	-10.7608
▁법률	-10.7612
▁23	-10.7612
▁극장	-10.7615
▁에릭	-10.7617
▁다가오	-10.762
▁생체	-10.7621
▁1,	-10.7621
▁놓여	-10.7622
20	-10.7625
▁재판	-10.7625
▁외과	-10.7626
▁분포	-10.7626
▁기관들	-10.7629
▁놓치	-10.7641
▁약품	-10.7643
▁성질	-10.7647
▁발상	-10.7649
▁해당하는	-10.765
▁한국	-10.7654
▁단기	-10.7661
▁증가하고	-10.7667
▁측정할	-10.7671
▁접근할	-10.7672
▁주식	-10.7683
▁질량	-10.7697
즐	-10.7702
끼리	-10.7704
▁올림픽	-10.7704
▁거슬러	-10.7704
▁컨퍼런스	-10.7704
▁고르	-10.7705
▁이루어졌	-10.7706
스러웠	-10.7707
므로	-10.7709
▁the	-10.771
▁사하라	-10.7711
▁체포	-10.7712
▁토양	-10.7713
▁아이에게	-10.7713
▁유혹	-10.7714
▁만날	-10.772
▁시작해야	-10.7723
▁필요하지	-10.7731
해졌습니다	-10.774
▁활용할	-10.7743
▁선수들	-10.7747
▁배워야	-10.7751
▁않았기	-10.7751
값	-10.7762
▁점에서	-10.7762
쇼	-10.7766
▁다가가	-10.7767
천명	-10.7769
▁경주	-10.7769
▁이곳에서	-10.7769
쥐	-10.7772
▁짓고	-10.7777
▁27	-10.778
▁있으니	-10.7788
▁제발	-10.7791
▁종교적	-10.7792
▁어쩌	-10.7792
▁구조물	-10.7795
여서	-10.7798
쇄	-10.7799
▁194	-10.7801
▁스위스	-10.7803
▁시카고	-10.7803
▁돕고	-10.7804
▁밝혀졌습니다	-10.7806
▁일찍	-10.7807
▁응용	-10.7808
▁예를들어	-10.781
▁이틀	-10.7813
▁시점에	-10.7815
▁없었기	-10.7818
▁해결하는	-10.782
▁벌레	-10.7824
▁진행되고	-10.7825
▁표현할	-10.7827
ion	-10.7831
▁후반	-10.7834
▁후원	-10.7839
사람들	-10.7844
▁동성애자	-10.7849
▁사진에서	-10.7849
▁저희에게	-10.7853
▁신성	-10.7859
▁가시	-10.7868
▁복잡하고	-10.787
▁가져와	-10.7871
뉴	-10.7875
삼	-10.7876
▁권한	-10.7879
▁어떨까	-10.788
머리	-10.788
▁방법들	-10.7893
▁되지요	-10.7895
▁심한	-10.7896
맘	-10.7898
꼬	-10.7901
윌	-10.7903
▁르완다	-10.7903
▁빈민가	-10.7903
▁사로잡	-10.7903
▁진지하게	-10.7903
▁나눌	-10.7904
▁화폐	-10.7905
▁정답	-10.7906
함으로	-10.7908
드리고	-10.7918
▁저건	-10.7919
▁시간동안	-10.792
se	-10.7928
▁기호	-10.7928
▁기술적	-10.7929
였지만	-10.793
▁관중	-10.7937
▁눈물	-10.7937
▁확률이	-10.7948
▁세계적	-10.7957
▁공유하는	-10.7958
었는데요	-10.7959
옷	-10.7975
▁계셨	-10.7978
▁싶어합니다	-10.7979
▁가깝	-10.7983
▁뉴욕시	-10.7989
▁껍질	-10.8004
▁비즈니스	-10.8004
▁팽창	-10.8004
▁압축	-10.8004
▁줄기세포	-10.8004
▁빠진	-10.8005
▁업계	-10.8005
▁친숙	-10.8006
▁아시겠죠	-10.8009
▁기꺼	-10.8009
▁아닐까	-10.801
▁보조	-10.801
▁비싸	-10.8012
▁플라	-10.8012
▁애플	-10.8014
일지도	-10.8014
▁음향	-10.8015
▁내버려	-10.8016
▁미칠	-10.8016
▁형식	-10.802
▁분명한	-10.8025
▁움직이고	-10.803
발전	-10.803
▁놓아	-10.803
하네요	-10.8031
▁양자	-10.8034
▁신사	-10.8042
▁시작됩니다	-10.8044
▁단계로	-10.805
▁가져가	-10.8055
▁서부	-10.8063
▁찍어	-10.807
▁성공적으로	-10.8075
▁세력	-10.8081
▁가능해	-10.8084
▁이것입니다	-10.8084
▁나갔	-10.8089
▁디자이너들	-10.8091
to	-10.8099
▁깨어	-10.8104
셈	-10.8104
▁스티븐	-10.8106
▁테크놀로지	-10.8106
돋	-10.8106
켄	-10.8106
▁어려울	-10.8106
▁온난화	-10.8106
▁가져왔	-10.8108
▁1950	-10.8108
▁연극	-10.8111
▁다룰	-10.8111
▁거짓	-10.8111
▁LA	-10.8112
▁아시겠지만	-10.8113
▁주민들	-10.8114
▁자네	-10.8116
▁바꾼	-10.8117
▁있겠지요	-10.8123
하겠	-10.8124
▁식당	-10.8125
▁성경	-10.8127
▁테드	-10.8139
문화	-10.8156
▁강간	-10.8156
▁나에게	-10.8161
▁됐죠	-10.8165
▁무엇보다	-10.8166
▁듯한	-10.8169
었으며	-10.8173
응	-10.818
▁경제학	-10.8185
뒤	-10.819
개발	-10.8192
▁가보	-10.8194
ut	-10.8204
▁말하고자	-10.8204
밴	-10.8208
짚	-10.8209
▁교도소	-10.8209
▁속임수	-10.8209
▁교차	-10.821
▁화학물질	-10.821
▁가방	-10.8211
▁너희	-10.8211
▁독자	-10.8213
▁청각	-10.8215
▁모르겠어요	-10.8216
▁사라	-10.8218
▁말했던	-10.822
ig	-10.822
▁그만두	-10.8222
▁의미있	-10.8224
▁근본	-10.8225
▁보냅니다	-10.8226
son	-10.8233
▁채우	-10.8233
▁말씀하셨	-10.8238
▁가능할	-10.8249
▁시도해	-10.825
▁원형	-10.8253
▁기금	-10.8257
▁기어	-10.8263
▁거미	-10.8264
▁않을까	-10.8269
▁연결되	-10.8273
산업	-10.8273
▁없으	-10.8274
▁상업	-10.8279
되거나	-10.828
▁존재한다는	-10.8285
▁담고	-10.8297
칼	-10.8298
춘	-10.831
캠	-10.8313
▁호르몬	-10.8313
▁스티브	-10.8313
▁인프라	-10.8313
▁보여드린	-10.8314
▁없었다	-10.832
▁익명	-10.8322
▁집합	-10.8325
▁들어갔	-10.8326
▁소송	-10.8327
▁치유	-10.8329
▁필요하다는	-10.8339
▁설명하기	-10.8342
냐고요	-10.8343
▁장관	-10.8343
▁전부터	-10.8353
▁크레	-10.8356
▁Ch	-10.8374
▁입장에서	-10.8375
▁그러지	-10.8377
▁깨끗	-10.8384
▁따로	-10.839
해봤습니다	-10.8392
때까지	-10.8395
▁방식입니다	-10.8397
최	-10.8407
스럽게	-10.8413
검	-10.8416
▁자랐습니다	-10.8418
▁특이한	-10.8418
릇	-10.8418
빚	-10.8418
핀	-10.8418
▁인공지능	-10.8418
▁토마스	-10.8418
▁무서운	-10.8418
▁돌아왔	-10.8419
▁콩고	-10.8421
▁축적	-10.8421
되는데	-10.8422
▁가치있	-10.843
▁시청	-10.8432
▁통증	-10.8434
▁보여주기	-10.844
▁필요하다고	-10.8441
▁St	-10.8449
IS	-10.8454
▁위하여	-10.8467
▁골라	-10.8482
di	-10.8489
▁지출	-10.8489
켜	-10.849
▁기술자	-10.8496
▁못했죠	-10.8497
▁건축물	-10.85
▁개인적	-10.8508
아프리카	-10.8514
뇨	-10.8518
▁원치	-10.8521
딜	-10.8524
줌	-10.8525
헬	-10.8525
똥	-10.8525
▁심각하게	-10.8525
▁벌써	-10.8526
▁환영	-10.8527
▁알려줍니다	-10.8527
▁빨간색	-10.8528
▁고리	-10.8531
▁아래쪽	-10.8533
▁천재	-10.8539
ni	-10.8541
으세요	-10.8542
라이트	-10.8548
▁사라져	-10.8551
▁보아	-10.8551
하듯이	-10.8551
▁환상적인	-10.8552
보호	-10.8553
▁분명하게	-10.857
▁써서	-10.8572
▁전반적	-10.8581
▁작아	-10.8583
▁모기장	-10.8599
▁바라보고	-10.8606
▁가졌습니다	-10.861
▁우려	-10.8614
▁해방	-10.8615
렵	-10.8616
▁열대	-10.8621
베르	-10.8626
즘	-10.8631
맙	-10.8632
▁떨어졌	-10.8632
▁플랫폼	-10.8632
▁비폭력	-10.8632
▁가까워	-10.8632
▁비둘기	-10.8632
▁지형	-10.8632
▁들어보셨	-10.8633
▁탈출	-10.8636
▁채널	-10.8637
▁신경과학	-10.8638
▁손님	-10.864
▁매료	-10.8646
▁Pr	-10.8646
렸고	-10.8648
▁놀랄	-10.865
▁있었다면	-10.8655
▁추세	-10.8655
였기	-10.8655
▁역주	-10.866
▁평균적으로	-10.8664
▁매력적	-10.8665
▁부정적인	-10.8666
▁사소	-10.8667
▁인형	-10.867
▁기증	-10.8673
내려	-10.8673
디아	-10.868
▁야기	-10.8681
▁주사	-10.8686
▁유아	-10.8695
▁목적으로	-10.87
▁건조	-10.8706
▁나누어	-10.8715
▁기르	-10.8716
▁적용할	-10.8732
▁소식은	-10.8733
▁두배	-10.8737
낭	-10.874
▁보호하기	-10.874
첨	-10.8741
덩	-10.8741
▁움직입니다	-10.8741
▁죄송합니다	-10.8741
▁휴대전화	-10.8741
띠	-10.8741
쌀	-10.8741
▁말하더군요	-10.8741
▁스위치	-10.8741
▁괴롭	-10.8741
▁좌우	-10.8741
▁기다려	-10.8741
▁The	-10.8742
▁운반	-10.8742
돕	-10.8744
▁활발	-10.8746
▁누구인지	-10.875
▁불립니다	-10.8753
▁이끄는	-10.8755
으론	-10.8756
▁회사들이	-10.8758
▁거절	-10.876
▁찍었습니다	-10.8766
▁감당	-10.8768
장애	-10.877
시키지	-10.8776
보았습니다	-10.8776
ill	-10.8784
▁않아서	-10.8788
▁국민들	-10.8789
▁소모	-10.879
ine	-10.8794
▁알려드리	-10.8796
▁문구	-10.8799
▁올렸	-10.8816
▁65	-10.8836
▁중반	-10.8837
▁불렀	-10.8845
스러워	-10.8851
▁융합	-10.8851
뱀	-10.8851
쉐	-10.8851
햄	-10.8851
▁어째서	-10.8851
▁풍부한	-10.8851
▁어울리	-10.8851
▁무렵	-10.8855
▁마틴	-10.8858
▁풍력	-10.8865
▁모방	-10.8865
▁싶었던	-10.8865
계획	-10.8865
▁불행	-10.8865
▁드론	-10.8866
▁차례	-10.8868
▁시각화	-10.887
▁북부	-10.887
백만명	-10.8888
▁쓰이는	-10.8889
▁하나씩	-10.889
▁부유한	-10.8895
▁온전	-10.8897
▁나와서	-10.8902
▁소스	-10.8911
나갑니다	-10.8913
▁로스	-10.8935
man	-10.8936
▁각기	-10.8952
노동자	-10.8953
▁솔직	-10.8954
▁CEO	-10.8962
▁믿으	-10.8962
▁엉망	-10.8962
▁머릿속	-10.8962
▁꿀벌	-10.8962
▁크리스마스	-10.8962
▁좌절	-10.8962
▁셈이죠	-10.8962
▁감사드립니다	-10.8963
▁노란색	-10.8963
▁1970	-10.8964
▁처벌	-10.8964
▁자연스럽게	-10.8965
▁모르겠네요	-10.8966
▁이슬람교	-10.8966
▁여왕	-10.8967
▁2005	-10.8969
▁Ro	-10.897
▁구현	-10.8971
▁취급	-10.8972
동물	-10.8979
홀	-10.8979
효과	-10.8979
▁다음날	-10.8984
▁무슨일	-10.899
▁적합한	-10.8993
▁해독	-10.8995
번이나	-10.9002
▁장려	-10.9004
▁돕기	-10.9013
▁보이기	-10.9015
우드	-10.9016
경제	-10.9024
▁긍정적	-10.9051
랬습니다	-10.9052
▁바보	-10.9053
▁돌아갔	-10.9055
▁지상	-10.9058
▁보였	-10.906
▁코치	-10.9061
꿀	-10.9069
웰	-10.9074
▁데이비드	-10.9074
▁염색체	-10.9074
▁충족	-10.9075
▁박사님	-10.9076
▁주인공	-10.9077
▁탐지	-10.9078
▁즉흥	-10.9079
op	-10.908
▁불안정	-10.9082
▁신념	-10.9082
▁상대방	-10.9083
▁다닐	-10.9084
▁싶었어요	-10.9085
▁소화	-10.9088
콜	-10.9088
▁받았고	-10.9091
▁움직이지	-10.9092
▁교사들	-10.9093
▁바뀌었습니다	-10.9094
▁놓았습니다	-10.9094
▁배달	-10.9099
폴	-10.9099
▁상대적으로	-10.91
▁생겨나	-10.9101
pe	-10.9102
드린	-10.9115
냥	-10.9129
▁몰아	-10.913
▁그림자	-10.9152
▁볼때	-10.9157
▁멈출	-10.9188
▁빼앗	-10.9188
▁알츠하이머	-10.9188
▁스탠포드	-10.9188
,500	-10.9188
▁압박	-10.9188
▁여덟	-10.9188
▁뛰어넘	-10.9188
▁삼촌	-10.9189
▁장벽	-10.919
▁라틴	-10.9191
▁축구	-10.9191
▁향후	-10.9193
▁동참	-10.9193
▁논란	-10.9194
군데	-10.9195
▁말했듯이	-10.9196
늘	-10.9196
▁정신병	-10.9199
▁휴대	-10.9199
▁잃었습니다	-10.92
▁과장	-10.9201
▁키워	-10.9202
▁아십니까	-10.9209
▁여긴	-10.9211
▁지구상에서	-10.9212
▁정권	-10.9212
▁생식	-10.9214
▁동의하	-10.9217
▁서류	-10.9217
▁개미들	-10.9218
▁놓았	-10.9219
▁창고	-10.9225
곰	-10.9225
▁공유할	-10.9229
시키려	-10.9229
그대로	-10.9232
▁통치	-10.9234
▁모아서	-10.9235
▁차단	-10.9244
▁사용될	-10.9244
▁그분들	-10.9249
▁전공	-10.9249
▁심리학자	-10.9251
▁본성	-10.9261
▁잔인	-10.9261
▁발전소	-10.9265
▁내릴	-10.9275
▁빌려	-10.9278
▁바꾸기	-10.9279
▁조치	-10.9284
되며	-10.929
▁놀랐습니다	-10.9303
▁유튜브	-10.9303
▁욕망	-10.9303
▁촉진	-10.9303
▁진심으로	-10.9304
▁말씀드리자면	-10.9305
▁짐작	-10.9305
▁투입	-10.9307
▁출산	-10.9311
▁계층	-10.9312
▁매주	-10.9312
80	-10.9312
▁장착	-10.9313
▁만들어낼	-10.9322
혔습니다	-10.9322
시켜서	-10.9323
▁불평	-10.9323
▁일어났던	-10.9323
▁위쪽	-10.9341
▁고유	-10.9349
▁잠재	-10.935
했으니까요	-10.9363
주머니	-10.9366
것이죠	-10.9375
하구요	-10.938
▁부분적으로	-10.9384
▁서식	-10.939
▁그러기	-10.9391
▁상위	-10.94
테니	-10.9401
▁안내	-10.9408
시키면	-10.9413
뚜	-10.9419
▁유방암	-10.9419
Q	-10.9419
▁NASA	-10.9419
▁맞춤	-10.9419
▁패러다임	-10.9419
▁프린터	-10.9419
굽	-10.9419
닝	-10.9419
뮤	-10.9419
흠	-10.9419
▁받아들일	-10.9419
▁설탕	-10.9419
▁링크	-10.942
▁격차	-10.942
▁완화	-10.942
▁금액	-10.9422
▁전시회	-10.9424
▁무섭	-10.9424
▁바늘	-10.9425
▁승인	-10.9425
▁근무	-10.9425
▁독재	-10.9428
▁효율적으로	-10.9429
▁타임	-10.9431
▁나빠	-10.9434
▁용감	-10.9434
▁영구	-10.9438
▁멀어	-10.9438
▁방울	-10.9439
▁경제학자	-10.9443
▁선언	-10.9445
▁무역	-10.9447
▁토대	-10.9454
잘	-10.9459
▁단단	-10.946
▁Re	-10.946
앞	-10.9463
▁생일	-10.9464
▁맛있	-10.9478
▁확신합니다	-10.9478
▁주차	-10.9484
것처럼	-10.9489
▁보트	-10.9501
란다	-10.9514
▁마음속	-10.9514
▁암호화	-10.9515
▁해내	-10.9516
버트	-10.9518
려진	-10.9523
▁동원	-10.9524
랍	-10.9526
▁필요했습니다	-10.953
▁레스토랑	-10.9537
▁비지니스	-10.9537
▁숨겨진	-10.9537
▁특권	-10.9537
▁피라미드	-10.9537
붓	-10.9537
삐	-10.9537
찮	-10.9537
▁선진국	-10.9537
▁정반대	-10.9537
▁주파수	-10.9537
▁분위기	-10.9537
▁근접	-10.9538
▁억제	-10.954
▁합법적	-10.9542
▁어떤것	-10.9544
▁급진적	-10.9544
▁돌아갈	-10.9546
▁영원	-10.9555
▁기억하시	-10.9559
▁미쳤	-10.9561
▁주차장	-10.9564
▁동생	-10.9569
▁클라	-10.9577
합시다	-10.9581
▁재건	-10.9586
▁살았습니다	-10.959
▁만들어지는	-10.9604
▁참치	-10.9612
▁유엔	-10.9613
▁600	-10.9616
▁거치	-10.9631
▁소녀들	-10.9634
▁배워	-10.9645
co	-10.9647
▁연장	-10.9648
숭	-10.9656
컴	-10.9656
▁오케스트라	-10.9656
▁윤리적	-10.9656
덧	-10.9656
잭	-10.9656
팝	-10.9656
홈	-10.9656
▁궁금하	-10.9656
▁하나하나	-10.9656
▁퇴치	-10.9657
▁운전자	-10.9658
▁배웁니다	-10.9658
▁관념	-10.9658
▁불빛	-10.9661
▁반대편	-10.9661
▁미술관	-10.9662
▁쉬워	-10.9664
cm	-10.9667
▁추구하는	-10.9672
▁실용적	-10.9674
▁먼지	-10.9675
▁상점	-10.9678
자료	-10.9678
▁부러	-10.9686
▁단일	-10.9691
▁현지	-10.9691
▁입증	-10.9691
▁고립	-10.9697
▁못한다는	-10.9706
▁De	-10.9732
▁빌리	-10.9742
▁사형	-10.9746
▁95	-10.9748
▁왜냐	-10.9761
▁뛰어들	-10.9763
▁실시	-10.9764
▁나타났	-10.9766
▁녹화	-10.9766
캔	-10.9774
▁네덜란드	-10.9776
▁노르웨이	-10.9776
▁에티오피아	-10.9776
됨	-10.9776
▁겸손	-10.9776
▁드러나	-10.9776
▁에볼라	-10.9776
더라고요	-10.9776
▁우간다	-10.9777
▁데이타	-10.9777
▁자리잡	-10.9778
▁놀라웠	-10.9779
정보	-10.9779
▁봉사	-10.9779
죽	-10.9781
▁강렬	-10.9781
▁가져온	-10.9782
▁2006	-10.9782
▁임금	-10.9787
▁대개	-10.9788
▁성향	-10.9789
▁없는데	-10.979
▁배움	-10.9791
me	-10.9797
▁보이지만	-10.9799
mm	-10.98
▁도심	-10.9803
▁대담	-10.9806
▁초월	-10.9807
▁비교적	-10.9821
▁정직	-10.9823
ry	-10.9829
깊	-10.983
▁소형	-10.983
▁가축	-10.9839
▁마크	-10.9842
▁어렵지	-10.9848
▁미소	-10.9849
▁뒤집어	-10.9852
▁찾아볼	-10.9853
▁이해해야	-10.9856
유럽	-10.9861
거래	-10.9862
▁과일	-10.9868
▁혼자서	-10.9868
▁일어나서	-10.9871
▁성분	-10.9874
▁행복하게	-10.9876
▁적합	-10.9878
펴	-10.9895
▁옥수수	-10.9898
됬	-10.9898
뒀	-10.9898
▁슬픔	-10.9898
▁들여다보	-10.9905
▁회색	-10.9908
▁살펴볼	-10.9909
▁모른	-10.9912
▁기억하세요	-10.9914
▁상담	-10.9915
▁바랬	-10.9918
▁효율적인	-10.9918
▁가장자리	-10.9925
▁철학자	-10.9931
▁유통	-10.9935
▁해저	-10.9956
▁가입	-10.9957
▁뒤집	-10.9962
트레	-10.9966
▁힘들어	-10.9967
▁써야	-10.9968
▁올려놓	-10.9971
▁사용해야	-10.9972
▁곡물	-10.9973
▁방대	-10.9981
▁열리	-10.9996
▁실체	-10.9997
ell	-11.0009
받았습니다	-11.0012
섹	-11.002
▁시나리오	-11.0022
▁시뮬레이션	-11.0022
▁일으켰	-11.0022
젼	-11.0022
캡	-11.0022
켈	-11.0022
▁저작권	-11.0022
▁케이블	-11.0022
▁잠자리	-11.0024
▁역설	-11.003
▁고전	-11.0031
▁195	-11.0033
▁갈라	-11.0033
▁집착	-11.0033
▁어느정도	-11.0035
▁종합	-11.0035
▁환자에게	-11.0036
▁있군요	-11.0036
▁만들어냅니다	-11.0039
▁천국	-11.0044
▁많다는	-11.0052
▁걸립니다	-11.0052
▁사라진	-11.0057
▁가령	-11.0059
사업	-11.0061
▁미안	-11.0063
▁연관성	-11.007
▁어때	-11.0074
▁이해하려	-11.0077
▁보려고	-11.008
▁찾아냈	-11.008
▁변수	-11.0087
논	-11.0088
▁끝까지	-11.0092
▁창의적	-11.0101
▁상실	-11.0101
▁누리	-11.0104
▁싸우고	-11.0108
제작	-11.0117
▁간주	-11.012
하신다면	-11.0122
▁아름답고	-11.0122
▁발생합니다	-11.0128
혁	-11.0139
▁바꿔야	-11.0147
▁재밌는	-11.0147
렁	-11.0147
첼	-11.0147
핍	-11.0147
▁2011	-11.0147
ation	-11.0147
▁진흙	-11.0147
▁조그만	-11.0147
▁드러내	-11.0147
▁해수면	-11.0147
▁학문	-11.0149
▁학위	-11.0149
▁카페	-11.0154
▁프라	-11.0157
▁직감	-11.0157
▁나타났습니다	-11.0157
▁신장	-11.0162
▁들어올	-11.0169
▁않겠습니다	-11.0172
▁예상치	-11.0178
▁연간	-11.018
▁....	-11.0185
▁감성	-11.0187
▁체중	-11.0192
▁모여서	-11.0192
▁걸친	-11.0195
▁느끼지	-11.0202
되었기	-11.0211
렸어요	-11.0218
▁도구들	-11.0224
▁작물	-11.0228
▁말씀하시	-11.0233
▁들려주	-11.0237
▁것만으로	-11.0238
▁오래전	-11.0252
▁연구실에서	-11.0256
▁만들었는데	-11.0267
▁것이었어요	-11.027
▁먹었	-11.0271
▁전망	-11.0272
넬	-11.0273
▁소규모	-11.0273
▁초록색	-11.0273
▁텍사스	-11.0273
▁중산층	-11.0273
▁콘돔	-11.0273
▁비영리	-11.0273
▁탐색	-11.0273
▁심오한	-11.0273
▁튜브	-11.0274
▁느린	-11.0274
▁두개골	-11.0274
▁설문	-11.0274
▁적극적	-11.0276
써	-11.0279
he	-11.0279
▁잔디	-11.0281
▁아뇨	-11.0281
▁담겨	-11.0282
▁야구	-11.0291
▁보여주었습니다	-11.0291
▁복구	-11.0294
▁지속되	-11.0305
▁경향	-11.0307
▁죽었습니다	-11.0321
▁진전	-11.0321
▁다름	-11.0323
업체	-11.0333
▁120	-11.0336
▁선택권	-11.0339
▁직접적으로	-11.0343
코드	-11.0346
쓸	-11.0353
▁구성원	-11.0353
▁대조	-11.0385
▁물어봤	-11.0399
튀	-11.0401
홉	-11.0401
▁브루노	-11.0401
▁인종차별	-11.0401
쩍	-11.0401
▁여동생	-11.0401
▁깜짝	-11.0401
▁궁금했	-11.0402
▁브라운	-11.0402
▁플레이	-11.0402
▁슬픈	-11.0402
▁포식자	-11.0402
▁앓고	-11.0403
▁생애	-11.0406
▁철저	-11.0408
▁국회	-11.0408
▁폭격	-11.0409
▁데릭	-11.0409
▁연령	-11.0411
▁불렀습니다	-11.0414
▁십대	-11.0423
▁반복해서	-11.0428
▁고작	-11.0438
▁사원	-11.0446
▁유출	-11.0448
▁전극	-11.0449
입자	-11.0454
▁외계인	-11.0463
▁인내	-11.0466
하기위해	-11.0472
틱	-11.0474
▁천장	-11.0474
▁발전시키	-11.0482
▁알고있	-11.0484
▁평범	-11.0501
▁고통받	-11.051
▁갔다	-11.0522
하우스	-11.0526
웅	-11.053
▁낮추	-11.0531
▁돌연변이	-11.0531
–	-11.0531
▁AIDS	-11.0531
▁테크놀러지	-11.0531
뷰	-11.0531
퉁	-11.0531
▁빅뱅	-11.0531
▁엘리트	-11.0531
▁어리석	-11.0531
▁당연한	-11.0531
▁대서양	-11.0531
▁억압	-11.0532
▁즈음	-11.0532
▁염려	-11.0533
▁멋있	-11.054
▁포착	-11.0542
▁데이트	-11.0544
▁직전	-11.0549
▁때문이었습니다	-11.0549
▁이민자	-11.0553
▁해냈	-11.0563
▁뇌물	-11.0563
수술	-11.0566
▁원자력	-11.0582
▁회원	-11.059
▁몇달	-11.0596
▁말이야	-11.0602
▁해왔	-11.0612
더라면	-11.0618
캐	-11.0619
돈	-11.062
▁서명	-11.062
천개	-11.0627
▁효과적이	-11.0645
▁막아	-11.0648
▁주사기	-11.0648
본적이	-11.065
▁브리	-11.0654
베리	-11.0657
그래	-11.0661
닷	-11.0663
콤	-11.0663
▁잃어버린	-11.0663
▁텔레비전	-11.0663
▁헬리콥터	-11.0663
▁휠체어	-11.0663
▁동력	-11.0663
▁재구성	-11.0663
▁한마디	-11.0663
▁낙관적	-11.0663
▁모으고	-11.0663
▁개구리	-11.0663
▁유기농	-11.0663
공화국	-11.0663
▁친밀	-11.0666
▁직후	-11.0668
▁관습	-11.0668
▁창작	-11.0668
▁설사	-11.067
▁있겠네요	-11.0672
▁관료	-11.0672
▁발명품	-11.0673
▁of	-11.0675
드릴께요	-11.0683
▁행정	-11.0686
▁스테이	-11.0687
▁원격	-11.0693
▁스카이	-11.0693
▁소중한	-11.0697
▁아님	-11.0699
▁예술가들	-11.0702
▁소재	-11.0702
▁없으면	-11.0706
▁소원	-11.0711
▁아이티	-11.0712
▁소중	-11.0719
ll	-11.0724
▁녹아	-11.0727
▁아니지요	-11.0728
▁세월	-11.0743
룹	-11.0743
짜	-11.0757
핵	-11.0762
▁외계	-11.077
▁효율성	-11.0777
▁아니다	-11.0781
방향	-11.0781
샌	-11.0796
▁MRI	-11.0796
▁안타깝게도	-11.0796
팩	-11.0796
▁통찰력	-11.0796
▁알려지지	-11.0797
▁강아지	-11.0798
▁로버트	-11.0798
▁춤추	-11.0799
▁도와줄	-11.08
▁짜증	-11.08
▁BF	-11.08
▁모으는	-11.0801
▁실시간	-11.0802
▁부활	-11.0806
▁있냐	-11.0806
▁두렵	-11.0807
▁정밀	-11.0812
▁태어났습니다	-11.0816
▁발병	-11.0822
▁때문이라고	-11.0828
조건	-11.0833
▁범주	-11.0835
▁법정	-11.084
▁자랑스럽	-11.0846
▁남았	-11.085
생산	-11.0856
▁생선	-11.0857
▁피질	-11.0863
▁흉내	-11.0878
▁어떠	-11.0899
시겠지만	-11.0916
었으니까요	-11.092
▁올라갔	-11.0929
▁250	-11.0931
믹	-11.0931
쉴	-11.0931
썩	-11.0931
탔	-11.0931
▁위키피디아	-11.0931
▁이르기까지	-11.0931
룸	-11.0931
▁기하급수적	-11.0931
▁숙녀	-11.0932
▁니콜	-11.0932
▁교외	-11.0932
▁없으니까요	-11.0933
▁패션	-11.0935
▁지질학	-11.0936
▁오픈	-11.0937
▁아픈	-11.0937
▁부분들	-11.0938
▁성능	-11.0944
▁자랑	-11.0948
▁26	-11.0949
▁몰려	-11.0953
▁행진	-11.0953
웃	-11.0957
▁아니었어요	-11.0958
▁여유	-11.0961
▁자발적	-11.0963
▁맥주	-11.0964
▁위생	-11.0965
▁몰라요	-11.0974
▁작동하는지	-11.0974
▁해외	-11.0983
▁놀라게	-11.0985
▁싶다고	-11.0997
▁모터	-11.1002
렸던	-11.1032
농	-11.1038
▁경제학자들	-11.1049
▁책들	-11.1049
▁시내	-11.1058
앓	-11.1067
▁아메리카	-11.1068
▁고마워요	-11.1068
▁냉장고	-11.1068
▁베트남	-11.1068
▁콘크리트	-11.1068
▁플로리다	-11.1068
▁오페라	-11.1068
▁벗겨	-11.1068
▁초상화	-11.1068
▁오렌지	-11.1069
▁빛나는	-11.1069
▁해부학	-11.1071
▁매춘	-11.1071
▁판결	-11.1075
▁맘에	-11.1075
▁싶군요	-11.1076
▁미묘	-11.1077
▁돌아보	-11.1081
▁월드	-11.1083
었거든요	-11.1085
▁미션	-11.1086
했듯이	-11.1089
▁발광	-11.109
▁외교	-11.1095
▁보유	-11.1097
▁해결해야	-11.1097
▁영양분	-11.1099
▁변경	-11.11
▁끄는	-11.1102
▁기법	-11.1112
▁광장	-11.1114
▁되는거죠	-11.1124
까봐	-11.1129
▁순위	-11.1131
▁만들려고	-11.1131
▁고문	-11.114
▁접시	-11.1148
um	-11.1148
▁내재	-11.1156
하더라도	-11.1162
해내는	-11.1179
▁곳들	-11.1184
모델	-11.1195
벼	-11.1199
▁담아	-11.1199
▁도착했	-11.1201
샘	-11.1207
▁스펙트럼	-11.1207
▁일으킬	-11.1207
▁저렇게	-11.1207
▁즐거운	-11.1207
▁텔레비젼	-11.1207
닦	-11.1207
븐	-11.1207
틸	-11.1207
▁벌어질	-11.1207
▁어쩔	-11.1207
▁멘토	-11.1207
▁홍보	-11.1207
▁드라마	-11.1208
▁포인트	-11.1208
▁민주적	-11.1208
▁보여드렸	-11.1209
하듯	-11.1209
▁축소	-11.121
▁숙제	-11.1212
▁보자면	-11.1217
▁가죽	-11.1217
▁화산	-11.1226
▁절단	-11.1227
▁구절	-11.1233
▁지하드	-11.1234
▁가깝게	-11.1238
▁복원	-11.1244
▁출시	-11.1253
▁사법	-11.1275
▁시작하죠	-11.1277
▁경기장	-11.1288
하겠다고	-11.1299
▁Mo	-11.1329
빗	-11.1347
텍	-11.1348
▁하드웨어	-11.1348
딴	-11.1348
톨	-11.1348
▁깨달음	-11.1348
▁영장류	-11.1348
▁보노보	-11.1348
▁누군지	-11.1348
▁순수한	-11.1348
▁해파리	-11.1349
▁응답	-11.1349
▁블루	-11.1349
▁여자아이	-11.1349
▁클럽	-11.1351
▁증오	-11.1351
▁가르쳤	-11.1351
▁가끔씩	-11.1353
▁검증	-11.1354
▁성관계	-11.1355
▁모른다고	-11.1355
▁마우스	-11.136
▁갈망	-11.1366
하시면	-11.1367
집단	-11.1369
▁먹여	-11.137
▁들어갑니다	-11.1371
▁육지	-11.1374
▁심리적	-11.1378
생물학	-11.1379
▁있었다고	-11.1386
▁연계	-11.1389
▁신경쓰지	-11.1389
▁포용	-11.1389
▁피터	-11.1396
10	-11.1401
▁들어간	-11.1428
으신	-11.143
▁제작자	-11.1431
▁청중들	-11.1434
▁관심사	-11.1445
▁면적	-11.1445
였다는	-11.1446
▁들으면	-11.1456
하십시오	-11.1466
략	-11.1467
▁안쪽	-11.147
주의자들	-11.1485
뼈	-11.1489
▁독성	-11.1489
갤	-11.1491
꼽	-11.1491
▁뚜렷	-11.1491
▁옥시토신	-11.1491
땀	-11.1491
쭉	-11.1491
▁가르칠	-11.1491
▁아일랜드	-11.1491
▁핵무기	-11.1491
▁축복	-11.1491
▁차가운	-11.1492
▁헌법	-11.1492
▁토끼	-11.1494
▁아버지께서	-11.1498
▁급격히	-11.1499
▁만남	-11.1499
▁사촌	-11.15
▁생생	-11.1503
▁메탄	-11.1504
▁36	-11.1505
all	-11.151
▁연결망	-11.1511
▁돌아왔습니다	-11.1512
▁결심했습니다	-11.1512
▁못했어요	-11.1516
▁우유	-11.152
▁비추	-11.1525
▁태아	-11.1544
▁키스	-11.1544
▁발견되	-11.1546
▁노동력	-11.1553
▁색상	-11.1563
▁싶어하지	-11.1573
▁상업적	-11.1574
작용	-11.1579
해왔던	-11.1588
▁광산	-11.1602
▁접근법	-11.1619
ub	-11.1621
▁생각하는데	-11.1624
▁알아냈	-11.1632
▁블랙	-11.1636
콧	-11.1636
▁당뇨병	-11.1636
더라구요	-11.1636
▁공화당	-11.1636
▁종이접기	-11.1636
▁저렴한	-11.1636
▁삽니다	-11.1636
▁몸무게	-11.1636
▁즐길	-11.1636
▁테이프	-11.1636
▁극단주의	-11.1636
▁빙산	-11.1636
▁스마트폰	-11.1636
▁딱딱	-11.1636
▁기뻐	-11.1637
▁홍수	-11.1637
▁리더십	-11.1637
▁교수님	-11.1639
▁애쓰	-11.1639
▁교체	-11.1639
▁있느냐	-11.164
▁이르게	-11.1641
▁압도	-11.1643
▁태양열	-11.1643
▁재현	-11.1644
▁계절	-11.1644
▁둘러보	-11.1649
▁종족	-11.1652
▁북미	-11.1652
▁당연하게	-11.1653
▁각종	-11.1654
▁됐어요	-11.1656
▁2001	-11.1656
▁곧바	-11.1657
▁말아야	-11.1657
▁갈색	-11.1659
▁보유하고	-11.1661
▁평소	-11.1662
▁노출되	-11.1666
▁거였죠	-11.1677
▁어른들	-11.1683
▁고쳐	-11.169
art	-11.1695
하긴	-11.1702
▁연주자	-11.1706
▁지급	-11.1712
되었지만	-11.1713
▁동쪽	-11.1715
▁800	-11.1747
어지게	-11.1752
▁정점	-11.1763
▁생물체	-11.1764
▁무력	-11.1774
깐	-11.1782
▁프로그래머	-11.1783
▁하느님	-11.1783
셰	-11.1783
▁2012	-11.1783
▁그렇듯	-11.1783
▁머리카락	-11.1783
▁윌리엄	-11.1783
▁힘듭니다	-11.1783
붐	-11.1783
▁나타날	-11.1783
▁보스턴	-11.1783
▁삽입	-11.1783
▁방정식	-11.1783
▁자외선	-11.1783
▁괜찮아요	-11.1783
▁가뭄	-11.1783
▁엄격	-11.1783
▁착용	-11.1784
▁설교	-11.1784
드려야	-11.1784
▁DH	-11.1787
▁사라졌습니다	-11.1795
▁래리	-11.1797
스럽고	-11.18
▁있으신	-11.1802
▁추론	-11.1802
▁스노	-11.1804
▁흥미롭습니다	-11.1804
▁노동자들	-11.1805
▁정복	-11.1807
▁들릴	-11.1821
▁실내	-11.1843
하니까	-11.1862
▁관대	-11.1867
랬	-11.1868
▁브레	-11.1877
▁분량	-11.1896
▁마디	-11.1898
▁자녀들	-11.192
▁부드러운	-11.1932
▁옥스포드	-11.1932
떡	-11.1932
▁디즈니	-11.1932
▁컨셉	-11.1932
▁리차드	-11.1932
▁몹시	-11.1932
▁금요일	-11.1932
▁링컨	-11.1932
▁폐기물	-11.1933
▁쇼핑	-11.1934
▁꿈꾸	-11.1935
amp	-11.1936
▁터널	-11.1936
▁환호	-11.1937
▁벌어진	-11.1938
▁사라질	-11.1938
▁터키	-11.194
▁직선	-11.194
▁넘겨	-11.1942
▁2003	-11.1942
▁되돌려	-11.1944
▁틀린	-11.1944
▁통역	-11.1945
▁아니예요	-11.1947
▁추상적인	-11.1949
▁중심부	-11.195
▁없었지만	-11.1955
▁리스트	-11.1956
▁부채	-11.1963
▁놀랍습니다	-11.1968
▁준다는	-11.1968
정책	-11.197
▁배출량	-11.1971
▁Al	-11.1975
모양	-11.1976
70	-11.2004
일수도	-11.2023
▁사라졌	-11.2029
▁업적	-11.2037
▁효율적이	-11.2051
▁놀랄만	-11.2063
탱	-11.2084
j	-11.2084
▁맞닥뜨	-11.2084
싹	-11.2084
▁데이터베이스	-11.2084
▁옹호	-11.2084
▁몰입	-11.2084
▁희귀	-11.2084
▁첨단	-11.2084
▁친척	-11.2085
▁극도로	-11.2085
▁절벽	-11.2086
▁충전	-11.2086
▁깊숙	-11.2086
▁착수	-11.2087
▁신경세포	-11.2088
▁바뀌었	-11.2089
▁의뢰	-11.2089
▁삼림	-11.2092
▁그리고나서	-11.2093
▁소련	-11.2095
▁찾아낼	-11.2095
▁즐겁게	-11.2096
▁일어났는지	-11.2096
▁보이네요	-11.2097
▁있었거든요	-11.2097
▁갔고	-11.2099
▁금방	-11.2099
몰	-11.2102
▁정착	-11.2105
▁자폐	-11.2107
▁많았습니다	-11.2109
힘	-11.211
▁좋았습니다	-11.211
▁관련되어	-11.2111
▁원천	-11.2112
전쟁	-11.2115
▁않았다면	-11.212
▁만연	-11.2121
▁들었어요	-11.2122
▁외에도	-11.2127
▁발행	-11.2131
▁In	-11.2147
조각	-11.2148
▁갔었	-11.2151
est	-11.2154
하셨어요	-11.2182
▁내려오	-11.2187
▁지속가능성	-11.2196
▁토성	-11.22
살때	-11.2213
템	-11.2238
’	-11.2238
▁다이아몬드	-11.2238
▁뒷받침	-11.2238
▁바꿔놓	-11.2238
▁애니메이션	-11.2238
▁틀림없	-11.2238
▁휘파람	-11.2238
럿	-11.2238
▁방글라데시	-11.2238
즌	-11.2238
▁리처드	-11.2238
▁데이빗	-11.2238
▁펌프	-11.2238
▁모바일	-11.2238
▁시리즈	-11.2238
▁잉크	-11.2238
▁희미	-11.2238
▁필터	-11.2238
▁파이프	-11.2238
▁불륜	-11.2239
▁과잉	-11.224
▁떠다니	-11.224
▁말해줍니다	-11.2242
▁붙잡	-11.2242
94	-11.2242
▁역동적	-11.2243
▁개척	-11.2244
▁관절	-11.2246
▁가벼	-11.2247
▁찾아낸	-11.2247
▁추천	-11.2249
했답니다	-11.2263
▁노란	-11.2271
▁구호	-11.2279
▁Sh	-11.228
▁다르지	-11.2313
마저	-11.2314
혜	-11.2384
웁니다	-11.2391
햇	-11.2394
▁가로질러	-11.2394
▁브라이언	-11.2394
▁커뮤니케이션	-11.2394
랭	-11.2394
쥬	-11.2394
▁의사결정	-11.2394
▁모니터	-11.2394
▁알아차리	-11.2394
▁이르렀	-11.2394
▁구체적인	-11.2394
▁어둡	-11.2394
▁밴드	-11.2394
▁결핵	-11.2395
▁창의력	-11.2396
▁가능케	-11.2396
▁격려	-11.2396
▁응급실	-11.2397
ity	-11.2401
▁평판	-11.2402
▁질투	-11.2405
▁진입	-11.2405
▁찰스	-11.2406
▁과목	-11.241
▁투여	-11.2411
▁거칠	-11.2414
▁봤어요	-11.2415
▁연구자들	-11.2417
검사	-11.2424
ard	-11.2424
▁보여드리려	-11.2429
벤	-11.2434
라든가	-11.2437
▁생각하세요	-11.2437
▁화려	-11.2438
▁입자들	-11.2458
▁문학	-11.2459
▁요원	-11.2463
▁드렸	-11.2467
▁역학	-11.2467
▁여성분	-11.2491
▁카트	-11.2513
▁조종사	-11.2514
되길	-11.2535
픈	-11.2539
했었는데	-11.2545
괄	-11.2552
▁2,000	-11.2553
▁드라이브	-11.2553
▁쌍둥이	-11.2553
꼴	-11.2553
▁코미디	-11.2553
▁블록	-11.2553
▁벗어날	-11.2554
▁어려웠	-11.2554
▁밀접	-11.2556
▁신앙	-11.2559
▁매혹	-11.2561
▁비닐	-11.2562
▁PC	-11.2564
▁생각해봅시다	-11.257
▁자연스러운	-11.257
▁택시	-11.2571
▁진공	-11.2579
▁치즈	-11.2581
▁있단	-11.2587
▁분출	-11.2597
쉽	-11.26
해달라고	-11.2603
▁연관되어	-11.2613
▁단순함	-11.2652
원했습니다	-11.2682
▁환자들에게	-11.2692
▁Le	-11.2708
▁세웠	-11.2711
$	-11.2714
▁NGO	-11.2714
▁가라앉	-11.2714
▁가로지르	-11.2714
▁마이크로소프트	-11.2714
▁삼각형	-11.2714
▁순식간에	-11.2714
▁프레임	-11.2714
췌	-11.2714
▁자부심	-11.2714
▁칭찬	-11.2714
▁독수리	-11.2714
▁꼬마	-11.2714
▁진지한	-11.2715
▁날아다니	-11.2716
▁효소	-11.2717
▁삼나무	-11.2717
▁때문일	-11.2718
▁드럼	-11.2719
▁환각	-11.2719
▁망막	-11.272
▁떠날	-11.2721
▁들어보죠	-11.2724
▁마취	-11.2726
▁은하계	-11.2728
▁폭동	-11.2729
▁극심	-11.273
▁않으며	-11.2734
▁보이실	-11.2744
▁서버	-11.2746
천억	-11.2753
▁찍었	-11.2757
▁유전체	-11.2759
▁보급	-11.2766
휴	-11.277
펜	-11.277
▁시작했다	-11.2776
ff	-11.287
긋	-11.2878
▁도마뱀	-11.2878
▁딜레마	-11.2878
▁반딧불	-11.2878
▁어마어마한	-11.2878
▁엔트로피	-11.2878
뚝	-11.2878
뜩	-11.2878
랫	-11.2878
킴	-11.2878
▁뉴요커	-11.2878
▁스턴트	-11.2878
▁급격	-11.2878
▁전립선	-11.2878
▁탱크	-11.2878
▁혼돈	-11.2878
▁낙타	-11.2878
▁가리키	-11.288
▁염소	-11.2883
▁하와이	-11.2886
▁기다렸	-11.2889
▁풍부하	-11.289
▁급속	-11.289
▁국방	-11.2891
▁물속	-11.2894
▁경작	-11.2894
▁장군	-11.2901
▁끌어들	-11.2901
▁도약	-11.2907
▁드물	-11.291
ber	-11.2922
▁습지	-11.2926
끄러운	-11.2926
▁미생물들	-11.2943
▁복권	-11.2959
룰	-11.2963
사이클	-11.3
▁들려드리	-11.3017
뱅	-11.3044
▁다큐멘터리	-11.3044
뉘	-11.3044
▁방사능	-11.3044
▁태어날	-11.3044
▁자원봉사	-11.3044
▁괴짜	-11.3044
▁달팽이	-11.3044
▁세계대전	-11.3045
▁능숙	-11.3045
▁유인원	-11.3045
▁칼로리	-11.3045
▁괴물	-11.3047
▁타임즈	-11.3047
▁레벨	-11.3048
▁타이탄	-11.3048
▁발굴	-11.305
▁경청	-11.3052
▁같았어요	-11.3052
▁2050	-11.3054
▁뭐냐	-11.3055
▁싶네요	-11.3056
▁현금	-11.3057
▁같군요	-11.3057
▁학대	-11.3058
▁Bo	-11.3063
▁지옥	-11.3065
▁던졌	-11.3067
▁재난	-11.307
▁만들었다	-11.3099
▁고객들	-11.3116
스틱	-11.3118
서비스	-11.3121
▁기쁩니다	-11.3214
▁뿐만아니라	-11.3214
▁초콜릿	-11.3214
뿔	-11.3214
웬	-11.3214
▁RNA	-11.3214
▁수수께끼	-11.3214
▁잊어버리	-11.3214
▁핵융합	-11.3214
▁나타낸	-11.3214
▁교과서	-11.3214
▁프로세스	-11.3214
▁무서워	-11.3214
▁트랙	-11.3214
▁헨리	-11.3215
▁외곽	-11.3215
▁내보내	-11.3215
▁루이스	-11.3215
▁출현	-11.3217
▁검열	-11.3217
▁노인들	-11.3219
되었으며	-11.3219
▁기간동안	-11.3221
▁칠레	-11.3221
▁암세포	-11.3221
▁흘리	-11.3223
▁신청	-11.3231
▁서열	-11.3231
▁우편	-11.3232
▁모욕	-11.3232
▁어디든	-11.3253
▁탐사선	-11.3255
▁바보같	-11.328
ive	-11.3284
겁	-11.3294
ess	-11.3317
▁출력	-11.3317
▁알아볼	-11.334
하셔야	-11.3341
▁복잡함	-11.3361
▁반대쪽	-11.3372
홍	-11.3385
묵	-11.3385
▁스마트	-11.3386
흉	-11.3386
껴	-11.3386
▁LED	-11.3386
▁어쨌거나	-11.3386
▁코카콜라	-11.3386
듀	-11.3386
롬	-11.3386
벡	-11.3386
첩	-11.3386
▁일으킨	-11.3386
▁콘서트	-11.3386
▁가르침	-11.3386
▁구체적으로	-11.3386
▁셔츠	-11.3386
▁초파리	-11.3386
▁연구결과	-11.3386
▁필연적	-11.3387
▁가볍	-11.3387
▁폐쇄	-11.3388
▁상관관계	-11.3388
▁식탁	-11.3391
▁천연두	-11.3391
▁계곡	-11.3392
▁나아갈	-11.3393
▁해커들	-11.3395
▁태양광	-11.3396
▁기획	-11.3397
▁밀집	-11.34
▁돌아온	-11.3401
▁무얼	-11.3401
▁공평	-11.3415
▁유전학	-11.3427
죄	-11.346
▁범죄자들	-11.3465
▁연결시켜	-11.3466
반응	-11.3481
RB	-11.3522
▁궁극적	-11.3533
▁시작했는데	-11.354
쪼	-11.3562
▁가상현실	-11.3562
▁뉴질랜드	-11.3562
▁민주당	-11.3562
▁아르헨티나	-11.3562
▁프랭크	-11.3562
▁한가운데	-11.3562
▁부드럽	-11.3562
▁열대우림	-11.3562
▁초음파	-11.3562
▁테러리즘	-11.3562
▁스케치	-11.3562
▁터무니	-11.3562
▁거꾸로	-11.3562
▁깃발	-11.3562
▁좌석	-11.3562
▁스미스	-11.3562
▁친환경적	-11.3562
▁리더쉽	-11.3562
▁셈입니다	-11.3564
▁벽돌	-11.3564
▁재활	-11.3565
ome	-11.3565
▁붙어있	-11.3565
▁척추	-11.3565
▁찬성	-11.3565
▁이래로	-11.3567
▁비웃	-11.3569
▁몰래	-11.357
▁우측	-11.3571
▁학살	-11.3573
▁않겠지만	-11.3577
▁되겠지요	-11.358
▁항구	-11.358
▁있긴	-11.3584
▁태우	-11.3588
▁싶다	-11.3598
▁자식들	-11.3607
또	-11.3664
가능하다고	-11.3706
▁Mar	-11.373
놔	-11.3739
팽	-11.374
뚱	-11.374
▁깨닫기	-11.374
▁오토바이	-11.374
▁프로토셀	-11.374
얽	-11.374
펫	-11.374
푹	-11.374
▁사각형	-11.374
▁공무원	-11.374
▁아이러니	-11.374
▁객관적	-11.3741
▁사우디	-11.3741
▁들으셨	-11.3741
▁협업	-11.3741
▁납치	-11.3741
▁염두	-11.3741
▁죽어가고	-11.3741
▁가득찬	-11.3744
▁존슨	-11.3746
▁없으며	-11.3747
▁떠난	-11.3748
랙	-11.3922
벳	-11.3922
샵	-11.3922
퀸	-11.3922
찍	-11.4028
뢰	-11.4097
셉	-11.4107
뎌	-11.4107
넘	-11.4233
X	-11.4241
엑	-11.4291
봇	-11.4486
펄	-11.4488
몫	-11.4488
큰	-11.4646
슴	-11.4676
돔	-11.4684
딕	-11.4684
맷	-11.4684
슐	-11.4684
털	-11.485
J	-11.4852
빵	-11.4853
셜	-11.4881
벅	-11.4884
=	-11.5089
넥	-11.5089
붕	-11.5289
줍	-11.5294
랗	-11.5297
렘	-11.5297
푼	-11.5297
윙	-11.5297
칩	-11.5503
펀	-11.5509
겸	-11.551
젝	-11.551
갓	-11.5727
뜬	-11.5727
팻	-11.5727
겟	-11.5727
엿	-11.5727
딱	-11.5732
Y	-11.5743
엇	-11.5945
옹	-11.5949
핸	-11.5949
댈	-11.5949
짤	-11.5949
톡	-11.5949
끝	-11.5961
얀	-11.6173
뭉	-11.6176
낱	-11.6176
늠	-11.6176
뭇	-11.6176
풋	-11.6176
슘	-11.6176
몸	-11.6202
맛	-11.6203
잠	-11.6204
깃	-11.6409
밧	-11.6409
팜	-11.6409
쫒	-11.6647
쵸	-11.6647
깨	-11.6689
꼭	-11.6698
퀘	-11.6891
폼	-11.6891
핏	-11.6891
깍	-11.6891
밑	-11.6946
쩌	-11.7137
뜰	-11.7141
츄	-11.7141
헥	-11.7141
많	-11.7208
흔	-11.7217
헨	-11.7396
낄	-11.7397
팡	-11.7397
텅	-11.7397
툴	-11.7397
륨	-11.7661
쿵	-11.7661
퓨	-11.7661
맵	-11.7661
왈	-11.7661
콕	-11.7661
앵	-11.7661
훈	-11.7931
냄	-11.7931
콥	-11.7931
댄	-11.8043
넌	-11.805
썼	-11.8051
곽	-11.8207
엠	-11.8208
떄	-11.8209
늄	-11.8209
샷	-11.8209
섞	-11.8337
욱	-11.847
픔	-11.8494
삽	-11.8494
셸	-11.8494
툼	-11.8494
떠	-11.8643
잖	-11.878
킵	-11.8788
♬	-11.8788
깅	-11.8788
솜	-11.8788
킷	-11.8788
춤	-11.896
좀	-11.8961
챌	-11.9092
팍	-11.9092
콰	-11.9404
닛	-11.9404
닿	-11.9616
벙	-11.9727
⁄	-11.9727
갯	-11.9727
렐	-11.9727
씬	-11.9727
쿄	-11.9727
훗	-11.9727
눌	-12.0054
@	-12.006
겔	-12.006
뜻	-12.0305
땅	-12.0312
닙	-12.0405
걀	-12.0405
옴	-12.0405
젓	-12.0405
댐	-12.0405
팸	-12.0405
묻	-12.0686
쟈	-12.0762
캇	-12.0762
팬	-12.1073
봄	-12.1073
롯	-12.1127
숫	-12.1127
룡	-12.113
눕	-12.1132
샐	-12.1132
댁	-12.1132
잣	-12.1132
툰	-12.1132
넨	-12.1517
돛	-12.1517
뼉	-12.1517
쑤	-12.1517
얄	-12.1517
쓴	-12.189
곧	-12.2325
앗	-12.2333
걱	-12.2333
낀	-12.2334
깝	-12.276
딸	-12.2775
즉	-12.2779
꿈	-12.278
륜	-12.322
멀	-12.3758
옵	-12.4196
딧	-12.4199
텀	-12.4199
덜	-12.4282
숲	-12.4282
큼	-12.4477
컷	-12.5205
팟	-12.5278
탠	-12.5278
왓	-12.5281
끌	-12.5342
맡	-12.5424
앱	-12.5425
횡	-12.5869
펙	-12.5869
휠	-12.5869
꽃	-12.6047
헝	-12.6494
녹	-12.6717
뻐	-12.7157
쎄	-12.716
펌	-12.7161
렷	-12.7161
멧	-12.7161
샴	-12.7161
꼈	-12.7875
숨	-12.818
므	-12.8593
얘	-12.9027
몹	-12.9477
훼	-13.0387
씀	-13.138
읍	-13.1384
훨	-13.2498
흙	-13.4731
뽑	-13.4732
귄	-13.5176
갖	-13.638
삶	-13.64
쁨	-13.684
웁	-13.684
덟	-13.6841
몇	-13.8395
낫	-13.84
둡	-13.8836
둠	-13.8839
q	-13.8842
눅	-13.8843
떤	-14.1339
쩔	-14.4673
및	-14.924
뭄	-14.9668
볍	-14.9668
끗	-14.9676
뭐	-15.9264
굳	-15.9265
뭘	-15.9267
첫	-15.9267
쌉	-15.944
엎	-15.9441
앰	-15.9442
꿰	-15.9443
끕	-15.9444
늪	-15.9445
씹	-15.9446
뱉	-15.9447
맴	-15.9448
짙	-15.9449
덥	-15.945
엣	-15.9451
쌌	-15.9452
샬	-15.9453
쥴	-15.9454
빴	-15.9455
맑	-15.9456
촛	-15.9457
찼	-15.9458
뱃	-15.9459
뀝	-15.946
꽁	-15.9461
횟	-15.9462
얹	-15.9463
켤	-15.9464
뾰	-15.9465
훑	-15.9466
싣	-15.9467
끽	-15.9468
챘	-15.9469
왠	-15.947
썰	-15.9471
팠	-15.9472
뺏	-15.9473
챨	-15.9474
챔	-15.9475
짖	-15.9476
뻤	-15.9477
찔	-15.9478
뤘	-15.9479
넛	-15.948
^	-15.9481
멤	-15.9482
핫	-15.9483
빽	-15.9484
쿼	-15.9485
칫	-15.9486
늑	-15.9487
꽝	-15.9488
갚	-15.9489
+	-15.949
긁	-15.9491
컸	-15.9492
깎	-15.9493
뀐	-15.9494
껑	-15.9495
헛	-15.9496
쨋	-15.9497
씌	-15.9498
‘	-15.9499
듈	-15.95
둑	-15.9501
꼼	-15.9502
끓	-15.9503
탓	-15.9504
룻	-15.9505
낚	-15.9506
빡	-15.9507
뜯	-15.9508
꿉	-15.9509
꽂	-15.951
찢	-15.9511
솟	-15.9512
눴	-15.9513
캄	-15.9514
딛	-15.9515
엮	-15.9516
엌	-15.9517
흩	-15.9518
갱	-15.9519
휩	-15.952
뀔	-15.9521
쁩	-15.9522
둬	-15.9523
닮	-15.9524
곁	-15.9525
쿨	-15.9526
씻	-15.9527
뿜	-15.9528
밈	-15.9529
춥	-15.953
힙	-15.9531
췄	-15.9532
굶	-15.9533
얇	-15.9534
겉	-15.9535
샀	-15.9536
챙	-15.9537
늬	-15.9538
낡	-15.9539
힉	-15.954
땠	-15.9541
꽉	-15.9542
밸	-15.9543
밟	-15.9544
큽	-15.9545
뮬	-15.9546
헐	-15.9547
뻗	-15.9548
펭	-15.9549
릎	-15.955
늙	-15.9551
갇	-15.9552
씁	-15.9553
댓	-15.9554
좁	-15.9555
훔	-15.9556
낍	-15.9557
낯	-15.9558
딪	-15.9559
쫓	-15.956
붉	-15.9561
밌	-15.9562
뚫	-15.9563
닭	-15.9564
혐	-15.9565
맺	-15.9566
띄	-15.9567
쏟	-15.9568
껍	-15.9569
낳	-15.957
궤	-15.9571
펼	-15.9572
엉	-15.9573
녔	-15.9574
깥	-15.9575
멕	-15.9576
늦	-15.9577
옛	-15.9578
묶	-15.9579
녕	-15.958
덮	-15.9581
깁	-15.9582
앨	-15.9583
녁	-15.9584
캘	-15.9585
쁘	-15.9586
맹	-15.9587
윤	-15.9588
뤄	-15.9589
뒷	-15.959
긍	-15.9591
끊	-15.9592
걷	-15.9593
옳	-15.9594
뿌	-15.9595
쌓	-15.9596
”	-15.9597
촬	-15.9598
빼	-15.9599
꿔	-15.96
“	-15.9601
쨌	-15.9602
싫	-15.9603
흡	-15.9604
넓	-15.9605
잊	-15.9606
뀌	-15.9607
옆	-15.9608
융	-15.9609
휘	-15.961
짧	-15.9611
왼	-15.9612
옮	-15.9613
괜	-15.9614
닫	-15.9615
/	-15.9616
~	-15.9617
흑	-15.9618
낌	-15.9619
멈	-15.962
웹	-15.9621
섯	-15.9622
겪	-15.9623
켰	-15.9624
젊	-15.9625
듭	-15.9626
냅	-15.9627
♪	-15.9628
밝	-15.9629
뛰	-15.963
낮	-15.9631
잃	-15.9632
륭	-15.9633
꽤	-15.9634
훌	-15.9635
슷	-15.9636
듣	-15.9637
읽	-15.9638
앉	-15.9639
넣	-15.964
빨	-15.9641
뭔	-15.9642
랐	-15.9643
굉	-15.9644
봅	-15.9645
#	-15.9646
똑	-15.9647
릅	-15.9648
!	-15.9649
높	-15.965
떨	-15.9651
얻	-15.9652
났	-15.9653
믿	-15.9654
맞	-15.9655
♫	-15.9656
—	-15.9657
특	-15.9658
찾	-15.9659
됩	-15.966
못	-15.9661
왜	-15.9662
떻	-15.9663
:	-15.9664
좋	-15.9665
렇	-15.9666
없	-15.9667
않	-15.9668
)	-15.9669
?	-15.967
&	-15.9671
눠	-15.9671
