<unk>	0
<s>	0
</s>	0
ه	-2.83364
ی	-3.27745
▁،	-3.86854
▁لە	-3.95566
▁و	-4.04523
▁کە	-4.07903
▁	-4.21431
ە	-4.26985
▁بە	-4.30857
▁بۆ	-4.38233
▁ئ	-4.58057
▁د	-4.59479
▁وه	-4.59932
▁که	-4.64123
▁له	-4.65189
▁به	-4.79131
ن	-4.89773
م	-4.96308
دا	-4.97246
▁ئەو	-5.02584
▁ی	-5.05533
ت	-5.12607
▁وە	-5.18009
▁ه	-5.18032
▁زۆر	-5.18456
;	-5.33417
▁&	-5.33417
ەوە	-5.33594
▁یه	-5.379
مان	-5.46666
▁.	-5.46953
▁م	-5.49293
(	-5.49846
یان	-5.50752
▁)	-5.51699
▁من	-5.52544
▁ر	-5.56297
▁بوو	-5.56638
▁ئەم	-5.57235
▁ئەوە	-5.59461
ان	-5.60936
t	-5.62078
o	-5.62547
u	-5.64368
q	-5.64755
▁؟	-5.7777
▁گ	-5.83881
ڵام	-5.85486
▁ئێمە	-5.87295
▁ک	-5.917
▁سه	-5.92725
ێکی	-5.97555
▁ئەمە	-5.98915
و	-6.02688
▁ئەوەی	-6.04165
▁هەیە	-6.04503
▁دا	-6.06217
▁بێت	-6.07082
▁هەموو	-6.08491
ین	-6.11472
▁کرد	-6.19015
▁یان	-6.20973
▁کان	-6.21075
▁ئێستا	-6.21853
▁لەسەر	-6.27893
▁تۆ	-6.28582
ەکان	-6.29987
▁ته	-6.31348
▁دروست	-6.31482
▁مه	-6.32347
▁کاتێک	-6.34796
▁:	-6.35779
▁لەگەڵ	-6.38384
▁تر	-6.3994
▁ئەگەر	-6.41468
▁وەک	-6.4415
▁ناو	-6.45559
▁پێ	-6.48121
▁ن	-6.5157
وە	-6.51854
ەکە	-6.51992
▁تا	-6.53086
▁دەبێت	-6.53304
a	-6.56167
ش	-6.56758
▁چۆن	-6.57072
▁ڵ	-6.5711
ێک	-6.59596
▁ش	-6.59996
▁زیاتر	-6.60818
▁هەر	-6.61074
▁نه	-6.61415
▁کی	-6.62735
s	-6.62758
▁ست	-6.64803
▁لەو	-6.65518
یە	-6.65616
▁چەند	-6.6674
po	-6.68606
▁دوو	-6.69937
انە	-6.70187
▁هیچ	-6.70291
▁دەکات	-6.70423
ده	-6.71213
▁کار	-6.71229
▁چی	-6.71405
▁ره	-6.72632
▁ئەوەیە	-6.73211
▁ئەوان	-6.75224
د	-6.75679
▁ئێمه	-6.75965
▁وا	-6.77823
▁لێ	-6.7855
ى	-6.78668
▁بکه	-6.80036
▁بوون	-6.80663
▁بکەین	-6.81376
▁سەر	-6.82004
▁کات	-6.83295
▁دەست	-6.85262
▁ب	-6.86459
تان	-6.86817
▁تەنها	-6.86862
▁کردن	-6.87896
▁پ	-6.9024
ەکانی	-6.90246
▁دەکەن	-6.91163
▁کردنی	-6.9396
▁شتێکی	-6.9602
▁دوای	-6.96911
▁ساڵ	-6.98476
▁نا	-7.00624
▁باش	-7.01105
▁ڵام	-7.01197
▁شت	-7.01544
▁نیە	-7.02599
ێت	-7.02625
▁شتێک	-7.02718
▁لەم	-7.02985
▁خ	-7.04527
ا	-7.04792
▁موو	-7.05328
▁پێش	-7.06921
▁بیر	-7.07798
▁کەوات	-7.08095
▁چونکە	-7.08289
ێ	-7.12409
▁بکەن	-7.13635
▁منداڵ	-7.14399
▁یەک	-7.19
▁ین	-7.19324
▁بۆیە	-7.21221
س	-7.21514
▁هەروەها	-7.21909
▁ڕاستی	-7.22713
▁یاری	-7.22715
▁لەبەر	-7.22962
▁تی	-7.23042
ک	-7.23454
▁سێ	-7.24158
▁چه	-7.25014
▁بکات	-7.25301
▁ساڵی	-7.25461
یەکی	-7.26584
▁باشە	-7.26937
ل	-7.276
▁ڕ	-7.28905
ەکەی	-7.29389
یش	-7.30083
▁مان	-7.30939
یت	-7.31038
▁ئێوە	-7.31175
▁ئەمەش	-7.31925
▁ری	-7.32121
▁با	-7.32358
▁بێ	-7.32683
ەی	-7.33523
▁خەڵک	-7.33897
▁کانی	-7.35239
▁خۆیان	-7.36005
▁پێکەنین	-7.36586
که	-7.36701
▁یەکەم	-7.36884
▁باسی	-7.37358
▁منداڵان	-7.37646
▁پێویستە	-7.38309
▁بکەم	-7.39492
ر	-7.39563
▁خۆی	-7.40848
▁نیشان	-7.41491
▁ڕاستیدا	-7.41603
▁سوپاس	-7.42018
▁ئایا	-7.44386
▁وان	-7.44755
انەی	-7.44757
▁کەس	-7.45612
▁دە	-7.45727
▁دەکرد	-7.46553
▁دەتوانین	-7.47299
▁كه	-7.48018
▁هۆی	-7.49156
▁کاری	-7.49638
▁ند	-7.5029
▁هەست	-7.50627
▁وایە	-7.50662
بوو	-7.51491
کە	-7.51613
▁یەکێک	-7.51999
▁وێت	-7.52094
▁نین	-7.54762
▁دەکەین	-7.54951
▁یت	-7.5593
انه	-7.56223
▁دایک	-7.56454
▁پێی	-7.5671
▁لەوانەیە	-7.57528
▁دەتوانن	-7.5907
▁هەمان	-7.59145
▁بەو	-7.59763
▁ت	-7.60724
▁وانه	-7.61363
%	-7.61401
▁وێنه	-7.61483
ڕ	-7.6168
▁بتوان	-7.61868
▁بکەیت	-7.62415
▁دەکەم	-7.6289
▁وتم	-7.63148
▁جار	-7.637
▁س	-7.63846
▁بووم	-7.64333
▁هەندێک	-7.6438
▁دەدات	-7.64382
▁جیهان	-7.65086
▁شتی	-7.66439
▁وەکو	-7.66504
▁پاش	-7.66635
▁جۆرە	-7.66724
▁بەرەو	-7.66851
▁شێوه	-7.67128
▁مرۆڤ	-7.67615
▁هەبێت	-7.67936
▁ناوی	-7.68293
▁بۆچی	-7.68803
▁وتی	-7.68904
▁بن	-7.69094
▁-	-7.69162
▁خۆش	-7.69788
▁وت	-7.69972
▁دەربارەی	-7.7007
▁لێدان	-7.70223
▁بەم	-7.70384
کان	-7.70651
▁جیاواز	-7.71129
▁ژیانی	-7.71518
▁شێواز	-7.72315
ترین	-7.72483
▁نها	-7.72661
▁ئەوەش	-7.73568
▁بو	-7.73827
ەکی	-7.74056
▁مێشک	-7.75076
▁پێویست	-7.75518
▁دەمەوێت	-7.75548
▁زانیاری	-7.75586
▁رو	-7.75893
▁باشتر	-7.76206
▁دەتوانی	-7.7632
▁بەکار	-7.7664
▁چونک	-7.76843
▁شێوەیەک	-7.77176
▁توانی	-7.77697
▁هەبوو	-7.77748
ڵ	-7.78049
▁ماوەی	-7.78235
▁هەمو	-7.78998
▁...	-7.79548
▁نێوان	-7.7964
▁کاتی	-7.79662
▁ق	-7.80259
▁یاخو	-7.80416
▁شێوەیە	-7.80433
-	-7.80572
ۆ	-7.80639
▁ژیان	-7.80899
بێت	-7.821
▁دواتر	-7.82955
▁ف	-7.85213
یەک	-7.85527
▁بەسەر	-7.86078
▁کۆتایی	-7.86171
▁لەبارەی	-7.86465
▁بی	-7.86665
▁دەزانن	-7.86709
▁خۆمان	-7.87128
▁پەیوەندی	-7.87497
▁دەچێت	-7.87653
▁چ	-7.87755
▁فێر	-7.87896
▁لایەن	-7.88239
را	-7.88262
▁باره	-7.88495
▁بچوک	-7.8944
▁کردووە	-7.89566
▁بەردەوام	-7.89601
▁بەر	-7.89746
▁گەورە	-7.89793
▁جیا	-7.90461
▁دەکەیت	-7.90514
▁لای	-7.91058
کردنی	-7.91173
▁چەپڵە	-7.912
▁بەڕاستی	-7.91335
▁وات	-7.91449
▁نییە	-7.9212
کردن	-7.92668
▁خۆم	-7.92714
ب	-7.92718
▁توش	-7.92874
▁نە	-7.9312
▁کەسێک	-7.93783
▁چاو	-7.95254
▁ئەوانە	-7.95275
▁بین	-7.95298
▁ها	-7.95335
▁باس	-7.95714
ج	-7.95942
▁نزیکەی	-7.95982
▁شتە	-7.96153
نی	-7.97136
▁نی	-7.97301
▁جیهانی	-7.97371
▁ئەنجام	-7.97623
▁هێشتا	-7.9773
▁کێش	-7.98654
▁سەیری	-7.9904
▁هەندێ	-8.00191
ری	-8.00418
▁پێم	-8.0059
▁چوار	-8.00642
▁لەناو	-8.00753
▁بەشێوەیەک	-8.01843
▁کارە	-8.02273
▁زیاد	-8.02508
▁لێرەدا	-8.02661
▁تەنانە	-8.02831
▁نەبوو	-8.02861
وه	-8.03017
▁لەوەی	-8.03576
▁ئە	-8.03797
تر	-8.0443
▁نەخۆشی	-8.05246
▁ڕۆژ	-8.0538
▁بینی	-8.05396
▁خەڵکی	-8.05532
▁کاریگەری	-8.05641
▁زۆربەی	-8.05872
▁جیهاندا	-8.06028
▁دوایی	-8.06081
▁تەواو	-8.06091
انی	-8.06351
▁تاک	-8.06971
▁چاودێری	-8.06975
گه	-8.0738
▁١٠	-8.07536
▁ڕێگ	-8.07567
▁دات	-8.07995
▁لەبەرئەوەی	-8.08106
▁پاشا	-8.08703
▁دەرکەوت	-8.09047
▁ڕوو	-8.09182
▁ور	-8.09328
▁پێکه	-8.09401
ز	-8.09501
▁ئەمانە	-8.09509
ێن	-8.09587
▁خراپ	-8.09973
یەوە	-8.10022
▁جۆرێک	-8.10201
▁وابزانم	-8.10473
▁ملیۆن	-8.10506
▁جیاوازی	-8.10519
▁فێری	-8.10628
▁دیاری	-8.11876
رێت	-8.12009
▁گرنگی	-8.12167
▁بەهۆی	-8.12734
▁کاتێ	-8.13273
▁جێ	-8.13308
▁گرنگ	-8.13541
▁هەتا	-8.13962
▁دڵ	-8.14072
▁مانگ	-8.14618
▁تێ	-8.14703
▁ئامێر	-8.14895
▁ڕاست	-8.15185
▁لەوە	-8.15692
▁تەماشای	-8.15727
▁بەرز	-8.15728
▁شتانە	-8.16247
▁کەم	-8.16529
▁تازە	-8.16538
▁رد	-8.17012
▁دەبن	-8.17131
▁هەزار	-8.17484
▁کۆم	-8.17542
▁ندی	-8.17552
▁کێک	-8.17682
▁دێت	-8.17699
▁باشترین	-8.17971
▁لا	-8.18205
▁شوێنی	-8.18452
▁ڕو	-8.19268
خ	-8.19435
▁لێرە	-8.19583
▁نزیک	-8.19794
▁کاره	-8.19934
▁بەڵکو	-8.19963
▁ئاو	-8.20761
▁ح	-8.20857
▁دەم	-8.21059
▁ئەمڕۆ	-8.21654
▁خۆ	-8.21729
گ	-8.22388
▁ج	-8.22421
▁ژێر	-8.22432
▁بەدەست	-8.22539
▁شێوە	-8.23536
▁هات	-8.23857
▁توانای	-8.23912
▁هەم	-8.24015
▁پێویسته	-8.24205
▁دەڵێ	-8.24209
▁خۆشی	-8.24536
▁چار	-8.24652
▁دەتوان	-8.24813
▁کۆ	-8.25056
▁پێشتر	-8.25326
.	-8.25634
▁ناتوان	-8.25837
ەک	-8.26054
▁نیو	-8.26204
▁سی	-8.27429
وو	-8.2765
▁کانمان	-8.27862
▁گوێ	-8.2799
▁دەرەوە	-8.28034
▁بریتی	-8.28411
▁بڵێم	-8.29213
▁پشت	-8.2948
▁کێ	-8.29645
▁دەکرێت	-8.29953
▁نەک	-8.30028
دان	-8.30095
ەدا	-8.30214
▁دووبارە	-8.30276
▁کۆتای	-8.30299
—	-8.30369
ي	-8.30405
▁قسە	-8.3068
▁قورس	-8.31014
بو	-8.32084
پ	-8.32392
▁هێنانی	-8.32464
▁رئ	-8.33
▁بیت	-8.33147
▁خۆت	-8.33346
▁هەوڵ	-8.34055
▁بەکارهێنانی	-8.34274
▁بازرگانی	-8.34466
▁زانی	-8.34557
▁سەرنج	-8.34564
▁بیرۆکه	-8.34598
▁خواردن	-8.34976
ون	-8.35161
به	-8.35203
ژ	-8.35561
▁منیش	-8.35841
,	-8.36045
▁لەلایەن	-8.3606
▁پڕ	-8.36142
▁٢٠	-8.36772
▁ئیش	-8.36815
▁باشه	-8.36844
▁بوونی	-8.36967
▁هەرگیز	-8.3752
▁لەوێ	-8.37989
▁تری	-8.38033
▁شار	-8.38047
ەیە	-8.38146
لە	-8.39211
▁تەندروستی	-8.39725
▁یارمەتی	-8.40422
▁گۆڕانکاری	-8.40592
▁خۆر	-8.4086
▁پرسیار	-8.41119
▁بووە	-8.41509
ەو	-8.4156
▁ماشای	-8.41615
یشە	-8.4162
ەکانیان	-8.4163
▁جوان	-8.41704
ك	-8.4205
▁پار	-8.42636
▁ئەویش	-8.42948
▁بڵاو	-8.4304
▁کەمتر	-8.43095
▁هەڵ	-8.43248
▁ئامادە	-8.43544
چ	-8.43559
▁کۆنتڕۆڵ	-8.43639
▁باوەڕ	-8.43702
▁شوێنێک	-8.43703
▁دڵنیایی	-8.43727
▁لێره	-8.43728
ایه	-8.43897
▁پێکەوە	-8.43928
ەر	-8.44215
بە	-8.44834
▁ئاسایی	-8.44853
▁لێی	-8.4524
▁برد	-8.4532
▁بدەن	-8.4536
▁مانای	-8.45878
▁دەر	-8.45934
▁واتە	-8.46123
▁پێویستمان	-8.46245
▁هێنا	-8.463
ف	-8.4642
▁سیستەم	-8.46779
▁باوه	-8.46869
▁پێویستی	-8.47
▁باشی	-8.47022
▁ماشێن	-8.47217
▁زمان	-8.47278
▁ڵک	-8.47348
دە	-8.47973
▁پێیان	-8.48014
▁بیری	-8.48427
▁دەستی	-8.489
▁مەبەستم	-8.48975
▁کراوە	-8.49069
▁کچە	-8.49117
▁وتن	-8.49156
▁حەز	-8.49173
▁یە	-8.494
▁گرنگە	-8.49685
▁بەشی	-8.49804
▁دۆلار	-8.49931
▁سێک	-8.50007
▁کاتژمێر	-8.50119
▁داهێنان	-8.50145
▁گەشە	-8.50155
▁ڕوون	-8.50301
▁ڕێژەی	-8.50366
▁نابێت	-8.50378
▁دوا	-8.50654
زانی	-8.50694
▁تێدا	-8.50755
ەکەم	-8.50974
▁ئەی	-8.51234
▁ئابوری	-8.51825
▁داهاتوو	-8.51864
▁بکرێت	-8.51904
▁لەبەرئەوە	-8.5206
▁وایه	-8.52093
ۆن	-8.52201
▁سەیر	-8.52348
▁دوور	-8.5253
▁ل	-8.52538
▁مانه	-8.52661
▁شتەکان	-8.52726
▁نمونە	-8.52888
▁بەرهەم	-8.52961
▁نمون	-8.53177
▁خوێن	-8.53219
▁بکە	-8.53364
▁ئێوه	-8.53551
▁شوێن	-8.53687
ڕاستیدا	-8.53796
▁سان	-8.54276
▁پارە	-8.54412
▁٢	-8.54527
ێك	-8.54534
▁دیزاین	-8.5459
یەتی	-8.54692
▁قس	-8.5471
▁بده	-8.5478
تا	-8.54815
▁بیرم	-8.54866
▁زەوی	-8.54873
▁ستی	-8.55079
▁زۆرێک	-8.55214
▁کردوە	-8.55266
▁پڵه	-8.55323
ەکاندا	-8.55598
▁بەڵێ	-8.55997
▁زمانی	-8.56072
▁زانستی	-8.56297
▁گرت	-8.56489
▁شێوەی	-8.56542
▁بووین	-8.5682
ار	-8.56849
کی	-8.57012
▁ئۆتیزم	-8.5712
▁نیه	-8.57218
▁منداڵەکان	-8.57339
▁دیار	-8.57464
▁ئاوی	-8.57472
▁کەمێک	-8.5769
▁هۆکاری	-8.57798
نە	-8.58082
او	-8.58358
▁پێنج	-8.589
▁بون	-8.59
▁نوێ	-8.59157
▁دەتوانێ	-8.59237
▁٣٠	-8.59247
▁تریش	-8.59649
▁خۆراک	-8.59766
▁بم	-8.59825
▁ئەنجامی	-8.59827
▁وای	-8.60005
▁خێرایی	-8.60015
▁کارێکی	-8.60149
▁ماڵ	-8.60502
▁سروشت	-8.60536
▁ساڵێک	-8.60613
▁ڕێک	-8.60817
انەوە	-8.60953
▁تاقی	-8.61001
▁بەوە	-8.61487
▁بوار	-8.61488
▁بکەینەوە	-8.61829
▁چارەسەر	-8.61967
▁ئاستی	-8.62654
ست	-8.62783
▁جۆر	-8.62799
▁دەدەین	-8.62819
▁کاتێکدا	-8.6293
▁دووەم	-8.63003
▁وابوو	-8.63676
▁ئاسان	-8.63809
▁ك	-8.64214
▁شێرپەنجە	-8.64233
▁کارکردن	-8.64498
▁ڕێگای	-8.64625
▁بدەین	-8.64665
▁ناکات	-8.64725
بوون	-8.64776
▁نجام	-8.65231
▁بینین	-8.65249
کەی	-8.65316
▁دەیان	-8.65462
▁کراوه	-8.65615
ویست	-8.65963
▁شاره	-8.66494
▁شەلەل	-8.6653
▁کەسێکی	-8.66664
▁باوکم	-8.6675
▁ندێ	-8.66794
▁ز	-8.668
▁ماو	-8.66855
▁گشتی	-8.67355
▁زانست	-8.67415
▁شتانەی	-8.67475
▁دەدەن	-8.68276
ەکانمان	-8.68325
شی	-8.68345
ام	-8.68353
کانی	-8.68463
▁دوبارە	-8.6853
▁نازانم	-8.68553
▁بدەم	-8.6873
▁کردنه	-8.68758
▁٥	-8.68802
▁٠٠٠	-8.69104
▁شی	-8.69412
▁لایه	-8.69688
▁جین	-8.69929
لی	-8.70004
لا	-8.70164
▁دەبێتە	-8.70213
▁ڕوودەدات	-8.70574
▁تیایدا	-8.70598
▁جۆری	-8.70672
▁بڕیار	-8.70795
▁بدات	-8.70813
▁دڵخۆش	-8.71028
▁خۆشەویستی	-8.71035
▁خوێندن	-8.71135
▁درووست	-8.71196
▁دەوێت	-8.71238
▁٥٠	-8.71478
▁ڕووی	-8.71563
▁ڕێگەی	-8.71845
▁٢٠٠	-8.71885
▁ڕا	-8.72368
▁کۆن	-8.72492
▁خاوەن	-8.72659
▁دەدەم	-8.72677
▁کردەوە	-8.72884
▁دەستم	-8.72929
▁کانیان	-8.72964
▁دروستکردنی	-8.73086
▁..	-8.73313
▁دەی	-8.73555
گا	-8.73599
▁دو	-8.74232
▁سەد	-8.74293
▁واو	-8.74351
▁دەزانی	-8.74539
▁تەواوی	-8.74687
▁ئا	-8.74794
▁چین	-8.74934
▁نج	-8.74948
▁یارم	-8.75026
▁وڵ	-8.75136
▁کرا	-8.75553
بەر	-8.75863
▁دان	-8.76014
▁دەڵێن	-8.76089
▁ڕۆژێک	-8.76174
▁دابین	-8.76317
▁ئەوا	-8.76598
▁چاوی	-8.76604
▁ساڵان	-8.76652
▁هێز	-8.76809
▁دەژین	-8.77319
نا	-8.77502
▁یو	-8.77688
▁وێنەی	-8.77713
▁کاتە	-8.77808
▁٣	-8.77819
ای	-8.7804
▁تەکنەلۆژیا	-8.78396
▁ندێک	-8.78712
▁رز	-8.78838
▁ئینگلیزی	-8.79199
▁بارەی	-8.79209
▁وێ	-8.79313
▁سەرەکی	-8.79478
▁ببن	-8.79525
ەش	-8.79709
▁دەرمان	-8.79974
▁کۆمپیوتەر	-8.79993
یک	-8.80343
▁وزەی	-8.80596
▁ببێت	-8.80707
▁شوێنێکی	-8.80711
دایە	-8.80811
ەم	-8.80833
▁بڕوای	-8.81212
تەوە	-8.81215
▁توانین	-8.81316
▁نان	-8.81595
▁تایب	-8.81596
▁خێزان	-8.81601
▁وێنە	-8.82089
▁پزیشکی	-8.8241
▁بابەتە	-8.82482
▁١	-8.82682
ەری	-8.82728
▁تە	-8.82761
▁کوێ	-8.82862
▁بیست	-8.82907
یەکان	-8.83034
▁ستم	-8.83226
▁تەمەن	-8.83261
▁دەنگی	-8.83392
▁پیاوان	-8.83436
▁کەوت	-8.83696
▁مۆسیقا	-8.83776
▁تازه	-8.83794
▁شوێنە	-8.83864
▁جوانی	-8.8394
▁کراو	-8.84377
▁نەخۆش	-8.84501
▁کردم	-8.84545
▁کاندا	-8.84563
▁تایبەت	-8.84578
▁ببین	-8.84708
یتر	-8.84756
▁نایاب	-8.84829
▁هون	-8.84854
▁تەمەنی	-8.85067
▁سیست	-8.85208
▁قوتابخانە	-8.85398
▁خانە	-8.85552
نەوە	-8.85743
▁چاک	-8.86003
▁زه	-8.86106
▁ڕێ	-8.86154
▁ئەوەندە	-8.8617
▁کۆمەڵێک	-8.86236
▁بازرگان	-8.86289
▁ئاماده	-8.86416
▁ویست	-8.86427
▁بەیەکەوە	-8.86584
▁راستیدا	-8.86615
▁بهێنین	-8.86825
▁وام	-8.86911
▁خوێندنگە	-8.86987
▁ژوور	-8.87063
▁ڕاکێش	-8.87258
شت	-8.87422
e	-8.87712
▁درێژ	-8.87911
▁بینینی	-8.88196
▁دژە	-8.8863
▁شەش	-8.88765
▁ئای	-8.88788
▁تێک	-8.88945
▁جێی	-8.88983
▁بهێنن	-8.89115
▁ناوچ	-8.89212
▁دەبێتەوە	-8.89236
▁منداڵی	-8.89486
▁دەزان	-8.89625
یاندا	-8.89662
▁نگ	-8.89727
▁مانگی	-8.90231
▁خان	-8.90306
▁سەرکەوتن	-8.9038
▁شێوازێک	-8.90429
▁ژمار	-8.90573
▁دەبێ	-8.90583
▁هیندستان	-8.91097
▁بیرۆکەی	-8.91262
یس	-8.9132
جار	-8.91486
▁بیان	-8.91572
ره	-8.91586
▁ڕێگە	-8.92241
ەکەدا	-8.92847
▁دەکەوێت	-8.92927
ماندا	-8.93098
کرد	-8.93455
▁بەرامبەر	-8.93746
انەدا	-8.93858
▁بەند	-8.93942
▁هەن	-8.93974
اری	-8.94133
▁گفتوگۆ	-8.94163
▁گۆڕان	-8.94218
▁بێن	-8.94359
▁داوە	-8.94381
ق	-8.946
مەوە	-8.94709
ات	-8.9475
▁کەسە	-8.94936
▁دەستمان	-8.95126
▁داوای	-8.95314
▁ڕابردوو	-8.95631
▁چیرۆکی	-8.96032
▁تایبەتی	-8.96332
▁کێشە	-8.96426
▁گەورەی	-8.96465
▁چیە	-8.9678
▁مردن	-8.96815
▁نده	-8.97024
▁دەنگ	-8.97079
▁خانەی	-8.9708
▁خێرا	-8.97495
اڵ	-8.98025
ێر	-8.98222
▁ئەمریکا	-8.98237
▁بوم	-8.98483
▁خوار	-8.98551
▁نموونە	-8.98551
▁٤	-8.98567
▁خواردنی	-8.98579
▁بیرکردنەوە	-8.98767
▁ڕزگار	-8.98973
▁توانن	-8.98996
▁ناتوانی	-8.99004
وس	-8.99069
▁ما	-8.99143
▁دەبینیت	-8.99296
▁نام	-8.9944
▁دەبینین	-8.99498
▁دەبینن	-8.99728
▁ژینگە	-8.99731
ایە	-8.99881
▁کو	-9.00013
ئ	-9.00362
ەکەیان	-9.00411
▁دەکەنەوە	-9.00508
▁ساڵە	-9.00557
▁لێکۆڵینەوە	-9.00928
▁گران	-9.01297
▁وەڵامی	-9.01313
▁منداڵەکە	-9.01732
▁١٠٠	-9.01935
▁دەدا	-9.02104
▁ژمارەی	-9.02183
▁خوارەوە	-9.02279
اوی	-9.02398
▁تاکە	-9.02642
▁هەموویان	-9.02993
ییەکان	-9.03079
▁بەهێز	-9.03109
ڤ	-9.0313
▁٢٥	-9.03829
▁منداڵێک	-9.0401
▁پێکرد	-9.04047
▁نەخۆشییە	-9.04283
▁مامەڵە	-9.04629
▁خۆراکی	-9.04643
▁هەروەک	-9.04658
بزانم	-9.04718
▁کاریگ	-9.04719
▁تەنیا	-9.04803
▁خەیاڵ	-9.04845
▁پاک	-9.0486
▁کەسانی	-9.04901
▁وڵات	-9.05001
▁سروشتی	-9.05056
▁ڕێگەیەک	-9.0511
▁ڵێ	-9.05164
▁ڕەنگ	-9.05244
تە	-9.05298
کار	-9.05431
▁ئامانج	-9.0565
▁کاریان	-9.05696
▁ئافرەت	-9.05764
▁کاتەی	-9.05781
شدا	-9.05812
▁منداڵانە	-9.06028
▁ئازار	-9.06172
▁کوڕ	-9.06329
▁پڕۆگرام	-9.06475
٧	-9.06574
▁کۆمپانیای	-9.06779
▁لەدەست	-9.06795
▁دەکاتەوە	-9.06831
▁خول	-9.06982
▁چون	-9.07007
ۆر	-9.07121
▁تۆمار	-9.0742
▁ڕوناکی	-9.07506
▁بەدڵنیای	-9.07571
▁دەردەکەوێت	-9.07582
▁ماوەیەکی	-9.07584
▁پڕۆژەکە	-9.07606
رگیز	-9.07678
▁فێربون	-9.07702
▁شێرپەنجەی	-9.07714
▁نەبێت	-9.07793
▁تۆزێک	-9.07819
▁گرنگه	-9.07823
▁ئێستادا	-9.07867
▁پەروەردە	-9.0788
▁تێدایە	-9.07951
▁بەشێک	-9.08032
▁هەشت	-9.08191
▁خولەک	-9.08249
i	-9.08388
▁بازاڕ	-9.08648
▁ئێم	-9.08739
▁خۆتان	-9.0907
▁هەفتە	-9.09217
▁٦	-9.09903
ێنێت	-9.09987
▁باو	-9.10148
▁باب	-9.10157
▁وز	-9.10186
0	-9.10294
ێنین	-9.10408
▁فێربوون	-9.10448
▁گرتن	-9.10508
▁توانێ	-9.10641
▁بدەیت	-9.10647
▁ژمارەیەک	-9.10787
▁کەلە	-9.10799
▁دایکم	-9.10844
▁دەبین	-9.11033
ێکدا	-9.11194
مدا	-9.1138
▁ع	-9.11417
▁نزم	-9.11485
▁سەدا	-9.11521
▁کاته	-9.11528
▁هەستی	-9.11597
▁هێزی	-9.11603
▁تردا	-9.11734
▁لی	-9.12035
▁دێن	-9.12101
▁رمه	-9.12176
▁بچووک	-9.12364
▁قسەی	-9.12556
▁داوا	-9.12885
▁کۆمەڵگا	-9.1289
▁کارەکە	-9.1292
▁ئێرە	-9.13002
▁بڕوا	-9.13135
▁لەیەک	-9.13195
▁پێشبینی	-9.13227
▁سادە	-9.13254
یل	-9.13413
▁جا	-9.13428
توانم	-9.136
▁هندستان	-9.13727
▁بچن	-9.13729
▁کەسانەی	-9.13734
▁رنج	-9.13735
▁مامۆستا	-9.13765
▁بزانن	-9.13795
▁....	-9.138
▁توند	-9.13828
▁تێگەیشتن	-9.13844
بون	-9.13865
ەها	-9.13952
▁متمانە	-9.14036
▁کۆمەڵایەتی	-9.14191
▁گەشت	-9.14226
▁جل	-9.14418
▁خێر	-9.14452
▁ژن	-9.14488
▁بەکاری	-9.14664
▁تیا	-9.14694
ەکەت	-9.14755
▁هۆڵ	-9.14774
▁گونجاو	-9.14889
▁ماڵەوە	-9.15064
▁کردووه	-9.15093
▁دۆزینەوەی	-9.15217
▁پێشەوە	-9.15512
▁کەسانە	-9.1552
▁خانووە	-9.15615
▁کێشەی	-9.15637
ێل	-9.15706
▁پێک	-9.15988
▁دەستیان	-9.16053
▁باوک	-9.16114
▁٨	-9.16119
▁ئاڵۆز	-9.16131
▁زانین	-9.16138
▁گەورەیە	-9.16196
▁ڕێژ	-9.1662
▁پیاو	-9.16636
ين	-9.1679
▁دەبوو	-9.16851
▁بۆئ	-9.16892
گە	-9.16965
▁ئاسانی	-9.17028
▁دەیبینن	-9.17053
▁منداڵە	-9.17125
▁دەب	-9.17222
سه	-9.17313
▁بەراورد	-9.17337
▁قوتابخانه	-9.1747
▁کاتدا	-9.17623
▁پاڵ	-9.17624
▁حەزم	-9.17681
▁چوو	-9.17705
▁خوشک	-9.17743
▁بڵێین	-9.17789
رین	-9.17945
▁ببینن	-9.17995
▁پێوە	-9.18178
با	-9.18299
▁خانەکانی	-9.18358
▁٧	-9.18384
ۆک	-9.18413
▁هەموومان	-9.18418
▁خەو	-9.186
▁هۆکارێک	-9.18631
▁هەوا	-9.18812
▁کۆمەڵگە	-9.19009
▁لم	-9.19068
▁تۆڕ	-9.19403
ەوەیە	-9.19585
▁دەچن	-9.19664
▁خاڵی	-9.19878
▁پارچ	-9.19939
▁دۆزین	-9.19946
▁هەژار	-9.19979
▁ران	-9.19986
▁بەشێکی	-9.20169
▁خەرج	-9.20285
▁بەتەواوی	-9.20288
▁دەهێنن	-9.20289
▁بونی	-9.20307
▁بزانین	-9.20402
▁کێشان	-9.20454
▁پێت	-9.20457
▁سور	-9.20458
▁یارییە	-9.20553
▁تێبینی	-9.20557
▁ڵگه	-9.2078
▁دەوترێ	-9.20993
▁حکومەت	-9.21082
▁شتانه	-9.21223
▁كار	-9.21403
▁ڕم	-9.21412
▁منداڵەکانمان	-9.21647
بۆ	-9.21647
▁کاتەدا	-9.21746
▁دەزانین	-9.2183
▁ڵات	-9.21844
▁منداڵێکی	-9.21916
گر	-9.21924
▁پیاوە	-9.22008
▁جارێک	-9.22132
▁بێر	-9.2227
▁دکتۆر	-9.22323
▁ماڵی	-9.22354
▁هونەر	-9.22391
▁ئەتوان	-9.2255
▁بۆشایی	-9.22558
▁تێد	-9.2274
رد	-9.22775
▁خۆشه	-9.22788
▁دابەش	-9.22933
▁هیوا	-9.22949
▁پێشکەش	-9.22997
▁پارچە	-9.2314
▁چالاکی	-9.23178
▁بانگ	-9.2319
▁سپی	-9.23212
▁لێکۆڵین	-9.23215
ەوێت	-9.2334
سی	-9.2359
▁کۆرپەلە	-9.23637
▁تیشک	-9.23702
یا	-9.23713
▁هاوکاری	-9.23714
▁ڕاسته	-9.23732
▁ئیفلیج	-9.23733
▁ناتاشا	-9.23733
▁بچین	-9.23735
▁ڕاستەوخۆ	-9.23744
▁گیان	-9.23756
▁شکست	-9.23787
▁واز	-9.23804
▁پەیدا	-9.23848
▁گەورەترین	-9.24079
▁ماسی	-9.24115
▁خاڵ	-9.24121
▁سوود	-9.24167
▁نگی	-9.24218
٦	-9.24291
▁سەرکەوتوو	-9.24537
▁بەکتریا	-9.24575
▁کچێک	-9.24727
▁کاتێکی	-9.24812
ê	-9.24818
▁چێت	-9.24876
▁بکەنەوە	-9.24919
ال	-9.25042
ند	-9.25059
▁شوێنه	-9.25186
مە	-9.25586
▁نانی	-9.25651
▁ناخۆش	-9.25826
▁کام	-9.25866
▁بری	-9.25884
▁یاسای	-9.25888
هەمان	-9.25895
▁دەمانەوێ	-9.25911
▁زۆرب	-9.2596
▁٤٠	-9.2598
▁کردبوو	-9.261
▁ڕان	-9.26163
▁دەکەینەوە	-9.26423
ەکەمان	-9.26457
▁مەترسی	-9.26479
▁دیوار	-9.2673
▁نوسین	-9.26826
ەق	-9.26893
▁ئاستێک	-9.26931
▁هێنان	-9.26964
▁ئێس	-9.27095
يان	-9.27212
▁نەخێر	-9.27305
▁بلیۆن	-9.27305
▁ئەمریکی	-9.27305
▁هێڵکاری	-9.27312
▁دەڕوات	-9.27313
ول	-9.27318
▁بەڕێوە	-9.27336
▁دەیەوێت	-9.27359
▁کۆکا	-9.27376
▁دەرەوەی	-9.27408
▁کوشن	-9.27415
▁جارێکی	-9.27432
▁زوو	-9.27448
▁پرسیارێک	-9.27491
▁جیهانە	-9.27526
▁ئێسکە	-9.27535
▁سەلامەتی	-9.27546
▁ئۆو	-9.27555
▁لەمە	-9.27597
▁ڕاهێنان	-9.27632
▁وڵاتان	-9.27816
دانی	-9.27936
دی	-9.27963
▁تیمەکە	-9.28016
▁نیشانەی	-9.28059
رێن	-9.28066
▁ژور	-9.28102
▁ئۆتۆمبێل	-9.28119
▁نییه	-9.28284
▁دانه	-9.28433
▁هەردوو	-9.28443
▁باری	-9.28446
کات	-9.28497
▁یەکەمین	-9.29063
▁گۆڕینی	-9.29068
▁یەکتر	-9.29102
▁پێدانی	-9.29187
▁زیر	-9.29236
▁دەڵێم	-9.29307
▁رەنگە	-9.29354
▁ڕێی	-9.29362
▁پێتان	-9.2955
▁ئۆ	-9.29627
▁ناوبانگ	-9.29677
▁بەجێ	-9.29845
▁بەیانی	-9.30004
دار	-9.30008
▁تان	-9.30241
▁دانان	-9.30386
▁کاریگەر	-9.30521
▁ئاشکرا	-9.30817
▁چارەسەری	-9.30917
▁ئینجا	-9.30944
ث	-9.30958
▁هاوبەش	-9.30968
▁تێکەڵ	-9.30995
▁باکور	-9.31009
▁بچم	-9.31011
▁بڕێک	-9.31047
▁بەکتریاکان	-9.3114
ڵی	-9.31294
▁نمونەیەک	-9.31328
▁باشور	-9.31428
▁ژنان	-9.31529
▁ماوە	-9.31702
▁لێکرد	-9.31714
▁مێشکی	-9.31758
▁کارێک	-9.31921
▁کردنەوە	-9.31941
▁کارهێنان	-9.32071
▁بك	-9.32081
▁بیرمان	-9.32088
▁ناتوانیت	-9.32101
▁درێژایی	-9.32146
ەیەکی	-9.32262
▁گۆرانی	-9.32418
▁زانکۆ	-9.32547
پێ	-9.32578
▁شان	-9.32598
▁منداڵەکانیان	-9.32703
▁سود	-9.33266
٨	-9.33292
▁هۆکار	-9.3338
▁تووشی	-9.3339
▁کانم	-9.33426
▁وەر	-9.33468
تۆ	-9.33524
▁ئۆه	-9.33528
▁ئامێرە	-9.33559
▁ئاوا	-9.33631
▁پێدا	-9.33662
▁خەریک	-9.33696
▁پرسیارە	-9.33697
▁ڤایرۆس	-9.33753
▁سەرەتای	-9.33856
▁سیستم	-9.33906
▁مو	-9.33956
▁داهاتو	-9.33958
▁بهێنێت	-9.34007
زی	-9.34148
▁خزمەت	-9.3419
▁کتێب	-9.34195
▁خێراتر	-9.34199
▁بەخێو	-9.34283
فس	-9.3441
▁تاقیکردن	-9.34486
▁ڕێگەیە	-9.34528
▁دیموکراسی	-9.34652
▁سوپا	-9.3477
▁مار	-9.34787
▁دەدەیت	-9.34856
▁لەمەوبەر	-9.34866
▁هیوادار	-9.34873
▁ڕازی	-9.34877
▁دڵخۆشی	-9.34905
▁بەدوای	-9.34909
▁تاوەک	-9.34938
▁گەنج	-9.34965
▁ببینیت	-9.35003
ێتەوە	-9.35005
▁بکەوێت	-9.3504
▁بەرگری	-9.35072
▁ناوخۆیی	-9.35185
▁ڵبژاردن	-9.35202
انەش	-9.35222
▁ببینین	-9.35275
▁بڵێن	-9.35504
▁سۆز	-9.35568
▁هێناوە	-9.35845
▁نۆ	-9.35939
▁چارەسەرە	-9.3602
▁سەرەتا	-9.36023
▁هەنگەکان	-9.36051
▁بەبێ	-9.36192
▁هەستم	-9.36394
▁١٥	-9.3647
ەکانیش	-9.36513
▁شتەی	-9.36582
▁ساڵانە	-9.366
▁بڕیارم	-9.36814
رێ	-9.36839
▁دیارە	-9.37101
▁٩	-9.37103
▁تێگ	-9.37163
▁خۆیدا	-9.37404
▁دڵنیا	-9.37499
▁کچ	-9.37588
▁دواوە	-9.3777
▁پی	-9.37865
▁پارەی	-9.37876
▁کۆمەڵە	-9.37976
▁شارەزایی	-9.38045
▁مڕۆ	-9.38094
کا	-9.38156
▁جوانە	-9.38186
▁هیوای	-9.38188
▁پەیکەر	-9.38216
▁بەوەی	-9.38282
▁نەکرد	-9.38363
ەکانم	-9.38413
▁بکەمەوە	-9.38421
▁میل	-9.3856
▁کورت	-9.38597
▁دێتە	-9.38743
▁گۆڕی	-9.3875
▁ئینتەرنێت	-9.38856
▁چەپ	-9.38857
▁سمێڵ	-9.38858
▁چارەسەرێک	-9.38871
▁فراوان	-9.38918
▁وڵدان	-9.38982
▁سەرۆک	-9.38998
▁دەتەوێت	-9.39021
▁شوێنانە	-9.39062
▁شتێك	-9.39078
▁سوک	-9.3916
▁زار	-9.39229
▁دەبیت	-9.3928
ێنن	-9.39429
▁خوا	-9.39452
▁بهێنیت	-9.39525
in	-9.39542
▁پرسیاری	-9.39575
▁ڕای	-9.39656
▁لێک	-9.39677
▁برا	-9.39698
▁نەخشەسازی	-9.39703
کۆ	-9.39703
توانی	-9.39721
▁مام	-9.3978
▁کۆریا	-9.3979
ۆس	-9.39799
▁نیوەی	-9.39804
▁ڕاستە	-9.39822
▁پیاوێک	-9.39832
▁توانا	-9.39962
▁قوتابخانەی	-9.40016
▁دار	-9.4011
شه	-9.40133
▁ژیانێکی	-9.40161
▁ووت	-9.4017
▁تریان	-9.40211
▁١٢	-9.40371
پی	-9.40463
▁کارم	-9.40515
▁داهاتوودا	-9.40658
کو	-9.40684
▁هەوڵی	-9.408
٠	-9.40815
▁نێت	-9.40982
▁ناتوانم	-9.41202
▁کۆمپیتەر	-9.41602
▁نرخی	-9.41686
▁گروپ	-9.41832
بێ	-9.41845
▁پیر	-9.41961
اوە	-9.41996
▁فر	-9.42043
رە	-9.42207
▁ناوچە	-9.42212
▁بڵێی	-9.42331
٥	-9.42336
▁خانەکان	-9.42645
▁هێڵ	-9.42994
9	-9.43014
▁ریقا	-9.43021
▁حەوت	-9.43022
▁پێشنیار	-9.43024
▁ژمارە	-9.43026
▁پاراستن	-9.43028
▁رچاو	-9.43052
▁رێک	-9.43064
▁دەبات	-9.43067
▁پشتێن	-9.43122
وا	-9.43198
▁نامۆ	-9.43219
▁گومان	-9.43288
▁باوەڕم	-9.43595
▁هەرزان	-9.44325
▁ئێمەش	-9.44374
▁لو	-9.44433
▁کراون	-9.44514
▁یشتن	-9.44535
▁کردنەوەی	-9.44606
▁شوێنەی	-9.44697
▁بایی	-9.44779
▁تۆپ	-9.45038
▁لەوێدا	-9.45257
▁داخ	-9.45376
▁هێڵی	-9.45396
اس	-9.45421
▁ترس	-9.45444
▁سەرەوە	-9.45446
▁نرخ	-9.45487
٤	-9.45565
١	-9.45799
تەواوەتی	-9.45826
▁رۆژ	-9.45923
▁ڵه	-9.46054
▁ئەندام	-9.46091
اندا	-9.46128
▁وەرگرت	-9.46183
▁ڕۆ	-9.46194
▁مانگێک	-9.46205
▁دۆخ	-9.46345
▁فیل	-9.46506
کەر	-9.46666
▁هەنگ	-9.46745
▁ناسراو	-9.46798
▁بڕی	-9.46969
▁چا	-9.47033
▁سال	-9.47282
▁رێگەی	-9.47354
▁بگۆڕین	-9.47369
▁بەرچاو	-9.47369
▁دامەزراند	-9.47371
▁دەهێنێت	-9.47385
▁سێیەم	-9.47392
▁جێگیر	-9.47403
▁زاناکان	-9.47418
▁تێپەڕ	-9.4755
▁دژی	-9.47591
▁دانیشتوان	-9.47714
▁رمان	-9.47719
▁گۆشت	-9.47725
کاری	-9.47775
▁بەناو	-9.47814
▁بەشداری	-9.48091
▁بڕۆن	-9.4812
▁ڵکی	-9.48125
▁١١	-9.48158
▁داهاتودا	-9.48177
▁گەورەکان	-9.48184
▁دڵی	-9.48503
ەكە	-9.48529
سەر	-9.48535
▁ئافرەتێک	-9.48696
▁ببینم	-9.48705
▁جوڵ	-9.48722
ۆز	-9.488
▁تەکنەلۆژیای	-9.48891
▁پۆل	-9.49032
▁تیادا	-9.49049
▁تەماشا	-9.49386
ەکانەوە	-9.49401
▁ساتە	-9.49425
▁ماسولکەکانی	-9.49427
▁دەژی	-9.4943
▁ئەوێ	-9.495
▁دەریا	-9.49626
î	-9.49737
▁ژ	-9.49917
ێکم	-9.49926
ماوەی	-9.49987
▁چوون	-9.50159
▁سو	-9.50288
▁کتێبی	-9.50325
پێکەنین	-9.50404
▁خۆشە	-9.50419
دەکات	-9.50507
▁ژیانیان	-9.50531
▁شێک	-9.50645
▁٥٠٠	-9.50684
▁زیرەک	-9.5082
▁چاوەڕێ	-9.50848
کراوە	-9.50923
▁هاتن	-9.50953
▁بینن	-9.50956
وانی	-9.51109
▁بچێت	-9.5123
▁بەکتریای	-9.51303
▁هەڵە	-9.51348
يە	-9.51383
یتەوە	-9.51496
ێش	-9.51595
له	-9.51691
▁ئەوەم	-9.5182
▁زنجیر	-9.51907
▁ئابووری	-9.51915
▁ئەزموون	-9.51915
▁قازانج	-9.51915
▁ئایدز	-9.51915
▁قوڕ	-9.51915
▁ئەفغانستان	-9.51936
▁ناکەن	-9.52047
▁گواستنەوە	-9.52089
▁بابەت	-9.5211
▁هەواڵ	-9.5223
ێڵ	-9.52249
▁ببم	-9.52264
▁قوتابی	-9.52377
▁ڕێگا	-9.52446
چی	-9.52735
ران	-9.53004
▁سک	-9.53048
▁بڵێ	-9.53131
▁دووبار	-9.53138
▁كان	-9.53159
▁ناوەوە	-9.53183
▁ڕابردوودا	-9.5321
▁مێ	-9.53224
▁کەسی	-9.53314
▁دایکی	-9.53362
▁ڕوویدا	-9.53463
▁ڕەنگە	-9.53564
▁تەواوەتی	-9.53578
▁داپیرە	-9.53851
لێ	-9.53927
▁پرسی	-9.53947
▁ئەنجامدان	-9.54105
▁ناوەندی	-9.54223
سا	-9.54246
▁باوکی	-9.54321
▁تەندروست	-9.54385
▁ماک	-9.54651
▁بیرۆکەیەکی	-9.54757
▁پێویستت	-9.54767
▁کانت	-9.54817
▁بینای	-9.54992
▁قۆناغ	-9.55103
دەچێت	-9.55124
▁ستان	-9.55129
▁دەهات	-9.55141
▁ناک	-9.55203
▁نموونەیەک	-9.55305
▁ڕۆژنام	-9.55488
گۆ	-9.55592
▁قوتابخانەکان	-9.56017
▁گر	-9.56272
▁ئاژەڵ	-9.5628
m	-9.56334
▁هەوای	-9.56368
بن	-9.56542
▁گیر	-9.56564
▁مۆڤەمبەر	-9.56676
▁کۆلێژ	-9.56676
▁پڕۆژه	-9.56678
▁ئافر	-9.56695
▁کەسانێک	-9.56725
▁مێژووی	-9.56806
▁تێیدا	-9.56812
▁پێویستیان	-9.56827
بین	-9.5683
▁دەگۆڕێت	-9.56885
▁گوڵ	-9.57004
▁سات	-9.57263
▁دیمەن	-9.57308
▁کۆد	-9.57387
▁پیس	-9.57428
وت	-9.57767
▁جیاوازە	-9.57782
ووە	-9.5792
▁میش	-9.57988
شەوە	-9.58145
▁ئەوەتا	-9.58329
▁کچەکان	-9.58586
▁پلەی	-9.58618
▁بوین	-9.58689
▁ژیانمان	-9.58759
▁هەنگاو	-9.58836
ەدام	-9.5892
▁ڵێن	-9.58932
▁مۆبایل	-9.59019
▁بنەڕەتی	-9.59036
▁وشەی	-9.59048
▁سەدەی	-9.59274
▁مەزن	-9.59296
▁هەبوون	-9.59327
▁شین	-9.59366
▁خت	-9.59371
▁نمونەی	-9.59384
▁پیت	-9.5942
▁پرسیارەکە	-9.59543
▁ئێر	-9.59794
▁راست	-9.59982
کراو	-9.60077
▁دەکەمەوە	-9.60186
▁ڕی	-9.6035
▁جۆن	-9.60474
▁كرد	-9.60729
▁ئێستاش	-9.60835
▁دەکردەوە	-9.60837
▁چیرۆکە	-9.60848
▁فیلم	-9.61006
▁دانی	-9.61223
▁پڕۆژەی	-9.61305
▁نەدە	-9.61417
▁چرکە	-9.61429
ێکە	-9.61463
▁کچان	-9.61564
بیت	-9.61661
▁بنیات	-9.61668
5	-9.61672
▁پاشەڕۆ	-9.61676
▁بەناوبانگ	-9.61677
▁دەگمەن	-9.61677
▁قەرز	-9.61677
▁هەرچۆنێ	-9.61677
▁دەچم	-9.61679
▁کورسی	-9.61693
▁١٨	-9.61697
▁دەگەیەنێت	-9.61706
▁دۆلاری	-9.61738
▁نهێنی	-9.61769
▁چووم	-9.61775
▁ئەلیس	-9.61792
▁ریکا	-9.61805
▁کاردەکات	-9.61816
▁شۆک	-9.61896
گری	-9.619
▁دەرگاکە	-9.61913
▁سەرنجڕاکێشە	-9.61942
▁وڵاتێک	-9.61944
▁هەوڵدان	-9.61967
▁دەیکەین	-9.61969
▁دۆزییەوە	-9.61974
▁ڕوات	-9.61981
▁سێکی	-9.62104
▁هاوار	-9.62112
▁تاقیکردنەوە	-9.62143
▁كات	-9.62169
▁تەلەفۆن	-9.6224
▁ڕێم	-9.62246
▁داهێنەر	-9.62347
▁هێشت	-9.62366
▁وتنی	-9.62483
سک	-9.62485
▁چیتر	-9.6255
دەر	-9.62563
▁گەورەتر	-9.62565
▁لەبەردەم	-9.62608
ەیەک	-9.62647
بوونی	-9.62688
▁باران	-9.62781
▁ئەوەیان	-9.62849
▁کردبێت	-9.62955
▁ئەوانیش	-9.63036
▁هاو	-9.63043
▁کۆتا	-9.63083
ێنیت	-9.63114
▁وزە	-9.63181
▁موومان	-9.6321
▁پێست	-9.63233
▁کارەبا	-9.63286
▁بەشە	-9.63382
▁ئەندازیاری	-9.635
▁چیرۆکێک	-9.63556
▁وڵاتە	-9.63576
▁نیشاندان	-9.63867
نێکی	-9.63887
▁كە	-9.6395
▁وێنەیەکی	-9.63981
▁مامۆستای	-9.64265
▁کر	-9.64312
▁بەردەوامی	-9.64464
▁بار	-9.64586
▁ئاواتی	-9.64618
▁ماسولکەی	-9.64647
▁کچی	-9.64759
▁ئاسانە	-9.6479
▁ڕۆشتن	-9.64875
▁لێیە	-9.64937
نیا	-9.64972
▁پا	-9.65166
▁یەکتری	-9.65193
▁رزه	-9.65232
▁مێز	-9.65335
1	-9.65354
▁کەمی	-9.65361
زانن	-9.65401
▁ڕێو	-9.65466
▁چالاک	-9.65614
▁خوارد	-9.65777
رو	-9.65823
▁کارمەند	-9.65944
▁خوێند	-9.65946
▁نجامی	-9.6597
▁زۆرتر	-9.66003
▁سەرەتایی	-9.66098
▁کاتژمێرێک	-9.66113
▁ناڕ	-9.66228
▁جوڵە	-9.66284
▁جینەکان	-9.66295
يَ	-9.66474
گەر	-9.66632
▁راستی	-9.66677
▁خوێندنگەی	-9.66889
شە	-9.66917
٠٠٠	-9.66919
▁سندوق	-9.6694
▁شانازی	-9.6694
▁مێشوله	-9.6694
▁پشتگیری	-9.6694
▁کێشەیەکی	-9.66942
▁سنگ	-9.66945
▁بیکەین	-9.66945
▁پارێزگاری	-9.66956
▁خەڵات	-9.66959
▁١٦	-9.66963
بکه	-9.66979
▁سارد	-9.67002
▁بگریت	-9.67039
▁لاریا	-9.67079
▁سەنتەر	-9.67088
▁زۆرباش	-9.67121
▁بردنی	-9.67164
▁ڕیز	-9.67183
▁دەیکەن	-9.67194
وین	-9.67196
▁گۆ	-9.67244
▁وەرگرتن	-9.67364
ایەتی	-9.67573
▁پڕۆسەی	-9.67653
▁شەو	-9.67777
▁دانە	-9.67783
▁مەبەستی	-9.67819
▁داهات	-9.67827
▁پلە	-9.67919
▁چییە	-9.68029
اک	-9.68043
▁ساڵدا	-9.68223
▁هەڵسوکەوت	-9.68296
▁کەمەوە	-9.68324
▁زیان	-9.68335
▁هاوسەنگی	-9.68497
▁نەخشەی	-9.68511
زانێت	-9.6852
▁جەڵدەی	-9.68627
▁٦٠	-9.68654
درا	-9.69003
▁هاوڕێ	-9.69008
▁هونەری	-9.69173
▁چاوت	-9.69334
▁پێمان	-9.69408
▁گەر	-9.69439
▁تیم	-9.6952
کردنەوەی	-9.69592
▁بوە	-9.69597
کەوە	-9.69623
▁بنەمای	-9.69706
▁ئارام	-9.6974
▁کوڕەکە	-9.69773
▁شێوازە	-9.69878
▁لێوە	-9.6991
▁كردن	-9.69946
▁بڕۆ	-9.69999
▁ڕووناکی	-9.70079
▁ناتوانێ	-9.70109
▁خش	-9.70198
▁زانکۆی	-9.70225
▁ئاسمان	-9.70283
انەیە	-9.70365
er	-9.70784
راوە	-9.70822
٠٠	-9.70856
▁بۆمان	-9.7093
ع	-9.7094
▁ڕوود	-9.71004
▁ڕێگایەک	-9.71021
ێز	-9.71175
▁باشترە	-9.71194
▁کڕی	-9.7122
▁سەوز	-9.713
▁بێزار	-9.71354
▁کوشت	-9.71378
▁سەرنجڕاکێش	-9.71378
▁بکەیتەوە	-9.71537
▁نارد	-9.71593
▁لەمەو	-9.71599
▁پۆلی	-9.71608
▁کۆمپانیا	-9.71624
▁خوێندکار	-9.71706
گیر	-9.71722
▁ڕۆژە	-9.71838
▁سەخت	-9.71926
z	-9.71984
▁هاتە	-9.72014
▁زەرد	-9.72042
▁توێژین	-9.72071
▁گەرمی	-9.72172
اندنی	-9.72394
▁کۆمپیوت	-9.72395
▁گەڕان	-9.72407
شم	-9.72414
▁حکوم	-9.72464
▁بێگومان	-9.72495
▁عێراق	-9.72495
▁ڤیستیڤاڵ	-9.72495
▁بەخێرایی	-9.72496
▁زیندەوەر	-9.72497
▁بچیت	-9.72497
▁بایەخ	-9.72497
▁ترسناک	-9.72499
▁دەهێنین	-9.72504
▁وەزیر	-9.72508
▁داواکاری	-9.72511
▁لەدایک	-9.72535
▁تەماشاکردنی	-9.72547
▁چاپ	-9.72564
▁گەردیلەکان	-9.7257
▁وەرزش	-9.72574
▁زۆرینەی	-9.72581
▁هەرچەند	-9.7259
بڕی	-9.72597
▁ڕویدا	-9.72624
▁کریس	-9.7263
▁بازدان	-9.72652
▁بزانیت	-9.7279
▁رێژەی	-9.72845
▁بخ	-9.72868
▁خێزانی	-9.72873
▁گرنگترین	-9.72961
ێتی	-9.73
▁نەم	-9.73059
▁لۆژیا	-9.7313
▁تیر	-9.73226
▁پڕۆژەیە	-9.73233
▁ئێسک	-9.7325
▁ئێوارە	-9.73283
▁بڵێت	-9.73361
▁ڕەنگەکان	-9.73396
▁بڕیاری	-9.73594
▁ناوچەی	-9.73745
▁باڵ	-9.73761
▁ووزە	-9.73988
▁داتا	-9.74033
▁سکی	-9.74136
▁تیمی	-9.742
▁کردوه	-9.74205
▁ئاماژ	-9.74242
▁کا	-9.74387
▁ڕۆژانە	-9.74439
کەرەوە	-9.74555
▁کرێت	-9.74576
▁لێیان	-9.74623
▁سەرچاوەی	-9.74712
کەوتن	-9.74834
▁ترەوە	-9.74894
ڵێت	-9.74899
▁جو	-9.74904
ردن	-9.74911
ۆی	-9.7493
▁ئەزمونی	-9.75013
▁پێو	-9.7507
▁سەری	-9.75096
▁لام	-9.75099
٩	-9.75207
▁هەوڵم	-9.7542
▁کێشەکە	-9.75571
ما	-9.75571
▁مادەی	-9.75675
▁کوڕێک	-9.75695
▁ساڵیدا	-9.75698
▁نایابە	-9.75722
▁ئازادی	-9.75874
▁کرێ	-9.76023
▁ڕاو	-9.76097
▁فێرکردن	-9.7617
▁ویستم	-9.76219
▁تێم	-9.763
▁کەش	-9.76331
▁گۆڕا	-9.76363
▁فڕۆکە	-9.76404
▁نیم	-9.76477
▁گەیشت	-9.76692
▁کوژ	-9.7675
▁گوێم	-9.76771
▁گوند	-9.76848
▁منداڵانی	-9.7689
▁قورسە	-9.76891
▁جی	-9.76971
▁دارستان	-9.7703
کاتی	-9.77118
▁سەردان	-9.77133
▁خزمەتگوزاری	-9.77169
▁هەڵبژاردن	-9.77313
▁بدە	-9.77337
▁ڕاد	-9.77439
ەڕ	-9.77469
▁بەست	-9.77614
▁دانا	-9.77657
▁مرۆڤایەتی	-9.77659
▁کەسەی	-9.77741
▁توێژ	-9.77769
▁دەگاتە	-9.77804
▁نەخشە	-9.77867
▁جگە	-9.7819
▁هاتووە	-9.7832
▁ئاژ	-9.78364
lî	-9.78378
▁جوتیار	-9.78378
▁دەوڵەمەند	-9.78379
▁لەگەل	-9.7838
▁19	-9.78383
▁دەکەون	-9.78385
▁دەنکە	-9.78386
zî	-9.78386
▁ئێکس	-9.78404
▁بپرس	-9.78431
▁بەرپرس	-9.7845
▁قینه	-9.78488
▁ژار	-9.78498
▁بوەست	-9.78521
▁شەڕ	-9.78524
▁پرۆژەی	-9.7854
▁دوباره	-9.78554
▁نامێنێت	-9.78555
▁ماف	-9.78579
▁بڕۆین	-9.78663
▁داتاکان	-9.78732
▁بنچینەیی	-9.78755
▁هاوین	-9.78782
▁نادیار	-9.78915
▁جیاوازن	-9.78952
▁ئەلکترۆنی	-9.79048
▁قسەکردن	-9.79048
▁بەلای	-9.79092
رامب	-9.79113
وز	-9.79171
اتی	-9.79241
▁شتەکانی	-9.79273
▁دەگەڕێن	-9.79284
▁بازن	-9.79313
▁مرۆڤەکان	-9.7937
یانە	-9.79373
▁ناوە	-9.7938
▁بەکتریاکە	-9.79452
▁پێوانە	-9.79461
شمان	-9.79479
▁وێنەکان	-9.79579
▁گەیشتن	-9.79582
▁لەلای	-9.79611
ەرە	-9.79804
▁هێنن	-9.79988
▁بینیوە	-9.79992
ۆڵ	-9.8004
▁دور	-9.80063
▁نێ	-9.80066
مەوێت	-9.80075
▁خەریکی	-9.80226
▁ناوەڕاستی	-9.80336
▁گرنگتر	-9.80361
▁دەوری	-9.80386
▁ڵێم	-9.80575
▁دەری	-9.80596
▁نەبووە	-9.80653
▁نێر	-9.80667
▁دووری	-9.80935
▁ئەرکی	-9.8103
▁قەبارەی	-9.81083
▁ببه	-9.81167
▁شتێکە	-9.8118
▁بخەین	-9.81218
▁زی	-9.81383
▁سیاس	-9.81521
▁بەرزی	-9.81551
▁دەبنەوە	-9.81619
▁یاریکردن	-9.81704
مەش	-9.81736
▁رمی	-9.8178
▁نموونەی	-9.81917
▁کارەبای	-9.82047
▁ئامێرێک	-9.82126
▁کردنە	-9.8214
ەکەیە	-9.82174
▁دایکان	-9.82189
▁کۆبون	-9.82278
▁هەبو	-9.82308
▁دابوو	-9.82309
▁لاواز	-9.82394
▁نوس	-9.82437
▁کارمان	-9.82491
▁شەکرە	-9.82502
▁هێندە	-9.82611
▁بیرۆکە	-9.8265
▁بت	-9.82718
▁ژوورەکە	-9.82722
▁ڵکو	-9.83013
▁بەش	-9.83033
٢	-9.83042
چەپڵە	-9.83114
▁زۆرترین	-9.83334
▁فت	-9.8337
▁بچوکە	-9.83407
▁فێریان	-9.83467
▁ئاگا	-9.835
▁سا	-9.83636
n	-9.83689
▁ئامێرێکی	-9.83721
▁بیرکردنەوەی	-9.83808
▁فرۆشت	-9.83839
▁ناوبانگی	-9.83916
▁تو	-9.83927
▁پڕۆس	-9.84073
▁مێشکمان	-9.8419
▁نەخۆشیە	-9.84205
▁خانەیەک	-9.84247
▁ناس	-9.84329
▁دەگرێت	-9.84411
▁فێربونی	-9.84444
▁دوایدا	-9.84507
كردن	-9.84515
▁گەشبین	-9.84525
▁تاڵیبان	-9.84628
▁پرۆستات	-9.84628
▁گاندۆ	-9.84628
▁دادەنیش	-9.84629
▁بریندار	-9.8464
▁بیکەن	-9.8464
▁چێژ	-9.84646
▁ڵسو	-9.84649
▁تاڕادەیەک	-9.84659
▁گەڵ	-9.84676
▁خودا	-9.84679
▁گرتووە	-9.84685
▁دەیبینین	-9.84687
▁هاوکار	-9.84701
وڵ	-9.84723
▁ناکەم	-9.8473
▁کۆلا	-9.84739
▁کاردەکەن	-9.8474
▁گەڕام	-9.84792
وار	-9.84884
▁گەشەی	-9.8492
▁بدرێت	-9.84928
▁بوبێت	-9.84973
پەڕ	-9.84998
▁دەدرێت	-9.85049
▁بەباش	-9.85153
▁سایت	-9.8521
▁دەکرێن	-9.85225
▁چینی	-9.85232
▁لێکۆڵینەوەکان	-9.85276
▁جیهانێک	-9.85304
▁ڕۆشتم	-9.85312
▁باز	-9.85371
▁کورتی	-9.85435
▁ئەل	-9.85504
▁ئارەزوو	-9.85568
▁شێت	-9.85584
▁دەبنە	-9.85655
▁نەیان	-9.85761
▁دڵنیام	-9.85782
▁چیرۆک	-9.85826
▁لێبوو	-9.85841
▁کۆبونەوە	-9.85872
▁کارەبایی	-9.85968
ناس	-9.86146
▁زان	-9.86175
▁ئازاری	-9.8623
▁را	-9.86286
▁مێشکت	-9.86298
▁ئاست	-9.86321
▁ڕێت	-9.86487
▁پێکهاتەی	-9.86528
▁جەنگ	-9.86552
▁یار	-9.86587
▁قورسه	-9.86618
▁بەتایبەتی	-9.86694
▁دەزانیت	-9.86716
ئەو	-9.86909
▁وردە	-9.87106
▁هەل	-9.87162
اسی	-9.87243
▁ئاماژە	-9.87573
▁خست	-9.87644
ng	-9.87656
ستی	-9.87762
▁درێژی	-9.87954
▁پێك	-9.88122
▁مناڵ	-9.88143
▁ریا	-9.8815
▁حاڵەتی	-9.88179
▁پشتی	-9.88194
ەنج	-9.88211
▁چاوپێکەوتن	-9.88282
ادە	-9.88284
▁هەلی	-9.88501
كه	-9.88523
▁ورد	-9.88607
▁نەمان	-9.88648
▁پێکردنی	-9.88648
رک	-9.88764
یشیان	-9.88878
▁بەڕێوەبەر	-9.88902
▁رووەک	-9.88967
▁ستا	-9.89112
▁پێکهات	-9.89125
▁٣٠٠	-9.89133
▁ئاگادار	-9.89133
▁هەلێک	-9.89189
▁ئافرەتان	-9.89211
▁هاوڕێی	-9.89316
▁چیرۆکێکی	-9.89317
رۆ	-9.89399
▁هەمووتان	-9.8949
▁کاغەز	-9.89493
▁سەرکەوتو	-9.89733
▁ڕۆشت	-9.89751
▁سەردەم	-9.89796
▁هۆ	-9.89844
▁چییه	-9.90033
▁دڵت	-9.9007
بکەن	-9.90154
▁داهێنانی	-9.90286
ەوانەی	-9.9063
▁چیرۆکه	-9.90768
▁وانی	-9.90808
▁سەرچاوە	-9.90814
▁بابەتێک	-9.90846
▁منەوە	-9.90909
▁چوین	-9.9105
▁كانی	-9.91146
▁ئەفریقا	-9.91294
▁موگناتیسی	-9.91294
▁بگەین	-9.91296
▁بهێنرێت	-9.91296
▁کیمیایی	-9.91297
▁خودی	-9.91298
▁شەرم	-9.91305
▁زستان	-9.91306
▁لەدەرەوە	-9.91307
▁هونەرمەند	-9.91312
▁ژیری	-9.91325
▁نەکردووە	-9.91329
▁خانوو	-9.91334
▁ئافرەتانە	-9.91348
▁دەگەڕێتەوە	-9.91381
▁جێگای	-9.91415
▁یەکێکیان	-9.9142
▁کۆکردنەوەی	-9.91424
▁تێبگەین	-9.91424
▁مردوو	-9.91426
▁کاردانەوەی	-9.91431
▁ژیانم	-9.91434
▁ئاسایش	-9.91469
▁بدۆزینەوە	-9.9147
▁یەکەمجار	-9.91473
▁خانو	-9.91477
▁ڕابردودا	-9.91478
▁ببیت	-9.91481
▁ڕادەیەک	-9.9151
▁جێگەی	-9.91525
▁چونك	-9.91529
▁هاتوو	-9.91553
▁ڤیدیۆییەکان	-9.91647
▁ئاشکرایە	-9.91648
▁ڕێز	-9.91658
یز	-9.9166
▁گروپێک	-9.91688
▁ڕێگەم	-9.91697
▁بیبینن	-9.91811
▁بەلام	-9.91847
▁بگرین	-9.91911
▁خراپە	-9.91956
▁کاربۆن	-9.92099
▁موویان	-9.92159
▁لێرەوە	-9.92189
▁یاسا	-9.92212
▁ڕست	-9.92306
▁گەنجەکان	-9.92307
▁لیست	-9.92431
رنام	-9.92436
▁ماوەیەک	-9.92442
▁واتا	-9.9245
▁زیندوو	-9.92665
▁کوشنەکان	-9.92863
▁ڤایرۆسە	-9.92919
وور	-9.92975
▁سروشتیەکان	-9.93016
▁مادە	-9.93093
▁زۆرمان	-9.93139
بوایە	-9.93213
▁حسابی	-9.93251
▁بچوکتر	-9.93296
▁تاقیکردنەوەی	-9.93319
▁پرسیارم	-9.93346
▁بیرکاری	-9.93473
▁مەبەست	-9.93473
رم	-9.93478
▁دەکەوێتە	-9.9365
کەوت	-9.93667
▁هیو	-9.93742
▁گرێت	-9.93811
▁پاڵپشتی	-9.93922
▁کارەکان	-9.93938
انا	-9.94015
▁کچەکە	-9.94228
▁چونە	-9.94328
▁کامێر	-9.94344
▁پشکنین	-9.94395
▁حاڵەت	-9.94485
▁بەرهەمە	-9.945
دەکەن	-9.94705
ەکانت	-9.94804
▁ڤیدیۆی	-9.94804
▁سەرم	-9.94962
دەکەم	-9.95002
▁وەرەم	-9.95019
اکس	-9.95026
▁بیک	-9.95365
▁هەندێکیان	-9.95565
▁وتو	-9.95629
▁٧٠	-9.95699
▁خێرای	-9.95735
▁ڕاکێشە	-9.95811
▁خوێندنی	-9.95901
ریت	-9.95906
پا	-9.96046
▁وری	-9.96124
▁ئەمەیە	-9.96124
▁دام	-9.96135
▁سەرسوڕهێنەر	-9.96248
▁ڤیدیۆ	-9.96346
▁ژنە	-9.96362
▁وتوو	-9.9645
▁٨٠	-9.96489
خۆش	-9.96747
▁کارەی	-9.96791
▁بریتیی	-9.96914
▁کۆمپانیاکان	-9.96941
▁ڕێکخراو	-9.97056
خستنی	-9.97089
▁ندا	-9.97091
▁چاوەڕوان	-9.9713
▁کەوتن	-9.9726
▁ئاسانتر	-9.97298
ود	-9.97462
▁مێژوو	-9.97477
▁دەستت	-9.97501
▁بەها	-9.97576
▁دەچوو	-9.97585
▁مرد	-9.97598
▁ڕۆژان	-9.97844
▁بەشدار	-9.9797
ەتی	-9.98347
ەبارە	-9.98348
▁دەسەڵات	-9.98389
▁ئاگر	-9.98415
▁بەتەنها	-9.98437
▁سەرکردایەتی	-9.98437
▁قاقایەک	-9.98437
▁چەپڵەلێدان	-9.98437
▁گەردیلانە	-9.98437
▁ئەمەریکا	-9.98437
▁ئاشنا	-9.98438
▁سەرسام	-9.98439
▁ڕوب	-9.98439
▁١٩٩	-9.98439
▁هەڵقوڵان	-9.98439
▁سەیارە	-9.9844
▁پەرکەم	-9.9844
▁بڕوانین	-9.98452
▁١٤	-9.98464
▁كاتێك	-9.98466
▁دەرکەوتووە	-9.98489
▁نەوت	-9.98501
▁خایاند	-9.98503
▁شانۆ	-9.98582
▁دەیانەوێت	-9.98609
▁بڕۆیت	-9.98627
▁پۆلیس	-9.98643
▁جەستەی	-9.98655
▁پێدەکات	-9.98695
▁نیشانەیەکی	-9.98764
▁ڤی	-9.98783
▁کایەوە	-9.98794
▁ئاڕ	-9.98802
▁لەهەموو	-9.98821
▁دەبینی	-9.98845
▁مێین	-9.98857
▁ڕق	-9.98898
▁بگرن	-9.98912
▁ماشاکردن	-9.98935
▁قام	-9.98936
▁مامۆستاکان	-9.99026
بم	-9.99096
▁خێزانەکەم	-9.991
▁کێشەیەک	-9.99118
▁کردۆتەوە	-9.99288
▁بگات	-9.99319
▁دەگات	-9.99324
▁ویستی	-9.9948
ێکەوە	-9.9951
مس	-9.99806
ێکمان	-9.99845
يەك	-9.99853
▁خەم	-9.99882
▁منداڵەکانی	-9.99898
▁دەوروبەری	-9.99999
▁دەستە	-10.0006
▁واوی	-10.003
▁دەماری	-10.0036
▁خێزانێک	-10.0052
یشم	-10.0057
r	-10.0058
▁ئیشی	-10.0078
سۆن	-10.0085
▁ئەمانەش	-10.0097
▁ڕۆڵ	-10.0122
▁کانیش	-10.0122
▁گری	-10.0131
▁رزی	-10.0132
▁داوی	-10.0146
▁لەوانەی	-10.0147
▁داهێن	-10.0151
▁ببنە	-10.0152
▁ئازاد	-10.0169
▁تاقیکردنەوەیەک	-10.0173
بکات	-10.0205
▁دەنگە	-10.0218
▁نیشانی	-10.022
▁کێشەکان	-10.0245
▁ئیشەکە	-10.0248
▁سب	-10.0249
▁نەوەی	-10.0249
▁دەوت	-10.0257
▁١٠٠٠	-10.0258
▁ناچ	-10.0268
▁بەراز	-10.0273
▁هاوڕێکانم	-10.0275
نسی	-10.028
▁جەنگی	-10.029
▁زای	-10.0296
ینەوە	-10.0297
▁لادێ	-10.0315
▁تایبەتە	-10.0315
▁هێن	-10.0334
▁نوسی	-10.0364
▁تیمێک	-10.0366
▁کارەکەم	-10.0369
▁گەرم	-10.0373
▁وورد	-10.0388
بووم	-10.0408
▁لایەکی	-10.0425
▁ئاساییە	-10.0439
٣	-10.045
ئی	-10.0461
وەکان	-10.0474
▁شتەکە	-10.0492
گرتن	-10.05
▁هەڵدەست	-10.0507
▁درا	-10.0517
▁خۆشم	-10.0518
انەوێت	-10.052
▁ووتی	-10.0542
▁چارە	-10.055
▁وێنەیە	-10.0555
▁گو	-10.0556
▁di	-10.0558
▁دایه	-10.056
▁كی	-10.0564
▁بایۆلۆجی	-10.0566
▁پەیوەندیەک	-10.0576
ەکەوت	-10.0596
▁پێشانگا	-10.0598
دڵ	-10.0607
▁خزم	-10.061
▁بیابان	-10.0613
▁دوژمن	-10.0613
▁ئۆکسجین	-10.0613
▁تەرکیز	-10.0613
▁قوربانی	-10.0613
▁قوماش	-10.0613
▁مۆدێل	-10.0613
▁ڕیچار	-10.0613
▁شەراب	-10.0613
▁لیۆناردۆ	-10.0613
▁دەچین	-10.0613
▁نیاز	-10.0613
▁بێجگ	-10.0613
▁ندروستی	-10.0613
▁پێداویستی	-10.0614
▁سووک	-10.0614
▁200	-10.0614
▁بنێین	-10.0614
▁ڕودەدات	-10.0614
▁چن	-10.0614
▁بنیاتنان	-10.0615
▁ئاشتی	-10.0615
▁حەپ	-10.0615
▁ڕابیت	-10.0616
کلی	-10.0616
▁بەخت	-10.0619
▁توڕ	-10.062
▁.....	-10.062
▁فوت	-10.0621
▁نجامدانی	-10.0621
▁هێرش	-10.0623
▁بیرکردن	-10.0624
▁پیش	-10.0624
▁باشن	-10.0627
▁بکەرەوە	-10.0628
▁بگۆڕێت	-10.0631
▁گیراوه	-10.0632
▁دەکێش	-10.0633
▁بیرۆکەکە	-10.0635
▁خات	-10.064
▁کۆچ	-10.0643
▁مندال	-10.0644
▁ئیلهام	-10.0645
ەكان	-10.0646
▁بەلایە	-10.0647
▁بنبڕکردن	-10.0649
▁وشک	-10.0649
▁خاڵە	-10.0659
▁وەڵامەکە	-10.0666
▁خراپترین	-10.0667
▁ڕام	-10.0668
▁بکەی	-10.0669
▁بەرهەمهێنان	-10.0676
▁دیاریکراو	-10.0677
▁ژیاندا	-10.0685
▁بهێنە	-10.0687
▁پێشوو	-10.0689
▁هەنگە	-10.0694
وەیە	-10.0704
▁گەشەکردن	-10.0706
▁دەداتێ	-10.0706
▁ڕاکێشان	-10.0709
▁خوێندەوە	-10.071
▁پیاوەکان	-10.0729
▁نەبو	-10.0733
▁وێنەکە	-10.0755
▁دەستکەوت	-10.0758
▁دەچنە	-10.0761
▁پێکردن	-10.0763
زانم	-10.0765
▁كۆ	-10.0793
▁نوسراو	-10.0793
▁پێوانەی	-10.0813
▁سەرانس	-10.0816
▁دەڵێین	-10.0821
▁ژنەکان	-10.0833
▁هەریەک	-10.0834
گۆڕێت	-10.085
▁پڕۆژە	-10.085
▁وشە	-10.086
ترە	-10.0866
▁بیرتان	-10.0868
▁کۆمەڵگەیەک	-10.0869
▁دەت	-10.0872
▁ژیانت	-10.0873
▁نوێی	-10.0884
▁مانەوە	-10.0884
شتنی	-10.0909
▁چیرۆکەکە	-10.0924
▁دەمان	-10.093
▁حاڵ	-10.0931
▁داری	-10.0938
▁بکوژ	-10.0943
بکەنەوە	-10.0953
▁شۆڕشی	-10.0961
▁رێ	-10.0963
▁تاوان	-10.0971
▁جۆرەکان	-10.0977
▁پلان	-10.0984
▁هێ	-10.0986
▁ببێتە	-10.0989
▁دێنە	-10.0991
▁گوزاری	-10.0993
ۆڕ	-10.1001
▁کۆنەکان	-10.1002
▁خانووی	-10.1005
▁بەس	-10.1011
▁پارەیە	-10.1025
▁باوکان	-10.1028
ساڵ	-10.1034
▁ئەنجامدا	-10.1036
ارێک	-10.1036
▁تێکه	-10.104
بەست	-10.1044
▁هەستە	-10.1049
▁کەسەکان	-10.1053
▁کشتوکاڵی	-10.1054
▁دەکەیتەوە	-10.1056
▁لەوەش	-10.1063
پێی	-10.107
▁بەرنامەی	-10.1071
بینی	-10.1078
بار	-10.1085
▁چێ	-10.1099
▁بەرە	-10.1143
▁دەمارە	-10.1162
▁شارەکە	-10.1166
▁مناڵان	-10.1167
▁کون	-10.1169
▁جیاوازەوە	-10.1178
اڤ	-10.1199
▁ئافرەتە	-10.1202
▁شەقام	-10.1217
▁کردار	-10.1237
زەی	-10.1239
▁پێدان	-10.1246
▁هێزێک	-10.125
▁مایکرۆسکۆب	-10.1255
ڕا	-10.1278
چەند	-10.1283
▁بەسەردا	-10.1289
▁تاقیگە	-10.1305
ایەوە	-10.1311
ەبێت	-10.1318
گۆڕ	-10.1324
▁هانی	-10.1327
ح	-10.1331
▁ڤیدیۆیی	-10.1339
▁مێک	-10.1341
▁سە	-10.1346
▁سم	-10.1352
▁جێبەجێ	-10.137
▁خوایە	-10.1376
کردەوە	-10.139
▁بۆماوە	-10.1391
لۆس	-10.1396
▁میوان	-10.1403
▁چۆنێت	-10.1406
▁جوانه	-10.1406
▁سوڕ	-10.1407
▁لاپتۆپ	-10.1411
▁خواز	-10.1424
▁دەیو	-10.1424
▁تم	-10.1427
▁سەربازی	-10.143
▁بازنەی	-10.1435
▁تاڕاد	-10.1443
کم	-10.1443
▁پڕۆتین	-10.1446
▁ئامڕاز	-10.1446
▁فەقیر	-10.1446
▁وەردەگرن	-10.1446
▁دەربڕین	-10.1446
▁تابلۆی	-10.1446
▁گوگڵ	-10.1446
▁کارتۆن	-10.1447
▁دەلهی	-10.1447
▁شکاو	-10.1447
▁هێشتنەوەی	-10.1447
▁٩٩	-10.1448
▁١٣	-10.1448
▁ریتانیا	-10.1448
▁قاچ	-10.1449
▁ئاسیا	-10.1449
▁٢٤	-10.145
▁دەبەن	-10.1451
▁٢٧	-10.1452
▁لەدوای	-10.1453
▁ڕۆکێت	-10.1453
▁فراوانتر	-10.1454
▁وایەرلێس	-10.1454
▁ناکاو	-10.1455
▁ئامار	-10.1457
▁بگرێت	-10.1458
▁نادات	-10.1461
▁جۆرج	-10.1463
▁درووستکردنی	-10.1463
▁ئەکرد	-10.1463
▁نەکەین	-10.1464
گەڕایەوە	-10.1464
▁یاساکان	-10.1474
▁دیسان	-10.1474
▁توێژەر	-10.1476
▁رئێشه	-10.1477
▁نەماوە	-10.148
▁بڕوات	-10.1482
▁تێست	-10.1484
▁لێم	-10.1485
▁خەڵکانە	-10.1488
ارسەر	-10.1503
▁یاریی	-10.1504
▁چوم	-10.1504
استیان	-10.1505
▁دنیا	-10.1511
▁داپیرەکە	-10.1512
▁ناکرێت	-10.1514
▁شۆڕش	-10.1518
▁دەشێ	-10.1522
▁نەبوون	-10.1526
▁باوکە	-10.1527
▁هەڵاڵە	-10.1529
▁وێنانە	-10.1536
▁هەڵگر	-10.1539
▁پەر	-10.154
▁وتەیە	-10.154
▁بنچینە	-10.1546
▁بەرازەکە	-10.1549
▁مندا	-10.1551
ۆڵی	-10.1556
ڤەر	-10.1557
▁چوارەم	-10.1561
▁ئەندازیارەکان	-10.1565
▁ناچار	-10.1565
چون	-10.1569
▁قوڵتر	-10.1577
▁بۆچون	-10.1578
▁کلتور	-10.1582
▁نیشانە	-10.1592
▁ڕۆی	-10.1595
▁بڕۆم	-10.1596
▁چاوەڕوانی	-10.1597
▁شارەزا	-10.1598
▁بتەوێ	-10.1599
▁لەهەر	-10.1609
▁هەڵبژێر	-10.1611
▁توخمەکان	-10.1619
لەی	-10.1622
▁نەکراو	-10.1623
▁خوێندنەوە	-10.163
دەم	-10.1639
▁خێزانەکەی	-10.1649
▁دەبینم	-10.1652
▁جێگ	-10.1653
▁گاڵتە	-10.1654
ویت	-10.1655
▁دەرامەتە	-10.1657
▁دەمار	-10.1663
▁نەخۆشییەکە	-10.1664
لیا	-10.1671
▁زۆرم	-10.1675
▁هاوڕێیان	-10.1676
▁سروشتەوە	-10.1683
ەزارە	-10.1686
▁ئەرک	-10.1692
▁کردمان	-10.1692
ئەوەی	-10.1701
▁ریکی	-10.1709
▁کارکردنی	-10.171
▁ڕێین	-10.1726
▁تەکنەلۆجیا	-10.1727
▁هێندەی	-10.1728
▁گەورەکە	-10.1731
▁نەدا	-10.1731
▁دۆزیی	-10.1733
▁واڵ	-10.1746
▁باشەکان	-10.1746
▁ڕۆژێکدا	-10.1749
▁جوڵەکان	-10.1765
▁بەکارهێنان	-10.1768
▁پزیشک	-10.1768
▁بابەتەکە	-10.1775
▁وڵاتی	-10.1783
▁گۆشە	-10.1793
ئەم	-10.1794
▁زەویدا	-10.181
▁تێکی	-10.181
▁پیاوی	-10.1815
▁هەستیار	-10.1829
▁فرە	-10.183
▁پێناسە	-10.1846
دنی	-10.1849
▁ژیانە	-10.1849
ینگ	-10.1856
▁کتێبێک	-10.1861
▁پیا	-10.1865
▁دامەزراوەی	-10.1867
▁دوکان	-10.1868
هێڵێت	-10.1872
▁خۆشحاڵ	-10.1877
▁وکات	-10.1889
▁قەبارە	-10.1901
▁کەبە	-10.191
▁هێناو	-10.1911
▁پێچ	-10.1917
▁بنەما	-10.1928
▁نگه	-10.1928
▁شەپۆل	-10.1938
▁هەستکردن	-10.1945
▁ڕەگەز	-10.1948
▁داتای	-10.1953
▁هاتنی	-10.1956
▁ڕادە	-10.1968
رانا	-10.1969
▁دەبو	-10.1972
▁خەوتن	-10.1977
▁بڕیارمان	-10.1984
▁کارەکانی	-10.2003
سیا	-10.2008
▁وتار	-10.201
▁پەیام	-10.2013
▁٩٠	-10.2014
▁پێشو	-10.2023
▁پێناسەی	-10.2036
▁ڕێگایە	-10.207
▁واش	-10.2073
▁پۆست	-10.2081
▁گۆڕانکارییە	-10.2091
یەکانی	-10.2103
▁تەن	-10.2111
▁زمانه	-10.2117
▁سپ	-10.2117
رابێت	-10.2121
▁ئازا	-10.2124
▁بۆماو	-10.2134
▁نێو	-10.2141
▁بەختەوەری	-10.2146
▁خۆشەویست	-10.2148
▁هەبووە	-10.2149
▁خێزانەکان	-10.2173
▁میدیا	-10.2173
▁جانتا	-10.2177
کانم	-10.2179
▁دوان	-10.2183
▁قوڵ	-10.2189
ێس	-10.219
▁یز	-10.2203
نجامی	-10.2214
ئۆ	-10.2214
▁پەروەردەی	-10.2226
▁قاوە	-10.2228
▁bi	-10.2235
▁ناونیشان	-10.2237
وای	-10.2241
▁هاند	-10.2244
وری	-10.2245
▁دیزاینی	-10.2251
▁مێشکدا	-10.2256
▁خۆشیان	-10.2262
▁گێڕان	-10.2264
▁تایی	-10.2282
▁سیستەمە	-10.2287
ەکەیەتی	-10.2287
▁نەمدە	-10.2289
▁خۆیەوە	-10.2295
گەیشت	-10.2302
▁ناوخۆ	-10.2306
كرد	-10.2309
ke	-10.2313
▁سەرکردە	-10.2338
▁پور	-10.2343
کس	-10.2343
▁گڵۆپ	-10.2343
▁هەناسە	-10.2347
▁بگەڕێن	-10.2347
▁ناسه	-10.2353
li	-10.2355
▁دەموچاو	-10.2355
▁پسپۆڕ	-10.2355
▁ڤاکسین	-10.2355
▁بەتوانا	-10.2355
▁بەکارهێنەر	-10.2355
▁لەڕێگە	-10.2355
▁مۆدێرن	-10.2355
▁نقوم	-10.2355
▁نیوەڕۆ	-10.2355
▁ئەوروپا	-10.2355
▁لافاو	-10.2355
▁بکرێن	-10.2355
▁جەند	-10.2355
▁پڕۆفیسۆر	-10.2355
▁جێهێشت	-10.2356
▁گوڵزار	-10.2356
▁بیرۆکانە	-10.2356
▁ناوەڕۆک	-10.2356
▁نازانین	-10.2356
▁ئەفەریقا	-10.2356
▁ناکەین	-10.2357
▁پرۆسە	-10.236
▁ئەوکاتە	-10.236
▁رباز	-10.236
چوو	-10.2361
▁ناشرین	-10.2362
▁نەرم	-10.2362
اندنەوەی	-10.2362
▁دەگەین	-10.2362
▁هاتبوو	-10.2362
▁خوێندنگا	-10.2363
▁بلێۆن	-10.2364
▁شاژن	-10.2364
▁فڕێ	-10.2366
▁هتد	-10.2368
▁پێشکەوتن	-10.237
▁چۆڵ	-10.2372
▁ڕوخسار	-10.2373
▁نازانن	-10.2374
▁بیردەکەنەوە	-10.2376
▁ڕاگرتنی	-10.2379
▁دابنێین	-10.2379
▁جێبه	-10.2379
▁جوڵاو	-10.2379
▁پر	-10.238
▁هۆکارە	-10.2385
▁داناوە	-10.2387
▁کوڕە	-10.2387
▁پله	-10.239
▁چاوم	-10.2392
نیارد	-10.2393
▁بدەمێ	-10.2394
▁ناش	-10.2397
▁سەرتا	-10.2398
▁داخراو	-10.24
▁پرۆژەکە	-10.24
کەس	-10.2401
بوونەوە	-10.2401
▁زیرەکی	-10.2409
▁بخات	-10.2412
▁ژین	-10.2413
▁لول	-10.2419
▁ڕیستۆرانت	-10.242
▁سییەکان	-10.2421
▁نەوەکان	-10.2421
▁گۆڕاو	-10.2427
▁تووشبوون	-10.2427
▁بەستنەوە	-10.243
▁دواتریش	-10.2441
بوم	-10.2441
▁ڵك	-10.2443
▁دەگرن	-10.2446
▁هاتوون	-10.2464
▁کردندا	-10.2467
▁خەڵکانی	-10.2471
▁گەردیلە	-10.2475
▁ووڵات	-10.2481
▁دەبینێت	-10.2483
▁هاتم	-10.2485
▁یاسایی	-10.2485
▁لەبیر	-10.2489
▁قات	-10.2501
▁ساڵەی	-10.2502
وب	-10.2504
▁مەبەستەکە	-10.2533
▁نەخۆشییەکان	-10.2536
▁نەتوان	-10.2537
▁ژیانماندا	-10.254
▁نیشانتان	-10.2547
▁قاو	-10.2555
▁رگرتن	-10.2557
▁زو	-10.256
▁پارچەیەک	-10.2564
▁گەشتێک	-10.2569
▁هەمانە	-10.257
▁گێڕی	-10.2579
ماس	-10.2584
▁گرن	-10.2589
▁خاو	-10.2589
▁خراپتر	-10.259
▁ڕۆژنامە	-10.2592
▁بەیەک	-10.2595
▁ستمان	-10.2595
▁رۆژانە	-10.2599
▁شو	-10.2604
رۆن	-10.261
▁ندازیاری	-10.2611
▁بەخش	-10.2617
▁هێواشی	-10.262
▁دۆخێک	-10.2622
▁جۆرێکە	-10.2624
▁هەوڵدەدە	-10.264
گوت	-10.2649
اکان	-10.2654
▁دەهاتن	-10.267
▁بڕین	-10.2685
▁لێکۆڵینەوەیەک	-10.2698
▁کردۆت	-10.2702
▁گرێی	-10.2703
▁بەرد	-10.2704
na	-10.2705
▁ئاستە	-10.2708
▁ئەن	-10.2718
بکەین	-10.2723
▁رۆک	-10.2727
▁1	-10.2727
▁خۆیاندا	-10.2729
▁داوه	-10.2735
▁باسم	-10.2743
▁چارەسەرکردن	-10.2749
▁ڕووداو	-10.2759
▁بژی	-10.2783
▁رگرت	-10.2785
▁کلتوری	-10.2788
▁یاد	-10.2789
▁هەوادا	-10.2796
▁گوێی	-10.2797
▁رکردنی	-10.28
▁نەخشەسازان	-10.2805
▁زانیم	-10.2812
▁پێچەوانەی	-10.2819
▁کتێبە	-10.2821
▁ئاسای	-10.2824
ەمین	-10.283
▁توێژینەوە	-10.2835
▁ناوچەکە	-10.2843
▁ماشێنە	-10.2845
▁پێچەوانە	-10.2851
کەم	-10.2852
▁داپیر	-10.2865
▁دیکە	-10.288
▁هەمومان	-10.2885
▁لەگەڵدا	-10.2891
▁غ	-10.2895
▁وەك	-10.2904
▁بەکتریایانە	-10.2907
▁لایان	-10.2917
▁تێبگ	-10.292
▁شارەزای	-10.293
▁دایکەکە	-10.294
▁ئامانجەکە	-10.2945
▁لایەک	-10.2946
▁کرداری	-10.2957
▁پڕۆژەیەک	-10.2959
▁رچ	-10.2961
▁گۆش	-10.2961
▁ڵاتی	-10.2963
▁لێکۆڵینەوەی	-10.2965
▁سەربازە	-10.2977
▁شوێنێکدا	-10.2983
▁بەدی	-10.2985
درێت	-10.2988
▁تامی	-10.2993
▁شێ	-10.2996
▁لەمانە	-10.3003
▁کۆمپیوتەرەکە	-10.3003
نووس	-10.3007
▁بریتین	-10.3008
▁داره	-10.3009
▁بیبین	-10.3011
▁بر	-10.3013
▁بەستن	-10.302
▁شاشە	-10.3052
اڵی	-10.3056
▁گشت	-10.3081
▁چۆنە	-10.3083
▁نوسیو	-10.3088
▁ڕۆیشت	-10.3091
▁کاتیش	-10.3096
▁ترسی	-10.3097
▁نەخۆشخانە	-10.3105
▁کێشا	-10.3108
▁ئارەزو	-10.3112
▁رگ	-10.3132
▁ساتێک	-10.3149
ۆنگ	-10.3162
▁بیرۆکەیە	-10.3176
▁دز	-10.3188
▁نزیکتر	-10.319
درێژایی	-10.3202
▁هەرزەکار	-10.3208
ەیج	-10.3208
▁خاڵێک	-10.3211
▁زایی	-10.3217
▁وەستان	-10.3224
▁سوڕما	-10.323
▁ساز	-10.3236
▁داهاتووی	-10.3237
▁حەزی	-10.3238
▁دەکرا	-10.3243
▁خۆشحاڵی	-10.3248
خەری	-10.325
▁نەتەوە	-10.3251
▁ئافرەتی	-10.3257
یەکەم	-10.3261
▁ئۆتۆمبیل	-10.3262
▁دادەنێ	-10.3263
▁لەش	-10.3266
▁٢٠٠٠	-10.3267
سەدا	-10.3277
▁ناویان	-10.328
▁شارەکان	-10.3291
▁هەفتەیەک	-10.3292
▁ڕاستەقینەی	-10.3296
▁ڕاستەقینە	-10.3302
ڵا	-10.3312
▁پێشبڕکێ	-10.3323
▁سەنت	-10.3327
▁فەرمان	-10.333
▁چێشت	-10.3337
▁جۆ	-10.3338
دوا	-10.3345
رخان	-10.3348
َ	-10.3353
▁هەتیو	-10.3354
فغانستان	-10.3354
▁بەڕێوبەر	-10.3355
we	-10.3355
▁فێڵباز	-10.3355
▁ئامۆژگاری	-10.3355
▁ئەلزەهایمەر	-10.3355
▁تەلەفزیۆن	-10.3355
▁تەلەفون	-10.3355
▁شەربەت	-10.3355
▁شەمپانزی	-10.3355
▁لکترۆنی	-10.3355
▁پیشەسازی	-10.3355
▁بەنرخ	-10.3355
▁خۆشبەخت	-10.3355
▁کەلوپەل	-10.3355
▁شەستەکان	-10.3355
▁بمێننەوە	-10.3355
▁لەژێر	-10.3356
▁نواندن	-10.3356
▁مایک	-10.3356
▁ئەسپ	-10.3356
▁تاوانبار	-10.3356
▁کێشەیە	-10.3356
▁ڕادیۆ	-10.3356
▁گەڕاین	-10.3356
▁دەهێنیت	-10.3356
▁بەسود	-10.3356
▁شاخ	-10.3357
▁دەبیست	-10.3357
▁کتوپڕ	-10.3357
▁بهێڵن	-10.3357
▁گاز	-10.3358
▁٢٠٠٣	-10.3358
▁پارێزراو	-10.3358
▁نگوین	-10.3358
▁مێژوی	-10.3359
▁گوێگرتن	-10.3359
▁دەهێنا	-10.3359
▁ئاراوە	-10.336
▁رتاڵ	-10.3362
▁فێڵ	-10.3363
▁پەسەند	-10.3364
▁دەبەخشێت	-10.3364
▁ئەنجامانە	-10.3364
▁هەموان	-10.3364
▁دەرزی	-10.3365
▁بیکەم	-10.3365
▁فێرکاری	-10.3365
▁بدۆزنەوە	-10.3366
▁دەیویست	-10.3366
▁بخەمە	-10.3369
▁هاوبەشی	-10.3369
▁ئاژاو	-10.337
▁چانس	-10.337
▁بیکات	-10.337
▁هاوسەر	-10.337
▁نیۆرک	-10.3371
▁بڕیاردان	-10.3385
▁ڕۆژئاوا	-10.3386
▁كێش	-10.3387
▁دەمرن	-10.3388
▁دەخۆن	-10.3388
▁بەکاردەهێنین	-10.3389
▁شیرین	-10.339
▁بێتاقەت	-10.339
▁هێنای	-10.3391
▁دەگەن	-10.3393
▁دەویست	-10.3397
▁تیمە	-10.3398
▁هێلکە	-10.34
▁هاوس	-10.3402
▁هەنگەوانەکان	-10.3404
▁ململانێ	-10.3404
▁پەنجا	-10.3406
▁بکاتەوە	-10.3407
▁چرکەیەک	-10.3407
▁بگرم	-10.3407
▁بەهەر	-10.3411
▁پەیوەندییە	-10.3412
▁ئەندازیاران	-10.3418
▁هەستام	-10.3429
▁بگونجێن	-10.3431
▁شاشەکە	-10.3434
▁بژین	-10.3438
▁ژمێریاری	-10.3439
▁وەرگێڕەکەم	-10.3446
▁دابنێ	-10.3446
▁شق	-10.3447
00	-10.3455
▁بهێنم	-10.3457
▁فران	-10.3463
▁پیشان	-10.3468
▁دەخەو	-10.3469
▁دانیشتن	-10.3475
▁گات	-10.3487
▁نەخشەسازەکان	-10.349
▁نەداوە	-10.3494
▁جەی	-10.3498
▁دروستکراو	-10.35
▁هیند	-10.3508
▁دانیش	-10.3512
▁بیروڕای	-10.3525
▁کۆمەڵ	-10.3533
سەری	-10.3541
▁بەمە	-10.3553
دێت	-10.3556
▁زانیارییەکان	-10.3561
▁دابه	-10.3562
▁هەوڵمان	-10.3569
▁دانیشتوو	-10.3569
▁جوڵەی	-10.3571
▁تۆش	-10.3571
▁ترم	-10.3572
بدات	-10.3578
▁کرابوو	-10.3579
رسی	-10.3588
▁بارەیەوە	-10.3598
▁ڕۆشنبیری	-10.3603
▁سەردەمە	-10.3603
▁ناڕێکی	-10.3605
▁کارەکانیان	-10.3608
▁تەکنەلۆجیای	-10.361
دەی	-10.3616
▁کڕین	-10.3624
▁دەرکەوتن	-10.3625
▁ڕۆن	-10.3626
▁بیستو	-10.3628
▁بەکاردەهێن	-10.3634
▁بۆلای	-10.3636
▁نەخۆشەکە	-10.3639
▁دۆ	-10.3644
▁دەخ	-10.3646
▁ئەب	-10.3658
▁کەوا	-10.366
▁زانم	-10.3675
▁کۆڵ	-10.368
▁سەرەتادا	-10.3686
ستن	-10.3688
▁دەبم	-10.3689
▁کڕیار	-10.3691
▁نیس	-10.3692
▁تووش	-10.3703
▁بینا	-10.3706
ێشت	-10.3708
▁شارستانی	-10.3718
ێنە	-10.3735
▁کوڕی	-10.3739
بوونەوەی	-10.3747
نین	-10.3777
▁بلو	-10.3782
▁چووە	-10.3798
▁چو	-10.3798
▁سەیرکردن	-10.3822
▁ستین	-10.3829
▁کارەکەیان	-10.3834
▁پیک	-10.3839
▁نەیدە	-10.385
شێوەکان	-10.3851
▁هەستێکی	-10.3855
▁بووبێت	-10.3867
▁ناسی	-10.3867
ومانە	-10.3868
▁تێکڕای	-10.3871
▁ڕێکخستنی	-10.3874
▁ئێمەوە	-10.3883
▁بونەوە	-10.3891
اج	-10.3892
▁ناوەند	-10.3909
▁زانیاریەکان	-10.3916
▁پەیوەندییەکی	-10.3918
▁وەها	-10.3919
بلی	-10.392
▁مێرگ	-10.3928
▁کامێرا	-10.3936
▁کۆکردن	-10.3938
▁نیک	-10.3947
▁کوڕەکان	-10.3956
▁پێکراو	-10.3966
▁ئێمەیە	-10.3988
▁کاریگەرییە	-10.3997
▁حاڵەتێک	-10.4005
▁گوێت	-10.402
داری	-10.4025
▁ببە	-10.403
▁بازاڕی	-10.4041
▁دەستەکان	-10.4049
▁بینیت	-10.4051
▁کتر	-10.4052
▁خولەکی	-10.4054
▁توخم	-10.4055
▁داوام	-10.4057
▁سەرقاڵ	-10.406
▁بینیوم	-10.406
چە	-10.4061
نتۆن	-10.4068
▁هۆیەک	-10.4069
▁مناڵی	-10.4069
▁زانای	-10.407
▁شتێکم	-10.4077
▁نیشت	-10.4091
▁گونجاوە	-10.4093
ستەر	-10.4103
▁وڵاتەکە	-10.4104
خەینە	-10.4106
▁پاو	-10.4107
▁هەردووک	-10.4107
▁٦٠٠	-10.4109
▁بەرزبونەوەی	-10.4111
▁بەهێزە	-10.4118
▁نەبووم	-10.4125
▁بەهێزتر	-10.4125
▁هەنگاوێک	-10.4132
▁ئەزمونە	-10.4134
▁شارێک	-10.4139
▁کارەکەی	-10.4143
▁توانیم	-10.4149
ستان	-10.4149
▁تێك	-10.4155
▁لاو	-10.4164
▁خستە	-10.4165
▁نەخشەساز	-10.4171
▁دۆزینەوە	-10.4177
▁بیهێن	-10.4198
▁کارا	-10.4218
▁دیم	-10.4238
راستی	-10.4241
▁شیر	-10.4244
بات	-10.4247
یەکەوە	-10.4252
▁پێڵاو	-10.4255
▁بیڵێ	-10.4255
▁لەشی	-10.4264
▁لەسەرەتا	-10.428
▁پورە	-10.4289
▁ڵکان	-10.4301
▁پاشماو	-10.4303
حاڵ	-10.4308
▁كتێب	-10.431
▁دەچیتە	-10.4317
▁پەیوەندییەک	-10.4323
اوڵ	-10.4332
▁بەدەستی	-10.4334
اوەتەوە	-10.4335
ئێشه	-10.4355
بری	-10.4355
نمون	-10.4364
▁ئاسودە	-10.4376
▁یارمەتیدەر	-10.4377
▁لەوانە	-10.4377
▁پەڕە	-10.4384
▁ترە	-10.4386
▁جینی	-10.4388
▁ئامانجە	-10.4406
▁بەرنامە	-10.4407
▁کردین	-10.4411
▁هەبێ	-10.4413
▁فا	-10.4414
▁هەسارەیە	-10.4415
▁سەما	-10.4415
روست	-10.4417
▁سای	-10.4418
▁بەرپرسیار	-10.4418
▁ڕوداو	-10.4428
▁دۆخی	-10.4437
▁مۆزەخانە	-10.4443
▁پچڕ	-10.4462
ەوپێش	-10.4465
کەدا	-10.4465
▁شووشە	-10.4466
▁بچکۆل	-10.4466
▁ڕەخنە	-10.4466
▁ئیسلام	-10.4466
▁ئەفریقی	-10.4466
▁بیخوێن	-10.4466
▁بەجۆرێک	-10.4466
▁بەڕێوەبردن	-10.4466
▁دەیخوات	-10.4466
▁زەبەلاح	-10.4466
▁سەرسوڕمان	-10.4466
▁عومەر	-10.4466
▁نائاسایی	-10.4466
▁نێودەوڵەتی	-10.4466
▁کالۆری	-10.4466
▁کۆنترۆڵ	-10.4466
▁دەرفەت	-10.4466
▁گەردون	-10.4466
▁مریشک	-10.4466
▁ئاراستە	-10.4467
▁دەهێنم	-10.4467
▁شارۆچک	-10.4467
▁داپۆشراو	-10.4467
▁ئامادەبوان	-10.4467
▁دەروونی	-10.4467
▁بەزۆر	-10.4467
▁شایەنی	-10.4467
▁پێبڵێم	-10.4467
▁یەکگرتووەکان	-10.4467
▁بگەم	-10.4467
▁بێهیوا	-10.4467
▁گەشەسەندن	-10.4467
▁چەمک	-10.4467
▁بیکەیت	-10.4467
▁١٩٧	-10.4467
▁15	-10.4467
▁بەردەست	-10.4467
▁پیاسە	-10.4467
▁پاکستان	-10.4468
▁دەبەین	-10.4468
▁دەمێنێتەوە	-10.4468
▁کۆنفرانس	-10.4468
▁وێنەگرتن	-10.4469
▁پشان	-10.447
▁راهێنان	-10.447
▁سیدنی	-10.447
▁خاوێن	-10.447
▁خشت	-10.4471
▁بخۆن	-10.4471
▁پارک	-10.4471
▁ئوسترالیا	-10.4471
▁راخ	-10.4473
▁بەڵگە	-10.4473
▁دەیکات	-10.4473
▁بەخێوکەر	-10.4474
▁تێدەچێت	-10.4474
▁بكەم	-10.4474
▁داخڵ	-10.4478
▁ستیڤ	-10.448
▁کەسایەتی	-10.448
▁مین	-10.448
▁ردوو	-10.4481
▁ئەنجل	-10.4481
▁جۆش	-10.4482
▁کۆپی	-10.4482
▁جۆنس	-10.4484
▁شتێ	-10.4485
▁لابرد	-10.4485
▁تەنک	-10.4486
▁بدۆزێتەوە	-10.4487
▁دەڕۆین	-10.449
▁نوسەر	-10.449
▁سەرکردەکان	-10.4491
▁ڕەق	-10.4491
▁شریت	-10.4491
▁بچوکی	-10.4495
▁نمر	-10.4498
▁ڕون	-10.4499
▁دەبرد	-10.4503
▁دەرەکی	-10.4503
▁کۆی	-10.4504
▁باڵەخانەیە	-10.4505
▁نابین	-10.4509
▁خوێندنەوەی	-10.451
▁پێشک	-10.451
▁بیرۆکەکان	-10.451
▁بونەوەر	-10.4513
▁ورچ	-10.4516
▁ڕوبار	-10.452
▁بەریەک	-10.4522
▁گریمانە	-10.4524
▁زیادبون	-10.4528
▁کردوون	-10.4533
▁ئاوها	-10.4533
▁پێکهاتوو	-10.4536
▁چڕ	-10.4536
▁ستن	-10.4537
▁بگەڕێین	-10.4537
▁خواست	-10.4538
▁سادەیە	-10.4538
▁ڕێگاکان	-10.454
▁خەون	-10.4543
▁بیناکان	-10.4545
▁هۆش	-10.4552
چێت	-10.4554
▁دەورو	-10.4558
▁وەرگر	-10.4559
▁جارێ	-10.4561
▁نگاو	-10.4562
▁هێما	-10.4563
▁دەخاتە	-10.4563
▁دروستکەر	-10.4564
▁نەهات	-10.4564
▁چووین	-10.4566
▁لمی	-10.457
▁کانزایی	-10.4571
▁دابنێن	-10.4573
▁گەڕانەوە	-10.4574
▁تواناکان	-10.4575
▁سەرسوڕهێنەرە	-10.4578
▁پێوان	-10.4579
▁جیاوازەکانی	-10.4581
▁زیندە	-10.46
▁براکان	-10.4603
▁گەیاندن	-10.4603
▁ئار	-10.4611
▁هاوب	-10.4612
▁بۆتان	-10.4615
▁گەڕەک	-10.4616
▁دەچیت	-10.4618
تەر	-10.4621
▁متر	-10.463
▁بینیتان	-10.4639
▁تێدایه	-10.464
لێر	-10.4648
▁ژورێک	-10.4649
▁دەرچوو	-10.4652
▁ئەنجامەکان	-10.4654
هێنانی	-10.4657
زا	-10.4657
خانەی	-10.4674
▁یشت	-10.468
▁ئەڵمانی	-10.468
▁بەشەی	-10.4687
سەی	-10.4691
▁هاوڕێیەک	-10.4693
▁سازی	-10.4695
▁ڕۆک	-10.47
▁منداڵدان	-10.472
▁فەرمانبەرەکان	-10.472
پس	-10.4721
▁کۆمپانیاکانی	-10.4726
▁بەخشی	-10.4727
▁ترمان	-10.4733
▁هێنێت	-10.4736
▁هەبوە	-10.4748
▁کوشتن	-10.4752
▁ناردن	-10.476
▁لەبار	-10.4761
▁بیگ	-10.4768
▁وڵاتدا	-10.4772
▁گوندەکە	-10.4779
▁باسکردنی	-10.4785
▁بەدەر	-10.4796
▁قسەکان	-10.4796
▁ویلایەتە	-10.4809
▁مووی	-10.481
▁ئەمەیان	-10.481
▁پاس	-10.4812
▁لەگەڵیدا	-10.4815
▁ڕەنگی	-10.4822
▁ئەمەوێ	-10.4823
▁دووگیان	-10.4823
▁فرۆشتنی	-10.4826
▁زیرەکانە	-10.4827
▁رێگەیەک	-10.4827
▁دزی	-10.4828
▁دەد	-10.4836
▁باوکیان	-10.4841
▁زم	-10.4846
▁گۆڕ	-10.4852
▁لایەنێکی	-10.4854
▁پرۆژەیەک	-10.4867
▁زۆریش	-10.4869
▁هاتنە	-10.4877
کاندا	-10.4895
▁کۆمپانیایەک	-10.4903
▁خواردنەوەی	-10.4929
▁کوشنەکە	-10.4929
وام	-10.4931
دەکەنەوە	-10.4934
▁ئاسمانی	-10.495
ساڵی	-10.4955
▁کارەش	-10.4959
▁زیادی	-10.4961
▁لاگ	-10.4961
▁هاندان	-10.4964
ەڕای	-10.4969
باره	-10.4974
يت	-10.4975
▁b	-10.4978
▁ساڵێکدا	-10.4982
▁کۆرپە	-10.4991
نەوەیەکی	-10.4998
قی	-10.4998
▁چیت	-10.5
▁مندالەکان	-10.5001
▁ڤێ	-10.5001
▁٧٥	-10.5011
▁ئەندازیار	-10.5014
▁گاڵت	-10.5037
▁برۆ	-10.5041
▁دەور	-10.5042
k	-10.5062
an	-10.5065
▁بینیم	-10.5065
پارێزێت	-10.5068
▁خانەیە	-10.5069
ۆکس	-10.507
▁نرخێک	-10.5077
▁ڕادەی	-10.5087
کۆڵ	-10.5087
▁دامەزراوە	-10.5096
▁خواردنە	-10.5103
▁ئاڕاستە	-10.5123
▁پارەیەک	-10.5141
شتی	-10.5142
▁پشکنینی	-10.5144
ابی	-10.5146
▁مات	-10.5157
▁بەشەکان	-10.5164
لای	-10.5168
ناسی	-10.5168
▁بەرگ	-10.5168
▁لایەنە	-10.5172
▁دۆز	-10.5186
▁ژی	-10.5202
▁ربگر	-10.5207
▁کراوی	-10.5215
▁باشم	-10.5217
یۆرک	-10.5224
ردە	-10.5227
▁مانگدا	-10.5228
▁دەس	-10.5236
▁بینیو	-10.5247
▁هەتیوخانە	-10.5249
کردووە	-10.526
▁دڵمان	-10.5268
▁وردی	-10.5274
▁هێمای	-10.5288
▁پیرۆز	-10.5302
نشین	-10.5331
▁ژەم	-10.5334
لاند	-10.5336
▁دانیشت	-10.5336
▁ئاژەڵە	-10.5337
▁کۆلێج	-10.5338
▁خەڵکە	-10.5338
▁گۆڤار	-10.5349
▁هەڵی	-10.5352
ۆت	-10.5353
بونی	-10.5355
▁ئاهەنگ	-10.5359
▁تۆم	-10.536
▁تەختە	-10.537
▁کوشنە	-10.5381
▁ئیشێک	-10.5388
تایە	-10.5388
▁هەڵسوکەوتی	-10.539
▁ناخ	-10.5396
ۆتۆ	-10.5404
▁حاڵه	-10.5407
▁نەن	-10.5409
▁بەڕاست	-10.5413
▁حکومەتی	-10.5417
▁خستنە	-10.5417
ينا	-10.5432
▁جوڵان	-10.5432
▁درێژە	-10.5439
بونەوەی	-10.5445
▁سەرو	-10.5446
جێی	-10.5446
▁d	-10.5455
▁ڕێگری	-10.5456
▁گەڕ	-10.5456
▁پێویستم	-10.547
▁سەقفە	-10.5482
▁گرنگەکان	-10.5487
▁کۆری	-10.5489
▁ئاواز	-10.5506
▁ئیشە	-10.5506
▁نوستن	-10.5508
▁میکرۆب	-10.5511
مەند	-10.5514
▁فەرمانبەر	-10.5514
▁پەنجە	-10.5524
▁فرۆشتن	-10.5527
▁هاوڕێم	-10.5529
▁پارێز	-10.5533
کاره	-10.5536
سان	-10.554
▁بیرۆکەیەک	-10.5552
غ	-10.5556
▁سوودی	-10.5559
▁بگاتە	-10.5561
▁خۆشمان	-10.5573
▁کەمپین	-10.5585
▁بەکارهێنا	-10.5586
▁ڕەنگاوڕەنگ	-10.5592
▁تاریک	-10.5595
▁زیادکردن	-10.56
▁هند	-10.5601
كار	-10.5605
▁بجوڵێ	-10.5605
شەو	-10.5606
▁ڵبژارد	-10.5608
▁بەرهەمەکان	-10.561
▁دەڕۆ	-10.5615
▁بڕیاریان	-10.5624
▁کانزا	-10.5626
▁مێرو	-10.5631
▁دڕند	-10.5633
بکەیتەوە	-10.5636
▁ئاگاداری	-10.5641
▁وێب	-10.5644
▁پێوەر	-10.5647
▁گەڕەکە	-10.5649
بڕێت	-10.5658
▁دەبەستن	-10.5663
▁سلاید	-10.5663
▁دوورە	-10.5664
▁پشیل	-10.5668
▁جیاوازەکان	-10.5668
دانەوەی	-10.5673
▁پشو	-10.5677
نەوەیەک	-10.5685
▁گواستن	-10.5686
▁زاری	-10.5686
ڵێم	-10.5688
▁فکر	-10.5695
▁کارەسات	-10.5697
گەیەنێت	-10.5703
تس	-10.5704
▁شەوی	-10.5711
▁لەبەرچاو	-10.5715
پاراست	-10.5715
▁20	-10.5716
▁١٩٦	-10.5716
▁گفتو	-10.5716
وتەمەنی	-10.5716
▁ئۆتۆماتیکی	-10.5716
▁ئێکستەسی	-10.5716
▁برسێتی	-10.5716
▁تێڕوانین	-10.5716
▁دابڕاو	-10.5716
▁دەرناکەوێت	-10.5716
▁دەهێنرێت	-10.5716
▁سەعات	-10.5716
▁نایجیریا	-10.5716
▁هاتوچۆ	-10.5716
▁هەلومەرج	-10.5716
▁٢٠١٠	-10.5716
▁پرۆگرام	-10.5716
▁هادرۆن	-10.5716
▁دەهێڵن	-10.5716
▁قبوڵ	-10.5716
▁بخۆین	-10.5717
▁خۆشخانه	-10.5717
▁وروپا	-10.5717
▁١٩٨	-10.5717
▁لەجیات	-10.5717
▁ئیمەیڵ	-10.5717
▁بگەیت	-10.5717
▁فڕۆکه	-10.5717
▁ئیتاڵی	-10.5717
▁بنوسم	-10.5717
▁دادگا	-10.5717
▁بەنیاز	-10.5717
▁12	-10.5717
▁ناکۆکی	-10.5717
فۆرد	-10.5717
zim	-10.5717
▁شوبات	-10.5717
▁بگەن	-10.5717
▁چرکه	-10.5717
▁سوپەر	-10.5717
شەممە	-10.5717
▁رسام	-10.5718
▁هەرکاتێک	-10.5718
▁ترسیدار	-10.5718
▁نیشتیمان	-10.5719
▁وەرەقە	-10.5719
▁زنجیرەیەک	-10.5719
▁ئاوڵە	-10.5719
▁دەفڕ	-10.572
▁تکای	-10.572
▁رچۆنێ	-10.5721
▁توانرێ	-10.5721
▁ڤان	-10.5722
▁یمون	-10.5722
▁گیراوە	-10.5722
▁هەڵگرتن	-10.5722
▁بکەوین	-10.5722
▁نەدەکرد	-10.5724
رابوو	-10.5725
▁زاڵ	-10.5725
▁هەتاوەک	-10.5725
▁کۆکراوە	-10.5725
▁بینراو	-10.5726
▁وەختە	-10.5726
▁بێزارکەر	-10.5727
▁بەکاربهێنن	-10.5727
▁لەناکاو	-10.5729
▁دادەنرێت	-10.5729
▁کەوتووە	-10.573
▁ئەزانن	-10.573
▁خاسیەت	-10.5731
▁سەرمایەدار	-10.5732
▁پەل	-10.5732
▁لێبکەین	-10.5733
▁بخەنە	-10.5734
▁ئەکات	-10.5735
خوڕ	-10.5736
▁ئەندازەی	-10.5736
▁سام	-10.5737
کۆمێنت	-10.5737
▁جدی	-10.5739
▁لێدەکەم	-10.5739
▁دڵخۆشکەر	-10.5739
▁دامەزراوەکان	-10.5741
▁بوارەدا	-10.5742
▁دراوسێکان	-10.5742
▁فڕۆکەکە	-10.5744
▁بدۆزیتەوە	-10.5744
▁پێچەوانەوە	-10.5747
▁هاندەر	-10.5752
یسکۆ	-10.5752
▁دەگەڕێمەوە	-10.5754
▁بمێنێتەوە	-10.5756
هاتوو	-10.5756
▁ئەزانی	-10.5756
▁کینیا	-10.5757
▁پشوو	-10.5759
▁زانیارییە	-10.5759
▁یەکگرتوەکان	-10.576
▁کۆرپەلەکە	-10.576
▁هاوشێوە	-10.5761
▁ناوەڕاستدا	-10.5764
رێک	-10.5766
▁کونێک	-10.5766
▁کاردانەوە	-10.5767
▁کینگ	-10.5768
▁دەنێت	-10.5772
▁چێشتخانەیەک	-10.5772
▁ریاکان	-10.5774
▁خواردنەکە	-10.5774
▁روداوەکە	-10.5775
▁کوتان	-10.5776
▁بوویت	-10.5777
▁نمونەیی	-10.5777
▁سەرنجدان	-10.5777
▁جادە	-10.5782
▁ڕووەکەکان	-10.5784
▁بخوێنم	-10.5785
▁قوڵی	-10.5791
▁گەردە	-10.5792
▁گراند	-10.5792
▁نابن	-10.5792
▁نەبین	-10.5793
▁خێزانەکانیان	-10.5795
▁مر	-10.58
▁بەدەستهێنان	-10.5802
▁بەهرە	-10.581
▁2	-10.5812
▁چوینە	-10.5812
▁پەیوەندیە	-10.5817
▁دەگرێتەوە	-10.5825
▁مەحاڵ	-10.5825
▁لەوانەش	-10.5829
▁ڕێکەوت	-10.5833
▁گرێ	-10.5836
ینتۆ	-10.584
▁باڵندەکان	-10.5843
▁پلانی	-10.5848
▁بگرە	-10.5848
▁نوێیە	-10.5849
▁برایان	-10.5867
▁یارمەتیدان	-10.5874
▁دەگۆڕ	-10.5875
▁کگرتو	-10.5879
▁کامیان	-10.5886
▁میز	-10.5894
▁مندالەکە	-10.59
▁ناسراوە	-10.5906
▁مێردەکە	-10.5907
▁بەرزە	-10.5908
▁ماشا	-10.5909
▁شوشە	-10.5909
جا	-10.5912
ماڵ	-10.5912
▁ڕۆژانەدا	-10.5913
▁شووشەبەند	-10.5915
▁ڕۆین	-10.5919
▁بێنین	-10.5919
ۆڤ	-10.5921
▁مانگەدا	-10.5926
▁زرا	-10.5928
▁کردون	-10.5931
اسۆ	-10.5932
▁خۆڵ	-10.5942
▁کاتژمێری	-10.5943
▁بگەڕێم	-10.5944
▁تەمەنم	-10.5947
▁کانون	-10.5947
▁شەوێک	-10.595
▁پورەکان	-10.5954
▁دەخوێند	-10.5956
▁یەکسان	-10.5958
▁نەخش	-10.5962
▁سەوزە	-10.5965
▁ڕێکخراوەکان	-10.5979
▁لەوەو	-10.5982
▁خرا	-10.5984
▁خۆو	-10.5986
▁وازی	-10.5988
▁ئیم	-10.6004
▁پەرە	-10.601
رەی	-10.6019
▁مویست	-10.6021
▁نێود	-10.6022
مەندی	-10.6024
▁ناوەکی	-10.6026
▁ئێڵ	-10.6031
▁گۆڕانکارییەک	-10.6041
▁ڤایرۆسەکان	-10.6048
▁بوایە	-10.6052
وەربگرین	-10.6063
▁تۆز	-10.6072
▁خواردنەوە	-10.6078
▁شەقامەکان	-10.6079
▁بابەتانە	-10.6086
▁رۆژێک	-10.6087
▁سەختی	-10.6095
▁ئەزمونێک	-10.6097
▁تەندرووستی	-10.6098
▁کلا	-10.6113
▁هێنانە	-10.6114
▁کارەکانمان	-10.6115
▁سنوری	-10.6137
▁یۆنانی	-10.6138
کانیان	-10.614
ناک	-10.6142
▁داهێنا	-10.6153
لیو	-10.616
▁دەگر	-10.6162
▁هەڵەیەک	-10.6173
▁پەیوەندیان	-10.6185
▁تێبگە	-10.6188
▁کچانە	-10.6193
▁سەرقاڵی	-10.6199
▁تانک	-10.6199
▁ساڵەدا	-10.6213
▁گەنجە	-10.6222
▁ئەندامی	-10.6229
▁خەڵکەکە	-10.6235
▁پێیە	-10.6251
▁هاوڕێک	-10.6254
▁مەبەستە	-10.6257
▁بینەران	-10.6267
▁رج	-10.6276
دراوە	-10.6277
▁ستێک	-10.628
▁دانەیەک	-10.6284
▁پرد	-10.6286
ەوێ	-10.6289
▁لەشت	-10.6289
▁یاریزان	-10.6291
▁ڕەگەزی	-10.6316
▁لاش	-10.6318
▁دایە	-10.632
▁برین	-10.6323
▁ڕۆژێکی	-10.6324
ya	-10.6327
▁ڵب	-10.6331
▁ماست	-10.6336
▁سێکسی	-10.634
▁دیک	-10.6342
▁کشتوکاڵ	-10.6349
▁پەی	-10.6371
▁هانت	-10.6372
انەمان	-10.6374
فی	-10.639
▁دەناس	-10.6393
▁سیاسی	-10.6393
▁ئاماژەی	-10.6393
▁کردوو	-10.6394
▁ئاوات	-10.6398
وارت	-10.6403
▁بێیت	-10.6404
▁ئامادەکردن	-10.6417
▁ناوچەیەک	-10.6419
▁کردنیان	-10.6427
▁دایەوە	-10.6437
▁خۆشیی	-10.6437
▁بنەڕەت	-10.645
▁گەشتە	-10.6456
▁چالاکیەک	-10.6456
▁منداڵەکانم	-10.6466
▁لەچی	-10.6473
▁ئامراز	-10.6475
ئە	-10.648
▁بردوو	-10.6483
▁نەخۆشیەکان	-10.6483
▁ڕۆحی	-10.6484
▁ئەدا	-10.6488
▁تاکێک	-10.6494
▁مرۆڤای	-10.6496
▁تێپ	-10.6497
▁ئاین	-10.6512
لیما	-10.6513
▁ئامادەیی	-10.6519
▁قۆناغە	-10.6526
▁مرۆڤدا	-10.6531
▁زیاتریش	-10.6534
▁جیاوازییەک	-10.6535
ەربکەوێت	-10.6539
▁هەنگێک	-10.654
رام	-10.6542
▁سێکس	-10.6558
▁نەد	-10.6559
▁بیرۆکەیەکم	-10.6564
کەسێک	-10.6579
▁یەکەی	-10.6581
▁باڵای	-10.6592
▁داهاتی	-10.6603
ۆتە	-10.6604
▁زاییه	-10.6605
بیر	-10.6615
▁سوور	-10.6629
بڵ	-10.6651
▁بنکەی	-10.6653
ونەتەوە	-10.6657
فێ	-10.668
▁ئال	-10.6687
▁ئەکەم	-10.6692
دەکەین	-10.6722
شداری	-10.6726
▁ڕووت	-10.6728
▁باڵی	-10.6731
▁سنور	-10.6735
▁ئێوار	-10.6736
ar	-10.6743
ناڵی	-10.6746
▁هێواش	-10.6746
▁ندازیار	-10.6746
▁بەخێوکردن	-10.6757
▁ئاوە	-10.6762
▁فاکتەر	-10.6764
کەری	-10.6766
▁نەخۆشییەک	-10.6771
ەتە	-10.6786
▁کانتان	-10.6786
▁بیربک	-10.6792
▁پێبد	-10.6819
▁پێشکەوتو	-10.6828
▁روداو	-10.6831
ek	-10.6832
▁پاسکیل	-10.6834
▁پرس	-10.6838
وشت	-10.6838
▁کارانە	-10.685
▁ڕونی	-10.6852
▁مۆر	-10.6853
ڕاست	-10.6853
يا	-10.6854
▁لیم	-10.687
رایەوە	-10.6875
▁زیند	-10.6878
▁ڕاپۆرت	-10.6883
▁ئەتۆم	-10.6883
▁وەستا	-10.6884
دەدەن	-10.6887
▁بگر	-10.6889
▁وەكو	-10.6889
▁ڕێکخراوێک	-10.6899
▁قوتابخانەکانی	-10.6901
▁خستنی	-10.6905
▁ڕۆما	-10.6906
ومە	-10.6916
▁گەردیلەی	-10.6937
▁تەکنیک	-10.6939
▁مێرد	-10.6941
ڕوی	-10.6942
▁دەخات	-10.6944
▁بەرزتر	-10.6945
▁ماد	-10.695
▁دەکرێ	-10.6951
▁ستوون	-10.6953
دۆزیتەوە	-10.696
▁هاندانی	-10.6971
بەشی	-10.6972
▁٤٠٠	-10.6975
▁بڵاوکردن	-10.6976
d	-10.6982
▁گۆڕین	-10.6987
▁پێب	-10.6992
▁سەقف	-10.6996
کاتێکدا	-10.6999
▁خانم	-10.7004
▁دەنگێک	-10.7007
ادیارە	-10.7011
▁ئەوەشە	-10.7012
▁نیگەران	-10.7013
▁هەڵبژارد	-10.7014
▁دواو	-10.7021
▁فریا	-10.7022
▁مەحاڵە	-10.7023
▁وەرگێڕەکە	-10.7025
ساس	-10.7032
▁ندێکی	-10.7035
دەبێتەوە	-10.7037
▁ڕەش	-10.7038
▁دانیشتو	-10.7041
▁دەنگەکان	-10.7043
▁خانانە	-10.7045
▁پێگەی	-10.7045
▁خەڵكەكە	-10.7046
▁پاڵەوان	-10.7046
▁کێن	-10.7046
▁تەحەدا	-10.7051
▁تووشبوو	-10.7058
▁کۆب	-10.706
▁ئوتێل	-10.7065
▁نامۆی	-10.7071
h	-10.7083
▁دەتەوێ	-10.7085
▁دەمەوێ	-10.7093
▁نەخۆشیانە	-10.7097
خەر	-10.7099
▁جەست	-10.7099
▁ڕێن	-10.7102
▁دەوەست	-10.7107
گەی	-10.7115
▁٢٢	-10.7115
▁خشتەی	-10.7119
ووت	-10.712
▁ئاسن	-10.7121
▁کۆمپیوتەرێک	-10.7129
▁باخچ	-10.7134
▁هوونەر	-10.7138
لێۆن	-10.7141
▁زۆربە	-10.7143
▁ئاڵوگۆڕ	-10.7145
▁ئەحمەد	-10.7145
▁بایۆلۆژی	-10.7145
▁بچوك	-10.7145
▁بەرجەستە	-10.7145
▁بەکۆمەڵ	-10.7145
▁تەشەنە	-10.7145
▁خڵەفا	-10.7145
▁ستۆدیۆ	-10.7145
▁سلیکۆن	-10.7145
▁لیبریا	-10.7145
▁میوزیک	-10.7145
▁نەخوێندەوار	-10.7145
▁نەزانراو	-10.7145
▁پارکینسۆن	-10.7145
▁ڕیکلام	-10.7145
▁کیمۆکین	-10.7145
▁یاریدەدەر	-10.7145
▁ئەستێرە	-10.7145
▁بەکاربهێنرێت	-10.7145
▁بەکاربهێنین	-10.7145
▁ترافیک	-10.7145
▁شەمەندەفەر	-10.7145
▁لێبوردن	-10.7145
▁کۆندۆم	-10.7145
خایەنێت	-10.7145
▁بدۆزم	-10.7145
▁بیگۆڕین	-10.7145
▁نانخواردن	-10.7145
▁پەیوەست	-10.7145
▁کیشوەر	-10.7145
▁گۆڵف	-10.7145
▁دوکەڵ	-10.7145
▁گوشار	-10.7145
▁سفر	-10.7145
▁شایستە	-10.7145
▁هەرچییەک	-10.7145
▁دەزولە	-10.7145
▁50	-10.7145
دۆناڵد	-10.7145
▁واهەست	-10.7145
▁مێژودا	-10.7145
▁کلینک	-10.7145
▁توێژەرەوەکان	-10.7145
▁لیتڵ	-10.7145
ردەخات	-10.7145
▁تەنیشت	-10.7145
▁سامناک	-10.7145
▁خەڵك	-10.7145
▁قاوغ	-10.7145
▁فڕین	-10.7146
▁زگای	-10.7146
▁چەشن	-10.7146
▁لێهاتووی	-10.7146
▁راغ	-10.7146
▁ئەسیوبیا	-10.7146
▁شەیتان	-10.7146
hê	-10.7146
▁لەپڕ	-10.7146
▁پیانۆ	-10.7146
▁گرتووه	-10.7146
بەستینەوە	-10.7147
▁لێکچون	-10.7147
▁زەریا	-10.7147
▁پەیمانگا	-10.7147
▁کێڵگە	-10.7147
▁کۆبوونەوەیە	-10.7147
▁سۆزداری	-10.7147
▁شاز	-10.7148
▁تاکەکەس	-10.7148
▁کاث	-10.7148
▁بەڕێز	-10.7148
▁مەمک	-10.7148
▁پێكەن	-10.7148
▁ماڵداری	-10.7149
▁دێیت	-10.7149
ەبەر	-10.7149
▁٣٢	-10.7149
▁نراو	-10.715
▁فایل	-10.715
▁سوێر	-10.715
▁سێهەم	-10.715
▁گرێبەست	-10.715
▁ولایەت	-10.7151
▁مۆم	-10.7151
▁بفڕ	-10.7151
▁نەدەزانی	-10.7152
ندو	-10.7153
▁بەرزکردنەوەی	-10.7154
▁مەودا	-10.7155
▁ڕەنگاو	-10.7155
▁ستایل	-10.7156
▁ساوا	-10.7156
▁مایکرۆ	-10.7157
▁ئایینی	-10.7157
▁بەنگلادیش	-10.7158
▁نایەت	-10.7158
▁دەیانویست	-10.716
▁هیوام	-10.7161
▁پێبکەم	-10.7161
▁پەروەردەیی	-10.7161
▁ڤۆ	-10.7162
▁کۆلێجە	-10.7164
▁برسی	-10.7164
▁کراوەتەوە	-10.7164
▁مەتر	-10.7165
▁تەماشاکە	-10.7165
▁براون	-10.7165
▁وەربگرن	-10.7167
▁بەریتانیا	-10.7167
▁کانساس	-10.7167
▁کارەساتەکان	-10.7168
ورك	-10.7168
▁مەترسیدار	-10.717
▁دەتانەوێت	-10.7171
▁تێگەشتن	-10.7171
▁ژینگ	-10.7172
▁فێربن	-10.7173
▁چومە	-10.7178
▁پاریس	-10.7178
▁بەخێوکراو	-10.7179
▁پڕۆژەکان	-10.7179
▁رشتێک	-10.718
▁ناڕەحەتی	-10.7183
▁پێبکەن	-10.7183
▁گەنجی	-10.7185
▁کارگەکان	-10.7189
▁کۆکردەوە	-10.7189
▁بلێ	-10.719
رۆس	-10.719
▁پیشەی	-10.719
▁گرنگیدان	-10.719
▁قژ	-10.7192
▁پەیمان	-10.7194
▁بچوکانە	-10.7195
▁بدوێم	-10.7197
پۆش	-10.7198
▁نسا	-10.7201
▁پەستان	-10.7201
▁فرانسیسکۆ	-10.7201
▁شارە	-10.7201
▁وێنەیەک	-10.7201
▁نەکردبوو	-10.7204
▁هەڵەیە	-10.7205
▁ڕۆشتین	-10.7206
▁ناگە	-10.7206
▁رووی	-10.7207
▁he	-10.7207
▁لەخۆوە	-10.7207
▁نەکردوە	-10.721
ڵێی	-10.721
▁ماوەیەدا	-10.7214
وێت	-10.7215
هیچ	-10.7216
▁هێنەر	-10.7217
▁کارگە	-10.7226
▁گوێز	-10.7226
▁ئوتێلەکە	-10.7226
▁جادوو	-10.7231
▁تێبگەن	-10.7235
▁تاقیگەکە	-10.7238
▁دادەنێت	-10.7239
▁ڕاستگۆیی	-10.7244
▁ماوس	-10.7244
▁بگەڕێیت	-10.7245
▁چاکەت	-10.7253
▁بژیم	-10.7261
▁کوێر	-10.7263
▁مندالان	-10.7265
▁گیانی	-10.7269
▁دڵە	-10.727
▁شکاندن	-10.727
▁وێنەم	-10.7271
اندن	-10.7272
▁داهێنەرانە	-10.7274
▁ببەم	-10.7274
▁دیموکراتی	-10.7279
▁کۆتاییەکەی	-10.7287
▁بروسکەک	-10.7289
یکۆ	-10.7295
▁کاتێك	-10.7296
▁بخوێنن	-10.7297
▁گەشتەکەی	-10.7303
▁ئەرکەکانی	-10.7312
▁سەروو	-10.7314
▁بێڵ	-10.7315
▁لمانە	-10.7321
▁دەژیان	-10.7324
▁هەمە	-10.7326
▁ڤایرۆسەکە	-10.7342
▁دەنێ	-10.7342
▁بەکتریایەک	-10.7344
▁باشترن	-10.7344
▁هاوڕێکانی	-10.7344
▁ژیانمدا	-10.7345
▁دۆلارێک	-10.7347
▁وترێت	-10.7352
▁بارودۆخێک	-10.7354
▁سەرف	-10.736
▁دڵخۆشم	-10.7362
▁لەوەدای	-10.7364
کاردەهێنن	-10.7364
وابێت	-10.7368
▁فێربوونی	-10.7369
▁نەب	-10.7386
▁دەربچ	-10.7393
▁دۆخەکە	-10.7411
▁نەخۆشەکان	-10.7415
▁دەناسن	-10.7415
▁ئیمە	-10.742
▁گەی	-10.742
▁تەکنەلۆجیایە	-10.7424
▁بەدڵ	-10.7431
▁پارەیەی	-10.7431
▁شێتانە	-10.7431
▁دەورە	-10.7436
▁گول	-10.7436
▁زانا	-10.7443
▁هەستەکانمان	-10.7443
▁بانکی	-10.7451
کانمان	-10.7457
▁پێکهێنا	-10.7458
▁توێژینەوەیەک	-10.7462
▁dib	-10.7463
▁گریان	-10.7471
▁فێربوو	-10.7472
▁یبینی	-10.7474
▁بەکاردەهێنا	-10.7474
▁مەشق	-10.7478
▁مانگە	-10.7482
▁پێدراو	-10.7502
▁گروپەکە	-10.751
▁پەیوەندییەکان	-10.7515
▁فل	-10.7522
ەکانماندا	-10.7523
▁لاب	-10.7524
▁قسەم	-10.7532
▁دراوه	-10.7533
▁چالاکە	-10.7535
▁خۆراکە	-10.7546
▁ماشێنەکە	-10.7547
▁تاقیکردنەوەیە	-10.7548
▁ئەنت	-10.7553
▁شووشەبەندەکە	-10.7553
▁بیرۆکەیەی	-10.7559
▁دەریایی	-10.7573
▁هەریەکە	-10.7575
▁باسەکە	-10.7587
▁مژ	-10.7599
دەتوانی	-10.7602
▁بارو	-10.7623
▁قەدەغەی	-10.763
▁دوانە	-10.7636
▁زانێت	-10.7637
▁وتەیەک	-10.7655
▁کرانەوە	-10.7656
▁لاس	-10.7665
▁ئاڵۆزە	-10.7667
▁دواین	-10.7671
▁شەکر	-10.7671
▁بب	-10.7674
▁بۆشاییەک	-10.7679
▁بارودۆخی	-10.7683
▁گیری	-10.7683
▁تیپ	-10.7689
▁پڕۆسەیە	-10.769
▁فڵ	-10.77
▁لاوازی	-10.7702
وات	-10.7705
▁سەریان	-10.7708
▁نجان	-10.7718
وتن	-10.7718
یرانی	-10.7719
▁بەکاردەهێنرێ	-10.7723
▁هەلە	-10.7729
ڵێیت	-10.7732
▁ئاژەڵەکان	-10.7734
▁یارییەکان	-10.774
▁لێکدان	-10.7741
▁هۆکارەکان	-10.7741
▁ناوەکەی	-10.7743
▁حاڵەتە	-10.7743
▁قسانە	-10.7745
▁کردوم	-10.7746
تریش	-10.7751
▁ڕەت	-10.7756
لوپ	-10.7759
ەکانیانەوە	-10.7759
▁دراوە	-10.776
▁دەزگای	-10.7772
▁قوتوی	-10.7774
▁ئامادەبوو	-10.7775
▁چەک	-10.7778
▁گۆران	-10.7778
▁چیرۆکەکان	-10.7796
▁نیشتمانی	-10.7801
▁دەکردن	-10.7804
▁شوێنەدا	-10.7814
▁ناساند	-10.7815
▁کنیکی	-10.7817
▁رەنگ	-10.7824
▁ڵاو	-10.7824
▁نوێن	-10.7825
پەر	-10.783
▁توێژینەوەی	-10.7832
▁دیوارەکان	-10.7839
kê	-10.7841
▁ناوێت	-10.7848
▁ناڵێ	-10.786
▁كو	-10.7862
▁ئامرازێک	-10.7863
▁نار	-10.7865
▁ڵگر	-10.7865
▁تیان	-10.7865
▁فێرکردنی	-10.7866
▁بڕوام	-10.7869
وێن	-10.7881
▁حەزدەکە	-10.7883
▁ناوبانگە	-10.7887
în	-10.7892
▁لەشمان	-10.7903
▁ڕاستەوە	-10.7906
▁ماسولکە	-10.7915
▁ژورەکە	-10.7918
▁هەستان	-10.7937
ونەتە	-10.7944
▁زیانی	-10.7946
▁ماڵەکەی	-10.7955
▁سمی	-10.796
▁جگەر	-10.7965
ەندا	-10.7977
کۆم	-10.7981
▁ڕۆشتنی	-10.7983
▁خۆتدا	-10.7997
▁ژێ	-10.8022
▁ستار	-10.8032
دەدەین	-10.8039
▁یاڵ	-10.8045
▁غی	-10.8051
▁ماسولکەکان	-10.8068
▁هەنگاوی	-10.8068
▁جولی	-10.8117
▁وریا	-10.8129
▁شوێنەکان	-10.813
▁پڕن	-10.8136
▁یارییەک	-10.8145
▁باوکێک	-10.8148
▁چاودێر	-10.8154
▁قوتو	-10.8166
▁ئەوانەش	-10.8172
▁پێبک	-10.8173
▁لامان	-10.8191
▁پلەیەک	-10.82
ۆرت	-10.8205
▁پرۆژەیە	-10.8205
▁دەترس	-10.8206
بين	-10.8207
▁بگەڕێ	-10.8214
ویەتی	-10.8223
▁دەرب	-10.8224
ێگ	-10.8233
▁گوڵێک	-10.8233
کۆر	-10.825
▁بەڵێن	-10.8253
▁درووستبوون	-10.8254
▁زر	-10.8254
▁قەدەغە	-10.8268
▁ڕۆژدا	-10.828
برۆ	-10.8286
وێنێ	-10.8292
▁هاوسەنگ	-10.8307
▁نزمی	-10.8308
▁قەدە	-10.8339
▁جاران	-10.8342
ستۆ	-10.8343
▁لایە	-10.8347
▁ئەستەمە	-10.8348
▁بۆتە	-10.8359
▁عەرەب	-10.8395
تز	-10.8406
▁دەوروبەر	-10.8408
▁توخمە	-10.8408
▁لوتکە	-10.8415
ییەی	-10.8417
خەیتە	-10.8427
▁کەسێ	-10.8442
▁دەیکەی	-10.8447
▁دایکیان	-10.8467
▁دەگونجێ	-10.8474
▁گوڵەکان	-10.8475
▁باسکردن	-10.8478
باش	-10.8481
▁شێوازەی	-10.8482
▁سەیرە	-10.8494
▁ئینج	-10.8519
سەلمێن	-10.8519
▁نەهێ	-10.8523
▁دەرگا	-10.8527
▁دەگەڕا	-10.8536
واز	-10.8539
▁هەوڵیان	-10.8543
ۆتەوە	-10.8548
▁خێزانە	-10.8555
▁چیمەن	-10.8558
▁زمانە	-10.8564
▁کران	-10.8584
▁ناواز	-10.8592
▁پڕۆگرامێک	-10.8593
▁باوکت	-10.8599
پرسی	-10.8607
دەبن	-10.8614
▁برادەران	-10.8619
▁دەق	-10.8619
ێمە	-10.8621
▁ئاهەنگی	-10.8635
▁دورگ	-10.8641
مڕۆدا	-10.8642
▁بروسکە	-10.8645
▁تێپەڕی	-10.8648
▁بەناوی	-10.8651
راون	-10.8652
بهێنم	-10.8657
ڕۆژ	-10.8657
▁٥٠٠٠	-10.8659
▁شوێنێکە	-10.8661
ئەمەش	-10.8665
بەند	-10.8671
▁تێبینیم	-10.8675
پۆل	-10.8676
▁ڕاستییەک	-10.868
▁ڕووەک	-10.8681
▁لێنا	-10.8682
▁نووسی	-10.8684
دەبێت	-10.8685
▁کێشاو	-10.8691
▁بژێر	-10.8694
پشت	-10.8695
ڕێی	-10.8701
▁مەرج	-10.8702
▁پرۆژ	-10.8704
▁تێر	-10.8707
دەبنەوە	-10.871
▁نوسینگە	-10.8716
▁کەمن	-10.8722
▁بەرهەمهێن	-10.8727
▁تێدەگە	-10.8731
▁تەقە	-10.8732
▁ئەندامان	-10.8732
▁یاریگای	-10.8734
▁پەتا	-10.8734
يك	-10.8736
▁دەستنیشان	-10.8737
▁گونجا	-10.8738
▁بکڕ	-10.8741
▁دیزاینەر	-10.8752
▁دەگەڕێم	-10.876
▁ستاف	-10.8765
▁بمێنێت	-10.8772
▁دەبەخش	-10.8774
▁دوانەی	-10.8782
▁بڵاوبون	-10.8789
▁بەڕێ	-10.8793
▁موچ	-10.8797
▁نابێ	-10.8797
گریت	-10.8798
▁گوندە	-10.88
یڤد	-10.8801
كات	-10.8802
▁دیجیتاڵی	-10.8807
▁کورتە	-10.8807
▁کلیل	-10.8809
▁قووڵ	-10.8809
▁سنوور	-10.8811
▁ڤای	-10.8812
▁کالیفۆ	-10.8812
▁zimanê	-10.8812
▁بیفرۆش	-10.8812
▁بەرەنگار	-10.8812
▁درەنگ	-10.8812
▁دژواری	-10.8812
▁راستەقینە	-10.8812
▁رەگەز	-10.8812
▁سویسرا	-10.8812
▁سەربەخۆ	-10.8812
▁قاهیره	-10.8812
▁قەناعەت	-10.8812
▁مەیمون	-10.8812
▁نثانیا	-10.8812
▁هارڤارد	-10.8812
▁هەڵدەگرن	-10.8812
▁وەنەوشەی	-10.8812
▁پلاستیک	-10.8812
▁کەشوهەوا	-10.8812
▁گلوکۆز	-10.8812
▁ڵواسین	-10.8812
▁نەناسراو	-10.8812
▁پیتێنەر	-10.8812
▁ڕیکۆرد	-10.8812
▁کۆبوونەوەکە	-10.8812
▁خۆرئاوا	-10.8812
▁چاوەروان	-10.8812
▁ڕوبەڕوی	-10.8812
▁باپیرم	-10.8812
▁خۆشدەوێت	-10.8812
▁لێکۆڵەرەوە	-10.8812
▁گێزەر	-10.8812
▁ترسێنەر	-10.8812
▁دڵنییای	-10.8812
▁میزۆری	-10.8812
▁چاکسازی	-10.8812
▁ئەفسانەی	-10.8812
ندرسۆن	-10.8812
▁ئایکۆن	-10.8812
▁بخۆیت	-10.8812
▁تووڕە	-10.8812
▁ئایسل	-10.8812
▁پێکهێنەر	-10.8812
▁بەخشندە	-10.8812
▁لکاو	-10.8812
▁بگۆڕن	-10.8812
▁فلۆو	-10.8812
▁بژاردوو	-10.8812
▁خۆشگوزەرانی	-10.8812
▁فرۆشیار	-10.8812
▁کیلۆ	-10.8812
▁رووەکخۆر	-10.8812
▁دەڕوان	-10.8812
▁فڕیو	-10.8812
▁درێژخایەن	-10.8812
▁دابنیش	-10.8812
▁خایەن	-10.8812
▁ڕاپۆڕت	-10.8812
وره	-10.8812
▁هاوسەرگیری	-10.8812
▁نۆرمان	-10.8812
▁بەسوود	-10.8812
▁یابان	-10.8812
▁پاتری	-10.8812
▁پاڵنەر	-10.8813
دۆزەرەوە	-10.8813
▁ويست	-10.8813
▁هەڵگیرا	-10.8813
▁بناسن	-10.8813
بگیرێت	-10.8813
▁تەوالێت	-10.8813
▁بلۆک	-10.8813
▁هەور	-10.8813
▁کۆستاریکا	-10.8813
▁رێکخراو	-10.8813
▁ڕاپرسی	-10.8814
▁دۆستی	-10.8814
▁پەیڕەو	-10.8814
▁تێچوون	-10.8814
▁نهۆم	-10.8814
▁بەربڵاوە	-10.8814
▁بهێڵم	-10.8814
▁مەیدان	-10.8814
▁شیواز	-10.8814
▁خۆبەخش	-10.8814
▁بەهەڵ	-10.8814
▁کلک	-10.8814
▁ڕیشاڵ	-10.8814
▁سوید	-10.8815
▁وەردەگرێت	-10.8815
▁بەستراوە	-10.8815
▁گوزەرانی	-10.8815
▁تایمز	-10.8815
▁نەوتییەکان	-10.8815
▁بێدەنگ	-10.8815
min	-10.8815
▁خولیای	-10.8816
im	-10.8816
▁شلەکە	-10.8816
▁فلیم	-10.8816
▁دانیشتبوو	-10.8817
▁كۆتا	-10.8817
▁هەول	-10.8817
▁ئەستۆ	-10.8817
▁کارامەیی	-10.8818
▁ڕوسیا	-10.8818
▁ژەمە	-10.8818
▁ڕێسا	-10.8819
▁دەرونی	-10.8819
▁ڕووبار	-10.8819
▁وەستاو	-10.8819
ڤاڵ	-10.882
▁٢٠٠٨	-10.882
▁ماددە	-10.882
▁پەنجەرەکان	-10.882
▁نێردراو	-10.8821
▁بکڕێت	-10.8821
▁دەیدەی	-10.8821
▁گرژ	-10.8822
▁ناگرن	-10.8822
▁گۆیر	-10.8822
▁هەرشتێک	-10.8823
▁دادو	-10.8823
▁کێشراوە	-10.8824
▁هەستانە	-10.8824
▁نەیتوانی	-10.8825
▁هاوای	-10.8827
▁دەیبینیت	-10.8827
▁باوەر	-10.8828
▁پێدەدات	-10.8828
▁ژوان	-10.8829
▁جەخت	-10.8829
▁بەتاڵ	-10.8829
رکاتێک	-10.883
▁هەنگوین	-10.8832
▁دێین	-10.8832
▁نیمچ	-10.8832
▁پێدەکەین	-10.8832
▁جیاوازیان	-10.8832
▁بێمانا	-10.8834
▁بروا	-10.8835
▁بەفر	-10.8836
▁بارودۆخەکە	-10.8836
▁دەچێ	-10.8839
▁بالێ	-10.884
▁توشبوو	-10.8841
▁بایۆت	-10.8842
▁پێنجەم	-10.8842
▁نێرینە	-10.8843
▁پێبکەین	-10.8843
▁نازانێت	-10.8845
لاوە	-10.8846
▁کەنەدا	-10.8849
▁مشک	-10.885
▁ئیسپانیا	-10.8852
▁فەرماندە	-10.8854
▁داهێنراو	-10.8854
▁پێدەکەن	-10.8854
▁بیبینین	-10.8856
▁پرسیارکردن	-10.8858
▁پێکەنیناوی	-10.8859
هێنرێن	-10.886
▁خال	-10.8861
▁دەدرا	-10.8861
▁دەچو	-10.8863
▁ئاباد	-10.8863
▁دیپ	-10.8864
▁کسان	-10.8865
▁دەمرێت	-10.8866
▁دۆزیەوە	-10.8869
▁لەناوبردنی	-10.8871
▁هەڵدەستێ	-10.8872
▁ڕوویداوە	-10.8877
iyan	-10.888
▁بکردایە	-10.8882
▁گرینگە	-10.8883
▁جوڵاندن	-10.8885
▁توشبون	-10.8885
▁هێنام	-10.8886
▁پڕبوو	-10.8886
▁دەستنیشانکردن	-10.8887
▁نادەین	-10.8889
▁گونجێن	-10.8889
▁بیناکە	-10.8891
▁شاراوە	-10.8892
▁وەڵامە	-10.8893
شرین	-10.8893
▁تێدەگەن	-10.8893
▁وەرز	-10.8894
دەدات	-10.8895
▁نرخەکان	-10.8895
▁تاقیکردنەوەکە	-10.8897
▁g	-10.8898
▁ئەکەین	-10.8898
▁بێژ	-10.8901
▁یبینین	-10.8904
▁گەیشتین	-10.8906
▁چوارچێوە	-10.8909
▁باخ	-10.8909
▁قەبارەکە	-10.891
▁دورین	-10.891
▁کۆمەڵگەیە	-10.891
▁بریکار	-10.8911
▁لەشدا	-10.8912
▁شیوەیەک	-10.8914
گرن	-10.8916
▁بڕوانامەی	-10.8921
▁شاش	-10.8927
▁خواردوو	-10.8928
کراون	-10.8929
یبینن	-10.8931
▁یشتم	-10.8932
▁ڕاوکردن	-10.8933
▁کێوی	-10.8933
▁مرن	-10.8936
▁مۆڵ	-10.8936
▁زانیارییانە	-10.8941
▁سەرچاوەکان	-10.8942
▁لێزانی	-10.8945
▁هاتۆت	-10.8948
نەکراو	-10.895
▁ئاسایدا	-10.8951
▁بیب	-10.8953
▁روون	-10.8954
▁یارمەتیدەری	-10.896
▁دوجا	-10.8962
▁بجوڵێن	-10.8969
▁شەوان	-10.8972
راوی	-10.8976
▁کاردان	-10.8977
▁چیرۆکان	-10.898
▁ڵێین	-10.8981
▁نیت	-10.8983
▁ئاهەنگەکە	-10.8984
▁مێزەکە	-10.8984
▁ئاوێن	-10.899
▁دراون	-10.8991
▁ژیانتدا	-10.8992
▁هێزە	-10.8993
▁رێم	-10.8996
▁بەستوو	-10.8998
▁مۆز	-10.8999
▁دیزاینەرەکان	-10.9001
▁بوونەوەی	-10.9002
▁شیکار	-10.9006
▁پێیەتی	-10.9006
▁کۆلێجی	-10.9008
▁ئامانجەکان	-10.901
▁بەخشین	-10.9012
سێن	-10.9017
▁لێنان	-10.9017
▁یاسایەک	-10.9029
▁پارەم	-10.9029
خەنە	-10.9031
▁تایم	-10.9031
▁دوورەکان	-10.9031
▁گەورەبوو	-10.9033
▁نەتەوەیی	-10.9035
▁ناچن	-10.9036
▁شێر	-10.9039
▁بەخشە	-10.904
▁دەپارێز	-10.9045
▁bik	-10.9046
▁پەین	-10.9049
▁مویان	-10.9051
▁هاتوە	-10.9051
بەستم	-10.9053
▁ژورەوە	-10.9075
▁دۆزرا	-10.9082
یبینیت	-10.9082
وود	-10.9082
بڕن	-10.9088
▁لەسەروو	-10.909
▁برادەرانە	-10.9091
▁پێشەنگی	-10.91
اڵە	-10.9103
رەو	-10.9111
▁مارت	-10.9114
▁تازەیە	-10.9115
دیا	-10.9119
▁بچێتە	-10.9129
▁وانیش	-10.9137
▁کەلەو	-10.9137
▁شیکردنەوەی	-10.9151
▁کەشتی	-10.9151
▁نموونەیە	-10.9151
تاین	-10.9168
▁توخمانە	-10.9168
ێنراو	-10.9169
▁داون	-10.918
▁نەبیست	-10.9186
▁ئەرکەکە	-10.9189
▁ستراو	-10.9194
▁جێگا	-10.9199
▁پێشکەشکردن	-10.9205
ئەوە	-10.9208
ەمووت	-10.9212
▁باوکەکان	-10.9213
▁ملیا	-10.9216
پۆ	-10.9216
بۆوە	-10.922
▁قوتابخانەیەک	-10.9222
▁قەد	-10.9228
▁هیوایە	-10.923
بێرگ	-10.9235
▁بخەیت	-10.9239
اییەوە	-10.925
گونجێت	-10.9261
▁بەرگە	-10.9261
▁ئید	-10.9261
بەم	-10.9264
▁وتراو	-10.9269
▁هێر	-10.9274
▁پرسیارانە	-10.9276
▁وابێت	-10.928
▁منداڵەکەت	-10.9291
▁تازەکان	-10.9301
▁جیاوازان	-10.9303
▁کاتیک	-10.9309
کارە	-10.9311
▁ووڵاتە	-10.9326
فت	-10.9326
▁دەوێ	-10.9326
▁کاریگەرە	-10.9329
بنێی	-10.9329
▁ئەمریکادا	-10.9331
▁مڕۆدا	-10.9331
▁دامەزراوەیەک	-10.9347
▁هێنراو	-10.936
▁واژ	-10.9367
▁كێ	-10.9373
▁کتری	-10.9383
▁لێکۆڵینەوەیە	-10.9391
▁ناخی	-10.9408
▁پیرۆزی	-10.9409
▁تەختەی	-10.9414
▁لادێیەک	-10.9414
▁تون	-10.9418
▁ڕاین	-10.944
▁کەمە	-10.9449
▁پاشماوە	-10.9456
▁سەرەتایەک	-10.9461
▁سۆ	-10.9465
سڕێت	-10.9466
▁خولەکێک	-10.9471
وروب	-10.9472
▁دەیکە	-10.9476
▁رونی	-10.9477
بکەم	-10.9478
نیشین	-10.9508
▁هاوتای	-10.9508
▁دەستکرد	-10.9512
سار	-10.9521
▁کرام	-10.9522
▁٠	-10.9527
▁دەکرێتەوە	-10.9535
▁بەخێوکردنەک	-10.9536
▁کۆیان	-10.9542
▁ئەزمون	-10.9549
بەز	-10.9554
▁مایه	-10.9556
▁جوڵانە	-10.9566
▁ناوچانە	-10.9569
▁جیاوازدا	-10.9581
▁هێمایان	-10.9598
▁دەیگو	-10.9602
▁منداڵەکانیش	-10.9604
▁٤٥	-10.9607
▁ناخۆشە	-10.9609
▁داهێنانێک	-10.961
▁هەستا	-10.961
وێند	-10.9613
ەستی	-10.9613
▁گێڕ	-10.9617
موو	-10.9619
ێنێتەوە	-10.9636
▁شەپۆلی	-10.9659
▁کتێبانە	-10.9673
▁خۆتت	-10.9677
٣٠	-10.9686
▁مانگا	-10.9695
فن	-10.9723
▁وەرەمەک	-10.9724
▁توو	-10.9733
▁پڕۆگرامەکە	-10.9743
▁دەدۆز	-10.9744
▁کاریگەریەک	-10.9756
▁مەن	-10.9759
خۆم	-10.9765
▁باسک	-10.9768
▁جوانتر	-10.9768
▁نەخشەیەک	-10.9774
نچ	-10.9774
▁بچوکانەی	-10.979
▁زەوییە	-10.9793
▁دۆزی	-10.9796
▁بونت	-10.9815
٥٠	-10.9827
▁کارهێن	-10.984
گرتوه	-10.9873
کۆل	-10.9874
▁چاکە	-10.9892
▁بەستنی	-10.9907
▁لێدەکەن	-10.9913
▁خوێندنگەیەک	-10.9922
▁هەستیاری	-10.9924
▁دیوارێک	-10.9929
▁ئاوەکە	-10.9936
▁کۆکرد	-10.9939
▁کوا	-10.9946
▁باڵا	-10.9962
وردتر	-10.9966
▁هەژارەکان	-10.9971
▁ئەمڕۆدا	-10.9974
▁خۆمانەوە	-10.9995
▁تازەیان	-10.9998
▁نیشتمان	-11.0021
▁بناغ	-11.0022
▁هاوتا	-11.0059
▁ژینگەیەک	-11.0064
▁e	-11.0069
▁ناوەڕاست	-11.0072
▁بڕیارە	-11.0103
بەخش	-11.012
▁دڵم	-11.0124
▁وێڵ	-11.0128
▁بەتایبەت	-11.0133
▁دۆخە	-11.0134
▁مانایەک	-11.0143
▁گرنگن	-11.0157
▁چالاکییەک	-11.0161
تار	-11.0167
▁بەداخ	-11.0171
▁رێگە	-11.018
▁ئیشم	-11.018
کارەکان	-11.0194
هێنا	-11.0195
▁هەوڵبدە	-11.0205
▁داخست	-11.0213
▁٢٣	-11.0217
وترێت	-11.0219
▁کۆمەڵایەتییە	-11.0226
ڵس	-11.0249
▁ئەنجاممان	-11.0255
ڕوونی	-11.0259
خانە	-11.0274
ویانە	-11.0275
خەمە	-11.0278
▁چوونە	-11.0281
▁قسەیە	-11.0307
▁هێنرا	-11.0331
▁ڕاوک	-11.0337
▁تەکنیکی	-11.0342
▁بارە	-11.0345
▁ماڵپەڕ	-11.0351
▁دانراوە	-11.0352
▁بخوێن	-11.0352
▁ڕاکێشا	-11.0353
▁خستن	-11.0358
▁شارەزاییەک	-11.0376
▁هەشتا	-11.0378
شکا	-11.0393
▁ئەسڵ	-11.0395
اندەوە	-11.0399
▁هۆکارەکەی	-11.0424
▁دیو	-11.0427
▁نیوێک	-11.043
هاتن	-11.0434
▁ناڕێک	-11.0471
▁چنراو	-11.0482
بژێریت	-11.0496
▁وێنەگر	-11.0518
ەح	-11.052
▁دەردە	-11.0524
▁تەکنەلۆژی	-11.0526
▁هەند	-11.0531
▁چالاکییە	-11.0539
▁ڕێگەیان	-11.055
▁ڤیدیۆک	-11.0553
ۆرک	-11.0553
اکانی	-11.0556
▁جۆی	-11.057
▁خستو	-11.0572
▁هەژارنشین	-11.0573
▁ووتم	-11.0578
خست	-11.058
بگرین	-11.0587
▁لیستێک	-11.0589
▁پەیوەندیەکان	-11.0593
▁ئالۆز	-11.0595
▁١٩	-11.0599
▁بەستووە	-11.0604
▁باڵند	-11.0615
▁دەستپێ	-11.0619
▁رکرد	-11.0636
▁مانچ	-11.0639
yê	-11.064
گوزاری	-11.0648
2	-11.0651
هەندێ	-11.0652
▁ببور	-11.0658
ناکرێت	-11.0661
ملیۆن	-11.0661
نێوان	-11.0661
کێک	-11.0661
▁کۆمەڵگەکان	-11.0662
بڵاو	-11.0662
ئێستا	-11.0663
خەڵک	-11.0663
▁گەیاند	-11.0666
بس	-11.0667
شوێن	-11.0669
کارێکی	-11.0673
راورد	-11.0674
قات	-11.0678
▁بڕوانام	-11.0681
▁ڕیش	-11.0685
▁دروستکراوە	-11.0689
ساز	-11.069
▁نەکراوە	-11.0694
▁شکاند	-11.0698
بەرەو	-11.0702
لەوانەیە	-11.0705
▁جوو	-11.0714
▁بنبڕ	-11.0714
▁دەرمانەکان	-11.072
ڵێن	-11.0721
▁نەوەک	-11.0723
▁تەکس	-11.0725
▁هەنگەوان	-11.0728
ئاو	-11.073
ڕۆک	-11.0736
▁جەستەم	-11.0742
ببین	-11.0744
▁درۆ	-11.0747
▁چێشتخانەی	-11.076
▁بدۆزین	-11.0762
▁ئیسپانی	-11.0763
▁بدوێ	-11.0768
ماڵەوە	-11.0771
▁دەرچو	-11.0778
▁مەترسیدارە	-11.0782
بژارد	-11.079
▁دەگرین	-11.0797
▁ئەنداز	-11.0798
▁ئەدەبی	-11.08
▁لاسایی	-11.0801
استەوخۆ	-11.0805
▁دەخولێ	-11.0807
لاس	-11.081
▁فلۆر	-11.0811
اخۆ	-11.0811
ye	-11.0811
▁تێناگ	-11.0811
▁بەستراون	-11.0811
wendekar	-11.0812
tir	-11.0812
▁ئادەمیزاد	-11.0812
▁ئوتومبیل	-11.0812
▁ئەژنۆ	-11.0812
▁بفرۆشم	-11.0812
▁بلیمەت	-11.0812
▁بکێشم	-11.0812
▁داڤینشی	-11.0812
▁دەرئەنجام	-11.0812
▁سبەینێ	-11.0812
▁سیرالیۆن	-11.0812
▁فۆتۆگراف	-11.0812
▁فەرامۆش	-11.0812
▁قالۆنچەکە	-11.0812
▁لەشفرۆش	-11.0812
▁ناجێگیر	-11.0812
▁ناحکومی	-11.0812
▁هیمالایا	-11.0812
▁هەژمار	-11.0812
▁پڕۆزاک	-11.0812
▁پێويست	-11.0812
▁چێشتلێنەر	-11.0812
▁ڕەچاو	-11.0812
▁ڤاساری	-11.0812
▁کوالیتی	-11.0812
▁کۆنسێرت	-11.0812
▁گفتووگۆ	-11.0812
▁گەورانە	-11.0812
▁ئۆفیس	-11.0812
▁تراژیدیا	-11.0812
▁تەلەفیزیۆن	-11.0812
▁جالاکیەک	-11.0812
▁حەوانەوە	-11.0812
▁درەخت	-11.0812
▁دڵۆپە	-11.0812
▁دەهێڵین	-11.0812
▁سوڕهێنەر	-11.0812
▁ماندوبون	-11.0812
▁مایکرۆمیتەرەکان	-11.0812
▁مۆزارت	-11.0812
▁هەڵوەشێنەر	-11.0812
▁وێستگەی	-11.0812
▁پەرەشوت	-11.0812
▁پەرەپێدان	-11.0812
▁ڕەفتار	-11.0812
▁کالیفۆرنیا	-11.0812
▁دەگوزەر	-11.0812
▁سیفەت	-11.0812
▁چیرۆك	-11.0812
▁کۆدەکەینەوە	-11.0812
▁گونجاندن	-11.0812
▁سەمەرە	-11.0812
▁هاوڵاتی	-11.0812
▁تێکشکاندن	-11.0812
▁جرج	-11.0812
▁خوێندەوار	-11.0812
▁دەجوڵێن	-11.0812
▁پێکدەهێن	-11.0812
▁پەرۆش	-11.0812
pey	-11.0812
▁لاپەڕەی	-11.0812
▁بەخەبەر	-11.0812
▁جلوبەرگ	-11.0812
▁بگەیەنن	-11.0812
▁جوگرافی	-11.0812
▁فۆڕم	-11.0812
▁گەشەسێنەکان	-11.0812
▁بورست	-11.0812
▁دەنێرن	-11.0812
▁ساخت	-11.0812
▁قایشەکان	-11.0812
▁توێکڵ	-11.0812
▁عەرز	-11.0812
▁دەبەستێت	-11.0812
▁سەردێڕ	-11.0812
▁ژیرانە	-11.0812
▁بگۆڕم	-11.0812
▁وەبەرهێنان	-11.0812
▁نمایش	-11.0812
▁بزانە	-11.0812
▁لەندەن	-11.0812
▁کەڵەکەبو	-11.0812
▁رگرتووه	-11.0812
▁ماندوو	-11.0812
امبیا	-11.0812
ڵتۆن	-11.0812
▁ئەمەریکی	-11.0812
▁بەجێهێشت	-11.0812
▁دەشتوان	-11.0812
▁کامپەین	-11.0812
▁ڕابەری	-11.0812
▁هۆكار	-11.0813
▁ژێرخان	-11.0813
▁فڕۆکەخانە	-11.0813
▁ببیست	-11.0813
▁ڕێچک	-11.0813
▁هاریکاریکردن	-11.0813
▁وەردەگرین	-11.0813
▁خیانەت	-11.0813
هیتلەر	-11.0813
▁شیردەر	-11.0813
▁گشتگیر	-11.0813
▁باوانیان	-11.0813
▁لەخەو	-11.0813
▁دابەزاند	-11.0814
▁بهێڵیت	-11.0814
▁خۆرهەڵات	-11.0814
▁بەفیڕۆدان	-11.0814
▁وەسف	-11.0814
▁ببەخش	-11.0814
▁لاوێتی	-11.0814
▁قەڵەو	-11.0814
▁داپۆشی	-11.0814
▁دەفرۆشێت	-11.0814
▁ڕووانگە	-11.0814
▁ئینتێر	-11.0815
▁نەکردبۆوە	-11.0815
▁تێبگات	-11.0815
▁وردەکاری	-11.0815
▁din	-11.0815
▁دەخوازم	-11.0815
▁گرتۆتە	-11.0815
▁خەمۆک	-11.0815
▁ئیشارەت	-11.0815
▁بکێشن	-11.0816
▁ڕەوشت	-11.0816
▁عوب	-11.0816
▁ژەهر	-11.0816
▁کرستی	-11.0816
▁ڕەشبین	-11.0816
▁دەنیش	-11.0816
▁وەربگرێت	-11.0817
▁لەژیانی	-11.0817
▁٩٥	-11.0817
▁وەلام	-11.0817
▁پۆلۆک	-11.0817
▁ئیمزا	-11.0818
▁پانزە	-11.0818
▁ناکەیت	-11.0818
▁گارد	-11.0818
▁ڵگای	-11.0818
▁تەقی	-11.0818
▁ئارادایە	-11.0819
▁دەکوژێت	-11.0819
▁مەبە	-11.0819
▁پێناو	-11.0819
▁بەکارهێنانەوەی	-11.0819
▁٨٦	-11.0819
▁نیکۆل	-11.0819
▁مادەیەش	-11.082
▁هاوڕێکەم	-11.082
▁میترا	-11.082
▁بوویتایە	-11.082
▁شتانێک	-11.082
▁٧٧	-11.082
▁هەینی	-11.0821
▁فرمانی	-11.0821
▁هاوڕی	-11.0821
▁سزا	-11.0822
▁دامەزرێنەر	-11.0822
▁دەنگدانەوەی	-11.0822
▁باپیرە	-11.0822
▁کۆمەڵێ	-11.0822
تیڤ	-11.0822
▁هاوڕێیەتی	-11.0822
▁تەنگ	-11.0822
▁سکای	-11.0822
▁دارایی	-11.0823
▁دامەزراوەکە	-11.0823
▁بنکەکە	-11.0823
▁دەردەچێت	-11.0823
▁بەربەست	-11.0823
▁ئەچێت	-11.0823
▁بەرزکەرەوە	-11.0824
▁زیندویی	-11.0824
▁دابەزیوە	-11.0825
▁بازاڕێک	-11.0825
▁دەربچیت	-11.0825
▁دونیا	-11.0827
▁لێدەدات	-11.0827
▁ڕوانگ	-11.0827
والێت	-11.0827
▁خەبەر	-11.0828
▁مفرۆشت	-11.0828
▁بزانی	-11.0829
▁شاد	-11.0829
▁تانزانی	-11.0829
بنب	-11.083
▁بپارێزین	-11.083
▁جێگرەوەیەک	-11.0831
▁فێرخواز	-11.0831
▁بد	-11.0831
▁موچاو	-11.0831
▁سستی	-11.0832
▁تێکشکا	-11.0832
▁زیندانی	-11.0832
▁هەناسەدان	-11.0833
▁کۆمەڵگاکەمان	-11.0833
▁دانابوو	-11.0834
▁ڕووناکیەک	-11.0836
▁پێشچون	-11.0836
▁قالۆنچەیە	-11.0836
▁رنێت	-11.0837
▁تێستەکەدا	-11.0837
▁پەیوەندیدار	-11.0837
▁کرێکار	-11.0839
▁چەق	-11.0839
▁ناونراو	-11.0839
▁شوێنێك	-11.0839
▁گەرای	-11.084
▁بازاڕکردن	-11.084
▁مامناوەند	-11.0841
▁کۆماری	-11.0843
▁دایڤد	-11.0845
▁سیدی	-11.0846
▁جیاوازیەک	-11.0847
▁دامێ	-11.0849
▁دەخۆیت	-11.0851
▁زۆربەتان	-11.0852
▁لێهات	-11.0853
▁دەخواردەوە	-11.0854
▁پێشانگاکە	-11.0855
▁ڵگرتن	-11.0856
▁ڕۆژێك	-11.0856
▁سامو	-11.0857
▁نێرێت	-11.0859
▁قوڵە	-11.0859
▁بڵاوبونەوەی	-11.0861
▁پەنجەکان	-11.0863
▁کامێراکە	-11.0863
▁بەشێوەی	-11.0866
▁خاکەکە	-11.0868
▁نەکەن	-11.0868
▁موچەی	-11.0868
▁بوەستێت	-11.0869
▁خۆڕایی	-11.0869
▁لێکۆڵ	-11.0869
▁ژینگەیی	-11.087
▁چاویلکەی	-11.0872
▁بیزانی	-11.0873
▁چاوەکانت	-11.0873
▁خشڵ	-11.0874
▁نرخەکەی	-11.0874
▁گرام	-11.0878
▁وشکانی	-11.088
▁پزیشکییەکان	-11.0883
▁ووشە	-11.0886
▁نانۆ	-11.0886
▁ڕاستەقینەکان	-11.0886
▁کارلێک	-11.0886
▁ڕاهاتن	-11.0887
▁چێشتخانەکە	-11.0888
▁لادێکە	-11.0888
بەرهەم	-11.089
▁دەفر	-11.0892
▁پشیلە	-11.0894
▁پراکتیکی	-11.0894
▁باڤ	-11.09
▁بازار	-11.09
▁رگای	-11.0902
▁ساید	-11.0904
▁دەبەستنەوە	-11.0904
▁هاتوه	-11.0905
▁بداتێ	-11.0906
▁گەلێک	-11.0907
یۆم	-11.0907
▁بکڕن	-11.0913
▁داگیر	-11.0913
▁کۆمەکی	-11.0916
▁ئینت	-11.0916
▁ندێك	-11.0917
▁کۆمپانیاکە	-11.0918
▁کامپ	-11.092
▁دەکەوین	-11.092
▁ڕوداوەکە	-11.092
▁ناڵێن	-11.0921
▁سێبەر	-11.0922
▁دەرخەر	-11.0923
▁جێگەیەک	-11.0925
▁سادەکە	-11.0928
▁گوازرا	-11.0929
▁تاقیگەکان	-11.093
▁شکان	-11.0931
▁بدەنێ	-11.0934
▁کتێبەکەم	-11.0934
▁زیادبوون	-11.0936
کراونەتەوە	-11.0942
▁لەرینەوەی	-11.0943
▁لەوێدایە	-11.0943
▁گیانیدا	-11.0944
▁بایۆلۆجیمان	-11.0944
▁لێکۆڵینەوەکە	-11.0946
▁بگەڕێنەوە	-11.0947
▁سوار	-11.0949
▁کاڵ	-11.0958
▁بیستووە	-11.0959
▁توشبوون	-11.0959
▁کەرەستەکان	-11.0961
▁مێروو	-11.0963
▁کۆمەڵایەتییەکان	-11.0967
▁ببورە	-11.0968
▁کیمیاییانە	-11.0968
▁ژیاو	-11.0972
▁کێیت	-11.0973
▁هەفتەیەکدا	-11.0976
گڵ	-11.0979
▁دەرخستن	-11.0981
▁ڕاستیەک	-11.0983
▁مێش	-11.0988
▁هاوڕێکانیان	-11.0989
▁مادانە	-11.0989
▁جێبەجێکردن	-11.099
▁کەرەستەی	-11.099
▁کۆمەڵگەکە	-11.099
▁زەردە	-11.0991
▁بنچینەکان	-11.0993
▁فار	-11.0999
▁ڕوناکییە	-11.1
▁خۆشحاڵم	-11.1002
▁زانیارییەک	-11.1004
▁تایبەتیەکان	-11.1005
▁نیگەرانی	-11.1006
▁کاریگەرییەکی	-11.1009
▁خۆس	-11.1009
▁جیاوازەکاندا	-11.101
▁ئەبین	-11.1015
▁ناوازە	-11.1016
▁سەرسوڕهێنەرانە	-11.1019
▁درابوو	-11.102
▁ماشاک	-11.1022
▁باوانم	-11.1022
▁گوڵە	-11.1024
▁گرتوە	-11.1024
▁سەگەکە	-11.1025
▁ئاوار	-11.1032
▁پڕکردنەوە	-11.1033
▁ڕابکێش	-11.1036
وابوو	-11.1042
▁خوێندنگەکان	-11.1045
کێت	-11.1045
▁مێژوودا	-11.1046
▁هێنم	-11.1047
▁ووردن	-11.1049
▁دەکران	-11.1053
▁دەگۆڕێ	-11.1053
رمای	-11.1056
▁دیوارەکە	-11.1059
یڤەرساید	-11.1059
▁کەلتوری	-11.106
▁ووش	-11.106
▁کیمیاییەکان	-11.1066
▁نوسینگەکە	-11.1067
▁بەكار	-11.107
▁دانەیان	-11.107
▁کاف	-11.1072
▁ستیار	-11.1073
▁ئومێد	-11.1074
▁جیناتەکان	-11.1074
▁کونە	-11.1074
▁نەبن	-11.1079
▁جوڵەیەک	-11.1079
▁دیزان	-11.1084
▁کەوتوە	-11.1097
▁ستوونە	-11.1098
▁مرۆڤایەتیدا	-11.11
▁جیاوازتر	-11.1105
▁ئارەزویەک	-11.1115
▁وەردەگ	-11.1119
▁شێتان	-11.1123
▁نیشانەکان	-11.1133
▁کۆمەڵگایەک	-11.1138
▁سەرنجڕاکێشن	-11.1139
▁هانیان	-11.115
▁چنراوەکان	-11.1156
▁یاریەک	-11.1159
نوسی	-11.1159
▁دەبوم	-11.1161
▁دەمارەکانی	-11.1161
▁نیشانەکانی	-11.1167
نجوم	-11.1174
▁تایبەتمەندی	-11.1177
▁لاوە	-11.1178
▁پزیشکێک	-11.1183
▁بەهایەک	-11.1184
▁کچەکەم	-11.1185
بگرێت	-11.1193
▁خزمەتکردن	-11.1204
▁دۆخدا	-11.1207
▁کۆرسێک	-11.1214
▁سوتا	-11.1216
▁گۆڕانێک	-11.1229
▁ئۆگ	-11.1231
▁ئیشانەی	-11.1232
▁دورە	-11.1237
▁قا	-11.1238
▁ئازارت	-11.1238
▁نتی	-11.1239
▁کۆک	-11.124
▁گێر	-11.1247
▁ئەسڵیەک	-11.1247
▁ڕاگەیاندن	-11.1255
▁نەبون	-11.1262
▁ڕێگر	-11.1268
رێین	-11.1271
▁چارل	-11.1271
▁گەرما	-11.1282
ەردا	-11.1285
▁گەیشتم	-11.1286
▁پێشکەوتوو	-11.1287
▁یکات	-11.1287
▁هێڵێت	-11.1288
▁بەبیر	-11.129
▁کتێبەکە	-11.1293
▁راستە	-11.1294
▁کەوتبوو	-11.1301
▁ماڵپەڕێک	-11.1302
▁شای	-11.1307
▁ئاوازێک	-11.1323
▁مایکرۆسکۆبێک	-11.1323
▁وەڵامێک	-11.1326
▁مۆت	-11.1338
نەخۆشخانەکە	-11.1339
▁ڕۆژانەیان	-11.1341
▁کڕیارەکان	-11.1343
دۆزێتەوە	-11.1346
▁چوومە	-11.1359
▁تێچو	-11.1361
▁بەکارهاتو	-11.1363
جین	-11.1373
▁چینێک	-11.1375
▁وەڵامەکان	-11.1385
▁دابەشکردن	-11.1403
▁لەدەستدا	-11.1407
▁دیمەنێک	-11.1409
▁هەڵبژاردنێک	-11.1411
▁کاغەزێک	-11.1413
▁دەدەنەوە	-11.1418
▁کوشنێک	-11.1418
▁وەستاند	-11.1422
▁گرین	-11.143
▁گۆڤارێک	-11.1454
▁هەوڵبدەی	-11.1457
▁فڕۆکەیەک	-11.1473
▁کتێبخان	-11.1478
▁پۆستە	-11.148
▁خێرایە	-11.1482
▁تۆوه	-11.1483
دابن	-11.1489
ەنجە	-11.1508
اوێژکاری	-11.1528
▁لێرەش	-11.1537
▁کراودا	-11.1568
▁وابو	-11.1571
▁رزکرد	-11.1574
▁١٩٤	-11.1587
▁دەخەین	-11.1588
مانگ	-11.1594
▁لەمەیان	-11.1599
▁بەختەوەر	-11.1602
پێدە	-11.1604
▁گفتوگۆیەک	-11.1605
▁وشەیەک	-11.1606
▁مامۆستایەک	-11.1616
▁کوشند	-11.1623
▁شارەزاییەکان	-11.1624
▁ساند	-11.1624
▁خەلکی	-11.1654
▁گرووپی	-11.1654
▁سێب	-11.166
▁زانیمان	-11.1682
کرمی	-11.1689
▁مندالە	-11.1696
▁دەریاکە	-11.1699
ڵمدا	-11.1716
٥٦	-11.1734
▁سکان	-11.1734
پڵ	-11.1743
انگ	-11.1748
▁دکتۆرەکان	-11.175
▁لیس	-11.176
▁بژیت	-11.176
▁هاوڕێکان	-11.1771
▁گوڵەکە	-11.1771
تەمەنەکان	-11.1772
▁رف	-11.1772
▁زن	-11.1775
▁گیا	-11.1795
▁ڕوودان	-11.1801
▁زیرەکە	-11.1804
▁دێنم	-11.1805
▁بۆلام	-11.1815
▁گیران	-11.1823
▁بنکە	-11.1832
▁نەهێن	-11.1845
▁ڕۆح	-11.185
▁ڕێکخستن	-11.1858
▁ئاڵۆزییەک	-11.186
▁دەگوتر	-11.1872
▁کشان	-11.1883
▁نەخشەسازییەک	-11.1886
▁بەرنامەیەک	-11.189
▁گرانە	-11.1896
بخ	-11.191
▁ڕوناک	-11.1911
▁مێشکیان	-11.1928
▁خستم	-11.1929
ڤێت	-11.1938
ئارامی	-11.1964
▁تاڵ	-11.1965
▁ناهێڵ	-11.1979
▁بینەر	-11.1998
▁بۆمب	-11.2006
▁خۆشبوو	-11.2009
▁ناوچەکان	-11.2014
▁لار	-11.202
ەیتوانی	-11.2038
شانەی	-11.204
▁مێشکیش	-11.2046
کرابوو	-11.205
▁سەرەتاییەکان	-11.2054
سۆل	-11.2076
▁ڕۆڵێک	-11.2078
ۆچ	-11.208
▁دێنن	-11.2086
▁خێزانانە	-11.2091
gi	-11.2106
ۆرپ	-11.2122
▁دەگوت	-11.2125
▁دڵخۆشیان	-11.2142
▁دەیزانی	-11.2162
▁پڕۆسەیەک	-11.2177
▁٤٥٠	-11.2191
بلۆ	-11.2194
▁گەنجانە	-11.2195
خستبوو	-11.2195
▁وەرگێڕ	-11.2198
▁سودێک	-11.2199
▁قوتابیان	-11.2206
خوازی	-11.2208
▁کاتەش	-11.2229
▁ئاڵۆزتر	-11.224
▁هەستەوەری	-11.2255
▁رزبو	-11.2257
▁دیمەنە	-11.2264
▁مەبەستێک	-11.2275
▁کیمیای	-11.2289
▁پاڵپشت	-11.2298
▁ووڵاتێک	-11.2318
▁کراوەکان	-11.2326
▁٦٥	-11.2366
بەخشێت	-11.2369
b	-11.2372
▁شا	-11.2386
▁بونێک	-11.24
▁قێن	-11.2412
▁چارەسەرەکان	-11.2427
▁ڤایرۆسێک	-11.2434
ba	-11.2443
اڵا	-11.2465
▁خۆب	-11.2474
خوازین	-11.2482
▁دامەزراوەیە	-11.2494
▁سەگ	-11.2499
گۆڕیت	-11.2507
▁دراو	-11.2517
▁شیوە	-11.2518
▁رزتر	-11.2542
▁لیک	-11.2562
▁ووڵاتان	-11.2568
▁ئەنجامەکە	-11.258
▁دەمر	-11.258
▁گەش	-11.2582
▁ناسا	-11.2593
رۆکی	-11.2615
▁بنچین	-11.2631
▁باشیش	-11.2634
▁ئاماژەم	-11.264
▁تیۆری	-11.2664
زار	-11.2686
▁لەکوێی	-11.2688
▁وخۆ	-11.2702
▁واقیع	-11.2706
▁جان	-11.2718
ێچ	-11.2753
▁شوش	-11.2754
٤٧	-11.2779
کردوە	-11.279
پات	-11.2796
▁بانک	-11.2802
▁سوچ	-11.281
دەگ	-11.2811
▁كارد	-11.2819
ێۆ	-11.2863
کوژێت	-11.2866
▁کۆرس	-11.2867
▁بیروڕا	-11.2867
▁ریک	-11.2868
▁شیکردنەوە	-11.2875
▁پێشەنگ	-11.2876
کێشی	-11.2883
▁میوە	-11.2898
پیر	-11.2908
▁درێژای	-11.291
▁وشەیە	-11.2913
▁پێچو	-11.2922
ەدەن	-11.2936
▁ئەکتەر	-11.2974
ۆخە	-11.3025
رگی	-11.3027
چاری	-11.3029
شتێک	-11.3051
رڤ	-11.3057
▁10	-11.3059
▁٨٠٠	-11.306
▁مەرجە	-11.3061
كر	-11.3093
▁کاروبار	-11.3096
▁دێڕ	-11.3107
▁ڕاگەیاند	-11.3118
لوس	-11.3123
ابونەوە	-11.3125
▁متمان	-11.3138
▁فێربک	-11.3145
g	-11.3147
▁زەحمەت	-11.3154
▁پیشەگەر	-11.3154
▁ڕیستۆرانتەک	-11.3154
بخات	-11.3155
بەجێ	-11.3155
ەختی	-11.3155
کورتی	-11.3157
ئاسانی	-11.3159
یارمەتی	-11.316
بەراورد	-11.3162
دەکەوێت	-11.3162
منداڵ	-11.3162
بەڕاستی	-11.3162
ئەگەر	-11.3163
زەوی	-11.3164
ۆما	-11.3165
جیهان	-11.3167
سەدەی	-11.3168
دەدرێت	-11.3169
خۆت	-11.317
تەنیا	-11.3172
▁هۆڕمۆن	-11.3185
▁ڕابردو	-11.3187
خۆر	-11.3188
اتما	-11.3189
▁تاقە	-11.319
لەبەر	-11.3195
▁ڤال	-11.3201
اواز	-11.3204
بەلا	-11.3206
▁ڕەو	-11.3212
▁دەیبین	-11.3213
▁وێنان	-11.3234
▁جیاوازیەکە	-11.3235
▁هاوشێو	-11.3235
▁چادر	-11.3238
de	-11.3241
▁گەیتس	-11.3262
▁دەخوارد	-11.3267
▁خەڵ	-11.3267
▁ئەنفلۆنزا	-11.3274
▁وێنا	-11.3275
p	-11.3276
▁دەیخۆ	-11.3283
▁نەخۆ	-11.3291
▁موعجیز	-11.3293
▁خاک	-11.3293
▁فاکت	-11.3298
▁زیندو	-11.3302
▁دابەزی	-11.3302
دیجیتاڵ	-11.3306
▁نیشتەجێ	-11.3306
▁فیڕۆ	-11.3307
خوارد	-11.3309
▁بەکرێ	-11.3309
▁گوزەر	-11.331
▁مقەبا	-11.331
▁ستراتیجی	-11.331
ڵقوڵان	-11.3311
înîtiya	-11.3311
................	-11.3312
▁دیکتاتۆر	-11.3312
▁شۆڕشگێڕ	-11.3312
سێچیری	-11.3312
هاهاها	-11.3312
▁بارهەڵگر	-11.3312
▁بێئاگایی	-11.3312
▁بەوشێوەیە	-11.3312
▁تەشریح	-11.3312
▁تەلارساز	-11.3312
▁تەوقە	-11.3312
▁جاوبۆن	-11.3312
▁جواندرسۆن	-11.3312
▁خۆگونجاندن	-11.3312
▁دادەنرا	-11.3312
▁دواناوەندی	-11.3312
▁دۆستایەتی	-11.3312
▁دەنوسم	-11.3312
▁راپۆرت	-11.3312
▁روبەڕو	-11.3312
▁زۆرانبازی	-11.3312
▁زەنگ	-11.3312
▁سایبۆرگ	-11.3312
▁سترۆماتۆلیتس	-11.3312
▁سرووشت	-11.3312
▁سکپڕ	-11.3312
▁سینەما	-11.3312
▁سێگۆشە	-11.3312
▁سەرپشکی	-11.3312
▁شاعیر	-11.3312
▁فەراهەم	-11.3312
▁فەلسەفە	-11.3312
▁فەیسبووک	-11.3312
▁لەخوارەوە	-11.3312
▁مشەخۆر	-11.3312
▁ميگێڵ	-11.3312
▁مەسەل	-11.3312
▁ناودەبرێ	-11.3312
▁نۆڤەمبەر	-11.3312
▁نیودەلهی	-11.3312
▁نیوکاسڵ	-11.3312
▁هیمۆزۆ	-11.3312
▁هەمەچەشنە	-11.3312
▁وێنەکێشان	-11.3312
▁پایسکیل	-11.3312
▁پرتەقاڵ	-11.3312
▁ڕێگاچارە	-11.3312
▁کاپگراس	-11.3312
▁کرۆمۆسۆم	-11.3312
▁کۆنگرێس	-11.3312
▁hîn	-11.3312
▁بیخات	-11.3312
▁تریلیۆن	-11.3312
▁خۆپەرست	-11.3312
▁خۆڵەمێش	-11.3312
▁دڵسۆزی	-11.3312
▁دەژمێر	-11.3312
▁دەیبیست	-11.3312
▁سوعبەت	-11.3312
▁سەرژمێری	-11.3312
▁شلەمەنی	-11.3312
▁فیسۆلۆجی	-11.3312
▁فێرببن	-11.3312
▁قاعیدە	-11.3312
▁قەرەباڵغ	-11.3312
▁پاسپۆرت	-11.3312
▁پوختە	-11.3312
▁پەرستگا	-11.3312
▁چاڵاکی	-11.3312
▁کریستاڵی	-11.3312
▁ئاڵتون	-11.3312
▁ئەتلانتا	-11.3312
▁ئەیلول	-11.3312
▁بەڕێگەیەک	-11.3312
▁حەیدەر	-11.3312
▁خۆشگوز	-11.3312
▁دۆزیوەتەوە	-11.3312
▁دەخوێنم	-11.3312
▁رزگار	-11.3312
▁سەفەر	-11.3312
▁شیعر	-11.3312
▁قوورس	-11.3312
▁نیوۆرك	-11.3312
▁زەرەر	-11.3312
▁قاڵب	-11.3312
▁لەبەرامبەر	-11.3312
▁هەڵاوسان	-11.3312
▁ئالودە	-11.3312
▁دەربخەی	-11.3312
▁گەشەپێدان	-11.3312
▁دەجوڵێت	-11.3312
▁رادەکێش	-11.3312
▁گەیەنەر	-11.3312
▁سوڵتان	-11.3312
▁سیسەم	-11.3312
▁عادەت	-11.3312
▁فەرمی	-11.3312
▁وەردەگرت	-11.3312
▁کێشراوه	-11.3312
موکوڕی	-11.3312
▁ئەفسەر	-11.3312
▁بورج	-11.3312
▁بیردەکەینەوە	-11.3312
▁بمێنینەوە	-11.3312
▁لێبدە	-11.3312
ەلەرز	-11.3312
▁دامەزراوانە	-11.3312
▁رستگا	-11.3312
▁زگاکان	-11.3312
▁هێرشبەرێک	-11.3312
▁هەڵدەگری	-11.3312
▁ڵاتداران	-11.3312
▁نیوزل	-11.3312
▁ئامێز	-11.3312
ۆمیکس	-11.3312
▁بانگهێشت	-11.3312
▁پەرەسەندن	-11.3312
▁دەبەستیت	-11.3312
▁هیلاک	-11.3312
▁لەچوار	-11.3312
▁فەرش	-11.3312
▁هەتبێت	-11.3312
▁کەنارەکان	-11.3312
▁لێدەخوڕی	-11.3312
▁میکانیک	-11.3312
▁قوڵایی	-11.3312
▁لەسەرخۆ	-11.3312
▁بیروباوەڕ	-11.3312
▁دلخۆش	-11.3312
▁ئۆگەندا	-11.3312
گرکوژێن	-11.3312
▁چێندراو	-11.3312
▁بڵق	-11.3312
▁ببەستێت	-11.3312
▁وەختێک	-11.3312
▁شاردۆت	-11.3312
▁توشبوان	-11.3312
▁لانلی	-11.3312
▁بنێرن	-11.3312
▁سەرمایە	-11.3312
▁دەدوێن	-11.3312
▁ڕوخان	-11.3312
▁کەرەسە	-11.3312
▁جۆراوجۆر	-11.3312
▁جەبر	-11.3312
▁چالاکوان	-11.3312
▁زیادەڕەو	-11.3312
▁ناڕاستی	-11.3312
▁هۆشیاری	-11.3312
▁دەستکاریکراو	-11.3313
▁بنیاد	-11.3313
▁دەریخست	-11.3313
▁پاداشت	-11.3313
▁نازانیت	-11.3313
▁١٩٨٣	-11.3313
▁ڕۆمانسی	-11.3313
▁سپۆنس	-11.3313
دەرەجە	-11.3313
▁ڕیژەی	-11.3313
▁مالکو	-11.3313
▁بخوات	-11.3313
▁ساغ	-11.3313
▁دەمانبات	-11.3313
▁نەبینیوە	-11.3313
▁201	-11.3313
▁ئێف	-11.3313
▁دەلکێ	-11.3313
▁سەرهەڵد	-11.3313
▁لەمجۆرە	-11.3313
ئەوروپی	-11.3313
▁مقەبایانە	-11.3314
▁میسر	-11.3314
▁پێناس	-11.3314
▁نۆبڵ	-11.3314
▁نادەن	-11.3314
▁کیمایی	-11.3314
▁نەهاتووە	-11.3314
▁بەدەور	-11.3314
▁خولانەوەی	-11.3314
▁ڕەگ	-11.3314
▁دەژە	-11.3314
▁مبوس	-11.3314
▁دەسڕی	-11.3314
▁فڕن	-11.3314
▁دەنووسی	-11.3315
▁وپێش	-11.3315
▁٤٢٠	-11.3315
▁بەترس	-11.3315
▁پەڕەشوتەکە	-11.3315
ۆکسید	-11.3315
▁کرمەکان	-11.3315
▁ناڕێکوپێکی	-11.3315
▁هەڵکەن	-11.3315
▁باخوس	-11.3315
▁بگێڕمەوە	-11.3315
▁هاوسەرەکەت	-11.3315
▁دەگەڕێین	-11.3315
▁هێمن	-11.3315
▁دێرین	-11.3315
▁پێدەڵێ	-11.3315
▁دەڕۆشت	-11.3315
▁مێرگێر	-11.3316
▁داهێنەرایەتی	-11.3316
▁فێڵاوی	-11.3316
▁وەرگیرا	-11.3316
▁بزن	-11.3316
▁نەمانتوانی	-11.3316
▁شمەک	-11.3316
▁ناهێنن	-11.3316
▁بیهار	-11.3316
▁گەیشتووە	-11.3316
▁فیڕۆدانی	-11.3316
▁موڵک	-11.3317
▁بپێوی	-11.3317
▁چواردەور	-11.3317
▁ببرێت	-11.3318
روێشک	-11.3318
▁ڕوانین	-11.3318
نبیری	-11.3318
▁نەمێنێت	-11.3318
▁ئەپڵ	-11.3318
ەیدز	-11.3319
▁دەڕژێت	-11.3319
▁ڕوودەدەن	-11.3319
▁مۆبایلەکەت	-11.3319
▁ڵاتێکه	-11.3319
▁هەڵیدە	-11.3319
▁نەدەهات	-11.3319
▁رودەدات	-11.3319
▁١٥٠	-11.332
▁لەوکاتەوە	-11.332
تویانە	-11.332
▁ناسینەوە	-11.332
▁بلوز	-11.332
▁تگوزاری	-11.332
me	-11.3321
▁ڕووبدات	-11.3321
▁ئادەم	-11.3322
▁پیاسەکردن	-11.3322
هەرچیەک	-11.3322
▁ساف	-11.3322
▁ڕێککەوتن	-11.3322
▁روناک	-11.3322
▁٣٥	-11.3322
▁مردون	-11.3323
▁زرنگ	-11.3323
▁مێروولە	-11.3323
▁سنوردار	-11.3324
▁٢٠٠١	-11.3324
▁هەڵدەبژێرین	-11.3324
▁سەرەنجام	-11.3324
▁لەناوچون	-11.3324
▁نەچێت	-11.3324
▁شیکردن	-11.3325
▁بەکاردێت	-11.3325
▁شەمشەمەکوێرەکان	-11.3326
▁ترساو	-11.3326
▁نەگۆڕ	-11.3326
▁پەست	-11.3327
▁نەبوبێت	-11.3328
▁ناگونجێت	-11.3328
▁ئەكرد	-11.3328
▁نداز	-11.3328
▁ویلای	-11.3328
▁ئامادەکاری	-11.3329
▁بزوتنەوەیەک	-11.3329
▁ئیشکەر	-11.3329
▁جیاجیا	-11.3329
گەیەن	-11.3329
▁بریار	-11.3329
▁شێدار	-11.3329
▁لاوەکی	-11.3329
▁٢٦	-11.333
▁مردبێت	-11.333
▁دەربهێن	-11.333
▁هەیانە	-11.3331
رهێنانی	-11.3332
زۆن	-11.3332
▁دابمەزرێن	-11.3332
▁کۆمپیوتەرییەکان	-11.3332
▁حەفتاکان	-11.3332
▁پیویست	-11.3332
▁نەریت	-11.3332
▁لێبکەم	-11.3333
▁باڵەخانەکە	-11.3333
▁سەرپەرشتیار	-11.3334
▁ناگەیەنێت	-11.3334
▁ردووک	-11.3334
▁فیزیایی	-11.3335
▁باوك	-11.3335
▁بگونجێت	-11.3335
▁بونەتەوە	-11.3336
▁خوێناوی	-11.3336
پوچ	-11.3336
▁هاوڕێك	-11.3337
نوسێت	-11.3338
ۆڤا	-11.3338
▁هەڕەمەک	-11.3338
شیاری	-11.3339
▁پورەیەکی	-11.3339
▁توندوتیژ	-11.3339
▁سەتەلایت	-11.3339
▁مەنتیقی	-11.3339
▁ڕوونادات	-11.3339
▁خوولەک	-11.3341
▁درەوشانەوەی	-11.3341
▁کاڕ	-11.3341
▁جۆراو	-11.3342
▁نێرینەکان	-11.3342
▁بكات	-11.3342
▁باخچەی	-11.3342
▁بیهێنیت	-11.3343
▁داخوازی	-11.3343
تەقەلایە	-11.3343
▁پیاز	-11.3344
تاقەتی	-11.3344
▁دیاردەی	-11.3345
▁پەتایە	-11.3345
▁قوتابخانەکەی	-11.3345
▁هەواکەی	-11.3345
▁وێران	-11.3345
▁کۆمەل	-11.3346
▁ڕاستگۆیانە	-11.3347
▁ڕاس	-11.3347
▁ببات	-11.3347
▁دەگەڕایەوە	-11.3349
▁باڵەخانەکان	-11.335
▁خۆگرتن	-11.335
▁دایبنێ	-11.3351
▁وەربگرم	-11.3352
شتانه	-11.3352
▁داتایانه	-11.3353
▁خەڵکانێک	-11.3354
▁چویت	-11.3354
▁نەبیت	-11.3354
راستیدا	-11.3354
▁خستۆت	-11.3355
▁دايك	-11.3356
▁رێگایە	-11.3357
▁دەگەڕاین	-11.3357
▁پوورە	-11.3359
▁جوڵانەوەیەک	-11.336
▁دەردەکەو	-11.3361
▁هەردوکیان	-11.3361
▁نوێنەر	-11.3361
▁بکەون	-11.3362
▁زەڵاتە	-11.3362
▁مەدەن	-11.3362
▁دڵخۆشتر	-11.3364
▁تاقیکردنەوانە	-11.3367
▁فڕۆکەوان	-11.3368
▁بەکارهێنراو	-11.3368
▁دەلێ	-11.3368
▁ڕونکردنەوە	-11.3368
▁پەیدابوون	-11.3369
▁پارێزەر	-11.337
▁دەردەهێن	-11.337
▁بچێن	-11.337
▁ئامادەبون	-11.3371
▁لێوار	-11.3372
▁دەمژ	-11.3373
▁لادێکان	-11.3373
▁بگێڕن	-11.3374
▁باپیرانمان	-11.3374
▁توانایاندا	-11.3377
▁پەروەردەکە	-11.3378
▁پزیشکەکان	-11.3378
▁وەربگریت	-11.3378
▁سەربان	-11.3379
▁هەنگاوەکانی	-11.3382
▁پێبکات	-11.3382
▁جیل	-11.3383
▁جي	-11.3383
▁نێجیریا	-11.3385
▁وەهەر	-11.3385
▁نەزانی	-11.3386
▁بەکاردە	-11.3386
▁نەخۆشخانەکان	-11.3387
▁فۆرم	-11.3388
▁بخوێنیت	-11.3388
▁بەرازەکان	-11.3388
▁مێژ	-11.3388
▁شوشەیی	-11.3389
▁ئامادەبووان	-11.339
▁جور	-11.339
▁دەستپێکردن	-11.3391
▁دەوروبەرمان	-11.3392
▁دەستکاری	-11.3393
▁دەپرس	-11.3393
▁بەلات	-11.3394
▁بارودۆخە	-11.3397
▁کەوتو	-11.3399
▁دادەنێین	-11.3404
ro	-11.3405
▁فون	-11.3405
▁پول	-11.3406
▁ئاگرەکە	-11.3407
▁دەریاچ	-11.3407
▁دەردەکەوت	-11.3409
▁دەڵی	-11.341
▁جەستەمان	-11.341
▁بازرگانییەکان	-11.3413
▁چادرگ	-11.3414
▁زەوییەکە	-11.3414
▁بیڵ	-11.3416
▁هەتیوخانەکان	-11.3418
▁ستافەکە	-11.3419
▁بیدە	-11.3419
▁ژیاون	-11.3421
▁دەنگییەکان	-11.3421
▁دەوەستێت	-11.3422
▁سەرەکییەکە	-11.3422
▁دەگرینە	-11.3423
▁دیوارەکەدا	-11.3424
▁وەرگرتوە	-11.3425
▁زراندن	-11.3428
▁هەڵبگر	-11.3428
▁نيە	-11.3429
▁تازەترین	-11.3432
▁ڕێگاکە	-11.3432
▁ربگرین	-11.3433
▁هەسارەیەک	-11.3438
دریو	-11.3445
▁نەدەبوو	-11.3447
وەرگرتنی	-11.3447
▁دەگەڕان	-11.3448
▁دانیشتبوون	-11.3449
▁چواردە	-11.3449
▁ئاڵا	-11.3451
▁نمونەیە	-11.3451
▁دەترسن	-11.3452
مانچە	-11.3452
▁بنێن	-11.3453
▁بهێنه	-11.3457
▁دەخاتەوە	-11.3458
▁گراف	-11.3459
▁بیهێنین	-11.3462
▁چەندێتی	-11.3464
▁كراو	-11.3466
▁بازنەیەک	-11.3467
▁مح	-11.3469
▁ڕیگەی	-11.3472
▁زەحمەتە	-11.3472
▁پیشەگەرە	-11.3472
▁تێپەڕاندن	-11.3475
▁تیژ	-11.3478
▁دەڕۆم	-11.3484
▁ئازاردان	-11.3485
▁هۆل	-11.3485
▁مامۆستاکە	-11.3486
▁خوو	-11.3487
▁بڵی	-11.349
▁میوانەکان	-11.3492
▁گرانەکە	-11.3493
▁بگرێتەوە	-11.3496
ۆجی	-11.3499
▁خەڵكەكەم	-11.3499
فلام	-11.35
▁کوێیە	-11.35
▁بێنیت	-11.3506
دەگیرێ	-11.3507
زەکە	-11.3507
▁شوشەکە	-11.3508
▁دەبەخشن	-11.3508
▁دەمارەخانە	-11.3509
▁سیفاتە	-11.3516
ناکات	-11.3517
▁قەدەر	-11.352
▁دەگونجێن	-11.352
▁خۆشیا	-11.3521
▁ڕاستەقینەدا	-11.3524
▁دێڕێک	-11.3524
▁داینا	-11.3526
▁مارس	-11.3532
▁نووسین	-11.3534
ويَ	-11.3535
▁نایانەوێ	-11.3536
▁گەیت	-11.3537
▁yê	-11.3537
ساب	-11.3541
▁ڤێر	-11.3542
▁رەو	-11.3544
▁دووگ	-11.3545
▁فریاک	-11.3554
▁هەرزەکاران	-11.3558
فری	-11.3563
▁دەگەڕام	-11.3566
▁ئەبوو	-11.3568
▁نوسینگ	-11.3573
▁تول	-11.3576
▁گۆڕاون	-11.3578
فڕ	-11.3578
ترسێنێت	-11.3579
▁تاقیگەدا	-11.3581
▁پارچەیە	-11.3583
▁مردبوو	-11.3585
▁فارا	-11.3587
▁وەستاوە	-11.3595
▁ئالۆزە	-11.3599
▁کەمپینەکە	-11.3599
▁هەڵدەستم	-11.3601
▁کۆمەڵگاکان	-11.3615
▁ڕاند	-11.3616
▁کارگەیەک	-11.3617
اشا	-11.3623
▁ڕەشەکە	-11.3623
▁یاریکەر	-11.3627
▁سیستەمەکان	-11.363
▁لەگەڵدایە	-11.3639
▁ئەوتۆی	-11.3641
▁بناغەکە	-11.3643
▁جەنگەکە	-11.3644
▁روداوەکان	-11.3645
بەربەرەکانێ	-11.3647
▁سەرسوڕهێنەرن	-11.3649
▁ئاسودەیی	-11.3654
▁نگار	-11.3656
▁ڕۆیشتن	-11.3664
▁ناونیشانەکە	-11.3674
▁هەنگانە	-11.3679
▁لەلایەک	-11.3684
▁لەبەردەستدا	-11.3689
▁نەهێنا	-11.37
▁مارک	-11.3701
هەڵات	-11.3702
▁دایکیاندا	-11.3706
▁بوێت	-11.371
▁تەکنەلۆژیایانە	-11.3718
▁چیمەنەکان	-11.3724
▁یارییانە	-11.3726
▁موما	-11.373
▁هاتبوون	-11.3731
ne	-11.3734
کردۆتەوە	-11.3748
▁مەرجان	-11.3749
▁ساتەوە	-11.376
▁خاڵانە	-11.3763
▁میکرۆبەکان	-11.3763
ورس	-11.3765
ۆلێ	-11.3768
▁ڕۆیشتم	-11.3772
▁خەت	-11.3775
▁کایە	-11.3776
▁ڕێکخراوەکە	-11.3779
▁ستابوو	-11.3788
▁بانگکردن	-11.3795
▁کۆلێجەکە	-11.3808
خۆیان	-11.3814
▁سلایدێک	-11.3815
وانێ	-11.3816
▁بڵاوکردنەوە	-11.3817
▁شاشەیەک	-11.3821
▁بیهێنن	-11.3824
▁سوڕمان	-11.3827
▁ردانی	-11.3828
▁ناك	-11.3845
▁پیشەکە	-11.3847
▁ڵمانی	-11.3849
▁هەستەوەر	-11.3852
▁بیکوژ	-11.387
▁توخمێک	-11.3877
ەڵک	-11.3878
▁بێزارک	-11.3883
▁باوکەکە	-11.3883
▁کیمیا	-11.3884
▁خوێندکارەکانم	-11.3888
▁چیرۆکانە	-11.3888
▁ئیشکردن	-11.3889
▁ریاک	-11.39
▁دەنگانە	-11.3904
▁وانەیەک	-11.3914
▁زانایەک	-11.3929
ببەین	-11.3931
▁هەژاران	-11.3933
▁دامەوە	-11.3934
▁توانایەک	-11.3938
▁دانراو	-11.3948
▁تیدان	-11.395
▁لەکوێ	-11.3951
خستنەوەی	-11.3951
▁واقیعێک	-11.3956
▁ئەگ	-11.396
▁ئاواتەکان	-11.3962
▁سامان	-11.3967
▁لوتک	-11.3972
▁بوانی	-11.3973
▁تاقیگ	-11.3974
▁ئەوها	-11.3989
▁شیاو	-11.3991
▁گەشەکردو	-11.3993
▁مابوو	-11.3999
▁بینایەک	-11.4009
▁سوچێک	-11.4009
▁توانامان	-11.4015
يەکان	-11.4036
rê	-11.4046
▁شەوانە	-11.4048
▁کێڵ	-11.4058
▁گفتوگۆک	-11.4059
▁هۆکارانە	-11.4066
▁بناغەی	-11.4067
▁خانوەکە	-11.4072
▁فاکتەرێک	-11.4072
▁ئەستەم	-11.4084
▁دەژیا	-11.4088
▁شتانەش	-11.409
▁مێشکتان	-11.4102
▁کارمەندەکان	-11.4113
▁دەچوون	-11.4114
يي	-11.4123
▁کیسە	-11.413
▁ئاب	-11.4131
▁خۆراکانە	-11.4139
▁دواییانە	-11.4165
▁شارەزایەک	-11.4166
تەرا	-11.4168
▁داران	-11.4178
▁ئاهەنگێک	-11.4183
▁ژەمێک	-11.4186
یلەر	-11.4186
▁نێن	-11.421
▁سایکۆلۆ	-11.4222
▁مێزێک	-11.4237
▁دەمەو	-11.4237
▁تەکنەلۆجیایەک	-11.4239
▁خانەکە	-11.4265
▁کاربک	-11.4277
▁هەتیوخانەک	-11.4278
▁ماین	-11.4283
▁گرتبوو	-11.4285
▁زەویەکە	-11.4295
▁دەنگەکە	-11.4301
▁وابیردەکە	-11.4311
▁کۆمپیتەرەکە	-11.4313
▁لێکردبوو	-11.4323
▁رمانب	-11.4357
ڕەزا	-11.4361
ربگریت	-11.4367
رگری	-11.4377
▁ئاڵۆزەکە	-11.4405
▁بڵاوبوون	-11.4416
ۆتەر	-11.4429
▁ڕێکوپێک	-11.444
▁هۆڵەند	-11.4482
ومەتە	-11.4483
▁بەدو	-11.4486
▁دابینکردن	-11.4493
▁شۆڕشێک	-11.4499
کڕی	-11.4511
کوێدایە	-11.4525
ئێشە	-11.4534
▁دارەکان	-11.4558
▁ئاستەکان	-11.4576
ناسێتەوە	-11.4576
▁سەرچاوەیەک	-11.458
▁قوتابخانەکانمان	-11.4605
بەهەشت	-11.4605
▁توانيم	-11.461
▁بچووکەکە	-11.462
بکرێت	-11.4623
▁کەوتنەوە	-11.4639
فیز	-11.4655
▁گێڕا	-11.4691
دیش	-11.4718
▁مەزنەکان	-11.4742
▁ڕوناکیەکە	-11.4743
▁ڕکردن	-11.4745
یەکێک	-11.4775
▁کەسیش	-11.479
▁دۆزیو	-11.4792
ێگا	-11.4817
▁چاودێریکردن	-11.4818
▁لێبکەن	-11.4854
▁مناڵەکان	-11.4857
فرۆشرێت	-11.4866
بکەوێت	-11.4867
▁قوتابخان	-11.4878
▁دەگوێزرێ	-11.4883
وتوو	-11.489
دەبەخش	-11.4894
▁جێف	-11.4904
ببنەوە	-11.4912
▁پرسیارەکان	-11.492
▁کۆکردنەو	-11.492
▁تێکڕا	-11.4923
▁بپارێز	-11.494
بەرز	-11.4948
▁جگەرە	-11.495
رێگ	-11.4952
▁نەچو	-11.4972
▁قورستر	-11.4973
ترسام	-11.4991
گەکان	-11.4999
▁پێکرا	-11.5005
▁کتێبەکان	-11.5024
▁ناب	-11.5024
▁ڕووناکیەکانی	-11.5029
▁گەورەکردن	-11.5048
٢٠	-11.5059
▁تەمەنەکان	-11.509
▁ئەي	-11.5095
▁هێڵەکان	-11.5096
▁هەڵب	-11.5118
▁کنیک	-11.5121
▁سەند	-11.5136
▁گوزار	-11.5196
▁چالاکەکان	-11.52
▁هەب	-11.5204
▁تەقلیدیە	-11.5205
▁کۆرپەیە	-11.5209
ژێن	-11.5292
▁گرووپ	-11.5298
▁خەلک	-11.5298
▁دوکانێک	-11.5319
▁ساتانە	-11.5319
▁سیستمێک	-11.5336
کرین	-11.5352
▁پێشینە	-11.5411
ماوەیەکی	-11.5427
ەڵێن	-11.5468
▁پێچا	-11.5483
▁بسڕ	-11.5493
وومە	-11.5512
▁جەڵدە	-11.5521
شاوه	-11.553
▁یۆنان	-11.5541
ڕوات	-11.5546
ڕەتی	-11.5549
ay	-11.5585
▁حساب	-11.5596
امەیان	-11.5599
ۆرگان	-11.5602
▁جول	-11.5619
▁هاوکێش	-11.5647
▁قۆناغەکان	-11.567
▁٤٣	-11.5681
بیستووە	-11.5704
▁مانگانە	-11.5735
▁١٩٥	-11.5742
▁ڕۆشنبیر	-11.5767
▁لۆن	-11.5768
ۆلین	-11.5769
▁خوشکەکان	-11.5769
دانێ	-11.5785
دەکرێت	-11.579
بگرێ	-11.5818
لکو	-11.5831
▁دەرهێنا	-11.5839
خوڵق	-11.5843
▁ئێسکەبەند	-11.5859
▁be	-11.5901
ڵاو	-11.5908
▁بڕو	-11.5916
▁قەڵ	-11.592
▁باوەش	-11.5969
▁هێماک	-11.6001
▁پۆلێک	-11.6006
وارد	-11.6007
بکەیت	-11.603
▁تایبەتمەند	-11.6032
▁ئاسا	-11.6048
▁پەیوەند	-11.6049
خانەکان	-11.6063
▁لێکراو	-11.6085
گەڕێنەوە	-11.6095
▁سەماکەر	-11.6101
▁١١٠	-11.6128
▁ڕووناک	-11.6169
▁بەربەرەکان	-11.6198
▁ووشەیە	-11.6201
وباره	-11.6202
▁شێوەيە	-11.6209
▁تەقلید	-11.6213
▁کەلتور	-11.6223
ڕوخێن	-11.6251
بکێشێت	-11.6256
▁تەما	-11.6263
کانیشدا	-11.6266
▁گەنجێک	-11.6271
▁گواز	-11.6283
دەخەن	-11.6283
▁گەشتەکەم	-11.6291
▁ماسولک	-11.6311
هەموو	-11.6317
فلۆ	-11.6334
▁مستە	-11.6336
▁بگێڕ	-11.6366
زوێ	-11.6367
ناوچەیەی	-11.637
▁ژنێک	-11.6384
▁ڕیگەیە	-11.6437
ەستم	-11.6458
گونجێن	-11.6459
پارێز	-11.6462
▁ململانێیە	-11.6465
دۆزینەوە	-11.6466
▁ڕاهێن	-11.6476
▁برادەر	-11.6479
▁تێگەیشت	-11.6479
گەلێک	-11.6481
ڕاوک	-11.6482
نادەین	-11.6483
شوێنێک	-11.6484
سنور	-11.6484
قوڵی	-11.6486
خواست	-11.6487
▁تەکنەلۆجی	-11.6488
شێوه	-11.6488
ئەندامی	-11.6488
▁دەینێ	-11.649
▁هێلک	-11.649
دەنگ	-11.649
▁لێبک	-11.6491
تاقیکردنەوە	-11.6491
ڕاهێنان	-11.6493
بابەتە	-11.6494
بەکارهێنانی	-11.6494
مرۆڤ	-11.6495
سور	-11.6495
▁بکردای	-11.6495
▁ئاسود	-11.6497
ڕێگای	-11.6498
زۆربەی	-11.6498
تەماشا	-11.6498
جۆری	-11.6499
١١	-11.65
▁گرینگ	-11.6504
▁پۆستکارد	-11.6506
هەندێک	-11.6511
▁زراند	-11.6511
▁یەکگرتو	-11.6517
▁نەماو	-11.6524
گەیاندن	-11.6526
▁داوەتە	-11.6527
▁چێشتخان	-11.653
▁ژیا	-11.6531
ێستا	-11.6539
▁چاویلکە	-11.6539
ەنجام	-11.654
▁قاپ	-11.655
پاڵ	-11.6557
▁بەڵک	-11.6567
▁بوتڵ	-11.6573
▁زیا	-11.6581
▁دەتانەوێ	-11.6582
▁قوت	-11.6582
▁بازدانێک	-11.659
▁دەیانەوێ	-11.659
ڕەوی	-11.6591
رێژ	-11.6591
▁مامناو	-11.6593
▁بدۆزیت	-11.6594
▁بدۆزێت	-11.6594
▁ڵگاکان	-11.6595
▁بایۆ	-11.6595
▁دەگەڕێت	-11.6595
▁بیپ	-11.6597
▁باپیران	-11.6597
▁شیوەیە	-11.6598
▁ڕونکردن	-11.6599
▁تەخت	-11.6601
سەد	-11.6603
گەیشتووین	-11.6603
بەها	-11.6604
înî	-11.6605
▁ڕووبەڕو	-11.6611
▁فیزیا	-11.6613
▁جووڵ	-11.6614
▁سەرپەرشتی	-11.6615
▁حەفتا	-11.6617
▁مادان	-11.6617
▁پشتگوێ	-11.6618
▁شەمشەمەکوێرە	-11.6626
پیا	-11.663
▁دەڕژ	-11.6637
▁بگوێز	-11.6641
▁لەزۆر	-11.6642
فشار	-11.6643
ەمجۆرە	-11.6643
▁دوگم	-11.6644
▁رگێڕ	-11.6645
وەڕوان	-11.6645
وخانەکە	-11.6645
رسوڕهێن	-11.6645
خەڵەتێن	-11.6645
▁ڕۆبێرت	-11.6645
ation	-11.6645
irsgirêk	-11.6645
سیچێری	-11.6645
شەعلان	-11.6645
ندەلاساییکردنەوە	-11.6645
یانبیستم	-11.6645
▁.......	-11.6645
▁biguherînim	-11.6645
▁girî	-11.6645
▁ئەستووری	-11.6645
▁ئەلیکتڕۆ	-11.6645
▁ئەکادیمی	-11.6645
▁بابڕۆین	-11.6645
▁بارستای	-11.6645
▁برۆنكس	-11.6645
▁بپشکن	-11.6645
▁بژمێر	-11.6645
▁بڵاوبۆتەوە	-11.6645
▁بۆتسوانا	-11.6645
▁بیوەستێن	-11.6645
▁بێوەژن	-11.6645
▁بەرژەوەند	-11.6645
▁تیرۆرست	-11.6645
▁تێکبشکێ	-11.6645
▁تەنگوچەڵەمەی	-11.6645
▁تەوژم	-11.6645
▁خۆبزوێن	-11.6645
▁خۆکوشتن	-11.6645
▁دادپەروەر	-11.6645
▁داڕێژراوە	-11.6645
▁دڕکەپەتک	-11.6645
▁دیزایین	-11.6645
▁دەدرەوشێتەوە	-11.6645
▁دەشاردەوە	-11.6645
▁دەپاڵێو	-11.6645
▁ردوکیان	-11.6645
▁رسوڕمان	-11.6645
▁زیادەڕۆی	-11.6645
▁سعود	-11.6645
▁سۆپەرمارکێت	-11.6645
▁سیناریۆ	-11.6645
▁سێپتەمبەر	-11.6645
▁سەرزەنشت	-11.6645
▁سەرشەقام	-11.6645
▁شڵەژاو	-11.6645
▁شۆفێر	-11.6645
▁شیکاگۆ	-11.6645
▁فرمێسک	-11.6645
▁فەرموو	-11.6645
▁قورئان	-11.6645
▁قەلەق	-11.6645
▁كۆنكريت	-11.6645
▁لادەبات	-11.6645
▁لۆجیکی	-11.6645
▁لیژنەی	-11.6645
▁لێپرسراو	-11.6645
▁لەهەفتەیەکدا	-11.6645
▁ماڵئاوای	-11.6645
▁مشتەریەکان	-11.6645
▁ملیمەترێکە	-11.6645
▁مومکین	-11.6645
▁میوزیك	-11.6645
▁میگێڵ	-11.6645
▁مەتبەخ	-11.6645
▁نزینخان	-11.6645
▁نەفرەت	-11.6645
▁نەگونجاو	-11.6645
▁هەواگۆڕکێ	-11.6645
▁پرشنگدار	-11.6645
▁ڕاستگۆبن	-11.6645
▁ڕاشکاو	-11.6645
▁ڕاكێش	-11.6645
▁ڕوناكی	-11.6645
▁ڕەسەن	-11.6645
▁ژمێرەر	-11.6645
▁ڤێتنام	-11.6645
▁کادیمی	-11.6645
▁کارگێڕ	-11.6645
▁کاندیدەکان	-11.6645
▁کاڤیار	-11.6645
▁کۆنترۆل	-11.6645
▁کۆڵۆمبی	-11.6645
▁کێبڕکێ	-11.6645
▁گژوگیا	-11.6645
▁گۆشەنیگای	-11.6645
▁ڵبژێردرا	-11.6645
▁ئوتومبێلی	-11.6645
▁بەتالیۆنەکە	-11.6645
▁بەخۆبوون	-11.6645
▁بەڕازیل	-11.6645
▁جەماوەری	-11.6645
▁جەنگاوەرە	-11.6645
▁خۆپیشاند	-11.6645
▁خۆڕاگر	-11.6645
▁دەگەڕێیت	-11.6645
▁ساویلک	-11.6645
▁فرەئەرک	-11.6645
▁لاسایکردنەوە	-11.6645
▁میکانیزم	-11.6645
▁هاککەرەکان	-11.6645
▁هەڵبسەنگێن	-11.6645
▁پراتام	-11.6645
▁پەرەسەندو	-11.6645
▁چەسپاند	-11.6645
▁ڕێنمایی	-11.6645
▁ڕێوڕەسم	-11.6645
▁ڤێرمێر	-11.6645
▁گەشەسەندو	-11.6645
herî	-11.6645
زێڕینە	-11.6645
لۆجیای	-11.6645
ڕادەبەدەر	-11.6645
▁ئالوودە	-11.6645
▁ئۆپرا	-11.6645
▁بگەیەنیت	-11.6645
▁بێتوانای	-11.6645
▁بەکاربردن	-11.6645
▁جاسوس	-11.6645
▁جنۆکە	-11.6645
▁زۆرچاکه	-11.6645
▁سمبولی	-11.6645
▁سوپەرمارکێتەک	-11.6645
▁شەرمەزار	-11.6645
▁قوتانخانەکان	-11.6645
▁قەوزەکان	-11.6645
▁كەسێك	-11.6645
▁وتووێژ	-11.6645
▁ئاوریشم	-11.6645
▁باروشار	-11.6645
▁بلکێن	-11.6645
▁خۆنەویست	-11.6645
▁دەرکەوێت	-11.6645
▁زەهایمەر	-11.6645
▁فەرەنس	-11.6645
▁مایکرۆسۆ	-11.6645
▁هەڵکۆڵین	-11.6645
▁پانتایی	-11.6645
▁wer	-11.6645
▁جامایک	-11.6645
▁دەخوێنن	-11.6645
▁دەرونناس	-11.6645
▁سەرقال	-11.6645
▁غاندی	-11.6645
▁فۆکەس	-11.6645
▁نوکتە	-11.6645
▁وابکەوە	-11.6645
▁ڕۆژنامەنوس	-11.6645
▁کلاسیک	-11.6645
▁تێدەپەر	-11.6645
▁مێژوونوس	-11.6645
▁کلونی	-11.6645
▁ئاڵوگۆڕکێ	-11.6645
▁جەمسەر	-11.6645
▁فەڕش	-11.6645
▁نەهێڵین	-11.6645
▁پەنیر	-11.6645
هەمەجۆر	-11.6645
▁خۆزگە	-11.6645
▁موشتەری	-11.6645
▁هۆتێل	-11.6645
▁هەڕەشە	-11.6645
▁ڕۆبۆت	-11.6645
▁خوشکەزا	-11.6645
▁دانوستان	-11.6645
▁دروشم	-11.6645
▁دەهێڵم	-11.6645
▁رووداو	-11.6645
▁سکچوون	-11.6645
▁مەتەڵ	-11.6645
▁یخوێن	-11.6645
▁حریر	-11.6645
▁کەناراو	-11.6645
▁بمێنیتەوە	-11.6645
▁دەگەیەنن	-11.6645
▁کۆبکاتەوە	-11.6645
▁بیردۆز	-11.6645
▁تێدەپەڕ	-11.6645
▁ملێون	-11.6645
▁پاوەند	-11.6645
▁پەرداخ	-11.6645
▁گوێبگر	-11.6645
▁سکویک	-11.6645
چەسپ	-11.6645
▁pê	-11.6645
▁برنج	-11.6645
▁بگەیەنم	-11.6645
▁جێبەچ	-11.6645
▁رشتێك	-11.6645
▁شەبەکە	-11.6645
▁پاشەڕۆژم	-11.6645
▁بابچین	-11.6645
▁بچونای	-11.6645
▁بەگشتی	-11.6645
▁ستەیشن	-11.6645
▁لاستیک	-11.6645
▁ڕۆشتوون	-11.6645
elat	-11.6645
لبێرت	-11.6645
▁هێرشبەرەکان	-11.6645
▁بتەقێن	-11.6645
ۆلد	-11.6645
▁بنێرێت	-11.6645
▁دادەنا	-11.6645
▁شەقامەکەوە	-11.6645
▁دەپێوێ	-11.6645
▁پێگەیشتوو	-11.6645
▁بەسەربرد	-11.6645
▁رۆیشت	-11.6645
▁ئوستڕالیا	-11.6645
▁ئینگل	-11.6645
▁شانازي	-11.6645
ێیگەیشتوون	-11.6645
شوبهێن	-11.6645
▁بیابانیبوون	-11.6645
▁دەدۆزییەوە	-11.6645
▁پێکدادان	-11.6645
پوکێ	-11.6645
▁بەخێر	-11.6645
▁بەخۆی	-11.6645
▁شعر	-11.6645
▁دەنارد	-11.6645
▁پەڵە	-11.6646
▁dînîtiya	-11.6646
▁هەڵمژ	-11.6646
▁ئاسۆیی	-11.6646
▁ڕێبوار	-11.6646
▁202	-11.6646
▁خوێندنگەکەمان	-11.6646
▁فیزیاناس	-11.6646
▁پاشەرۆ	-11.6646
▁تاکتیک	-11.6646
▁جینۆم	-11.6646
▁چاوەرێ	-11.6646
▁بیناساز	-11.6646
▁نوق	-11.6646
▁دەشۆن	-11.6646
بەردبوەکان	-11.6646
▁قورسترینیان	-11.6646
▁تێناگەین	-11.6646
▁فرۆکە	-11.6646
▁هەڵوەش	-11.6646
ڕوخاو	-11.6646
▁نەیبینی	-11.6646
▁هۆکارەکەش	-11.6646
▁١٩٣	-11.6646
کوپێک	-11.6646
▁ناگرین	-11.6646
▁بانقی	-11.6646
▁بەلەمێک	-11.6646
▁وادەردەکەو	-11.6646
▁لەچاو	-11.6646
▁سەوزایی	-11.6646
▁گەشتیارەک	-11.6646
▁ڕەقەمی	-11.6646
ادل	-11.6646
▁فێردەبی	-11.6646
▁تایبەتمەندێتی	-11.6646
▁وەردەگریت	-11.6646
▁هاوشان	-11.6646
▁پایتەخت	-11.6646
▁خوێندووه	-11.6646
▁لتور	-11.6646
▁ماتۆڕ	-11.6647
▁بێهۆشکەر	-11.6647
▁بلووری	-11.6647
▁پەیکەرساز	-11.6647
▁وەفات	-11.6647
▁ڕۆتین	-11.6647
▁نەمابوو	-11.6647
▁لێدەکرد	-11.6647
▁ساح	-11.6647
يارم	-11.6647
▁سێدارە	-11.6647
▁کیمیاوی	-11.6647
▁گرفت	-11.6647
▁خێرخوازی	-11.6647
▁سودبەخش	-11.6647
▁پیتاندن	-11.6647
▁رادەیەک	-11.6647
▁تێدەگات	-11.6647
▁گاندی	-11.6647
▁خۆنیشاندان	-11.6647
▁دەگوو	-11.6647
▁خێو	-11.6647
▁سەوزەوات	-11.6647
▁فینلەندا	-11.6647
▁سنووردار	-11.6647
دەشکێت	-11.6647
▁پلاک	-11.6648
▁هەڵدەگرێت	-11.6648
▁قوتدانی	-11.6648
▁sê	-11.6648
▁٣٥٠٠٠	-11.6648
▁خوێیە	-11.6648
▁لێشاو	-11.6648
▁ئەتل	-11.6648
▁جیهانگیری	-11.6648
▁فیدی	-11.6648
▁میوانداری	-11.6648
▁سەکەتی	-11.6648
▁رژین	-11.6648
▁لێدوان	-11.6648
▁رستیار	-11.6648
▁کاترینا	-11.6648
▁نەفسی	-11.6648
▁بیبەیت	-11.6649
▁کاربهێنی	-11.6649
▁هاودەم	-11.6649
▁هەورییەکان	-11.6649
▁سەرکەش	-11.6649
▁لوکس	-11.6649
▁رۆد	-11.6649
▁دۆزیمەوە	-11.6649
▁لەقاند	-11.6649
▁ئاگادارکردنەوەی	-11.6649
▁هارل	-11.6649
nî	-11.665
▁گەڕۆک	-11.665
▁بگەڕێتەوە	-11.665
▁بەکرێدان	-11.665
▁بیناکاری	-11.665
▁دواڕۆژ	-11.665
▁دەفرۆشت	-11.6651
▁نازیەکان	-11.6651
▁فلۆریدا	-11.6651
▁ڕووبەڕوبونەوە	-11.6651
▁شێرپ	-11.6651
▁کوژران	-11.6651
▁ئەرز	-11.6651
▁دابڕێژین	-11.6652
▁دیراسە	-11.6652
▁بۆچوون	-11.6652
▁خوێندووە	-11.6652
nê	-11.6652
اریکرما	-11.6652
▁tê	-11.6652
▁قایل	-11.6653
▁کلیک	-11.6653
▁زیوی	-11.6653
▁بیستۆکی	-11.6653
▁پایز	-11.6653
▁١٥٠٠	-11.6654
▁ئەلڤ	-11.6654
▁لوسەر	-11.6654
▁فشارێک	-11.6654
▁ڕێکخەر	-11.6654
▁كەوت	-11.6654
بکێشیت	-11.6654
▁هاورێ	-11.6654
▁کێشراوی	-11.6654
▁٣٣	-11.6654
▁رۆش	-11.6654
گەرایی	-11.6654
▁ڕووپۆش	-11.6654
▁دانرابوو	-11.6655
▁دەیانبین	-11.6655
▁فێردەبن	-11.6655
▁شکس	-11.6655
yo	-11.6655
▁دەربکەین	-11.6655
▁دەدۆزینەوە	-11.6655
▁ئەهاتن	-11.6656
▁لابرا	-11.6656
وخساری	-11.6656
▁جوڵێنێت	-11.6656
▁زیرەکەکەت	-11.6657
▁ناگرێت	-11.6657
▁بپارێزیت	-11.6657
▁هەمبەرگ	-11.6658
▁دەگەیت	-11.6658
▁ڕیتم	-11.6658
▁نامەیەک	-11.6658
▁ئۆلس	-11.6658
▁ڕۆژانەماندا	-11.6659
▁گەردی	-11.6659
▁باجی	-11.6659
▁٩٧	-11.6659
▁سەماکردن	-11.6659
▁بەرەوپێش	-11.6661
▁هەنگاری	-11.6661
▁تێکەڵاوی	-11.6661
▁بفرۆشیت	-11.6661
▁پێهات	-11.6661
▁ئاف	-11.6661
▁پەیمانگە	-11.6661
سەلمێندراو	-11.6661
▁نەوەد	-11.6661
▁لایەنگیری	-11.6662
▁خیرا	-11.6662
▁رازی	-11.6663
دەگرێت	-11.6663
▁شیکەرەوە	-11.6663
▁فلات	-11.6664
▁چارەسەرکراوە	-11.6664
▁دەبۆوە	-11.6664
▁دیجیتاڵییەکان	-11.6664
ەعبی	-11.6664
▁نەدەکر	-11.6664
▁نەگەیشت	-11.6664
▁دەیڤد	-11.6664
▁پەلکە	-11.6665
▁ژاو	-11.6665
▁ئاسانکاری	-11.6665
▁لمەکەدا	-11.6665
ەنتا	-11.6665
▁مەلە	-11.6665
▁مسین	-11.6666
▁ستاون	-11.6666
▁جونک	-11.6666
▁ڕیگا	-11.6666
▁جیرۆک	-11.6666
▁خاولی	-11.6667
▁شارستانیەت	-11.6667
▁هەڵگرتو	-11.6667
▁وانەبوو	-11.6668
▁ئەچوو	-11.6668
▁خێزانەکەت	-11.6669
▁زەویەکەوە	-11.6669
▁ئابا	-11.6669
▁جیناتی	-11.667
▁مۆڵەت	-11.667
▁بخۆم	-11.6671
▁دەسەڵاتدار	-11.6671
▁سێجا	-11.6671
▁پۆپ	-11.6673
ڵەتی	-11.6673
▁پیاوێك	-11.6673
▁دۆڕاو	-11.6675
ناوچوون	-11.6675
▁پێبکرێت	-11.6676
▁ڕزگاربوون	-11.6676
▁ڕێبەر	-11.6676
▁سەقامگیر	-11.6677
▁بزوێنەر	-11.6677
▁لێکوڵینەو	-11.6677
▁نیوتن	-11.6677
▁پۆلێن	-11.6677
▁سوات	-11.6678
▁گۆکردن	-11.6678
▁بەرگرییەی	-11.6678
▁مرۆڤناس	-11.6678
▁ڕووبەڕوو	-11.6679
رۆف	-11.6679
▁پەڕەیە	-11.6679
▁قێز	-11.668
▁رسێک	-11.668
▁هەز	-11.668
▁دەیانبینین	-11.668
▁کامێرایەکی	-11.668
▁وایەرێک	-11.6681
▁فێربین	-11.6681
▁ئەندێشەی	-11.6682
▁تەواوکاری	-11.6682
▁بادەم	-11.6682
▁سیاسەت	-11.6682
▁ریقی	-11.6682
▁خەتا	-11.6683
▁لەبەرەئ	-11.6683
▁ببەخشێت	-11.6683
▁ئانج	-11.6684
▁ئەنیش	-11.6684
▁نایر	-11.6684
▁ریتانی	-11.6685
▁رۆب	-11.6685
▁یرکردن	-11.6685
▁دڵخۆشبوون	-11.6686
▁فێرکەر	-11.6686
▁پرێ	-11.6686
▁بۆندێک	-11.6686
▁شاندن	-11.6686
▁دەیخۆین	-11.6686
▁داناوه	-11.6687
▁ناتەوێ	-11.6688
▁ژورەدا	-11.6688
înît	-11.6688
▁سيَ	-11.6688
▁جێبەجێکار	-11.6689
▁شانۆکه	-11.6689
▁بەتام	-11.6689
گما	-11.669
▁خواروو	-11.6692
▁منداڵەكان	-11.6692
ژداربو	-11.6694
▁رشوێنێک	-11.6694
مێنت	-11.6694
▁بیڵێیت	-11.6695
▁ڵگاکانمان	-11.6696
▁ئەنفلۆنزایە	-11.6697
▁بۆنۆ	-11.6697
▁كێك	-11.6699
▁باڵاکان	-11.6699
▁تەوا	-11.67
▁گەورەبون	-11.67
▁کۆماڵ	-11.6701
▁ئیشار	-11.6702
▁شلێر	-11.6702
▁دڵنیایەوە	-11.6703
▁کردویەتی	-11.6704
▁دەستەواژەیەک	-11.6705
▁پرسیارێك	-11.6705
▁لێکۆڵینەوانە	-11.6705
▁دەخۆین	-11.6706
▁ترساندن	-11.6706
▁ئیڤ	-11.6707
▁خشیش	-11.6708
▁سێرک	-11.6708
▁برسا	-11.6709
▁فکرەیەک	-11.6711
وارتز	-11.6712
▁گەشبینییەک	-11.6712
▁گفتوگۆیانە	-11.6713
▁بپرسیت	-11.6714
▁سوڕماوە	-11.6714
▁خوود	-11.6715
▁تێکرد	-11.6717
▁جووڵەی	-11.6718
▁پێبدات	-11.6718
ڵکشان	-11.6718
▁گڵۆپەکە	-11.6719
▁کۆمەڵگاکەی	-11.6719
▁سەربازییەکانی	-11.672
▁ناشتوان	-11.6721
▁پایت	-11.6723
▁بوتڵێک	-11.6723
▁مۆزەخانەکە	-11.6725
▁بگوازرێ	-11.6725
▁مژین	-11.6726
▁چارەس	-11.6727
▁ئاسنین	-11.6727
▁بیناک	-11.6727
▁کاپ	-11.6728
▁بیستبێت	-11.6728
▁بەرنامەکە	-11.6732
▁دەگۆڕین	-11.6732
▁کەیسێک	-11.6734
▁هەردوکمان	-11.6734
▁لێدابوو	-11.6735
▁نیناوی	-11.6738
▁نێوانماندا	-11.6738
▁مەبەستەکەیە	-11.6739
▁تێپەڕێت	-11.6739
▁روبەر	-11.674
▁ڕوویاندا	-11.6741
▁ڕاهاتبوو	-11.6743
▁کەرت	-11.6744
▁ساده	-11.6745
▁هەستێکت	-11.6745
▁سیتی	-11.6746
▁سەوزەو	-11.6749
▁لەسەردەم	-11.6749
▁نەبینراو	-11.675
▁پۆز	-11.6752
▁جانتاکە	-11.6752
▁باند	-11.6753
▁فۆن	-11.6754
▁دایدەنێ	-11.6754
مۆڵە	-11.6757
دەبەیت	-11.6757
▁ڕاگ	-11.6757
▁ماریا	-11.6759
▁حاڵەتەکە	-11.6759
▁لەڕوو	-11.676
▁تێیاندا	-11.676
▁قاپێک	-11.6762
▁نەچوبو	-11.6762
▁هێنابێت	-11.6763
▁تۆقی	-11.6764
▁ئیما	-11.6767
▁بواندا	-11.677
▁پەتاتە	-11.6774
▁ئینجانە	-11.6779
▁لیبی	-11.6783
▁پۆستکاردانە	-11.6786
تێکچوو	-11.6793
▁دەستپێک	-11.6794
▁ناچین	-11.6794
▁بخوێنێت	-11.6794
▁چارسەر	-11.6797
▁پڕۆسەکەی	-11.6798
▁میهر	-11.6799
▁لاپتۆپێک	-11.6808
زەری	-11.6813
▁ناوازانە	-11.6816
ەتوانرا	-11.682
▁پڵنگێک	-11.682
▁هۆڕمۆنەکان	-11.6824
▁تووشبو	-11.6829
▁كردوو	-11.683
ماندو	-11.6831
▁بورکانەکان	-11.6832
▁ناڕوون	-11.6834
▁بەخشەر	-11.684
▁توا	-11.6842
▁بەفرەکە	-11.6844
ونیاد	-11.6847
▁تاقیکردنەوەکان	-11.6847
٩٤	-11.685
ێرف	-11.6852
▁کۆچکردن	-11.6855
▁شانس	-11.6861
▁كچ	-11.6862
▁هەرزەکارێک	-11.6868
▁هەڵدەسەنگێن	-11.6871
▁کۆمەڵایەتیانەی	-11.6876
یتالی	-11.6877
▁دەردەبڕ	-11.6879
▁پەنجەیەک	-11.6883
▁خوێندۆت	-11.6883
سادەیی	-11.6889
▁تەحەدایەک	-11.6892
▁لکان	-11.6893
em	-11.6894
▁دڕندەی	-11.6899
▁ژینگەییەکان	-11.6899
▁نایزان	-11.6902
ورەکراو	-11.6904
▁پاڵەوانانە	-11.6906
▁هەڵدایە	-11.6913
▁تابلۆکان	-11.6913
پەنجەرەی	-11.6921
ژینەوە	-11.6922
شتوو	-11.6923
▁تۆمارکراو	-11.6931
گێڕینەوە	-11.6933
▁قاندن	-11.6952
وتار	-11.6955
اونەتەوە	-11.6956
ەزایی	-11.6957
▁پەمەییەک	-11.696
▁هاوارکردن	-11.6969
▁خشتەیەک	-11.6975
▁ئاوەتەک	-11.6976
▁دڵنیانی	-11.6979
▁هەڵدان	-11.698
▁دوەم	-11.6983
▁چالاکییەکان	-11.6987
▁کۆبک	-11.6996
▁توێژاڵێک	-11.6999
کرابن	-11.7001
▁ئۆتۆمبیلەکە	-11.7002
▁هێلان	-11.7004
▁کاروبارەکان	-11.7015
▁ڕاستییەی	-11.7016
▁پاوان	-11.7017
▁روداوانە	-11.7019
بڕم	-11.702
▁تاریکەکان	-11.7022
▁پێوەرەکان	-11.7023
▁دووچار	-11.7025
▁ڕەنگاوڕەنگەکان	-11.7025
▁شۆڕشەکە	-11.7028
▁مایکرۆفۆنێک	-11.7035
▁دەرگایەک	-11.7037
▁هەستەوەرەکان	-11.704
▁ڕاگر	-11.7043
▁شلەی	-11.705
▁کلتورەکە	-11.7051
▁نامۆکان	-11.7057
▁سەگێک	-11.706
▁گەشتەکەمان	-11.7061
▁سەگەکان	-11.7065
▁نەخشەکە	-11.7066
▁ڕواندن	-11.7068
▁کارتێک	-11.707
▁دراوسێک	-11.7071
▁براکە	-11.7074
خستنە	-11.7081
▁هەژارنشینەکان	-11.7089
بریسک	-11.7093
▁هەستەوەرێک	-11.7096
▁تاقیگەیەک	-11.71
▁عەرەبانە	-11.7114
▁دەرهێناو	-11.7117
پێدانان	-11.7145
▁شێرپەنجەکە	-11.7154
سەرەتادا	-11.7168
▁بیستبوو	-11.7178
▁ئێوارەیەک	-11.7192
▁دەمتوان	-11.7215
▁دەرخستو	-11.7216
▁بەهێزکردن	-11.7216
ایل	-11.7229
جێرسی	-11.723
▁پەڕەیەک	-11.7233
▁لمیش	-11.7236
▁سەماکەرێک	-11.724
▁ئینجێک	-11.7252
▁دەنێرێ	-11.7256
▁نوسراوەکان	-11.7259
▁وێنەگرێک	-11.7276
▁نوستنەکە	-11.7294
▁ڕایبگر	-11.73
▁لایەنگر	-11.7302
ویتایە	-11.7303
▁جانتایەک	-11.7314
▁دواکەوت	-11.7315
▁لێوەرگرت	-11.7326
▁راستییەک	-11.7344
▁چارەیەک	-11.7348
▁ئەتۆمێک	-11.7353
▁ڕاپۆرتێک	-11.7353
٢٩	-11.7356
بەرئەوەی	-11.7372
▁دنیایەک	-11.7374
▁ئەزمونەکان	-11.7383
▁نرخەی	-11.7392
▁دەڕوخێ	-11.7392
▁لێدەکرێ	-11.7402
خانەبوون	-11.7405
چیسکی	-11.7412
▁پێڵاوەکان	-11.7412
▁هیواکان	-11.7421
▁تەمانی	-11.7428
▁گفتوگۆکان	-11.7432
▁dik	-11.7436
▁دورگەیە	-11.7458
قەشەکە	-11.7458
▁خزمەتگوزارییەک	-11.7472
▁پاسکیلێک	-11.7492
▁لێدراو	-11.7493
▁بۆمبێک	-11.7494
ندووه	-11.7495
▁چاوپێکەوتنێک	-11.7497
▁پێوەرێک	-11.7519
ژۆ	-11.7533
▁پشتەوەی	-11.7536
▁سەرچاو	-11.7548
▁بوکەڵ	-11.7605
▁ووڵاتەکە	-11.7607
▁گۆرانییەک	-11.761
▁کەدەتوان	-11.7612
▁چاوپێکەوتنەکە	-11.7626
▁دەگە	-11.7638
▁نیوئۆرلیان	-11.7644
▁دەیانگو	-11.7654
▁ناسک	-11.7671
▁دەگۆڕدرێ	-11.7679
شنده	-11.7695
کەرەوەیەک	-11.7732
▁هاوکێشەی	-11.7752
▁گەرمیەک	-11.7752
گرێت	-11.7753
▁هەڵدێ	-11.7759
▁دەخرێ	-11.7762
▁ڵکانێک	-11.7768
بانی	-11.7784
▁هەژارییە	-11.7787
▁هەنگاوانە	-11.7788
▁سەقفەکە	-11.7797
راونەتە	-11.7822
▁ئۆرگ	-11.7839
▁هەرکەسێ	-11.786
كێشا	-11.7861
▁فیر	-11.787
انزە	-11.7876
رازیل	-11.7879
▁خەونێک	-11.7893
▁کلتورێک	-11.7903
خراوی	-11.7917
▁بیرکردنەوەیەک	-11.7927
ێوی	-11.7927
▁باسکرا	-11.793
▁لەکاتێ	-11.7933
ادار	-11.7945
▁بگۆڕدرێ	-11.7945
▁بەرزبونەوە	-11.7952
▁وویستم	-11.7955
ولای	-11.7962
▁قوتابیەکانم	-11.7962
بەخشیو	-11.7994
▁شانەکەی	-11.8003
تۆپ	-11.8065
یڤۆ	-11.8085
▁دەخۆ	-11.8096
هێنانەوەی	-11.8134
▁فال	-11.8142
▁تەکنیکێک	-11.8144
▁بەڕێوەبەرەکە	-11.8157
▁ڤیدۆک	-11.8186
راکێشان	-11.82
بدرێت	-11.8201
سەربازەکان	-11.8206
▁پەیا	-11.8232
▁ئاگادارب	-11.8246
▁فیلمەکە	-11.825
▁هەیبو	-11.8266
▁راب	-11.8271
▁چالاکانە	-11.8275
▁مادەیەک	-11.8299
سەندن	-11.8373
▁فیو	-11.844
▁دایبی	-11.8461
▁جەنەڕ	-11.8519
▁ویلایەت	-11.8525
ونیەکە	-11.8527
eb	-11.8538
ریك	-11.8546
▁هەفت	-11.855
▁دیزاینکردن	-11.857
▁دەقەیە	-11.861
▁ئاڕاست	-11.8652
▁نەخۆشییانە	-11.8669
▁مێرگێک	-11.8724
▁بارودۆخ	-11.8748
گۆڕدرێت	-11.8769
نیك	-11.8771
گوێزرێنەوە	-11.8783
▁کڕیارێک	-11.8786
اڵد	-11.8804
▁ڤیدۆ	-11.8841
▁دەگواز	-11.8849
▁تەقلیدییە	-11.8859
اکیم	-11.8889
▁دەفرۆشر	-11.8922
▁بۆماوەیەک	-11.8939
▁مۆبایلێک	-11.8953
▁تاقیکرد	-11.8991
ڕاپ	-11.8997
بردووە	-11.9
▁بەبەرد	-11.9013
▁داشکان	-11.9075
▁ئامادەییەک	-11.9083
ڕیمی	-11.9163
ەنەڕاڵ	-11.9174
▁ڕاهات	-11.9186
▁تواني	-11.9194
▁رووەکانە	-11.9203
تۆڕی	-11.922
▁داخرا	-11.9302
▁لەتەمەن	-11.9324
▁دەزگا	-11.9365
خۆوە	-11.9401
▁دەرکرا	-11.9408
ڕووداوانە	-11.9445
▁نوسراوێک	-11.9509
▁راکێش	-11.9528
▁گواست	-11.9658
▁دەیزان	-11.9678
دەنێین	-11.9776
▁نموون	-11.9804
▁ڕاوێژک	-11.9806
▁جیابک	-11.983
ەیانتوانی	-11.9888
بۆنەی	-11.989
▁بیرکارییەک	-11.992
▁تەندرووست	-11.9976
پێچان	-11.9989
ۆشیا	-12.0007
وگیانیدا	-12.0007
کردبۆوە	-12.0013
بێنم	-12.0053
▁وەربگر	-12.0064
خوازم	-12.0133
▁لەیاد	-12.0247
رزین	-12.03
استانە	-12.0325
مەشقکردن	-12.0356
خوێندەوە	-12.0402
ibe	-12.041
▁شووشەبەندانە	-12.0426
▁رووەکێک	-12.0445
▁تابزان	-12.048
▁بەکارهات	-12.0519
▁ئەڵمان	-12.0547
یەکسانی	-12.0607
بەردەمم	-12.0616
وانەکانی	-12.0617
▁دەرخست	-12.064
iya	-12.0659
▁کەرەست	-12.0742
▁ئاماد	-12.0803
زیندووی	-12.0819
بنێم	-12.083
▁لەبەردەست	-12.0837
▁ڕژێنە	-12.085
اگەیاندنەکان	-12.0861
ڕووەکان	-12.0868
▁دراوسێ	-12.0869
یندۆسە	-12.087
وژێنێت	-12.0875
ڕوون	-12.0889
▁زیادکر	-12.0927
ناچاری	-12.0951
▁فرۆش	-12.0955
▁ئەلکترۆن	-12.0957
دەستەکانی	-12.0979
بیرهێنان	-12.1022
▁مایکرۆفۆن	-12.1038
▁بەشێوە	-12.1078
▁دیموکرات	-12.1101
▁تاقیبک	-12.1117
ایکیا	-12.1123
نێرینە	-12.1137
▁ژمێریار	-12.1149
▁پەمەی	-12.1152
ارخو	-12.1192
ڕوخێت	-12.1194
▁سیفات	-12.1195
▁بگونج	-12.1202
▁تابلۆک	-12.1222
▁ڕاستگۆی	-12.1226
▁سەلامەت	-12.1228
▁توێژاڵ	-12.1228
دەکەوین	-12.1242
قورسی	-12.1251
▁رێژە	-12.1263
▁جادو	-12.1292
▁قەشە	-12.135
▁بورکان	-12.1363
▁پڵنگ	-12.1366
وادەکەی	-12.1369
شانتان	-12.1413
▁بچێ	-12.1432
فرۆشت	-12.1436
ناوبردنی	-12.1437
▁بەقەد	-12.1439
شاراوەی	-12.1446
▁هەردوک	-12.1471
گراف	-12.1476
کوێیەک	-12.1476
فۆرم	-12.1476
دەخەین	-12.148
خۆڕایی	-12.148
▁نێجیری	-12.148
رافە	-12.1481
▁تێپەڕاند	-12.1482
ئاباد	-12.1483
لێکۆڵ	-12.1485
گەڕام	-12.1485
ڕاگرتنی	-12.149
ژیانماندا	-12.149
یاسایی	-12.149
تەواو	-12.1491
ئاڕ	-12.1491
ڕەنگ	-12.1491
ڤیدیۆییەکان	-12.1492
فیلم	-12.1492
گیراوه	-12.1492
دەگات	-12.1493
لاریا	-12.1493
چالاک	-12.1493
فراوان	-12.1494
سەرچاوە	-12.1494
شێوازێک	-12.1494
پارچە	-12.1494
جێگەی	-12.1494
نەخۆشییە	-12.1495
دۆلار	-12.1495
گەورە	-12.1495
ڕێژەی	-12.1496
بەڵکو	-12.1496
جیاوازی	-12.1496
دەتوانن	-12.1496
سوپاس	-12.1496
داهاتوودا	-12.1497
هەروەها	-12.1497
گەڕەک	-12.1497
بەستنەوە	-12.1499
لەبارەی	-12.1499
بەدەست	-12.1499
یاخو	-12.15
جوڵێ	-12.15
ناکەن	-12.1501
دیسان	-12.1502
پێکراو	-12.1503
ردەوام	-12.1506
کێشن	-12.1512
بەردەوام	-12.1513
بزانیت	-12.1518
بڵێین	-12.1529
اهەنگ	-12.1537
▁تێگەشت	-12.1537
ەرامەتە	-12.1548
▁دەستەواژەی	-12.1549
▁جوڵانەوەی	-12.1557
▁بەریتانی	-12.1569
▁بژاردەی	-12.1571
ستۆرانتێک	-12.1571
پێنجی	-12.1574
▁بەدەس	-12.1578
▁سوودگۆڕکێ	-12.1579
▁هەڵدەبژێر	-12.158
▁دادەنرێ	-12.1583
دەکەیت	-12.1583
▁بگۆڕێ	-12.1587
▁جێگرەوەی	-12.159
▁بسوڕێ	-12.1593
▁بزوێن	-12.1594
▁بدۆزن	-12.1595
▁دەیەوێ	-12.1597
▁کۆمپانی	-12.1602
خۆشکەرە	-12.1602
ڵۆپێک	-12.1606
ووینەتە	-12.1612
▁سەرسوڕهێنە	-12.1612
ڵبژێرن	-12.1613
▁دامەزرێن	-12.1615
کەوتمە	-12.1619
est	-12.1622
▁فغان	-12.1624
▁دامەزرا	-12.1625
گەڕێین	-12.163
▁ئارادا	-12.163
▁دەکەوی	-12.1631
ووبەڕوو	-12.1637
▁جێبەج	-12.1637
▁پارێزگا	-12.1637
پێشبردن	-12.1638
▁کانزاکا	-12.1638
ابردودا	-12.1638
▁فرانسیس	-12.164
یشتوون	-12.164
▁خۆنیشان	-12.1641
▁...........	-12.1642
▁كاتژمێر	-12.1643
مەڵایەتی	-12.1643
▁لەوکاتە	-12.1643
▁............	-12.1643
پشکنی	-12.1644
▁سەلام	-12.1644
▁دەوڵەمە	-12.1644
▁درێژخای	-12.1644
پاڕانەوە	-12.1644
▁هاریکار	-12.1644
▁ئوستڕا	-12.1645
بەرووبوومە	-12.1645
▁خەسڵەت	-12.1645
▁ئاخاوتن	-12.1645
▁ئەزمەن	-12.1645
▁ئەوماشێن	-12.1645
▁بەکترییای	-12.1645
▁تەکنۆلۆجی	-12.1645
▁دادەگیرسێ	-12.1645
▁دەیخولێن	-12.1645
▁فەوزای	-12.1645
▁فەڕەنس	-12.1645
▁لێکبدەی	-12.1645
▁لەتاقیگەک	-12.1645
▁مەکێنزی	-12.1645
▁هەڵدەواس	-12.1645
▁٥٨١	-12.1645
▁پڕۆجێکت	-12.1645
▁پیادەڕەو	-12.1645
elek	-12.1645
guherîn	-12.1645
istan	-12.1645
izan	-12.1645
rîk	-12.1645
sala	-12.1645
برژاند	-12.1645
ترۆپۆلیتان	-12.1645
دەگێڕا	-12.1645
فزێۆن	-12.1645
لبۆرن	-12.1645
مەرکەزی	-12.1645
هەڵدەقو	-12.1645
وەرنەگرت	-12.1645
پیاخشان	-12.1645
گڵاندیش	-12.1645
یساگۆرس	-12.1645
ەشڵەژێ	-12.1645
▁.........	-12.1645
▁mir	-12.1645
▁ئاڵۆسکاو	-12.1645
▁ئۆڵۆم	-12.1645
▁ئیثوبیا	-12.1645
▁ئیسرائیل	-12.1645
▁ئیسفەنج	-12.1645
▁ئەجێندای	-12.1645
▁ئەستور	-12.1645
▁ئەفلاتو	-12.1645
▁ئەلیکترۆنی	-12.1645
▁ئەنگسترۆم	-12.1645
▁ئەولەویەت	-12.1645
▁باروودۆخە	-12.1645
▁بازاڕگێڕ	-12.1645
▁بدۆزرێت	-12.1645
▁بسمارک	-12.1645
▁بسوڕمێت	-12.1645
▁بفرۆشن	-12.1645
▁بڕەخسێن	-12.1645
▁بکرێیت	-12.1645
▁بگوشی	-12.1645
▁بیانفرۆشی	-12.1645
▁بیجوڵێنە	-12.1645
▁بێرفوتەکان	-12.1645
▁بێکۆتای	-12.1645
▁بەربەرێکان	-12.1645
▁بەردەبیتەوە	-12.1645
▁بەڕێوەدەبرا	-12.1645
▁بەکارنەهێنا	-12.1645
▁تاقیکرنەوە	-12.1645
▁ترابێکۆلا	-12.1645
▁تراژیدیه	-12.1645
▁تفەنگ	-12.1645
▁تیلۆنیا	-12.1645
▁تیمساح	-12.1645
▁تیمێرۆسل	-12.1645
▁تێناپەڕێت	-12.1645
▁تێنەگەشتن	-12.1645
▁تێنەگەشتو	-12.1645
▁تەلەڤیزیۆن	-12.1645
▁جاڵجاڵۆکه	-12.1645
▁جاڵجاۆکە	-12.1645
▁جیادەکرایتەوە	-12.1645
▁حەشەرات	-12.1645
▁خاکەناز	-12.1645
▁خلیسکێنە	-12.1645
▁دابڕان	-12.1645
▁دادەبەزێت	-12.1645
▁دادەمەزرێن	-12.1645
▁دانامەزرێ	-12.1645
▁داڕووخا	-12.1645
▁دوكەڵ	-12.1645
▁دوورەپەرێز	-12.1645
▁ديوارەكان	-12.1645
▁دۆڵاب	-12.1645
▁دیالێکت	-12.1645
▁دیسەمبەر	-12.1645
▁دیڤیدی	-12.1645
▁دیکۆرەیشن	-12.1645
▁دەگوونجێ	-12.1645
▁دەگێڕن	-12.1645
▁رابردوو	-12.1645
▁رەخنەی	-12.1645
▁رەشپێستەکان	-12.1645
▁زەبر	-12.1645
▁ستریپۆکۆ	-12.1645
▁سرنج	-12.1645
▁سریلانکا	-12.1645
▁سپیۆنزا	-12.1645
▁سیناتۆر	-12.1645
▁سەرسورهێنەر	-12.1645
▁سەرسووڕهێنەر	-12.1645
▁شارستانێتی	-12.1645
▁شایەتحاڵ	-12.1645
▁شمشێر	-12.1645
▁شپرزە	-12.1645
▁شەبەنگ	-12.1645
▁غەریز	-12.1645
▁فۆتۆشۆپ	-12.1645
▁فیدباک	-12.1645
▁قارچک	-12.1645
▁قوڕقوشم	-12.1645
▁قڕژاڵ	-12.1645
▁قۆناخ	-12.1645
▁قەراغە	-12.1645
▁كالیفۆرنیا	-12.1645
▁كۆمەڵگا	-12.1645
▁لژمیرس	-12.1645
▁لیکترۆنی	-12.1645
▁لەخوێندا	-12.1645
▁لەگەشەسەندن	-12.1645
▁مارلبۆرۆ	-12.1645
▁مایکرۆمیتەرێک	-12.1645
▁مشتەرییەکان	-12.1645
▁مەراسیم	-12.1645
▁مەرەکەب	-12.1645
▁مەزاد	-12.1645
▁مەلۆتکە	-12.1645
▁مەگەزی	-12.1645
▁نازناو	-12.1645
▁نۆرمبێرگ	-12.1645
▁نەشتەرگەری	-12.1645
▁هاوپەیمانەکان	-12.1645
▁هایدرۆجین	-12.1645
▁هەڵاوساوانە	-12.1645
▁هەڵسەنگاند	-12.1645
▁هەڵواسرا	-12.1645
▁هەڵوێستە	-12.1645
▁وروژاند	-12.1645
▁ویسکییەکەوە	-12.1645
▁پاگەندە	-12.1645
▁پراکتیس	-12.1645
▁پرتەقالی	-12.1645
▁پڕوپاگ	-12.1645
▁پڕوپاگەندە	-12.1645
▁پیاهەڵدان	-12.1645
▁پیاوکوژ	-12.1645
▁پێودانگێک	-12.1645
▁پەردەکولە	-12.1645
▁پەڕەشوتی	-12.1645
▁چوکلێت	-12.1645
▁چکلێت	-12.1645
▁چۆکۆلێت	-12.1645
▁چەرچەف	-12.1645
▁چەڵەم	-12.1645
▁ڕابواردن	-12.1645
▁ڕادەکشا	-12.1645
▁ڕافائێل	-12.1645
▁ڕێنیشاند	-12.1645
▁ڕێگەچارە	-12.1645
▁ڕەخساند	-12.1645
▁ڕەهەند	-12.1645
▁ژاوەژاو	-12.1645
▁ڤیتامین	-12.1645
▁ڤیستڤاڵ	-12.1645
▁ڤێلاز	-12.1645
▁کامبۆدیا	-12.1645
▁کاولکاری	-12.1645
▁کڕۆمۆسۆم	-12.1645
▁کڵاشینکۆف	-12.1645
▁کەبەخەبەر	-12.1645
▁گلبەرت	-12.1645
▁گیروگرفت	-12.1645
▁گێژەڵۆکە	-12.1645
▁گەنمەشامی	-12.1645
▁ڵبژێرین	-12.1645
▁یادگاریەک	-12.1645
▁بەتێپەڕ	-12.1645
▁بەخیوکردن	-12.1645
▁تێرمیناڵ	-12.1645
▁تەلاق	-12.1645
▁دەنگوباس	-12.1645
▁ساهاران	-12.1645
▁شاگرد	-12.1645
▁شکستخواردو	-12.1645
▁لۆگۆ	-12.1645
▁مادۆنا	-12.1645
▁پڕدەبین	-12.1645
▁کەلتوور	-12.1645
بەخۆبون	-12.1645
شەفافی	-12.1645
قیرتاونەکراو	-12.1645
چرپاند	-12.1645
▁mîly	-12.1645
▁ئابڵوقە	-12.1645
▁ئاخیر	-12.1645
▁ئاڵتوون	-12.1645
▁ئوستوڕا	-12.1645
▁ئەشکەوتێک	-12.1645
▁ئەکادمیەک	-12.1645
▁بزمار	-12.1645
▁بشارێت	-12.1645
▁بقۆز	-12.1645
▁بيرۆكە	-12.1645
▁بژێوی	-12.1645
▁بگۆڕیین	-12.1645
▁بێمێشک	-12.1645
▁بێوێنەیە	-12.1645
▁بەساڵاچوو	-12.1645
▁تراجیدی	-12.1645
▁جەڕەس	-12.1645
▁خواحاف	-12.1645
▁خواردەمەنی	-12.1645
▁دەوڵەت	-12.1645
▁دەڕەخسێن	-12.1645
▁رەهەندی	-12.1645
▁زلێکردن	-12.1645
▁زەلکاوەکان	-12.1645
▁سحری	-12.1645
▁سەلماندن	-12.1645
▁شڵەقێن	-12.1645
▁شیزۆفێرنی	-12.1645
▁مشتوم	-12.1645
▁موفاج	-12.1645
▁مۆسیقاژەن	-12.1645
▁مەکسیک	-12.1645
▁نەخواردوە	-12.1645
▁نەهامەتی	-12.1645
▁هەسارەکان	-12.1645
▁هەڵاوساویانەش	-12.1645
▁وەریدەگری	-12.1645
▁پشگیری	-12.1645
▁پەيوە	-12.1645
▁ڕونادات	-12.1645
▁ڕۆژگارە	-12.1645
▁ڕیکخراوێک	-12.1645
▁ڕێستۆرانتەک	-12.1645
▁کافتریاکان	-12.1645
▁کتیبەکە	-12.1645
▁کریستۆف	-12.1645
▁یاخیبو	-12.1645
شیووەبووەکان	-12.1645
نسلڤانیا	-12.1645
هایمەر	-12.1645
وپۆنت	-12.1645
▁ئامۆزا	-12.1645
▁ئینگلیزەکان	-12.1645
▁بشاریت	-12.1645
▁بێگانەیە	-12.1645
▁بەرهەڵست	-12.1645
▁بەڕیوەب	-12.1645
▁دەسوڕێ	-12.1645
▁سەرنوسەر	-12.1645
▁سەرکەوم	-12.1645
▁سەلاجە	-12.1645
▁فیسچ	-12.1645
▁نالەبار	-12.1645
▁نەزۆک	-12.1645
▁هەڵپچ	-12.1645
▁پاشەکشە	-12.1645
▁پاپوا	-12.1645
▁چەنگا	-12.1645
▁کابرا	-12.1645
▁گرانۆلا	-12.1645
ابكێش	-12.1645
شاردرێت	-12.1645
مبولێک	-12.1645
وێستگەکان	-12.1645
▁ئۆکسفۆرد	-12.1645
▁الهام	-12.1645
▁برژاو	-12.1645
▁حەمام	-12.1645
▁دەمێنمەوە	-12.1645
▁دەورووبەر	-12.1645
▁سیاتڵ	-12.1645
▁سیسرک	-12.1645
▁شوقەیەک	-12.1645
▁فۆستەر	-12.1645
▁قۆرخ	-12.1645
▁مەجال	-12.1645
▁هەڕاج	-12.1645
▁پڵۆت	-12.1645
▁چەرۆک	-12.1645
▁خاوەندارێتی	-12.1645
تابۆل	-12.1645
خورپ	-12.1645
▁ئیبۆلا	-12.1645
▁بیرناکەنەوە	-12.1645
▁دەرنەچ	-12.1645
▁دەرچۆ	-12.1645
▁زۆرجوان	-12.1645
▁میکرۆن	-12.1645
▁نێژراو	-12.1645
▁پێداچونەوە	-12.1645
▁پەرێشان	-12.1645
▁کارەکتەر	-12.1645
ناودەچن	-12.1645
▁بنمیچ	-12.1645
▁بیخۆن	-12.1645
▁دەهێڵیت	-12.1645
▁دەپێچ	-12.1645
▁راهیبە	-12.1645
▁رەچەت	-12.1645
▁بپێچ	-12.1645
▁بێسود	-12.1645
▁دادەپۆش	-12.1645
▁رایبکێشیت	-12.1645
▁مەکبی	-12.1645
▁کووشن	-12.1645
▁ڵگرتوو	-12.1645
▁هەڵواسی	-12.1645
وبۆچوونەک	-12.1645
▁ئامەدە	-12.1645
▁دواکەوتووەکان	-12.1645
▁دەسەپێ	-12.1645
▁ستۆدیەک	-12.1645
▁سەرنەکەوتن	-12.1645
▁فێمت	-12.1645
▁هەڵبستێ	-12.1645
▁وازهێنان	-12.1645
▁پەرلەمان	-12.1645
▁پەشیمان	-12.1645
▁ئێسقان	-12.1645
▁بهێڵینەوە	-12.1645
▁بەزووی	-12.1645
▁دراگۆن	-12.1645
▁دەشکێن	-12.1645
▁دەلاقە	-12.1645
▁قەترەی	-12.1645
▁نایناسیت	-12.1645
▁پیدراو	-12.1645
▁کەنارەکە	-12.1645
y	-13.0982
w	-13.5417
!	-13.5418
l	-13.5419
:	-13.542
؟	-13.5421
)	-13.5422
&	-13.5423
،	-13.5424
