<unk>	0
<s>	0
</s>	0
▁,	-2.85204
▁.	-3.22733
s	-3.29441
i	-3.42037
ų	-3.88958
▁	-3.96467
o	-3.99956
t	-4.16409
ą	-4.19634
▁ir	-4.24745
as	-4.44735
u	-4.47113
a	-4.5518
e	-4.59895
;	-4.7044
▁&	-4.71055
quo	-4.82302
us	-4.8828
▁kad	-4.91523
▁tai	-4.94965
me	-4.99086
▁yra	-5.02078
ai	-5.22421
os	-5.25791
▁iš	-5.27882
į	-5.33563
▁į	-5.34682
▁su	-5.37733
▁Tai	-5.40238
au	-5.48816
ti	-5.61191
▁kaip	-5.626
▁?	-5.65139
▁aš	-5.67293
▁Ir	-5.69324
▁buvo	-5.7184
▁:	-5.72619
▁mes	-5.74854
k	-5.80325
gi	-5.83139
te	-5.84203
▁ne	-5.84978
ė	-5.86207
ę	-5.87392
▁kuri	-5.88951
(	-5.89137
▁)	-5.8917
▁ji	-5.8983
oje	-5.91683
▁savo	-5.94416
▁gali	-5.97349
▁apie	-6.01733
▁kai	-6.07323
▁jie	-6.18821
▁ar	-6.20604
▁turi	-6.21145
▁bet	-6.22919
▁man	-6.2402
▁taip	-6.2668
▁tik	-6.26703
▁mano	-6.29639
„	-6.30602
▁ką	-6.30971
▁Aš	-6.32901
is	-6.34828
▁-	-6.36374
▁jūs	-6.37426
es	-6.37666
▁kas	-6.401
▁laba	-6.42475
m	-6.4258
▁kur	-6.44131
▁mūsų	-6.45474
▁to	-6.45824
▁per	-6.46067
ais	-6.46951
▁“	-6.48709
p	-6.49089
▁vis	-6.49298
g	-6.50184
je	-6.53617
▁Bet	-6.55529
▁jei	-6.56875
r	-6.59096
▁nuo	-6.60256
▁pat	-6.6063
▁nes	-6.61812
▁Juoka	-6.6363
▁daug	-6.64525
▁–	-6.68916
▁met	-6.69476
▁kurie	-6.69841
▁jų	-6.71141
▁P	-6.71507
▁dar	-6.72098
▁būti	-6.76139
▁Mes	-6.78587
čiau	-6.80416
▁už	-6.80697
d	-6.81081
▁K	-6.84508
.	-6.84741
š	-6.88386
l	-6.88995
▁pa	-6.89046
ės	-6.90037
▁nor	-6.9143
▁žmonių	-6.92053
▁—	-6.94835
n	-6.95044
▁po	-6.96179
▁T	-6.96542
▁gyvenim	-6.96908
▁dėl	-6.9851
▁čia	-6.98786
ž	-6.99234
odėl	-6.99367
▁dalyk	-6.99734
yje	-7.01693
-	-7.01813
▁o	-7.02548
▁O	-7.02856
iau	-7.02937
omis	-7.02988
▁jos	-7.03439
▁daugiau	-7.03448
▁žmonės	-7.06214
y	-7.0726
ui	-7.08025
▁Jis	-7.08051
▁mums	-7.0819
nt	-7.08765
▁prieš	-7.09113
▁t	-7.09258
ma	-7.09764
▁ta	-7.09858
ams	-7.1118
▁Ar	-7.11646
uose	-7.12062
▁ši	-7.12364
ęs	-7.12802
▁jo	-7.13206
▁dabar	-7.13515
▁jums	-7.14281
ys	-7.14586
▁nori	-7.14776
ra	-7.15032
▁nėr	-7.16649
▁prie	-7.17586
▁Jie	-7.18179
▁nei	-7.18586
▁jau	-7.18727
lojimai	-7.19422
▁tam	-7.20292
ta	-7.20858
▁visi	-7.21164
apos	-7.21738
▁jog	-7.22447
am	-7.24
▁tiek	-7.2876
▁Kai	-7.30113
▁vienas	-7.31074
▁Jei	-7.31154
gu	-7.31267
▁reikia	-7.3202
▁juos	-7.32688
▁būtų	-7.32925
▁mane	-7.33987
▁net	-7.34154
z	-7.34372
ri	-7.34449
ems	-7.36984
▁nu	-7.3748
ųjų	-7.3772
mi	-7.39324
▁ties	-7.39841
▁ant	-7.40411
▁Man	-7.40674
ki	-7.41734
▁padaryt	-7.41807
▁ko	-7.41895
▁jį	-7.4263
▁iki	-7.42908
▁tiesiog	-7.43664
▁tuo	-7.43675
▁B	-7.44554
▁S	-7.44978
▁Ne	-7.4548
b	-7.45574
▁kurios	-7.4597
▁gal	-7.46135
▁Jūs	-7.48386
▁niek	-7.49602
ja	-7.49955
▁arba	-7.51204
ją	-7.51314
▁be	-7.51508
tų	-7.52017
▁Ji	-7.52185
▁tada	-7.52774
▁D	-7.52991
ame	-7.53513
▁vieną	-7.54801
▁tą	-7.55387
▁k	-7.55735
▁metu	-7.55812
▁Taip	-7.55986
▁tikrai	-7.56555
ant	-7.56602
▁Št	-7.57127
iai	-7.57517
▁pasauli	-7.57732
▁tikr	-7.58232
siu	-7.58773
▁A	-7.5911
▁at	-7.59234
▁kit	-7.59284
▁Tad	-7.59355
ūs	-7.60068
štai	-7.60298
▁kiek	-7.61589
▁Na	-7.6261
▁šį	-7.63153
▁Iš	-7.63975
▁Ši	-7.64168
▁tu	-7.64246
en	-7.6503
▁Kaip	-7.65268
er	-7.65607
▁kart	-7.6634
▁maž	-7.66773
davo	-7.67033
▁visk	-7.67367
▁Tačiau	-7.67403
da	-7.67451
▁tarp	-7.67553
▁visa	-7.68423
▁viena	-7.68582
▁šie	-7.69403
▁ten	-7.71646
▁negali	-7.72566
▁klausim	-7.72694
▁kuriuos	-7.73326
aus	-7.73547
▁♪	-7.74691
le	-7.74945
▁dali	-7.75257
▁Ačiū	-7.75339
▁keli	-7.75413
▁kartu	-7.76073
dami	-7.76422
▁laiko	-7.76549
▁pasaulyje	-7.76821
li	-7.7694
ms	-7.77497
▁M	-7.7781
▁pasi	-7.77985
in	-7.78462
▁galima	-7.79068
▁šią	-7.79079
an	-7.81123
▁J	-7.81968
▁buva	-7.83046
▁šis	-7.8408
▁kodėl	-7.84097
imas	-7.8422
c	-7.84888
būt	-7.84929
na	-7.85315
▁tas	-7.8578
ing	-7.85843
▁sukurt	-7.86878
▁mus	-7.86948
ite	-7.87214
▁gerai	-7.87315
▁G	-7.8772
▁ap	-7.87764
uoti	-7.88604
al	-7.88774
kl	-7.88825
v	-7.8915
ent	-7.89159
ar	-7.91047
▁j	-7.9106
▁daro	-7.91287
inė	-7.91817
▁Pa	-7.92355
mas	-7.92459
▁lyg	-7.92796
▁kita	-7.9366
imo	-7.94242
▁Mano	-7.94332
▁bus	-7.9446
j	-7.94472
dė	-7.94596
mis	-7.94641
▁Dabar	-7.94945
mo	-7.94999
▁daryti	-7.95204
sta	-7.95376
▁kalba	-7.95871
▁nam	-7.96018
▁sako	-7.96384
jo	-7.9663
ka	-7.96653
f	-7.9707
▁žmonėm	-7.9722
ome	-7.97363
oms	-7.97442
ur	-7.97543
umo	-7.97734
▁šios	-7.98176
▁du	-7.98251
čių	-7.98479
▁dieną	-7.98708
vi	-7.98737
ju	-7.98797
▁reiškia	-7.99226
▁turėjo	-7.99558
▁kažka	-7.99592
esu	-8.00669
▁labiau	-8.01536
jau	-8.01797
▁metus	-8.0198
▁žmon	-8.02216
▁10	-8.02289
do	-8.0233
ū	-8.02397
▁pasakyt	-8.02786
▁visiška	-8.02787
▁niekad	-8.02811
▁jiem	-8.03314
▁E	-8.03683
lo	-8.03711
ose	-8.04176
▁esam	-8.04811
▁šiandien	-8.04981
re	-8.05105
▁toki	-8.05277
ko	-8.05324
inės	-8.06416
▁pasakė	-8.06468
la	-8.06685
▁visą	-8.06706
▁žinot	-8.0761
▁pači	-8.07895
▁atrodo	-8.0807
ntis	-8.08375
▁galėtų	-8.08769
▁darb	-8.08848
▁g	-8.09018
▁H	-8.091
damas	-8.09264
▁Čia	-8.09653
▁vėl	-8.09721
sime	-8.10699
▁nebuvo	-8.1112
on	-8.11303
▁Nes	-8.12167
ina	-8.12235
▁toks	-8.12326
uot	-8.12688
▁kelet	-8.12692
▁aplink	-8.13051
▁kol	-8.1316
ro	-8.13692
esni	-8.13844
uomet	-8.14547
▁internet	-8.14695
▁skirting	-8.14897
▁...	-8.15516
▁kiekviena	-8.15588
▁tokia	-8.15764
avo	-8.16064
yti	-8.16575
ek	-8.16674
▁žmogau	-8.16712
▁šia	-8.18044
▁ja	-8.18646
▁vien	-8.18675
▁pri	-8.18758
iškai	-8.18834
▁pas	-8.19203
h	-8.19242
uoja	-8.1957
inių	-8.20319
ojo	-8.20354
kit	-8.21509
▁viet	-8.21827
▁šių	-8.22108
▁pagal	-8.22391
▁m	-8.22402
▁šio	-8.22776
▁jam	-8.22811
▁kažką	-8.22885
ėčiau	-8.23342
▁nepa	-8.23513
▁gi	-8.23726
ėme	-8.24222
▁istorij	-8.24432
ėjo	-8.24786
▁tuomet	-8.24947
▁pasaulį	-8.26196
▁būt	-8.27065
el	-8.27436
lė	-8.2752
▁žmogu	-8.27534
▁idėj	-8.27804
ga	-8.28373
ne	-8.28563
▁procent	-8.28752
kai	-8.28854
▁problem	-8.29562
▁mato	-8.29657
▁šiuos	-8.2991
▁problema	-8.30301
▁dideli	-8.30559
▁doleri	-8.3089
▁kuo	-8.31077
▁sk	-8.31134
▁žino	-8.31149
▁Kas	-8.31259
▁vaikų	-8.31772
▁film	-8.3184
▁atsi	-8.32072
▁save	-8.32268
▁neturi	-8.32386
daug	-8.32464
S	-8.32738
▁aukšt	-8.32965
▁smegen	-8.33082
▁kitą	-8.33317
▁vyksta	-8.33512
inį	-8.3399
▁šiuo	-8.34027
▁vaikai	-8.34257
▁metai	-8.34354
▁tie	-8.34387
▁veikia	-8.34586
▁galiu	-8.34694
▁šali	-8.35451
▁suprasti	-8.35864
▁sen	-8.35901
▁knyg	-8.35985
mės	-8.3609
inę	-8.36233
ni	-8.36349
▁Turi	-8.36423
yn	-8.36719
inis	-8.36926
ve	-8.37087
▁jus	-8.37671
beveik	-8.37812
▁sau	-8.38022
▁bei	-8.38111
yk	-8.38134
▁visad	-8.38676
no	-8.38756
▁susi	-8.39638
ver	-8.39699
umą	-8.39851
▁lauk	-8.39963
▁Su	-8.40042
▁turėt	-8.40198
oji	-8.41205
▁vanden	-8.41307
▁žinoma	-8.41363
▁pakeisti	-8.41614
nti	-8.42833
▁matyti	-8.43213
▁tur	-8.43497
w	-8.44179
▁visai	-8.44617
pa	-8.44619
▁viska	-8.44626
▁valand	-8.45178
▁darbo	-8.45339
▁jai	-8.45417
▁Yr	-8.45517
▁gyvena	-8.45845
▁dvi	-8.46042
▁idėja	-8.4626
▁toliau	-8.46289
▁geriau	-8.46297
ijos	-8.46299
vo	-8.46469
▁C	-8.46474
▁projekt	-8.46478
▁men	-8.46512
▁tampa	-8.46552
ter	-8.4675
▁istorija	-8.46891
▁smegenys	-8.46986
▁bals	-8.47179
inio	-8.47185
▁pats	-8.47535
▁tau	-8.4772
▁moter	-8.47782
▁šal	-8.48411
ėje	-8.4848
▁tyrim	-8.4848
▁atsakym	-8.48496
▁svarbu	-8.48519
ėjau	-8.4893
▁laiką	-8.48997
ėti	-8.49004
ol	-8.49501
▁matot	-8.49563
ėmis	-8.49796
▁miest	-8.49919
iniu	-8.5028
▁tiksl	-8.50612
du	-8.50634
▁Vis	-8.51103
▁Jos	-8.51209
▁Ž	-8.51232
▁mažiau	-8.51383
▁milijon	-8.51393
inti	-8.51413
tik	-8.51585
imą	-8.51645
▁esmė	-8.51879
▁kiekvieną	-8.52238
ip	-8.523
▁moksl	-8.52512
▁Po	-8.52568
▁20	-8.52771
mą	-8.52797
▁R	-8.52814
▁išties	-8.53011
▁būdu	-8.53084
iniai	-8.53219
▁Gera	-8.53225
tin	-8.53591
▁Gal	-8.53921
▁įraš	-8.53937
▁vaik	-8.53948
umas	-8.54209
ausi	-8.54753
▁dažna	-8.55149
▁tapo	-8.55279
▁V	-8.55589
▁kūn	-8.56635
▁Gali	-8.56928
▁Per	-8.57209
ch	-8.57347
tos	-8.57452
▁nebe	-8.57548
mos	-8.57558
▁kurio	-8.5776
▁būd	-8.5777
▁vaizd	-8.57774
▁pirm	-8.58033
tume	-8.58131
▁pra	-8.58181
▁Laba	-8.58358
ėja	-8.58453
▁or	-8.58493
▁pradėj	-8.59389
di	-8.59831
▁Diev	-8.59843
itin	-8.59938
▁sprendim	-8.59946
var	-8.59997
dar	-8.60183
▁tuos	-8.60319
um	-8.60427
▁dalykai	-8.60463
iuosi	-8.60642
▁sak	-8.6066
gana	-8.61062
▁būdas	-8.61078
▁tavo	-8.61132
man	-8.61185
▁kar	-8.6131
▁pasirinkim	-8.61355
va	-8.61448
ali	-8.61721
▁vieno	-8.61723
▁kada	-8.61833
▁Be	-8.62109
ija	-8.62109
▁rank	-8.62161
▁esat	-8.62212
ir	-8.62216
▁maist	-8.62353
▁sakant	-8.6306
▁leidžia	-8.63142
▁virš	-8.63468
▁žinome	-8.63522
▁Ma	-8.64024
▁turėti	-8.64104
▁Tik	-8.64248
▁tris	-8.64407
site	-8.64525
inink	-8.64673
vė	-8.65052
ūr	-8.65321
▁dizain	-8.65411
▁dal	-8.65558
▁ateit	-8.65612
ume	-8.65699
bu	-8.65781
nk	-8.65816
▁mėnesi	-8.65858
▁TED	-8.65952
▁galėtume	-8.66063
▁nesu	-8.66246
tės	-8.6643
▁kurias	-8.66452
čiu	-8.66536
▁gen	-8.66712
▁kito	-8.66806
davau	-8.67162
▁dirba	-8.67296
▁kuriame	-8.67377
▁dauguma	-8.67513
▁kitai	-8.67522
ieji	-8.67998
▁draug	-8.68183
▁technologij	-8.68196
om	-8.68406
osios	-8.6861
▁naudoja	-8.68698
kart	-8.68999
▁ger	-8.69127
tarsi	-8.69777
▁gars	-8.69794
ba	-8.69825
ybę	-8.70251
▁sunku	-8.70439
▁tokio	-8.70522
ty	-8.70633
ies	-8.70793
▁š	-8.7125
▁atveju	-8.71351
▁galvoja	-8.71739
▁klaus	-8.71948
▁I	-8.72014
din	-8.72036
▁dalyku	-8.72106
▁sistema	-8.72192
▁;	-8.72421
▁100	-8.72585
▁joki	-8.73203
mon	-8.73393
esnė	-8.73543
▁30	-8.73627
▁gera	-8.73957
▁pradėt	-8.7416
▁dviejų	-8.74267
▁Dar	-8.74285
▁jausm	-8.74342
▁pacient	-8.74381
▁koks	-8.74587
▁pamatyt	-8.74834
bi	-8.75019
▁sukūrė	-8.75299
▁nuostabi	-8.7541
▁tiesa	-8.75512
ab	-8.75988
▁ž	-8.76096
▁000	-8.76175
▁kompiuteri	-8.76181
▁padarė	-8.7629
▁parodyt	-8.763
▁duomen	-8.76381
nai	-8.76625
▁sav	-8.7685
nčių	-8.76941
▁naudoti	-8.77124
▁vieta	-8.77454
▁visos	-8.77457
▁išmok	-8.77491
▁greita	-8.77643
▁mat	-8.77698
▁kokia	-8.77824
▁padar	-8.77978
▁skaičiu	-8.78041
ate	-8.78101
▁išsi	-8.78427
▁versl	-8.78553
▁JAV	-8.78818
jų	-8.7887
▁pradeda	-8.78886
▁patinka	-8.79083
and	-8.79326
▁na	-8.79344
▁gyvūn	-8.79403
▁įvyk	-8.79476
▁nusi	-8.79772
▁ženkl	-8.80107
▁3	-8.80499
▁įsi	-8.80589
▁tap	-8.80848
▁vietoj	-8.81001
ly	-8.81093
▁sakė	-8.81122
▁eksperiment	-8.81235
▁pasiekt	-8.81246
▁Kita	-8.81299
▁Jum	-8.81356
▁daugeli	-8.81508
▁daugybė	-8.81604
▁veiksm	-8.81677
▁vietos	-8.81689
ry	-8.81846
0	-8.8197
▁pinigų	-8.8197
ntys	-8.82041
▁blog	-8.82124
▁tašk	-8.8233
laik	-8.82389
▁geriausi	-8.82489
▁L	-8.82494
▁atgal	-8.82507
▁pakankama	-8.82545
▁pabaig	-8.82904
min	-8.83022
raš	-8.8356
▁sudėting	-8.8362
▁galėjo	-8.83755
▁moterys	-8.8383
▁paprast	-8.83859
▁jokio	-8.83905
▁F	-8.83959
ku	-8.8397
▁Mum	-8.84214
▁žemė	-8.84646
umėte	-8.84839
bo	-8.84856
▁gyventi	-8.85318
▁tapt	-8.85487
1	-8.85596
▁5	-8.85614
▁p	-8.85649
▁pradži	-8.86034
▁tokie	-8.86059
▁d	-8.86124
▁turėja	-8.86187
dama	-8.86208
eik	-8.86256
▁kartai	-8.86339
▁kitos	-8.86489
▁nutik	-8.86939
▁ryt	-8.87052
▁Ties	-8.87107
▁mokykl	-8.87456
▁pavyzdžiu	-8.87484
mai	-8.87487
▁Prieš	-8.87547
▁penki	-8.87555
▁pirmą	-8.87563
rin	-8.87593
▁b	-8.87618
antis	-8.87657
▁50	-8.87762
▁Vienas	-8.87836
▁tūkstanči	-8.88071
▁gauti	-8.88183
▁dien	-8.88219
▁įmanoma	-8.88315
▁kiti	-8.88567
kin	-8.88628
▁kasdien	-8.88649
▁pradėjo	-8.88735
▁lengva	-8.88975
▁tikro	-8.89149
▁y	-8.89242
▁vadinam	-8.8931
▁kartų	-8.89398
ine	-8.89435
▁diena	-8.89457
▁energijo	-8.89493
▁patirti	-8.89528
pač	-8.89737
▁re	-8.89759
▁padėti	-8.8982
▁vienu	-8.89874
▁tok	-8.9001
▁Jo	-8.90033
▁Visi	-8.90146
▁tinkl	-8.90177
▁kalbėti	-8.90207
4	-8.90293
▁vaiku	-8.90312
ntį	-8.90412
jame	-8.90434
▁ma	-8.90492
5	-8.90527
imu	-8.90593
▁nuostabu	-8.90659
avimo	-8.91145
▁in	-8.91154
▁koj	-8.91975
kas	-8.92046
lin	-8.92148
▁žiūri	-8.92238
mų	-8.92255
▁pirma	-8.9242
eri	-8.92661
▁centr	-8.92772
▁juok	-8.92821
angi	-8.92947
▁galvoj	-8.93017
▁priežasti	-8.93064
▁labiausia	-8.93096
▁paprasta	-8.93361
go	-8.93579
▁Mūs	-8.93754
▁tokiu	-8.93774
▁teis	-8.93821
▁gauna	-8.939
vai	-8.94143
▁naują	-8.94284
▁amžia	-8.94346
▁naujo	-8.94568
▁ba	-8.94711
ėl	-8.948
▁svarbi	-8.94931
▁anksčiau	-8.94982
▁gero	-8.95009
bent	-8.9516
▁žodži	-8.95238
ino	-8.95406
I	-8.95417
▁Tu	-8.95454
▁duomeni	-8.95682
čia	-8.9591
ran	-8.95954
▁moteris	-8.96163
uoju	-8.96408
▁viso	-8.96503
▁Kart	-8.96581
▁link	-8.97005
▁nė	-8.97427
▁informacij	-8.97667
▁student	-8.97931
▁grįž	-8.98269
▁telefon	-8.98554
iais	-8.98701
▁tos	-8.99002
▁myli	-8.99212
ines	-8.9955
▁kalb	-8.99572
F	-8.99606
jį	-8.99713
▁dain	-8.99775
ama	-8.99819
▁pro	-9.00011
▁greit	-9.0002
▁savai	-9.00094
▁norėjo	-9.00244
▁19	-9.00707
▁veid	-9.00716
veik	-9.00807
▁rodo	-9.0088
aisiai	-9.00887
▁negu	-9.00895
▁nežino	-9.01208
▁puiku	-9.0123
▁jaučia	-9.01417
▁mama	-9.01429
▁ryš	-9.01445
▁truput	-9.01451
▁Nor	-9.01544
▁tikra	-9.01571
▁socialini	-9.0204
▁200	-9.02045
2	-9.02155
▁paty	-9.02159
čiū	-9.02208
91	-9.02313
▁Muzika	-9.02414
▁Nori	-9.02477
C	-9.02702
▁de	-9.02819
▁1	-9.02823
▁nuolat	-9.02825
▁Pavyzdži	-9.03016
▁galimybę	-9.03194
tumėte	-9.03276
▁tėv	-9.03343
▁Visa	-9.03736
▁suprata	-9.03788
▁tek	-9.03871
▁por	-9.04295
▁mokyklos	-9.04501
▁eit	-9.04559
▁informacijo	-9.04583
▁būna	-9.04591
▁Žmonė	-9.0462
▁vakar	-9.04634
▁r	-9.04663
vos	-9.04774
nis	-9.04814
▁įdomu	-9.04869
žinau	-9.04974
▁istorijos	-9.05081
▁paveiksl	-9.05202
▁žaidim	-9.05346
▁N	-9.05363
▁kurti	-9.05394
gal	-9.05413
▁nauja	-9.05418
lio	-9.0549
▁panaš	-9.05496
▁gan	-9.05555
▁2	-9.0577
▁tikras	-9.05994
▁atsakė	-9.06286
▁galvot	-9.06361
▁rasti	-9.06437
V	-9.06525
ce	-9.06589
▁savaitę	-9.06897
▁kuria	-9.07144
▁matė	-9.07243
▁bando	-9.07301
▁pačiu	-9.07374
ed	-9.07463
▁norėja	-9.07564
▁laiku	-9.0762
▁kalbos	-9.07798
▁pl	-9.07817
▁fakt	-9.07835
▁vyrai	-9.0784
▁kelias	-9.08161
avimas	-9.08431
▁pasaki	-9.08598
T	-9.08625
galėčiau	-9.08929
▁Kad	-9.09057
▁kitus	-9.0912
▁kuriuo	-9.09293
▁nebūt	-9.09634
ny	-9.09643
▁vaikas	-9.09758
ties	-9.09931
▁dirbti	-9.10027
▁pavyzdy	-9.10095
▁saulė	-9.10165
▁darbas	-9.10177
▁4	-9.103
▁6	-9.10623
iame	-9.10753
▁tad	-9.10823
▁šitai	-9.10869
▁galiausia	-9.10977
▁nereikia	-9.1098
▁Es	-9.10983
▁didel	-9.11008
mat	-9.11079
▁pati	-9.11152
▁šalia	-9.1148
ad	-9.11594
nd	-9.11617
▁modeli	-9.11665
▁sveik	-9.1181
▁bendra	-9.12087
▁galimybė	-9.1223
▁pastat	-9.12299
▁kam	-9.12305
ard	-9.1233
▁Pri	-9.12408
▁robot	-9.12585
▁Žemė	-9.12632
▁f	-9.12691
▁vienos	-9.12952
elė	-9.12965
čio	-9.12995
▁Re	-9.13111
▁sistemos	-9.13184
▁form	-9.13193
▁laik	-9.13445
rauk	-9.13548
▁ateiti	-9.13687
▁tokios	-9.13755
▁nuotrauk	-9.13764
▁esi	-9.1377
▁Al	-9.13813
A	-9.13828
inėje	-9.13865
▁puiki	-9.13986
▁Kiekviena	-9.14012
▁15	-9.14038
▁kūno	-9.14125
▁pagrind	-9.14176
▁ilg	-9.1418
lę	-9.14198
93;	-9.14273
▁padeda	-9.1429
▁planet	-9.14486
▁sp	-9.14606
▁lik	-9.15057
nčio	-9.15217
▁tave	-9.15317
▁suteikia	-9.15459
▁keturi	-9.15583
▁skaiči	-9.15848
▁turt	-9.15909
▁Šiandien	-9.15989
▁Žinoma	-9.16034
žių	-9.16356
▁įvairi	-9.16494
8	-9.16552
▁teisinga	-9.16631
6	-9.16681
▁vidur	-9.1682
▁nenori	-9.16866
▁papasakoti	-9.16917
3	-9.17177
ton	-9.17269
▁vieninteli	-9.17364
▁koki	-9.17457
▁susiję	-9.17737
▁omeny	-9.17742
▁neiš	-9.17926
▁meilė	-9.17948
▁vyr	-9.17996
▁švieso	-9.17997
vy	-9.18001
uv	-9.18075
▁rūši	-9.18144
▁pak	-9.18252
žin	-9.18284
M	-9.18325
▁elektro	-9.18346
9	-9.18489
čiai	-9.18566
▁laisv	-9.18576
▁Mo	-9.18741
▁Li	-9.18796
▁mokytoj	-9.18857
▁didžiausi	-9.18983
▁šird	-9.19001
▁program	-9.19079
▁mirti	-9.19284
▁7	-9.19519
▁rod	-9.1956
▁sal	-9.19711
▁nenu	-9.19831
▁vadov	-9.19855
jam	-9.19856
▁atlikti	-9.19871
▁svarbiausia	-9.20176
lik	-9.20176
▁Žinot	-9.20265
▁skausm	-9.20366
▁produkt	-9.20415
▁At	-9.20468
▁kalbą	-9.20492
bė	-9.20772
▁užsi	-9.20994
nė	-9.21031
avęs	-9.21165
▁angl	-9.21453
▁Ta	-9.21776
▁studij	-9.22037
▁sveikat	-9.22069
▁svarb	-9.22112
▁juo	-9.22211
▁lig	-9.22238
avau	-9.22238
▁dėmesį	-9.22242
▁Net	-9.22256
▁Nuo	-9.22271
▁40	-9.22287
▁atrodyt	-9.22444
nio	-9.22557
iausiai	-9.22659
žio	-9.23042
tinka	-9.23102
▁18	-9.23181
br	-9.23206
▁medžiag	-9.23214
vin	-9.23461
▁ly	-9.23466
▁mokyti	-9.23527
▁pinig	-9.2363
▁metod	-9.23672
▁įsivaizduot	-9.23719
▁šeši	-9.23904
▁ak	-9.24081
▁kyla	-9.24108
▁žemyn	-9.24123
dy	-9.24341
▁h	-9.24352
▁jaun	-9.2465
▁didelė	-9.24816
▁vėlia	-9.24908
mė	-9.24981
lį	-9.25338
▁trys	-9.25572
dis	-9.25674
vir	-9.25778
▁Ameriko	-9.25829
ap	-9.25915
▁8	-9.26027
▁Šie	-9.26158
▁skiria	-9.26168
▁mintis	-9.26186
č	-9.26262
▁žmog	-9.26299
eli	-9.26361
▁tikriausia	-9.26643
▁pavyk	-9.26747
▁auk	-9.26836
▁eina	-9.27147
iausia	-9.27467
▁aišku	-9.2747
▁nuostab	-9.27518
▁atlieka	-9.27553
▁plan	-9.27677
ėli	-9.27806
▁praeit	-9.27827
▁rezultat	-9.27887
▁nežina	-9.28043
▁didesni	-9.28085
▁dėmesi	-9.28086
lie	-9.28095
▁šalys	-9.28114
▁amžiu	-9.28135
▁sistemą	-9.28284
▁neuron	-9.28391
škai	-9.2854
▁grupė	-9.28555
▁geriausia	-9.28571
▁forma	-9.28635
be	-9.28851
▁atskir	-9.28862
▁vard	-9.28896
▁minučių	-9.28911
▁dažniausia	-9.28943
▁nusprendžia	-9.28961
▁dydži	-9.29164
▁Galbū	-9.29247
mus	-9.29361
▁šeimos	-9.29446
7	-9.29687
▁vaizdo	-9.2971
▁žali	-9.2985
▁nutinka	-9.29967
dom	-9.30029
▁gyventoj	-9.30049
▁ląsteli	-9.30301
umu	-9.30386
▁l	-9.30448
op	-9.3055
nčiu	-9.30652
▁Buvo	-9.30904
▁New	-9.3104
uosi	-9.31138
▁vadin	-9.3117
uojant	-9.31238
▁paprastai	-9.31289
▁keičia	-9.31492
vok	-9.31534
▁ras	-9.31613
▁puikiai	-9.31666
▁12	-9.31672
nį	-9.31733
▁įtak	-9.31738
▁jėga	-9.31793
▁pasaky	-9.31794
yl	-9.31796
▁Nu	-9.31882
▁egzistuoja	-9.31928
▁Tuo	-9.31936
auja	-9.32034
tum	-9.32215
▁energij	-9.32286
▁kok	-9.3232
vil	-9.32388
▁prasme	-9.32442
▁Viena	-9.32473
▁suteikt	-9.32527
▁vadinama	-9.32864
▁dienos	-9.32875
▁paskutini	-9.32914
▁laišk	-9.3297
▁Viska	-9.33012
▁nuotrauka	-9.33107
▁žini	-9.33302
▁priklauso	-9.33483
D	-9.33554
▁60	-9.33786
▁sudėtinga	-9.33787
▁laboratorij	-9.33962
▁esant	-9.34047
▁atsitik	-9.34069
▁naudojam	-9.34281
val	-9.34377
▁Š	-9.34402
▁atlik	-9.3441
▁matom	-9.34429
▁supranta	-9.34487
▁pad	-9.34516
▁kelion	-9.34523
žiūr	-9.34543
▁tinkam	-9.34684
elį	-9.34772
▁Pra	-9.34828
▁šviesa	-9.34885
▁šaltini	-9.34891
▁bū	-9.34929
▁ilgai	-9.34949
▁kelionė	-9.35011
▁atrodė	-9.35299
▁panaudot	-9.35338
▁draugai	-9.35356
▁kamp	-9.35386
ką	-9.35386
▁mokykloje	-9.35442
gen	-9.35626
▁gyv	-9.35672
▁prot	-9.35913
▁akis	-9.35959
▁technologijo	-9.36003
▁laiv	-9.36063
▁knygos	-9.36109
▁geresni	-9.36122
▁žem	-9.36197
▁darbuotoj	-9.36279
ren	-9.36322
per	-9.36392
▁raš	-9.36465
kal	-9.3657
▁visur	-9.36718
▁pagrindini	-9.36738
▁stal	-9.3675
▁išmokt	-9.36889
▁priek	-9.36933
nčios	-9.36971
▁šok	-9.37027
▁Le	-9.37087
▁augim	-9.3713
▁duomenys	-9.37271
▁šeima	-9.37288
▁tol	-9.37487
▁grįžt	-9.37541
iška	-9.37583
00	-9.37701
▁did	-9.378
▁sakyti	-9.37818
▁rink	-9.37958
▁ateina	-9.37972
▁patik	-9.38067
ėjimas	-9.38107
▁Būt	-9.38123
▁ląstele	-9.38136
▁staiga	-9.38196
▁naktį	-9.38197
up	-9.38212
▁laid	-9.38334
▁struktūr	-9.38398
▁De	-9.38455
▁trijų	-9.38457
▁rib	-9.3849
nius	-9.38512
uosiu	-9.38663
ac	-9.38676
▁gale	-9.38695
▁vardu	-9.38705
▁kultūr	-9.38874
ėm	-9.38901
▁paties	-9.39022
▁žurnal	-9.39209
▁gyvybė	-9.39271
izm	-9.3936
E	-9.39387
▁Dž	-9.39406
▁Arba	-9.3945
▁Afrikoje	-9.39488
▁paklausė	-9.39543
der	-9.39995
▁galv	-9.39995
▁mašin	-9.40163
usios	-9.40205
▁va	-9.40478
▁atėjo	-9.40594
▁sien	-9.40735
▁sistem	-9.40825
▁Kur	-9.40955
▁maža	-9.41021
▁ieško	-9.41106
▁laika	-9.41234
▁galėsi	-9.41314
ėmė	-9.41346
usių	-9.41351
▁ląstelės	-9.41378
kon	-9.41595
▁jum	-9.41599
▁vėj	-9.41615
▁test	-9.41694
▁manim	-9.41759
▁kaln	-9.41887
lan	-9.41937
▁Ko	-9.41956
▁kitu	-9.42164
iško	-9.42238
▁skirtum	-9.42294
eniai	-9.42392
▁stat	-9.42468
▁16	-9.42632
az	-9.42818
▁tėvai	-9.42923
šal	-9.42924
▁iššūki	-9.4299
ic	-9.42999
▁žodžiai	-9.43012
P	-9.43507
▁el	-9.43545
▁tikslia	-9.43567
▁organ	-9.4372
▁kiekvieno	-9.43762
▁santyki	-9.43769
NR	-9.43791
▁vandenyn	-9.4382
▁vieš	-9.43857
▁keista	-9.43886
džiu	-9.4395
▁reikė	-9.44066
▁var	-9.44182
ingas	-9.44329
kim	-9.44762
▁planetos	-9.44775
▁suvokim	-9.44915
▁prisi	-9.44947
▁pusė	-9.44977
▁mel	-9.44987
▁pasako	-9.4505
▁Ra	-9.45098
▁La	-9.45133
▁atrast	-9.4518
▁duot	-9.45254
▁turėtume	-9.45298
▁pasirod	-9.45373
▁mažas	-9.45529
▁graži	-9.45594
▁ve	-9.45622
▁visuomenės	-9.45865
▁prasideda	-9.4607
▁priimti	-9.46191
▁įdomi	-9.46268
acija	-9.46272
▁realybė	-9.46361
▁Mar	-9.46412
▁besi	-9.46596
▁knyga	-9.46665
▁Ten	-9.46719
▁paimt	-9.46754
▁įvyki	-9.46817
▁žiūrėt	-9.46823
▁gyven	-9.46838
▁parodo	-9.46953
▁dr	-9.4696
▁gavo	-9.47113
iški	-9.47118
▁muzik	-9.47208
▁raudon	-9.47241
▁rizik	-9.47241
▁savimi	-9.47248
▁11	-9.47264
▁mokini	-9.47303
iškas	-9.47476
R	-9.47691
▁milijardų	-9.47891
džia	-9.47896
kalb	-9.47991
▁mokymos	-9.48012
▁Nė	-9.48268
▁karto	-9.48292
▁nepais	-9.48422
▁York	-9.48432
▁skurd	-9.48538
▁bang	-9.48577
▁Šiuo	-9.4858
▁universitet	-9.48617
ūn	-9.48643
▁nusprendė	-9.4866
▁sekund	-9.48753
▁veikt	-9.48776
▁kitok	-9.48794
uojam	-9.49166
rd	-9.49201
▁naujas	-9.49274
▁šiam	-9.49436
▁daugiausia	-9.49589
▁piet	-9.4964
▁suvokia	-9.49662
▁pakeitė	-9.4967
▁gil	-9.49689
▁moment	-9.49743
olog	-9.50022
▁leisti	-9.50083
▁pasidalint	-9.50126
▁suprato	-9.50172
▁svarbus	-9.50174
▁šiai	-9.50343
▁didžiausia	-9.50384
▁Afriko	-9.50416
▁panaši	-9.50423
iausias	-9.50515
▁pastaruo	-9.50748
juk	-9.50825
▁judėjim	-9.50856
▁šun	-9.50926
▁klausia	-9.50947
▁dėk	-9.50973
▁brang	-9.50984
▁reik	-9.51334
▁atvyk	-9.5136
▁žingsni	-9.51546
maniau	-9.5156
▁Ro	-9.51576
amas	-9.51688
sias	-9.51957
▁paklaus	-9.51964
▁vieni	-9.5202
▁akimirk	-9.52071
▁dešimt	-9.52071
▁privalo	-9.52092
th	-9.5212
tor	-9.52153
▁pradėjome	-9.52262
▁jausti	-9.52285
▁informacija	-9.52315
▁Žina	-9.52356
▁supratim	-9.52433
▁didži	-9.52568
▁Indij	-9.526
ijoje	-9.52661
▁neįmanoma	-9.52702
▁liga	-9.52798
▁energija	-9.52929
▁technologija	-9.5324
▁priežasčių	-9.5334
▁sukuria	-9.53375
▁25	-9.5348
▁pajam	-9.53495
kelia	-9.53538
▁pagalbos	-9.53543
avim	-9.53546
▁kokiu	-9.5375
▁an	-9.53878
▁paverst	-9.53913
▁galimyb	-9.54014
▁sutik	-9.54202
▁mažą	-9.54239
▁roman	-9.54592
▁Niujork	-9.54606
▁naujų	-9.54607
iškum	-9.5461
▁neš	-9.54645
▁juda	-9.54661
▁milijard	-9.54803
▁Toki	-9.54811
▁parodė	-9.54832
▁apsi	-9.54864
▁meninink	-9.54864
▁val	-9.55061
▁Pirmas	-9.55125
▁pirmoj	-9.55188
▁ryši	-9.55314
▁atvir	-9.55478
▁lap	-9.5552
▁ėmė	-9.55606
▁panašiai	-9.55636
▁procentai	-9.55716
▁kompiuter	-9.55846
▁bijo	-9.55866
▁aiški	-9.5587
▁Leiskit	-9.55889
▁Vakar	-9.55889
▁piršt	-9.55889
▁sudaro	-9.55912
▁verčia	-9.56094
▁ima	-9.56097
▁Pirma	-9.56103
▁Matot	-9.56411
antys	-9.56674
imui	-9.5669
kos	-9.56743
▁pasauliu	-9.56831
▁Jau	-9.56838
▁leido	-9.56853
▁metr	-9.56954
▁būdama	-9.57095
▁Mat	-9.5711
▁išsilavinim	-9.57187
▁gydym	-9.57292
▁viduj	-9.57308
▁led	-9.57312
▁Kit	-9.5747
▁varda	-9.57487
▁vyras	-9.57674
▁apsaugo	-9.57725
▁angli	-9.58303
▁Ap	-9.58408
dėjo	-9.58422
bin	-9.58463
▁berniuk	-9.58503
▁atsiranda	-9.58503
▁nauju	-9.58504
laid	-9.58518
▁bendr	-9.58624
ymas	-9.58656
laba	-9.58722
▁mąstym	-9.58725
▁kažkur	-9.58804
▁būsi	-9.58807
rio	-9.58893
▁pačios	-9.59001
▁padėjo	-9.59088
čius	-9.59165
dyti	-9.59175
▁dešin	-9.59189
▁mokslinink	-9.59252
▁paklausia	-9.593
rod	-9.59514
▁grup	-9.59575
▁mir	-9.59724
▁tikrą	-9.59734
▁signal	-9.59836
▁raid	-9.59878
▁galėtumėt	-9.59885
▁neįtikėtina	-9.59959
▁įstatym	-9.59986
▁kalbėjo	-9.60063
▁Pasi	-9.60219
▁pasirinkti	-9.60261
▁tikėti	-9.6054
▁širdie	-9.60713
▁geneti	-9.60714
▁palygin	-9.60745
▁gyvyb	-9.60787
▁kažko	-9.60802
▁bendruomenė	-9.60851
▁didesnė	-9.60968
▁kitiem	-9.60996
▁šak	-9.61208
▁grupės	-9.61212
▁džiaugsm	-9.61233
▁nesvarbu	-9.61282
eng	-9.61358
uli	-9.61466
▁pusės	-9.61656
▁požiūri	-9.61775
ėję	-9.618
▁smegeni	-9.61927
gri	-9.62128
▁visuomenė	-9.62242
▁keist	-9.62295
žiau	-9.62395
▁mažai	-9.62435
vel	-9.62473
▁naudojant	-9.62515
▁praleid	-9.62554
▁žuv	-9.62607
▁mišk	-9.62776
▁paslaug	-9.62837
▁visata	-9.62883
nių	-9.62916
▁princip	-9.62928
▁rankos	-9.62946
▁augal	-9.62968
▁proces	-9.63093
▁neat	-9.6313
sius	-9.63361
▁atsak	-9.63438
nę	-9.63528
▁esanči	-9.6353
iant	-9.63565
▁Tam	-9.63588
▁kokie	-9.63747
▁žmona	-9.63832
▁politik	-9.63843
▁erdv	-9.63893
▁sto	-9.63943
▁Dauguma	-9.63948
▁sąraš	-9.63949
▁moko	-9.64
DH	-9.64157
▁14	-9.64256
▁gamtos	-9.64368
ančių	-9.6451
▁mok	-9.64581
tarė	-9.6475
ung	-9.6476
▁mokykla	-9.64784
fi	-9.64789
B	-9.64888
ron	-9.64999
nčias	-9.65036
▁padaro	-9.65186
ydami	-9.6521
▁užaug	-9.65276
▁nep	-9.65296
▁neturėjo	-9.65299
▁šeim	-9.65344
▁stovykl	-9.65355
▁pastang	-9.65355
▁susijusi	-9.65356
▁galėja	-9.65356
▁kambary	-9.65356
▁element	-9.65358
▁kuriam	-9.65474
▁pusę	-9.65492
▁greičiau	-9.65494
▁Co	-9.65585
▁rinkim	-9.65778
▁užduoti	-9.65812
elyje	-9.65948
▁žinut	-9.65948
▁kalbant	-9.66004
▁laiminga	-9.66192
▁teigia	-9.66194
▁daikt	-9.66199
▁Amerik	-9.66317
▁dalimi	-9.66432
▁švies	-9.66481
▁objekt	-9.66585
▁bendruomenės	-9.66636
▁prietais	-9.6682
▁galvos	-9.66897
▁suvokt	-9.66901
▁kompanij	-9.66918
ang	-9.6704
▁teisi	-9.67273
▁Nauj	-9.67289
▁žinojo	-9.67315
▁kel	-9.67515
▁Tur	-9.67599
▁geri	-9.67655
▁visat	-9.67745
▁pavyzd	-9.67757
▁Lo	-9.68046
atori	-9.68084
▁real	-9.68166
▁naud	-9.6817
▁aki	-9.68229
▁Google	-9.68233
▁negalėjo	-9.68234
▁žav	-9.68294
▁svar	-9.68324
▁plot	-9.68349
▁Kar	-9.68353
▁tekst	-9.68543
▁panašu	-9.68714
nės	-9.68737
▁pasakojim	-9.6877
▁užk	-9.68806
iausių	-9.68825
▁c	-9.68856
▁br	-9.69013
▁puslapi	-9.6912
▁veikl	-9.69152
▁San	-9.69163
G	-9.69294
▁padėt	-9.69315
▁didžiuli	-9.69316
▁galimybe	-9.69354
art	-9.69416
▁kultūros	-9.69568
▁ekran	-9.69704
▁Kiek	-9.69718
▁koleg	-9.69744
▁keisti	-9.69815
▁drąs	-9.69822
▁gebėjim	-9.69874
▁piln	-9.69919
▁žmogišk	-9.69975
▁septyni	-9.70021
ograf	-9.70201
▁kod	-9.70229
▁To	-9.70276
▁susiduria	-9.70351
▁finans	-9.7061
▁rankas	-9.70627
▁kokios	-9.70677
ker	-9.70704
iniam	-9.7078
ger	-9.70895
▁sėkmė	-9.70928
▁stipri	-9.70975
lius	-9.71152
▁reklam	-9.71196
▁Tiesiog	-9.71196
▁pasisek	-9.71206
▁elgia	-9.71306
▁namus	-9.7133
▁vertyb	-9.7133
▁Jungtinės	-9.71335
rę	-9.71352
grąž	-9.71357
▁natūrali	-9.71697
K	-9.71712
▁sukelia	-9.71749
▁pasirink	-9.71998
▁stipria	-9.72025
akt	-9.72162
lis	-9.72198
▁sužinot	-9.72206
O	-9.7227
▁pasiekia	-9.72296
▁prisimint	-9.72391
amp	-9.72592
ymo	-9.72592
▁parduotuv	-9.72705
▁aštuoni	-9.72711
▁Buvau	-9.72711
▁dešimtmet	-9.72728
▁blogai	-9.72744
▁akmen	-9.72761
▁žym	-9.72807
▁vyrų	-9.73234
ybė	-9.73263
▁nepasi	-9.73358
▁šito	-9.73448
▁klas	-9.73546
▁kvail	-9.73556
ystė	-9.73628
▁dalel	-9.73667
▁sluoksni	-9.73767
reiškia	-9.73874
▁vartotoj	-9.73876
▁komanda	-9.73939
▁paaiškint	-9.7394
acijos	-9.74
▁žmonij	-9.74004
sivaizduokit	-9.74157
▁trump	-9.74174
▁patirt	-9.74221
muo	-9.74248
▁dokument	-9.74249
▁tarpusav	-9.7425
▁artim	-9.74292
▁atsakyt	-9.74317
ėjimą	-9.74328
▁nepažįstam	-9.74333
▁80	-9.74409
ėjimo	-9.7445
▁spalvo	-9.74628
ck	-9.74716
▁rūšis	-9.7472
▁vadina	-9.74754
lp	-9.74782
▁Vid	-9.74799
▁toli	-9.7486
▁skaityt	-9.74874
▁spalva	-9.74943
▁kelio	-9.75045
verti	-9.75084
▁skait	-9.75122
▁Norė	-9.7515
▁žodžiu	-9.75206
ven	-9.75249
nga	-9.7526
ho	-9.75309
▁pasirodo	-9.75366
lenk	-9.75373
elių	-9.75376
ytų	-9.75384
▁kiekvienam	-9.75387
▁aktyv	-9.75443
▁užraš	-9.75497
kar	-9.75542
▁pokalbi	-9.75803
▁įrodym	-9.75813
▁šimtu	-9.75831
▁auditorij	-9.75834
▁Y	-9.75983
▁prasidėj	-9.75988
▁laikai	-9.7602
▁valdo	-9.76038
▁suprant	-9.76054
▁turė	-9.76071
▁Vien	-9.76088
▁bakterij	-9.76103
▁pamači	-9.7619
▁aplinkos	-9.76296
▁Tom	-9.76383
ysiu	-9.76417
▁pirmasi	-9.76418
ėse	-9.7649
imės	-9.76553
reng	-9.76621
▁dang	-9.76652
▁sriti	-9.76675
▁medicin	-9.76765
▁būdai	-9.76779
▁asmen	-9.76871
▁karo	-9.76987
▁Antra	-9.77015
▁Ste	-9.77036
▁rad	-9.77061
▁palikt	-9.77235
▁bendruomen	-9.77315
▁išlaikyt	-9.7741
▁pagalvoja	-9.77427
▁pašt	-9.77446
▁šviesą	-9.77469
▁surast	-9.77485
▁gamina	-9.77585
▁auga	-9.77595
▁norint	-9.77706
▁žod	-9.77746
▁steng	-9.77835
▁pažiūrėt	-9.7787
▁medžiaga	-9.7791
ydamas	-9.77981
▁mergaitė	-9.78138
▁nustatyt	-9.78176
▁automobili	-9.78211
▁Kol	-9.78221
▁Bal	-9.78235
ėjome	-9.78259
gavau	-9.78355
▁kin	-9.78372
▁Kuo	-9.78388
iesi	-9.78401
pe	-9.78424
▁gau	-9.78519
▁vyk	-9.78582
▁rat	-9.78607
▁nebu	-9.78679
▁sunki	-9.78686
▁formos	-9.78705
▁davė	-9.78724
▁audini	-9.78765
▁nerim	-9.78827
▁vert	-9.78845
▁pasakoja	-9.78863
▁plauk	-9.78864
▁galim	-9.78903
▁standart	-9.7901
▁tualet	-9.79012
▁Šiaurė	-9.79012
▁buvim	-9.79015
▁nusipirk	-9.79021
▁girdėjo	-9.79045
▁bank	-9.79059
▁Daugeli	-9.79075
▁žin	-9.79101
▁tikiu	-9.79106
▁darė	-9.79159
for	-9.79208
▁dėsni	-9.79283
▁muzika	-9.793
▁Did	-9.79342
▁išspręst	-9.79431
▁90	-9.79435
▁valdžia	-9.79438
▁verta	-9.79466
▁linij	-9.79494
dien	-9.79605
▁stipr	-9.79621
pild	-9.79694
▁bėg	-9.79723
link	-9.79781
▁pasaulini	-9.79926
▁mašina	-9.79948
▁keliauja	-9.79988
▁būsen	-9.80009
▁pirmas	-9.80105
▁bu	-9.80205
▁mėg	-9.80258
ha	-9.80285
vesti	-9.80334
L	-9.80429
▁švietimo	-9.8048
▁tyl	-9.80522
▁pavadinimu	-9.80529
▁jom	-9.80543
▁Vieną	-9.80591
▁paprasčiausiai	-9.80653
▁Vietoj	-9.80653
▁Chris	-9.80653
▁įprast	-9.80656
▁paskait	-9.80657
▁Pasirod	-9.80661
▁neuž	-9.80707
▁visuomen	-9.80707
▁pirmąj	-9.80806
ėjus	-9.80857
▁Vi	-9.80872
▁darbu	-9.80884
▁parodysi	-9.80923
▁jėg	-9.8095
▁stebėti	-9.8095
▁pritaikyt	-9.81008
▁tipo	-9.81055
▁baimė	-9.81072
▁mit	-9.81085
▁reg	-9.81169
▁išgirst	-9.81185
▁teising	-9.8122
nes	-9.81374
▁įsitikin	-9.81593
▁organizacij	-9.81654
▁pasiekim	-9.81672
ėjim	-9.81704
▁prireik	-9.81712
▁situacija	-9.8173
ybės	-9.81878
ovė	-9.8194
dirb	-9.82035
monių	-9.82078
▁stor	-9.82096
▁pasiekė	-9.82125
▁In	-9.82136
nčia	-9.82213
▁Daug	-9.82216
▁daktar	-9.82318
▁lėktuv	-9.82318
▁atsirado	-9.82318
nčią	-9.82323
▁pasikeitė	-9.82338
▁poreiki	-9.82344
▁elektronin	-9.82357
▁aistr	-9.82369
▁aiškia	-9.82388
▁juokias	-9.82437
eliu	-9.82453
▁nuvyk	-9.8252
▁pal	-9.82531
▁pirmiausia	-9.82564
▁lygio	-9.82588
▁tobul	-9.82646
▁dirb	-9.82906
den	-9.8301
▁ranka	-9.83131
▁bandym	-9.83151
▁Šios	-9.8324
son	-9.83298
▁erdvė	-9.83362
▁atvej	-9.83408
išką	-9.83512
▁naujien	-9.83544
inėti	-9.83799
▁tinkama	-9.83863
▁kontekst	-9.84013
▁analiz	-9.84013
▁skamba	-9.84013
▁Higs	-9.84014
▁broli	-9.84032
▁kompiuteriai	-9.84115
mentai	-9.8417
▁skirt	-9.84211
▁70	-9.84216
▁priversti	-9.84256
▁laukia	-9.84264
▁pasiruošę	-9.84416
▁palik	-9.84481
▁tėti	-9.84491
▁reikėt	-9.84589
▁mokytojai	-9.84796
▁būtina	-9.84822
▁siekia	-9.84861
▁grupe	-9.84938
jant	-9.84966
▁rimta	-9.85059
▁pasiek	-9.85067
▁lygiai	-9.85081
▁mašinos	-9.85089
▁miršta	-9.8512
▁tiesia	-9.85149
▁žodi	-9.85279
trūk	-9.85414
van	-9.85513
▁asmenybė	-9.8571
▁potencial	-9.85737
▁dvej	-9.85738
▁vasar	-9.85741
▁maistą	-9.85748
▁groži	-9.85936
▁rašyti	-9.85973
▁žemėlap	-9.85992
▁ka	-9.85993
▁trim	-9.86007
▁meil	-9.86014
▁baigia	-9.8609
▁sulauk	-9.86254
▁šoki	-9.86336
▁dirbu	-9.86466
lon	-9.86534
skaitant	-9.86585
▁ind	-9.86645
▁motina	-9.86652
▁Nieka	-9.86706
▁Sh	-9.86736
▁antra	-9.86738
▁amerikieči	-9.86746
▁stovi	-9.86764
▁pasidar	-9.86851
▁silpn	-9.86864
▁šit	-9.86864
▁socialin	-9.86928
▁puse	-9.8698
▁kūrim	-9.87155
▁paslapti	-9.87285
▁seks	-9.87376
▁drauge	-9.87379
▁sutrikim	-9.87492
▁aparat	-9.87492
▁karjer	-9.875
▁Koks	-9.87514
▁pilna	-9.87575
▁leiskit	-9.87584
▁akys	-9.87648
▁spręsti	-9.877
▁dalin	-9.87701
▁leis	-9.87741
▁laikyti	-9.87782
ber	-9.87839
▁eil	-9.87866
▁pamat	-9.87896
ele	-9.87943
▁didesn	-9.87964
▁imti	-9.87969
▁vienintelė	-9.88019
▁matematika	-9.88042
▁ner	-9.88257
▁pagalba	-9.88348
▁atliko	-9.88369
▁gražu	-9.88379
▁mergin	-9.88426
▁sekas	-9.88429
liai	-9.88468
▁reikal	-9.88499
elio	-9.88708
avimą	-9.88725
sim	-9.88737
▁moka	-9.88774
ink	-9.88891
▁Kinijo	-9.88895
▁9	-9.88919
▁tvark	-9.88943
ški	-9.89035
▁bibliotek	-9.89277
▁kūdiki	-9.89277
▁smurt	-9.89277
▁penkeri	-9.89277
▁primena	-9.89284
▁prekė	-9.89286
▁Tie	-9.89292
▁švent	-9.89302
▁procesą	-9.89406
▁vyriausybė	-9.89448
▁Maž	-9.89492
▁vadinasi	-9.89493
▁mieste	-9.8951
▁PM	-9.89527
yčiau	-9.89862
▁įgūdži	-9.89976
▁vid	-9.90101
▁ligo	-9.90196
ikos	-9.9023
ner	-9.90238
▁Api	-9.90245
pti	-9.90265
▁Atsi	-9.90309
dant	-9.90395
mar	-9.90424
▁ginkl	-9.90462
▁abejo	-9.90466
inu	-9.90564
▁priima	-9.90575
▁ilgiau	-9.90673
▁populiar	-9.90694
▁mini	-9.90897
▁išgird	-9.91098
▁atitinka	-9.91099
▁pėd	-9.91101
▁video	-9.91115
▁sport	-9.91119
▁lang	-9.9112
▁Pirmiausia	-9.91123
▁Piet	-9.91129
▁pan	-9.91131
▁pasku	-9.91133
▁lent	-9.91217
▁turim	-9.91237
▁Pagal	-9.91243
▁Pat	-9.91405
uojama	-9.91445
▁bla	-9.91485
▁šita	-9.91498
inėja	-9.91668
žius	-9.9174
▁pažvelgt	-9.9181
▁al	-9.91875
▁procesa	-9.91897
džiau	-9.91921
▁savaite	-9.92037
▁duoda	-9.92225
▁pavyzdži	-9.92237
N	-9.92338
▁neįtikėtin	-9.92373
▁muziko	-9.92482
▁parašyt	-9.92496
▁dyd	-9.92545
▁sod	-9.92551
yta	-9.92597
ančiu	-9.92662
▁ga	-9.92888
▁apači	-9.9295
▁renka	-9.9297
▁atstum	-9.9302
▁Laik	-9.93037
▁Pasak	-9.93096
▁įranki	-9.9314
▁publik	-9.9318
▁didelės	-9.93237
▁geresn	-9.93333
▁ekonomikos	-9.93381
▁rezultatas	-9.93383
▁neįtikėtinai	-9.93394
▁Sav	-9.93424
▁surink	-9.93462
▁institucij	-9.93596
▁puslap	-9.9369
land	-9.937
▁paklaust	-9.93726
▁žinom	-9.9375
▁klausimų	-9.93788
▁kitam	-9.93789
▁gatv	-9.93923
▁teorija	-9.93967
rik	-9.93998
▁pagamin	-9.94035
▁Ger	-9.94072
▁užtikrint	-9.9427
▁matematiko	-9.94304
▁amži	-9.94306
▁didžiul	-9.94407
▁pamatė	-9.94426
▁proc	-9.94502
stum	-9.94505
▁medžio	-9.94509
▁klasės	-9.94514
▁gyva	-9.94548
▁susitik	-9.94582
▁mėlyn	-9.94681
▁atom	-9.94828
▁konferencij	-9.94834
▁laikrašči	-9.94834
▁žaisti	-9.94837
▁elgt	-9.9485
▁ieškot	-9.9487
▁paremt	-9.94924
▁greičiausia	-9.94942
žymiai	-9.94946
amb	-9.94996
kirst	-9.95
▁priemonė	-9.9506
▁lyderi	-9.95084
inimo	-9.95106
▁vyko	-9.952
▁kūrėj	-9.95311
ybe	-9.9533
▁klimato	-9.95491
▁deg	-9.95598
▁medi	-9.95618
gauna	-9.95641
▁dvasi	-9.95698
▁darau	-9.95843
▁kopij	-9.9585
▁daž	-9.95887
▁iššūk	-9.96117
▁veda	-9.96138
▁daugeliu	-9.9617
▁svarbiausi	-9.96225
▁reikalinga	-9.96276
▁išvad	-9.96316
▁13	-9.96335
▁rado	-9.96547
▁stebi	-9.96587
▁fotograf	-9.96617
▁sukurta	-9.96715
pul	-9.96731
veikė	-9.9675
▁simboli	-9.96757
▁zon	-9.96771
▁žvaigždė	-9.96819
▁vienet	-9.96897
ančios	-9.96976
▁pastebėt	-9.96991
▁kalėjim	-9.96998
▁parašė	-9.97007
ukas	-9.9706
▁tolim	-9.97069
▁pasitikėjim	-9.97073
▁skirta	-9.97112
▁užuojaut	-9.97114
▁efektyv	-9.97124
tojas	-9.97127
kėlė	-9.97134
pla	-9.97209
▁bebūt	-9.97219
▁gamt	-9.97237
▁super	-9.97627
▁atradim	-9.97689
▁park	-9.97738
▁minute	-9.97747
▁sprendimu	-9.97783
▁nežinojo	-9.97921
▁Jam	-9.97927
masis	-9.97953
▁sek	-9.98165
▁atrado	-9.98184
▁nakti	-9.98198
▁jauni	-9.98207
▁sunkiai	-9.98227
▁kal	-9.98389
▁universitete	-9.98416
▁gyveno	-9.98445
▁mąst	-9.98469
▁prast	-9.98508
▁socialinė	-9.98532
▁išleist	-9.98566
▁iškart	-9.98633
▁sukur	-9.98639
▁Kalb	-9.98649
niu	-9.98676
▁chirurg	-9.98718
▁koledž	-9.98718
▁mergaiči	-9.98718
▁galaktik	-9.98718
▁cikl	-9.9872
▁prezident	-9.98722
▁girdi	-9.98723
▁pagalvot	-9.98745
▁esmini	-9.98754
reiškė	-9.98781
vald	-9.98783
▁kaul	-9.98792
▁mint	-9.98818
▁valstybės	-9.98822
▁norėtų	-9.98823
▁fond	-9.98843
▁kort	-9.98851
▁seka	-9.98863
▁žaidžia	-9.98863
▁lip	-9.98894
▁nuotraukas	-9.98949
▁pamok	-9.9897
▁Žino	-9.99023
▁namai	-9.99061
▁skaitmenin	-9.99101
▁turėsi	-9.99168
▁mast	-9.99225
▁atneš	-9.99277
▁mokym	-9.9929
▁truk	-9.99292
▁pinigai	-9.99328
▁nuomone	-9.99356
ėtų	-9.99422
▁neap	-9.99444
▁pusėj	-9.99522
▁pagrindinė	-9.99658
▁pranešim	-9.99659
▁mergaite	-9.99736
▁fi	-10.0001
▁milžinišk	-10.0001
▁scen	-10.0006
▁mėnes	-10.0008
▁stengia	-10.0017
▁išeiti	-10.0021
▁valstyb	-10.0026
▁nedaug	-10.0026
▁med	-10.0028
▁tar	-10.0038
▁naudos	-10.0048
▁politika	-10.0052
▁sugebė	-10.0057
▁varg	-10.0059
adangi	-10.0067
▁pamoka	-10.0069
▁išlaisvin	-10.0072
▁nedidel	-10.0072
▁pastebi	-10.0072
▁humor	-10.0072
▁individual	-10.0072
▁krašt	-10.0073
▁pasekm	-10.0074
▁trūkum	-10.0075
▁kvadrat	-10.0078
▁įtikin	-10.0082
▁išgyvena	-10.0086
▁realyb	-10.009
▁tip	-10.009
▁Ge	-10.0092
▁naudojama	-10.0101
▁kokio	-10.0102
▁ketin	-10.0104
▁sumažint	-10.0104
▁duon	-10.0105
▁išmoko	-10.0114
▁reikaling	-10.0136
▁keliaut	-10.0137
▁visato	-10.0139
▁turting	-10.0141
▁pokyči	-10.0142
▁Koki	-10.0142
▁dur	-10.0147
▁keturis	-10.0154
ininkai	-10.0161
▁nar	-10.0169
▁ypatingai	-10.0169
▁kelia	-10.0185
▁susidur	-10.0186
izmo	-10.0189
▁skaičiavim	-10.0196
▁algoritm	-10.0199
vę	-10.0206
▁glamūr	-10.0212
▁klaid	-10.0213
▁teorij	-10.0216
manymu	-10.0217
uojanči	-10.0218
▁vaikin	-10.022
▁vėž	-10.0237
▁Du	-10.0238
▁galo	-10.0252
▁Pasauli	-10.0252
▁pateikt	-10.0253
▁atsako	-10.0255
▁neturėt	-10.0259
▁Valstijos	-10.0262
▁Mu	-10.0265
▁Pro	-10.0269
▁taisykl	-10.027
▁juoda	-10.0274
▁efekt	-10.0276
▁Biblij	-10.0276
▁valdym	-10.0277
▁vand	-10.0278
▁pakeičia	-10.0283
▁didžiąj	-10.0285
▁mėgsta	-10.0288
ler	-10.0289
▁tikėtina	-10.029
▁neman	-10.029
▁pasiūlym	-10.0293
▁tem	-10.0294
▁švietim	-10.0297
▁stres	-10.03
▁žvaigždži	-10.0305
▁vienam	-10.0316
▁įtako	-10.0325
▁Saulė	-10.0327
▁padės	-10.0341
▁viršuj	-10.0343
▁scenos	-10.0343
▁suteikė	-10.0344
▁partneri	-10.0356
▁bendravim	-10.0366
▁jauna	-10.0371
▁karšt	-10.0374
▁bandė	-10.0392
▁Pirmą	-10.0404
▁tūkst	-10.0406
▁gatvės	-10.0407
▁bendro	-10.0413
▁rašo	-10.0416
▁popieria	-10.0417
▁nesak	-10.0424
▁pastatyt	-10.0426
▁lygi	-10.0426
▁plat	-10.0427
▁laim	-10.0428
▁prieinam	-10.0434
▁baim	-10.0446
▁dalelė	-10.0452
▁studentai	-10.0455
tariant	-10.0464
▁pateik	-10.0474
▁puik	-10.0474
▁konflikt	-10.0484
▁tradicij	-10.0484
▁biur	-10.0485
▁Dėkoj	-10.0487
▁mokė	-10.0489
▁rūpi	-10.0489
▁mikrob	-10.0489
▁remia	-10.0493
▁baltym	-10.0495
▁nebūtina	-10.0497
umėm	-10.0502
▁ištrauk	-10.0508
ymu	-10.0512
jimas	-10.0514
▁pig	-10.0514
▁jautr	-10.0515
▁gėd	-10.0521
▁tarpu	-10.0525
▁laisva	-10.0538
▁mokslini	-10.0539
▁juod	-10.0548
▁asmenini	-10.0551
▁suprantama	-10.0553
▁parašyta	-10.0573
▁vertė	-10.0598
▁sunk	-10.0598
▁mėnesiu	-10.0599
▁didžioj	-10.06
rn	-10.0605
▁naudinga	-10.0607
▁gail	-10.0612
▁biologij	-10.0613
▁apibūdina	-10.0618
▁malon	-10.0632
▁gerą	-10.0654
▁skatina	-10.066
▁pavadinim	-10.0662
▁milijonai	-10.0663
▁būdam	-10.0678
▁krauj	-10.0691
▁par	-10.0692
▁nuotraukos	-10.0695
▁Facebook	-10.0697
▁industrij	-10.0697
▁kapital	-10.0697
▁ideal	-10.0697
▁kvap	-10.0698
▁žyd	-10.0699
▁Atrod	-10.0699
▁naudojo	-10.0701
▁dalyvaut	-10.0702
▁kalbėsi	-10.0702
yd	-10.0713
▁abu	-10.0714
▁sugebėjim	-10.0714
▁politini	-10.0716
▁mylim	-10.0719
▁požiūr	-10.0721
▁laimės	-10.0728
tėra	-10.073
▁žal	-10.0737
▁demokratij	-10.074
▁ypating	-10.0741
vedė	-10.0747
▁projekto	-10.0759
▁sūnu	-10.0762
šok	-10.0769
▁rezultatai	-10.0769
▁spalv	-10.0776
▁mergaitės	-10.0776
▁priim	-10.0779
leisti	-10.0786
▁naujos	-10.0789
▁kompiuteriu	-10.0794
▁kamer	-10.0798
▁pažiūr	-10.0817
▁laiming	-10.0818
▁ankst	-10.0829
bal	-10.0844
▁Šita	-10.0849
▁pamirš	-10.0868
▁nesupranta	-10.0894
▁atsaking	-10.0908
▁pagarb	-10.0914
▁apklaus	-10.0914
▁praktik	-10.0914
važiav	-10.0915
▁ištekli	-10.0916
▁skirtingos	-10.0916
▁klient	-10.0917
▁rinktis	-10.0918
▁Sp	-10.0922
▁gimė	-10.0923
dal	-10.0923
▁Ch	-10.0925
▁primin	-10.0928
▁šeimą	-10.093
▁dirbo	-10.094
▁nuėjau	-10.0946
▁sujung	-10.0948
▁parody	-10.0951
▁valdyt	-10.0958
▁treči	-10.0964
▁srit	-10.0969
▁peln	-10.0973
▁saugum	-10.0981
▁tiksla	-10.0982
▁neatsi	-10.0995
jimo	-10.1008
ieno	-10.101
▁geriausiai	-10.1024
▁kompanijos	-10.1025
▁psicholog	-10.103
▁nerv	-10.1031
▁mąstyt	-10.1031
▁pristat	-10.1031
▁savaitė	-10.1041
▁atsitiktin	-10.1043
▁lank	-10.1049
▁kultūra	-10.105
▁sužino	-10.105
▁medžiagos	-10.1054
▁vadinamas	-10.1057
▁ilgą	-10.1074
▁apsaug	-10.1083
▁slypi	-10.1089
▁augin	-10.1089
▁nematom	-10.1097
▁sukūri	-10.1114
▁emocin	-10.1117
▁momentu	-10.1118
▁Vokietij	-10.1137
▁aspekt	-10.1137
▁krūv	-10.1137
▁literatūr	-10.1137
▁pusiausvyr	-10.1137
▁ritual	-10.1137
▁simptom	-10.1137
▁patvirtin	-10.1137
▁mechanizm	-10.1137
▁kilometr	-10.1137
▁sutelk	-10.1137
▁Lester	-10.1137
▁suaugusi	-10.1137
▁trej	-10.1137
▁Negali	-10.1137
▁Klaus	-10.1138
▁pastebėjo	-10.1138
▁paverčia	-10.1138
▁17	-10.1139
▁virus	-10.114
▁24	-10.1141
ukus	-10.1142
▁pre	-10.1144
▁nueit	-10.1147
▁aukščiausi	-10.1156
▁prasm	-10.1159
▁Aišku	-10.1167
▁papraš	-10.1168
▁elgesi	-10.1169
▁linkę	-10.1172
▁pasirodym	-10.1178
▁pasiūlyt	-10.118
▁atmint	-10.1182
▁patek	-10.1183
▁Šv	-10.1183
▁Dan	-10.1188
▁ateinanči	-10.1188
▁kamera	-10.1194
▁veiksming	-10.12
▁išsiaiškint	-10.1208
davė	-10.1209
▁pakil	-10.1209
▁kūrin	-10.1214
▁pasak	-10.1215
ach	-10.1219
▁bendruomene	-10.1228
▁verk	-10.1228
▁jūr	-10.1228
▁rezultatu	-10.1244
▁Tas	-10.1246
▁gydytoj	-10.1247
iname	-10.1248
▁programa	-10.1257
▁sėdėj	-10.1273
mirė	-10.1276
valgyti	-10.1278
▁išor	-10.1282
▁pikt	-10.1287
▁Pirmoj	-10.1296
▁lėta	-10.1309
▁abi	-10.1318
▁kaina	-10.1325
▁paaiškin	-10.1327
▁norėdam	-10.1329
▁balt	-10.1337
▁special	-10.135
▁skirtingai	-10.1362
▁judėti	-10.1364
▁paskambin	-10.1364
▁sąveik	-10.1364
▁naudojim	-10.1365
▁buvę	-10.1365
▁negalėja	-10.1365
▁kosmos	-10.1365
▁tarkim	-10.1366
▁suprantame	-10.1368
▁Aplo	-10.137
cija	-10.1371
▁mintys	-10.1375
▁išskirtin	-10.1375
▁švar	-10.1377
▁Iran	-10.1377
▁dviem	-10.1383
▁min	-10.1383
▁siūlo	-10.1384
▁policij	-10.1388
▁pateikia	-10.1389
▁Europoje	-10.1396
lend	-10.1396
▁gaminti	-10.1405
▁tank	-10.1406
▁vėži	-10.141
▁rašt	-10.1413
▁Galima	-10.1428
▁vietini	-10.143
▁tema	-10.1442
▁pristatyt	-10.1444
▁rūpin	-10.1449
▁vali	-10.1454
▁sutikt	-10.1456
▁pavadint	-10.1464
▁sužinoj	-10.1475
▁emocij	-10.1485
▁lieka	-10.149
▁El	-10.1495
▁mokymas	-10.1506
▁ėmiau	-10.1519
▁organizacija	-10.1528
▁sūn	-10.1541
▁suteik	-10.1542
▁ateis	-10.1552
▁viršūnė	-10.157
ydavo	-10.1573
▁laimingi	-10.1575
▁komand	-10.1575
▁jėgo	-10.1582
▁praleidžia	-10.1585
▁nebuv	-10.1594
▁proting	-10.1596
▁atkreip	-10.1596
▁atvaizd	-10.1596
▁atžvilgi	-10.1596
▁ankstyv	-10.1596
▁tarptautin	-10.1596
▁Puiku	-10.1597
▁region	-10.1597
▁praranda	-10.1597
▁prievart	-10.1597
▁He	-10.1598
▁Reikia	-10.1598
▁kilo	-10.1599
▁žiaur	-10.16
▁evoliucijo	-10.1608
▁įdom	-10.1614
eliai	-10.1618
▁padary	-10.1624
▁kažku	-10.1628
tojai	-10.1634
▁baisi	-10.1635
▁Juok	-10.1636
▁vyruk	-10.1641
▁gaus	-10.1648
▁santykiai	-10.1649
▁pagaminti	-10.1649
leidžia	-10.1652
▁The	-10.1652
▁tuoj	-10.1654
▁rašė	-10.1662
▁glamūrišk	-10.167
▁proto	-10.1677
▁bar	-10.1679
▁garso	-10.1682
▁vaizduoja	-10.1689
▁laimė	-10.1691
▁kompanija	-10.1692
▁vyruka	-10.1695
▁išvyk	-10.1695
▁akimirka	-10.17
▁lengv	-10.1702
▁Dr	-10.1704
▁žmogui	-10.1706
▁paprašė	-10.1718
telėj	-10.1737
▁turės	-10.1737
▁gamin	-10.1744
▁Har	-10.1746
ten	-10.1756
nor	-10.1771
maž	-10.1773
▁bakterijo	-10.179
▁Vaik	-10.1795
▁dėžė	-10.1805
jungti	-10.1808
▁ligonin	-10.1808
▁sumažin	-10.181
▁laikotarp	-10.1821
▁alternatyv	-10.1835
▁ekspert	-10.1835
▁nuspręst	-10.1835
▁reikalauja	-10.1836
▁siel	-10.1837
▁neigiam	-10.1838
▁pasitik	-10.1839
▁spindul	-10.1839
▁turėtumėt	-10.184
▁išreikšt	-10.1841
▁galing	-10.1841
▁kalbėjau	-10.1842
▁vair	-10.1843
▁klausė	-10.1845
▁galvoju	-10.1847
▁Ab	-10.1855
▁statyb	-10.1858
▁molekul	-10.1882
▁Alzheimeri	-10.1884
▁praėjusi	-10.1885
▁praš	-10.189
▁mėgin	-10.189
▁mažyt	-10.1894
▁pažiūrėj	-10.19
▁įprasta	-10.1905
▁nepaprastai	-10.1907
▁sudėt	-10.1915
▁mokom	-10.1916
▁sujungti	-10.1927
▁atliek	-10.1932
▁vaistų	-10.1936
▁klausimai	-10.1941
▁mažesni	-10.1942
▁Sta	-10.1942
▁Europo	-10.1953
▁300	-10.1961
▁dariau	-10.1962
▁asmenin	-10.197
▁saugo	-10.1985
▁akimi	-10.1985
▁tak	-10.1991
▁pakeist	-10.1992
▁lyderiai	-10.2
▁sudaryt	-10.2004
ah	-10.2011
▁nebū	-10.2013
▁arti	-10.2015
▁šimtai	-10.2016
gavo	-10.202
▁skaitmenini	-10.2031
▁išaug	-10.2035
▁dešimtmeči	-10.204
her	-10.2054
▁skaičiai	-10.2054
▁atsisak	-10.2056
nčiais	-10.2063
▁Gan	-10.2063
▁atvyko	-10.2064
▁individ	-10.2078
▁kalbu	-10.2078
▁haliucinacij	-10.2078
▁Kalifornij	-10.2078
▁kambarį	-10.2078
▁Japonij	-10.2078
▁Twit	-10.2078
▁atsakomybė	-10.2078
▁išvengt	-10.2078
▁progres	-10.2079
▁įsipareigojim	-10.2079
▁sąvok	-10.2079
▁audr	-10.2079
▁ugn	-10.208
▁jaučiuosi	-10.2081
▁ištis	-10.2085
▁kažkok	-10.2089
▁Kažka	-10.209
ologij	-10.209
▁valdži	-10.2092
▁liet	-10.2094
▁75	-10.2095
▁Indijo	-10.2099
H	-10.21
▁Pirm	-10.2103
▁sėkming	-10.2112
▁skatin	-10.2122
▁pavyd	-10.2123
▁pozicij	-10.2124
▁susiet	-10.2131
▁smagu	-10.2137
▁mažos	-10.2144
▁pasiim	-10.2156
▁sekė	-10.2159
▁įsivaizduokit	-10.2161
inimas	-10.2167
▁moral	-10.2173
▁vienod	-10.2184
▁kojos	-10.2198
▁nauding	-10.22
▁supras	-10.2204
ėjusi	-10.2204
▁Ak	-10.2207
▁daugel	-10.2221
inant	-10.2222
▁nepri	-10.2235
gram	-10.2236
▁projektu	-10.2245
▁architektūr	-10.2265
▁skaičiau	-10.2266
▁Ant	-10.2266
viet	-10.2267
▁pačiam	-10.2271
▁užbaig	-10.2278
▁siaubinga	-10.2287
▁neturėj	-10.2289
pil	-10.2322
▁Vėl	-10.2324
▁intelekt	-10.2328
▁Paskutini	-10.2328
▁Pažvelki	-10.2328
▁liūt	-10.2328
▁prekyb	-10.2329
▁kampanij	-10.2329
▁sukelt	-10.2329
▁mokesči	-10.2329
▁pažang	-10.2329
▁seser	-10.2329
▁diskusij	-10.233
▁privertė	-10.233
▁sugebėjo	-10.2333
▁straipsni	-10.2334
▁norėtumėt	-10.2338
▁radij	-10.2341
▁kairėje	-10.2341
▁žiniasklaido	-10.2342
gel	-10.2352
▁mado	-10.2354
▁įmonės	-10.2354
▁būdavo	-10.2355
▁tėva	-10.2368
▁pabandyt	-10.2371
▁praleist	-10.2372
▁dalyje	-10.2373
▁prašau	-10.2374
▁teisės	-10.2374
▁trečia	-10.2378
▁bendraut	-10.2381
▁dažniau	-10.2387
▁gausi	-10.239
▁ruoš	-10.2392
▁laipsni	-10.2395
▁mokytoja	-10.2399
▁Sen	-10.24
▁Kalba	-10.2416
šta	-10.2422
▁matyt	-10.2425
kšči	-10.2432
▁sugrįž	-10.2433
tumėt	-10.2434
▁įsitikinim	-10.2439
▁Vyras	-10.2449
▁Vyr	-10.2463
▁ketina	-10.2478
▁amžina	-10.2479
▁Susi	-10.248
▁patikrin	-10.248
▁priešinga	-10.2483
▁džiaug	-10.2493
▁No	-10.2503
▁nedar	-10.2513
▁tapatyb	-10.252
▁diagnoz	-10.2528
▁Tikra	-10.2529
▁laisvė	-10.2532
com	-10.2544
▁autorin	-10.2545
▁karikatūr	-10.2558
▁Niek	-10.256
▁vaiko	-10.2578
▁praėjus	-10.2583
▁paaiškėj	-10.2585
▁baigė	-10.2585
▁kanal	-10.2585
▁klub	-10.2585
▁naudodami	-10.2585
▁gryn	-10.2585
▁variant	-10.2587
▁pagalvokit	-10.2588
▁netoli	-10.2589
▁nari	-10.2597
▁draugu	-10.2602
▁daiktu	-10.2602
▁vyru	-10.261
vaikščioti	-10.2611
▁nepavyk	-10.2621
minti	-10.2622
▁korupcij	-10.2624
gyv	-10.2625
▁pažin	-10.2635
▁šešių	-10.2641
▁patiria	-10.2641
▁Žem	-10.2644
▁bal	-10.2646
▁žmogum	-10.2652
▁sritys	-10.2661
▁globali	-10.2663
▁įrang	-10.2664
eji	-10.2698
▁naujienos	-10.2711
▁vyresni	-10.2727
▁persi	-10.2727
▁pakeis	-10.2737
▁valg	-10.275
gauti	-10.275
▁likus	-10.2755
domu	-10.2766
▁sekundė	-10.2777
▁keliu	-10.2788
▁sėdi	-10.279
▁Ik	-10.2791
▁400	-10.2792
▁pavadino	-10.2797
▁gatvė	-10.281
▁randa	-10.282
▁daiktai	-10.282
▁daryt	-10.2826
▁stebukl	-10.2833
ell	-10.2833
▁piešin	-10.2839
▁liep	-10.2845
▁kaimyn	-10.2848
▁automat	-10.2848
▁besivystanči	-10.2848
▁ketvirt	-10.2848
▁temperatūr	-10.2848
▁Didžioj	-10.2848
▁rajon	-10.2848
▁prognoz	-10.2848
▁lazd	-10.2848
▁Tarp	-10.2848
▁grind	-10.2848
▁jutim	-10.2849
▁obuol	-10.2849
▁tušči	-10.2849
▁veikėj	-10.2852
▁ledyn	-10.2853
▁didėja	-10.2853
▁sakydavo	-10.2855
▁gyvūnai	-10.2856
▁pramonė	-10.2857
▁Krisa	-10.2858
▁tėči	-10.2858
ff	-10.2859
▁gyvybe	-10.2861
▁paieško	-10.2861
▁modeliu	-10.2863
▁tęsia	-10.2865
▁žurnalist	-10.2866
▁molekulė	-10.2875
▁laimėj	-10.2878
▁sustabdyt	-10.2888
▁Lab	-10.2898
▁neger	-10.2901
▁religijos	-10.2905
▁bėgant	-10.291
▁padarysi	-10.291
utė	-10.2912
▁troškim	-10.2913
▁įvertin	-10.2915
▁hip	-10.2922
vertę	-10.2922
▁pagerint	-10.2923
▁kraujo	-10.293
▁įgyvendint	-10.2932
▁kvantin	-10.2933
▁blogo	-10.294
gan	-10.2942
▁erdvės	-10.2961
spaud	-10.2965
▁pradžia	-10.2966
▁Šį	-10.2974
▁mėgstamiausi	-10.2985
▁gydytoja	-10.2985
dik	-10.2999
▁akivaizdu	-10.3017
▁kalt	-10.3026
▁Jiem	-10.3027
▁susitikim	-10.3031
▁butel	-10.3031
▁įgyvendin	-10.3032
▁valdžio	-10.3038
▁atspindi	-10.3043
▁pabaiga	-10.3055
▁fiziko	-10.3058
▁naujiena	-10.3061
▁jaučiau	-10.3063
▁temp	-10.3066
▁siekiant	-10.3066
▁paskutin	-10.3075
reikš	-10.3078
▁Tikr	-10.3081
▁miel	-10.3081
▁pripažint	-10.3087
▁duri	-10.3088
▁Gar	-10.3091
ančią	-10.3094
▁atsarg	-10.3095
▁nepaprast	-10.3102
▁spalvų	-10.3103
▁bomb	-10.3105
▁istorijų	-10.3114
▁kop	-10.3115
▁kaltin	-10.3118
▁London	-10.3118
▁Pažiūrėkim	-10.3118
▁intuicij	-10.3118
▁kategorij	-10.3118
▁patenkint	-10.3118
▁grėsm	-10.3118
▁žiūrov	-10.3118
▁pakalbėt	-10.3118
▁Viljama	-10.3118
▁autizm	-10.3119
▁nesėkm	-10.3119
▁tilt	-10.3119
▁ilgalaik	-10.3119
▁pakelt	-10.312
▁pensij	-10.312
▁šiaurė	-10.312
▁pilk	-10.3121
▁milijono	-10.3121
▁Kyr	-10.3122
▁vaikystė	-10.3122
▁Juk	-10.3127
▁įrengin	-10.3129
▁jautė	-10.3133
▁žaidėj	-10.3136
▁ribot	-10.3143
▁normali	-10.3147
▁Prancūzij	-10.3152
lap	-10.3154
▁sėkm	-10.3159
▁tyrinėjim	-10.316
▁vandeniu	-10.3163
▁palaikyt	-10.3167
▁girdėt	-10.3171
▁žinias	-10.3176
▁nesusi	-10.3181
▁sveikata	-10.3184
▁kv	-10.3185
ciją	-10.3189
istai	-10.3198
▁geresnė	-10.3199
▁para	-10.3204
▁baz	-10.3205
▁darbe	-10.3214
▁perspektyv	-10.3222
▁lengviau	-10.3222
▁esančių	-10.3222
▁taria	-10.3223
▁Oh	-10.3225
▁graž	-10.3227
▁verting	-10.3238
žym	-10.3241
▁išleidžia	-10.3245
▁dešinėj	-10.3248
▁psich	-10.3248
▁tyrimą	-10.3249
ymą	-10.325
▁band	-10.3253
▁patarim	-10.3254
▁Or	-10.3257
▁pradin	-10.3259
▁antras	-10.3262
▁mokslininkai	-10.3263
▁mokymo	-10.327
▁mobil	-10.3297
▁Bar	-10.3303
▁paraši	-10.3309
▁ekonomik	-10.3315
▁pavirši	-10.3326
▁darysi	-10.334
▁dovana	-10.3349
▁akl	-10.3353
▁padidin	-10.3354
▁vertės	-10.3359
▁vidutini	-10.3366
▁sunkum	-10.3371
▁plači	-10.3379
▁moterimi	-10.338
ll	-10.3384
▁Kin	-10.339
▁parduot	-10.3394
▁elgsen	-10.3396
▁entropij	-10.3396
▁sugeba	-10.3396
▁susitelk	-10.3396
▁devyni	-10.3396
▁paaugli	-10.3396
▁pagalvojo	-10.3396
▁lemia	-10.3396
▁netikėt	-10.3396
▁sieja	-10.3396
▁šans	-10.3397
grieb	-10.3398
▁ligoninėje	-10.3398
▁programos	-10.3401
▁bit	-10.3401
▁kosmin	-10.3401
▁tęsti	-10.3403
▁močiutė	-10.3403
▁Paul	-10.3404
▁disk	-10.3404
▁palieka	-10.3404
VP	-10.3406
▁bėd	-10.3407
▁ekonomika	-10.3413
▁galinga	-10.3414
▁uždirb	-10.3415
krenta	-10.3417
▁pasibaig	-10.3418
tenka	-10.342
▁žinoj	-10.342
py	-10.3423
▁veikla	-10.3426
▁nelygybė	-10.3436
▁matę	-10.3442
▁kūrybin	-10.3443
▁prisimin	-10.3444
▁išband	-10.3457
▁You	-10.3458
▁burn	-10.3459
▁Nežina	-10.3478
▁dėž	-10.3486
▁str	-10.3488
▁22	-10.3489
temp	-10.3499
▁svajonė	-10.351
▁išlik	-10.351
▁saky	-10.3516
▁mirt	-10.3526
ėmiau	-10.3537
,000	-10.3546
▁požiūriu	-10.3552
▁patent	-10.3569
▁pavojinga	-10.3573
▁kartos	-10.3575
▁magnet	-10.3586
▁Rob	-10.3587
▁dizaineri	-10.3592
▁vidutin	-10.3603
▁milijardai	-10.3613
▁rinkos	-10.3617
▁sėkminga	-10.3621
▁vysty	-10.3625
▁fakta	-10.363
▁apsaugot	-10.3632
▁mobili	-10.3638
▁500	-10.3646
▁skirti	-10.3647
▁kūne	-10.3657
▁vykt	-10.3661
▁atrod	-10.367
▁elges	-10.3672
cio	-10.3674
▁straipsn	-10.3676
▁paprasčiau	-10.3681
▁esmin	-10.3682
▁Pažiūrėkit	-10.3682
▁atmosfer	-10.3682
▁intensyv	-10.3682
▁tatuiruo	-10.3682
▁įžvalg	-10.3682
▁paplit	-10.3682
▁šiukšl	-10.3682
▁deguoni	-10.3682
▁sugalvot	-10.3682
▁negalėt	-10.3682
▁Korėj	-10.3682
▁neįgal	-10.3682
▁kovot	-10.3683
▁pajust	-10.3683
▁stili	-10.3684
▁198	-10.3686
▁įspūding	-10.369
▁Pradėj	-10.3691
▁foto	-10.3692
▁Sveiki	-10.3692
▁šilt	-10.3696
org	-10.3697
▁dukr	-10.3698
▁įvertint	-10.3698
▁išgyvent	-10.37
▁45	-10.3707
▁giliai	-10.3708
▁skleidžia	-10.3708
▁paėmė	-10.3709
▁Visos	-10.3718
▁funkcij	-10.3719
▁plojimai	-10.3724
▁mokyklų	-10.3736
▁išbandyt	-10.3755
▁tikimybė	-10.3779
▁23	-10.3782
J	-10.3786
▁atlikta	-10.3794
▁neteisinga	-10.3797
▁tinka	-10.3799
ereikia	-10.3801
▁grandin	-10.3805
▁paaiškina	-10.3811
▁pakeli	-10.3811
torius	-10.3812
▁ein	-10.3828
▁darbai	-10.3832
▁leidim	-10.3835
damos	-10.3841
rem	-10.3842
▁praneš	-10.3844
▁pasidalin	-10.3856
ling	-10.387
▁krizė	-10.3872
▁sėdėt	-10.3872
nim	-10.3877
▁Kal	-10.3877
▁pritaik	-10.3882
▁tūkstančiu	-10.3888
▁apibūdin	-10.3892
▁surinkt	-10.3896
▁vaikšt	-10.3897
▁elektr	-10.3898
▁patar	-10.3907
▁malonum	-10.3913
▁atrad	-10.3915
▁pilnai	-10.3915
▁ekonomini	-10.392
▁didele	-10.3921
žiūrėt	-10.3925
▁trans	-10.3925
▁papasakoj	-10.3926
▁nemok	-10.3931
▁dėžutė	-10.3931
▁pasitaik	-10.3937
▁gamyb	-10.3938
▁pamatysi	-10.3941
▁fizin	-10.3943
▁paima	-10.3959
skub	-10.396
▁mumi	-10.3963
▁dalinti	-10.3972
▁pareig	-10.3975
▁skyl	-10.3975
▁bendradarbiavim	-10.3976
▁išsaugot	-10.3976
▁mygtuk	-10.3976
▁nusikaltim	-10.3976
▁pajėg	-10.3976
▁universal	-10.3976
▁kilmė	-10.3976
▁raumen	-10.3976
▁paukšči	-10.3976
▁grafik	-10.3976
▁argument	-10.3976
▁kostium	-10.3976
▁privat	-10.3977
▁nelaiming	-10.3977
▁gydyti	-10.3978
▁trūksta	-10.3979
▁paveikt	-10.398
▁nemokama	-10.398
▁CA	-10.3983
esnį	-10.3984
▁organizm	-10.3988
▁byl	-10.3988
▁km	-10.399
▁fizini	-10.3995
▁netruk	-10.4001
▁sutiko	-10.4005
▁greičiu	-10.401
▁Med	-10.4011
▁atsakinga	-10.4015
▁būtybė	-10.4023
skyrus	-10.4025
▁Būdama	-10.4027
▁pasirinko	-10.4029
▁asmenyb	-10.4029
iškų	-10.4031
▁ekonomin	-10.4032
▁prasi	-10.4032
skleist	-10.4033
▁moterim	-10.4033
▁skaud	-10.4035
▁balta	-10.4036
▁Time	-10.4047
ritmeti	-10.405
▁komandos	-10.4063
▁būtum	-10.4073
▁žiūrint	-10.4074
▁siūl	-10.4074
▁kovoj	-10.408
vien	-10.4084
ybi	-10.4096
▁pet	-10.4102
▁lėt	-10.4106
fer	-10.4108
▁sudėj	-10.4117
▁Vaika	-10.4122
▁banda	-10.4132
▁pus	-10.4138
▁internetu	-10.4143
▁stikl	-10.4144
▁gėr	-10.4157
▁Jungtini	-10.4169
▁svajon	-10.4178
▁užduo	-10.4191
▁mėgst	-10.4203
▁akt	-10.4212
▁atskleist	-10.4218
▁atskirti	-10.4236
▁Jon	-10.4242
ming	-10.4242
▁elgesy	-10.4245
▁šv	-10.4245
▁Afrika	-10.4247
▁pamatysit	-10.4257
▁evoliuci	-10.4264
▁priešing	-10.4274
▁trumpą	-10.4276
▁žvelg	-10.4277
▁architekt	-10.4277
▁racional	-10.4279
▁pasitelk	-10.4279
▁prancūz	-10.4279
▁John	-10.4279
▁Meksik	-10.4279
▁religin	-10.4279
▁baigti	-10.4279
▁triuk	-10.4279
▁burbul	-10.4279
▁sapn	-10.4279
▁šveln	-10.4279
▁siekt	-10.4279
▁interv	-10.4279
▁Rich	-10.4279
utini	-10.4279
▁dvirači	-10.428
▁kilę	-10.428
▁mamut	-10.428
▁krant	-10.4281
▁kontroliuot	-10.4281
▁nuotyki	-10.4281
▁kliū	-10.4282
▁Toks	-10.4282
▁sumažėj	-10.4282
▁nupieš	-10.4283
▁slėn	-10.4283
▁kepur	-10.4283
▁Fil	-10.4283
▁salė	-10.4285
▁perduot	-10.4285
▁David	-10.4286
▁skal	-10.4287
▁įtraukt	-10.4289
▁ding	-10.429
▁reikšt	-10.4299
▁naršy	-10.4299
▁įvairiausi	-10.4301
▁dalyv	-10.4302
▁Jame	-10.4309
▁praktiškai	-10.4311
▁ligoninės	-10.4313
▁paskutinė	-10.4314
▁prisiminim	-10.4316
▁visuotin	-10.4318
▁visam	-10.432
▁Ver	-10.4326
▁užsien	-10.4327
▁skyri	-10.433
▁antrą	-10.4331
▁siaubing	-10.4336
▁galva	-10.4337
▁pamiršt	-10.4345
▁problemo	-10.4345
▁sąlyg	-10.4363
▁Norėj	-10.4366
▁įdėt	-10.4367
▁asmeniška	-10.4368
išku	-10.4368
▁metro	-10.4369
▁minutė	-10.4369
▁tikėjim	-10.4376
▁nuotraukoje	-10.4379
▁kanči	-10.4384
▁pastov	-10.4385
▁Anglij	-10.4385
▁pasakysi	-10.4393
▁būding	-10.4395
▁drambli	-10.4396
▁prog	-10.4413
▁sudaryta	-10.4417
▁paliko	-10.4428
▁pelė	-10.443
prot	-10.4432
▁žemiau	-10.4435
▁vertinim	-10.4438
ybos	-10.4449
▁maiš	-10.4454
▁seneli	-10.4462
inanči	-10.4468
▁išskyr	-10.4479
▁ryšius	-10.4481
▁tikimyb	-10.4487
▁sunkiau	-10.449
▁organizacijos	-10.4493
▁serga	-10.4493
▁sienos	-10.4496
▁gaun	-10.4497
▁pona	-10.4509
▁papasakosi	-10.4511
▁visoki	-10.4515
▁neįprasta	-10.452
inėjo	-10.4548
▁odo	-10.4554
▁planeta	-10.4555
▁praded	-10.4559
▁svajo	-10.4569
▁atsirast	-10.457
▁tenka	-10.4575
▁užauga	-10.4584
▁triukšm	-10.4586
▁žiūrėjo	-10.4587
▁Australij	-10.4591
▁inovacij	-10.4591
▁institut	-10.4591
▁instrument	-10.4591
▁original	-10.4591
▁snieg	-10.4591
▁treniruo	-10.4591
▁vaidmen	-10.4591
▁Andžel	-10.4591
▁gelton	-10.4591
▁buvusi	-10.4591
▁uždavin	-10.4591
▁miega	-10.4591
▁beprotišk	-10.4591
▁liečia	-10.4591
▁pėdsak	-10.4591
▁Dirb	-10.4592
▁meistr	-10.4592
▁parduoda	-10.4592
▁blogiau	-10.4592
▁girdėję	-10.4592
▁prarasti	-10.4592
▁vartoja	-10.4593
▁komentar	-10.4593
▁medžių	-10.4593
▁pasirenka	-10.4594
▁retai	-10.4599
▁kontroliuoja	-10.4601
▁lygmen	-10.4601
▁klausyti	-10.4608
▁Staig	-10.4609
▁nusto	-10.4613
▁išmoksta	-10.4614
▁mėlyna	-10.4617
▁priklaus	-10.4621
▁vieniš	-10.4621
30	-10.4624
by	-10.4625
▁pasaulinė	-10.4637
▁bendrą	-10.4642
▁gaunam	-10.4643
▁begal	-10.4649
▁eilės	-10.4653
▁kokyb	-10.4653
▁20-	-10.4654
▁dabartini	-10.4655
▁kasmet	-10.4657
žta	-10.4657
▁įjungt	-10.4665
tiek	-10.4668
▁molekule	-10.467
ill	-10.4671
▁mokin	-10.4682
zuoti	-10.4687
▁išmatuot	-10.4689
▁sieki	-10.4699
▁batu	-10.4702
▁filosofij	-10.4704
▁gyvenam	-10.4708
▁Atsak	-10.4711
▁išlaid	-10.4717
keičia	-10.4718
▁pamato	-10.4719
▁valgo	-10.472
▁fotografija	-10.472
▁prar	-10.4721
▁nusteb	-10.473
▁nesugeb	-10.4732
▁išmat	-10.4737
beli	-10.4737
▁trumpai	-10.4738
▁suma	-10.4742
▁šalta	-10.4743
▁tvar	-10.4746
▁poveik	-10.4749
▁paviršiu	-10.475
▁skaidrum	-10.4753
▁dangu	-10.4754
▁dirbtin	-10.4764
▁kambario	-10.4771
▁reikšmė	-10.4772
▁nustebin	-10.4773
galv	-10.4773
▁versij	-10.4776
▁pastato	-10.4781
▁Par	-10.4785
▁atsaki	-10.4786
▁miego	-10.4792
▁nenorė	-10.4794
▁poveiki	-10.4795
▁atid	-10.4806
▁atomin	-10.4809
▁skirtumai	-10.4814
▁išminti	-10.4815
▁praeiti	-10.4816
▁Kokia	-10.4826
▁fizik	-10.4831
traukė	-10.4833
▁visuomene	-10.484
▁nepaprasta	-10.4848
▁parod	-10.485
▁judes	-10.4852
▁tvirt	-10.4855
▁nacionalini	-10.4858
▁pastebėj	-10.486
▁atstov	-10.4862
mm	-10.4865
ublika	-10.4873
šiol	-10.4875
▁dalyvav	-10.4875
▁srity	-10.4891
▁normalu	-10.4891
▁skaidr	-10.4892
▁bandant	-10.4893
duoda	-10.4893
▁Sak	-10.4896
▁kažk	-10.4904
▁nepasak	-10.4907
▁pradedant	-10.491
▁pabėg	-10.4913
▁absoliuči	-10.4914
▁kriterij	-10.4914
▁Scott	-10.4914
▁iliuzij	-10.4914
▁išvaizd	-10.4914
▁pasikeitim	-10.4914
▁pojūči	-10.4914
▁restoran	-10.4914
▁žvilgsn	-10.4914
▁dviguba	-10.4914
▁prigimti	-10.4914
▁terapij	-10.4914
▁animacij	-10.4914
▁grįš	-10.4914
▁teatr	-10.4914
▁statistik	-10.4914
▁sąsaj	-10.4914
▁transport	-10.4914
▁Pagalvokit	-10.4916
▁Kinija	-10.4916
▁protest	-10.4917
▁tradicin	-10.4917
▁nuveikt	-10.4917
▁nemaža	-10.492
▁akivaizdžia	-10.4923
▁įgalin	-10.4924
▁užtruk	-10.4924
▁Praėjus	-10.4925
▁primat	-10.4927
▁puodeli	-10.493
▁nežinom	-10.4931
▁Bū	-10.4934
▁Valstij	-10.4936
tojų	-10.4937
▁Vidur	-10.4938
▁veidrod	-10.4941
▁įveikt	-10.4941
▁įkūrė	-10.4947
▁aptik	-10.4947
▁senia	-10.498
▁savinink	-10.498
▁autori	-10.5001
▁išraišk	-10.5017
kliai	-10.502
▁apmok	-10.5022
▁linksm	-10.5022
naudoja	-10.5023
▁termin	-10.5026
sky	-10.5034
▁išpl	-10.5038
▁kūrybing	-10.5043
▁kambari	-10.506
▁daiktų	-10.5061
▁konkreči	-10.508
▁didžiulė	-10.5086
▁operacij	-10.5086
▁pažįst	-10.5093
▁genom	-10.5096
▁paprastum	-10.5113
▁sujungia	-10.5132
▁susirink	-10.5136
▁detali	-10.5145
▁pasirodyt	-10.516
ėlė	-10.516
▁priežast	-10.5166
▁kokybė	-10.517
▁priklausomyb	-10.5183
▁statyt	-10.5185
rge	-10.5209
▁pasakot	-10.521
▁vyriausyb	-10.5215
▁papildom	-10.5218
▁grandinė	-10.5225
▁galės	-10.5231
šiu	-10.5237
▁žaidimą	-10.5238
▁smulk	-10.5247
▁Brazilij	-10.5247
▁ekosistem	-10.5247
▁gamykl	-10.5247
▁smarkia	-10.5247
▁susitaiky	-10.5247
▁tendencij	-10.5247
▁jungia	-10.5247
▁pakvies	-10.5247
▁nebėra	-10.5247
▁svori	-10.5247
▁metafor	-10.5248
▁dukra	-10.5248
▁sėkl	-10.5248
▁heroj	-10.5248
▁traukini	-10.5248
▁upės	-10.5248
▁pradėsi	-10.5248
▁padalin	-10.5249
▁ritm	-10.5249
▁organizuo	-10.525
▁pirkt	-10.525
▁197	-10.5252
▁tinklap	-10.5253
▁teisingum	-10.5256
▁vidaus	-10.526
▁model	-10.5264
▁daugum	-10.5266
▁stebukling	-10.5267
▁Išties	-10.5269
▁daugybe	-10.5271
▁struktūra	-10.5272
▁pastar	-10.5274
▁negyv	-10.528
▁mastu	-10.528
▁moderni	-10.5281
▁būst	-10.5284
▁sutinka	-10.5297
▁žiūrėj	-10.5298
▁savyje	-10.53
▁Val	-10.53
▁dovan	-10.5304
▁leid	-10.5309
▁politiko	-10.5309
▁naujausi	-10.5311
▁pokyčiu	-10.532
▁popieri	-10.5321
▁pažad	-10.5326
▁trumpa	-10.5327
▁laikė	-10.534
▁apgau	-10.534
▁priėjo	-10.5354
▁įsitrauk	-10.5358
▁proceso	-10.5359
▁elektrin	-10.5362
▁dizaineriai	-10.5364
▁Europ	-10.5374
▁medicino	-10.5383
▁kūrybiškum	-10.5389
▁praradim	-10.5391
▁atvirai	-10.5391
▁keturias	-10.5391
▁paskatint	-10.5396
▁politinė	-10.5397
klys	-10.5402
▁situacijos	-10.5408
▁svarbiau	-10.541
▁visišk	-10.5413
▁automobil	-10.5416
▁kreip	-10.5418
▁Trečia	-10.5424
▁apskrit	-10.5426
▁emocija	-10.5431
▁milijardu	-10.5431
sakym	-10.5434
trys	-10.5442
▁kitokia	-10.5445
▁atominė	-10.5451
▁Bl	-10.5457
▁vietovė	-10.5467
▁nukreipt	-10.547
▁įranga	-10.5487
▁vidurin	-10.5488
▁santykiu	-10.5506
▁vilti	-10.5514
nz	-10.5522
verči	-10.5525
▁Gra	-10.553
▁įmanom	-10.5531
cijos	-10.5532
▁vaizdin	-10.5533
lieka	-10.5536
▁vieša	-10.5539
▁nuli	-10.5539
▁Ale	-10.554
▁mokiniai	-10.5544
▁menk	-10.5551
▁Tokia	-10.5557
▁ištirt	-10.5559
▁pašalin	-10.5564
▁laiky	-10.558
▁Kada	-10.5584
vyr	-10.559
sprog	-10.559
▁prisimen	-10.5592
▁santuok	-10.5592
▁šešėl	-10.5592
▁žievė	-10.5592
▁portret	-10.5592
▁atspar	-10.5592
▁pažiūrėkit	-10.5592
▁Prisimen	-10.5592
▁citat	-10.5592
▁psichologij	-10.5592
▁kenčia	-10.5592
▁avarij	-10.5592
▁skelb	-10.5592
▁teikia	-10.5593
umėt	-10.5593
▁pabėgėli	-10.5593
▁skyrė	-10.5594
▁domin	-10.5595
▁27	-10.5596
▁kainuoja	-10.5597
▁lyginant	-10.5597
▁mintimi	-10.5598
▁muš	-10.5599
▁cha	-10.5602
▁dail	-10.5602
▁eilė	-10.5603
▁patenka	-10.5605
▁pirk	-10.5609
▁populiacijos	-10.5609
▁Vėliau	-10.5611
▁laikotarpiu	-10.5612
▁taisyklės	-10.5614
▁išėjo	-10.5618
▁Džon	-10.562
smuk	-10.563
▁pereit	-10.563
▁pažįstam	-10.5632
▁mokėt	-10.5634
▁įrankiai	-10.5636
▁prieig	-10.564
▁diding	-10.5644
▁trukmė	-10.5657
▁minut	-10.5667
▁sprendžia	-10.5671
▁fan	-10.5674
▁Var	-10.5682
▁sužinojo	-10.5685
▁paruošt	-10.5691
▁Kiekvieną	-10.5691
red	-10.5692
▁savybė	-10.5693
▁tikėjo	-10.5694
▁Praš	-10.5697
▁išgelbėj	-10.5703
▁vilt	-10.5706
▁kriz	-10.5716
▁plakat	-10.5718
▁žvaigžd	-10.572
▁Mel	-10.5725
▁realiu	-10.5731
▁prieinama	-10.5731
50	-10.5733
▁but	-10.5737
dan	-10.5739
▁kli	-10.574
▁stovėj	-10.5745
▁prijung	-10.5748
▁garsia	-10.5758
▁įrankiu	-10.5759
▁fizika	-10.576
▁Gyvenim	-10.5765
▁tikėjau	-10.5766
tyvi	-10.5772
prasti	-10.5781
▁Niekad	-10.5785
▁leist	-10.5791
▁paslėpt	-10.5798
▁tūkstančiai	-10.5804
▁fenomen	-10.5816
▁institucijos	-10.5824
▁kovoja	-10.5829
▁šauk	-10.583
▁klaidinga	-10.5835
▁pakrantė	-10.5847
ump	-10.5853
▁Neman	-10.5855
▁aplank	-10.5866
▁atidar	-10.5868
▁pora	-10.5868
▁išsiaiškin	-10.5871
▁darbuotojai	-10.5874
all	-10.5878
▁Tor	-10.5885
▁išvyst	-10.589
▁juokinga	-10.589
išgyven	-10.5896
▁Ryt	-10.5897
▁teigin	-10.5897
truk	-10.5899
▁minėj	-10.5908
▁patalp	-10.591
▁debes	-10.5911
Tu	-10.5913
▁praei	-10.5923
maišyt	-10.593
▁pel	-10.593
▁strategija	-10.5931
▁riba	-10.5932
▁moterišk	-10.5936
▁unikali	-10.5937
keitė	-10.594
ktas	-10.5946
▁stog	-10.5946
▁Anderson	-10.5949
▁autobus	-10.5949
▁bažnyči	-10.5949
▁biudžet	-10.5949
▁fundamental	-10.5949
▁investuot	-10.5949
▁pojūt	-10.5949
▁žiurkė	-10.5949
▁Dalyv	-10.5949
▁apibendrin	-10.5949
▁nepamirš	-10.5949
▁pasirūpin	-10.5949
▁Kanad	-10.5949
▁nekenčia	-10.5949
▁susisiek	-10.5949
▁atsipraš	-10.5949
▁potyri	-10.5949
▁Frank	-10.5949
▁naudoju	-10.5949
▁sraut	-10.5949
▁garant	-10.5949
▁užduotį	-10.595
▁dykum	-10.595
▁pareigūn	-10.595
▁mažyči	-10.5951
▁numeri	-10.5951
▁penkt	-10.5951
▁sąžining	-10.5952
▁priemone	-10.5952
▁bulv	-10.5952
▁privala	-10.5952
▁sutart	-10.5953
▁Azij	-10.5953
▁keleri	-10.5953
▁sukčiau	-10.5956
▁vadino	-10.5957
▁velni	-10.5958
▁kiaul	-10.5959
▁vilk	-10.5959
▁stebėjim	-10.596
dyk	-10.5962
▁avi	-10.5963
▁Vadin	-10.5966
▁For	-10.5976
▁karikatūra	-10.5977
▁ypatingo	-10.5978
iečių	-10.5981
▁pažymi	-10.5984
▁Gor	-10.5985
▁paramos	-10.5987
▁Joki	-10.5991
▁Met	-10.5997
▁Mok	-10.6005
▁pereina	-10.6006
▁dešimtmečiu	-10.6008
▁atei	-10.6011
▁Kitą	-10.6014
▁Turėja	-10.6016
▁norėdama	-10.6022
▁diagnozuot	-10.6029
▁ypatinga	-10.6036
▁biolog	-10.6046
▁sakydama	-10.6046
▁mąsto	-10.6049
▁svetainė	-10.605
▁finansini	-10.6065
▁kitokio	-10.6066
▁situaciją	-10.607
▁poli	-10.6084
SA	-10.609
▁rimt	-10.6093
▁vidini	-10.6093
rkš	-10.6093
▁duj	-10.6099
▁televizijo	-10.6103
▁patikrint	-10.6105
▁prisijung	-10.6115
▁kvaila	-10.6117
▁Keli	-10.6121
▁prarado	-10.6125
▁stiprus	-10.613
▁2000	-10.6133
▁antr	-10.6134
▁įsivaizduoj	-10.6144
▁Nepa	-10.616
▁pilieči	-10.6162
▁televizij	-10.6162
▁skaičiuot	-10.6165
▁įkvėpim	-10.6169
▁pagalb	-10.6177
▁savyb	-10.6181
▁žiniasklaida	-10.6184
▁sausa	-10.6191
▁perka	-10.6194
▁natūral	-10.6195
▁oda	-10.62
▁pripažinim	-10.6215
pal	-10.6218
▁struktūros	-10.6222
▁įmonė	-10.6235
namie	-10.6235
traukti	-10.6235
▁skyriu	-10.6257
▁lov	-10.626
▁motyv	-10.6261
▁nuomon	-10.6262
▁giliau	-10.6275
▁antroj	-10.6279
▁chem	-10.6281
▁tikroj	-10.6288
▁auginti	-10.629
▁įkvėp	-10.6296
▁paiešk	-10.6301
▁matematik	-10.6308
▁aistra	-10.6309
▁Grįž	-10.6309
▁Moksl	-10.6311
▁kortel	-10.6312
sideda	-10.6315
▁vyn	-10.6316
▁stimul	-10.6318
▁prašo	-10.6319
▁apdovanojim	-10.632
▁impuls	-10.632
▁perskaityt	-10.632
▁pozityv	-10.632
▁stabil	-10.632
▁susidorot	-10.632
▁televizori	-10.632
▁teritorij	-10.632
▁viziją	-10.632
▁bambuk	-10.632
▁investicij	-10.632
▁ketveri	-10.632
▁susidūri	-10.632
▁nustatė	-10.632
▁žiūrėdam	-10.632
▁graik	-10.632
▁palengv	-10.632
▁pabrėž	-10.632
▁pasodin	-10.632
▁paskelbė	-10.632
▁dalyvauja	-10.6321
▁nereikė	-10.6321
▁prisimena	-10.6321
▁serij	-10.6323
▁grot	-10.6323
▁beždžionė	-10.6324
▁kairė	-10.6325
spaudžia	-10.6328
▁nepasiek	-10.6331
▁akivaizd	-10.6331
▁unikal	-10.6332
▁iškil	-10.6339
▁varžy	-10.634
▁baisu	-10.634
000	-10.634
▁artėja	-10.6341
▁krypt	-10.6342
▁galūn	-10.6342
▁kažkien	-10.6345
▁būsim	-10.6347
▁klip	-10.6348
▁paskirt	-10.6351
▁kep	-10.6353
▁paslapting	-10.6356
▁savanori	-10.6357
▁šon	-10.6358
▁kav	-10.6361
▁artimiausi	-10.6364
lenkia	-10.637
▁pristatym	-10.637
▁nemato	-10.6389
▁turėtum	-10.6391
▁išorė	-10.6397
▁pavar	-10.64
▁vaistu	-10.6404
nelyg	-10.6406
▁regėjim	-10.6407
▁rašytoja	-10.6411
▁sekti	-10.6418
▁plačiai	-10.6418
▁nenorėjo	-10.6419
nantis	-10.642
▁sprendimai	-10.642
▁istori	-10.6425
▁mokėsi	-10.6427
▁rami	-10.6429
▁užtikrin	-10.6432
▁revoliucij	-10.644
▁Kr	-10.6441
leisk	-10.6442
▁tęsi	-10.6445
▁klaiding	-10.6454
▁atsimen	-10.646
▁patekt	-10.6466
▁draugė	-10.6467
▁reikšm	-10.648
▁įvairov	-10.6491
▁gamta	-10.6494
▁prisijungt	-10.6494
▁pavadin	-10.6498
loš	-10.651
▁vertint	-10.6513
▁vadinti	-10.6513
▁bandži	-10.653
▁mažiausia	-10.6532
▁neuronai	-10.6533
▁akimirkos	-10.6535
▁valstij	-10.6544
▁svarba	-10.6548
▁neteising	-10.6558
▁patikim	-10.6572
▁branduol	-10.6576
▁jūro	-10.6577
▁cent	-10.6582
▁krūt	-10.6589
▁prasmė	-10.6591
▁mėnuli	-10.6592
▁motin	-10.6597
▁nuostabiai	-10.6606
kro	-10.661
▁pamokos	-10.6612
rib	-10.6614
▁nuomonė	-10.6615
dengia	-10.662
▁nugaro	-10.662
▁saugi	-10.6623
ėliau	-10.6657
▁priežiūro	-10.6671
▁paaiškinim	-10.6672
▁religij	-10.6674
gh	-10.6679
etiška	-10.6697
▁paleist	-10.67
▁bur	-10.6703
roblema	-10.6703
▁Brown	-10.6704
▁apgailestavim	-10.6704
▁apibrėžim	-10.6704
▁epidemij	-10.6704
▁infekcij	-10.6704
▁pyrag	-10.6704
▁garbė	-10.6704
▁musulmon	-10.6704
▁sunkvežim	-10.6704
▁virtual	-10.6704
▁loterij	-10.6704
▁interes	-10.6704
▁užuomin	-10.6704
▁susipažin	-10.6704
▁sparčia	-10.6704
▁kiekvienu	-10.6704
▁septyneri	-10.6705
▁protez	-10.6705
▁Nenori	-10.6705
▁vaidin	-10.6705
▁sumokė	-10.6705
▁siunčia	-10.6706
▁atranda	-10.6706
▁prisideda	-10.6707
▁pokyt	-10.6707
▁žodyn	-10.671
▁ferm	-10.671
▁nerūp	-10.6711
ėtinai	-10.6711
▁suderin	-10.6712
▁ašigal	-10.6712
▁paslapt	-10.6712
▁pasireiškia	-10.6715
▁pavoju	-10.6717
▁pusiau	-10.6718
▁mald	-10.672
olly	-10.6721
▁Rusij	-10.6721
▁ilga	-10.6722
▁atlyginim	-10.6723
▁neteis	-10.6728
rašyt	-10.673
▁neturė	-10.673
▁srov	-10.6732
▁prisitaikyt	-10.6733
gon	-10.6735
▁pašalint	-10.6737
▁įtar	-10.6738
▁nedaro	-10.6743
▁tyrimai	-10.6744
▁paminėti	-10.6745
▁kovos	-10.6745
▁Nuostabu	-10.6749
▁mechanik	-10.675
▁skaitytoj	-10.675
▁nutikt	-10.6753
▁atpažin	-10.6754
▁Bud	-10.6765
▁žemėlapis	-10.6772
▁paskutinį	-10.6775
▁reakcija	-10.6777
▁kinta	-10.6785
▁valstybė	-10.6796
▁paraš	-10.6797
▁ramybė	-10.6809
▁pavaizduot	-10.6819
▁nos	-10.6821
▁gyd	-10.6831
▁esyb	-10.6831
▁magnetini	-10.6836
▁suprast	-10.6836
▁milžiniška	-10.686
▁pripažin	-10.6861
▁nuobodu	-10.6861
▁kre	-10.6869
liuk	-10.6871
▁žinu	-10.6876
▁žingsn	-10.6878
▁paskatin	-10.688
▁Daugiau	-10.6887
rid	-10.689
▁išsiaiškino	-10.689
▁mamo	-10.6891
▁mergina	-10.6893
▁aptar	-10.6893
klausyk	-10.6904
▁jaudina	-10.6905
▁deda	-10.6909
▁psichin	-10.6911
▁atlyg	-10.6913
▁draugyst	-10.6923
▁pasiūl	-10.6934
▁kūrybišk	-10.6936
▁sugalvojo	-10.6939
▁Bon	-10.695
▁tiesiogin	-10.6951
▁palaiko	-10.6951
▁perspektyvo	-10.6952
▁atvira	-10.6953
▁neaišk	-10.6992
vadin	-10.7017
▁vizual	-10.7017
▁būr	-10.7021
▁reakcij	-10.7029
▁kab	-10.7042
▁protėv	-10.7043
▁apraš	-10.7044
nami	-10.7047
▁religija	-10.7048
▁35	-10.7051
▁išgydyt	-10.7062
▁žinios	-10.7075
ryšk	-10.7076
▁atsidur	-10.7079
▁reikšming	-10.7086
▁minči	-10.7091
▁paskutiniu	-10.7091
▁paminė	-10.7104
▁Nigerij	-10.7104
▁apibrėžia	-10.7104
▁apibrėžt	-10.7104
▁dvidešimt	-10.7104
▁konkret	-10.7104
▁konkurs	-10.7104
▁liežuv	-10.7104
▁marškinėli	-10.7104
▁modifikuot	-10.7104
▁narkotik	-10.7104
▁neapčiuopiam	-10.7104
▁neišvengiam	-10.7104
▁panaudojo	-10.7104
▁profesional	-10.7104
▁savarankišk	-10.7104
▁superlaidinink	-10.7104
▁užfiksuot	-10.7104
▁atsakomybę	-10.7104
▁bruož	-10.7104
▁civilizacij	-10.7104
▁sunaikint	-10.7104
▁vežimėl	-10.7104
▁material	-10.7104
▁pakartoti	-10.7104
▁seksualin	-10.7104
▁vartojim	-10.7104
▁rūb	-10.7104
▁gudr	-10.7104
▁liemen	-10.7104
▁Atlant	-10.7104
▁šūk	-10.7104
▁Bendr	-10.7105
▁rutul	-10.7105
▁atsimin	-10.7105
▁sustoja	-10.7105
▁kankin	-10.7105
▁etap	-10.7105
stūmė	-10.7105
▁priverčia	-10.7105
▁adre	-10.7105
▁Galvoj	-10.7106
▁veiksn	-10.7107
▁sustot	-10.7108
▁atjaut	-10.7109
▁196	-10.7109
▁vadovauja	-10.7109
▁išgyveno	-10.7109
▁rytoj	-10.7109
▁26	-10.711
▁pykt	-10.7112
▁magij	-10.7114
▁patyrė	-10.7114
▁tėvu	-10.7115
▁įkvepia	-10.7118
▁gabalėl	-10.7118
▁užima	-10.7123
▁perduoda	-10.713
▁Laim	-10.7137
▁darydam	-10.7137
▁liūdna	-10.7137
gand	-10.7139
▁tavim	-10.7145
▁domina	-10.7156
▁gamybo	-10.7157
▁palaik	-10.7164
▁prielaid	-10.7165
▁formuoja	-10.7166
▁Band	-10.7167
▁vystymo	-10.7168
▁dalys	-10.717
▁kolekcij	-10.7179
▁150	-10.7182
▁derin	-10.7184
odą	-10.719
▁neįprast	-10.7197
▁tvarka	-10.7197
▁sąlygos	-10.7198
▁dirbdam	-10.72
▁Šal	-10.7202
▁architektūra	-10.721
▁miela	-10.7214
▁Am	-10.7218
▁Afrik	-10.7218
▁pastatė	-10.7225
▁klaida	-10.7231
▁atlikėj	-10.7249
▁įkvėpė	-10.7249
▁jausmai	-10.7257
▁kap	-10.7264
▁ankstesn	-10.7265
▁piliečiai	-10.7278
▁pokyčiai	-10.7285
▁apskritim	-10.7301
▁Sal	-10.7306
svarbu	-10.731
▁amerikiečiai	-10.7315
▁įvairovė	-10.7334
▁priklausomai	-10.7348
▁šneka	-10.735
▁patikėt	-10.7356
▁užaugint	-10.736
▁gerovė	-10.7375
▁Mark	-10.7383
▁išskir	-10.7385
▁revoliucija	-10.7387
▁priklausom	-10.7397
▁linijo	-10.7411
▁motino	-10.7417
▁klinik	-10.7417
▁nužud	-10.7419
▁pavadinta	-10.7426
▁gražiai	-10.7433
▁įjung	-10.7442
▁linksma	-10.7446
▁susidar	-10.746
▁pakanka	-10.7467
▁atpažint	-10.7467
vaikščio	-10.7474
dinga	-10.7478
rop	-10.7489
▁gabal	-10.7507
▁diev	-10.7509
▁mikro	-10.7511
▁šuo	-10.7515
▁metal	-10.7515
▁vaikina	-10.7516
▁talent	-10.7517
▁vidin	-10.752
▁21	-10.752
▁korporacij	-10.7521
▁Norvegij	-10.7521
▁Papasako	-10.7521
▁cilindr	-10.7521
▁demonstracij	-10.7521
▁diagram	-10.7521
▁filtr	-10.7521
▁technin	-10.7521
▁šaldytuv	-10.7521
▁šikšnosparni	-10.7521
▁šviečia	-10.7521
▁akcent	-10.7521
▁alpinist	-10.7521
▁atvirkščiai	-10.7521
▁charakter	-10.7521
▁išleido	-10.7521
▁svyravim	-10.7521
▁schem	-10.7521
▁lėkšt	-10.7521
▁pažiūrėkim	-10.7521
▁atskleidžia	-10.7521
▁paaukoj	-10.7521
▁Paryži	-10.7521
▁nebegali	-10.7521
▁faktori	-10.7522
▁klasikin	-10.7522
▁kryptimi	-10.7522
▁apsup	-10.7522
▁pagrįst	-10.7522
▁atitik	-10.7523
▁įrodyt	-10.7523
▁skyst	-10.7525
▁groj	-10.7525
▁pakyl	-10.7526
▁2009	-10.7527
▁kabinet	-10.7527
▁ryži	-10.7527
▁spaudim	-10.7527
▁partij	-10.753
▁jaunesni	-10.7535
▁poni	-10.7535
▁bendrauja	-10.7537
▁pasuk	-10.7538
▁medžiu	-10.754
▁komunikacij	-10.7541
▁600	-10.7545
▁specialist	-10.7546
▁atidžia	-10.755
▁Romo	-10.7555
▁aukštesni	-10.7555
▁Smit	-10.7561
▁virtuvė	-10.7562
▁nuorod	-10.7567
▁įkvėpti	-10.7569
šnekėti	-10.7576
▁biologin	-10.7576
▁tėvams	-10.7577
▁gimin	-10.7577
▁turėdam	-10.7581
▁galutin	-10.7582
▁perkelti	-10.7585
▁padidinti	-10.7585
▁reaguoja	-10.7589
▁paveikslėl	-10.7589
▁nužudyt	-10.7594
▁pagaminta	-10.7606
▁palyginim	-10.7606
▁jaučiu	-10.7608
▁ribos	-10.7609
▁nugar	-10.7615
▁Sek	-10.7619
▁skaitym	-10.7622
▁tapatybė	-10.7628
▁chemini	-10.7632
▁žemę	-10.7637
▁gėrim	-10.7637
▁vaistai	-10.7648
▁paskatinim	-10.7648
▁pavojing	-10.7658
▁paprašyt	-10.767
▁girdė	-10.7679
▁karvė	-10.768
formuoja	-10.7686
▁Pabaig	-10.7689
▁būsena	-10.7689
▁nevyk	-10.769
▁rūšy	-10.769
▁išlikt	-10.7692
reikia	-10.7711
▁ląstelė	-10.7714
galioja	-10.7719
▁išmokyt	-10.7722
▁filmuk	-10.7724
▁daroma	-10.773
▁laime	-10.7735
▁Amerika	-10.7737
▁susitikt	-10.7742
▁būklė	-10.7745
rov	-10.7756
▁skaidrė	-10.7762
pyk	-10.7779
▁vadovai	-10.7788
▁vertinam	-10.7793
▁turinti	-10.7795
▁pažeidžiam	-10.7796
▁kviečia	-10.7798
▁šalim	-10.7802
inimą	-10.7811
▁pranaš	-10.7823
▁įvertinim	-10.7829
▁užsiima	-10.7831
▁vaizduotė	-10.7836
encij	-10.7845
▁apima	-10.7857
▁rėm	-10.7861
▁užuojauta	-10.7875
▁Visiška	-10.7882
imb	-10.7889
▁gėl	-10.7889
pažvelg	-10.7894
kurti	-10.7895
▁privers	-10.7903
▁skirtuma	-10.7914
▁Britanij	-10.7928
▁pasinaudot	-10.7931
▁plaukai	-10.7939
▁įspūd	-10.7944
▁Antarktid	-10.7956
▁Mocart	-10.7956
▁dramatišk	-10.7956
▁ekonomist	-10.7956
▁empatij	-10.7956
▁hormon	-10.7956
▁kolektyv	-10.7956
▁nebloga	-10.7956
▁profesij	-10.7956
▁sindrom	-10.7956
▁teleskop	-10.7956
▁Raudon	-10.7956
▁hipotez	-10.7956
▁intuityv	-10.7956
▁nepastebė	-10.7956
▁pažeist	-10.7956
▁cukr	-10.7956
▁siekdam	-10.7956
▁tarnyb	-10.7956
▁įstaig	-10.7956
▁Tarkim	-10.7956
▁mirtingum	-10.7956
▁reform	-10.7956
▁skambin	-10.7956
▁suknel	-10.7956
▁kamienin	-10.7956
▁donor	-10.7956
▁numatyt	-10.7956
▁bjaur	-10.7956
▁slėp	-10.7956
▁kritin	-10.7957
▁purv	-10.7957
▁žymekl	-10.7957
▁vakarien	-10.7957
▁sąmonė	-10.7957
▁prisidėt	-10.7958
▁susirg	-10.7958
▁nulem	-10.7958
▁traum	-10.7958
▁užlip	-10.7958
▁kalbėdam	-10.7959
▁sprogim	-10.796
▁smėl	-10.7961
auginti	-10.7963
▁Akivaizd	-10.7963
2-	-10.7963
▁Darvin	-10.7964
▁akcij	-10.7965
statym	-10.7966
▁nuosavybė	-10.7967
▁palauk	-10.7968
▁verg	-10.797
▁ego	-10.7971
▁kultūrini	-10.7972
▁guli	-10.7972
▁piešt	-10.7972
▁skylė	-10.7975
▁pasakojo	-10.7975
▁plius	-10.7976
▁veikim	-10.7978
▁nekalba	-10.7983
vyksta	-10.7986
tobulin	-10.799
▁tobula	-10.7993
▁šeiminink	-10.7996
▁muzikant	-10.8001
▁armij	-10.8003
▁dėkoj	-10.8007
▁Cha	-10.8008
▁plien	-10.8012
▁išgelbėti	-10.8016
▁atsisė	-10.8016
▁neleidžia	-10.8016
▁pasiūlė	-10.8025
DI	-10.803
▁susitarim	-10.8035
▁formul	-10.8035
▁strategij	-10.8035
▁laimėti	-10.804
▁laikomas	-10.8044
▁lygybė	-10.8045
lyn	-10.8045
▁atvirum	-10.8049
▁patyri	-10.8051
▁Lyg	-10.8059
▁Lin	-10.8075
▁Reik	-10.8078
▁stipresn	-10.8087
▁karaliu	-10.8089
▁taisykle	-10.8099
▁mum	-10.81
▁patir	-10.8102
▁masė	-10.8104
ologijo	-10.8109
▁sudėtingum	-10.8116
Antrasis	-10.8117
▁šaunu	-10.8137
▁Pon	-10.814
▁versija	-10.8146
▁kūriniu	-10.8146
▁atsisakyt	-10.815
▁mergaitėm	-10.8151
▁rūky	-10.8152
▁vertin	-10.8155
▁tvarum	-10.8159
▁susidomėj	-10.8161
izavim	-10.8161
▁savybe	-10.8173
sakoma	-10.8185
▁nukel	-10.8186
kuria	-10.8189
▁dėm	-10.8192
▁kontrolė	-10.8194
▁pastebė	-10.8205
▁Ind	-10.8225
▁pū	-10.8226
sakyti	-10.8228
▁gre	-10.8228
▁mam	-10.8228
▁rūpinti	-10.823
▁šaun	-10.823
▁tikrąj	-10.8231
▁partner	-10.8231
qu	-10.8237
nuk	-10.8242
▁pasidaryt	-10.8256
▁išraiška	-10.827
▁Paprasta	-10.8275
▁pasiruoš	-10.8286
▁principu	-10.8288
▁kartoja	-10.8293
▁karali	-10.8294
▁paviršia	-10.8297
▁regim	-10.8311
rom	-10.8315
▁neties	-10.8319
▁bandyt	-10.832
ble	-10.8322
har	-10.8331
▁reaguo	-10.8337
▁pilieti	-10.8366
▁situacij	-10.8367
▁inžinerijo	-10.8389
▁Moter	-10.8394
▁Būk	-10.8396
▁nuosav	-10.8402
▁savan	-10.8403
▁kompleks	-10.841
▁recept	-10.841
▁Izrael	-10.841
▁Trumpa	-10.841
▁futbol	-10.841
▁iliustracij	-10.841
▁investuoja	-10.841
▁kandidat	-10.841
▁kraujagysl	-10.841
▁pasitenkinim	-10.841
▁scenarij	-10.841
▁susidūrė	-10.841
▁sąmoningum	-10.841
▁sąskait	-10.841
▁technik	-10.841
▁Mokytoja	-10.841
▁infekuot	-10.841
▁pasimatym	-10.841
▁įtraukia	-10.841
▁patiekal	-10.841
▁radikal	-10.841
▁baterij	-10.841
▁peili	-10.8411
▁tešl	-10.8411
▁sulėtin	-10.8411
▁sveči	-10.8411
▁kilogram	-10.8411
▁atsisuk	-10.8411
▁rožin	-10.8411
▁Atsakymas	-10.8411
▁premij	-10.8411
▁rinkiny	-10.8411
▁nugalėt	-10.8412
▁pažvelgė	-10.8413
▁sudarė	-10.8413
▁pajut	-10.8413
▁pažiūrėsi	-10.8416
▁rėmėj	-10.8416
▁senovė	-10.8417
▁Kenijo	-10.8417
▁kepen	-10.8418
▁priėmė	-10.8422
▁atrodys	-10.8426
▁Beat	-10.8426
▁pasikeist	-10.8431
▁gerov	-10.8433
▁Toliau	-10.8434
▁vargš	-10.8435
▁teise	-10.844
▁išminting	-10.8441
▁nepatik	-10.8446
▁Bil	-10.8447
▁mylėti	-10.8448
▁spaus	-10.8448
▁šimpanzė	-10.845
▁pokalb	-10.8451
▁sutaupyt	-10.8453
▁Abeda	-10.8457
▁žaisl	-10.8459
▁uost	-10.847
▁varom	-10.8472
rasite	-10.8476
▁įsakym	-10.8476
▁išsivystė	-10.848
▁išlieka	-10.848
▁priežiūr	-10.8485
▁norėtume	-10.8488
▁nesupras	-10.8489
▁įvyksta	-10.8494
▁blogiausia	-10.8498
▁lovos	-10.8521
▁užsiimt	-10.8523
▁vertina	-10.8529
▁kėdė	-10.853
▁išmest	-10.8535
▁toj	-10.8543
▁paband	-10.8557
▁taikini	-10.8562
▁slapt	-10.8568
▁vyrišk	-10.8568
▁pažįstama	-10.8572
▁fantastiška	-10.8579
▁algoritmai	-10.8585
▁smegenim	-10.8587
▁tobulėt	-10.8595
▁pardavinė	-10.8604
▁dievin	-10.8605
▁kū	-10.8607
▁pasinaudo	-10.8612
▁verslinink	-10.8621
▁likim	-10.8632
▁psichologin	-10.8637
▁aiškum	-10.8643
▁galėtum	-10.8657
▁Mad	-10.8658
▁trečioj	-10.8668
▁valgy	-10.8668
▁atved	-10.8671
▁jaudin	-10.8683
▁populiacija	-10.8687
▁sugrįžt	-10.8688
kentė	-10.8703
▁65	-10.8705
▁ištver	-10.8709
▁ieškodam	-10.8713
▁situacijoj	-10.8714
▁klimat	-10.8722
▁slapta	-10.8724
važiuoja	-10.8728
graf	-10.8738
▁sulaukia	-10.8744
▁abejon	-10.8744
teigė	-10.8751
▁žmonija	-10.8753
▁lygiu	-10.8753
▁atsidūr	-10.8759
▁ruošia	-10.8765
▁fraz	-10.8767
▁atvert	-10.8768
▁įsivaizduojam	-10.877
▁rašytoj	-10.8771
▁sąlyga	-10.8782
▁nepriklausom	-10.8786
▁egzistuot	-10.879
ydavau	-10.8809
merkt	-10.8836
▁modern	-10.8839
▁imt	-10.884
▁250	-10.8843
▁prielaida	-10.8843
▁tikrov	-10.8845
▁pradžio	-10.885
▁chemij	-10.8853
▁nufotografuot	-10.8853
▁vėliav	-10.8856
▁mėsa	-10.8861
kryp	-10.8861
▁Kažk	-10.8864
▁aukščiau	-10.8875
nčiam	-10.8876
nagrinė	-10.8877
▁kir	-10.888
▁reišk	-10.8882
▁lemp	-10.8885
▁Žiūrov	-10.8886
▁Džordž	-10.8886
▁egzistencij	-10.8886
▁ekologišk	-10.8886
▁ekspedicij	-10.8886
▁horizont	-10.8886
▁procedūr	-10.8886
▁Amazon	-10.8886
▁Everest	-10.8886
▁Internet	-10.8886
▁Mėnul	-10.8886
▁Svarbiausia	-10.8886
▁absurdišk	-10.8886
▁atšilim	-10.8886
▁disciplin	-10.8886
▁iPhone	-10.8886
▁infrastruktūr	-10.8886
▁koncert	-10.8886
▁labdar	-10.8886
▁mikroskop	-10.8886
▁pažeidim	-10.8886
▁plokšt	-10.8886
▁rugsėj	-10.8886
▁šešeri	-10.8886
▁orientuot	-10.8886
▁susijaudin	-10.8886
▁sužeist	-10.8886
▁trilijon	-10.8886
▁žvilgtel	-10.8886
▁atostoga	-10.8886
▁biliet	-10.8886
▁kontakt	-10.8886
▁ekstravert	-10.8886
▁pažymėt	-10.8886
▁resurs	-10.8886
▁iškyla	-10.8886
▁neatrodo	-10.8886
▁ežer	-10.8887
▁globalizacij	-10.8887
▁užsiėmim	-10.8887
▁pramog	-10.8887
▁geleži	-10.8887
▁dukter	-10.8887
▁fiziška	-10.8887
▁pomėgi	-10.8887
▁neabejotina	-10.8887
▁perteikt	-10.8887
▁nelaimė	-10.8887
▁kamuol	-10.8887
▁Jėz	-10.8887
▁elektronik	-10.8887
▁negalės	-10.8887
▁sirg	-10.8887
▁kieta	-10.8887
▁Galijot	-10.8887
▁skalbim	-10.8887
▁kolonij	-10.8887
▁magišk	-10.8887
▁Dažniausi	-10.8887
▁abiej	-10.8888
▁Anks	-10.8888
▁dėvi	-10.8888
▁padidėj	-10.8889
▁Hans	-10.8889
▁šimtų	-10.8889
▁Idėj	-10.8893
▁laimingesni	-10.8893
▁išrado	-10.8893
▁36	-10.8895
▁karikatūrist	-10.8899
cial	-10.8901
▁klyst	-10.8907
▁pramon	-10.8912
▁ląstelėm	-10.8914
▁Britanijoje	-10.8917
▁etik	-10.8919
▁pamen	-10.892
▁vaist	-10.8922
▁reikšminga	-10.8922
▁kūriny	-10.8924
▁aktyvist	-10.8925
▁netiki	-10.8927
▁vidurki	-10.893
▁Paraš	-10.894
▁Suprantat	-10.8946
▁objekta	-10.8954
▁gražiausi	-10.8958
▁mažesn	-10.896
adem	-10.8966
▁statom	-10.8974
SE	-10.8975
▁išeina	-10.8976
▁alg	-10.8981
daryti	-10.8982
▁operacijos	-10.8996
▁įrašyt	-10.8998
nešti	-10.8999
▁operacija	-10.9013
mokyti	-10.9015
▁atspind	-10.9022
▁krūtinė	-10.9032
▁rašym	-10.9036
▁mokiau	-10.9043
▁Nusi	-10.9049
▁šokėj	-10.9049
▁kameros	-10.9054
▁narv	-10.9067
▁stebė	-10.907
▁spaudo	-10.9071
▁viršeli	-10.9071
▁vietov	-10.9098
▁teigiama	-10.9102
▁plaukim	-10.9104
▁žvaigžde	-10.9114
sijungia	-10.9117
▁nuėjo	-10.912
▁naikin	-10.9126
▁stebina	-10.9139
▁perkel	-10.9143
▁malonu	-10.9146
▁Visad	-10.9146
▁mėgstamiausia	-10.9152
TI	-10.9153
▁Eik	-10.9169
▁programavim	-10.9189
▁moralini	-10.9193
centr	-10.9197
▁mažesnė	-10.9198
▁pastovia	-10.9217
▁praėj	-10.9222
▁sustabd	-10.9222
aukšt	-10.9232
▁MT	-10.9233
▁pasig	-10.9235
▁amžin	-10.9235
▁Saky	-10.9237
▁Mon	-10.9254
▁teigt	-10.9258
▁skir	-10.926
▁asmeninė	-10.9277
▁sugalvoj	-10.9282
iuntė	-10.9289
metr	-10.9289
▁akla	-10.9293
▁pavyzdžiai	-10.9294
▁pasikalbė	-10.9323
▁atsiliep	-10.9361
▁vaisi	-10.937
▁siaub	-10.9378
▁beždžion	-10.9381
▁tradicinė	-10.9382
funkci	-10.9384
▁Mergaitė	-10.9386
▁Vieninteli	-10.9386
▁abort	-10.9386
▁apribojim	-10.9386
▁aprūpin	-10.9386
▁draudim	-10.9386
▁fantazij	-10.9386
▁išnyksta	-10.9386
▁lazeri	-10.9386
▁leopard	-10.9386
▁palydov	-10.9386
▁reputacij	-10.9386
▁spausdintuv	-10.9386
▁sustiprin	-10.9386
▁trunka	-10.9386
▁Dažna	-10.9386
▁gimtadien	-10.9386
▁pagalvoju	-10.9386
▁matematin	-10.9386
▁kareivi	-10.9386
▁platform	-10.9386
▁ataskait	-10.9386
▁poezij	-10.9386
▁privalum	-10.9386
▁siekė	-10.9386
▁nepanaš	-10.9387
▁plečia	-10.9387
▁sugadin	-10.9387
▁didvyri	-10.9387
▁skilt	-10.9387
▁stovėt	-10.9387
▁Ilg	-10.9388
▁naudodamas	-10.9389
▁apsireng	-10.9389
▁užimt	-10.9389
▁Istorija	-10.939
▁dėst	-10.9391
▁galerij	-10.9392
▁apatin	-10.9394
▁išlip	-10.9394
▁ožk	-10.9396
▁pavertė	-10.9397
▁veng	-10.9398
▁galvodam	-10.9402
▁Apol	-10.9403
▁gąsdina	-10.9403
▁skoni	-10.9403
▁ieškojo	-10.9404
▁pripažįsta	-10.9404
▁ištyr	-10.9405
▁įtais	-10.9406
▁SO	-10.9407
▁urv	-10.9409
▁nekalbė	-10.9409
▁svarbesn	-10.9409
▁fizinės	-10.9411
▁gautų	-10.9415
▁Moteris	-10.942
▁atsiras	-10.9428
▁Nepais	-10.9429
▁krau	-10.9434
▁von	-10.9437
▁pilietini	-10.9438
▁Irak	-10.9444
▁vykdyt	-10.945
▁sukti	-10.945
▁vienintel	-10.9451
▁vakarėl	-10.9464
ake	-10.9468
bar	-10.9469
▁dėžut	-10.9471
▁ieška	-10.9473
▁skol	-10.9474
▁pritrauk	-10.948
▁puol	-10.9483
▁judesiu	-10.9485
▁lyder	-10.9487
▁norėsi	-10.9493
▁Vil	-10.9497
▁žmogiškum	-10.9497
▁aplankyt	-10.9505
▁atsaky	-10.9507
▁Men	-10.9508
▁augant	-10.9508
▁mėgstam	-10.951
vertė	-10.9512
▁susijung	-10.9512
▁sukėlė	-10.9513
▁neprisi	-10.9515
▁chaos	-10.9521
▁Jungtin	-10.9524
▁veiklo	-10.9527
0,000	-10.9528
▁naudot	-10.9532
▁atkurt	-10.9552
▁dera	-10.9558
▁atvejai	-10.9564
▁kaltė	-10.9598
▁nenaudoj	-10.96
▁kontrol	-10.9609
ebuvo	-10.9615
▁vaizduot	-10.962
▁pastebėjim	-10.9638
▁muzieju	-10.9647
▁kova	-10.9652
▁politin	-10.9655
▁būkl	-10.966
▁įgij	-10.9666
▁suprastum	-10.9676
▁deja	-10.9681
▁keliai	-10.9685
▁bandydama	-10.9691
sion	-10.9693
▁peržiūr	-10.9703
▁susirūpin	-10.9717
▁giliausi	-10.9719
▁aikštel	-10.9722
keturi	-10.9723
▁bij	-10.9726
▁bandy	-10.9728
▁Ber	-10.9734
▁33	-10.9734
▁sektoriu	-10.9743
▁nemir	-10.9757
▁protinga	-10.9761
▁domi	-10.9763
▁atsitikim	-10.9764
▁misija	-10.9771
▁šnek	-10.9784
▁pasakojima	-10.9785
▁bandydam	-10.9791
▁smag	-10.9798
▁keliava	-10.9799
▁mylė	-10.9828
▁likusia	-10.9833
▁funkcija	-10.9846
▁grož	-10.9851
pieš	-10.9878
▁tvirtin	-10.9881
▁paremta	-10.9888
▁padėk	-10.9889
▁sekant	-10.9892
▁kvadratini	-10.9897
▁pagrįsta	-10.9911
▁Dovyd	-10.9913
▁Kopernik	-10.9913
▁Leonard	-10.9913
▁Priežasti	-10.9913
▁Technologij	-10.9913
▁absoliut	-10.9913
▁baigta	-10.9913
▁interakcij	-10.9913
▁inžinieriu	-10.9913
▁kombinacij	-10.9913
▁liberal	-10.9913
▁lūkesči	-10.9913
▁nesuprato	-10.9913
▁nusipeln	-10.9913
▁paplūdim	-10.9913
▁sutvarkyt	-10.9913
▁sužavėt	-10.9913
▁sąmoninga	-10.9913
▁uždraust	-10.9913
▁Pradėkim	-10.9913
▁galvosūki	-10.9913
▁humanitarin	-10.9913
▁nufilmuot	-10.9913
▁rūpė	-10.9913
▁smūg	-10.9913
▁spektr	-10.9913
▁trečdal	-10.9913
▁garbin	-10.9913
▁registr	-10.9913
▁Žiūri	-10.9913
▁Parodysi	-10.9913
▁viešbuči	-10.9913
▁barjer	-10.9913
▁dėvėt	-10.9913
▁krepš	-10.9913
▁japon	-10.9913
▁banknot	-10.9913
▁spoks	-10.9913
▁Nick	-10.9913
▁rinkodar	-10.9913
▁mln	-10.9913
▁šimtą	-10.9913
▁laikrašt	-10.9913
▁logik	-10.9913
▁gimsta	-10.9913
▁gulėj	-10.9913
▁neurolog	-10.9913
▁švaist	-10.9913
▁pridėti	-10.9913
▁paskyr	-10.9913
▁agentūr	-10.9914
▁daržov	-10.9914
▁žolė	-10.9914
▁pykči	-10.9915
▁Fakta	-10.9915
▁ūki	-10.9915
▁netinkam	-10.9917
▁laš	-10.9917
▁nekalt	-10.9918
▁ištart	-10.9918
▁Laisv	-10.9918
▁etiket	-10.9919
▁paskelbt	-10.992
▁pasikeičia	-10.992
▁išgyvenim	-10.992
▁sakykim	-10.9921
▁evoliucija	-10.9924
▁pieštuk	-10.9925
▁rinkinį	-10.9925
▁sfer	-10.9926
▁atsitrauk	-10.9927
▁Kiekvien	-10.9928
▁išsiųst	-10.9928
▁Cher	-10.993
▁atsinaujinanči	-10.9933
▁pratim	-10.9935
▁šuoli	-10.9945
▁atsiduria	-10.9946
▁pasiruošusi	-10.9946
▁rašal	-10.9959
▁atsikratyt	-10.9962
▁uol	-10.9963
▁nepakankama	-10.9963
▁brit	-10.9966
▁mažėja	-10.9972
▁dabartinė	-10.998
▁priimta	-10.9991
skrido	-10.9999
tirti	-11
▁lankst	-11.0006
▁sausr	-11.0013
augti	-11.0013
▁produktyvum	-11.002
▁sudedam	-11.0038
kerta	-11.0038
▁šimta	-11.006
▁ląstel	-11.0065
▁mirusi	-11.0092
fli	-11.0093
▁duosi	-11.0095
▁gyvuli	-11.0099
▁bėgim	-11.0105
▁vidutiniška	-11.0121
MA	-11.0126
▁Pik	-11.0126
▁turinči	-11.0134
▁valstijos	-11.0139
drįs	-11.014
▁dainuot	-11.0144
enkti	-11.015
▁platesn	-11.0157
▁tūkstant	-11.0161
▁laiptai	-11.0163
monės	-11.017
▁konkrečiai	-11.0185
▁Gyven	-11.0193
▁Stu	-11.0208
taisyti	-11.0213
port	-11.0226
▁stebim	-11.0231
▁fotografuot	-11.0232
20	-11.0233
nakt	-11.0241
▁žinojim	-11.0244
▁nepalie	-11.0248
▁logiška	-11.0263
▁Ly	-11.0265
nč	-11.027
▁fotografij	-11.0271
▁baigi	-11.028
sakytų	-11.0281
▁kvantinė	-11.0291
▁Ry	-11.0304
▁pagerin	-11.031
▁klasė	-11.0317
▁vaikišk	-11.0351
▁karv	-11.0365
▁vertu	-11.0379
▁patyrim	-11.0394
▁audin	-11.0399
▁saugu	-11.0426
▁pasikeis	-11.0443
▁popie	-11.0445
▁puod	-11.0446
▁suvarto	-11.0449
▁vartot	-11.045
▁normal	-11.0451
skaičiav	-11.0464
amerikiet	-11.0467
▁2011	-11.0468
▁Afganistan	-11.0468
▁Babilon	-11.0468
▁Karalystė	-11.0468
▁Suprata	-11.0468
▁aštuoneri	-11.0468
▁cigare	-11.0468
▁dimensij	-11.0468
▁emocionali	-11.0468
▁ingredient	-11.0468
▁nereikaling	-11.0468
▁panaudojim	-11.0468
▁personaž	-11.0468
▁specifin	-11.0468
▁Žmogau	-11.0468
▁Kepler	-11.0468
▁diabet	-11.0468
▁lenktyn	-11.0468
▁nekreip	-11.0468
▁remiks	-11.0468
▁vestuv	-11.0468
▁šizofreni	-11.0468
▁erzina	-11.0468
▁grub	-11.0468
▁pagreit	-11.0468
▁įdieg	-11.0468
krėtė	-11.0468
▁jaunuoli	-11.0468
▁stieb	-11.0468
▁uždeg	-11.0468
▁Robert	-11.0469
▁Antroj	-11.0469
▁atveria	-11.0469
▁anūk	-11.0469
▁išplėsti	-11.0469
▁vysto	-11.0469
▁dėkingum	-11.0469
▁ekologij	-11.0469
▁indeks	-11.0469
▁Centr	-11.0469
▁Knyg	-11.0469
▁ginč	-11.0469
▁balans	-11.0469
▁fail	-11.0469
▁užterš	-11.0469
▁nuvež	-11.0469
▁amerikietišk	-11.0469
▁varikli	-11.0469
▁vadovauti	-11.047
▁Išmok	-11.047
▁Nebuvo	-11.047
okrat	-11.047
▁autist	-11.047
▁mįsl	-11.047
▁Kong	-11.047
▁materij	-11.047
▁nepatog	-11.0471
▁žied	-11.0471
▁pilv	-11.0471
▁siųst	-11.0471
▁žudo	-11.0471
▁tyrinėt	-11.0472
▁skund	-11.0472
▁sriči	-11.0474
▁vyrauja	-11.0475
▁pilnatv	-11.0476
▁parduotuvėje	-11.0476
▁Brit	-11.0477
▁viešosios	-11.0477
▁gimim	-11.0478
▁Išsiųs	-11.0479
▁netikr	-11.0479
▁angliška	-11.0479
▁laikrod	-11.048
▁21-	-11.0481
▁atskleidė	-11.0482
▁debesys	-11.0482
▁įdomiausia	-11.0483
▁sukak	-11.0487
▁paimki	-11.0487
▁atlet	-11.0487
▁patogu	-11.0488
▁karkas	-11.049
▁preki	-11.049
yklė	-11.049
▁išrast	-11.0491
▁gyvenančių	-11.0493
▁Juos	-11.0494
▁dalyviai	-11.0496
▁trakt	-11.0497
▁šou	-11.05
▁skausminga	-11.0501
▁piešiniai	-11.0507
▁naftos	-11.0512
▁kakl	-11.0512
▁debesis	-11.0516
▁social	-11.0519
▁klausinė	-11.0519
▁skubi	-11.0528
▁15-	-11.053
▁palei	-11.0531
▁jauties	-11.0541
▁sensta	-11.0549
▁aktori	-11.0549
▁50-	-11.055
▁fotografijos	-11.0554
▁keliavo	-11.0555
▁motyvacij	-11.0557
▁tyrėj	-11.0558
▁studijuot	-11.0558
▁naujoj	-11.0563
▁nepriklausomai	-11.0565
▁peržiūrėt	-11.057
▁juostel	-11.0578
▁pen	-11.0593
▁įsteig	-11.0595
▁gest	-11.0597
▁piramidė	-11.0602
▁Turėt	-11.0605
▁frazė	-11.0611
▁minėt	-11.0617
▁pasaulin	-11.0626
▁juoking	-11.0629
▁būtyb	-11.0631
▁sekanči	-11.0634
▁išjungt	-11.0634
▁pranešėj	-11.0636
▁prisidėj	-11.064
versti	-11.0658
▁mirsi	-11.0677
▁kru	-11.0679
▁apimti	-11.0684
▁šitie	-11.0716
▁Str	-11.0726
▁kalbėjim	-11.073
▁ieškoja	-11.0744
▁nuves	-11.0764
▁meluoja	-11.0765
▁taikom	-11.0784
jimą	-11.079
▁tyrinėj	-11.0793
▁Daugyb	-11.0796
▁sąlygom	-11.0834
lup	-11.084
▁filosof	-11.0845
▁atsitiktinum	-11.0852
▁pardav	-11.0855
▁demokrat	-11.0884
▁svetain	-11.0891
▁technolog	-11.0897
žengė	-11.0904
▁šer	-11.0909
▁kūrė	-11.0909
▁teor	-11.0917
▁pavadinima	-11.0925
▁klausym	-11.0956
▁Nuostab	-11.0987
▁Gen	-11.0989
▁Abed	-11.1
▁nepakanka	-11.1001
patinka	-11.1009
▁būtumėt	-11.1016
▁dažni	-11.1017
▁valstybinė	-11.1022
▁srovė	-11.1026
▁pasakę	-11.1026
juokia	-11.1036
▁šituo	-11.1036
▁popieriu	-11.105
▁negalvoj	-11.1051
▁pranešė	-11.1053
▁energetik	-11.1057
▁neapykant	-11.1057
▁Francisk	-11.1057
▁Kompiuteri	-11.1057
▁Mahomed	-11.1057
▁Paaiškėj	-11.1057
▁ambicing	-11.1057
▁apčiuopiam	-11.1057
▁apšviest	-11.1057
▁depresij	-11.1057
▁dialog	-11.1057
▁džentelmen	-11.1057
▁fotoaparat	-11.1057
▁identišk	-11.1057
▁interaktyv	-11.1057
▁komponent	-11.1057
▁pareiškim	-11.1057
▁supažindin	-11.1057
▁susierzin	-11.1057
▁tragedij	-11.1057
▁trikamp	-11.1057
▁tuberkulioz	-11.1057
▁šokolad	-11.1057
bioliuminescenci	-11.1057
▁išspausdin	-11.1057
▁peržvelg	-11.1057
▁užsideg	-11.1057
▁žaisming	-11.1057
▁žlug	-11.1057
prieštarauja	-11.1057
▁beviltišk	-11.1057
▁kebl	-11.1057
archyv	-11.1057
▁plokšči	-11.1057
▁nustato	-11.1057
▁šventykl	-11.1057
▁aplinkosaugo	-11.1057
▁išrading	-11.1057
▁baigsi	-11.1057
▁paaukot	-11.1057
▁ministr	-11.1057
▁valytoj	-11.1057
▁Egipt	-11.1057
▁iškelt	-11.1057
▁sukaup	-11.1057
▁priėmim	-11.1057
▁Praeit	-11.1057
▁lūšnyn	-11.1057
▁vokieči	-11.1057
▁paveld	-11.1057
▁inkst	-11.1058
▁mišin	-11.1058
▁Padėk	-11.1058
▁režim	-11.1058
▁judin	-11.1058
▁lauž	-11.1058
▁dvirat	-11.1059
▁atimt	-11.1059
▁coli	-11.106
▁2050	-11.106
▁AID	-11.1061
▁skers	-11.1061
▁sūri	-11.1061
▁Paimkim	-11.1062
▁Emma	-11.1065
▁paveikia	-11.1066
▁drebėjim	-11.1066
▁2005	-11.1068
▁Vad	-11.1068
▁įlip	-11.1068
▁eig	-11.1069
▁Martin	-11.1069
▁period	-11.1069
▁kupina	-11.107
▁Super	-11.107
▁teism	-11.1071
▁pirmuosiu	-11.1071
▁fon	-11.1074
▁CC	-11.1074
▁dantis	-11.1076
▁šitoki	-11.1085
▁pasilik	-11.1087
▁nupirk	-11.1088
▁neuro	-11.1092
▁OK	-11.1093
▁suranda	-11.1097
▁SM	-11.1098
▁pareng	-11.1099
▁truputėl	-11.1102
▁peršok	-11.1102
▁taryb	-11.1104
▁gamintoj	-11.1106
▁Rub	-11.1108
▁atmet	-11.111
▁susilaukė	-11.1114
▁And	-11.1118
▁prarad	-11.112
▁gerum	-11.1121
▁istorini	-11.1122
▁App	-11.1128
▁pardavim	-11.1132
▁kasdienybė	-11.1135
▁prašym	-11.1137
▁išverst	-11.114
▁nuein	-11.1143
▁Tyl	-11.1147
▁nešiojam	-11.1147
▁pamatytum	-11.1148
▁pien	-11.1152
atstovauja	-11.1154
▁aprašyt	-11.1154
▁Esm	-11.116
▁atidaryt	-11.1161
▁patirtimi	-11.1171
▁populiariausi	-11.119
teikė	-11.1194
▁galėtumėm	-11.1207
▁neturėtum	-11.1212
▁katė	-11.1216
▁atsidūrė	-11.1218
▁pritar	-11.1219
▁vidurinė	-11.1224
▁tyrinėja	-11.1236
▁pasiekiama	-11.1242
▁tiriam	-11.1245
▁nuneš	-11.1251
▁mirtina	-11.1258
▁įvair	-11.1266
▁nukreip	-11.1271
▁persikel	-11.1277
▁užsiim	-11.1282
▁fenomena	-11.1282
▁papasako	-11.1288
▁takel	-11.1298
▁norėtum	-11.1299
▁sukuriama	-11.1306
▁atras	-11.1312
▁kiekiu	-11.1315
▁tyr	-11.1319
▁kūrybingum	-11.1328
▁pik	-11.1328
▁Gim	-11.1331
▁pridėj	-11.1338
▁param	-11.1342
▁muziej	-11.1363
▁kreipia	-11.1371
▁Jaun	-11.1382
▁nuobod	-11.1388
▁matavim	-11.139
yrė	-11.1401
▁visuomenini	-11.1422
▁nežinoj	-11.1431
▁Bill	-11.1438
▁išgelbė	-11.1438
▁gydom	-11.144
▁vertim	-11.1442
▁egzistav	-11.146
▁termina	-11.1466
▁akini	-11.1477
▁nervin	-11.1479
▁vad	-11.1531
▁plastik	-11.1535
▁negr	-11.1549
▁tėkmė	-11.1571
▁gyvensi	-11.1578
▁skraid	-11.1578
▁nuskri	-11.1583
▁sakydam	-11.1595
▁neklaus	-11.1598
▁spręs	-11.1607
▁finansin	-11.1609
duokit	-11.1617
▁sutaup	-11.1625
▁Ben	-11.1638
▁begalin	-11.1644
kvietė	-11.1674
▁kišenė	-11.1678
▁gravitacij	-11.1682
asdešimt	-11.1682
▁Gyvūn	-11.1682
▁Holivud	-11.1682
▁Palygin	-11.1682
▁Stanford	-11.1682
▁apšvietim	-11.1682
▁atostogų	-11.1682
▁atsiradim	-11.1682
▁atspausdint	-11.1682
▁bozon	-11.1682
▁departament	-11.1682
▁devyneri	-11.1682
▁inžinieriai	-11.1682
▁išsilaisvin	-11.1682
▁matematiška	-11.1682
▁mikrofon	-11.1682
▁orkestr	-11.1682
▁susituok	-11.1682
▁užkrečiam	-11.1682
▁zodiak	-11.1682
▁šimtmeči	-11.1682
▁2010	-11.1682
▁Etiopijo	-11.1682
▁Svarbu	-11.1682
▁centimetr	-11.1682
▁nutolusi	-11.1682
▁pavasar	-11.1682
▁redaktor	-11.1682
▁sandėr	-11.1682
▁simetrij	-11.1682
▁traukiny	-11.1682
▁Čikago	-11.1682
▁pakelkit	-11.1682
▁pasislėp	-11.1682
▁policinink	-11.1682
▁nurodym	-11.1682
▁primityv	-11.1682
▁Einštein	-11.1682
▁išradim	-11.1682
▁komedij	-11.1682
▁nemalon	-11.1682
▁plėtr	-11.1682
▁dirbtuv	-11.1682
▁nuspėt	-11.1682
▁Obama	-11.1682
▁pasikliau	-11.1682
▁receptori	-11.1682
▁pasielg	-11.1682
▁sprag	-11.1682
▁karalyst	-11.1682
▁klausytoj	-11.1682
▁ūkinink	-11.1682
▁Boston	-11.1682
▁Mandel	-11.1682
▁pavog	-11.1682
▁užpakali	-11.1682
▁kilim	-11.1682
▁atsistot	-11.1682
▁paspaudim	-11.1682
▁svarsto	-11.1682
▁apsimesti	-11.1682
▁išrinkt	-11.1682
▁skenavim	-11.1682
▁Palauk	-11.1682
▁prisipažin	-11.1682
▁apsisuk	-11.1682
▁nesąmonė	-11.1683
▁nesijauči	-11.1683
▁dvyn	-11.1683
▁kompleksiškum	-11.1683
▁žiem	-11.1683
▁trap	-11.1683
▁nepradė	-11.1683
▁spąst	-11.1683
▁1960	-11.1684
▁nusistatym	-11.1684
▁kelnes	-11.1685
▁malk	-11.1685
▁pirmenyb	-11.1685
▁tvor	-11.1685
▁lėš	-11.1685
▁žvelgiant	-11.1685
▁dugn	-11.1686
▁riešut	-11.1686
▁Pateik	-11.1688
▁netyči	-11.1688
▁NP	-11.1688
▁ausys	-11.1689
▁pasirašyt	-11.1689
▁piem	-11.169
▁mandag	-11.1691
▁rengia	-11.1692
plinta	-11.1692
▁vargingiausi	-11.1692
▁pakvietė	-11.1692
▁trokšta	-11.1693
▁neištikimybė	-11.1693
▁nagrinėj	-11.1694
▁prisiminkit	-11.1695
▁supanči	-11.1696
▁užduoda	-11.1696
▁Grįžki	-11.17
▁nusileid	-11.1701
▁nusiųst	-11.1702
▁pažvelgia	-11.1703
than	-11.1707
▁neveikia	-11.171
▁daržel	-11.1711
▁inžinerij	-11.1711
▁kažkokiu	-11.1715
▁Dien	-11.1716
▁prisiim	-11.1716
▁būkit	-11.1718
▁sujaudinta	-11.1725
▁prekini	-11.1726
▁Perl	-11.1727
▁nepriim	-11.1733
▁aktyviai	-11.1736
▁tautos	-11.1737
▁papildoma	-11.1738
▁Palik	-11.1741
▁mokslinė	-11.1744
▁profesoriu	-11.1746
▁sukūrim	-11.1746
▁pritaikym	-11.1748
▁Rand	-11.1749
▁Remi	-11.1753
▁mergait	-11.1761
▁dingst	-11.1762
▁išdid	-11.177
▁Paim	-11.1778
48	-11.1782
▁tėkm	-11.1794
wel	-11.1799
▁atskiria	-11.1805
▁įvykdyt	-11.1812
▁Jud	-11.1815
▁tvirta	-11.1841
47	-11.1864
▁atiduot	-11.1865
▁protingesn	-11.1866
▁tyrė	-11.1866
▁skirtumu	-11.1867
▁rand	-11.187
▁pamatytumėt	-11.1873
▁pamaty	-11.1874
irdžiu	-11.1887
galvoja	-11.1892
▁pagelbėt	-11.1899
▁mirči	-11.1905
▁nustoja	-11.1907
▁susitrauk	-11.1923
▁main	-11.1938
▁ilgesn	-11.1939
▁finansavim	-11.1941
▁užrašyt	-11.1949
lvia	-11.1949
girdėj	-11.1979
▁teig	-11.1996
▁nustaty	-11.2003
▁programinė	-11.2018
▁slaugė	-11.2038
berg	-11.2039
▁matuoja	-11.2063
▁išmint	-11.2073
▁ieškant	-11.2077
puoli	-11.2083
▁parodant	-11.2093
▁darbinink	-11.2117
▁žemėlapiu	-11.2135
▁700	-11.2145
žod	-11.2146
▁kentėj	-11.2152
▁paruoš	-11.2157
▁auginam	-11.2159
▁detalė	-11.2167
▁kažkokio	-11.2169
▁trošk	-11.2182
krito	-11.219
▁32	-11.221
▁senėjim	-11.2211
▁išlikim	-11.2216
▁nuošird	-11.2217
naudok	-11.223
▁davi	-11.2231
▁strateg	-11.2261
▁prived	-11.2264
▁apsilank	-11.2265
▁praktišk	-11.2277
▁profesor	-11.228
▁apim	-11.2281
▁šimpanz	-11.229
▁sujaudin	-11.2302
▁improviz	-11.2304
▁Hom	-11.2314
▁kupin	-11.2333
▁duod	-11.2336
▁slepia	-11.2348
▁1998	-11.2348
▁Islandij	-11.2348
▁Michael	-11.2348
▁National	-11.2348
▁alkoholi	-11.2348
▁astronom	-11.2348
▁drabužiai	-11.2348
▁fragment	-11.2348
▁iPad	-11.2348
▁ilgaamžiškum	-11.2348
▁iniciatyv	-11.2348
▁instrukcij	-11.2348
▁išsivysčius	-11.2348
▁optimist	-11.2348
▁pademonstruot	-11.2348
▁pasiskirstym	-11.2348
▁pažvelkit	-11.2348
▁plunksn	-11.2348
▁pragyvenim	-11.2348
▁prioritet	-11.2348
▁prisilietim	-11.2348
▁privilegij	-11.2348
▁reaktori	-11.2348
▁skambuči	-11.2348
▁sutvėrim	-11.2348
▁užtrunka	-11.2348
▁vizija	-11.2348
▁zefyr	-11.2348
bendradarbiauja	-11.2348
▁Paklausia	-11.2348
▁Pradeda	-11.2348
▁kognityvin	-11.2348
▁medūz	-11.2348
▁pavidal	-11.2348
▁povandenin	-11.2348
▁suformuot	-11.2348
▁sugrįš	-11.2348
▁įkalinta	-11.2348
▁įproči	-11.2348
▁žaizd	-11.2348
▁kenkia	-11.2348
▁kitoniškum	-11.2348
▁Italij	-11.2348
▁estetik	-11.2348
▁tinklalap	-11.2348
▁išmėgin	-11.2348
▁kapiton	-11.2348
▁Harvard	-11.2348
▁vairuotoj	-11.2348
▁dėvėj	-11.2348
▁klesti	-11.2348
▁nugaben	-11.2348
▁pėsči	-11.2348
▁stadij	-11.2348
▁negatyv	-11.2348
▁savaitgal	-11.2348
▁pagalvoji	-11.2348
▁Smegen	-11.2348
▁nesitikėj	-11.2348
▁šiuolaikinė	-11.2348
▁užpildyt	-11.2349
▁debat	-11.2349
▁gabaliuk	-11.2349
▁gerbti	-11.2349
▁smulkmen	-11.2349
▁Fond	-11.2349
▁tuneli	-11.2349
▁motor	-11.2349
▁atsistoj	-11.2349
▁nematyt	-11.2349
▁islam	-11.2349
▁Talk	-11.2349
▁sugrąžint	-11.2349
▁lemputė	-11.2349
▁die	-11.2349
▁susimąstyt	-11.235
▁įsigyt	-11.235
▁patobulint	-11.235
▁dėdė	-11.235
▁Dėk	-11.235
▁pasisuk	-11.2351
▁komik	-11.2351
▁styg	-11.2351
▁plauči	-11.2352
▁dulk	-11.2352
▁nemėgsta	-11.2352
▁Andre	-11.2352
▁99	-11.2353
▁doz	-11.2353
▁Sveika	-11.2353
▁stebėjo	-11.2353
▁grąžint	-11.2354
▁Daniel	-11.2354
▁paauglys	-11.2354
▁Puiki	-11.2355
▁apsisto	-11.2357
▁demonstruoja	-11.2357
▁nuoširdžiai	-11.2358
▁lankyti	-11.2358
▁Pagalvoj	-11.2358
▁didžiosios	-11.2359
▁teigiamą	-11.2359
▁bėgik	-11.2359
pjov	-11.2362
▁tyrinėtoj	-11.2362
▁tęsė	-11.2366
▁mešk	-11.2372
▁suvartojim	-11.2372
▁Krist	-11.2372
▁vandenili	-11.2376
▁peči	-11.2377
▁pratę	-11.2387
▁Tesl	-11.2387
▁vientis	-11.2388
▁praleidži	-11.2392
▁Fre	-11.2396
▁dėti	-11.2398
▁neuromoksl	-11.2398
▁viršutin	-11.2399
▁patogia	-11.2402
▁šokiruo	-11.2404
▁atsargia	-11.2407
▁atok	-11.2407
▁išskiria	-11.2409
▁detales	-11.2414
▁tiekėj	-11.2414
▁turtingiausi	-11.2417
▁pasmerk	-11.2423
▁patalpint	-11.2424
▁maišel	-11.2427
▁dėkinga	-11.2427
▁viršūn	-11.2437
▁vedam	-11.2441
▁apverst	-11.2442
▁įsimylėj	-11.2445
▁susikurt	-11.2446
veikia	-11.2453
▁epi	-11.2459
▁sukčiavim	-11.246
▁teisinink	-11.2467
▁medžiotoj	-11.247
▁Bern	-11.2472
▁neįvyk	-11.2496
▁lankiau	-11.2502
▁serganči	-11.2504
▁perėjo	-11.2506
▁persikėl	-11.2507
▁Pasakysi	-11.2526
▁paim	-11.253
▁įmonėm	-11.2531
▁tobulėjim	-11.2538
▁pažinoj	-11.2544
▁išnaudoj	-11.2546
▁kasdienini	-11.2552
▁susidaryt	-11.2568
▁našt	-11.2582
▁susirinkim	-11.2586
▁numir	-11.2593
gėrė	-11.2603
▁šaltin	-11.2609
▁stebėdam	-11.2611
▁mechanin	-11.2617
▁parodži	-11.2638
▁stipriausi	-11.2671
▁lok	-11.2688
▁sodin	-11.2691
▁sutikim	-11.2695
▁išeit	-11.2705
▁kūri	-11.2712
IP	-11.2718
▁susidomėjim	-11.2731
▁pacientam	-11.2771
▁Mam	-11.2778
▁įgūdžiu	-11.2801
▁Angl	-11.2811
▁120	-11.283
gautume	-11.2831
lyginti	-11.2844
▁suprastumėt	-11.2846
▁Pasaul	-11.2861
▁paimsi	-11.2868
vakar	-11.2882
burg	-11.2882
▁ateidav	-11.2886
▁smals	-11.2889
žemi	-11.2898
▁laimėjim	-11.2909
▁bazė	-11.2913
programuot	-11.2925
▁aplinkyb	-11.2977
▁atsakydav	-11.2992
▁sunkesn	-11.2994
▁skolin	-11.301
▁aukšči	-11.3019
škė	-11.3025
gąsdin	-11.3039
sirinkti	-11.3044
▁pasisak	-11.3047
▁paleid	-11.3051
sprendė	-11.3056
▁pralaimė	-11.3061
žeidžia	-11.3062
▁cenzūr	-11.3062
▁ceremonij	-11.3062
▁ekonomišk	-11.3062
▁epizod	-11.3062
▁kalendori	-11.3062
▁kiaušinėl	-11.3062
▁koncentruot	-11.3062
▁koncepcij	-11.3062
▁koridori	-11.3062
▁lagamin	-11.3062
▁nepakartojam	-11.3062
▁oficial	-11.3062
▁psichiatr	-11.3062
▁rūpesting	-11.3062
eographic	-11.3063
▁Bruklin	-11.3063
▁Fibonači	-11.3063
▁Pagrindini	-11.3063
▁Pakistan	-11.3063
▁Parkinson	-11.3063
▁Pasiruoš	-11.3063
▁Rezultata	-11.3063
▁aikštė	-11.3063
▁atsižvelgia	-11.3063
▁direktoriu	-11.3063
▁drėgn	-11.3063
▁figūra	-11.3063
▁gramatik	-11.3063
▁padvigubė	-11.3063
▁pakeitimu	-11.3063
▁rekord	-11.3063
▁režisier	-11.3063
▁sintezė	-11.3063
▁stadion	-11.3063
▁sąjung	-11.3063
▁terorizm	-11.3063
▁tinklarašči	-11.3063
▁trupuči	-11.3063
▁įstrigę	-11.3063
▁Šveicarij	-11.3063
▁šimtmet	-11.3063
▁žemdirbystė	-11.3063
▁žinduoli	-11.3063
▁MIT	-11.3063
▁anonimin	-11.3063
▁sužadin	-11.3063
▁važiuot	-11.3063
▁nekantr	-11.3063
▁patrauklu	-11.3063
▁susikaup	-11.3063
▁nukris	-11.3063
▁pasiryž	-11.3063
▁lūp	-11.3063
▁protokol	-11.3063
▁Naudoja	-11.3063
▁Skamb	-11.3063
▁Lengv	-11.3063
▁Albert	-11.3063
▁Pasirink	-11.3063
▁Keista	-11.3063
▁objektyv	-11.3063
▁Pabandyki	-11.3063
▁pagerb	-11.3063
▁išnykt	-11.3063
▁Prust	-11.3063
▁2012	-11.3063
▁nudeg	-11.3063
▁skurdžiausi	-11.3063
▁Styv	-11.3063
▁atkeliav	-11.3063
▁bejėgi	-11.3063
▁įkelt	-11.3063
▁nutaria	-11.3063
▁žarn	-11.3063
▁virsta	-11.3063
▁kraštovaizd	-11.3063
▁perversm	-11.3063
▁profil	-11.3063
▁Nusprendžia	-11.3063
▁įgimt	-11.3063
lijon	-11.3063
▁šimto	-11.3063
▁pasijust	-11.3063
▁susting	-11.3063
▁Brun	-11.3064
▁kiln	-11.3064
▁surado	-11.3064
▁pabais	-11.3064
▁ryškiai	-11.3064
▁Vidutini	-11.3064
▁neegzistuoja	-11.3064
▁Neturėj	-11.3065
▁gaisr	-11.3065
▁kalmar	-11.3065
▁Neturi	-11.3065
▁Negalėj	-11.3065
▁perskaiči	-11.3065
▁prilygsta	-11.3066
▁šved	-11.3066
aučiuosi	-11.3066
▁aukoja	-11.3066
▁priešingybė	-11.3067
▁įtamp	-11.3067
▁Barry	-11.3067
▁lerv	-11.3067
▁galėdama	-11.3068
▁troli	-11.3068
▁vykdom	-11.3068
▁perdirbt	-11.3069
▁Pradži	-11.3069
▁spart	-11.307
▁santyk	-11.307
▁piešia	-11.307
▁nustojo	-11.3071
▁Atvir	-11.3071
▁įdomesni	-11.3072
▁variacij	-11.3073
▁gaiv	-11.3073
▁CO	-11.3073
▁eism	-11.3073
▁radiacij	-11.3074
▁85	-11.3074
▁pasižiūrėt	-11.3074
▁kreiv	-11.3075
elandijo	-11.3075
▁Kasdien	-11.3075
▁ištrin	-11.3077
▁išlaiko	-11.3077
▁palies	-11.3077
apusišk	-11.308
▁pažvelgsi	-11.308
▁Matom	-11.3082
▁kauk	-11.3085
▁lytini	-11.3089
▁pirmosios	-11.309
▁atsiliepim	-11.31
▁duob	-11.31
▁varging	-11.3102
▁padėkot	-11.3102
▁atrodanči	-11.3122
▁atsineš	-11.3123
▁ignoruoja	-11.3126
▁kukl	-11.3131
▁taisyklėm	-11.3136
▁pralenk	-11.3142
▁rinkini	-11.3159
▁roj	-11.3161
▁popierini	-11.3178
▁Pastaruo	-11.3179
▁supant	-11.3183
vaizdži	-11.3189
▁nacionalin	-11.319
▁išvystyt	-11.3196
▁uždaryt	-11.3203
▁požymi	-11.3204
▁priklausyt	-11.3204
airėje	-11.3205
ūpi	-11.3214
▁šaukia	-11.3215
▁elektriniu	-11.3219
▁prisijungia	-11.3241
▁tylia	-11.325
▁antrąj	-11.326
▁suprat	-11.3267
▁mėnul	-11.328
▁įžengia	-11.3286
▁įrank	-11.3292
▁žiniasklaid	-11.3294
▁važiuoj	-11.3309
▁Luk	-11.332
▁egzistavim	-11.3323
▁kabin	-11.3357
▁stovinči	-11.3411
▁laikin	-11.3439
▁neįmanom	-11.3447
▁draugišk	-11.346
ID	-11.3482
gelbėti	-11.3484
▁padėj	-11.3508
kopijuoti	-11.3521
▁turtingesn	-11.3549
▁suvalg	-11.355
▁atsimenant	-11.356
▁aplinkybė	-11.356
▁planavim	-11.358
▁savotišk	-11.358
▁išgirs	-11.3587
▁plaukia	-11.3588
▁neband	-11.3603
▁pakilim	-11.3607
▁tiria	-11.3608
▁filmavim	-11.3608
▁kėd	-11.3632
▁išgaut	-11.3637
▁tirp	-11.364
▁dvasini	-11.364
▁gausyb	-11.3645
spėju	-11.3655
kavos	-11.366
▁produktyv	-11.3675
▁efektyvum	-11.3682
ūkstantmeči	-11.3682
▁nusak	-11.3713
▁išsivyst	-11.3713
▁balsavim	-11.3717
▁nešioja	-11.3734
▁virtuv	-11.3755
▁susilauk	-11.3757
kratyti	-11.3759
▁naft	-11.3775
▁sėdint	-11.3777
▁interpret	-11.3777
▁milžin	-11.3796
▁žiūrėjim	-11.3798
▁žavėj	-11.3802
▁mėn	-11.3805
▁arkli	-11.3821
▁nemėg	-11.3828
▁Skirtum	-11.3832
▁abstrakt	-11.3832
▁Atsipraš	-11.3832
▁Dizain	-11.3832
▁Saturn	-11.3832
▁advokat	-11.3832
▁asociacij	-11.3832
▁astronaut	-11.3832
▁autentišk	-11.3832
▁diplom	-11.3832
▁direktoria	-11.3832
▁dirigent	-11.3832
▁dvylik	-11.3832
▁griežta	-11.3832
▁imperij	-11.3832
▁implant	-11.3832
▁integruot	-11.3832
▁izoliuot	-11.3832
▁komplekt	-11.3832
▁konservatyv	-11.3832
▁krikščion	-11.3832
▁kukurūz	-11.3832
▁membran	-11.3832
▁nesijaudink	-11.3832
▁pasikartoja	-11.3832
▁peizaž	-11.3832
▁pobūd	-11.3832
▁spontanišk	-11.3832
▁terorist	-11.3832
▁vakcin	-11.3832
▁vegetar	-11.3832
▁vizit	-11.3832
▁šypsen	-11.3832
▁Studija	-11.3832
▁Tyrima	-11.3832
▁biografij	-11.3832
▁ministerij	-11.3832
▁neturting	-11.3832
▁užrakint	-11.3832
▁Dalyka	-11.3832
▁Street	-11.3832
▁dėstytoj	-11.3832
▁prieštaravim	-11.3832
▁profesin	-11.3832
▁smuik	-11.3832
▁atstatyt	-11.3832
▁dinamišk	-11.3832
▁pradėkim	-11.3832
▁tragišk	-11.3832
▁išsigandę	-11.3832
▁kritiška	-11.3832
▁chemikal	-11.3832
▁oranžin	-11.3832
▁Atleiskit	-11.3832
▁Projekt	-11.3832
▁skambėt	-11.3832
▁prakeik	-11.3832
▁karalienė	-11.3832
▁neprivalo	-11.3832
▁rodikliai	-11.3832
▁įsikiš	-11.3832
▁Butan	-11.3832
▁pusantr	-11.3832
▁sielvart	-11.3832
▁Teksas	-11.3832
▁spausdinim	-11.3832
▁Odisėj	-11.3832
▁limit	-11.3832
▁staigia	-11.3832
▁Šarli	-11.3832
▁statykl	-11.3832
▁Pastebė	-11.3832
▁Sistem	-11.3832
▁žiurki	-11.3832
▁prabang	-11.3832
▁bedarb	-11.3832
▁Auror	-11.3832
▁išnyko	-11.3832
▁pučia	-11.3832
▁baigus	-11.3832
▁penkiolik	-11.3832
▁rūm	-11.3832
▁prototip	-11.3832
▁susibur	-11.3832
▁gryb	-11.3832
▁Žinut	-11.3832
▁kredit	-11.3832
▁nuspėj	-11.3832
▁pasyv	-11.3832
▁intelektual	-11.3832
▁judėjo	-11.3832
▁lempute	-11.3832
▁atkaklum	-11.3832
▁juodaodži	-11.3833
▁skrist	-11.3833
▁lub	-11.3833
▁užmig	-11.3833
▁ragin	-11.3833
▁taupym	-11.3833
▁paspaus	-11.3833
▁susirast	-11.3834
▁pririš	-11.3834
▁susimąs	-11.3834
junkit	-11.3834
▁respublikon	-11.3834
▁Davi	-11.3834
▁dosn	-11.3835
▁angel	-11.3835
▁maitina	-11.3835
▁įdeda	-11.3835
▁programėlė	-11.3835
▁verž	-11.3835
▁gerbia	-11.3836
▁ginčyti	-11.3836
▁skardin	-11.3836
▁domėt	-11.3836
▁pjūvi	-11.3836
▁panelė	-11.3837
▁valgykl	-11.3839
▁nekęs	-11.3839
▁spustelė	-11.3839
▁remdam	-11.3839
▁talenting	-11.384
▁nepadari	-11.384
▁patyrę	-11.3841
▁Shad	-11.3841
▁vaikščioja	-11.3842
▁Atsimen	-11.3843
▁28	-11.3843
▁gitar	-11.3843
▁plona	-11.3844
▁Ateit	-11.3844
▁benami	-11.3844
▁ironiška	-11.3844
wart	-11.3845
tuštin	-11.3845
▁matysi	-11.3846
▁Jenn	-11.3846
naudoti	-11.3847
▁nebūna	-11.3847
▁Baig	-11.3847
▁įsigij	-11.3847
▁demon	-11.385
▁naiv	-11.385
▁rezervat	-11.3851
obul	-11.3853
▁reikalaut	-11.3856
▁virv	-11.3857
▁kiaur	-11.3859
▁reikalavim	-11.3859
▁trukdo	-11.3861
▁nesusto	-11.3866
▁išsiskir	-11.3866
mudu	-11.3869
▁poeta	-11.3876
▁ramu	-11.388
galvokit	-11.3882
▁keliautoj	-11.3893
▁branduolinė	-11.3895
▁kainuo	-11.3902
▁palaikym	-11.3903
koduot	-11.3906
▁aktyvum	-11.3911
▁apdorojim	-11.3911
▁įdėja	-11.3914
kirto	-11.3916
▁tipiška	-11.3928
▁atviruk	-11.3944
grasin	-11.395
▁šeimom	-11.3951
▁protėviu	-11.3954
▁pažeminim	-11.3958
▁dainavim	-11.3963
▁rodykl	-11.3967
▁tebe	-11.3986
▁eidav	-11.4001
▁veikianči	-11.4006
▁nukrit	-11.4022
▁ketinim	-11.4042
▁Toni	-11.4061
▁fotografav	-11.4064
▁audiny	-11.407
▁globalini	-11.4075
▁pranašum	-11.4076
▁skanu	-11.4089
▁paskir	-11.4094
▁masin	-11.4094
▁džiaugia	-11.4095
▁likusiu	-11.4115
▁priėjim	-11.4117
▁susirūpinim	-11.4129
▁sutink	-11.4138
▁dol	-11.4211
▁palikim	-11.4216
▁Treči	-11.4227
▁lyginam	-11.4238
▁sėdė	-11.4269
▁manipuliuo	-11.429
▁apgyvendin	-11.429
▁stovėjim	-11.4298
▁tigr	-11.4309
▁pasiduo	-11.4312
▁siūly	-11.4317
▁studijuoja	-11.4321
▁tamsia	-11.4333
▁dalijim	-11.4334
▁verkia	-11.4338
baigiant	-11.4341
▁grand	-11.4358
▁plaka	-11.436
▁pažvelgtumėt	-11.4399
▁patyči	-11.4404
glu	-11.4404
▁Žod	-11.4412
▁planuoja	-11.4414
▁Fotograf	-11.4441
sprendžia	-11.446
▁trij	-11.4466
nuostabu	-11.4476
ilgai	-11.4476
egul	-11.4513
▁gaudav	-11.4524
▁Pastar	-11.4532
ninka	-11.4538
▁užsisak	-11.4566
▁įkūr	-11.458
▁slid	-11.4581
▁matytum	-11.4621
gzistuoja	-11.4634
▁močiu	-11.4645
NI	-11.4656
▁neištikim	-11.4661
▁magistr	-11.4661
rezident	-11.4663
▁Eksperiment	-11.4665
▁prezentacij	-11.4665
▁2015	-11.4665
▁Demokrat	-11.4665
▁Grenlandij	-11.4665
▁Ketvirt	-11.4665
▁Maitrėj	-11.4665
▁avatar	-11.4665
▁gailesting	-11.4665
▁gelbėjimo	-11.4665
▁hierarchij	-11.4665
▁homoseksual	-11.4665
▁ideologij	-11.4665
▁inovatyv	-11.4665
▁intraverta	-11.4665
▁klaviatūr	-11.4665
▁kompliment	-11.4665
▁konkurencij	-11.4665
▁mūši	-11.4665
▁negailesting	-11.4665
▁nepastebim	-11.4665
▁performans	-11.4665
▁pokonfliktin	-11.4665
▁skulptūr	-11.4665
▁stipendij	-11.4665
▁ugdym	-11.4665
▁užfiksavim	-11.4665
imbabvė	-11.4665
▁2014	-11.4665
▁Daktar	-11.4665
▁Filadelfijo	-11.4665
▁Himalaj	-11.4665
▁Nesuprant	-11.4665
▁Septyn	-11.4665
▁Sąjung	-11.4665
▁apdovanot	-11.4665
▁atsižvelgt	-11.4665
▁flomaster	-11.4665
▁iPod	-11.4665
▁komercinė	-11.4665
▁komfort	-11.4665
▁kongres	-11.4665
▁kvėpuot	-11.4665
▁padrąsin	-11.4665
▁pamėgin	-11.4665
▁pasiteisinim	-11.4665
▁pomidor	-11.4665
▁priblošk	-11.4665
▁priskiria	-11.4665
▁rafinuot	-11.4665
▁sezon	-11.4665
▁stereotip	-11.4665
▁susikirtim	-11.4665
▁sutrikusi	-11.4665
▁technišk	-11.4665
▁šaligatvi	-11.4665
▁egzamin	-11.4665
▁konservatori	-11.4665
▁pakvaiš	-11.4665
▁rūgšt	-11.4665
▁slopin	-11.4665
▁mėšl	-11.4665
▁nuotaiką	-11.4665
▁spausdinti	-11.4665
▁Vikipedij	-11.4665
▁apgailėtin	-11.4665
▁neketin	-11.4665
▁vizijo	-11.4665
▁garaž	-11.4665
▁Panaši	-11.4665
▁praleisi	-11.4665
▁ruden	-11.4665
▁ekologin	-11.4665
▁simbolizuoja	-11.4665
▁nepakeis	-11.4665
▁bokšt	-11.4665
▁lankytoj	-11.4665
▁šlapim	-11.4665
▁sugriaut	-11.4665
▁Brian	-11.4665
▁klonuot	-11.4665
▁Kalėd	-11.4665
▁įmantr	-11.4665
▁atkartot	-11.4665
▁trener	-11.4665
▁nuotaika	-11.4665
▁skalbini	-11.4665
▁sveria	-11.4665
▁traukia	-11.4665
▁Aukšt	-11.4665
▁Debes	-11.4665
▁įamžin	-11.4665
▁patraukli	-11.4666
▁subtil	-11.4666
▁Jack	-11.4666
▁balion	-11.4666
▁augli	-11.4666
▁afrikieči	-11.4666
▁Major	-11.4666
▁lift	-11.4666
▁lavin	-11.4666
▁traškuči	-11.4666
▁Kelet	-11.4666
▁plaukioj	-11.4666
▁Eric	-11.4666
▁paskol	-11.4666
reguliuot	-11.4666
▁giminaiči	-11.4667
▁pavirt	-11.4667
▁nuostata	-11.4667
fiksuoja	-11.4667
▁aprang	-11.4667
▁kantr	-11.4667
▁talpin	-11.4667
▁gaid	-11.4667
tarnauja	-11.4667
▁netvark	-11.4667
▁kaimynystė	-11.4667
sutampa	-11.4668
▁deryb	-11.4668
▁Tikslia	-11.4668
▁retkar	-11.4668
▁plėš	-11.4668
▁polinki	-11.4669
▁nukeliaut	-11.4669
▁Pakelkit	-11.4669
▁įrodė	-11.467
▁97	-11.467
▁98	-11.4671
▁panaudojam	-11.4671
▁taikyti	-11.4671
▁pasinaudojo	-11.4672
▁paskelbia	-11.4672
▁95	-11.4672
▁piešim	-11.4674
AL	-11.4674
▁leidėj	-11.4675
▁siaur	-11.4675
▁bičiul	-11.4675
▁ryžting	-11.4676
▁perdavim	-11.4676
▁motel	-11.4676
krain	-11.4678
▁sesij	-11.4685
▁teikt	-11.4685
▁emoci	-11.4688
▁žavinga	-11.4689
▁vadybinink	-11.4689
▁įrengt	-11.4692
▁trečiąj	-11.4693
▁Mokslininka	-11.4694
▁Lauk	-11.4703
▁įgyt	-11.4704
▁spauda	-11.4706
▁aprašym	-11.4718
▁interpretacij	-11.4725
▁baugin	-11.4726
▁pabandysi	-11.4729
iūl	-11.4734
▁Paukš	-11.4739
▁dievišk	-11.4741
▁serganti	-11.4742
▁Geriausia	-11.4745
▁išbandym	-11.475
▁atgy	-11.4756
▁strėl	-11.4768
▁mėgauj	-11.4769
▁atsiunt	-11.4778
▁įsijung	-11.4803
▁nuved	-11.4817
▁transformuo	-11.4818
laipsniui	-11.4826
▁pasakotoj	-11.4845
▁Auga	-11.4851
▁atskleis	-11.4854
varžo	-11.4862
▁mityb	-11.4869
▁smalsum	-11.4873
▁vyriausi	-11.4877
▁biom	-11.4886
▁asmenišk	-11.491
▁uždeng	-11.4914
▁atsidav	-11.4932
▁gavę	-11.4956
▁sektori	-11.496
IK	-11.4975
▁pažeidžiamum	-11.4985
▁Paprast	-11.4996
▁kvieči	-11.4999
▁Pasaulini	-11.501
▁auganči	-11.5014
▁sluoksn	-11.5018
▁išsiaiškintum	-11.5045
▁saugoj	-11.5048
▁kašt	-11.5052
▁vykstanči	-11.5055
▁pataisyt	-11.5059
▁misij	-11.5064
▁stiklin	-11.5091
▁pamoksl	-11.5128
▁vyresn	-11.5129
▁laipt	-11.5149
krauti	-11.5183
▁slaug	-11.5268
▁realiam	-11.5274
▁išspręs	-11.5332
▁paskat	-11.5412
▁nelygyb	-11.5458
▁liūdn	-11.5497
▁susitar	-11.5501
▁įženg	-11.5533
▁atsinaujin	-11.5539
pripažįst	-11.5542
▁dalyvavim	-11.5546
▁atidėlio	-11.5551
▁Nebū	-11.5554
▁rieš	-11.5567
▁nelaimi	-11.557
▁sąžin	-11.5571
▁tarnaut	-11.5572
▁princ	-11.5572
skrieja	-11.5572
▁Istori	-11.5573
▁svetim	-11.5574
▁detektori	-11.5574
multipotencialit	-11.5574
▁Keturi	-11.5574
▁antibiotik	-11.5574
▁asfalt	-11.5574
▁chromosom	-11.5574
▁dinozaur	-11.5574
▁enciklopedij	-11.5574
▁grūd	-11.5574
▁imigracij	-11.5574
▁imunitet	-11.5574
▁kvėpavim	-11.5574
▁nenuspėjam	-11.5574
▁vamzdel	-11.5574
konstrukcij	-11.5574
tulbinanti	-11.5574
▁1,5	-11.5574
▁1990	-11.5574
▁Jupiter	-11.5574
▁Nacionalini	-11.5574
▁Oksford	-11.5574
▁Praleid	-11.5574
▁Sacharo	-11.5574
▁Skirting	-11.5574
▁Vašington	-11.5574
▁administracij	-11.5574
▁atkeliauja	-11.5574
▁bendradarbiaut	-11.5574
▁fantastik	-11.5574
▁funkcional	-11.5574
▁imigrant	-11.5574
▁iracional	-11.5574
▁kiaušini	-11.5574
▁mikroschem	-11.5574
▁nesuprata	-11.5574
▁nevyriausybin	-11.5574
▁operatori	-11.5574
▁pakeitimo	-11.5574
▁paviešin	-11.5574
▁pažvelkim	-11.5574
▁pertvarkyt	-11.5574
▁plūduriuoja	-11.5574
▁pusbroli	-11.5574
▁rugpjū	-11.5574
▁smilkini	-11.5574
▁sukonstruot	-11.5574
▁sulaužyt	-11.5574
▁trenirav	-11.5574
▁vagonėl	-11.5574
▁Šaunu	-11.5574
▁šypsosi	-11.5574
▁Ispanij	-11.5574
▁Klinton	-11.5574
▁iškreip	-11.5574
▁išnykusi	-11.5574
▁kunig	-11.5574
▁nuspalvin	-11.5574
▁nutapyt	-11.5574
▁pagunda	-11.5574
▁rungty	-11.5574
▁sklandžia	-11.5574
▁skrybėl	-11.5574
▁sunaikinim	-11.5574
▁pluošt	-11.5574
▁uogien	-11.5574
▁Elektr	-11.5574
▁Viktor	-11.5574
▁prasčiausi	-11.5574
▁Nelson	-11.5574
▁siurb	-11.5574
▁šlait	-11.5574
▁Ekonomi	-11.5574
▁Mokykl	-11.5574
▁sijon	-11.5574
▁Atvyk	-11.5574
▁Finan	-11.5574
▁egz	-11.5574
▁Didžiausia	-11.5574
▁gimtoj	-11.5574
▁Švietim	-11.5574
▁Virš	-11.5574
▁Duomen	-11.5574
▁eilėrašt	-11.5574
▁šarv	-11.5574
▁žiūrėdav	-11.5574
▁Long	-11.5574
▁nešioti	-11.5574
▁pasirengę	-11.5574
▁stovėdam	-11.5574
▁atsisiųs	-11.5574
▁pūslė	-11.5574
▁apeig	-11.5574
▁Kongres	-11.5574
▁sutapim	-11.5574
▁jutikl	-11.5574
▁surenka	-11.5575
▁Pasakykit	-11.5575
▁išsisuk	-11.5575
▁privači	-11.5575
▁pakabin	-11.5575
▁Liban	-11.5575
▁Lenkij	-11.5575
▁norveg	-11.5575
▁viešbut	-11.5575
▁kvietim	-11.5575
▁medžiai	-11.5575
ontrol	-11.5575
▁plėsti	-11.5575
▁stamb	-11.5575
▁višt	-11.5575
▁atnaujint	-11.5575
▁įsodin	-11.5575
▁vystė	-11.5575
▁aušr	-11.5575
▁spausdina	-11.5575
▁žiūrėk	-11.5575
▁poelgi	-11.5575
▁duben	-11.5575
▁sustojo	-11.5575
▁senovin	-11.5575
▁prakait	-11.5575
▁neapsakoma	-11.5575
▁pradėdam	-11.5575
▁deln	-11.5575
▁pabandyki	-11.5575
▁virsm	-11.5576
klydo	-11.5576
▁keter	-11.5576
▁pensinink	-11.5576
tzman	-11.5576
▁ekstremali	-11.5576
▁netekti	-11.5577
▁telk	-11.5577
▁šilum	-11.5577
niokoj	-11.5578
▁Peter	-11.5578
▁Sky	-11.5578
▁Šimta	-11.5578
▁žada	-11.5578
▁išprotėj	-11.5578
▁trumpalaik	-11.5579
▁nugalėj	-11.5579
▁stumti	-11.5579
▁taupyt	-11.5579
▁YR	-11.5579
▁Carl	-11.5579
▁pastab	-11.558
▁įdėmia	-11.558
▁šiurp	-11.5581
▁Dešinė	-11.5581
▁perimt	-11.5581
▁neįsivaizduojam	-11.5582
sikabin	-11.5583
▁nušl	-11.5583
▁Charl	-11.5584
▁neteko	-11.5588
▁sudomin	-11.559
▁kovotoj	-11.559
▁parink	-11.5602
▁mėgėj	-11.561
▁stiprybė	-11.561
▁auksini	-11.561
▁atsiųst	-11.5611
▁Saul	-11.5613
▁viešąj	-11.5617
▁galvij	-11.5629
▁nuobodži	-11.5638
▁neatsak	-11.5639
▁nuodėm	-11.5641
▁priklausanči	-11.5644
▁mažiausio	-11.5648
▁laimėtoj	-11.5651
▁vadinamąj	-11.5651
▁nesuprant	-11.5665
▁protingiausi	-11.5689
▁įvaizd	-11.5719
▁spėjima	-11.5744
▁mėsaini	-11.576
▁skaitydam	-11.5785
▁paprastesn	-11.5796
▁nutrauk	-11.5802
▁sekim	-11.5807
▁klinikin	-11.581
▁branduolini	-11.5815
▁mokėjim	-11.5859
▁kentėjim	-11.5867
NN	-11.5868
▁žymiausi	-11.5869
▁kavinė	-11.5881
▁abiem	-11.5904
leidžiant	-11.5913
▁mirštanči	-11.5922
▁Vėj	-11.5942
▁Sakom	-11.5965
▁ištekė	-11.5967
gyventi	-11.5971
▁detal	-11.6038
TA	-11.6052
▁naikinim	-11.6079
▁keliauj	-11.6084
▁įsivaizduotumėt	-11.6136
socialiai	-11.6177
▁apibūdinim	-11.6215
▁eilini	-11.6234
▁ispan	-11.6286
▁nusprend	-11.6339
▁nusivyl	-11.6366
▁dviej	-11.6368
kultūr	-11.6383
pozicij	-11.6384
atrodė	-11.6391
▁dėsn	-11.641
▁pasitrauk	-11.6424
▁gėj	-11.6457
▁katastrof	-11.6474
EC	-11.6474
▁centrini	-11.6475
▁Olimp	-11.6478
studijuo	-11.6479
▁ignoruo	-11.6485
▁atgaut	-11.6502
arytum	-11.6506
▁žaidė	-11.6507
▁komunik	-11.6524
▁pavoj	-11.6534
▁nesibaigia	-11.6543
siruošia	-11.6545
▁nepriklaus	-11.6545
▁spind	-11.6554
procesori	-11.6558
išjung	-11.6559
širdžiai	-11.6563
▁prilyg	-11.657
▁ekstrem	-11.6572
niversitet	-11.6572
idžiosios	-11.6573
sipareigoj	-11.6573
▁Havaj	-11.6574
▁eksponat	-11.6574
pageidaujam	-11.6574
skrudint	-11.6574
▁Glamūr	-11.6574
▁Gydytoja	-11.6574
▁Institut	-11.6574
▁Kleiber	-11.6574
▁Padarykim	-11.6574
▁Pagrindinė	-11.6574
▁Pitsburg	-11.6574
▁apytiksliai	-11.6574
▁atgaivint	-11.6574
▁atostogo	-11.6574
▁biotechnologij	-11.6574
▁centrifug	-11.6574
▁dvasingum	-11.6574
▁ekstaz	-11.6574
▁fabrik	-11.6574
▁genocid	-11.6574
▁harmonij	-11.6574
▁hibrid	-11.6574
▁industrin	-11.6574
▁izoliacij	-11.6574
▁išsidėstym	-11.6574
▁katedr	-11.6574
▁krokodil	-11.6574
▁laidotuv	-11.6574
▁laureat	-11.6574
▁logotip	-11.6574
▁marketing	-11.6574
▁nušvitim	-11.6574
▁paradoks	-11.6574
▁perskaitė	-11.6574
▁personalizuot	-11.6574
▁poliomielit	-11.6574
▁priblokšt	-11.6574
▁propagand	-11.6574
▁rankšluosči	-11.6574
▁sidabrin	-11.6574
▁subalansuot	-11.6574
▁subjekt	-11.6574
▁suluošin	-11.6574
▁susidūrę	-11.6574
▁tolerancij	-11.6574
▁vabzdži	-11.6574
▁veiksmažodži	-11.6574
▁žiurke	-11.6574
▁Auguste	-11.6574
▁Pamirš	-11.6574
▁Respublik	-11.6574
▁apelsin	-11.6574
▁glaudžia	-11.6574
▁globėj	-11.6574
▁jungikl	-11.6574
▁persodinim	-11.6574
▁rekomenduo	-11.6574
▁sraigtasparn	-11.6574
▁užjaučiant	-11.6574
▁vedyb	-11.6574
▁įtvirtin	-11.6574
▁žaidyn	-11.6574
▁Vaizd	-11.6574
▁apribot	-11.6574
▁atšauk	-11.6574
▁katalik	-11.6574
▁maraton	-11.6574
▁pakviečia	-11.6574
▁pasivaikščiojim	-11.6574
▁sekmadien	-11.6574
▁surogat	-11.6574
▁tinklarašt	-11.6574
▁Vanden	-11.6574
▁archeolog	-11.6574
▁grįst	-11.6574
▁kilusi	-11.6574
▁neatskir	-11.6574
▁sudėliot	-11.6574
▁įnirš	-11.6574
▁kritika	-11.6574
▁pasisteng	-11.6574
▁stabtel	-11.6574
▁susivienij	-11.6574
▁lotyn	-11.6574
▁nedels	-11.6574
▁dirž	-11.6574
▁sklinda	-11.6574
▁sudauž	-11.6574
▁geografin	-11.6574
▁moduli	-11.6574
▁trašk	-11.6574
▁antropolog	-11.6574
▁konkuruo	-11.6574
▁drakon	-11.6574
▁klajo	-11.6574
▁Pagalvokim	-11.6574
▁priartėt	-11.6574
▁sandėl	-11.6574
▁Nežinoj	-11.6574
▁nusitaik	-11.6574
▁Sukūr	-11.6574
▁surikat	-11.6574
▁Kened	-11.6574
▁drobė	-11.6574
▁Vener	-11.6574
▁raket	-11.6574
▁dilem	-11.6574
▁nurodyt	-11.6574
▁dirv	-11.6574
▁sraig	-11.6574
▁skelet	-11.6574
▁raštingum	-11.6574
▁bendraamži	-11.6574
▁pridur	-11.6575
▁kaukolė	-11.6575
▁basein	-11.6575
▁arbatinuk	-11.6575
▁atrink	-11.6575
▁Berlyn	-11.6575
▁Marduk	-11.6575
▁nesuvokia	-11.6575
▁Duokit	-11.6575
▁album	-11.6575
▁Penki	-11.6575
▁priartin	-11.6575
▁Gatv	-11.6575
▁reiškiny	-11.6575
eather	-11.6575
▁atsivež	-11.6575
skrenda	-11.6575
▁braiž	-11.6575
▁nepasisek	-11.6575
▁minimal	-11.6575
▁emisij	-11.6575
▁nurodo	-11.6575
▁pyp	-11.6576
▁lūži	-11.6576
▁paliečia	-11.6576
▁Morgan	-11.6576
▁Pradėsi	-11.6576
▁monet	-11.6576
nštein	-11.6576
▁palapinė	-11.6576
▁Petr	-11.6576
▁nuramin	-11.6576
▁šešt	-11.6576
▁virškinim	-11.6576
awkin	-11.6576
▁jungin	-11.6577
▁nesisek	-11.6577
▁rėk	-11.6577
▁mankšt	-11.6577
▁grip	-11.6577
▁rūš	-11.6578
▁įkiš	-11.6578
▁pažymėj	-11.6579
▁nematė	-11.6579
▁atspė	-11.6579
▁lošim	-11.6579
▁vagin	-11.6579
▁Fizi	-11.658
▁kaupt	-11.658
▁Kyla	-11.6585
arnegi	-11.6586
▁nueisi	-11.6587
▁pastarąj	-11.6587
▁akimirksni	-11.6588
▁forum	-11.6589
▁liepsn	-11.659
▁nebij	-11.6591
▁atiduod	-11.6596
▁vadyb	-11.6598
▁viduriavim	-11.66
▁gaminim	-11.661
▁stebėtoj	-11.6612
▁vystymu	-11.6618
▁nesibaigianči	-11.6619
telpa	-11.6627
▁atidarym	-11.6658
▁nedarysi	-11.6664
▁demokratišk	-11.6665
▁taikiny	-11.6668
▁Olimpini	-11.6671
▁redagavim	-11.668
▁sėkmingiausi	-11.6688
▁nenorėj	-11.67
▁susižavėjim	-11.6717
▁pasipriešinim	-11.6722
▁biči	-11.6725
▁galingiausi	-11.674
▁nespėj	-11.6743
rūksta	-11.676
▁ieškojim	-11.6761
▁technologini	-11.6785
▁užpuol	-11.6794
▁pagyven	-11.6797
▁sėdėdam	-11.6804
▁plastikini	-11.6819
▁indišk	-11.6829
▁tolimesn	-11.6851
▁paleidim	-11.6851
▁nuolatini	-11.6854
▁nepatenk	-11.6857
keisčiau	-11.6865
▁meluo	-11.6867
▁parodij	-11.6873
▁pakrant	-11.6877
▁aikštelėj	-11.6957
miegoj	-11.6977
▁nesutink	-11.7021
▁paslėp	-11.7025
▁norėtumėm	-11.7035
▁sutiksit	-11.706
▁molekulini	-11.7063
▁rūk	-11.7164
▁matytumėt	-11.7168
▁laipsn	-11.7173
▁Ide	-11.7182
pirkt	-11.7238
▁matym	-11.7241
▁fantastišk	-11.727
▁greiči	-11.7379
▁suded	-11.7421
▁ištirp	-11.7422
▁sukurtum	-11.7438
rūši	-11.7497
▁Suprant	-11.7543
▁prisitaik	-11.7556
nešioj	-11.7589
▁nepažįst	-11.7622
▁Norėdam	-11.7636
▁mažint	-11.764
paskelb	-11.7658
▁žvej	-11.7659
▁nusileis	-11.7668
auglys	-11.7675
▁ląst	-11.7679
▁vibra	-11.768
▁respublik	-11.7681
viejų	-11.7684
▁kvalifik	-11.7685
▁ekstra	-11.7685
▁migracij	-11.7685
ejerverk	-11.7685
iagnosti	-11.7685
▁Nepriklausom	-11.7685
▁apstulb	-11.7685
▁chronišk	-11.7685
▁demografij	-11.7685
▁doktrin	-11.7685
▁emigr	-11.7685
▁europieči	-11.7685
▁koreliacij	-11.7685
▁kupranugar	-11.7685
▁neapdorot	-11.7685
▁nusišypso	-11.7685
▁organizatori	-11.7685
▁pavaizdav	-11.7685
▁pedagog	-11.7685
▁priešprieš	-11.7685
▁reliatyvu	-11.7685
▁suplėš	-11.7685
▁sutuoktin	-11.7685
▁transformacij	-11.7685
▁uodeg	-11.7685
▁Didžiąj	-11.7685
▁Fransisk	-11.7685
▁Greičiausia	-11.7685
▁Kolumbijo	-11.7685
▁Manhatan	-11.7685
▁Paaiškin	-11.7685
▁Pacienta	-11.7685
▁Panašu	-11.7685
▁Prisiminki	-11.7685
▁Tanzanij	-11.7685
▁Truput	-11.7685
▁Vietnam	-11.7685
▁Volstryt	-11.7685
▁Ypatinga	-11.7685
▁abejing	-11.7685
▁absolvent	-11.7685
▁anonimiška	-11.7685
▁atpažįstam	-11.7685
▁cirkuliuo	-11.7685
▁demaskuot	-11.7685
▁demografini	-11.7685
▁dešimči	-11.7685
▁dribsni	-11.7685
▁dvidegini	-11.7685
▁elegantišk	-11.7685
▁energing	-11.7685
▁graužik	-11.7685
▁konfigūracij	-11.7685
▁konkurencing	-11.7685
▁kremzl	-11.7685
▁krūm	-11.7685
▁lapkriči	-11.7685
▁liūdin	-11.7685
▁marškini	-11.7685
▁motocikl	-11.7685
▁nereikšming	-11.7685
▁nežemišk	-11.7685
▁organizacin	-11.7685
▁padvigubin	-11.7685
▁pakalbėkim	-11.7685
▁reprezentuo	-11.7685
▁skeptišk	-11.7685
▁skrydži	-11.7685
▁skurstanči	-11.7685
▁stačiakamp	-11.7685
▁stulbinanči	-11.7685
▁suprojektav	-11.7685
▁susiformav	-11.7685
▁sąnari	-11.7685
▁sėdynė	-11.7685
▁violetin	-11.7685
▁vožtuv	-11.7685
▁šeštadien	-11.7685
▁šlamšt	-11.7685
▁Karajan	-11.7685
▁Teisinga	-11.7685
▁Tėveli	-11.7685
▁dinamik	-11.7685
▁išdėstym	-11.7685
▁mėgiamiausi	-11.7685
▁pingvin	-11.7685
▁riebal	-11.7685
▁senatvė	-11.7685
▁viršukaln	-11.7685
▁žibint	-11.7685
oterapij	-11.7685
▁1980-	-11.7685
▁Džordžtaun	-11.7685
▁apylink	-11.7685
▁dienorašt	-11.7685
▁Cheeto	-11.7685
▁beisbol	-11.7685
▁kimatik	-11.7685
▁maksim	-11.7685
▁moksleivi	-11.7685
▁spintel	-11.7685
▁Power	-11.7685
▁atsiveria	-11.7685
▁reguliavim	-11.7685
▁Meilė	-11.7685
▁neribot	-11.7685
▁suskirstyt	-11.7685
▁uragan	-11.7685
▁atgars	-11.7685
▁idiot	-11.7685
▁Klimat	-11.7685
▁kritikuo	-11.7685
▁nebeturi	-11.7685
▁nepadarys	-11.7685
▁spėlioj	-11.7685
▁velioni	-11.7685
▁pasklid	-11.7685
▁serial	-11.7685
diskutuoti	-11.7685
▁baigę	-11.7685
▁femini	-11.7685
▁neišmanym	-11.7685
▁palaidot	-11.7685
▁tikėdamasi	-11.7685
▁Papraš	-11.7685
▁pirat	-11.7685
▁išgalvot	-11.7685
▁konstrukt	-11.7685
▁skiep	-11.7685
▁reiting	-11.7685
▁nusižud	-11.7685
▁gauruot	-11.7685
Global	-11.7685
▁paslapči	-11.7685
▁pokšt	-11.7686
▁dreba	-11.7686
▁įvardin	-11.7686
▁Aliasko	-11.7686
▁transliuoja	-11.7686
▁vilioj	-11.7686
▁apskaičiavo	-11.7686
▁alkan	-11.7686
▁būgn	-11.7686
▁atkartoj	-11.7686
mikčio	-11.7686
▁išplito	-11.7686
▁Valstyb	-11.7686
▁išjudin	-11.7686
▁nurodė	-11.7686
▁orbito	-11.7686
▁parduos	-11.7686
▁nepadarė	-11.7686
▁karališk	-11.7686
▁nusiuntė	-11.7686
▁atrašė	-11.7686
▁Brand	-11.7686
▁Hann	-11.7686
▁sušuk	-11.7686
▁kraujotak	-11.7686
▁perkrov	-11.7686
▁pragar	-11.7686
▁Pažiūrėj	-11.7686
▁nejauki	-11.7686
▁chor	-11.7686
▁susiliej	-11.7687
▁atrank	-11.7687
▁grasinim	-11.7687
▁žengt	-11.7687
▁poliarin	-11.7687
▁vėlyv	-11.7687
▁Rytoj	-11.7687
▁nuotaiko	-11.7687
▁ištaria	-11.7687
▁džiūvim	-11.7688
▁prarasta	-11.7688
▁privalėj	-11.7688
▁final	-11.7688
▁apsėst	-11.7688
▁abipus	-11.7688
▁pamanė	-11.7688
▁imituo	-11.7688
▁tarnautoj	-11.7689
▁prostat	-11.7689
▁Privala	-11.769
▁saugesn	-11.769
▁išsprendžiam	-11.769
▁adat	-11.769
▁pamil	-11.769
▁užjaust	-11.769
▁buteliuk	-11.769
▁išvalyt	-11.769
▁išryškin	-11.7691
▁surengė	-11.7691
▁sperm	-11.7691
▁meditacij	-11.7691
▁kišen	-11.7692
▁tamsioj	-11.7693
▁žyg	-11.7693
▁lemti	-11.7694
▁sakiny	-11.7696
illiam	-11.7696
▁reikmen	-11.7697
▁Ann	-11.7697
▁pagaliuk	-11.7698
▁priešaky	-11.77
▁išmetam	-11.7702
▁statul	-11.7704
▁Partij	-11.7705
▁rengini	-11.7706
▁sunaudojam	-11.7707
▁Pakel	-11.7713
▁dešinioj	-11.7717
▁organizav	-11.7729
▁prisitaikym	-11.7729
▁susitvarkyt	-11.7742
▁stači	-11.7761
▁nufotografuo	-11.7765
▁pavojingiausi	-11.7766
▁padėjėj	-11.7779
▁tapyb	-11.7791
▁nepirk	-11.7795
pasakoju	-11.7819
▁eidam	-11.7845
▁įsivaizduo	-11.7861
ebėra	-11.7867
▁nusigaut	-11.7878
▁egzistuo	-11.7904
▁0,0	-11.7918
▁nusivylim	-11.7924
▁jaudinanči	-11.7963
filmu	-11.7991
▁nebuvim	-11.8011
▁paguod	-11.803
▁tapyt	-11.8053
pjaustyt	-11.8061
▁valym	-11.8068
▁Matyt	-11.8071
▁pakenk	-11.8083
▁trumpesn	-11.8118
▁populiacij	-11.8123
▁laukianči	-11.8167
▁global	-11.8169
tigru	-11.8188
▁manipuli	-11.8216
▁sakanči	-11.8223
gailėti	-11.8228
▁mėgav	-11.8235
tirpsta	-11.8257
▁atleist	-11.8263
▁pirmini	-11.8363
▁gražesn	-11.8381
slaugos	-11.8392
▁laikydam	-11.8433
▁pjaust	-11.8526
▁sukurdam	-11.8628
▁piramid	-11.863
valgiau	-11.8673
▁sukčiav	-11.8724
Y	-11.8744
ženkl	-11.8749
▁leisdam	-11.8788
▁stiprėj	-11.8853
technologi	-11.8893
▁įgūd	-11.8896
▁balsav	-11.8899
įtikėtina	-11.8906
▁keleivi	-11.8906
▁apjung	-11.891
▁trokš	-11.8912
▁drebė	-11.8915
▁ryžt	-11.8919
pjūv	-11.8928
▁Dažni	-11.8932
▁agent	-11.8934
mėgdžio	-11.8935
▁Tūkstanči	-11.8935
▁produkcij	-11.8935
komercini	-11.8935
▁1,6	-11.8935
▁Atsižvelg	-11.8935
▁Bakterijo	-11.8935
▁atsispausdin	-11.8935
▁aukštakuln	-11.8935
▁besimokanči	-11.8935
▁diskriminacij	-11.8935
▁fosilij	-11.8935
▁invazij	-11.8935
▁inžinerin	-11.8935
▁kibernetin	-11.8935
▁koncentruoja	-11.8935
▁paradigm	-11.8935
▁samprat	-11.8935
▁sertifikat	-11.8935
▁silikon	-11.8935
▁siužet	-11.8935
▁staigmen	-11.8935
▁svogūn	-11.8935
▁uniform	-11.8935
kromegalij	-11.8935
▁Atkreipk	-11.8935
▁Deivida	-11.8935
▁Dešimt	-11.8935
▁Kambodž	-11.8935
▁Liūdn	-11.8935
▁Nikola	-11.8935
▁Ronald	-11.8935
▁Solomon	-11.8935
▁Stenford	-11.8935
▁abėcėl	-11.8935
▁analogij	-11.8935
▁analogin	-11.8935
▁anekdot	-11.8935
▁anestez	-11.8935
▁atleidim	-11.8935
▁atsispindi	-11.8935
▁atspalv	-11.8935
▁biržel	-11.8935
▁dangoraiž	-11.8935
▁direktorė	-11.8935
▁entuziastinga	-11.8935
▁iliustruoja	-11.8935
▁informacin	-11.8935
▁išankstini	-11.8935
▁kairiarank	-11.8935
▁kariuomenė	-11.8935
▁kolonoskopij	-11.8935
▁kompromis	-11.8935
▁korumpuot	-11.8935
▁liliput	-11.8935
▁liūdes	-11.8935
▁maršrut	-11.8935
▁meksikieči	-11.8935
▁menstruacij	-11.8935
▁milisekund	-11.8935
▁nekontroliuoj	-11.8935
▁nelengva	-11.8935
▁nesuderinam	-11.8935
▁optimiz	-11.8935
▁pagyrim	-11.8935
▁partrenk	-11.8935
▁pražūting	-11.8935
▁reindžeri	-11.8935
▁reprezenta	-11.8935
▁sandori	-11.8935
▁sintetin	-11.8935
▁sociolog	-11.8935
▁triuši	-11.8935
▁ultraviolet	-11.8935
▁užmegzt	-11.8935
▁užregistruo	-11.8935
▁Šanchaj	-11.8935
▁Šekspyr	-11.8935
▁šautuv	-11.8935
▁Žiūrėkit	-11.8935
▁žiraf	-11.8935
▁Dreifus	-11.8935
▁Nacionalinė	-11.8935
▁Viešpa	-11.8935
▁apsikeitim	-11.8935
▁asistent	-11.8935
▁egzotišk	-11.8935
▁higien	-11.8935
▁išdėstyt	-11.8935
▁išklausyt	-11.8935
▁kalorij	-11.8935
▁kompozicij	-11.8935
▁mikrosekund	-11.8935
▁nestabil	-11.8935
▁neįveikiam	-11.8935
▁novatori	-11.8935
▁orgazm	-11.8935
▁pakaital	-11.8935
▁palietė	-11.8935
▁saviraišk	-11.8935
▁užsikimš	-11.8935
▁žudym	-11.8935
▁apgalvot	-11.8935
▁apsidair	-11.8935
▁diskutuojam	-11.8935
▁išplaukia	-11.8935
▁nebereikė	-11.8935
▁pamišę	-11.8935
▁įkūnij	-11.8935
▁įsigilint	-11.8935
▁švieži	-11.8935
▁2007-	-11.8935
▁apkaltin	-11.8935
▁dumbl	-11.8935
▁mąstysen	-11.8935
▁padavėja	-11.8935
▁painiav	-11.8935
▁paralyžiu	-11.8935
▁sunaikina	-11.8935
▁ketvirtadien	-11.8935
▁kuprin	-11.8935
▁piktogram	-11.8935
▁sriub	-11.8935
▁suvaržym	-11.8935
▁ypatyb	-11.8935
▁pacituo	-11.8935
▁Paslapt	-11.8935
▁masyv	-11.8935
▁aktualu	-11.8935
▁gebėt	-11.8935
▁judr	-11.8935
▁Ligoninė	-11.8935
▁apskaičiavim	-11.8935
▁pakliū	-11.8935
▁atsivėr	-11.8935
▁prabėg	-11.8935
▁žudik	-11.8935
▁Sibir	-11.8935
▁pajudin	-11.8935
▁Modern	-11.8935
▁baltaodži	-11.8935
▁ornament	-11.8935
▁įprat	-11.8935
▁kontūr	-11.8935
▁išnykim	-11.8935
▁neiešk	-11.8935
▁Cooper	-11.8935
▁paversdam	-11.8935
▁susikūr	-11.8935
▁panardin	-11.8935
▁patikėkit	-11.8935
▁Feynm	-11.8935
▁biurokratin	-11.8935
▁budizm	-11.8935
▁medviln	-11.8935
▁padengė	-11.8935
▁Okinav	-11.8935
▁mork	-11.8936
▁išvardin	-11.8936
▁sugeria	-11.8936
▁kaupia	-11.8936
▁priskirt	-11.8936
▁Galimybė	-11.8936
▁Skaity	-11.8936
▁keisdam	-11.8936
▁užmuš	-11.8936
▁priartėj	-11.8936
▁neatitinka	-11.8936
▁lakšt	-11.8936
▁plyš	-11.8936
▁apetit	-11.8936
▁padirbėt	-11.8936
▁monitori	-11.8936
▁pusryči	-11.8936
▁patobulėj	-11.8936
▁ugdo	-11.8936
▁įsiverž	-11.8936
▁nelaime	-11.8936
▁išplatin	-11.8936
▁eskiz	-11.8936
▁Malav	-11.8936
▁artrit	-11.8936
▁Samant	-11.8936
▁akademin	-11.8936
▁mėgdžiojim	-11.8936
▁išjungia	-11.8936
▁skambėj	-11.8936
▁sparn	-11.8936
▁susimok	-11.8936
▁didvyrė	-11.8936
▁etnin	-11.8936
▁negraž	-11.8936
▁gynėj	-11.8936
▁dinamin	-11.8936
▁statistin	-11.8936
▁nepakeliam	-11.8936
▁darbovietė	-11.8936
▁švenčia	-11.8936
▁palikuon	-11.8937
▁Fantasti	-11.8937
▁vaikščiojim	-11.8937
▁darbdav	-11.8937
▁paėmę	-11.8937
▁patyrinėt	-11.8937
▁standartizuot	-11.8937
▁pilot	-11.8937
▁kalbėtoj	-11.8937
▁krosn	-11.8937
▁požemin	-11.8937
▁mazg	-11.8937
▁Šeim	-11.8937
vaikinim	-11.8937
▁išryškėj	-11.8937
▁arčiausia	-11.8938
▁Pasakojim	-11.8938
klijuot	-11.8938
▁apsipirk	-11.8938
▁skysči	-11.8938
▁banal	-11.8938
▁Thom	-11.8938
▁pavirst	-11.8938
▁plitim	-11.8938
▁augdam	-11.8939
▁valdyb	-11.8939
▁pajaust	-11.8941
▁vedl	-11.8942
▁moksliuk	-11.8942
▁muil	-11.8942
▁surišt	-11.8942
▁arterij	-11.8944
nutrūksta	-11.8944
▁žaisdam	-11.8945
▁tirdam	-11.8946
▁žaisdav	-11.8949
▁Juokinga	-11.8952
▁Skaiči	-11.8953
▁bėgioj	-11.8953
▁užkaria	-11.8955
▁romantišk	-11.8955
▁kairioj	-11.896
▁triukšminga	-11.8961
▁sužlugdyt	-11.8962
▁žvejyb	-11.8965
▁Henr	-11.8967
▁nesinaudoj	-11.8969
▁krist	-11.8977
plėtė	-11.8978
škiausia	-11.8989
▁tapytoj	-11.9003
▁keliaudam	-11.9006
▁sutvert	-11.9012
▁sąlygoj	-11.9049
▁katastrofišk	-11.9063
krauna	-11.9064
▁išgydy	-11.9074
▁pirkėj	-11.9087
▁apsilankyt	-11.9099
▁Aleksandrij	-11.9099
sivaizduoki	-11.9103
▁skraidyt	-11.9115
▁nežinodam	-11.9143
▁sumanym	-11.9189
▁didinim	-11.919
▁vizualini	-11.9224
▁saldži	-11.9235
▁ieškanči	-11.9255
▁juokauj	-11.9257
▁žeminim	-11.9259
▁šokinėj	-11.9272
▁atsigaut	-11.9286
▁Fotografij	-11.9288
▁ispanišk	-11.9312
▁sėdinči	-11.9323
▁Turėjom	-11.9354
▁parsisi	-11.9377
rėžia	-11.939
▁kinišk	-11.9413
▁atsiskleid	-11.942
silpnėja	-11.9421
▁logišk	-11.943
▁mobilioj	-11.9634
▁šnekėj	-11.965
▁matydav	-11.9689
▁dievyb	-11.9769
▁drambl	-11.98
▁kalbanči	-11.9809
▁Muzik	-12.0053
▁kolekci	-12.009
užsiaugin	-12.0113
▁pažemin	-12.0129
▁pasipriešin	-12.0152
Ž	-12.0173
Š	-12.0173
gyventume	-12.0199
▁žaidži	-12.0263
kvepia	-12.0314
gręžt	-12.0358
sirenka	-12.0363
▁kruopšči	-12.0364
adekvat	-12.0364
grobuon	-12.0364
▁Energij	-12.0364
▁amunicij	-12.0364
▁fizioterapij	-12.0364
▁instaliacij	-12.0364
▁konstitucij	-12.0364
▁laparoskop	-12.0364
▁ventiliacij	-12.0364
▁Apsaugo	-12.0364
▁Bytboksin	-12.0364
▁Chirurg	-12.0364
▁Ekstravert	-12.0364
▁Gandhi	-12.0364
▁Hebraj	-12.0364
▁Jeruzalę	-12.0364
▁Naudoki	-12.0364
▁Nesijaudink	-12.0364
▁Singapūr	-12.0364
▁Teheran	-12.0364
▁Vienintelė	-12.0364
▁agresij	-12.0364
▁agresyv	-12.0364
▁apdulkin	-12.0364
▁apsunkin	-12.0364
▁apsvarstyti	-12.0364
▁apžvalg	-12.0364
▁apžvelg	-12.0364
▁atsitrenk	-12.0364
▁azijini	-12.0364
▁brangakmen	-12.0364
▁detektyv	-12.0364
▁diferencialin	-12.0364
▁dioksid	-12.0364
▁egzistencin	-12.0364
▁festival	-12.0364
▁geguž	-12.0364
▁griuvėsi	-12.0364
▁interjer	-12.0364
▁išnaudota	-12.0364
▁išsisklaid	-12.0364
▁iššifruot	-12.0364
▁kapsulė	-12.0364
▁konstruo	-12.0364
▁kryžiažod	-12.0364
▁kulmina	-12.0364
▁lesbietė	-12.0364
▁levitacij	-12.0364
▁licencij	-12.0364
▁naratyv	-12.0364
▁našlaiči	-12.0364
▁nupasako	-12.0364
▁nusikaltėli	-12.0364
▁pamišusi	-12.0364
▁panaudosi	-12.0364
▁pareikalau	-12.0364
▁pasipelnyt	-12.0364
▁perplauk	-12.0364
▁prekeivi	-12.0364
▁prieglaud	-12.0364
▁proporcij	-12.0364
▁rezoliucij	-12.0364
▁saugykl	-12.0364
▁septintą	-12.0364
▁silpnaprotyste	-12.0364
▁simfonij	-12.0364
▁skruzd	-12.0364
▁stubur	-12.0364
▁subjektyvi	-12.0364
▁susikoncentrav	-12.0364
▁sužeidim	-12.0364
▁tranzistori	-12.0364
▁utilitarin	-12.0364
▁užfiksavo	-12.0364
▁vaivorykštė	-12.0364
▁įstrigo	-12.0364
▁žiniatinkl	-12.0364
nvestuoki	-12.0364
ortepijon	-12.0364
▁1994	-12.0364
▁1999	-12.0364
▁2013	-12.0364
▁Benjamin	-12.0364
▁Devyni	-12.0364
▁Jeruzalė	-12.0364
▁Kapiton	-12.0364
▁Realybė	-12.0364
▁Riversaid	-12.0364
▁Tradici	-12.0364
▁Trinidad	-12.0364
▁atsispirt	-12.0364
▁bienal	-12.0364
▁diapazon	-12.0364
▁identitet	-12.0364
▁intymum	-12.0364
▁komplikuo	-12.0364
▁konsultant	-12.0364
▁labirint	-12.0364
▁neišspręs	-12.0364
▁nesąžininga	-12.0364
▁nutildyt	-12.0364
▁oponent	-12.0364
▁optimal	-12.0364
▁pakeitima	-12.0364
▁parlament	-12.0364
▁pediatr	-12.0364
▁piktnaudžiavim	-12.0364
▁prailgin	-12.0364
▁praturtin	-12.0364
▁priekabiavim	-12.0364
▁pritvirtin	-12.0364
▁pėstinink	-12.0364
▁reguliar	-12.0364
▁reportaž	-12.0364
▁rezonans	-12.0364
▁sauskeln	-12.0364
▁septinto	-12.0364
▁sudegint	-12.0364
▁sutrumpin	-12.0364
▁sąnaud	-12.0364
▁sąvartyn	-12.0364
▁tapatinam	-12.0364
▁techno	-12.0364
▁užblokuo	-12.0364
▁vagystė	-12.0364
▁važiuodam	-12.0364
▁vibruoja	-12.0364
▁įperkam	-12.0364
▁šedevr	-12.0364
▁Baltimor	-12.0364
▁Burtinink	-12.0364
▁Drambli	-12.0364
▁Froid	-12.0364
▁Mikroba	-12.0364
▁besisukant	-12.0364
▁epocho	-12.0364
▁generatori	-12.0364
▁infraraudon	-12.0364
▁neliečiam	-12.0364
▁nepakenčia	-12.0364
▁olimpin	-12.0364
▁pakreip	-12.0364
▁peržengt	-12.0364
▁pianin	-12.0364
▁praleisdav	-12.0364
▁įsisavin	-12.0364
▁įžieb	-12.0364
▁Jordan	-12.0364
▁Samuel	-12.0364
▁apkabin	-12.0364
▁apsiriboj	-12.0364
▁besikeičianči	-12.0364
▁finiš	-12.0364
▁infliacij	-12.0364
▁nepalanki	-12.0364
▁prieštaring	-12.0364
▁pritrenk	-12.0364
▁apsivilk	-12.0364
▁glaust	-12.0364
▁multi	-12.0364
▁prižiūrėtoj	-12.0364
▁provincij	-12.0364
▁Rimta	-12.0364
▁bakterin	-12.0364
▁draudžia	-12.0364
▁neatitikim	-12.0364
▁neįtikim	-12.0364
▁pasisavin	-12.0364
▁pjauna	-12.0364
▁sūkur	-12.0364
▁šlovė	-12.0364
▁parazit	-12.0364
▁Mėlyn	-12.0364
▁Platon	-12.0364
▁ambicij	-12.0364
▁golf	-12.0364
▁išsigandus	-12.0364
▁nesvarbi	-12.0364
▁Kentuk	-12.0364
▁Plauk	-12.0364
▁apmokestinim	-12.0364
▁atsikelt	-12.0364
▁suserga	-12.0364
▁Pinig	-12.0364
▁Graikij	-12.0364
▁įsibrov	-12.0364
▁susimaiš	-12.0364
▁palanki	-12.0364
▁nubaust	-12.0364
▁Imkim	-12.0364
▁Sužinoj	-12.0364
▁renginy	-12.0364
▁pakrašči	-12.0364
▁praktini	-12.0364
▁pripildyt	-12.0364
OLE	-12.0364
▁prabil	-12.0364
▁Komun	-12.0364
▁steril	-12.0364
▁nepažinoj	-12.0364
▁paguld	-12.0364
▁praktinė	-12.0364
▁vynuog	-12.0364
▁glost	-12.0364
▁nelauk	-12.0364
▁pietryči	-12.0364
▁naujovišk	-12.0364
▁nesusiję	-12.0364
▁atgaben	-12.0364
▁suklestė	-12.0364
▁despera	-12.0364
▁išpūst	-12.0364
▁pasėkm	-12.0364
▁patobulinim	-12.0364
▁kvalifikuota	-12.0364
▁pasamdyt	-12.0364
▁saldaini	-12.0364
▁papildyt	-12.0364
▁Spalv	-12.0365
▁patyrusi	-12.0365
▁piev	-12.0365
▁netiksl	-12.0365
raizg	-12.0365
▁Femini	-12.0365
▁panorėj	-12.0365
▁koordina	-12.0365
▁paneig	-12.0365
▁plėtim	-12.0365
▁Kelionė	-12.0365
▁pauzė	-12.0365
▁bloka	-12.0365
▁sunerim	-12.0366
▁bučin	-12.0366
▁pertekli	-12.0366
▁pataiky	-12.0366
▁senyv	-12.0366
▁proverž	-12.0366
▁gimdyt	-12.0366
▁kamuoliuk	-12.0366
▁Sirijo	-12.0368
▁nuleidžiam	-12.0369
▁našum	-12.0369
▁Ramioj	-12.0369
▁atsigręž	-12.037
▁grafini	-12.0372
▁išradėj	-12.0372
▁nepapasakoj	-12.0379
▁aptinkam	-12.0385
nukentėj	-12.0389
▁tarnav	-12.0389
▁skraidanči	-12.0407
▁netikėj	-12.0447
▁nepriklausomyb	-12.0465
▁nukopij	-12.048
▁apleist	-12.0481
▁palaikanči	-12.0512
▁mergaitišk	-12.0523
mylėjau	-12.0526
▁mading	-12.0528
jungimo	-12.0637
prausti	-12.0657
▁išsiskyr	-12.0667
▁slypinči	-12.0698
risipažin	-12.0709
▁pastoj	-12.0721
▁tvarkym	-12.077
bandyk	-12.089
ginkluot	-12.0911
▁siekianči	-12.0936
gebėjim	-12.1026
▁nepasiduo	-12.1027
▁peržiūrėj	-12.1036
▁mechani	-12.1161
▁sutaria	-12.1315
sakyta	-12.1389
▁užsakyt	-12.1412
▁ramyb	-12.1572
▁pažadėj	-12.1623
orupcija	-12.1762
▁susižavėj	-12.179
▁susitvark	-12.1944
evoliucij	-12.1984
▁rezerv	-12.1986
▁sužlugd	-12.1995
uditorija	-12.2005
▁demonstruo	-12.2006
▁neįsivaizduo	-12.2016
omentara	-12.2022
▁afriki	-12.2029
▁neabejo	-12.203
ikipedi	-12.203
▁Neandertalieči	-12.203
▁Nepamirški	-12.203
ftalm	-12.203
išprievartav	-12.203
šanalizav	-12.203
▁Naudoju	-12.203
▁banglentinink	-12.203
▁cirkulia	-12.203
▁delfin	-12.203
▁imperatori	-12.203
▁klaviš	-12.203
▁kondicionieri	-12.203
▁nusistovėj	-12.203
▁selektyv	-12.203
▁subrend	-12.203
▁urbani	-12.203
▁užgniauž	-12.203
konserv	-12.2031
▁Akimirk	-12.2031
▁Aristoteli	-12.2031
▁Christophe	-12.2031
▁Emanuel	-12.2031
▁Filipin	-12.2031
▁Goldberg	-12.2031
▁Gutenberg	-12.2031
▁Katalik	-12.2031
▁Kembridž	-12.2031
▁Kermit	-12.2031
▁Kūdiki	-12.2031
▁Lestrad	-12.2031
▁Meggendorfer	-12.2031
▁Mozambik	-12.2031
▁Nicole	-12.2031
▁Original	-12.2031
▁Pakalbėkim	-12.2031
▁Paklauski	-12.2031
▁Politika	-12.2031
▁PostSecret	-12.2031
▁School	-12.2031
▁Socialinė	-12.2031
▁Stevenson	-12.2031
q	-13.4514
!	-13.4853
♫	-13.4854
Č	-13.4855
♪	-13.4856
—	-13.4857
–	-13.4858
“	-13.4859
)	-13.486
:	-13.4861
?	-13.4862
&	-13.4863
,	-13.4864
