<unk>	0
<s>	0
</s>	0
▁्	-1.86815
▁.	-3.36515
▁या	-3.55952
▁,	-3.90917
▁त	-4.07652
▁आणि	-4.52066
▁आहे	-4.54978
▁प	-4.56931
▁	-4.61138
े	-4.61962
ी	-4.79805
;	-4.84574
▁&	-4.89295
ा	-4.96471
q	-4.99213
▁ही	-5.01213
च	-5.04781
▁स	-5.05151
▁म	-5.1071
▁मी	-5.12968
▁व	-5.17136
▁हे	-5.17837
ं	-5.19587
▁ते	-5.30847
त	-5.3911
▁एक	-5.39845
▁हा	-5.41359
▁य	-5.46464
▁तुम	-5.47659
▁नाही	-5.53639
t	-5.57917
uo	-5.59515
▁तर	-5.65269
▁आम	-5.68647
क	-5.72264
▁र	-5.76066
u	-5.77701
ot	-5.77815
▁क	-5.77937
▁?	-5.78391
(	-5.79173
▁)	-5.79173
▁मला	-5.79457
▁न	-5.83093
▁ज	-5.84031
▁आपल	-5.85132
▁ह	-5.85326
▁पण	-5.86768
▁ती	-5.9013
▁आपण	-5.92715
ून	-5.93536
▁की	-5.95714
ला	-5.99844
▁ग	-6.01338
▁वर	-6.01616
▁ट	-6.04661
▁होते	-6.05679
ही	-6.05756
▁ये	-6.11668
▁हाला	-6.12313
▁काही	-6.13368
▁आहेत	-6.13554
▁यासाठी	-6.1727
ष	-6.17628
▁यात	-6.18521
▁यांच	-6.19406
▁सर	-6.20049
▁माझ	-6.2071
▁यांना	-6.29602
▁याला	-6.33068
ील	-6.33621
न	-6.3555
र	-6.39828
▁याचा	-6.40755
स	-6.4371
▁काय	-6.44483
▁तो	-6.44505
वा	-6.49652
▁नव	-6.49792
▁याच	-6.50477
▁:	-6.5372
▁का	-6.56589
▁कारण	-6.57072
▁जे	-6.57129
▁याची	-6.57181
ित	-6.58038
▁द	-6.58367
▁एका	-6.58798
शा	-6.59279
▁थ	-6.6077
▁असे	-6.61355
▁श	-6.62175
▁ष	-6.65595
▁यास	-6.66249
▁हणजे	-6.68175
▁करण	-6.68555
▁उत	-6.69315
▁आता	-6.69664
ल	-6.70321
▁काम	-6.73827
▁जर	-6.75044
▁तुमच	-6.75314
▁यावर	-6.76006
▁ध	-6.76796
वर	-6.77025
ची	-6.77738
▁होती	-6.7855
य	-6.78776
चा	-6.78838
▁कि	-6.81434
▁—	-6.81899
▁दोन	-6.83823
▁षा	-6.83832
ात	-6.84816
▁यंत	-6.84918
ो	-6.86039
▁ण	-6.86198
▁फ	-6.86345
▁दल	-6.87293
▁टी	-6.8756
▁विचार	-6.87674
▁होता	-6.88524
▁हणून	-6.88778
▁यक	-6.90019
▁माहिती	-6.90023
▁यांनी	-6.90475
▁करू	-6.91091
▁किं	-6.91365
▁जेव	-6.94176
▁निर	-6.9451
▁यामुळे	-6.95935
▁आमच	-6.97217
▁असेल	-6.97278
▁रत	-6.99692
▁जास	-7.01011
▁अर	-7.01119
▁टाळ	-7.01959
▁ब	-7.02582
▁लोक	-7.02639
▁मध	-7.03967
पूर	-7.04668
▁केले	-7.05279
▁पर	-7.06035
▁असते	-7.07574
▁वास	-7.07681
▁याने	-7.08378
लक	-7.08737
▁याचे	-7.09226
▁शिक	-7.10197
▁खूप	-7.10516
▁होतो	-7.10824
▁गो	-7.11282
▁षण	-7.13173
▁मग	-7.13177
चे	-7.13476
ाने	-7.15402
▁च	-7.17505
▁री	-7.18254
▁!	-7.18533
▁कल	-7.18633
शी	-7.18879
▁केला	-7.18948
बद	-7.19347
▁मार	-7.19532
ऱ	-7.20471
ाऱ	-7.207
▁केली	-7.20763
ब	-7.2081
प	-7.20877
▁तेव	-7.2183
▁असं	-7.21907
ेक	-7.22603
-	-7.23989
ap	-7.24587
▁कार	-7.25189
os	-7.25546
▁इ	-7.26597
ोष	-7.27264
▁पूर	-7.27705
▁ल	-7.28229
तो	-7.2833
▁करून	-7.28494
▁अशी	-7.28999
▁असतात	-7.30151
▁शकतो	-7.30661
▁शक	-7.32038
▁झाली	-7.32883
▁करत	-7.33631
ने	-7.33781
▁अनेक	-7.34547
▁होत	-7.35401
ली	-7.35502
▁करतो	-7.35809
▁जी	-7.35836
▁वी	-7.36322
▁नाहीत	-7.38424
▁होतं	-7.38466
▁येक	-7.40197
तील	-7.40427
िक	-7.40714
▁करतात	-7.42896
▁कर	-7.43238
ायला	-7.43356
▁असा	-7.43522
ण	-7.44293
▁कमी	-7.45118
▁असलेल	-7.4527
▁जो	-7.46403
▁आज	-7.47482
▁आहोत	-7.47678
मध	-7.48053
▁अशा	-7.48863
▁पाहिजे	-7.48894
▁ञान	-7.49041
▁पना	-7.49393
▁विश	-7.49675
▁रश	-7.49863
ाचा	-7.50604
▁धा	-7.51798
▁आ	-7.52234
ाला	-7.52567
▁असतो	-7.53355
ाची	-7.53555
▁अधिक	-7.54307
▁रक	-7.54574
▁-	-7.56014
▁लोकांना	-7.56056
▁मुल	-7.56423
ले	-7.56884
▁कधी	-7.57269
▁झाले	-7.58289
▁विद	-7.58984
▁भाग	-7.59925
▁तिच	-7.60355
▁षात	-7.61273
▁किती	-7.61389
ू	-7.61687
▁तयार	-7.62167
ावर	-7.62293
▁हि	-7.62391
▁यांची	-7.6265
▁करा	-7.63141
▁याकडे	-7.63376
▁इथे	-7.63416
▁बदल	-7.63806
▁अगदी	-7.64054
▁हणाल	-7.64079
▁दर	-7.64641
▁चित	-7.64683
▁शकत	-7.6481
▁शोध	-7.64994
व	-7.65298
साठी	-7.65375
▁यांचा	-7.65633
▁रस	-7.66897
द	-7.67147
▁यातील	-7.68592
▁वस	-7.6882
▁करता	-7.69067
▁अस	-7.70716
▁तू	-7.71064
ांना	-7.71231
▁माण	-7.72029
ेल	-7.7277
▁तीन	-7.72845
ता	-7.73315
ासाठी	-7.73336
▁रज	-7.73362
▁झाला	-7.75076
▁वाटते	-7.75249
▁कसे	-7.75453
▁वापर	-7.75727
ग	-7.77343
ंग	-7.77835
ना	-7.7784
▁तरी	-7.77911
▁इतर	-7.79018
▁टक	-7.79267
▁परिणाम	-7.7941
ृष	-7.79758
▁माझी	-7.80086
▁जीवाणू	-7.80379
▁संस	-7.8236
▁ठ	-7.82714
▁करीत	-7.83747
पर	-7.84149
▁रा	-7.84333
▁रात	-7.85025
▁वात	-7.85034
▁एखाद	-7.85332
▁येत	-7.85369
▁आत	-7.8554
▁मह	-7.85742
▁अ	-7.85883
▁गरज	-7.85985
▁पद	-7.87814
हत	-7.884
▁होईल	-7.88996
▁केलं	-7.89506
▁रिया	-7.89586
▁आयु	-7.89777
▁होण	-7.89854
▁घ	-7.89921
ेवळ	-7.90244
▁माझे	-7.90468
▁धन	-7.90589
▁तिथे	-7.91898
▁समज	-7.92275
▁ड	-7.92458
▁लोकांच	-7.92494
▁तिला	-7.92766
▁मृत	-7.92784
लं	-7.93689
ड	-7.93857
तात	-7.94018
▁नवीन	-7.94695
▁बरोबर	-7.95318
▁जग	-7.95747
▁अश	-7.96489
ांनी	-7.96675
▁बाहेर	-7.96693
▁अभ	-7.97231
शास	-7.97376
▁येईल	-7.97579
▁रुग	-7.97582
▁यवाद	-7.9764
▁एकत	-7.97883
ार	-7.982
▁पुन	-7.98257
▁वेळ	-7.98503
▁अजून	-7.98595
▁षी	-7.98689
दार	-7.98691
▁माहित	-7.9873
▁यातून	-7.98818
▁यू	-7.98821
▁अन	-7.99141
.	-7.99737
▁माझा	-7.99808
▁मेंदू	-7.99842
▁घेण	-8.00387
िष	-8.0044
▁के	-8.01464
▁तंत	-8.01546
▁आले	-8.01937
▁करते	-8.02618
▁परत	-8.02646
▁रे	-8.02925
▁रकारच	-8.03857
▁हास	-8.04022
▁आहात	-8.04782
▁सुरक	-8.04783
▁उद	-8.04843
▁याचं	-8.05194
पणे	-8.05323
▁जा	-8.05704
ातील	-8.05881
▁दुर	-8.07405
▁हते	-8.07423
▁वाटत	-8.07467
▁शकता	-8.0764
▁नाव	-8.0788
▁मित	-8.08591
▁याप	-8.0892
ीत	-8.09294
म	-8.093
▁मदत	-8.09804
▁ना	-8.09835
▁अनुभव	-8.10045
▁जन	-8.10179
ाचे	-8.10278
▁दुसर	-8.11662
ाच	-8.11751
▁कोणी	-8.11905
▁चर	-8.12228
कडे	-8.1264
▁चार	-8.12933
▁उदाहरण	-8.13694
▁सुरु	-8.13721
▁मोठ	-8.14025
▁शाळेत	-8.14876
▁हात	-8.15189
▁वाढ	-8.15477
▁शकतात	-8.15669
▁फार	-8.15898
▁देत	-8.17099
▁रमाणे	-8.17331
▁चिन	-8.17441
▁योग	-8.17593
पासून	-8.17844
▁औषध	-8.17906
▁तसे	-8.18089
▁समस	-8.18613
▁षित	-8.19116
▁सगळ	-8.19663
▁असतं	-8.19964
▁मानवी	-8.20157
ेंद	-8.20337
▁वाचे	-8.20448
▁आवाज	-8.20999
▁ए	-8.21031
▁असल	-8.21333
▁ला	-8.21767
▁संगणक	-8.21808
▁कदाच	-8.22319
▁रित	-8.22463
▁पुस	-8.22723
ते	-8.22758
▁केल	-8.23128
▁मोठी	-8.23168
▁गेल	-8.23207
▁रय	-8.23509
▁घेऊन	-8.23649
▁षक	-8.23808
िद	-8.23893
▁जवळ	-8.24328
दा	-8.24832
▁”	-8.24846
ूर	-8.25172
▁टर	-8.25253
▁खेळ	-8.25346
चं	-8.25683
▁सं	-8.25729
▁बर	-8.25731
▁खरं	-8.25978
▁देण	-8.26268
▁चा	-8.27045
पैकी	-8.27147
▁रयोग	-8.27365
▁रथम	-8.27449
▁शास	-8.27475
▁यवस	-8.2754
▁वाच	-8.27864
ंत	-8.27982
▁जात	-8.28173
▁था	-8.28245
ाल	-8.28338
रोग	-8.28348
▁ख	-8.2841
▁जसे	-8.28987
ज	-8.29037
▁भावना	-8.29156
▁पाण	-8.29706
▁थिती	-8.30147
▁पहा	-8.30333
▁करणे	-8.30914
▁खरे	-8.31175
ुद	-8.31429
▁डॉ	-8.32406
▁जाण	-8.32455
“	-8.33013
▁जिथ	-8.33016
▁जगात	-8.33138
▁काहीतरी	-8.33177
▁रकाश	-8.3318
▁पत	-8.33206
▁मूल	-8.3362
▁पुढे	-8.33704
ट	-8.33706
▁रम	-8.34015
▁शाळा	-8.34103
▁सुरुवात	-8.34307
ः	-8.34755
▁हती	-8.34861
ंना	-8.35211
▁आश	-8.3556
▁आर	-8.35748
▁दुस	-8.36058
▁हो	-8.36104
▁आपले	-8.36158
▁छा	-8.36183
▁हवा	-8.36275
ंड	-8.36639
▁लागेल	-8.37394
▁करायला	-8.37517
सर	-8.37809
▁रि	-8.3844
▁कसा	-8.39074
▁भाषा	-8.39096
▁असतील	-8.39097
▁दिवस	-8.39211
ांची	-8.39389
▁हेच	-8.40257
‍	-8.40369
खाली	-8.40698
▁कृती	-8.40733
▁नंतर	-8.40832
▁यानंतर	-8.40895
▁खूपच	-8.41136
चित	-8.41401
▁होऊ	-8.41723
▁सगळे	-8.41787
▁उपचार	-8.41909
▁१०	-8.4199
▁लहान	-8.42184
▁रण	-8.42318
▁रजी	-8.42454
▁घर	-8.42563
▁वतः	-8.42647
▁यावेळी	-8.42778
▁ठीक	-8.42922
ास	-8.42987
▁%	-8.4347
▁येथे	-8.43627
▁चालू	-8.44009
▁मान	-8.44084
▁महिन	-8.44187
▁२०	-8.44444
▁वि	-8.44599
▁गेले	-8.45096
श	-8.45637
ांचा	-8.45972
▁आव	-8.45982
▁जाते	-8.46271
▁भारतात	-8.46422
▁आभार	-8.46679
▁गर	-8.47124
▁येते	-8.4716
▁डॉलर	-8.47535
▁यार	-8.48555
▁वा	-8.48588
▁मोठा	-8.48658
▁आला	-8.48715
ध	-8.48928
▁लागते	-8.49189
▁रमाण	-8.49338
▁पट	-8.49478
▁तम	-8.49541
▁ञ	-8.49564
▁झाल	-8.49585
▁आनंद	-8.49962
▁तक	-8.50042
▁पादन	-8.501
▁हणतात	-8.50171
▁पहिल	-8.50419
▁लागले	-8.50499
▁पार	-8.51542
ुन	-8.51545
▁वेळी	-8.51692
दर	-8.51893
▁देश	-8.52031
▁कसं	-8.5213
या	-8.52269
▁वापरून	-8.52289
नी	-8.52835
▁दूर	-8.52899
▁षे	-8.53053
▁पाहू	-8.53056
ातून	-8.5336
▁मक	-8.53668
▁जातात	-8.53833
▁वाटतं	-8.54265
▁सुद	-8.55002
▁रीय	-8.55022
▁नि	-8.5515
▁बरेच	-8.55364
▁झालेल	-8.55697
▁झालं	-8.55735
▁भर	-8.55951
▁रकारे	-8.5599
▁दिल	-8.56495
▁अक	-8.56556
▁बघा	-8.56594
▁मुलं	-8.5661
▁आई	-8.56712
०००	-8.5675
▁केलेल	-8.5685
▁लागत	-8.56861
▁छान	-8.57073
▁हणाली	-8.57331
▁घेत	-8.57392
▁आलं	-8.5743
▁संख	-8.57628
ांमध	-8.58183
पत	-8.58611
▁शेवट	-8.58751
▁मिती	-8.58889
▁गेलो	-8.58914
तर	-8.58923
▁तव	-8.59167
▁जीव	-8.59312
भूत	-8.59341
▁पाय	-8.59694
▁जीवन	-8.59987
▁करणार	-8.60253
▁मुलांन	-8.60483
मुळे	-8.60575
▁रोग	-8.60905
▁वतःला	-8.60913
▁परि	-8.60917
▁नक	-8.6097
▁लास	-8.61046
▁खर	-8.61254
▁अप	-8.61512
▁दिली	-8.61543
▁यश	-8.61582
▁कोणत	-8.61638
ीय	-8.62413
▁काळजी	-8.62514
▁हणतो	-8.62582
▁फरक	-8.62589
▁बोलत	-8.62616
▁देतो	-8.62675
तरी	-8.62707
▁विज	-8.62791
िस	-8.62814
▁साध	-8.62972
▁राण	-8.63098
▁होणार	-8.63125
▁चांगले	-8.63157
▁असताना	-8.63198
▁आवडत	-8.63376
▁पाच	-8.63386
यत	-8.63579
▁उर	-8.63685
▁नै	-8.64156
▁दिवशी	-8.64527
▁भ	-8.64684
▁हवे	-8.65576
▁होतात	-8.65664
शीर	-8.66411
▁तुमचा	-8.66564
ांत	-8.66641
▁तेथे	-8.66778
▁सांगितले	-8.66887
▁अत	-8.66936
▁आशा	-8.67439
▁रह	-8.67492
▁जागा	-8.67668
रा	-8.68031
▁काळ	-8.68289
▁असू	-8.68325
फ	-8.68342
▁आणखी	-8.68388
▁षमता	-8.68447
▁जातो	-8.6868
▁सु	-8.6897
▁कोण	-8.68993
▁दिले	-8.69457
▁आली	-8.69523
ॉर	-8.69751
▁येण	-8.69999
ताना	-8.70038
▁रकार	-8.70601
▁मुख	-8.70653
ाऊ	-8.70917
▁बक	-8.71262
,	-8.71437
▁याशी	-8.7161
▁उच	-8.717
▁रेणू	-8.7176
ियंत	-8.71893
▁लागली	-8.72123
दाय	-8.72242
▁गुण	-8.72395
▁यता	-8.72409
▁कागद	-8.72501
▁अतिश	-8.72514
ंव	-8.72556
ूक	-8.72803
▁पुरुष	-8.72914
▁रतिरूप	-8.73007
ळ	-8.73121
▁येतात	-8.73296
ांसाठी	-8.73315
▁मागे	-8.7336
▁खात	-8.73398
▁दिसते	-8.73467
▁सार	-8.73483
▁मोठे	-8.74233
▁सहा	-8.74369
िन	-8.74414
▁वाईट	-8.74746
▁षां	-8.74784
▁संधी	-8.74817
ापासून	-8.74865
▁मन	-8.74884
▁वत	-8.74969
▁हान	-8.75435
▁खोट	-8.75819
▁सन	-8.76075
▁यापासून	-8.76355
▁सोप	-8.76742
▁परिस	-8.76965
▁ठिकाणी	-8.77076
▁असता	-8.77104
ृत	-8.77316
ंसाठी	-8.77636
▁वतःच	-8.77922
▁वप	-8.77932
▁राणी	-8.78099
▁शकते	-8.78193
▁मधील	-8.78311
▁संशोधन	-8.78325
▁हणूनच	-8.78725
ती	-8.78868
▁सुंदर	-8.79036
▁सांगतो	-8.79131
▁आधी	-8.79255
▁टिक	-8.79465
▁पुढच	-8.79499
▁मात	-8.79618
▁याय	-8.79619
ीण	-8.79804
जवळ	-8.80001
तः	-8.8005
▁थात	-8.80108
▁करणारे	-8.80298
▁संबंध	-8.80369
▁नेहमी	-8.80601
▁अंदाज	-8.80635
▁रोत	-8.80832
▁जाणीव	-8.8095
▁ओळख	-8.81018
▁वेगवेगळ	-8.81297
▁रेरणा	-8.81299
▁भीती	-8.81341
▁वैद	-8.81373
▁नसते	-8.81708
▁दिसत	-8.81872
▁रच	-8.82096
▁कळ	-8.82415
▁उपयोग	-8.82708
ाबद	-8.82838
▁शन	-8.82846
▁इतक	-8.8309
▁गरीब	-8.83177
तून	-8.83486
▁उदाहरणा	-8.8367
▁हवं	-8.83712
▁रचना	-8.83799
▁लोकां	-8.84003
▁जरा	-8.8408
▁कृत	-8.84204
▁बद	-8.84276
▁भवि	-8.84307
▁२	-8.84377
▁तुमची	-8.84513
▁येतो	-8.84891
▁पहिला	-8.84947
▁अंतर	-8.85229
▁साधारण	-8.85766
ांवर	-8.858
▁विकस	-8.85864
▁पृथ	-8.86003
▁आधार	-8.86023
▁मर	-8.86086
▁राहक	-8.86179
▁साधन	-8.86475
▁नेत	-8.86499
▁मिळाली	-8.86665
▁करावे	-8.86689
▁वेगळ	-8.86764
▁हस	-8.86898
सुद	-8.87457
ाचं	-8.87593
▁वाट	-8.87646
▁हता	-8.87775
▁घेऊ	-8.88259
नुष	-8.88382
▁कुठे	-8.88558
▁नियम	-8.88857
▁देशात	-8.89188
िने	-8.89297
▁याही	-8.89897
▁धती	-8.89923
ाशी	-8.89954
▁तसं	-8.90211
▁एकाच	-8.90261
▁ने	-8.90522
▁रवास	-8.90788
▁रिय	-8.90802
▁जाऊन	-8.91092
▁छोट	-8.91238
ाना	-8.91913
ांच	-8.92045
लो	-8.92058
▁गिक	-8.92062
▁मुद	-8.92241
ामुळे	-8.92346
▁सत	-8.92585
▁सहज	-8.92999
▁ठर	-8.93167
▁चक	-8.93228
▁रोज	-8.93355
▁मिळेल	-8.93524
▁नसेल	-8.93636
▁होय	-8.93719
▁गेली	-8.93792
▁घेतली	-8.93879
▁मुक	-8.94001
▁मेंदूच	-8.94118
▁देणार	-8.94169
▁घटक	-8.94233
▁आल	-8.94281
▁दिला	-8.94629
▁चीन	-8.94675
▁हसण	-8.94723
▁खरंच	-8.94814
समोर	-8.95029
▁तुझ	-8.95091
▁समाज	-8.95311
▁एकदा	-8.95342
▁दुसरी	-8.95422
▁षेत	-8.95833
▁थेत	-8.96094
▁दिसेल	-8.96157
▁संदेश	-8.96157
▁वाटेल	-8.96286
▁हवी	-8.9642
▁यवसाय	-8.96584
▁लागला	-8.96666
कारात	-8.96709
▁असाल	-8.96791
कर	-8.97043
▁संगीत	-8.97233
▁रणाली	-8.97435
▁पन	-8.97487
ोत	-8.97519
▁बस	-8.97526
▁कथा	-8.9753
▁सगळं	-8.9758
▁उघड	-8.97647
सं	-8.97649
▁पहिले	-8.97807
▁असण	-8.97855
िम	-8.97888
▁याना	-8.98006
ाकडे	-8.98054
माध	-8.98198
▁मिळाले	-8.98304
▁राप	-8.98519
▁खरा	-8.98646
▁देऊ	-8.98655
ुष	-8.9868
▁नाहीये	-8.98876
▁हांला	-8.9897
▁३०	-8.99057
▁उपल	-8.99082
▁अवस	-8.99089
▁ऊ	-8.99132
▁आकार	-8.99164
▁तेच	-8.99208
▁घडते	-8.99314
▁लिपी	-8.9942
▁चांगलं	-8.99425
▁पेशी	-8.99843
▁पक	-8.99889
▁४	-9.00064
▁सांगत	-9.0013
▁कोणती	-9.00288
▁काळात	-9.00395
▁घरी	-9.00414
▁विचारले	-9.00499
▁पाहिले	-9.00526
▁वाचा	-9.00576
▁महा	-9.00748
▁डी	-9.00781
▁आजार	-9.01041
▁णय	-9.01112
▁सुरवात	-9.01239
▁इंटरनेट	-9.01495
५	-9.01586
संख	-9.01899
▁सांगितलं	-9.01947
▁गट	-9.01981
▁कठ	-9.02111
▁साठी	-9.02131
नुसार	-9.02147
▁जीवाणूंच	-9.02147
मान	-9.02152
▁तुला	-9.02168
▁रेम	-9.02176
▁पाहिलं	-9.02179
▁कुठल	-9.02357
▁तन	-9.02593
▁सांगू	-9.02685
▁मज	-9.02734
ंच	-9.03846
▁चांगल	-9.03857
▁याबाबत	-9.04004
णार	-9.04085
शिवाय	-9.04202
▁बहु	-9.04211
सा	-9.04317
▁पालक	-9.04382
▁भागात	-9.04418
▁चुकीच	-9.04476
▁सिंध	-9.04476
▁वेळा	-9.04504
मार	-9.04584
▁वाटलं	-9.04605
पट	-9.04659
▁चालत	-9.04993
▁सतत	-9.05123
▁देख	-9.05265
▁उप	-9.05348
▁यांमध	-9.0554
▁बाब	-9.05701
▁बंद	-9.05796
▁वेगळे	-9.05814
▁टन	-9.0593
▁बन	-9.05984
▁फोटो	-9.06475
ोन	-9.06811
▁यु	-9.06893
▁येऊ	-9.07371
▁राज	-9.07529
▁मिळत	-9.07548
▁पासून	-9.07584
▁वाटले	-9.07617
▁रगती	-9.07625
▁सहभागी	-9.07653
▁मिळाल	-9.07693
▁हतं	-9.07706
▁मानव	-9.07939
▁थिक	-9.08144
▁यांवर	-9.08158
▁आय	-9.08277
▁वारे	-9.08386
▁भेट	-9.08633
▁ता	-9.08688
E	-9.08891
▁अमेरिकेत	-9.09365
▁रद	-9.09367
▁जुन	-9.09907
▁यायला	-9.10098
▁गेला	-9.10174
▁अंत	-9.10211
▁...	-9.10435
▁येय	-9.10445
/	-9.10447
▁&#9	-9.10447
▁’	-9.10447
▁विकार	-9.10523
▁लागणार	-9.10597
▁समुद	-9.10609
ंशी	-9.10725
▁येणार	-9.10805
▁मरण	-9.10831
▁जगण	-9.10961
▁छ	-9.1128
▁उभे	-9.11299
हून	-9.11366
▁नेहमीच	-9.11387
▁मुलांच	-9.11499
▁जणू	-9.11621
▁थी	-9.11629
▁३	-9.11722
▁करणारी	-9.11877
ेच	-9.119
▁विस	-9.11924
▁इतके	-9.12045
▁विक	-9.1211
▁संवाद	-9.12112
▁हं	-9.12565
ीन	-9.12848
▁पाहत	-9.12958
▁आठ	-9.13292
▁इस	-9.13431
▁१००	-9.13472
▁सामाजिक	-9.13572
▁एकमेव	-9.13574
▁उपाय	-9.13596
▁नको	-9.13666
▁धतीने	-9.1373
ायचे	-9.13927
▁धोका	-9.14106
▁करणं	-9.14237
▁अवघ	-9.14397
▁मिळते	-9.14618
▁यम	-9.14726
▁रिक	-9.14761
▁असत	-9.14905
शस	-9.15221
▁आण	-9.153
▁शरीर	-9.15343
▁पहिली	-9.15453
▁असणार	-9.15661
▁वाची	-9.15798
▁तु	-9.15976
▁अल	-9.16043
▁मनात	-9.1613
▁अवयव	-9.16452
▁तशी	-9.16479
▁दहा	-9.16819
▁थानिक	-9.1686
▁अध	-9.16905
▁यकीय	-9.16993
▁कळल	-9.17013
▁जाऊ	-9.17077
▁उड	-9.17184
▁पुढ	-9.17373
▁जाणून	-9.17408
▁रसार	-9.17433
▁बाजारात	-9.17535
▁लिही	-9.17645
▁चांगली	-9.17736
▁उपकरण	-9.17931
▁मिळविण	-9.18034
▁राची	-9.18596
▁ताण	-9.18666
▁पाया	-9.18863
▁पैस	-9.1889
▁मै	-9.18988
▁षर	-9.19326
▁बोलण	-9.19418
▁माग	-9.19549
▁ठेवण	-9.19866
▁फोन	-9.1991
▁महिला	-9.19986
▁आराखड	-9.20131
▁नये	-9.20163
▁डोळ	-9.2017
▁मुलगी	-9.20204
▁संकल	-9.20229
▁डोक	-9.20262
ठ	-9.2028
िप	-9.20289
▁शरीरात	-9.20292
▁करायचे	-9.20366
▁दृ	-9.20372
▁घट	-9.20401
▁वै	-9.20597
▁कंपन	-9.20662
▁घरात	-9.20715
▁चे	-9.20733
▁धर	-9.20857
ंदर	-9.21015
▁अद	-9.21085
▁रतिक	-9.21105
ाहित	-9.21198
▁शोधण	-9.21345
▁संताप	-9.21358
▁शकतील	-9.21408
▁विविध	-9.21517
▁याजवळ	-9.21824
▁विन	-9.21981
▁खरच	-9.21998
▁वाटे	-9.2213
ंतु	-9.22142
▁थान	-9.22321
D	-9.22436
▁खोल	-9.22474
विश	-9.22782
▁वाढत	-9.22858
▁मुली	-9.23469
▁दवाखान	-9.2358
▁लवकर	-9.2358
▁आधुनिक	-9.23583
▁माणूस	-9.23584
▁भिन	-9.23673
▁वापरत	-9.23726
▁वार	-9.23787
▁लागतात	-9.23792
▁बनवले	-9.2388
▁पुराव	-9.24144
▁उभ	-9.24183
▁शकणार	-9.24185
▁नका	-9.24309
▁यामध	-9.24314
▁भारतीय	-9.24601
▁वनराई	-9.24605
▁मिनिट	-9.24821
▁उ	-9.2496
▁जातं	-9.25051
▁जाणार	-9.25129
ंपर	-9.25153
़	-9.25205
▁अरब	-9.25223
▁५	-9.25253
▁वक	-9.25255
ुस	-9.2529
▁निक	-9.25296
▁पाहा	-9.25331
▁इतकं	-9.25426
▁रणा	-9.25448
▁काढ	-9.25466
▁इं	-9.2547
▁१५	-9.25647
▁जाता	-9.2586
जण	-9.25912
▁राम	-9.25983
▁विषय	-9.26037
▁दा	-9.26038
▁तित	-9.26053
बाबत	-9.26232
▁दश	-9.26246
ंनी	-9.26265
▁ठरवल	-9.26375
▁आठवड	-9.2639
ऐवजी	-9.26514
▁करु	-9.26698
▁आलो	-9.26739
▁गणित	-9.26753
▁२००	-9.27054
▁धत	-9.27077
▁युराँस	-9.27151
▁षिण	-9.27151
▁जागतिक	-9.27153
▁कुणी	-9.27158
▁लगेच	-9.27158
▁१२	-9.27197
▁सुरू	-9.27211
▁शिकलो	-9.27306
▁आदर	-9.27312
▁दिसतात	-9.27336
▁घेतो	-9.27406
▁गोळा	-9.27418
▁शकेल	-9.27483
▁होऊन	-9.27595
▁अनु	-9.27733
ावे	-9.27782
▁महान	-9.27939
▁चांगला	-9.28504
▁भारत	-9.28555
ईश	-9.28572
▁षांच	-9.28756
से	-9.28964
▁गात	-9.29067
▁कौ	-9.29166
▁तिक	-9.29484
▁एकमेकां	-9.29596
▁तीच	-9.29776
▁षणी	-9.29817
▁पडल	-9.29847
▁कंपनी	-9.29974
▁कोटी	-9.30085
▁बदलू	-9.30325
3	-9.30839
▁मूळ	-9.30924
▁सौर	-9.3098
▁करायचं	-9.31141
▁याबरोबर	-9.31168
▁षाच	-9.31297
▁गाडी	-9.31367
▁चाचणी	-9.31722
▁घेतला	-9.31736
▁देवा	-9.31739
▁जमिनीवर	-9.3197
▁घेतले	-9.32045
▁एन	-9.32146
▁अधिकार	-9.32264
▁रेक	-9.3229
▁माद	-9.32314
▁संघटना	-9.32371
दम	-9.32414
िंग	-9.32506
▁यासारखे	-9.3322
युक	-9.33245
▁तास	-9.33415
कडून	-9.33664
▁ठेवा	-9.33777
विद	-9.33804
▁दिसू	-9.33848
▁बघत	-9.34005
▁बहुतेक	-9.34116
▁अमेरिकन	-9.34201
नंतर	-9.34495
▁हजार	-9.34626
▁घेता	-9.34668
▁एकच	-9.34771
▁लाखो	-9.34778
▁पाहतो	-9.34865
▁करायची	-9.3491
▁T	-9.34918
▁अग	-9.34945
▁सामान	-9.34961
▁सात	-9.35061
▁शकू	-9.35092
पणा	-9.35207
▁रिम	-9.35236
▁देतात	-9.3541
▁आढळले	-9.35419
▁दिव	-9.35882
▁हाच	-9.35922
▁दलच	-9.35988
▁मजे	-9.36128
▁कृष	-9.36193
e	-9.36896
▁रिकेत	-9.37074
ायचं	-9.37304
यक	-9.37305
▁..	-9.37546
▁देणे	-9.37621
देख	-9.37623
▁सांगण	-9.37648
▁१	-9.37687
▁जगा	-9.37694
▁रांती	-9.37757
▁बघण	-9.38584
▁यातल	-9.38636
▁जलद	-9.38705
▁टीकोन	-9.38716
▁अनोळखी	-9.3872
▁झालो	-9.38959
▁संप	-9.39042
▁५०	-9.39053
ंची	-9.39174
▁आवश	-9.39373
▁युत	-9.39474
▁करावी	-9.39606
ैक	-9.39617
▁वीच	-9.3967
▁बघू	-9.39742
▁निवड	-9.39913
▁भाषेत	-9.39994
▁बदलत	-9.40111
▁युद	-9.40389
बरोबर	-9.40715
▁१९	-9.40751
▁हणाला	-9.41082
धर	-9.41197
▁यासारखं	-9.41221
▁कशा	-9.41399
डी	-9.41464
▁डे	-9.41629
▁तोंड	-9.41813
▁मा	-9.42043
▁पाहण	-9.42077
वृत	-9.42104
▁हण	-9.42228
ंपैकी	-9.42427
▁सरकार	-9.42519
निर	-9.42738
▁अंध	-9.42839
▁आराम	-9.42857
▁योजना	-9.42873
▁अवलंबून	-9.42874
▁निदान	-9.429
▁वजनिक	-9.42918
▁याहून	-9.43003
▁S	-9.43073
ंचे	-9.43094
▁कपडे	-9.43101
▁दिसतो	-9.43118
▁रमाणात	-9.43135
▁सोबत	-9.43275
▁हळू	-9.43501
▁बनविण	-9.43522
▁खुल	-9.43632
▁सुधारणा	-9.43674
▁कराव	-9.43897
▁भार	-9.43923
▁बरं	-9.44
▁पाहून	-9.44134
▁आप	-9.44267
▁तिथल	-9.44267
▁पाहिल	-9.44439
▁पातळी	-9.44875
ांचे	-9.45031
▁रो	-9.45161
▁कोणते	-9.45484
▁रतिजैविक	-9.45734
▁हार	-9.45875
ाप	-9.45909
ियन	-9.4622
▁माणस	-9.46557
विषयी	-9.46617
वसायिक	-9.46702
▁पडत	-9.46959
▁राच	-9.46992
▁बोलू	-9.47062
ीने	-9.47109
▁मत	-9.47147
▁नुकत	-9.47218
▁किंमत	-9.47278
▁हजारो	-9.47335
▁टाक	-9.47424
▁फायद	-9.47464
▁याकड	-9.47474
▁मिळणार	-9.47477
▁बोलतो	-9.47539
▁दुष	-9.47539
▁जागी	-9.47547
▁करेल	-9.47576
▁देऊन	-9.47597
री	-9.47881
▁असले	-9.47903
▁सामन	-9.47989
ेस	-9.47997
▁८	-9.4826
▁दिसतं	-9.48292
▁ऐक	-9.4855
▁छोटी	-9.48666
▁समजा	-9.4869
▁लोकांन	-9.48694
ंमध	-9.4872
i	-9.48735
▁वेगळी	-9.48951
ांपैकी	-9.49045
▁अब	-9.49091
▁वाय	-9.49354
▁वतःची	-9.49476
ृद	-9.49492
ुण	-9.49547
ानुसार	-9.49888
▁धोक	-9.49913
▁पिशव	-9.49921
▁युक	-9.50374
६	-9.5062
▁परस	-9.50726
▁काढण	-9.50735
▁चाल	-9.50856
मधील	-9.51032
▁निस	-9.51153
▁रार	-9.51155
णारे	-9.51179
ि	-9.51181
▁हसत	-9.51291
▁हटल	-9.51296
ाणी	-9.51323
ोगी	-9.51435
▁बनवण	-9.51443
▁ञात	-9.51647
ु	-9.51694
▁राजकीय	-9.51762
▁आंतर	-9.51783
▁शेकड	-9.51785
▁सुविधा	-9.51791
▁जेथ	-9.51873
▁कोणाला	-9.51886
▁सांगणार	-9.51896
▁शकलो	-9.51932
ाली	-9.52111
▁करताना	-9.52307
▁थांब	-9.52333
▁वापरू	-9.52392
▁षणिक	-9.52408
ॅम	-9.52412
▁दक	-9.52432
▁ले	-9.52523
▁ठेवला	-9.52546
▁थोडी	-9.5255
▁करोग	-9.52551
▁परीक	-9.52568
▁षीस	-9.52667
▁आठवण	-9.52754
▁वाटणार	-9.52766
▁थोडे	-9.5277
▁खरोखरच	-9.52787
▁ली	-9.52916
▁शिकण	-9.52928
▁नर	-9.53079
▁वाढते	-9.53209
▁वाद	-9.53212
▁शांत	-9.53228
▁इसा	-9.53629
▁करतील	-9.53866
▁सारखे	-9.54002
▁वज	-9.54181
▁एच	-9.54181
▁जिच	-9.54399
▁तुकड	-9.54421
▁जगातल	-9.54534
▁सह	-9.54709
▁विच	-9.54748
▁विकास	-9.54842
रित	-9.54988
ेट	-9.55106
िश	-9.55118
ह	-9.55526
▁साम	-9.55537
▁यालय	-9.55775
तज	-9.55896
▁हणत	-9.56066
o	-9.56148
▁रौढ	-9.56156
▁राहू	-9.56373
▁गुप	-9.56456
▁यूरॉन	-9.56523
▁शारीरिक	-9.56524
▁गुगल	-9.5653
▁जेणेकर	-9.56559
▁धी	-9.56596
▁विशेष	-9.56605
▁खास	-9.56629
▁विकत	-9.5664
▁राहतो	-9.56689
▁यांत	-9.56803
▁बाजूला	-9.56804
▁लागलं	-9.5681
▁नजर	-9.56846
▁सोडून	-9.56873
▁तरुण	-9.5688
▁उन	-9.56896
▁माला	-9.57108
▁आलेल	-9.57132
▁घडले	-9.572
▁घटना	-9.57261
बेल	-9.57428
▁थोड	-9.57438
▁समजाव	-9.57511
▁जण	-9.57551
▁ठेवल	-9.57594
▁समजू	-9.57618
▁रयोगशाळे	-9.57648
ापर	-9.57734
▁झाड	-9.57784
▁ठेवले	-9.57877
▁नोकरी	-9.58058
▁सायकल	-9.58059
▁सांगते	-9.58085
▁पुनर	-9.58145
▁निघ	-9.58583
▁विर	-9.58606
मधून	-9.58939
▁दाखव	-9.59063
▁ची	-9.59302
▁पडले	-9.59367
▁वृत	-9.5946
▁जोड	-9.59493
णे	-9.59689
▁निश	-9.5978
▁माणसा	-9.59866
▁रंग	-9.59894
▁बाजू	-9.5991
▁किन	-9.59939
णूक	-9.6009
वान	-9.60205
▁४०	-9.60303
▁शकतं	-9.60406
▁भाव	-9.60414
▁नमुन	-9.60535
▁सारख	-9.60569
▁पाहता	-9.60606
▁कम	-9.60822
▁यानं	-9.60929
▁ति	-9.61254
ावं	-9.61256
ोग	-9.61455
▁अचानक	-9.61523
▁रुपांतर	-9.61523
▁माहीत	-9.61529
▁तापमान	-9.6153
वधी	-9.61543
▁अथ	-9.61558
▁लागलो	-9.61582
▁जाईल	-9.61596
▁बाबतीत	-9.61597
▁बरीच	-9.61635
▁मुलगा	-9.61639
▁नसतो	-9.61661
▁बाध	-9.61667
ांबद	-9.6173
▁इज	-9.61826
▁लागतो	-9.61849
ावी	-9.61909
▁सू	-9.61947
▁आतड	-9.61991
▁षम	-9.62113
शक	-9.62185
▁शिकले	-9.62314
▁वापरतात	-9.62331
णारा	-9.62397
▁यायचे	-9.62527
ोर	-9.62742
▁सांगता	-9.62744
▁दृश	-9.62758
▁भव	-9.62942
▁थितीत	-9.63004
वून	-9.63082
▁आजच	-9.63265
▁वापरले	-9.63267
ामध	-9.63514
▁थोडं	-9.63597
शल	-9.63634
▁विष	-9.63728
▁दी	-9.63809
▁असून	-9.63839
०	-9.63845
▁तुरुंगात	-9.63928
ांतून	-9.63929
ंद	-9.64091
▁तान	-9.64121
▁सांगितल	-9.64299
तेने	-9.64324
▁यालयात	-9.64345
ई	-9.6438
▁करावयाच	-9.6446
▁रान	-9.64686
▁पश	-9.6471
आय	-9.64821
▁वित	-9.65037
लेले	-9.65043
▁काल	-9.65112
▁यशाच	-9.65189
▁बनवायच	-9.65271
▁बोलल	-9.65279
▁लांब	-9.6535
▁समाजात	-9.65354
▁तेथ	-9.65455
▁चेह	-9.65553
▁चाचण	-9.65576
▁होतील	-9.65599
▁वयाच	-9.65985
वाद	-9.66052
▁बनत	-9.66054
▁मोज	-9.66168
▁नकाशा	-9.66398
वेळी	-9.66439
गत	-9.66479
▁पाठ	-9.66582
▁जाणण	-9.66614
▁लाख	-9.66738
▁दररोज	-9.66786
▁ठरविले	-9.66794
▁नऊ	-9.66853
▁भाषेच	-9.66859
▁बनवता	-9.6699
▁भारता	-9.67013
▁इतरांना	-9.67116
▁देता	-9.6722
▁पुरेस	-9.6727
▁कोठे	-9.67288
▁कळत	-9.67314
▁एवढे	-9.67392
▁हल	-9.67437
▁बनले	-9.67508
▁जावे	-9.67552
▁नसत	-9.67632
ेन	-9.67641
▁भया	-9.67718
▁समजले	-9.67732
▁कडे	-9.67751
▁माश	-9.67923
▁यान	-9.67941
▁समान	-9.67968
▁रमण	-9.68012
▁साह	-9.68077
▁बिल	-9.68155
▁सोपं	-9.68176
▁हालचाल	-9.68234
▁कोणता	-9.68256
▁असलेला	-9.68266
▁घेणार	-9.68302
टीश	-9.68342
▁थित	-9.68686
कल	-9.68871
▁संपत	-9.68978
िल	-9.69196
▁शहर	-9.69229
▁मेला	-9.69266
▁भाषण	-9.6936
पण	-9.69421
रीत	-9.69549
▁सांगा	-9.69649
▁मुलांनी	-9.69751
▁वाटू	-9.69793
▁संक	-9.69906
▁रू	-9.70009
ीची	-9.70227
▁बरे	-9.70274
▁रव	-9.70351
ांबरोबर	-9.70355
▁अव	-9.70381
▁हातात	-9.70402
जर	-9.70468
▁शर	-9.70605
▁यांदा	-9.70683
▁हणता	-9.70772
▁वेगान	-9.70967
लेली	-9.71073
पुढे	-9.71104
▁रास	-9.71225
ंट	-9.71473
▁औषधे	-9.71522
तंत	-9.71613
▁वाक	-9.71634
▁आढळल	-9.7169
▁यायाम	-9.71882
▁घडत	-9.71901
▁सांगायच	-9.72229
▁ऑफ	-9.72325
▁जवळपास	-9.72342
▁मजकूर	-9.72342
▁सामोर	-9.72373
▁गुढग	-9.72401
▁पदवी	-9.72411
▁देईल	-9.72418
▁वेदना	-9.72432
संस	-9.72462
वे	-9.72469
▁जमिनी	-9.72473
▁अंग	-9.72512
▁ठेवून	-9.7255
▁षिस	-9.72574
▁नसतात	-9.72576
ाधिक	-9.72593
▁दाखवतो	-9.72622
▁हणू	-9.72639
▁चिम	-9.72698
▁जगाच	-9.72724
▁ई	-9.72726
▁सकाळी	-9.72787
▁सम	-9.72792
▁ठराव	-9.72812
▁शिकवण	-9.72899
▁सा	-9.73102
ांकडे	-9.73244
▁अरे	-9.73589
▁जगभर	-9.73591
▁दार	-9.73622
▁बाळ	-9.73675
▁वच	-9.73717
▁सुख	-9.7432
▁कुठली	-9.74362
▁थोडा	-9.74516
▁बल	-9.74523
▁इतका	-9.74524
भाव	-9.74678
▁यप	-9.74718
▁सापड	-9.74811
▁यावरून	-9.74862
▁२०१	-9.74873
▁वीर	-9.7511
▁२५	-9.75127
▁विल	-9.75166
भोवती	-9.75172
▁फिरत	-9.75554
ांपासून	-9.75806
▁खरी	-9.75881
▁येतं	-9.76044
ाही	-9.76059
नं	-9.76306
▁कश	-9.76782
▁खरोखर	-9.76835
ाश	-9.76845
1	-9.77039
▁१९८	-9.77129
▁षेप	-9.77175
शे	-9.77309
▁एम	-9.77372
▁गांधी	-9.77503
▁नसल	-9.77583
▁हक	-9.77597
▁यादी	-9.77678
▁लिहिले	-9.77712
▁छित	-9.77893
सारखं	-9.78112
▁रतिसाद	-9.78224
▁सहानुभूती	-9.78225
▁डिज	-9.78244
▁डिझाईन	-9.78261
▁गंभीर	-9.78262
मिक	-9.78289
▁कळेल	-9.78351
▁निगड	-9.78387
▁मागच	-9.78419
पे	-9.78512
▁घडव	-9.78522
▁दशका	-9.7858
▁दिलेल	-9.78588
▁एखादा	-9.78657
▁दाब	-9.78673
ीस	-9.78738
८	-9.78745
▁घाल	-9.78768
▁हर	-9.78795
▁सहकारी	-9.78863
▁कॉ	-9.78996
▁टिकोन	-9.79004
▁राहून	-9.79071
ीच	-9.7911
▁अंड	-9.79255
▁वापरता	-9.79327
▁नसे	-9.79332
▁घेतात	-9.79366
▁असो	-9.79675
▁चढ	-9.79791
▁यापार	-9.79826
▁रपान	-9.79875
▁इमारती	-9.79975
▁कप	-9.80031
▁मिळाला	-9.80138
१	-9.80414
सारखी	-9.8042
▁टिकच	-9.80445
▁चेहर	-9.8049
▁कुटुंब	-9.80509
▁षांत	-9.80527
वी	-9.80568
▁असावे	-9.80574
▁आवड	-9.80587
▁हवेत	-9.80857
▁चालले	-9.8087
▁यायोग	-9.80899
▁किंग	-9.81007
▁धांत	-9.81118
▁णन	-9.81179
▁वीवर	-9.8126
▁बाबत	-9.81384
खर	-9.81396
▁शरीराच	-9.81401
कारक	-9.81493
जन	-9.81723
▁फी	-9.81793
ोपर	-9.81911
s	-9.8211
▁केलेली	-9.82162
▁पिढ	-9.82171
▁हृदय	-9.82191
राश	-9.82441
▁ओ	-9.82446
▁कित	-9.82533
भर	-9.82595
▁लुकोज	-9.82754
मधे	-9.82857
▁बाली	-9.82958
A	-9.83345
▁७	-9.83434
▁अंगठ	-9.83481
ाहून	-9.83538
▁मेंदूत	-9.8369
▁उलट	-9.83764
▁खाल	-9.83768
▁तणाव	-9.83891
▁६०	-9.83939
▁पुर	-9.84264
हाय	-9.84402
▁ञानाच	-9.84436
▁तुलनेत	-9.84474
▁विनोद	-9.84474
▁रिकोण	-9.84474
▁अडथळ	-9.84481
▁करुणा	-9.84483
▁कृप	-9.84486
▁डावीकड	-9.84494
▁तिन	-9.84523
▁सुखद	-9.84534
▁जॉन	-9.8455
▁वापरण	-9.84624
▁उब	-9.8472
▁सहन	-9.84847
▁कॅमेरा	-9.84858
▁भुत	-9.84917
▁दाखवत	-9.85058
▁घेतलं	-9.85084
▁धक	-9.85087
▁सरळ	-9.85132
▁समोर	-9.85176
▁हणण	-9.85225
▁वागत	-9.8529
▁तीस	-9.85341
▁आढळ	-9.8538
वरून	-9.85393
▁छाय	-9.85441
▁भिंती	-9.85572
▁११	-9.85576
९०	-9.8559
▁कॉम	-9.85832
▁फायदे	-9.85908
▁बघ	-9.86019
▁णत	-9.86118
▁कला	-9.86214
▁अमेरिकेच	-9.86456
▁पाठव	-9.86764
▁कायम	-9.86926
▁वनी	-9.86997
ायची	-9.87053
▁करणारा	-9.87145
▁वेगळा	-9.87219
अमर	-9.87229
▁आणी	-9.87273
▁फर	-9.87302
▁जीन	-9.87377
▁वीस	-9.87623
िव	-9.87692
▁मेण	-9.87787
सारखा	-9.87892
▁टीन	-9.8796
ूल	-9.88021
▁वतःचे	-9.88151
▁ओढ	-9.88214
▁शेवटच	-9.88236
थ	-9.88285
▁रेड	-9.88328
▁तकात	-9.88543
▁झालेले	-9.88659
▁रिस	-9.88767
करण	-9.88778
जीत	-9.89282
ीकरण	-9.89336
▁आक	-9.89487
▁लावत	-9.89652
ूड	-9.89761
▁काढल	-9.90028
▁मधल	-9.9011
▁शकले	-9.90117
▁पाक	-9.90157
▁विकल	-9.9052
▁गटा	-9.90604
▁आग	-9.9067
▁रेषा	-9.90726
▁कन	-9.90736
▁रूप	-9.90882
▁बनवू	-9.90991
▁जमा	-9.91003
▁नेण	-9.91053
▁लैंगिक	-9.91141
▁धोरण	-9.91141
▁रसायन	-9.91141
▁बहुतांश	-9.91142
▁भौतिक	-9.91143
▁राहण	-9.91145
▁थिर	-9.91157
ुक	-9.9116
▁इमेल	-9.91169
▁झटक	-9.91178
▁वडील	-9.91211
▁धुम	-9.91243
▁लिश	-9.91244
▁D	-9.91246
▁झ	-9.91312
▁ठेवतो	-9.91312
▁दैवान	-9.91345
▁करायचा	-9.91534
▁पातळीवर	-9.91588
▁सद	-9.9159
▁लोकांसाठी	-9.9159
▁दिसणार	-9.91605
▁पडतो	-9.91619
िटल	-9.91648
▁थोडक	-9.91679
▁निकाल	-9.91829
▁तिसरी	-9.91865
▁लागे	-9.91926
तीने	-9.92228
▁बनवत	-9.92288
▁अखेरी	-9.92338
▁बाह	-9.92341
▁तुस	-9.92354
५०	-9.9239
▁राशीच	-9.92426
▁नमुने	-9.92489
▁मिळ	-9.9254
▁करतोय	-9.92683
ंपासून	-9.927
▁कॅन	-9.92712
▁यूय	-9.92712
▁उपक	-9.92766
योग	-9.92786
▁तीव	-9.92905
▁यासोबत	-9.93079
▁भेटले	-9.93119
▁आकाराच	-9.93137
▁बी	-9.93149
▁वय	-9.93152
▁गा	-9.93226
▁लागू	-9.93283
रूप	-9.934
मत	-9.93556
▁काढला	-9.93589
▁गत	-9.93613
▁लोकांकड	-9.93693
▁मैल	-9.93823
▁मेंदूचा	-9.93898
▁जाती	-9.93955
▁वेगळं	-9.94043
▁नी	-9.94098
▁अंश	-9.94118
▁दिस	-9.94269
▁यायचं	-9.94308
▁जोर	-9.94477
बळ	-9.94521
▁वन	-9.9466
▁कण	-9.94686
▁बोलता	-9.94713
▁रीत	-9.94848
▁गिधाड	-9.94972
▁लेखक	-9.95464
▁बळी	-9.95471
सारखे	-9.95573
▁सवय	-9.9571
▁अपयश	-9.95743
▁हॅ	-9.95778
लेक	-9.9582
▁विरोध	-9.95907
▁समजत	-9.95991
▁पावल	-9.96146
▁मुळे	-9.9628
रत	-9.96298
▁रसि	-9.96386
▁वजन	-9.96407
▁आणल	-9.96699
▁वातावरण	-9.96857
▁राचा	-9.96973
▁६	-9.97165
हळू	-9.97196
▁जाळ	-9.97521
▁अडचण	-9.97578
▁लो	-9.97671
▁मधून	-9.97677
ॅन	-9.97716
▁रभाव	-9.97721
▁रजाती	-9.97765
▁गम	-9.97797
ाद	-9.97817
▁थापन	-9.97993
▁जनन	-9.98005
▁ठेवत	-9.98046
▁अज	-9.98053
▁संभाषण	-9.98212
धारणा	-9.98225
रासायनिक	-9.98283
▁आकलन	-9.98284
▁वेगवान	-9.98289
▁१८	-9.98294
▁उकल	-9.983
▁शंभर	-9.98303
▁लोकशाही	-9.98308
▁लढाई	-9.98322
▁मानसिक	-9.98328
▁जितक	-9.98329
▁दखल	-9.9833
▁परवडणार	-9.98342
▁मिळवण	-9.98357
▁रीमंत	-9.98393
▁उजवीकड	-9.98407
▁षिततेच	-9.98426
▁दैव	-9.98446
▁बनवतो	-9.98455
▁मायक	-9.98503
▁यावे	-9.98538
▁घडलं	-9.9854
▁कुत	-9.98555
▁बातमी	-9.98626
▁लावला	-9.98695
▁अचूक	-9.98706
▁खाण	-9.98733
▁दिसली	-9.98773
▁वाटली	-9.98778
▁वयंसेवक	-9.98829
▁नसलेल	-9.98844
▁बिन	-9.98853
▁रमात	-9.98883
▁बोलणार	-9.98933
▁वापरली	-9.99133
▁सेन	-9.99233
▁राह	-9.99393
▁षांनी	-9.99581
▁यापीठात	-9.99642
▁जबाबदारी	-9.99736
▁वेश	-9.99802
▁सेकंद	-9.99831
▁१४	-9.99845
▁येई	-9.99896
▁हीच	-9.99899
ंबद	-9.99903
फी	-10.0012
▁नात	-10.0022
▁असती	-10.0031
▁आठवणी	-10.0032
▁शि	-10.0032
नक	-10.0042
▁अति	-10.0061
ंचा	-10.0061
ासारखे	-10.0074
▁याख	-10.0084
▁शाळेच	-10.0087
ानंतर	-10.0087
▁वाना	-10.0099
▁याद	-10.0112
▁निम	-10.0127
▁पैसा	-10.0129
▁सल	-10.0138
▁षणाच	-10.0198
▁बघितले	-10.0218
▁चळवळ	-10.0232
▁तिथ	-10.0248
▁हत	-10.0257
▁दात	-10.026
▁खोली	-10.0266
▁साहन	-10.0303
४	-10.0329
▁धे	-10.0337
▁घेतल	-10.0337
▁दुःख	-10.0339
▁पास	-10.0342
घ	-10.0358
▁माती	-10.0378
▁वीकार	-10.0382
▁आणले	-10.0383
▁यावी	-10.0393
▁झोप	-10.0404
▁वयंपाक	-10.0405
▁मधुमेह	-10.0405
▁रतिमा	-10.0415
▁जिन	-10.0425
ैज	-10.0449
ोस	-10.0458
▁सुट	-10.0468
▁घड	-10.0475
▁नेते	-10.0476
▁आमचं	-10.0484
कधी	-10.0492
▁साप	-10.0502
▁सहकार	-10.0515
▁इतिहास	-10.0533
▁आकडेवारी	-10.0536
▁ञा	-10.0537
▁छि	-10.0548
▁शिकवत	-10.0582
▁दगड	-10.0598
▁खरेदी	-10.0598
▁पिंज	-10.0598
▁चालण	-10.06
▁बोलायला	-10.0601
▁वसनीय	-10.0601
▁आणण	-10.0603
▁फसव	-10.0605
▁छेद	-10.0606
▁शकेन	-10.0611
▁मुलांसाठी	-10.0621
▁आलेख	-10.0622
▁खेड	-10.0623
▁सेवा	-10.0623
▁रमुख	-10.0626
वेल	-10.0635
▁शिकवलं	-10.0636
▁किलो	-10.0637
▁उपस	-10.0644
▁जाणतो	-10.0645
▁ऐकण	-10.0646
▁ऐकून	-10.0656
▁डाव	-10.0669
▁तिसर	-10.0671
▁टीम	-10.0671
▁मिक	-10.0673
▁राहते	-10.0679
▁युरो	-10.0686
▁दिशेन	-10.0706
ानी	-10.071
▁जीवनाच	-10.0717
ंज	-10.0729
▁सांगायचे	-10.0738
▁समाजाच	-10.0738
▁हणल	-10.0744
▁भारताच	-10.0761
ांकडून	-10.0762
▁हणते	-10.0765
▁गटात	-10.0773
▁वे	-10.0777
▁बनविले	-10.078
▁बाकी	-10.0792
▁बदलण	-10.0794
▁असावी	-10.0796
वू	-10.0798
▁बदलले	-10.0813
▁कॅ	-10.0817
▁रांत	-10.0822
▁पाहिली	-10.0842
▁घालण	-10.0849
▁सौ	-10.0868
▁चल	-10.0874
▁सारखी	-10.0892
▁असाव	-10.0899
▁रवेश	-10.0933
▁जवळच	-10.0936
मय	-10.0941
▁ठा	-10.0955
▁आणू	-10.0959
▁पोहोचल	-10.0961
संच	-10.0961
▁भावन	-10.0964
शिक	-10.0969
▁टीं	-10.0987
▁लढा	-10.099
▁उल	-10.1006
▁खोलीत	-10.1007
▁यासारख	-10.1021
▁साधे	-10.1024
▁आढळत	-10.1024
ाबाबत	-10.1043
▁राफि	-10.1058
▁हेतू	-10.1068
▁राहिल	-10.1075
▁मल	-10.1091
▁संकेत	-10.11
▁नवी	-10.11
▁लिंग	-10.1107
▁हायला	-10.1108
▁खेळाडू	-10.111
▁लेख	-10.1124
▁माहितीच	-10.1125
▁यवसायात	-10.1125
▁सगळी	-10.1149
▁चि	-10.1149
▁दाखवले	-10.1154
▁विड	-10.1178
▁वीज	-10.118
ामी	-10.1183
▁डो	-10.1184
▁शहरी	-10.1192
▁णांच	-10.1196
▁यकारक	-10.1196
▁वांना	-10.1214
▁ठेवायच	-10.1226
▁होई	-10.1244
▁संघ	-10.1262
▁जिव	-10.1272
▁डब	-10.1278
▁तुळ	-10.1298
▁निराश	-10.1298
▁ऑ	-10.1305
कृती	-10.1308
▁रुपय	-10.1316
▁रसंग	-10.1324
साधारण	-10.1325
तल	-10.1348
▁याकडून	-10.1349
▁भय	-10.1371
▁दुप	-10.1392
कड	-10.1395
▁कच	-10.1405
ारी	-10.1411
▁जाणवत	-10.1413
चूक	-10.1422
▁लागण	-10.1423
▁ओळखू	-10.1426
▁घेतलेल	-10.1426
ंप	-10.1428
▁मनाच	-10.1429
▁इंजिनियर	-10.1431
▁दुचाकी	-10.1431
▁पोशाख	-10.1431
▁सुदैव	-10.1431
▁परवानगी	-10.1431
▁अनोख	-10.1431
▁अहंकार	-10.1431
▁जंतू	-10.1431
▁भाषांतर	-10.1432
▁देणगी	-10.1433
▁अजुन	-10.1433
▁पवन	-10.1433
▁कचरा	-10.1434
▁वगैरे	-10.1434
▁गैर	-10.1434
विण	-10.1435
▁अभिया	-10.1439
▁रमा	-10.1439
▁आवडेल	-10.144
▁सगळीकडे	-10.1442
▁पडणार	-10.1443
▁झोपड	-10.1445
इतकी	-10.1447
कार	-10.1447
▁नेमक	-10.1451
बत	-10.1451
यन	-10.1456
▁निळ	-10.1457
▁असला	-10.1461
▁घालतात	-10.1462
ाळ	-10.1463
▁गरम	-10.1468
▁नसतील	-10.1469
▁यतेच	-10.147
२	-10.1471
▁अपंग	-10.1474
▁षणात	-10.1476
▁घडणार	-10.1478
▁समाधान	-10.149
▁छोटा	-10.1497
▁पहात	-10.1502
▁मीटर	-10.1519
▁याव	-10.1521
▁पितळात	-10.1529
▁मासे	-10.1534
एक	-10.1541
▁हटलं	-10.1543
▁वातावरणात	-10.1546
▁औषधांच	-10.1549
▁वेळे	-10.1576
▁सिंग	-10.1579
▁भक	-10.1598
▁मास	-10.161
▁मृती	-10.1616
बी	-10.1638
▁डेन	-10.1639
ेऊन	-10.1639
▁बनवा	-10.165
▁अफ	-10.1659
▁मि	-10.166
▁रतिम	-10.1666
▁सुक	-10.1668
ख	-10.1669
▁सांग	-10.167
▁टीत	-10.1675
▁हणायच	-10.1679
▁लिहू	-10.1682
३	-10.1684
▁गाव	-10.169
▁७०	-10.1691
▁यायचा	-10.17
▁कामाच	-10.1719
मागे	-10.1726
▁वारस	-10.1733
मारे	-10.174
ायचा	-10.1744
▁सस	-10.1746
वतात	-10.1759
▁जीवनात	-10.1761
▁काढता	-10.1766
भ	-10.1766
▁देशांत	-10.1771
▁लिक	-10.1771
ांश	-10.1776
कट	-10.1777
▁उपयोगी	-10.1778
▁षिक	-10.1791
ालीन	-10.18
▁सरासरी	-10.1841
▁अॅ	-10.1853
▁तेज	-10.1855
▁षमते	-10.1859
▁हुशार	-10.1865
▁समजल	-10.1876
▁जगभरात	-10.1888
▁थेच	-10.1888
▁जाई	-10.1898
▁तसा	-10.1903
▁नोंद	-10.1905
▁मिळालेल	-10.1907
▁विभाग	-10.1923
▁फुल	-10.1938
ूम	-10.1941
▁तमान	-10.1951
▁सुटक	-10.1967
▁यासारखी	-10.1972
▁कमीत	-10.1976
▁गरजा	-10.1983
▁पती	-10.1991
▁निरी	-10.2006
▁वाहन	-10.2013
▁सुधार	-10.2017
▁यातले	-10.2021
▁जमल	-10.2022
▁तविक	-10.2026
▁रु	-10.2038
▁ताकद	-10.2039
दित	-10.204
▁झाकण	-10.204
मन	-10.2053
▁फेक	-10.2058
णांना	-10.207
▁थना	-10.2079
▁ठरवले	-10.2115
▁बाटल	-10.2138
▁शोधू	-10.2144
▁९	-10.2178
▁शरीरा	-10.218
▁दु	-10.2197
मुख	-10.22
७	-10.2226
▁संघर	-10.223
▁ठिकाण	-10.2258
हि	-10.2263
▁काढू	-10.227
▁ताप	-10.2306
▁बसले	-10.2308
▁परक	-10.2319
शिल	-10.232
बाहेर	-10.232
▁बनवलेल	-10.2325
ंस	-10.2326
▁लावण	-10.233
▁मिळण	-10.233
ावयास	-10.2331
▁डेम	-10.2335
▁८०	-10.2336
हो	-10.2337
▁कामगिरी	-10.234
▁कुतूह	-10.234
▁रुमाल	-10.234
▁शांघाय	-10.234
▁सॉलोमन	-10.234
▁मोबाईल	-10.234
▁लिओन	-10.234
▁रूपांतर	-10.234
▁गंमत	-10.234
▁सुरेख	-10.234
▁करितो	-10.234
▁एकूण	-10.234
▁बेडूक	-10.234
▁जमीन	-10.2341
▁कैद	-10.2341
▁अभिमान	-10.2342
▁जोडण	-10.2342
▁रमानव	-10.2342
▁पारंपार	-10.2342
▁२१	-10.2342
▁सुरुवातीला	-10.2343
▁विशेषतः	-10.2343
▁रलोभन	-10.2345
▁पाठीवर	-10.2345
▁सादर	-10.2346
▁सलग	-10.2347
▁कुणाला	-10.2349
▁दिशा	-10.2349
▁काळा	-10.235
▁कडक	-10.235
▁देई	-10.2352
▁थापित	-10.2355
▁षांनंतर	-10.2356
▁पिढी	-10.2356
▁अभियंत	-10.2356
▁रिंटर	-10.2357
▁पडद	-10.2359
▁पोलिस	-10.2361
▁असतांना	-10.2366
▁पडतात	-10.2371
▁९९	-10.2373
मबर	-10.2375
▁जोरात	-10.2376
▁वृ	-10.238
▁विधी	-10.2381
▁बघायच	-10.2383
▁माफ	-10.2386
▁राहतात	-10.239
▁टेड	-10.2391
▁रतिरोधक	-10.2396
▁समर	-10.2401
▁बराच	-10.2405
▁दिसले	-10.2412
▁तपासणी	-10.2422
▁वयं	-10.2422
▁दिसतील	-10.2422
▁साक	-10.2426
▁लग	-10.2427
वारी	-10.2429
▁नोंदी	-10.243
▁एकट	-10.2448
▁देव	-10.2452
▁रपट	-10.2455
▁उठ	-10.2456
ंकडे	-10.2457
▁सुरवाती	-10.2471
▁सांगतात	-10.2473
लाईन	-10.2474
▁समजण	-10.2479
▁थाप	-10.2479
▁सामर	-10.2486
▁शाळेतील	-10.2489
▁सांगितली	-10.2493
▁हां	-10.2504
▁वागण	-10.251
▁वडिलांन	-10.254
▁संशोधक	-10.2542
ाट	-10.2543
▁चिक	-10.2552
▁को	-10.2585
▁वेग	-10.2586
▁धड	-10.2591
िज	-10.2595
▁पाद	-10.2598
▁कामात	-10.26
▁रिये	-10.2601
ानं	-10.2625
ांमुळे	-10.2625
▁हणे	-10.2626
▁हणा	-10.2639
▁माकड	-10.2647
▁आतून	-10.2659
▁सापडले	-10.2665
णी	-10.267
▁चालते	-10.2673
▁रेस	-10.2711
शील	-10.2714
▁इन	-10.2714
▁दोष	-10.2725
ेतील	-10.2726
िए	-10.2727
▁सारखा	-10.2731
▁शतकात	-10.2743
▁समूह	-10.275
▁एड	-10.2762
▁झांडर	-10.2771
▁रोते	-10.2773
▁ञानिक	-10.278
▁वैशि	-10.2781
▁उंदरां	-10.2799
▁दिवसात	-10.2804
चंद	-10.2812
▁नावाच	-10.2814
ोलीस	-10.2817
▁घे	-10.2837
▁बदलता	-10.2838
▁विचारा	-10.2841
▁युरोप	-10.2859
▁लागल	-10.286
▁रफीत	-10.2872
▁शाळे	-10.2872
ावस	-10.2874
▁बांध	-10.2876
यात	-10.2879
▁राय	-10.2889
▁येच	-10.2896
ीचे	-10.2918
▁खंड	-10.2943
▁गती	-10.2944
▁लेखिका	-10.2944
▁एल	-10.2955
▁आस	-10.2972
▁उभा	-10.2975
▁झाडांच	-10.2978
▁इतरां	-10.2983
▁गाडीत	-10.301
ान	-10.3014
▁तीने	-10.306
▁वसाहत	-10.3062
▁तपास	-10.3067
काळी	-10.3076
यची	-10.3079
▁गमावल	-10.3082
ुल	-10.3083
▁तिस	-10.309
▁वॉ	-10.309
▁सच	-10.3121
की	-10.3122
▁बाल	-10.3136
वस	-10.3143
▁कुठला	-10.3156
▁राहत	-10.3163
िया	-10.3164
▁भाषे	-10.3182
▁इत	-10.3184
दस	-10.3184
कुल	-10.3186
▁मोकळ	-10.3214
वतो	-10.3219
▁वरूप	-10.3225
▁निः	-10.3226
ाईट	-10.3232
▁नस	-10.3255
▁शासन	-10.3258
▁बाळा	-10.3259
▁यत	-10.3263
▁सहभाग	-10.3265
▁कोट	-10.3275
भागी	-10.3278
▁घातल	-10.3279
▁यूब	-10.3288
▁महाग	-10.3296
th	-10.3298
▁डा	-10.3299
▁रुप	-10.3306
▁लंड	-10.3309
▁वांच	-10.3333
▁बोला	-10.3334
▁बनण	-10.3336
▁गोंधळ	-10.3339
▁आभास	-10.334
▁टेडियम	-10.334
▁लवचिक	-10.334
▁कंटाळवाण	-10.334
▁अफगाण	-10.334
▁अहवाल	-10.334
▁गुंतवणूक	-10.334
▁रेरक	-10.3342
▁मांस	-10.3342
▁पदवीधर	-10.3343
▁नागरिक	-10.3344
▁षरश	-10.3347
▁कोठ	-10.3348
▁रधान	-10.3348
▁सांगायला	-10.3349
सॉफ़	-10.3349
तुलना	-10.3349
▁नेटवर	-10.335
▁रिंट	-10.3352
▁इलेक	-10.3353
▁जंगल	-10.3359
▁येकजण	-10.3359
▁दिसण	-10.3361
▁अहो	-10.3365
▁चिंता	-10.3367
▁बनली	-10.3368
▁रमाणावर	-10.3371
▁यथा	-10.3383
▁इंटरनेटवर	-10.3386
▁मिळतात	-10.3388
▁रिणी	-10.3388
▁वारा	-10.3389
▁षकांना	-10.3397
▁अगोदरच	-10.3399
▁टेट	-10.3402
▁एवढी	-10.3403
▁रफिती	-10.3403
▁चहा	-10.3404
▁टाकली	-10.3405
▁वाढतात	-10.3408
▁सभागृहात	-10.3413
▁गोल	-10.3418
▁याआधी	-10.3421
▁अमल	-10.3422
▁बीज	-10.3424
▁सभ	-10.3427
▁यमय	-10.3435
▁ऐकल	-10.3443
▁घडतं	-10.3446
▁फोनवर	-10.3452
▁मानस	-10.3456
▁शेजारी	-10.3458
▁जिम	-10.3458
▁आणलं	-10.346
▁कृतीचा	-10.347
▁राहिले	-10.3486
ीर	-10.3486
▁रवाह	-10.3502
▁लढ	-10.3506
▁रॉब	-10.3515
▁रतिकृत	-10.3519
▁A	-10.3527
▁सप	-10.3527
▁बा	-10.3528
▁मानल	-10.3538
▁यातना	-10.3554
▁गौ	-10.3556
▁बघाय	-10.3556
▁जनशीलत	-10.3587
▁सोन	-10.3588
▁विकाराच	-10.3589
याच	-10.359
रहित	-10.3595
▁सांगणे	-10.3606
ूट	-10.3612
▁मोन	-10.3615
▁हाळ	-10.3616
▁णता	-10.3618
▁रिकी	-10.3634
▁वांसाठी	-10.3638
▁राहिला	-10.3661
▁माल	-10.3662
▁टप	-10.3678
▁सक	-10.3683
▁बि	-10.3683
▁कोणतं	-10.3684
▁बघितल	-10.3696
▁नॉ	-10.3703
▁पुरुषां	-10.3724
मते	-10.3729
गा	-10.373
ेरी	-10.3742
▁वेड	-10.3753
▁शिकू	-10.3761
▁शकल	-10.3761
▁बदलला	-10.3762
▁हिस	-10.3773
▁इथ	-10.3781
९	-10.3781
▁छोटे	-10.3788
▁दम	-10.3795
पन	-10.3802
▁जाळी	-10.381
▁शहरात	-10.3812
ीवर	-10.3821
▁तुझा	-10.383
ॉस	-10.3835
▁उदय	-10.3845
▁मो	-10.3854
▁थंड	-10.3879
भार	-10.3886
▁तोड	-10.3889
▁येथ	-10.3895
ेतून	-10.3908
थन	-10.3924
▁खेळण	-10.3931
▁निया	-10.3934
रिक	-10.3937
▁काळी	-10.3943
▁डच	-10.3952
▁सराव	-10.3959
▁केव	-10.3973
ांचं	-10.3979
▁चात	-10.3981
ळून	-10.3985
▁घन	-10.399
वंत	-10.3994
▁किरण	-10.3999
▁पेर	-10.4012
▁एकमेकांश	-10.4017
कांक	-10.4034
▁ओळखण	-10.4036
▁टिन	-10.4042
▁गाड	-10.4046
▁हतो	-10.4057
▁थाने	-10.4061
▁आठव	-10.4062
▁पनांच	-10.4063
▁नदी	-10.4083
▁आजूबाजू	-10.4087
ांप	-10.4102
▁मयकारक	-10.4114
▁यासारखा	-10.4118
▁शिकवू	-10.4125
▁गेलेल	-10.4134
चक	-10.4137
▁वावर	-10.4143
▁हिड	-10.4143
पाट	-10.4181
▁जपान	-10.4185
ुवर	-10.4214
▁जबाबदार	-10.4231
▁कॉलेज	-10.4242
▁थळ	-10.4244
▁रोगाच	-10.4248
▁कायद	-10.4261
▁राहा	-10.4262
▁वळण	-10.4263
▁वरच	-10.4266
▁कोर	-10.4289
▁भिंत	-10.4291
▁वल	-10.4295
ीसाठी	-10.4297
▁मुलां	-10.4299
▁गोळ	-10.4311
▁गरजेच	-10.4321
I	-10.4326
संशय	-10.4332
पद	-10.4333
▁गुंतागुंतीच	-10.4337
▁वाढू	-10.434
T	-10.4342
काल	-10.4348
▁बोट	-10.4348
किवा	-10.436
▁ठेव	-10.4363
▁रियांच	-10.4371
नीय	-10.4384
▁उंच	-10.4387
▁भपात	-10.4393
▁बहिणी	-10.4398
▁आजोबा	-10.4403
माणु	-10.441
▁राहणार	-10.441
▁महिलांन	-10.4413
▁जायच	-10.4434
▁रगत	-10.4438
▁पडण	-10.4438
▁मिळू	-10.444
▁साधण	-10.4443
▁कोपनहेगन	-10.4443
▁ऐकू	-10.4445
▁अना	-10.4448
▁वाढवत	-10.4449
▁टाकण	-10.445
▁निरनिराळ	-10.4451
▁भांडवल	-10.4451
▁मोटर	-10.4451
▁हॉटेल	-10.4451
▁इबोला	-10.4452
▁जादू	-10.4452
▁संरचना	-10.4452
▁साथीदार	-10.4453
▁नानो	-10.4453
▁अनुकरण	-10.4453
▁१६	-10.4453
▁योनी	-10.4454
▁लेषण	-10.4454
▁साजर	-10.4454
ावा	-10.4454
▁कोरम	-10.4455
▁अजि	-10.4455
▁सुचली	-10.4455
नंदिन	-10.4456
▁चौथ	-10.4456
▁राझील	-10.4456
▁डिव	-10.4457
▁गुरु	-10.4459
▁सीमा	-10.4459
▁अनुसर	-10.446
▁कामगार	-10.446
▁दीड	-10.4461
▁शाळांमध	-10.4462
▁जणु	-10.4462
▁उगम	-10.4464
वणी	-10.4466
▁यमातून	-10.4467
▁लिहिलं	-10.4468
▁नीट	-10.4469
▁मौल	-10.4469
▁टाटा	-10.4473
▁लंडन	-10.4473
▁वेब	-10.4477
▁एकाकी	-10.4484
▁मिनिटात	-10.4487
▁यटन	-10.4488
▁अतिस	-10.4491
▁टाकलं	-10.4499
▁सॉफ	-10.4502
▁पेशींची	-10.4509
▁वाह	-10.4509
▁ऑर	-10.451
▁यामुळ	-10.4511
ंबर	-10.4513
▁लिहाय	-10.4518
▁फॉर	-10.452
▁वाटण	-10.4528
▁तेवढे	-10.4538
▁वाग	-10.4545
▁पायरी	-10.4549
▁नास	-10.4553
▁यापीठाच	-10.4559
▁पडेल	-10.4561
▁बनला	-10.4567
▁दरवाजा	-10.4573
▁जुळव	-10.4578
▁बाई	-10.4586
▁लि	-10.459
▁जोडलेल	-10.4594
▁दोघ	-10.4603
ूत	-10.4608
▁एमी	-10.4625
वण	-10.4626
मस	-10.4627
▁गरिबी	-10.4629
▁हावी	-10.463
▁बघितलं	-10.4633
▁यस	-10.4639
▁वरती	-10.464
▁बोलणं	-10.4655
▁युस	-10.4668
▁एकटे	-10.4669
▁होताना	-10.4669
▁सहली	-10.4679
ृश	-10.468
▁उजळ	-10.4682
▁मुस	-10.4686
▁रेषे	-10.4687
▁बे	-10.4696
▁पोह	-10.4711
▁दाखवू	-10.4722
याचा	-10.4729
था	-10.4733
▁भरलेल	-10.4757
डेल	-10.4761
▁जिवाणूं	-10.4768
यंत	-10.4769
▁यादीत	-10.4772
▁लुकोजच	-10.4772
▁संकट	-10.478
▁काढले	-10.4784
दुमडा	-10.4805
▁संपल	-10.4814
▁खालच	-10.4821
▁फारस	-10.484
▁मिसळ	-10.4849
▁पोटात	-10.485
▁दे	-10.4852
▁निघाल	-10.4872
लेल	-10.4876
▁रोच	-10.4877
सोबत	-10.4878
▁काप	-10.4903
वावे	-10.4906
▁सापडत	-10.4907
वास	-10.4915
रात	-10.4918
▁गावर	-10.492
▁माहितीय	-10.4924
टी	-10.4928
▁जिंक	-10.494
▁बनव	-10.4948
▁आवडीच	-10.4953
ंडर	-10.4965
▁बै	-10.498
नि	-10.4982
▁थक	-10.4986
▁जागे	-10.4997
▁बाबी	-10.5006
▁आशिया	-10.5011
▁चालल	-10.5016
▁पुरेश	-10.5018
▁बंदी	-10.5019
▁सेल	-10.5026
ुर	-10.5032
▁मेल	-10.5034
▁करुणेच	-10.5047
▁साल	-10.5049
▁रणे	-10.505
▁जाग	-10.5055
▁विमान	-10.5112
▁रमाणेच	-10.5122
▁पोहच	-10.5129
▁भावने	-10.5133
▁फत	-10.5137
▁लावू	-10.514
▁रकरण	-10.5173
▁पोहण	-10.5174
बात	-10.5175
▁दाखविण	-10.5175
▁आहार	-10.5176
खुर	-10.5181
▁दिवा	-10.519
▁चिकट	-10.5196
▁रांच	-10.5202
▁जीवाणूंचा	-10.5205
▁फळ	-10.5218
▁रहा	-10.523
▁बनवि	-10.5232
सामान	-10.5235
लाल	-10.525
▁पटव	-10.5257
▁घालू	-10.5271
ंती	-10.5294
▁असलं	-10.5298
अर	-10.53
ेचा	-10.5308
दृश	-10.5321
▁तयारी	-10.5322
▁रेष	-10.5322
▁लिखाण	-10.5325
▁पिल	-10.5333
▁मद	-10.5343
ाकडून	-10.5345
▁यपद	-10.5351
▁यावरच	-10.5354
▁विसर	-10.5357
▁वीकारल	-10.5379
▁हाय	-10.538
▁फाय	-10.5408
थम	-10.5432
णारी	-10.5434
▁हून	-10.5437
▁बघता	-10.5437
▁नेले	-10.546
▁कान	-10.546
▁पकडू	-10.5462
▁मानत	-10.5468
▁बांधाय	-10.547
▁यापक	-10.5473
▁सोड	-10.5478
▁ठि	-10.5491
ाव	-10.5499
▁पाह	-10.5501
▁लॉ	-10.5516
▁संगणकाच	-10.5516
▁लाव	-10.5518
घात	-10.552
▁ञांच	-10.5522
▁सापडल	-10.5533
▁एकटी	-10.5551
▁पायांच	-10.557
▁बनविल	-10.5576
▁सचे	-10.5579
▁छे	-10.5585
▁जेवण	-10.5586
▁अनुकंप	-10.5586
▁विषाणू	-10.5587
▁जातील	-10.5591
▁राजकारण	-10.5591
डून	-10.5591
▁मांडत	-10.561
▁थर	-10.5611
करता	-10.5624
▁सगळा	-10.5629
▁रतिरोध	-10.5633
वांश	-10.5636
फर	-10.5638
▁दै	-10.5642
▁ठरवता	-10.5647
▁शिकत	-10.5649
ाबाहेर	-10.5653
▁आधीच	-10.566
▁नुकसान	-10.5663
▁खेळू	-10.5664
▁गव	-10.5668
▁संध	-10.5675
▁जोडले	-10.568
▁३००	-10.5681
▁फुट	-10.5686
▁वाढवण	-10.5687
▁जखम	-10.569
तू	-10.5699
▁आसपास	-10.5701
▁गूगल	-10.5701
▁थेरेसा	-10.5701
▁मुलाखत	-10.5701
▁ओबामा	-10.5701
▁सहकाऱ	-10.5701
▁जलपरी	-10.5701
▁इंजिन	-10.5701
▁रामाणिक	-10.5702
▁डिग	-10.5702
▁बुडबुड	-10.5702
▁मंचावर	-10.5702
▁रोजगार	-10.5703
▁७५	-10.5704
▁केवारी	-10.5707
▁भयंक	-10.5708
▁जनुक	-10.5708
▁चुका	-10.5708
▁पोषण	-10.5709
▁उशीर	-10.5709
▁तुविशारद	-10.571
▁याकरिता	-10.571
▁सूचना	-10.571
▁घोषण	-10.5711
▁३२	-10.5711
▁ठरवतो	-10.5712
▁उम	-10.5712
▁खाद	-10.5714
▁याजोग	-10.5716
▁अंमल	-10.5717
ed	-10.5718
▁भेद	-10.5718
▁गृहीतक	-10.5719
▁कहाणी	-10.572
▁विविधता	-10.572
▁हवाई	-10.572
▁करेन	-10.5722
शामक	-10.5722
▁डिस	-10.5722
▁संवेदनशील	-10.5725
नाचा	-10.5725
▁कशासाठी	-10.5728
▁साडे	-10.5729
▁युरोन	-10.5731
▁जबर	-10.5732
▁संर	-10.5732
▁मोजण	-10.5733
▁राहतील	-10.5738
▁वनस	-10.5738
a	-10.5738
वार	-10.5739
▁बांबू	-10.5741
▁सावली	-10.5742
▁कोरड	-10.5743
▁सोडवण	-10.5745
▁बसतो	-10.5746
▁बिंदू	-10.5755
▁बनवला	-10.5755
▁आठवते	-10.576
▁रियांना	-10.5762
▁संशोधनात	-10.5767
▁ठेवतात	-10.5767
▁जोडप	-10.5767
▁मुळ	-10.577
▁आळ	-10.5771
▁बसल	-10.5775
ाई	-10.5777
▁बनवून	-10.578
▁रतिकार	-10.5792
▁दाखवणार	-10.5793
▁मिळतील	-10.5795
▁वेष	-10.5796
▁तुन	-10.5799
▁चालणार	-10.58
▁चलन	-10.5802
▁खाता	-10.5802
▁महिलांच	-10.5803
▁शोधले	-10.5803
▁नाकार	-10.5807
ेने	-10.5808
▁इथं	-10.581
▁रं	-10.5814
▁ठरते	-10.5818
▁यायामाच	-10.582
▁बोलायच	-10.5823
an	-10.5825
▁लू	-10.5833
▁रोजच	-10.5841
▁कळतं	-10.5844
▁खड	-10.5845
▁राहता	-10.5847
▁महात	-10.5847
▁रेल	-10.5849
▁संल	-10.5853
▁नसाव	-10.5853
▁बंधन	-10.5858
पल	-10.586
▁आढळते	-10.5864
▁बाजार	-10.5866
▁उजव	-10.5866
▁जायची	-10.5867
▁सवयी	-10.5868
▁लंडमध	-10.5869
▁हायचे	-10.5873
▁शोधत	-10.5877
▁दिवसभर	-10.5879
▁ठरत	-10.5885
▁पहायच	-10.5889
▁पनेच	-10.589
▁डॅनि	-10.5894
पाशी	-10.5899
▁बसला	-10.5903
▁शिकव	-10.5906
एन	-10.5913
▁अंगठे	-10.5915
नात	-10.592
ुळीच	-10.5928
▁भा	-10.5929
तलं	-10.593
▁शोधा	-10.5933
ारा	-10.5937
▁मोजता	-10.594
▁नाते	-10.5941
▁मिळव	-10.5942
सेल	-10.5942
▁शिकवल	-10.5949
▁पसरत	-10.5961
▁रोम	-10.5961
विडी	-10.5964
▁दडलेल	-10.5968
▁अटका	-10.5968
▁अट	-10.5973
▁तुरुंग	-10.5982
▁सब	-10.5988
ाउन	-10.5988
ाईन	-10.6002
▁ञानाची	-10.601
▁बाटली	-10.6013
मुक	-10.6015
▁जागेत	-10.6022
▁शेवटचा	-10.6032
▁मिस	-10.6063
▁लिपीच	-10.6082
ाब	-10.6084
▁पेन	-10.6092
▁राव	-10.6097
▁वापरु	-10.6098
जैविक	-10.6098
वेळा	-10.6101
▁तिकड	-10.6109
▁पि	-10.6112
▁ऐवजी	-10.6124
▁वापरणार	-10.613
▁आजूबाजूच	-10.613
l	-10.6136
▁नदीच	-10.6144
▁रेषित	-10.6149
▁शिकतो	-10.6153
▁मंत	-10.6156
▁उचक	-10.6158
▁जागतिकीकरण	-10.6161
िओ	-10.617
▁ऐकत	-10.6202
▁ठरवण	-10.6203
▁संयु	-10.6217
रदर	-10.6222
▁पेले	-10.6225
▁असणे	-10.6225
▁फल	-10.6232
सून	-10.6233
ेशन	-10.6245
▁बांधले	-10.625
▁वयात	-10.6255
मुद	-10.6255
▁आहाराच	-10.6257
▁घराच	-10.6268
▁टाकू	-10.627
▁धार	-10.627
▁दिसल	-10.6273
ांनो	-10.6289
▁कट	-10.6322
▁घडवू	-10.6324
▁माणसांच	-10.6329
▁किट	-10.6331
लेय	-10.6332
जी	-10.6332
ीव	-10.6333
▁खोटे	-10.6338
▁हिंस	-10.6356
▁शिकविल	-10.6382
▁भरत	-10.6409
▁हुशारी	-10.6409
सूत	-10.6414
▁याभोवती	-10.6414
▁राख	-10.6421
▁दाखविल	-10.6426
बर	-10.6446
▁जनशील	-10.645
लेला	-10.646
▁रता	-10.6461
▁वेल	-10.6493
▁चालवत	-10.6519
▁तिश	-10.652
डे	-10.653
रताहेत	-10.6532
▁संघटनां	-10.6536
▁गे	-10.6537
मूर	-10.6538
▁टींच	-10.6538
▁भूत	-10.6567
▁शव	-10.6573
▁दुख	-10.6577
▁पौंड	-10.6577
▁धु	-10.6581
▁बसत	-10.6594
▁बेट	-10.66
▁पान	-10.6602
▁बदलणार	-10.6621
▁णाच	-10.6628
▁साधा	-10.6638
▁विचारसरणी	-10.6643
▁डर	-10.6644
▁बांधकाम	-10.6661
▁तुत	-10.6663
▁मोल	-10.6678
▁मांड	-10.6681
ोडून	-10.6691
▁बला	-10.673
▁बो	-10.6736
▁कीटक	-10.6742
li	-10.6744
▁भावनांच	-10.6744
लिस	-10.6749
ांसारखा	-10.6763
▁रॉ	-10.6772
▁बनू	-10.6805
▁भूमिक	-10.6808
▁मनोर	-10.6826
याचे	-10.6831
▁नकार	-10.6834
ीतून	-10.6835
वेळ	-10.6852
▁वचन	-10.6852
▁खुणा	-10.6853
▁नाश	-10.6864
▁टाई	-10.6865
▁विचारला	-10.6869
▁एज	-10.6879
▁गृह	-10.688
णा	-10.6886
▁समूहात	-10.6889
▁लाग	-10.6892
n	-10.6897
▁टा	-10.6907
सल	-10.6913
▁तेजना	-10.6917
▁लावले	-10.6928
▁बाय	-10.6932
▁जाणत	-10.6938
ेपर	-10.6942
▁दरवाज	-10.6973
पुरवठा	-10.6974
▁रदेश	-10.6988
▁बाजारपेठ	-10.6993
▁वारंवार	-10.6993
आप	-10.6998
वाधिक	-10.7
▁लाय	-10.7003
▁तार	-10.7008
▁चुकव	-10.7009
बाह	-10.7013
▁भास	-10.7015
उलट	-10.702
▁सेटि	-10.7036
▁टीवर	-10.7038
ामाग	-10.7039
▁नेम	-10.7043
▁पातळ	-10.7046
ेसाठी	-10.7057
▁पुरव	-10.7067
▁उंची	-10.7079
▁धावण	-10.7084
▁मानण	-10.7088
▁फेड	-10.7091
रे	-10.7096
ॉलॉज	-10.7099
ऊन	-10.7099
विचार	-10.7108
▁फिर	-10.7109
▁घडवण	-10.7113
▁पितळ	-10.7114
▁लेखन	-10.7119
▁देशां	-10.7124
▁नागर	-10.7128
ro	-10.7129
▁अवैध	-10.713
▁गृहपाठ	-10.713
▁फिशरी	-10.713
▁फेसबुक	-10.713
▁रॅगन	-10.713
▁लँगले	-10.713
▁लिहिण	-10.713
▁वैचारिक	-10.713
▁हिपोक	-10.713
▁आकृतीबंध	-10.713
▁वाभाविक	-10.713
▁बुरशी	-10.713
▁फुटबॉल	-10.713
▁मिनीट	-10.713
▁आजीबाई	-10.713
▁इंधन	-10.713
▁कालावधी	-10.713
▁औषधोपचार	-10.713
▁कॅलिफ	-10.713
▁संकुच	-10.713
▁कारखान	-10.713
▁नशीब	-10.713
▁कबुली	-10.713
▁खेद	-10.713
▁यासपीठावर	-10.7131
▁जाहीर	-10.7131
▁खांद	-10.7131
▁रतिबंध	-10.7131
▁मागणी	-10.7132
▁देशाबाहेर	-10.7132
▁सिको	-10.7132
▁अलिया	-10.7133
▁दाखविते	-10.7133
▁रतिभा	-10.7134
▁मशीन	-10.7134
▁दाखवण	-10.7135
▁टवेअर	-10.7135
▁वाघ	-10.7136
▁रियाशील	-10.7136
▁मिथ	-10.7137
▁शुभ	-10.7139
▁पियर	-10.714
▁एपल	-10.714
▁करोडो	-10.7141
▁उध	-10.7141
▁पोषक	-10.7141
▁पालन	-10.7141
▁नसण	-10.7142
▁भाषांमध	-10.7142
▁थेमध	-10.7143
▁तवाहिन	-10.7144
▁चतुर	-10.7144
▁चौकस	-10.7144
▁संवेदक	-10.7144
▁घडेल	-10.7145
नशील	-10.7145
▁अॅप	-10.7145
▁निराळ	-10.7147
ंनंतर	-10.7148
▁झुक	-10.7149
▁टोपी	-10.715
▁चेता	-10.7154
▁शत	-10.7155
▁विभाज	-10.7157
▁मंद	-10.7158
▁१३	-10.7159
▁पाळल	-10.716
▁हाताळण	-10.716
▁सेवे	-10.7162
डोई	-10.7162
▁पालकांना	-10.7166
▁दाखल	-10.7166
▁पुनः	-10.7169
▁कलाकार	-10.717
▁यतीत	-10.7171
▁अंक	-10.7177
▁शरीरावर	-10.7178
ॅटिन	-10.7181
▁संपादक	-10.7183
▁टरांना	-10.7184
▁ठरलं	-10.7188
▁मानतात	-10.7195
▁येकास	-10.7195
▁ओक	-10.7198
▁छता	-10.72
▁जम	-10.7205
▁वडिलांच	-10.7205
on	-10.7206
▁भपाता	-10.7208
▁याबाबतीत	-10.7208
▁बघतो	-10.7211
▁कोक	-10.7213
जिक	-10.7215
▁ययन	-10.722
▁रीम	-10.7224
▁ताच	-10.7225
▁दरम	-10.7236
▁एकसारखे	-10.7237
▁बदललं	-10.7241
▁तळ	-10.7243
▁सिस	-10.7245
▁जपानी	-10.7247
▁उस	-10.7251
▁दाट	-10.7256
ांसोबत	-10.7265
ैंड	-10.7266
▁तणावा	-10.7271
▁ओह	-10.7272
▁वाढली	-10.7275
▁हायचं	-10.7276
▁घेई	-10.7278
▁ऐकलं	-10.728
▁ऐकली	-10.7283
▁गि	-10.7285
▁हु	-10.7287
▁भात	-10.7292
▁येकाला	-10.7298
▁कायदे	-10.7298
▁ठेऊ	-10.73
▁महिले	-10.7302
▁टेरिया	-10.731
▁मचार	-10.7312
▁गुणव	-10.7318
▁शिकवायच	-10.7321
▁विचारू	-10.7325
▁हापासून	-10.7335
▁पडू	-10.7343
▁हणायचं	-10.7343
▁मुळात	-10.7347
▁राध	-10.7358
यावर	-10.736
▁आईला	-10.7365
▁जेम	-10.7367
▁मिश	-10.7367
▁वाणीच	-10.7373
▁रावर	-10.7373
▁भासत	-10.7382
▁घोडे	-10.7382
▁जाणता	-10.7392
▁बरंच	-10.7394
▁कोन	-10.7415
▁रचल	-10.7425
▁शतकाच	-10.7435
▁मुलांचं	-10.7436
मेळ	-10.744
▁दशक	-10.7445
लोड	-10.7446
▁गोड	-10.7446
▁रोक	-10.7447
▁जड	-10.7449
▁छोटास	-10.747
ासारखा	-10.7473
टन	-10.7484
▁लोळ	-10.7491
▁छप	-10.7501
▁शाळांत	-10.7506
▁अनेकांन	-10.7507
▁युनि	-10.751
रस	-10.7514
ुत	-10.7515
लेट	-10.7529
▁आणणार	-10.7529
▁पडली	-10.7538
▁लॅ	-10.7544
▁अमेरिका	-10.7558
▁अं	-10.7567
▁जगभरातल	-10.7573
▁रति	-10.7588
माई	-10.7594
▁घडू	-10.7595
ांक	-10.7601
▁यादा	-10.7607
ाम	-10.761
टार	-10.7618
▁पेनिसिलीनच	-10.7621
▁किमती	-10.7636
▁वाचण	-10.7654
▁वाढले	-10.7655
▁थांबू	-10.7667
▁बेत	-10.7674
▁रेणूंच	-10.7691
▁चौक	-10.7692
डीच	-10.7718
▁ठेवता	-10.773
▁वेत	-10.7734
▁वापरला	-10.7736
वळ	-10.774
▁अपघात	-10.7743
▁शी	-10.7745
▁ऐकले	-10.7745
▁सोडल	-10.7752
▁उदा	-10.7756
▁पाहणी	-10.7758
मेल	-10.7771
▁पैशाच	-10.7779
▁हवामान	-10.7781
हायला	-10.7782
▁चम	-10.7792
▁आजी	-10.7795
▁टीव	-10.7798
▁पोच	-10.7808
वणार	-10.7824
d	-10.7833
▁दिन	-10.7835
जित	-10.7843
▁मातीच	-10.7844
तीन	-10.7857
▁सज	-10.786
कीच	-10.7869
▁योजक	-10.7869
▁ठरव	-10.7875
▁तारा	-10.7875
▁दुकानात	-10.7877
याला	-10.7877
ापाशी	-10.7878
▁डॉलरच	-10.788
▁साकार	-10.7891
▁टाका	-10.7912
▁आवडण	-10.7915
▁तकाच	-10.7921
▁घातले	-10.7923
ंजे	-10.7924
वलं	-10.7926
िरा	-10.7928
▁रचनेच	-10.7953
▁तरावर	-10.7967
ाबरोबर	-10.7976
▁रेन	-10.7982
▁गार	-10.7989
▁हाताच	-10.7998
▁ओल	-10.8012
▁वाटचाल	-10.8038
▁विभागात	-10.8045
▁नीच	-10.8054
तेची	-10.806
▁बरा	-10.8062
▁आवडले	-10.8083
▁चालता	-10.8092
▁सिंह	-10.8097
ायच	-10.81
▁भेटल	-10.8102
▁धिम	-10.8106
▁धाडस	-10.8117
▁घातलेल	-10.8125
▁एवढ	-10.8132
कारी	-10.8137
in	-10.8137
▁यवहार	-10.8139
▁ताक	-10.8149
▁बोलले	-10.8153
गार	-10.8183
▁हानी	-10.8186
ेची	-10.8196
बू	-10.8205
▁जैव	-10.8215
▁विकण	-10.8232
वात	-10.8232
▁जगत	-10.8234
▁सुखाच	-10.8235
▁शिकता	-10.8243
▁दिवसा	-10.8265
▁नाच	-10.8269
▁वाल	-10.8269
▁नराधम	-10.8275
▁अडक	-10.8279
▁दरवेळ	-10.8294
विले	-10.8297
ंक	-10.8307
▁कुटुंबा	-10.8308
▁साथ	-10.8309
जाती	-10.8312
इ	-10.832
▁हसता	-10.834
ाजवळ	-10.8353
▁तितक	-10.8358
चंब	-10.8359
▁रकाशाच	-10.8363
▁गावात	-10.8363
▁जहाज	-10.8365
▁वान	-10.8378
ुप	-10.8379
पथ	-10.8382
▁यापीठ	-10.8389
वले	-10.8392
▁वाढी	-10.8398
▁सायकली	-10.8402
▁मोटार	-10.8403
दान	-10.8415
डार	-10.8433
▁इतरांच	-10.8442
रूक	-10.8449
ॉक	-10.8477
▁सुधारण	-10.849
▁परदेश	-10.8506
▁घडवत	-10.851
मधल	-10.8541
▁देशाच	-10.8546
▁चमक	-10.8546
▁खू	-10.8554
▁कृतीच	-10.8566
▁शिकला	-10.8566
ाकृती	-10.8575
गो	-10.8581
▁बंध	-10.8588
जनक	-10.8596
▁नवल	-10.8603
काम	-10.861
▁किमत	-10.861
वट	-10.8611
िध	-10.8619
णीय	-10.8619
▁टच	-10.8643
ीमध	-10.8644
▁भल	-10.8656
विध	-10.8678
▁कृतीत	-10.8682
or	-10.8688
▁शिकार	-10.8689
थळ	-10.8689
खोल	-10.869
▁कायमच	-10.8691
▁कंपनीत	-10.8692
मीटर	-10.8695
▁मेहनत	-10.8698
पुराव	-10.8699
शिंग	-10.8699
निक	-10.8703
▁येकाच	-10.8708
▁कपड	-10.871
▁साधू	-10.8718
गी	-10.8721
थर	-10.873
▁तूंच	-10.8737
बंदी	-10.874
मिर	-10.8744
▁एकप	-10.8751
▁भेटी	-10.8752
मूह	-10.876
▁यावरण	-10.8767
▁अभि	-10.8769
▁रभावी	-10.8779
रॉक	-10.8786
▁ठेवू	-10.8787
बाद	-10.879
▁ठेवाय	-10.879
▁घालता	-10.8793
▁घकाळ	-10.8795
टुंबि	-10.8796
▁एफडीए	-10.8796
▁डेटाबेस	-10.8796
▁तमैथुन	-10.8796
▁परिचारिका	-10.8796
▁पॉल	-10.8796
▁फेसबूक	-10.8796
▁बिघाड	-10.8796
▁राणवायू	-10.8796
▁समागम	-10.8796
▁समांतर	-10.8796
▁भाकीत	-10.8796
▁डझन	-10.8796
▁सफाई	-10.8796
लंघन	-10.8796
▁पुटर	-10.8797
▁दहशतवाद	-10.8797
▁रांगेत	-10.8797
▁तपशील	-10.8797
▁बळकट	-10.8797
▁वॉशिंग	-10.8797
▁भागीदार	-10.8797
▁समीक	-10.8797
▁मतभेद	-10.8797
ैम	-10.8797
▁छुप	-10.8798
▁शवितो	-10.8798
▁खोटेपणा	-10.8798
▁सैनिक	-10.8798
▁खुश	-10.8798
▁नफा	-10.8798
▁सहयोग	-10.8799
▁हिंदू	-10.8799
▁विकारा	-10.8799
▁जाणवणार	-10.8799
▁खुप	-10.88
IS	-10.8802
▁गुड	-10.8802
▁विरळ	-10.8803
▁अपवाद	-10.8803
▁अंधारात	-10.8804
ूढ	-10.8804
▁हिडीओ	-10.8805
▁ठोस	-10.8806
▁भिंग	-10.8807
▁एकरुप	-10.8807
▁दयाळू	-10.8808
▁लाउड	-10.8808
सांधा	-10.8808
▁आचार	-10.8808
▁ओझ	-10.8808
▁तपासली	-10.8809
▁डाण	-10.881
▁लहानपणी	-10.881
▁घराबाहेर	-10.8811
▁रतीक	-10.8812
▁डिंग	-10.8814
▁मुलांबरोबर	-10.8815
▁नेहेमी	-10.8818
▁कोणास	-10.8818
▁पायाच	-10.882
▁जाणवले	-10.882
▁फिया	-10.8823
▁टाकतात	-10.8823
▁पाडण	-10.8824
▁जाणवतो	-10.8824
▁बसण	-10.8829
▁सोडण	-10.883
▁बॅग	-10.883
▁गरजूं	-10.8833
▁खाजगी	-10.8834
▁शिर	-10.8836
▁शेजारच	-10.8836
▁झाडावर	-10.8836
▁ऑन	-10.8838
▁आंब	-10.8839
▁मिलि	-10.8843
▁वितीय	-10.8844
▁युगा	-10.8844
▁फिला	-10.8845
▁बागे	-10.8846
▁मिळवून	-10.8849
▁करिता	-10.885
▁यूज	-10.885
▁बालक	-10.885
▁मॅक	-10.8851
▁गुपित	-10.8852
▁हिरवा	-10.8852
▁बोध	-10.8853
▁नाटक	-10.8855
▁सामाव	-10.8856
▁टॅन	-10.8859
▁खाऊ	-10.886
▁नायक	-10.8862
▁परिसरात	-10.8863
▁पौर	-10.8864
▁गीकरण	-10.8864
▁शोषण	-10.8871
▁तासात	-10.8875
▁भूतकाळा	-10.8876
▁नमू	-10.8878
ांसह	-10.8879
ाऊस	-10.8881
▁कोप	-10.8881
▁सभेत	-10.8883
▁परवडत	-10.8884
▁जाहिराती	-10.8884
▁बनवाय	-10.8888
▁अकरा	-10.889
▁चालतो	-10.8897
▁चाललं	-10.8899
▁मिळून	-10.8902
▁आकाशात	-10.8904
▁धंद	-10.8908
▁नुसतं	-10.8913
▁बोलून	-10.8914
▁चौकटी	-10.8918
▁अनुमान	-10.8924
ेज	-10.8926
ंतप	-10.8929
▁ताबा	-10.8935
▁लावली	-10.8937
▁पसरल	-10.894
▁याशिवाय	-10.8942
▁वाचता	-10.8944
▁पुरवठा	-10.8944
▁लाट	-10.8946
▁लागार	-10.8947
▁तितके	-10.8949
▁रकट	-10.8951
▁खेच	-10.8954
▁समध	-10.896
▁l	-10.896
▁निवडल	-10.8964
▁पाहूया	-10.8965
▁धारण	-10.8965
▁कूल	-10.8966
▁तितकं	-10.8968
▁सोश	-10.8969
▁हवेच	-10.8973
▁मूड	-10.8975
▁गोळी	-10.8977
▁थापक	-10.8983
▁खुर	-10.8986
▁जीवस	-10.8989
▁उदार	-10.8993
▁आईस	-10.8995
▁मोजमाप	-10.8995
▁तितका	-10.8998
▁थांबा	-10.9015
▁हसतो	-10.904
▁बळ	-10.9048
▁बोल	-10.9053
▁बांधण	-10.9066
▁सुटल	-10.9066
▁उपहारगृहा	-10.9072
▁पनेत	-10.9074
▁वाहने	-10.9084
▁मेन	-10.9089
विषय	-10.9094
▁विचारते	-10.9102
▁तितकी	-10.9103
करी	-10.9107
ुला	-10.9107
▁सामु	-10.9107
वेळेस	-10.9108
आ	-10.9116
▁छिते	-10.9119
▁जसजश	-10.9119
पक	-10.9143
▁रूपात	-10.9151
गुत	-10.9153
▁1	-10.9158
▁ठरलेल	-10.9166
▁विचारात	-10.9169
▁कळते	-10.9175
ीकारक	-10.9179
▁राहायच	-10.918
▁सचा	-10.9184
▁आजवर	-10.919
▁दाखवायच	-10.919
▁घडल	-10.9217
पुस	-10.9218
▁आगीच	-10.9221
▁हृदयाच	-10.9224
ापुरत	-10.9225
▁रांतीच	-10.9231
िट	-10.924
▁तरं	-10.9244
▁यासात	-10.9247
▁टाकत	-10.926
▁निद	-10.9264
▁शिखर	-10.9269
▁णात	-10.9271
▁गरजे	-10.9283
▁शासना	-10.9284
▁करुणे	-10.929
▁वापरलेल	-10.9291
▁टाकल	-10.9299
▁ऑफिस	-10.9302
गर	-10.9305
युद	-10.9325
▁गज	-10.933
▁रोन	-10.9334
▁वचा	-10.9342
▁युए	-10.9346
▁तेजन	-10.9348
▁गाण	-10.9349
▁षान	-10.9351
▁मोह	-10.9377
▁माणसाच	-10.9384
▁रवाहा	-10.9384
▁सांस	-10.9404
▁१९७	-10.9407
ायब	-10.9407
▁टो	-10.9412
▁पसरव	-10.9427
▁आणत	-10.9432
▁मनो	-10.9434
▁महासागरा	-10.9434
▁जुने	-10.9435
▁पहाता	-10.9439
▁घेवू	-10.9446
▁घालवल	-10.9453
▁लस	-10.9453
▁पोचल	-10.9457
ायक	-10.9474
▁माणसं	-10.9476
▁लाभ	-10.9481
▁मोलाच	-10.9493
▁ओलांड	-10.9493
▁कुठले	-10.9497
▁मादी	-10.95
▁रवासाच	-10.9513
▁सजीव	-10.9513
▁सांगे	-10.9518
▁महासागर	-10.9524
ंतर	-10.9529
▁पेल	-10.954
▁मदती	-10.9545
▁रदेशात	-10.9546
▁पिशवी	-10.9548
▁यामागच	-10.9551
▁धतीच	-10.9555
१५	-10.956
▁हाताळू	-10.9566
▁पात	-10.9568
ुम	-10.957
▁लीत	-10.9576
कटता	-10.9588
▁ऐका	-10.9593
▁षणाचा	-10.9617
▁साठव	-10.9631
▁इथल	-10.9632
▁आवडता	-10.9639
ांसारखी	-10.9644
▁कलन	-10.9646
▁राहकांच	-10.9647
ॅक	-10.9667
▁उरले	-10.9673
▁जणांन	-10.9675
पटू	-10.9693
▁पोहचत	-10.9695
▁जवळी	-10.9703
हेत	-10.9711
ॅट	-10.9715
▁यानंतरच	-10.972
▁सुस	-10.9729
टेम	-10.9756
▁यासंबंधी	-10.9768
▁थांच	-10.9781
▁तीचं	-10.9787
ोरी	-10.9801
▁एरि	-10.9805
▁जि	-10.9806
▁अमेरिक	-10.9808
▁तवाच	-10.9813
▁यूर	-10.9817
कॉर	-10.9834
▁वापरायच	-10.984
▁पाठवण	-10.984
▁रतन	-10.9869
णि	-10.9887
▁लावता	-10.9897
▁हावे	-10.9909
▁नेता	-10.991
▁वाचलेल	-10.9917
▁रियाना	-10.9921
▁पुरे	-10.9942
टिंग	-10.995
▁वळ	-10.9967
▁पाव	-10.9975
▁जाव	-10.9975
कन	-10.9988
गले	-11.0007
▁वेळेच	-11.0014
▁निवडले	-11.0028
▁नजरे	-11.0038
▁जिल	-11.0048
▁रियेत	-11.005
▁षरांच	-11.0051
▁वाचव	-11.0052
▁मिसळत	-11.0058
ासारख	-11.0059
ंमुळे	-11.0066
▁एकदाच	-11.0076
भरात	-11.0077
ै	-11.008
ंध	-11.0081
जीव	-11.0083
▁नामक	-11.0092
▁वैताग	-11.0096
राव	-11.0123
▁३५	-11.0135
▁बोले	-11.0155
▁१७	-11.0158
▁वसाहती	-11.0162
टस	-11.0162
▁बचाव	-11.0165
▁पडलेल	-11.017
ाफ	-11.0171
▁वनराईच	-11.0173
▁शकला	-11.0186
▁चीनच	-11.0188
▁यादे	-11.0199
▁भारतीयांच	-11.0199
▁सुच	-11.0213
▁रपानाच	-11.0231
▁दुमड	-11.0238
▁लाँ	-11.0256
मी	-11.0264
▁लुट	-11.0264
ियो	-11.0278
▁माणसांन	-11.028
ढ	-11.0282
शाश	-11.029
ाळीत	-11.0298
ाटा	-11.0302
▁बाकीच	-11.0304
हित	-11.0313
रोधक	-11.033
▁समूहा	-11.0354
▁वळू	-11.0366
ाळून	-11.0388
▁रखर	-11.0392
▁विचारत	-11.0396
▁वाचू	-11.0402
▁रचार	-11.0405
▁मंडळ	-11.0412
कथा	-11.0432
▁तपासण	-11.0433
कामी	-11.044
▁उज	-11.0443
▁घोड	-11.0445
▁यापुढ	-11.0447
▁करायच	-11.0452
▁फेर	-11.046
▁एंड	-11.046
▁यांतल	-11.0471
▁सहल	-11.0471
▁छोटं	-11.0471
▁टाकले	-11.0488
▁तळा	-11.0492
▁लावल	-11.0492
उ	-11.0506
▁मिळवि	-11.0512
▁रीक	-11.0515
वह	-11.054
▁आणता	-11.0561
▁पंख	-11.0562
ईत	-11.0562
जारी	-11.0572
▁चाच	-11.0573
▁कुठ	-11.0575
▁महिलेच	-11.0581
शै	-11.0582
▁डुकर	-11.0584
▁बनावट	-11.06
▁इमारत	-11.0601
▁नोकर	-11.0606
▁कळू	-11.0606
▁रीया	-11.0608
किर	-11.0615
हास	-11.063
▁गमती	-11.0631
▁बुड	-11.0643
सेन	-11.0647
मुळ	-11.0651
पॉईंट	-11.0652
दृढ	-11.0652
▁नुसत	-11.066
▁जाल	-11.0662
▁राग	-11.0681
सॉफ	-11.0683
छा	-11.0689
▁जाहिरात	-11.069
▁नळ	-11.069
▁हलव	-11.0693
▁सभा	-11.0697
▁ओळ	-11.0698
▁अनाव	-11.0701
डीत	-11.0704
▁भांड	-11.0705
▁बेर	-11.0706
मिळ	-11.0716
▁एव	-11.0717
बिल	-11.0718
▁दूरच	-11.0729
▁उंद	-11.0732
भुत	-11.0734
िली	-11.0735
▁अखेर	-11.0735
झ	-11.0736
▁पलीकड	-11.0741
▁रेण	-11.0741
वि	-11.0744
▁लागायच	-11.0776
ेड	-11.0781
▁रेव	-11.0783
▁बैठक	-11.0785
गणित	-11.0787
▁लघु	-11.0789
▁दाम	-11.0789
विड	-11.0795
ato	-11.0796
▁अझरबैजान	-11.0796
▁अवकाशा	-11.0796
▁नामशेष	-11.0796
▁नॅश	-11.0796
▁पाठिंब	-11.0796
▁फॅशन	-11.0796
▁फुलपाखर	-11.0796
▁युरोजेनास	-11.0796
▁गैरसमज	-11.0796
▁माऊंटन	-11.0796
▁नातेवाईक	-11.0796
▁सिगारेट	-11.0796
▁सेवक	-11.0796
▁हिवाळ	-11.0796
er	-11.0796
▁युरोजेनसीस	-11.0797
▁विकलांग	-11.0797
▁इराक	-11.0797
▁गुहेत	-11.0797
▁इलाज	-11.0797
▁मंगळ	-11.0797
▁रुनो	-11.0797
▁टाचण	-11.0797
▁फुंक	-11.0797
▁संभोग	-11.0797
▁उपदेश	-11.0797
▁नॅनोट	-11.0797
▁रुटी	-11.0797
▁राफिटी	-11.0797
▁उभारण	-11.0797
ाणिक	-11.0797
▁युरोंस	-11.0798
▁सावका	-11.0798
▁बोबो	-11.0798
▁संतुलन	-11.0798
▁सुरूवात	-11.0799
▁रोमांच	-11.0799
▁भोक	-11.0799
▁गुदग	-11.0799
▁कुजलेल	-11.0799
▁टाचार	-11.0799
याबरोबर	-11.08
▁उगवत	-11.08
▁अनै	-11.08
▁टेबलावर	-11.08
▁योगदान	-11.08
ळाला	-11.0801
धारी	-11.0801
▁युजर	-11.0801
ढग	-11.0802
▁अनुम	-11.0802
▁गाठण	-11.0802
▁सुफी	-11.0802
तिरि	-11.0803
▁थोडेसे	-11.0803
▁हायरस	-11.0803
▁पुरूष	-11.0803
▁विमानतळावर	-11.0804
▁जागृत	-11.0805
▁षकांच	-11.0807
▁चॉक	-11.0807
▁थांबलो	-11.0809
▁गेम	-11.0809
▁सोम	-11.081
▁पाऊल	-11.0812
▁पाठवलं	-11.0812
▁सांगाड	-11.0812
▁उश	-11.0812
▁कोणाशी	-11.0813
इल	-11.0813
▁चोर	-11.0813
▁सांगावे	-11.0816
▁दुब	-11.0816
▁षाघात	-11.0817
रोल	-11.0817
▁बेले	-11.0819
▁जागेवर	-11.082
▁आनंददाय	-11.082
▁यावेळच	-11.0822
▁दारू	-11.0822
▁चेतापेशी	-11.0822
▁माईक	-11.0823
▁फूट	-11.0823
▁चाललो	-11.0824
▁गूढ	-11.0829
▁भेटण	-11.0829
▁बोलताना	-11.0832
▁रतिर	-11.0832
▁वाढवायच	-11.0833
▁कळीत	-11.0833
▁आगीत	-11.0839
बूल	-11.0841
▁सिटी	-11.0842
पका	-11.0845
▁विधान	-11.0847
▁अपघातात	-11.0849
▁घसर	-11.0851
▁कमालीच	-11.0851
▁बोस	-11.0852
▁वॉट	-11.0853
▁वादळ	-11.0854
▁कंप	-11.0855
▁वेध	-11.0856
▁दाखवि	-11.0856
▁सोडवल	-11.0857
▁मऊ	-11.0858
▁कोठडी	-11.086
▁नाट	-11.0861
▁नकाशे	-11.0861
▁सेकंदात	-11.0861
▁बंधूंन	-11.0862
▁टिपल	-11.0865
▁घास	-11.0873
▁अनंत	-11.0873
▁उदास	-11.0873
▁शिकवणार	-11.0873
▁मिळवलेल	-11.0874
▁बुज	-11.0876
▁संबोध	-11.0878
ाबरोबरच	-11.0883
▁संच	-11.0885
▁आजोबांच	-11.089
▁वाढेल	-11.0891
▁कालांतरान	-11.0896
▁सुप	-11.0897
▁असुर	-11.09
▁याल	-11.0901
▁गुंडाळ	-11.0901
▁हातावर	-11.0902
▁पाठविले	-11.0909
▁टेक	-11.0914
▁पेज	-11.0925
▁बहि	-11.0925
▁पोचले	-11.0926
▁रती	-11.0929
▁धारणे	-11.0933
▁फोर	-11.0936
ंचं	-11.0937
▁सहस	-11.0943
कता	-11.0943
कांना	-11.0946
▁जाणवतं	-11.0951
▁अलीकडे	-11.0952
▁राशी	-11.0954
▁चळवळी	-11.0959
▁यचक	-11.0962
वाणी	-11.0966
▁बनवली	-11.0971
▁दुपार	-11.0973
▁पेट	-11.0973
▁घातला	-11.0973
▁कशाला	-11.0974
▁केनेमा	-11.0974
▁किनार	-11.0976
▁है	-11.098
▁फुफ	-11.0981
▁धात	-11.0983
▁वाजव	-11.0984
▁दाखवल	-11.0985
▁पावत	-11.0987
▁जगतो	-11.0991
ावली	-11.1004
▁रीकरण	-11.1005
▁सुरुवातीच	-11.1005
▁जेवढ	-11.1006
▁करोगाच	-11.1007
▁पने	-11.1008
▁गल	-11.1009
▁रेता	-11.1009
िकट	-11.1012
काळात	-11.1018
▁थेचा	-11.1022
▁चव	-11.1024
▁संशय	-11.1025
▁पटीन	-11.1032
▁पाहायच	-11.1036
▁मदतीन	-11.1038
▁बोलाव	-11.1039
▁इट	-11.1039
▁बॉल	-11.1041
▁लिहिलेल	-11.1045
लाकार	-11.1049
▁वाटल	-11.1062
▁गांधींच	-11.1064
▁दोघे	-11.1066
▁एस	-11.1068
▁करावया	-11.107
▁पोहोच	-11.1073
▁तिर	-11.1076
▁दंड	-11.1076
▁विजेच	-11.1077
▁निःश	-11.108
▁कुच	-11.108
▁षिततेची	-11.1081
▁नेणार	-11.1086
▁मनातल	-11.1086
▁रेय	-11.1094
▁रुजल	-11.1096
▁बीच	-11.1103
▁झर	-11.1108
▁वराचं	-11.1117
▁वभाव	-11.1125
००	-11.1127
▁चालविता	-11.1134
▁ताब	-11.1136
▁वेक	-11.1139
▁संग	-11.1148
▁फिरवल	-11.1154
▁कंपनीच	-11.1155
ेरीज	-11.1162
वत	-11.1169
▁धडपड	-11.1172
▁कशावर	-11.1177
▁देशा	-11.1184
▁बांधणी	-11.1187
डर	-11.1188
▁बाळगत	-11.1195
▁णाला	-11.1196
बल	-11.12
▁बसलेल	-11.1211
▁बोलावल	-11.1215
▁णतेच	-11.122
▁रचने	-11.122
▁जिंकला	-11.1221
▁चरबी	-11.1225
▁शांती	-11.1225
▁वापरात	-11.1226
▁फेरी	-11.1231
▁षांमध	-11.1231
▁काच	-11.124
▁रिट	-11.1246
▁कुणाच	-11.1249
पवित	-11.1252
सेज	-11.1256
▁मिळविले	-11.126
▁यसन	-11.1265
▁शेवटचे	-11.1276
युग	-11.1279
▁वीकारा	-11.1281
पलेल	-11.1284
▁मोड	-11.1285
▁कुठलं	-11.129
▁लावलेल	-11.1296
▁साधारणपण	-11.1304
▁अमेरिके	-11.1306
गण	-11.1307
दीप	-11.1314
▁मोटारी	-11.1315
▁पुरुषांच	-11.1315
▁चीनमध	-11.1316
▁दय	-11.1318
▁टाकणार	-11.1323
▁शिबिरा	-11.1326
ंबाब	-11.1333
▁बेटाच	-11.1348
▁उचल	-11.1357
▁कुटुंबात	-11.1364
▁काढाव	-11.1369
▁रतीजैविकां	-11.137
विणार	-11.137
▁बांधल	-11.137
▁यांप	-11.1378
थाकथ	-11.1383
ाड	-11.1386
▁शोधता	-11.1389
▁रहात	-11.1391
▁तीमध	-11.1403
▁संशोधनाच	-11.1406
▁शिकवता	-11.1413
▁विरू	-11.1414
▁लेखनाच	-11.1414
▁रवर	-11.1417
िचर	-11.1418
बुल	-11.1435
िसाव	-11.1443
▁राहाव	-11.1446
▁कोड	-11.1451
▁पांच	-11.1456
टल	-11.1468
साच	-11.1474
▁लिहित	-11.1484
जोड	-11.1485
▁शिकल	-11.1494
▁दशकाच	-11.1497
िडी	-11.1504
▁रवाहात	-11.1507
▁अंगणा	-11.1524
▁वताच	-11.1528
▁सांभाळण	-11.1536
▁कामे	-11.1542
▁बु	-11.1563
▁मिट	-11.1572
▁आखल	-11.1575
▁सुधारल	-11.1578
ाईप	-11.1582
▁पेशीं	-11.1593
▁रिकेच	-11.1615
▁अपयशाच	-11.1617
ासिक	-11.162
▁गवत	-11.1625
▁वाटायच	-11.1652
नोक	-11.1653
▁शहराच	-11.1659
धा	-11.1659
▁राक	-11.1675
▁बार	-11.1699
दूत	-11.1704
सू	-11.1709
▁निव	-11.1712
▁तीत	-11.1714
▁विमानात	-11.1715
िना	-11.1717
▁याचवेळ	-11.1724
▁जगाचा	-11.1743
टक	-11.1746
▁तूच	-11.1763
▁गाला	-11.1767
▁नावे	-11.1781
▁पालकांच	-11.1784
▁काना	-11.1794
वीस	-11.1799
▁दि	-11.1809
ोटी	-11.181
▁कारक	-11.1812
▁१९४	-11.1813
▁ओढी	-11.1814
ांवरून	-11.1818
▁ताव	-11.182
▁छाती	-11.1821
▁षकां	-11.1832
▁बघाव	-11.184
▁मिनिटांच	-11.1841
▁आठवत	-11.185
▁जुळ	-11.1853
▁सोडवू	-11.1857
▁याचार	-11.1865
डतो	-11.1869
▁सागर	-11.1869
▁मांडल	-11.1878
सात	-11.1878
▁शांतत	-11.1888
वांत	-11.1896
▁संबंधी	-11.1911
▁संपव	-11.1914
▁नायूंच	-11.1918
▁सेक	-11.1918
▁खांब	-11.1921
▁पेय	-11.1924
▁कापू	-11.1928
▁पेशींन	-11.1941
▁झि	-11.1952
▁पाड	-11.197
▁यशास	-11.1974
▁ऐकता	-11.1984
नीती	-11.1985
ंसोबत	-11.1986
िले	-11.1994
▁विधा	-11.2002
▁होम	-11.2004
▁वीकारत	-11.2011
ीज	-11.2018
▁पगारा	-11.2019
▁नैप	-11.2038
▁विध	-11.2051
तम	-11.2054
▁भाषणा	-11.2055
▁तुर	-11.2058
▁सिल	-11.2064
ोफ	-11.2065
▁मातृ	-11.2076
▁कुराण	-11.2077
▁उंचाव	-11.2107
▁अनुभवलेल	-11.2109
▁२५०	-11.2115
▁राहकांन	-11.2129
▁पाडत	-11.214
५००	-11.2143
एट	-11.2147
▁रणालीत	-11.2149
▁मरत	-11.2151
टर	-11.2155
▁बचावाच	-11.2162
▁वैश	-11.2166
▁आईच	-11.2168
ुंद	-11.2172
▁पगार	-11.2177
यांश	-11.2202
▁सुचव	-11.2209
हे	-11.2213
he	-11.2213
▁बोललेल	-11.2214
▁चौ	-11.222
▁षेच	-11.2237
ॅप	-11.2242
ोक	-11.225
▁सौद	-11.2276
▁शोधल	-11.2277
▁इराण	-11.2283
▁युट	-11.2301
▁घटनांच	-11.2309
▁संतापाच	-11.2326
▁जगणार	-11.2327
▁पोहोचू	-11.2336
▁धावत	-11.234
▁हद	-11.2344
▁बेटावर	-11.2344
▁मेक	-11.2347
▁षभर	-11.2351
वाशी	-11.2352
▁मारल	-11.2352
▁पंच	-11.2359
याने	-11.2367
▁तेवढ	-11.2376
▁थापना	-11.2376
ासोबत	-11.2406
▁वाटाव	-11.2414
तन	-11.2429
▁चालवता	-11.245
▁गुंत	-11.246
▁वाजत	-11.249
ंतून	-11.2497
▁भिंतीत	-11.2502
▁नावा	-11.2504
▁वेळेत	-11.2515
▁चालक	-11.2523
▁पोट	-11.253
▁वाचवू	-11.2542
▁छातीच	-11.2549
▁मांडण	-11.2558
▁मानवते	-11.2559
▁बदलाव	-11.2567
विना	-11.257
▁रीचा	-11.26
तली	-11.2605
▁झाडां	-11.2623
▁खा	-11.2629
शाळेत	-11.2637
r	-11.2645
ंडी	-11.2647
ोळस	-11.2647
▁लिहीत	-11.2648
▁विरोधा	-11.2651
▁आवडी	-11.2667
▁दुकाना	-11.2687
▁रिके	-11.2689
▁शहरा	-11.27
▁भावाच	-11.2703
▁दाखवी	-11.2706
▁विवाह	-11.272
▁पाठी	-11.2723
▁वापराव	-11.2724
▁हसू	-11.2727
▁खो	-11.2728
▁कुप	-11.2733
▁चढव	-11.2764
ाग	-11.2765
▁किमतीच	-11.2769
▁खी	-11.277
ीश	-11.277
ुश	-11.2775
h	-11.278
▁उघडू	-11.278
▁रायल	-11.2788
▁डुकरीणी	-11.279
▁४००	-11.2792
लंड	-11.2792
▁अच	-11.2795
▁दान	-11.2798
▁तरच	-11.2808
संबंधी	-11.2819
▁करार	-11.2821
▁एकमेका	-11.2835
▁माप	-11.2836
▁यामाग	-11.2838
लीन	-11.2851
▁आद	-11.2855
▁नसता	-11.2867
▁खुला	-11.2888
कोप	-11.2892
▁शोधायच	-11.2897
▁वाचले	-11.2899
ळणार	-11.2926
ाडो	-11.2936
▁पैशा	-11.2938
▁घरा	-11.2956
ळत	-11.2966
▁ठरल	-11.2967
▁घाबर	-11.297
३०	-11.2983
▁सजग	-11.2986
▁बाळाच	-11.2986
▁तींच	-11.299
▁बदला	-11.299
▁तब	-11.2997
गृह	-11.3001
तांना	-11.3011
▁बाबीं	-11.3014
▁मेड	-11.303
ुग	-11.3045
ृ	-11.3052
▁शोधक	-11.3061
▁दाखविले	-11.3062
▁वगळ	-11.3068
▁जगता	-11.3075
माप	-11.308
▁कळण	-11.3081
ाथ	-11.3096
▁काका	-11.3098
▁वसन	-11.3099
▁६००	-11.31
▁रिप	-11.3101
▁सांगितलेल	-11.3112
▁पेपर	-11.3121
▁रवा	-11.3129
▁आकाशा	-11.313
▁फोट	-11.3135
ैश	-11.3135
▁अगोदर	-11.314
बिंदू	-11.3141
काच	-11.3143
▁फू	-11.3144
बंद	-11.3146
२३	-11.3151
▁गरिबां	-11.3158
दिग	-11.3161
काठी	-11.3166
▁बातम	-11.3167
चैन	-11.3173
▁भाज	-11.3175
युरोप	-11.3186
सायकल	-11.3188
आणि	-11.3189
ठिकाणी	-11.3189
दिवशी	-11.3193
वभाव	-11.3206
टेड	-11.3209
▁जुल	-11.321
तारी	-11.3219
▁हिरव	-11.3221
वेध	-11.3225
ोटा	-11.3228
ासारखं	-11.3231
ra	-11.3232
▁परंपरा	-11.3232
ांख	-11.3232
दुर	-11.3233
▁लंडच	-11.3233
▁झाक	-11.3238
▁कमाल	-11.3243
दोन	-11.3244
▁लिप	-11.3254
ोल	-11.3254
▁जमिनीच	-11.3256
▁ओम	-11.326
▁वयंसेव	-11.3263
दाट	-11.3264
मंत	-11.3266
▁गुढ	-11.3267
▁भूमि	-11.327
▁१०००	-11.3274
▁संपाद	-11.3275
कोश	-11.3282
▁पडताळ	-11.3282
▁यावरणाच	-11.3284
▁रोस	-11.3284
▁पकडण	-11.3286
विर	-11.3287
▁मिळवू	-11.329
▁वाढीच	-11.329
टेशन	-11.3291
▁टेबल	-11.3292
हान	-11.3294
▁सोयी	-11.3295
ाउल	-11.3296
▁अमिरातीं	-11.3296
▁आडनाव	-11.3296
▁ऐतिह	-11.3296
▁चयापचय	-11.3296
▁टॉव	-11.3296
▁डोरोथी	-11.3296
▁ढिगा	-11.3296
▁तालिबान	-11.3296
▁पारितोषिक	-11.3296
▁विघटन	-11.3296
▁हानिकारक	-11.3296
▁आकडेमोड	-11.3296
▁कुतुह	-11.3296
▁जिंजर	-11.3296
▁धावपटू	-11.3296
▁मैनेजर	-11.3296
▁मॉल	-11.3296
▁एकमेकीं	-11.3296
▁टोरंट	-11.3296
▁कोलोर	-11.3296
▁तुलनेन	-11.3296
▁रंथालय	-11.3296
▁अजमाव	-11.3296
▁सियस	-11.3296
▁सैद	-11.3296
ेबाज	-11.3296
▁समजुती	-11.3296
▁सौरघट	-11.3296
▁बायोमास	-11.3296
▁रतिबिंब	-11.3296
▁बायको	-11.3296
▁युशन	-11.3296
▁भाकित	-11.3296
▁वाळवंट	-11.3296
▁इंडो	-11.3297
▁मनोविकार	-11.3297
▁आगगाडी	-11.3297
▁छादन	-11.3297
▁लोखंड	-11.3297
▁सफरचंद	-11.3297
▁चौरस	-11.3297
ढवळ	-11.3297
▁मंडेला	-11.3297
▁शोधनिबंध	-11.3297
al	-11.3297
▁गुडघ	-11.3297
▁वयंचल	-11.3297
▁एकसमान	-11.3297
IT	-11.3297
▁समाजसेव	-11.3297
▁रिडमध	-11.3297
▁भरपाई	-11.3298
▁चुकत	-11.3298
▁युगांडा	-11.3298
ुराम	-11.3298
ुआ	-11.3298
▁बंधुं	-11.3298
▁टेनिस	-11.3298
▁इंटर	-11.3298
▁अडकल	-11.3298
▁तलवार	-11.3298
▁मानवजाती	-11.3298
▁संभव	-11.3299
▁८३	-11.3299
▁जयपूर	-11.33
▁५७	-11.33
▁विनाम	-11.33
▁लोह	-11.33
▁पनामा	-11.33
▁अखंड	-11.33
▁टफोन	-11.3301
▁चिमेकड	-11.3301
▁पाठविता	-11.3301
▁घृणा	-11.3302
टोण	-11.3302
नॉमि	-11.3302
▁१९६	-11.3302
▁नानगृहा	-11.3302
▁मोडेल	-11.3304
▁आधारलेल	-11.3304
▁अंथरुणात	-11.3305
▁धीमान	-11.3305
▁घटने	-11.3305
▁मागत	-11.3305
tes	-11.3305
▁रीलीय	-11.3306
▁राबव	-11.3306
▁युनंतर	-11.3306
▁पोहोचण	-11.3306
▁असायच	-11.3306
▁बकीर	-11.3307
रूण	-11.3308
▁पोहचेल	-11.3308
▁संचार	-11.3308
▁रोलर	-11.3309
▁चटक	-11.331
▁आरामशीर	-11.331
▁घडविणार	-11.331
▁वाचविण	-11.331
▁घाम	-11.331
▁तांद	-11.3311
▁पिण	-11.3311
टरने	-11.3312
▁शेव	-11.3312
▁जिरू	-11.3312
▁संथ	-11.3312
▁निसट	-11.3313
▁आकारामुळे	-11.3314
▁दपार	-11.3314
▁अंधार	-11.3315
▁नायु	-11.3315
▁बधीर	-11.3316
▁सुसंगत	-11.3317
▁नॉलॉजी	-11.3317
▁रोखण	-11.3319
▁लॅप	-11.3319
▁युटर	-11.3321
▁जाणवला	-11.3321
▁तीनशे	-11.3321
▁चायन	-11.3322
▁संहित	-11.3322
▁सूचक	-11.3324
▁अंतः	-11.3324
ID	-11.3325
ent	-11.3325
▁कॉट	-11.3325
▁चुल	-11.3326
हेरी	-11.3329
ोलन	-11.333
▁पाठवली	-11.333
▁वरूपात	-11.333
▁आखण	-11.3331
▁गाठली	-11.3332
▁मोडण	-11.3333
▁होल	-11.3336
▁पाठीमाग	-11.3336
▁बॉस	-11.3337
▁लहरी	-11.3338
▁काईप	-11.3338
▁इतरांप	-11.334
▁हंटल	-11.3341
▁संभाषणात	-11.3341
▁कळाले	-11.3342
▁सेंट	-11.3342
▁याधी	-11.3343
चार	-11.3344
रडू	-11.3345
▁परी	-11.3345
फेक	-11.3346
▁रकिना	-11.3347
▁युसन	-11.3347
एवढा	-11.3347
ारे	-11.3347
▁मिठी	-11.3348
▁पुरात	-11.3348
▁चिंत	-11.3349
▁घोट	-11.3349
▁युना	-11.3353
▁षमतेस	-11.3356
▁खान	-11.3357
लीकडे	-11.3359
▁रानो	-11.336
▁ओरड	-11.3362
▁मोडक	-11.3364
▁भटक	-11.3364
▁वीवरच	-11.3367
▁आठवतं	-11.3368
▁जिंकली	-11.3368
▁सोडता	-11.3369
▁आठवतो	-11.337
▁पाठविणे	-11.337
▁रणिता	-11.337
▁घालवत	-11.3372
▁सुध	-11.3374
▁शहरांमध	-11.3375
▁मधमाशी	-11.3376
▁गोठ	-11.3377
▁कुठं	-11.3378
▁आवडली	-11.3379
▁लिम	-11.3379
▁असुन	-11.3379
▁बिंग	-11.3381
▁अपुर	-11.3384
▁समावेश	-11.3384
▁घटकांच	-11.3387
वाळू	-11.339
▁ताह	-11.339
ुलभ	-11.3391
▁चपलां	-11.3392
▁तुट	-11.3392
▁दाखवलं	-11.3397
▁कूट	-11.3398
▁रियेचा	-11.3398
▁अभिन	-11.3398
▁मासिक	-11.34
▁मरतात	-11.3401
▁दुनियेत	-11.3402
▁फाट	-11.3402
▁रहावर	-11.3403
▁गाठी	-11.3409
▁अडकलेल	-11.3409
फोर	-11.3414
▁भिती	-11.3414
खी	-11.3414
▁नेलं	-11.3415
▁थश	-11.3416
▁असायची	-11.3422
गुळ	-11.3422
▁जबा	-11.3427
▁भाजी	-11.3428
▁वाणी	-11.3429
▁ऑक	-11.3432
▁पकडा	-11.3434
▁कमर	-11.3445
▁लोकर	-11.3445
▁तेवढी	-11.3451
▁लेष	-11.3453
▁संसदे	-11.3455
▁बेडकां	-11.3456
ितीय	-11.3457
▁रेरणेच	-11.3458
▁पळत	-11.3458
▁हृदयात	-11.3461
▁झक	-11.3467
▁येतोय	-11.3468
▁कशात	-11.3469
▁धीर	-11.3472
▁महागड	-11.3473
▁जनावर	-11.3473
▁ठपणा	-11.3477
▁पेटी	-11.3478
▁ऐकणार	-11.3478
▁नळी	-11.3479
▁टेन	-11.3481
▁बहुस	-11.3482
▁याविर	-11.3483
▁रसरणाच	-11.3483
▁पाहील	-11.3487
▁उंदराच	-11.3489
▁खाचा	-11.35
तीचा	-11.3501
▁राट	-11.3504
▁गुंतल	-11.3507
▁दूरवर	-11.3519
▁जुळत	-11.3523
▁रमाने	-11.3523
ारण	-11.3528
रु	-11.3535
▁दुखी	-11.3538
▁सालय	-11.3539
▁बसणार	-11.3542
▁समजतं	-11.3542
वलंब	-11.3544
▁ततेच	-11.3546
▁डमध	-11.3548
▁रेलियात	-11.355
▁खेळात	-11.3552
▁नेतो	-11.3552
▁गुंता	-11.3557
▁षमतेवर	-11.3565
▁I	-11.3567
▁टपणा	-11.3568
▁थाच	-11.3569
▁तरंगत	-11.3571
▁गाठ	-11.3572
▁निराशा	-11.3573
सेसर	-11.3576
▁केट	-11.3577
▁माइकच	-11.3577
▁विशालत	-11.3581
▁एप	-11.3582
▁पुरस	-11.3583
▁कृतीतल	-11.3583
▁राणू	-11.3585
▁रकारांच	-11.3585
▁धुळीच	-11.3589
ांनंतर	-11.3591
▁कारणास	-11.3593
▁विजेत	-11.3596
पात	-11.3602
▁संज	-11.3605
▁वडिल	-11.3605
▁ऑफिसमध	-11.3608
▁मिल	-11.362
▁यापलीकड	-11.3625
▁आकुंचन	-11.3626
▁माय	-11.3627
▁याचीही	-11.3632
▁नोब	-11.3635
▁घेतील	-11.3641
▁बँकेच	-11.3652
▁मिळाव	-11.3653
▁गेलेली	-11.3662
▁आन	-11.3664
ींचे	-11.3664
मागच	-11.3668
▁उपकरणाच	-11.3673
ॉश	-11.3683
▁देवी	-11.3686
पुरते	-11.3691
▁शकणा	-11.3693
▁घडवणार	-11.3703
▁लिन	-11.3714
▁महासागरांच	-11.3718
९५	-11.372
▁तीर	-11.3731
▁सना	-11.3736
▁सायकलवर	-11.3739
▁कारणांनी	-11.3746
▁शिकारी	-11.3746
▁लोकांमध	-11.3762
▁निवडत	-11.3764
▁भोवतालच	-11.3768
▁नसती	-11.3773
▁यवसायाच	-11.3783
लिफ	-11.3789
▁कुटुंबांच	-11.379
▁चुकले	-11.3793
▁रासल	-11.3796
▁पिटल	-11.3801
▁विचारायच	-11.3811
▁एवढा	-11.3811
▁कॉलेजात	-11.3817
▁यकृत	-11.3817
▁जावं	-11.3817
▁भरती	-11.3823
▁कुश	-11.3829
▁मेडि	-11.3831
वासी	-11.3834
▁आढळला	-11.3836
▁सि	-11.3838
▁यावेळेस	-11.3838
▁अपघाता	-11.3839
▁कांग	-11.3841
▁देतील	-11.3844
▁लेट	-11.3846
▁उलटं	-11.3854
ींग	-11.3855
▁बाळग	-11.3864
▁नियोज	-11.3873
▁डस	-11.3877
▁रीन	-11.3884
पोर	-11.3885
ीट	-11.3891
▁जिंकले	-11.3893
राज	-11.3893
▁मरणा	-11.3894
▁घडी	-11.3895
हीन	-11.3902
▁तीकरण	-11.3904
▁वळव	-11.3909
▁यांक	-11.3915
▁होईन	-11.392
▁पाकि	-11.393
▁मिळवता	-11.393
▁जोब	-11.3933
▁सहजतेन	-11.3937
▁साहस	-11.3939
▁आठवडा	-11.3943
▁तींना	-11.3952
▁गटार	-11.3959
▁सवयीच	-11.3968
वं	-11.3976
डिया	-11.3976
ाँग	-11.3983
▁शिपाईगिरी	-11.3986
ऊ	-11.3992
▁खिडकी	-11.3998
▁धोके	-11.3999
गेल	-11.4008
▁पोर	-11.4011
▁सरड	-11.4011
▁फेकत	-11.4019
▁कस	-11.4022
▁१९३	-11.4029
▁रवी	-11.4039
re	-11.4042
▁भिंतीच	-11.4063
▁दीत	-11.4066
▁शोष	-11.4066
विणे	-11.4068
िमत	-11.4091
▁तपासले	-11.4102
▁षितते	-11.4103
▁भरण	-11.4121
▁वापरा	-11.4123
▁तीपासून	-11.4125
▁जेवणाच	-11.4131
झी	-11.4133
पार	-11.4153
▁रोप	-11.4155
▁साथी	-11.4168
▁केस	-11.4177
▁बाळगता	-11.4178
▁नराधमांन	-11.4179
लेस	-11.4182
▁विषयात	-11.4191
▁कथांच	-11.4193
ुरी	-11.421
▁समोरच	-11.4221
▁बांधकामाच	-11.4226
▁गाडीच	-11.4228
▁हव	-11.4246
ेकड	-11.4246
डियो	-11.4248
▁झाडाच	-11.4249
कोस	-11.4252
▁बेटां	-11.4253
▁गुला	-11.4268
▁पिढीत	-11.4273
ृती	-11.4273
▁तुरुंगा	-11.4276
▁रजीत	-11.4294
▁शेक	-11.4301
▁जुळण	-11.4301
▁ससा	-11.4306
ीएच	-11.4308
▁नजरेत	-11.4317
ंदाच	-11.432
झार	-11.4333
▁टिकणार	-11.4336
▁हालचाली	-11.4337
एल	-11.434
▁आलेली	-11.4341
▁बालीत	-11.4343
नल	-11.4344
▁अंगठेबाजीच	-11.4348
▁तरात	-11.4373
▁पाठीच	-11.4375
▁रीड	-11.4393
▁दूरद	-11.4398
▁मधे	-11.441
▁नोंदव	-11.441
टिक	-11.4412
▁विप	-11.4414
▁षीच	-11.4434
रज	-11.4438
▁टेल	-11.4461
डोर	-11.4468
▁कमध	-11.4472
▁बाजूंन	-11.4473
ta	-11.4476
वेत	-11.4481
▁ठस	-11.4486
विकता	-11.4496
ूप	-11.4505
▁बग	-11.451
▁खेळत	-11.4534
▁समाजा	-11.4539
ne	-11.4541
ीबोर	-11.456
▁पु	-11.4579
कोर	-11.4588
▁शो	-11.4591
नावर	-11.4593
▁जोडी	-11.4597
▁धरत	-11.4597
रबर	-11.4606
▁सां	-11.4608
▁हॉ	-11.4616
▁भू	-11.4623
▁दाखवता	-11.4639
▁अंतराच	-11.464
▁बांधू	-11.4644
राई	-11.466
९९	-11.4664
▁उचलू	-11.4668
▁पसरले	-11.4677
▁मादाच	-11.4683
▁दाखवलेल	-11.4688
▁नम	-11.4688
▁रंगव	-11.4692
▁बदलायच	-11.4707
▁जागेच	-11.4709
▁रवि	-11.4709
▁चमू	-11.4733
फ़	-11.4735
ूळ	-11.4735
▁बेड	-11.4736
▁एकाद	-11.4737
▁राफ	-11.4738
मंड	-11.4742
▁जपत	-11.4745
▁छानस	-11.475
▁ताणा	-11.476
फल	-11.4772
विक	-11.4774
▁संवादात	-11.4782
▁नाचे	-11.4787
▁तनाच	-11.4789
▁पकड	-11.4799
ळले	-11.4803
▁संघटने	-11.4818
▁लढण	-11.4829
▁छाप	-11.4834
▁तासां	-11.4839
ंगण	-11.4853
वली	-11.4862
▁एलि	-11.4869
▁साठीच	-11.487
▁निशा	-11.4874
▁किल	-11.4883
विष	-11.4886
▁रेणी	-11.4886
काचे	-11.4905
▁कशाच	-11.4912
▁करूया	-11.4913
▁यानात	-11.4923
▁कु	-11.4938
दाद	-11.4963
▁आध	-11.4965
लिंग	-11.4984
▁कानाच	-11.4989
▁आवडलेल	-11.499
▁टोक	-11.4992
ोड	-11.4995
▁आणलेल	-11.4995
▁रतिजैविकांच	-11.5004
▁चिकटव	-11.5005
▁लाच	-11.5006
▁सोडवि	-11.5014
▁झांडरच	-11.5015
ंविषयी	-11.5031
▁वसाहतीच	-11.5041
▁होवू	-11.5041
▁कणां	-11.5048
▁अड	-11.5073
▁रतीजैविका	-11.5074
▁सरकारच	-11.5083
हाण	-11.5091
विरोधी	-11.5112
कोन	-11.5129
▁बायकां	-11.5131
ंबरोबर	-11.5132
िटर	-11.5137
▁सांभाळ	-11.5141
▁गिधाडांच	-11.5144
ुंग	-11.5154
लांक	-11.5159
▁वाजल	-11.5168
▁मुळा	-11.5171
▁नेल	-11.5175
▁थंडी	-11.5178
८०	-11.5184
▁षय	-11.5207
▁युच	-11.5208
▁जून	-11.5211
▁गु	-11.5214
कोडे	-11.522
▁पालकां	-11.5227
▁रीये	-11.5244
▁भासल	-11.5269
नामी	-11.5281
ंडे	-11.5284
▁लीच	-11.5287
▁लाभल	-11.5295
नाक	-11.5302
ंडा	-11.531
▁डोकावू	-11.5317
▁बायका	-11.5321
▁अंगठेबाजी	-11.5328
▁ञानिकांन	-11.5328
▁वाकव	-11.5332
हात	-11.5335
▁खेळायच	-11.5342
▁बाजाराच	-11.5346
▁वाढल	-11.5355
▁जागतिकीकरणा	-11.5383
▁रतीच	-11.5393
▁मूलत	-11.5394
▁केनियात	-11.5398
▁साधता	-11.5401
▁भाष	-11.5416
▁पनेन	-11.5422
दूर	-11.5422
▁लाकड	-11.5429
▁बोलला	-11.5434
▁आकड	-11.5446
▁रेषिता	-11.5448
▁१९९	-11.5458
▁यालयाच	-11.5462
बोर	-11.5464
▁ठरवित	-11.5477
मास	-11.5488
▁बांधलेल	-11.5494
ोहित	-11.5501
▁केनिया	-11.5517
▁असतानाच	-11.5519
▁रदेशा	-11.5524
▁विचारण	-11.5525
▁झा	-11.554
▁काड	-11.5547
▁योजने	-11.5551
▁गाय	-11.5553
▁रीण	-11.5563
रांग	-11.5566
ेईन	-11.5568
▁वाफ	-11.559
▁पावसा	-11.5591
ुव	-11.5594
▁शॉ	-11.5605
▁बॉ	-11.5611
▁खटल	-11.5611
▁हेतु	-11.5616
ओडो	-11.5618
▁पाम	-11.5627
▁ढकल	-11.563
▁जाय	-11.5633
▁पीडित	-11.565
▁उपकरणा	-11.566
▁पुराणकथा	-11.5668
▁ओर	-11.5688
▁देह	-11.5688
▁नायूं	-11.5694
▁षांप	-11.5701
झा	-11.5706
▁नेमण	-11.571
▁जमिनीवरच	-11.5717
मित	-11.5726
▁बाजूच	-11.5742
▁अह	-11.5752
▁खिडक	-11.5754
ारोपण	-11.5775
हन	-11.5798
▁मु	-11.5802
▁उपकरणात	-11.5818
▁पोल	-11.5841
▁शांतते	-11.5858
ौ	-11.5865
▁कोसळ	-11.5869
▁आणा	-11.5874
▁इमारतीत	-11.5879
▁पेशींच	-11.5879
▁मोजले	-11.5886
▁कुणा	-11.5893
▁आख	-11.5901
योजन	-11.5903
▁हलवू	-11.5909
नेशन	-11.5912
▁धम	-11.5914
▁वराच	-11.592
▁लागलेल	-11.5926
▁बाजारपेठे	-11.5934
टाच	-11.5948
▁रांस	-11.5949
▁डाय	-11.5956
▁लाह	-11.5959
ठी	-11.5961
सिस	-11.5972
सकट	-11.5983
▁अटक	-11.5984
▁१५०	-11.5988
▁संवेद	-11.6007
▁साठ	-11.6014
▁गुलामगिरी	-11.6017
▁रामध	-11.6023
▁नकारा	-11.603
पाल	-11.6055
▁रशासना	-11.6056
▁जाने	-11.6056
▁देवू	-11.6071
हू	-11.609
▁लढत	-11.6092
▁भाशय	-11.6094
ापाल	-11.6112
ेनुसार	-11.612
▁तकांच	-11.6125
टिन	-11.6152
कूल	-11.6155
▁वग	-11.6166
▁बनविलेल	-11.6167
▁शवत	-11.6171
साद	-11.6174
फलक	-11.6176
▁माते	-11.618
ेहरा	-11.618
टेल	-11.6184
▁रोगांच	-11.6186
▁आकुंच	-11.6188
▁कमाव	-11.6192
▁कै	-11.6193
▁रोट	-11.6202
▁किंगच	-11.6204
एस	-11.6208
▁पोहोचत	-11.6208
तव	-11.6209
▁टीतल	-11.6212
ताहेत	-11.6214
बेज	-11.6215
टिल	-11.622
फेस	-11.6221
आधी	-11.6226
ँट	-11.6236
▁बँक	-11.6237
▁हरव	-11.6238
▁पाठवू	-11.624
इतकं	-11.6248
▁शरम	-11.6251
▁रमांक	-11.6253
▁पोचव	-11.6255
▁मिळकत	-11.6257
▁सोडत	-11.6261
▁वीकृत	-11.6274
▁आगी	-11.6279
▁परा	-11.6279
▁घुस	-11.6283
▁वजनाच	-11.6284
▁औषधां	-11.6285
▁दुखापत	-11.6285
▁खेळाच	-11.6299
▁जमात	-11.63
रि	-11.6301
▁जाणिव	-11.6305
▁दलाच	-11.6322
ंसं	-11.6328
▁पुराणकथां	-11.6334
▁सुचवत	-11.6342
शाही	-11.6361
▁रतीजैविकांच	-11.6362
▁गाच	-11.6363
▁अलीकड	-11.6366
कॉ	-11.6383
▁चौकट	-11.6384
▁उग	-11.6385
▁जमिन	-11.6396
▁रफित	-11.6399
▁रोब	-11.6407
ळे	-11.6411
▁शिकायच	-11.6411
▁ओत	-11.6412
▁राही	-11.6426
▁वितळ	-11.643
ॉं	-11.6433
▁झे	-11.6434
भाग	-11.6436
डक	-11.6438
ॅले	-11.6442
▁पचन	-11.6442
ुरू	-11.6445
ंनो	-11.6449
संबंध	-11.6454
▁लिहिल	-11.647
▁परिषद	-11.6473
▁तासाच	-11.6477
लिपी	-11.6481
ासंबंधी	-11.6483
▁पलंगा	-11.6484
ुज	-11.6485
देश	-11.6488
शॉप	-11.6488
▁वाटा	-11.6502
बाव	-11.6502
▁ठरले	-11.6504
▁नियतकालिक	-11.6504
भोवतालच	-11.6507
समावेश	-11.6509
रणीत	-11.6509
▁यभर	-11.651
S	-11.6511
बोध	-11.6511
▁बांबूच	-11.6513
अस	-11.6518
ऑर	-11.6522
ur	-11.6523
माझ	-11.6524
▁बंधू	-11.6525
▁बहिण	-11.6526
▁चिप	-11.6526
▁दुबळ	-11.6529
रचना	-11.6531
▁पाल	-11.6534
डका	-11.6545
▁पोलिसां	-11.6546
साड	-11.655
गती	-11.6551
▁याखु	-11.6551
ेख	-11.6552
ापैकी	-11.6552
▁....	-11.6554
भूमी	-11.6558
▁बाग	-11.6562
उर	-11.6562
वाढ	-11.6564
नोम	-11.6564
▁खाज	-11.6565
▁हिशेब	-11.6568
▁रारंभ	-11.657
फार	-11.6573
▁रोख	-11.6573
▁रियेच	-11.6573
वाहन	-11.6576
▁पातळीच	-11.6576
▁३०००	-11.6578
मेंट	-11.6579
▁गृहीत	-11.6588
फस	-11.6596
बधी	-11.66
▁धू	-11.6602
▁विमा	-11.6603
ंभीर	-11.6605
▁१२०	-11.6606
पेशी	-11.6609
सिलि	-11.6614
▁निवडण	-11.6616
▁विमानतळा	-11.6617
as	-11.6617
▁जबाबदा	-11.6618
लिख	-11.662
तिनिधि	-11.6621
▁राझ	-11.6621
▁मजल	-11.6623
▁दो	-11.6625
फारस	-11.6626
SI	-11.6627
नितंब	-11.6628
झॅक	-11.6629
▁शेजा	-11.6629
▁भरभराट	-11.663
ell	-11.663
टलाशियन	-11.663
▁अपहरण	-11.663
▁उपजीविक	-11.663
▁कँसास	-11.663
▁कंबोडिय	-11.663
▁घडामोडी	-11.663
▁ठोठाव	-11.663
▁डिंभ	-11.663
▁डिझायनर	-11.663
▁तळागाळा	-11.663
▁तुरूंगात	-11.663
▁तृतियांश	-11.663
▁नाशीपुढ	-11.663
▁पांढर	-11.663
▁मशानभूमी	-11.663
▁योनिलिंग	-11.663
▁लाजिरवाण	-11.663
▁वनौषधी	-11.663
▁विकिपीडिया	-11.663
▁विरोधाभास	-11.663
▁सबलीकरणा	-11.663
▁सृजनशीलत	-11.663
▁सोरायस	-11.663
▁उकाड	-11.663
▁टेलिफोन	-11.663
▁निकोटीन	-11.663
▁पुकारले	-11.663
▁बारकाईन	-11.663
▁मॉडेल	-11.663
▁अणु	-11.663
▁खनिज	-11.663
▁जाकीट	-11.663
▁तैवान	-11.663
▁पुराणमतवाद	-11.663
▁राजधानी	-11.663
▁विंचू	-11.663
▁सिलिकॉन	-11.663
▁अडखळ	-11.663
▁इमेज	-11.663
▁बघुया	-11.663
▁लाऊड	-11.663
▁राहणीमान	-11.663
▁वसंगीत	-11.663
▁दोहों	-11.663
सोटो	-11.663
▁वाहतूक	-11.663
▁शेपटी	-11.663
▁योगायोग	-11.663
▁मेसिना	-11.663
▁गडगड	-11.663
▁फाइल	-11.663
▁याकाळच	-11.663
▁कुवेत	-11.663
▁तातडीन	-11.663
▁पलिकड	-11.663
नशिब	-11.663
▁पिरीन	-11.663
▁पोकळ	-11.663
▁मदतनीस	-11.663
▁खुंट	-11.663
▁फिलामेंट	-11.663
▁उपोषण	-11.663
ाउंड	-11.663
▁आयफोन	-11.663
▁छावणीत	-11.663
▁सुजलेल	-11.663
▁नातेसंबंध	-11.663
▁ढोबळ	-11.663
▁In	-11.663
▁सीमे	-11.663
▁उणीव	-11.663
▁मूठ	-11.663
▁लेरॉसिस	-11.663
ates	-11.663
▁कुंभा	-11.663
▁पुतीन	-11.663
▁दयाळूपणाच	-11.663
▁दिसताहेत	-11.663
▁रिंटींग	-11.663
▁करंडक	-11.663
▁बीजगणित	-11.663
▁झूप	-11.663
▁टोअर	-11.663
▁असह	-11.663
▁राजीनाम	-11.6631
▁अविवाहीत	-11.6631
▁सीमित	-11.6631
▁रोफोन	-11.6631
▁गैरेज	-11.6631
▁हळु	-11.6631
▁बटण	-11.6631
▁हतबल	-11.6631
SE	-11.6631
▁उपाययोजन	-11.6631
▁पेटंट	-11.6631
▁गमावण	-11.6631
▁सुरळ	-11.6631
▁पिवळ	-11.6631
▁आरंभ	-11.6631
▁नावडत	-11.6631
▁संमती	-11.6631
▁दूष	-11.6632
ass	-11.6632
▁सबबी	-11.6632
▁घुसळ	-11.6632
▁झुंज	-11.6632
▁जादु	-11.6632
▁तसतस	-11.6633
▁वळलो	-11.6633
▁विसंगत	-11.6633
▁ओघ	-11.6633
▁नोंदविण	-11.6633
▁सादरीकरण	-11.6633
▁आगमन	-11.6634
▁रणनीती	-11.6634
▁बसवता	-11.6635
▁जोडीदार	-11.6635
▁भट	-11.6635
▁बुध	-11.6635
▁टेफ	-11.6635
▁३७	-11.6635
▁चांदण	-11.6635
▁पतींमध	-11.6636
▁चालविण	-11.6636
▁निरोप	-11.6636
▁गाजर	-11.6636
▁थिनी	-11.6636
▁थोप	-11.6636
▁वॉकर	-11.6636
▁सायन	-11.6637
गॉन	-11.6637
टूथ	-11.6637
▁वितळण	-11.6637
▁दडप	-11.6637
▁मिळायचे	-11.6638
▁मांजरांच	-11.6638
▁ओतप	-11.6638
ोमाय	-11.6638
▁बंदरातल	-11.6638
▁भोगाव	-11.6639
▁वंश	-11.664
▁षमतेमुळे	-11.664
▁एअर	-11.664
▁छंद	-11.664
▁संगमा	-11.664
▁आनद	-11.6641
▁रोझ	-11.6641
▁वेधले	-11.6641
▁राईल	-11.6641
▁बंदरे	-11.6642
▁हणावयाच	-11.6642
▁संकोच	-11.6642
▁झाडाखाल	-11.6642
▁डिसाइन	-11.6642
▁फँट	-11.6643
▁थांबवि	-11.6643
▁हातवार	-11.6643
▁बोलतेय	-11.6643
ागास	-11.6643
▁सुचवले	-11.6643
▁झेंड	-11.6644
▁घाटा	-11.6644
▁नाम	-11.6644
▁योदय	-11.6644
▁टोव	-11.6645
▁रियांमुळे	-11.6645
▁बाथ	-11.6645
▁तिरप	-11.6645
▁रहालया	-11.6645
▁आशावाद	-11.6645
लिखिता	-11.6645
▁युरेट	-11.6646
▁मुलांसोबत	-11.6646
▁कवच	-11.6646
▁घाई	-11.6647
▁टोकावर	-11.6647
▁वचेवर	-11.6648
▁तिकेय	-11.6648
ाकार	-11.6649
▁अख	-11.6649
▁निवेदन	-11.6649
▁जनशीलते	-11.6649
▁फिरण	-11.6649
▁फिल	-11.665
▁संयोग	-11.6651
▁सुई	-11.6651
▁मातेचा	-11.6651
▁चौकशी	-11.6651
▁षवेध	-11.6651
▁कलाकृती	-11.6653
▁घोळक	-11.6653
▁थांबवतो	-11.6654
▁बरेचजण	-11.6655
िटी	-11.6655
▁घसरण	-11.6655
▁संसाधन	-11.6655
▁फुटब	-11.6655
▁बोलाविले	-11.6656
▁शविते	-11.6657
▁यूरो	-11.6657
खला	-11.6657
▁पोहोचतो	-11.6658
▁खाडी	-11.6658
▁पुराण	-11.6658
▁सिंचन	-11.6658
▁लावावा	-11.6658
▁टौ	-11.6659
▁कारभार	-11.666
▁रोखून	-11.666
▁खासदार	-11.6663
▁मारिया	-11.6663
▁पावतात	-11.6664
आयए	-11.6666
▁ऑप	-11.6666
बाईट	-11.6667
▁राजकारणात	-11.6669
▁राफर	-11.6671
▁चीज	-11.6672
▁बाळगणार	-11.6674
▁उठविण	-11.6674
▁खरोखरीच	-11.6674
णगी	-11.6675
▁बचत	-11.6675
▁वायू	-11.6677
▁थांबलेली	-11.6677
▁बंक	-11.6677
▁वीडनमध	-11.6677
▁लुबेरी	-11.6678
▁माउस	-11.668
▁यकलेच	-11.668
▁धाबी	-11.6681
▁किंसें	-11.6683
▁सिग	-11.6684
▁चोक	-11.6685
▁भाषेवर	-11.6685
ंदका	-11.6686
▁शूट	-11.6687
▁तकामध	-11.6687
▁निचर	-11.6689
▁दोर	-11.669
▁पडायच	-11.669
▁तमानात	-11.669
कमी	-11.6691
▁परिचय	-11.6692
डुलक	-11.6692
▁चढविल	-11.6693
▁अहं	-11.6694
▁मिळवलं	-11.6695
▁अमान	-11.6695
▁रॉय	-11.6696
▁दयेच	-11.6696
▁कॅनडा	-11.6696
ौक	-11.6696
▁घाबरले	-11.6697
▁शिअ	-11.6697
▁वभूमी	-11.6697
▁अवयवावर	-11.6697
िझ	-11.6699
▁वरदान	-11.6699
▁गाभ	-11.67
▁धाकट	-11.6702
▁देवता	-11.6702
▁रेडो	-11.6702
▁बायो	-11.6703
▁मदोष	-11.6704
राचार	-11.6704
▁आवारा	-11.6705
▁चालवू	-11.6705
ert	-11.6707
▁रशंस	-11.6708
ुझ	-11.6708
▁रोवले	-11.6708
▁शाब	-11.6709
हारी	-11.6709
▁खतर	-11.6709
ंझा	-11.671
▁थकवा	-11.6711
▁दिवसांत	-11.6711
▁भान	-11.6713
▁मोहक	-11.6715
▁काटे	-11.6715
▁भूक	-11.6716
▁खळ	-11.6716
▁विटर	-11.6716
▁जिंकतो	-11.6717
▁टाइ	-11.6719
▁हिंद	-11.6719
▁खडका	-11.672
ंजली	-11.672
▁मॅप	-11.6723
▁कशाप	-11.6724
▁घाणी	-11.6725
▁मोठया	-11.6726
▁संवेदना	-11.6726
▁पाळी	-11.6727
▁घडण	-11.6727
▁रोड	-11.6728
▁फळीवर	-11.6733
▁लोकप	-11.6734
▁पोहून	-11.6735
▁रोबो	-11.6735
▁कलंदर	-11.6736
▁गाठायच	-11.6736
तरता	-11.6736
▁बह	-11.6736
▁जुळवण	-11.6738
▁आवरण	-11.6738
▁राखण	-11.674
▁थळावर	-11.6741
ॅंक	-11.6743
▁दुबळे	-11.6745
▁पोहोचते	-11.6745
▁काढलेल	-11.6746
▁चुंबक	-11.6747
▁रतिरूपाची	-11.6747
में	-11.6748
गड	-11.6748
कुंड	-11.6752
▁थांबले	-11.6754
▁शिकवतो	-11.6755
▁रुजव	-11.6756
ूस	-11.6757
▁हरवले	-11.6757
.....	-11.6759
▁पडलो	-11.676
▁ञांना	-11.6765
बडा	-11.6768
▁जेणे	-11.6772
▁बाहु	-11.6775
▁विकृत	-11.6776
▁रुपात	-11.6778
▁कडव	-11.678
▁मुलीने	-11.6782
▁अहे	-11.6783
▁रुमीच	-11.6783
▁थेस	-11.6785
▁माऊस	-11.6786
▁युटी	-11.6786
▁रयोगशाळ	-11.6793
▁रेख	-11.6797
▁मरता	-11.6799
▁खाच	-11.6801
en	-11.6803
▁रवण	-11.6804
▁भांडी	-11.6805
▁बिग	-11.6805
▁कॉन	-11.6806
▁तानात	-11.6806
जीवन	-11.6808
▁साधतो	-11.6808
मेगा	-11.6808
▁धडक	-11.6812
वड	-11.6812
▁युय	-11.6814
▁ओळी	-11.6815
▁भंग	-11.6817
▁शहाणपणाच	-11.682
▁मुलींन	-11.682
▁ठरतं	-11.682
▁वेधणार	-11.6822
▁हमी	-11.6829
▁रकृती	-11.6829
▁बोन	-11.6835
▁सौदी	-11.6835
▁लिं	-11.6837
▁पलंगावर	-11.6837
▁अपार	-11.6839
▁किमान	-11.6842
पणाच	-11.6843
▁हरक	-11.6847
▁मनावर	-11.685
▁सजा	-11.6854
शोध	-11.6854
▁यमात	-11.6856
▁काठी	-11.6856
▁मंदाव	-11.6861
▁सफर	-11.6862
▁भित	-11.6865
▁वतःशी	-11.6866
▁चमकणार	-11.6869
▁गुंतव	-11.6872
▁सापडणार	-11.6878
▁बांधणे	-11.6879
▁वातावरणा	-11.6881
▁कोडं	-11.6881
▁चिपा	-11.6882
▁चढण	-11.6888
▁आरश	-11.6892
▁दुखण	-11.6894
▁देवतांन	-11.6895
▁बांधला	-11.6895
हमद	-11.6897
▁कोसळणा	-11.6901
▁कॅल	-11.6902
▁खप	-11.6906
▁पाठवले	-11.6908
▁वाव	-11.6914
▁नेट	-11.6918
▁मोजक	-11.6919
▁सबर	-11.6922
▁राजकारणी	-11.6923
ापल	-11.6927
▁ठाक	-11.6935
▁कोपर	-11.6943
चढ	-11.6943
▁चुकवि	-11.6948
▁हृदया	-11.6948
▁पुरुषांना	-11.6951
▁बघूया	-11.6951
▁रकारित	-11.6952
▁दुम	-11.6953
▁इतिहासात	-11.6955
▁षमतेच	-11.6957
▁कतारच	-11.6962
▁पाती	-11.6964
▁भुकेच	-11.6964
िमान	-11.6965
▁भावनेवर	-11.697
▁करुणेची	-11.6971
▁नसणार	-11.6973
रिए	-11.6974
▁थांबवत	-11.6975
डाट	-11.6975
▁विषाणूंच	-11.6978
▁अनुकंपे	-11.6978
▁वाज	-11.6978
▁जाणिवे	-11.6983
▁बाद	-11.6986
▁नाका	-11.6988
यर	-11.699
▁मिसळले	-11.6992
▁गति	-11.6995
▁दुखापती	-11.7
▁एवढं	-11.7
▁फेका	-11.7002
▁विमाने	-11.7003
▁मनस	-11.7011
▁नदीवर	-11.7016
डकाव	-11.7018
▁गुंतागुंतीचे	-11.7025
▁रमांकाच	-11.7028
▁हलवा	-11.7033
▁वेगळेपणाच	-11.7035
▁वापरणं	-11.7037
▁यावरणाचा	-11.7049
▁वगळत	-11.7052
▁चमकत	-11.7053
▁यकारकर	-11.7055
▁हढ	-11.706
फोड	-11.7062
▁जीवनस	-11.7067
▁नोव	-11.7069
▁पुला	-11.7069
▁भागव	-11.7069
▁जोख	-11.7071
▁सने	-11.7079
▁भधारणेच	-11.708
▁चाले	-11.7081
▁यांविषयी	-11.7083
▁निरख	-11.7084
▁शूर	-11.7089
▁रणेत	-11.7098
िअर	-11.7104
िलिय	-11.7107
▁शिंग	-11.7112
▁रेलिया	-11.7122
▁थरथर	-11.7123
▁बघताय	-11.7125
▁हंस	-11.7128
▁दुःखी	-11.7128
▁षाप	-11.7146
▁पुरुषाच	-11.7146
▁रिज	-11.7148
▁पळून	-11.7148
▁औषधांन	-11.7152
▁जाणवते	-11.7162
▁लब	-11.7163
ालांमध	-11.7164
▁रीडा	-11.7175
▁शविता	-11.7175
▁रंथीच	-11.7186
▁भाशया	-11.7196
▁तलाव	-11.7198
▁सोर	-11.72
▁यिक	-11.7201
▁रभावीपण	-11.7203
ेलमध	-11.7205
▁यवसायिक	-11.7207
▁लिट	-11.721
▁धानंतर	-11.721
▁बालीमध	-11.7217
ीयर	-11.7217
▁रंगात	-11.7219
▁उं	-11.7226
▁जगापुढ	-11.7228
▁निंग	-11.7235
विज	-11.7239
▁ठेवणार	-11.7248
ीगट	-11.7248
▁अशासाठी	-11.725
ंगत	-11.7254
▁मिळवा	-11.7255
▁समुहा	-11.7257
▁वापरल	-11.7257
▁णूच	-11.7265
▁खिळ	-11.7265
हा	-11.7267
ुणीत	-11.727
▁गणिताच	-11.7281
▁गुलामगिरीत	-11.7282
▁बसव	-11.7283
▁परिसर	-11.7284
▁लावा	-11.7286
▁करुणेत	-11.7288
▁वीपासून	-11.7288
▁रशासन	-11.7292
▁ञापकां	-11.7294
▁बघणार	-11.7294
ॉन	-11.7298
▁गावी	-11.7302
▁परदेशात	-11.7302
▁यावरणात	-11.7303
▁फेल	-11.7313
वाला	-11.7321
ावरून	-11.7328
ुसंग	-11.7329
▁जल	-11.7334
▁तवाना	-11.7335
▁घडवाव	-11.7335
▁धातूच	-11.734
▁दाखवा	-11.7341
▁आईचा	-11.7342
जार	-11.7355
▁कायमचे	-11.7356
▁रतिरूपांच	-11.7357
करून	-11.7373
▁पकडल	-11.7378
▁डुकरीणीच	-11.738
▁डोल	-11.7388
▁वाचवि	-11.741
▁सेकंदा	-11.7412
▁मरणार	-11.7412
▁विकासाच	-11.7416
ीटर	-11.7418
▁निवडा	-11.7422
▁सिन	-11.7425
▁मिळवल	-11.7441
▁नांमध	-11.7446
▁अंतःकरणा	-11.745
▁रीच	-11.7457
▁जनर	-11.7472
▁पाठवाव	-11.7474
▁आवडायच	-11.7481
नाही	-11.7483
▁धान	-11.7485
▁वाकड	-11.7487
▁कणा	-11.7487
▁हिंडत	-11.749
▁काळाच	-11.749
▁फुस	-11.7499
▁शहरां	-11.75
▁पाठविण	-11.7507
▁आजमाव	-11.7509
▁ओळखता	-11.7519
▁योजकां	-11.752
▁आणला	-11.7524
▁तेवढा	-11.7526
ंकन	-11.7534
▁कोसळले	-11.7536
▁आताच	-11.7537
▁बदलल	-11.7538
▁फळी	-11.7548
सारख	-11.7554
▁कॉर	-11.7554
▁भूमिके	-11.7561
गृहात	-11.7567
कडा	-11.758
▁लिपीत	-11.7583
▁रग	-11.7585
▁अनुभवतो	-11.7593
▁उठव	-11.7595
बॉ	-11.7611
▁पाठवत	-11.7615
मिश	-11.762
▁दुखत	-11.7628
ागण	-11.7645
▁जनशीलतेच	-11.7651
▁थानात	-11.7658
▁रतीजैविक	-11.7666
▁पोहोचली	-11.7674
▁बसाव	-11.7676
ॅ	-11.7677
पसंत	-11.771
▁पोचवल	-11.7711
▁शतका	-11.7716
▁थांबण	-11.7717
शीलते	-11.7722
▁तासा	-11.7742
याव	-11.7745
▁जान	-11.7745
नाने	-11.7748
▁सायकलच	-11.7749
▁भावंड	-11.775
▁रट	-11.775
▁रिका	-11.7752
▁केन	-11.7757
▁गाडया	-11.776
▁चो	-11.7761
▁माच	-11.7768
▁पॅन	-11.7769
ेनं	-11.7769
▁फिरव	-11.7771
▁इंज	-11.7792
▁भावनेत	-11.7793
▁धिक	-11.7802
▁धरले	-11.7818
▁विट	-11.7821
▁थळी	-11.7822
ारं	-11.7823
▁लांबी	-11.7823
▁शाला	-11.783
▁शिवण	-11.7834
▁रारी	-11.7835
▁आशियात	-11.784
▁मोडल	-11.7841
▁योजनेच	-11.7841
▁घटनां	-11.7844
▁आजाराच	-11.7845
▁घडवित	-11.7855
▁मोडलेल	-11.7859
▁गरिबांन	-11.7866
▁ओळखा	-11.7867
nder	-11.7867
▁रंगा	-11.7868
ीचं	-11.787
▁थांबल	-11.7892
▁घालत	-11.7894
▁Di	-11.7901
▁खट	-11.7903
▁टम	-11.7915
▁गावाच	-11.7915
ाउस	-11.7917
▁चालायच	-11.7923
वाक	-11.7939
▁विकारां	-11.7947
निंग	-11.7949
मात	-11.7968
▁गमावले	-11.7968
▁पैल	-11.7969
▁ञासे	-11.7973
▁सविता	-11.7995
▁मुलाच	-11.7996
▁फाडल	-11.8009
फळ	-11.8023
गस	-11.8026
तोल	-11.8028
▁बाळगू	-11.8031
▁पुराणकथांच	-11.8031
रणा	-11.8053
नांचं	-11.8065
▁बनाव	-11.8068
▁अम	-11.807
▁लाक	-11.8079
ूया	-11.8083
४०	-11.8106
▁लिपीमध	-11.8106
▁नांनी	-11.8111
ाखुर	-11.8113
▁जावा	-11.8121
रुपात	-11.8151
ळी	-11.8154
▁रसंगा	-11.8165
गल	-11.8168
▁भरायच	-11.8178
▁फोटोत	-11.8182
माने	-11.8187
▁वाचायच	-11.8188
▁काव	-11.8198
▁पौंडाच	-11.8208
ानाची	-11.821
▁यवहारात	-11.8229
▁खेळाडूंन	-11.8231
▁सारायच	-11.8241
▁पुरविण	-11.8252
▁चं	-11.8264
▁पुरवि	-11.8265
▁मुलांसारख	-11.8269
▁जणांच	-11.8269
▁बरच	-11.8275
रूम	-11.828
▁मेजव	-11.8281
▁कविता	-11.8292
▁संकेतां	-11.8293
▁बनवाव	-11.8295
▁चळवळीच	-11.8313
विल	-11.8325
▁थांबवल	-11.8329
▁मानवतेच	-11.8354
▁जाड	-11.8354
ीनियर	-11.8374
▁थांबव	-11.8377
▁चालव	-11.8379
▁यांसारख	-11.8398
ेखोर	-11.8408
▁डांब	-11.8413
▁गळ	-11.8418
▁यूट	-11.8418
वाचे	-11.8419
▁किरणां	-11.8439
▁मकते	-11.844
▁हणाव	-11.845
▁धुरा	-11.8451
▁कापत	-11.8459
▁आशे	-11.8464
▁अँ	-11.847
▁यातनांच	-11.8476
ुटू	-11.8478
▁उगव	-11.8478
▁बसविण	-11.8481
▁विजे	-11.8483
p	-11.8489
▁गाळ	-11.8491
▁भावनेच	-11.8505
▁वाटचाली	-11.8513
मांमध	-11.8556
▁सुटके	-11.8562
▁कशास	-11.8569
▁जिंकता	-11.8573
▁वाढवल	-11.8578
▁साड	-11.8579
ावेळी	-11.8579
घातक	-11.8581
▁तोंडात	-11.8607
hea	-11.8617
▁माशां	-11.8618
▁गरिबीच	-11.8619
▁रकरणात	-11.8631
रिंग	-11.8642
जली	-11.8643
ेतल	-11.8647
ीपणा	-11.865
▁टिप	-11.8658
▁संबोधत	-11.8662
जु	-11.868
▁काहींच	-11.8684
▁विपर	-11.8684
पेट	-11.8695
▁हिर	-11.871
sh	-11.8711
ॅब	-11.8724
▁सोडविण	-11.8726
कू	-11.873
▁रतीरोधाच	-11.8744
▁नद	-11.8751
▁विण	-11.8754
तुक	-11.876
ुणच	-11.8761
नाचे	-11.8763
▁युम	-11.8763
▁काकांन	-11.8766
▁निवडलेल	-11.8768
▁टोका	-11.8776
▁कपात	-11.8778
णांसाठी	-11.8779
▁समुदाय	-11.8804
▁उंदरा	-11.8806
▁गाठत	-11.8816
ंको	-11.8826
▁दिवसांच	-11.8829
▁संघटनेच	-11.8837
▁रतीरोधा	-11.8838
▁रेडी	-11.8843
टीनं	-11.885
▁विचारसरणीत	-11.8852
▁येस	-11.8854
▁यमा	-11.8857
▁खोलीमध	-11.8864
▁E	-11.8872
▁बालपणा	-11.8875
▁भासण	-11.888
▁रंगाच	-11.8882
▁वचेच	-11.8886
▁समुदाया	-11.8892
▁रचनाकार	-11.8902
▁साहनां	-11.8903
▁बांधत	-11.8919
▁उचलता	-11.8922
हेर	-11.8923
▁वेळाप	-11.8932
▁खि	-11.8938
▁पाहिलस	-11.8943
▁काढायच	-11.8953
▁युरोपात	-11.8953
▁सास	-11.8963
▁कौल	-11.8966
▁तुक	-11.898
▁चमूच	-11.8984
▁कशामुळ	-11.8995
▁छत	-11.9006
▁पुनरू	-11.9009
▁सरासरीप	-11.9011
▁पोहोचव	-11.9016
▁हिंसा	-11.9019
▁६८	-11.9046
राल	-11.9052
▁नांच	-11.9064
झो	-11.9066
रोलच	-11.9069
ाधान	-11.909
▁घरातल	-11.91
▁बनवल	-11.9108
धान	-11.9108
▁यमाच	-11.9112
▁बसवण	-11.9123
▁पोली	-11.9125
नेच	-11.9138
पु	-11.9142
▁बनायच	-11.9143
▁छापण	-11.9161
▁वजना	-11.9204
▁रोध	-11.9206
▁थोडया	-11.9208
पासूनच	-11.9213
▁पदव	-11.9215
लोक	-11.9222
▁झो	-11.9229
यांवर	-11.9232
जे	-11.9233
▁हाताळ	-11.9245
▁जुगा	-11.9257
▁मश	-11.9267
▁विविधते	-11.9269
▁रवेशाच	-11.9282
▁रप	-11.9289
▁विकारांच	-11.9295
▁शंक	-11.9297
▁छानश	-11.9318
▁बोलते	-11.9333
▁सोडव	-11.9345
▁मिळविल	-11.9354
▁रहाण	-11.9376
▁संशोधकांन	-11.9396
▁पसरलेल	-11.9397
चाली	-11.9399
▁पुढल	-11.9401
▁कळाव	-11.9414
▁राणे	-11.9427
▁यासंबंधीच	-11.9431
▁पटल	-11.9439
▁उभारल	-11.9441
▁ऑफिसा	-11.9451
▁उघडता	-11.9459
▁वरुपा	-11.9461
▁पावला	-11.9481
▁शोधाच	-11.9484
ेटिंग	-11.9484
▁२२	-11.949
पान	-11.9494
▁मानवत	-11.9503
▁वशोषणा	-11.9514
▁दशकां	-11.9516
पाळ	-11.9518
▁घनत	-11.9525
▁उठा	-11.9528
▁थांबवित	-11.9572
चालक	-11.9574
▁नसू	-11.9585
▁काट	-11.9595
▁थि	-11.9597
खोर	-11.9599
▁जिंकल	-11.9602
▁मेज	-11.9607
▁घटा	-11.9616
▁भारतातल	-11.9628
▁गरजांच	-11.9631
टलं	-11.9649
▁भेटायच	-11.9675
ायचंय	-11.9682
▁छेन	-11.9686
ेलो	-11.9699
भा	-11.9705
रिड	-11.9718
▁रगतीच	-11.9724
▁निध	-11.9728
तीय	-11.9754
▁घात	-11.9759
▁फि	-11.9778
▁पेनिसिलीन	-11.9792
▁गॅ	-11.9802
जि	-11.981
रवी	-11.981
ईज	-11.9815
▁फाड	-11.9816
▁षणभर	-11.9822
वावा	-11.9829
▁लिहिता	-11.9856
दिनी	-11.9871
िग	-11.9885
▁सुपर	-11.989
▁बसवू	-11.989
▁छापा	-11.9897
▁धाक	-11.99
पश	-11.9902
▁आडव	-11.9907
शाखा	-11.992
▁रभ	-11.9921
▁बाप	-11.9933
▁मेहनती	-11.9938
▁आवडल	-11.9938
▁ओळखले	-11.9951
काला	-11.9956
▁बचावा	-11.996
▁बारा	-11.9966
केशन	-11.997
▁टिकल	-11.9974
▁वावरत	-11.9982
हिताच	-11.9986
▁तिघ	-11.9999
ए	-12
▁संघा	-12.0011
▁उचलत	-12.0034
▁संकटा	-12.0045
▁जिवाणू	-12.0047
▁तारे	-12.0073
ाधार	-12.0076
▁गवतात	-12.0076
ामुळ	-12.0099
यार	-12.0103
ुळे	-12.0116
कांपासून	-12.0118
▁जोडू	-12.0119
▁हेलाव	-12.0133
▁भूकंपा	-12.0141
▁माशा	-12.0141
▁गिळ	-12.0144
▁शिकाव	-12.0147
िचक	-12.0152
िकवण	-12.0159
▁मोडले	-12.0168
ाख	-12.0178
ाईक	-12.0186
▁जमत	-12.0189
▁नेऊ	-12.0196
नासाठी	-12.0219
पाई	-12.0227
वतांच	-12.023
▁भिज	-12.023
▁नायू	-12.0237
▁पाडू	-12.0251
गु	-12.0259
कुप	-12.0262
▁बरी	-12.0269
▁नोकरीत	-12.0271
टीत	-12.0272
पुढचे	-12.0272
उन	-12.0282
ोई	-12.0282
ौर	-12.0283
▁संम	-12.0284
▁नियमां	-12.0286
▁दिशे	-12.0287
खा	-12.0289
▁कवी	-12.0306
▁रतिजैविका	-12.0316
▁संघाच	-12.0379
▁आकृती	-12.0392
▁संघात	-12.0401
ताड	-12.0402
▁लहानश	-12.0403
▁षमतेत	-12.0403
▁वैतागत	-12.0419
ाह	-12.0427
▁बेटा	-12.045
▁धातू	-12.0454
कृतीतून	-12.0457
▁रुज	-12.0466
िमय	-12.0468
▁फुले	-12.0487
▁दडले	-12.0488
▁छापले	-12.0493
▁हातून	-12.0495
▁षाचे	-12.0497
यांनी	-12.0505
▁रसंगात	-12.0518
▁रमणाच	-12.052
▁चुकल	-12.0521
फाट	-12.0529
▁विचारसरणीच	-12.0529
▁माणसां	-12.0552
▁मिळवत	-12.0558
▁षिका	-12.0565
il	-12.0567
▁वाढलेल	-12.0572
ईच	-12.0573
▁टाकाव	-12.0575
▁रबरा	-12.0589
▁रोव	-12.059
▁याजवळच	-12.0593
ावतो	-12.061
▁भासव	-12.0613
सताना	-12.0617
▁सॅ	-12.0645
ांविषयी	-12.0661
ायड	-12.0696
▁हाल	-12.0716
▁मतदान	-12.072
▁तीप	-12.0761
▁गिधाडां	-12.0765
ढी	-12.0776
▁ठरवत	-12.0802
▁बांधता	-12.0805
▁रयोगात	-12.0809
▁ञानात	-12.0816
▁जसज	-12.0817
▁भोवताल	-12.0818
▁मलेल	-12.0831
▁हिरवळ	-12.0835
▁हाडा	-12.0842
▁अखेरच	-12.0842
▁बहुपेशी	-12.085
▁दया	-12.0853
▁घटकां	-12.0866
रेषे	-12.0867
ाऐवजी	-12.0869
▁गुदमर	-12.0873
▁विभागण	-12.0881
▁मालक	-12.0882
तोय	-12.0898
▁रवासात	-12.0902
▁एकमेकांच	-12.0903
ीएन	-12.0917
ंबरोबरच	-12.0918
निता	-12.0921
▁चढत	-12.0922
▁घडवल	-12.0931
▁भधारणे	-12.0936
▁रडत	-12.0937
▁अनियमित	-12.0939
▁भेटत	-12.095
▁मोजमापात	-12.0953
▁रांवर	-12.0967
▁तोल	-12.0979
▁वाप	-12.1011
▁रेश	-12.1019
ओ	-12.1032
सीड	-12.1044
▁धुळी	-12.1052
▁भावनाप	-12.1053
सुत	-12.1068
▁वेगळेपण	-12.1079
शाळा	-12.1097
▁ऑट	-12.1104
▁णू	-12.1118
ौद	-12.1119
▁विषमत	-12.1123
▁धुव	-12.1125
एवढ	-12.1132
▁रीला	-12.1174
▁काढत	-12.1176
▁शोधां	-12.1186
▁सभागृह	-12.1191
वायचा	-12.1202
जोबा	-12.1208
▁रियान	-12.1235
▁रसरण	-12.1236
मंच	-12.1243
▁पै	-12.1248
रीन	-12.1249
▁कॅमेर	-12.1253
▁दड	-12.1256
▁वयंसेवकां	-12.1261
िंड	-12.1265
दि	-12.127
गळ	-12.1277
ोमा	-12.1283
लेंड	-12.1284
▁नकाशात	-12.1294
ाधिकार	-12.1304
▁बेंगलोर	-12.1314
▁मोजू	-12.1327
▁कलेच	-12.1332
७०	-12.1334
▁कोणाच	-12.1338
▁दांच	-12.134
डेट	-12.1358
▁भु	-12.1359
▁रूपका	-12.1361
ाईड	-12.1369
▁हिंड	-12.1371
नियात	-12.138
▁विशाल	-12.139
▁दुनिये	-12.1394
बोली	-12.1407
▁ढा	-12.1413
भाष	-12.144
वेदने	-12.1442
▁मधमाश	-12.1451
िच	-12.1452
ंबा	-12.1455
रीक	-12.1467
विरोध	-12.1469
▁रतीरोध	-12.1469
▁दिग	-12.1475
▁टीकर	-12.1475
रोध	-12.1476
▁फुग	-12.1483
दुमड	-12.1485
टीप	-12.1486
अँ	-12.1488
▁नापास	-12.1489
▁बँके	-12.1491
मीड	-12.1494
ानंतरच	-12.1502
चुंबक	-12.1503
▁८००	-12.1503
सुध	-12.1505
▁मोहीम	-12.1506
हिले	-12.1507
कोट	-12.1508
घोट	-12.151
दुखी	-12.151
दुपार	-12.1513
घडण	-12.1514
बॅग	-12.1515
गावात	-12.1516
साठ	-12.1516
विभाज	-12.1517
दाखल	-12.1517
मेहनत	-12.1517
कायदे	-12.1517
अखेर	-12.1517
संशोधक	-12.1518
लॉ	-12.1518
जोरात	-12.152
▁अनुभ	-12.1521
मोठ	-12.1521
सुख	-12.1521
▁टोप	-12.1521
शेजारी	-12.1522
पातळ	-12.1522
वैद	-12.1524
अध	-12.1524
घडू	-12.1524
बुज	-12.1524
इट	-12.1525
संधी	-12.1525
समाधान	-12.1526
▁वाचवाय	-12.1526
इन	-12.1527
शेवट	-12.1527
छत	-12.1528
विशेष	-12.1528
शर	-12.153
पौर	-12.153
▁लिहाव	-12.1531
१९	-12.1532
घेत	-12.1532
गाडी	-12.1533
▁उजवीकडच	-12.1534
संवेदनशील	-12.1534
झर	-12.1535
भंग	-12.1537
खंड	-12.1539
▁दुभा	-12.1539
काय	-12.1539
किरण	-12.1542
ोनि	-12.1542
▁लहर	-12.1544
▁सकाळ	-12.1545
▁कोटीत	-12.1547
ऐवज	-12.1547
दिव	-12.1552
भेटी	-12.1556
le	-12.1557
ेणाच	-12.1559
बीज	-12.157
ेमाल	-12.1572
▁उकळ	-12.1573
▁भोजन	-12.1581
संमेलन	-12.1585
संपत	-12.1586
ायाम	-12.1588
▁घोळ	-12.1591
साध	-12.1594
▁भोव	-12.1594
छान	-12.1595
▁उठवि	-12.1597
ाकरिता	-12.1598
▁आढ	-12.1599
िडीओ	-12.16
दरम	-12.1603
ाणु	-12.1604
परिसं	-12.1604
ar	-12.1606
ईल	-12.1608
▁परवडण	-12.161
▁कहाण	-12.1611
▁ठभाग	-12.1611
▁वयंपाकघर	-12.1612
िफा	-12.1613
▁आघाडी	-12.1615
▁ओलांडू	-12.1615
पो	-12.1617
ेतली	-12.1618
झायमर	-12.1619
▁देशभ	-12.162
घृण	-12.1622
▁रतीजैव	-12.1623
लँड	-12.1624
धुनिक	-12.1624
ढाई	-12.1624
▁अडथ	-12.1624
▁वचे	-12.1625
विशारद	-12.1625
▁चै	-12.1626
ंदाज	-12.1627
▁नॅनो	-12.1627
▁दहशत	-12.1629
थापि	-12.1629
पेशि	-12.1629
▁झट	-12.1629
9	-12.1629
टॉप	-12.163
▁किशोर	-12.163
▁देवाणघेवाण	-12.163
▁लैपटॉप	-12.163
▁कुटूंबा	-12.163
▁भिरकाव	-12.163
▁मदुराई	-12.163
▁मेसोपोटेमिय	-12.163
▁रेणीरचने	-12.163
▁वेबसाईट	-12.163
▁शिपाईगिरि	-12.163
▁सेनेगलमध	-12.163
▁अंमलबजावणी	-12.163
▁आंघोळ	-12.163
▁आदिजीव	-12.163
▁इलिय	-12.163
▁उदाहारण	-12.163
▁उपाहारगृहा	-12.163
▁उमेदवार	-12.163
▁एकभाषीयते	-12.163
▁ओंजळ	-12.163
▁कादंबरी	-12.163
▁कॅबिनेट	-12.163
▁केरोसीनच	-12.163
▁कोलंबिया	-12.163
▁गाढव	-12.163
▁जेरुसलेम	-12.163
▁झगमगणार	-12.163
▁झेईतुंग	-12.163
▁टायलेनॉल	-12.163
▁टेरॉल	-12.163
▁नायजेरिय	-12.163
▁नारायण	-12.163
▁नेवाडा	-12.163
▁पडझड	-12.163
▁पाऊलखुणा	-12.163
▁पाणबुड	-12.163
▁पायवाटा	-12.163
▁पालापाचोळ	-12.163
▁पॉलीयुरेथेन	-12.163
▁बंडखोर	-12.163
▁भगिनी	-12.163
▁भेडसाव	-12.163
▁महामंदी	-12.163
▁महिषासुर	-12.163
▁माघार	-12.163
▁मुंबई	-12.163
▁मॅनहॅटन	-12.163
▁यशाळेस	-12.163
▁युरोजानेसीस	-12.163
▁रँक	-12.163
▁रासाऊंड	-12.163
▁रूमालांच	-12.163
▁रेडियेशनच	-12.163
▁लेबेनॉन	-12.163
▁वातानुकुल	-12.163
▁विनयभंग	-12.163
▁वेंधळ	-12.163
▁सामुदायिक	-12.163
▁साळींदर	-12.163
▁हायबाओ	-12.163
▁हिमालयाच	-12.163
▁अनयूस	-12.163
▁घरमालक	-12.163
▁डिसेंबर	-12.163
▁पारपोला	-12.163
▁भयगंड	-12.163
▁सिलिंडर	-12.163
▁अतिथंड	-12.163
▁अनुरेखन	-12.163
▁अमेरीके	-12.163
▁कारागिर	-12.163
▁गालिच	-12.163
▁गिरणी	-12.163
▁गुराख	-12.163
▁पांघर	-12.163
▁पैकेजिंग	-12.163
▁बळजबरी	-12.163
▁भाषासमूहा	-12.163
▁भुईकमळ	-12.163
▁मासेमारीच	-12.163
▁सोसायटी	-12.163
▁हातापायां	-12.163
▁गणराय	-12.163
▁टिलमन	-12.163
▁तिबेट	-12.163
▁फोफाव	-12.163
▁मेडीके	-12.163
▁यायालयात	-12.163
▁यूमोनि	-12.163
▁राउझ	-12.163
▁वाचनालय	-12.163
▁सोळा	-12.163
ुंबी	-12.163
▁तणुकी	-12.163
▁भेगां	-12.163
▁रुळावर	-12.163
▁कोशिका	-12.163
▁गडबड	-12.163
ॉइड	-12.163
▁अंगीकार	-12.163
▁गुंतवणु	-12.163
▁नेहरू	-12.163
▁बालमजुरां	-12.163
▁बालमजुरी	-12.163
▁रतिभे	-12.163
▁विळख	-12.163
कॅडमी	-12.163
▁खुटत	-12.163
▁जुमान	-12.163
▁बिजाग	-12.163
▁येवजी	-12.163
▁शिजविण	-12.163
डाखा	-12.163
▁आरोपी	-12.163
▁गुरफट	-12.163
▁महाजाल	-12.163
▁घेरले	-12.163
▁नेकलेस	-12.163
ळमळ	-12.163
▁किशोरवय	-12.163
▁पुतळ	-12.163
▁रतिरुपा	-12.163
▁वयोगटा	-12.163
▁गृहिणी	-12.163
▁युतघट	-12.163
▁सांधे	-12.163
▁कमिशन	-12.163
ाइझ	-12.163
▁निरागस	-12.163
▁लॅपटॉप	-12.163
▁केमोथेरपीच	-12.163
▁काटकोन	-12.163
ati	-12.163
▁महिनाभर	-12.163
▁विंडो	-12.163
▁19	-12.163
ॉईड	-12.163
▁डिनर	-12.163
▁थेंबा	-12.163
old	-12.163
▁फुगवट	-12.163
▁नवलाईच	-12.163
▁रांतिकार	-12.163
▁रेबेका	-12.163
ंबिया	-12.163
▁केमो	-12.163
▁याहाळ	-12.163
▁दारुड	-12.163
▁वादविवाद	-12.163
▁दळण	-12.163
▁रपतींन	-12.163
▁शिकागो	-12.163
▁पंचकोन	-12.163
▁मिलाफ	-12.163
▁मेंढ	-12.163
▁रतीघातक	-12.163
ॅसिड	-12.163
▁बटाट	-12.163
तीरोपण	-12.163
▁ठळक	-12.163
▁सिनेमा	-12.163
▁डिझा	-12.163
▁लांडग	-12.163
▁सायबर	-12.163
▁चिकाटी	-12.163
▁कामरोन	-12.163
▁अगतिक	-12.163
▁उपभो	-12.163
▁यादांमधे	-12.163
▁युवक	-12.163
▁रायोज	-12.163
▁येशू	-12.163
▁खुडत	-12.163
▁बारीकसा	-12.163
लनांका	-12.163
▁शिबीर	-12.163
ळवणूक	-12.1631
▁बायबल	-12.1631
▁विझव	-12.1631
▁विखुरल	-12.1631
ढळ	-12.1631
▁चादरी	-12.1631
▁घोटाळ	-12.1631
▁मंदिरा	-12.1631
▁युतचुंबक	-12.1631
▁ताजा	-12.1631
▁बेचैन	-12.1631
▁लीलते	-12.1631
▁फोडण	-12.1631
▁सामिच	-12.1631
▁चेतना	-12.1631
▁झगड	-12.1631
▁विसंब	-12.1631
▁आईवडिलां	-12.1631
▁गडद	-12.1631
▁अपराध	-12.1631
▁मेसो	-12.1631
▁बदलतंय	-12.1631
▁रेटरी	-12.1631
▁एबोला	-12.1631
▁चुरा	-12.1631
▁सुशोभ	-12.1631
▁तमानकाळात	-12.1631
▁आठवडाभर	-12.1631
▁लायकीच	-12.1631
▁लेबन	-12.1631
▁शाहीन	-12.1631
▁साधनसाम	-12.1631
da	-12.1631
▁कौतुक	-12.1631
▁हेंचुर	-12.1631
▁डेटा	-12.1631
▁१९४३	-12.1632
▁फिलिप	-12.1632
ायलॉ	-12.1632
▁उंदराहून	-12.1632
▁आरोपा	-12.1632
▁रोझॅक	-12.1632
▁इंजिनिअरिंग	-12.1632
▁डोलाव	-12.1632
▁भीषणता	-12.1632
▁वकिलां	-12.1632
▁ओकलंड	-12.1632
▁11	-12.1632
▁मशिन	-12.1632
▁यसेवा	-12.1632
▁आइस	-12.1632
ir	-12.1632
▁जीवनुं	-12.1632
ॅकेट	-12.1633
▁जादूमय	-12.1633
▁रोटोन	-12.1633
▁हेनरी	-12.1633
▁गुणाकार	-12.1633
▁रेणु	-12.1633
▁नितंबांच	-12.1633
▁षिततेविषयी	-12.1633
▁कुमार	-12.1633
▁तंदुर	-12.1633
▁कॅलरी	-12.1633
▁अंतरावरून	-12.1633
▁टेरे	-12.1633
▁रणांगण	-12.1633
▁वेदनाशामक	-12.1633
▁मोठमोठ	-12.1633
di	-12.1634
no	-12.1634
▁आनुव	-12.1634
▁गोंधळलेल	-12.1634
माविष	-12.1634
de	-12.1634
▁अनाथा	-12.1634
▁हंगाम	-12.1634
▁णालयां	-12.1635
▁छटा	-12.1635
▁कुकर	-12.1635
ंगिनी	-12.1635
▁हेनिस	-12.1635
▁जीवाणूंमधल	-12.1635
▁पूज	-12.1635
▁सहजीवन	-12.1635
▁पाळाव	-12.1635
▁राजवट	-12.1635
▁हगवण	-12.1635
रलँडो	-12.1636
▁जलदगती	-12.1636
▁नकळत	-12.1636
▁वचेखाली	-12.1636
▁बृने	-12.1636
▁दुखाव	-12.1636
▁इमि	-12.1636
▁युलेट	-12.1636
▁झोड	-12.1636
▁बेकार	-12.1636
▁परंपरेच	-12.1637
▁जातंतू	-12.1637
▁य़ा	-12.1637
▁ढो	-12.1637
▁उलथ	-12.1637
▁सेदारीस	-12.1638
▁ञानाधार	-12.1638
▁चौकसपणा	-12.1638
▁सहमत	-12.1638
▁ठभूमी	-12.1638
▁वाढविल	-12.1638
▁निवडणुकी	-12.1638
▁टीपथा	-12.1639
▁रशासका	-12.1639
▁टायर	-12.1639
▁समीकरण	-12.1639
▁पांडा	-12.1639
▁कॉलेजमधल	-12.1639
▁एकवटल	-12.1639
▁काँगो	-12.1639
▁अंजली	-12.1639
▁शेयर	-12.1639
▁रॉडब	-12.1639
▁भुव	-12.1639
▁ऑफीस	-12.1639
▁विचलन	-12.164
▁संगठ	-12.164
▁वचषक	-12.164
▁एकाकीपण	-12.164
▁झायमरच	-12.164
▁कारागृहा	-12.1641
▁राएल	-12.1641
▁अरेबि	-12.1641
▁यपतन	-12.1641
▁गिरी	-12.1641
▁रेडियो	-12.1641
▁संकुला	-12.1642
▁असफल	-12.1642
▁सुरव	-12.1642
▁चिडलेल	-12.1642
▁कासव	-12.1643
▁घकाळापासून	-12.1643
▁बोटांप	-12.1643
ेसाब	-12.1643
▁वासितांच	-12.1643
▁ताणाबाबत	-12.1643
▁रडण	-12.1643
▁पाडलं	-12.1643
ौल	-12.1643
▁ञावली	-12.1643
▁अँड	-12.1643
हावे	-12.1644
मजल	-12.1644
▁अपारंप	-12.1644
▁संगीतकार	-12.1644
▁रथिन	-12.1645
▁आघाडीवर	-12.1645
▁विवेक	-12.1646
▁सोडू	-12.1646
रेटर	-12.1646
▁घालवि	-12.1646
▁कुणाशी	-12.1647
ीनाम	-12.1647
▁हेगारी	-12.1648
▁पदपथ	-12.1648
▁तारकां	-12.1648
▁तिवाद	-12.1648
▁दोघांसाठी	-12.1648
▁दालन	-12.1649
▁निगर	-12.1649
▁थांबवण	-12.165
▁३६	-12.165
▁बंदुकीच	-12.165
▁समझ	-12.165
▁झळ	-12.1651
▁सहभ	-12.1651
▁बाजु	-12.1651
▁पडता	-12.1651
▁दगडफेकीच	-12.1652
▁कुकी	-12.1652
▁घडवितात	-12.1652
▁रिकाम	-12.1653
ster	-12.1653
▁लामच	-12.1654
▁१९०	-12.1654
▁आंध	-12.1654
फाव	-12.1654
परिप	-12.1654
▁रातिनिध	-12.1656
ावळी	-12.1656
▁अंदाजाप	-12.1656
▁एख	-12.1656
▁भासेल	-12.1657
▁नसाखळी	-12.1657
▁भोगले	-12.1657
▁उमज	-12.1657
▁तोडण	-12.1657
▁ठभागावर	-12.1657
▁ताठर	-12.1658
▁छेड	-12.1658
▁बॅले	-12.1658
पेटी	-12.1658
▁मॅथ	-12.1658
▁घराण	-12.1658
ाऊंट	-12.1659
▁शहाण	-12.1659
▁नीळ	-12.1659
▁उडणार	-12.1659
▁उदाहरणासारखं	-12.166
खेरीज	-12.166
▁बीजांडाकड	-12.166
▁शेतात	-12.166
▁कसब	-12.1661
नजीक	-12.1661
▁जनतेच	-12.1661
▁भि	-12.1662
ंटम	-12.1662
▁ताठ	-12.1662
▁बेरज	-12.1662
▁पाठविला	-12.1663
▁सुधारते	-12.1663
▁उतरायच	-12.1663
▁मगरीच	-12.1663
जलेली	-12.1663
▁कुटुंबाकडे	-12.1664
▁संयोजन	-12.1664
▁मोबा	-12.1664
▁जडण	-12.1664
मतेम	-12.1664
▁हृदयरोग	-12.1665
▁जखडलेल	-12.1665
▁गोवरी	-12.1665
▁गजबजलेल	-12.1665
▁भुर	-12.1665
▁वाणीवर	-12.1666
ैर	-12.1666
▁ऐकतांना	-12.1666
▁बहर	-12.1667
▁भीत	-12.1669
▁देवदूता	-12.1669
▁जमण	-12.1669
▁मोठेपणी	-12.167
▁दकोश	-12.1671
▁भंगलेल	-12.1672
▁रोपण	-12.1672
▁कॅथ	-12.1672
▁घोक	-12.1672
▁दरवाना	-12.1672
▁कोपनहेगनमध	-12.1673
▁यांहून	-12.1673
▁२०००	-12.1673
वेदना	-12.1674
▁लघुकथ	-12.1674
▁नटलेल	-12.1674
▁लेश	-12.1674
▁झड	-12.1674
▁लोट	-12.1675
▁पाळता	-12.1675
▁निवडावे	-12.1675
▁यूटर	-12.1675
▁अनुषंगाने	-12.1676
▁कुज	-12.1677
▁संमेलना	-12.1677
▁सैन	-12.1678
▁बैठकीं	-12.1678
▁फटक	-12.1678
▁सोयीस	-12.1678
▁निकोल	-12.1678
▁फुटप	-12.1679
▁यवसायांसाठी	-12.1679
▁भोजनगृह	-12.1679
▁फुटू	-12.1679
▁टमेंट	-12.1681
▁आपटल	-12.1682
▁पंधरा	-12.1682
▁नैतिक	-12.1682
▁सुकता	-12.1682
ंतपण	-12.1683
▁सांगावी	-12.1683
▁टेलर	-12.1683
▁अडव	-12.1683
▁सेंटर	-12.1683
जास	-12.1683
▁शिडी	-12.1683
ul	-12.1684
▁रियांवर	-12.1685
▁जखमा	-12.1685
ईदार	-12.1685
▁सावध	-12.1686
▁बटन	-12.1686
▁ताहर	-12.1689
▁शकशील	-12.1689
▁गुंफले	-12.1689
गनच	-12.1689
▁रशिया	-12.169
▁बुट	-12.169
▁लीम	-12.169
▁निवेश	-12.1691
▁वसलेल	-12.1691
टवणे	-12.1691
▁उकळण	-12.1693
▁खोद	-12.1694
रोविशार	-12.1694
▁घंट	-12.1694
▁वाचावी	-12.1696
परंपरे	-12.1697
▁रलिपी	-12.1698
▁केटिंग	-12.1699
तीगृहात	-12.17
▁रौ	-12.17
▁घालवतो	-12.1701
▁हळव	-12.1701
ुबे	-12.1703
उत	-12.1703
▁टेप	-12.1704
▁पायजम	-12.1704
▁सिंत	-12.1705
▁मेद	-12.1705
▁डुक	-12.1706
▁चुकलं	-12.1707
▁नेख	-12.1707
▁चौकशा	-12.1708
▁दाबले	-12.1708
▁बाट	-12.1708
▁आवरत	-12.1709
▁मोझ	-12.1711
▁डिप	-12.1712
▁अजब	-12.1714
बारी	-12.1714
▁सापडण	-12.1714
दंड	-12.1715
▁बैलाच	-12.1715
▁कसलं	-12.1716
▁जेलमध	-12.1717
▁युमर	-12.1717
जान	-12.1718
▁चोरीच	-12.1718
▁पाटी	-12.1718
पेड	-12.1719
थित	-12.1722
िमेंट	-12.1723
▁लादल	-12.1724
▁लोर	-12.1725
▁टै	-12.1725
▁रबिंदू	-12.1725
▁खूण	-12.1726
▁मौ	-12.1727
▁जहा	-12.1728
▁रारंभीच	-12.1728
▁फोटक	-12.1729
संतुल	-12.1729
नवजात	-12.1729
▁वाढवणार	-12.173
▁टपाल	-12.173
▁हिशेबन	-12.1731
▁संगणकापासून	-12.1733
▁लाईट	-12.1735
▁देशभर	-12.1735
▁मिळवायचा	-12.1736
▁बसविल	-12.1736
दोष	-12.1736
सलामत	-12.1736
▁कुटुंबासाठी	-12.1737
▁षावली	-12.1737
▁पिढीतील	-12.1738
▁टेकडी	-12.1739
ाशिवाय	-12.174
▁चालवून	-12.1741
ुमर	-12.1742
मेट	-12.1743
पविलेल	-12.1745
▁रहिवास	-12.1749
▁ऑल	-12.1749
▁फवार	-12.175
▁कानावर	-12.175
▁पादकत	-12.1751
▁अलंक	-12.1752
▁किमी	-12.1752
▁पोचवणार	-12.1753
▁कुटुंबातून	-12.1753
▁रुजविल	-12.1754
▁लिहावे	-12.1755
▁मोहीमे	-12.1755
▁नियत	-12.1757
▁कॅब	-12.1758
▁पराक	-12.1758
संवाद	-12.1759
पिठा	-12.1759
रिझ	-12.1759
▁तकांत	-12.176
▁सिझ	-12.176
जारा	-12.176
▁वाढीस	-12.176
▁थेला	-12.1761
▁हॉली	-12.1761
▁महासागरांवर	-12.1761
कीय	-12.1762
▁मानवावर	-12.1763
हर	-12.1764
▁हलके	-12.1764
▁अंतरंग	-12.1765
▁मावेळी	-12.1765
▁कळाल	-12.1767
▁पादासारख	-12.1768
▁वयो	-12.1769
▁शाळेस	-12.177
▁घटनेत	-12.1771
▁मायकल	-12.1771
▁हाहन	-12.1771
▁मांडून	-12.1771
▁काकड	-12.1772
ौश	-12.1773
▁गाबाहेर	-12.1774
▁रांक	-12.1775
▁वयंपाकघरातल	-12.1778
▁थिरावल	-12.1778
▁आवडो	-12.1779
▁उकड	-12.1779
▁कवट	-12.178
▁बेह	-12.178
▁हाताळाव	-12.1781
▁पुरुषांवर	-12.1781
▁पीड	-12.1783
▁वॉश	-12.1784
▁कामकाजाच	-12.179
णाम	-12.179
युस	-12.1792
गान	-12.1793
▁वीजपुरवठ	-12.1795
▁पकडणार	-12.1796
▁कैल	-12.1796
▁कसल	-12.1797
ृं	-12.1797
▁एमआ	-12.1798
रीकरण	-12.1798
▁ओळखेल	-12.1799
▁बाळास	-12.1802
मोलाच	-12.1804
▁मीडिया	-12.1804
tra	-12.1804
▁लॅन	-12.1806
▁उरलं	-12.1807
▁परंपरांच	-12.1808
▁घरमालकीणीकड	-12.1808
▁बळाव	-12.1809
▁नुकसानीच	-12.1818
▁उठल	-12.182
▁इमान	-12.1821
▁रॉड	-12.1823
▁पकडले	-12.1823
▁रेखाटन	-12.1824
▁करो	-12.1824
▁घडतात	-12.1825
काध	-12.1825
▁उलगडव	-12.1826
▁हसले	-12.1826
▁ससाण	-12.1826
ाविषयीच	-12.1827
▁लाज	-12.1827
▁विचारणा	-12.1829
▁जुंपता	-12.1831
▁सांगतेय	-12.1831
▁दुभाग	-12.1832
विरू	-12.1832
▁जीवाणून	-12.1833
▁सहाव	-12.1835
▁अधिकांसाठी	-12.1835
▁येमन	-12.1835
▁नियतकालिके	-12.1838
▁हेगारा	-12.1838
▁गोपनीयत	-12.184
▁फसले	-12.1841
▁भगव	-12.1842
▁मोहिमे	-12.1842
ळविले	-12.1843
▁ऐकवल	-12.1844
ua	-12.1844
▁सोफ	-12.185
▁कॉल	-12.1851
▁मोकळेपण	-12.1851
▁उतरव	-12.1851
▁रोताचा	-12.1851
▁वतावर	-12.1851
▁हायर	-12.1852
▁छपर	-12.1852
▁दोरी	-12.1854
▁सामानात	-12.1854
▁मारक	-12.1856
बाध	-12.1857
▁झु	-12.1858
ाकांवर	-12.186
मेला	-12.1861
ाळलेल	-12.1861
▁देशांच	-12.1862
▁खेळायची	-12.1866
▁कंटाळले	-12.1868
▁नाईट	-12.1869
टिस	-12.1869
▁टींप	-12.187
ॅनी	-12.1873
▁राजनीत	-12.1876
▁ढाळ	-12.188
▁सोडलेल	-12.1883
▁घेतांना	-12.1884
▁मालिके	-12.1886
बीर	-12.1887
▁शॉप	-12.1887
जावणार	-12.1888
▁पावतो	-12.1889
▁धावणार	-12.1891
▁मजीव	-12.1896
▁बहुमो	-12.1896
रोधकता	-12.1897
▁५००	-12.1897
बाड	-12.1897
गणन	-12.1897
▁विणलेल	-12.1899
▁समारंभाच	-12.19
▁फुगवू	-12.19
▁फेडण	-12.1902
▁सोपवित	-12.1902
▁मुलांवर	-12.1904
▁टेरियाच	-12.1906
▁जाणू	-12.1906
▁मुलांमध	-12.1913
▁मुलास	-12.1913
▁दोघांत	-12.1919
▁चीवर	-12.1922
▁लुक	-12.1928
ाधीश	-12.1933
▁मंदीत	-12.1933
▁युरी	-12.1934
▁माहितीपट	-12.1934
▁बेस	-12.1941
▁रूळ	-12.1941
▁कोला	-12.1945
▁रसूत	-12.1948
▁जिंकणार	-12.1951
▁बेंगलोरमध	-12.1955
▁पाठवतो	-12.1958
गारेट	-12.1958
९३	-12.1958
बिन	-12.196
▁माणसास	-12.1963
▁लिड	-12.1964
पेन	-12.1967
वते	-12.1969
ाजव	-12.1972
▁जातांना	-12.1974
मड	-12.1979
▁लंच	-12.198
▁सांगतय	-12.1981
▁नाचणार	-12.1981
▁मांडायच	-12.1989
रण	-12.199
▁टिकले	-12.1995
सळ	-12.1997
▁मालकी	-12.1998
▁मुलींमध	-12.2002
▁कोलमड	-12.2005
▁लागायचे	-12.2005
▁चैन	-12.2006
▁सोडवले	-12.2008
▁गिया	-12.2011
▁रथमता	-12.2012
▁परवान	-12.2013
▁कमावले	-12.2014
▁काय़	-12.2015
दिवस	-12.2018
गासंबंधीच	-12.2019
▁संरचने	-12.202
▁धुक	-12.2021
काटी	-12.2034
▁डेस	-12.2037
▁करोगाची	-12.2039
यट	-12.2048
▁परिषदे	-12.205
▁निवार	-12.2052
▁चिखलाच	-12.2053
▁पोहोचायच	-12.2061
▁पॉईंट	-12.2062
▁दृढ	-12.2066
▁डोर	-12.2075
▁बसविले	-12.2076
▁आयाम	-12.2078
▁कुटुंबियां	-12.2078
▁ओळखीच	-12.2081
▁मुलग	-12.2085
▁मानवस	-12.209
▁अधो	-12.2091
▁हृदयविकाराच	-12.2093
▁ईस	-12.2094
▁कमावत	-12.2097
नुभूती	-12.2097
▁बोच	-12.2099
▁लिंब	-12.2101
▁कंट	-12.2102
▁कोसळल	-12.2103
▁नियमित	-12.2104
▁धीस	-12.2109
▁आयता	-12.2109
▁हृद	-12.211
▁युवा	-12.2112
▁पकतेच	-12.2116
▁निरुप	-12.2116
तेवर	-12.2118
ंभ	-12.2124
▁हायच	-12.2124
▁बहिणीच	-12.2124
▁रौढां	-12.2128
▁खपणा	-12.213
▁गोंड	-12.2133
▁कोंबां	-12.2134
कुक	-12.2135
यांसाठी	-12.2136
▁हाताळल	-12.2138
▁रूपकात	-12.2139
▁आकडेवारीच	-12.2144
▁दुकानांच	-12.2152
▁चाळण	-12.2154
▁निराशेच	-12.2155
▁मैन	-12.2158
▁कलाक	-12.2163
▁चतु	-12.2163
तिथ	-12.2174
ोडायच	-12.2174
▁रवाद	-12.2175
▁शोधेल	-12.2181
िशीत	-12.2183
▁चौकी	-12.2186
▁सांभाळत	-12.2187
▁बॅ	-12.2192
▁फुलवल	-12.2195
▁लावणार	-12.22
▁मोकळे	-12.2206
▁दोघां	-12.2207
▁इंडिया	-12.2208
▁सोडायच	-12.2208
▁रेषेसारख	-12.2216
▁दिशेकड	-12.2218
▁अवयवांच	-12.2219
▁घोष	-12.222
▁ञानातल	-12.222
▁वारंवारत	-12.2225
▁पारंप	-12.2234
▁बनावटी	-12.2236
▁रबंधात	-12.2237
▁रजातींच	-12.2242
फत	-12.2253
▁राहणारी	-12.2255
▁रीट	-12.2257
कृति	-12.2259
ीकरणाच	-12.226
ुका	-12.2262
▁याहू	-12.2262
▁फिरवि	-12.2264
िचार	-12.2265
▁अडचणीत	-12.2266
▁ठेच	-12.2266
▁हरांड	-12.2266
▁रसू	-12.2267
▁साकारलेल	-12.2269
▁युर	-12.227
ारू	-12.2272
▁मिळकती	-12.2272
याची	-12.2272
▁चीक	-12.2277
▁याइतकं	-12.228
पलं	-12.2282
▁सतावता	-12.2285
▁मानता	-12.2286
गतीशील	-12.2288
▁घाबरव	-12.2296
वेअर	-12.2297
▁डुकरा	-12.2298
▁घुसल	-12.2302
▁शिरल	-12.2302
▁फु	-12.2307
▁झिर	-12.2312
▁एकेकाळच	-12.2316
▁दिवास	-12.2318
▁भवणार	-12.2318
▁बोटी	-12.2327
▁शरमे	-12.233
▁लेम	-12.233
▁जातींच	-12.2337
▁ररेष	-12.2341
गै	-12.2342
▁विशीत	-12.2347
▁महासागरांत	-12.2348
▁पंखा	-12.2351
रलो	-12.2353
▁दाखवला	-12.2371
▁अनियमितत	-12.2376
काळापासून	-12.2383
▁दिसायच	-12.2384
▁उंचीवर	-12.2385
खव	-12.2386
▁चाका	-12.2388
▁कशाची	-12.2391
इक	-12.2391
▁बनवणार	-12.2395
▁पिच	-12.2396
▁ऑटो	-12.2398
▁पेटवत	-12.24
ुवि	-12.2409
▁बालकाच	-12.2421
▁कनक	-12.2423
ोडक	-12.2425
▁रोके	-12.2426
▁सजगत	-12.2437
▁मांडले	-12.2444
ानाबाबत	-12.2445
▁आईवड	-12.2452
▁पनेवर	-12.2461
▁विकसनाच	-12.2467
▁बहुपेशीं	-12.2476
कोड	-12.2486
▁दारं	-12.2488
▁हिरवळी	-12.2497
▁कोडी	-12.2497
▁समजावण	-12.2507
▁हावं	-12.2513
▁टमधल	-12.2516
▁टोपण	-12.2516
▁मोजणार	-12.2517
पाळी	-12.2527
▁दारांच	-12.253
डीला	-12.2538
याकडे	-12.2547
थिल	-12.2552
▁वसवल	-12.2558
▁मुलांबाब	-12.2558
▁शतकान	-12.2561
▁वेतन	-12.2562
आयु	-12.2563
▁सोडवा	-12.2574
▁अनुना	-12.2584
रेख	-12.2588
▁रचनाकारांन	-12.261
▁निवडीच	-12.2617
▁जोना	-12.2618
▁रकाशना	-12.2621
ावरण	-12.2624
▁मतदानाच	-12.2634
▁टींचे	-12.2639
▁अमेरिकनांच	-12.2641
▁बहुतेकांच	-12.2645
▁वाचना	-12.2647
▁नकाश	-12.2649
▁जरू	-12.2655
▁लेखाप	-12.2659
▁षीण	-12.2662
▁रोफ	-12.2665
▁कुटुंबातल	-12.2666
ोरेट	-12.2668
लीफ	-12.2675
▁पेपरच	-12.2677
▁नाचत	-12.2684
▁कथेत	-12.2694
▁तळप	-12.2698
▁आकस	-12.2699
▁असंगत	-12.2703
▁धाड	-12.2711
▁जपानमध	-12.2716
▁जाणीवेच	-12.272
▁बाजूचा	-12.2723
▁अपूर	-12.2724
ताप	-12.2727
कुनी	-12.2734
▁कमधल	-12.2738
▁महास	-12.2738
st	-12.2738
माग	-12.2739
▁विकासाकड	-12.2744
▁डवर	-12.2749
▁वाचवा	-12.2753
▁येता	-12.2754
जूला	-12.2754
▁सहचा	-12.2756
▁संवेदन	-12.2766
णावरच	-12.2774
▁घालाव	-12.2787
▁हळ	-12.2796
▁वळणाच	-12.2797
▁संपणार	-12.2798
▁ओळखून	-12.2815
ागाय	-12.2816
hi	-12.2822
मेक	-12.2824
▁हाडां	-12.2858
▁रबराच	-12.288
▁आलोत	-12.2884
▁गुंतवि	-12.2889
▁लावायच	-12.289
▁मंडळाच	-12.289
▁जमाती	-12.2893
▁एकंदर	-12.2894
साम	-12.2899
ंगल	-12.29
यास	-12.29
▁भेटणार	-12.2912
गाराच	-12.2915
▁सापडलं	-12.2919
ोलर	-12.2919
▁लाई	-12.292
▁खुणाव	-12.2927
▁फुलांच	-12.2929
▁वरूपाच	-12.2938
▁रंगवले	-12.2945
▁सांप	-12.2947
▁वरवरच	-12.2958
▁साखळ	-12.2961
▁शिरता	-12.2968
▁इंक	-12.2975
▁काढाय	-12.2978
▁शौचालया	-12.298
ri	-12.2982
▁पनेतल	-12.2991
▁पाठवायच	-12.2994
▁आह	-12.3002
▁रुपयांच	-12.3007
▁हणणार	-12.3015
▁यातनाम	-12.3022
▁यासंग	-12.3026
▁सिनि	-12.3026
▁दुःखद	-12.3039
▁खंडां	-12.3045
▁छापलेल	-12.305
▁दंग	-12.3056
िदान	-12.3063
▁फरश	-12.3085
भिन	-12.3085
▁पडाव	-12.3085
जनन	-12.3086
▁मारण	-12.3094
▁फुलव	-12.3105
▁चिततेच	-12.3114
▁करोल	-12.3127
▁खंडाप	-12.3128
▁टाकलेल	-12.3128
▁घटले	-12.313
▁डायल	-12.3137
टीए	-12.3138
▁निरोध	-12.3142
▁रचारा	-12.3153
▁शिरला	-12.3158
▁रवाहातल	-12.3181
▁मेंदूस	-12.3197
▁शासाठी	-12.3203
▁परिष	-12.3208
▁गोलाच	-12.3213
▁घशा	-12.3219
▁गुद	-12.3227
भु	-12.3229
▁रांतां	-12.3246
रावणा	-12.325
नलिक	-12.3254
सेट	-12.3273
▁भिजल	-12.3274
▁लेखकांच	-12.3279
पीठ	-12.3282
▁फेकल	-12.3287
बली	-12.3298
गितली	-12.3303
▁बनणार	-12.3304
▁फुलं	-12.3311
▁रखरते	-12.3327
लिसा	-12.333
▁मधुमेहाच	-12.3332
▁टांझानियात	-12.3334
▁जहाजाच	-12.3334
▁वयंपाकाच	-12.3335
▁कुल	-12.3343
▁थांबवाय	-12.3349
▁दाण	-12.3351
लंब	-12.3367
▁भावंडांच	-12.3369
▁भूकंप	-12.3372
▁भोळ	-12.3374
कीर	-12.3386
▁कुटुंबांकड	-12.3387
▁आशियामध	-12.3387
िळ	-12.339
▁वाहनां	-12.3397
ेयर	-12.3412
▁गास	-12.3413
भुण	-12.3421
▁आभाळा	-12.3431
▁लोग	-12.3435
ुकीत	-12.3436
वाहू	-12.3438
▁णयांच	-12.3464
▁वीप	-12.3475
▁गटाच	-12.3476
▁झोपायच	-12.3481
▁सेने	-12.3481
▁ओं	-12.3491
▁अडकता	-12.3498
▁निघू	-12.3501
▁ढकलल	-12.3507
ाळणे	-12.3508
साठीच	-12.3514
▁अवर	-12.3516
▁रीपासून	-12.3517
गावले	-12.353
▁पेता	-12.3538
▁बाजारपेठेच	-12.3555
▁जाणवल	-12.3569
लेखकाच	-12.3578
▁नीर	-12.3589
▁देहा	-12.359
▁तिघां	-12.3593
तुला	-12.3644
पणी	-12.3651
▁पुरी	-12.3668
▁पाडले	-12.3671
▁वानरां	-12.3674
▁लिखाणाच	-12.3678
▁मानवाच	-12.3691
▁खासारख	-12.3698
▁शिकवित	-12.3702
▁घालवाय	-12.372
टचा	-12.3734
सतांना	-12.3742
▁शांततेच	-12.3744
▁शाख	-12.3749
▁टाचे	-12.3758
▁शरण	-12.3763
▁फळांच	-12.3764
थेत	-12.3788
▁घरावर	-12.3798
ुली	-12.3806
ोली	-12.3818
▁वलांच	-12.382
▁विना	-12.3825
चिन	-12.386
▁सिसन	-12.3864
▁रेषांच	-12.3879
▁पावसाच	-12.388
▁कोटीतल	-12.3889
▁नान	-12.3893
▁वाफव	-12.3896
▁नट	-12.39
▁लागलीत	-12.3914
▁पुराच	-12.3924
विकारत	-12.3927
कारामुळे	-12.3941
▁योजकांच	-12.3946
ापोटी	-12.3953
▁हिन	-12.3954
▁होन	-12.3977
▁मळ	-12.3977
▁गाठल	-12.3993
▁टाकायच	-12.3995
▁रंगांच	-12.3995
कान	-12.4012
रू	-12.4017
▁सुपरम	-12.4018
▁षापु	-12.4032
▁ताकदी	-12.4053
▁नेमल	-12.4059
इतके	-12.4062
मला	-12.411
▁पुरू	-12.4137
▁वीजे	-12.4141
▁बनविता	-12.4145
▁आशेन	-12.4156
▁नरांच	-12.4162
▁वाहता	-12.4168
ैमान	-12.4173
▁ठीकाण	-12.4193
▁गरजेनुस	-12.4194
लिक	-12.421
▁मेहनतीच	-12.4235
काही	-12.4239
▁बेटावरच	-12.4242
▁सोडा	-12.4257
ठीवर	-12.4266
▁उचलल	-12.4266
▁रांतीप	-12.4278
▁वशोषण	-12.4295
▁अवशेषां	-12.4299
२०	-12.4311
▁चालवल	-12.4322
▁डोकाव	-12.4337
▁बिया	-12.4348
▁धुता	-12.4349
ॉट	-12.4357
ोडणारा	-12.436
▁ठरविता	-12.4384
टींमुळे	-12.4386
ुळात	-12.4397
▁इराणच	-12.44
▁लिंगभेदा	-12.441
▁थांबायच	-12.4428
▁उभारले	-12.4437
काडी	-12.4437
▁मिन	-12.4458
▁हालचालीं	-12.4476
ाहता	-12.4496
नियम	-12.45
नाव	-12.4508
▁पकार	-12.4511
▁धाडसाच	-12.4514
▁सिंहाच	-12.4593
ोपा	-12.4597
णाक	-12.4605
▁अनि	-12.4609
▁मिळवाव	-12.4617
िनते	-12.4622
पोटी	-12.4634
▁गरिबीत	-12.4648
▁अपघातानं	-12.4687
ठराव	-12.4696
▁राश	-12.4714
▁तीजैविका	-12.473
जणांन	-12.475
रुप	-12.4754
सिक	-12.4759
ठावर	-12.4769
▁थापने	-12.4769
▁वाढणार	-12.4771
▁मकतेच	-12.4771
गन	-12.4781
ुगारा	-12.4782
सद	-12.4793
▁मासाच	-12.4807
▁हापासूनच	-12.4823
▁डबा	-12.4846
ांबरोबरच	-12.4875
▁बळींन	-12.4887
▁लिंगाच	-12.4893
▁येथल	-12.4896
डीश	-12.4912
ोती	-12.4929
▁उठता	-12.4938
▁अनुभवां	-12.494
▁पनांकड	-12.496
▁वसना	-12.4997
ाबाहेरच	-12.5001
▁रोधा	-12.5026
▁बंदरा	-12.503
▁वेळेप	-12.5045
▁पोहचवि	-12.5061
▁मैदाना	-12.5072
यांना	-12.5081
▁वचना	-12.5083
▁कुराणात	-12.5095
▁रफीती	-12.5114
▁वितळवू	-12.5118
औषधी	-12.5184
िलास	-12.5199
▁गटामध	-12.521
शियन	-12.5225
▁पकडाय	-12.5302
शु	-12.5345
▁संगणकान	-12.5349
▁लेखता	-12.5356
▁आघात	-12.536
छ	-12.536
लभ	-12.5362
▁आजारांच	-12.5369
▁बेडर	-12.5369
जुरी	-12.5391
▁भावंडां	-12.5405
▁बिचा	-12.5417
▁बालपण	-12.5421
▁हातान	-12.5421
▁मापा	-12.5449
▁संबोधल	-12.5471
विनाश	-12.5475
मॅ	-12.5484
हार	-12.5488
▁टेकत	-12.5512
ॉम	-12.5512
▁अनावर	-12.5535
▁अलग	-12.5544
राची	-12.5547
▁षापू	-12.5613
झाइ	-12.5642
भेद	-12.5646
▁बुडव	-12.5658
▁मेणाच	-12.566
शंका	-12.5666
▁खांबा	-12.5676
▁आघाता	-12.5689
साव	-12.5694
ha	-12.5695
▁लेखिकां	-12.5707
नेशिय	-12.5713
भवती	-12.5736
▁सायकलीं	-12.5746
▁कपाच	-12.5749
लगता	-12.5796
मृद	-12.5818
बेरी	-12.583
यकारकपणे	-12.5831
कु	-12.5832
▁उठवण	-12.5834
▁रीझ	-12.5849
राध	-12.5851
चेतन	-12.5902
ad	-12.5905
▁कपातल	-12.5928
is	-12.5935
▁मैदान	-12.5941
मधली	-12.5944
▁दलाल	-12.5948
▁रतिरूपां	-12.6002
▁पातळीत	-12.6022
ip	-12.6047
▁राल	-12.6112
▁उंचावता	-12.6112
ुट	-12.6127
▁राखी	-12.614
मंज	-12.6149
▁बरोबरीच	-12.6181
▁जाणावया	-12.6199
▁नेतेप	-12.6219
▁सेकंदां	-12.6225
▁बुडवू	-12.6262
▁रेणीच	-12.6266
वनात	-12.6268
▁टिपत	-12.6354
▁सालच	-12.6363
▁वलाच	-12.6391
▁जणां	-12.6398
▁उपप	-12.6408
▁हवामानात	-12.6452
▁ञाताच	-12.6461
वेश	-12.6472
▁गरजेप	-12.6479
यातल	-12.649
▁फुर	-12.6518
▁कवित	-12.6606
योगि	-12.6651
▁षिततेब	-12.6652
ॅड	-12.6676
▁लिंगभेद	-12.67
जीवांच	-12.6727
वितात	-12.6753
णकट	-12.6768
▁दोघांन	-12.677
▁कोव	-12.6792
▁ओलांडल	-12.6794
▁केनियाच	-12.6808
मिंग	-12.6822
▁अवशेष	-12.6838
▁षकांन	-12.6846
▁उगवल	-12.6879
▁सुर	-12.6891
▁वडिलां	-12.6914
बलेट	-12.6931
१४	-12.6968
▁पाळण	-12.6975
▁ञानाकड	-12.6999
▁दुराव	-12.7009
ंकडून	-12.7064
▁धुर	-12.71
िबंध	-12.7106
दाह	-12.7112
▁णयां	-12.7139
कापली	-12.7189
वाकडा	-12.7192
ाहक	-12.7212
यांची	-12.7213
विकार	-12.7226
▁ञाव	-12.7234
▁मुलीं	-12.7251
▁विनि	-12.7257
उस	-12.7262
४३	-12.7287
▁रभा	-12.7311
ओवर	-12.7317
रोबर	-12.7387
▁दुकान	-12.7396
भि	-12.7428
अँज	-12.7461
ाइतक	-12.7466
फळा	-12.7477
बॉल	-12.7524
▁अंगण	-12.7558
टू	-12.7592
inder	-12.7606
पुरत	-12.7621
ैन	-12.7645
▁पोहचव	-12.7658
▁मैलां	-12.7691
ांमुळ	-12.7702
▁खुण	-12.7709
▁घडवि	-12.7737
▁साठवू	-12.7753
ोळात	-12.7765
डान	-12.7833
फिंग	-12.7846
१३	-12.7851
▁वानरा	-12.7854
▁रमाणाप	-12.7869
रीफ	-12.7888
आकारण	-12.7891
९८	-12.7928
देवतेच	-12.7935
▁हलवण	-12.795
लिटर	-12.7966
िणी	-12.7971
देत	-12.799
▁रमांच	-12.799
▁गरिब	-12.8032
▁आभाळ	-12.8056
▁भप	-12.8073
▁शिखरा	-12.8088
▁गतीमा	-12.8099
आल	-12.8126
धून	-12.813
टॅ	-12.8185
▁रकारां	-12.819
▁टांझानिया	-12.8209
▁पैशां	-12.8233
रुव	-12.8236
▁उचलण	-12.8254
▁मिड	-12.8257
▁दगाव	-12.83
हु	-12.831
▁शिपाईगिरीच	-12.8316
ुलाब	-12.8323
▁शिबिर	-12.8338
िड	-12.8342
जेसन	-12.837
es	-12.84
▁मुलांप	-12.8461
टोन	-12.8491
▁संगीताच	-12.8531
दीवर	-12.8571
▁आजमावू	-12.8583
भवन	-12.863
▁जॉ	-12.8641
▁घालव	-12.8715
▁खोलीप	-12.8747
▁अंतःकरण	-12.8757
वाटेवर	-12.8757
▁चालवण	-12.8769
साखळी	-12.8776
▁शौचालय	-12.8795
▁विभ	-12.8806
पादक	-12.885
काराने	-12.8851
संगीतात	-12.8869
अ	-13.1264
ऑ	-13.1507
’	-14.4881
#	-14.4882
%	-14.4883
”	-14.4884
ँ	-14.4885
औ	-14.4886
ऐ	-14.4887
!	-14.4888
—	-14.4889
ञ	-14.489
:	-14.4891
ॉ	-14.4892
)	-14.4893
?	-14.4894
&	-14.4895
्	-14.4896
