<unk>	0
<s>	0
</s>	0
▁,	-3.15277
▁.	-3.23078
▁	-3.71116
▁на	-3.78119
▁да	-3.86545
те	-4.0107
а	-4.05118
▁и	-4.05123
▁се	-4.15897
и	-4.30445
та	-4.30659
▁во	-4.3414
▁е	-4.34766
от	-4.37226
▁за	-4.44282
▁од	-4.48715
ме	-4.55298
ат	-4.56081
▁го	-4.79123
то	-4.84396
▁што	-4.85511
▁не	-4.89652
▁со	-4.98687
о	-4.99965
▁дека	-5.03445
м	-5.13292
е	-5.1646
▁ги	-5.26911
▁тоа	-5.29738
▁ќе	-5.38882
▁како	-5.40586
▁ја	-5.42372
▁И	-5.46647
;	-5.58115
▁кои	-5.61597
ен	-5.62624
▁&	-5.6355
ше	-5.6654
▁?	-5.66927
ot	-5.69064
qu	-5.69199
▁многу	-5.80103
▁има	-5.80782
в	-5.81723
▁може	-5.8494
ле	-5.86999
▁до	-5.89946
▁по	-5.92937
▁ова	-5.94825
ни	-5.99917
▁луѓе	-6.00222
▁)	-6.0309
(	-6.03153
„	-6.03216
ите	-6.03626
▁кој	-6.05565
▁“	-6.0755
▁кога	-6.12825
на	-6.12958
с	-6.13345
▁:	-6.13756
▁Но	-6.14206
л	-6.15224
ам	-6.15895
ата	-6.17651
но	-6.22737
▁а	-6.25696
▁или	-6.28753
ш	-6.29526
▁бе	-6.31238
▁само	-6.33163
▁би	-6.35886
т	-6.36341
▁ни	-6.38566
▁која	-6.39819
▁но	-6.40977
-	-6.4162
▁ми	-6.42494
▁еден	-6.429
ли	-6.43721
▁Ова	-6.45444
тие	-6.45861
▁А	-6.47527
▁—	-6.48577
▁треба	-6.49278
н	-6.49781
▁така	-6.54856
▁сите	-6.56073
▁ви	-6.56082
▁повеќе	-6.59261
овие	-6.59483
▁нешто	-6.60079
▁ако	-6.60239
▁една	-6.60605
▁Тоа	-6.61277
ње	-6.63209
ја	-6.63315
▁Не	-6.64185
р	-6.65212
к	-6.65788
би	-6.68405
▁нема	-6.69462
▁с	-6.70046
што	-6.7186
▁си	-6.73743
вме	-6.74123
▁биде	-6.74215
▁години	-6.74505
▁им	-6.77187
▁та	-6.7829
▁-	-6.79921
▁Во	-6.80061
ла	-6.81371
▁оваа	-6.8157
▁работи	-6.816
▁тој	-6.8228
▁Се	-6.8251
ка	-6.82721
▁време	-6.82802
▁наши	-6.83797
▁јас	-6.8411
▁сум	-6.84595
▁овој	-6.86106
▁сме	-6.86353
ло	-6.91178
▁начин	-6.91454
▁Па	-6.92245
јќи	-6.92306
▁други	-6.94411
▁дел	-6.95279
▁о	-6.95343
▁гледа	-6.97464
▁пред	-7.0065
.	-7.02326
▁знае	-7.02967
▁она	-7.05136
▁навистина	-7.06345
▁ние	-7.07017
▁каде	-7.0855
▁всушност	-7.08997
▁бидејќ	-7.09091
▁На	-7.09696
▁некој	-7.10164
уште	-7.10288
▁исто	-7.10805
▁сега	-7.11041
колу	-7.12207
з	-7.14471
когаш	-7.148
▁светот	-7.15328
▁нив	-7.15755
ва	-7.17963
è	-7.18142
▁кон	-7.18262
▁Смеа	-7.19367
колку	-7.19426
▁сака	-7.20111
▁Ти	-7.22006
у	-7.22384
▁работа	-7.22581
▁прави	-7.22905
▁секој	-7.22968
п	-7.23005
▁неко	-7.23258
▁па	-7.23338
д	-7.2395
▁при	-7.24763
▁ме	-7.25564
▁мој	-7.25605
▁С	-7.28136
▁му	-7.28469
▁толку	-7.29113
ци	-7.30728
му	-7.31295
▁можеме	-7.31621
▁тогаш	-7.32676
▁кое	-7.33143
мене	-7.33732
г	-7.34251
ната	-7.34389
▁имаме	-7.34619
▁деца	-7.34851
▁Да	-7.38596
▁неколку	-7.38871
ти	-7.39883
▁Значи	-7.40681
▁пример	-7.41004
ски	-7.41234
▁Има	-7.41349
▁вид	-7.41389
ри	-7.417
▁Може	-7.42363
▁Ни	-7.43147
▁Ако	-7.43802
▁сте	-7.44476
▁затоа	-7.44526
▁било	-7.44797
▁низ	-7.45176
▁нај	-7.45233
▁живот	-7.45322
▁направи	-7.4577
ува	-7.45811
▁овде	-7.46159
▁В	-7.46545
▁За	-7.47462
▁пре	-7.47642
▁мора	-7.48363
▁Како	-7.48832
ните	-7.49887
▁Јас	-7.49961
▁преку	-7.50134
▁свет	-7.50257
▁Ког	-7.50328
▁Аплауз	-7.50721
ра	-7.53085
▁нас	-7.53587
▁колку	-7.53766
ст	-7.54743
њето	-7.55085
▁сакам	-7.5541
▁без	-7.55939
ј	-7.5676
▁Так	-7.56917
▁Ви	-7.57118
иот	-7.57983
ф	-7.58945
▁кажа	-7.59198
▁туку	-7.59872
▁мож	-7.59875
▁мисла	-7.60308
a	-7.60538
▁едно	-7.6184
▁вас	-7.62422
▁рече	-7.63146
▁под	-7.63399
дека	-7.64133
▁кај	-7.65049
ени	-7.65756
▁три	-7.66535
▁Сега	-7.66593
▁Што	-7.6739
▁биле	-7.67503
▁ве	-7.69395
шата	-7.69447
▁година	-7.69833
▁дур	-7.70057
▁моја	-7.70412
▁малку	-7.70661
▁бев	-7.7084
▁страна	-7.71441
▁пото	-7.7209
▁Тој	-7.72576
▁Е	-7.72741
▁бид	-7.73148
▁зо	-7.73259
▁По	-7.7328
▁добро	-7.75067
име	-7.75243
▁крај	-7.75614
▁беа	-7.76302
▁К	-7.76565
▁ден	-7.77829
▁Та	-7.77877
▁две	-7.78945
ч	-7.79437
ост	-7.79477
▁...	-7.79683
ди	-7.79778
▁благодарам	-7.8011
▁значи	-7.80312
▁прават	-7.80537
▁цел	-7.80662
▁случува	-7.81606
▁изгледа	-7.82129
▁прашање	-7.82284
▁денес	-7.82728
ж	-7.82845
ниот	-7.83257
ете	-7.8341
не	-7.83543
ови	-7.8412
ве	-7.84142
веќе	-7.85245
▁ваши	-7.8534
▁Го	-7.85534
ви	-7.85704
▁До	-7.86629
▁пат	-7.8701
▁зборува	-7.8845
▁нивни	-7.88552
▁различни	-7.88624
ување	-7.89364
▁бил	-7.89376
▁идеја	-7.90607
▁број	-7.90852
▁Ов	-7.913
▁можам	-7.91326
▁слика	-7.91457
ија	-7.91551
▁вели	-7.91652
ој	-7.927
ки	-7.93155
ов	-7.94301
ото	-7.94454
▁себе	-7.94555
▁про	-7.94798
▁приказна	-7.94887
чи	-7.95021
ок	-7.95121
▁в	-7.95179
▁два	-7.95264
▁него	-7.95891
▁Дали	-7.95994
000	-7.96176
▁место	-7.96588
▁Си	-7.9663
▁О	-7.96647
▁друг	-7.97573
▁голем	-7.99032
▁врз	-7.99199
▁проблем	-7.99794
ска	-7.99872
▁постои	-8.00115
▁видите	-8.00596
▁корист	-8.00741
ба	-8.00836
▁покажа	-8.0106
▁тука	-8.01247
ту	-8.01446
▁животот	-8.0186
▁станува	-8.02422
во	-8.02651
че	-8.03232
▁ред	-8.03441
ира	-8.04557
▁случи	-8.0463
пак	-8.04865
▁поради	-8.04957
▁ти	-8.05483
▁мои	-8.06024
▁Б	-8.06184
▁свои	-8.0622
▁користи	-8.06938
▁енергија	-8.07158
▁човек	-8.07858
▁Од	-8.08278
▁добива	-8.08468
го	-8.08661
▁нешта	-8.08689
▁погледне	-8.0871
▁они	-8.09174
меѓу	-8.09689
▁вие	-8.09701
▁Зо	-8.09789
зи	-8.09909
▁мозокот	-8.10146
уваат	-8.10906
▁П	-8.12599
▁бара	-8.13084
▁Мисла	-8.13198
▁живее	-8.13883
▁сами	-8.14022
▁разбира	-8.1431
▁н	-8.14665
како	-8.14841
чки	-8.15214
▁Ја	-8.15429
каде	-8.15549
▁систем	-8.15677
▁Со	-8.16329
да	-8.16344
многу	-8.16573
за	-8.16663
▁пати	-8.17066
1	-8.17131
правам	-8.1717
▁направиме	-8.17408
▁податоци	-8.17419
▁моќ	-8.18104
кму	-8.18343
▁10	-8.18375
ко	-8.1845
▁из	-8.1905
▁знам	-8.19741
де	-8.19866
▁разлика	-8.20129
▁храна	-8.20203
▁основа	-8.20411
еднаш	-8.20511
га	-8.21494
сти	-8.21756
ие	-8.22005
▁цели	-8.22244
▁Ги	-8.22252
▁свој	-8.23023
▁заедно	-8.2314
▁едноставно	-8.23298
еше	-8.23676
▁верува	-8.23892
оста	-8.23911
▁милиони	-8.23916
▁мое	-8.24161
▁нови	-8.24225
▁била	-8.24427
▁промени	-8.24675
▁студенти	-8.2495
▁први	-8.25091
▁прв	-8.25115
▁повторн	-8.25224
▁пари	-8.25289
сушност	-8.25785
▁зборувам	-8.2581
▁негови	-8.26809
▁четири	-8.27042
▁пак	-8.27871
▁врска	-8.28267
▁пет	-8.2866
▁наоѓа	-8.28809
▁јазик	-8.28809
пи	-8.29191
e	-8.29495
па	-8.29856
▁Зато	-8.30004
▁ли	-8.30595
▁кажува	-8.30717
▁случај	-8.30805
ење	-8.30902
▁мозок	-8.3122
ради	-8.31917
▁збор	-8.31929
▁технологија	-8.32498
▁Бидејќ	-8.325
ор	-8.32501
▁исти	-8.32547
▁имам	-8.32741
▁У	-8.32827
▁град	-8.32898
▁дава	-8.32907
▁личност	-8.33249
▁функционира	-8.34437
▁Еве	-8.34482
б	-8.35316
до	-8.35458
▁вел	-8.35494
▁меѓу	-8.35594
▁жена	-8.35726
ста	-8.36216
▁имате	-8.3667
▁проценти	-8.36753
▁Исто	-8.36817
▁ма	-8.36886
▁помалку	-8.37679
нг	-8.37713
▁сакал	-8.37738
ното	-8.37888
▁доволн	-8.38028
▁простор	-8.38902
по	-8.38931
▁вика	-8.39041
▁друга	-8.39231
▁ништо	-8.39255
лично	-8.3976
▁жени	-8.39854
ер	-8.39928
х	-8.40827
▁проблеми	-8.42021
▁смеа	-8.42253
▁зборови	-8.4259
јте	-8.42929
▁група	-8.43069
▁информации	-8.43069
▁реч	-8.43094
▁момент	-8.43291
▁жените	-8.43568
▁Нема	-8.43957
▁големи	-8.44271
▁видиме	-8.44348
▁човечки	-8.4449
▁против	-8.44503
▁голема	-8.44585
ско	-8.44765
ан	-8.44824
▁доаѓа	-8.44831
лу	-8.45145
▁Би	-8.45469
дам	-8.45523
▁ваш	-8.45581
▁Многу	-8.45896
▁книга	-8.45896
▁вода	-8.46085
▁животни	-8.46177
▁рака	-8.46311
▁најде	-8.46324
бар	-8.46401
▁игра	-8.46448
▁долари	-8.46616
▁друго	-8.46633
▁Т	-8.46819
▁дојде	-8.46821
ре	-8.4703
▁мали	-8.47088
▁даде	-8.47128
▁20	-8.47887
▁дете	-8.48076
ум	-8.48393
▁Сакам	-8.48591
pos	-8.48806
вен	-8.49273
▁у	-8.49335
▁ниво	-8.49434
▁одговор	-8.49699
▁тек	-8.50103
▁после	-8.50113
o	-8.50274
ел	-8.50292
ин	-8.50416
▁земја	-8.5043
▁имав	-8.50798
▁нивна	-8.51083
▁места	-8.51178
▁Она	-8.51421
се	-8.51515
▁форма	-8.51537
ар	-8.51605
▁век	-8.51885
▁час	-8.52258
▁создава	-8.52303
▁говор	-8.52486
▁направен	-8.53559
▁земји	-8.53793
▁процес	-8.5395
тите	-8.54218
ници	-8.54417
▁обидува	-8.54782
▁сакате	-8.54846
▁однос	-8.54857
▁одреден	-8.55042
место	-8.55592
▁интернет	-8.55678
▁ко	-8.55691
▁Г	-8.55794
▁подоцн	-8.56131
▁болест	-8.56352
▁реков	-8.56358
ност	-8.56407
▁дома	-8.56464
▁над	-8.56466
▁секако	-8.56506
▁покажува	-8.56519
некогаш	-8.56587
▁доста	-8.56754
▁среќа	-8.57073
▁Ед	-8.5746
ците	-8.57653
овите	-8.57905
иси	-8.58026
▁сила	-8.58031
ако	-8.58035
▁Знае	-8.5808
лен	-8.58348
шето	-8.58417
▁Х	-8.58861
▁семејство	-8.58891
чен	-8.58983
▁ре	-8.59
ција	-8.59057
▁постој	-8.59482
▁еве	-8.59857
▁живе	-8.59996
▁Д	-8.60027
си	-8.60079
▁добие	-8.60216
ник	-8.60369
▁можност	-8.60507
▁г	-8.60719
▁Пото	-8.60844
▁иста	-8.60972
▁дизајн	-8.6102
▁вистински	-8.61371
▁пристап	-8.61371
▁претставува	-8.61518
▁избор	-8.61793
дат	-8.6217
▁иднина	-8.62211
▁вака	-8.62227
тив	-8.62471
▁земе	-8.63082
▁добри	-8.63117
▁видов	-8.63181
▁цела	-8.63567
▁он	-8.63808
ѝ	-8.63913
▁почеток	-8.63913
ено	-8.63971
▁Една	-8.63976
▁приказни	-8.64007
▁неговат	-8.64115
ц	-8.64449
џ	-8.64774
▁Ма	-8.64794
кот	-8.64827
▁прашања	-8.64846
▁идеи	-8.64875
▁милијарди	-8.65143
▁неврони	-8.65588
▁направив	-8.65609
▁100	-8.65665
▁чувствува	-8.66001
▁однесување	-8.66232
▁причина	-8.66525
▁Ко	-8.67064
▁стана	-8.67098
▁веројатно	-8.67319
▁целосно	-8.67412
▁своја	-8.67452
▁нарекува	-8.67454
▁3	-8.67512
▁Ми	-8.67574
ња	-8.67616
▁размислува	-8.68278
▁чини	-8.68585
ство	-8.69116
▁клетки	-8.69201
▁важно	-8.69406
▁пријатели	-8.6991
▁планета	-8.70114
▁мала	-8.7029
▁де	-8.70463
од	-8.70684
▁50	-8.70961
▁тешко	-8.70982
▁училиште	-8.71141
▁нејзини	-8.71404
▁тело	-8.7142
▁мајка	-8.71953
▁глас	-8.71967
ур	-8.72055
▁какв	-8.72068
▁често	-8.72154
ков	-8.7222
дел	-8.72861
▁Луѓе	-8.72888
▁наречен	-8.7308
▁пишува	-8.73104
ската	-8.73267
▁Р	-8.73363
▁Или	-8.73402
општо	-8.73441
▁почнува	-8.73832
▁мисли	-8.73898
▁поле	-8.73912
▁зема	-8.73972
▁надвор	-8.73975
ден	-8.746
кој	-8.7466
▁менува	-8.74749
ѐ	-8.74783
▁подобро	-8.74923
▁добра	-8.74961
▁научи	-8.75015
тра	-8.75187
▁проект	-8.75425
плауз	-8.7559
▁ин	-8.75667
▁помош	-8.75745
▁нов	-8.75801
▁слики	-8.75818
▁начини	-8.75867
▁мал	-8.75875
▁ш	-8.75924
▁движење	-8.76227
▁врати	-8.76809
знаат	-8.76811
▁Мо	-8.76877
▁насе	-8.76992
▁праша	-8.77037
▁Смеење	-8.77698
▁чувство	-8.77725
▁образование	-8.77735
крај	-8.78012
▁животи	-8.78267
▁делови	-8.78631
▁вакви	-8.78686
▁баш	-8.78698
▁т	-8.78838
▁Пред	-8.78862
ај	-8.78908
ката	-8.79029
▁почна	-8.79612
ус	-8.79674
▁САД	-8.79686
▁според	-8.79733
▁постојано	-8.80211
▁ка	-8.80374
▁право	-8.80406
▁Африка	-8.80422
▁промена	-8.80435
i	-8.81102
▁рак	-8.81429
▁прва	-8.81476
▁Европа	-8.81717
▁книги	-8.81717
▁татко	-8.81721
он	-8.81849
кс	-8.81888
▁раз	-8.81987
▁родители	-8.82514
▁градови	-8.82561
s	-8.82666
▁состојба	-8.82748
▁историја	-8.82821
ури	-8.83019
▁То	-8.83053
нт	-8.83068
▁последни	-8.83258
▁некако	-8.83286
2	-8.8337
▁Бе	-8.83726
▁создаде	-8.83773
▁Ф	-8.8386
▁дена	-8.83937
▁социјални	-8.84168
▁М	-8.84719
▁развој	-8.84842
жи	-8.85102
▁видови	-8.85288
▁брзо	-8.85311
▁работат	-8.85328
ред	-8.85892
▁средина	-8.85922
вер	-8.86332
▁назад	-8.86456
зна	-8.86548
▁користе	-8.86999
▁период	-8.88068
▁општество	-8.88069
▁точно	-8.8808
▁;	-8.88226
▁пазар	-8.88599
0	-8.88668
▁40	-8.88795
▁срце	-8.88921
▁сакав	-8.89123
▁Мора	-8.89153
▁Денес	-8.89194
▁к	-8.89225
це	-8.8958
▁каже	-8.896
▁мажите	-8.89806
▁потреба	-8.90288
▁бегалци	-8.90419
▁Само	-8.90479
▁Мој	-8.90685
бе	-8.90835
▁мрежа	-8.90846
▁проблемот	-8.91191
▁почне	-8.91402
зе	-8.91463
▁култура	-8.91527
▁лесно	-8.91739
ирање	-8.91907
уваме	-8.91984
ку	-8.92312
▁врв	-8.92521
▁модел	-8.92539
▁лице	-8.9257
▁разбере	-8.92651
ец	-8.92736
ман	-8.92837
▁минути	-8.92846
▁природата	-8.93242
▁месеци	-8.93419
прават	-8.93436
▁некогаш	-8.93623
▁поголема	-8.93638
▁куќа	-8.93687
▁Треба	-8.93688
▁стане	-8.93721
бо	-8.9388
увањето	-8.93952
▁рекол	-8.94006
▁искуство	-8.94028
▁ум	-8.94336
чни	-8.94426
▁помогне	-8.9485
▁страв	-8.94853
▁нос	-8.94907
▁5	-8.95023
ација	-8.95356
▁истражување	-8.95493
▁групи	-8.95681
нува	-8.96295
ев	-8.96389
ските	-8.96419
▁очи	-8.96495
изира	-8.96579
▁гледам	-8.96608
▁знаење	-8.96773
▁смртта	-8.96927
зија	-8.97236
нд	-8.97418
▁От	-8.97964
▁мо	-8.98029
▁земјата	-8.98199
мор	-8.98336
,	-8.98406
▁пријател	-8.98688
▁Америка	-8.9874
▁тип	-8.98776
носта	-8.99258
▁влијание	-8.99642
▁љубов	-8.9965
▁15	-8.99705
▁баре	-8.99778
▁овозможува	-8.99864
▁верувам	-8.99989
▁соба	-9.0026
рија	-9.00269
▁Ш	-9.00368
▁музика	-9.00877
▁Колку	-9.00902
▁Кој	-9.00949
▁Ме	-9.00964
▁смета	-9.0099
▁можев	-9.01021
▁супер	-9.01099
▁нова	-9.0111
▁секо	-9.0112
▁стави	-9.01239
▁факт	-9.01639
▁особено	-9.02073
▁сосем	-9.02133
▁раце	-9.02134
ца	-9.02137
пат	-9.02146
▁половина	-9.02191
чна	-9.02261
▁поголем	-9.02481
мина	-9.02714
веројатно	-9.02805
▁другата	-9.02879
▁Благодарам	-9.03411
▁најголеми	-9.03643
▁поглед	-9.03879
▁постави	-9.04498
▁резултат	-9.04652
▁TED	-9.04674
▁уметност	-9.04674
▁помага	-9.04674
▁Некои	-9.04678
личен	-9.0479
▁мажи	-9.05246
▁пол	-9.05653
▁чита	-9.05658
▁Ајд	-9.05802
пе	-9.05872
▁мислите	-9.05886
▁замисли	-9.05973
▁звуч	-9.05973
▁насилство	-9.05974
▁точка	-9.06051
▁јаде	-9.06159
▁предвид	-9.06183
▁скоро	-9.0625
▁работата	-9.06308
▁секс	-9.0648
▁рас	-9.06756
чка	-9.069
▁видео	-9.07178
▁најдобри	-9.0729
▁илјадници	-9.07311
▁Добро	-9.07432
▁човечка	-9.07471
▁очекува	-9.07646
▁однесува	-9.07672
▁следни	-9.0801
▁способност	-9.08068
▁лета	-9.08261
▁4	-9.08314
▁започна	-9.08473
▁Тогаш	-9.08622
▁седум	-9.08627
▁шест	-9.08705
▁Овде	-9.08707
t	-9.09128
▁учење	-9.0913
▁става	-9.09246
▁х	-9.09387
▁Ка	-9.09504
ет	-9.096
▁Те	-9.09867
▁поврзани	-9.09901
▁почнав	-9.09929
▁заедница	-9.09974
▁потребни	-9.09975
▁Земја	-9.10215
▁сто	-9.10308
▁открив	-9.10437
▁оп	-9.10529
▁нивниот	-9.10759
▁вирус	-9.10888
▁нејзин	-9.10895
▁сфати	-9.11158
▁можности	-9.11273
▁смисла	-9.11343
▁светлина	-9.11358
▁ист	-9.114
▁значење	-9.11429
▁добија	-9.12518
▁материјал	-9.12591
вор	-9.12617
▁можел	-9.12665
▁&#9	-9.12732
▁&#93;	-9.12732
▁компании	-9.12732
▁жал	-9.12747
▁бо	-9.128
нес	-9.12839
▁болести	-9.12943
иш	-9.13186
▁осв	-9.13279
▁умира	-9.13443
▁мол	-9.13449
▁ваше	-9.13481
▁30	-9.13789
▁суштества	-9.13905
▁градот	-9.14165
▁вклучува	-9.142
▁одговори	-9.14458
ру	-9.14486
8	-9.14576
▁високо	-9.14579
▁кола	-9.14596
▁затвор	-9.15089
▁области	-9.15169
▁пе	-9.15232
рк	-9.15258
▁долго	-9.15299
▁морам	-9.15419
▁војна	-9.1566
▁област	-9.15971
▁12	-9.16229
▁праве	-9.1638
▁врата	-9.166
l	-9.16699
▁прво	-9.16848
▁вистинска	-9.17019
▁претходно	-9.1713
▁негово	-9.1719
▁расте	-9.17293
пре	-9.17308
4	-9.17479
▁реши	-9.17557
ште	-9.17572
▁тема	-9.17593
рен	-9.17772
▁едни	-9.17827
мин	-9.1801
ол	-9.18287
▁слично	-9.18297
сон	-9.18298
▁уч	-9.18299
јата	-9.18411
▁внатре	-9.18482
▁бизнис	-9.18489
▁заштита	-9.18489
▁труд	-9.18508
▁врски	-9.18655
▁интересно	-9.18718
▁реалност	-9.18837
▁натера	-9.18852
▁нивно	-9.19022
неверојатно	-9.19025
кри	-9.19118
бра	-9.19297
r	-9.19351
▁смени	-9.19513
ил	-9.1961
5	-9.19876
▁собира	-9.19911
▁илјад	-9.19957
▁публика	-9.19981
▁машина	-9.19981
▁никакв	-9.19985
▁еднаш	-9.19989
▁свое	-9.19992
▁порака	-9.2
▁истражувања	-9.20032
▁Бев	-9.20688
▁води	-9.20876
уч	-9.20879
▁зад	-9.20896
▁прашува	-9.20971
▁куп	-9.20979
раб	-9.21309
К	-9.21368
▁поголеми	-9.21446
▁сфатив	-9.21459
▁Повеќе	-9.21669
▁научници	-9.21827
3	-9.22098
нски	-9.22146
▁мрежи	-9.22322
▁подобри	-9.22356
нс	-9.22995
▁сцена	-9.23036
▁успех	-9.23038
▁поминува	-9.23044
▁надеж	-9.23051
ран	-9.23109
▁сама	-9.23117
▁Секој	-9.23223
▁креира	-9.23457
▁C	-9.23867
▁можеш	-9.23891
▁S	-9.23908
лни	-9.23916
ките	-9.24282
▁внимание	-9.24597
▁п	-9.24659
▁филм	-9.24685
▁знаев	-9.24717
▁мало	-9.24798
▁з	-9.24832
▁Пре	-9.24939
▁познава	-9.2538
▁Ле	-9.25439
лив	-9.25614
пати	-9.25684
▁Ха	-9.25755
▁след	-9.25841
▁телото	-9.25991
▁куче	-9.26136
▁површина	-9.26185
▁недела	-9.2624
▁маж	-9.26253
▁проба	-9.26312
▁физички	-9.26365
▁Му	-9.26434
▁тест	-9.26562
рам	-9.2672
лог	-9.2691
бидам	-9.26961
▁маса	-9.27009
▁син	-9.27015
▁При	-9.27147
▁продава	-9.27166
▁движи	-9.27249
▁предмет	-9.27414
конечно	-9.27588
▁поседува	-9.27798
▁18	-9.27804
▁растенија	-9.2781
▁уред	-9.27878
▁Де	-9.28156
▁видел	-9.28334
▁ди	-9.28574
▁оти	-9.28664
▁имал	-9.29127
▁об	-9.29195
▁Нај	-9.29234
▁200	-9.2941
▁држави	-9.29449
▁случаи	-9.29455
▁побара	-9.29488
▁потенцијал	-9.29503
▁допаѓа	-9.2957
▁награда	-9.29684
▁2	-9.29728
▁ризик	-9.29844
▁мас	-9.29924
▁пра	-9.30092
▁поврзан	-9.30255
лет	-9.30263
ул	-9.3042
▁пациенти	-9.30917
▁причини	-9.30922
▁решение	-9.31104
▁надевам	-9.31114
▁контролира	-9.31174
ика	-9.31184
▁доаѓаат	-9.3194
▁науката	-9.32012
▁овозможи	-9.32299
▁Ве	-9.32416
▁медиуми	-9.3252
▁големина	-9.32776
▁стотици	-9.32811
▁фотографија	-9.32811
▁линија	-9.32831
▁лабораторија	-9.32877
▁Посто	-9.33183
вистина	-9.33217
▁заврши	-9.33257
▁Гледа	-9.33321
▁добив	-9.33338
кар	-9.33405
▁открие	-9.3355
▁зборуваат	-9.33972
▁мислат	-9.3419
тира	-9.342
▁предизвикува	-9.34315
▁продолжи	-9.34345
▁граѓани	-9.34523
▁буквално	-9.34524
▁остава	-9.34551
▁недели	-9.34552
▁двете	-9.34556
лин	-9.34595
три	-9.34596
јки	-9.34797
▁дојд	-9.35101
тро	-9.35143
▁важ	-9.35229
рт	-9.3529
ето	-9.35695
▁Прво	-9.35965
▁пи	-9.36012
▁25	-9.36274
▁започнува	-9.36277
▁теорија	-9.36278
▁депресија	-9.36281
▁резултати	-9.36308
▁Втор	-9.36464
▁крв	-9.3656
▁тим	-9.36695
u	-9.36889
▁минато	-9.37057
▁органи	-9.37066
ново	-9.37355
▁смрт	-9.37408
7	-9.37414
▁заврш	-9.37598
▁стори	-9.37673
▁види	-9.37693
▁одредени	-9.37732
▁чека	-9.37889
▁Њујорк	-9.38063
▁такви	-9.38065
▁сочувство	-9.38069
▁алатки	-9.38105
▁моментов	-9.38161
▁очигледно	-9.38174
▁англиски	-9.38218
▁црн	-9.38236
ајде	-9.3832
▁смее	-9.38366
▁боја	-9.38391
чите	-9.38436
▁ефект	-9.387
Г	-9.39209
A	-9.39255
▁јасно	-9.39265
стан	-9.3939
ук	-9.39539
беси	-9.3979
▁вкус	-9.39823
▁економија	-9.39881
▁излегува	-9.39882
▁улога	-9.39882
▁риба	-9.39948
ес	-9.4006
▁цело	-9.40141
▁6	-9.40307
▁Вие	-9.4032
чиња	-9.40515
▁услови	-9.40542
чно	-9.40672
▁Виде	-9.40937
▁човекот	-9.41002
▁научив	-9.41013
▁големо	-9.41037
дна	-9.4113
▁телефон	-9.41193
▁примери	-9.41215
▁морал	-9.41384
▁девојче	-9.41567
▁осум	-9.41733
▁компанија	-9.41733
▁прочита	-9.41735
нер	-9.41739
▁патување	-9.41785
▁раст	-9.41791
гр	-9.4184
ун	-9.41841
▁продолжува	-9.42017
ниците	-9.42134
▁Мож	-9.42459
вид	-9.42505
▁излезе	-9.42706
▁посебн	-9.43024
жен	-9.43181
чу	-9.43216
▁наша	-9.43392
▁девојчиња	-9.4362
▁произведува	-9.4362
▁потребно	-9.4362
▁влада	-9.43622
▁соочува	-9.43624
ети	-9.43633
▁страница	-9.43633
▁шеми	-9.43637
тер	-9.43843
рак	-9.43848
▁далеку	-9.43894
▁погрешно	-9.43897
h	-9.43995
▁виде	-9.44001
ха	-9.4412
▁помислив	-9.44204
▁итн	-9.44274
▁влијае	-9.44496
▁Џ	-9.44501
▁умре	-9.44603
▁вр	-9.44694
▁б	-9.44697
er	-9.44942
ството	-9.45003
пол	-9.45061
▁Ју	-9.45069
▁страни	-9.45211
▁ноќ	-9.45275
▁сп	-9.45286
лер	-9.45522
ген	-9.45527
▁девојка	-9.45543
▁сиромаштија	-9.45543
▁ситуација	-9.45543
▁здравје	-9.45545
▁сподел	-9.45693
▁дозволи	-9.45786
▁формира	-9.45787
▁настан	-9.45817
▁интересира	-9.45879
▁гени	-9.46011
▁одам	-9.46297
ијата	-9.46469
дува	-9.46665
6	-9.47023
▁млади	-9.47087
▁Прв	-9.47096
▁купи	-9.47099
ница	-9.47241
▁Џон	-9.47246
▁сигурно	-9.47287
▁намали	-9.47317
▁мозоци	-9.47503
▁политички	-9.47504
▁суштина	-9.47504
▁граници	-9.4751
▁14	-9.47511
▁ќерка	-9.47546
▁Наши	-9.47684
▁план	-9.47979
▁пот	-9.48103
▁создавање	-9.48183
пис	-9.4829
▁чувствувам	-9.48684
▁вистина	-9.48936
9	-9.4902
▁Л	-9.4916
▁моментот	-9.4916
рни	-9.49284
▁прифати	-9.49378
▁лоши	-9.49396
нија	-9.49402
▁структура	-9.49434
▁Господ	-9.49503
▁длабоко	-9.49503
▁неверојатни	-9.49503
▁Замисл	-9.49504
▁меморија	-9.49504
▁појавува	-9.49504
▁студија	-9.49552
▁веб	-9.4965
▁слуша	-9.49714
▁организира	-9.4979
топ	-9.49797
▁направил	-9.50024
▁изгради	-9.50091
▁стар	-9.50135
▁користење	-9.50214
en	-9.50268
▁можно	-9.50295
▁возраст	-9.50377
▁најдов	-9.50461
▁Имам	-9.50555
▁Бо	-9.51184
▁познат	-9.51383
▁горе	-9.51538
▁перспектива	-9.51544
▁професор	-9.51544
▁семејства	-9.51544
▁физика	-9.51544
▁ужива	-9.51544
▁Индија	-9.51545
▁дрога	-9.51545
▁стигне	-9.51545
▁влегува	-9.51545
▁употреба	-9.51547
▁експеримент	-9.51702
▁напред	-9.51728
измот	-9.51782
▁кр	-9.51912
▁лошо	-9.51969
еј	-9.52062
▁зголемува	-9.52154
▁излез	-9.5255
▁интерес	-9.5261
▁Ли	-9.52652
▁прашав	-9.52852
▁вечер	-9.52906
▁долг	-9.53362
▁појави	-9.53471
▁Музика	-9.53628
▁враќа	-9.53628
▁институции	-9.53628
▁машини	-9.53628
▁наутро	-9.5363
▁отвори	-9.53632
▁кожа	-9.53637
▁Знам	-9.53638
▁вино	-9.53688
▁месо	-9.53692
▁стари	-9.53772
▁поврзува	-9.53873
▁споделува	-9.54016
▁предизвик	-9.54022
рано	-9.54125
▁милион	-9.54247
лан	-9.54344
▁процент	-9.54444
p	-9.54535
▁З	-9.54924
ќ	-9.55088
▁авион	-9.55114
▁Постоја	-9.55289
▁филмот	-9.55349
▁донесе	-9.55358
▁носи	-9.55408
цијата	-9.55419
▁Тук	-9.5572
▁Едноставно	-9.55755
▁грижи	-9.55755
▁птици	-9.55756
▁ваква	-9.55757
▁најдобро	-9.55757
▁Цел	-9.55816
▁сопствени	-9.55899
ливи	-9.55992
▁филмови	-9.56048
обар	-9.5606
▁ком	-9.56361
▁огромни	-9.56363
▁објасни	-9.5646
▁борба	-9.56495
▁80	-9.56547
же	-9.56566
▁пер	-9.56574
▁твој	-9.56608
▁единствени	-9.56612
▁лево	-9.56813
d	-9.57011
А	-9.57035
▁роден	-9.57235
▁вредност	-9.57357
▁набљудува	-9.57366
▁купува	-9.57605
▁вести	-9.57619
▁работе	-9.57706
▁искористи	-9.57802
▁Мисл	-9.57809
▁индустрија	-9.57922
▁ТЕД	-9.57929
▁соработка	-9.57929
▁човештво	-9.57929
▁двајца	-9.57929
▁момче	-9.57933
▁болница	-9.57937
▁екран	-9.57944
▁знач	-9.57944
▁докази	-9.58
▁кул	-9.58117
▁Погледнет	-9.58315
▁Ро	-9.58681
▁око	-9.58712
▁полн	-9.58724
▁природа	-9.5878
▁среќни	-9.58793
▁M	-9.589
рем	-9.58995
▁денот	-9.59202
▁70	-9.59398
▁теб	-9.59624
њата	-9.59665
▁ново	-9.59692
▁ѕид	-9.59938
▁фа	-9.59985
▁започне	-9.60151
▁снимка	-9.60151
▁центар	-9.60151
▁задача	-9.60152
▁програма	-9.60153
▁останува	-9.60163
пла	-9.60236
▁страда	-9.60247
▁обично	-9.60269
▁гради	-9.60347
▁Дозволе	-9.60389
бел	-9.60401
▁достапн	-9.60517
▁огром	-9.60549
▁активност	-9.60624
▁предизвика	-9.60704
▁многумина	-9.60705
▁веле	-9.60731
▁убаво	-9.60835
стите	-9.60872
▁A	-9.60923
▁огромна	-9.6097
▁ама	-9.61149
▁слични	-9.61255
ирани	-9.61315
▁различно	-9.61316
▁сфаќа	-9.61704
▁поран	-9.61744
▁размисли	-9.61798
▁светски	-9.6199
кција	-9.62009
▁имаш	-9.62042
Н	-9.62276
▁забележува	-9.62424
▁остров	-9.62424
▁кутија	-9.62424
▁веројатност	-9.62531
in	-9.62571
▁вообичаен	-9.62625
про	-9.6275
c	-9.62857
▁лек	-9.62945
▁месец	-9.62961
▁бебе	-9.62965
▁просторија	-9.63002
▁важни	-9.63014
▁8	-9.63183
ици	-9.63199
▁глава	-9.63367
тор	-9.63735
годишно	-9.63747
бор	-9.63747
▁Про	-9.63803
▁сред	-9.63923
бли	-9.63986
увам	-9.6406
ут	-9.64365
▁единствена	-9.64372
▁сигур	-9.64378
▁сеќава	-9.64475
▁нејзино	-9.64631
▁продолж	-9.64648
▁сам	-9.64676
▁страст	-9.64728
▁конфликт	-9.6475
▁неверојатна	-9.6475
▁постигне	-9.6475
▁тврд	-9.6475
▁разлики	-9.6475
▁окситоцин	-9.64756
▁отидов	-9.64772
лег	-9.65031
▁проучува	-9.65175
▁суштеств	-9.65194
▁основни	-9.65222
▁базиран	-9.65243
▁важна	-9.65322
▁отиде	-9.65407
▁социјална	-9.65444
кси	-9.65501
▁д	-9.65562
▁7	-9.65663
▁бр	-9.65963
град	-9.66121
▁извор	-9.66369
▁паѓа	-9.66505
▁11	-9.66533
▁чин	-9.6654
▁доби	-9.66795
▁доктор	-9.66801
▁мислев	-9.67015
▁9	-9.67037
▁воздух	-9.67131
▁еволуција	-9.67131
▁трговија	-9.67131
▁емоции	-9.67131
▁влади	-9.67136
▁24	-9.67147
▁Кина	-9.67191
▁B	-9.67211
▁близ	-9.67224
▁квалитет	-9.67235
▁Пол	-9.67397
▁дозволува	-9.6747
▁сеќавам	-9.67653
▁познати	-9.67686
▁предмети	-9.67803
▁сметам	-9.67829
▁седи	-9.68009
▁Први	-9.68064
▁водата	-9.68182
▁став	-9.68493
зон	-9.68511
▁помина	-9.6856
пер	-9.68573
▁изгуби	-9.68603
▁тера	-9.68624
стер	-9.68685
▁чува	-9.6869
▁глобална	-9.68949
вин	-9.6898
С	-9.69215
▁истражува	-9.69221
▁прес	-9.69551
▁математика	-9.6957
▁ограничен	-9.6957
▁религија	-9.6957
▁секунди	-9.6957
▁Според	-9.6957
▁улица	-9.6957
нување	-9.69573
▁мраз	-9.69576
▁круг	-9.69577
▁секакв	-9.69577
▁остави	-9.6958
▁преглед	-9.697
▁детето	-9.69832
▁вклучи	-9.69833
▁размислување	-9.69837
▁потполно	-9.69972
горе	-9.70261
▁сиромашни	-9.70277
олку	-9.70299
▁реко	-9.70506
▁поставува	-9.7055
▁системот	-9.7061
b	-9.7063
▁стрес	-9.70763
об	-9.70813
едноставен	-9.70868
n	-9.7113
ѓа	-9.71169
▁роди	-9.71178
▁успеа	-9.71401
▁моменти	-9.71524
▁шир	-9.71548
уш	-9.71629
▁животно	-9.7167
прав	-9.71693
▁робот	-9.71754
▁компјутер	-9.71997
нци	-9.72043
▁Меѓу	-9.72067
▁желба	-9.7207
▁кревет	-9.7207
▁факултет	-9.7207
▁Њу	-9.7207
▁колеги	-9.72071
▁потребна	-9.72074
▁Гуг	-9.72076
▁задачи	-9.72085
▁мајки	-9.72102
тура	-9.72135
▁примени	-9.72144
▁блиск	-9.7217
лајн	-9.72174
▁досега	-9.72181
▁посвет	-9.72182
▁шема	-9.72236
▁понатам	-9.72261
▁обид	-9.72375
▁следна	-9.724
▁прекрас	-9.72569
▁прекрасни	-9.72615
▁работев	-9.72701
▁брзина	-9.72805
нете	-9.72913
▁пациентот	-9.72974
рд	-9.73059
▁немам	-9.73161
▁прекрасна	-9.73186
▁пост	-9.73203
тон	-9.73274
▁пренесува	-9.7329
▁наука	-9.73348
гл	-9.73587
атор	-9.73865
▁убави	-9.74172
▁раскажа	-9.74442
▁патува	-9.74632
▁генерација	-9.74634
▁посакува	-9.74634
▁ритуал	-9.74634
▁стратегија	-9.74634
▁претвори	-9.74635
▁контакт	-9.74635
▁убива	-9.74638
▁јазици	-9.7464
▁гас	-9.74681
▁дојдов	-9.74758
▁задоволство	-9.74767
▁Ц	-9.74828
▁нозе	-9.75064
чува	-9.75127
▁интересни	-9.75135
▁покаже	-9.75224
никот	-9.7526
бер	-9.75277
В	-9.7534
▁третира	-9.75573
ското	-9.75582
g	-9.75619
▁Др	-9.75785
▁држава	-9.75871
▁објасн	-9.75944
▁студент	-9.75955
▁искрен	-9.76101
▁дело	-9.76291
▁избори	-9.76343
ари	-9.76407
▁90	-9.76473
▁морав	-9.7648
an	-9.76583
▁ра	-9.7669
▁После	-9.76771
▁кажете	-9.76834
▁движ	-9.76855
▁започнав	-9.76871
▁ру	-9.76907
год	-9.76993
ално	-9.77012
▁нарекувам	-9.7714
Р	-9.77192
▁криминал	-9.77265
▁мозочни	-9.77265
▁невозможн	-9.77265
▁технологии	-9.77265
▁ткиво	-9.77265
▁доверба	-9.77266
▁општества	-9.77266
▁зграда	-9.77266
▁мулти	-9.77267
▁фотографии	-9.7727
▁бебиња	-9.77272
▁човечко	-9.7728
▁надева	-9.77288
▁парче	-9.77294
▁напредок	-9.77317
прекрасно	-9.77321
▁знак	-9.77352
граф	-9.77362
▁таква	-9.77371
▁Американци	-9.77384
▁игри	-9.77403
глас	-9.77467
▁Сака	-9.77485
▁фокусира	-9.77499
▁Крис	-9.77539
Е	-9.77621
▁свесни	-9.77691
▁завршува	-9.77762
струк	-9.77798
▁средно	-9.77821
изам	-9.78019
▁напад	-9.78035
▁поврзаност	-9.78122
▁Об	-9.78218
▁подобра	-9.78265
▁содржи	-9.78412
▁најголем	-9.78448
▁наслов	-9.7847
▁помогна	-9.78571
▁цена	-9.78617
▁Имав	-9.78718
чко	-9.78796
ју	-9.7883
▁остана	-9.78839
ела	-9.7886
▁глобални	-9.78878
▁дом	-9.78911
рон	-9.79088
ации	-9.79123
ица	-9.79144
▁жив	-9.79184
▁обиде	-9.7929
бук	-9.79296
вите	-9.79369
▁производ	-9.79698
▁останати	-9.7985
спроти	-9.79917
▁разгледува	-9.79968
▁реагира	-9.79968
▁звук	-9.79968
▁клетка	-9.79968
▁вистинско	-9.79968
▁последици	-9.79974
▁прикажува	-9.80013
▁разбирање	-9.80013
▁модерни	-9.80061
▁Мар	-9.80151
▁скок	-9.80204
▁јавува	-9.80206
рис	-9.8041
▁ресурси	-9.8041
▁Норд	-9.80421
▁умот	-9.80423
▁Бр	-9.80579
▁надолу	-9.806
▁чудно	-9.8062
▁снима	-9.8064
▁продавница	-9.80664
▁изграден	-9.8076
▁ког	-9.80813
▁подготвен	-9.80978
ула	-9.80988
▁активира	-9.81205
ални	-9.81205
▁мир	-9.81397
▁мислење	-9.81456
▁правила	-9.81554
▁главата	-9.81603
▁Ј	-9.81619
▁автомобил	-9.81712
▁Свет	-9.82154
▁содржина	-9.82369
изиран	-9.82562
увајќи	-9.82624
▁војната	-9.82626
▁стои	-9.82649
▁Интернет	-9.82746
▁главни	-9.82746
▁девојки	-9.82746
▁економски	-9.82746
▁жртви	-9.82746
▁население	-9.82746
▁одговара	-9.82746
▁повисок	-9.82746
▁заеднички	-9.8275
▁незнаење	-9.82752
▁одлуки	-9.82753
▁17	-9.82755
▁рамки	-9.82756
▁точки	-9.8285
▁теж	-9.82908
on	-9.82999
▁16	-9.83022
▁развива	-9.83054
D	-9.83066
после	-9.83139
▁Еј	-9.83162
▁размислувам	-9.83222
▁кол	-9.83275
верзија	-9.83404
▁стр	-9.83407
▁следи	-9.83588
▁учиме	-9.8366
▁зависи	-9.83683
▁проекти	-9.83685
▁тела	-9.83743
▁раскажува	-9.83809
▁универзумот	-9.83818
▁зголеми	-9.84148
▁трош	-9.84273
▁еволуира	-9.8436
рани	-9.8439
▁срцев	-9.84696
▁дизајнира	-9.84722
▁чекор	-9.8474
шки	-9.85141
▁дух	-9.85195
▁дела	-9.85384
▁утро	-9.85398
нати	-9.85404
▁прикажа	-9.85485
јат	-9.85524
▁ДНК	-9.85603
▁вселена	-9.85603
▁кислород	-9.85603
▁чувства	-9.85603
▁шанса	-9.85603
▁Дарвин	-9.85603
▁контекст	-9.85603
▁сигнал	-9.85603
▁кафе	-9.85605
▁неодамн	-9.85606
▁полош	-9.85615
▁човекова	-9.85639
▁апсолутно	-9.85669
▁грешки	-9.85716
▁цени	-9.85723
▁истовремено	-9.85737
▁прифаќа	-9.85811
▁Без	-9.85813
▁поента	-9.85861
▁лекови	-9.85949
▁памет	-9.85972
▁Прав	-9.86011
▁следно	-9.86022
тка	-9.86219
▁душа	-9.86273
▁разни	-9.86304
▁втора	-9.86406
▁запраша	-9.86428
▁ракот	-9.86436
▁P	-9.86451
▁влезе	-9.86513
иња	-9.86609
▁премин	-9.86773
▁Бог	-9.87009
▁дојка	-9.87141
▁влија	-9.87228
▁науч	-9.87253
▁денови	-9.87287
ери	-9.87335
рес	-9.87543
▁светска	-9.87644
▁случил	-9.87702
▁реш	-9.87779
▁60	-9.8782
▁факти	-9.88314
▁19	-9.88409
▁брод	-9.88453
▁производи	-9.88481
▁вештини	-9.88544
▁друштв	-9.88544
▁трансформира	-9.88544
▁вежба	-9.88544
▁кучиња	-9.88545
▁архитектура	-9.88545
▁позиција	-9.88546
▁график	-9.88547
▁забавн	-9.8855
▁префрл	-9.88557
▁удар	-9.88566
▁тежина	-9.88579
▁слаб	-9.88608
▁полесно	-9.88633
▁метри	-9.88711
ина	-9.8872
▁лекар	-9.88736
▁слушна	-9.88832
▁поинакв	-9.89134
▁мисле	-9.89246
чот	-9.89291
▁метод	-9.89344
▁смешн	-9.89352
▁контрола	-9.89404
▁Сан	-9.89674
▁нега	-9.89694
▁земјите	-9.8971
▁живи	-9.89746
▁постоење	-9.89746
ењето	-9.89809
фер	-9.89913
▁земам	-9.89987
▁сакаш	-9.90036
▁год	-9.9012
▁Ал	-9.90175
▁крат	-9.9025
бу	-9.90286
▁постигна	-9.90299
▁млад	-9.90431
▁Ама	-9.90541
▁кратко	-9.90569
▁раѓање	-9.90582
▁500	-9.906
▁влез	-9.90634
▁Кон	-9.90724
▁стек	-9.90851
▁системи	-9.90958
▁Лу	-9.91099
▁војни	-9.91177
пал	-9.9122
пар	-9.91223
▁поврз	-9.91473
▁сад	-9.91567
▁идентитет	-9.91574
▁момчиња	-9.91575
▁облека	-9.91577
▁криза	-9.91578
▁глобализација	-9.91579
▁студии	-9.91583
▁силно	-9.91594
лија	-9.91602
▁грешка	-9.91671
▁море	-9.91707
▁минат	-9.91735
▁засе	-9.91762
▁природно	-9.91847
▁нафта	-9.91898
▁убавина	-9.9201
▁возрасни	-9.92117
Б	-9.92143
▁зло	-9.92183
▁фин	-9.92191
▁прет	-9.9229
страна	-9.92359
▁мотор	-9.92361
▁бу	-9.92366
▁заинтересиран	-9.92454
▁клуч	-9.92636
▁невро	-9.92749
▁текст	-9.9278
годишни	-9.92792
▁штета	-9.92859
бира	-9.92874
уп	-9.92888
▁трик	-9.93033
▁Ло	-9.93288
мон	-9.93346
дно	-9.93463
▁едноставн	-9.93759
▁чест	-9.94129
▁разговор	-9.94217
▁концепт	-9.94318
▁морални	-9.94322
▁држ	-9.94391
▁спротивно	-9.94568
▁десет	-9.94682
силна	-9.94691
▁велосипед	-9.94699
▁земјоделци	-9.94699
▁комуницира	-9.94699
▁претседател	-9.94699
▁религии	-9.94699
▁слобода	-9.94699
▁снимки	-9.94699
▁софтвер	-9.94699
▁решенија	-9.947
▁заедничко	-9.947
▁губи	-9.94702
▁десно	-9.94703
▁закан	-9.94705
▁песна	-9.94708
▁привлеч	-9.94712
▁одвива	-9.94718
▁глад	-9.94724
▁станат	-9.94732
▁фаза	-9.94742
▁шири	-9.94746
▁еднаквост	-9.94786
▁отвора	-9.94799
▁отсе	-9.94844
▁мирис	-9.94951
▁гр	-9.94995
▁разберат	-9.95029
▁слушнав	-9.95055
▁смртност	-9.95092
▁говори	-9.95137
▁падна	-9.95231
es	-9.95244
▁пар	-9.95261
▁стапка	-9.95267
▁постав	-9.95283
▁запозна	-9.95284
▁Че	-9.95362
време	-9.95422
▁работници	-9.95435
▁ветер	-9.95448
▁Мајк	-9.95457
▁ген	-9.95472
туку	-9.95564
годиш	-9.95591
▁глобал	-9.95618
▁Ра	-9.95652
▁лев	-9.9566
рз	-9.95704
лото	-9.95752
▁пуш	-9.95812
▁глобално	-9.95858
▁новинар	-9.95974
вар	-9.96186
▁научни	-9.96268
нуваат	-9.96306
▁троши	-9.96344
▁Едно	-9.96437
▁фи	-9.96523
▁Ру	-9.96523
▁бројки	-9.96552
▁намалува	-9.96621
▁најголема	-9.96644
риз	-9.96737
▁објаснува	-9.96766
▁правење	-9.96771
▁едноставни	-9.96843
▁почувствува	-9.96865
▁ослободи	-9.96984
▁снимање	-9.97155
ински	-9.97238
▁поголемо	-9.97252
еви	-9.97267
ливо	-9.97377
грам	-9.97411
m	-9.97417
▁спаси	-9.97468
мира	-9.97558
▁директн	-9.97571
▁Второ	-9.97749
вање	-9.97842
▁корисн	-9.97896
▁регион	-9.97917
▁средства	-9.97925
▁кортекс	-9.97926
▁забавува	-9.97926
▁улици	-9.97933
▁Реков	-9.97939
▁e	-9.97946
▁емоционалн	-9.97952
▁полиња	-9.97963
▁психологија	-9.97984
▁размер	-9.97987
▁недостаток	-9.97989
▁притисок	-9.98002
▁Раз	-9.98011
▁совет	-9.98056
▁прикажан	-9.98059
▁Ден	-9.9837
▁свесност	-9.98372
доа	-9.98426
гур	-9.98511
▁1	-9.98549
шол	-9.98605
▁денешн	-9.98623
▁права	-9.98735
▁закон	-9.98742
сер	-9.98782
▁одлучи	-9.98879
▁фо	-9.98988
▁орган	-9.9914
раат	-9.99219
▁напушти	-9.99297
је	-9.99326
▁Ч	-9.99407
лад	-9.99452
▁призна	-9.99488
▁потрош	-9.99515
▁побрз	-9.99637
▁вклучен	-10.0008
▁300	-10.0015
▁работ	-10.0017
дар	-10.0031
▁R	-10.0031
тија	-10.0039
▁држи	-10.0047
▁одржува	-10.0054
▁D	-10.0056
рус	-10.0066
▁истражувачи	-10.0068
едно	-10.0082
▁работна	-10.0088
▁брак	-10.0098
ичар	-10.0111
▁навик	-10.0125
▁Алцхајмер	-10.0126
▁ХИВ	-10.0126
▁природна	-10.0126
▁Потребн	-10.0126
▁одржлив	-10.0126
▁ракопис	-10.0126
▁победи	-10.0126
▁мртви	-10.0126
▁одгледува	-10.0126
▁честички	-10.0126
▁поддршка	-10.0126
▁јаглен	-10.0126
▁болка	-10.0127
▁сигурн	-10.0127
▁рок	-10.0128
▁некакв	-10.0129
▁дрво	-10.0129
▁десна	-10.0129
▁потреби	-10.0129
▁партнер	-10.0141
вал	-10.0142
ду	-10.0143
▁компјутерски	-10.0143
▁споредб	-10.0144
▁статија	-10.0146
▁рекле	-10.0148
▁биологија	-10.0148
▁закони	-10.015
▁успее	-10.0151
▁универзум	-10.0156
▁богати	-10.0158
▁визија	-10.0168
▁разговори	-10.0178
паѓа	-10.0181
▁извонредн	-10.0185
▁интересна	-10.0186
▁Намест	-10.0187
▁станал	-10.019
▁мува	-10.0191
▁Хигсов	-10.0195
лага	-10.0196
▁правев	-10.0196
јчесто	-10.0206
R	-10.0221
▁основна	-10.0226
тогаш	-10.0228
▁поврзано	-10.0231
▁прошири	-10.0235
▁работни	-10.0257
▁убие	-10.0266
▁одлучив	-10.0266
▁Га	-10.0271
▁зборував	-10.0273
▁заедници	-10.0282
▁опиша	-10.0287
▁лич	-10.0322
▁милијард	-10.0323
▁убав	-10.0329
▁долу	-10.0342
лф	-10.0348
▁сопруг	-10.0365
▁урбан	-10.0368
▁единствено	-10.0382
▁стап	-10.0389
▁ана	-10.0406
▁феномен	-10.0412
ирав	-10.0414
▁Бар	-10.0426
▁нормално	-10.0436
▁предава	-10.0448
▁Работ	-10.0452
▁кажеме	-10.0459
▁открија	-10.0462
▁бучава	-10.0471
▁загрижен	-10.0471
▁инвестира	-10.0471
▁искуства	-10.0471
▁километ	-10.0471
▁ментална	-10.0471
▁ментални	-10.0471
▁понуди	-10.0471
▁предизвици	-10.0471
▁ресторан	-10.0471
▁анализира	-10.0471
▁секунда	-10.0471
▁соработува	-10.0471
▁Лондон	-10.0471
▁мускул	-10.0471
▁пораст	-10.0471
▁почва	-10.0471
▁месечина	-10.0472
▁отпад	-10.0473
▁Феј	-10.0473
▁остане	-10.0473
тус	-10.048
▁Сирија	-10.0481
пу	-10.0482
▁1.	-10.0482
▁мапа	-10.0488
▁сеќавања	-10.0489
▁различна	-10.0491
▁научник	-10.0494
▁демократија	-10.05
▁потрошувачка	-10.0508
▁фрла	-10.0518
▁часови	-10.0521
изација	-10.0542
▁Вел	-10.0551
дин	-10.0568
▁сигурност	-10.0577
▁серија	-10.0578
О	-10.0584
▁паметни	-10.0589
јн	-10.0592
▁Бу	-10.0594
▁Том	-10.0606
▁сестри	-10.0628
нти	-10.064
▁познато	-10.0652
▁запознав	-10.0656
▁способности	-10.0658
▁млада	-10.068
▁популација	-10.0691
▁пациент	-10.0697
тивна	-10.0698
▁ефикас	-10.0726
▁планира	-10.0751
▁Ше	-10.0766
▁омилен	-10.0782
▁форми	-10.0782
▁разум	-10.0786
▁поинак	-10.0789
чари	-10.0803
стри	-10.0818
▁библиотека	-10.0828
▁возможн	-10.0828
▁жртва	-10.0828
▁медицина	-10.0828
▁природни	-10.0828
▁птица	-10.0828
▁храброст	-10.0828
▁циклус	-10.0828
▁Изгледа	-10.0828
▁постигнува	-10.0828
▁бренд	-10.0828
▁логика	-10.0828
▁фетус	-10.0828
▁момци	-10.0828
▁канцеларија	-10.0832
▁тешки	-10.0834
▁култури	-10.0834
▁поинаку	-10.0835
▁движења	-10.0837
▁откритие	-10.0839
▁Туку	-10.0841
▁темна	-10.0841
▁членови	-10.0846
▁Бел	-10.0848
▁богатство	-10.0849
▁меѓусебно	-10.085
▁способни	-10.0852
рек	-10.0863
тни	-10.0869
▁решив	-10.0875
▁умови	-10.0877
▁доведе	-10.0884
▁лежи	-10.0886
▁бели	-10.0892
аков	-10.0909
▁обликува	-10.0914
И	-10.0921
▁св	-10.0928
▁отприл	-10.0937
▁вредности	-10.0947
▁Н	-10.0956
вол	-10.0957
▁знаеш	-10.096
▁допира	-10.0965
▁Ри	-10.0978
▁доживува	-10.0982
▁степен	-10.0984
оци	-10.0986
▁брат	-10.0988
▁плаш	-10.0994
чек	-10.0995
▁временски	-10.0999
▁предавање	-10.1004
▁Бил	-10.101
▁прост	-10.1013
▁др	-10.1024
▁благодар	-10.1038
▁политика	-10.1058
▁намалување	-10.1077
▁либерал	-10.1078
▁кор	-10.1081
▁напиша	-10.1083
▁400	-10.1085
▁престан	-10.1086
▁вистината	-10.1088
▁доба	-10.1099
▁јавно	-10.113
▁домен	-10.1142
▁дигитал	-10.1148
чат	-10.1156
▁радио	-10.1164
at	-10.1169
пил	-10.117
▁филозоф	-10.1189
▁комплекс	-10.1196
▁локални	-10.1198
▁претпоставува	-10.1198
▁учествува	-10.1198
▁земјоделство	-10.1198
▁Герман	-10.1198
▁Повтор	-10.1198
▁реакција	-10.1198
▁екстремно	-10.1198
главен	-10.1199
▁термин	-10.1199
▁разгледа	-10.1199
▁забава	-10.1199
▁измам	-10.1199
▁заедничка	-10.12
▁магија	-10.12
▁поделен	-10.1201
▁внимателно	-10.1203
▁критич	-10.1207
▁лица	-10.1209
▁науки	-10.121
▁тре	-10.1212
▁соочи	-10.1213
▁мудрост	-10.1215
▁полиција	-10.1221
рал	-10.1221
▁Ох	-10.1221
▁Никој	-10.1222
гне	-10.1237
▁причините	-10.1239
зам	-10.1243
▁претвора	-10.1251
▁молекули	-10.126
▁одговорност	-10.1261
▁огромно	-10.1266
▁ширење	-10.1268
▁пронајде	-10.1272
00	-10.1274
при	-10.1299
зда	-10.1303
▁принцип	-10.1316
ск	-10.1319
▁раѓа	-10.1322
▁трае	-10.1327
Х	-10.1335
▁напишав	-10.1349
▁буд	-10.1354
▁создад	-10.1356
▁служ	-10.1378
▁Титан	-10.1382
▁извад	-10.1392
▁учи	-10.1395
▁мобилни	-10.1401
▁сложен	-10.1414
▁Други	-10.142
еќе	-10.1427
ква	-10.1431
▁новите	-10.144
▁различ	-10.1451
▁тестира	-10.1452
▁темел	-10.1464
▁дизајнери	-10.1465
стрел	-10.1471
▁здрав	-10.1484
нал	-10.1492
тре	-10.151
▁род	-10.1521
▁богат	-10.1527
▁Ж	-10.1539
▁покажав	-10.1552
▁сликите	-10.1553
▁Запад	-10.1557
▁објект	-10.1561
▁напор	-10.1577
▁Универзитет	-10.1583
▁Шведск	-10.1583
▁времиња	-10.1583
▁дефиниција	-10.1583
▁индивидуи	-10.1583
▁капацитет	-10.1583
▁квадрат	-10.1583
▁комбинира	-10.1583
▁непријател	-10.1583
▁организации	-10.1583
▁осигура	-10.1583
▁разликува	-10.1583
▁фундаменталн	-10.1583
▁комуникација	-10.1583
▁опашка	-10.1583
▁употреби	-10.1583
▁исхрана	-10.1583
▁девет	-10.1583
▁чудо	-10.1583
▁релативн	-10.1583
педија	-10.1583
▁имитира	-10.1583
▁агол	-10.1583
▁пука	-10.1583
▁родова	-10.1583
▁организација	-10.1583
▁пиштол	-10.1583
▁третман	-10.1584
▁Британија	-10.1584
▁годишна	-10.1585
▁согласува	-10.1585
▁отворен	-10.1585
▁посети	-10.1586
▁револуција	-10.1586
▁најлош	-10.1587
▁спомен	-10.1587
▁модели	-10.1588
▁операција	-10.1588
▁подалеку	-10.1589
▁преживеа	-10.1589
▁течност	-10.159
▁Ди	-10.159
▁услуг	-10.1591
▁реченица	-10.1593
▁изненадување	-10.1594
▁Две	-10.1604
or	-10.1604
▁поважно	-10.1606
▁листа	-10.1606
▁среќ	-10.1607
▁наведувач	-10.1608
▁наредни	-10.161
▁примена	-10.1612
▁срам	-10.1616
▁подолго	-10.1617
▁училишта	-10.1619
▁концепти	-10.1627
▁Какв	-10.1628
ацијата	-10.1629
▁мапира	-10.1636
▁убава	-10.1638
▁допре	-10.1646
▁верувања	-10.1646
▁Кад	-10.1651
▁среќн	-10.1651
▁сон	-10.1655
▁материјали	-10.167
▁инспириран	-10.1674
▁Буд	-10.1698
▁објави	-10.17
▁вреди	-10.1701
▁сопруга	-10.1702
▁поврзе	-10.171
▁позната	-10.1718
▁забележите	-10.1722
▁грижат	-10.1735
Д	-10.1737
▁водат	-10.1743
▁уметнички	-10.1744
▁гласа	-10.1748
▁сврт	-10.1757
▁ситни	-10.1763
чката	-10.1766
▁дво	-10.1768
▁претстави	-10.177
▁повторува	-10.1771
▁ниско	-10.1782
▁пазари	-10.1787
▁аспект	-10.1788
▁објаснување	-10.1792
▁разви	-10.1794
▁универзуми	-10.1795
сија	-10.1797
▁доживување	-10.1807
▁Џо	-10.1807
▁поминав	-10.1811
▁ефекти	-10.1823
le	-10.1824
▁гледање	-10.1843
▁мам	-10.1843
▁код	-10.1849
волно	-10.1859
▁висока	-10.1865
▁суд	-10.1866
▁неврон	-10.1894
▁ослободува	-10.1919
▁фармери	-10.1924
▁сериозно	-10.1929
▁држе	-10.1932
▁специјал	-10.1936
▁зголемување	-10.194
силен	-10.1941
▁нивоа	-10.1955
▁кажал	-10.1956
кер	-10.1963
▁океан	-10.1966
▁морална	-10.1969
▁господа	-10.1983
▁димензии	-10.1983
▁карактер	-10.1983
▁килограм	-10.1983
▁неверојатен	-10.1983
▁плаќа	-10.1983
▁разговара	-10.1983
▁физичар	-10.1983
▁стакло	-10.1983
▁дрвја	-10.1983
▁соништа	-10.1983
▁сончев	-10.1983
▁Франци	-10.1983
▁одлична	-10.1983
▁изминати	-10.1984
▁тешка	-10.1984
▁женски	-10.1984
▁придобивки	-10.1984
▁Идеја	-10.1985
мерно	-10.1986
▁успева	-10.1986
▁американски	-10.1987
▁Тај	-10.1991
▁припаѓа	-10.1991
▁дедо	-10.1992
▁бур	-10.1993
▁намера	-10.2021
▁прими	-10.2022
▁погледна	-10.2022
▁живо	-10.2022
▁копирање	-10.2027
▁открил	-10.2033
▁боре	-10.2034
ar	-10.2037
доцна	-10.2039
▁Тајм	-10.2043
▁вработ	-10.2047
▁обидам	-10.2048
▁10.	-10.2051
▁придонесува	-10.2062
мас	-10.2068
▁занимава	-10.2079
бун	-10.2085
▁дошл	-10.2101
▁гласови	-10.2109
▁поправ	-10.2125
▁позади	-10.213
▁Нивн	-10.2134
▁корен	-10.2136
▁случ	-10.2137
▁вируси	-10.2137
вел	-10.2139
борат	-10.2156
▁изглед	-10.2167
▁изми	-10.2181
▁Доа	-10.2184
▁заработ	-10.2188
▁кап	-10.2188
бри	-10.2189
▁отворени	-10.2193
▁јаглерод	-10.2193
▁вратат	-10.2203
al	-10.2215
хи	-10.2217
▁поставен	-10.2222
▁експерименти	-10.2228
▁изведе	-10.2231
▁лично	-10.2244
▁Кол	-10.2247
лед	-10.2252
▁зона	-10.2279
▁постојан	-10.2304
▁структури	-10.2304
▁2.	-10.2331
▁управува	-10.2331
▁дозволе	-10.2363
▁запре	-10.2373
▁слушате	-10.2374
▁широк	-10.2379
▁карикатури	-10.238
▁Еп	-10.2392
▁Су	-10.2392
дневно	-10.2393
▁клас	-10.2393
▁племе	-10.2393
▁199	-10.2399
▁Проблем	-10.2399
▁Човек	-10.2399
▁возбуден	-10.2399
▁нееднаквост	-10.2399
▁подлабок	-10.2399
▁тргна	-10.2399
▁физичка	-10.2399
▁шанси	-10.2399
▁ѕвезди	-10.2399
▁употребува	-10.2399
▁чевли	-10.2399
▁шеќер	-10.2399
▁броеви	-10.24
▁алишта	-10.24
▁терапија	-10.24
▁количина	-10.24
▁Чарл	-10.24
▁информација	-10.24
▁суб	-10.24
▁почест	-10.2401
▁дечко	-10.2402
▁одбрана	-10.2403
▁Војна	-10.2403
▁женска	-10.2404
▁лоша	-10.2404
▁Американски	-10.2406
▁насока	-10.2407
▁казна	-10.2407
потребен	-10.2408
▁војска	-10.241
▁Северн	-10.2412
▁ефективн	-10.2418
▁збир	-10.2419
▁Лос	-10.2421
▁Верувам	-10.2423
▁одбива	-10.2427
▁Џејм	-10.2436
▁глупав	-10.2437
ливост	-10.2438
▁повик	-10.2441
▁повика	-10.2445
▁замисле	-10.2452
▁најдам	-10.2456
▁Вики	-10.2456
▁ду	-10.2456
▁доктори	-10.2457
▁сфат	-10.2458
▁Некој	-10.2459
иран	-10.2459
▁поим	-10.246
▁пла	-10.2469
▁дојки	-10.2469
▁внесува	-10.2478
▁коли	-10.2479
▁Светска	-10.2481
▁органск	-10.2484
▁парк	-10.249
слав	-10.2495
гови	-10.2497
▁универзитети	-10.2525
▁Сакав	-10.253
▁разбуди	-10.2535
▁извори	-10.2544
▁идеал	-10.2553
▁нации	-10.2554
▁лидери	-10.2569
Џ	-10.2573
▁расправа	-10.2574
▁Кар	-10.2577
напред	-10.2585
S	-10.2588
▁образ	-10.259
олошки	-10.2592
▁зелен	-10.2598
▁чул	-10.26
▁скр	-10.2604
▁останат	-10.2604
▁замена	-10.2614
бро	-10.2626
пушти	-10.2627
▁развие	-10.2635
▁бесплатн	-10.2645
▁кажав	-10.2647
▁зелена	-10.2649
▁забележи	-10.2649
▁создаден	-10.2659
кажува	-10.2659
пад	-10.266
ирана	-10.2698
▁прав	-10.2705
▁вредн	-10.2722
гија	-10.2725
▁тон	-10.2743
▁анти	-10.2752
Т	-10.276
▁спречи	-10.2763
▁специфичн	-10.2767
▁Зем	-10.2775
▁запад	-10.2777
▁пишувам	-10.2786
▁програми	-10.2794
▁алтернатив	-10.2798
▁лош	-10.2808
▁размисл	-10.2809
▁вратив	-10.2811
нце	-10.2811
▁издрж	-10.2815
▁психо	-10.2817
▁мера	-10.282
▁штед	-10.2821
▁микро	-10.2834
▁Здрав	-10.2834
▁Одговор	-10.2834
▁генетски	-10.2834
▁дефинира	-10.2834
▁заштити	-10.2834
▁исчезнува	-10.2834
▁пејсаж	-10.2834
▁претпоставка	-10.2834
▁Најпрв	-10.2834
▁Помисл	-10.2834
▁главна	-10.2834
▁заборави	-10.2834
▁конференција	-10.2834
▁уметници	-10.2834
▁фамилија	-10.2834
▁музеј	-10.2834
▁потрага	-10.2834
▁климатски	-10.2834
▁пустина	-10.2834
▁Мексик	-10.2834
▁такво	-10.2834
▁посоч	-10.2835
▁статус	-10.2835
▁региони	-10.2835
▁знаци	-10.2836
▁згради	-10.2836
▁Сметам	-10.2839
▁застане	-10.284
▁нула	-10.284
▁однесе	-10.2846
▁интереси	-10.2847
▁исправ	-10.2847
▁алатка	-10.2848
▁пее	-10.2853
▁креативност	-10.2855
▁визуел	-10.2864
▁перење	-10.2865
▁модни	-10.2874
▁производство	-10.2886
▁плати	-10.2897
пуст	-10.29
▁Гор	-10.2912
▁вклуч	-10.2925
▁луди	-10.2928
▁сметаме	-10.2929
▁ужас	-10.2935
тација	-10.2938
▁секојднев	-10.2942
▁оглед	-10.2951
▁последно	-10.2954
▁градење	-10.2956
▁благодарен	-10.2958
▁елементи	-10.2959
▁болни	-10.2962
ѓ	-10.2965
▁авиони	-10.2968
▁избере	-10.2976
▁постоел	-10.2982
▁тестови	-10.2983
▁сосед	-10.2992
▁Бер	-10.301
ологија	-10.3014
▁позадина	-10.303
▁непознат	-10.3032
▁никако	-10.3033
C	-10.3033
дер	-10.3034
▁дигитални	-10.3035
▁историски	-10.3036
М	-10.3045
▁особини	-10.3047
▁мобил	-10.3048
гар	-10.3049
▁напредува	-10.3055
▁одлучува	-10.3058
▁неког	-10.3059
▁напишан	-10.3065
▁помали	-10.3074
▁дознав	-10.3077
▁колективн	-10.308
▁сопствен	-10.3095
тивни	-10.3138
▁последна	-10.3139
▁најдо	-10.314
▁дигитална	-10.3143
▁приход	-10.3145
re	-10.3183
▁пронајд	-10.319
▁тумори	-10.3193
▁страдање	-10.32
▁Хигсово	-10.32
▁активности	-10.3207
▁летање	-10.3212
▁сеќавање	-10.3219
истички	-10.3233
▁црни	-10.3245
▁сестра	-10.3252
тру	-10.3255
▁најважни	-10.3272
▁доказ	-10.3275
▁свес	-10.3281
▁свир	-10.3285
▁протест	-10.3288
▁Вашингтон	-10.3289
▁вакво	-10.3289
▁замисла	-10.3289
▁игнорира	-10.3289
▁мамограм	-10.3289
▁маркетинг	-10.3289
▁медицински	-10.3289
▁перцепција	-10.3289
▁промовира	-10.3289
▁професионал	-10.3289
▁слободно	-10.3289
▁хартија	-10.3289
▁анализа	-10.3289
▁Браун	-10.3289
▁Нејзин	-10.3289
▁струја	-10.3289
▁радост	-10.3289
▁оган	-10.3289
▁удри	-10.3289
▁Татко	-10.3289
▁тренира	-10.3289
▁одлични	-10.329
▁справи	-10.329
▁додава	-10.329
▁брег	-10.329
▁чип	-10.3291
▁роботи	-10.3293
▁22	-10.3293
▁единствен	-10.3297
▁Лего	-10.3297
▁хор	-10.3298
▁прашувам	-10.33
▁s	-10.3304
▁втори	-10.3307
▁Големи	-10.3307
▁ветува	-10.3308
▁состо	-10.3308
оединети	-10.3308
▁Фор	-10.3311
▁искач	-10.3316
▁предци	-10.3318
▁стапки	-10.3318
▁здравство	-10.3318
▁електрична	-10.3321
▁постари	-10.3323
▁герилци	-10.3324
▁совршен	-10.333
▁очекувања	-10.3334
▁правел	-10.3335
▁сексуални	-10.3337
▁автор	-10.3337
▁јавни	-10.3339
▁безбедност	-10.3341
ch	-10.3345
▁практичн	-10.3354
▁играч	-10.3362
дев	-10.3374
природен	-10.3388
▁поттикна	-10.3389
▁изведува	-10.3401
▁најважно	-10.3421
▁додаде	-10.3422
▁изрази	-10.3431
▁подобр	-10.3441
▁скап	-10.3446
▁биолошки	-10.3447
▁Прашање	-10.3449
▁состави	-10.3455
ложи	-10.3461
▁сили	-10.3462
▁автомобили	-10.3462
фија	-10.3463
▁јавност	-10.3465
▁греш	-10.3469
▁еволуирал	-10.3492
▁фр	-10.3493
▁чист	-10.3496
P	-10.351
главно	-10.3513
▁убеди	-10.3516
▁север	-10.3518
назад	-10.3521
▁предвидува	-10.3525
▁Ваш	-10.3536
▁доведува	-10.3551
▁заборава	-10.3551
лка	-10.3555
стичка	-10.3557
▁врш	-10.356
▁крал	-10.3564
фу	-10.3577
▁грижа	-10.3579
ална	-10.3591
▁диви	-10.3595
пра	-10.3606
▁Жен	-10.3613
▁претходни	-10.3613
▁изед	-10.3617
ланд	-10.3625
▁празни	-10.3629
вина	-10.363
oo	-10.3634
▁собра	-10.3639
▁универзитет	-10.3649
▁лето	-10.3664
▁разбирам	-10.367
▁риби	-10.3675
▁поставив	-10.3675
▁Друга	-10.3686
култур	-10.3697
▁справува	-10.37
ОК	-10.3701
▁пара	-10.3703
▁најд	-10.3704
▁Размисл	-10.3715
▁поширок	-10.3718
▁тренд	-10.372
▁помал	-10.3724
▁демократи	-10.3725
▁печат	-10.3731
▁молекула	-10.3733
▁мр	-10.3734
▁натпревар	-10.3734
▁правило	-10.3738
▁потешко	-10.375
увања	-10.375
▁сонува	-10.3752
▁слушнал	-10.3763
▁увид	-10.3764
▁Етиопија	-10.3765
▁Израел	-10.3765
▁Обединет	-10.3765
▁анимација	-10.3765
▁вселенски	-10.3765
▁генерации	-10.3765
▁гледишт	-10.3765
▁децении	-10.3765
▁економска	-10.3765
▁експерт	-10.3765
▁ментално	-10.3765
▁метафора	-10.3765
▁уметник	-10.3765
▁фабрика	-10.3765
▁хемикалии	-10.3765
▁буџет	-10.3765
▁клиент	-10.3765
▁мозочно	-10.3765
▁ситуации	-10.3765
▁статистика	-10.3765
▁договор	-10.3765
▁политичка	-10.3765
▁традиција	-10.3765
▁црта	-10.3765
▁опрема	-10.3765
▁кампања	-10.3765
▁удира	-10.3765
▁детска	-10.3766
▁Почнав	-10.3766
▁геном	-10.3766
▁пораки	-10.3767
▁слој	-10.3767
▁храни	-10.3767
▁афера	-10.3768
▁Англи	-10.3768
▁машки	-10.3769
▁чија	-10.377
ерите	-10.377
▁размена	-10.3771
▁150	-10.3771
▁уче	-10.3772
▁исклучителн	-10.3774
▁меша	-10.3775
лози	-10.3777
▁блокира	-10.3779
нската	-10.3781
▁клик	-10.3783
▁Фил	-10.3784
▁предатор	-10.3785
▁стати	-10.3785
▁свед	-10.3788
▁мисија	-10.3789
▁единиц	-10.3789
▁приклуч	-10.379
▁теми	-10.3792
▁слушне	-10.3793
▁спореди	-10.3795
▁гледав	-10.3799
▁болници	-10.38
▁печатење	-10.3801
▁имиња	-10.3801
▁Стив	-10.3807
▁помогнат	-10.381
▁Негов	-10.3811
▁Стар	-10.3821
▁војници	-10.3827
▁зб	-10.383
▁терен	-10.3832
▁T	-10.384
▁патка	-10.3848
▁фрли	-10.3856
▁популарна	-10.3858
▁рани	-10.387
крат	-10.3871
▁јави	-10.3891
▁обич	-10.3896
▁испита	-10.3897
▁чиста	-10.3903
▁уста	-10.3943
▁Голем	-10.3943
▁седн	-10.3956
▁E	-10.3964
бл	-10.3964
▁рек	-10.3968
▁дојдо	-10.3968
▁сретнав	-10.397
▁постое	-10.3982
▁дебел	-10.3983
▁поставуваат	-10.3983
▁методи	-10.3993
дини	-10.3995
среќ	-10.3997
▁подобрува	-10.4001
▁аспекти	-10.4003
П	-10.4005
▁извади	-10.401
▁заработува	-10.4019
▁цената	-10.4019
▁видеа	-10.4046
зу	-10.405
▁врши	-10.407
▁нормални	-10.4077
▁допир	-10.4079
▁трети	-10.4089
▁продад	-10.4101
▁напишал	-10.4112
ic	-10.4118
▁вечера	-10.4121
▁минут	-10.4129
▁споделување	-10.4134
▁решава	-10.414
тука	-10.4145
▁инспирира	-10.4147
▁дејств	-10.4152
▁спас	-10.416
кон	-10.4161
▁реално	-10.4174
▁воден	-10.4177
игра	-10.4191
гу	-10.4198
▁изград	-10.4199
▁опасно	-10.4204
▁стор	-10.4222
▁светло	-10.4234
▁човекови	-10.4235
▁прсти	-10.4251
▁телефони	-10.4262
▁густи	-10.4263
▁претпостави	-10.4265
▁Анџел	-10.4265
▁атмосфера	-10.4265
▁здравствена	-10.4265
▁идентификува	-10.4265
▁интелигенција	-10.4265
▁интеракција	-10.4265
▁исполнет	-10.4265
▁недостасува	-10.4265
▁општествени	-10.4265
▁присуство	-10.4265
▁рецепт	-10.4265
▁телевизија	-10.4265
▁фарма	-10.4265
мигранти	-10.4265
▁потекнува	-10.4265
▁секвенци	-10.4265
▁потекло	-10.4265
▁докажа	-10.4265
▁бомби	-10.4265
▁остаток	-10.4265
▁целосна	-10.4265
▁дебата	-10.4265
▁ствар	-10.4265
▁граница	-10.4265
▁весници	-10.4265
▁нареков	-10.4266
▁здив	-10.4266
▁баба	-10.4266
▁десетици	-10.4266
▁одлука	-10.4267
▁домашно	-10.4267
▁Причин	-10.4268
▁навред	-10.4268
▁Канад	-10.4269
▁настани	-10.4271
▁стил	-10.4271
▁брза	-10.4272
▁фун	-10.4275
▁зрн	-10.4276
▁согласи	-10.4276
▁создадов	-10.4277
▁Сам	-10.4285
▁мреж	-10.4289
▁објекти	-10.4297
▁оружје	-10.4298
сфера	-10.4301
▁спровед	-10.4305
▁чии	-10.4306
љ	-10.4306
▁поддржува	-10.4308
▁затворени	-10.4311
▁лекција	-10.4318
▁лаж	-10.4332
▁тесн	-10.4337
▁Маж	-10.434
▁сопственост	-10.4343
▁верување	-10.4345
▁прилик	-10.4363
▁Чи	-10.4363
▁откри	-10.4365
▁испрати	-10.4384
малку	-10.4385
▁платформа	-10.4386
▁Дај	-10.4387
▁застана	-10.4392
▁Зборува	-10.4406
▁најнов	-10.4406
гал	-10.4407
болен	-10.4407
▁правилно	-10.4411
▁Ок	-10.4416
▁претстава	-10.4418
двај	-10.4422
дните	-10.4424
▁дизајниран	-10.4444
▁визуелни	-10.4449
▁компјутери	-10.4453
▁политиката	-10.4458
тина	-10.4464
▁кажувам	-10.4479
▁Лин	-10.4481
▁генералн	-10.4488
увачки	-10.4488
нец	-10.4493
▁Дојд	-10.4495
▁вред	-10.4498
▁уништување	-10.4506
▁сфаќаат	-10.4509
▁визуелна	-10.4525
▁Дом	-10.4527
▁дополнителни	-10.4533
▁трес	-10.4533
▁актив	-10.4538
12	-10.4559
▁погледнав	-10.4562
▁нарече	-10.4573
▁поминал	-10.4585
▁открива	-10.4592
рба	-10.4592
▁израз	-10.4598
▁ретко	-10.4606
▁Ај	-10.4608
▁обе	-10.4611
дро	-10.4612
▁меур	-10.4619
▁искрено	-10.4627
▁небо	-10.4632
▁содрж	-10.4634
▁Рак	-10.4635
▁запрашав	-10.4639
сил	-10.4645
▁значајн	-10.4646
▁бегал	-10.4694
спор	-10.4695
▁надворешни	-10.4722
▁понуда	-10.4727
▁препознава	-10.4728
▁успеав	-10.4745
▁пополнува	-10.4752
▁подготв	-10.4762
▁забележа	-10.477
▁блог	-10.4772
▁политичари	-10.4781
▁барам	-10.4781
▁донес	-10.4781
▁тво	-10.4783
▁скали	-10.4784
▁индивидуа	-10.4787
есечина	-10.4791
▁Држави	-10.4791
▁Нобелова	-10.4791
▁браќа	-10.4791
▁возбудлив	-10.4791
▁избега	-10.4791
▁изложен	-10.4791
▁испраќа	-10.4791
▁катастрофа	-10.4791
▁неопходн	-10.4791
▁отстрани	-10.4791
▁пронаоѓа	-10.4791
▁смисли	-10.4791
▁стигнав	-10.4791
▁убиства	-10.4791
▁чоколад	-10.4791
▁Џорџ	-10.4791
▁Архимед	-10.4791
▁количество	-10.4791
▁лекарства	-10.4791
▁радијација	-10.4791
▁синдром	-10.4791
▁водород	-10.4791
irus	-10.4791
▁потпира	-10.4791
▁нуди	-10.4791
▁стомак	-10.4791
▁всад	-10.4791
▁судбина	-10.4791
▁клима	-10.4791
▁просек	-10.4792
▁весник	-10.4792
▁чај	-10.4792
▁изучува	-10.4792
▁опции	-10.4792
▁1960	-10.4792
▁селекција	-10.4792
▁измери	-10.4792
▁гнев	-10.4793
▁најдобра	-10.4793
▁мртов	-10.4793
▁Јужн	-10.4793
▁транзиција	-10.4794
▁берза	-10.4794
▁пресмета	-10.4795
тивно	-10.4795
▁алат	-10.4796
▁несреќа	-10.4797
▁испушт	-10.4798
▁спушти	-10.4807
▁кратки	-10.4809
▁опција	-10.4809
▁хранат	-10.481
▁милј	-10.4812
▁смир	-10.4819
▁современ	-10.4824
▁игла	-10.4827
▁нечиј	-10.4828
▁Дец	-10.4829
▁битка	-10.483
▁скелет	-10.483
▁поразлично	-10.4835
▁Рече	-10.4835
▁презема	-10.4843
▁односи	-10.4848
▁пр	-10.4849
▁подобрување	-10.4855
▁сонцето	-10.4859
▁омилени	-10.486
брзо	-10.4861
▁Кан	-10.4863
▁објавен	-10.4863
▁здрави	-10.4864
▁социјално	-10.487
▁Хер	-10.4871
▁истражи	-10.4878
▁мачка	-10.4892
долж	-10.4893
▁детал	-10.4902
▁втор	-10.4904
▁ужасн	-10.4905
▁готв	-10.4907
фон	-10.4911
ску	-10.4913
тис	-10.4916
▁конзерватив	-10.4916
▁централ	-10.4917
нки	-10.4919
▁најмал	-10.4927
▁мислел	-10.4931
▁жители	-10.4941
▁променат	-10.4942
▁ставам	-10.4946
▁Марк	-10.4948
▁групира	-10.4951
▁пишување	-10.4963
▁Кор	-10.4964
▁прашував	-10.4967
▁чудни	-10.4968
▁продаде	-10.497
▁дизајнер	-10.4971
▁обични	-10.4993
▁изврши	-10.4994
▁плата	-10.5004
▁лични	-10.5025
иро	-10.503
▁слушам	-10.5051
▁предност	-10.5066
▁второ	-10.5067
▁источн	-10.5068
▁помисли	-10.5072
▁одговорни	-10.5075
▁служи	-10.5076
▁дис	-10.5078
▁главно	-10.5078
▁народ	-10.5086
пишува	-10.5093
M	-10.5099
▁делува	-10.5099
be	-10.5102
▁дебели	-10.5103
гер	-10.5107
▁поврзување	-10.5109
страшно	-10.5118
▁документ	-10.5146
мил	-10.5158
▁трета	-10.5159
▁потсетува	-10.5168
▁стара	-10.5169
▁избер	-10.5174
▁прифат	-10.5186
▁Вак	-10.5192
▁дозвол	-10.5196
▁шета	-10.5219
▁гре	-10.523
▁учител	-10.5238
▁крие	-10.5238
▁фер	-10.5251
▁сличн	-10.5258
▁спреч	-10.5277
▁лес	-10.5279
онечно	-10.5302
▁четврт	-10.5304
▁лик	-10.5309
▁задовол	-10.5312
еројатно	-10.5314
▁блок	-10.5315
▁хип	-10.5331
чигледно	-10.5336
влекува	-10.5337
▁сподели	-10.5345
интелигент	-10.5347
технолошки	-10.5347
▁Басем	-10.5347
▁Излезе	-10.5347
▁Конгрес	-10.5347
▁Најголем	-10.5347
▁Сатурн	-10.5347
▁арапски	-10.5347
▁галаксии	-10.5347
▁господин	-10.5347
▁градоначалници	-10.5347
▁енергетск	-10.5347
▁имагинација	-10.5347
▁инфицира	-10.5347
▁кариера	-10.5347
▁пресметки	-10.5347
▁пристигна	-10.5347
▁температура	-10.5347
▁финансиски	-10.5347
▁коцки	-10.5347
▁опасни	-10.5347
▁повреди	-10.5347
▁клуб	-10.5347
▁хаос	-10.5347
▁крилја	-10.5347
▁Живе	-10.5347
▁осамен	-10.5347
▁ментор	-10.5347
▁хотел	-10.5347
▁руралн	-10.5347
▁Често	-10.5347
▁отвара	-10.5347
▁трој	-10.5347
▁детство	-10.5348
▁картичк	-10.5348
▁шуми	-10.5348
▁внатрешна	-10.5348
ing	-10.5348
▁заклучок	-10.5349
▁планети	-10.535
▁патишта	-10.535
▁домашна	-10.535
▁мерка	-10.5351
▁рамка	-10.5351
▁слон	-10.5351
▁автопат	-10.5352
▁посреќн	-10.5352
чуден	-10.5353
▁класич	-10.5355
▁ограничувања	-10.5356
▁21	-10.5357
▁записи	-10.5357
▁кров	-10.5358
▁жито	-10.5358
▁применува	-10.5359
▁игли	-10.5363
▁совршена	-10.5363
▁мамографија	-10.5365
▁обидов	-10.5365
▁поттикнува	-10.5367
▁моќни	-10.5367
▁брилијантн	-10.5368
▁загуба	-10.5368
▁хипер	-10.5373
▁ученици	-10.5373
▁инженерство	-10.5373
▁изненадувачк	-10.5376
▁еднакво	-10.5381
▁Цр	-10.5388
▁бранови	-10.5391
▁прст	-10.5394
▁плива	-10.5395
▁утроб	-10.5395
▁одвратност	-10.5399
▁убеден	-10.5401
наку	-10.5401
▁силни	-10.5402
▁просеч	-10.5402
▁основно	-10.5402
чера	-10.5412
▁контра	-10.5412
▁опасност	-10.5415
▁дознае	-10.5417
▁типови	-10.5419
▁пренесе	-10.5421
▁бран	-10.5427
▁крена	-10.5431
▁независ	-10.5439
▁означува	-10.544
▁полна	-10.5441
▁негува	-10.5444
▁саб	-10.5448
▁вест	-10.545
▁туморот	-10.5463
▁земјоделски	-10.5463
▁случајно	-10.5463
▁процесира	-10.5465
разумно	-10.547
▁изолиран	-10.5471
▁Пет	-10.5471
▁обезбеди	-10.5473
▁ке	-10.5474
▁затвори	-10.5488
▁научен	-10.5493
ou	-10.5493
▁креативни	-10.5495
▁користев	-10.5505
▁национал	-10.5511
▁обиди	-10.5513
▁уништува	-10.5515
▁чекори	-10.5519
▁измен	-10.5536
▁Вели	-10.5539
▁мост	-10.5539
▁црвена	-10.5542
▁прати	-10.5547
реж	-10.5548
▁избегнува	-10.5558
▁45	-10.5563
▁популацијата	-10.5572
it	-10.5578
▁еколошки	-10.5586
▁почнал	-10.5591
ed	-10.5592
▁додо	-10.5599
▁поминат	-10.5609
▁инженери	-10.5611
ително	-10.5612
▁Силв	-10.5613
▁зачува	-10.5623
▁предел	-10.5624
▁висок	-10.5626
▁Кени	-10.5632
▁високи	-10.5636
▁провер	-10.564
▁претприемачи	-10.5643
▁државата	-10.5655
зира	-10.5657
▁срцеви	-10.5659
▁бела	-10.566
▁обработ	-10.5671
▁одев	-10.5679
E	-10.568
▁сопре	-10.569
▁проширува	-10.5694
▁класа	-10.5702
▁секојдневни	-10.5703
ивни	-10.5713
▁искорист	-10.5737
▁принципи	-10.5749
▁сетила	-10.5756
▁интелектуал	-10.5757
▁купат	-10.5761
▁додад	-10.5782
▁намал	-10.5788
▁пребарува	-10.5805
АВ	-10.5814
▁придонес	-10.5818
▁охрабрува	-10.5822
▁базира	-10.5824
▁својств	-10.5824
скоро	-10.5826
▁развиени	-10.585
▁материја	-10.5862
▁безбедно	-10.5864
▁бори	-10.5868
▁копира	-10.587
▁зависни	-10.5876
▁мапи	-10.5879
▁бои	-10.5893
▁фати	-10.5907
▁партнери	-10.5908
▁дроб	-10.5914
▁Зборувам	-10.5915
порно	-10.5924
▁исклучи	-10.5932
▁архитект	-10.5935
▁Авганистан	-10.5935
▁Египет	-10.5935
▁Калифорни	-10.5935
▁Харвард	-10.5935
▁адаптација	-10.5935
▁астероид	-10.5935
▁внимава	-10.5935
▁дефинитивн	-10.5935
▁дијагностицира	-10.5935
▁дијаграм	-10.5935
▁длабоки	-10.5935
▁инспирација	-10.5935
▁математичк	-10.5935
▁медицинска	-10.5935
▁неуспех	-10.5935
▁регенерира	-10.5935
▁свињи	-10.5935
▁хуманитарн	-10.5935
▁Најдобр	-10.5935
▁збунет	-10.5935
▁наликува	-10.5935
▁невообичаен	-10.5935
▁несигурн	-10.5935
▁снабд	-10.5935
▁телесна	-10.5935
▁посетува	-10.5935
▁спротивстав	-10.5935
▁посака	-10.5935
▁Смит	-10.5935
▁надмине	-10.5935
▁гледна	-10.5935
▁глави	-10.5935
▁институција	-10.5935
спремни	-10.5935
▁струни	-10.5935
▁излего	-10.5936
▁Исус	-10.5936
▁Алцхајмерова	-10.5936
▁Јапонија	-10.5936
▁1950	-10.5936
▁матични	-10.5936
▁поверува	-10.5936
▁погоден	-10.5936
▁убиј	-10.5937
▁Станува	-10.5937
▁трошоци	-10.5937
▁нејасн	-10.5937
▁атоми	-10.5937
▁домашни	-10.5938
▁снимен	-10.5938
▁директор	-10.5938
▁1,	-10.5938
▁корисници	-10.5938
▁убедувања	-10.5939
▁центри	-10.5939
▁југ	-10.594
▁трансформација	-10.594
▁погоди	-10.594
▁качува	-10.594
▁замине	-10.594
јуб	-10.594
▁избира	-10.5941
▁верба	-10.5941
▁насочи	-10.5942
▁мршојадци	-10.5943
▁напише	-10.5944
▁Мислев	-10.5944
модер	-10.5947
▁сала	-10.5947
▁зг	-10.5947
▁Чика	-10.595
рска	-10.5951
▁стебл	-10.5951
▁стрем	-10.5953
▁Следн	-10.5954
▁наводн	-10.5955
▁седми	-10.5957
▁прима	-10.5957
▁мода	-10.5958
▁банк	-10.5959
st	-10.596
▁волја	-10.5961
▁создал	-10.5963
▁сув	-10.5968
свет	-10.5969
▁преживее	-10.5972
ig	-10.5974
▁Андерс	-10.5974
▁работел	-10.5989
евка	-10.5994
рс	-10.5996
▁составен	-10.5998
▁преживување	-10.6003
▁испитува	-10.6007
▁полу	-10.6011
▁помисле	-10.6017
▁тивк	-10.6018
▁колк	-10.6018
▁уништен	-10.6024
▁заслужува	-10.603
▁неможе	-10.6033
▁околината	-10.6034
▁домови	-10.6037
▁изненади	-10.6037
▁писм	-10.6038
▁умр	-10.6046
▁бориме	-10.6047
▁студира	-10.6048
ежно	-10.6051
▁должина	-10.6068
рени	-10.607
▁врти	-10.6075
▁програмира	-10.6077
рх	-10.6078
▁градина	-10.608
▁когнитивни	-10.608
▁решавање	-10.6086
▁успеавме	-10.6088
▁стандард	-10.6097
▁спречува	-10.6116
▁дами	-10.6118
▁завршив	-10.6124
▁приходи	-10.6126
стин	-10.6126
▁посеб	-10.6128
▁сложени	-10.6128
▁работно	-10.6128
▁Западна	-10.6136
▁заштед	-10.6136
▁почит	-10.6152
▁религиозни	-10.6165
▁национални	-10.6167
густ	-10.617
▁прат	-10.618
▁одзема	-10.6187
▁научно	-10.6194
▁придруж	-10.6195
▁стоја	-10.6199
КА	-10.6207
▁горд	-10.6213
▁поздрав	-10.6221
▁дојката	-10.6227
▁потрошувач	-10.6231
▁светла	-10.6241
▁предлож	-10.6242
▁пораз	-10.6243
▁Жена	-10.6244
▁соодветно	-10.6247
▁приват	-10.6248
дната	-10.6267
▁Бал	-10.6272
▁заедниците	-10.6272
▁особин	-10.6277
▁непознати	-10.6279
▁запиша	-10.6282
▁далечни	-10.629
▁растат	-10.6294
▁значајни	-10.6294
▁клучни	-10.6297
▁сврти	-10.63
▁нож	-10.6306
▁идентичн	-10.6309
▁отпор	-10.6309
▁секир	-10.631
▁минува	-10.6312
▁сетил	-10.6318
▁користен	-10.6328
▁завршен	-10.6353
▁квант	-10.6369
▁m	-10.6374
▁бројка	-10.6376
▁подготвува	-10.6385
▁живеење	-10.6398
▁ризикува	-10.6403
▁најголемо	-10.6404
▁мистерија	-10.6419
▁замолив	-10.6422
сега	-10.6427
▁завис	-10.6429
ајле	-10.6433
Ba	-10.6446
ртал	-10.6461
et	-10.6463
лажно	-10.6464
мир	-10.6481
▁животна	-10.6487
▁погледнам	-10.649
▁направа	-10.6503
▁земат	-10.6504
кеј	-10.6507
▁третин	-10.6512
▁провери	-10.6529
▁дозвола	-10.6542
видено	-10.6545
▁трка	-10.6548
▁дожд	-10.656
▁Ајнштајн	-10.656
▁Европска	-10.656
▁Интересно	-10.656
▁графички	-10.656
▁желби	-10.656
▁магионичар	-10.656
▁мултиверзум	-10.656
▁приближува	-10.656
▁произведе	-10.656
▁произлегува	-10.656
▁резерв	-10.656
▁сулфид	-10.656
▁тргне	-10.656
▁тунел	-10.656
▁џеб	-10.656
▁внатрешноста	-10.656
▁емпатија	-10.656
▁куќи	-10.656
▁повреден	-10.656
▁трча	-10.656
▁фантастичн	-10.656
▁Малку	-10.656
▁детектор	-10.656
▁најпрв	-10.656
▁зедов	-10.656
▁одложена	-10.656
▁раковод	-10.656
опенха	-10.656
▁двојно	-10.656
▁локација	-10.656
▁бомба	-10.656
▁фраза	-10.656
▁терориз	-10.656
▁иновација	-10.656
▁облаци	-10.656
▁обратн	-10.656
▁вграден	-10.656
▁загуби	-10.656
▁просперитет	-10.656
▁круж	-10.656
▁Факт	-10.6561
▁запомн	-10.6561
▁функција	-10.6561
▁надминува	-10.6561
▁Доаѓа	-10.6561
▁обука	-10.6561
▁слатк	-10.6561
▁Филип	-10.6562
▁цитат	-10.6562
▁отров	-10.6562
▁крева	-10.6562
▁пробува	-10.6562
▁193	-10.6562
▁опседнат	-10.6563
▁сними	-10.6563
▁планини	-10.6563
▁тумор	-10.6564
▁осврн	-10.6564
▁демон	-10.6564
▁морски	-10.6564
▁искуси	-10.6566
▁35	-10.6568
▁подарок	-10.6568
▁сексуално	-10.6572
▁тече	-10.6572
▁опишува	-10.6573
▁армија	-10.6574
логија	-10.6574
ap	-10.6575
▁благ	-10.6578
▁умствен	-10.658
▁трева	-10.658
▁успеал	-10.658
▁спои	-10.6583
▁одреди	-10.6584
▁барање	-10.6585
▁делумн	-10.6585
▁зависност	-10.6586
▁сметка	-10.6587
▁фотографира	-10.6587
▁судење	-10.6592
▁АБ	-10.6593
▁Епл	-10.6594
▁зелени	-10.6595
▁учество	-10.6596
▁пие	-10.6598
▁спротив	-10.6599
▁натпреварува	-10.6601
▁виртуелна	-10.6608
▁гран	-10.6609
▁Дека	-10.6609
▁Миг	-10.6609
▁размислував	-10.661
▁лого	-10.6612
▁смен	-10.6616
▁Фло	-10.6623
▁допр	-10.6624
▁акција	-10.6627
▁зголемен	-10.6629
▁Вал	-10.6636
▁отворено	-10.6642
▁реални	-10.6647
▁извлече	-10.6651
B	-10.6654
▁Прек	-10.6656
▁оценување	-10.6657
▁погрешни	-10.6659
▁чекај	-10.666
▁преживеани	-10.6662
▁одржа	-10.6663
▁признава	-10.6665
▁страници	-10.667
▁194	-10.6673
▁здраво	-10.6676
▁овозмож	-10.6676
рачно	-10.6682
▁можни	-10.6703
▁20-	-10.671
▁чуе	-10.6727
▁рамн	-10.6728
▁канали	-10.6754
▁сватив	-10.6754
▁читање	-10.6768
ајд	-10.6772
▁редовн	-10.6773
▁социјал	-10.6781
▁потсети	-10.6818
стон	-10.6819
▁сопственик	-10.6828
▁слава	-10.6829
▁камера	-10.6829
▁престане	-10.684
▁тепа	-10.6842
▁заборавам	-10.685
▁силува	-10.6858
▁претприемач	-10.6869
▁Гра	-10.6903
▁стресот	-10.6904
▁пад	-10.6908
виц	-10.6924
▁помала	-10.6924
▁13	-10.6929
▁примат	-10.6935
▁истражувам	-10.6936
▁охрабр	-10.6939
▁погреш	-10.694
▁помислил	-10.6946
▁убиен	-10.6946
▁очекував	-10.6977
вечер	-10.6979
▁Крал	-10.6979
Л	-10.698
▁повтори	-10.6983
▁глагол	-10.6994
▁заклучи	-10.7001
▁послед	-10.7004
▁крајна	-10.7011
▁далечин	-10.7023
▁искуството	-10.7026
▁примати	-10.7028
епт	-10.7044
живеа	-10.7071
▁Бога	-10.7085
▁почитува	-10.71
▁извонред	-10.7107
▁човеч	-10.7112
зди	-10.7122
▁студ	-10.7138
▁јадење	-10.7138
▁почнат	-10.7155
▁подолг	-10.7157
▁Сп	-10.7164
▁повтор	-10.7171
▁Џеј	-10.7172
врш	-10.7178
▁меѓусеб	-10.7187
пуштам	-10.7193
▁постар	-10.7193
▁сопствена	-10.7211
▁шок	-10.7216
▁капитал	-10.7217
▁забран	-10.7219
способен	-10.7226
▁моќно	-10.7226
▁списание	-10.7227
дисциплина	-10.7227
▁Божиќ	-10.7227
▁Излегува	-10.7227
▁Колумбија	-10.7227
▁Публика	-10.7227
▁градоначалник	-10.7227
▁демографск	-10.7227
▁злоставува	-10.7227
▁изработка	-10.7227
▁исчезна	-10.7227
▁конгрес	-10.7227
▁литература	-10.7227
▁локална	-10.7227
▁неочекуван	-10.7227
▁показател	-10.7227
▁претпоставки	-10.7227
▁произлезе	-10.7227
▁училница	-10.7227
▁цртеж	-10.7227
▁череп	-10.7227
▁четворица	-10.7227
▁Отидов	-10.7227
▁алкохол	-10.7227
▁воздуш	-10.7227
▁дроги	-10.7227
▁замислува	-10.7227
▁локално	-10.7227
▁муабет	-10.7227
▁писател	-10.7227
▁подразбира	-10.7227
▁198	-10.7227
▁форум	-10.7227
▁Природ	-10.7227
▁мртва	-10.7227
▁обележ	-10.7227
▁тргува	-10.7227
▁дупки	-10.7227
▁песок	-10.7227
▁дилема	-10.7227
▁праќа	-10.7227
▁влакн	-10.7227
▁толпа	-10.7227
▁вештачк	-10.7227
▁ризици	-10.7227
▁срца	-10.7227
▁лоцира	-10.7227
▁здравствени	-10.7227
▁илузија	-10.7227
▁Џек	-10.7227
▁Еван	-10.7227
▁протеини	-10.7227
▁свеж	-10.7227
домаќин	-10.7227
▁Открив	-10.7227
▁последица	-10.7227
▁појават	-10.7227
▁Време	-10.7227
▁избриш	-10.7228
комплициран	-10.7229
▁средини	-10.7229
▁избран	-10.7229
▁НА	-10.7229
▁висина	-10.7229
▁активист	-10.7229
▁свиња	-10.7229
пресија	-10.723
▁Маса	-10.723
▁плов	-10.723
▁дуплира	-10.723
▁себство	-10.723
▁оддалеченост	-10.7231
▁2008	-10.7231
▁потисн	-10.7232
▁Претпоставувам	-10.7233
▁моментално	-10.7234
▁роднин	-10.7234
▁хемиски	-10.7236
▁убедам	-10.7236
▁покрив	-10.7237
▁линии	-10.7237
▁вработени	-10.7241
▁шише	-10.7244
▁растројство	-10.7246
▁Жал	-10.7246
▁романтич	-10.7248
▁десни	-10.7248
▁поднес	-10.7252
▁2000	-10.7252
▁судир	-10.7253
▁Вакви	-10.7256
▁мачки	-10.7256
кому	-10.7256
▁Работи	-10.7258
▁табу	-10.7261
▁Карл	-10.7263
▁двор	-10.7263
полар	-10.727
▁одвоен	-10.7273
▁уши	-10.7275
▁интервјуира	-10.7275
▁јадро	-10.7286
▁чет	-10.7291
▁концентрира	-10.7294
▁ефикасност	-10.7296
▁Доста	-10.7299
▁штедење	-10.7304
▁родител	-10.7304
▁пациентка	-10.7308
▁погрешна	-10.7313
▁Ван	-10.7315
▁надворешн	-10.7317
▁променет	-10.7317
▁медиум	-10.7317
активни	-10.7323
▁водачи	-10.7324
▁претставам	-10.7327
▁фармер	-10.7328
▁значителн	-10.733
▁специфич	-10.7332
станок	-10.7336
▁соодвет	-10.7341
▁намален	-10.7343
▁долга	-10.7351
▁ефикасни	-10.7352
организми	-10.7352
▁необичн	-10.7354
▁популар	-10.7354
▁готов	-10.7362
▁препознае	-10.7366
▁комплет	-10.7366
▁напушт	-10.7377
▁мистеријата	-10.738
▁транс	-10.739
▁лажни	-10.7396
▁државни	-10.7396
▁Добива	-10.7398
▁станав	-10.7403
▁цврсти	-10.7425
▁предавам	-10.743
▁75	-10.743
▁Направив	-10.7435
внимателн	-10.7435
▁психијатриск	-10.7436
▁наврати	-10.7451
▁Исток	-10.7452
▁продукти	-10.7453
▁извлекува	-10.7473
▁битн	-10.7518
▁карактеристики	-10.7518
осно	-10.752
▁бега	-10.7522
▁моно	-10.754
▁спорт	-10.7547
▁тинејџер	-10.7554
ad	-10.7559
▁спојува	-10.7577
▁Руси	-10.7586
▁компјутерот	-10.759
▁адвокати	-10.7591
▁прекинува	-10.7593
▁тинејџери	-10.7601
▁пен	-10.7605
▁забележав	-10.7609
▁конкрет	-10.7616
▁65	-10.7618
▁трето	-10.7619
de	-10.7626
▁степени	-10.7631
▁карактеристик	-10.7637
▁реклами	-10.7643
▁реченици	-10.7662
▁отид	-10.7668
▁чисти	-10.7683
моќ	-10.7692
дор	-10.7695
коро	-10.7705
билни	-10.7712
▁ретк	-10.7715
▁присил	-10.7724
▁пренесување	-10.773
▁другар	-10.7732
▁мајмуни	-10.7753
▁уникат	-10.776
▁препозна	-10.7784
▁денешни	-10.7786
▁идеа	-10.7787
▁должи	-10.7788
▁банка	-10.7791
▁Мек	-10.7802
▁сопствено	-10.7805
▁Погледн	-10.7813
анда	-10.7818
▁детали	-10.7818
▁Ваши	-10.7839
▁покр	-10.7846
▁склон	-10.7851
ргу	-10.788
доволен	-10.7896
▁слајд	-10.7904
▁член	-10.7905
▁заштеди	-10.791
▁камп	-10.7911
▁соедин	-10.7917
▁роман	-10.7919
штво	-10.7941
хирург	-10.7941
▁Човечк	-10.7941
▁вкупно	-10.7941
▁дипломира	-10.7941
▁европск	-10.7941
▁Прекрасн	-10.7941
▁Стенфорд	-10.7941
▁бременост	-10.7941
▁возврат	-10.7941
▁гравитација	-10.7941
▁дистрибуција	-10.7941
▁инвестиција	-10.7941
▁инсистира	-10.7941
▁интерактивн	-10.7941
▁интроверт	-10.7941
▁карактеристич	-10.7941
▁магазин	-10.7941
▁недостиг	-10.7941
▁околности	-10.7941
▁панкреас	-10.7941
▁племиња	-10.7941
▁регулира	-10.7941
▁симптоми	-10.7941
▁смисол	-10.7941
▁субјекти	-10.7941
▁сугерира	-10.7941
▁телевизор	-10.7941
▁фалсификат	-10.7941
▁џунгла	-10.7941
▁состојби	-10.7941
▁херој	-10.7941
▁елиминира	-10.7941
hino	-10.7941
▁психолошк	-10.7941
▁суштинск	-10.7941
▁електроди	-10.7941
▁откажа	-10.7941
▁курс	-10.7941
▁Почнува	-10.7941
▁бариер	-10.7941
▁продуктивност	-10.7941
▁емоција	-10.7941
▁обвинува	-10.7941
▁спрема	-10.7941
▁Глас	-10.7941
▁облак	-10.7941
▁долговечност	-10.7941
▁заклучоци	-10.7941
▁интервенци	-10.7941
▁улоги	-10.7941
▁196	-10.7942
▁крава	-10.7942
▁влего	-10.7942
▁татковци	-10.7942
▁одржи	-10.7942
▁застарен	-10.7942
▁добиток	-10.7943
▁197	-10.7943
▁Влада	-10.7943
▁неделно	-10.7944
▁отпечаток	-10.7944
▁станови	-10.7944
▁Боже	-10.7944
▁поблиск	-10.7944
▁насочен	-10.7944
▁власт	-10.7944
▁оценува	-10.7945
▁неверство	-10.7945
▁буква	-10.7945
▁испратив	-10.7945
▁утре	-10.7946
▁2005	-10.7946
▁23	-10.7946
▁реклама	-10.7946
▁соочен	-10.7947
▁250	-10.7948
▁привлекува	-10.7951
▁густината	-10.7951
▁тежне	-10.7952
▁загадува	-10.7952
▁карта	-10.7958
▁здруж	-10.7966
▁одделение	-10.7966
▁текстови	-10.7969
▁бродови	-10.797
▁изгуб	-10.797
▁актер	-10.7972
▁стапал	-10.7974
▁владеење	-10.7974
▁симбол	-10.7976
▁изјави	-10.7978
▁прехран	-10.798
▁делчиња	-10.7981
▁сонце	-10.7984
▁креативна	-10.7994
▁реална	-10.7995
▁платен	-10.7995
▁Мината	-10.7999
кистан	-10.8
▁благодарност	-10.8008
▁Гри	-10.8008
▁Размислува	-10.8018
ia	-10.8028
▁задрж	-10.8031
▁судија	-10.8032
кај	-10.8035
▁присутн	-10.8045
is	-10.8049
▁успешни	-10.8056
еќа	-10.8057
▁слушнат	-10.8057
▁утврди	-10.8058
паку	-10.806
▁Рим	-10.8071
▁преведува	-10.8071
▁спомнав	-10.8073
▁Рас	-10.8073
▁внесена	-10.8075
▁исплашен	-10.808
▁дадов	-10.8086
▁рана	-10.8086
▁Вер	-10.8092
▁меѓународна	-10.8093
▁наречеме	-10.8094
▁нормалн	-10.8102
▁Глобални	-10.8103
om	-10.8123
▁ставови	-10.813
лшебник	-10.8137
▁згроз	-10.8141
ивот	-10.8141
▁заканува	-10.815
▁движе	-10.8153
▁собере	-10.8153
▁застрашувачк	-10.8157
▁извршува	-10.8159
▁драматичн	-10.8164
овци	-10.8165
▁откривање	-10.8165
▁црвени	-10.8178
▁Мен	-10.8179
▁нуклеар	-10.818
▁Ах	-10.8205
▁скриени	-10.8211
▁стандарди	-10.8218
тично	-10.8221
▁интегр	-10.8221
▁коски	-10.823
јдов	-10.8245
▁Добр	-10.8247
▁национална	-10.8262
▁мери	-10.8264
▁ниски	-10.8275
▁длабочина	-10.8277
▁обезбедува	-10.8293
▁антички	-10.8314
▁инженер	-10.8316
▁Уни	-10.8317
▁тестирање	-10.8319
▁трет	-10.8339
▁инсекти	-10.8341
▁орбита	-10.8356
тички	-10.8365
▁ужасна	-10.8368
▁постават	-10.8378
▁замоли	-10.8385
▁посилн	-10.8388
▁еколошк	-10.8389
▁Голема	-10.8397
▁свест	-10.8403
храбри	-10.8404
ne	-10.8438
разно	-10.8442
руг	-10.8455
▁помисла	-10.8457
▁плач	-10.8459
▁присутни	-10.8471
▁производители	-10.8472
▁извед	-10.8477
▁приказ	-10.8491
▁средна	-10.8491
op	-10.8494
▁заштедува	-10.8498
▁креатив	-10.8505
лец	-10.8507
движ	-10.8511
▁Западни	-10.8515
▁најважн	-10.8516
▁испрат	-10.8524
▁обожавам	-10.8537
▁скапи	-10.8543
▁забол	-10.855
▁цврст	-10.8557
▁танцува	-10.8559
▁комплетн	-10.858
▁влож	-10.8583
▁ранг	-10.8594
▁совршено	-10.8619
▁љубопитн	-10.8621
▁земав	-10.863
▁обидував	-10.8635
▁претстав	-10.8639
ља	-10.8646
▁потсет	-10.8649
▁порт	-10.8656
▁достап	-10.8657
▁ниска	-10.8658
▁лаб	-10.866
▁раса	-10.8663
▁спие	-10.8671
▁дозна	-10.8676
▁замол	-10.8683
▁општ	-10.8691
▁успеш	-10.8691
▁акт	-10.8695
цент	-10.8701
▁собер	-10.8709
▁стаклен	-10.8709
мозочна	-10.871
▁МСД	-10.871
▁Малтешки	-10.871
▁СИДА	-10.871
▁Француск	-10.871
▁воспитува	-10.871
▁демонстрира	-10.871
▁дискусија	-10.871
▁епидемија	-10.871
▁инвестиции	-10.871
▁интроспекција	-10.871
▁интуитивн	-10.871
▁највисок	-10.871
▁неизбеж	-10.871
▁осуден	-10.871
▁подеднакв	-10.871
▁пореметувањ	-10.871
▁потврди	-10.871
▁преговара	-10.871
▁привилегија	-10.871
▁рамнотежа	-10.871
▁резонанц	-10.871
▁слободни	-10.871
▁сочувствува	-10.871
▁сретне	-10.871
▁стратегии	-10.871
▁финансии	-10.871
▁финансира	-10.871
▁флексибилн	-10.871
▁формула	-10.871
демократск	-10.871
▁авантур	-10.871
▁забрзува	-10.871
▁парализа	-10.871
▁принуд	-10.871
▁смртонос	-10.871
▁сојузници	-10.871
▁хоризонт	-10.871
▁јаболко	-10.871
▁автоматск	-10.871
▁кокаин	-10.871
▁сомнева	-10.871
▁список	-10.871
▁Касини	-10.871
▁поткуп	-10.871
▁пчели	-10.871
▁количини	-10.871
▁таблет	-10.871
▁генерира	-10.871
▁Палестин	-10.871
▁Вилијам	-10.871
▁авторитет	-10.871
▁поделба	-10.871
▁аларм	-10.871
▁фасцинантн	-10.871
▁јајца	-10.871
▁доживее	-10.871
▁Либан	-10.871
▁Јорк	-10.8711
▁замрзн	-10.8711
▁емисии	-10.8711
▁Живот	-10.8711
▁делфин	-10.8711
плеска	-10.8711
▁најблиск	-10.8711
▁откритија	-10.8711
▁визуелизација	-10.8711
▁камења	-10.8711
▁институт	-10.8711
▁сведоци	-10.8711
▁Супер	-10.8712
▁разбол	-10.8712
▁Италија	-10.8712
▁предвод	-10.8712
▁согледува	-10.8712
▁поранеш	-10.8712
▁гроз	-10.8712
▁индивидуални	-10.8712
▁шума	-10.8713
▁помине	-10.8713
▁1990	-10.8713
▁Австрали	-10.8713
▁афери	-10.8713
▁Дејви	-10.8714
▁сокол	-10.8714
▁2009	-10.8714
▁база	-10.8714
▁нацрта	-10.8714
▁крене	-10.8715
▁топка	-10.8715
▁посета	-10.8715
форд	-10.8715
▁падне	-10.8715
▁бележ	-10.8716
▁вади	-10.8717
▁достигнувања	-10.8717
▁Конго	-10.8719
▁технички	-10.8719
▁возило	-10.8722
▁адаптира	-10.8722
▁средба	-10.8722
▁бас	-10.8723
▁оценки	-10.8724
▁32	-10.8724
▁сиров	-10.8725
▁точни	-10.8725
▁пронајдов	-10.8726
▁сретна	-10.8726
▁најпопуларн	-10.8728
▁пиво	-10.8729
▁1000	-10.873
▁воспостав	-10.873
▁доставува	-10.8731
▁патувања	-10.8735
▁позитивни	-10.8737
функционал	-10.8738
▁Хол	-10.8743
▁океани	-10.8744
▁камен	-10.8747
▁екстроверт	-10.8747
▁ученик	-10.875
▁уво	-10.8755
▁одредува	-10.8757
▁оддалечен	-10.8766
чувствителни	-10.8767
▁предавања	-10.8767
▁избегне	-10.8772
тешкотии	-10.8775
▁Хомо	-10.8776
▁универзал	-10.8779
овец	-10.8783
▁муви	-10.8785
▁љубопитност	-10.8789
▁заминува	-10.8789
▁стабилност	-10.879
▁прециз	-10.8792
▁Два	-10.8796
▁состојки	-10.88
▁среќава	-10.8812
▁изненаден	-10.8822
▁собрани	-10.8822
▁наполн	-10.8824
▁коса	-10.8826
▁раскаж	-10.8834
чење	-10.8839
▁обедин	-10.884
▁постер	-10.8842
▁забележал	-10.8848
▁тенк	-10.8848
▁меѓународни	-10.8849
▁искаж	-10.8855
▁фактори	-10.8857
▁Став	-10.886
▁конзумира	-10.8879
▁опис	-10.8883
▁ноќе	-10.8886
▁2.0	-10.8888
▁сериозни	-10.8892
▁приватни	-10.8896
▁твое	-10.8904
▁уништи	-10.8904
▁техники	-10.8913
▁набљудување	-10.8918
▁оригинал	-10.8919
▁започнал	-10.892
▁поточн	-10.8921
▁исклучен	-10.8925
▁рационалн	-10.8926
▁риб	-10.8928
▁складира	-10.8948
▁Морав	-10.8955
▁правни	-10.8961
▁либерални	-10.8971
▁превед	-10.8975
реб	-10.8976
▁бројни	-10.8978
▁глаголи	-10.8987
▁докаже	-10.8991
згубени	-10.9008
▁објавува	-10.9011
▁пријав	-10.9013
▁ставив	-10.9019
▁плаши	-10.9032
▁Кинески	-10.9043
▁плаче	-10.9046
▁коментари	-10.905
▁прифатен	-10.9051
▁помогнал	-10.9053
▁рекла	-10.9062
▁спушта	-10.9072
▁временск	-10.9078
▁изведб	-10.9084
▁лудо	-10.9091
▁помислува	-10.9092
lu	-10.9101
▁Верува	-10.9105
▁комерцијални	-10.9124
успешно	-10.914
▁Фр	-10.9145
▁Неодамн	-10.916
▁леб	-10.9165
▁сретнал	-10.9177
уел	-10.9189
▁конкретни	-10.9191
▁пли	-10.9196
▁исклучо	-10.9199
▁искр	-10.9214
шне	-10.9218
▁суров	-10.9218
▁далечн	-10.9229
етл	-10.9232
▁чисто	-10.9237
зеде	-10.9242
us	-10.9254
▁луда	-10.9256
▁обраќа	-10.9268
▁научна	-10.9272
▁оцени	-10.9274
▁задржи	-10.9285
врзува	-10.9288
▁канал	-10.9294
брзина	-10.9295
▁Поран	-10.9297
▁традиционални	-10.9307
▁љубезн	-10.9316
▁див	-10.9331
овде	-10.9355
▁убедува	-10.9356
брале	-10.936
▁непријатно	-10.9361
▁600	-10.9369
▁учел	-10.9372
▁видлив	-10.9384
▁околина	-10.9403
ејл	-10.9404
▁целина	-10.9406
▁означ	-10.9406
▁астрономи	-10.9418
▁баланс	-10.943
бург	-10.9468
▁фокус	-10.9468
▁основ	-10.947
▁Реч	-10.9474
▁скеле	-10.9481
▁Хом	-10.9488
▁хемис	-10.9491
▁сликав	-10.9495
▁роз	-10.9522
▁наслед	-10.9522
▁современи	-10.9526
▁внесе	-10.9529
▁психолог	-10.953
лап	-10.9533
техничк	-10.9534
▁развиен	-10.9538
▁Четврт	-10.9544
▁жртвува	-10.9544
▁перцепира	-10.9544
▁стигмат	-10.9544
▁чуствува	-10.9544
ѕвезда	-10.9544
▁астронаути	-10.9544
▁деценија	-10.9544
▁дијагноза	-10.9544
▁длабока	-10.9544
▁дневна	-10.9544
▁елегантн	-10.9544
▁звуци	-10.9544
▁инструмент	-10.9544
▁информира	-10.9544
▁исход	-10.9544
▁исчисти	-10.9544
▁марихуана	-10.9544
▁муслиман	-10.9544
▁најсиромашни	-10.9544
▁ненасилство	-10.9544
▁пасишта	-10.9544
▁почуствува	-10.9544
▁преголем	-10.9544
▁расположение	-10.9544
▁реакции	-10.9544
▁реформи	-10.9544
▁физиологија	-10.9544
▁функции	-10.9544
▁хипотетичк	-10.9544
▁шизофренија	-10.9544
▁ѓубрив	-10.9544
▁Твитер	-10.9544
▁детектира	-10.9544
▁изговор	-10.9544
▁иновации	-10.9544
▁обожува	-10.9544
▁постепен	-10.9544
▁стигнува	-10.9544
▁Куран	-10.9544
▁егзистенција	-10.9544
▁спонтан	-10.9544
▁Научив	-10.9544
▁вертикал	-10.9544
▁кутии	-10.9544
▁кујна	-10.9544
▁цицач	-10.9544
▁допамин	-10.9544
▁согласност	-10.9544
▁илузии	-10.9544
▁невролошк	-10.9544
▁слоеви	-10.9544
▁хипотез	-10.9544
▁Холанд	-10.9544
▁пештери	-10.9544
▁Август	-10.9544
▁тишина	-10.9544
▁двојна	-10.9544
▁друж	-10.9544
▁копија	-10.9544
▁режим	-10.9544
▁Сокол	-10.9544
▁мушичк	-10.9544
▁клип	-10.9544
▁Тешко	-10.9544
▁ултра	-10.9544
▁цивилизација	-10.9544
▁марш	-10.9544
▁парализира	-10.9544
▁детски	-10.9544
▁разбрав	-10.9544
▁колега	-10.9544
▁континент	-10.9544
▁појасн	-10.9544
▁одведе	-10.9544
рбет	-10.9544
▁сјај	-10.9544
▁ловци	-10.9544
▁апарат	-10.9544
com	-10.9544
▁стрип	-10.9545
▁прозорец	-10.9545
▁цитира	-10.9545
ill	-10.9545
▁Пишува	-10.9545
▁пропадн	-10.9545
▁терорист	-10.9545
▁станица	-10.9545
▁Ерик	-10.9545
▁полицаец	-10.9545
▁сцени	-10.9545
▁зајакн	-10.9545
јкула	-10.9545
▁мерење	-10.9545
▁ефтин	-10.9545
▁партија	-10.9545
▁сектор	-10.9545
▁парчиња	-10.9546
▁гроб	-10.9546
▁Однос	-10.9546
▁калори	-10.9546
▁1900	-10.9546
▁распаѓа	-10.9547
▁запамет	-10.9547
▁профил	-10.9547
дедовци	-10.9547
▁порција	-10.9547
▁безброј	-10.9548
▁27	-10.9548
▁славни	-10.9549
▁плод	-10.9549
▁индивидуално	-10.9549
▁Кап	-10.955
▁студио	-10.955
▁центи	-10.955
▁Моќ	-10.955
▁скала	-10.955
▁Обичн	-10.9552
▁колкав	-10.9552
▁дофат	-10.9552
▁грчки	-10.9552
▁тајна	-10.9552
▁Наука	-10.9553
▁распадн	-10.9553
▁примарн	-10.9553
▁немој	-10.9554
▁одземе	-10.9554
▁гуш	-10.9555
▁морска	-10.9556
▁панел	-10.9556
▁тоталн	-10.9556
▁прекумерно	-10.9556
ембри	-10.9556
▁алг	-10.9557
▁Број	-10.9558
▁доживувања	-10.9558
▁Пее	-10.9558
▁страствен	-10.9559
▁споредува	-10.956
обил	-10.9561
▁рамо	-10.9561
наесет	-10.9566
▁апс	-10.9567
▁Мишел	-10.9568
▁Џени	-10.9568
▁чуја	-10.9573
▁медиумски	-10.9573
▁опаѓа	-10.9573
▁дробови	-10.9575
▁гласно	-10.9575
▁Меди	-10.9577
▁покани	-10.958
▁јануар	-10.9582
▁суш	-10.9586
▁ограничување	-10.9589
▁малечка	-10.959
▁учители	-10.9593
▁изразува	-10.9593
▁ликови	-10.9594
▁подели	-10.9596
▁експериментира	-10.9607
ежни	-10.9615
▁синови	-10.9615
▁спиење	-10.9618
▁сексуалност	-10.9619
▁наметнува	-10.9621
▁уникатно	-10.9626
▁ѕидови	-10.9627
▁страшн	-10.963
рида	-10.963
▁директ	-10.9634
▁огн	-10.9641
▁важност	-10.9648
▁Оф	-10.9649
▁изложба	-10.9651
▁модна	-10.9656
одатоци	-10.9657
▁справување	-10.9661
▁гориво	-10.9667
▁магични	-10.9667
▁Еко	-10.9669
▁астроном	-10.9671
▁Данска	-10.9681
▁компоненти	-10.9687
▁секојдневно	-10.9688
широко	-10.9689
▁грутка	-10.9692
▁Под	-10.9713
▁речник	-10.9713
▁коњ	-10.9715
▁лична	-10.9717
▁писмо	-10.972
▁Дон	-10.977
▁возач	-10.9772
▁Последни	-10.9783
▁празнина	-10.9792
ur	-10.9802
▁Оз	-10.9817
▁долни	-10.9818
▁моралност	-10.9823
▁почувствував	-10.983
▁сурова	-10.984
▁обична	-10.9851
▁измисли	-10.9861
▁вложува	-10.9863
▁крш	-10.9882
▁коска	-10.9896
▁лач	-10.9912
▁сетилни	-10.9915
▁лут	-10.9938
▁планирање	-10.9957
▁карикатуристи	-10.9966
▁слушав	-10.997
бул	-10.997
▁јаглеродни	-10.9978
▁поставување	-10.9994
▁просечни	-10.9997
▁случајност	-11.001
▁оствари	-11.0016
▁фат	-11.0019
50	-11.0032
рамп	-11.0043
▁смртни	-11.005
▁донесување	-11.0051
▁генерал	-11.0052
▁новинари	-11.0082
ce	-11.0093
▁зафатен	-11.0116
▁подато	-11.0119
▁Дел	-11.0137
▁продукт	-11.0137
ствено	-11.0145
▁сумира	-11.0146
▁болн	-11.0148
▁несвесни	-11.0165
▁заинтересира	-11.0186
њ	-11.0188
▁пијат	-11.0192
▁пренес	-11.0193
▁испостав	-11.0193
▁еднакв	-11.0198
лесно	-11.02
▁нормал	-11.0207
▁исклучува	-11.0208
ИС	-11.0212
ep	-11.0214
▁техник	-11.0216
▁моторни	-11.0226
▁облик	-11.0231
▁ослобод	-11.0235
▁пензионира	-11.0244
▁Глобал	-11.0248
▁користел	-11.0258
▁раскажување	-11.0267
▁владе	-11.0267
▁зумира	-11.0272
▁спореден	-11.0284
▁довед	-11.0298
▁вознемирува	-11.0299
▁ситн	-11.0306
▁аргументи	-11.0308
▁конкретн	-11.032
▁Мај	-11.032
имбо	-11.0324
▁фе	-11.0331
▁порасн	-11.034
ie	-11.0366
▁интервју	-11.0386
▁откриен	-11.0397
пчиња	-11.0401
▁универзитетск	-11.0401
редната	-11.0409
▁хормон	-11.0419
▁здружува	-11.0421
▁Започн	-11.045
▁механиз	-11.045
оментално	-11.0451
▁Сончев	-11.0453
▁церебралн	-11.0453
▁драстичн	-11.0453
▁манчмелоу	-11.0453
▁неограничен	-11.0453
▁политичко	-11.0453
▁теоретск	-11.0453
димензионал	-11.0453
трпение	-11.0453
▁The	-11.0453
▁Бразил	-11.0453
▁Европски	-11.0453
▁аеродром	-11.0453
▁алгоритам	-11.0453
▁антрополо	-11.0453
▁апстрактн	-11.0453
▁благосостојба	-11.0453
▁вкупни	-11.0453
▁возбуда	-11.0453
▁глупост	-11.0453
▁дискутира	-11.0453
▁економии	-11.0453
▁економист	-11.0453
▁зеленчук	-11.0453
▁извештај	-11.0453
▁календар	-11.0453
▁категорија	-11.0453
▁клиника	-11.0453
▁комбинација	-11.0453
▁манипулира	-11.0453
▁наркомани	-11.0453
▁невидлива	-11.0453
▁ненасилни	-11.0453
▁поединци	-11.0453
▁позајми	-11.0453
▁посложен	-11.0453
▁превзема	-11.0453
▁презентација	-11.0453
▁професии	-11.0453
▁реквизит	-11.0453
▁сателит	-11.0453
▁секвенца	-11.0453
▁слободна	-11.0453
▁спектар	-11.0453
▁статистички	-11.0453
▁тенденција	-11.0453
▁транспорт	-11.0453
▁удобно	-11.0453
▁хектар	-11.0453
▁хемија	-11.0453
▁црква	-11.0453
ифицира	-11.0453
▁апстракци	-11.0453
▁доблест	-11.0453
▁концерт	-11.0453
▁обврзаност	-11.0453
▁опсег	-11.0453
▁сајбер	-11.0453
▁сваќа	-11.0453
▁скепти	-11.0453
▁фиксиран	-11.0453
▁погреб	-11.0453
▁цигари	-11.0453
▁гриже	-11.0453
▁кредит	-11.0453
▁отфрлен	-11.0453
▁соларна	-11.0453
▁украд	-11.0453
▁дупка	-11.0453
▁толкав	-11.0453
▁емисија	-11.0453
▁iP	-11.0453
▁колеџ	-11.0453
▁банани	-11.0453
▁учесници	-11.0453
▁изолација	-11.0453
▁машко	-11.0453
▁белешки	-11.0453
▁нахрани	-11.0453
▁доближ	-11.0453
▁истребува	-11.0453
▁навидум	-11.0453
▁дресира	-11.0453
▁отфрли	-11.0453
▁Роуз	-11.0453
▁најмоќна	-11.0453
▁лифт	-11.0453
▁паразит	-11.0453
▁нуж	-11.0453
▁мориња	-11.0453
▁ќош	-11.0453
▁нервни	-11.0453
▁скокотка	-11.0453
▁Чуд	-11.0453
▁текстура	-11.0453
▁букви	-11.0453
▁плажа	-11.0453
▁глода	-11.0454
▁негативно	-11.0454
▁огледало	-11.0454
▁пасивн	-11.0454
▁Вистинск	-11.0454
▁доминира	-11.0454
▁разменува	-11.0454
▁клинички	-11.0454
▁причинува	-11.0454
▁измислува	-11.0454
▁вовлеч	-11.0454
▁доживеав	-11.0455
▁крави	-11.0455
▁2050	-11.0455
▁Шпан	-11.0455
▁Сигурн	-11.0456
убов	-11.0456
▁Кренет	-11.0456
▁190	-11.0456
древни	-11.0456
▁86	-11.0456
плекс	-11.0456
▁талент	-11.0457
▁опстанок	-11.0457
▁облече	-11.0457
▁глина	-11.0457
▁труп	-11.0457
▁жаб	-11.0457
▁десетина	-11.0457
▁моментална	-11.0457
▁човеково	-11.0458
▁поинтересн	-11.0458
▁Година	-11.0458
▁стимулација	-11.0458
▁рачни	-11.0459
▁седиште	-11.0459
▁легалн	-11.0459
▁Ханс	-11.0459
▁водство	-11.0459
ѕир	-11.0459
▁краде	-11.046
▁малечки	-11.046
▁линк	-11.0461
▁Алберт	-11.0461
▁правда	-11.0461
▁позитивно	-11.0462
▁Работев	-11.0462
ганда	-11.0463
▁крило	-11.0463
▁евтин	-11.0463
▁пропаѓа	-11.0463
▁пилот	-11.0464
▁тајни	-11.0464
▁плоч	-11.0465
▁обоен	-11.0465
▁бесконечн	-11.0466
▁пресек	-11.0466
▁модерна	-11.0467
▁Евр	-11.0467
▁правец	-11.0468
▁команд	-11.0468
▁раздел	-11.047
▁американска	-11.047
▁увидов	-11.047
▁колена	-11.047
▁земјиште	-11.0471
▁загин	-11.0472
▁миров	-11.0474
узан	-11.0474
топија	-11.0475
▁дрва	-11.0476
▁филозофија	-11.0476
▁скалила	-11.0477
месечн	-11.0481
▁шеф	-11.0481
ДП	-11.0481
▁Осв	-11.0482
▁аутиз	-11.0483
▁распространет	-11.0487
▁чие	-11.0487
▁блогови	-11.0494
ri	-11.0494
▁наследство	-11.0506
▁електрични	-11.0509
▁излагање	-11.0509
▁порасне	-11.0513
▁пребарувања	-11.0515
онцето	-11.0517
▁Британска	-11.0519
▁согледа	-11.0522
▁визуелизира	-11.0526
▁француски	-11.0527
▁значел	-11.0528
▁појавил	-11.0529
▁простата	-11.0529
▁алтернатива	-11.053
▁воведе	-11.0534
тикал	-11.0534
▁спасува	-11.0534
▁војник	-11.0534
▁соодветна	-11.0541
▁настанува	-11.0541
визии	-11.0543
▁летал	-11.0544
▁сложува	-11.0546
▁масло	-11.0551
▁гад	-11.0551
▁постоечк	-11.0552
▁опкружува	-11.0554
▁дозволено	-11.0561
▁крвни	-11.0564
▁масовно	-11.0564
▁справат	-11.0566
▁склоност	-11.057
▁боли	-11.0572
▁забранет	-11.058
▁препознавање	-11.0584
▁хронич	-11.0591
▁оцен	-11.0594
▁црвено	-11.0595
▁пушење	-11.0596
▁уникатни	-11.0599
▁аргумент	-11.06
вуд	-11.0604
▁светов	-11.0604
▁пребарувач	-11.0606
рез	-11.0608
▁управување	-11.0608
▁вознемирувачк	-11.0609
▁Трето	-11.0614
▁универзални	-11.0618
▁задржува	-11.0619
▁критикува	-11.0622
▁Фар	-11.0626
▁Леле	-11.0628
▁танц	-11.0637
▁истражувач	-11.0638
▁лаже	-11.0645
▁зголем	-11.0654
▁редов	-11.0657
▁подлож	-11.0669
СА	-11.067
▁Друго	-11.0673
▁достигна	-11.0674
▁обработува	-11.0686
▁учев	-11.0696
▁мајмун	-11.0699
▁секог	-11.0701
▁обложува	-11.0706
▁мотивира	-11.0714
▁експерименталн	-11.072
▁езеро	-11.0729
▁нападнат	-11.0729
▁метал	-11.0747
▁пија	-11.0749
лесни	-11.0766
гледа	-11.0767
▁централна	-11.0784
▁si	-11.0788
▁Друг	-11.0798
нгер	-11.0799
▁отвореност	-11.08
▁мечка	-11.0807
▁Гре	-11.0823
▁искористен	-11.0829
▁стареење	-11.0831
разо	-11.0841
АС	-11.0847
ip	-11.0871
▁западна	-11.0872
▁отпорн	-11.0885
▁израсн	-11.0892
▁уништ	-11.0894
фил	-11.0899
▁фаќа	-11.0923
▁дополнителн	-11.0925
▁вистинит	-11.094
▁кал	-11.0941
▁поразличн	-11.0944
▁норма	-11.0955
▁Пра	-11.0956
▁спој	-11.0962
▁Каж	-11.0993
▁возрас	-11.1004
▁Демо	-11.1005
▁менување	-11.1031
▁уметничк	-11.1034
▁полови	-11.1036
чани	-11.1039
▁лидер	-11.1053
▁Хар	-11.1064
▁сработ	-11.1066
гора	-11.1082
▁измислил	-11.1082
долу	-11.1092
▁луд	-11.1106
▁соседи	-11.1113
▁замолч	-11.1118
▁Гледај	-11.1139
▁осет	-11.1146
▁склад	-11.1148
интерес	-11.1196
T	-11.1202
Ц	-11.1204
▁Зборував	-11.1205
У	-11.1205
З	-11.1205
▁разбер	-11.1249
▁исплаш	-11.1259
значајно	-11.126
▁спомна	-11.1269
▁донесува	-11.1269
▁магнет	-11.1274
познавање	-11.1276
ma	-11.1277
▁Трет	-11.1279
▁леж	-11.1346
▁сериозн	-11.1357
▁најбрз	-11.1361
▁наставни	-11.1362
▁спроведува	-11.1372
▁поместува	-11.1374
▁герил	-11.1375
чувствител	-11.1379
▁никог	-11.1391
▁лаборатори	-11.1405
▁очајн	-11.1408
нуар	-11.1411
▁мамограф	-11.142
псолутно	-11.1429
ндру	-11.143
▁повлече	-11.1432
собено	-11.1441
▁љуб	-11.1445
SPR	-11.1453
▁Девојка	-11.1453
▁Забележ	-11.1453
▁Паркинсонова	-11.1453
▁Поголем	-11.1453
▁Република	-11.1453
▁Сфатив	-11.1453
▁Шангај	-11.1453
▁биоенергија	-11.1453
▁божиќн	-11.1453
▁височин	-11.1453
▁германски	-11.1453
▁еволуциски	-11.1453
▁екосистем	-11.1453
▁жесток	-11.1453
▁закрепн	-11.1453
▁засолништ	-11.1453
▁заштитува	-11.1453
▁изневерува	-11.1453
▁индустрии	-11.1453
▁корпораци	-11.1453
▁матрица	-11.1453
▁метаболиз	-11.1453
▁најразлични	-11.1453
▁оддалечува	-11.1453
▁отстранува	-11.1453
▁парламент	-11.1453
▁побарувачка	-11.1453
▁поврати	-11.1453
▁поефикасн	-11.1453
▁приближн	-11.1453
▁прилагодува	-11.1453
▁пристигнува	-11.1453
▁проституција	-11.1453
▁професија	-11.1453
▁располага	-11.1453
▁рецесија	-11.1453
▁списанија	-11.1453
▁супстанца	-11.1453
▁трговци	-11.1453
▁фасцинира	-11.1453
▁фидбе	-11.1453
▁хамбургер	-11.1453
▁хармонија	-11.1453
▁хероин	-11.1453
▁Кинез	-11.1453
▁Менхет	-11.1453
▁биолуминесцент	-11.1453
▁гигантск	-11.1453
▁деменција	-11.1453
▁занимања	-11.1453
▁земјоделие	-11.1453
▁издание	-11.1453
▁наједноставн	-11.1453
▁општествена	-11.1453
▁препорак	-11.1453
▁пресврт	-11.1453
▁преферира	-11.1453
▁сурфа	-11.1453
▁2010	-11.1453
▁индекс	-11.1453
▁кражб	-11.1453
▁креации	-11.1453
▁припадност	-11.1453
▁сензор	-11.1453
▁фигури	-11.1453
▁победни	-11.1453
▁црев	-11.1453
▁моркови	-11.1453
▁нурка	-11.1453
▁Дизајн	-11.1453
▁моногам	-11.1453
▁Христо	-11.1453
▁лансира	-11.1453
птември	-11.1453
▁фрази	-11.1453
▁прекумерна	-11.1453
▁духовни	-11.1453
▁пекол	-11.1453
▁Брег	-11.1453
▁профит	-11.1453
▁успорува	-11.1453
▁навлегува	-11.1453
▁цвет	-11.1453
▁извинува	-11.1453
▁музичар	-11.1453
▁нарушувањ	-11.1453
▁Блиски	-11.1453
▁прочист	-11.1453
▁симулаци	-11.1453
▁ценет	-11.1453
▁Зелен	-11.1453
▁досадн	-11.1453
▁сајт	-11.1453
▁изрека	-11.1453
▁подучува	-11.1453
планктон	-11.1453
▁микрофон	-11.1453
▁преземе	-11.1453
▁притисн	-11.1453
фигура	-11.1454
▁Кинг	-11.1454
▁скром	-11.1454
▁казни	-11.1454
застапен	-11.1454
▁најстар	-11.1454
▁Книг	-11.1454
▁души	-11.1454
▁негативни	-11.1454
▁емотивн	-11.1454
▁иронија	-11.1455
▁внатрешни	-11.1455
▁1980	-11.1455
▁Немој	-11.1455
▁растение	-11.1455
▁механизми	-11.1455
▁Хит	-11.1456
▁рекорд	-11.1456
▁хране	-11.1456
▁доверлив	-11.1456
▁Робер	-11.1456
▁глувче	-11.1456
▁зафати	-11.1457
▁полица	-11.1457
▁Рем	-11.1457
▁Зим	-11.1457
▁сирење	-11.1457
▁агент	-11.1457
▁ДМ	-11.1457
▁Ривер	-11.1457
▁семиња	-11.1458
▁пораснав	-11.1458
образовни	-11.1458
▁убиец	-11.1458
▁ќерки	-11.1459
▁Рек	-11.146
кријат	-11.146
▁плашев	-11.146
▁територија	-11.1461
▁роденден	-11.1461
▁баби	-11.1461
▁грб	-11.1462
▁документар	-11.1462
▁Уметн	-11.1463
логичн	-11.1463
▁геј	-11.1463
▁победа	-11.1464
▁доживеал	-11.1466
▁непотребн	-11.1466
▁експлозија	-11.1467
вкупна	-11.1468
јуел	-11.1469
▁релевантн	-11.1469
▁церемонија	-11.147
▁истражувачки	-11.147
▁урина	-11.1472
▁генијалн	-11.1472
▁тркала	-11.1473
▁политичар	-11.1473
▁Черн	-11.1473
▁автентичн	-11.1473
▁скршен	-11.1474
▁предлози	-11.1474
▁чуда	-11.1474
▁убедлив	-11.1476
▁носев	-11.1477
партиск	-11.1478
▁награди	-11.1478
▁проток	-11.1481
▁очигледна	-11.1482
▁јачина	-11.1482
▁Говор	-11.1486
▁паркови	-11.1489
▁кревк	-11.1492
▁загад	-11.1492
▁туна	-11.1493
▁наставник	-11.1494
▁отишл	-11.1497
▁бесмртност	-11.1502
▁магнетно	-11.1503
▁наставници	-11.1503
▁однесувања	-11.1506
мерки	-11.1508
▁позитивна	-11.151
▁откријат	-11.1511
смислено	-11.1513
▁прекине	-11.1513
▁60-	-11.1514
▁биолошк	-11.1517
▁донира	-11.1518
▁Одлично	-11.1523
▁Беј	-11.1523
▁мрачн	-11.1525
▁полож	-11.153
▁четвртин	-11.1532
▁поместување	-11.1532
▁метар	-11.1533
▁Окс	-11.1536
▁скенира	-11.1537
▁тимови	-11.154
нудат	-11.1542
▁Велик	-11.1544
▁Марс	-11.1544
▁пополн	-11.1546
▁Da	-11.1547
▁трендови	-11.1554
убиство	-11.1559
▁негира	-11.156
▁бракови	-11.1565
el	-11.1569
▁вклопува	-11.1577
▁заминал	-11.158
▁To	-11.1584
▁составува	-11.1585
▁активна	-11.1588
▁специјални	-11.1595
▁грло	-11.1598
есет	-11.1598
▁банкар	-11.1632
▁заклуч	-11.1637
▁конзервативци	-11.1647
▁вкусови	-11.1656
▁навикнат	-11.1658
▁Секс	-11.1672
▁обожава	-11.1679
▁одржување	-11.168
55	-11.1686
▁носач	-11.1704
▁мистериозна	-11.1708
▁Единствено	-11.1711
▁бирам	-11.1714
▁скор	-11.1735
▁прекин	-11.1736
▁штит	-11.1741
▁Африканск	-11.1741
▁ладн	-11.1745
▁проучување	-11.1757
▁квантно	-11.1773
пишав	-11.1789
▁оригинална	-11.179
▁работење	-11.1799
▁изврш	-11.1819
▁собирање	-11.183
берг	-11.1855
родира	-11.1866
▁продавање	-11.1872
▁Биг	-11.188
фатени	-11.1948
▁специјално	-11.1981
▁клеточ	-11.1983
▁Ган	-11.1986
индустриски	-11.2
▁Средн	-11.2008
▁типичн	-11.2026
ge	-11.205
▁историск	-11.2063
▁Кинеск	-11.2094
▁старее	-11.2123
интегрира	-11.2135
▁божеств	-11.2153
▁скриен	-11.2154
▁поретк	-11.2169
▁различност	-11.217
▁процен	-11.2183
▁дизајнирање	-11.2191
sh	-11.2193
▁внес	-11.2202
▁преправа	-11.2209
▁психијатри	-11.2217
▁поддрж	-11.2221
▁разочара	-11.2227
▁мотивиран	-11.225
▁креирање	-11.2251
▁поттик	-11.2263
кратко	-11.2323
▁активиран	-11.235
▁немож	-11.2376
сексуална	-11.2379
ронично	-11.2395
▁претворат	-11.24
▁комерцијал	-11.2417
▁вклоп	-11.2427
▁успе	-11.2433
▁преживува	-11.2434
▁одвратно	-11.2457
▁смртна	-11.2465
▁дизајнирав	-11.247
▁авто	-11.2478
▁прикач	-11.2482
▁починал	-11.2484
▁поважн	-11.2495
▁излагањ	-11.2495
▁наметн	-11.2501
губат	-11.2502
▁сексуал	-11.2507
рајан	-11.251
број	-11.2515
слуга	-11.254
▁успешн	-11.2552
▁стимул	-11.2553
▁кауза	-11.256
▁пропове	-11.2561
▁играчк	-11.2562
динамич	-11.2562
пладне	-11.2562
▁губење	-11.2564
▁експлодира	-11.2564
▁изговара	-11.2564
▁мноштво	-11.2564
▁прерасна	-11.2564
▁процедур	-11.2564
граѓански	-11.2564
толерантн	-11.2564
▁Џозеф	-11.2564
▁Атланти	-11.2564
▁Сингапур	-11.2564
▁Чувствува	-11.2564
▁алгоритми	-11.2564
▁анкета	-11.2564
▁асоцијаци	-11.2564
▁бактерии	-11.2564
▁британски	-11.2564
▁вакцини	-11.2564
▁варијации	-11.2564
▁вознемирен	-11.2564
▁вселенска	-11.2564
▁гаража	-11.2564
▁глушец	-11.2564
▁динамик	-11.2564
▁дискусии	-11.2564
▁долгорочн	-11.2564
▁енциклопедија	-11.2564
▁епизод	-11.2564
▁злоупотреба	-11.2564
▁интуиција	-11.2564
▁инцидент	-11.2564
▁кањон	-11.2564
▁кинески	-11.2564
▁конструира	-11.2564
▁краишта	-11.2564
▁критериум	-11.2564
▁куршум	-11.2564
▁локации	-11.2564
▁маргин	-11.2564
▁машинери	-11.2564
▁наркотици	-11.2564
▁невронаука	-11.2564
▁неподнослив	-11.2564
▁новороденчиња	-11.2564
▁обрасци	-11.2564
▁одвратни	-11.2564
▁перспективи	-11.2564
▁перфект	-11.2564
▁подрачј	-11.2564
▁понееднакви	-11.2564
▁порнографија	-11.2564
▁прекрш	-11.2564
▁произлего	-11.2564
▁психотерапија	-11.2564
▁размножува	-11.2564
▁реконструира	-11.2564
▁скулптури	-11.2564
▁сообраќај	-11.2564
▁трактор	-11.2564
▁ургентн	-11.2564
▁фантазија	-11.2564
▁хороскоп	-11.2564
▁цвеќиња	-11.2564
▁црви	-11.2564
▁чудесн	-11.2564
▁шимпанза	-11.2564
▁џвака	-11.2564
▁бомбардира	-11.2564
▁волонтер	-11.2564
▁геноцид	-11.2564
▁изработува	-11.2564
▁инсталира	-11.2564
▁камион	-11.2564
▁механички	-11.2564
▁приближи	-11.2564
▁приоритет	-11.2564
▁сознание	-11.2564
▁сруши	-11.2564
▁туѓи	-11.2564
▁фарми	-11.2564
потенцијалисти	-11.2564
▁Арапск	-11.2564
▁Продолжи	-11.2564
▁Четири	-11.2564
▁бонобо	-11.2564
▁испорака	-11.2564
▁микроскоп	-11.2564
▁повратн	-11.2564
▁потврда	-11.2564
▁претпочита	-11.2564
▁достигне	-11.2564
▁копче	-11.2564
▁маркер	-11.2564
▁променлив	-11.2564
▁оштетува	-11.2564
▁Мозок	-11.2564
▁акцент	-11.2564
▁омраз	-11.2564
▁турка	-11.2564
▁Систем	-11.2564
▁мемориск	-11.2564
▁повреда	-11.2564
▁топлина	-11.2564
▁Приказн	-11.2564
▁краеви	-11.2564
▁пченка	-11.2564
▁бремена	-11.2564
▁паркинг	-11.2564
▁млеко	-11.2564
▁молитв	-11.2564
▁оптимиз	-11.2564
▁рудници	-11.2564
▁равенка	-11.2564
▁испарува	-11.2564
▁бездомни	-11.2564
▁светилки	-11.2564
▁Користе	-11.2564
▁Главн	-11.2564
▁Малала	-11.2564
пумпа	-11.2564
▁Перу	-11.2564
tree	-11.2564
▁поканет	-11.2564
▁млаз	-11.2564
▁Трг	-11.2564
▁зачувува	-11.2564
▁костим	-11.2564
▁неодамнешн	-11.2564
▁пешач	-11.2564
▁повлеко	-11.2564
▁операции	-11.2564
▁Швајцар	-11.2564
▁затоплува	-11.2564
▁кластери	-11.2564
▁грип	-11.2564
▁срж	-11.2564
▁запр	-11.2564
▁архитектонск	-11.2564
▁облекува	-11.2565
▁помлад	-11.2565
▁инстинкт	-11.2565
▁пожар	-11.2565
▁водечки	-11.2565
▁злато	-11.2565
▁траума	-11.2565
▁психолози	-11.2565
▁изнесува	-11.2565
▁магла	-11.2565
▁избрав	-11.2565
▁забавен	-11.2565
▁ритам	-11.2565
▁наслика	-11.2565
неутрал	-11.2565
▁оперира	-11.2565
▁посветеност	-11.2565
▁омаж	-11.2565
▁огледални	-11.2565
програмер	-11.2565
▁лечење	-11.2566
▁ладење	-11.2566
▁заробени	-11.2566
▁залисто	-11.2566
▁0.	-11.2566
▁истакна	-11.2566
▁машка	-11.2567
and	-11.2567
▁Започнав	-11.2567
▁образец	-11.2568
▁99	-11.2568
▁дваесет	-11.2568
▁пристрасност	-11.2568
страшен	-11.2568
▁Британски	-11.2569
зол	-11.2569
▁бавн	-11.2569
▁атеист	-11.2569
▁2006	-11.257
▁трага	-11.257
▁стада	-11.257
▁застанува	-11.257
▁музеи	-11.2571
▁2004	-11.2572
▁ваде	-11.2572
▁азил	-11.2572
▁Видов	-11.2572
▁ретина	-11.2573
▁фриз	-11.2573
▁Реј	-11.2574
▁културни	-11.2574
▁гриз	-11.2574
▁конвенци	-11.2574
▁служба	-11.2574
▁одбере	-11.2575
▁120	-11.2576
▁поттикне	-11.2576
▁колекција	-11.2576
▁дарежлив	-11.2577
▁накит	-11.2577
▁33	-11.2578
▁пракс	-11.2578
▁пица	-11.2579
▁52	-11.258
▁сместен	-11.2581
▁крпа	-11.2583
▁повлеч	-11.2587
▁спортски	-11.2588
тичка	-11.2589
▁врне	-11.2589
▁посегне	-11.2589
▁колешк	-11.259
im	-11.2591
цифр	-11.2592
▁мислења	-11.2592
▁крем	-11.2594
▁блокови	-11.2597
▁слави	-11.2597
▁рај	-11.2597
▁предвидувања	-11.26
▁интензивн	-11.26
▁радикално	-11.2611
▁магично	-11.2612
▁Залив	-11.2612
▁прозорци	-11.2613
▁очај	-11.2614
▁Јанг	-11.2619
▁погледнува	-11.2624
▁возови	-11.2624
▁Po	-11.2624
▁слајдови	-11.2627
▁особености	-11.2628
▁метро	-11.2633
▁малеч	-11.2635
▁предлог	-11.2635
▁прегледува	-11.2635
▁исеч	-11.264
▁Градови	-11.2647
▁заснован	-11.2649
▁замавнува	-11.2659
▁возев	-11.2659
▁задоволува	-11.2661
нститу	-11.2664
▁пијано	-11.2668
▁дисциплини	-11.2673
▁поединечни	-11.2673
▁готвење	-11.2673
▁Рај	-11.2695
▁роботика	-11.2702
▁свесно	-11.2703
▁родителство	-11.2704
▁магнетна	-11.271
▁долина	-11.2711
▁балансира	-11.2719
▁Монт	-11.2722
▁духови	-11.2725
▁виртуелни	-11.2725
▁учителка	-11.2727
ретко	-11.2729
▁Американска	-11.2741
▁простран	-11.2756
▁метафори	-11.277
▁статичн	-11.2776
▁восхит	-11.2781
▁брка	-11.2812
насоч	-11.2812
▁соодветни	-11.2845
▁претходн	-11.2846
▁барања	-11.2849
▁оствар	-11.2878
▁пречка	-11.288
▁религиозн	-11.2881
оглед	-11.2889
▁приватна	-11.2896
осек	-11.2901
▁интелектуална	-11.2918
врзани	-11.2927
▁испит	-11.293
▁прогрес	-11.2949
▁починат	-11.2951
▁објавив	-11.2951
▁малтретира	-11.2955
▁избрал	-11.2957
▁врвови	-11.296
▁зел	-11.2971
▁документира	-11.298
▁Неанд	-11.2985
блици	-11.2989
▁преминува	-11.2996
ac	-11.3
▁стандардни	-11.3004
▁гениј	-11.3006
▁непријатн	-11.3012
▁просечна	-11.3041
кинав	-11.3043
проблематичн	-11.3047
▁класифик	-11.3047
▁95	-11.3058
▁чув	-11.3067
▁оригинални	-11.3078
▁централни	-11.3079
отпиша	-11.3092
▁чудн	-11.3101
▁Пик	-11.3107
▁колектив	-11.3111
▁слож	-11.3112
▁адвокат	-11.3146
▁одлуч	-11.3149
▁векови	-11.315
нцела	-11.3205
▁проучував	-11.3214
ствени	-11.325
▁образува	-11.3256
▁карикатурист	-11.3257
кинс	-11.3267
▁коментар	-11.3272
ТС	-11.3319
▁меѓународ	-11.3328
▁влаж	-11.3336
ple	-11.335
▁изненад	-11.3364
▁исклуч	-11.3366
прецизни	-11.3393
▁наврат	-11.3397
продуктивни	-11.3399
▁боже	-11.3422
збор	-11.3425
▁бак	-11.3426
▁елемент	-11.3448
▁услов	-11.3455
▁исклучив	-11.346
▁мудр	-11.3472
▁универзално	-11.3476
▁почина	-11.3483
▁направе	-11.3496
▁облож	-11.3498
▁мистериоз	-11.3499
▁опкруж	-11.3523
▁верувај	-11.3524
▁изолира	-11.3533
пштеств	-11.3534
▁повикува	-11.355
роден	-11.3561
▁ориент	-11.3566
софистицирани	-11.357
рекол	-11.3572
▁реал	-11.3572
▁магич	-11.3574
ешка	-11.3589
▁фактор	-11.3603
тични	-11.3608
▁сфаќање	-11.3614
риги	-11.3662
▁собрав	-11.3663
кажете	-11.3677
фрл	-11.3688
▁заслуж	-11.3709
▁скен	-11.3721
▁ограничува	-11.3724
возможен	-11.3724
▁опера	-11.3748
▁прозор	-11.3757
▁конкурен	-11.3758
▁шиш	-11.3759
▁радикал	-11.3761
лаги	-11.3769
▁биолог	-11.3782
ференци	-11.3789
спадна	-11.38
▁драг	-11.3802
▁фонд	-11.3805
▁олеснува	-11.3807
ември	-11.3814
▁Образование	-11.3814
▁Претходн	-11.3814
▁асоцира	-11.3814
▁железо	-11.3814
▁испрашува	-11.3814
▁копнее	-11.3814
▁луксуз	-11.3814
▁плацебо	-11.3814
▁потврдува	-11.3814
▁претпоставен	-11.3814
▁рашири	-11.3814
▁регистрира	-11.3814
▁референтн	-11.3814
▁стереотип	-11.3814
▁униформ	-11.3814
▁физичко	-11.3814
▁ѓубре	-11.3814
кандидат	-11.3814
ницијатива	-11.3814
▁the	-11.3814
▁Пораснав	-11.3814
▁Сиријци	-11.3814
▁апликација	-11.3814
▁баркод	-11.3814
▁биоматеријал	-11.3814
▁бубачки	-11.3814
▁взаем	-11.3814
▁главоболк	-11.3814
▁дијагнози	-11.3814
▁еквивалент	-11.3814
▁електромагнет	-11.3814
▁естетски	-11.3814
▁измачува	-11.3814
▁кампањи	-11.3814
▁кандидира	-11.3814
▁континуиран	-11.3814
▁концентрација	-11.3814
▁менаџер	-11.3814
▁механика	-11.3814
▁милениум	-11.3814
▁незамислив	-11.3814
▁отстранет	-11.3814
▁перформанс	-11.3814
▁пештерски	-11.3814
▁површини	-11.3814
▁подморница	-11.3814
▁поефектив	-11.3814
▁понизност	-11.3814
▁превземе	-11.3814
▁превртува	-11.3814
▁предупредува	-11.3814
▁преобразува	-11.3814
▁пропаганда	-11.3814
▁реконструкција	-11.3814
▁рентген	-11.3814
▁секуларн	-11.3814
▁симулатор	-11.3814
▁средношкол	-11.3814
▁телевизиск	-11.3814
▁традиции	-11.3814
▁филантроп	-11.3814
▁хардвер	-11.3814
▁цивилизации	-11.3814
▁Холивуд	-11.3814
▁анонимн	-11.3814
▁ајпод	-11.3814
▁безбедни	-11.3814
▁бруталн	-11.3814
▁задоволства	-11.3814
▁интервенира	-11.3814
▁интернационал	-11.3814
▁крајбреж	-11.3814
▁несоодвет	-11.3814
▁осветлување	-11.3814
▁погриж	-11.3814
▁пружа	-11.3814
▁хартиен	-11.3814
▁ѓаволи	-11.3814
▁Звуч	-11.3814
▁вештина	-11.3814
▁еректус	-11.3814
▁издавач	-11.3814
▁пензиска	-11.3814
▁планетариум	-11.3814
▁потенцира	-11.3814
▁расфрла	-11.3814
▁статистики	-11.3814
▁темпорал	-11.3814
▁тепих	-11.3814
▁хумор	-11.3814
▁допадне	-11.3814
▁победува	-11.3814
▁пулс	-11.3814
▁школк	-11.3814
▁грмушк	-11.3814
▁двојка	-11.3814
▁обновува	-11.3814
▁прикаже	-11.3814
▁свитка	-11.3814
▁импровиз	-11.3814
▁викенд	-11.3814
▁емитува	-11.3814
▁осветлен	-11.3814
▁предавство	-11.3814
▁фустан	-11.3814
▁акции	-11.3814
▁покачувањ	-11.3814
▁премиер	-11.3814
▁расипан	-11.3814
▁автобус	-11.3814
▁пештера	-11.3814
▁бескрајн	-11.3814
▁билборд	-11.3814
▁коцка	-11.3814
▁дистанц	-11.3814
▁теории	-11.3814
▁чудовишт	-11.3814
маркет	-11.3814
▁Среќ	-11.3814
▁издаден	-11.3814
▁ротира	-11.3814
▁обврск	-11.3814
ѕвон	-11.3814
▁пророк	-11.3814
▁вежби	-11.3814
▁вреска	-11.3814
▁креација	-11.3814
▁приморан	-11.3814
▁капетан	-11.3814
▁сапун	-11.3814
▁Научници	-11.3814
▁Латинск	-11.3814
▁Совет	-11.3814
▁изјава	-11.3814
▁најмоќни	-11.3814
▁геко	-11.3814
▁логичк	-11.3814
▁обучува	-11.3814
▁експо	-11.3814
▁допадна	-11.3814
▁заболувања	-11.3814
▁тутор	-11.3814
▁поштенск	-11.3814
▁Паскал	-11.3815
▁влош	-11.3815
уард	-11.3815
▁имитација	-11.3815
▁жица	-11.3815
▁однесов	-11.3815
▁аналогн	-11.3815
▁вишок	-11.3815
▁балон	-11.3815
▁наредба	-11.3815
▁признание	-11.3815
▁појадо	-11.3815
▁сопрано	-11.3815
▁столб	-11.3815
▁честичка	-11.3815
▁гаран	-11.3815
▁придвижи	-11.3815
▁обрати	-11.3815
▁елементарн	-11.3815
▁соголен	-11.3815
▁реплицира	-11.3815
▁стакленик	-11.3815
ционира	-11.3815
▁Френк	-11.3815
▁корисник	-11.3816
▁превод	-11.3816
▁Бах	-11.3816
▁дождовни	-11.3816
org	-11.3816
▁оставен	-11.3816
ристијан	-11.3816
▁песни	-11.3816
▁НЕ	-11.3816
▁Пример	-11.3816
▁Вистина	-11.3816
▁исплат	-11.3817
▁умерен	-11.3817
▁табели	-11.3817
▁отпадоци	-11.3817
▁сведоч	-11.3817
▁забави	-11.3817
▁следбени	-11.3817
ничав	-11.3817
▁Турци	-11.3817
плус	-11.3817
болки	-11.3817
▁племенски	-11.3817
▁подесува	-11.3817
▁казнува	-11.3818
▁прозбор	-11.3818
▁богови	-11.3818
▁солзи	-11.3818
▁изобил	-11.3818
hon	-11.3819
▁изгубено	-11.3819
▁вроден	-11.3819
▁измет	-11.3819
▁опише	-11.382
▁Лорен	-11.382
▁најтешк	-11.382
▁калап	-11.382
▁културно	-11.382
▁укажува	-11.3821
▁сладо	-11.3821
▁употребен	-11.3821
▁обожавател	-11.3821
▁товар	-11.3822
▁обзем	-11.3822
▁бакне	-11.3823
▁47	-11.3823
▁фазна	-11.3823
▁берзи	-11.3823
▁Хју	-11.3824
▁блед	-11.3824
▁восок	-11.3824
▁Точно	-11.3824
▁2,	-11.3825
▁лотари	-11.3826
▁ракчиња	-11.3826
трпи	-11.3826
▁протега	-11.3826
▁поука	-11.3827
▁рибник	-11.3827
▁препишува	-11.3828
▁поскап	-11.3828
▁продал	-11.3829
▁прошета	-11.383
▁густо	-11.383
▁истура	-11.383
ara	-11.3831
▁величин	-11.3831
▁Скал	-11.3831
▁Стана	-11.3833
▁Рајт	-11.3834
▁Текс	-11.3834
▁Давини	-11.3835
▁точна	-11.3837
are	-11.3838
▁конструкција	-11.3839
▁возење	-11.384
▁покана	-11.384
▁прием	-11.384
EC	-11.3844
▁кус	-11.3844
▁проценка	-11.3845
▁лепи	-11.3846
▁прецизност	-11.3847
▁именува	-11.3848
▁молба	-11.3848
▁Игра	-11.385
▁освои	-11.385
▁предлага	-11.3852
▁стекнал	-11.3854
▁нејз	-11.3857
▁спија	-11.3859
▁дечки	-11.3859
▁функционално	-11.3859
▁комор	-11.3869
▁првенств	-11.3869
▁глувци	-11.387
▁кампови	-11.387
▁Сал	-11.387
▁хемиска	-11.3878
▁парови	-11.389
успеси	-11.3906
ндон	-11.3906
id	-11.3911
▁прошир	-11.3925
▁покојни	-11.3929
▁даноци	-11.3937
▁Диз	-11.3949
▁фосилни	-11.3952
▁светско	-11.3956
ранет	-11.3956
електрон	-11.3957
еринг	-11.3966
пречи	-11.3969
▁опкружување	-11.3969
▁гласачи	-11.3984
▁компјутерска	-11.3993
долготрајн	-11.3999
▁страдања	-11.4017
латералн	-11.4027
јавив	-11.4031
стоев	-11.4036
▁пролет	-11.4053
ведување	-11.406
▁софистициран	-11.4064
ориентиран	-11.4068
▁сопр	-11.4073
▁следел	-11.4076
▁сменет	-11.4077
▁пакет	-11.4079
▁Нешт	-11.4086
▁вметнува	-11.4101
▁сложеност	-11.4105
▁дејствува	-11.4116
▁Гага	-11.4116
▁покор	-11.4138
рачка	-11.4145
▁најсилн	-11.416
часовн	-11.4163
▁структур	-11.4165
држав	-11.4169
▁спасување	-11.4171
молекуларн	-11.4176
▁аналоги	-11.4182
▁грама	-11.4184
▁разочаран	-11.421
▁Порт	-11.4222
▁производител	-11.4228
▁несвесн	-11.4231
▁испитување	-11.4231
▁бучн	-11.4236
проче	-11.4239
▁рамен	-11.4251
▁Прост	-11.427
извесно	-11.4319
▁смислува	-11.4335
▁Луд	-11.4348
▁колач	-11.4363
▁славе	-11.4382
▁хомосексуалн	-11.4393
▁состав	-11.4394
котск	-11.4403
летови	-11.4409
▁оформ	-11.4412
▁фактичк	-11.4425
работено	-11.4486
▁специјалист	-11.4491
▁торт	-11.4503
▁вистини	-11.4505
▁типич	-11.455
▁избегн	-11.4585
▁изградив	-11.4593
кциски	-11.461
▁придружува	-11.4612
▁Град	-11.4622
▁паметн	-11.4701
▁Џу	-11.4741
▁контрол	-11.4753
слободен	-11.4757
▁разбуд	-11.4769
ter	-11.4798
▁жител	-11.4829
▁згрозувањ	-11.4841
65	-11.4843
▁седнува	-11.4844
▁свати	-11.4855
▁штет	-11.4865
▁преживе	-11.4903
хранат	-11.4913
▁училиш	-11.4916
▁виртуел	-11.4925
▁редиц	-11.4961
▁Тораја	-11.4987
работници	-11.4994
▁компонент	-11.4994
▁заразн	-11.4996
почит	-11.4997
▁195	-11.5015
заро	-11.502
▁извлеч	-11.5029
ead	-11.5056
▁објав	-11.5058
▁традиционалн	-11.5063
▁масовн	-11.5075
цијално	-11.509
▁самоубиств	-11.509
ll	-11.5091
блек	-11.5106
обичаен	-11.5109
▁замав	-11.5123
▁Британ	-11.5128
▁заснова	-11.5132
▁првичн	-11.5134
март	-11.5138
потреб	-11.5155
квалитетн	-11.5176
▁распростран	-11.5188
▁стабилн	-11.519
▁полици	-11.5197
американск	-11.5198
▁бази	-11.5208
▁Машин	-11.5208
48	-11.5211
▁хуманист	-11.5212
▁Благодар	-11.522
▁популаци	-11.5228
▁достигнува	-11.5229
▁плодн	-11.5235
печаток	-11.5239
▁вегетаријан	-11.5241
▁воопшт	-11.5242
▁Алекс	-11.5242
▁цивил	-11.5242
▁дискримин	-11.5242
двентисти	-11.5242
▁Капграсов	-11.5242
▁машинско	-11.5242
диверзитет	-11.5242
енаџмент	-11.5242
религиск	-11.5242
▁Јордан	-11.5242
▁Архитект	-11.5242
▁Асоцијација	-11.5242
▁ЕЕГ	-11.5242
▁Роџер	-11.5242
▁Сифтабла	-11.5242
▁Сифтабли	-11.5242
▁Студенти	-11.5242
▁апсолутна	-11.5242
▁асистент	-11.5242
▁вооружен	-11.5242
▁галаксија	-11.5242
▁дезертификација	-11.5242
▁демографија	-11.5242
▁демонстраци	-11.5242
▁депресив	-11.5242
▁димензија	-11.5242
▁диплома	-11.5242
▁дијагностичк	-11.5242
▁еврејск	-11.5242
▁експлицитн	-11.5242
▁жетва	-11.5242
▁жираф	-11.5242
▁заборавен	-11.5242
▁импресионира	-11.5242
▁инкубатор	-11.5242
▁инструкции	-11.5242
▁интензитет	-11.5242
▁интерпретира	-11.5242
▁кардиоваскуларн	-11.5242
▁киднапира	-11.5242
▁копнеж	-11.5242
▁космичк	-11.5242
▁кохерентн	-11.5242
▁креатори	-11.5242
▁локалитет	-11.5242
▁малцинств	-11.5242
▁меѓузависн	-11.5242
▁меѓуповрзан	-11.5242
▁мултитаскинг	-11.5242
▁непослушн	-11.5242
▁несовршен	-11.5242
▁опсервации	-11.5242
▁оптималн	-11.5242
▁оптимист	-11.5242
▁парадокс	-11.5242
▁поглавје	-11.5242
▁предрасуди	-11.5242
▁презентира	-11.5242
▁прогноза	-11.5242
▁проголта	-11.5242
▁разновидност	-11.5242
▁растојание	-11.5242
▁редефинира	-11.5242
▁секретар	-11.5242
▁сеприсутн	-11.5242
▁сијалица	-11.5242
▁снемува	-11.5242
▁сопружници	-11.5242
▁социолози	-11.5242
▁спонзор	-11.5242
▁стигнал	-11.5242
▁стручњаци	-11.5242
▁сугести	-11.5242
▁таканаречени	-11.5242
▁трговски	-11.5242
▁уапсен	-11.5242
▁усовршува	-11.5242
▁усоглас	-11.5242
▁фрустраци	-11.5242
▁хибрид	-11.5242
▁чамец	-11.5242
толеранција	-11.5242
▁Бејзијанск	-11.5242
▁Основа	-11.5242
▁Религи	-11.5242
▁анкети	-11.5242
▁артерии	-11.5242
▁батерии	-11.5242
▁бомбардер	-11.5242
▁бубачка	-11.5242
▁варијабилност	-11.5242
▁дестинација	-11.5242
▁дефект	-11.5242
▁диктатор	-11.5242
▁етикети	-11.5242
▁занемар	-11.5242
▁изложува	-11.5242
▁келнер	-11.5242
▁кривичн	-11.5242
▁прототип	-11.5242
▁рендген	-11.5242
▁скапоцен	-11.5242
▁склоп	-11.5242
▁фудбал	-11.5242
▁јужна	-11.5242
хирурзи	-11.5242
▁2011	-11.5242
▁Академија	-11.5242
▁Виртуел	-11.5242
▁ангели	-11.5242
▁апсурдн	-11.5242
▁воскресн	-11.5242
▁оклоп	-11.5242
▁преплавен	-11.5242
▁физиолошк	-11.5242
▁фирма	-11.5242
▁Технич	-11.5242
▁бремени	-11.5242
▁генетска	-11.5242
▁пасиште	-11.5242
▁позиции	-11.5242
▁прегратк	-11.5242
▁цевки	-11.5242
▁јаболка	-11.5242
▁Министер	-11.5242
▁Трча	-11.5242
▁исфрла	-11.5242
▁консулт	-11.5242
▁културолошки	-11.5242
▁банана	-11.5242
▁здоби	-11.5242
▁разјасн	-11.5242
▁удави	-11.5242
▁живеалишт	-11.5242
▁зјапа	-11.5242
▁исполнува	-11.5242
▁кариери	-11.5242
▁невидливи	-11.5242
▁состаноци	-11.5242
▁Слуша	-11.5242
▁банди	-11.5242
▁мафин	-11.5242
▁пердув	-11.5242
▁дланка	-11.5242
▁отпочн	-11.5242
▁Доктор	-11.5242
▁агенда	-11.5242
▁ветрот	-11.5242
▁внук	-11.5242
▁преселив	-11.5242
▁нурне	-11.5243
▁темнина	-11.5243
▁испеч	-11.5243
▁мејлов	-11.5243
▁расчист	-11.5243
▁повредува	-11.5243
офилија	-11.5243
▁опашки	-11.5243
▁одобрен	-11.5243
▁отстап	-11.5243
▁сегмент	-11.5243
▁имиграција	-11.5243
▁роба	-11.5243
▁сервис	-11.5243
▁странски	-11.5243
▁автоном	-11.5243
▁кварт	-11.5243
▁ензим	-11.5243
▁ловење	-11.5243
сахар	-11.5243
▁академск	-11.5243
▁Франк	-11.5243
▁кану	-11.5243
▁почетни	-11.5243
▁единеч	-11.5243
▁агенција	-11.5243
▁прашалник	-11.5243
▁развод	-11.5243
▁унапредувањ	-11.5243
▁Смрт	-11.5243
▁заговор	-11.5243
▁потценува	-11.5243
▁Извин	-11.5243
▁Клуч	-11.5243
▁паричник	-11.5243
▁снег	-11.5243
▁стремеж	-11.5243
▁Божј	-11.5243
▁токсич	-11.5243
▁топче	-11.5243
располож	-11.5243
▁пресуд	-11.5243
▁повремено	-11.5243
▁должност	-11.5243
▁крвоток	-11.5243
▁окуп	-11.5243
▁карпа	-11.5243
▁трилион	-11.5243
▁Александ	-11.5243
▁зрел	-11.5243
▁дрвени	-11.5244
▁шоу	-11.5244
▁електронска	-11.5244
▁радиолози	-11.5244
▁вегетаријанец	-11.5244
▁поткреп	-11.5244
▁додатоци	-11.5244
▁прошетк	-11.5244
▁обвини	-11.5244
▁синтетичк	-11.5244
▁поезија	-11.5245
▁подлога	-11.5245
▁подига	-11.5245
ортугал	-11.5245
▁груб	-11.5245
▁Награда	-11.5245
▁1984	-11.5245
▁табла	-11.5245
▁пропушта	-11.5245
▁несреќни	-11.5245
▁себични	-11.5245
▁настинка	-11.5245
▁влече	-11.5246
▁Програм	-11.5246
▁духовно	-11.5246
▁венч	-11.5246
▁топчиња	-11.5246
▁паралел	-11.5246
▁калем	-11.5246
▁илустрација	-11.5246
▁проповеда	-11.5246
▁чад	-11.5246
▁нелегалн	-11.5247
▁тажни	-11.5247
▁задава	-11.5247
▁табела	-11.5247
▁стимулира	-11.5247
пријатен	-11.5247
▁Dr	-11.5247
▁санта	-11.5248
bb	-11.5248
▁одраз	-11.5248
▁тековни	-11.5248
▁памук	-11.5249
▁канцеларии	-11.5249
▁етничк	-11.5249
▁Лама	-11.5249
▁готвач	-11.5249
▁сегашност	-11.5249
▁Сирена	-11.525
▁триесет	-11.525
▁скрши	-11.525
▁опстан	-11.525
▁репу	-11.5251
▁стисн	-11.5251
▁Греј	-11.5251
▁рабови	-11.5251
▁Начин	-11.5251
▁Млад	-11.5251
all	-11.5252
▁муштери	-11.5252
▁помоќн	-11.5252
▁рид	-11.5254
▁приврзан	-11.5255
▁настава	-11.5255
концептуал	-11.5255
искус	-11.5256
▁Роден	-11.5256
▁пропуст	-11.5256
▁заморува	-11.5256
▁Обид	-11.5257
▁Банг	-11.5257
▁покриен	-11.5257
▁интимност	-11.5258
▁театар	-11.5258
▁Клинт	-11.5259
▁фондација	-11.526
▁дневник	-11.5261
▁Јеи	-11.5261
▁филтрира	-11.5262
▁кауч	-11.5262
▁колумн	-11.5263
▁почека	-11.5263
▁дијало	-11.5264
▁донесов	-11.5264
▁подем	-11.5264
▁најави	-11.5265
▁Слика	-11.5266
▁Ради	-11.5266
сомнен	-11.5267
▁планина	-11.5267
улоз	-11.5268
▁Грци	-11.5269
▁шега	-11.5269
нтимен	-11.5269
▁психотичн	-11.527
▁вектор	-11.527
▁завзема	-11.527
▁претприемачки	-11.5271
▁модерно	-11.5272
▁усни	-11.5272
▁погодн	-11.5273
▁прстени	-11.5273
▁рециклиран	-11.5274
▁доцни	-11.5274
▁Тибет	-11.5274
▁пониски	-11.5275
▁патеки	-11.5275
▁горив	-11.5275
▁Машинско	-11.5278
▁изнајд	-11.5279
▁завес	-11.5286
▁сезона	-11.5286
▁шокови	-11.5287
▁патека	-11.5288
НИ	-11.5289
▁следев	-11.5294
▁изнуд	-11.5299
▁шокиран	-11.5302
▁наградува	-11.5304
▁насилни	-11.5304
▁свирел	-11.5312
ТЕ	-11.5318
▁ограда	-11.5318
▁пораснал	-11.532
БИ	-11.5326
▁виталн	-11.533
▁откаже	-11.5333
длаб	-11.5341
▁средство	-11.5348
колени	-11.5356
▁претера	-11.5365
▁сенка	-11.5372
ni	-11.5373
▁судск	-11.5373
▁растечка	-11.5391
▁детекци	-11.5403
даночни	-11.5421
далечен	-11.5427
▁Чув	-11.5429
▁пресрет	-11.5445
▁олесн	-11.5458
▁долна	-11.5466
илиште	-11.5469
служува	-11.5471
владее	-11.5478
▁Камер	-11.5504
клучен	-11.5508
▁попрециз	-11.5529
стигнам	-11.5533
▁општин	-11.5544
словен	-11.5567
▁предавач	-11.5632
квалификувани	-11.5641
▁конечн	-11.5649
ДА	-11.5657
▁љубез	-11.5657
▁проценува	-11.5687
▁урбаниза	-11.5705
▁оператив	-11.5769
▁обезбед	-11.577
man	-11.579
▁нацисти	-11.5811
▁онакв	-11.5836
▁бесплат	-11.5927
▁130	-11.5944
▁простувањ	-11.5965
▁скиц	-11.598
▁инсект	-11.5993
▁поедностав	-11.6005
▁Алис	-11.6131
прилик	-11.6134
▁оформува	-11.6148
▁Националн	-11.6185
▁убед	-11.6207
▁комерцијалн	-11.624
▁агресив	-11.6255
ојуз	-11.6255
▁вреднува	-11.6256
▁камер	-11.626
▁извес	-11.6271
▁извлек	-11.6299
олошка	-11.6307
▁Праша	-11.6307
▁паричк	-11.633
▁силуван	-11.6345
ставка	-11.6348
значајни	-11.635
благородни	-11.6357
art	-11.6363
▁драматич	-11.6384
▁езер	-11.6447
▁Единствен	-11.6479
▁Добив	-11.6484
▁когнитивн	-11.6489
▁античк	-11.6512
▁вметн	-11.6541
унис	-11.6578
▁необич	-11.6587
▁критик	-11.6594
вкусн	-11.6624
пријатни	-11.6628
СЕ	-11.6631
далеку	-11.6639
▁ниедн	-11.6639
▁обединува	-11.6649
програмира	-11.6657
Ф	-11.666
Ј	-11.6662
простор	-11.6662
надвор	-11.6663
▁фосил	-11.6727
▁вовед	-11.6781
собирач	-11.6813
▁отпушт	-11.6815
▁глув	-11.6829
Tu	-11.6846
▁особ	-11.6855
илиони	-11.6868
▁рецикл	-11.6872
▁конструкци	-11.6875
зумирање	-11.6878
▁церемони	-11.688
▁канцелар	-11.6881
прекинат	-11.6882
▁севкупн	-11.6883
▁заедни	-11.6887
▁пренос	-11.6889
плицира	-11.6902
тотици	-11.6904
▁Австр	-11.6904
уквално	-11.6908
▁фасцина	-11.6909
▁Организа	-11.6909
▁израелск	-11.6909
▁инвалид	-11.6909
▁најдлабок	-11.6909
▁практикува	-11.6909
▁присуствува	-11.6909
▁распоред	-11.6909
▁трансплант	-11.6909
▁тргнува	-11.6909
ight	-11.6909
вчудовидувачк	-11.6909
гзотич	-11.6909
запрепастувачк	-11.6909
конзервација	-11.6909
кумулира	-11.6909
сихијатар	-11.6909
▁2020	-11.6909
▁2030	-11.6909
▁Cas	-11.6909
▁Music	-11.6909
▁Џеферсон	-11.6909
▁Бизнис	-11.6909
▁Двајца	-11.6909
▁Девојче	-11.6909
▁Екстроверт	-11.6909
▁Истражувања	-11.6909
▁Камбоџа	-11.6909
▁Леонард	-11.6909
▁Мегендорфер	-11.6909
▁Нормално	-11.6909
▁Предизвик	-11.6909
▁Резултат	-11.6909
▁СМС	-11.6909
▁Слобод	-11.6909
▁Способност	-11.6909
▁Успеа	-11.6909
▁Факултет	-11.6909
▁Французи	-11.6909
▁автостопира	-11.6909
▁амбулант	-11.6909
▁американци	-11.6909
▁анегдот	-11.6909
▁апсолутни	-11.6909
▁апсорбира	-11.6909
▁африкан	-11.6909
▁безопасн	-11.6909
▁библиотеки	-11.6909
▁вакуум	-11.6909
▁висорамнин	-11.6909
▁вонземск	-11.6909
▁вчудоневид	-11.6909
▁географска	-11.6909
▁географски	-11.6909
▁граѓанска	-11.6909
▁демобилизира	-11.6909
▁експлоатација	-11.6909
▁естетика	-11.6909
▁житарици	-11.6909
▁забрзан	-11.6909
▁засегнати	-11.6909
▁земјоделец	-11.6909
▁илустрира	-11.6909
▁импулс	-11.6909
▁интерпретација	-11.6909
▁инфекции	-11.6909
▁информати	-11.6909
▁катедрал	-11.6909
▁комплимент	-11.6909
▁континуитет	-11.6909
▁мајстор	-11.6909
▁медицинско	-11.6909
▁мнозинство	-11.6909
▁модифициран	-11.6909
▁наелектризиран	-11.6909
▁највозбудлив	-11.6909
▁незадовол	-11.6909
▁несогласувањ	-11.6909
▁овошје	-11.6909
▁опстојува	-11.6909
▁официјалн	-11.6909
▁панталони	-11.6909
▁парфем	-11.6909
▁плоштад	-11.6909
▁поефтин	-11.6909
▁покомплексн	-11.6909
▁понеделник	-11.6909
▁послушн	-11.6909
▁предодреден	-11.6909
▁преиспита	-11.6909
▁препорачува	-11.6909
▁продуцент	-11.6909
▁птичј	-11.6909
▁разбирлив	-11.6909
▁разочарувањ	-11.6909
▁регуларн	-11.6909
▁редослед	-11.6909
▁резултира	-11.6909
▁републиканци	-11.6909
▁рефлектира	-11.6909
▁свадба	-11.6909
▁сметководител	-11.6909
▁спектакулар	-11.6909
▁стадион	-11.6909
▁сунѓер	-11.6909
▁температури	-11.6909
▁тестостерон	-11.6909
▁ублаж	-11.6909
▁ураган	-11.6909
▁фамилии	-11.6909
▁фрижидер	-11.6909
▁фукционира	-11.6909
▁хиерархија	-11.6909
▁холандск	-11.6909
▁цензура	-11.6909
▁цунами	-11.6909
▁шаблон	-11.6909
▁Брегзит	-11.6909
▁Моцарт	-11.6909
▁Проект	-11.6909
▁Слушнав	-11.6909
▁авторитарн	-11.6909
▁апетит	-11.6909
▁зглоб	-11.6909
▁издигна	-11.6909
▁излудува	-11.6909
▁инспиратив	-11.6909
▁исполни	-11.6909
▁капсула	-11.6909
▁лобус	-11.6909
▁мајчин	-11.6909
▁прагматич	-11.6909
▁респиратор	-11.6909
▁симпатичн	-11.6909
▁соопшт	-11.6909
▁спротистав	-11.6909
▁феминистичк	-11.6909
▁хендикеп	-11.6909
комуникации	-11.6909
▁артерија	-11.6909
▁дебатира	-11.6909
▁излажа	-11.6909
▁лостови	-11.6909
▁мореплов	-11.6909
▁перифери	-11.6909
▁прелистува	-11.6909
▁пројавува	-11.6909
▁расудувањ	-11.6909
▁реплик	-11.6909
▁сендвич	-11.6909
▁траекторија	-11.6909
▁федерал	-11.6909
▁џез	-11.6909
▁Куќ	-11.6909
▁кошула	-11.6909
▁превенција	-11.6909
▁семантичка	-11.6909
▁бактерија	-11.6909
▁батерија	-11.6909
▁католичк	-11.6909
▁отплати	-11.6909
▁појача	-11.6909
▁волонтира	-11.6909
▁електроника	-11.6909
▁исфрли	-11.6909
▁медитација	-11.6909
▁определ	-11.6909
▁радосн	-11.6909
▁укажа	-11.6909
▁Важно	-11.6909
▁Планина	-11.6909
▁златно	-11.6909
▁пепел	-11.6909
▁постапк	-11.6909
▁скијачка	-11.6909
▁снема	-11.6909
▁филтер	-11.6909
▁челик	-11.6909
▁пресметува	-11.6909
▁загрева	-11.6909
▁засрамен	-11.6909
▁иновативн	-11.6909
▁музички	-11.6909
▁подвижност	-11.6909
▁благослов	-11.6909
▁легенда	-11.6909
▁надоаѓа	-11.6909
▁поплави	-11.6909
▁Каролин	-11.6909
▁Time	-11.6909
▁ранливост	-11.6909
▁искривува	-11.6909
▁мембран	-11.6909
▁јапонски	-11.6909
▁древна	-11.6909
▁електрода	-11.6909
▁кокошк	-11.6909
▁ветрови	-11.6909
▁минималн	-11.6909
▁оскудн	-11.6909
▁искорени	-11.6909
▁успори	-11.6909
▁проекција	-11.6909
▁Фонд	-11.6909
▁командири	-11.6909
▁нарача	-11.6909
▁претвара	-11.6909
▁базен	-11.6909
▁Теорија	-11.6909
▁превоз	-11.6909
▁револуционерн	-11.6909
▁Студи	-11.6909
▁послаб	-11.6909
обучени	-11.6909
▁пауза	-11.6909
▁згади	-11.6909
▁неправда	-11.6909
▁истакнува	-11.6909
▁камили	-11.6909
▁музичка	-11.6909
▁пасус	-11.6909
Доналд	-11.6909
▁забелешк	-11.6909
▁подаро	-11.6909
▁Половина	-11.6909
▁најубав	-11.6909
▁екстра	-11.6909
▁трансформатор	-11.6909
здвој	-11.6909
▁Зграда	-11.691
▁упатств	-11.691
▁заобикол	-11.691
▁предозира	-11.691
▁донации	-11.691
▁пренасочува	-11.691
▁биолози	-11.691
▁поевтин	-11.691
▁анестези	-11.691
▁опадна	-11.691
▁Индиск	-11.691
▁подрум	-11.691
▁поларизација	-11.691
▁вриска	-11.691
▁електронски	-11.691
▁солидар	-11.691
▁Висок	-11.691
▁синтеза	-11.691
▁когниција	-11.691
▁компет	-11.691
▁екологија	-11.691
▁натрапни	-11.691
▁соларни	-11.691
▁Заштед	-11.691
▁земи	-11.691
▁обоив	-11.691
Артур	-11.691
▁шољ	-11.691
▁академи	-11.691
▁Куче	-11.691
▁неповрзан	-11.691
▁упатен	-11.691
▁Џаком	-11.691
безбедна	-11.6911
▁Поминав	-11.6911
▁корелаци	-11.6911
▁говеда	-11.6911
▁Чекај	-11.6911
▁посетители	-11.6911
▁службени	-11.6911
▁Ретк	-11.6911
▁разнесува	-11.6911
▁глума	-11.6911
ТО	-11.6911
збрка	-11.6911
▁измерен	-11.6911
▁наидов	-11.6911
▁Реалн	-11.6911
▁известува	-11.6911
поларизиран	-11.6911
▁пробива	-11.6912
раторија	-11.6912
едесет	-11.6912
▁Побара	-11.6912
▁зарази	-11.6912
оживување	-11.6912
▁стапица	-11.6912
▁сантиметар	-11.6912
▁торби	-11.6912
gle	-11.6912
▁потешки	-11.6912
неги	-11.6913
▁вгради	-11.6913
▁сценарио	-11.6913
▁бежичн	-11.6913
▁пензија	-11.6913
поговор	-11.6913
▁колониз	-11.6913
▁супа	-11.6913
▁зададе	-11.6913
▁присети	-11.6914
▁пријатно	-11.6914
▁Место	-11.6914
▁виолин	-11.6914
▁мерлив	-11.6914
▁екстремна	-11.6915
▁термо	-11.6915
дустријализирани	-11.6915
▁гума	-11.6915
▁инерт	-11.6916
▁културална	-11.6916
одители	-11.6918
▁прилагоди	-11.6918
▁зараза	-11.6918
зоблич	-11.6919
▁комплексност	-11.6919
▁обикол	-11.6921
▁поема	-11.6921
▁доделен	-11.6922
▁симнува	-11.6924
▁убил	-11.6924
▁кутр	-11.6925
▁Жак	-11.6926
▁споменав	-11.6928
▁Плато	-11.6928
▁невест	-11.6928
▁закачи	-11.6928
▁чело	-11.6929
▁каса	-11.6931
▁пренослив	-11.6933
▁налетав	-11.6934
▁љубопит	-11.6935
лакт	-11.6935
▁насетува	-11.6936
▁киселин	-11.6936
▁Запам	-11.6936
▁диета	-11.6937
▁жици	-11.6937
▁касет	-11.694
▁примања	-11.6941
▁одгледан	-11.6941
▁патент	-11.6942
▁нежни	-11.6945
▁фрлен	-11.6946
▁светлечк	-11.6947
хуман	-11.6948
▁недвижн	-11.6948
▁засилува	-11.695
ентин	-11.696
▁правилн	-11.6971
▁загрижувачк	-11.6982
▁настанал	-11.699
▁углед	-11.6991
▁билион	-11.6997
▁прескокн	-11.7001
▁екип	-11.7006
▁оптичк	-11.7007
▁Социјалн	-11.7009
ЦЕ	-11.7028
▁Андр	-11.7046
качив	-11.7053
▁Меге	-11.7055
▁предоч	-11.7081
▁популарност	-11.7081
▁Хед	-11.709
▁кориц	-11.7128
МР	-11.7134
▁стотин	-11.7143
▁електрич	-11.7143
900	-11.7183
▁рангирањ	-11.7202
▁Фал	-11.7208
▁црвен	-11.727
▁применет	-11.727
▁остварува	-11.729
поддржан	-11.7303
▁Торајанс	-11.7323
здрави	-11.7395
лечински	-11.747
▁примитивн	-11.7493
▁забележан	-11.7515
мериканец	-11.7563
▁вентил	-11.7667
▁возел	-11.7685
орбиталн	-11.7764
▁тетк	-11.7767
▁индустриск	-11.7846
ештер	-11.7866
еолошк	-11.7915
зраснав	-11.7957
▁длабочин	-11.7968
▁хомосексуал	-11.8014
конзервативн	-11.8037
▁малтретирањ	-11.8212
▁Направи	-11.8271
▁борб	-11.8321
▁рационал	-11.8335
▁неуспешн	-11.8338
▁најчест	-11.8405
носител	-11.8428
▁верзи	-11.8438
▁државн	-11.8493
▁ресурс	-11.8559
▁практич	-11.8604
трајна	-11.8611
▁наведува	-11.8621
мислени	-11.864
Ж	-11.8657
креативни	-11.8657
физички	-11.8662
одговор	-11.8662
благодарам	-11.8664
▁состојк	-11.867
источн	-11.8673
▁позитив	-11.8696
▁поединеч	-11.8707
скрено	-11.8723
уредување	-11.8771
▁фотограф	-11.8797
▁зрач	-11.8821
▁образовани	-11.8822
▁брилијант	-11.8829
▁одделени	-11.8837
▁притисо	-11.886
▁арми	-11.8862
безбеден	-11.8863
ѕ	-11.889
▁воодушев	-11.8897
бјекти	-11.8898
▁транзи	-11.8899
лберт	-11.8901
екстрем	-11.8901
себно	-11.8905
ниверзумот	-11.8907
огрешно	-11.8908
▁интелект	-11.8909
▁Централ	-11.8909
▁биомедицинск	-11.8909
▁информациск	-11.8909
▁кумулативн	-11.8909
▁легитим	-11.8909
▁обврз	-11.8909
▁оневозмож	-11.8909
▁хоспитализ	-11.8909
ation	-11.8909
enobi	-11.8909
васкуларна	-11.8909
габајт	-11.8909
декларира	-11.8909
елативитет	-11.8909
обновлив	-11.8909
реципроцитет	-11.8909
спружи	-11.8909
урамнотежен	-11.8909
фрустрирачк	-11.8909
чудувачко	-11.8909
▁Азербејџан	-11.8909
▁Амстердам	-11.8909
▁Атлантски	-11.8909
▁Биоенергија	-11.8909
▁Градоначални	-11.8909
▁Демократска	-11.8909
▁Диркхајм	-11.8909
▁Компани	-11.8909
▁Невозможн	-11.8909
▁Одлучив	-11.8909
▁Олимписк	-11.8909
▁Теоретски	-11.8909
▁Функционира	-11.8909
▁Хималаи	-11.8909
▁Хоризонт	-11.8909
▁Шекспир	-11.8909
▁абнормалн	-11.8909
▁адекват	-11.8909
▁акустика	-11.8909
▁анксиозност	-11.8909
▁апликации	-11.8909
▁балзам	-11.8909
▁безграничн	-11.8909
▁биомимикрија	-11.8909
▁бормашина	-11.8909
▁бронзен	-11.8909
▁бубрег	-11.8909
▁бубрези	-11.8909
▁возбудува	-11.8909
▁возвраќа	-11.8909
▁воспалени	-11.8909
▁восприема	-11.8909
▁вулкан	-11.8909
▁вљубен	-11.8909
▁гангстери	-11.8909
▁дефиниции	-11.8909
▁дефицит	-11.8909
▁диоксид	-11.8909
▁дијабетес	-11.8909
▁добредојде	-11.8909
▁доминантна	-11.8909
▁економич	-11.8909
▁етикета	-11.8909
▁законодав	-11.8909
▁здодевн	-11.8909
▁злосторств	-11.8909
▁избледе	-11.8909
▁извртува	-11.8909
▁императив	-11.8909
▁инволвиран	-11.8909
▁индирект	-11.8909
▁инфаркт	-11.8909
▁инфрацрвен	-11.8909
▁истрошен	-11.8909
▁калкулус	-11.8909
▁контроверзн	-11.8909
▁координира	-11.8909
▁корпоратив	-11.8909
▁космологија	-11.8909
▁кредибил	-11.8909
▁максимум	-11.8909
▁манифест	-11.8909
▁метаболичка	-11.8909
▁мирољубив	-11.8909
▁најпознат	-11.8909
▁неврохирургија	-11.8909
▁неефикасн	-11.8909
▁непосредно	-11.8909
▁неудобн	-11.8909
▁неухранет	-11.8909
▁нутриенти	-11.8909
▁обесправ	-11.8909
▁озлогласен	-11.8909
▁опсада	-11.8909
▁опсесија	-11.8909
▁опфаќа	-11.8909
▁оркестар	-11.8909
▁оружја	-11.8909
▁осуда	-11.8909
▁откровение	-11.8909
▁пеперутк	-11.8909
▁пергамент	-11.8909
▁перцепции	-11.8909
▁песимист	-11.8909
▁пластични	-11.8909
▁подготовка	-11.8909
▁понижувачк	-11.8909
▁послуша	-11.8909
▁посомнева	-11.8909
▁преокупиран	-11.8909
▁престојува	-11.8909
▁придобивка	-11.8909
▁провајдер	-11.8909
▁продуцира	-11.8909
▁просперира	-11.8909
▁психа	-11.8909
▁распределба	-11.8909
▁растојанија	-11.8909
▁раширен	-11.8909
▁резимирам	-11.8909
▁резолуција	-11.8909
▁репрезента	-11.8909
▁репродукција	-11.8909
▁репродуцирам	-11.8909
▁рејтинг	-11.8909
▁синапси	-11.8909
▁соговорник	-11.8909
▁стетоскоп	-11.8909
▁таканаречена	-11.8909
▁типографија	-11.8909
▁тромесечје	-11.8909
▁турбулентн	-11.8909
▁туристичка	-11.8909
▁фабрики	-11.8909
▁халуцинации	-11.8909
▁хеликоптер	-11.8909
▁хемичар	-11.8909
▁хемотерапија	-11.8909
▁јаглеводороди	-11.8909
Најважно	-11.8909
инвазивн	-11.8909
претпазлив	-11.8909
регулација	-11.8909
▁Аристотел	-11.8909
▁Бирминг	-11.8909
▁Вавилон	-11.8909
▁Зедов	-11.8909
▁Кодекс	-11.8909
▁Стефан	-11.8909
▁аеродинамич	-11.8909
▁амбасад	-11.8909
▁вагина	-11.8909
▁вакцина	-11.8909
▁диригент	-11.8909
▁екстремитет	-11.8909
▁ентузијасти	-11.8909
▁жолто	-11.8909
▁згреш	-11.8909
▁имплементира	-11.8909
▁исфрлен	-11.8909
▁кореспондира	-11.8909
▁кошмар	-11.8909
▁магистр	-11.8909
▁макро	-11.8909
▁миграции	-11.8909
▁мравки	-11.8909
▁навраќа	-11.8909
▁незаконск	-11.8909
▁палестинск	-11.8909
▁политики	-11.8909
▁поразговара	-11.8909
▁практика	-11.8909
▁прераскажува	-11.8909
▁придонел	-11.8909
▁придржува	-11.8909
▁простирка	-11.8909
▁протолкува	-11.8909
▁расипува	-11.8909
▁снаоѓа	-11.8909
▁срамежлив	-11.8909
▁тропски	-11.8909
▁философ	-11.8909
amp	-11.8909
▁Канаѓан	-11.8909
▁Центар	-11.8909
▁дезинформ	-11.8909
▁заразени	-11.8909
▁концепци	-11.8909
▁лингвисти	-11.8909
▁медуза	-11.8909
▁музичко	-11.8909
▁потсвес	-11.8909
▁хомеопат	-11.8909
▁јужни	-11.8909
▁Земјодел	-11.8909
▁вибрирачк	-11.8909
▁заповед	-11.8909
▁корупција	-11.8909
▁портрети	-11.8909
▁преплашен	-11.8909
▁фирми	-11.8909
▁чаши	-11.8909
▁шушка	-11.8909
orldchan	-11.8909
▁истрајн	-11.8909
▁нервира	-11.8909
▁обвинет	-11.8909
▁оправда	-11.8909
▁архив	-11.8909
▁компост	-11.8909
▁константн	-11.8909
▁латински	-11.8909
▁мизерија	-11.8909
▁рестрикци	-11.8909
▁странец	-11.8909
▁таблички	-11.8909
▁Џастин	-11.8909
▁организатор	-11.8909
▁раселени	-11.8909
▁тротоар	-11.8909
▁усвоен	-11.8909
▁чанта	-11.8909
▁Океан	-11.8909
▁Просечн	-11.8909
▁антибиоти	-11.8909
▁концептуализира	-11.8909
▁неправилн	-11.8909
▁салон	-11.8909
▁столица	-11.8909
егрутира	-11.8909
▁пијалоци	-11.8909
▁пчела	-11.8909
▁синоним	-11.8909
▁графити	-11.8909
▁скорешн	-11.8909
▁спомнува	-11.8909
▁одекнува	-11.8909
▁почетна	-11.8909
▁разреш	-11.8909
▁слух	-11.8909
▁чувстува	-11.8909
▁Трговија	-11.8909
▁Феминиз	-11.8909
▁групна	-11.8909
▁проколн	-11.8909
▁зачестен	-11.8909
▁инпут	-11.8909
▁незгодн	-11.8909
▁биографи	-11.8909
▁ткива	-11.8909
▁траект	-11.8909
▁впива	-11.8909
▁нелагодно	-11.8909
▁осмо	-11.8909
▁турна	-11.8909
▁Патрик	-11.8909
▁сомнеж	-11.8909
▁школо	-11.8909
рогена	-11.8909
▁Продава	-11.8909
▁Совршен	-11.8909
▁навлего	-11.8909
▁принтер	-11.8909
▁сомнителн	-11.8909
▁du	-11.8909
▁Училишт	-11.8909
▁закопан	-11.8909
▁обнови	-11.8909
▁оштетен	-11.8909
▁деликатн	-11.8909
▁тужб	-11.8909
▁цевка	-11.8909
Пацифи	-11.8909
▁биопси	-11.8909
▁идеологија	-11.8909
▁обработлива	-11.8909
▁гратче	-11.8909
▁колапс	-11.8909
▁придвижува	-11.8909
▁тензија	-11.8909
▁Свесн	-11.8909
▁најмлад	-11.8909
▁ранливи	-11.8909
▁Крај	-11.8909
▁училници	-11.8909
гугла	-11.8909
▁додаток	-11.8909
ософт	-11.8909
▁часовник	-11.8909
полжав	-11.8909
▁прибере	-11.891
und	-11.891
▁кардиоло	-11.891
▁Спутни	-11.891
▁империја	-11.891
▁подигне	-11.891
▁Создад	-11.891
пластика	-11.891
▁обвив	-11.891
▁срод	-11.891
▁консум	-11.891
▁Мејер	-11.891
▁одбивна	-11.891
▁страсн	-11.891
▁Банка	-11.891
▁туѓа	-11.891
▁депони	-11.891
▁најскап	-11.891
▁плеер	-11.891
▁изморен	-11.891
▁гребен	-11.891
▁душка	-11.891
▁преработ	-11.891
▁пукна	-11.891
▁Хиде	-11.891
▁масичка	-11.8911
▁агенс	-11.8911
▁зделк	-11.8911
▁проклет	-11.8911
▁љубител	-11.8911
▁влева	-11.8911
ect	-11.8911
Сахар	-11.8911
▁граничн	-11.8911
▁смали	-11.8911
▁најдолг	-11.8911
gra	-11.8911
▁Меѓународн	-11.8911
▁стеснува	-11.8911
▁нарушен	-11.8911
▁залепен	-11.8911
▁донатор	-11.8912
▁изостав	-11.8912
▁ѕирна	-11.8912
▁прегаз	-11.8912
перкуси	-11.8912
▁лекции	-11.8912
▁најинтересн	-11.8912
▁полимер	-11.8912
▁погодува	-11.8912
▁неморалн	-11.8912
▁авијаци	-11.8912
▁цигл	-11.8912
▁сензаци	-11.8912
▁најлуд	-11.8912
▁јадра	-11.8912
▁домаќинство	-11.8913
▁памтење	-11.8913
▁семејни	-11.8913
▁динамични	-11.8913
плеј	-11.8914
▁трепн	-11.8915
▁шеги	-11.8915
лавир	-11.8915
▁тековна	-11.8916
▁поблиз	-11.8917
▁рибарск	-11.8917
▁прогресивн	-11.8917
▁преполн	-11.8917
▁прирачн	-11.8918
▁завитк	-11.8918
▁излегл	-11.8919
▁зима	-11.8919
▁Трае	-11.8919
▁конденз	-11.8919
▁зеза	-11.892
▁кабина	-11.892
▁радувам	-11.892
▁медал	-11.8921
▁сочинува	-11.8924
▁безбедносн	-11.8924
▁запамт	-11.8926
▁бања	-11.8927
▁Бидеј	-11.8929
▁сместува	-11.893
▁платн	-11.893
▁палки	-11.893
▁еротск	-11.8931
▁Долго	-11.8934
▁двосмислен	-11.8935
▁опуштен	-11.8936
ртифика	-11.8937
▁Драг	-11.8941
▁слетува	-11.8941
▁транспарентн	-11.8944
мажјаци	-11.8948
▁маичк	-11.895
▁искусува	-11.8956
розеви	-11.8968
▁контин	-11.897
▁кучешк	-11.8979
▁бетонск	-11.8983
▁опколен	-11.8986
▁преуред	-11.8987
земање	-11.8993
исконс	-11.8994
▁Следе	-11.8996
▁дизајнерск	-11.9012
Останува	-11.9017
▁одминува	-11.9029
▁Поврзан	-11.9035
▁нерамн	-11.9046
▁пајак	-11.9052
решливи	-11.906
▁Темн	-11.912
▁упорн	-11.915
▁столч	-11.9156
▁симнат	-11.9166
одавач	-11.9187
истонија	-11.9195
▁присут	-11.9278
▁феноменалн	-11.9288
драми	-11.929
▁Pi	-11.9333
▁најзначајн	-11.9343
▁позадинск	-11.9371
▁Утр	-11.9374
мислување	-11.9389
Американск	-11.9405
▁Деб	-11.9555
▁телефонск	-11.9584
▁најстрашн	-11.9613
▁благородн	-11.9627
очигледни	-11.9685
▁вонземјани	-11.9735
доцн	-11.9745
агресивни	-11.9771
▁Кралск	-11.9778
▁безбол	-11.9847
иконска	-11.9851
▁Национал	-11.9871
▁впушта	-11.9893
фаќаат	-11.9934
робен	-12.0097
илван	-12.0216
▁очиглед	-12.0305
▁молекул	-12.0421
▁електр	-12.0427
способност	-12.052
гресија	-12.0527
нуклеарна	-12.0543
застрашувачко	-12.062
дизајнирам	-12.0622
▁сиромашн	-12.0635
оперативн	-12.0645
кционер	-12.0714
примитивни	-12.0745
▁продавниц	-12.0755
▁послуж	-12.0793
▁земјоделск	-12.0851
▁надгледува	-12.0854
▁доброволн	-12.0899
▁грутк	-12.0939
▁потполн	-12.0959
организа	-12.0979
ретнав	-12.1032
пуштање	-12.1038
▁комуни	-12.1059
национални	-12.1087
▁Дозвол	-12.1114
▁отпечат	-12.1128
онцентрирана	-12.1137
цврст	-12.1155
неврон	-12.1158
глупав	-12.1159
природно	-12.1161
Сакам	-12.1163
▁англиск	-12.1168
▁Последн	-12.1171
▁способн	-12.1171
▁конзистент	-12.1175
малување	-12.1177
▁поразлич	-12.1183
▁Дечк	-12.1207
▁загроз	-12.1239
скокнува	-12.1267
▁бесмртн	-12.1277
▁паричн	-12.13
▁спозна	-12.1334
▁кисел	-12.1368
аскажувач	-12.137
▁експлози	-12.1371
▁филтри	-12.1373
▁дневни	-12.1375
ознавам	-12.138
▁интимно	-12.1381
▁емоционал	-12.1386
пседнат	-12.1398
▁пристрас	-12.1399
▁дупл	-12.1402
▁сирома	-12.1404
▁сантимет	-12.1404
▁Револуци	-12.1404
онкретн	-12.1407
▁Истражување	-12.1409
▁Милијард	-12.1409
▁ништавило	-12.1409
▁преоптовар	-12.1409
▁претприемништво	-12.1409
▁манипулаци	-12.1409
▁псевдо	-12.1409
▁џиновск	-12.1409
oods	-12.1409
забележлив	-12.1409
мплицитн	-12.1409
потврден	-12.1409
трпеливо	-12.1409
љубив	-12.1409
▁Common	-12.1409
▁Балканот	-12.1409
▁Бенедикт	-12.1409
▁ДВД	-12.1409
▁Значајн	-12.1409
▁Интернационал	-12.1409
▁Истражувач	-12.1409
▁Концепт	-12.1409
▁Магнетна	-12.1409
▁НВО	-12.1409
▁Организира	-12.1409
▁Основн	-12.1409
▁Подготв	-12.1409
▁Слонова	-12.1409
▁Сфаќа	-12.1409
▁Тропик	-12.1409
▁Фотографира	-12.1409
▁амонијак	-12.1409
▁антиретровиралн	-12.1409
▁археолог	-12.1409
▁археолози	-12.1409
▁архетип	-12.1409
▁аудиторн	-12.1409
▁аутистич	-12.1409
▁ајФон	-12.1409
▁безнадежн	-12.1409
▁бессмртн	-12.1409
▁бразилск	-12.1409
▁бунтовници	-12.1409
▁вбризга	-12.1409
▁вдахн	-12.1409
▁веродостојн	-12.1409
▁возвишен	-12.1409
▁воскресение	-12.1409
▁вселенско	-12.1409
▁граѓанско	-12.1409
▁демобилизација	-12.1409
▁депримиран	-12.1409
▁детергент	-12.1409
▁дигитрон	-12.1409
▁дискретн	-12.1409
▁дијалект	-12.1409
▁домаќинства	-12.1409
▁домородци	-12.1409
▁еволуциска	-12.1409
▁едукатор	-12.1409
▁експедици	-12.1409
▁еликсир	-12.1409
▁енкодира	-12.1409
▁ентропија	-12.1409
▁збогати	-12.1409
▁збрчкан	-12.1409
▁земјотрес	-12.1409
▁извештаи	-12.1409
▁изгаснат	-12.1409
▁изнајми	-12.1409
▁изнајмува	-12.1409
▁иновациски	-12.1409
▁интелеген	-12.1409
▁интерфејс	-12.1409
▁исчезне	-12.1409
▁италијански	-12.1409
▁казнет	-12.1409
▁карбон	-12.1409
▁каротидна	-12.1409
▁киднапер	-12.1409
▁комуникациск	-12.1409
▁лубеница	-12.1409
▁макотрпн	-12.1409
▁математичар	-12.1409
▁меморандум	-12.1409
▁менопауза	-12.1409
▁моторцикл	-12.1409
▁надразнетост	-12.1409
▁нарцисоид	-12.1409
▁невработеност	-12.1409
▁недовршен	-12.1409
▁недоразбирањ	-12.1409
▁немилосрдн	-12.1409
▁ненадејн	-12.1409
▁несекојдневн	-12.1409
▁неформалн	-12.1409
▁нечистотии	-12.1409
▁одолговлекува	-12.1409
▁опсервациск	-12.1409
▁ослаб	-12.1409
▁паранормал	-12.1409
▁парафразирам	-12.1409
▁персонализација	-12.1409
▁пестицид	-12.1409
▁пејзаж	-12.1409
▁позабавн	-12.1409
▁поистоветува	-12.1409
▁помрднува	-12.1409
▁попривлеч	-12.1409
▁портокалов	-12.1409
▁посоодвет	-12.1409
▁потпетиц	-12.1409
▁почовечн	-12.1409
▁предиспозици	-12.1409
▁презентер	-12.1409
▁прекривка	-12.1409
▁препорача	-12.1409
▁претчувств	-12.1409
▁приземјува	-12.1409
▁прилагоден	-12.1409
▁проследен	-12.1409
▁проститутк	-12.1409
▁регулатив	-12.1409
▁режисер	-12.1409
▁ретровирус	-12.1409
▁северозапад	-12.1409
▁селотејп	-12.1409
▁скулптор	-12.1409
▁сметководств	-12.1409
▁соодветствува	-12.1409
▁стратешки	-12.1409
▁супстанци	-12.1409
▁тартуф	-12.1409
▁технолошка	-12.1409
▁трансцендент	-12.1409
▁триаголни	-12.1409
▁фантазирање	-12.1409
▁фламинга	-12.1409
▁фрагмент	-12.1409
▁харизма	-12.1409
▁хетеросексуалци	-12.1409
▁хиерархиск	-12.1409
▁хромозом	-12.1409
▁шверц	-12.1409
▁шифра	-12.1409
▁шуплин	-12.1409
▁јужно	-12.1409
▁џемпер	-12.1409
▁џепови	-12.1409
ејзбол	-12.1409
зачудувачки	-12.1409
луминесценција	-12.1409
преченост	-12.1409
профитабилн	-12.1409
▁Битлси	-12.1409
▁Движе	-12.1409
▁ЕКГ	-12.1409
▁Навикнат	-12.1409
▁Рентген	-12.1409
▁аудио	-12.1409
▁балкони	-12.1409
▁вознемири	-12.1409
▁вџаш	-12.1409
▁гестови	-12.1409
▁говорништво	-12.1409
▁грабливци	-12.1409
▁житарки	-12.1409
▁заслепува	-12.1409
▁засрамувачк	-12.1409
▁избезум	-12.1409
▁извезува	-12.1409
▁искоренување	-12.1409
▁крастави	-12.1409
▁наклонет	-12.1409
▁осудува	-12.1409
▁поклопува	-12.1409
▁поттиснува	-12.1409
▁присвојува	-12.1409
▁регрутирање	-12.1409
▁реновира	-12.1409
▁синхронизира	-12.1409
▁хранливи	-12.1409
DAR	-12.1409
просветлени	-12.1409
▁Виетнам	-12.1409
▁Креативн	-12.1409
▁Магичн	-12.1409
▁Музеј	-12.1409
▁Плаќа	-12.1409
▁Технологија	-12.1409
▁Убавина	-12.1409
▁Украин	-12.1409
▁Хинду	-12.1409
▁акумула	-12.1409
▁алтруист	-12.1409
▁беснее	-12.1409
▁галерија	-12.1409
▁желуд	-12.1409
▁занаетчи	-12.1409
▁извикува	-12.1409
▁комедија	-12.1409
▁минимизира	-12.1409
▁нечовеч	-12.1409
▁преостанати	-12.1409
▁тестамент	-12.1409
▁уплашен	-12.1409
▁уретра	-12.1409
▁целокупн	-12.1409
▁дланки	-12.1409
▁застапува	-12.1409
▁наплатува	-12.1409
▁преовлад	-12.1409
▁цемент	-12.1409
лузивно	-12.1409
▁Афро	-12.1409
▁Стомак	-12.1409
▁агенции	-12.1409
▁доктрина	-12.1409
▁заблуд	-12.1409
▁оплодува	-12.1409
▁отслик	-12.1409
▁перничиња	-12.1409
▁тензии	-12.1409
втоматизиран	-12.1409
▁Звук	-12.1409
▁менаџира	-12.1409
▁модалитет	-12.1409
▁оттурн	-12.1409
▁подигна	-12.1409
▁попаметн	-12.1409
▁тревож	-12.1409
▁укаже	-12.1409
▁фараон	-12.1409
▁шокантн	-12.1409
▁Буроу	-12.1409
▁Вкупн	-12.1409
▁Ужива	-12.1409
▁бонус	-12.1409
▁вакум	-12.1409
▁газиран	-12.1409
▁исламск	-12.1409
▁истрага	-12.1409
▁лепешк	-12.1409
▁монитор	-12.1409
▁недопрен	-12.1409
▁поубав	-12.1409
▁сперма	-12.1409
▁Кучиња	-12.1409
▁глуми	-12.1409
▁медитира	-12.1409
▁поклон	-12.1409
▁растителни	-12.1409
▁совлада	-12.1409
▁неодолив	-12.1409
▁провинција	-12.1409
▁Фетус	-12.1409
▁досада	-12.1409
▁лузни	-12.1409
▁христијанск	-12.1409
▁црп	-12.1409
▁игралиште	-12.1409
▁пркос	-12.1409
▁шуплив	-12.1409
▁Пјер	-12.1409
▁допринес	-12.1409
▁занимање	-12.1409
▁збриш	-12.1409
▁звезд	-12.1409
▁златни	-12.1409
▁Политик	-12.1409
▁Кафка	-12.1409
▁едрење	-12.1409
▁покренува	-12.1409
▁првобитн	-12.1409
▁детаљ	-12.1409
▁хидро	-12.1409
▁енормн	-12.1409
▁журк	-12.1409
▁корелира	-12.1409
▁трга	-12.1409
▁Бредли	-12.1409
▁Убава	-12.1409
▁брокер	-12.1409
▁обвитк	-12.1409
▁приклад	-12.1409
▁Изминат	-12.1409
▁гиганти	-12.1409
▁пијалок	-12.1409
▁стомачн	-12.1409
▁последователно	-12.1409
▁душник	-12.1409
▁утринск	-12.1409
▁Ислам	-12.1409
▁колбас	-12.1409
▁Срце	-12.1409
▁смола	-12.1409
▁христијани	-12.1409
▁Еберт	-12.1409
▁Создава	-12.1409
▁амбиција	-12.1409
злосторни	-12.1409
▁аудици	-12.1409
▁селективн	-12.1409
▁помнож	-12.1409
▁разградува	-12.1409
▁силеџи	-12.1409
▁удво	-12.1409
▁Граѓан	-12.1409
▁Кратк	-12.1409
▁изјавуваа	-12.1409
▁поинтензивн	-12.1409
енбергов	-12.1409
▁модификаци	-12.141
▁набавка	-12.141
престижн	-12.141
▁поситн	-12.141
▁Влегува	-12.141
▁шпаг	-12.141
▁ескалира	-12.141
канадск	-12.141
▁лигња	-12.141
▁ознаки	-12.141
▁пребегн	-12.141
▁хипотек	-12.141
▁најбитн	-12.141
▁Стејт	-12.141
▁освојува	-12.141
▁интерв	-12.141
▁Сомали	-12.141
▁модул	-12.141
▁призма	-12.141
▁принцез	-12.141
▁Ненасилн	-12.141
рховни	-12.141
▁преместува	-12.141
▁Ангел	-12.141
▁меморира	-12.141
▁подеталн	-12.141
▁согорува	-12.141
▁шегува	-12.141
▁зраци	-12.141
▁оштети	-12.141
расцеп	-12.141
▁значења	-12.141
▁осветли	-12.141
▁артисти	-12.141
rum	-12.141
▁Стаклен	-12.141
▁аватар	-12.141
▁дискови	-12.141
▁озборувањ	-12.141
сумдесет	-12.141
▁контроверзи	-12.141
▁побегн	-12.1411
▁лимбич	-12.1411
▁безбож	-12.1411
▁близнаци	-12.1411
▁запуштен	-12.1411
▁поткр	-12.1411
▁двојни	-12.1411
▁одигрува	-12.1411
▁Хеми	-12.1411
▁изумр	-12.1412
▁собиралишт	-12.1412
овештво	-12.1412
▁каприц	-12.1412
▁чаша	-12.1412
▁Јапон	-12.1413
▁осмел	-12.1413
▁Политич	-12.1413
▁експрес	-12.1413
▁изгре	-12.1413
▁лимит	-12.1413
▁онеспособ	-12.1413
еволуционерн	-12.1414
▁нобелов	-12.1414
▁Грчк	-12.1415
▁милимет	-12.1416
докторант	-12.1417
▁жешк	-12.1417
зготви	-12.1417
каузалност	-12.1418
▁одгатн	-12.1419
▁маскира	-12.1419
▁испив	-12.142
rna	-12.1421
▁газд	-12.1421
▁инжинерс	-12.1422
▁корисничк	-12.1423
▁бинарн	-12.1423
▁воодушевувачк	-12.1426
▁стартува	-12.1428
духовна	-12.1432
▁поетск	-12.1434
▁варијаб	-12.1434
▁мрсн	-12.1437
▁сандач	-12.1443
▁залудн	-12.1446
▁Транс	-12.145
▁племенска	-12.1454
▁алчн	-12.1454
▁испиша	-12.146
▁Траг	-12.1461
▁работилниц	-12.1463
▁азиск	-12.1464
▁Познат	-12.1482
▁солидн	-12.1484
Ш	-12.4496
Ч	-13.951
♫	-13.973
#	-13.9731
%	-13.9732
!	-13.9733
Ќ	-13.9734
—	-13.9735
:	-13.9736
“	-13.9737
)	-13.9738
q	-13.9739
?	-13.974
&	-13.9741
Њ	-13.9741
