<unk>	0
<s>	0
</s>	0
▁.	-2.94971
▁,	-3.75732
н	-4.02766
;	-4.15024
▁&	-4.1527
▁нь	-4.17084
ot	-4.18001
qu	-4.18052
ж	-4.19458
▁	-4.36896
д	-4.39555
ийн	-4.66864
г	-4.83077
▁байна	-4.98105
ийг	-4.99916
▁ч	-5.01802
▁бол	-5.05251
▁юм	-5.10575
гүй	-5.17887
▁л	-5.20199
ын	-5.20927
ыг	-5.24268
▁?	-5.30992
▁Энэ	-5.32972
▁энэ	-5.34711
▁байсан	-5.35029
сан	-5.40957
▁гэж	-5.46195
▁нэг	-5.46253
тай	-5.53071
▁би	-5.54485
эд	-5.56543
х	-5.58465
▁Би	-5.61509
▁байгаа	-5.64557
▁байх	-5.66102
тэй	-5.76008
(	-5.79502
▁)	-5.79502
▁бид	-5.79747
ад	-5.82581
ээ	-5.82593
▁:	-5.86288
▁их	-5.90277
ны	-5.94524
сэн	-5.97713
т	-6.04482
ч	-6.06994
▁зүйл	-6.08512
▁болно	-6.10636
▁тэр	-6.12473
▁Бид	-6.14771
ээс	-6.16191
▁юу	-6.16852
▁та	-6.17454
▁дээр	-6.17555
▁хүн	-6.18846
▁өөр	-6.23474
▁хүмүүс	-6.25826
-	-6.25979
даг	-6.26756
л	-6.26911
ээр	-6.28321
аар	-6.29608
▁маш	-6.30211
▁гэсэн	-6.30247
▁вэ	-6.30585
▁илүү	-6.31899
▁олон	-6.32374
дээ	-6.34363
аа	-6.35265
▁болох	-6.36777
аас	-6.36911
на	-6.37275
даа	-6.37554
▁Тэр	-6.38139
с	-6.41272
р	-6.42627
▁байдаг	-6.44656
ний	-6.44815
▁Гэхдээ	-6.46622
▁хамг	-6.47073
▁Инээ	-6.50565
▁уу	-6.52145
ий	-6.52604
▁биш	-6.52783
▁болон	-6.54436
▁болсон	-6.54853
▁тухай	-6.55265
▁Та	-6.55586
▁хэрэгтэй	-6.55795
▁бидний	-6.57071
той	-6.59239
▁ямар	-6.59417
▁Х	-6.62242
▁миний	-6.64775
▁байж	-6.64865
▁шиг	-6.67312
▁хоёр	-6.67879
▁байлаа	-6.68793
▁У	-6.69437
дэг	-6.7087
гийн	-6.71726
▁болж	-6.71895
▁нар	-6.72948
▁дараа	-6.74371
▁бүр	-6.74866
хан	-6.75001
▁бүх	-6.75228
▁үед	-6.75729
▁дэлхий	-6.76342
▁Тэгэ	-6.77291
▁ташилт	-6.77411
сон	-6.80751
▁дээ	-6.8103
▁Алга	-6.81459
▁сайн	-6.81691
▁мөн	-6.81754
▁Тэд	-6.82205
оо	-6.82585
▁өмнө	-6.83358
▁шинэ	-6.84393
▁гэдэг	-6.84564
▁үүнийг	-6.87706
▁Хари	-6.87968
▁том	-6.88474
▁♫	-6.88731
▁бас	-6.89525
▁Я	-6.91181
▁нэгэн	-6.92338
▁үг	-6.93085
▁гэх	-6.93589
▁бий	-6.9406
▁зөв	-6.95244
▁бүгд	-6.95642
▁жилийн	-6.95835
▁ма	-6.95873
в	-6.96326
▁талаар	-6.9759
▁одоо	-6.97735
▁санаа	-6.97756
▁хийх	-6.97924
▁Гэ	-6.97996
▁буй	-6.99276
нэ	-7.00256
▁шүү	-7.01508
▁х	-7.02465
▁бага	-7.02581
▁чинь	-7.03122
ань	-7.03243
▁хийж	-7.05707
▁ба	-7.05973
эрвээ	-7.067
▁сэтгэл	-7.07494
м	-7.08955
▁Тийм	-7.0913
▁чухал	-7.10494
▁хэл	-7.11598
▁цаг	-7.11769
▁харж	-7.12032
▁яг	-7.12336
▁хэрхэ	-7.1494
▁арга	-7.15871
▁тэд	-7.16116
▁эсвэл	-7.16148
▁үү	-7.16658
▁тийм	-7.16974
▁авч	-7.18856
▁ийм	-7.19276
ан	-7.19381
▁2	-7.19571
хөн	-7.19724
▁байдал	-7.21035
▁дахин	-7.22303
▁харах	-7.22614
чир	-7.22766
▁гэдгийг	-7.23916
▁гэвэл	-7.23923
▁хэн	-7.24584
▁гайхалтай	-7.25721
▁хувьд	-7.25889
▁үр	-7.26528
▁адил	-7.27559
▁Мин	-7.28296
▁улс	-7.29376
▁тоо	-7.30276
▁хувь	-7.3031
▁хүний	-7.30472
▁руу	-7.32183
▁олж	-7.32543
▁бодо	-7.32887
▁яв	-7.32949
▁мэт	-7.33309
▁байв	-7.33351
▁орон	-7.3338
▁Ингэ	-7.3356
▁газар	-7.36258
▁Мөн	-7.36303
▁эдгээр	-7.36317
▁хийсэн	-7.36426
вэл	-7.36773
▁чадвар	-7.36876
хүү	-7.38164
▁өдөр	-7.38579
▁тулд	-7.38613
▁жил	-7.39569
▁3	-7.40165
▁ирсэн	-7.4129
▁энд	-7.41622
▁хэдэ	-7.41892
вч	-7.43181
.	-7.43198
▁намайг	-7.43683
ы	-7.44143
▁даа	-7.44152
▁зарим	-7.44771
▁Бидний	-7.44771
▁сая	-7.44772
▁дахь	-7.44774
надад	-7.44835
▁мэдэх	-7.45534
▁Тэг	-7.45868
▁Одоо	-7.45919
▁ажил	-7.46045
▁Н	-7.46154
▁байгааг	-7.4639
▁-	-7.46469
▁ганц	-7.46521
▁таны	-7.47013
▁үнэхээр	-7.47022
а	-7.47195
▁тэдний	-7.47433
▁хэлэх	-7.4768
▁боломж	-7.47966
▁ёстой	-7.48614
▁хамт	-7.49057
▁гар	-7.50886
▁гэр	-7.51083
▁хэсэг	-7.51204
ууд	-7.51329
▁зураг	-7.51401
▁өөрийн	-7.52096
▁ярь	-7.53121
▁За	-7.53329
▁хүртэл	-7.53656
▁Баярлалаа	-7.54026
▁гол	-7.54745
▁20	-7.55326
▁бүхэн	-7.5538
▁үе	-7.55458
гаар	-7.57283
▁гарга	-7.57327
▁авсан	-7.59214
▁бие	-7.59295
хээр	-7.59493
▁байхгүй	-7.5999
▁түүх	-7.60632
▁бэ	-7.60912
адна	-7.61285
▁хүүхэд	-7.61583
▁рүү	-7.61599
▁зүгээр	-7.61625
▁асуулт	-7.61628
▁нэр	-7.62019
▁чадах	-7.62138
е	-7.62605
▁амьдар	-7.62862
▁бидэнд	-7.63345
▁бус	-7.6356
▁амжилт	-7.63618
нь	-7.63839
▁Чи	-7.64265
▁ээ	-7.6428
▁ажилла	-7.6442
▁чадахгүй	-7.64793
эр	-7.64832
▁өндөр	-7.64863
▁зам	-7.6505
ар	-7.65103
▁турш	-7.65665
▁газрын	-7.65865
▁Энд	-7.65916
агаад	-7.6703
▁болов	-7.6704
▁Нэг	-7.67845
▁ам	-7.67869
▁чи	-7.68322
▁яагаад	-7.68368
▁С	-7.68397
лт	-7.68406
▁настай	-7.68565
▁Г	-7.68955
▁хэмжээ	-7.69372
өө	-7.69656
▁ингэж	-7.70054
▁гээд	-7.70236
▁учир	-7.70764
сөн	-7.7082
▁дунд	-7.71114
▁Эдгээр	-7.71175
▁төлөө	-7.71187
дог	-7.71716
▁бай	-7.71723
хэн	-7.72579
▁сайхан	-7.72657
▁түүний	-7.72953
▁асуудал	-7.73357
я	-7.73635
▁гарч	-7.73996
од	-7.7413
хаа	-7.759
▁болохыг	-7.76136
▁аль	-7.77103
▁эхэлсэн	-7.77258
▁авах	-7.7745
▁судалгаа	-7.7811
▁ми	-7.7812
▁хүнд	-7.78136
▁холбоо	-7.78258
▁ном	-7.78413
▁хүмүүст	-7.78415
▁ихэнх	-7.7905
▁хүүхдүүд	-7.79082
▁Б	-7.79332
▁хэр	-7.79799
▁багш	-7.80086
▁болдог	-7.80289
▁бусад	-7.80323
▁хүч	-7.80364
▁Англи	-7.80381
▁үнэн	-7.80382
▁болгох	-7.80459
▁хэлсэн	-7.80739
▁К	-7.80886
▁Т	-7.80927
чих	-7.81111
▁хэзээ	-7.81804
лаа	-7.82033
▁хооронд	-7.8205
▁А	-7.82134
▁оны	-7.8265
▁Дэлхий	-7.82754
▁Маш	-7.8327
▁!	-7.83401
▁бөгөө	-7.83402
▁манай	-7.83402
▁асуу	-7.83465
ид	-7.83565
▁ярих	-7.83674
лээ	-7.84536
▁боловсрол	-7.85041
▁үгүй	-7.85047
▁байдлы	-7.85047
нээс	-7.85814
▁нийт	-7.86012
оос	-7.86103
▁мэдээ	-7.8657
▁хари	-7.86572
▁болохоор	-7.86923
▁тал	-7.8719
▁И	-7.87337
▁яа	-7.87707
▁хар	-7.87741
▁Үүнийг	-7.87774
▁чанар	-7.88154
%	-7.88402
▁онд	-7.88516
▁эргэ	-7.88529
▁Тэгэх	-7.89363
аад	-7.89409
▁Ийм	-7.89927
▁магад	-7.90127
▁сары	-7.9073
тэл	-7.90734
о	-7.90943
▁Э	-7.91282
▁дүн	-7.91551
▁хэлж	-7.91836
▁эрүүл	-7.91905
▁үйл	-7.92216
▁амьдрал	-7.92246
▁сар	-7.92437
▁...	-7.93591
▁хэцүү	-7.93667
▁төр	-7.93881
▁над	-7.94444
▁жишээ	-7.95136
▁мэддэг	-7.9533
▁технологи	-7.95596
▁амьдралын	-7.9602
▁хүссэн	-7.96061
э	-7.96449
өр	-7.96489
▁жижиг	-7.96519
▁хэрэг	-7.96519
▁Хүмүүс	-7.97077
▁бодит	-7.97342
▁нас	-7.97657
уу	-7.98435
▁гарах	-7.98524
▁шалтгаан	-7.98801
үүд	-7.98954
▁баярлалаа	-7.99229
▁мэднэ	-7.99316
▁аав	-7.99364
▁дуртай	-7.99404
▁боломжтой	-7.99453
▁ухаан	-7.99658
▁охин	-7.99786
▁ажлын	-8.00079
▁10	-8.00265
▁харилцаа	-8.00293
▁зүйлс	-8.00311
▁тэднийг	-8.00816
дөг	-8.00954
▁энгийн	-8.01149
▁цөмий	-8.01297
▁анхны	-8.01376
▁дуу	-8.01403
▁хүр	-8.01565
▁зүйлийг	-8.01788
▁болохгүй	-8.02073
▁ажиллах	-8.02408
▁Бас	-8.02489
ээд	-8.0258
А	-8.02585
ээрээ	-8.02628
▁Африк	-8.03011
▁эмэгтэй	-8.03047
5	-8.03316
гээр	-8.03768
▁мэдэ	-8.04158
▁машин	-8.04351
▁явах	-8.04622
▁Жишээ	-8.05111
▁ертөнц	-8.05326
▁биз	-8.05358
гч	-8.05644
▁харсан	-8.05712
саар	-8.05758
▁хүрэх	-8.06113
▁дотор	-8.06763
▁явдал	-8.07157
йн	-8.0722
▁сурах	-8.07488
дөө	-8.07684
▁оронд	-8.07946
▁тус	-8.08131
▁олох	-8.08372
▁хий	-8.08512
▁бүхний	-8.08615
▁м	-8.09094
▁АНУ	-8.09231
▁амар	-8.09482
▁нийгмийн	-8.09486
▁ирэх	-8.09708
но	-8.10093
▁суу	-8.1014
▁үзэх	-8.10314
ийгөө	-8.10876
▁сонирхол	-8.11384
▁түүнийг	-8.11402
▁үеийн	-8.12556
▁муу	-8.12663
▁бүл	-8.12675
▁ус	-8.12924
▁яах	-8.12984
▁Хэрэ	-8.13048
▁Зарим	-8.13533
▁Хятад	-8.13533
▁Олон	-8.13539
▁эх	-8.13691
ap	-8.13789
▁Үүн	-8.1391
уудыг	-8.14002
▁орчин	-8.14401
гчид	-8.14842
▁онол	-8.15042
▁дээрээ	-8.15454
вал	-8.15497
▁буюу	-8.15755
▁бараг	-8.15761
наас	-8.15808
▁танд	-8.16184
▁тодорхой	-8.16269
▁гарсан	-8.16623
▁хайр	-8.16731
оор	-8.16985
▁гэхэд	-8.17009
▁удаа	-8.1721
энд	-8.17447
▁эд	-8.17658
▁ойлголт	-8.18007
os	-8.18014
амайг	-8.18025
▁аваад	-8.18064
▁мэдэхгүй	-8.18156
▁өөрчил	-8.18177
▁зургий	-8.19417
▁болоо	-8.19436
▁анх	-8.19648
▁хугацаа	-8.19681
▁үз	-8.19721
▁алга	-8.19936
▁хүс	-8.20071
лан	-8.20095
нд	-8.20224
▁тэнд	-8.20372
гаа	-8.20634
▁хүлээн	-8.20702
▁7	-8.21033
ас	-8.22214
▁зэрэг	-8.22314
▁өөрчлөлт	-8.22411
▁ой	-8.2248
▁өгсөн	-8.22757
▁боддог	-8.2276
▁аз	-8.22921
доо	-8.2387
лах	-8.23947
▁Хамг	-8.24092
▁эхэл	-8.24564
▁хүсэ	-8.24731
▁утга	-8.2474
ц	-8.24864
ъя	-8.25103
▁тэрбум	-8.25169
▁долоо	-8.25177
▁дэх	-8.25478
аараа	-8.25579
▁Америк	-8.25778
▁орж	-8.26168
эн	-8.2627
▁хаана	-8.263
▁5	-8.26321
▁шууд	-8.2653
▁эсрэг	-8.26803
▁байгаагүй	-8.26942
▁хүргэ	-8.27113
▁мөнгө	-8.27537
лоо	-8.27592
▁ирээд	-8.27863
▁хийдэг	-8.2794
▁үзэ	-8.28031
▁төрлий	-8.28136
▁Үнэн	-8.28892
маар	-8.28971
▁бүтээлч	-8.29017
▁эмэгтэйчүүд	-8.29212
▁орнууд	-8.29365
▁ядуу	-8.29397
▁үүнд	-8.29922
▁Тэдний	-8.30213
▁гадна	-8.30252
▁эсэх	-8.30293
▁байвал	-8.30326
▁тэдгээр	-8.30348
▁өгч	-8.30384
▁хүү	-8.30822
ш	-8.31379
▁гаргах	-8.31781
▁гэдэгт	-8.32238
мээр	-8.32478
▁Мэдээ	-8.32599
▁мэдсэн	-8.32779
▁учраа	-8.32853
▁огторгуй	-8.32869
▁мэдээлэл	-8.32881
▁туслах	-8.3303
▁4	-8.332
▁дагуул	-8.33369
▁Өөр	-8.33412
▁сургуульд	-8.33484
▁буруу	-8.33552
ой	-8.3381
▁эмч	-8.33812
▁ирж	-8.33946
▁ээж	-8.34163
▁төсөөл	-8.34284
▁хөрөнгө	-8.34363
▁хүүхдий	-8.34611
▁эрх	-8.35399
▁зай	-8.35495
▁бодох	-8.35512
▁хойш	-8.3556
▁өнөөдөр	-8.35572
▁эрчим	-8.35573
▁хоол	-8.35712
▁бичсэн	-8.35717
▁өөрөө	-8.35729
▁билээ	-8.3627
▁бичи	-8.36622
▁Ц	-8.36729
▁харуул	-8.37148
▁нөлөө	-8.37325
▁ав	-8.37712
ор	-8.37916
▁ойлгох	-8.38158
▁шинжлэх	-8.38359
▁магадлал	-8.38359
▁огт	-8.3837
▁тэгш	-8.38373
▁засгийн	-8.38487
▁сүүлийн	-8.3861
▁гараа	-8.3873
▁ажилладаг	-8.38837
▁хүчтэй	-8.38926
▁Их	-8.38963
▁хамаа	-8.3902
▁гүн	-8.39221
▁200	-8.39419
▁Бидэн	-8.39708
лэн	-8.40167
▁бичлэг	-8.40374
▁дээрх	-8.40648
▁өгөх	-8.40705
▁Хоёр	-8.4082
▁Юу	-8.41207
▁Ямар	-8.41207
▁байдлаар	-8.41247
▁компани	-8.41295
▁М	-8.41466
өөр	-8.41499
▁кино	-8.4189
▁ярьдаг	-8.41974
▁он	-8.42538
▁санал	-8.42597
▁дахиа	-8.42661
▁Түүний	-8.42971
▁загвар	-8.43308
▁нэмэ	-8.43355
▁яриа	-8.43537
▁хүлээ	-8.43688
▁ашиг	-8.43735
▁болгон	-8.43818
▁Ж	-8.44028
▁нөгөө	-8.44075
▁бэрхшээл	-8.44167
▁тул	-8.44289
▁хол	-8.44338
▁хэмжээсүүд	-8.44377
▁Таны	-8.44499
▁Өнөөд	-8.44708
▁хэмээ	-8.44845
▁K	-8.45277
аагүй	-8.45373
▁Нада	-8.45945
▁дайн	-8.46242
▁сургууль	-8.46474
хон	-8.46475
▁амьд	-8.46532
анд	-8.46603
▁зуун	-8.46777
▁ах	-8.47012
▁улам	-8.47174
▁уран	-8.47199
▁хаа	-8.47204
▁амьдрах	-8.47265
▁үл	-8.47377
▁систем	-8.48148
гүйгээр	-8.48213
▁баримт	-8.48296
▁Д	-8.48382
з	-8.48623
▁нүүр	-8.48942
яаж	-8.48985
М	-8.49026
▁үргэлж	-8.49135
▁гурва	-8.49215
▁оч	-8.49386
▁найз	-8.49567
▁асуудлы	-8.50066
▁охид	-8.5008
ье	-8.50206
▁бодсон	-8.50229
▁нарын	-8.50245
▁..	-8.50273
▁цахилгаан	-8.50303
▁зүй	-8.50351
▁дундаж	-8.50364
▁буца	-8.50445
▁бүрэн	-8.50484
▁зохио	-8.50537
▁Үгүй	-8.50631
ах	-8.50635
▁арай	-8.50767
▁Манай	-8.51509
▁Ми	-8.51668
▁тэгээ	-8.52023
▁т	-8.52052
A	-8.5216
▁шийд	-8.52388
▁итгэ	-8.52558
▁хариу	-8.52861
▁доллар	-8.5298
▁үнэ	-8.53497
▁зүрх	-8.53529
▁ханга	-8.53864
▁хүчний	-8.53865
▁чам	-8.53865
▁Сай	-8.53943
▁авдаг	-8.54016
лаг	-8.5424
▁зориул	-8.54345
▁12	-8.54401
▁бодол	-8.54756
ин	-8.54972
▁бүтээл	-8.54972
▁сонсо	-8.55119
▁компьютер	-8.55444
▁З	-8.55547
▁Хүн	-8.56019
▁Үүний	-8.56038
▁тэг	-8.56118
лын	-8.5617
▁хурда	-8.56352
▁мэдрэмж	-8.56542
тайгаа	-8.56756
▁нийгэм	-8.56862
▁ижил	-8.56864
шгүй	-8.57014
▁тэдэнд	-8.57116
▁шаардлагатай	-8.57195
▁өөрсдийн	-8.57279
▁тусламж	-8.57504
▁6	-8.57617
▁ашиглах	-8.57841
▁ер	-8.58117
▁сур	-8.58397
▁ашиглаж	-8.58469
K	-8.58984
▁хичээ	-8.5903
▁орой	-8.59057
▁зорилго	-8.59128
▁бүрийн	-8.59132
▁заа	-8.5938
▁бэлэ	-8.59432
▁бүрт	-8.59434
▁үзүүл	-8.59584
▁аюул	-8.59724
▁худалда	-8.59747
▁харагда	-8.5976
▁бүс	-8.59891
▁тата	-8.6022
▁Бүх	-8.60311
▁хэлбэр	-8.60314
▁түүнд	-8.60367
▁бодлоор	-8.60392
▁Доа	-8.60429
▁орны	-8.60641
▁хуудас	-8.60803
өөс	-8.60898
▁хараад	-8.61314
▁ашигла	-8.61345
▁сонго	-8.61474
▁бөмбөг	-8.61758
▁хүчин	-8.62597
▁мэнд	-8.62636
▁залуу	-8.62678
▁40	-8.63233
▁хил	-8.63297
ь	-8.63849
▁ашиглан	-8.63897
▁үзье	-8.63915
▁төрсөн	-8.63976
▁урт	-8.64032
▁санааг	-8.64154
лийг	-8.64363
лийн	-8.64382
▁шинж	-8.64385
▁Хэн	-8.64446
▁буу	-8.64747
тэйгээ	-8.64837
▁хор	-8.64872
инь	-8.65078
▁хэсэгт	-8.65228
▁алдаа	-8.65419
ээсээ	-8.65474
▁боломжгүй	-8.65666
▁баг	-8.65868
▁улсын	-8.65951
▁цааш	-8.6597
өд	-8.66056
▁хариулт	-8.6607
▁доо	-8.66129
▁нөхцөл	-8.66326
▁ялгаа	-8.66354
аж	-8.66738
▁туршилт	-8.66774
▁хоног	-8.66803
▁удаан	-8.6684
эвч	-8.66908
▁хангалттай	-8.67596
▁энийг	-8.67607
▁ойлгосон	-8.67643
▁гэрэл	-8.67861
▁хэмжээнд	-8.67941
▁болгож	-8.67986
эл	-8.68297
▁орнуудын	-8.6835
рхүү	-8.68355
төө	-8.68606
▁Ш	-8.68874
▁далай	-8.69213
лэг	-8.7001
▁бүтээх	-8.70072
▁агуу	-8.70527
ил	-8.70567
хгүй	-8.70738
▁халдвар	-8.70743
эхээр	-8.70866
▁соёл	-8.70901
▁мянган	-8.71123
▁дүр	-8.71132
▁Сүүл	-8.71436
▁урам	-8.71472
▁мэдээллийг	-8.71523
▁олсон	-8.71523
▁Тэнд	-8.71546
▁бүтээсэн	-8.71609
▁тархины	-8.7164
▁хүрч	-8.7166
▁хугацаанд	-8.71859
гоор	-8.7188
▁хэд	-8.71949
▁унших	-8.72073
эг	-8.7245
▁үзэл	-8.7245
сээр	-8.72712
▁гэв	-8.73916
▁50	-8.74016
▁нууц	-8.74103
▁уна	-8.74211
эцэг	-8.74488
▁явуул	-8.74674
▁зүүн	-8.74715
нө	-8.74961
▁шаардлага	-8.75065
▁эр	-8.75116
▁эхний	-8.75315
▁судлах	-8.75332
▁Пит	-8.75371
▁дэлхийг	-8.7548
▁Том	-8.75522
▁өөд	-8.75734
таа	-8.75739
▁доор	-8.75753
▁хүсдэг	-8.75918
▁байгалий	-8.7633
▁30	-8.76423
▁гэхээр	-8.76604
▁аж	-8.76664
▁хэрэггүй	-8.76684
▁ц	-8.77094
▁хувий	-8.77144
▁дайны	-8.77452
▁орох	-8.77566
и	-8.77804
яа	-8.7803
▁тогло	-8.78269
лгүй	-8.78427
▁ухааны	-8.78575
▁тайлбарла	-8.78579
ийнхээ	-8.78638
▁хэдий	-8.78916
▁чаддаг	-8.79057
▁мэдээж	-8.79191
▁8	-8.79209
▁жинхэнэ	-8.79417
▁Дараа	-8.79451
▁өнгөрсөн	-8.79481
аасаа	-8.79513
▁тун	-8.79547
ав	-8.79577
▁ДОХ	-8.79599
▁Зөв	-8.79599
▁Герман	-8.796
▁тав	-8.79613
▁эм	-8.79637
▁гурав	-8.79699
▁орсон	-8.79706
вол	-8.7972
▁ир	-8.79797
▁хязгаар	-8.79868
▁үзсэн	-8.80077
▁хэлэхдээ	-8.80312
▁оюун	-8.80424
▁ажлы	-8.80455
▁ойлгож	-8.80738
эв	-8.80744
▁б	-8.80792
▁суугаа	-8.8103
▁чадва	-8.81034
▁шар	-8.81245
▁үндсэ	-8.81622
▁зан	-8.81644
▁орхи	-8.82017
▁Шинэ	-8.82402
▁даяар	-8.82574
▁хөл	-8.83005
▁Л	-8.83227
▁тавь	-8.83256
▁унши	-8.83281
мэл	-8.8341
▁мэдэрч	-8.83451
▁Энэтхэг	-8.8368
▁Магад	-8.83953
▁мэргэжл	-8.8396
▁өгдөг	-8.83977
▁гээч	-8.83979
▁хөгжлийн	-8.8398
▁байсны	-8.83983
▁жилд	-8.83992
▁мэдрэх	-8.84023
уудын	-8.84141
▁км	-8.84155
▁нүд	-8.84208
▁ач	-8.84436
▁үүнээс	-8.84512
▁од	-8.84779
▁бүлэг	-8.84904
оохон	-8.84933
▁хоногийн	-8.85061
▁иймэ	-8.85217
▁бүтээж	-8.85248
▁гариг	-8.85271
гөө	-8.85287
▁түвшин	-8.85343
▁явдаг	-8.85424
▁хэрэглэ	-8.85643
▁нүүрс	-8.85925
▁толгой	-8.86496
D	-8.86558
▁тоглоом	-8.8656
▁хөгжи	-8.8657
▁харуулж	-8.86673
▁өрөө	-8.86681
▁100	-8.86814
▁Үнэ	-8.86841
▁үүний	-8.86896
▁сана	-8.86944
▁аргагүй	-8.87016
▁өсөлт	-8.8736
▁Гол	-8.87497
Н	-8.87535
эдийн	-8.87616
▁1	-8.87846
▁хүсэл	-8.87848
▁алдар	-8.87971
▁стресс	-8.88078
▁зүйлээ	-8.88245
▁ажигла	-8.88373
Л	-8.88436
▁онцг	-8.88474
▁өөрсдөө	-8.88503
▁болгодог	-8.88513
▁уг	-8.88526
▁цор	-8.88565
тэн	-8.88619
▁эхлэх	-8.88656
▁хэт	-8.88667
▁бяцха	-8.88671
▁ажиллагаа	-8.89086
свэл	-8.89308
▁харц	-8.89375
▁хэв	-8.8951
▁талд	-8.89621
▁дав	-8.89659
▁гайх	-8.89956
▁нэрлэ	-8.90283
▁хүчээр	-8.9029
▁гаргаса	-8.90335
▁харилца	-8.90828
үүдийг	-8.90951
▁ёс	-8.91134
▁хараа	-8.91206
▁бизнес	-8.91245
▁оруул	-8.91246
▁Яа	-8.91452
▁эмээ	-8.91736
▁хөгжил	-8.91789
▁хэдийн	-8.91866
уулж	-8.92171
▁О	-8.92214
▁я	-8.92415
▁тулгар	-8.92418
цгаа	-8.92596
дсэн	-8.92717
▁ойр	-8.9275
▁бод	-8.92819
▁зур	-8.93009
▁сай	-8.93158
▁TED	-8.93254
▁асар	-8.9326
▁чадаагүй	-8.9326
▁өглөө	-8.93261
▁иргэд	-8.93261
▁чадсан	-8.93318
Р	-8.93325
▁амьдралд	-8.93365
▁жаргалтай	-8.93495
▁тэмцэх	-8.9361
▁үздэг	-8.93614
▁15	-8.93693
▁тусал	-8.93963
▁зориг	-8.93964
▁хэлдэг	-8.9404
чин	-8.94126
▁математик	-8.94284
▁ор	-8.9437
чид	-8.94437
▁19	-8.94453
▁нэртэй	-8.94464
▁өг	-8.94726
▁олго	-8.94739
▁ирээдүй	-8.9485
▁нөхцөлд	-8.94908
▁нэ	-8.9501
▁авчир	-8.95106
айхалтай	-8.95121
▁хай	-8.95192
▁нөөц	-8.95318
6	-8.95351
▁үүсгэ	-8.95728
▁тос	-8.9581
▁туул	-8.95959
▁ил	-8.96298
тал	-8.96336
▁турши	-8.96542
▁дага	-8.96584
▁гэрт	-8.96676
ирнэ	-8.96683
▁Тиймээ	-8.96989
▁өвчин	-8.97371
▁ажлаа	-8.97445
лбэл	-8.97606
ай	-8.97672
▁хамаар	-8.97871
▁а	-8.98055
▁төдий	-8.98254
▁материал	-8.98255
▁гаруй	-8.98264
▁Өнгөр	-8.98265
▁сонссон	-8.98269
▁утас	-8.98293
▁бүү	-8.98442
▁итгэдэг	-8.98519
e	-8.98539
▁мод	-8.98582
▁өдрийн	-8.98598
▁хуваалцах	-8.98613
▁үх	-8.988
▁дүүрэ	-8.98868
үгээр	-8.98889
▁чиний	-8.98907
▁аюулгүй	-8.99074
лангу	-8.99185
▁дүнтэй	-8.99209
▁явц	-8.99261
оод	-8.99289
удлаа	-8.99513
▁нөлөөл	-8.99532
▁өөрчлөх	-8.99606
▁ш	-8.99709
▁цагт	-8.99776
▁байгуул	-8.99785
▁нарт	-8.99879
▁үндэс	-8.99974
алтай	-9.00198
▁хэвээр	-9.00201
▁бүтэ	-9.00304
▁шийдэх	-9.00351
эж	-9.00393
мал	-9.00515
▁зогсоо	-9.00809
▁өөрийнхөө	-9.00816
▁нээлт	-9.00828
▁зав	-9.0095
цгээ	-9.01038
гээ	-9.01155
▁нэм	-9.0122
▁өргөн	-9.01279
▁түвшинд	-9.01845
▁зуу	-9.02122
▁зарцуул	-9.02479
▁санагда	-9.02545
мын	-9.02927
▁тэмдэг	-9.02995
▁с	-9.03033
▁програм	-9.03109
▁өнцөг	-9.03345
▁суурь	-9.0343
▁Бүгд	-9.03517
▁хэрэгсэл	-9.03517
▁янз	-9.03518
▁дөнгө	-9.03518
▁үзүүлэлт	-9.03523
▁баруун	-9.03535
▁сургуулий	-9.03581
▁эцэст	-9.03587
▁эрсдэл	-9.03588
▁ярилца	-9.03596
▁барь	-9.03626
▁гэнэт	-9.03689
▁Дараагийн	-9.03704
▁жижигхэн	-9.03777
▁бичих	-9.03898
он	-9.0391
▁саад	-9.03927
▁ард	-9.0399
▁ялгаатай	-9.04104
▁санаанууд	-9.04123
▁аа	-9.04211
▁чадал	-9.04243
▁харуулсан	-9.04421
▁физик	-9.04467
▁цаас	-9.04666
▁ертөнций	-9.0472
▁онгоц	-9.0511
рийн	-9.05263
▁хими	-9.05389
▁зүйлсийг	-9.05399
▁гардаг	-9.05569
▁сэтгүүл	-9.06191
▁нээх	-9.06223
▁Гурав	-9.06265
▁бичиг	-9.06661
▁нэмэх	-9.06743
▁хууль	-9.06774
▁квадрат	-9.06995
▁Нар	-9.07123
▁холбо	-9.072
▁учр	-9.07211
▁урд	-9.07298
ал	-9.07391
▁9	-9.07683
аг	-9.07842
8	-9.07993
▁түгээ	-9.08072
▁дар	-9.08466
▁Эн	-9.08537
▁бүтээ	-9.08634
▁хам	-9.08643
▁Ү	-9.08788
▁хөтөлбөр	-9.08846
айж	-9.0888
тэрхий	-9.08894
▁эвлүүл	-9.08936
▁найзууд	-9.08995
ноос	-9.09017
▁ALS	-9.09073
▁даалгавар	-9.09073
▁супер	-9.09073
▁төлөвлөгөө	-9.0908
▁дохио	-9.09102
▁хүнтэй	-9.09125
▁хөгжмий	-9.09126
▁бусдын	-9.09129
▁тохиолдол	-9.09185
▁сонголт	-9.092
▁Эхлэ	-9.09212
▁Европы	-9.09236
▁хүсвэл	-9.09237
▁дөрвөн	-9.09238
▁итгэлтэй	-9.09324
▁үеэр	-9.09364
госон	-9.09405
▁Тэдгээр	-9.09418
▁цус	-9.09479
▁хэлнэ	-9.09611
айдаг	-9.09703
чил	-9.09824
▁чаддаггүй	-9.09838
▁хийгд	-9.09943
▁илтгэл	-9.09966
арч	-9.1022
к	-9.1034
▁хот	-9.10397
▁цагаан	-9.10462
▁тоонууд	-9.10578
▁баяр	-9.10614
▁үүс	-9.10678
▁тархи	-9.10828
▁тайлбарлах	-9.1091
▁хүүхд	-9.10988
▁хардаг	-9.11005
▁ертөнцө	-9.11385
▁бүлийн	-9.11481
▁шид	-9.11596
▁тоог	-9.11676
▁хэрэглэх	-9.11791
▁хамтра	-9.1209
2	-9.12166
▁хамаарал	-9.12256
▁засаг	-9.12362
▁талаас	-9.12473
▁ур	-9.12832
▁нутгийн	-9.12963
▁юуг	-9.13037
▁дүрс	-9.13057
инд	-9.13093
▁түүн	-9.13357
▁боловсруул	-9.13431
▁мэдээг	-9.14116
▁хагас	-9.14227
эдэн	-9.14618
▁гэдгээ	-9.14769
▁эерэг	-9.14955
▁эмнэлэг	-9.14955
▁өөрчлөгдсөн	-9.14955
▁гудамж	-9.14956
▁Эмма	-9.14981
▁бодлого	-9.15036
▁санхүү	-9.15054
▁харъя	-9.15059
▁Нэгэн	-9.15094
тгий	-9.15106
▁Хүүхдүүд	-9.15123
▁хамгаалах	-9.15138
▁санагддаг	-9.15155
▁бусдаас	-9.15159
▁өрөөнд	-9.15192
▁эрт	-9.15423
▁ханда	-9.1545
▁найм	-9.15553
▁харвал	-9.156
▁төв	-9.15748
▁сурсан	-9.15752
▁дах	-9.1577
▁цай	-9.15879
▁бүсгүй	-9.1594
ер	-9.16001
▁хичээл	-9.16023
▁таних	-9.16236
▁одоогийн	-9.16401
▁ярилцлага	-9.16499
▁ажилд	-9.1655
▁A	-9.16599
▁харуулах	-9.16621
▁мэдэр	-9.16625
га	-9.16655
▁орно	-9.1671
сөө	-9.16736
▁өөрөөр	-9.17107
▁харагдах	-9.17144
▁асуух	-9.17267
▁Ал	-9.17631
▁багийн	-9.17757
▁оюутнууд	-9.17888
▁баялгий	-9.18015
▁мөс	-9.18037
▁төс	-9.18283
б	-9.18397
▁байр	-9.18462
▁өмнөх	-9.1875
▁ороо	-9.18831
▁хэрэглээ	-9.18932
▁эмчилгээ	-9.19025
4	-9.19091
▁дор	-9.19131
▁шат	-9.19294
снээр	-9.19423
le	-9.19564
▁сан	-9.19757
▁орчи	-9.19844
даж	-9.19993
▁хувир	-9.20153
▁дэ	-9.20475
▁цэг	-9.20601
▁хэ	-9.20749
▁тань	-9.20808
▁бидэн	-9.20971
▁тод	-9.21011
▁үүрэг	-9.21032
▁Анх	-9.21139
▁сурга	-9.2115
▁Фибоначи	-9.21205
▁капитал	-9.21205
▁баялаг	-9.21206
▁дотроо	-9.21209
▁үйлдэл	-9.21225
▁тархалт	-9.21278
▁Эхний	-9.21278
▁жаа	-9.21294
▁камер	-9.21298
▁шилдэг	-9.21313
▁салбарт	-9.21368
▁мэдээллийн	-9.21415
▁аргы	-9.21494
▁Ээж	-9.21515
▁барих	-9.21524
▁түрүүн	-9.21596
▁000	-9.21674
▁Аз	-9.22136
▁үйлдвэр	-9.22359
гдсан	-9.22503
▁үүн	-9.2264
▁мэдлэг	-9.22687
▁технологий	-9.22738
▁ерөнхий	-9.22803
▁к	-9.22881
▁сонин	-9.23026
▁дүү	-9.23073
3	-9.23785
▁Өөрөө	-9.2389
▁туса	-9.23979
▁очоо	-9.23991
91	-9.23995
гийг	-9.24027
▁тодорхойл	-9.24303
▁П	-9.24433
сны	-9.24497
▁дут	-9.24508
▁г	-9.2451
▁мах	-9.24511
▁хөдлөл	-9.24549
ахад	-9.24629
▁мөсө	-9.24899
бал	-9.24994
рын	-9.25065
▁хой	-9.25095
▁идэ	-9.25203
▁Тэгэхэ	-9.2534
▁баримтууд	-9.25421
▁биет	-9.25441
▁хурд	-9.25718
▁дамжуула	-9.25739
▁илэрхийл	-9.25881
▁ерд	-9.26057
▁зөвшөөр	-9.26107
▁эхлэ	-9.2612
▁тойр	-9.26355
▁туйл	-9.26375
▁байхаа	-9.26675
▁минут	-9.26836
▁байрла	-9.27191
дгийг	-9.27281
▁товч	-9.27394
▁хөдөлмөр	-9.27765
ол	-9.27776
▁Тухай	-9.27872
▁төсөл	-9.27872
▁Ихэнх	-9.27873
▁түлхүүр	-9.27873
▁жир	-9.27877
▁уламжлал	-9.27883
▁мөрөөдөл	-9.27889
▁аливаа	-9.27895
▁сурагчид	-9.27897
▁мэдрэгч	-9.27898
▁тусгай	-9.27899
▁доош	-9.27909
▁гоё	-9.27916
▁эрэгтэй	-9.27985
▁Орос	-9.27997
▁үлдсэн	-9.28012
▁арва	-9.28025
▁гайхамшиг	-9.28048
▁цоо	-9.28105
▁байнга	-9.28134
▁булан	-9.28206
▁ингэ	-9.28247
▁шийдэл	-9.28254
▁бич	-9.28329
▁эхлүүл	-9.28436
▁судалж	-9.28441
▁хэмжээс	-9.28477
▁тавих	-9.28484
▁үнэтэй	-9.28576
▁тавьсан	-9.28581
▁ял	-9.28608
▁анхаарал	-9.2867
▁18	-9.28673
▁аврах	-9.28849
▁ирээдүйд	-9.29011
▁I	-9.29028
▁зурагт	-9.29062
дэв	-9.29309
▁үйлдвэрлэл	-9.29424
▁хэсг	-9.29541
▁шугам	-9.30308
▁сонгох	-9.30517
▁анхаарл	-9.30607
▁талын	-9.30628
▁зургаа	-9.30632
▁оролц	-9.3076
өн	-9.30811
▁хөдөлгөөн	-9.30817
▁тэс	-9.30852
▁итгэх	-9.30859
▁гараад	-9.3125
▁анхаар	-9.31601
▁аял	-9.31782
▁байгууллага	-9.31904
соор	-9.32057
▁Е	-9.3212
оосон	-9.32235
▁гэ	-9.3224
хээ	-9.32376
▁бүтээмж	-9.32424
▁Хо	-9.32572
▁Уг	-9.3261
▁инженер	-9.3315
▁Ө	-9.33196
▁хэлээр	-9.3328
хи	-9.33284
▁байгаагаа	-9.33338
g	-9.33354
▁өөрсдий	-9.33424
рөг	-9.33518
▁тэмдгий	-9.33885
▁шийдэ	-9.33893
▁з	-9.33924
▁суулга	-9.33941
er	-9.33996
▁90	-9.3403
▁цэнэ	-9.34058
▁Европ	-9.34105
▁болгоно	-9.34122
▁гал	-9.34171
өмий	-9.34171
▁таар	-9.34232
▁хэвлэл	-9.34302
▁сүлжээ	-9.34354
▁дээш	-9.34399
▁талбай	-9.34499
▁эхнэр	-9.34521
▁Швед	-9.34696
▁төгс	-9.34814
▁зогсо	-9.349
▁бодлоо	-9.34951
агүй	-9.34982
▁график	-9.35015
▁танхим	-9.35015
▁хайрцаг	-9.35015
▁хөрөнгий	-9.35015
▁гадаад	-9.35015
▁хүчирхийлэл	-9.35016
▁халуун	-9.35017
▁улаан	-9.35018
▁Нью	-9.3502
▁хямрал	-9.35029
▁ойролцоо	-9.35032
▁хүрээлэн	-9.35037
▁буур	-9.35051
▁жаргал	-9.35055
▁явдлы	-9.35056
▁цахи	-9.35066
▁Палестин	-9.35071
▁тайван	-9.35072
▁байдгий	-9.35081
оход	-9.35093
▁Ирак	-9.35141
▁хийгээд	-9.35155
▁хуваа	-9.3517
▁баян	-9.35179
▁хариулах	-9.35272
моор	-9.35273
▁бодоод	-9.35395
▁эзэмших	-9.35397
▁суралцах	-9.35416
▁нээлттэй	-9.35478
▁оруулалт	-9.3552
▁зогсохгүй	-9.35526
▁итгэл	-9.35578
▁мянга	-9.35609
▁зүйлсээ	-9.35701
▁шин	-9.35752
▁бодлы	-9.358
▁инээд	-9.35934
a	-9.35952
▁үзүүлэх	-9.35969
▁шил	-9.36001
лон	-9.36087
ам	-9.36099
▁ашигладаг	-9.3613
▁насанд	-9.362
▁Нэгт	-9.3634
лүү	-9.36341
▁агаар	-9.36417
жээ	-9.36423
▁хэлний	-9.36577
▁хэмжээтэй	-9.36749
▁Па	-9.37001
▁түр	-9.37021
эй	-9.37059
▁гэнэ	-9.37137
▁да	-9.37252
▁жилүүд	-9.3727
▁унах	-9.37398
▁усан	-9.37485
▁эсрэгээр	-9.37606
▁сэргээ	-9.37791
өгнө	-9.37938
▁ойлго	-9.37985
хэд	-9.38085
▁3-	-9.38248
▁цохилт	-9.38413
▁хэсгүүд	-9.38449
ьсон	-9.38458
▁алба	-9.3847
▁үзэгдэ	-9.38678
▁Араб	-9.39188
▁алха	-9.39413
Г	-9.39504
▁дараах	-9.39508
▁зар	-9.3965
▁оршин	-9.39677
чууд	-9.39689
эхэд	-9.39703
▁тава	-9.39866
▁25	-9.39882
▁гүйцэтгэ	-9.39982
эх	-9.40193
▁зууны	-9.40261
нууд	-9.40328
▁хөрс	-9.40332
▁цагаа	-9.40461
▁урга	-9.40634
▁ихээ	-9.4068
▁залга	-9.40745
▁ол	-9.40757
▁худл	-9.40765
▁барил	-9.40847
▁уул	-9.41003
▁ширээ	-9.4111
▁удирдагч	-9.4115
▁авьяас	-9.41232
▁зүйлд	-9.41399
▁энерги	-9.41438
▁цэвэр	-9.41582
рах	-9.41816
гүүр	-9.41843
▁зарда	-9.41868
▁зов	-9.41936
▁хяна	-9.42097
▁эхлээ	-9.42221
▁төхөөрөмж	-9.42301
▁нарыг	-9.424
▁үлдэ	-9.42477
▁тэмээ	-9.4252
▁өөрт	-9.42536
▁хийнэ	-9.4255
▁хадгал	-9.42605
▁дургүй	-9.42701
▁Амьдрал	-9.42707
oo	-9.42709
▁Сургууль	-9.4271
▁шинжилгээ	-9.4271
▁Зүүн	-9.4271
▁урьдчил	-9.42711
▁ховор	-9.42711
▁Крис	-9.42712
▁үнэлгээ	-9.42719
▁тѳр	-9.42742
▁хүчирх	-9.42743
▁Дарвин	-9.42743
▁судлаачид	-9.42746
▁хэлбэл	-9.4276
дох	-9.42793
руугаа	-9.4281
▁нэмэгдэ	-9.4284
▁холбогдол	-9.4287
▁хүрээ	-9.4288
▁олоход	-9.42891
▁алдсан	-9.42892
▁төгсгөл	-9.42914
▁16	-9.42929
▁нилээд	-9.42967
▁ардчилал	-9.43103
▁харагдана	-9.43118
▁эрч	-9.43153
▁зах	-9.4326
▁очи	-9.43329
▁мөр	-9.4338
▁өнгөрөх	-9.43515
▁яс	-9.43666
▁Түүн	-9.43725
▁тусламжтай	-9.43757
▁тарх	-9.43899
уур	-9.43989
▁хүмүүсээс	-9.44149
▁нам	-9.44174
▁үхэх	-9.44184
▁нээж	-9.44211
▁анги	-9.44323
гэлээ	-9.44351
▁14	-9.44469
сний	-9.44533
▁ажлаас	-9.44706
уулсан	-9.44946
▁ядуус	-9.45098
▁улсууд	-9.45109
тол	-9.45429
▁тойро	-9.45481
аая	-9.45552
▁илгээ	-9.456
▁тэгэх	-9.45608
▁вирус	-9.45614
▁цөл	-9.45959
9	-9.46092
▁сүүлд	-9.46258
▁Өөрийн	-9.46372
▁үгс	-9.46746
▁удаагаа	-9.47145
▁зохиол	-9.47641
▁муж	-9.47643
▁хоолой	-9.47652
▁сонсох	-9.4781
▁тэмдэглэ	-9.48381
▁цуглуул	-9.48845
▁шалга	-9.48883
уулаа	-9.49025
▁Сан	-9.49208
▁газры	-9.49222
▁C	-9.49277
▁1000	-9.49329
▁гэрлэ	-9.49464
▁тосгонд	-9.49496
o	-9.49633
▁ядуурлы	-9.49975
▁тайлбар	-9.50015
▁за	-9.5007
▁хувилбар	-9.50095
▁тоон	-9.50168
▁тооцоол	-9.50245
▁худал	-9.50275
▁оролдо	-9.50469
▁шийдвэр	-9.50497
7	-9.50686
гаад	-9.50864
▁зогсох	-9.50915
▁бууруул	-9.50989
▁хялбар	-9.51035
ъё	-9.51038
▁Калуза	-9.5104
соронзон	-9.5104
▁Видео	-9.5104
▁хувьсгал	-9.5104
▁өнцгөө	-9.5104
▁эзлэ	-9.5104
▁тотгор	-9.51041
▁тэвчээр	-9.51041
▁татвар	-9.51043
▁Франц	-9.51043
▁оюутан	-9.51044
▁дотоод	-9.51047
▁Үзэ	-9.51047
▁радио	-9.51059
▁дугаар	-9.51063
▁Дахи	-9.51079
▁Аль	-9.51086
▁амиа	-9.51088
▁дэлгэц	-9.51098
▁сөрө	-9.51105
▁илрүүл	-9.51122
▁аймшигтай	-9.51134
▁орлогын	-9.51164
▁Дэв	-9.51181
▁Хар	-9.51187
▁судалсан	-9.51223
▁хамгаалалт	-9.51249
▁хуучин	-9.51306
▁зээл	-9.51325
▁амьтан	-9.51356
▁эгч	-9.5146
▁газарт	-9.5147
▁үлдэх	-9.5148
▁Хүүхэ	-9.51517
▁Хой	-9.51565
▁E	-9.5158
▁үүсвэр	-9.51604
▁цаасан	-9.51623
▁аялал	-9.51669
эс	-9.51683
▁эрдэмтэд	-9.51713
▁заадаг	-9.51753
▁тив	-9.51785
▁буцаад	-9.51871
▁уулзах	-9.52158
▁орнууда	-9.52292
93	-9.52313
▁тэжээл	-9.52408
▁сэтгэлийн	-9.52409
▁хэмжээгээр	-9.5243
▁насны	-9.52462
рай	-9.52699
▁зогсоох	-9.52719
▁өнөө	-9.52765
гээс	-9.52862
▁хув	-9.5296
▁өсө	-9.53015
▁танилцуул	-9.53113
▁байдалд	-9.53213
▁Ер	-9.53456
▁эмэгтэйчүүдий	-9.53519
▁дээд	-9.53578
▁зохиолч	-9.53607
▁галзуу	-9.53793
▁ахи	-9.54001
▁алда	-9.54019
▁номын	-9.54146
даггүй	-9.54474
гчдын	-9.54508
▁сануул	-9.54517
▁11	-9.54668
▁нүдээр	-9.54751
лэх	-9.54764
лж	-9.55176
▁хүүхдүүдийн	-9.55351
▁заах	-9.55533
▁ид	-9.55555
▁Түүнийг	-9.55589
▁сэтгэ	-9.55593
ем	-9.55603
▁салбар	-9.55608
▁санах	-9.55639
▁таа	-9.55675
▁мөнгөө	-9.55698
цэст	-9.5601
▁видео	-9.56117
лаж	-9.56231
▁таалагд	-9.56284
▁тархин	-9.56973
▁гэрлий	-9.56985
▁асуудлууд	-9.57148
▁Над	-9.57339
▁тавиа	-9.5742
▁дагуу	-9.57463
▁авар	-9.57672
уулах	-9.57712
▁төлбөр	-9.57781
▁атом	-9.58244
u	-9.58329
▁хүсэх	-9.58427
▁Бүр	-9.58609
▁дэм	-9.58682
▁яда	-9.58714
▁чөлөө	-9.58733
C	-9.58768
▁эхэлж	-9.5884
арай	-9.58887
▁сул	-9.58923
▁санагд	-9.59069
▁Жинхэн	-9.59305
▁хөрш	-9.59578
▁төрөл	-9.59735
▁өнгөрөө	-9.59736
▁13	-9.59912
хэлье	-9.59968
▁Цаг	-9.59987
▁нэмэгдүүл	-9.60021
гай	-9.60082
▁Боловсрол	-9.60131
▁Бостон	-9.60131
▁хямд	-9.60131
▁чичиргээ	-9.60131
▁чичирхийл	-9.60131
▁шударга	-9.60131
▁ЗХУ	-9.60132
▁зарчим	-9.60132
▁Ауди	-9.60133
▁ханз	-9.60136
▁хувиар	-9.60148
▁гишүүд	-9.60161
▁Ном	-9.6017
▁Багш	-9.60177
▁хөдөлгүүр	-9.6018
▁1960	-9.60188
▁ажилтан	-9.60191
▁тохиолдсон	-9.60197
▁хойшлуул	-9.60208
▁орлоготой	-9.60211
▁судалдаг	-9.60217
▁далд	-9.60229
▁Ингэснээр	-9.60231
▁санср	-9.60232
▁алхам	-9.60241
▁сургамж	-9.60257
▁өсгө	-9.60279
▁харагддаг	-9.60299
▁зүг	-9.60309
▁тэнцэх	-9.60315
▁мэдэрдэг	-9.60327
▁оноо	-9.60411
▁авра	-9.60453
▁гарц	-9.60476
▁нээ	-9.6059
▁чимээгүй	-9.60662
▁мөчүүд	-9.60758
▁Хэр	-9.60787
▁нэрлэсэн	-9.60807
▁үнэт	-9.60852
▁оруулах	-9.60868
▁сонирхл	-9.61006
▁өгөө	-9.61029
▁өчүүх	-9.61036
▁үзлий	-9.61086
▁P	-9.6112
▁эс	-9.61142
уудад	-9.61165
▁болохоос	-9.61207
▁түүнээс	-9.61303
▁гэрээ	-9.61453
▁соёлын	-9.61479
лөө	-9.61508
▁туршилтын	-9.61538
▁Баг	-9.61665
▁барилга	-9.61689
эгүй	-9.61705
▁бүтээгдэхүүн	-9.61783
▁долларын	-9.61816
▁туулах	-9.62026
▁нутагт	-9.62107
▁нэгнийг	-9.62217
▁зүйлийн	-9.62359
ахыг	-9.62591
▁багас	-9.62638
▁тосгоны	-9.6266
у	-9.63046
▁үхлий	-9.63063
▁модны	-9.63201
▁Да	-9.63277
▁дахи	-9.6336
▁урлаг	-9.63507
▁яри	-9.63652
онд	-9.63658
▁хэлээ	-9.63712
▁ши	-9.63856
▁дамжуул	-9.64075
эхдээ	-9.64081
▁хуульч	-9.64091
▁ка	-9.64098
▁тосгон	-9.64235
0	-9.6447
▁тэмцэ	-9.64479
ээгүй	-9.64532
▁хөдлө	-9.64536
▁бар	-9.64566
▁амжилтанд	-9.64631
▁оролдсо	-9.64753
▁сүүл	-9.64769
▁сард	-9.65094
▁компаний	-9.65182
▁хамар	-9.65277
▁өвчний	-9.65335
▁цалин	-9.65356
өөрөө	-9.65397
▁машины	-9.65414
▁сургалты	-9.65551
члал	-9.65751
▁суух	-9.65964
▁тойрон	-9.65974
▁өс	-9.66258
▁тогтоо	-9.66272
s	-9.66294
▁улмаа	-9.66515
▁мөч	-9.66595
оороо	-9.66668
▁үлдээ	-9.66677
▁ухаанд	-9.6668
▁Канад	-9.66766
▁холбогдо	-9.66887
▁нуугд	-9.67016
▁судлаач	-9.67263
▁үүд	-9.67278
▁хэсгий	-9.6736
▁зүйлээс	-9.67445
ос	-9.67613
дам	-9.67633
хөө	-9.67774
би	-9.67906
▁нутаг	-9.67992
снаар	-9.68051
оронд	-9.68211
▁чимээ	-9.68609
▁амь	-9.68706
Б	-9.68749
▁Нэгд	-9.68831
▁дайралт	-9.68873
тын	-9.68875
▁хүмүүстэй	-9.68969
▁инээ	-9.6897
▁ухамсар	-9.69295
▁шалгалт	-9.69317
▁алс	-9.69455
лд	-9.69618
▁багасга	-9.69731
алт	-9.69833
▁сорилт	-9.69883
▁хуулий	-9.69968
▁хөдөл	-9.70033
▁80	-9.70038
эзээ	-9.70065
▁198	-9.70074
рхэг	-9.70077
50	-9.70079
▁судалгаан	-9.70116
▁Эйнштэйн	-9.70131
▁зайлсхий	-9.70131
▁механик	-9.70131
▁Нугал	-9.70131
▁Бусад	-9.70131
▁ерөнхийлөгч	-9.70131
▁сонгууль	-9.70132
▁богино	-9.70132
▁тогтвор	-9.70133
▁хөгжүүлэх	-9.70133
▁шингэн	-9.70134
▁үзүүлбэр	-9.70135
▁ойлгомж	-9.70137
▁хариуцлага	-9.70139
▁Грек	-9.70139
▁үлгэр	-9.70139
▁дотно	-9.70149
▁орноос	-9.70187
▁урсгал	-9.70195
▁зугаатай	-9.70199
ри	-9.702
▁Барууны	-9.70207
▁ахиц	-9.70208
▁техник	-9.70213
▁зөвшөөрөх	-9.70214
▁ордог	-9.70242
▁эрчүүд	-9.70303
▁таамаглал	-9.70324
▁нэвтэр	-9.7033
▁сэтгэлгээ	-9.70365
ндүү	-9.70425
▁дутагдал	-9.70443
▁оролцоо	-9.7046
▁тэнцүү	-9.70477
▁үсэг	-9.70556
▁Жил	-9.70568
▁цалингийн	-9.70603
▁зураас	-9.70624
▁хэрэглэдэг	-9.70658
▁удах	-9.70673
▁ирдэг	-9.7068
▁эвлүүлэх	-9.70682
▁мэдрэл	-9.70766
▁нэгтгэ	-9.70783
▁амьдралаа	-9.70809
▁мэргэжилтэ	-9.70816
▁үнэл	-9.70867
▁удирдах	-9.70874
▁туршлага	-9.70929
▁үзүүлсэн	-9.70939
зай	-9.71041
▁зайл	-9.71129
▁шинэчлэл	-9.7114
▁Бурхан	-9.71216
▁байлгах	-9.71244
▁10-	-9.71263
▁хэрэгжүүлэх	-9.71292
эрэг	-9.71335
▁компаниуд	-9.7134
▁багаж	-9.71422
▁бул	-9.71641
▁агуул	-9.7169
үүлж	-9.71734
▁дагах	-9.71736
▁давхарга	-9.71775
▁ганцаар	-9.71795
▁үзээд	-9.71922
▁доторх	-9.72129
▁хүрэ	-9.72178
▁төрөх	-9.72246
▁өвөө	-9.72252
▁70	-9.72297
▁Нэр	-9.72392
▁суусан	-9.72428
гээд	-9.72466
▁1-	-9.72474
▁бусда	-9.7248
▁гарал	-9.72556
▁өндөртэй	-9.72728
уул	-9.72816
▁бэлэг	-9.72924
▁хүй	-9.72935
лэл	-9.7303
▁мэдэл	-9.73137
▁В	-9.73208
▁дэвшүүл	-9.73347
▁хоолойг	-9.73476
нөөс	-9.73492
▁залгах	-9.73545
▁Эм	-9.73692
ло	-9.73705
▁гурв	-9.73953
▁оролцох	-9.73999
▁тайл	-9.74072
▁нэвтрүүл	-9.741
▁үүсгэж	-9.74275
▁үргэлжилсэ	-9.74289
▁дүрвэг	-9.74451
лтгүй	-9.74601
хад	-9.74634
▁дарга	-9.74682
▁Бол	-9.74824
алтын	-9.75036
▁явуулж	-9.75064
▁оройн	-9.75187
▁чадамж	-9.75389
ф	-9.75494
▁машинууд	-9.7574
лох	-9.75803
20	-9.7597
p	-9.75987
снаас	-9.76011
▁байгаад	-9.7631
▁насан	-9.76312
▁эндээс	-9.76334
▁хэлэн	-9.76343
▁устга	-9.76459
▁тохир	-9.76525
▁олдо	-9.76667
▁Тэ	-9.76765
ио	-9.76852
▁гадаргуу	-9.76976
▁бу	-9.77025
тээ	-9.77191
▁вирусы	-9.77198
▁өгө	-9.77205
▁татах	-9.77258
▁Жо	-9.77304
▁идэвх	-9.77347
▁150	-9.7741
▁яриагаа	-9.7775
▁явца	-9.77934
▁сэтгэгч	-9.77959
▁хандлага	-9.78015
маа	-9.78144
▁ангид	-9.78165
▁үүр	-9.78379
▁Эц	-9.78426
▁Хий	-9.78472
▁санаагаа	-9.78551
гий	-9.78691
▁даж	-9.78818
агч	-9.78997
арсан	-9.79173
▁нүдний	-9.79449
▁өнгөр	-9.79528
рыг	-9.79653
▁нэгний	-9.79828
▁Хи	-9.79844
▁чиглэ	-9.79925
▁сурагч	-9.79966
▁буцах	-9.8009
▁үндэслэ	-9.80158
▁бүрдүүл	-9.8016
▁гараг	-9.80163
▁мэргэжил	-9.80187
▁интроверт	-9.80288
▁дэлгүүр	-9.80309
▁байснаа	-9.80476
▁гэмт	-9.80486
▁зөвлө	-9.80502
▁төлөвлө	-9.80503
▁хөгжим	-9.80538
▁оноос	-9.80657
▁дунджаа	-9.80668
▁оно	-9.80686
▁өөрчлөгдөх	-9.80817
▁цөөн	-9.8082
▁зүү	-9.80844
▁тэнцвэр	-9.80881
▁бүтэц	-9.80949
уч	-9.80968
ю	-9.80968
▁шаарда	-9.81029
▁тодорхойлох	-9.81051
▁60	-9.81075
▁нүү	-9.8108
▁ногоон	-9.81094
▁Ази	-9.81107
▁байгууллагууд	-9.8111
▁Баруун	-9.81157
эгсэр	-9.81225
▁аутизм	-9.81242
▁Дөрөв	-9.81242
▁НҮБ	-9.81242
▁Нөгөө	-9.81242
▁интернэт	-9.81242
▁махбод	-9.81242
▁онцлог	-9.81243
▁харанхуй	-9.81243
▁чулуу	-9.81243
▁нярай	-9.81244
▁зуурмаг	-9.81244
▁наслалт	-9.81249
▁Гурв	-9.8125
▁Сая	-9.81252
▁ахуй	-9.81253
▁Аливаа	-9.81254
▁шөнө	-9.81255
▁зовлон	-9.81256
▁хорго	-9.81256
▁шөн	-9.81256
▁тахиа	-9.81257
▁хангамж	-9.81257
▁тэмцэл	-9.8126
▁Онол	-9.81262
▁хавдар	-9.81268
▁зѳв	-9.81271
ван	-9.81273
▁энх	-9.81278
▁зогссон	-9.81278
▁шингээ	-9.81278
▁Стри	-9.81278
▁Холбоо	-9.8128
▁Хөгжим	-9.81299
▁бусдыг	-9.81301
үлий	-9.81301
▁тэмүүлэл	-9.81302
▁өнөөдрий	-9.81381
▁байдлаас	-9.81387
▁томрох	-9.814
▁Аав	-9.81402
▁газраас	-9.81408
▁тэнгэр	-9.81441
▁үеэс	-9.81467
▁төрөлхтний	-9.8149
▁Өмнөд	-9.81491
▁үхэл	-9.81513
▁ойлгодог	-9.81517
▁шаарддаг	-9.81527
▁зоригтой	-9.81598
▁Үр	-9.8163
▁илүүтэй	-9.81648
▁гаж	-9.81653
▁Хараа	-9.81655
▁Анд	-9.81685
▁цацраг	-9.81688
▁Газр	-9.81727
▁эрхийн	-9.81769
▁тэтгэ	-9.81801
ийгмийн	-9.81838
▁буйг	-9.8184
▁зовоо	-9.81872
▁асуухад	-9.8188
▁зэвсг	-9.81889
▁эцс	-9.81908
ундаг	-9.81962
▁кофей	-9.81983
▁охидо	-9.82009
▁хийчих	-9.82018
▁биеэр	-9.8212
▁зовох	-9.8212
▁эхлэл	-9.82244
▁эргэлт	-9.82282
▁найда	-9.8229
▁харьцуул	-9.82479
чийн	-9.82533
▁өссөн	-9.8257
мм	-9.8257
▁хүчилтөрөгч	-9.82628
▁мэндий	-9.82687
▁байгаль	-9.8286
▁яваа	-9.82936
▁босго	-9.83054
▁ачаа	-9.83133
▁хүчээ	-9.83329
▁жагсаалт	-9.83424
▁засах	-9.83496
▁хандах	-9.83541
▁ойлгохо	-9.83816
▁хаяг	-9.84045
▁гэгдэ	-9.84237
▁чанга	-9.84271
▁D	-9.84296
ээрэй	-9.84318
▁2-	-9.84354
тер	-9.84439
▁оролцо	-9.8446
▁дурла	-9.84486
▁мөчи	-9.84517
▁зааг	-9.84628
▁үүл	-9.8467
▁сайд	-9.84716
▁харагд	-9.8496
▁Тав	-9.84961
▁байгуулах	-9.84995
▁зорилгоо	-9.85175
сийн	-9.85248
инжлэх	-9.85329
▁зохи	-9.8536
▁201	-9.85389
▁гүйцэтгэх	-9.85389
▁түүхүүд	-9.85414
харлаа	-9.85474
▁Пакистаны	-9.85731
▁харилцаанд	-9.85852
▁нарийвч	-9.86023
гоос	-9.86036
агдсан	-9.86121
▁танилц	-9.86156
▁үнэнийг	-9.86516
▁Афганистан	-9.86646
▁чанары	-9.86774
йг	-9.86799
С	-9.86826
▁бурхан	-9.86911
▁хүртлэ	-9.87015
▁байранд	-9.87148
п	-9.87303
▁барилг	-9.8733
▁ярилц	-9.8741
▁авиа	-9.87412
ана	-9.87605
ү	-9.87737
▁тогтоох	-9.87767
▁Ли	-9.87943
▁дамжи	-9.87944
▁ал	-9.88003
P	-9.88186
▁харамс	-9.88515
▁хайл	-9.88564
▁эзэмш	-9.88587
▁арг	-9.88861
▁Пакистан	-9.88888
▁үргэлжил	-9.88973
▁тойронд	-9.89026
▁ѳѳр	-9.89111
▁300	-9.89129
▁бүхэл	-9.89134
тан	-9.8937
▁сони	-9.89384
▁унш	-9.89444
андаа	-9.89729
▁дэмжи	-9.90018
▁санагдах	-9.90105
▁дууда	-9.90198
▁алдах	-9.90311
өж	-9.90411
▁мэд	-9.90482
▁биеийн	-9.90534
ул	-9.90693
аарай	-9.90723
▁Өө	-9.90786
▁ангийн	-9.9081
▁өдөрт	-9.90861
▁ширээн	-9.90919
▁өөрчлөгдө	-9.91246
▁бэлгий	-9.91253
▁Өнөө	-9.91289
▁байхаас	-9.91297
00	-9.91332
▁Ажил	-9.91533
▁хүргэх	-9.9158
▁Ба	-9.91591
ман	-9.91595
нээн	-9.91627
▁500	-9.91669
лага	-9.91681
▁дуусга	-9.91745
▁Гэр	-9.9177
▁ойрто	-9.91776
▁захиа	-9.91823
▁бү	-9.91896
▁бос	-9.91897
▁зэвсэг	-9.91916
гаас	-9.91934
Йорк	-9.92162
▁онош	-9.92246
▁бүтций	-9.9236
шил	-9.92371
▁биенээ	-9.92428
▁бөмбөлөг	-9.92459
▁маргаа	-9.92501
▁э	-9.92567
▁урь	-9.92625
▁Хэл	-9.92653
уулан	-9.92662
▁чинээ	-9.92681
орой	-9.92773
▁гуй	-9.92867
жилт	-9.92889
▁цуг	-9.93095
▁эзэмши	-9.93107
▁хүмүү	-9.93108
▁яриаг	-9.93453
▁хүслий	-9.93497
▁Хүүхд	-9.93527
▁газраа	-9.93555
дын	-9.93612
y	-9.93664
арамс	-9.93668
үйц	-9.93684
халтай	-9.9371
▁тут	-9.93735
▁оригами	-9.93742
▁секунд	-9.93742
хѳн	-9.93742
▁Технологи	-9.93742
▁Физик	-9.93742
▁таталцлы	-9.93742
▁өлсгөлөн	-9.93742
▁этгээд	-9.93742
▁нулим	-9.93742
▁тест	-9.93742
▁Арктик	-9.93742
▁өвчтэй	-9.93742
▁эзэл	-9.93744
▁тэнгис	-9.93744
▁туяа	-9.93744
▁давтамж	-9.93744
▁дугуй	-9.93744
▁буруутга	-9.93747
▁Амжилт	-9.93747
▁блог	-9.93747
▁ширтэ	-9.93749
▁төсөөлөл	-9.93749
▁сэдэв	-9.9375
▁Ньютон	-9.93752
▁танай	-9.93755
▁шашин	-9.93757
▁Байгаль	-9.93757
▁Билл	-9.93761
▁17	-9.93765
▁Эмэгтэйчүүд	-9.93766
▁дүгнэлт	-9.93779
▁Хариулт	-9.93782
▁сүйтгэ	-9.93792
▁заяа	-9.93793
▁зорьсон	-9.93817
▁нисэх	-9.93825
▁Төв	-9.93847
▁хөх	-9.93862
▁Тархи	-9.93862
▁зохицох	-9.93883
▁нөхөр	-9.93883
▁төрүүлдэг	-9.93919
▁агуулах	-9.93936
▁орших	-9.93942
▁дууссан	-9.93954
▁шагнал	-9.93998
▁луу	-9.94002
ерсон	-9.94011
та	-9.9405
▁явдлаа	-9.94052
▁метр	-9.94064
▁суралца	-9.94099
▁Ойр	-9.94116
▁байгуулалт	-9.9419
▁хуваагда	-9.94194
▁нэмэгдүүлэх	-9.94214
вэр	-9.94227
удалгүй	-9.94246
▁код	-9.9435
▁цугла	-9.94362
▁сайт	-9.94485
▁биелүүлэх	-9.94524
▁тави	-9.94538
▁зарцуулах	-9.94572
▁дурсамж	-9.94645
▁устгах	-9.94669
уулдаг	-9.94669
▁аян	-9.94686
рт	-9.94705
тонн	-9.94716
▁амралт	-9.94741
▁тусалдаг	-9.94824
▁Кар	-9.94884
▁хоолойн	-9.94985
▁хэмжээст	-9.94988
▁7-	-9.95011
вий	-9.95019
▁минуты	-9.95188
▁хүйс	-9.95191
▁4-	-9.95338
▁Жон	-9.95489
▁салхи	-9.95503
▁хэрэглэгчд	-9.9557
▁үнэр	-9.95696
▁нөлөөлөх	-9.95706
▁Өндө	-9.95722
▁өмнөд	-9.95747
t	-9.95766
▁дээрээс	-9.95789
▁Тэдэн	-9.95925
▁өгөөж	-9.95983
дэл	-9.96086
▁Ф	-9.96098
▁явагда	-9.96168
▁зайг	-9.96244
▁алхах	-9.96312
▁үхэ	-9.96376
▁үйлдвэрж	-9.96453
хыг	-9.96664
▁холбох	-9.96682
▁системийг	-9.96749
▁хамтрагч	-9.96789
▁дүрсэл	-9.96893
ож	-9.9695
их	-9.97117
▁хөө	-9.97439
▁доорх	-9.97554
туг	-9.97665
▁учиртай	-9.97693
▁Ам	-9.97904
хий	-9.97968
▁нуугда	-9.97971
▁хиймэ	-9.98003
▁түүхий	-9.98154
▁Хаа	-9.98436
▁давж	-9.98522
▁асуудаг	-9.9857
▁Ур	-9.98757
▁хүнээс	-9.98758
▁залуус	-9.98867
▁цаашла	-9.98938
▁утс	-9.98992
▁дууса	-9.99002
гуу	-9.99036
▁бүрээс	-9.99153
▁хаяа	-9.99236
▁Дэлхийг	-9.99247
▁20-	-9.99285
гээрээ	-9.99491
▁ярилцах	-9.99548
▁бүтээгч	-9.99555
дэггүй	-9.99977
▁зохиох	-10.0016
▁шанал	-10.0036
▁болчих	-10.004
▁ухаа	-10.004
гуур	-10.0041
▁Машин	-10.0059
▁маяг	-10.0065
30	-10.0086
▁заса	-10.0104
▁ар	-10.0106
ни	-10.0116
▁Япон	-10.0129
▁тэ	-10.0132
шор	-10.0135
▁давхар	-10.0138
й	-10.0164
▁дулаан	-10.0168
▁ялга	-10.0186
▁өдрөө	-10.0208
▁Өдөр	-10.0211
ланд	-10.0232
▁S	-10.0234
▁баярла	-10.0261
▁өнгө	-10.0268
▁төрл	-10.0303
▁охиноо	-10.0308
нүүд	-10.033
▁санаанд	-10.0348
▁Хөө	-10.0355
▁багта	-10.0356
▁ханд	-10.0357
▁аргаа	-10.0366
▁бүтэлгүйт	-10.0371
▁сонсогдо	-10.0373
▁дулаарлы	-10.0377
▁байлга	-10.0392
авна	-10.0394
▁тооцо	-10.0414
▁тани	-10.0427
▁хоёрт	-10.0437
▁долгион	-10.0455
▁хүчирхийллий	-10.0467
▁өнөөг	-10.0489
▁найма	-10.049
▁зохиц	-10.0525
▁нийлүүл	-10.0526
▁масс	-10.0528
▁аймгий	-10.053
▁Улс	-10.053
▁байдг	-10.0531
▁яма	-10.0534
үү	-10.0538
айн	-10.0552
▁хэний	-10.0553
▁Ка	-10.0555
▁төлөв	-10.0561
▁сургуулиуд	-10.058
▁өөрийнх	-10.0591
▁агаары	-10.0605
гоо	-10.062
шаа	-10.0646
▁ажилтнууд	-10.0648
▁дэлбэрэлт	-10.0657
in	-10.0659
I	-10.0666
Ж	-10.0667
▁зайн	-10.0669
▁үйлдвэрлэ	-10.0691
▁тогт	-10.0702
өс	-10.0703
▁жив	-10.0705
▁сэр	-10.0722
▁уулза	-10.0726
▁уйл	-10.0727
▁хариул	-10.0728
▁удирда	-10.074
▁тэгэ	-10.0747
▁чиглэл	-10.0755
11	-10.0758
▁хэм	-10.0763
▁байдлаа	-10.0763
дах	-10.0764
▁сурт	-10.0767
▁иргэн	-10.0773
▁цагаар	-10.0776
▁анзаар	-10.0776
▁ухаал	-10.0776
▁хоты	-10.0778
▁цэрг	-10.078
арьцангуй	-10.0792
▁хэмнэ	-10.0792
▁сэргийл	-10.0802
▁төсөв	-10.0803
▁Огторгуй	-10.0803
▁Смит	-10.0803
▁Соломон	-10.0803
▁алчуур	-10.0803
▁газрууд	-10.0803
▁дэвшигч	-10.0803
▁зузаан	-10.0803
▁онлайн	-10.0803
▁тѳвѳг	-10.0803
▁өөрчлөгддөг	-10.0803
▁веб	-10.0803
▁гишүүн	-10.0803
▁сонсгол	-10.0803
▁хөтөл	-10.0803
▁Жонатан	-10.0803
▁автомашин	-10.0803
▁шалтгаал	-10.0803
▁дуудлага	-10.0803
▁статистик	-10.0803
▁хорвоо	-10.0803
▁найдвар	-10.0803
▁сурталчилгаа	-10.0803
▁төлөх	-10.0803
▁төвөг	-10.0803
▁толь	-10.0803
▁тийш	-10.0803
▁цөөхөн	-10.0803
▁Гэнэт	-10.0803
▁Лего	-10.0803
▁даруй	-10.0803
▁бялуу	-10.0804
▁дөрөв	-10.0804
▁дэмжлэг	-10.0804
▁банк	-10.0804
▁цамц	-10.0804
▁болгоомж	-10.0804
▁хийгээгүй	-10.0805
▁дүрэм	-10.0805
▁197	-10.0805
▁мэтчилэн	-10.0806
▁өнгөц	-10.0806
▁тасра	-10.0806
▁анагаах	-10.0806
▁сонсдог	-10.0807
▁суурин	-10.0808
вөл	-10.0808
▁сох	-10.0809
▁авагч	-10.0811
▁эрэлт	-10.0812
▁мэдэгдсэн	-10.0814
▁төрчид	-10.0815
▁Ингэх	-10.0815
ивээ	-10.0816
▁Орон	-10.0817
▁эхэлье	-10.0817
▁таарах	-10.0819
▁Сахар	-10.0821
▁уулзсан	-10.0823
▁хутга	-10.0823
▁Санчир	-10.0824
▁анзаарч	-10.0828
▁сум	-10.0834
▁байснаас	-10.0835
▁таалагда	-10.0837
▁бэлдэх	-10.0837
адал	-10.0838
▁хүрээний	-10.0839
▁тэртээ	-10.0839
▁энэрэн	-10.0839
▁булаа	-10.0842
▁туршлагаас	-10.0843
▁хяналт	-10.0845
лөн	-10.0846
▁тэмцлий	-10.0847
▁эртний	-10.0847
▁зүйлүүд	-10.0847
▁харьцаа	-10.0849
▁зо	-10.0851
▁өрөөний	-10.086
▁өртөг	-10.0864
▁Шведүүд	-10.0869
▁зорилготой	-10.0869
▁дүнг	-10.0872
▁хянах	-10.088
▁зэрэгцэ	-10.088
▁дүрм	-10.0883
▁нийлэх	-10.0886
▁галактик	-10.089
▁эхчүүд	-10.0891
▁больж	-10.0894
▁сэл	-10.0899
▁ухаарса	-10.0903
▁зөвлөх	-10.0903
▁хурдтай	-10.0903
▁Дээр	-10.0906
▁ёсны	-10.0915
три	-10.0918
▁хэрэгцээ	-10.0933
сар	-10.094
▁Дүү	-10.0943
▁Хэдий	-10.0948
▁Эх	-10.0949
▁явцыг	-10.0959
▁бат	-10.096
▁бүтээхэд	-10.0966
▁хүүхдүүдээ	-10.0974
▁шуудан	-10.0983
▁болсны	-10.0984
▁нэмэгдэх	-10.0985
▁на	-10.0985
c	-10.0986
▁ядуурл	-10.0997
▁Өг	-10.1003
▁хэвлэлийн	-10.1012
ист	-10.1014
▁бусадтай	-10.1015
▁үдэшлэг	-10.1017
▁ни	-10.1034
йл	-10.1042
аашаа	-10.1046
ус	-10.1048
▁энергий	-10.1051
▁үүсгэх	-10.1057
▁өгөхө	-10.1064
▁24	-10.1083
▁шалгах	-10.1087
ти	-10.109
▁өсөх	-10.1092
▁робот	-10.1093
өөд	-10.1099
▁ааш	-10.1106
▁төрөлхт	-10.1109
▁санадаг	-10.112
▁очих	-10.1139
▁байрлуул	-10.1171
▁биел	-10.1187
▁Хэ	-10.1188
▁марта	-10.1204
▁дава	-10.1212
▁хажууд	-10.1221
▁өгүүл	-10.1237
▁дүрслэ	-10.1258
▁уур	-10.1259
▁хадгала	-10.126
▁маргаан	-10.1267
▁дэмжих	-10.1279
▁хо	-10.1279
▁Ой	-10.1282
i	-10.1284
члэ	-10.1286
▁уншаа	-10.1305
▁Хариу	-10.1306
үүдийн	-10.1307
▁үйлдвэрий	-10.1312
▁хүртэлх	-10.1318
ат	-10.1342
авга	-10.1346
эргэн	-10.1361
es	-10.1364
▁идэх	-10.1369
▁тулгуурла	-10.1392
▁олгох	-10.1393
▁заава	-10.1398
▁бүхэлд	-10.1415
▁у	-10.1425
▁цонх	-10.1438
тив	-10.1473
тнууд	-10.1477
▁мууда	-10.1483
сой	-10.1492
▁машинд	-10.1495
▁харьцуулах	-10.1496
▁дуул	-10.1504
▁хэвлэ	-10.1509
▁хөрсөнд	-10.1544
▁авир	-10.1546
▁орхин	-10.1561
▁ингэсн	-10.1593
▁урса	-10.1598
вар	-10.1621
▁технолог	-10.1633
оогүй	-10.1635
▁хуваалц	-10.1644
▁нэрийг	-10.1652
▁хоолоо	-10.1661
▁өнгийн	-10.1661
▁хая	-10.168
▁шаард	-10.1683
Х	-10.1684
▁багууд	-10.1691
О	-10.1694
▁тохиолд	-10.1696
▁даалгавры	-10.171
далгүй	-10.1711
арби	-10.1714
▁хэмжи	-10.1718
▁гараар	-10.1728
▁бугуй	-10.1742
▁тэгшитгэл	-10.1765
▁бүтээн	-10.1768
снээс	-10.1774
▁арилга	-10.1787
лаас	-10.1795
▁өөрчлөхө	-10.1805
▁цэцэглэ	-10.1816
▁гэрийн	-10.1841
▁бэлдэ	-10.1847
өмөр	-10.1854
▁зэргий	-10.1869
нийхээ	-10.1877
▁зохиож	-10.1879
▁хэрэглэгч	-10.1885
▁багтаа	-10.1897
▁Дуу	-10.1898
▁хи	-10.1898
▁оро	-10.1901
▁хаалга	-10.1908
▁тогтолцоо	-10.1912
ис	-10.1918
тлээ	-10.194
И	-10.1959
▁номоо	-10.1961
▁Ийнхү	-10.198
▁бүрд	-10.1988
▁чадл	-10.1988
хоо	-10.1996
▁унд	-10.2
сал	-10.201
▁Гар	-10.2011
▁зори	-10.2023
▁нүүрстөрөгч	-10.2023
▁гайха	-10.2036
ла	-10.2047
эм	-10.2055
▁программ	-10.2062
▁бодис	-10.2078
▁нийл	-10.208
▁мэдлэгтэй	-10.2085
атай	-10.2107
аргуу	-10.212
▁тогтно	-10.212
аны	-10.2137
▁эв	-10.2144
▁хэрэгт	-10.2161
▁аваачи	-10.2168
▁халаа	-10.2172
▁үйлдл	-10.2177
ологий	-10.2184
▁тэжээ	-10.2194
гддаг	-10.2197
▁мэргэш	-10.22
▁өрнө	-10.2224
▁салхин	-10.2235
▁арьс	-10.2247
▁усаа	-10.2252
▁мэдрэхүй	-10.227
▁бүжиглэ	-10.2274
аварга	-10.2281
▁өссө	-10.2308
▁хүрт	-10.231
өрч	-10.2314
▁гэхээс	-10.2314
▁Бие	-10.2318
▁дүгнэ	-10.2318
S	-10.2329
▁нөхө	-10.2341
▁төл	-10.2348
▁шүд	-10.2357
▁офф	-10.2359
ихэвч	-10.236
▁дай	-10.2382
▁Дэ	-10.2383
▁ардчил	-10.2384
▁мухлаг	-10.2384
▁эмгэг	-10.2395
▁цөм	-10.241
▁орлого	-10.2412
цгоо	-10.2423
▁хантааз	-10.2425
▁эрдэмтэ	-10.2428
▁унта	-10.2432
бэл	-10.2433
амсар	-10.2435
▁аваач	-10.2435
▁бэлтгэ	-10.2447
▁тов	-10.2449
▁сүйр	-10.245
▁404	-10.245
луун	-10.2459
▁Ерөнхий	-10.2464
▁196	-10.2464
▁сийл	-10.2466
▁баатар	-10.2467
▁хатуу	-10.2469
▁хоцро	-10.2469
▁муруй	-10.2469
сгөл	-10.2469
▁IKEA	-10.2469
com	-10.2469
▁Австрали	-10.2469
▁Бархасбад	-10.2469
▁Бразил	-10.2469
▁Гризелда	-10.2469
▁Кассини	-10.2469
▁Компьютер	-10.2469
▁Математик	-10.2469
▁Паркер	-10.2469
▁СториКор	-10.2469
▁англи	-10.2469
▁бейсбол	-10.2469
▁гормон	-10.2469
▁зовиур	-10.2469
▁интернет	-10.2469
▁нохой	-10.2469
▁орвонгоор	-10.2469
▁слайд	-10.2469
▁тохиромжтой	-10.2469
▁транзистор	-10.2469
▁тушаал	-10.2469
▁түлш	-10.2469
▁хятад	-10.2469
▁өвөрмөц	-10.2469
▁Гриер	-10.2469
▁жимс	-10.2469
▁хэмжүүр	-10.2469
▁чадвараа	-10.2469
▁Аполо	-10.2469
▁дарамт	-10.2469
▁цэцэрлэг	-10.2469
▁Зураг	-10.247
▁гэдэс	-10.247
▁Уганда	-10.247
▁нягт	-10.247
▁өмсө	-10.247
▁зөрүү	-10.247
▁Мэри	-10.247
▁Нээлт	-10.247
▁шалгуур	-10.247
▁цуврал	-10.247
▁ханамж	-10.247
▁Охин	-10.247
▁нислэг	-10.247
▁мэргэжилтнүүд	-10.247
▁орчны	-10.247
▁хурдацтай	-10.2471
▁цент	-10.2471
▁аяга	-10.2471
▁цэнхэр	-10.2471
▁хувцс	-10.2471
▁ярилцлагы	-10.2471
▁санхүүжилт	-10.2471
▁адилтга	-10.2471
▁авъяас	-10.2471
at	-10.2472
▁айх	-10.2472
▁Интернэт	-10.2472
▁Вин	-10.2473
▁Чам	-10.2473
▁хич	-10.2474
▁таашаа	-10.2474
рош	-10.2474
▁баталгаа	-10.2474
▁суралцагч	-10.2475
▁нэвтрэх	-10.2476
▁нийтлэл	-10.2476
▁Хөгжи	-10.2476
▁Британи	-10.2476
ариун	-10.2477
▁Судалгааны	-10.2477
▁дараалал	-10.2478
▁авьяастнууд	-10.2478
▁сам	-10.2478
▁анхдагч	-10.2479
▁чада	-10.2481
▁эрэгт	-10.2482
▁захира	-10.2482
▁Санхүү	-10.2484
▁Турк	-10.2484
▁микроскоп	-10.2484
▁хуваалцаж	-10.2485
▁үзэсгэлэнтэй	-10.2487
▁Үе	-10.2487
▁хамгаалдаг	-10.2488
▁сургуулиас	-10.2489
▁оношил	-10.249
▁хавдр	-10.2492
▁тунгаа	-10.2494
▁сонгодог	-10.2495
▁аймаг	-10.2495
аз	-10.2495
▁Наталиа	-10.2496
▁хоолто	-10.2497
▁заавар	-10.2498
▁сэтгэлээ	-10.2499
▁Ардчиллы	-10.25
▁сургуулиа	-10.2501
▁айл	-10.2502
▁цэргүүд	-10.2502
ве	-10.2502
▁батлах	-10.2502
▁Баяр	-10.2505
▁Байгал	-10.2506
▁Цагдаа	-10.2506
▁гэгч	-10.2506
гдсэн	-10.251
▁хэлхээ	-10.2511
▁мэдээллээ	-10.2511
▁дээшлүүлэх	-10.2512
▁ядуурал	-10.2512
▁барах	-10.2515
▁амьтды	-10.2516
▁90-	-10.2521
▁өнцөгт	-10.2528
▁уйлдаг	-10.2528
▁цэний	-10.2531
▁хандуулах	-10.2532
▁Газар	-10.2532
▁эвгүй	-10.2535
▁анхаарах	-10.2537
▁хандлагатай	-10.254
▁Сол	-10.2542
▁үлдээх	-10.2543
▁80-	-10.2546
▁өөдөөс	-10.2557
йтс	-10.2557
▁хичээлээ	-10.2559
кот	-10.2561
▁дурын	-10.2565
▁авилга	-10.2567
▁нэгтээ	-10.2567
▁хэмжих	-10.2569
▁эмчил	-10.2571
▁барсан	-10.2577
▁сонсоо	-10.2581
▁халдварт	-10.2587
▁цусан	-10.2587
▁хана	-10.2591
▁төрүүлэх	-10.2593
▁засал	-10.2595
ет	-10.2597
▁явуулах	-10.2601
▁аваас	-10.2602
▁хачи	-10.2602
▁гаран	-10.2612
тик	-10.2612
▁тайз	-10.2614
▁уучла	-10.2616
▁дүгнэх	-10.2618
▁төрөхө	-10.2618
▁харан	-10.2622
▁хүүг	-10.2622
▁тө	-10.2629
▁шаардагда	-10.2632
▁чийдэн	-10.2634
▁эмнэлг	-10.2648
▁оруулсан	-10.2652
▁ихсэ	-10.2653
▁нэрээ	-10.2657
▁хуруу	-10.2661
▁хязгаарлагд	-10.2662
▁татгалзах	-10.2663
▁асуулга	-10.2666
▁өнгөрүүл	-10.2666
▁сэдв	-10.2669
▁тооцооло	-10.2671
▁тооцогд	-10.2678
▁үргэлжлүүлэ	-10.2683
▁сайжруулах	-10.2694
▁дуран	-10.2701
▁Газа	-10.2704
▁үзэгдэх	-10.2704
▁эрхтэй	-10.2708
▁Хүрэ	-10.2714
▁мэдэгдэх	-10.2716
▁таах	-10.2727
вчил	-10.2729
оллоо	-10.2747
▁Британий	-10.2748
▁ирээ	-10.2749
элсэн	-10.2753
▁бүрдүүлэх	-10.2757
▁эрхт	-10.277
▁эхлэн	-10.2772
▁удирд	-10.2775
▁өвчнөө	-10.2782
▁утаснууд	-10.2785
▁Хүү	-10.2788
▁ойрх	-10.2808
▁тат	-10.2809
▁сонирхо	-10.2811
▁хэсгийн	-10.2832
▁үлд	-10.2832
зи	-10.2834
▁Эхэн	-10.2837
▁электрон	-10.2842
▁сурагчдын	-10.2847
▁өгөхгүй	-10.2854
▁ээжийн	-10.2867
▁тустай	-10.2872
▁Тани	-10.2874
ирч	-10.2898
ангаар	-10.2906
▁гүнд	-10.2927
▁Р	-10.2932
▁хүчирхийлл	-10.2932
▁таньж	-10.294
▁Венус	-10.2942
чдийн	-10.2966
▁хуул	-10.2974
▁амьдралаар	-10.2986
огдсон	-10.3005
▁шатан	-10.3009
▁төгсө	-10.3024
агийн	-10.3032
,000	-10.3034
ит	-10.3036
▁судлал	-10.304
угаа	-10.3043
▁Америкчууд	-10.3044
▁ялгаруул	-10.3045
▁хүчинд	-10.3048
▁загвары	-10.306
▁Ол	-10.3072
▁эргүүлэ	-10.3073
▁Ха	-10.3077
▁саа	-10.3077
▁Гу	-10.3084
▁нараас	-10.3099
▁байгаач	-10.3107
▁хөдлөх	-10.3117
▁хөв	-10.3119
r	-10.3137
▁оролд	-10.3137
▁хүлээх	-10.314
▁эхийн	-10.3148
▁үгэнд	-10.3161
▁авахын	-10.3163
▁эхэнд	-10.3171
▁дарах	-10.3177
▁нэгтгэх	-10.3194
▁олохоор	-10.3205
▁ес	-10.3211
▁тоглоомы	-10.3216
▁15-	-10.3216
▁1.	-10.3234
▁хэлэхгүй	-10.324
ассе	-10.3242
Саад	-10.3244
▁Стресс	-10.3246
▁гараас	-10.3249
гчдийн	-10.3274
▁Ажл	-10.3276
сноор	-10.3276
эндээ	-10.3285
▁төм	-10.3304
▁хото	-10.3306
▁даруу	-10.3307
▁тэн	-10.3322
▁Японы	-10.3331
▁хамгаал	-10.3357
▁туршилтаар	-10.3362
▁алдагд	-10.3366
▁төрүүл	-10.3371
▁сургалт	-10.3378
▁март	-10.3378
▁хэвлэгч	-10.338
▁тутамд	-10.3388
▁Ин	-10.3393
▁T	-10.3405
▁Дайн	-10.3409
▁өөрсдийнхөө	-10.343
сдийн	-10.3434
▁болго	-10.3435
▁ирээдүйг	-10.3443
▁Хувь	-10.3506
рсан	-10.3509
дэх	-10.3519
има	-10.3524
-7	-10.3535
▁үс	-10.3541
▁ширээний	-10.355
ахаар	-10.3556
уудаас	-10.3561
▁нур	-10.3596
уурай	-10.3597
▁түүхэн	-10.3609
▁мөрий	-10.3625
асан	-10.3642
▁Дай	-10.3643
хөд	-10.3647
▁цогц	-10.3648
уудтай	-10.3649
▁аавууд	-10.3667
▁суурилуул	-10.3667
үүр	-10.3685
▁бүтээгд	-10.3706
хэмжээст	-10.3709
▁кинон	-10.3749
▁экстроверт	-10.3749
▁хөндий	-10.3751
▁оролцогч	-10.376
re	-10.3782
эвэр	-10.3788
▁ёстойг	-10.3788
▁санд	-10.3788
▁тор	-10.3794
▁багт	-10.3796
▁эргүүл	-10.3797
▁зуур	-10.38
гт	-10.3813
▁компаниа	-10.3855
▁Эцэ	-10.3885
ль	-10.3904
рго	-10.391
рэй	-10.392
лтийн	-10.3937
▁ерөнхийд	-10.394
▁Нүүрс	-10.3941
лаач	-10.397
▁Ар	-10.3993
гдэх	-10.4003
la	-10.4006
▁карт	-10.401
ури	-10.4027
▁хичээлийн	-10.4031
▁нэгэнд	-10.4035
▁таамагла	-10.4056
▁эндэгдлий	-10.4058
Ө	-10.4058
▁шал	-10.4095
▁эргэлзэ	-10.4106
▁хоорондо	-10.4116
үүлэгч	-10.412
▁татгалз	-10.4123
▁Мо	-10.4129
▁алд	-10.4133
элтэй	-10.4142
өөх	-10.4145
T	-10.4151
гөөр	-10.4164
▁шав	-10.4171
▁Зу	-10.4197
▁Фр	-10.4199
▁тулгуур	-10.4208
000	-10.4218
▁цэнэглэ	-10.4218
▁судал	-10.4222
▁сайжруул	-10.4232
▁до	-10.4233
▁явагд	-10.4235
▁Пи	-10.4242
▁мартах	-10.4266
▁дэлгэр	-10.427
▁алт	-10.4272
▁чийдэнг	-10.4273
▁суурил	-10.4273
▁хөдөлгө	-10.4274
К	-10.4279
▁Европт	-10.4282
▁Кени	-10.4288
▁орил	-10.4289
ци	-10.4292
▁стратеги	-10.4296
мс	-10.4308
▁нэмэгдсэ	-10.4321
Т	-10.4323
E	-10.433
айлс	-10.4339
▁салга	-10.434
кс	-10.4351
▁жаргалы	-10.4362
▁45	-10.4371
лер	-10.4377
▁тусгаар	-10.4377
ви	-10.4379
▁таамаг	-10.4388
▁Лу	-10.4393
дэнэ	-10.4408
▁айдс	-10.4411
▁дэлгэ	-10.4412
▁тусгаарла	-10.4413
▁ха	-10.4414
хаар	-10.4415
▁гадуур	-10.442
угар	-10.4427
▁суут	-10.4436
▁Түүх	-10.4437
▁хата	-10.4439
▁шүтэ	-10.4447
▁тодруул	-10.4449
▁хөтлө	-10.4449
▁21	-10.445
үсэл	-10.446
▁ойлгуул	-10.4461
m	-10.4462
▁хуваарила	-10.4464
▁зөн	-10.4464
ваан	-10.4464
▁тур	-10.4465
▁27	-10.4466
L	-10.4469
▁шаш	-10.4469
онгос	-10.4469
▁Альцхаймер	-10.4469
▁Гринланд	-10.4469
▁Ирээдүй	-10.4469
▁Триптек	-10.4469
▁Тэхлээр	-10.4469
▁Юм	-10.4469
▁зуслан	-10.4469
▁плутониум	-10.4469
▁секс	-10.4469
▁ухагдахуун	-10.4469
▁хомсдол	-10.4469
▁хүндэтгэ	-10.4469
▁хөтөч	-10.4469
▁Лондон	-10.4469
▁Цахилгаан	-10.4469
▁геометр	-10.4469
▁угсрах	-10.4469
▁давамгайл	-10.4469
▁түлхэ	-10.4469
▁Жастин	-10.4469
▁Сонирх	-10.4469
▁виртуал	-10.4469
▁нялх	-10.4469
мпанит	-10.4469
▁Судан	-10.4469
▁айдас	-10.4469
▁өгөгдлий	-10.4469
▁Даваа	-10.447
▁умвэлт	-10.447
ахууны	-10.447
▁ДНБ	-10.447
it	-10.447
▁тэтгэвэрт	-10.447
or	-10.447
▁Израйл	-10.447
▁залбир	-10.447
▁сонгуулий	-10.447
▁тогтмол	-10.447
▁хугал	-10.447
▁Атомы	-10.447
▁орчмы	-10.447
▁автоматжуулалт	-10.447
▁дийлэнх	-10.447
▁агуулхууд	-10.447
▁эрэлхийлэгч	-10.447
▁хураагуур	-10.447
▁Исланд	-10.447
▁байршл	-10.447
▁хөгши	-10.447
▁фото	-10.447
▁зурхай	-10.447
▁хурц	-10.447
▁хэлтэс	-10.4471
▁бүрдүүлэгч	-10.4471
▁дижи	-10.4471
▁зардлы	-10.4471
▁зорь	-10.4471
трик	-10.4471
▁тамхин	-10.4471
▁чармайлт	-10.4471
▁Бүтээл	-10.4471
▁Sa	-10.4471
▁загас	-10.4471
▁давирхай	-10.4471
▁явдлууд	-10.4472
▁эелд	-10.4472
▁сайжир	-10.4472
▁хором	-10.4472
▁баатарлаг	-10.4472
▁Роу	-10.4473
▁найруул	-10.4473
▁бүхнээ	-10.4473
▁зарчм	-10.4474
▁зураглал	-10.4474
▁мэдэхүй	-10.4474
пам	-10.4474
▁бүлгүүд	-10.4475
▁нүх	-10.4475
▁хурал	-10.4475
▁Тун	-10.4475
▁сурагчдаас	-10.4475
▁хуучны	-10.4476
▁Чуха	-10.4476
▁таши	-10.4477
▁үнэлэх	-10.4477
▁хавтан	-10.4477
▁Жэй	-10.4478
▁зөвшөөрөл	-10.4478
ay	-10.4479
▁бодоогүй	-10.4479
▁цээж	-10.4479
ьё	-10.4479
▁хүртэх	-10.448
▁өрхүүд	-10.4481
▁зургууд	-10.4481
▁Дис	-10.4481
▁олчих	-10.4482
▁тэсрэлт	-10.4482
▁бөх	-10.4483
▁цэвэрхэн	-10.4483
мсо	-10.4483
▁институт	-10.4484
▁тааварла	-10.4484
▁морь	-10.4485
▁аяллын	-10.4486
▁хоригло	-10.4486
▁асуултанд	-10.4486
▁хөвгүүд	-10.4487
▁самбар	-10.4487
▁үзлээ	-10.4489
▁Байнг	-10.449
▁21-	-10.4491
▁даралт	-10.4491
▁Жер	-10.4491
▁хувцас	-10.4491
▁дэвшил	-10.4493
▁одод	-10.4494
▁баяжуул	-10.4494
▁нийтлэг	-10.4494
▁гунигтай	-10.4494
▁тогтоосон	-10.4495
▁номнууд	-10.4496
▁23	-10.4497
▁яр	-10.4498
▁тэсрэ	-10.4499
▁эсүүд	-10.4502
▁Де	-10.4505
▁огцо	-10.4506
▁хөнөөл	-10.4509
▁нуруун	-10.451
▁иргэнш	-10.4511
▁ойлголтоос	-10.4511
▁Хур	-10.4514
▁илрэ	-10.4517
▁дурдсан	-10.4518
▁шүүмжлэ	-10.4518
▁томчууд	-10.4519
▁Эргэ	-10.4522
▁бүтэлгүйтэх	-10.4523
▁нураа	-10.4523
▁тасар	-10.4524
▁хантаазан	-10.4525
лаад	-10.4529
нес	-10.453
▁батал	-10.4531
▁зугтах	-10.4537
▁дот	-10.4538
алсан	-10.4539
▁таларха	-10.4544
▁Кали	-10.4546
▁буурч	-10.4549
▁Нам	-10.455
▁шилжих	-10.4551
▁танилцуулах	-10.4558
▁хураа	-10.456
▁Сэтгэл	-10.4563
▁шийддэг	-10.4564
▁минутад	-10.4566
▁өртө	-10.4566
▁сэтгэх	-10.4569
▁Дорн	-10.4571
▁Бра	-10.4578
▁Урт	-10.4581
▁уян	-10.4585
▁харгалза	-10.4585
▁30-	-10.4586
▁цаашаа	-10.4588
▁татгалза	-10.4588
▁цуглуула	-10.4589
▁гэрлэх	-10.459
▁соль	-10.4593
▁төвлөрөх	-10.4603
▁40-	-10.4603
▁илч	-10.4604
▁дурдах	-10.4604
▁нийцэх	-10.4604
▁ква	-10.4612
мийн	-10.4617
▁тооцоо	-10.462
▁оношло	-10.4624
▁мэдрэхүйн	-10.4625
▁унагаа	-10.4626
▁шийдвэрлэх	-10.4631
аймаар	-10.4634
▁нэмэр	-10.4638
▁тэндхий	-10.464
▁дэлгүүрүүд	-10.4648
▁дуусгах	-10.4649
гуул	-10.4649
▁хэвлэгд	-10.465
▁асга	-10.4654
▁туршилтад	-10.4656
▁Бер	-10.4665
▁эхлэхэд	-10.4669
▁Ханан	-10.4676
▁зайлах	-10.4685
▁эхнийх	-10.4699
▁чиглүүлэ	-10.4702
▁хэвлэх	-10.4703
▁дурд	-10.4705
▁болол	-10.4706
▁төсөөлөө	-10.4708
▁угаа	-10.4715
▁хугацааг	-10.4717
▁мөрөөдл	-10.4719
уд	-10.472
▁халдвартай	-10.4721
лэлийн	-10.4722
▁194	-10.4724
эрэй	-10.4731
▁тавьдаг	-10.4737
▁тоглолт	-10.4752
▁хүндрэл	-10.4756
▁Сир	-10.4758
▁хязгааргүй	-10.4766
үүлсэн	-10.4767
▁бүхнээс	-10.4776
▁төслийн	-10.4779
▁Цаас	-10.4779
үлбэ	-10.478
▁үзэсгэлэнг	-10.4785
▁ойлгоо	-10.4787
▁урьд	-10.4793
ИЙ	-10.4797
▁сэргээх	-10.481
▁олны	-10.4822
▁хүүхдүүдтэй	-10.4823
▁чих	-10.4833
▁хайрла	-10.4839
▁охины	-10.4844
эхээс	-10.4845
ли	-10.4847
ма	-10.4853
▁хайлт	-10.4859
▁заналхийлэ	-10.4873
▁үүргээ	-10.4876
▁түгээх	-10.4878
▁зардаг	-10.4885
ut	-10.4899
▁үеийнх	-10.4901
тнүүд	-10.4911
▁загварчла	-10.4913
хоос	-10.492
▁жишээг	-10.4923
▁хийг	-10.4926
▁цуглуулах	-10.4932
▁Аа	-10.4935
▁бизнесийн	-10.4946
▁зави	-10.4957
▁төсөөлөх	-10.4975
▁авт	-10.4986
▁харилцах	-10.5
▁хүндтэй	-10.5011
▁салбарууд	-10.5016
▁хоолло	-10.5017
ел	-10.5021
▁ялгааг	-10.5033
▁худалдаа	-10.5037
▁өсөлтө	-10.5044
▁уха	-10.5044
үүдтэй	-10.505
▁нүдэн	-10.5051
▁бууруулах	-10.5053
▁Зү	-10.5064
▁эрэ	-10.5068
▁мал	-10.5068
▁ингэх	-10.5078
▁нэрлэх	-10.5083
▁хага	-10.5083
▁тог	-10.5088
▁архи	-10.5092
▁боловсруула	-10.5094
сай	-10.5106
▁төвөө	-10.5119
▁хичээх	-10.5125
эгт	-10.5126
▁спорт	-10.5133
▁эсэргүүцэ	-10.5143
▁хувирга	-10.5149
дан	-10.5151
▁бил	-10.5164
▁бичлэгүүд	-10.5175
▁даяарчла	-10.5183
ом	-10.5184
▁талт	-10.519
ерийн	-10.5208
▁илэрхийлэ	-10.5213
▁хөдөлгөсө	-10.5238
▁тэмцсэ	-10.5241
▁хандлаг	-10.5243
l	-10.5251
▁Дан	-10.5262
нисч	-10.5274
▁номонд	-10.5279
▁хөнд	-10.529
шл	-10.5308
▁нээгд	-10.5309
ход	-10.5327
▁Ри	-10.5356
▁Охид	-10.5384
рөө	-10.5402
▁болдоггүй	-10.541
▁Нарий	-10.5412
▁холбогдсо	-10.5424
▁зориулагд	-10.5434
алгаа	-10.5445
▁томруула	-10.5464
▁өвчтөний	-10.5471
▁орши	-10.5477
▁толгойд	-10.548
▁судалгааг	-10.5481
оны	-10.5481
▁байгаагүйгээр	-10.5493
▁хилэн	-10.5531
▁үгийн	-10.5551
▁зарцуулж	-10.5555
▁өргө	-10.5557
▁зун	-10.5579
оп	-10.558
▁хүнс	-10.5592
▁тахал	-10.5614
▁сэргэ	-10.5618
▁гарт	-10.5621
ино	-10.5629
ингийн	-10.5629
▁зохицуул	-10.5642
▁утг	-10.5651
гоны	-10.5651
хмад	-10.5661
▁мөхө	-10.5671
▁талууд	-10.5676
▁тутам	-10.5684
▁Сары	-10.5691
▁хама	-10.5699
▁өргөнө	-10.5714
▁буруугаа	-10.5742
▁п	-10.5755
▁зайд	-10.5758
▁Афганистаны	-10.5773
▁өвчтөн	-10.5793
▁дамж	-10.58
▁харих	-10.5809
▁Салхи	-10.5814
▁үндэст	-10.5822
хай	-10.5843
▁төвд	-10.5849
▁дарс	-10.5857
▁албан	-10.5859
▁хэмжээг	-10.5878
▁мэ	-10.5887
▁түүхэнд	-10.5889
▁асуудл	-10.5945
▁хоёул	-10.5951
▁хийл	-10.5952
▁Уда	-10.5956
▁хөдлөлий	-10.5963
▁хүлээгээ	-10.599
▁орчуул	-10.5998
▁Сар	-10.6003
en	-10.602
▁байшин	-10.6036
▁олд	-10.6038
нөөр	-10.6042
▁Ко	-10.6055
раад	-10.6061
▁тар	-10.6119
очлоо	-10.6127
▁зохицуула	-10.6146
▁дэвшүүлэ	-10.615
▁хэрэгжүүл	-10.6161
▁мэдээгээ	-10.6179
ко	-10.6184
▁Малала	-10.6192
▁модон	-10.6193
▁ойн	-10.6194
▁хуудс	-10.6202
ст	-10.6204
▁хязгаары	-10.6208
▁хөгж	-10.6212
ee	-10.6213
ахгүй	-10.6225
▁Ру	-10.6235
▁оргил	-10.6235
▁Зас	-10.6247
▁бишээ	-10.6247
▁Бусд	-10.6268
рон	-10.6271
▁хайрцг	-10.6277
илж	-10.6278
▁сэрээ	-10.6282
▁гүүр	-10.6291
▁Мэдлэгий	-10.6293
▁хуур	-10.6298
▁хонхорхой	-10.6313
▁боломжууд	-10.6339
▁Орч	-10.6349
▁түү	-10.6362
▁Үү	-10.6365
▁алх	-10.6373
▁Эд	-10.6374
▁нисгэгч	-10.6375
▁Мэдэ	-10.6379
▁Ло	-10.6395
ип	-10.6398
▁зурга	-10.6403
▁Эл	-10.6406
үүдээс	-10.6419
▁о	-10.6422
▁оюуны	-10.6435
угтсан	-10.6445
▁Мод	-10.6451
үүлэн	-10.6461
▁Эми	-10.6461
уухан	-10.6465
лтын	-10.6483
им	-10.6484
▁төрөлх	-10.6491
▁гут	-10.6492
маг	-10.6499
▁тоглогч	-10.6502
45	-10.6506
▁бичгий	-10.6522
▁Те	-10.6527
▁гадарга	-10.6537
▁үргэлжлүүл	-10.6539
▁дайр	-10.6546
▁илтгэ	-10.655
▁үзвэ	-10.6561
гуй	-10.6571
▁ялгар	-10.6579
арын	-10.6594
галт	-10.6607
ик	-10.6612
ранд	-10.6622
мж	-10.6649
ины	-10.6652
уй	-10.6664
▁террорист	-10.6668
▁өрт	-10.6681
▁урагш	-10.6687
▁хотоо	-10.6689
▁даса	-10.6693
▁чиглүүл	-10.6694
▁мэдээлл	-10.6711
▁хийлгэ	-10.673
▁байгаагаас	-10.6733
▁суралц	-10.6735
▁Сири	-10.6743
өсөө	-10.6762
▁ноц	-10.6786
▁өдрий	-10.6787
▁дэвшилт	-10.6788
▁зөрчил	-10.6789
▁кофе	-10.6793
▁уучлал	-10.6799
энхэр	-10.6803
▁бохир	-10.6806
▁үгүйсгэ	-10.6809
▁түүхээ	-10.681
▁Ла	-10.681
▁зөрч	-10.6811
мин	-10.6818
▁эргэлз	-10.682
лал	-10.6827
▁биеэ	-10.6831
П	-10.6835
▁Түр	-10.6837
▁тогто	-10.6844
▁таниул	-10.6849
▁зүтгэ	-10.685
▁бололцоо	-10.6852
▁Испани	-10.6854
▁орш	-10.6855
▁хөлөө	-10.686
▁хэдийг	-10.6875
▁сав	-10.6875
▁Ша	-10.6891
▁өнгөрч	-10.6895
▁давта	-10.6897
огүй	-10.6898
▁царай	-10.6902
▁шийдвэрлэ	-10.6906
▁очин	-10.6908
▁сүлжээг	-10.6911
▁Оросы	-10.6919
▁төгсгө	-10.6919
сѳн	-10.6921
▁Бая	-10.6926
▁Ганц	-10.6934
▁эцэс	-10.6935
мба	-10.6937
▁микро	-10.6937
▁Залуу	-10.6937
▁Хүүхдээ	-10.6937
си	-10.6941
▁харьца	-10.6944
▁зурвас	-10.6946
▁нийлэ	-10.6947
▁зор	-10.6949
▁Сонго	-10.6964
▁судлаа	-10.6964
▁дасгал	-10.6964
▁Эмэгтэй	-10.6964
▁хаса	-10.6966
▁жагсаал	-10.6967
▁уйтгар	-10.6967
▁эрэлхийл	-10.6968
▁хавь	-10.6969
▁28	-10.6969
▁архитектор	-10.6969
▁профессор	-10.6969
оцорсон	-10.6969
▁Асуудлы	-10.6969
▁Асуулт	-10.6969
▁Аюулгүй	-10.6969
▁Вашингтон	-10.6969
▁Камбож	-10.6969
▁Компани	-10.6969
▁Курдистан	-10.6969
▁Леонард	-10.6969
▁Ошей	-10.6969
▁Хуучны	-10.6969
▁Шагнал	-10.6969
▁Энкеладус	-10.6969
▁баатрууд	-10.6969
▁байгалиас	-10.6969
▁биомасс	-10.6969
▁бѳгѳѳд	-10.6969
▁бөмбөлгүүд	-10.6969
▁вэбсайт	-10.6969
▁инкубатор	-10.6969
▁нэвтрэлц	-10.6969
▁процесс	-10.6969
▁таблет	-10.6969
▁түвшний	-10.6969
▁философи	-10.6969
▁хүзүү	-10.6969
▁цүнх	-10.6969
▁шоколад	-10.6969
net	-10.6969
▁Бизнес	-10.6969
▁Зорилго	-10.6969
▁Зургаа	-10.6969
▁Мэдрэмж	-10.6969
▁ѳг	-10.6969
▁ѳм	-10.6969
▁өгөгдөл	-10.6969
▁өдрүүдэ	-10.6969
▁өөрсдөд	-10.6969
▁Брутс	-10.6969
▁ХДХВ	-10.6969
▁айраг	-10.6969
▁герман	-10.6969
▁диплом	-10.6969
▁бүрэлдэхүүн	-10.6969
▁ойшоо	-10.6969
▁нугал	-10.6969
▁тэврэ	-10.6969
▁Кэрол	-10.697
▁хашгир	-10.697
▁Египет	-10.697
▁Зүрх	-10.697
▁Нийгэм	-10.697
▁дуулгавар	-10.697
▁эрхлэгч	-10.697
▁Жижиг	-10.697
▁килотонн	-10.697
▁улирал	-10.697
ari	-10.697
▁Курдчууд	-10.697
▁Тэнгис	-10.697
▁Эрчүүд	-10.697
удрага	-10.697
▁протон	-10.697
▁хатгамл	-10.697
▁шүтлэг	-10.697
▁жигтэй	-10.697
▁орооцолд	-10.697
▁Зохиолч	-10.697
▁Бодол	-10.697
▁бодлогы	-10.697
▁уралдаан	-10.697
▁хатуужил	-10.697
▁нанди	-10.697
▁Клейн	-10.697
▁сэтгэхүй	-10.697
▁нийлбэр	-10.697
▁мэдрүүлэх	-10.697
▁дүрвэгсэд	-10.697
▁ирмэг	-10.697
▁сунга	-10.697
▁Хуудас	-10.697
окк	-10.697
▁мөргөлдөөн	-10.697
▁Фрейтиз	-10.697
▁инээлдэ	-10.697
▁Нийт	-10.697
▁алим	-10.6971
▁Ноё	-10.6971
▁Шанхай	-10.6971
оглог	-10.6971
▁амраг	-10.6971
▁удирдлагы	-10.6971
▁захида	-10.6971
▁эрэгтэйчүүд	-10.6971
▁хэлэлцүүлэг	-10.6971
▁Танай	-10.6971
▁гутал	-10.6971
▁зардлаа	-10.6972
are	-10.6972
▁Банк	-10.6972
▁өгүүлэх	-10.6972
▁Тайз	-10.6972
▁өвддөг	-10.6973
▁зуршил	-10.6973
▁Карачи	-10.6973
▁хэвтэ	-10.6973
▁Огт	-10.6973
▁хальсан	-10.6973
▁хөнгө	-10.6974
▁Гэрэл	-10.6974
▁санамж	-10.6974
▁сэдэл	-10.6974
▁эхлүүлэх	-10.6974
▁Эмнэл	-10.6974
▁бүртгэгдсэн	-10.6974
▁Мөс	-10.6974
▁Утас	-10.6974
▁эргэлзээ	-10.6975
▁Ге	-10.6975
▁Пик	-10.6975
▁Дараачийн	-10.6976
▁гэцгээ	-10.6976
▁орлуулах	-10.6976
▁хөлөг	-10.6976
gg	-10.6976
▁сарнай	-10.6976
▁ням	-10.6976
▁андуур	-10.6976
▁мартчих	-10.6976
▁өмч	-10.6976
▁солих	-10.6977
▁модноос	-10.6977
▁оймс	-10.6977
бол	-10.6977
▁анхн	-10.6977
▁Архи	-10.6977
▁Төгсгө	-10.6977
▁дасгалжуул	-10.6978
▁анир	-10.6978
▁мотор	-10.6978
▁шүүмжил	-10.6978
▁хавт	-10.6978
▁Нэгдүгээр	-10.6978
▁зөвлөгч	-10.6978
▁Далай	-10.6978
▁хандивла	-10.6979
▁Кин	-10.6979
▁ангилал	-10.698
▁үйлчилдэг	-10.698
▁орлох	-10.698
фер	-10.698
▁ойлгуулах	-10.6981
▁үзээрэй	-10.6981
▁асрагч	-10.6981
▁тохиолдо	-10.6981
▁зөнгөөр	-10.6981
▁агуулга	-10.6982
▁шилжилт	-10.6982
▁эрс	-10.6982
▁тахианууд	-10.6982
▁Суперс	-10.6982
▁Амар	-10.6983
▁оргилуур	-10.6984
▁олдсон	-10.6984
▁судас	-10.6984
▁нууцлал	-10.6985
▁тариа	-10.6985
▁ядуучууд	-10.6986
▁задар	-10.6986
▁эрхэм	-10.6986
▁гэрлэлт	-10.6987
▁бөөмс	-10.6987
▁Тосгон	-10.6987
▁үзүүр	-10.6988
цгөө	-10.6988
▁орц	-10.6989
одорхой	-10.699
▁шинэчлэх	-10.699
▁өрх	-10.6991
▁хүсээгүй	-10.6991
▁шаналал	-10.6991
▁өшөө	-10.6993
▁ирэн	-10.6993
▁гэсний	-10.6995
▁хугар	-10.6995
▁байгуула	-10.6998
▁нийлүүлэ	-10.6998
▁авъя	-10.6999
▁дөхө	-10.7
▁тухтай	-10.7001
▁тайлагда	-10.7002
▁авчрах	-10.7003
▁Эзэн	-10.7003
▁хөтлөгд	-10.7004
▁Зуу	-10.7004
▁хавч	-10.7004
▁хосууд	-10.7005
▁тойрноо	-10.7006
▁нэмэгд	-10.7006
▁мессэж	-10.7006
▁ээлж	-10.7008
ууц	-10.7009
▁авьяастан	-10.7009
▁хэлсний	-10.7011
▁жиши	-10.7011
▁бүртгэл	-10.7012
▁мэдрэгдэ	-10.7012
цикл	-10.7014
▁авсаар	-10.7015
▁шалгар	-10.7015
▁хөөртэй	-10.7016
▁Эрүү	-10.7017
▁олноор	-10.7022
араас	-10.7022
руулж	-10.7025
▁асуувал	-10.7025
▁төгсөх	-10.7025
▁задрах	-10.7026
▁будаа	-10.7027
▁чигт	-10.7028
▁мэдээд	-10.7028
▁эсс	-10.7029
нова	-10.703
ангуут	-10.703
▁ажиллуулах	-10.7031
▁засагт	-10.7031
пет	-10.7033
магц	-10.7033
стан	-10.7034
▁Эмч	-10.7034
▁хэрэгцээтэй	-10.7035
▁олгодог	-10.7035
▁америк	-10.7035
▁эсэргүүцлий	-10.7036
▁Бай	-10.7037
▁ѳѳрсд	-10.7037
▁бүтэлгүйтэл	-10.7039
▁хэллэг	-10.7039
▁авчих	-10.7041
▁Санаа	-10.7042
▁эрхэ	-10.7042
▁үнэмшил	-10.7043
▁зовдог	-10.7043
▁болгоод	-10.7048
▁зогсоогоо	-10.7052
▁хомо	-10.7053
▁үзүүлнэ	-10.7054
▁цар	-10.7054
▁бүтэцтэй	-10.7056
нөөн	-10.7059
▁хөөр	-10.706
▁агши	-10.7063
▁утсан	-10.707
жиж	-10.707
▁эхнээс	-10.7072
▁холдох	-10.7073
тсийн	-10.7074
▁хуваалцдаг	-10.7076
арвал	-10.7079
▁Ван	-10.708
▁Өөрсдий	-10.7081
▁зуухан	-10.7082
стер	-10.7084
▁Ус	-10.7085
▁эмгэгийг	-10.7088
▁зүтгэл	-10.7094
▁тавилга	-10.7095
оник	-10.7096
▁тохиох	-10.7099
▁зохиолы	-10.7102
▁элементүүд	-10.7105
▁мухлагууд	-10.7105
▁дуса	-10.711
▁илгээх	-10.7117
▁гэл	-10.7117
▁хязгаарт	-10.7118
▁8-	-10.7118
тар	-10.7119
▁номууд	-10.712
▁юугаар	-10.7121
▁сангууд	-10.7124
▁50-	-10.7126
▁өвлий	-10.7126
вөр	-10.7127
▁байснаар	-10.7127
▁Итгэ	-10.7128
лууд	-10.7128
▁роботууд	-10.7129
▁хайрцган	-10.713
▁зал	-10.713
▁ингэдэг	-10.7132
▁Шин	-10.7132
▁үгүйсгэх	-10.7132
▁хөвө	-10.7133
▁салаа	-10.7135
▁зөрчилдө	-10.7137
алба	-10.7145
▁амжи	-10.7146
▁санагдуул	-10.7146
▁цацах	-10.7146
▁бүтц	-10.7147
▁сурдаг	-10.7148
▁биелүүл	-10.7148
▁харва	-10.7165
▁тохиолдлоо	-10.717
▁нээлтийн	-10.7173
▁хайрлах	-10.7175
▁удаагийн	-10.7175
өнх	-10.7182
▁орчих	-10.7184
▁гай	-10.7185
▁иддэг	-10.7189
▁амт	-10.7189
▁нийтэлсн	-10.7194
▁хөгжимчи	-10.7198
▁хүсэлтэй	-10.7198
▁r	-10.72
▁анхан	-10.7212
▁хүрээгүй	-10.7216
▁тээр	-10.7217
гоод	-10.722
ni	-10.7221
▁ѳѳрийн	-10.7234
▁түрүүл	-10.7239
▁шилэн	-10.7249
▁Пин	-10.7252
▁унтах	-10.7252
▁Тоон	-10.7253
▁хураан	-10.7254
▁Балканы	-10.7262
анги	-10.7264
▁кинонууд	-10.7267
гоц	-10.7269
▁зарла	-10.7276
▁дэлгэрүүл	-10.7288
члэг	-10.7291
▁хулганаа	-10.7293
олцоогоо	-10.7298
▁тосыг	-10.7298
▁гуйх	-10.7301
ma	-10.731
▁Кэ	-10.7311
шлий	-10.7317
▁өөрчлөхгүй	-10.7318
▁тэгдэг	-10.7321
▁замууд	-10.7322
▁үүсэл	-10.7325
▁хандуул	-10.7327
▁зод	-10.7328
ol	-10.7333
▁дууг	-10.7334
▁арьст	-10.7338
▁зөр	-10.7341
▁Гл	-10.7341
▁Иймэ	-10.7343
▁гэгээн	-10.7348
▁ухаанч	-10.7359
▁гүйлгэ	-10.7368
▁цэвэрлэ	-10.7368
ульда	-10.7369
▁гадарг	-10.737
▁танигд	-10.7371
▁тэмдэглэх	-10.7371
▁Хүмүүст	-10.7373
▁тэмүүлл	-10.7373
▁цалингаа	-10.7374
▁эрмэлзэ	-10.7384
▁бичээ	-10.7392
▁32	-10.7399
▁Хоёрдугаар	-10.7407
▁амьдралтай	-10.7408
имал	-10.7409
ент	-10.7414
▁амьдра	-10.7422
▁Шал	-10.7435
▁технологио	-10.744
▁судалгаанууд	-10.7446
су	-10.745
▁Ажилла	-10.7452
шин	-10.746
эгдэ	-10.7463
▁өгүүлбэр	-10.7466
▁мэргэши	-10.7473
▁гутар	-10.7475
▁турших	-10.7475
үрэм	-10.748
лдсэн	-10.7482
▁Мэд	-10.7492
▁Европа	-10.7496
▁үйлдлээ	-10.7497
▁амьт	-10.7498
▁өвдөг	-10.751
▁давах	-10.7512
▁одды	-10.7515
▁найзын	-10.7519
▁пуужинг	-10.7523
▁үзүүлэн	-10.7527
▁шилж	-10.7529
лэдэг	-10.753
▁хүсэлт	-10.7531
▁билэг	-10.7532
▁өндөрт	-10.7544
▁дүүрг	-10.7548
▁шалгалтууд	-10.755
▁Бар	-10.7553
▁зураа	-10.7556
вь	-10.7558
▁нөхөдтэй	-10.7564
▁эргэлзэх	-10.757
▁барсн	-10.758
▁мэргэ	-10.7585
ра	-10.7588
▁тооцооллоо	-10.759
▁бариа	-10.7594
уулга	-10.7606
▁тулгарах	-10.7611
▁ууры	-10.763
▁Нэ	-10.7649
▁төрх	-10.7653
дрийн	-10.7654
▁Го	-10.7693
▁Ор	-10.7697
оки	-10.7698
▁хийхээ	-10.7702
ион	-10.7704
▁төлбөрөө	-10.7705
ийнхөө	-10.7709
10	-10.7711
▁талх	-10.7722
al	-10.773
▁залууг	-10.7738
▁ара	-10.7739
▁зогсоод	-10.7748
▁ажиглах	-10.7753
▁тохиолдлы	-10.7758
▁илүүд	-10.7777
▁Аан	-10.7777
▁сурвалжла	-10.7794
▁цалинг	-10.78
▁үрж	-10.7806
рь	-10.7817
▁Малалаг	-10.7819
▁хийн	-10.7822
▁оргилд	-10.7822
▁Оролцогч	-10.7825
▁модонд	-10.7827
▁санг	-10.7844
▁ухуулг	-10.7847
мээ	-10.7849
изи	-10.785
▁Тэрний	-10.7851
▁хөлд	-10.7859
дер	-10.7859
дүгээр	-10.786
олдог	-10.786
▁дорд	-10.7878
шээ	-10.7888
▁сэтгүүлчд	-10.789
энгүй	-10.7907
▁танилцах	-10.7912
ту	-10.7918
▁таараа	-10.7919
▁дүрвэ	-10.7919
▁лабораторид	-10.794
▁Алт	-10.7943
▁орчуулга	-10.7954
лсан	-10.7954
алтан	-10.7983
руулах	-10.7986
▁Эв	-10.799
▁зэрг	-10.7992
▁эмчилгээг	-10.7992
▁сонгогд	-10.7996
үй	-10.7998
хээс	-10.8002
▁байшинг	-10.8005
▁аяла	-10.8006
▁дамжлаг	-10.8006
▁устгагч	-10.8012
▁бүтээмжий	-10.8033
▁нүднийх	-10.8039
ап	-10.8055
улмаар	-10.8057
▁тэгэхэ	-10.8063
шийн	-10.8064
▁тусла	-10.8072
▁уриала	-10.8074
▁ашгий	-10.8082
▁стандарт	-10.8086
▁бари	-10.8086
▁Же	-10.8087
▁гадаргууг	-10.8137
▁Өдөрт	-10.8164
▁25-	-10.8173
жин	-10.8177
▁онолоо	-10.8224
эгдсэн	-10.8238
▁Тус	-10.8245
го	-10.8249
▁холи	-10.8257
ов	-10.8264
▁байгууллагаа	-10.8265
омт	-10.8286
▁байлда	-10.8311
▁Масаг	-10.8318
▁хичээлд	-10.8322
▁хувин	-10.8325
▁цагдааг	-10.8405
▁Яаха	-10.8426
▁Брун	-10.8431
▁Он	-10.8462
▁хэргийн	-10.8464
▁авиаг	-10.847
ейт	-10.8483
▁үд	-10.849
▁бараа	-10.8492
4-	-10.8503
▁тэдэн	-10.8506
ди	-10.8529
▁утгаар	-10.8533
▁тэдэнтэй	-10.8538
▁дэмж	-10.8543
▁хэлчих	-10.8553
▁холбогд	-10.8554
▁Эмиг	-10.856
▁зориула	-10.8564
▁донт	-10.8576
▁ярьснаа	-10.8582
▁бахарх	-10.8594
▁ух	-10.8601
ыхоо	-10.8609
▁чиг	-10.861
▁өрсөлдө	-10.861
▁гайхшруулса	-10.8625
▁боломжоо	-10.8634
эт	-10.8634
▁дуусаха	-10.8639
лиг	-10.8651
лагдсан	-10.8656
▁Маса	-10.8708
лагатай	-10.8711
▁Ч	-10.8713
гэн	-10.8723
▁авснаа	-10.8726
▁шалтгааны	-10.8735
▁ажл	-10.8743
▁хөдөлгөөний	-10.8765
гчийн	-10.8766
үүлдэг	-10.8772
мик	-10.8775
▁сал	-10.8778
▁гүнж	-10.8778
▁сор	-10.8782
▁дан	-10.8796
▁Машины	-10.8806
▁зоч	-10.8813
▁цө	-10.8831
нуудаа	-10.8838
лагда	-10.8878
▁суурьшигч	-10.8884
гэмээр	-10.889
▁харахгүй	-10.8896
15	-10.8908
▁байрлал	-10.8917
мгэн	-10.8923
▁бурха	-10.8924
▁ашг	-10.8936
▁төвлөр	-10.8947
▁гэм	-10.8952
▁дуус	-10.8957
▁Цу	-10.8974
зо	-10.8979
ох	-10.9015
рэг	-10.9016
▁бөмбөгөө	-10.9018
▁тэрэг	-10.902
▁урлагий	-10.9024
цөлд	-10.9053
эгч	-10.9056
▁номон	-10.9058
▁нутгаа	-10.9063
▁е	-10.9073
чиг	-10.9077
ar	-10.9078
▁хүргэн	-10.9081
▁галзуур	-10.9108
ум	-10.911
▁ажиллаа	-10.9114
▁барилгы	-10.914
▁ө	-10.9142
▁Дэн	-10.9149
▁250	-10.9149
▁судлалы	-10.9163
▁Америкчууды	-10.9174
▁өвд	-10.918
▁ажиллуул	-10.9182
▁туула	-10.9202
▁199	-10.9207
пер	-10.9209
▁хажуугаа	-10.922
▁сорилто	-10.922
▁залуусаа	-10.9228
▁амьта	-10.9228
▁ургам	-10.9237
▁компан	-10.9241
▁Си	-10.9245
▁дуусах	-10.9254
жил	-10.9257
▁гү	-10.9259
▁хүндээ	-10.9266
▁Түү	-10.9287
тны	-10.9293
▁нэрвэгд	-10.9295
дугаарт	-10.9317
▁бо	-10.9321
лад	-10.9335
за	-10.9345
▁гамшгий	-10.9361
атт	-10.9361
▁Ий	-10.9365
▁чигээр	-10.9372
▁могой	-10.9376
▁нартай	-10.9382
▁цагдаа	-10.9386
▁роботы	-10.939
ea	-10.9399
▁хуруугаа	-10.9415
▁уя	-10.9429
▁зас	-10.9441
гдана	-10.9456
▁Хэд	-10.9469
▁бал	-10.9469
▁анализ	-10.947
▁ажиллагаагаа	-10.9476
▁авира	-10.9487
▁Од	-10.9491
лсон	-10.9491
▁Co	-10.9495
▁хуви	-10.9498
▁үүгээр	-10.9511
▁захиал	-10.9526
▁зово	-10.9532
▁өвөөг	-10.9537
▁5-	-10.9539
▁байрлуула	-10.9548
дуулах	-10.9561
хаас	-10.9571
▁Ядуу	-10.9575
▁Зи	-10.9575
ясны	-10.9579
▁Уул	-10.9583
ийгээ	-10.9612
араг	-10.9622
▁бэлд	-10.9632
▁сургуулилт	-10.9634
▁хориг	-10.9634
▁1200	-10.9663
▁угта	-10.9671
▁Шар	-10.9672
бин	-10.9674
▁засагч	-10.9681
уурь	-10.9689
14	-10.97
▁үзэсгэлэн	-10.97
▁нийтээр	-10.9704
▁өч	-10.971
▁ша	-10.9715
арт	-10.9716
▁Нүдн	-10.9717
▁Тайв	-10.9724
▁юмаа	-10.9727
▁уриа	-10.9731
▁сонс	-10.9733
▁ээжтэй	-10.9739
▁Пр	-10.9748
▁дас	-10.9748
▁эрмэлз	-10.9752
▁зүйч	-10.9752
▁томоор	-10.9758
ндо	-10.9762
ё	-10.9766
▁амьсгал	-10.9775
▁бүт	-10.9778
▁байгальд	-10.9779
чихо	-10.9784
▁редакц	-10.9794
ив	-10.9801
▁Фа	-10.9805
▁тосгоных	-10.981
▁нөхөд	-10.9834
▁дурангаа	-10.9837
вер	-10.9839
араар	-10.9844
▁Азид	-10.9853
рал	-10.9862
▁ца	-10.9864
▁Бүтэ	-10.9865
▁хулгана	-10.9869
▁өв	-10.9874
▁Туршилт	-10.9879
▁Ган	-10.9879
▁цохи	-10.9884
▁хувьс	-10.9886
Д	-10.9891
▁өөх	-10.9904
алд	-10.9907
▁орлог	-10.9908
▁Ро	-10.9912
эрт	-10.9913
▁одоог	-10.9917
▁Анг	-10.993
төрөгч	-10.9945
▁уулз	-10.9947
цаа	-10.9947
▁бүж	-10.9948
▁шах	-10.9958
▁бишрэ	-10.9977
▁Мон	-10.9979
▁зогс	-10.9986
игтай	-10.9996
▁зү	-11
амж	-11.001
▁бололцоог	-11.0012
▁залх	-11.0019
▁хийсн	-11.0023
19	-11.0025
▁зоригжуул	-11.0043
▁Мэ	-11.0046
▁Сэ	-11.0047
25	-11.0049
▁ко	-11.0058
.6	-11.0058
▁хатга	-11.006
▁бөмбө	-11.0062
▁үнэрт	-11.0063
▁давс	-11.0067
алж	-11.0077
▁Хө	-11.0079
▁онгоцн	-11.0079
фор	-11.0083
▁нүүрстөрөгчий	-11.0088
▁өндөрлө	-11.0089
▁Хайрт	-11.0092
бе	-11.0094
▁Дун	-11.0097
▁Кас	-11.0098
▁багийнх	-11.01
ки	-11.0109
▁элс	-11.0114
▁элемент	-11.0118
ген	-11.012
▁хувира	-11.0128
суудал	-11.0129
▁хог	-11.013
ари	-11.013
▁бодогд	-11.0136
▁онц	-11.0139
,	-11.0141
дун	-11.0142
сыг	-11.0147
▁эрдэм	-11.0163
атор	-11.0169
У	-11.0171
▁ажиллагааг	-11.0171
арал	-11.0173
▁найд	-11.0181
▁мэдрэ	-11.0181
▁коллеж	-11.0182
▁нилээ	-11.0187
чилсөн	-11.0191
саг	-11.0193
▁2000	-11.0196
▁Эр	-11.0197
Ти	-11.0199
▁унага	-11.02
▁тѳ	-11.0201
▁түүхч	-11.0204
өлөө	-11.0205
▁дээшлүүл	-11.0208
▁үгсий	-11.0218
▁зохицо	-11.0231
▁аймшиг	-11.0231
үл	-11.0231
▁гайхамшигт	-11.0233
бо	-11.0235
км	-11.0236
▁арилжаа	-11.0239
▁зугта	-11.0241
▁уйлаа	-11.0241
▁цох	-11.0241
▁тохирох	-11.0242
▁ре	-11.0245
▁автомат	-11.0245
▁хуримтлуул	-11.0246
▁бүтдэг	-11.0246
▁холдо	-11.0248
▁ургуул	-11.0251
▁хөнөө	-11.0258
▁тух	-11.0259
▁Ээ	-11.026
▁жагсаа	-11.0261
▁тэнцэ	-11.0264
мжил	-11.0265
▁тэндээ	-11.0267
ѳрѳ	-11.027
▁мушги	-11.0271
▁Хөгж	-11.0271
▁Ханд	-11.0273
▁боол	-11.0274
▁болом	-11.0276
▁тулга	-11.0277
▁олно	-11.0281
уп	-11.0281
▁өрөвд	-11.0284
оёрдугаар	-11.0289
▁цаана	-11.029
▁Ке	-11.029
▁хандив	-11.0291
ангалттай	-11.0293
▁зѳ	-11.0293
ийхээ	-11.0294
бил	-11.0294
▁тээвэрлэ	-11.0297
ace	-11.0298
▁арил	-11.0298
▁дөрв	-11.0299
▁томьёо	-11.0299
▁болзо	-11.03
▁өр	-11.0301
мөөр	-11.0302
▁Евро	-11.0302
▁Хөдөлгөөн	-11.0303
▁Электрон	-11.0303
▁кварк	-11.0303
enticit	-11.0303
ЗБ	-11.0303
ерформанс	-11.0303
кситоцин	-11.0303
сгѳ	-11.0303
▁Авьяас	-11.0303
▁Азербайжан	-11.0303
▁Байгууллаг	-11.0303
▁Балочистан	-11.0303
▁Баталгаа	-11.0303
▁Ботсвана	-11.0303
▁Бэхдел	-11.0303
▁Бүтэлгүйтэх	-11.0303
▁Венец	-11.0303
▁Викторианчууд	-11.0303
▁Вояажер	-11.0303
▁Казахстан	-11.0303
▁Конгресс	-11.0303
▁МАНДЕЛА	-11.0303
▁Малек	-11.0303
▁Манхетан	-11.0303
▁Оксфорд	-11.0303
▁Путин	-11.0303
▁Сиерра	-11.0303
▁Сингапур	-11.0303
▁Торонто	-11.0303
▁Уэйфэнбак	-11.0303
▁Фэйсбүүк	-11.0303
▁Харанхуй	-11.0303
▁Холливуды	-11.0303
▁Хэрэглэгч	-11.0303
▁Хязгаар	-11.0303
▁Чарльзтаун	-11.0303
▁Эйнштейн	-11.0303
▁вакцин	-11.0303
▁валют	-11.0303
▁вебсайт	-11.0303
▁гамбургер	-11.0303
▁гравитацы	-11.0303
▁давхац	-11.0303
▁ертѳнц	-11.0303
▁клуб	-11.0303
▁механизм	-11.0303
▁микрофон	-11.0303
▁сатааруул	-11.0303
▁солилцо	-11.0303
▁спектр	-11.0303
▁сэжиг	-11.0303
▁телевиз	-11.0303
▁туслалцаа	-11.0303
▁хонгил	-11.0303
▁шумбагч	-11.0303
▁шуугиан	-11.0303
▁эмзэг	-11.0303
▁ѳргѳ	-11.0303
▁Дэбби	-11.0303
▁Тухин	-11.0303
▁бөмбөгдөлт	-11.0303
▁тѳхѳѳрѳмж	-11.0303
▁хуулбарла	-11.0303
▁Анагаах	-11.0303
▁БАЙ	-11.0303
▁Босни	-11.0303
▁Жобс	-11.0303
▁Рафида	-11.0303
▁Рей	-11.0303
▁Цэцэрлэг	-11.0303
▁аналог	-11.0303
▁цагираг	-11.0303
▁өнцгий	-11.0303
▁Анжелес	-11.0303
▁Твитт	-11.0303
▁Хүрээлэн	-11.0303
▁ноорог	-11.0303
▁Доош	-11.0303
▁автобус	-11.0303
▁гацчих	-11.0303
▁нөхцл	-11.0303
▁хуаран	-11.0303
▁0.1	-11.0303
▁болиул	-11.0303
▁зөөлө	-11.0303
▁нүүлгэ	-11.0303
▁үүргэвч	-11.0303
ness	-11.0303
▁Никол	-11.0303
▁Эмману	-11.0303
ySpace	-11.0303
▁ватт	-11.0303
▁нотолгоо	-11.0303
▁завсарлага	-11.0303
▁тавиур	-11.0303
▁өлсө	-11.0303
▁журм	-11.0303
▁орогно	-11.0303
▁Боломж	-11.0303
▁гатал	-11.0303
▁хослуула	-11.0303
▁товчлуур	-11.0303
▁хөндөх	-11.0303
amp	-11.0303
▁Мусалманчууд	-11.0303
▁хүлээлгэ	-11.0303
▁Inter	-11.0303
▁Ваэл	-11.0303
▁эргэцүүл	-11.0303
▁шоргоолж	-11.0303
▁Материал	-11.0303
▁академи	-11.0303
▁сүүдэр	-11.0303
▁томорч	-11.0303
ista	-11.0303
▁эрвээхий	-11.0303
▁өндөг	-11.0303
▁Анхдагч	-11.0303
▁эгц	-11.0303
рограм	-11.0303
оозон	-11.0303
▁Харвард	-11.0303
▁зөгий	-11.0303
▁ярилцлагууд	-11.0303
▁Мексик	-11.0303
▁довтолгоо	-11.0303
▁кабел	-11.0303
▁Үндэс	-11.0303
▁гомдо	-11.0303
ome	-11.0303
ентген	-11.0303
▁тайвшир	-11.0304
▁терроризм	-11.0304
▁онцлох	-11.0304
үжигчи	-11.0304
▁хаягдал	-11.0304
▁бороо	-11.0304
▁дадлаг	-11.0304
▁оршихуй	-11.0304
▁сарниула	-11.0304
▁хэтрүүл	-11.0304
▁огтлолц	-11.0304
▁магистр	-11.0304
▁санаачлага	-11.0304
▁наалд	-11.0304
▁ангай	-11.0304
▁амталгаа	-11.0304
▁орчлон	-11.0304
▁итгэлцэл	-11.0304
▁Израил	-11.0304
▁Соё	-11.0304
▁өрсөлдөөн	-11.0304
өвтгө	-11.0304
▁Саяхны	-11.0304
▁Жирийн	-11.0304
ью	-11.0304
ta	-11.0304
orer	-11.0305
▁Ром	-11.0305
▁Баялгий	-11.0305
▁зэв	-11.0305
▁зангиа	-11.0305
▁горьдлого	-11.0305
▁торни	-11.0305
▁хэмжсэн	-11.0305
▁хайгуул	-11.0305
yp	-11.0305
▁Ву	-11.0305
▁Ar	-11.0306
▁гатла	-11.0306
▁чимодан	-11.0306
▁дорнод	-11.0306
▁хөдөө	-11.0306
▁Бен	-11.0306
▁Мөнгө	-11.0306
▁тэнхлэг	-11.0306
▁хохирогчид	-11.0306
▁хүснэгт	-11.0306
▁зугаалах	-11.0306
▁баригдаа	-11.0306
▁дагавар	-11.0306
▁өнгөрсний	-11.0306
▁иш	-11.0306
▁Унши	-11.0307
▁хэрцгий	-11.0307
▁томьёолл	-11.0307
▁задал	-11.0307
▁солонго	-11.0307
▁Нөх	-11.0307
лцэн	-11.0308
▁1.6	-11.0308
▁50,000	-11.0308
▁Лати	-11.0308
▁хорхой	-11.0308
▁зооринд	-11.0308
▁Найз	-11.0308
▁амлалт	-11.0308
▁Рай	-11.0308
▁шархлуул	-11.0309
▁ялалт	-11.0309
▁Лю	-11.0309
▁зохиомж	-11.0309
▁хадаас	-11.0309
▁Маркс	-11.0309
▁Хаалга	-11.0309
▁Арга	-11.0309
згуур	-11.0309
▁өөрийхөө	-11.0309
▁тулаан	-11.0309
▁харгуй	-11.0309
▁хэмжигдэ	-11.031
▁зүлгэ	-11.031
▁Билли	-11.031
▁сараалж	-11.031
▁байршуул	-11.031
ge	-11.031
▁сэгсэр	-11.0311
▁үсрэн	-11.0311
циал	-11.0311
естер	-11.0311
▁сэдлий	-11.0311
▁хожи	-11.0312
▁нугар	-11.0312
▁хориглодог	-11.0312
▁төслүүд	-11.0312
▁хорио	-11.0313
▁уни	-11.0313
▁давалгаа	-11.0313
▁Роман	-11.0313
▁зоог	-11.0313
▁Жош	-11.0313
▁дайрах	-11.0313
▁тээв	-11.0314
▁Гайт	-11.0314
▁догдло	-11.0314
▁өндр	-11.0314
▁задла	-11.0315
▁фо	-11.0315
▁өөрчилөх	-11.0315
▁эмчлэх	-11.0315
▁орчноос	-11.0316
▁үзэгдл	-11.0316
▁буудал	-11.0316
▁чихэр	-11.0317
▁ангил	-11.0317
▁гэрэлтэ	-11.0317
▁пар	-11.0318
▁уста	-11.0318
▁Танзани	-11.0319
уля	-11.0319
▁ойлголцо	-11.0319
▁лавла	-11.0319
▁өвөөгөө	-11.0319
▁оролдоно	-11.0319
▁эвдрэ	-11.032
▁цахиур	-11.032
чилэн	-11.032
▁193	-11.032
▁архив	-11.032
▁Мур	-11.032
рилл	-11.0321
▁давтагдах	-11.0321
▁цэгц	-11.0322
▁нийтлэх	-11.0322
▁хэлэлцүүлгүүд	-11.0323
▁шүр	-11.0323
▁цэс	-11.0323
фш	-11.0323
▁уулзалт	-11.0323
▁Эхнэ	-11.0323
▁цэв	-11.0323
▁угаал	-11.0323
үчээр	-11.0323
▁эгнээнд	-11.0323
▁солиор	-11.0323
▁морин	-11.0325
▁При	-11.0325
▁нэмэгддэг	-11.0325
▁бааз	-11.0326
▁төсөөллөө	-11.0326
▁хавсар	-11.0326
▁хэргүүд	-11.0326
▁намтар	-11.0326
▁зүс	-11.0326
▁сагс	-11.0327
▁түргэ	-11.0327
▁дуулгах	-11.0327
▁овг	-11.0328
▁борлуулалт	-11.0328
▁Цай	-11.0328
▁эвдэр	-11.0328
зз	-11.0328
▁олддог	-11.0329
▁Мал	-11.0329
▁далла	-11.0329
▁хорь	-11.0329
▁нуур	-11.033
▁Цэг	-11.033
▁зохицол	-11.033
▁урагшлах	-11.0331
▁Энергий	-11.0332
▁Замби	-11.0332
▁эрхтэн	-11.0332
▁үзэсгэлэнт	-11.0332
▁далавчтай	-11.0333
▁уурш	-11.0333
▁асра	-11.0333
өрчилдөөн	-11.0333
▁зөвшөөрсөн	-11.0334
▁цөллөг	-11.0334
▁дараалл	-11.0334
▁аюулт	-11.0336
▁шулуу	-11.0337
▁өмнөхөөс	-11.0337
▁тасд	-11.0337
▁жишээнүүд	-11.0337
▁ѳдѳр	-11.0338
▁салах	-11.0338
▁хэрэгслүүд	-11.0338
▁өвчтөнүүд	-11.0338
▁театр	-11.0338
▁Арьс	-11.0338
▁бүлийнхэн	-11.034
▁уурхай	-11.034
▁Дөрвөн	-11.0341
▁шалгарч	-11.0341
▁Нярай	-11.0341
▁тогтол	-11.0341
▁бодчих	-11.0342
▁Шил	-11.0342
▁тарь	-11.0342
▁тэсэх	-11.0343
реал	-11.0345
▁шим	-11.0346
▁усжуул	-11.0346
▁зохиолоо	-11.0347
▁Маргаа	-11.0348
▁Залуус	-11.0348
▁Еврей	-11.0348
▁байгууллагууды	-11.0348
▁хариуц	-11.0348
▁үсрэх	-11.0348
▁хавьтал	-11.0349
▁солио	-11.035
▁цэцэ	-11.035
▁орчуулгын	-11.035
▁урамшуулал	-11.0351
▁хүрэлцэх	-11.0351
▁бэлтгэл	-11.0353
▁хѳгжи	-11.0354
анцаарда	-11.0354
▁түрэмгийлэ	-11.0355
▁эргэлзээтэй	-11.0355
▁Ле	-11.0355
▁Сонин	-11.0355
▁гаднаас	-11.0355
▁агентлагууд	-11.0356
▁Тоглоом	-11.0357
▁томъё	-11.0358
▁гашууда	-11.0359
▁шийдвэрлэгдэ	-11.0359
▁босох	-11.0359
▁дагалд	-11.0359
мол	-11.036
град	-11.036
ийлгэ	-11.036
▁Өв	-11.0363
▁хөдөлмөрлө	-11.0364
▁хэмнэл	-11.0365
▁Перс	-11.0365
мгий	-11.0365
▁хасах	-11.0366
▁Дам	-11.0366
▁Манд	-11.0367
▁хэлтэрхий	-11.0368
▁танил	-11.037
▁дайчил	-11.037
▁Тайл	-11.0372
▁зохис	-11.0373
▁Сара	-11.0374
▁амин	-11.0375
▁аван	-11.0375
▁цогцс	-11.0376
▁хүлээлт	-11.0376
▁хачир	-11.0377
▁моднууд	-11.0377
▁халаасанд	-11.0378
▁ялагда	-11.0379
▁доошлуулаха	-11.0379
чүүдийн	-11.0379
▁сах	-11.038
▁хямралд	-11.0381
▁сэтгэгд	-11.0382
▁Яали	-11.0384
▁Тэгснээр	-11.0384
▁шинэчил	-11.0384
▁алхсан	-11.0386
▁Уол	-11.0389
вих	-11.0389
▁Ядуус	-11.0389
▁гэрийнхэн	-11.0392
▁баймаар	-11.0393
▁сөнөө	-11.0395
рен	-11.0396
▁хүрэгчд	-11.0396
▁тэмээний	-11.0397
яцха	-11.0397
▁13-	-11.0399
▁жинхэнээс	-11.0399
▁хөөргө	-11.04
▁суув	-11.0401
▁өрнөх	-11.0402
▁сурагчды	-11.0404
▁багийнхан	-11.0404
▁ухамсарт	-11.0407
▁тодотгох	-11.0408
архай	-11.041
▁Харилца	-11.041
▁гүйцээ	-11.041
▁шатаах	-11.0413
▁тодруулах	-11.0415
▁хүүхэлдэй	-11.0416
лин	-11.0416
▁аялах	-11.042
▁гаргагч	-11.042
▁засгий	-11.042
▁шинэчлэгд	-11.042
▁урамшуула	-11.0423
▁зээ	-11.0424
▁коллежи	-11.0425
▁бүртгүүлэх	-11.0425
▁ялган	-11.0426
▁ялгах	-11.0426
▁гэмтээ	-11.0429
▁өмсөө	-11.0429
▁учрах	-11.0431
үсэг	-11.0431
▁шалт	-11.0433
▁гуравхан	-11.0434
▁сигналууды	-11.0436
▁Лион	-11.0437
заг	-11.0438
▁11-	-11.0438
▁буурах	-11.0439
▁гуниг	-11.044
▁мөрт	-11.0441
▁зүйрлэ	-11.0441
▁довтол	-11.0441
▁давхаргы	-11.0443
▁бүрхэх	-11.0444
▁улстөрч	-11.0444
лүүгээ	-11.0444
▁хичээлүүд	-11.0447
▁гаргачих	-11.045
▁даатга	-11.045
▁батла	-11.0452
▁ул	-11.0452
▁нүүх	-11.0453
▁сенат	-11.0455
▁9-	-11.0455
▁хосол	-11.0455
▁Сонс	-11.0456
▁тохиолдох	-11.0456
▁Түрүү	-11.0457
▁настнууд	-11.0457
▁най	-11.0458
▁ханан	-11.0459
▁эрсд	-11.0459
▁батлагд	-11.046
▁хөтөлбөрүүд	-11.0461
▁давтах	-11.0465
▁гэмтэл	-11.0465
▁бараан	-11.0466
▁алдааг	-11.0467
▁үхлээ	-11.0467
▁алгасса	-11.0468
▁ногдо	-11.0472
▁шинжил	-11.0473
▁таниулах	-11.0475
▁Бэлэ	-11.0475
▁өвдө	-11.0477
рээ	-11.048
▁сонгоо	-11.0485
▁хагаст	-11.0486
▁хүмүүжүүлэх	-11.0486
▁үргэлжлэх	-11.0487
▁бодсоны	-11.0487
▁Урьдчил	-11.0489
▁настайгаас	-11.0489
▁мэдлэгээ	-11.049
▁бахархал	-11.049
мэн	-11.0491
▁зориулах	-11.0492
▁өргөс	-11.0492
▁хөр	-11.0492
ааш	-11.0498
▁жам	-11.0499
бар	-11.05
▁Түүхэн	-11.0502
▁100-	-11.0505
▁явчих	-11.0505
▁аврал	-11.0507
▁хөдлөлт	-11.0508
шиг	-11.0508
▁чиглэн	-11.0509
▁чихэвч	-11.0509
▁тайланг	-11.0512
одоод	-11.0514
▁дутагд	-11.0514
▁1980	-11.0515
▁го	-11.0516
▁зөрчих	-11.0516
▁анзаардаг	-11.0516
▁урмы	-11.0518
▁Хори	-11.0521
▁бодогдуул	-11.0522
▁дүүргэ	-11.0525
▁лаборатор	-11.0527
▁сурлага	-11.0529
▁уйлах	-11.0531
▁дордуул	-11.0532
▁Гелий	-11.0536
▁бүтнэ	-11.0536
▁хөршүүд	-11.0538
▁Бри	-11.0538
▁Энэтхэгт	-11.0544
▁сонины	-11.0547
▁байгуулагда	-11.0547
▁яахаа	-11.0548
▁ялгарах	-11.0548
▁ин	-11.0552
▁оргилуу	-11.0554
▁зогсолт	-11.0554
▁дом	-11.0559
▁живэх	-11.0562
▁хүчиндүүл	-11.0567
▁Жен	-11.0567
▁жин	-11.0573
▁хугацаанаас	-11.0574
▁хүнтэйгээ	-11.0576
дви	-11.0577
▁зуух	-11.0578
▁нүдээ	-11.059
▁өгс	-11.0601
▁аялсан	-11.0603
▁0.	-11.0612
алчих	-11.0613
▁буудл	-11.0614
ьж	-11.0616
▁Бу	-11.062
▁стратегий	-11.0621
▁уналт	-11.0621
IT	-11.0621
элт	-11.0626
раа	-11.0626
▁ашиглалт	-11.0626
▁хийгдэ	-11.0627
▁37	-11.0629
▁интровертууд	-11.063
▁Дунда	-11.065
▁залха	-11.0652
▁цов	-11.0654
▁үйлсий	-11.0655
тон	-11.0658
▁бишрэл	-11.0664
▁итгэсэн	-11.067
гасан	-11.0671
гдсон	-11.0671
гөлдө	-11.0673
вчих	-11.0674
снаа	-11.068
▁Анги	-11.068
▁мэдрэмжээ	-11.0684
▁чимээг	-11.069
чүүд	-11.0692
▁дүрүүд	-11.0693
▁тусгаарлагд	-11.0693
.9	-11.0704
зайд	-11.0706
▁суртал	-11.0708
▁бахарха	-11.0711
тад	-11.0711
▁Ав	-11.0719
оз	-11.072
ө	-11.0723
▁туу	-11.0728
▁шаха	-11.0737
▁дундаа	-11.074
▁Дэй	-11.0751
лохоор	-11.0752
тойгоо	-11.0764
▁чөлөөл	-11.0765
▁үндсээр	-11.0766
▁хийлгэх	-11.0768
▁амаа	-11.0771
▁хаях	-11.0783
▁мууха	-11.0784
▁Йорк	-11.0787
▁Гер	-11.0791
▁давтагд	-11.0798
зинэ	-11.08
▁өвдөх	-11.0801
▁Кений	-11.0802
▁Дото	-11.0802
▁унт	-11.0804
мог	-11.0804
атагтай	-11.081
▁Му	-11.081
▁бүтээлүүд	-11.0811
▁гаргуу	-11.0811
▁дам	-11.0819
▁авьяаст	-11.0822
▁алдарт	-11.0823
▁хав	-11.0823
гөн	-11.0825
▁сонирх	-11.0826
▁Дэл	-11.0828
▁ээжтэйг	-11.0832
▁дуудах	-11.0843
▁цаца	-11.0845
▁Хаан	-11.0846
етти	-11.0853
▁хоригууд	-11.0854
өм	-11.0854
▁системтэй	-11.0865
▁дагуулууд	-11.0867
▁үнэнээ	-11.0873
▁тоосон	-11.0873
өснө	-11.0875
▁эвдэ	-11.0879
▁бишир	-11.0882
▁дэгдэ	-11.0884
▁дуурайл	-11.0886
▁Хот	-11.0888
▁бичигдэ	-11.0889
▁Өрөөнд	-11.0895
▁Кал	-11.09
▁суулгах	-11.0901
▁тохируул	-11.0909
▁зориулалт	-11.0909
▁ажиллагаанд	-11.0911
гварчла	-11.0912
▁хоолон	-11.0914
▁лав	-11.093
▁амьдарна	-11.0931
▁эрэг	-11.0935
▁зочи	-11.0938
анхай	-11.094
▁ван	-11.0947
▁хэсгийнх	-11.0949
олоод	-11.0958
▁шү	-11.0974
▁аргууд	-11.0975
▁Итали	-11.0978
-4	-11.0991
▁амж	-11.0993
ion	-11.1004
▁дуучн	-11.1004
▁Дал	-11.1007
▁хүссэнээ	-11.1025
▁алма	-11.1028
▁Жи	-11.103
▁тэмцээн	-11.1035
▁Нев	-11.1036
▁хэрэгцээг	-11.1042
ижи	-11.1042
олж	-11.1048
кер	-11.1051
▁мөрд	-11.1052
▁хэрэгслий	-11.1063
▁үүсэх	-11.1069
бу	-11.108
▁мэдээл	-11.1084
▁бууг	-11.1092
▁найзыг	-11.1099
▁ерө	-11.11
ган	-11.1104
▁бодолд	-11.1113
▁хайх	-11.1114
▁тогтнол	-11.1118
▁ду	-11.1121
▁Чан	-11.1123
▁ганцаарда	-11.1125
өгдсөн	-11.1127
▁Мэдэх	-11.1134
.3	-11.1139
цтай	-11.1141
▁бизнест	-11.1156
эвэрч	-11.1158
▁таамаглах	-11.1168
▁зүүд	-11.1169
рхэм	-11.117
▁очихо	-11.1189
▁хариулж	-11.1194
атган	-11.1195
▁хэлэхээ	-11.1195
▁арми	-11.1202
▁g	-11.1203
▁туйлд	-11.1206
риа	-11.1207
▁салбары	-11.1214
жиг	-11.1218
рамд	-11.122
oot	-11.1222
▁гүйх	-11.1229
▁эвд	-11.1243
▁шилжи	-11.1256
▁долгионы	-11.1256
▁лүү	-11.126
▁оролдох	-11.1261
улгайлах	-11.1277
ine	-11.131
▁тэмдэглэгд	-11.1318
▁могойн	-11.1323
▁нарий	-11.1353
▁сайнаар	-11.1361
▁үсг	-11.1366
▁босгох	-11.1367
▁шалтгаантай	-11.1371
лог	-11.1383
▁оролцуул	-11.1396
▁мандал	-11.1408
ъе	-11.1425
▁нэрвэгдэ	-11.1426
▁Ме	-11.1431
▁хэрэгж	-11.1433
▁ажлаар	-11.1441
▁Илтгэлээ	-11.1441
▁оноог	-11.1443
▁боломжи	-11.1447
▁буугаа	-11.1452
▁Чад	-11.1473
▁судлаачд	-11.1487
▁дулаарл	-11.149
▁ойг	-11.1518
▁харьцуула	-11.1519
▁Санс	-11.152
▁ажилчд	-11.1523
▁сонсогдох	-11.1527
▁кар	-11.1533
▁ной	-11.1535
үүн	-11.1552
▁тооцох	-11.1557
▁учруул	-11.1557
▁давхарла	-11.1562
▁үргэлжлэ	-11.1575
элж	-11.1579
▁программы	-11.1584
▁аяллаа	-11.1591
▁төслий	-11.1598
▁ун	-11.1599
pl	-11.1608
мээс	-11.1609
▁ажиглагд	-11.161
цеп	-11.1613
осон	-11.1627
st	-11.1631
элийн	-11.1634
▁тодорхойлохо	-11.1635
аск	-11.1637
▁дэн	-11.1647
▁оролдлого	-11.1656
ирс	-11.1657
насан	-11.1662
▁ня	-11.1667
мед	-11.1673
▁орхигдуул	-11.1677
▁аавын	-11.1683
▁34	-11.1696
гээгүй	-11.1698
өнө	-11.17
▁болохоо	-11.1705
доггүй	-11.1706
ела	-11.1707
▁системд	-11.1717
▁суур	-11.1719
▁даган	-11.1731
▁зарцуулаа	-11.1738
▁идэвхжүүл	-11.1743
▁нутгийнх	-11.1746
▁Дууг	-11.1759
▁холбоогүй	-11.176
▁хамгаалагч	-11.1785
90	-11.1787
▁хүрээг	-11.1806
слах	-11.1809
▁холбогдоо	-11.1818
ку	-11.1821
▁манлайлагч	-11.1834
уулгын	-11.1857
СО	-11.186
▁шууданг	-11.1891
▁угаас	-11.1904
▁сала	-11.1906
▁нээлтээс	-11.1911
лдаг	-11.1918
▁кон	-11.1926
▁ажиглагда	-11.1946
▁гэрлээ	-11.197
тэйгөө	-11.1977
▁Хам	-11.1987
гууд	-11.1987
агддаг	-11.1988
▁ирснээ	-11.1998
▁Бо	-11.2015
▁өдрөөс	-11.2018
▁ёсоор	-11.2042
▁мужи	-11.2053
▁үгээ	-11.2066
▁хүрээлэл	-11.2078
▁тавигдса	-11.208
измы	-11.2089
▁ово	-11.2094
▁бүгдээ	-11.2098
▁бугуйн	-11.2098
▁биес	-11.2107
цийн	-11.2121
▁дарг	-11.2126
стэй	-11.2134
айр	-11.2136
ир	-11.2142
▁авахгүй	-11.2149
▁дулаа	-11.2154
▁оюутнуудаас	-11.2164
▁үндс	-11.2175
▁таалагдах	-11.2197
▁ичи	-11.2201
▁төхөөрөмжөө	-11.2202
▁асуудлаа	-11.2205
мгэнэлт	-11.2205
ных	-11.2213
уулснаа	-11.2214
▁хажуу	-11.2218
▁зочло	-11.2229
үүлэх	-11.2251
▁ойгоо	-11.2252
▁яара	-11.2259
олгоно	-11.2264
ec	-11.2289
▁SA	-11.2291
ралтай	-11.2302
▁тараах	-11.2316
▁Аж	-11.2318
▁Зай	-11.2338
▁Үх	-11.2363
рав	-11.2381
рат	-11.2396
▁уух	-11.243
▁Гуа	-11.2438
▁уй	-11.244
▁халамж	-11.2443
▁нэгт	-11.2456
үүхэн	-11.2467
▁гэхээ	-11.2472
АГ	-11.2481
СА	-11.2482
▁хөгжин	-11.2482
ати	-11.2501
лдаа	-11.2502
▁сэтгүүлч	-11.2515
n	-11.2517
пе	-11.2529
▁Оролцогчдо	-11.2542
▁орд	-11.2559
▁цас	-11.26
▁хуулиуды	-11.2603
▁сонирхлы	-11.2603
▁хэлүүд	-11.2607
▁ээжийнх	-11.2617
▁буун	-11.2619
▁бүтээлээс	-11.2619
▁харснаа	-11.2662
▁дааж	-11.2677
▁зуны	-11.2694
асны	-11.2695
▁урва	-11.2701
АР	-11.2704
өлж	-11.2709
▁уйд	-11.2719
▁тэргүүн	-11.2746
▁хөрсөн	-11.2747
▁Май	-11.2751
чихье	-11.2754
▁дух	-11.2765
▁Ху	-11.2778
▁нэгэнт	-11.2801
▁Col	-11.2807
▁үүсэ	-11.2846
▁Хай	-11.2856
▁далайг	-11.2871
▁Жей	-11.2871
AP	-11.2887
▁Мк	-11.289
▁төслөө	-11.2896
▁хажууг	-11.2904
▁нөөцөө	-11.2905
▁утсаа	-11.2918
▁Мак	-11.2948
▁байлд	-11.2958
▁анхаара	-11.2972
▁онгоцоо	-11.2975
▁Са	-11.3017
▁Охиды	-11.3029
акт	-11.3037
▁холь	-11.3051
▁үн	-11.3055
▁манлайла	-11.3076
▁лаборатори	-11.3095
рэн	-11.3107
енс	-11.3113
▁Манайх	-11.3118
▁хүссэнээр	-11.3118
▁стандартаа	-11.3146
▁электроны	-11.3152
▁өөрсдийнх	-11.3163
▁са	-11.32
▁тойрны	-11.3205
андын	-11.3214
▁модоо	-11.3222
▁уурла	-11.3228
▁хаалг	-11.3238
▁Ил	-11.3238
▁байран	-11.3246
тор	-11.3247
торт	-11.3266
▁шугамууд	-11.3267
тга	-11.3269
▁сэтгэгчдэ	-11.3281
ro	-11.3282
▁Нор	-11.3285
▁цац	-11.3292
▁бууд	-11.3293
▁Ди	-11.3299
▁хэсгүүдээ	-11.331
үйтэ	-11.331
▁бүрхэ	-11.3315
▁нис	-11.3318
▁шилээ	-11.3319
▁мо	-11.3323
▁хороо	-11.3329
▁дуучи	-11.3331
өрсөн	-11.3331
▁дэмжсэ	-11.3349
гээж	-11.336
▁хэрэглэл	-11.3375
▁хаалгаа	-11.3409
▁Ча	-11.342
жүүлэх	-11.3421
▁Банг	-11.3433
ийгээд	-11.3435
▁квадратууды	-11.3456
▁багатай	-11.3464
▁сурвалж	-11.3466
еш	-11.3471
▁Зоч	-11.3496
▁сув	-11.3501
лоорой	-11.3516
▁байса	-11.3519
▁Мас	-11.3534
▁асаах	-11.3563
▁ашиглагд	-11.357
▁ойрт	-11.3582
▁хэрэгцээгүй	-11.3597
▁бөөм	-11.3619
▁занг	-11.3622
▁сэтгүүлчдийн	-11.3654
▁По	-11.3658
жүүл	-11.3668
▁санаандгүй	-11.3668
▁бө	-11.3668
▁хөгшрө	-11.371
▁Бак	-11.3735
▁3.	-11.374
▁сэтгэлд	-11.376
▁хов	-11.3772
иж	-11.3775
▁Венусы	-11.378
жлэх	-11.3795
▁нама	-11.3796
ахиа	-11.3821
▁бэл	-11.3821
▁манда	-11.3836
▁шилжин	-11.3859
итар	-11.3875
лэсэн	-11.3884
▁тэмүүл	-11.3919
▁Кинон	-11.3935
▁цаасаа	-11.3937
▁эхээс	-11.3942
▁хамаара	-11.3951
сэнээр	-11.3955
хэнд	-11.3963
▁байгал	-11.3981
▁уриал	-11.3982
инда	-11.3985
▁шидэ	-11.3995
▁Аб	-11.4031
▁тоосго	-11.4047
▁буд	-11.4048
улай	-11.4063
▁замд	-11.4073
▁хурааг	-11.4076
▁Ос	-11.4086
▁эдлэ	-11.4087
▁Газ	-11.4088
▁Эрх	-11.4097
▁нууцла	-11.4102
араа	-11.411
үүл	-11.411
рэх	-11.4125
▁хөдлөлөө	-11.4132
▁пуужин	-11.4147
▁хэрэгсл	-11.4149
гэр	-11.4167
▁дурьд	-11.4168
▁хуруун	-11.4168
▁по	-11.417
▁найзтай	-11.4172
▁тарха	-11.4178
▁Хү	-11.4186
▁даамж	-11.4192
▁ангиуд	-11.4195
▁атга	-11.4196
сгийн	-11.4203
ou	-11.4231
▁физикч	-11.4233
үүлэл	-11.4237
эмж	-11.426
усны	-11.4268
▁шо	-11.4274
иар	-11.4281
▁Ши	-11.4321
аци	-11.4323
▁өдөө	-11.4325
▁тооц	-11.4344
хөөрдө	-11.4347
▁Британ	-11.4352
▁нөх	-11.4352
анк	-11.4359
▁сурагчдынх	-11.436
ri	-11.4365
зан	-11.4367
▁хэрэглээг	-11.4369
▁Морокко	-11.4369
▁нийгм	-11.4373
▁халд	-11.4375
▁Загвар	-11.4379
өх	-11.4381
▁ширээнд	-11.4389
▁Фрей	-11.4422
лб	-11.443
▁угтан	-11.4441
өрнө	-11.4443
▁дуурай	-11.4447
үүдээ	-11.4448
▁гүйлгэн	-11.4452
ie	-11.4453
▁хөгжих	-11.4455
▁Алл	-11.4483
элдэг	-11.4494
▁охинтой	-11.4494
▁заал	-11.4505
▁зэвсгээ	-11.4513
▁хө	-11.4519
▁бичг	-11.4522
оорой	-11.4538
2-	-11.4545
▁хэрэгжи	-11.4563
пи	-11.4576
▁Сибир	-11.4576
▁шинэчлэ	-11.4581
▁Өмнө	-11.4591
▁сэдвий	-11.4625
кт	-11.4631
▁дэлхийгээ	-11.4631
▁хүчилтөрөгчий	-11.4632
li	-11.4632
99	-11.4646
▁нөхд	-11.4653
▁шалгалты	-11.4658
ихсэн	-11.4659
▁гэгд	-11.4669
▁асуулг	-11.4671
өг	-11.4673
▁тоглолты	-11.4679
▁тасал	-11.4687
▁боль	-11.4688
үрэн	-11.4699
▁мэдрээ	-11.4709
▁компаниуда	-11.4725
is	-11.4758
ка	-11.4764
шруул	-11.4773
▁цуу	-11.478
▁айма	-11.4786
▁Цэр	-11.4792
▁заав	-11.48
▁ая	-11.4804
▁Ай	-11.4809
▁жолоодо	-11.4825
алгас	-11.4829
▁хязгаарла	-11.4832
▁хүмүүсээ	-11.4833
▁шилжүүл	-11.4841
▁мэдэгдэ	-11.4843
ья	-11.4844
▁Сургуули	-11.4854
▁харилц	-11.4858
ней	-11.4866
мшигтай	-11.4871
мент	-11.4876
оти	-11.4878
-1	-11.4882
рээд	-11.4915
▁сод	-11.4917
▁суун	-11.493
тен	-11.4931
мгүй	-11.4933
▁камераа	-11.4936
▁мэдэгд	-11.4937
▁гавл	-11.4938
▁мэдлэггүй	-11.4941
-200	-11.4942
▁томоо	-11.4943
хөөс	-11.4944
▁хандуула	-11.4949
▁хү	-11.4951
▁нийтэл	-11.4972
▁сармагчин	-11.4975
▁Кон	-11.4981
▁тохио	-11.4989
00-	-11.499
лалт	-11.4998
▁Хайр	-11.5
80-	-11.5004
▁Урьд	-11.5006
▁доромж	-11.501
▁хэлэлц	-11.501
▁тохиол	-11.5014
лүүлсэн	-11.5026
сын	-11.503
чилгаа	-11.503
▁мөх	-11.5035
зэл	-11.5037
▁Сонсо	-11.5038
▁үсгэ	-11.5041
▁бүлийнхний	-11.5043
▁Хөрс	-11.5043
лик	-11.5052
▁Амь	-11.506
▁бухимд	-11.5062
▁буц	-11.5064
▁санаачла	-11.5067
▁электро	-11.5075
▁явахаа	-11.5075
сган	-11.5077
▁гэгээ	-11.5079
▁хэрэглэгд	-11.5086
▁нийцэ	-11.5089
▁сигнал	-11.5089
▁Дор	-11.5091
атгал	-11.5092
▁өмс	-11.5093
▁илэрхий	-11.5098
▁сүр	-11.5099
▁хаза	-11.5103
лөх	-11.5106
▁настн	-11.5107
урам	-11.5114
▁асаа	-11.5116
▁эц	-11.5119
▁бүртгүүл	-11.5123
▁нийц	-11.5125
▁нэгдэн	-11.5127
▁дөрвө	-11.5128
▁төвлөрө	-11.5132
▁хүчирхийл	-11.5132
▁тодотго	-11.5133
Франциско	-11.5135
пат	-11.5141
ото	-11.5143
льт	-11.5143
▁Гайха	-11.5147
лбэ	-11.5147
▁зугаа	-11.5148
сэтгүүлч	-11.5149
сүс	-11.5153
▁чавг	-11.5156
америк	-11.5157
Ф	-11.5158
▁Хөгш	-11.5159
▁үнэмши	-11.5159
лган	-11.5161
▁эзэмшигч	-11.5163
▁хямра	-11.5164
хая	-11.5166
▁ээдрээт	-11.5166
▁хуучи	-11.5168
▁идэвхит	-11.5168
төл	-11.517
Ц	-11.5172
Том	-11.5173
▁хойно	-11.5175
▁Гараа	-11.5176
уруугаар	-11.5177
Ү	-11.5177
зүй	-11.5177
шү	-11.5178
▁задра	-11.5178
18	-11.5178
▁Бэл	-11.5179
урс	-11.5183
▁эрдэмт	-11.5186
ola	-11.5188
НА	-11.519
дон	-11.5191
▁Ардчил	-11.5191
▁машинаа	-11.5193
▁жишээн	-11.5193
▁гүйцэ	-11.5194
▁завсард	-11.5202
шиж	-11.5203
▁Тоо	-11.5208
▁Натали	-11.5209
▁гашуу	-11.5212
43	-11.5213
▁сүй	-11.5216
Ван	-11.5222
▁Хоё	-11.5226
АС	-11.5227
▁3,	-11.5228
▁эвх	-11.5229
▁хавьта	-11.5234
▁Нис	-11.5237
▁бүртгэ	-11.524
▁бүжиг	-11.5242
▁туршлаг	-11.5242
сноо	-11.5243
янга	-11.5247
▁2,	-11.5247
рцгийг	-11.5251
▁инээмсэглэ	-11.5255
том	-11.5255
▁далавч	-11.5255
▁Эрэг	-11.5262
▁таавар	-11.5263
▁гажууд	-11.5264
▁согтуу	-11.5265
▁Онош	-11.5266
▁нуу	-11.5269
▁сорил	-11.5269
▁соё	-11.5274
▁Судалгаа	-11.5275
хоёры	-11.5276
▁Супер	-11.5277
аагуур	-11.5277
▁Ра	-11.5279
инте	-11.528
▁зангаа	-11.528
▁үнэмш	-11.5281
▁орчноо	-11.5282
▁Төгс	-11.5285
▁оройто	-11.5288
▁мото	-11.5288
▁сонсогд	-11.5291
алдвар	-11.5294
▁хохиро	-11.5294
▁ажилладгий	-11.5295
▁орбит	-11.5298
▁чармай	-11.5298
on	-11.5298
▁мөөгөн	-11.5299
умб	-11.53
▁бял	-11.53
▁үдэш	-11.53
▁Изра	-11.53
гентлаг	-11.53
энцүү	-11.53
өхцөл	-11.53
үтээгдэхүүний	-11.53
Й	-11.5301
ерик	-11.5301
нгу	-11.5301
▁дизайн	-11.5301
▁Мала	-11.5301
рилцлага	-11.5301
▁Сург	-11.5301
▁матери	-11.5301
▁Камер	-11.5301
аалцаж	-11.5302
▁Бөмбө	-11.5303
эрхшээл	-11.5303
ийлэнх	-11.5303
ASA	-11.5303
▁гялалз	-11.5303
Хампшир	-11.5303
еополитик	-11.5303
▁Toyota	-11.5303
▁Бритни	-11.5303
▁Вэб	-11.5303
▁Грубер	-11.5303
▁Зориг	-11.5303
▁Судлалын	-11.5303
▁Түвд	-11.5303
▁Хүмүүн	-11.5303
▁Швейцар	-11.5303
▁ЮНЕСКО	-11.5303
▁африк	-11.5303
▁глобал	-11.5303
▁гравитон	-11.5303
▁редактор	-11.5303
▁тоомсорло	-11.5303
▁файл	-11.5303
▁хошуу	-11.5303
▁хѳрвүүлэ	-11.5303
▁хөгшчүүл	-11.5303
▁ѳмссѳн	-11.5303
ТЭ	-11.5303
бөл	-11.5303
егро	-11.5303
зэсгэлэнтэй	-11.5303
хѳѳ	-11.5303
ѳгнѳ	-11.5303
▁Аляск	-11.5303
▁Антарктик	-11.5303
▁Виллиам	-11.5303
▁Виржини	-11.5303
▁Вольв	-11.5303
▁Дарфур	-11.5303
▁Дунлап	-11.5303
▁Дүгнэ	-11.5303
▁Дүрвэгсэд	-11.5303
▁КитКат	-11.5303
▁Клуб	-11.5303
▁Кофей	-11.5303
▁Куал	-11.5303
▁Кувайт	-11.5303
▁Лаборатори	-11.5303
▁Мальтус	-11.5303
▁Мэдрэхүй	-11.5303
▁Нагасаки	-11.5303
▁Новик	-11.5303
▁Оригами	-11.5303
▁Паштун	-11.5303
▁Профессор	-11.5303
▁Сенат	-11.5303
▁Сенегал	-11.5303
▁Спутник	-11.5303
▁Стоун	-11.5303
▁Сэтгэц	-11.5303
▁Сэтгүүлч	-11.5303
▁Тадхоуп	-11.5303
▁Тархалт	-11.5303
▁Телевиз	-11.5303
▁Тооцоол	-11.5303
▁Хөвгүүд	-11.5303
▁Шензен	-11.5303
▁Эрдэмтэ	-11.5303
▁Эффект	-11.5303
▁аппарат	-11.5303
▁боомил	-11.5303
▁бултагануул	-11.5303
▁бѳ	-11.5303
▁бүүвэйл	-11.5303
▁гайхамшг	-11.5303
▁дарангуйл	-11.5303
▁диваажин	-11.5303
▁доголдол	-11.5303
▁дэвсгэр	-11.5303
▁жагсдаг	-11.5303
▁захирлууд	-11.5303
▁золиос	-11.5303
▁инфляц	-11.5303
▁колоничлол	-11.5303
▁корпорациуд	-11.5303
▁лекц	-11.5303
▁марафон	-11.5303
▁мөлжлөг	-11.5303
▁нотлох	-11.5303
▁ноёрх	-11.5303
▁нүргэл	-11.5303
▁протокол	-11.5303
▁синдром	-11.5303
▁судлагаа	-11.5303
▁суллагдсаны	-11.5303
▁теле	-11.5303
▁тэнүүчлэл	-11.5303
▁тэнүүчлэх	-11.5303
▁тѳсѳѳл	-11.5303
▁түвэг	-11.5303
▁түймр	-11.5303
▁төөрөгдл	-11.5303
▁хотойлго	-11.5303
▁чингэлэгүүд	-11.5303
▁шериф	-11.5303
▁шийтгэл	-11.5303
▁шингэдэг	-11.5303
▁ширэнгэн	-11.5303
▁шувуу	-11.5303
▁шунгина	-11.5303
▁элемэнт	-11.5303
▁ёроол	-11.5303
▁үнсэлт	-11.5303
▁Өөрчлөлт	-11.5303
▁өнцгүүдий	-11.5303
▁элбэг	-11.5303
БЗ	-11.5303
▁1949-19	-11.5303
▁31-	-11.5303
▁Амстердам	-11.5303
▁Балучи	-11.5303
▁Бодлог	-11.5303
▁Вьетнам	-11.5303
▁Женев	-11.5303
▁Протокол	-11.5303
▁Туркмен	-11.5303
▁алгоритм	-11.5303
▁амжиргаа	-11.5303
▁бакалавр	-11.5303
▁захиргаа	-11.5303
▁сэлбэг	-11.5303
▁тайвшруул	-11.5303
▁тонгой	-11.5303
▁фунт	-11.5303
▁хошигно	-11.5303
▁хуримтла	-11.5303
▁хѳдлѳ	-11.5303
▁хѳрвүүлэгдэ	-11.5303
▁хөгжүүлэгчдий	-11.5303
▁цэрвэ	-11.5303
▁чухл	-11.5303
▁эзэг	-11.5303
Соронзон	-11.5303
ѳнгѳ	-11.5303
▁Девид	-11.5303
▁Дүрс	-11.5303
▁Колони	-11.5303
▁Нуугд	-11.5303
▁Стрийт	-11.5303
▁дуслуул	-11.5303
▁дэвтр	-11.5303
▁сахиул	-11.5303
▁тавьчихъя	-11.5303
▁тэвш	-11.5303
▁түнш	-11.5303
▁ухамср	-11.5303
▁чандарла	-11.5303
▁ѳвѳ	-11.5303
өлгө	-11.5303
▁Ажигла	-11.5303
▁Титан	-11.5303
▁сувила	-11.5303
▁төсөөлөгд	-11.5303
▁цочирд	-11.5303
▁шург	-11.5303
▁эндэгдэл	-11.5303
▁Нүхэн	-11.5303
▁Оромж	-11.5303
▁царцаан	-11.5303
▁үнэмлэх	-11.5303
▁2.7	-11.5303
▁Бүс	-11.5303
▁Бөмбөрц	-11.5303
▁Йо	-11.5303
▁Линко	-11.5303
▁диаметр	-11.5303
▁дэвшин	-11.5303
▁урвуу	-11.5303
▁хэлцэл	-11.5303
▁Оскар	-11.5303
▁сатаара	-11.5303
▁цух	-11.5303
▁Күин	-11.5303
▁доктор	-11.5303
▁дэвшл	-11.5303
▁мушгиралд	-11.5303
▁совин	-11.5303
▁тодорхойлолт	-11.5303
▁хүлцэнгүй	-11.5303
▁Өргө	-11.5303
▁концерт	-11.5303
▁психо	-11.5303
өвлөгдө	-11.5303
иллиард	-11.5303
▁Бөмбөлөг	-11.5303
▁гологд	-11.5303
▁гэрэлтүүлэ	-11.5303
▁ичгүүртэй	-11.5303
▁саатуула	-11.5303
ламжлал	-11.5303
▁Мэргэжилтнүүд	-11.5303
▁гахай	-11.5303
▁малтлаг	-11.5303
ҮҮ	-11.5303
▁Товч	-11.5303
▁мананцар	-11.5303
цэлдэ	-11.5303
▁Возн	-11.5303
▁ололт	-11.5303
▁Өөрсдөө	-11.5303
стгал	-11.5303
▁баригдаха	-11.5303
ѳрѳлх	-11.5303
▁Цонх	-11.5303
▁абс	-11.5303
▁гэгээрүүлэх	-11.5303
▁Үргэлжилсэ	-11.5303
▁Албан	-11.5303
▁антен	-11.5303
▁харгис	-11.5303
▁хүмүүнлэг	-11.5303
▁Эвдэр	-11.5303
▁давхц	-11.5303
▁төрөгс	-11.5303
▁тасалбар	-11.5303
▁боловсор	-11.5303
▁Афган	-11.5303
▁Роулс	-11.5303
▁Сурагч	-11.5303
▁нээлгэ	-11.5303
▁ёслол	-11.5303
▁дулаарал	-11.5303
▁бөөлж	-11.5303
▁эзэн	-11.5303
▁Уиль	-11.5303
▁хөнжил	-11.5303
▁өгөгдлүүдий	-11.5303
▁Бээжин	-11.5303
▁няцаа	-11.5303
▁Морган	-11.5303
▁гайхшир	-11.5303
▁мэдрүүл	-11.5303
▁орчнууд	-11.5303
идера	-11.5303
▁Пуужин	-11.5303
▁муруйлга	-11.5303
▁ани	-11.5303
▁дэргэд	-11.5303
▁морил	-11.5303
▁осол	-11.5303
ерей	-11.5303
каннер	-11.5303
▁хуми	-11.5303
▁Гериг	-11.5303
▁Онгоц	-11.5303
▁Байшин	-11.5303
ктуб	-11.5303
▁Мөрөөд	-11.5303
▁илбэчин	-11.5303
▁харьяала	-11.5303
▁цацруул	-11.5303
ЕЛ	-11.5303
▁хоцрогдсон	-11.5303
▁Руанда	-11.5303
▁гайхшрал	-11.5303
▁Хажуу	-11.5304
▁хураалга	-11.5304
▁мөөг	-11.5304
▁бадраа	-11.5304
▁мөчлөг	-11.5304
▁боов	-11.5304
▁нүгэл	-11.5304
▁тайтгар	-11.5304
▁Жули	-11.5304
▁зэмсэг	-11.5304
▁шоу	-11.5304
ly	-11.5304
▁баримжаа	-11.5304
▁бослог	-11.5304
▁хувиарлалт	-11.5304
▁ухаарлы	-11.5304
▁өвөл	-11.5304
▁олиг	-11.5304
▁Музей	-11.5304
▁апп	-11.5304
tt	-11.5304
▁хуйл	-11.5304
▁шулуудсан	-11.5304
▁Либер	-11.5304
▁Хэвлэлийн	-11.5304
▁ферм	-11.5304
▁Хэрэглээ	-11.5304
▁зэхэ	-11.5304
▁студи	-11.5304
▁теннис	-11.5304
▁Цахи	-11.5304
▁Александ	-11.5304
▁Айдас	-11.5304
пон	-11.5304
▁Бодох	-11.5304
▁үсэрч	-11.5304
▁Амралт	-11.5304
▁налуу	-11.5304
▁Сталин	-11.5304
ХӨ	-11.5304
▁2001	-11.5304
▁поп	-11.5304
▁гүрнүүдийн	-11.5305
▁мэлхий	-11.5305
▁ятга	-11.5305
▁Жэнни	-11.5305
▁дагавр	-11.5305
▁хариуцлагы	-11.5305
▁орчуулагч	-11.5305
строн	-11.5305
▁барагсад	-11.5305
▁Колорадо	-11.5305
▁түши	-11.5305
▁литр	-11.5305
▁Ардчилал	-11.5305
▁Жак	-11.5305
▁Гаднаас	-11.5305
▁Камерон	-11.5305
▁бүдгэр	-11.5305
▁мэдэгдэхүйц	-11.5305
▁Сибирь	-11.5305
▁0.3	-11.5305
фика	-11.5305
▁тааралд	-11.5305
▁гинж	-11.5305
▁оромж	-11.5305
▁хассан	-11.5305
▁Бобо	-11.5305
▁цавчих	-11.5305
▁сэрэмж	-11.5305
зүүлбэр	-11.5305
▁болгосноор	-11.5305
▁хатгамал	-11.5305
▁парк	-11.5305
▁гадны	-11.5305
▁Хичээл	-11.5305
▁арлууд	-11.5305
▁хурдасга	-11.5305
▁бяс	-11.5305
▁драм	-11.5306
▁халхавч	-11.5306
▁маргалд	-11.5306
▁Гоё	-11.5306
▁багтаамж	-11.5306
нтрал	-11.5306
▁боолчил	-11.5306
▁өргөрөг	-11.5306
▁микроб	-11.5306
▁хурима	-11.5306
▁1914	-11.5306
▁1,	-11.5306
▁харуулья	-11.5306
огцоо	-11.5306
▁Дели	-11.5306
▁удирдагда	-11.5306
▁пеницил	-11.5306
▁Парис	-11.5306
мбри	-11.5306
▁айрг	-11.5306
▁урлал	-11.5306
▁үржих	-11.5306
▁хадгаламж	-11.5306
▁хялбаршуул	-11.5307
▁тууз	-11.5307
▁уянгал	-11.5307
rit	-11.5307
▁мет	-11.5307
il	-11.5307
▁дээшлүүлэлт	-11.5307
▁тавхай	-11.5307
үрдүүлгий	-11.5307
▁америкчууд	-11.5307
▁Хатгам	-11.5307
▁хөөрөлт	-11.5307
▁түүвэр	-11.5307
ЭН	-11.5307
▁ачаалал	-11.5307
▁мичнүүдэ	-11.5307
▁холбоосууд	-11.5307
▁уншуулах	-11.5307
▁урилга	-11.5307
ing	-11.5308
▁Цааш	-11.5308
▁Матт	-11.5308
▁зуршл	-11.5308
▁хөлбөмбөг	-11.5308
oy	-11.5308
▁Хорвоо	-11.5308
▁орбитоос	-11.5308
▁урагшил	-11.5308
▁хөглө	-11.5308
▁сайхны	-11.5308
▁хэлтэрхийнүүд	-11.5308
▁сөрг	-11.5308
бли	-11.5308
▁сэргийлэх	-11.5308
огоон	-11.5308
▁зөвшөөрөгд	-11.5308
ag	-11.5308
▁тэмдэглэлүүд	-11.5308
▁цоч	-11.5308
▁Доу	-11.5308
▁об	-11.5308
аяарчла	-11.5308
▁хаягдлы	-11.5308
▁шалтгууд	-11.5308
▁сураг	-11.5309
▁шүүгээн	-11.5309
ect	-11.5309
▁дээрэмд	-11.5309
▁сандал	-11.5309
▁Вэй	-11.5309
▁Хадсон	-11.5309
▁балма	-11.5309
үүлэхгүй	-11.5309
▁таамг	-11.5309
▁баримал	-11.5309
▁нэвтрүүлэх	-11.5309
▁эгн	-11.531
▁гэлц	-11.531
▁бэлдэн	-11.531
▁Хүлээ	-11.531
имп	-11.531
▁хучлага	-11.531
▁пүр	-11.531
рика	-11.5311
ИН	-11.5311
▁Ашиг	-11.5311
▁гялс	-11.5311
▁Мари	-11.5311
уучин	-11.5311
▁засаглал	-11.5311
▁тоормос	-11.5311
иран	-11.5311
▁сохрох	-11.5311
▁тоног	-11.5312
кей	-11.5312
үүгл	-11.5312
▁иргэншил	-11.5312
▁уригд	-11.5312
▁Худалдаа	-11.5312
▁өвдөлт	-11.5312
▁түг	-11.5312
▁Атла	-11.5312
▁Дик	-11.5312
▁тээвэрлэлт	-11.5312
▁өвгө	-11.5313
▁Дотоод	-11.5313
онгор	-11.5313
▁Тэсрэлт	-11.5313
▁харьцдаг	-11.5313
▁стр	-11.5313
▁цэнг	-11.5313
▁тээш	-11.5313
▁Дур	-11.5313
▁хур	-11.5313
▁угсар	-11.5313
▁шахалт	-11.5313
▁халдварла	-11.5313
▁доройт	-11.5314
▁бэрх	-11.5314
▁Дани	-11.5314
▁баригч	-11.5314
эсси	-11.5314
▁хүрээлүүл	-11.5315
▁нийцүүлэ	-11.5315
▁дуусчих	-11.5315
▁Нийл	-11.5315
▁Улаан	-11.5315
▁Тим	-11.5315
▁уддаг	-11.5315
▁Крет	-11.5316
▁тэрбумтнууд	-11.5316
▁эвхэгд	-11.5316
▁Ухаан	-11.5316
▁Сонголт	-11.5316
▁Шри	-11.5316
▁нийлүүлэлт	-11.5317
▁залги	-11.5317
▁тивүүдийг	-11.5317
▁байгууллагы	-11.5317
▁ухаарал	-11.5317
▁очихдоо	-11.5318
олбо	-11.5318
▁аашлах	-11.5318
▁өмсөгч	-11.5318
▁үлдэгдэ	-11.5318
▁хөнжл	-11.5318
▁iP	-11.5319
▁цаанаас	-11.5319
▁ихэсгэ	-11.5319
▁ташуу	-11.5319
▁Ве	-11.5319
▁600	-11.532
▁мух	-11.532
▁шижин	-11.532
▁хуваарилалт	-11.532
▁алдчих	-11.532
фе	-11.5321
▁түрээслэх	-11.5321
▁67	-11.5321
▁талбар	-11.5322
▁192	-11.5322
▁дүрсжүүл	-11.5323
▁Долоо	-11.5323
▁арилгачих	-11.5323
▁хэлтнүүдий	-11.5323
▁татагда	-11.5323
▁сонирхлынх	-11.5323
▁ирсний	-11.5323
▁Сонссон	-11.5323
▁хайхра	-11.5324
ртэй	-11.5324
▁одноос	-11.5325
▁Таймс	-11.5325
▁суурьш	-11.5326
▁дангаар	-11.5326
амиды	-11.5326
▁ро	-11.5326
▁гээгээ	-11.5326
▁талархсан	-11.5326
▁илчил	-11.5326
удлаачид	-11.5327
▁Ажилтн	-11.5327
▁Буш	-11.5327
▁Ок	-11.5327
▁нутгууд	-11.5328
▁суд	-11.5328
ламжтай	-11.5328
жуул	-11.5328
▁Мартин	-11.5329
альд	-11.5329
▁замхра	-11.5329
грамы	-11.5329
▁про	-11.533
▁Үз	-11.533
ариф	-11.533
▁нарийвчлал	-11.533
▁бичгүүд	-11.533
▁дургүйц	-11.533
▁итгэлц	-11.533
▁тэгснээр	-11.5331
▁загварчил	-11.5331
▁Сургуулиуд	-11.5331
▁Хатагтай	-11.5331
▁Бүү	-11.5332
▁1950	-11.5332
▁гангал	-11.5333
▁Ka	-11.5333
▁солигдо	-11.5333
▁Аф	-11.5333
▁эрэм	-11.5333
▁настан	-11.5334
▁номло	-11.5334
▁гонс	-11.5334
▁учруулах	-11.5334
▁гайхалт	-11.5335
▁сөхөө	-11.5335
гдчих	-11.5335
▁арчил	-11.5335
▁ТБ	-11.5335
▁Орой	-11.5337
▁нээчих	-11.5337
▁хос	-11.5337
▁мөргө	-11.5338
айз	-11.5339
▁48	-11.5339
▁пр	-11.5339
▁Оношлог	-11.5339
его	-11.534
лэгт	-11.534
▁шивнэ	-11.534
▁Пор	-11.534
▁ойлгогдо	-11.534
▁залруул	-11.5341
▁экспортло	-11.5341
▁согтууруула	-11.5341
▁төвшин	-11.5341
▁өрнүүл	-11.5342
лгэр	-11.5342
▁гүрн	-11.5343
▁195	-11.5343
▁урдах	-11.5344
▁сайжр	-11.5345
▁мөөгөнцр	-11.5345
етро	-11.5345
снуудаа	-11.5346
▁Зөвлөлтийн	-11.5347
▁хэвш	-11.5347
▁тохиролц	-11.5348
ээрэмд	-11.5348
▁фирмүүд	-11.5348
▁дамжуулагч	-11.5348
үндэт	-11.5348
▁автал	-11.5349
▁тосгоноос	-11.5349
гаалтуур	-11.535
▁сонирхдог	-11.535
▁Колла	-11.535
▁инээмсэглэх	-11.5351
зар	-11.5351
▁аймшигт	-11.5351
члэл	-11.5353
▁нуух	-11.5353
▁зүүдлээ	-11.5353
▁навч	-11.5356
▁тогоо	-11.5356
▁Нүү	-11.5356
▁Зөвлөлтүүд	-11.5357
цуулах	-11.5357
▁галзуурч	-11.5359
▁хуваагддаг	-11.536
▁томорс	-11.536
▁манан	-11.536
▁эсэргүүцсэн	-11.5361
▁Кол	-11.5361
▁хөгжүүлэл	-11.5361
▁ханиад	-11.5362
▁сүү	-11.5363
▁эрэл	-11.5364
▁гравитаций	-11.5364
▁Меди	-11.5365
▁ѳмсѳ	-11.5365
▁Най	-11.5365
▁биччих	-11.5365
▁шивэгд	-11.5365
▁шатах	-11.5365
▁колони	-11.5366
▁Шул	-11.5366
▁Масл	-11.5366
▁Гейгел	-11.5366
▁алуурч	-11.5366
▁чадавхи	-11.5366
▁цанга	-11.5368
▁сайшаал	-11.5369
▁Хамтрагч	-11.5369
▁дуусч	-11.5369
▁тэтгэв	-11.5369
▁Пол	-11.5369
▁сууриа	-11.5369
▁Шүрэ	-11.537
амшигт	-11.537
▁диа	-11.537
▁гэгээр	-11.537
▁холилдо	-11.5371
тин	-11.5372
▁Иргэ	-11.5373
▁дайжи	-11.5373
▁өмө	-11.5373
▁Арва	-11.5374
▁дизайнерууд	-11.5375
▁хэрэгтэн	-11.5375
▁Харьцангуй	-11.5376
▁буян	-11.5378
▁тавцан	-11.5378
▁хэлээрэй	-11.5379
▁урамши	-11.5379
▁27-	-11.538
▁догд	-11.5381
▁гажуудуул	-11.5381
▁65	-11.5383
▁Жинхэнүүд	-11.5385
▁месс	-11.5385
▁Хуй	-11.5385
▁үргэлжлүүлсэн	-11.5386
▁сонсогч	-11.5386
▁төрө	-11.5386
▁бутар	-11.5386
▁Хөдөлмөр	-11.5386
ама	-11.5387
▁ногооны	-11.5387
улза	-11.5388
▁Хэрэгж	-11.5389
▁Мос	-11.539
▁суучихаа	-11.5391
▁рад	-11.5391
▁хүчил	-11.5392
илл	-11.5392
лжин	-11.5393
▁байцгаа	-11.5393
▁замхар	-11.5393
▁үзлээс	-11.5393
▁арчаа	-11.5393
▁унтра	-11.5394
нхаарал	-11.5394
▁тэмцэлдээн	-11.5395
▁давхраа	-11.5396
▁хөндийр	-11.5396
▁хуримтлуулсан	-11.5397
▁404-	-11.5397
▁Гав	-11.5398
▁ажиглалтан	-11.5398
▁шаналах	-11.5399
▁хуч	-11.5399
улаа	-11.54
▁чөлөөт	-11.54
▁Эко	-11.5402
▁ажилчин	-11.5402
айдал	-11.5402
▁хэлэлцээ	-11.5403
▁Ни	-11.5404
▁илэр	-11.5404
▁Мөр	-11.5406
▁яригд	-11.5407
амгаалах	-11.5408
АЛ	-11.5408
▁хаачих	-11.5408
▁арилжааны	-11.5409
▁Гал	-11.5409
▁алтны	-11.5409
▁хөлдөө	-11.5411
▁цочроо	-11.5411
▁Сав	-11.5411
▁Po	-11.5412
▁асуултандаа	-11.5413
▁Тер	-11.5413
▁эдгээд	-11.5414
▁Хожи	-11.5414
▁станцууды	-11.5415
▁зөвшөөрүүлэх	-11.5416
олю	-11.5416
▁ашиглагда	-11.5417
▁зассан	-11.5418
▁зугаал	-11.5418
▁болчихдог	-11.5418
енструаци	-11.5419
▁эсгэ	-11.542
▁биширдэг	-11.542
гүүт	-11.542
▁тохирохгүй	-11.5421
▁сүйрсэн	-11.5421
▁зэвсэгт	-11.5422
▁бүтдэггүй	-11.5422
▁жинхэнээр	-11.5423
▁Шат	-11.5424
▁хамтарсан	-11.5424
▁эсэргүүцэл	-11.5425
▁хаалт	-11.5427
элдэх	-11.5428
лман	-11.543
▁хуулиа	-11.5433
лагууд	-11.5437
▁цацрах	-11.5439
▁оролцуулах	-11.5441
▁ээдрээ	-11.5441
▁үлээвэ	-11.5442
▁60-	-11.5442
урал	-11.5443
▁Фл	-11.5444
▁хармаар	-11.5444
углас	-11.5445
▁шүтэх	-11.5446
▁өргөжсө	-11.5447
▁айлга	-11.5448
▁нийлүүлсэн	-11.5449
элмэг	-11.5449
▁гадуурх	-11.5449
▁Хөгши	-11.5449
▁захидлууд	-11.545
▁тархах	-11.545
▁үзмэ	-11.5451
нго	-11.5451
▁6.	-11.5453
▁анзаарах	-11.5457
▁гэдгий	-11.5457
▁тулалда	-11.5458
▁нөгөөгөө	-11.5462
▁бэхжүүл	-11.5462
маркет	-11.5463
▁Аспе	-11.5464
▁шааха	-11.5465
гооны	-11.5465
▁бүтээлчид	-11.5469
эвэрт	-11.547
▁Гэгээр	-11.547
▁нэгнээ	-11.547
▁мэргэжилт	-11.5471
▁манлайлагчды	-11.5472
▁холбогдлы	-11.5473
▁Франциско	-11.5474
▁зэрлэг	-11.5474
хамсар	-11.5475
▁Шах	-11.5475
▁үргэлжлүүлэх	-11.5475
▁царайл	-11.5476
▁одооных	-11.5476
▁Питерий	-11.5477
▁загвараа	-11.5477
▁айдсаа	-11.5477
дит	-11.5478
▁тэмдэглэхгүй	-11.5483
▁зарагда	-11.5485
▁мандах	-11.5486
уссан	-11.5486
▁нөлөөлө	-11.5489
▁улба	-11.5494
▁элсүүл	-11.5494
аавгай	-11.5499
▁технологиуд	-11.55
▁бүлгий	-11.55
▁түрээс	-11.5503
▁хэлэлцэ	-11.5503
▁мэдээллүүд	-11.5504
▁касс	-11.5508
▁сурагчда	-11.5509
▁болзоон	-11.5512
▁мя	-11.5512
▁сандра	-11.5512
▁намт	-11.5513
▁агаарт	-11.5515
▁шилжүүлэ	-11.5515
▁нийгмий	-11.5516
▁оюутнуудаа	-11.5519
▁пат	-11.5522
▁идэвхи	-11.5524
▁дайчи	-11.5525
▁булт	-11.5525
фр	-11.5526
▁амьтдаа	-11.5526
▁ууртай	-11.5528
▁харчих	-11.5529
▁шалгаруул	-11.5531
▁Дон	-11.5534
▁зүйр	-11.5534
▁хөрвүүлэ	-11.5534
үрийвч	-11.5538
хаг	-11.5542
▁эвхэ	-11.5543
▁дуугара	-11.5543
▁мэдүүлж	-11.5543
члон	-11.5547
лөг	-11.5549
▁оношлогд	-11.5549
▁Гэгээрлий	-11.5551
▁Али	-11.5551
стик	-11.5551
▁өргөө	-11.5552
льф	-11.5553
лоос	-11.5555
ези	-11.5555
▁Хамт	-11.5556
▁гэдгээс	-11.5557
▁жаал	-11.5562
▁Амьд	-11.5563
▁хоригдо	-11.5563
▁аймгууды	-11.5564
▁санаачлах	-11.5564
▁ихэс	-11.5564
▁явцгаа	-11.5564
▁саван	-11.5569
▁эзэмшигчд	-11.5571
▁Испаний	-11.5571
▁борлуул	-11.5572
эсэг	-11.5573
▁зүйрлүүлэ	-11.5574
▁наймаа	-11.5577
▁мэдрэхүйнүүд	-11.5578
▁бүлийнхнийх	-11.5578
▁цөөнх	-11.5578
лэхэд	-11.558
удын	-11.5581
▁Яри	-11.5582
дра	-11.5582
▁амьтаны	-11.5582
иа	-11.5585
▁камерт	-11.5587
▁гэрийнх	-11.5588
▁Өч	-11.5588
▁түүгээр	-11.5589
▁ярьчих	-11.5592
▁суудал	-11.5592
▁болсноор	-11.5596
▁хөгжүүл	-11.5597
▁бүтцүүд	-11.5598
атлаа	-11.56
▁ашиглагдах	-11.5601
энэ	-11.5603
▁хамраа	-11.5605
олог	-11.5608
▁мөст	-11.5609
▁доромжл	-11.561
орж	-11.5611
ахын	-11.5612
▁Эдний	-11.5614
▁алахы	-11.5623
▁тавигда	-11.5624
өлөөлөл	-11.5626
▁алин	-11.5629
▁Гэдэ	-11.5631
▁авчирдаг	-11.5632
диан	-11.5633
▁чихрий	-11.5634
▁хөтчөө	-11.5634
▁ярилцсан	-11.5635
▁хамраг	-11.5636
▁сонирхлууд	-11.5638
▁улай	-11.5638
▁сармагчинг	-11.5642
▁өнгөрөөх	-11.5645
гөж	-11.5646
▁авто	-11.5646
▁Бах	-11.5647
▁хүснэ	-11.5648
енетик	-11.565
гдан	-11.5653
▁ген	-11.5656
▁ухамсартай	-11.5656
▁нэгдэл	-11.566
нтон	-11.5661
▁багасгасан	-11.5663
▁дийлэх	-11.5664
▁онцол	-11.5666
▁Үнэл	-11.5669
▁Хол	-11.5675
▁хөрөнгөөр	-11.5678
иад	-11.568
алдаг	-11.5681
▁хац	-11.5682
▁гавла	-11.5683
▁бохирд	-11.5684
▁тусга	-11.5684
сгүүдий	-11.5686
▁дампуура	-11.5687
▁үнэлэгдэ	-11.569
▁мэдсэнээ	-11.5691
▁хүсэхээр	-11.5693
▁хамгаала	-11.5694
▁оюутнуудад	-11.5694
▁хувилбартай	-11.5697
▁суурьшиха	-11.57
▁амьсгалаа	-11.5703
▁ирүүлэ	-11.5704
▁оффис	-11.5707
ДИ	-11.5708
▁өнгийг	-11.5713
▁баталгаажуул	-11.5714
▁шилжүүлэх	-11.5719
рек	-11.572
айсан	-11.5723
▁гүйлд	-11.5726
одит	-11.5732
емент	-11.5735
▁ангижр	-11.5736
алдмаар	-11.5737
▁тохироо	-11.5738
▁хатгах	-11.5741
▁Сургуул	-11.5742
▁ташаа	-11.5742
▁Адр	-11.5742
▁хүмүүжүүлэ	-11.5742
▁үнэлэгд	-11.5743
хам	-11.5745
▁Тэнгэр	-11.5745
▁дуулах	-11.5745
▁хамгаалагд	-11.5764
▁талбайтай	-11.5765
▁Америкууды	-11.5765
агас	-11.5768
▁Др	-11.5774
▁төлөвлөө	-11.5785
▁тэмдг	-11.5787
▁ганцаард	-11.5788
▁цохиу	-11.5791
▁хайрт	-11.5794
▁магт	-11.5798
▁асуув	-11.5798
▁гаригсы	-11.5799
▁зориулдаг	-11.5801
▁зэвсгүүд	-11.5802
▁бахда	-11.5802
▁400	-11.5807
▁амьсгалах	-11.5807
▁үйлчилгээн	-11.581
▁Дохион	-11.5811
▁12-	-11.5812
▁сен	-11.5812
слаг	-11.5824
▁бүрэлдэл	-11.5827
▁тэмдгээ	-11.5833
▁НА	-11.5837
▁наад	-11.5837
▁дурсах	-11.5838
▁чанараа	-11.5838
▁мэдүүлэ	-11.5842
▁ажи	-11.5844
▁эрхлэх	-11.5846
▁болсноо	-11.5848
уудаар	-11.5851
▁төсв	-11.5856
эрэглэсний	-11.5863
▁дун	-11.5868
рүү	-11.5868
▁чинээгээр	-11.587
▁0	-11.5872
▁хагастай	-11.5872
ене	-11.5873
▁багшил	-11.5876
▁ажиглалт	-11.5882
элүүд	-11.5883
наймын	-11.5888
эдэлж	-11.5899
▁хаач	-11.5901
усаа	-11.5902
серв	-11.5907
онал	-11.5914
▁чадлын	-11.5914
▁Өмнөх	-11.5922
арчиг	-11.5927
▁хавууд	-11.5931
▁нээгээ	-11.5938
▁ялгадаг	-11.5942
▁дэлбэрэлтий	-11.5942
▁тогтоол	-11.5942
уусч	-11.5947
▁бөмбөлөгүүдий	-11.5948
вел	-11.597
лга	-11.597
үдгэр	-11.5971
▁цом	-11.5977
вард	-11.5989
▁чанад	-11.5989
гэх	-11.599
▁оньсо	-11.599
▁салат	-11.6001
▁шарх	-11.6004
▁тэгсэн	-11.6005
амгай	-11.6007
▁үйлдвэрлэлт	-11.6012
өөрсөн	-11.6016
аанч	-11.6018
▁террористууды	-11.6022
ЭХ	-11.6037
охоо	-11.6038
▁сүлжээн	-11.6038
▁салгах	-11.6038
▁Нэм	-11.604
▁хэрэгл	-11.6042
▁c	-11.6042
▁чиглэлээ	-11.6043
▁өөрчлөгдөө	-11.6053
үтээмж	-11.6054
▁сануулах	-11.6062
андлага	-11.6062
▁намир	-11.6065
▁гуравдугаар	-11.6072
айрал	-11.6075
AD	-11.6079
▁мэддэгээ	-11.6088
рф	-11.6093
▁бүжигл	-11.6095
▁цэнэглэх	-11.6103
▁зэвсэглэ	-11.6108
ги	-11.6109
▁дайралта	-11.6113
оглон	-11.6115
йлийн	-11.612
▁нэгтгэн	-11.6124
▁төлөвш	-11.6134
аркет	-11.6146
▁зэрэгт	-11.6156
ес	-11.6157
НӨ	-11.6164
▁Элс	-11.6166
▁эвл	-11.617
▁ажиллахаа	-11.6176
ханы	-11.6181
▁дэлбэ	-11.6182
▁Өөд	-11.6183
хаант	-11.6183
▁батж	-11.6184
▁хариуг	-11.6188
▁авал	-11.6189
▁хүүтэй	-11.6191
ими	-11.6191
жуулах	-11.6195
▁утаат	-11.6196
▁Гэрт	-11.6196
▁орлогоор	-11.6202
ру	-11.6215
▁Цар	-11.6225
ээлийн	-11.6228
▁авахуула	-11.6229
▁өрнөдө	-11.6238
▁аймг	-11.6251
▁чим	-11.6252
▁өндөрлөг	-11.6254
▁бардаг	-11.6256
▁иж	-11.6264
▁авс	-11.6264
▁Лад	-11.6275
▁Фрейти	-11.6282
▁цуцла	-11.6285
ep	-11.6286
▁тусч	-11.6289
▁цэнэг	-11.6298
▁эмэгтэйчүүдтэй	-11.6299
▁жолоодох	-11.6304
▁үхдэг	-11.6308
▁Морокког	-11.633
НЭР	-11.633
-2	-11.6336
▁Нүд	-11.6338
▁хэрэглэгдэ	-11.634
▁бүлтэй	-11.634
▁дарагд	-11.6343
▁харь	-11.6343
▁жор	-11.6345
▁үнэгүй	-11.6352
рок	-11.6354
▁Шид	-11.6356
▁хуудсууд	-11.6357
▁ухуул	-11.6368
▁мартагд	-11.637
▁амраар	-11.6387
▁нарийвчла	-11.6393
▁торон	-11.6395
▁өдөөг	-11.6395
▁тоглоо	-11.6408
▁утгууд	-11.6422
эрүүл	-11.6443
▁Оролдо	-11.6445
өөж	-11.6458
▁Ядуур	-11.6465
▁харьцуулж	-11.6469
▁онгоцнууд	-11.6472
▁өвчинд	-11.6487
un	-11.6508
▁там	-11.651
▁хүртэ	-11.651
ель	-11.6533
▁Арм	-11.6537
▁шавха	-11.6542
▁гарагс	-11.6543
▁чадахаар	-11.6563
▁Улсы	-11.6568
▁хичээллэ	-11.6573
ити	-11.6574
▁нөхдөө	-11.6577
▁Пе	-11.6577
▁дурьда	-11.6579
▁үүдэн	-11.6581
▁даамжр	-11.6586
▁гарчиг	-11.659
▁аваачих	-11.6593
▁чадлы	-11.6594
▁үндэслэл	-11.6595
▁тохируула	-11.6599
▁эндэгдл	-11.6606
▁алдаанууд	-11.6607
▁үер	-11.6624
▁Аман	-11.6637
▁цацагд	-11.6652
▁үйлдвэрүүд	-11.666
▁Саг	-11.668
▁атомууд	-11.6684
▁халда	-11.6692
▁зангаар	-11.6695
▁хайрцгаас	-11.6712
зайн	-11.6717
▁хөдлөлөөс	-11.6718
▁электронууд	-11.672
▁түрхэ	-11.6731
вин	-11.6733
▁сорь	-11.6734
▁тоосгон	-11.6736
▁олши	-11.6745
модан	-11.6751
▁цэгүүд	-11.6751
▁хэрэгжүүлэ	-11.6762
босно	-11.6787
▁улсаа	-11.6788
▁эргэлдэ	-11.6804
▁бүтээгчийнх	-11.6809
▁урууд	-11.6813
▁үйлдвэрт	-11.6815
▁анализы	-11.6828
ныхоо	-11.6835
▁бодисууд	-11.6839
луугаа	-11.6861
▁бурууг	-11.6865
▁түрүүчий	-11.687
▁өнд	-11.6875
500	-11.6881
автсан	-11.6885
▁сэрэ	-11.6902
▁Тэрнийг	-11.6906
▁Мад	-11.6912
▁ангийнха	-11.6912
an	-11.6914
гчтай	-11.6926
▁и	-11.6931
▁биржэ	-11.6935
▁цэгт	-11.6944
▁хэвэнд	-11.6946
оло	-11.6948
ймс	-11.6949
гол	-11.6968
▁гайхшруула	-11.6968
▁Хэмж	-11.6971
▁хонхорхойг	-11.6972
▁Фран	-11.6977
▁Кан	-11.6983
▁халааснаа	-11.6984
уух	-11.6988
▁тайвны	-11.6999
▁карта	-11.7009
от	-11.701
▁мэндэл	-11.7012
цуул	-11.7014
▁хуваагдсаны	-11.7031
▁Мэдлэг	-11.7037
▁Кор	-11.7038
▁гайхшруул	-11.7046
олимер	-11.7053
▁гамшг	-11.7056
▁хуура	-11.7073
▁Мел	-11.7082
▁Чей	-11.7083
АХ	-11.7097
▁ѳѳрч	-11.7109
▁хамаарахгүй	-11.7134
▁Кино	-11.7164
▁хөгшрөх	-11.7187
▁инженерч	-11.7202
▁хамтар	-11.7204
▁ертөнцөө	-11.7214
▁ирсэнд	-11.7227
рис	-11.7231
▁чирэ	-11.7255
▁Баатар	-11.7256
атан	-11.729
▁сэнс	-11.7336
онко	-11.7351
▁түрүү	-11.7399
елинг	-11.7409
▁Захи	-11.7411
тний	-11.7412
▁хуудса	-11.7412
▁тэргүү	-11.7415
▁Харах	-11.7427
▁өвчн	-11.743
▁Үйлдвэр	-11.7453
скопоор	-11.7488
▁Микро	-11.7489
▁сувг	-11.7497
хин	-11.7501
▁оных	-11.7526
▁тааруу	-11.7546
▁хурдла	-11.7551
ca	-11.7551
▁тогтолцоон	-11.7574
▁одоогоо	-11.7587
ангал	-11.7599
▁сорилты	-11.761
▁Ах	-11.7615
▁идэгд	-11.7616
▁нутг	-11.762
▁өргөж	-11.7629
▁асааха	-11.7642
▁муудса	-11.7644
▁зэм	-11.7645
▁хурууг	-11.7652
201	-11.7653
▁зарцуула	-11.7666
сгала	-11.7668
▁хамтрах	-11.7669
▁онго	-11.7669
▁мэтгэлцээний	-11.77
▁эк	-11.772
▁төвлөрүүл	-11.7723
▁Хан	-11.7737
▁экстровертууда	-11.7748
▁суурьши	-11.7765
үнс	-11.7776
▁битүүл	-11.7805
▁нийлүүлснээ	-11.7809
логи	-11.782
ѳѳр	-11.7822
гас	-11.7824
▁хөгжилд	-11.7844
▁захиан	-11.7853
▁суугчд	-11.7863
▁ухаара	-11.7882
▁бая	-11.7882
рнэ	-11.79
лаар	-11.7906
▁Пра	-11.796
▁алдахаас	-11.8033
▁асуудлууды	-11.8054
▁эзэмшсээ	-11.8057
коз	-11.807
▁хоёула	-11.8079
▁босо	-11.8115
▁Буд	-11.8128
▁хөрөнгөө	-11.8162
уг	-11.8173
-30	-11.8178
өхөөс	-11.8185
▁жижигхэ	-11.8195
гдуулах	-11.8204
▁ява	-11.821
▁зайнууд	-11.8215
атаа	-11.8244
улга	-11.8252
▁мөрөөдө	-11.8255
▁олс	-11.8269
▁тэгшитгэлээ	-11.8293
▁таала	-11.8303
00-2	-11.8304
▁харилцааг	-11.8312
▁Кат	-11.8322
▁эхэлснээ	-11.8339
нжин	-11.8347
өхөд	-11.8359
ми	-11.8364
▁харамса	-11.8368
гарсан	-11.8374
гор	-11.84
ату	-11.8436
▁бэлг	-11.8439
▁компьютерт	-11.8457
эгдэх	-11.8457
▁дута	-11.8469
өрснөөс	-11.8486
ѳнхий	-11.851
ме	-11.852
ацаах	-11.8525
▁бүтээс	-11.8533
▁видеог	-11.8534
▁Салхин	-11.8545
▁анхаарлы	-11.8549
энни	-11.856
▁даалгавр	-11.8575
▁Хор	-11.8586
▁арх	-11.8589
ак	-11.8591
лдэ	-11.8601
▁туршилтууд	-11.8632
ых	-11.864
▁өнгий	-11.8652
▁хариултууд	-11.8662
▁төсл	-11.8667
▁Арабууд	-11.8689
акк	-11.8714
▁Биологи	-11.872
▁тахи	-11.8744
Вей	-11.8765
▁Хувьс	-11.8771
▁авчээ	-11.8782
▁хори	-11.8802
▁баялгаа	-11.8823
гүүртэй	-11.8824
▁На	-11.8828
хуй	-11.884
▁хойноо	-11.8843
▁тоогоор	-11.8849
▁өрсөлдөх	-11.8854
▁суурилуула	-11.8866
▁зохиолууд	-11.8875
цасны	-11.8889
▁сү	-11.8935
▁спорты	-11.8945
икс	-11.8946
▁өөрчлөлтүүд	-11.8953
▁алхаа	-11.8962
гаж	-11.8967
▁хуулиуд	-11.897
▁үйлчлэ	-11.9008
жи	-11.9032
▁Сп	-11.9101
▁хайрлаа	-11.9103
▁ойртох	-11.9115
▁Монголы	-11.912
ект	-11.9121
дамжин	-11.9123
▁шанала	-11.9133
▁Кавказы	-11.9136
▁пирамиды	-11.914
▁мөрөөд	-11.914
▁молекулы	-11.9143
▁Одон	-11.9146
▁Гуравда	-11.9152
▁хүрээн	-11.9166
▁ургуулах	-11.9172
▁молекул	-11.9191
▁пирамид	-11.9191
▁Кавказ	-11.9196
ter	-11.9199
▁Монгол	-11.9212
▁асуудалгүй	-11.9215
▁хичээлээс	-11.923
лхан	-11.9249
арха	-11.9259
▁маягаа	-11.926
▁ургуулахы	-11.9303
▁ургамл	-11.9313
▁хоно	-11.9318
▁тэмц	-11.9341
▁ааж	-11.9351
арган	-11.9352
▁арилгах	-11.9367
▁нууцаа	-11.9367
▁Бру	-11.9371
▁чадварууд	-11.9371
эднийг	-11.9387
дар	-11.9417
▁Ул	-11.9419
гамал	-11.943
▁мөхөх	-11.9461
уца	-11.9475
▁Офф	-11.9503
▁Конго	-11.9516
▁нийтэ	-11.9533
ха	-11.9541
В	-11.9556
ялах	-11.9589
▁дорн	-11.9589
▁ургамлы	-11.96
рээр	-11.9605
▁зориулсн	-11.9615
▁арилгахы	-11.9616
▁баривч	-11.9622
лим	-11.9629
ууш	-11.9648
изм	-11.9733
▁хэсгээр	-11.9739
цар	-11.9781
▁хаз	-11.9814
▁бүтээлчдий	-11.9845
▁Tr	-11.9873
70-	-11.9885
ши	-11.99
95	-11.9907
кл	-11.9914
▁Ки	-11.9935
олгож	-11.9941
усгай	-11.9945
лэгчтэй	-11.9952
▁гарсн	-11.9975
▁оногд	-11.9986
▁ажилладг	-12.0002
▁Стрессий	-12.0023
▁хүрээлэлд	-12.0029
чихоо	-12.0072
▁Хон	-12.0092
▁илгээж	-12.01
▁Оюу	-12.0125
▁илж	-12.0128
▁цонхо	-12.014
дахгүй	-12.0175
тгэл	-12.0177
одсон	-12.0194
▁зорилгы	-12.0212
▁чанарууд	-12.0234
длууд	-12.0241
▁тосгоноо	-12.0303
айван	-12.0409
артай	-12.0418
раг	-12.0444
▁нэвтрүүлгий	-12.0445
КС	-12.051
▁дө	-12.0511
цут	-12.0516
лѳѳ	-12.0517
оломт	-12.0542
▁Алда	-12.0571
▁Гайх	-12.0578
▁гаригууд	-12.0578
▁бүрхэгд	-12.0603
▁хүл	-12.0607
▁Үүл	-12.062
▁11.	-12.0685
▁Бууда	-12.069
лдээ	-12.0701
▁эсэргүүц	-12.0719
кст	-12.0722
▁итг	-12.0741
▁өөрчлөлтө	-12.0752
▁тулах	-12.0839
▁Эмигий	-12.0866
▁мэтгэлцээн	-12.0868
пто	-12.0887
▁баяс	-12.0943
▁хара	-12.0947
▁Ший	-12.0974
▁оролдлог	-12.0993
инууд	-12.0998
▁Америкууд	-12.1001
▁квадратууд	-12.1011
хрийн	-12.1013
▁бүлгээ	-12.1018
▁хотуудаа	-12.1039
▁Тэгснээ	-12.1081
▁ги	-12.1195
▁доороо	-12.121
үрэх	-12.1213
ба	-12.1217
▁санан	-12.1236
▁цэгээр	-12.1241
▁хүнийхээ	-12.1242
орви	-12.1244
одер	-12.1249
ез	-12.1283
ичих	-12.1319
▁ме	-12.1349
ЛА	-12.1353
энц	-12.1375
▁Боло	-12.1413
ien	-12.1438
▁тавигд	-12.1442
▁өөрс	-12.1454
адгалах	-12.1467
▁па	-12.1496
▁битүү	-12.1515
чим	-12.1521
▁дүүр	-12.1522
▁гуравда	-12.1527
▁хөз	-12.1534
▁Илтгэл	-12.1537
ог	-12.1578
▁тэсэ	-12.1579
▁нэгдэ	-12.159
▁мартаа	-12.159
▁дурлал	-12.1635
▁ихэнхи	-12.1637
▁хаад	-12.1651
▁орноо	-12.1675
▁загварууд	-12.168
Pa	-12.1683
▁хотууда	-12.1687
▁хорло	-12.169
эгждэг	-12.1703
0,000	-12.1706
▁ноо	-12.1728
ойто	-12.1735
▁судалгаагаа	-12.1756
▁дуусаа	-12.1759
ейнс	-12.1764
▁Цас	-12.1773
▁ярилцлагаа	-12.1788
▁тулгуурл	-12.179
▁уруу	-12.179
ГА	-12.1815
лимер	-12.1829
▁тайвн	-12.1899
▁хөдөлгөс	-12.1907
ачи	-12.1926
▁хуваагдсан	-12.1932
▁Кли	-12.1943
▁хамаарах	-12.1978
олон	-12.1997
▁үзэгч	-12.2011
ям	-12.2021
ner	-12.2054
сүү	-12.2058
анц	-12.2104
▁өндий	-12.2115
белий	-12.2116
▁Хими	-12.2123
▁ич	-12.2145
▁аялга	-12.2188
▁гэгээнтн	-12.2195
▁түрүүч	-12.2208
руул	-12.2227
▁хийснээ	-12.2256
▁дү	-12.2257
▁бүрдэн	-12.227
айрамда	-12.2283
▁эхийнх	-12.2329
ns	-12.2329
▁орсн	-12.2346
нтлаг	-12.2348
ази	-12.236
имич	-12.2386
▁Сө	-12.2389
гдсөн	-12.2433
ерт	-12.2438
▁бүрхэг	-12.2449
орт	-12.2468
жлийн	-12.2475
▁тэнх	-12.2501
▁математикаар	-12.2502
үйлдвэрлэлд	-12.252
▁ху	-12.2527
салгаа	-12.253
▁хөлөөр	-12.2544
-19	-12.2555
▁До	-12.2569
цгий	-12.2627
▁урууда	-12.2646
▁донто	-12.2654
▁үйлдвэрээ	-12.2662
ерв	-12.2664
▁барив	-12.2675
▁өгүүлбэрээ	-12.2679
▁гу	-12.2687
▁аманд	-12.2687
евр	-12.2692
▁заналхийл	-12.2696
омог	-12.2698
пп	-12.276
▁үеэ	-12.2781
▁бүтээгдэхүүний	-12.2785
one	-12.2792
▁жагсаалтаа	-12.2793
арахад	-12.2813
▁Ма	-12.2826
▁Оролд	-12.284
▁Конс	-12.2853
лүүлэх	-12.2855
рагчид	-12.2862
удаа	-12.2879
▁Фи	-12.2882
▁утаснууды	-12.2907
нэг	-12.2928
▁дурда	-12.2933
ороо	-12.2944
агнах	-12.2955
▁со	-12.2975
▁цув	-12.3015
лдах	-12.3036
май	-12.304
▁Марк	-12.3053
▁Саган	-12.3072
төн	-12.3073
▁ЭНЭ	-12.3083
▁Об	-12.3088
▁одох	-12.3094
▁Шалга	-12.3095
энүүд	-12.3101
▁тооцоог	-12.3102
▁Ду	-12.3109
өрвөл	-12.3134
ЙН	-12.3136
▁аялл	-12.3139
▁Өрөөн	-12.314
▁цуц	-12.3152
огчид	-12.3163
▁це	-12.3174
▁сер	-12.3182
▁маргааны	-12.3191
▁хуудаснаа	-12.321
ллага	-12.3239
▁Дар	-12.3245
▁хал	-12.3249
▁Арг	-12.3261
▁хулгай	-12.3263
0-	-12.3294
▁Өнд	-12.3299
▁120	-12.33
▁хэвл	-12.331
▁амраа	-12.3337
▁хуудсаа	-12.3345
▁хэлэм	-12.3376
▁хүндрэлтэй	-12.3376
▁ногд	-12.3377
олд	-12.3377
▁давхр	-12.3397
▁36	-12.3409
эглэл	-12.341
рох	-12.3437
▁Аанха	-12.346
өлдө	-12.3484
үлэн	-12.3486
▁Дот	-12.3492
▁ута	-12.3506
▁ажилчда	-12.3507
мор	-12.3516
▁мэдүүл	-12.3529
apm	-12.3551
▁тооцоолл	-12.3566
ца	-12.3569
огдох	-12.3571
олин	-12.3572
айны	-12.3618
1	-12.362
▁ё	-12.3643
▁мөсөө	-12.369
өөлөл	-12.3691
лэгдсэн	-12.3709
▁Бурханы	-12.373
▁цуур	-12.3731
ссе	-12.3743
▁Балкан	-12.3747
80	-12.3754
ок	-12.3764
эе	-12.3773
▁хичээхээ	-12.3781
▁хулгайл	-12.3781
▁1900	-12.3788
▁эмнэлгээ	-12.3804
мэгц	-12.3818
▁хүмүүжүүл	-12.3827
өгч	-12.3829
▁эхэн	-12.3842
өрөх	-12.3843
стөрөгчий	-12.3853
эмжээ	-12.3868
бара	-12.3874
▁хандлагаа	-12.3878
▁дуртайя	-12.388
өөрөх	-12.3882
▁Хом	-12.3895
үүлнэ	-12.39
▁гарам	-12.3903
лөгт	-12.3914
▁автоматжуул	-12.3945
et	-12.3968
▁хангагд	-12.3969
▁орги	-12.397
▁бурх	-12.3974
энгэрт	-12.4003
хнаа	-12.402
офи	-12.4036
▁марга	-12.4045
сдын	-12.4056
nt	-12.4069
▁Тэдэнтэй	-12.4073
▁II	-12.4085
▁Дохио	-12.4106
▁үйлчилгээ	-12.4109
▁агаараа	-12.411
▁харш	-12.4118
▁анзаараа	-12.4121
чи	-12.4128
рийнхөө	-12.4145
гац	-12.4146
ланк	-12.4147
▁барилаа	-12.4153
одон	-12.4159
рлуулах	-12.4168
98	-12.4175
лгүүр	-12.4177
▁жолоод	-12.4188
уулснаар	-12.4189
▁орхигд	-12.4196
өртэй	-12.422
логч	-12.4223
лагдах	-12.4227
▁цацаг	-12.4229
▁дурсамжаа	-12.4244
орьсон	-12.4265
▁бүрэлдэ	-12.4276
▁өнг	-12.428
гүүлсэ	-12.4284
▁үүсвэрээ	-12.43
уз	-12.43
▁ярьсн	-12.4304
урын	-12.4308
уурч	-12.4315
▁Со	-12.4342
ракт	-12.4369
▁төсвий	-12.4375
▁дампуур	-12.4381
▁тэтг	-12.4399
өгийн	-12.4408
▁эхчүүдээ	-12.4411
▁галактикт	-12.4412
▁Сони	-12.4418
агц	-12.4427
▁амралтаа	-12.4432
▁дийл	-12.4433
▁дурса	-12.4436
▁авилг	-12.4455
эст	-12.4461
▁баталгаажуула	-12.4463
ангуй	-12.447
▁харгалз	-12.4477
асчих	-12.4484
рэгтэй	-12.4493
уст	-12.4494
▁хөтч	-12.4501
цан	-12.4501
▁бур	-12.4519
шуудан	-12.452
▁томруул	-12.4533
▁гене	-12.4536
▁дурынх	-12.4538
▁гуни	-12.4577
▁дордо	-12.4578
фа	-12.4581
▁Зэв	-12.4591
▁хуваагд	-12.4597
7-	-12.4609
ридж	-12.4616
▁му	-12.4625
▁давтагдса	-12.4626
▁Сэтгэлийн	-12.4629
▁дур	-12.463
▁урамшуул	-12.4632
▁зүйрлүүл	-12.4639
▁сургуули	-12.4647
порт	-12.4651
▁давхарл	-12.4651
▁атла	-12.4657
▁тэнц	-12.4662
рөх	-12.4691
▁бяц	-12.4696
алагд	-12.4702
▁жоо	-12.4712
мэг	-12.4717
▁таларх	-12.4718
▁ажиглагч	-12.4719
лстөрчид	-12.4733
▁хөрвүүл	-12.4736
лцан	-12.4746
▁хийнээ	-12.4751
эгш	-12.4758
▁цацра	-12.4762
диа	-12.4767
мир	-12.4772
▁довт	-12.4778
▁атг	-12.4781
▁Үргэлж	-12.4784
▁дал	-12.4787
илгаа	-12.4793
▁Нээрэ	-12.4793
биологи	-12.4793
▁Жинх	-12.4795
▁өнгөрүү	-12.4812
▁дуугаа	-12.482
▁сольс	-12.4834
▁тэргүүл	-12.4838
гагүй	-12.484
лло	-12.4843
▁эцсээ	-12.4844
▁харла	-12.4845
үүхэлдэйг	-12.4845
▁харьц	-12.4847
ралтаар	-12.4859
цэг	-12.4864
▁байгуулагд	-12.4867
рхай	-12.4874
▁зэрлэгээ	-12.4879
▁сонсов	-12.4897
▁гайхшр	-12.4901
▁160	-12.4903
▁завсар	-12.4909
▁Асп	-12.4912
гарах	-12.4914
ацтай	-12.4915
▁Гравит	-12.4917
▁дурс	-12.4919
врагч	-12.4925
сэг	-12.4929
▁тулалд	-12.4933
▁захидл	-12.4941
кре	-12.495
айлдс	-12.4953
▁сөнө	-12.4956
▁Байгали	-12.4959
▁агш	-12.4965
▁өөдөө	-12.4972
▁үсэ	-12.4986
▁Тод	-12.4993
▁Дунд	-12.4995
▁боловср	-12.4995
үтгэх	-12.4998
ѳрий	-12.5002
▁Хөрөнг	-12.5009
▁Менстру	-12.5013
▁сонг	-12.5014
▁доошлуул	-12.5017
▁Бичи	-12.5019
▁станц	-12.5022
хүчилтөрөгч	-12.5024
ут	-12.5024
▁огц	-12.5034
▁математикч	-12.5036
▁нү	-12.5037
▁шагна	-12.5039
▁жиш	-12.5042
өглө	-12.5045
▁Перси	-12.5049
▁насных	-12.5051
▁нуруу	-12.5054
▁Зөвлөлт	-12.5055
айк	-12.5056
▁цочро	-12.5057
▁Ги	-12.5058
▁дүнгээ	-12.5059
ологи	-12.5059
логотой	-12.5074
▁Тоглоо	-12.5083
▁бүрэлд	-12.5087
лз	-12.5088
▁агентлаг	-12.5089
▁түрэмгий	-12.509
▁Хөдөлмөрий	-12.5093
▁хутг	-12.5094
▁хѳгж	-12.5094
тө	-12.5094
рхой	-12.5095
гэвэл	-12.5095
ессэжүүд	-12.5097
▁сол	-12.5097
▁хүрэлцэ	-12.5104
гаригууд	-12.5106
▁төг	-12.5108
▁соли	-12.5108
фф	-12.5112
▁Эзэ	-12.5112
длий	-12.5114
врейчүүд	-12.5117
▁цэл	-12.5119
Po	-12.5121
▁цэц	-12.5121
гурвы	-12.5123
▁ухаарс	-12.5124
▁дизайнер	-12.5126
▁Марга	-12.5126
метр	-12.5127
▁залг	-12.5127
▁5,	-12.5127
▁шата	-12.5129
▁дээрдэ	-12.5132
суудлаас	-12.5133
▁холилд	-12.514
колони	-12.5144
чадавхи	-12.5144
▁Гейге	-12.5144
исон	-12.515
▁Жу	-12.515
▁гравитаци	-12.5151
▁зу	-12.5152
▁цэ	-12.5153
▁ханиа	-12.5154
зу	-12.5154
эвхитэй	-12.5156
луулсан	-12.5157
ѳдѳр	-12.5159
шулуу	-12.5159
системтэй	-12.5159
▁сайшаа	-12.5159
Ч	-12.5162
▁Няра	-12.5163
лбар	-12.5168
ква	-12.5169
устай	-12.517
Бай	-12.517
Турк	-12.5171
Сахар	-12.5173
аран	-12.5174
томоор	-12.5174
микроскоп	-12.5176
техник	-12.5176
▁шүүмжл	-12.5176
долларын	-12.5177
Хараа	-12.5177
▁хөвгүү	-12.5177
инженер	-12.5178
Палестин	-12.5178
Е	-12.5178
Ш	-12.5178
Я	-12.5179
▁самба	-12.5179
▁үзүү	-12.518
Африк	-12.5181
▁авд	-12.5181
олво	-12.5181
Маш	-12.5181
Ийм	-12.5181
технологи	-12.5182
▁Энерги	-12.5185
100	-12.5186
вирусы	-12.5186
▁болзоо	-12.5186
▁10,	-12.5187
газар	-12.5187
рам	-12.5187
нженерүүд	-12.5188
▁фирм	-12.5188
өрөгч	-12.5192
театр	-12.5195
▁институ	-12.5197
34	-12.5198
▁тайлбарл	-12.5199
айрлах	-12.5201
оф	-12.5201
айда	-12.5203
Жон	-12.5205
▁бэрхшээ	-12.5205
▁экспорт	-12.5206
▁жарга	-12.5207
▁мөөгөнц	-12.5207
орох	-12.5209
▁шаардлаг	-12.5213
▁Гели	-12.5215
Хой	-12.5219
▁хэлэлцүүлг	-12.5221
▁ойлгов	-12.5222
▁сөхө	-12.5222
▁нийлүүлэхэ	-12.5222
24	-12.5223
бай	-12.5223
▁тэмдэ	-12.5224
дэвхжи	-12.5227
▁Эрэгтэй	-12.5228
▁солигд	-12.5228
▁хэсэ	-12.5229
▁хууч	-12.523
байл	-12.5231
▁тү	-12.5231
▁өөрчилө	-12.5231
▁шүүмж	-12.5232
үчилтөрөгч	-12.5233
Хэн	-12.5234
мп	-12.5234
▁тра	-12.5236
▁ойлголц	-12.5237
▁дохи	-12.5238
Кар	-12.5241
▁гам	-12.5242
рүүлэ	-12.5243
▁нэвтрэ	-12.5247
▁ганга	-12.5249
▁дуулга	-12.525
▁алив	-12.525
▁оньс	-12.525
▁Дарв	-12.525
▁өргөдө	-12.5251
Таны	-12.5253
лле	-12.5254
▁чалч	-12.5255
▁гиш	-12.5255
ройд	-12.5255
удыг	-12.5256
уль	-12.5257
еди	-12.5257
үнтэй	-12.526
өшөө	-12.5261
▁Чу	-12.5262
▁хэрэгслүү	-12.5263
алуурч	-12.5264
ЭРЭ	-12.5264
гдлүүдий	-12.5265
треп	-12.5267
▁анагаа	-12.5268
уулагч	-12.5268
▁гүйц	-12.5271
вирал	-12.5271
лгосон	-12.5271
▁андуу	-12.5272
оё	-12.5275
өмө	-12.5275
▁ради	-12.5277
ффи	-12.5278
унд	-12.5278
▁сууц	-12.5279
▁Интернэ	-12.5279
лок	-12.528
▁Худал	-12.528
Сэрг	-12.5281
▁тоормо	-12.5282
хоё	-12.5282
барь	-12.5283
овоо	-12.5283
шигт	-12.5285
▁бөмб	-12.5285
лбэрт	-12.5285
▁үрэл	-12.5286
▁Турши	-12.5287
880	-12.5288
▁яддаг	-12.5288
▁давирха	-12.5288
▁жагса	-12.5288
0-70	-12.529
өлбөмбөг	-12.529
алин	-12.5291
▁оюут	-12.5291
үснэгт	-12.5292
рөл	-12.5292
ализ	-12.5292
элэлцүүлэг	-12.5292
йв	-12.5292
уруутай	-12.5292
▁Жиш	-12.5293
лгааг	-12.5293
▁эзэм	-12.5293
үчирхийллий	-12.5293
▁бүртгэгд	-12.5294
▁толго	-12.5294
▁зөвшөө	-12.5294
Бид	-12.5294
▁пениц	-12.5295
▁Sp	-12.5295
▁Тайм	-12.5296
▁Исла	-12.5296
кро	-12.5296
▁сэгс	-12.5297
мбэ	-12.5297
▁Үзүүл	-12.5297
▁горьд	-12.5298
олорадо	-12.5298
▁занги	-12.5298
олекулы	-12.5299
спани	-12.5299
анлайлагч	-12.5299
гтлолцл	-12.5299
ниула	-12.5299
өргөлдөөн	-12.5299
▁Алекс	-12.5299
өхөөрөмжөө	-12.53
ерроризм	-12.53
үрнүүдийн	-12.53
охиолдлоо	-12.53
өрөлх	-12.53
узей	-12.53
сөлт	-12.53
▁Хэвлэ	-12.53
өлөвлө	-12.53
огтвор	-12.53
эмцэл	-12.53
үлхүүр	-12.53
ексик	-12.53
үйцэтгэх	-12.53
ойронд	-12.5301
▁физи	-12.5301
лей	-12.5301
эдүүлээ	-12.5301
аримжаа	-12.5301
урвалжлаг	-12.5301
элбэрэлт	-12.5301
олгой	-12.5301
▁Зохио	-12.5301
кадеми	-12.5301
▁Матери	-12.5301
тратеги	-12.5301
Ю	-13.909
!	-13.9091
ъ	-13.9092
♫	-13.9093
ѳ	-13.9094
З	-13.9095
:	-13.9096
)	-13.9097
?	-13.9098
Э	-13.9099
q	-13.91
&	-13.9101
