<unk>	0
<s>	0
</s>	0
▁	-2.80808
▁,	-3.18096
▁.	-3.20828
yang	-3.80534
an	-4.16785
;	-4.23988
▁dan	-4.26527
▁&	-4.27053
▁di	-4.30548
quot	-4.30995
▁saya	-4.38557
nya	-4.42047
i	-4.50061
-	-4.56895
kan	-4.66637
▁ini	-4.74041
▁se	-4.92534
▁kita	-5.00726
a	-5.08407
▁anda	-5.10543
▁tidak	-5.11687
▁ke	-5.12124
▁ber	-5.14147
▁dalam	-5.18419
▁untuk	-5.23786
lah	-5.31272
▁dengan	-5.32138
▁ia	-5.34516
▁Saya	-5.35842
▁itu	-5.3867
▁mereka	-5.39085
▁ada	-5.44635
akan	-5.55374
▁orang	-5.58829
▁kami	-5.5929
▁boleh	-5.59699
▁?	-5.77769
▁apa	-5.78754
▁pada	-5.85208
▁Ia	-5.88314
▁satu	-5.88551
▁me	-5.88857
▁telah	-5.88864
▁tahun	-5.91149
▁lebih	-5.91264
▁Dan	-5.91702
▁s	-5.9548
▁ialah	-5.96812
▁daripada	-6.05654
(	-6.07519
▁)	-6.07563
▁kepada	-6.0863
▁m	-6.14827
▁tentang	-6.16861
▁semua	-6.19972
▁:	-6.21744
▁seperti	-6.21787
k	-6.22485
s	-6.23852
▁dari	-6.25447
▁atau	-6.26859
▁Se	-6.29153
▁dia	-6.29255
—	-6.30871
seorang	-6.31875
▁dapat	-6.32188
ah	-6.33173
▁ter	-6.34666
▁Jadi	-6.35651
▁b	-6.36433
▁masa	-6.38626
▁kerana	-6.40638
▁banyak	-6.42631
n	-6.44298
▁per	-6.4437
▁menjadi	-6.48174
h	-6.4866
▁Ini	-6.49396
u	-6.49877
▁Kam	-6.51383
▁tahu	-6.51558
buah	-6.5264
▁be	-6.52827
▁perlu	-6.55941
▁bukan	-6.56618
.	-6.58025
▁memp	-6.58532
▁S	-6.60344
tu	-6.60857
▁mahu	-6.61535
▁perkara	-6.62805
ng	-6.63043
▁juga	-6.63182
▁Kita	-6.64958
▁lain	-6.65298
▁T	-6.66055
bila	-6.68155
▁pe	-6.68642
ka	-6.68916
▁dunia	-6.70006
▁Te	-6.70452
▁oleh	-6.71354
▁baik	-6.72014
jika	-6.72559
at	-6.72568
▁tapi	-6.74131
▁ba	-6.74135
▁p	-6.74266
▁Apa	-6.74584
▁bagi	-6.76872
kah	-6.76912
▁mana	-6.77104
▁K	-6.77634
r	-6.78066
▁Dia	-6.78456
▁meng	-6.78702
angat	-6.79316
berapa	-6.81088
▁data	-6.81604
▁hanya	-6.83071
▁mungkin	-6.83584
ang	-6.83734
▁baru	-6.85326
cara	-6.85992
▁hidup	-6.86642
tiap	-6.87456
t	-6.88349
unya	-6.89396
▁men	-6.89434
▁sama	-6.89612
si	-6.90789
▁mem	-6.91048
▁lag	-6.91943
▁hari	-6.93517
▁sesua	-6.93791
▁wanita	-6.94299
al	-6.94744
▁Anda	-6.94885
▁cara	-6.95959
▁bahasa	-6.96442
▁tetap	-6.973
▁besar	-6.98735
▁D	-6.99359
▁negara	-6.99691
▁sebagai	-7.00465
▁tak	-7.00719
▁melakukan	-7.00875
▁Tap	-7.00944
▁memberi	-7.01005
▁melihat	-7.01282
▁berlaku	-7.01334
▁manusia	-7.01345
▁terdapat	-7.0136
▁mula	-7.04505
wa	-7.06045
pun	-7.06108
▁kasih	-7.07462
▁diri	-7.075
▁membuat	-7.0967
tapi	-7.09823
▁Tepukan	-7.10328
▁rasa	-7.10686
▁lakukan	-7.11329
▁lihat	-7.1217
▁kata	-7.13179
▁pertama	-7.13937
▁♫	-7.14799
▁penting	-7.17477
▁sedang	-7.17886
▁Merek	-7.18057
e	-7.20602
▁berada	-7.21062
▁P	-7.21966
▁menggunakan	-7.22913
▁begitu	-7.23019
▁lelaki	-7.23931
ramai	-7.24343
hawa	-7.24809
▁t	-7.25099
karang	-7.25258
▁sel	-7.2613
▁antara	-7.26134
▁kamu	-7.27204
▁sini	-7.27552
▁baha	-7.28485
▁bagaimana	-7.28526
▁pernah	-7.29375
▁dua	-7.29427
▁sudah	-7.30661
▁pelajar	-7.32811
▁bah	-7.33041
▁tempat	-7.33192
▁sendiri	-7.34535
▁berbeza	-7.35125
awa	-7.36266
usia	-7.37439
▁tersebut	-7.37517
ketawa	-7.37714
▁sa	-7.38862
▁kecil	-7.3902
▁masalah	-7.41312
▁buat	-7.41997
▁sebab	-7.43183
kat	-7.43567
▁amat	-7.44134
akteria	-7.44588
▁Ji	-7.4479
ra	-7.45147
▁anak	-7.45302
▁otak	-7.45739
▁A	-7.46248
▁Di	-7.46898
▁membantu	-7.47735
▁Pada	-7.47777
▁k	-7.48021
▁jadi	-7.48121
masa	-7.48305
▁2	-7.49013
▁menarik	-7.49082
tinggi	-7.49412
nyai	-7.5029
▁sistem	-7.50624
▁ingin	-7.50687
▁sebenarnya	-7.50888
▁atas	-7.50984
▁Ke	-7.51977
ti	-7.52344
▁O	-7.53509
m	-7.53931
,	-7.53943
p	-7.54048
▁B	-7.54163
▁air	-7.54808
▁lalu	-7.5506
ling	-7.55201
ak	-7.55422
▁kali	-7.55427
▁kurang	-7.55758
ya	-7.55767
pa	-7.56023
▁terhadap	-7.56121
▁belajar	-7.56179
▁ka	-7.56265
▁sebu	-7.56477
un	-7.57217
▁menghasilkan	-7.57605
▁biasa	-7.5781
l	-7.57873
▁pen	-7.57884
▁Gela	-7.58541
000	-7.58959
us	-7.59218
▁tiada	-7.60685
▁berkata	-7.6074
▁a	-7.61159
▁ibu	-7.61959
▁mengenai	-7.62162
ma	-7.62302
▁luar	-7.62492
▁fikir	-7.62676
▁alam	-7.63662
y	-7.63788
▁bersama	-7.63833
han	-7.65122
▁c	-7.65242
▁kemudian	-7.65284
▁iaitu	-7.65405
▁gen	-7.65421
▁sebelum	-7.6556
ap	-7.65943
▁3	-7.65984
kit	-7.66293
ur	-7.66833
▁kehidupan	-7.66891
▁Itu	-7.67003
▁haiwan	-7.67057
▁hebat	-7.67117
▁molekul	-7.67151
▁pa	-7.67911
ran	-7.67947
beritahu	-7.68115
▁mendapat	-7.68117
▁sahaja	-7.68514
▁Amerika	-7.68527
atu	-7.6861
tan	-7.68893
▁datang	-7.6982
▁badan	-7.70382
▁rumah	-7.70607
▁makan	-7.71068
▁salah	-7.71072
▁melalui	-7.71899
ar	-7.71956
▁sekolah	-7.72733
▁cerita	-7.72981
▁buku	-7.73203
kanak	-7.7389
pelbagai	-7.74019
▁keluarga	-7.74111
▁cuba	-7.74165
tif	-7.74607
or	-7.74989
▁20	-7.75494
cakap	-7.76218
▁1	-7.76573
o	-7.76585
ologi	-7.76795
%	-7.77087
▁ya	-7.77217
alah	-7.78136
rupa	-7.78211
dar	-7.78483
upaya	-7.78502
▁teknologi	-7.79246
asih	-7.79473
▁bentuk	-7.79517
▁percaya	-7.79832
▁g	-7.8024
▁suka	-7.80288
▁membawa	-7.80871
▁kanak	-7.80884
d	-7.81
▁w	-7.81023
▁lama	-7.8112
▁sukar	-7.81482
▁te	-7.81483
▁ma	-7.81781
▁segi	-7.81838
▁sehingga	-7.82731
agak	-7.82734
undang	-7.82984
▁peruba	-7.83399
▁sedi	-7.83507
pos	-7.83536
b	-7.84621
▁mengubah	-7.84644
▁keadaan	-7.84672
▁sekali	-7.84684
▁hal	-7.85116
▁soalan	-7.85344
▁benar	-7.85666
tiga	-7.86402
▁berfikir	-7.86672
▁jumlah	-7.86782
▁penyakit	-7.86803
▁wujud	-7.86938
▁10	-7.87091
▁C	-7.87284
▁E	-7.87368
▁semest	-7.8738
▁akhir	-7.87534
erupa	-7.87723
▁mencari	-7.88602
▁para	-7.88659
benar	-7.89518
▁mati	-7.89732
sa	-7.90582
▁menunjukkan	-7.90719
▁Iran	-7.90767
▁kedua	-7.90807
▁mudah	-7.90996
▁;	-7.91171
▁bahagian	-7.91237
eb	-7.91716
sel	-7.9209
▁kaki	-7.92329
▁ahli	-7.92401
syara	-7.92452
apa	-7.92565
▁M	-7.9273
▁saja	-7.92926
asa	-7.93312
erima	-7.93664
mana	-7.93817
g	-7.94047
▁idea	-7.94066
▁berat	-7.94706
▁semula	-7.95216
it	-7.96195
in	-7.96373
ing	-7.96612
▁su	-7.97049
▁tan	-7.97116
ambil	-7.97634
seluruh	-7.97835
▁Kemudia	-7.98022
▁guru	-7.98632
▁5	-7.98975
rang	-7.99128
▁Bagaimana	-7.99221
▁peratus	-7.9937
▁berkaitan	-7.99418
▁asas	-7.99546
▁pokok	-7.99848
▁tangan	-8.00056
▁I	-8.00801
satu	-8.00934
alam	-8.0149
▁memahami	-8.01491
▁selama	-8.01513
gen	-8.01914
▁sedar	-8.02596
ku	-8.03266
▁J	-8.03661
▁kesan	-8.03725
▁d	-8.04146
▁kini	-8.0426
▁tentu	-8.04323
▁agama	-8.04329
▁depan	-8.04538
▁nombor	-8.05138
▁meningkat	-8.0518
▁jenis	-8.05232
▁sebahagian	-8.06258
▁selalu	-8.06335
▁bawah	-8.06352
▁pasti	-8.06411
▁Satu	-8.06574
▁da	-8.06706
▁Cyr	-8.06991
gi	-8.07064
▁kuasa	-8.07565
▁hasil	-8.07633
is	-8.07706
ri	-8.07772
mampu	-8.08358
mula	-8.08451
▁Ada	-8.08564
▁berjaya	-8.08647
▁hingga	-8.0903
ta	-8.09264
▁masuk	-8.09826
kal	-8.10088
▁membaca	-8.11019
▁kelas	-8.11613
langan	-8.12246
anak	-8.12434
▁hati	-8.1244
▁mat	-8.12577
▁walau	-8.13693
▁kereta	-8.13698
▁perbezaan	-8.14151
▁Ya	-8.1416
en	-8.14971
▁juta	-8.14985
▁empat	-8.15449
▁patut	-8.1584
▁Y	-8.16312
▁bagus	-8.16325
▁Mungkin	-8.16327
▁TED	-8.16328
▁utama	-8.16571
duduk	-8.16623
▁malam	-8.16735
tik	-8.17189
et	-8.17209
▁berasa	-8.17213
▁terus	-8.18004
▁kira	-8.18187
kira	-8.18569
▁katakan	-8.18607
▁maklum	-8.19028
▁nampak	-8.19032
▁sosi	-8.19158
▁objek	-8.19169
▁contoh	-8.19171
▁jawapan	-8.19176
komunikasi	-8.19276
▁mengapa	-8.19284
▁bantu	-8.19314
▁sumber	-8.19457
▁kumpul	-8.20189
▁ingat	-8.20242
▁pal	-8.20439
▁jalan	-8.2075
▁pem	-8.21468
olong	-8.2174
▁mengikut	-8.21814
▁H	-8.21844
▁kebanyakan	-8.21922
▁jelas	-8.21986
▁planet	-8.2212
raja	-8.2225
san	-8.22262
ngat	-8.2275
▁bapa	-8.2278
cukup	-8.24023
▁R	-8.2434
orang	-8.24681
▁bu	-8.24782
▁produk	-8.24922
ter	-8.25142
▁L	-8.25612
▁betul	-8.25815
proses	-8.26435
▁situ	-8.26879
▁Kin	-8.27534
▁membina	-8.27667
▁i	-8.27907
▁pun	-8.27916
▁kerja	-8.27986
▁perkataan	-8.28277
ih	-8.28378
▁sejarah	-8.2838
ahaya	-8.28721
aan	-8.30012
gunakan	-8.30501
▁memerlukan	-8.30641
▁menulis	-8.30662
▁terbaik	-8.30698
▁Semua	-8.30718
▁doktor	-8.30965
kannya	-8.31318
▁bayi	-8.31361
agar	-8.32318
▁jangka	-8.32379
▁penu	-8.32557
▁Nam	-8.32858
▁cu	-8.33035
ol	-8.33505
hampir	-8.33689
▁Yahudi	-8.33751
▁bermakna	-8.33757
▁mendengar	-8.33785
▁sekitar	-8.33798
▁Bag	-8.33837
▁menerima	-8.33913
▁berkesan	-8.3396
▁perhatian	-8.33972
▁keluar	-8.34149
lepas	-8.34544
▁budak	-8.34564
empu	-8.3459
bentuk	-8.34605
bulan	-8.3463
▁kawasan	-8.34647
ut	-8.34983
▁gambar	-8.35058
fungsi	-8.35093
banyak	-8.35102
asarkan	-8.35106
▁sang	-8.35275
el	-8.35326
▁U	-8.36043
▁La	-8.36296
mah	-8.36596
sampai	-8.36738
▁rakyat	-8.36955
▁kembali	-8.36982
▁kesihatan	-8.37003
▁semakin	-8.3702
lik	-8.37081
▁berjalan	-8.37167
▁bilik	-8.37168
P	-8.37175
▁aku	-8.37245
▁meru	-8.37386
▁menjadikan	-8.37458
4	-8.38337
er	-8.38891
cipta	-8.39285
▁pula	-8.39556
ga	-8.39608
um	-8.39819
▁Arab	-8.40285
ematik	-8.40322
ek	-8.40459
da	-8.40996
▁Ha	-8.40996
ika	-8.41623
▁peng	-8.41648
▁Per	-8.41756
rima	-8.42134
▁ak	-8.42553
panjang	-8.42585
on	-8.42676
▁Mesi	-8.42718
sur	-8.42927
▁fizik	-8.43732
▁kematian	-8.43733
▁kelihatan	-8.43739
▁DNA	-8.43746
▁bekerja	-8.43749
▁menemui	-8.43824
belum	-8.43863
lan	-8.44032
▁peluang	-8.44451
▁sungguh	-8.4472
umur	-8.45015
ja	-8.4502
▁kajian	-8.45033
es	-8.4509
▁menak	-8.45133
terlalu	-8.4519
aman	-8.45698
▁benda	-8.45735
▁buah	-8.4624
ercakap	-8.46451
▁bila	-8.46464
lebih	-8.46549
▁50	-8.46626
▁awal	-8.46629
▁dilakukan	-8.46631
▁kulit	-8.46774
▁8	-8.46822
ada	-8.46938
suara	-8.46942
etawa	-8.47181
lakukannya	-8.47211
▁spesi	-8.47314
▁Sebab	-8.47351
usaha	-8.47373
▁Sa	-8.47457
balik	-8.47733
komputer	-8.47869
f	-8.48365
emasa	-8.48688
penuh	-8.48958
▁tentangnya	-8.49092
nder	-8.49205
▁ad	-8.50387
api	-8.50515
ci	-8.5081
enaga	-8.50906
lima	-8.50911
kap	-8.51061
▁hak	-8.51078
▁jam	-8.51086
▁Afri	-8.51163
▁bahan	-8.51333
▁N	-8.5139
▁Mari	-8.51604
harus	-8.51693
▁200	-8.52018
▁pengguna	-8.52525
aya	-8.52553
▁berd	-8.52561
▁maka	-8.52745
angan	-8.52836
inggu	-8.52911
awak	-8.5302
▁Adaka	-8.53616
ngan	-8.53737
percaya	-8.53803
▁memang	-8.53924
▁rakan	-8.54093
tika	-8.54255
am	-8.54646
diri	-8.54811
▁Babylon	-8.54853
▁Boleh	-8.54882
▁menonton	-8.54895
▁...	-8.54936
▁tah	-8.54968
▁membesar	-8.54971
▁teori	-8.55077
▁berubah	-8.55078
▁mesin	-8.55107
gembira	-8.55131
▁huruf	-8.55294
▁mata	-8.55378
ins	-8.55481
▁bintang	-8.55758
▁dis	-8.56087
▁meny	-8.56462
▁Be	-8.56479
▁Ing	-8.56551
▁4	-8.56847
▁pela	-8.57275
▁perang	-8.57675
▁Or	-8.58045
telah	-8.58568
▁membolehkan	-8.58853
▁jantung	-8.58864
▁menyebabkan	-8.58867
▁sebenar	-8.58888
wakil	-8.58942
▁bekerjasama	-8.58987
▁tinggal	-8.59164
▁tadi	-8.59245
▁lutut	-8.59272
▁Ti	-8.59301
na	-8.59379
▁30	-8.59437
terus	-8.60311
▁laman	-8.6037
ed	-8.60674
▁mengu	-8.60773
▁mulakan	-8.61028
perkara	-8.61175
▁sifat	-8.61257
ung	-8.61676
wujud	-8.62427
▁belia	-8.62622
ging	-8.62719
udah	-8.62818
▁faham	-8.62862
mpu	-8.62899
▁tertentu	-8.63029
▁memikirkan	-8.63035
▁ku	-8.63158
soalan	-8.63212
sama	-8.6328
▁sihat	-8.63344
▁cabaran	-8.63453
▁pendidikan	-8.63593
▁sua	-8.63657
▁nyawa	-8.63729
▁bunyi	-8.63982
▁meli	-8.64021
▁tanya	-8.64089
S	-8.64143
dengar	-8.64186
5	-8.64422
▁re	-8.6443
▁diberikan	-8.64643
▁dewa	-8.65088
zi	-8.651
batkan	-8.65459
siapa	-8.65504
ingkat	-8.6573
tahun	-8.65734
le	-8.65937
hasilkan	-8.6608
▁gunakan	-8.66415
asing	-8.6648
au	-8.66515
perlukan	-8.67104
▁Pe	-8.67108
▁muda	-8.67253
▁Akhir	-8.67369
▁terlibat	-8.67379
▁ekonomi	-8.67604
▁bidang	-8.67612
▁pekerja	-8.67641
▁Ter	-8.67645
2	-8.67654
sejahtera	-8.67679
▁siapa	-8.67689
▁15	-8.67723
▁pere	-8.6798
di	-8.68118
berhenti	-8.68321
▁video	-8.68367
▁jauh	-8.684
▁sain	-8.68458
▁ujian	-8.68675
▁demi	-8.68936
▁ubat	-8.69161
▁mesti	-8.69267
▁dit	-8.69448
▁mer	-8.69754
elepas	-8.69876
▁menga	-8.69881
engambil	-8.69963
▁komuni	-8.69993
ngambil	-8.70173
ik	-8.70582
la	-8.70841
man	-8.70961
▁6	-8.71008
kala	-8.71051
▁Ne	-8.71105
▁la	-8.71213
panggil	-8.71742
▁ca	-8.71753
▁nama	-8.71787
▁sili	-8.71876
▁meminta	-8.72056
▁hayat	-8.7215
▁keputusan	-8.72161
▁projek	-8.72179
▁pilihan	-8.72307
uhan	-8.72311
id	-8.72407
bangsa	-8.72449
▁dasar	-8.72463
kaum	-8.72535
▁hukum	-8.72595
ia	-8.72877
engan	-8.7288
9	-8.73056
idak	-8.73172
▁bi	-8.73428
▁waktu	-8.73479
▁abad	-8.74259
▁cipta	-8.7426
ian	-8.7437
il	-8.74783
erdapat	-8.75081
▁25	-8.7556
terima	-8.75752
▁reka	-8.75823
▁Ber	-8.75903
▁Tim	-8.7646
era	-8.76641
▁Syarikat	-8.76674
▁politik	-8.7668
▁matahari	-8.76724
▁Kenapa	-8.76733
▁naik	-8.76767
▁kem	-8.76922
▁bumi	-8.76954
▁sebelah	-8.77036
▁belakang	-8.77134
emuan	-8.77274
▁seja	-8.77412
▁r	-8.77415
▁sesu	-8.77604
leh	-8.7771
▁dahulu	-8.77757
▁Bukan	-8.77837
jub	-8.77905
A	-8.77948
▁harapan	-8.78007
▁alat	-8.78436
▁tua	-8.78659
lihat	-8.78686
▁kes	-8.79009
bahasa	-8.79179
▁Har	-8.7918
w	-8.79301
R	-8.79525
▁maksud	-8.79685
▁mendapati	-8.79949
▁hadap	-8.8037
▁al	-8.80598
negara	-8.80884
▁y	-8.81247
q	-8.81352
▁sem	-8.81529
▁berapa	-8.81565
iran	-8.81672
▁hitam	-8.81675
▁Maksud	-8.81675
▁Mengapa	-8.81681
langsung	-8.81689
▁kreati	-8.81751
▁mengkaji	-8.81759
isme	-8.8188
asi	-8.8192
normal	-8.81987
▁senti	-8.82002
▁hilang	-8.82168
▁buruk	-8.82314
yen	-8.8236
▁cantik	-8.82679
▁in	-8.82719
haya	-8.82737
me	-8.82891
nilai	-8.83169
kerjasama	-8.83241
▁G	-8.8327
▁baca	-8.83662
ni	-8.83759
ayah	-8.83974
hak	-8.83995
▁min	-8.83998
besar	-8.84255
lahir	-8.84453
▁ker	-8.84695
▁Par	-8.84777
ebabkan	-8.85081
ari	-8.85115
as	-8.85144
▁kawan	-8.85252
dua	-8.86087
▁nam	-8.86093
▁Ka	-8.86172
▁nilai	-8.86354
mata	-8.8661
K	-8.86681
▁sud	-8.86823
▁muncul	-8.86938
▁Walau	-8.8694
▁Soalan	-8.86946
▁memakai	-8.86974
▁mencapai	-8.86976
▁menjalan	-8.87046
▁keros	-8.87095
▁identiti	-8.87209
▁100	-8.87223
▁13	-8.87259
dorong	-8.87333
▁tid	-8.87433
ok	-8.87552
vit	-8.87552
▁bilion	-8.87595
▁cepat	-8.8768
▁ketiga	-8.8771
▁bandar	-8.87892
▁teruk	-8.88109
terbuka	-8.88127
▁individu	-8.88134
▁pakar	-8.88155
patut	-8.88211
▁tisu	-8.88465
kata	-8.88716
inya	-8.88929
▁ti	-8.89089
kulit	-8.89277
abila	-8.89397
sakit	-8.89789
hal	-8.89993
tas	-8.89996
▁F	-8.90049
sana	-8.90056
▁pandang	-8.90234
gu	-8.90431
lam	-8.90644
ini	-8.9092
mpuan	-8.91326
rian	-8.91399
las	-8.91851
▁Hi	-8.91879
▁Teng	-8.92208
▁mahukan	-8.9226
rendah	-8.92457
▁kejayaan	-8.92498
▁statistik	-8.92504
▁berlainan	-8.92524
arkan	-8.92538
▁palsu	-8.92605
ad	-8.92612
▁umum	-8.92653
▁dokumen	-8.92802
guna	-8.92854
▁tali	-8.92898
wang	-8.92911
ce	-8.92977
▁serta	-8.93159
dekad	-8.93204
8	-8.93347
▁Pu	-8.93412
▁berterus	-8.93449
▁buta	-8.93494
kekal	-8.93497
▁selamatkan	-8.93809
▁Me	-8.93917
▁peratu	-8.94084
▁terapi	-8.94093
▁warna	-8.94171
▁diperlukan	-8.94249
▁cera	-8.94396
kurang	-8.94494
▁fakt	-8.95001
▁tulis	-8.95136
▁Da	-8.95263
minat	-8.95405
bah	-8.95463
▁Fi	-8.95466
jumpa	-8.95516
geri	-8.9564
bayangkan	-8.95701
wab	-8.95843
li	-8.96039
▁Lo	-8.97953
awal	-8.98092
▁tradisi	-8.98377
▁Seperti	-8.9839
▁menggambarkan	-8.98404
tasi	-8.98425
▁Baik	-8.98449
▁begini	-8.98464
▁peta	-8.98516
▁segala	-8.98567
▁memberitahu	-8.98714
▁ta	-8.98967
▁Beli	-8.99247
▁pencipta	-8.99282
▁negeri	-8.99364
▁pintu	-8.99461
ahli	-8.99565
▁Perka	-8.99681
▁luas	-8.99721
M	-8.99941
▁za	-9.00338
▁harap	-9.00363
ikan	-9.00473
▁miskin	-9.00548
▁ribu	-9.00603
tengah	-9.00648
▁tiba	-9.00718
▁pi	-9.00999
▁perbua	-9.01072
▁kad	-9.01089
takut	-9.01434
wan	-9.01597
▁pu	-9.01717
▁ap	-9.01879
mi	-9.01983
angkan	-9.01997
etik	-9.02096
▁bert	-9.02131
bangunan	-9.02358
▁kena	-9.02564
▁Man	-9.02641
dan	-9.0268
rawat	-9.02716
▁saat	-9.02808
udara	-9.02845
ca	-9.02881
N	-9.02973
▁Dari	-9.0298
buat	-9.0318
▁60	-9.03185
▁ayah	-9.03529
paksa	-9.04005
rin	-9.0419
▁perg	-9.04506
▁90	-9.04542
▁Contoh	-9.04626
▁jantina	-9.04626
▁mengumpul	-9.04631
▁mengetahui	-9.04634
lain	-9.0464
▁rawatan	-9.04699
▁mengatasi	-9.047
▁meletakkan	-9.04704
▁berkongsi	-9.04753
▁tepat	-9.04798
▁berkumpul	-9.04839
kimia	-9.04849
▁filem	-9.04928
▁diketahui	-9.04948
▁rantau	-9.05003
▁India	-9.05055
▁jen	-9.05178
olar	-9.05275
▁bertanya	-9.05285
▁Bra	-9.05527
kaki	-9.0616
jadikan	-9.06185
men	-9.06462
▁isu	-9.06558
no	-9.06647
penjara	-9.06694
ebenarnya	-9.06706
araf	-9.06712
▁Cin	-9.07046
▁anti	-9.07169
ima	-9.07222
▁si	-9.07271
▁teks	-9.07495
penting	-9.07621
▁tugas	-9.07863
▁Ba	-9.07986
berikan	-9.08141
▁mas	-9.08472
▁seni	-9.08961
awan	-9.0908
minda	-9.09225
gg	-9.09238
▁peran	-9.0969
▁Tepuk	-9.09785
eris	-9.09834
aran	-9.0992
▁huj	-9.10649
arat	-9.11073
nda	-9.11146
1	-9.11205
▁penyelesaian	-9.11292
▁persekitaran	-9.11292
▁elektrik	-9.11294
▁subjek	-9.11294
▁malaria	-9.11298
▁sebegini	-9.11299
cimp	-9.11302
▁terutama	-9.11311
▁mengalami	-9.11318
ntas	-9.11334
▁pengajaran	-9.11401
▁mengata	-9.11409
▁dihidupkan	-9.11442
▁jangan	-9.11451
▁kesemua	-9.11479
▁bermain	-9.11497
lamat	-9.11534
▁kiri	-9.11597
▁layan	-9.11604
▁fokus	-9.11606
▁panggil	-9.1163
▁turut	-9.11675
▁pendapat	-9.11697
▁versi	-9.11712
▁muzi	-9.11723
▁Gel	-9.11757
unjukkan	-9.11927
▁dikenal	-9.11976
▁9	-9.12115
▁kotak	-9.12192
▁menja	-9.12279
tor	-9.12388
▁berita	-9.12442
▁Data	-9.12477
bi	-9.12499
▁kitab	-9.12568
▁syarikat	-9.12822
sia	-9.13175
kteria	-9.13402
▁akibat	-9.13457
▁peristiwa	-9.13642
▁lepas	-9.13651
▁panjang	-9.13902
harap	-9.1404
minta	-9.14121
▁De	-9.14143
j	-9.14257
▁bersi	-9.14281
erana	-9.14457
▁W	-9.14718
unik	-9.14839
▁buda	-9.14855
lat	-9.14927
kuat	-9.15266
▁fungsi	-9.15344
0	-9.15435
▁tumbuh	-9.15474
yai	-9.15615
bahagia	-9.15619
▁bawa	-9.15686
▁Car	-9.15906
▁Jar	-9.15931
kalan	-9.16113
▁kada	-9.1627
reka	-9.16342
ciri	-9.16596
▁Brit	-9.1664
hantar	-9.17036
kuasa	-9.17121
▁memb	-9.17823
▁li	-9.17927
▁masukkan	-9.18029
bon	-9.18153
▁mencabar	-9.18436
▁perjalanan	-9.18437
▁perdebatan	-9.18444
▁40	-9.18446
▁pengalaman	-9.18451
▁pemerintah	-9.18457
bosan	-9.18464
▁genom	-9.18473
▁panas	-9.18499
▁psik	-9.18538
isah	-9.1854
rop	-9.18678
▁senarai	-9.18734
▁teruja	-9.18738
▁kayu	-9.18783
▁digit	-9.1888
latih	-9.18935
▁perasaan	-9.18951
▁indah	-9.19048
▁minum	-9.19069
▁melihatnya	-9.19135
▁sepenuh	-9.19231
cerita	-9.19254
▁gila	-9.19377
▁kualiti	-9.19406
ru	-9.19418
▁Hal	-9.19475
▁risiko	-9.19593
▁pulang	-9.1984
G	-9.1987
guru	-9.2037
▁Re	-9.20371
c	-9.2044
dia	-9.20606
▁juru	-9.20657
▁angka	-9.20719
▁punca	-9.20729
nama	-9.20827
bel	-9.21096
ara	-9.21152
ir	-9.21216
▁serupa	-9.21592
ukan	-9.21911
seronok	-9.21972
rdapat	-9.22041
hubungan	-9.22084
ne	-9.22121
bincang	-9.22503
lengkap	-9.22617
isi	-9.22758
ealiti	-9.22865
aksi	-9.23017
antung	-9.23369
raya	-9.23489
kawan	-9.23554
▁bir	-9.23613
▁hubungan	-9.23885
baik	-9.23905
otong	-9.24011
▁h	-9.24133
embentuk	-9.24152
mbentuk	-9.24274
▁bangunan	-9.24284
▁sebabnya	-9.24325
▁kema	-9.24394
anggap	-9.24686
eko	-9.24836
murung	-9.25102
enek	-9.25141
▁arah	-9.2521
▁hi	-9.25304
lawan	-9.25328
▁berdi	-9.25328
ille	-9.25362
net	-9.25421
pak	-9.25424
tin	-9.25598
ba	-9.25743
buku	-9.25942
mesti	-9.26105
▁Jerman	-9.26129
▁Pertama	-9.2613
▁mengekalkan	-9.2613
▁Kebanyakan	-9.2613
▁perkembangan	-9.26131
▁generasi	-9.26132
▁konf	-9.26132
▁Lihat	-9.26142
▁mengukur	-9.26162
▁memandang	-9.26178
▁bergerak	-9.26214
▁Barat	-9.26222
dah	-9.26223
▁pemikiran	-9.26288
▁ketara	-9.26335
▁bukti	-9.26356
▁sampel	-9.2649
▁program	-9.2649
▁hospital	-9.26493
adilan	-9.26518
▁lampu	-9.26647
industri	-9.26727
▁popula	-9.26884
▁aktivi	-9.26891
▁Ket	-9.26953
▁binatang	-9.26969
empat	-9.27101
▁sebalik	-9.27239
gelap	-9.2728
▁teknik	-9.27313
bar	-9.27527
▁dekat	-9.27669
▁ayat	-9.27733
darah	-9.27922
▁bina	-9.28078
▁memanggil	-9.28371
op	-9.28562
▁sesuai	-9.2864
nek	-9.28722
hat	-9.28844
▁ja	-9.28892
bu	-9.28941
▁graf	-9.29111
sendiri	-9.29727
memang	-9.2984
▁bahagia	-9.29864
tunjuk	-9.29975
tumbuh	-9.30041
pi	-9.30298
▁perteng	-9.30415
taan	-9.30707
▁mo	-9.30916
▁kera	-9.3099
tah	-9.31278
▁mendapatkan	-9.31279
dapati	-9.31372
akhir	-9.31397
▁Is	-9.31423
▁tunjuk	-9.31618
▁seka	-9.31704
▁hadir	-9.31812
erbanding	-9.31865
▁ciri	-9.31956
impan	-9.32163
etapa	-9.32196
kus	-9.32196
iru	-9.3233
okong	-9.32461
▁pendek	-9.32777
▁usaha	-9.33114
getar	-9.3314
▁meninggal	-9.33225
▁risau	-9.33676
rangsang	-9.34244
jam	-9.34251
bo	-9.34375
▁global	-9.34461
▁Marduk	-9.34462
▁serius	-9.34467
▁persamaan	-9.34468
▁ketakutan	-9.34474
▁putih	-9.34482
▁Islam	-9.34492
▁menghadapi	-9.34514
rcakap	-9.34537
▁mengenali	-9.3455
raf	-9.34595
▁tekan	-9.3462
▁berwarna	-9.3466
▁revolusi	-9.3471
peribadi	-9.34716
▁emosi	-9.34837
bijak	-9.3493
I	-9.34959
▁70	-9.35023
▁menyedi	-9.35231
aga	-9.35252
ses	-9.35263
▁harga	-9.35316
anda	-9.35405
B	-9.35499
▁impian	-9.35509
▁meninggalkan	-9.35733
hubung	-9.35739
▁jari	-9.35758
7	-9.36037
tar	-9.36127
▁kemanusia	-9.36244
▁In	-9.3636
▁umur	-9.36413
▁kenal	-9.36497
▁langkah	-9.36586
▁posi	-9.36613
▁Al	-9.36631
nding	-9.36737
▁adik	-9.37147
O	-9.37295
lanjut	-9.37452
▁ge	-9.37468
6	-9.37622
tindak	-9.3793
kitab	-9.38012
▁memben	-9.38054
banding	-9.38276
jenis	-9.38291
rus	-9.38332
agi	-9.38557
▁mak	-9.38728
sifat	-9.3883
ahan	-9.38867
etengah	-9.39022
▁ganda	-9.39691
terbang	-9.39781
aja	-9.39954
▁keti	-9.4002
nada	-9.40079
eh	-9.40132
▁memasuk	-9.40143
erluan	-9.40152
▁kep	-9.40222
▁selesa	-9.403
▁menye	-9.40355
fik	-9.40898
nser	-9.40971
▁pisa	-9.41318
utus	-9.41362
▁masi	-9.41451
jadi	-9.41457
▁tuju	-9.41657
ubah	-9.41783
uh	-9.41807
hati	-9.4205
onal	-9.42064
▁Sem	-9.42134
▁tengah	-9.42136
ser	-9.42221
mpin	-9.42345
arah	-9.42363
▁bangun	-9.42455
▁hala	-9.42606
▁awa	-9.42631
z	-9.42838
ungan	-9.43328
▁seb	-9.43452
▁menerangkan	-9.43555
▁memperoleh	-9.43557
▁memastikan	-9.43559
▁Atau	-9.43567
▁pencapaian	-9.43568
▁11	-9.43575
▁purata	-9.43577
fleksi	-9.43577
▁lemah	-9.43591
▁kebenaran	-9.43596
engah	-9.43599
lmu	-9.436
▁penyelidik	-9.436
▁mempengaruh	-9.43615
▁mencuba	-9.43622
▁multi	-9.43625
▁khas	-9.43641
▁menurun	-9.43655
▁menghantar	-9.43677
▁saudara	-9.4372
▁Muzi	-9.43728
put	-9.43729
ami	-9.43732
▁enam	-9.43802
▁rum	-9.43805
▁telefon	-9.43929
▁empayar	-9.43965
▁Yor	-9.43967
▁protein	-9.43984
▁rangkaian	-9.44003
▁mun	-9.44123
tikan	-9.44194
▁lulus	-9.44301
▁khusus	-9.44395
▁ditemu	-9.44438
▁fikirkan	-9.44453
▁cik	-9.44477
▁corak	-9.44486
HC	-9.44611
▁kau	-9.44644
▁lapan	-9.44669
▁kemungkinan	-9.44816
▁dijalan	-9.44947
skan	-9.45003
mur	-9.45012
▁turun	-9.45028
▁evolusi	-9.45036
▁mangsa	-9.45105
▁sesebu	-9.45222
▁Keta	-9.45252
mu	-9.45319
▁struktur	-9.45478
▁mari	-9.45643
▁metab	-9.45735
▁menanya	-9.45762
batan	-9.45908
▁mekanism	-9.45988
▁tambah	-9.46063
▁Sama	-9.46219
jalan	-9.46231
▁de	-9.46276
▁letakkan	-9.46285
rah	-9.46296
nac	-9.4631
atan	-9.46369
uk	-9.46945
▁16	-9.46989
▁pengaruh	-9.47152
land	-9.47174
▁melu	-9.47286
▁peduli	-9.47575
nombor	-9.47674
makanan	-9.47691
kar	-9.47777
kultur	-9.47835
uba	-9.48001
ck	-9.48112
bagai	-9.48532
▁membuatkan	-9.4861
renung	-9.48732
▁sebut	-9.48756
▁Ma	-9.48978
T	-9.49084
perbincang	-9.49311
▁cari	-9.49326
bebas	-9.49491
gak	-9.49542
juta	-9.49562
hu	-9.49576
▁fik	-9.49757
im	-9.49784
▁cangg	-9.49922
▁tindak	-9.50032
anpa	-9.50366
ju	-9.50478
▁dapatkan	-9.50518
50	-9.50522
▁kehi	-9.50694
▁l	-9.50733
▁kaca	-9.50907
▁pat	-9.50938
mel	-9.50989
om	-9.51017
▁mu	-9.51128
▁ger	-9.51186
E	-9.51403
nzi	-9.51605
gung	-9.51677
▁diguna	-9.51751
▁bar	-9.51771
▁kepu	-9.51784
▁erti	-9.51791
lindung	-9.51804
ukur	-9.51848
erah	-9.52089
habis	-9.52114
▁serang	-9.52524
hi	-9.52681
▁ga	-9.52706
gah	-9.52807
ntuk	-9.52913
unci	-9.52924
tulis	-9.5299
▁Chi	-9.53118
moden	-9.53307
lkan	-9.53405
▁kli	-9.53408
▁Universit	-9.53552
▁mikro	-9.53553
▁Negara	-9.53553
▁menyebarkan	-9.53554
▁respon	-9.53554
▁Ahli	-9.53555
▁membezakan	-9.53566
▁pergerakan	-9.53577
▁pencari	-9.53585
▁berpendapat	-9.53586
▁pengimbas	-9.53603
▁membangun	-9.53605
▁300	-9.53605
▁Bayangkan	-9.53608
▁lapar	-9.53617
▁memiliki	-9.53638
▁melaksanakan	-9.53709
gagal	-9.53789
▁makna	-9.53797
▁suami	-9.53799
▁lukis	-9.53881
▁sampingan	-9.53894
▁sering	-9.5395
▁kaedah	-9.54001
▁7	-9.54004
inspirasi	-9.54008
▁wajah	-9.54029
▁partikel	-9.54036
perilaku	-9.5405
ubat	-9.54088
▁kar	-9.54104
▁baris	-9.54108
wajar	-9.54142
dapat	-9.54193
▁nen	-9.54237
▁saksi	-9.54248
▁berkurang	-9.54381
▁pusat	-9.544
▁ucap	-9.54463
▁kuorum	-9.54555
▁Unit	-9.54603
▁Go	-9.54758
▁kampung	-9.54787
sempurna	-9.54809
jurutera	-9.54884
▁peti	-9.54962
▁bers	-9.55038
yakinkan	-9.55078
▁400	-9.55247
benarnya	-9.55304
▁Ja	-9.55405
ki	-9.55567
▁sempadan	-9.55584
▁-	-9.55612
▁Gen	-9.55637
▁Je	-9.55775
▁lari	-9.5588
▁temu	-9.55907
▁anggap	-9.55911
ain	-9.56121
▁dibaca	-9.56143
▁beli	-9.56177
▁Seka	-9.56312
galak	-9.56411
▁macam	-9.56428
▁Bel	-9.56571
▁Ira	-9.56613
▁tanda	-9.56683
der	-9.5688
ret	-9.56902
irkan	-9.57087
jau	-9.57217
3	-9.57288
napa	-9.57315
▁berg	-9.57665
▁sainti	-9.57711
dis	-9.57711
tuk	-9.57833
▁tujuan	-9.57899
ac	-9.57958
otak	-9.58079
▁f	-9.58167
▁rangka	-9.58185
▁sayang	-9.58198
▁pemb	-9.58206
tawa	-9.58312
bahaya	-9.58345
lis	-9.58414
▁Ra	-9.58535
▁barang	-9.58544
benda	-9.58809
gas	-9.58963
▁Jang	-9.59079
tugas	-9.59126
sekolah	-9.59136
▁ve	-9.5915
idea	-9.59219
kumpul	-9.59428
aktif	-9.59432
fahami	-9.59537
▁maj	-9.59769
anggung	-9.59907
eri	-9.605
usul	-9.60786
jak	-9.60793
log	-9.6084
teks	-9.61182
▁panta	-9.61371
▁ha	-9.61528
bum	-9.61703
▁memu	-9.61877
alu	-9.61893
sarkan	-9.61899
▁aka	-9.62338
▁darja	-9.62503
▁Bi	-9.62544
saat	-9.62714
ot	-9.63126
percayai	-9.63128
esyu	-9.63432
gera	-9.63526
▁Bri	-9.6403
istem	-9.64198
ai	-9.64241
▁dise	-9.64301
▁kesed	-9.64435
bahan	-9.64573
▁Clonie	-9.64663
▁Jerusalem	-9.64663
▁USD	-9.64663
▁Ibrani	-9.64665
▁blok	-9.64675
▁klinik	-9.64678
▁menamatkan	-9.64684
▁kompo	-9.64692
▁mempelajari	-9.64695
▁Kanada	-9.64696
▁kemampuan	-9.64703
▁memeluk	-9.64719
kompleks	-9.64726
▁membeli	-9.64733
▁situasi	-9.64749
lu	-9.64761
▁mengingatkan	-9.64817
▁berbual	-9.64818
▁berikut	-9.64821
cacat	-9.64833
▁mengelak	-9.64834
▁memulakan	-9.64863
▁dikatakan	-9.64871
sat	-9.6494
▁ruang	-9.64979
▁radi	-9.64997
janggal	-9.65002
main	-9.65063
▁makmal	-9.65159
garam	-9.65184
▁sekeliling	-9.65332
▁co	-9.65392
▁menge	-9.65425
▁menaik	-9.6576
▁and	-9.6581
▁anjing	-9.6581
gemar	-9.65891
▁tamat	-9.65941
▁1,	-9.65956
▁pagi	-9.66028
pesona	-9.66105
▁jujur	-9.6614
▁sokong	-9.66178
emokra	-9.66181
▁gunung	-9.66297
sis	-9.66297
▁j	-9.66308
gala	-9.66409
▁jatuh	-9.66413
▁eks	-9.66544
▁simbol	-9.66564
▁ucapan	-9.6684
kecuali	-9.66859
ch	-9.67081
▁Malah	-9.67091
nyahgaram	-9.67236
koh	-9.67337
ibu	-9.67485
▁kolek	-9.67543
▁bas	-9.67624
key	-9.67771
kaitan	-9.67876
adis	-9.67933
zar	-9.67951
unia	-9.6799
▁kole	-9.68149
hkan	-9.68153
makan	-9.68213
▁asal	-9.68241
karan	-9.68342
iti	-9.68379
▁Ni	-9.68483
▁penderi	-9.68504
▁interak	-9.68775
data	-9.68794
93	-9.6886
sih	-9.68941
paru	-9.69038
pu	-9.69064
▁henti	-9.69192
persembah	-9.69215
luk	-9.69216
▁mence	-9.69468
D	-9.69489
asan	-9.6955
masing	-9.69594
▁kos	-9.69719
lans	-9.69865
olah	-9.69983
▁ro	-9.70025
ji	-9.70112
spek	-9.70252
uju	-9.70293
ip	-9.70302
▁Mak	-9.70417
ha	-9.70498
▁75	-9.70535
▁Tu	-9.70822
dunia	-9.70871
▁n	-9.70947
▁ten	-9.70963
ahkan	-9.71008
ribu	-9.71176
tak	-9.71245
▁mini	-9.71486
▁set	-9.71873
ira	-9.72303
bunuh	-9.72425
▁gaj	-9.72428
rangkan	-9.72536
▁log	-9.72614
uma	-9.7344
▁mela	-9.73478
▁Men	-9.73526
diam	-9.73551
▁lahir	-9.73795
▁memeta	-9.73806
betul	-9.73817
titik	-9.73934
bakar	-9.74017
▁peny	-9.74038
baru	-9.7418
kni	-9.74193
▁peraka	-9.74264
utan	-9.74492
for	-9.74544
akibat	-9.7479
lak	-9.75071
ster	-9.75078
▁Jum	-9.75293
▁berda	-9.75413
ulit	-9.75564
91	-9.75579
▁gerak	-9.75632
▁menang	-9.75764
▁laut	-9.75834
▁mende	-9.7584
▁loka	-9.75862
unan	-9.75983
▁Bu	-9.76021
▁menu	-9.76293
lapis	-9.76297
▁berm	-9.76424
▁Du	-9.76509
ngkap	-9.7667
tambah	-9.76728
juk	-9.76754
kejut	-9.77111
nova	-9.77158
▁Singapura	-9.77163
▁Jawapan	-9.77163
▁terletak	-9.77163
▁optimis	-9.77163
▁ringkas	-9.77165
▁Georg	-9.77165
▁Chris	-9.77168
▁kegemaran	-9.7717
▁separuh	-9.77175
▁melukis	-9.77182
monia	-9.77195
▁menambah	-9.772
▁keseluruhan	-9.77221
▁The	-9.77254
ith	-9.77257
▁aplikasi	-9.7727
▁menentang	-9.7728
▁Kedua	-9.77281
▁dulu	-9.77286
▁latihan	-9.77294
▁Mc	-9.77304
▁merentas	-9.77328
se	-9.77352
barangkali	-9.77353
ebagai	-9.77363
▁menyimpan	-9.77437
oksi	-9.77442
▁penerima	-9.77493
▁mempercayai	-9.77513
▁sehari	-9.77556
ntara	-9.77682
▁nota	-9.77689
▁nasional	-9.77716
▁beratus	-9.77728
sip	-9.77804
angka	-9.77896
▁lupa	-9.77907
niaga	-9.77931
kinan	-9.78015
▁Ye	-9.78098
▁terse	-9.78174
▁menimbu	-9.78199
▁belanja	-9.78304
ibri	-9.78381
hangat	-9.7839
Bangsa	-9.78398
▁rama	-9.78985
▁Kep	-9.7899
rancang	-9.79031
▁198	-9.79041
▁setuju	-9.79106
▁Er	-9.7914
▁18	-9.79234
▁tajuk	-9.79304
▁fakta	-9.79384
engajar	-9.79387
uran	-9.79457
ew	-9.79724
▁mel	-9.79825
nen	-9.7986
erti	-9.79916
rangan	-9.80163
rkan	-9.80215
▁80	-9.80238
dirin	-9.80282
L	-9.80388
▁isteri	-9.80494
▁harta	-9.80611
▁pembi	-9.80837
mewa	-9.80873
che	-9.80918
▁ju	-9.81024
eparu	-9.81034
vasi	-9.81036
▁Ri	-9.81126
▁tuhan	-9.81292
mimpi	-9.81359
▁musi	-9.81462
erkembang	-9.81476
kor	-9.8152
tiba	-9.81543
son	-9.8156
muka	-9.81749
fes	-9.81751
up	-9.81816
▁seteru	-9.82035
encipta	-9.82055
▁vis	-9.82111
sye	-9.82201
▁197	-9.82228
▁Ap	-9.8231
co	-9.82453
▁diper	-9.82464
sej	-9.82533
▁wa	-9.82544
ncipta	-9.82553
bkan	-9.82956
ve	-9.82973
ratus	-9.83051
ndon	-9.83382
▁Mu	-9.83439
kembang	-9.8344
▁bo	-9.83527
▁perju	-9.83529
andung	-9.83534
▁Sese	-9.83541
tapa	-9.83629
ring	-9.83839
wanita	-9.84264
▁ra	-9.84418
pura	-9.84426
▁menyer	-9.84509
▁keda	-9.84704
ulus	-9.84711
▁keja	-9.84724
rjan	-9.84765
ulu	-9.84838
mbunuh	-9.85048
hadap	-9.85052
▁menyen	-9.85093
hadapi	-9.85157
masukkan	-9.85312
▁penggunaan	-9.8554
maksud	-9.85599
▁Dr	-9.85752
pengaruh	-9.85806
janji	-9.85837
▁Jan	-9.85847
▁seba	-9.85858
gat	-9.86052
▁konse	-9.86058
miskin	-9.86436
▁kepe	-9.86465
▁Ta	-9.86468
▁na	-9.86663
▁Ro	-9.86751
antum	-9.86833
ama	-9.87113
▁diterb	-9.87127
▁z	-9.87522
atom	-9.87752
▁didia	-9.87843
▁war	-9.88041
▁Ibu	-9.88065
tein	-9.88149
HA	-9.88177
▁Ku	-9.88237
▁pembela	-9.88482
sambut	-9.88483
aripada	-9.88641
▁Revolu	-9.88641
▁Bahagi	-9.88786
pan	-9.88796
lin	-9.88811
▁pra	-9.88852
inginan	-9.88912
▁selesai	-9.88975
tempat	-9.89113
unit	-9.89217
itkan	-9.89411
▁gigi	-9.89459
▁memper	-9.89488
metr	-9.89549
jaz	-9.89633
▁memperbaik	-9.89642
uan	-9.89785
▁ket	-9.89919
▁ambu	-9.90053
hujan	-9.90106
▁haki	-9.90115
mpat	-9.90339
▁seti	-9.90519
▁Ol	-9.90521
perimen	-9.90657
▁Bila	-9.90772
okl	-9.90824
▁Af	-9.91043
luas	-9.9117
spirasi	-9.91228
gar	-9.91294
▁ko	-9.91327
abang	-9.91328
akyat	-9.91357
▁pint	-9.91414
fikir	-9.91446
▁Nombor	-9.91448
▁dahsyat	-9.91448
▁menikmati	-9.91449
celaru	-9.91453
▁mengagum	-9.91455
cenderung	-9.91456
▁percubaan	-9.91461
▁diperoleh	-9.91462
▁menyuruh	-9.91464
▁kekuatan	-9.91464
▁hiper	-9.91465
▁cinta	-9.91475
▁lantai	-9.91477
▁mendedahkan	-9.91478
▁mengeluarkan	-9.91494
▁mengamalkan	-9.91501
▁menentukan	-9.91503
▁HT	-9.9151
▁mengejutkan	-9.9152
cicir	-9.91523
▁menggabungkan	-9.91527
▁Siapa	-9.91527
▁menyumbang	-9.91537
▁sasaran	-9.91544
▁jarak	-9.91548
▁Tentu	-9.91586
▁MR	-9.91593
▁hendak	-9.91601
▁isti	-9.91611
▁menyakinkan	-9.91628
▁seca	-9.91663
▁Berapa	-9.91683
syukur	-9.91713
▁membayangkan	-9.91729
▁terjadi	-9.91757
▁tertanya	-9.9177
▁senyap	-9.91823
gugup	-9.91835
▁menari	-9.91854
▁beransur	-9.91856
▁keinginan	-9.9186
▁Pro	-9.91908
▁dikait	-9.91913
▁menekan	-9.91935
▁meneruskan	-9.91943
▁mendalam	-9.91966
▁Bru	-9.92062
ulan	-9.92063
merosot	-9.9209
▁organisasi	-9.92091
▁pembedahan	-9.92092
▁karya	-9.921
jaran	-9.92102
▁garis	-9.92106
▁Bakteria	-9.92112
▁kalau	-9.92213
▁bangga	-9.92382
eja	-9.92445
▁naf	-9.92459
bicara	-9.92675
▁malah	-9.92692
▁12	-9.92757
▁kilang	-9.9278
▁sekurang	-9.92786
senang	-9.92807
ton	-9.92808
▁Hadi	-9.92854
ropa	-9.92861
▁alasan	-9.92867
▁bilangan	-9.92916
▁duit	-9.9296
▁nyamuk	-9.92972
▁merasakan	-9.9299
rock	-9.92992
▁Ar	-9.93021
ermula	-9.93031
▁diajar	-9.93046
▁menamakan	-9.93074
▁pemi	-9.93143
oran	-9.93191
pindah	-9.93268
za	-9.93295
▁pres	-9.93343
▁memperbaiki	-9.93354
mbangkan	-9.93363
▁eko	-9.93434
kuning	-9.9355
pe	-9.93696
ucap	-9.93712
▁polis	-9.93732
olo	-9.9379
urat	-9.93868
vi	-9.93873
▁Li	-9.94021
▁organism	-9.94175
▁King	-9.94295
▁beg	-9.94407
bra	-9.94474
▁Rasa	-9.94496
dakan	-9.94602
bodoh	-9.94725
▁sen	-9.94823
tanya	-9.95083
arahan	-9.95362
pisan	-9.95444
▁memetakan	-9.95558
▁organ	-9.95595
▁menump	-9.95602
▁kecewa	-9.95608
▁potensi	-9.95636
itu	-9.95911
▁Eng	-9.95924
▁fis	-9.96016
mainkan	-9.96224
bro	-9.96231
mun	-9.96579
▁jawa	-9.96844
magin	-9.96893
undi	-9.96901
ler	-9.96934
langgar	-9.96956
▁membia	-9.97051
▁ketingg	-9.97082
sebab	-9.97312
▁199	-9.9747
▁ni	-9.97521
▁pendeka	-9.97615
cekap	-9.97674
utkan	-9.97717
abad	-9.98044
▁bio	-9.98093
▁bersedi	-9.98104
▁Do	-9.9819
▁sk	-9.98274
▁relati	-9.98274
▁ab	-9.98579
▁sisi	-9.98701
▁Hak	-9.9887
ion	-9.99092
▁san	-9.991
naga	-9.99533
▁sese	-9.99858
▁menjela	-9.99923
▁berkena	-9.99928
capai	-9.99967
cair	-10.0001
▁pia	-10.0002
ngajar	-10.0015
ghan	-10.0035
ktor	-10.0038
▁dibawa	-10.0045
erfikir	-10.0046
perinci	-10.0058
ntar	-10.0065
▁pend	-10.0099
mer	-10.0101
▁kadang	-10.0136
▁memili	-10.0146
keping	-10.0182
▁zo	-10.0208
▁lancar	-10.0209
peristiwa	-10.0221
gambar	-10.0226
waktu	-10.0239
and	-10.0241
uah	-10.0245
bai	-10.0251
kehendak	-10.0262
rest	-10.0308
▁tu	-10.0312
elesaikan	-10.0332
depan	-10.0336
init	-10.0346
laksanakan	-10.0349
▁pasar	-10.0354
bal	-10.0358
▁kur	-10.0378
▁e	-10.0386
▁ji	-10.0396
▁Sh	-10.0399
mbil	-10.0413
temu	-10.044
▁teng	-10.0441
enduduk	-10.0471
gan	-10.0477
▁lingk	-10.0504
iklan	-10.0521
▁Sepan	-10.0528
▁Demi	-10.0532
▁minat	-10.0532
ambut	-10.0535
▁dilakukannya	-10.0535
19	-10.0553
▁Mis	-10.0556
erkara	-10.057
▁merasa	-10.0572
yan	-10.0573
▁Mem	-10.0607
ron	-10.0655
▁u	-10.0662
▁mul	-10.067
bangkit	-10.0677
ana	-10.068
▁ses	-10.0683
▁peralatan	-10.0691
annya	-10.0703
▁kan	-10.0709
▁lang	-10.0711
gaji	-10.0717
anya	-10.0739
▁ikl	-10.0741
▁yakin	-10.0754
su	-10.0757
▁mengha	-10.0762
▁ne	-10.0769
▁201	-10.0777
▁uji	-10.0781
askan	-10.0785
rujuk	-10.0787
ke	-10.0795
▁Muslim	-10.0812
▁berbaloi	-10.0812
▁Austr	-10.0812
▁Syria	-10.0812
▁Somali	-10.0812
▁Bunyi	-10.0812
▁mikroskop	-10.0812
▁menggantikan	-10.0812
▁ketidakadilan	-10.0812
▁meneliti	-10.0812
▁Budak	-10.0812
▁proto	-10.0813
▁Kajian	-10.0813
▁profes	-10.0813
▁Keluar	-10.0813
▁mengembangkan	-10.0814
▁menganalis	-10.0814
▁kucar	-10.0814
ghairah	-10.0814
▁menyelesaikan	-10.0815
▁Has	-10.0815
vel	-10.0815
▁menangani	-10.0815
▁194	-10.0815
▁komit	-10.0816
rbanding	-10.0816
▁mengaitkan	-10.0817
hijrah	-10.0817
▁membiarkan	-10.0818
▁Nampak	-10.0818
▁mendatang	-10.0819
▁memori	-10.0819
▁mengimbas	-10.0819
▁logik	-10.0819
▁saiz	-10.082
▁mulut	-10.082
▁parti	-10.0821
kongsi	-10.0821
▁kepala	-10.0821
▁pendengar	-10.0821
▁Antara	-10.0822
▁menganggap	-10.0826
▁pilih	-10.0828
enuh	-10.0828
ketahui	-10.0828
du	-10.0829
▁pembuat	-10.083
tulen	-10.0835
▁kasar	-10.0837
▁membuk	-10.0839
stabil	-10.0839
dea	-10.0843
▁memasang	-10.0845
▁memainkan	-10.0845
▁Masalah	-10.0847
alih	-10.0848
▁sumbang	-10.0855
10	-10.0861
▁meramal	-10.0865
▁menahan	-10.0871
▁tempo	-10.0874
jung	-10.0882
▁Am	-10.0887
▁opera	-10.0891
▁melepaskan	-10.0899
▁paun	-10.0906
mpa	-10.0906
dinamik	-10.0906
▁tubuh	-10.0909
engetahu	-10.0924
▁Mat	-10.0927
▁seolah	-10.0929
▁rosak	-10.093
gabungkan	-10.0933
ayaan	-10.0936
iri	-10.0938
perlu	-10.0941
▁suku	-10.0951
perkenalkan	-10.0952
sahabat	-10.0953
akkan	-10.0958
sya	-10.0959
ancam	-10.0962
▁merasai	-10.0969
▁Sema	-10.0978
▁artikel	-10.0983
▁kebolehan	-10.0986
▁liang	-10.099
▁biografi	-10.0997
▁mah	-10.0999
▁perlahan	-10.1015
▁menyeru	-10.1019
▁ganggu	-10.1029
▁Park	-10.1038
osong	-10.1041
▁sedih	-10.1044
ris	-10.1056
▁belas	-10.1057
▁bol	-10.106
▁salur	-10.1065
▁jiran	-10.1084
orak	-10.1088
lumba	-10.109
▁Carr	-10.1105
lum	-10.1109
henti	-10.1111
AG	-10.1114
▁Han	-10.1138
▁biarkan	-10.114
▁lumba	-10.1142
▁alih	-10.1142
onik	-10.1158
▁kaji	-10.116
atas	-10.1174
ua	-10.1181
sik	-10.1184
▁penga	-10.12
bunga	-10.1209
▁pasang	-10.1212
kul	-10.1217
▁Tak	-10.1218
rut	-10.1224
cir	-10.1226
▁payu	-10.1228
▁musnah	-10.1233
emiki	-10.1244
tz	-10.125
▁selamat	-10.1265
▁Ay	-10.127
juang	-10.1271
▁Rama	-10.1276
▁kas	-10.1286
alia	-10.1291
orea	-10.1294
▁Na	-10.1296
▁Pa	-10.1298
▁Kada	-10.13
▁mode	-10.1312
▁susu	-10.1319
▁main	-10.1327
▁terba	-10.133
egitu	-10.1333
▁Kadang	-10.1335
▁Mad	-10.1349
▁hij	-10.135
tang	-10.1357
▁kor	-10.1362
▁berten	-10.1389
▁pingg	-10.1394
rapat	-10.1395
▁kehendak	-10.1396
dian	-10.1403
kaji	-10.1404
ngger	-10.1414
jual	-10.1415
▁pesa	-10.1432
liput	-10.1437
ansur	-10.1442
saya	-10.145
ita	-10.1455
▁membe	-10.148
menjara	-10.1495
angnya	-10.1497
eknologi	-10.1501
▁am	-10.1544
inder	-10.1552
▁Bal	-10.1557
bol	-10.1571
▁autis	-10.1578
▁ink	-10.1579
▁bersem	-10.1593
barang	-10.1594
reju	-10.1597
▁Nab	-10.16
anyak	-10.1602
▁le	-10.1607
▁berus	-10.1614
ual	-10.1616
uv	-10.1619
▁mi	-10.1624
▁seke	-10.1631
curi	-10.1632
esakit	-10.1633
▁magne	-10.1635
erangsang	-10.1642
juan	-10.1646
ikh	-10.1663
▁lap	-10.1664
roses	-10.1668
▁Ind	-10.1671
enapa	-10.1679
▁mekani	-10.1697
be	-10.17
▁ratus	-10.1722
▁Co	-10.1723
▁peru	-10.1774
▁Ak	-10.1776
▁lu	-10.1794
DM	-10.18
isu	-10.1801
plikasi	-10.1838
adaan	-10.1845
ul	-10.1852
▁melua	-10.1859
lo	-10.1883
eorang	-10.1886
lip	-10.1904
re	-10.1953
warna	-10.2021
▁pro	-10.2031
jawa	-10.2048
suh	-10.2065
▁Ca	-10.2084
▁Cy	-10.2104
▁dip	-10.2106
nia	-10.2112
atahari	-10.2113
hasil	-10.2118
tai	-10.2123
▁rej	-10.2126
penderi	-10.2134
▁peper	-10.2136
keluarga	-10.2153
bersih	-10.2159
pokok	-10.2181
▁perm	-10.2183
macam	-10.2186
cantik	-10.2189
kawasan	-10.2193
min	-10.2217
▁puji	-10.222
lalu	-10.2226
20	-10.2236
potensi	-10.2237
tol	-10.2238
▁tel	-10.2239
▁dol	-10.225
ly	-10.2257
kawal	-10.2258
alan	-10.2259
eks	-10.2279
ungai	-10.2282
Ira	-10.2283
tisu	-10.2283
kecewa	-10.2292
isteri	-10.2295
▁En	-10.2317
▁lembu	-10.2321
musnah	-10.2322
sungguh	-10.2326
▁percu	-10.2327
kajian	-10.2346
▁Med	-10.2346
ug	-10.2348
▁Kad	-10.2358
▁nak	-10.2361
sembunyi	-10.2372
▁seta	-10.238
▁peri	-10.2381
langkah	-10.2396
dahulu	-10.2398
AN	-10.24
sejarah	-10.2407
11	-10.2411
▁kela	-10.2415
▁Ju	-10.2416
ral	-10.242
▁geo	-10.2421
ilangan	-10.2424
olis	-10.2438
▁So	-10.2455
▁Ang	-10.2457
tuhan	-10.2479
rawak	-10.2483
▁And	-10.2504
▁penjaga	-10.2505
▁un	-10.2536
▁guna	-10.2554
▁beri	-10.2557
buhkan	-10.2563
▁ag	-10.2593
but	-10.2602
▁seme	-10.2604
ry	-10.2613
isian	-10.2621
▁He	-10.2622
▁soal	-10.2623
dangan	-10.2623
qu	-10.2637
mulakan	-10.2644
▁pendidik	-10.2644
gambarkan	-10.2652
pada	-10.266
ewujud	-10.2664
ven	-10.2665
▁menc	-10.2678
▁gerga	-10.2693
makin	-10.2694
embunuh	-10.2698
▁biar	-10.2702
▁keboleh	-10.2708
▁tarik	-10.2709
▁perhati	-10.2709
ngg	-10.271
▁sil	-10.2711
▁kri	-10.2716
jauh	-10.2723
▁Lib	-10.2728
▁Pen	-10.2731
▁Biar	-10.2737
sing	-10.2739
ajar	-10.2762
▁pemakan	-10.2767
pur	-10.2773
▁tingkat	-10.2792
▁Ameri	-10.2798
hapuskan	-10.2802
▁penye	-10.2805
Rev	-10.2807
▁laluan	-10.2809
▁lebuh	-10.2812
▁menuntut	-10.2812
▁mencadangkan	-10.2812
▁penglihatan	-10.2812
▁Perbezaan	-10.2812
▁Phil	-10.2812
▁konteks	-10.2812
▁perintah	-10.2812
▁univers	-10.2812
▁majoriti	-10.2812
▁Doktor	-10.2812
▁meneroka	-10.2813
▁membekalkan	-10.2813
▁timbul	-10.2813
▁menjerit	-10.2814
▁memperkatakan	-10.2814
▁termasuk	-10.2814
▁menyaksikan	-10.2814
ibubapa	-10.2815
▁piza	-10.2816
▁mewarnakan	-10.2817
▁menetap	-10.2818
▁intui	-10.2818
▁Keluarga	-10.2818
▁120	-10.2819
perhamba	-10.2819
▁pembantu	-10.2819
▁menukar	-10.282
▁melancarkan	-10.2821
▁menghapuskan	-10.2821
▁roda	-10.2821
▁Garis	-10.2823
engira	-10.2824
▁150	-10.2827
▁melawat	-10.2832
▁berbilion	-10.2833
hov	-10.2835
esok	-10.2835
▁strategi	-10.2839
▁Bagus	-10.2842
▁34	-10.2847
▁trans	-10.2852
▁pembunuh	-10.2858
▁cetak	-10.2865
▁Gr	-10.2874
▁Masa	-10.2878
▁Rose	-10.2888
▁membuang	-10.2891
ebih	-10.2892
▁letup	-10.2892
▁1000	-10.2893
▁kukuh	-10.2898
ell	-10.2899
▁lubang	-10.29
▁hu	-10.2902
▁petanda	-10.2911
▁menjejas	-10.2912
▁Letak	-10.2915
▁kerjaya	-10.2917
▁penghu	-10.292
▁berulang	-10.2921
▁perse	-10.2921
▁mengulang	-10.2927
nanti	-10.2929
▁perincian	-10.2931
benci	-10.2933
▁serat	-10.2945
▁entiti	-10.2947
▁terbit	-10.2949
▁dielak	-10.2953
NA	-10.2957
uruh	-10.2957
▁Maka	-10.2962
▁ribut	-10.2965
▁singkat	-10.2967
▁hairan	-10.2974
og	-10.2975
▁malap	-10.2977
▁17	-10.2979
▁menghen	-10.298
murah	-10.2986
▁tele	-10.2987
cuti	-10.299
zim	-10.2993
ajaran	-10.2994
▁merendah	-10.2999
▁campur	-10.3001
ritai	-10.3001
▁mengurus	-10.301
mej	-10.302
▁vi	-10.303
▁kala	-10.303
▁kursus	-10.3037
▁lebah	-10.3041
pai	-10.3044
lewat	-10.3047
pakai	-10.3056
asyik	-10.3058
▁pelawa	-10.3061
nyak	-10.3062
▁ais	-10.3067
▁gene	-10.3074
▁lautan	-10.3086
▁Che	-10.3098
let	-10.3143
▁Fa	-10.3144
▁kha	-10.3144
die	-10.3152
awat	-10.3156
tukar	-10.3168
mm	-10.3169
▁sinar	-10.3185
▁19	-10.3193
▁menyemb	-10.3196
jaga	-10.3198
buk	-10.3205
▁Mesin	-10.3209
papar	-10.3215
▁ketidak	-10.3217
▁benci	-10.322
▁meletu	-10.3222
ingan	-10.3236
▁manfaat	-10.325
▁ki	-10.3273
asai	-10.3276
▁kota	-10.3288
▁buka	-10.3293
atkan	-10.3294
dalam	-10.3295
hormat	-10.3304
arang	-10.331
eront	-10.3316
▁membuka	-10.3332
▁tumpu	-10.3332
▁bernas	-10.3337
▁Su	-10.335
osis	-10.3362
latan	-10.3373
hakim	-10.3377
nd	-10.3387
▁kesen	-10.3388
▁keta	-10.3391
eka	-10.3397
▁Ad	-10.3416
▁tahan	-10.3419
selamat	-10.3435
▁cap	-10.344
rat	-10.3441
jah	-10.3471
kanan	-10.3483
▁Jo	-10.3484
▁berk	-10.3497
indas	-10.3505
nci	-10.3507
▁sin	-10.3518
▁Seja	-10.3518
unggu	-10.3533
gambil	-10.3534
duga	-10.356
▁Mala	-10.3572
bahagian	-10.3583
▁sayur	-10.3611
▁Inst	-10.3622
cut	-10.3626
▁dijangka	-10.3642
urus	-10.3645
▁Bay	-10.3648
▁Kebang	-10.3652
▁penta	-10.3659
mon	-10.3669
luruh	-10.3681
▁tent	-10.3687
▁seg	-10.3688
▁Sela	-10.3705
bit	-10.3726
▁kelam	-10.3727
kuran	-10.3738
▁tena	-10.3745
harga	-10.3753
erkahwin	-10.3759
▁konser	-10.3765
▁keping	-10.3766
urut	-10.377
▁For	-10.377
mahir	-10.3778
letakkan	-10.3782
▁ters	-10.3798
▁Ab	-10.3813
ny	-10.3822
atrik	-10.3849
of	-10.3866
to	-10.3893
ampu	-10.3904
▁menutu	-10.3914
maju	-10.3919
▁keba	-10.3929
tur	-10.3953
dak	-10.3973
ist	-10.3976
den	-10.3983
ncur	-10.399
▁bul	-10.4003
▁meni	-10.4036
H	-10.4048
uat	-10.4056
laris	-10.4071
erkasa	-10.4071
00	-10.4085
mumkan	-10.4086
dekat	-10.4095
bul	-10.4097
ersedia	-10.411
▁tr	-10.4116
▁mere	-10.4147
▁mengh	-10.4172
▁pemu	-10.4173
perang	-10.4184
aliti	-10.4185
pedulikan	-10.4199
yara	-10.42
lingkar	-10.4205
iz	-10.4222
▁Em	-10.4224
bimbang	-10.4231
aca	-10.4245
ab	-10.4249
▁berb	-10.4263
C	-10.4266
▁mot	-10.4273
▁Pi	-10.4278
rumah	-10.4286
dom	-10.4293
putus	-10.4311
inda	-10.4311
ejak	-10.4319
apan	-10.4321
dang	-10.4327
▁no	-10.4336
emak	-10.4338
tangan	-10.4352
ktif	-10.4357
mbu	-10.4358
demik	-10.4366
kali	-10.4374
▁berhu	-10.4387
mat	-10.4408
▁par	-10.4413
asukan	-10.4419
os	-10.4445
▁tanam	-10.4447
▁dar	-10.4454
▁53	-10.4465
▁diseba	-10.4474
▁Mal	-10.4474
aku	-10.4476
eronok	-10.4501
emb	-10.4515
laku	-10.4519
ikat	-10.4533
terjemahkan	-10.4538
▁Awa	-10.4554
▁Kur	-10.4557
pus	-10.4561
ogl	-10.4562
sebarkan	-10.4572
beri	-10.4574
▁dibayang	-10.4588
gabung	-10.4601
99	-10.4619
▁bot	-10.4623
▁krit	-10.4624
cuba	-10.4638
asikan	-10.4663
W	-10.4669
perkataan	-10.4671
▁penghi	-10.4672
bayi	-10.4675
belah	-10.4678
endidikan	-10.4679
budak	-10.4684
bintang	-10.4684
bunyi	-10.4691
video	-10.4696
kota	-10.4696
▁kemah	-10.4703
▁Tahu	-10.4705
syarikat	-10.4705
individu	-10.4705
bagaimana	-10.4713
80	-10.4726
Y	-10.4731
odoh	-10.4734
terapi	-10.4737
kadang	-10.475
struktur	-10.4758
hana	-10.477
manfaat	-10.4776
agama	-10.4782
kemanusia	-10.4783
jemput	-10.4783
alami	-10.4797
▁dik	-10.4806
od	-10.4817
babkan	-10.4818
pakar	-10.4821
sempadan	-10.4829
▁menghar	-10.4829
kh	-10.483
buka	-10.484
lapan	-10.4847
lim	-10.4867
lihan	-10.4874
ens	-10.4875
cari	-10.4895
adik	-10.4896
▁Harap	-10.4896
▁Ker	-10.4902
defi	-10.4908
▁tero	-10.4914
wi	-10.4922
kara	-10.4935
▁Wa	-10.4936
▁gel	-10.4936
ikirkan	-10.4943
bina	-10.4959
▁mod	-10.4962
▁sema	-10.4968
jad	-10.4989
adil	-10.4991
▁persi	-10.4994
▁berteri	-10.4996
NH	-10.5019
▁penya	-10.5024
ainan	-10.5032
▁sed	-10.5061
zz	-10.5064
naan	-10.5064
ereka	-10.5069
oson	-10.5077
▁penjela	-10.5079
▁menjangka	-10.5088
uka	-10.5096
▁Mo	-10.5128
▁menguj	-10.5138
tajuk	-10.5139
ray	-10.5141
simpul	-10.5147
▁menyedar	-10.5153
▁To	-10.5154
ulung	-10.5156
antai	-10.5157
▁berkait	-10.5159
beral	-10.5165
keliling	-10.5166
▁memperti	-10.5171
turun	-10.5172
kerja	-10.5185
ngira	-10.5189
▁menyataka	-10.519
▁dic	-10.5199
▁Inte	-10.5204
kelip	-10.5206
▁pel	-10.5224
amat	-10.5225
▁tra	-10.523
laksana	-10.5245
amalkan	-10.526
pita	-10.5265
trategi	-10.5276
daya	-10.5288
kas	-10.5294
ngnya	-10.5295
tup	-10.5301
▁strawber	-10.5312
▁penyanyi	-10.5312
▁arteri	-10.5312
▁1879	-10.5312
▁pertanian	-10.5312
▁Gunakan	-10.5312
cedera	-10.5312
▁lucu	-10.5312
▁penyebar	-10.5312
▁Wiki	-10.5313
▁mustah	-10.5313
▁membazir	-10.5313
▁menghuraikan	-10.5313
▁keuntungan	-10.5313
weil	-10.5313
▁keberanian	-10.5313
ideo	-10.5313
▁kestabilan	-10.5313
▁membaiki	-10.5313
▁roll	-10.5314
▁memajukan	-10.5314
▁toksik	-10.5316
▁terhad	-10.5316
steril	-10.5317
▁Jelas	-10.5317
▁John	-10.5317
▁melekat	-10.5317
▁simpton	-10.5317
▁1960	-10.5318
sanggup	-10.5318
▁meraikan	-10.532
▁kandungan	-10.532
▁penerbit	-10.532
▁watak	-10.532
▁menghampiri	-10.5321
▁dikurnia	-10.5321
▁perokok	-10.5321
▁membebaskan	-10.5321
▁impak	-10.5324
▁terkenal	-10.5325
▁laser	-10.5326
▁mencetus	-10.5328
▁pautan	-10.5329
▁biokimianya	-10.5329
▁meragu	-10.533
▁Rupa	-10.533
▁analog	-10.533
▁84	-10.5332
oriti	-10.5332
▁kecerd	-10.5335
lai	-10.5336
▁kuantit	-10.5336
▁perma	-10.5339
egang	-10.534
▁forma	-10.5342
▁Kaki	-10.5346
▁Bro	-10.5347
▁At	-10.5348
▁sentuh	-10.5351
dit	-10.5352
▁Prin	-10.5353
▁setaraf	-10.5357
timbun	-10.5362
▁super	-10.5363
epal	-10.5366
laporkan	-10.5372
zoo	-10.5372
▁Air	-10.538
▁menyampai	-10.5383
▁Ob	-10.5384
rojek	-10.5387
ncak	-10.5389
▁peroleh	-10.5392
▁pencetak	-10.5392
▁melayan	-10.5396
isan	-10.5401
▁Mont	-10.5403
onton	-10.5407
▁semalam	-10.5411
▁sekerja	-10.5411
kod	-10.5416
▁literasi	-10.5418
▁Lee	-10.5419
▁kamera	-10.5422
maaf	-10.5425
▁komen	-10.5426
ecuali	-10.5428
▁dimensi	-10.5428
▁tinjauan	-10.5429
▁forum	-10.543
▁pejabat	-10.543
▁pengurus	-10.5434
erakhir	-10.5435
▁siaran	-10.5437
▁seniman	-10.5438
▁No	-10.5446
nasihat	-10.5453
▁merata	-10.5456
salah	-10.5462
▁keint	-10.5462
▁Paul	-10.5463
▁kal	-10.5477
kecil	-10.5481
ganggu	-10.5489
lazim	-10.549
▁Fac	-10.5498
▁bertem	-10.5502
afsirkan	-10.5504
hebat	-10.5513
▁pengal	-10.5516
simpulan	-10.5517
sentimen	-10.5528
tentang	-10.5531
▁mengur	-10.5534
▁KE	-10.5534
sar	-10.5536
▁horm	-10.5538
▁membant	-10.5554
▁menjangkakan	-10.5556
maksimum	-10.556
▁Hawa	-10.556
▁menguji	-10.5587
▁inti	-10.5589
ash	-10.559
▁kesi	-10.5594
▁terseb	-10.5602
▁logam	-10.5603
▁panda	-10.5617
▁berp	-10.562
▁pros	-10.5621
awarkan	-10.5627
saan	-10.5627
▁bebas	-10.5634
Man	-10.564
▁terangkan	-10.5642
▁Tumb	-10.5644
masalah	-10.565
rakti	-10.5652
rmula	-10.5658
dne	-10.5663
erso	-10.5664
pedi	-10.5668
▁tarikan	-10.5671
▁Maj	-10.5675
▁drama	-10.5678
ota	-10.5678
de	-10.5684
▁pas	-10.5687
ber	-10.569
anjat	-10.5694
ilion	-10.5701
▁kod	-10.5703
▁Mengena	-10.5714
baharu	-10.572
▁Yun	-10.5728
▁seakan	-10.5735
▁Bar	-10.5741
pasang	-10.5745
tutur	-10.5747
▁ikut	-10.5751
▁melinta	-10.5752
▁dibe	-10.576
▁arti	-10.5766
▁sia	-10.5767
▁mele	-10.5774
rasi	-10.5777
elih	-10.5783
▁diterima	-10.5787
▁berca	-10.5789
nsor	-10.5789
medium	-10.5791
▁Ho	-10.5792
ngeri	-10.5798
rd	-10.5802
fre	-10.5804
elaki	-10.5805
▁Gree	-10.5825
had	-10.5825
syu	-10.5835
duk	-10.5836
mayat	-10.5841
itut	-10.5842
▁inst	-10.5844
jo	-10.5846
▁Kata	-10.5853
▁ski	-10.5859
▁Kris	-10.5866
▁biope	-10.5878
▁darat	-10.5879
▁rupa	-10.5881
▁dike	-10.5884
▁ganj	-10.5894
rum	-10.5896
biot	-10.5897
bahagi	-10.5902
▁penutu	-10.5908
nduduk	-10.591
▁dipam	-10.5916
peluang	-10.592
▁Perang	-10.5921
▁Aya	-10.5924
nggung	-10.5925
form	-10.5936
perbuat	-10.596
▁prim	-10.5965
entukan	-10.5968
▁anggapkan	-10.5978
▁pertaru	-10.5997
engkaji	-10.5999
kopi	-10.6002
remeh	-10.6005
▁Mar	-10.6026
setuju	-10.6049
umbi	-10.6069
▁jadikan	-10.607
mangsa	-10.6093
▁amal	-10.6098
▁perkenalkan	-10.6102
▁pengg	-10.6121
▁diterjemah	-10.6136
▁Bahagia	-10.6144
▁dila	-10.6155
ngetahu	-10.6164
▁menyu	-10.6167
ER	-10.6177
inan	-10.6198
eter	-10.6218
tal	-10.623
▁tawa	-10.6235
mpulan	-10.6244
bert	-10.6254
edar	-10.6255
▁bicara	-10.6279
bebaskan	-10.628
▁berkeli	-10.6286
▁mengger	-10.6287
wit	-10.6301
ala	-10.6302
▁Pem	-10.6306
▁Seti	-10.6317
cit	-10.6329
▁Soto	-10.6334
▁bercer	-10.634
▁kese	-10.6342
▁Ru	-10.6358
▁pengesa	-10.636
ey	-10.6366
engubahsuai	-10.6374
▁membimb	-10.6376
▁melo	-10.6385
▁keku	-10.6387
aras	-10.6396
▁Wo	-10.6406
▁hid	-10.6406
rger	-10.6428
▁im	-10.643
▁milik	-10.6432
lombo	-10.6436
enyum	-10.6437
gn	-10.6445
mbang	-10.6448
▁22	-10.645
eratur	-10.6474
▁aga	-10.6491
▁Ch	-10.6496
erkhidmat	-10.6532
lif	-10.6588
andangan	-10.6595
opia	-10.6596
▁sukakan	-10.6602
▁pengli	-10.6615
je	-10.662
cita	-10.6621
▁seks	-10.6621
▁wal	-10.6622
eluarkan	-10.6629
ett	-10.6635
wap	-10.6639
▁ceri	-10.6641
ecah	-10.6647
▁berba	-10.665
▁tangga	-10.6652
impa	-10.6656
▁pembel	-10.6657
▁berper	-10.6673
bandar	-10.6677
ertutur	-10.6681
elawa	-10.6682
rikan	-10.6684
▁meman	-10.6686
uf	-10.6694
sim	-10.6699
dara	-10.6715
▁menjel	-10.6727
▁rem	-10.673
▁Kera	-10.673
▁Sam	-10.6744
▁pert	-10.6756
esihatan	-10.6772
rl	-10.6778
▁agen	-10.6782
ro	-10.6787
laras	-10.6829
thi	-10.6832
▁ce	-10.6832
▁mengaja	-10.6838
tabi	-10.6841
lih	-10.685
namakan	-10.6854
▁suai	-10.6855
rangka	-10.6855
▁memi	-10.6859
▁Peng	-10.6864
erif	-10.6879
erlin	-10.6881
▁neu	-10.6883
berdaya	-10.6899
ook	-10.6917
enasi	-10.6932
embes	-10.6932
▁Uta	-10.6934
endap	-10.6944
▁menyat	-10.6946
atakan	-10.6953
▁Col	-10.6961
aksikan	-10.697
▁sali	-10.697
knologi	-10.6975
▁dija	-10.6984
▁fi	-10.6998
yur	-10.6998
sah	-10.7005
▁Mor	-10.7007
▁diada	-10.7013
▁menyama	-10.7027
ge	-10.704
ntah	-10.7047
ina	-10.7092
ilih	-10.7109
angunan	-10.7113
▁hot	-10.7131
rama	-10.7159
ional	-10.7165
ungkap	-10.7168
erikan	-10.7171
padan	-10.7181
▁sep	-10.7182
▁cer	-10.7184
ronto	-10.719
▁mar	-10.7197
uru	-10.7205
▁dite	-10.7206
lestari	-10.7212
▁Fo	-10.7217
angkala	-10.7235
miliki	-10.7258
ole	-10.726
▁pes	-10.7267
uluh	-10.7278
▁sah	-10.7281
izo	-10.7283
▁so	-10.7316
▁Heb	-10.7317
▁tingg	-10.7328
jar	-10.733
▁ek	-10.7348
ebal	-10.7352
amp	-10.7355
tel	-10.7355
▁Ses	-10.7382
antau	-10.7385
risiko	-10.7391
sif	-10.7395
▁pemba	-10.7399
har	-10.7409
ine	-10.742
▁sete	-10.7422
ther	-10.7427
taraf	-10.7427
▁berpu	-10.7446
wat	-10.745
ndang	-10.7452
asti	-10.7457
▁Cer	-10.7471
rit	-10.7477
▁Stan	-10.7484
▁edi	-10.7486
▁kec	-10.7486
▁Ki	-10.7508
kon	-10.7517
▁suri	-10.7531
▁pelan	-10.7538
ink	-10.754
persoal	-10.7541
ola	-10.7546
tarik	-10.756
v	-10.7569
usan	-10.7575
mak	-10.76
▁Sala	-10.7606
lari	-10.7612
isal	-10.7639
▁hadi	-10.764
enghormat	-10.7641
▁pema	-10.7642
elajar	-10.7646
grafi	-10.7658
▁bimb	-10.7666
ternak	-10.7677
ali	-10.7686
▁eja	-10.7693
labur	-10.7701
▁Po	-10.7711
pal	-10.7713
asy	-10.7715
elamatkan	-10.7717
bangga	-10.7735
oph	-10.7751
▁bersa	-10.7766
▁inter	-10.7769
▁maha	-10.7794
ano	-10.7795
alas	-10.7806
▁Ema	-10.7808
▁as	-10.7817
▁membi	-10.782
▁car	-10.7829
lar	-10.7832
pelajar	-10.7842
fe	-10.7847
tian	-10.7862
▁pin	-10.7869
upa	-10.7872
molekul	-10.7876
ram	-10.7881
imbas	-10.7903
jatuh	-10.7904
▁mema	-10.7915
faham	-10.7916
perbezaan	-10.7944
inasi	-10.7953
▁sereb	-10.7974
lesaikan	-10.7998
sumber	-10.8005
▁Tah	-10.8023
harta	-10.8024
negeri	-10.8029
yak	-10.8031
daftar	-10.8032
njin	-10.8032
▁gem	-10.8033
esar	-10.8035
pintu	-10.8039
simbol	-10.8041
400	-10.8046
▁Berd	-10.805
omputer	-10.8051
F	-10.8052
▁diangga	-10.8063
teknik	-10.8085
kesan	-10.8086
cemas	-10.8098
dium	-10.8112
hasrat	-10.812
▁As	-10.8123
gunung	-10.8139
▁sand	-10.8142
▁merakam	-10.8144
tadbir	-10.8145
▁tab	-10.8146
tung	-10.8152
▁bersen	-10.8158
▁res	-10.8167
▁Mart	-10.817
punca	-10.8175
▁Dis	-10.8176
pub	-10.8182
hukum	-10.8191
iel	-10.8191
go	-10.82
dari	-10.8202
kemungkinan	-10.8212
jujur	-10.8217
capaian	-10.8218
sebut	-10.8224
▁Bo	-10.8242
lalui	-10.8243
nug	-10.8248
▁berse	-10.8249
enderita	-10.825
buruk	-10.8267
Tu	-10.8275
jiran	-10.8276
pres	-10.8291
ore	-10.8291
ulat	-10.8294
asar	-10.8303
kualiti	-10.8306
▁menghi	-10.8306
ikot	-10.8309
psi	-10.8321
ena	-10.8326
▁Cart	-10.834
▁Den	-10.8342
ingin	-10.8354
▁Hai	-10.8359
selamatkan	-10.8362
ngkat	-10.8366
▁tertu	-10.8373
ragam	-10.8388
▁Cu	-10.8389
tahan	-10.8392
▁pendakwa	-10.8393
▁sedia	-10.8397
▁sal	-10.8432
tujuan	-10.8448
logi	-10.8448
ebahagia	-10.8453
ungguh	-10.8462
SA	-10.8466
▁gra	-10.847
bual	-10.8471
ejar	-10.8476
▁menj	-10.8497
▁peme	-10.8498
romos	-10.8499
endalikan	-10.8501
erat	-10.8501
ebarang	-10.8504
▁letak	-10.851
▁pelu	-10.8515
▁teras	-10.8522
▁menjeja	-10.8533
roduk	-10.8537
lur	-10.8538
ngubahsuai	-10.8554
▁menunjuk	-10.8555
erhati	-10.8568
te	-10.8569
kol	-10.8579
kademi	-10.8586
emas	-10.8591
▁berke	-10.8594
▁menungg	-10.8613
belanja	-10.8613
residen	-10.8627
sla	-10.8627
jejas	-10.8632
▁Yo	-10.8633
gila	-10.8634
trak	-10.8636
etaka	-10.864
eles	-10.8641
▁196	-10.8642
800	-10.8644
Street	-10.8645
▁Chernob	-10.8645
▁Judaisme	-10.8645
▁Matthew	-10.8645
▁merealisasikan	-10.8645
▁penterjemah	-10.8645
kategori	-10.8645
▁OpenStreetMap	-10.8645
▁vaskula	-10.8645
▁peminggiran	-10.8645
▁homoseksual	-10.8645
▁pengebom	-10.8645
▁Sumber	-10.8645
▁astronomi	-10.8645
prihatin	-10.8645
cred	-10.8645
▁penunggang	-10.8645
▁menghidap	-10.8645
▁mengesyorkan	-10.8645
▁menyanyi	-10.8645
▁transformasi	-10.8645
▁memulihkan	-10.8645
▁keajaiban	-10.8646
▁nisbah	-10.8646
▁obes	-10.8646
▁menjauhkan	-10.8646
▁1.6	-10.8646
▁estetik	-10.8646
▁Pengguna	-10.8646
▁Nasihat	-10.8646
▁Maaf	-10.8646
▁nyanyi	-10.8646
▁porno	-10.8646
▁Moham	-10.8647
▁v	-10.8647
▁menghafal	-10.8647
▁pancaind	-10.8647
▁leher	-10.8647
▁1900	-10.8648
▁Pokok	-10.8648
▁kesayangan	-10.8649
▁Carlo	-10.8649
jengkel	-10.8649
▁penghasil	-10.865
▁kegugu	-10.865
▁1930	-10.8651
▁Magn	-10.8652
▁memusing	-10.8652
▁menegak	-10.8655
▁Hasil	-10.8655
▁46	-10.8655
▁kegunaan	-10.8656
org	-10.8657
zalim	-10.8657
▁penge	-10.8658
periksa	-10.8658
▁termo	-10.8659
▁Gall	-10.8659
▁penghalang	-10.8659
▁Realiti	-10.866
▁Juru	-10.8661
▁Organ	-10.8662
▁65	-10.8662
▁Bow	-10.8663
▁presiden	-10.8664
▁pengukur	-10.8664
▁merayau	-10.8665
lilin	-10.8665
skri	-10.8667
lembaga	-10.8669
▁Masihi	-10.867
▁kuli	-10.867
opaedi	-10.867
▁menjual	-10.8672
▁Adik	-10.8673
bintik	-10.8682
▁kuku	-10.8684
ensik	-10.8685
▁Pasang	-10.8686
▁kehad	-10.8686
▁Erti	-10.869
▁35	-10.8691
perbaiki	-10.8695
▁Colli	-10.8695
▁Pengajar	-10.8696
oga	-10.8701
▁diberi	-10.8705
lintas	-10.8705
ngin	-10.8708
▁Kau	-10.8709
▁menemu	-10.8711
▁piawai	-10.8715
▁Nebuch	-10.8715
▁pandu	-10.8716
kampung	-10.8716
takrif	-10.8717
18	-10.8722
▁memetik	-10.8727
sch	-10.8728
Nya	-10.8732
▁keesok	-10.8733
▁mus	-10.8735
▁terla	-10.8737
njat	-10.8737
▁pertimbang	-10.8738
▁bermacam	-10.8741
▁kejutan	-10.8743
ecewa	-10.8747
▁jawatan	-10.8753
▁menterjemahkan	-10.8754
▁Fal	-10.8754
makmur	-10.8755
izink	-10.8755
▁Pasti	-10.8757
▁4,	-10.8761
teknologi	-10.8762
▁sedap	-10.8766
▁memasarkan	-10.8773
▁kelompok	-10.8773
ografi	-10.8783
▁Wal	-10.8784
▁Harga	-10.8784
▁manis	-10.8785
▁tawar	-10.8785
▁Tolong	-10.8787
▁persa	-10.8787
enggan	-10.8789
mbi	-10.879
▁kilo	-10.8792
▁elemen	-10.8793
▁diserta	-10.88
▁fo	-10.8801
ngkan	-10.8802
oho	-10.8802
▁mon	-10.8802
▁cende	-10.8804
▁Biarkan	-10.881
▁bumbung	-10.881
begitu	-10.8811
▁Sesu	-10.8811
▁Si	-10.8813
tangani	-10.8813
IS	-10.8815
zer	-10.8826
▁Seme	-10.8829
▁Wak	-10.8829
▁Oven	-10.8835
▁janda	-10.8836
▁dosa	-10.8841
ID	-10.8847
▁gil	-10.8864
hei	-10.8865
▁tafsiran	-10.8868
ianya	-10.8869
▁berbagai	-10.887
elekt	-10.887
emel	-10.8873
▁menaf	-10.8879
▁nom	-10.8885
▁Buat	-10.8886
unggul	-10.8893
per	-10.8896
▁deria	-10.8898
▁seluar	-10.8902
kahwin	-10.8903
▁Ic	-10.8906
▁Jul	-10.8907
▁berakhir	-10.8912
▁istilah	-10.8914
▁1.	-10.8917
singkan	-10.8921
▁bayang	-10.8922
riba	-10.8924
iram	-10.8952
▁Lakukan	-10.8954
▁menyalah	-10.8955
dam	-10.8964
▁berte	-10.8969
▁Ste	-10.897
▁sifa	-10.897
pemproses	-10.8975
▁menyia	-10.8981
esimpulan	-10.8988
lmari	-10.9002
▁Berat	-10.9009
pet	-10.9012
ntern	-10.9038
moto	-10.9039
▁sambung	-10.9053
▁Map	-10.9057
▁mal	-10.9061
▁melepas	-10.9067
▁kafe	-10.907
mum	-10.9073
▁pegang	-10.9075
by	-10.9083
▁integr	-10.909
atar	-10.9099
▁menyedari	-10.9101
▁tingkatkan	-10.9104
ikut	-10.9116
▁didengar	-10.9118
analis	-10.9122
wal	-10.9124
▁kelak	-10.9125
iver	-10.9125
▁Mur	-10.9127
▁tema	-10.9138
ger	-10.914
ubato	-10.9156
wak	-10.9172
▁pakaian	-10.9175
▁kelaju	-10.9183
▁melintas	-10.9187
isasi	-10.92
engisytihar	-10.9202
ragu	-10.9205
▁menon	-10.9208
▁sej	-10.9208
asal	-10.9219
▁siap	-10.922
sedia	-10.9223
siar	-10.9227
▁penjagaan	-10.9229
gelu	-10.923
▁ken	-10.9237
eral	-10.9243
takan	-10.9251
kuba	-10.9252
▁pasi	-10.9257
ujian	-10.9265
▁disalah	-10.9265
cah	-10.9276
ubur	-10.928
▁menggel	-10.928
▁Sil	-10.9284
elah	-10.9293
ban	-10.9299
istik	-10.9302
percepat	-10.9304
▁pemakanan	-10.9315
▁kesu	-10.9316
gh	-10.932
▁Russ	-10.9327
evolusi	-10.9327
▁berc	-10.9332
▁dicerita	-10.9339
▁Le	-10.936
30	-10.9365
▁berta	-10.9366
▁an	-10.9373
▁menyaya	-10.9374
▁bula	-10.9378
▁for	-10.9394
asas	-10.9395
▁indu	-10.9397
▁mencer	-10.9412
▁tum	-10.9412
▁Hel	-10.9414
▁bertah	-10.942
▁teka	-10.9422
LA	-10.9424
▁sebe	-10.9435
▁akh	-10.9443
▁pengguba	-10.9447
umpa	-10.945
▁sewajar	-10.9469
stik	-10.9471
kalk	-10.9472
▁pato	-10.948
disi	-10.9485
▁Art	-10.9486
▁kucin	-10.95
▁meta	-10.9501
omer	-10.9502
tis	-10.9509
▁permu	-10.9513
serta	-10.9518
▁mengubat	-10.9537
▁atom	-10.9538
ani	-10.9549
▁Un	-10.9549
▁Tia	-10.9552
▁menyambu	-10.9565
eadaan	-10.9566
atur	-10.9577
▁Diseba	-10.958
sini	-10.9595
telus	-10.9598
sumb	-10.96
abit	-10.9602
▁rata	-10.9614
▁SH	-10.9629
▁seki	-10.9644
▁lawat	-10.9647
lembut	-10.9651
marah	-10.9652
mesra	-10.9679
sara	-10.9681
esia	-10.9681
▁taha	-10.9682
▁menyusu	-10.9689
fah	-10.9691
ayat	-10.9699
fikirkan	-10.9703
▁Pal	-10.9706
iada	-10.971
ransi	-10.9718
bang	-10.9727
ksi	-10.9739
the	-10.9741
▁cend	-10.9745
tetik	-10.975
▁terb	-10.9777
ertambah	-10.9777
kini	-10.9783
eritahu	-10.9799
cu	-10.9803
tivi	-10.9803
gerun	-10.9804
rkembang	-10.9807
▁mencuku	-10.9807
andu	-10.981
darin	-10.9814
▁pon	-10.9816
ez	-10.9816
tral	-10.9817
▁memuj	-10.9826
ndustri	-10.9827
hingga	-10.9848
▁bil	-10.9859
hara	-10.9861
enja	-10.9865
▁memba	-10.9865
▁penur	-10.9877
▁pencer	-10.9892
damai	-10.9895
▁50-	-10.9909
ohon	-10.9913
▁kew	-10.9914
▁timu	-10.9916
odi	-10.9918
out	-10.992
▁terkena	-10.992
rap	-10.9921
sak	-10.9923
▁Cal	-10.9933
▁separa	-10.9934
▁Ko	-10.9944
meran	-10.9955
▁Mula	-10.9956
▁Bang	-10.9967
▁Dir	-10.9967
rio	-10.9972
ersetuju	-10.9979
ns	-10.9997
▁disangka	-11.0001
yakin	-11.0001
halan	-11.0004
engeluar	-11.0013
nskripsi	-11.0016
aham	-11.0028
enulis	-11.0051
doa	-11.0055
osta	-11.0057
katan	-11.0059
ujur	-11.0063
▁Mes	-11.0074
akar	-11.0093
▁menyuka	-11.0097
ngembara	-11.0104
tanda	-11.0106
mbut	-11.0141
▁Pende	-11.0142
▁Meng	-11.0147
dun	-11.0147
enyelidik	-11.0163
datang	-11.0164
enzi	-11.0165
▁pang	-11.0179
▁Gi	-11.0185
riku	-11.0199
▁berlak	-11.0246
angsa	-11.0257
nghormat	-11.0286
▁peg	-11.0295
▁bud	-11.0307
do	-11.0307
por	-11.032
jangkit	-11.0342
stat	-11.0347
▁memasa	-11.0355
entas	-11.0355
bak	-11.0378
kad	-11.0393
ungut	-11.0397
enalan	-11.0405
hancur	-11.0408
laman	-11.0413
edia	-11.0433
▁sela	-11.0459
▁komunis	-11.0478
emasan	-11.0482
he	-11.0483
▁Perk	-11.0491
balut	-11.0492
ngkala	-11.0492
mudarat	-11.0505
duan	-11.0523
▁nad	-11.0533
sta	-11.0545
enganjur	-11.0545
▁Spe	-11.0545
dai	-11.0551
▁ironi	-11.056
gali	-11.0571
ikul	-11.0571
▁eksp	-11.0587
▁har	-11.0592
berita	-11.0616
▁Sejara	-11.0617
▁tap	-11.0623
luang	-11.0628
▁menyelam	-11.0632
sengaja	-11.0636
▁sek	-11.064
va	-11.0641
agam	-11.0649
▁sekump	-11.0652
beza	-11.0657
rak	-11.0675
rth	-11.0691
rom	-11.0705
pen	-11.0714
▁tik	-11.0724
▁ditutu	-11.0739
metik	-11.0745
luar	-11.0761
rakam	-11.077
▁dihi	-11.0771
ertemu	-11.0776
lurkan	-11.0778
telit	-11.0792
pusat	-11.0798
▁Had	-11.0819
▁gela	-11.0834
sus	-11.0836
roc	-11.0848
sinar	-11.0867
▁Kon	-11.0873
lon	-11.0876
mpun	-11.0884
isytihar	-11.0891
▁menguta	-11.0893
enci	-11.0914
untu	-11.0937
sti	-11.0939
risau	-11.0948
ganti	-11.0959
yu	-11.0968
olom	-11.0971
▁mengund	-11.0996
lama	-11.1
▁206	-11.1
ogn	-11.1002
▁pence	-11.1004
lori	-11.1058
rt	-11.106
▁paras	-11.1071
perlahan	-11.1077
ntung	-11.1084
rkahwin	-11.109
rata	-11.1104
▁pengang	-11.1111
enarai	-11.1117
▁Lu	-11.1117
▁Sep	-11.1119
hing	-11.1121
gerak	-11.113
car	-11.1134
▁ser	-11.1141
▁ramal	-11.1146
▁Hid	-11.1177
ditor	-11.1179
epi	-11.1189
oc	-11.1195
erba	-11.1196
agno	-11.1205
▁pengu	-11.1218
geb	-11.1238
▁menerus	-11.1254
nes	-11.1268
erancang	-11.1274
▁resi	-11.1274
▁mend	-11.1278
▁Ambu	-11.1289
▁berga	-11.1292
liti	-11.1321
mar	-11.133
replika	-11.1369
ngisytihar	-11.138
▁berpelu	-11.1389
ampak	-11.1393
▁mengga	-11.1394
tap	-11.1405
gua	-11.1413
▁biop	-11.1416
▁sembunyi	-11.1427
fo	-11.1437
rapi	-11.1439
run	-11.1449
cang	-11.145
pupu	-11.1453
▁do	-11.1454
ib	-11.1461
esej	-11.1464
▁We	-11.1468
enolak	-11.1472
sy	-11.1482
gno	-11.1501
▁terk	-11.1509
helai	-11.1512
▁je	-11.1518
nderita	-11.1532
nyum	-11.1536
▁member	-11.1537
geria	-11.1544
entangan	-11.1552
gel	-11.1567
▁mengec	-11.1577
entar	-11.1577
nggan	-11.1593
sut	-11.1614
▁Uk	-11.1639
nov	-11.1647
▁gu	-11.1668
berani	-11.1672
nal	-11.1679
stru	-11.1683
▁Bil	-11.1693
bur	-11.1716
utama	-11.1723
pat	-11.1741
simpan	-11.1742
siswa	-11.1751
ay	-11.1775
▁sy	-11.178
▁mengi	-11.1794
▁tin	-11.1799
▁160	-11.1806
anti	-11.1807
nan	-11.1811
▁pertam	-11.1811
kiran	-11.1813
tubuh	-11.1826
hari	-11.1845
▁pri	-11.1846
▁misa	-11.185
pas	-11.1865
▁fahami	-11.187
menangi	-11.187
▁aut	-11.188
▁difikir	-11.189
▁meros	-11.1892
rana	-11.1892
cepat	-11.1894
▁pembo	-11.1918
osi	-11.192
▁kom	-11.1921
▁mengg	-11.1936
yar	-11.1947
lakukan	-11.1948
emudarat	-11.1961
vil	-11.1972
▁dom	-11.1973
▁Mi	-11.1975
▁mengik	-11.1976
▁ar	-11.1978
▁sf	-11.2001
nak	-11.2016
ndir	-11.2032
ater	-11.2038
▁dipe	-11.207
we	-11.2121
▁Ram	-11.2139
nis	-11.2163
if	-11.2173
▁An	-11.2175
neur	-11.2187
▁keran	-11.2195
▁semb	-11.2201
▁perka	-11.2206
▁II	-11.2207
Kenn	-11.2221
kukan	-11.2226
eku	-11.2241
habi	-11.2241
matkan	-11.2268
enyakit	-11.2297
trik	-11.2305
▁doa	-11.2334
bio	-11.2336
erap	-11.234
▁Kemur	-11.235
ingat	-11.2382
esan	-11.2393
ium	-11.2401
▁terang	-11.2404
▁bulu	-11.241
duh	-11.2423
▁berbaha	-11.2448
▁und	-11.2472
erta	-11.2473
lupa	-11.2483
tumpu	-11.2489
▁bertaru	-11.2505
▁bergan	-11.2508
▁perc	-11.2519
▁Kat	-11.2519
penu	-11.2523
▁tutu	-11.2538
aju	-11.2548
stro	-11.2556
halang	-11.2562
▁keh	-11.2573
empa	-11.2578
▁kapa	-11.258
ihan	-11.2584
▁pendara	-11.2586
sit	-11.2595
isik	-11.2596
lukan	-11.2607
ela	-11.2625
▁menji	-11.2642
▁Lal	-11.2646
rend	-11.2659
dahan	-11.2675
▁masak	-11.2686
ulis	-11.2696
▁Hom	-11.2713
pembi	-11.2713
don	-11.2716
isiko	-11.275
nolak	-11.2752
haiwan	-11.277
sistem	-11.2775
▁Seba	-11.2789
erkaitan	-11.2793
▁Prof	-11.2843
sir	-11.2844
kelab	-11.2848
▁Seb	-11.2851
singa	-11.2859
▁utara	-11.2859
penyakit	-11.2869
silap	-11.2875
engutip	-11.2885
U	-11.2887
bilion	-11.2893
planet	-11.29
doktor	-11.2909
otik	-11.291
kelas	-11.292
jangka	-11.2933
aw	-11.2936
200	-11.294
▁mengand	-11.2945
lib	-11.2949
umlah	-11.2965
huruf	-11.2965
ekolah	-11.2976
mbusi	-11.2977
erangan	-11.2983
▁teta	-11.2996
uskan	-11.2998
▁dram	-11.3005
binatang	-11.3005
▁diser	-11.3006
lutut	-11.3012
kursus	-11.3017
biografi	-11.302
Mot	-11.3029
kafe	-11.3032
▁ram	-11.3038
pencipta	-11.3041
ilah	-11.3042
logam	-11.3047
kuorum	-11.305
nyamuk	-11.305
nggu	-11.305
anjing	-11.3051
ahun	-11.3052
integr	-11.3053
▁bergel	-11.3053
terna	-11.3054
ata	-11.3055
popula	-11.3056
▁ala	-11.306
lebah	-11.3077
aktivi	-11.3087
▁Nama	-11.3088
▁sesi	-11.3089
duit	-11.3092
belakang	-11.3103
berterus	-11.3104
suka	-11.3105
▁Meman	-11.3111
usi	-11.3112
▁risa	-11.3114
derma	-11.3115
arol	-11.312
rasa	-11.3122
campur	-11.3124
spon	-11.3124
enj	-11.3128
interak	-11.3129
biarkan	-11.3148
▁Sta	-11.3152
▁prose	-11.3153
▁kek	-11.3162
bes	-11.3165
kilang	-11.3176
gin	-11.318
artikel	-11.3185
impian	-11.3188
corak	-11.3202
serat	-11.3207
puluh	-11.3209
pakaian	-11.3211
cur	-11.3214
nganjur	-11.3219
ko	-11.322
alk	-11.3226
▁pol	-11.3234
▁jangk	-11.3234
hidupkan	-11.3243
▁sala	-11.3243
kotak	-11.3247
ntangan	-11.3249
jahat	-11.325
mecah	-11.3258
▁norma	-11.326
▁Bus	-11.3279
kes	-11.3294
enyingkir	-11.3295
▁melabu	-11.33
▁Wil	-11.3301
neu	-11.3305
▁dokumenta	-11.3307
▁kap	-11.3309
▁lemba	-11.3316
▁Pender	-11.3317
▁jin	-11.332
rol	-11.3325
ambu	-11.3337
kutan	-11.3347
pegang	-11.3359
▁cabar	-11.336
mom	-11.3369
mba	-11.3379
▁disera	-11.3383
bab	-11.3387
esak	-11.3388
ersendiri	-11.3411
▁ban	-11.3414
nie	-11.3422
▁samping	-11.3444
bia	-11.3444
rfikir	-11.3449
▁Leb	-11.3466
susah	-11.3472
▁penentang	-11.3473
ndung	-11.3485
att	-11.3488
ifat	-11.349
jari	-11.3493
sil	-11.3498
alasan	-11.3504
renta	-11.351
▁bertum	-11.352
▁puc	-11.3522
▁menyiapkan	-11.3523
▁bela	-11.3532
▁But	-11.355
▁pad	-11.3551
ndes	-11.3555
erbincang	-11.3556
misi	-11.3568
▁cel	-11.3569
▁kola	-11.3576
eng	-11.3576
ngku	-11.3578
pecah	-11.3578
opi	-11.3578
▁Sel	-11.3583
minum	-11.3609
vis	-11.3611
▁memelu	-11.3628
▁mengingat	-11.3632
ica	-11.3639
ED	-11.3639
skop	-11.3639
▁pras	-11.3641
uruf	-11.3644
ompok	-11.3645
magnolia	-11.3645
▁Williams	-11.3645
▁Pahlavi	-11.3645
▁mengoptimumkan	-11.3645
▁penampilan	-11.3645
▁prostrat	-11.3645
▁kontroversi	-11.3645
▁raksasa	-11.3645
saudagar	-11.3645
▁Heart	-11.3645
▁melangkau	-11.3645
▁menghambat	-11.3645
▁Bridge	-11.3645
▁Gold	-11.3645
klinisian	-11.3645
▁Buff	-11.3645
▁spekula	-11.3645
▁dijelajahi	-11.3645
▁fatalis	-11.3645
▁Swede	-11.3645
▁robot	-11.3645
cungap	-11.3645
▁Kawasan	-11.3645
▁termodinamik	-11.3645
▁lambat	-11.3645
▁kebiasaan	-11.3645
estin	-11.3646
sinaps	-11.3646
▁mengekod	-11.3646
▁Jeff	-11.3646
harmoni	-11.3646
▁lebuhraya	-11.3646
▁klasik	-11.3646
▁McCa	-11.3646
▁menyembunyi	-11.3646
DT	-11.3646
faedah	-11.3646
▁keseimbangan	-11.3646
▁lucah	-11.3646
▁sunting	-11.3646
wesome	-11.3647
▁Warna	-11.3647
pelihara	-11.3647
▁membandingkan	-11.3647
suci	-11.3647
▁Josef	-11.3647
▁elok	-11.3647
▁Arteri	-11.3647
▁romanti	-11.3647
▁menampungnya	-11.3647
▁Jenn	-11.3648
▁Berikut	-11.3648
▁membayar	-11.3648
▁menumbuhkan	-11.3648
wenang	-11.3648
▁postur	-11.3648
▁Philip	-11.3648
ombak	-11.3649
▁Kalau	-11.3649
ilham	-11.365
▁menggelet	-11.365
ajaib	-11.365
tokoh	-11.365
▁kepakaran	-11.365
▁keutamaan	-11.365
formasi	-11.365
▁kempen	-11.3651
▁Nilai	-11.3651
▁Hero	-11.3651
▁dipenjarakan	-11.3652
▁Benar	-11.3652
▁mengendahkan	-11.3652
▁membentangkan	-11.3652
obor	-11.3653
▁formula	-11.3653
▁cucu	-11.3653
DN	-11.3654
▁menyeksa	-11.3654
▁German	-11.3655
▁mengutarakan	-11.3656
▁berganding	-11.3657
▁menembus	-11.3657
▁1800	-11.3657
rekod	-11.3658
▁Berjalan	-11.3658
▁Pernah	-11.3658
odger	-11.3659
▁pemilik	-11.3659
mercik	-11.3659
▁sekular	-11.3659
▁Alasan	-11.366
▁Sungai	-11.3661
perdebat	-11.3662
seksual	-11.3662
▁tersimpan	-11.3664
▁penyejuk	-11.3666
▁huru	-11.3666
▁Pakar	-11.3669
▁193	-11.367
tkan	-11.367
▁penc	-11.3672
lantun	-11.3673
bedahan	-11.3675
▁keegoa	-11.3679
▁Anta	-11.3679
bet	-11.3679
▁merekod	-11.368
dedahkan	-11.368
▁berturut	-11.368
▁menyema	-11.3681
▁Kuasa	-11.3683
▁formal	-11.3683
▁Mon	-11.3685
▁Bantu	-11.3686
▁RM	-11.3686
rayau	-11.3687
▁ikti	-11.3688
▁CN	-11.3689
▁27	-11.369
LU	-11.369
▁tersekat	-11.3692
▁Kola	-11.3694
▁Benda	-11.3695
▁Tinggi	-11.3696
▁Web	-11.3697
▁ghai	-11.3698
▁sampa	-11.3703
▁menamp	-11.3706
▁hipok	-11.3707
acker	-11.3708
▁Persep	-11.3708
golek	-11.3711
▁terhasil	-11.3712
▁pinjaman	-11.3718
▁institu	-11.3718
peta	-11.3728
▁menggigi	-11.3729
perkatakan	-11.3732
eve	-11.3736
alin	-11.3737
khusus	-11.3738
otot	-11.3739
▁pera	-11.3742
▁Tanpa	-11.3743
▁fals	-11.3744
belas	-11.3744
▁Anak	-11.3744
▁pemand	-11.3745
▁melarang	-11.3746
uri	-11.3748
lanet	-11.3749
hani	-11.3752
kiub	-11.3754
▁kre	-11.3755
▁go	-11.3758
▁Perhati	-11.3759
▁kelapa	-11.3763
gham	-11.3763
rte	-11.3763
▁Leon	-11.3764
▁Baru	-11.3764
▁fra	-11.3766
▁diter	-11.3766
▁menyiapkannya	-11.3769
▁meneka	-11.3775
▁kontr	-11.3778
cuk	-11.378
.3	-11.3784
eralih	-11.3786
▁Cro	-11.3787
▁23	-11.3789
vol	-11.379
dedah	-11.3792
▁kelab	-11.3796
▁kemu	-11.3796
▁Sebaik	-11.3796
bezakan	-11.3798
kagum	-11.3801
▁Gar	-11.3809
▁penala	-11.3809
pilih	-11.3817
ARA	-11.3817
▁6,	-11.3819
idor	-11.3825
rakan	-11.3826
▁mengisi	-11.3828
▁penentangan	-11.3831
96	-11.3834
mudah	-11.3835
▁teguh	-11.3836
nisia	-11.3838
sod	-11.3839
ree	-11.3841
▁Kawan	-11.3843
▁doktr	-11.3845
dy	-11.3848
uci	-11.3854
sign	-11.3859
▁Fran	-11.3859
damkan	-11.3871
kemuka	-11.3878
long	-11.3879
ren	-11.388
▁nas	-11.3883
▁Gal	-11.3883
▁Penguku	-11.3884
▁1.7	-11.3888
▁padamkan	-11.3896
▁lewa	-11.3897
▁kunjung	-11.3897
▁sekecil	-11.3898
▁Tuju	-11.39
komersi	-11.3902
diter	-11.3905
▁dijatuh	-11.3906
ible	-11.3909
beku	-11.391
ker	-11.3917
ember	-11.3918
▁mengaku	-11.3919
injau	-11.3921
ibawa	-11.3928
▁topik	-11.3932
▁liter	-11.3934
▁bebuli	-11.3935
▁pelaku	-11.3938
▁tekstur	-11.3938
ose	-11.394
ikum	-11.3943
▁penipu	-11.3945
tensi	-11.3946
elenggara	-11.3948
ubungan	-11.3948
▁burung	-11.3956
▁asma	-11.3957
▁CD	-11.3958
elefon	-11.396
ekat	-11.3961
ergelut	-11.3963
sion	-11.3968
▁42	-11.397
▁berdo	-11.3971
alat	-11.3972
▁Liber	-11.3974
sastera	-11.3975
▁batal	-11.3983
▁beb	-11.399
row	-11.3995
▁Kons	-11.3997
▁menteri	-11.401
▁beru	-11.4028
untuk	-11.403
ov	-11.403
▁aster	-11.4036
enter	-11.4039
▁dog	-11.4042
hamm	-11.4044
guran	-11.4046
ngsang	-11.4047
OE	-11.4051
▁cell	-11.4053
▁penyeli	-11.4065
▁78	-11.4075
▁promo	-11.4075
pendakwah	-11.4082
eland	-11.4086
ngiang	-11.4088
▁peralatannya	-11.4091
jerit	-11.4093
▁Sej	-11.4096
rindu	-11.4096
erdagang	-11.4098
▁0.	-11.4101
itar	-11.4102
▁band	-11.4102
layan	-11.4111
krim	-11.4112
▁Penu	-11.4114
erita	-11.4127
laju	-11.4149
▁Asas	-11.4159
mbra	-11.4161
▁Kali	-11.4164
luki	-11.417
▁Nasi	-11.4171
▁mengena	-11.4174
▁fe	-11.4175
erhenti	-11.418
taka	-11.418
▁Ga	-11.42
▁dialih	-11.4206
▁sejara	-11.4214
tain	-11.4226
rumus	-11.423
▁Pela	-11.4231
▁sorak	-11.4232
iskrim	-11.4232
▁protes	-11.4235
▁Hu	-11.4235
▁terl	-11.4236
kibat	-11.4242
emerintah	-11.4246
hilang	-11.4251
goya	-11.4252
▁pepa	-11.4255
pelayan	-11.4258
▁man	-11.4269
▁gal	-11.4272
▁iP	-11.4285
▁ren	-11.4286
▁penyera	-11.4291
tentu	-11.4291
▁rak	-11.4294
pian	-11.4299
▁capai	-11.4302
aat	-11.4304
litup	-11.431
▁puluh	-11.4326
hir	-11.4327
bilan	-11.4341
▁Gat	-11.4347
▁pengan	-11.4358
hairan	-11.4363
ach	-11.4376
seimbang	-11.4393
▁tepu	-11.4393
apis	-11.4406
▁memo	-11.441
puak	-11.4428
isne	-11.4429
▁Ok	-11.4433
kandung	-11.444
tingkatkan	-11.4447
masi	-11.445
perhalus	-11.4451
▁tapis	-11.4458
▁ranta	-11.4461
sokong	-11.4462
jimat	-11.4468
▁fu	-11.4488
▁keju	-11.4498
enak	-11.4502
chel	-11.4509
▁jar	-11.4515
▁terper	-11.4521
utarakan	-11.4527
▁merakamkan	-11.4541
lut	-11.4547
EL	-11.4548
gai	-11.4562
lambang	-11.457
▁sebaik	-11.4574
aiwan	-11.4577
ntu	-11.458
▁angg	-11.4593
▁hasrat	-11.4596
▁qu	-11.46
▁Rom	-11.46
omet	-11.4602
DE	-11.4609
pencerita	-11.461
kelabu	-11.4626
lulus	-11.4631
ngeluar	-11.4647
▁gam	-11.4659
▁bergu	-11.4667
dig	-11.4674
ifor	-11.4687
riks	-11.4696
ungki	-11.47
ub	-11.4703
▁ketu	-11.471
naman	-11.4719
▁Let	-11.4725
▁Sy	-11.4729
▁daftar	-11.4732
atang	-11.4762
▁Harapan	-11.4768
▁Wh	-11.4788
▁diharap	-11.4799
▁lut	-11.48
▁gigit	-11.4809
▁baya	-11.481
▁berna	-11.4813
▁dikena	-11.4815
▁menda	-11.4826
tua	-11.4857
rangkai	-11.4857
▁dipaksa	-11.4865
uara	-11.4894
mpit	-11.4907
pah	-11.4916
menyeb	-11.4918
▁sub	-11.4922
unju	-11.4923
▁tren	-11.4923
rba	-11.4926
muan	-11.4929
jukan	-11.4929
uar	-11.4931
▁Rea	-11.495
perbaik	-11.4951
▁pengh	-11.4951
▁say	-11.4952
nisi	-11.4958
aram	-11.4973
kirkan	-11.4977
▁penje	-11.498
▁audi	-11.4982
ras	-11.5
▁menemp	-11.5001
▁jemput	-11.5004
▁berpe	-11.5007
etul	-11.5012
sli	-11.502
rlet	-11.5021
siti	-11.5025
ont	-11.503
ewan	-11.5031
erjasama	-11.506
isy	-11.5083
▁memas	-11.5084
▁var	-11.5085
▁era	-11.5095
rki	-11.5097
mbo	-11.5099
ngkaji	-11.5101
elabur	-11.5118
▁Ph	-11.5119
▁isi	-11.512
omisi	-11.5124
▁impi	-11.516
dual	-11.5164
tidak	-11.5168
▁dice	-11.519
nghalang	-11.5197
▁peris	-11.5198
ero	-11.5227
opera	-11.5233
vid	-11.5233
manik	-11.5242
rtun	-11.5259
Ba	-11.5264
unggun	-11.5288
ratakan	-11.5292
nah	-11.5326
layar	-11.5331
▁dil	-11.5336
produk	-11.5345
▁sebar	-11.5356
enghalang	-11.5358
olon	-11.5361
sh	-11.537
▁yog	-11.5371
eningkat	-11.5374
inggalkan	-11.5381
loma	-11.5381
emaham	-11.5409
nyingkir	-11.5415
IT	-11.5423
▁Ros	-11.5431
mpak	-11.5434
▁penj	-11.5438
▁St	-11.5449
▁penja	-11.5456
▁bet	-11.5459
ula	-11.5465
▁pengas	-11.5468
▁subs	-11.5476
ampung	-11.5481
▁melaya	-11.5482
▁Ran	-11.5483
▁Amal	-11.5502
ef	-11.5505
sang	-11.5506
▁lob	-11.5512
wart	-11.5515
▁mera	-11.5518
ig	-11.5519
▁kon	-11.5532
egal	-11.5535
enonton	-11.5541
▁bes	-11.5553
untung	-11.5556
erenta	-11.5563
▁menyeli	-11.5571
▁tersing	-11.559
mpayar	-11.5591
rkhidmat	-11.5614
var	-11.5614
▁pengar	-11.5627
▁mencu	-11.5633
▁jara	-11.5637
▁ci	-11.5654
▁terte	-11.566
ngutip	-11.5679
erhadap	-11.5718
nara	-11.5718
enghampiri	-11.5721
▁dada	-11.5722
ori	-11.5727
zink	-11.5735
▁pok	-11.5735
itun	-11.574
▁seku	-11.5746
ambar	-11.5751
▁peluk	-11.5753
kok	-11.5766
▁matanya	-11.5832
▁bis	-11.5837
ema	-11.5845
enawar	-11.5847
eraju	-11.5859
ow	-11.5866
oko	-11.5869
12	-11.588
▁pemaka	-11.5894
▁beras	-11.5915
gembara	-11.5915
▁kendali	-11.5918
khidmat	-11.5923
▁terh	-11.5929
▁nasi	-11.5944
▁tata	-11.5952
kabel	-11.5954
▁buatkan	-11.5962
▁dibuk	-11.5984
▁Seben	-11.5994
▁diletak	-11.5994
hane	-11.6013
pis	-11.6019
dakwa	-11.6041
tro	-11.6047
bungan	-11.6055
tnya	-11.6059
▁ho	-11.6066
▁rela	-11.6081
upan	-11.609
ent	-11.6093
ercanggah	-11.6094
jumlah	-11.6101
rip	-11.6102
uyu	-11.6105
mutu	-11.611
▁kait	-11.6115
▁Ala	-11.6143
ensintesis	-11.6148
eluruh	-11.6172
side	-11.6184
▁hubung	-11.6186
▁pena	-11.6195
bayang	-11.6202
▁Mer	-11.623
opan	-11.6244
entan	-11.6244
mo	-11.6251
▁habis	-11.6252
▁laksanakan	-11.6257
apo	-11.6263
lancarkan	-11.6271
erhubung	-11.6283
▁larang	-11.6286
▁menghin	-11.63
ngkung	-11.6319
ntik	-11.6326
rusa	-11.6342
arna	-11.6351
▁tuna	-11.6358
▁menju	-11.636
abi	-11.6367
inkan	-11.6369
ilkan	-11.6393
ec	-11.6396
dik	-11.6405
▁daun	-11.642
pukan	-11.6425
▁Angka	-11.6438
ingatkan	-11.6438
les	-11.6445
nyata	-11.6447
DA	-11.6452
em	-11.6457
▁form	-11.6471
▁Hann	-11.6506
tul	-11.6508
nin	-11.6522
loc	-11.6525
▁Bah	-11.6531
▁Sepa	-11.6531
▁sebi	-11.6569
▁Tig	-11.6582
emotong	-11.6594
ertahan	-11.66
▁ment	-11.6601
▁pr	-11.6602
uster	-11.6615
udi	-11.6628
edi	-11.6654
cak	-11.6658
engalaman	-11.666
dikan	-11.6667
antikan	-11.6679
tanam	-11.6681
labah	-11.6721
uam	-11.6727
elucut	-11.6728
▁kh	-11.6762
▁Lei	-11.6823
▁berde	-11.6858
enjadi	-11.686
▁pak	-11.6861
ebanyak	-11.6861
umah	-11.6863
mereka	-11.6865
▁mengasi	-11.6868
kenal	-11.6876
rsedia	-11.6881
ebelum	-11.6895
ercuti	-11.6908
▁Peran	-11.6928
▁tersek	-11.6952
kam	-11.6953
ngi	-11.6955
▁diingat	-11.6974
fa	-11.6993
lep	-11.6995
▁mena	-11.7002
ingkatkan	-11.7028
boleh	-11.703
eliru	-11.706
ementar	-11.7068
ebat	-11.7076
▁lo	-11.7078
▁gandakan	-11.71
▁Ken	-11.7105
▁teg	-11.7127
▁..	-11.7147
lainan	-11.7168
▁ketam	-11.7175
▁sembu	-11.7192
▁bersep	-11.7212
▁Keti	-11.7218
▁fon	-11.7243
▁sambu	-11.7245
▁Cou	-11.7269
elalui	-11.7283
▁kel	-11.7287
urata	-11.7315
▁berja	-11.732
embali	-11.7323
anusia	-11.7328
alaf	-11.7344
anan	-11.736
▁pasara	-11.7374
kejam	-11.7395
rgi	-11.7398
▁memasukkan	-11.7404
▁pertu	-11.7427
fon	-11.7438
▁Hil	-11.7441
▁Pemb	-11.7453
cetus	-11.7455
ripada	-11.7456
▁mam	-11.7481
engekstrak	-11.7489
fibr	-11.7498
malu	-11.7499
rtutur	-11.7503
enerbit	-11.7515
▁Bos	-11.7587
rif	-11.7608
cadang	-11.7611
▁ras	-11.7615
emp	-11.7619
mau	-11.7643
emantau	-11.7647
▁mala	-11.7702
lit	-11.7721
▁keru	-11.7725
oleh	-11.7725
▁tem	-11.7731
anggur	-11.7739
▁ranca	-11.7753
arakan	-11.777
erusi	-11.7807
enom	-11.7818
▁puti	-11.7828
▁menghant	-11.7846
▁habi	-11.7846
▁pent	-11.785
▁st	-11.7851
▁penul	-11.7863
ated	-11.7864
apatkan	-11.7879
elidik	-11.7904
kir	-11.7906
▁Empa	-11.793
kaya	-11.7941
bacakan	-11.7943
▁diatas	-11.7943
con	-11.7945
motong	-11.795
▁20-	-11.7962
▁Berta	-11.7969
cap	-11.7984
▁urus	-11.7995
rga	-11.8039
maja	-11.8052
▁nyata	-11.806
▁tama	-11.8109
encetus	-11.8113
sika	-11.8121
▁Mul	-11.8127
▁Ope	-11.8178
▁kol	-11.8197
ronis	-11.8221
▁dicu	-11.8234
olog	-11.8281
ic	-11.8301
nerbit	-11.8301
▁menges	-11.8309
▁memer	-11.8332
nggal	-11.8337
yah	-11.8338
▁memeran	-11.8371
▁mendi	-11.8378
sen	-11.8421
erokok	-11.8423
th	-11.8431
ukir	-11.8444
▁keb	-11.8471
agnet	-11.8481
▁bak	-11.8483
ks	-11.8495
AT	-11.8496
▁dipa	-11.8505
▁Titi	-11.8525
rta	-11.8542
inta	-11.8546
bir	-11.8566
iku	-11.8569
▁perpu	-11.8583
▁sam	-11.8606
ngah	-11.8606
bungk	-11.8627
imba	-11.8628
entuk	-11.8636
goyang	-11.8647
ie	-11.8655
▁ton	-11.8673
pera	-11.8677
pont	-11.8684
enjara	-11.8693
angkal	-11.8711
▁diben	-11.8713
▁JU	-11.8714
antik	-11.8724
▁pemberi	-11.8724
perkecil	-11.8729
erbicara	-11.874
▁pertem	-11.8746
▁uni	-11.8753
▁disa	-11.8758
biri	-11.8758
▁kosm	-11.8779
▁penju	-11.8781
yuara	-11.8797
sembunyikan	-11.8805
akter	-11.8808
olisi	-11.881
IH	-11.8812
▁dara	-11.8813
ampa	-11.8814
ksa	-11.8815
samar	-11.8843
▁bin	-11.8865
▁kemuda	-11.8879
bilangan	-11.8895
▁ulang	-11.8904
iasan	-11.8904
▁bant	-11.8916
njak	-11.8927
ria	-11.894
tat	-11.895
baca	-11.8959
▁raka	-11.8963
vet	-11.8979
▁menel	-11.899
olak	-11.8995
ungk	-11.8997
▁selam	-11.9017
▁bing	-11.9025
ert	-11.9026
▁ham	-11.9032
▁ri	-11.9038
sor	-11.9041
nsintesis	-11.9069
▁dita	-11.9079
oton	-11.9081
▁direk	-11.9093
▁menyel	-11.91
ehidupan	-11.9145
▁Haki	-11.9165
▁pers	-11.9167
ngo	-11.9197
▁pembia	-11.9207
▁tert	-11.9217
▁Jon	-11.9237
▁terta	-11.9246
▁ekstr	-11.9267
aks	-11.9272
rive	-11.9285
▁pencu	-11.9309
elaras	-11.931
kur	-11.9315
▁Bers	-11.9338
rva	-11.9354
▁pemad	-11.9361
▁ekspe	-11.9387
anggun	-11.9423
semua	-11.9466
▁but	-11.9473
▁termuda	-11.9479
▁mamp	-11.9479
semut	-11.9493
sukar	-11.9519
▁Sen	-11.953
sepi	-11.9564
▁Aba	-11.9565
▁Sek	-11.9573
lucut	-11.9577
▁medi	-11.9606
inggir	-11.9642
hidup	-11.9672
raka	-11.9676
ump	-11.9689
erasi	-11.9702
paya	-11.9703
▁suk	-11.9713
tic	-11.9725
burg	-11.9728
▁denga	-11.9735
elawat	-11.9742
genda	-11.9746
▁gemu	-11.9747
iling	-11.9747
mark	-11.9764
pam	-11.9771
bawa	-11.9777
resi	-11.9847
set	-11.9851
tekan	-11.9858
ningkat	-11.9872
ranca	-11.9872
nyawa	-11.9874
embaca	-11.9895
▁dipet	-11.9903
bas	-11.992
ekstrak	-11.9923
mena	-11.9936
▁mene	-11.9952
▁mengak	-11.9958
▁ali	-11.9975
▁Op	-11.9981
▁wh	-11.9995
emudian	-11.9999
dola	-12.0013
▁Rob	-12.0023
ndu	-12.0033
ver	-12.0052
▁seber	-12.0062
rokok	-12.0074
syar	-12.0083
nanya	-12.0109
▁he	-12.012
erkataan	-12.0124
evit	-12.0124
nta	-12.0141
gol	-12.0146
niti	-12.0167
▁Sha	-12.0169
▁dinam	-12.019
▁fa	-12.0191
dataran	-12.02
▁Yu	-12.0211
▁sine	-12.0248
mantau	-12.0249
▁Wan	-12.0262
▁maksudkan	-12.0295
st	-12.0301
▁pengi	-12.0327
anggu	-12.0333
rung	-12.0343
nasi	-12.0363
lahan	-12.0432
▁Mel	-12.045
▁Bai	-12.0457
dasar	-12.0476
itik	-12.0478
▁huja	-12.0479
▁San	-12.0499
sedar	-12.051
70	-12.0517
ukannya	-12.0547
rakhir	-12.0564
saha	-12.0565
erse	-12.057
igita	-12.0574
emulih	-12.0581
▁Bung	-12.0587
pertaruh	-12.059
einginan	-12.0597
enambah	-12.0627
yo	-12.0641
siran	-12.0648
ple	-12.066
ngekstrak	-12.0698
eno	-12.0729
▁Bina	-12.0731
▁Imp	-12.0736
nonton	-12.0748
apak	-12.0753
kendalikan	-12.076
AR	-12.0772
ahsia	-12.0784
rek	-12.0816
burkan	-12.0832
umen	-12.0835
mus	-12.0848
ajukan	-12.0858
▁berhar	-12.0861
usah	-12.0862
serupa	-12.0873
terbit	-12.0885
▁Lama	-12.0899
▁berpus	-12.09
esus	-12.0905
turkan	-12.0917
gal	-12.097
ebo	-12.0976
▁Selama	-12.1019
sahkan	-12.1029
tiwa	-12.1047
ahu	-12.1049
suaikan	-12.1068
SI	-12.1072
▁pering	-12.1072
hon	-12.1092
enyumbang	-12.1119
leksi	-12.1127
ronok	-12.114
▁Gre	-12.1149
inga	-12.1171
sep	-12.1172
solusi	-12.1173
peri	-12.1196
ermin	-12.122
▁Br	-12.1233
1,	-12.1233
▁berj	-12.1263
ulut	-12.128
rtambah	-12.129
▁Pemaka	-12.1301
rmin	-12.1309
ampai	-12.1325
▁diseb	-12.1329
▁Kli	-12.1353
hayat	-12.1355
rkara	-12.1381
maham	-12.1403
ones	-12.1404
cc	-12.1408
ud	-12.1416
ham	-12.1422
io	-12.1434
anjur	-12.1453
ag	-12.1471
wasa	-12.1479
▁Sua	-12.1485
erbual	-12.1507
▁cen	-12.1518
▁mengaj	-12.1523
ort	-12.1524
ej	-12.1539
epas	-12.1554
78	-12.1556
▁menya	-12.1598
▁Pag	-12.1611
Anda	-12.1613
▁NE	-12.1615
▁bertutu	-12.1615
▁Fe	-12.1617
ndus	-12.1629
79	-12.1633
▁pos	-12.1655
▁petan	-12.1658
▁Ras	-12.1662
embiak	-12.1679
omi	-12.1683
▁berum	-12.1689
stor	-12.1692
▁kila	-12.1708
cil	-12.1722
▁Ban	-12.176
rim	-12.1812
▁sera	-12.1832
▁Stat	-12.1834
▁hurai	-12.1837
▁sena	-12.1841
rakus	-12.1857
▁Lad	-12.1861
▁biotek	-12.1864
takkan	-12.188
endiri	-12.1884
dingin	-12.1887
rosak	-12.189
ensi	-12.1892
gajar	-12.1894
tetap	-12.1912
alik	-12.1923
▁Cr	-12.1927
rasakan	-12.1929
▁menuru	-12.1933
▁gul	-12.1938
▁diuta	-12.1948
ampir	-12.1951
intu	-12.1953
des	-12.1955
entik	-12.1965
edih	-12.1971
▁mis	-12.198
angkut	-12.1984
▁Sete	-12.1986
▁menyed	-12.2002
gerakan	-12.2008
keluar	-12.2008
▁menyin	-12.201
eda	-12.2014
pek	-12.2036
enjuru	-12.2054
emi	-12.2063
ide	-12.2063
rs	-12.2068
este	-12.2072
▁pengkhu	-12.2077
▁Blo	-12.2079
▁Aw	-12.2083
elas	-12.2172
▁hor	-12.2178
fas	-12.2193
erbit	-12.2212
▁diusi	-12.2215
erh	-12.2222
opo	-12.2235
▁str	-12.2242
merintah	-12.2249
taman	-12.2259
mpah	-12.2261
▁prote	-12.227
imbangan	-12.2285
syik	-12.2295
timbang	-12.2298
▁terd	-12.23
kter	-12.2304
pelajari	-12.2318
▁kui	-12.2334
yl	-12.234
15	-12.2341
nyelidik	-12.2345
▁menem	-12.2364
embi	-12.2366
sebelum	-12.2367
ect	-12.2367
enis	-12.2398
nawar	-12.2415
▁rab	-12.2417
ehkan	-12.2418
TA	-12.2426
▁fas	-12.243
bangun	-12.2442
▁tut	-12.2445
▁sec	-12.2463
gula	-12.252
matik	-12.2522
indah	-12.2531
▁mund	-12.2562
deria	-12.2571
▁Gene	-12.2575
Hol	-12.258
ock	-12.2588
din	-12.2597
badan	-12.2599
▁mes	-12.2608
contoh	-12.2621
jawapan	-12.2622
objek	-12.264
▁menyela	-12.2641
orong	-12.2671
▁sh	-12.2692
iput	-12.2693
are	-12.2695
▁PE	-12.2702
versi	-12.2705
entiti	-12.271
ctor	-12.273
▁memfo	-12.2749
berkesan	-12.2751
dal	-12.2752
pasti	-12.276
▁cua	-12.2772
cabaran	-12.2774
roni	-12.2774
▁demo	-12.2777
iatri	-12.2784
teori	-12.2792
com	-12.2792
keputusan	-12.2802
mesin	-12.2804
▁sur	-12.2808
ekonomi	-12.2814
▁patu	-12.2817
bilik	-12.2818
pekerja	-12.2819
impik	-12.2826
kendali	-12.2826
km	-12.2829
bidang	-12.2831
▁ret	-12.2834
hut	-12.2849
identiti	-12.2851
projek	-12.2852
endidik	-12.2856
mahka	-12.2867
ebarkan	-12.2884
▁menul	-12.2896
▁diperha	-12.2896
filem	-12.29
100	-12.2912
program	-12.2924
menteri	-12.2926
penipu	-12.2927
sampel	-12.2931
▁Roma	-12.2936
bebuli	-12.2938
hospital	-12.294
topik	-12.2946
▁pengur	-12.2946
tekstur	-12.2947
▁pengaj	-12.2948
protein	-12.2955
etic	-12.2955
sembah	-12.2958
CD	-12.2961
25	-12.2963
pinjam	-12.2971
burung	-12.2971
empayar	-12.2971
emosi	-12.2974
makmal	-12.2975
hasi	-12.298
pembedahan	-12.2982
organisasi	-12.2983
bumbung	-12.2985
ime	-12.2986
partikel	-12.2987
kaedah	-12.2987
▁Mata	-12.2991
belia	-12.2992
pengurus	-12.2994
dimensi	-12.2997
seniman	-12.2998
pejabat	-12.3001
▁melengk	-12.3003
turut	-12.3005
teruja	-12.3016
tinjauan	-12.3016
nasional	-12.3022
intis	-12.3025
petanda	-12.3029
kunjung	-12.3031
lubang	-12.3035
forum	-12.3041
kayu	-12.3045
elemen	-12.3052
emang	-12.3053
literasi	-12.3058
alo	-12.3068
42	-12.3069
aruh	-12.3071
▁temp	-12.3072
perasaan	-12.3077
▁sentime	-12.3081
komen	-12.3083
kamera	-12.3083
wajah	-12.3103
lang	-12.3107
tafsiran	-12.3107
kukuh	-12.311
Ho	-12.3115
kelompok	-12.3127
segi	-12.3147
mbiak	-12.3156
mewah	-12.3158
▁bos	-12.3159
istilah	-12.3166
able	-12.3177
using	-12.3194
mengena	-12.3216
▁dek	-12.3217
▁mengal	-12.3239
tri	-12.324
rangkaian	-12.3247
dog	-12.3261
aha	-12.3262
ggunakan	-12.3264
garis	-12.3265
▁menterjemah	-12.3271
▁tafsir	-12.3284
berg	-12.3286
teguh	-12.3294
pendidikan	-12.3298
16	-12.33
Gon	-12.3305
jelas	-12.3308
ahasa	-12.3309
AH	-12.3321
▁pemikir	-12.3326
ongsi	-12.3333
liter	-12.3344
▁perak	-12.3349
ahwin	-12.3352
▁Kor	-12.3353
▁Nebucha	-12.3356
▁Kes	-12.3368
urig	-12.3373
pot	-12.3375
▁berla	-12.3379
▁lema	-12.3396
ntegrit	-12.3397
gelut	-12.3397
ribut	-12.3398
tangga	-12.3407
mpton	-12.3408
selesa	-12.3417
embung	-12.3421
▁membang	-12.3425
▁202	-12.3425
ati	-12.3433
pora	-12.344
▁bersend	-12.3449
eraka	-12.3452
ombo	-12.3452
▁Berj	-12.3453
▁diskr	-12.3458
int	-12.3466
kej	-12.3473
▁Gu	-12.3482
unjuk	-12.3493
Me	-12.35
▁hipo	-12.35
modal	-12.3504
iawaian	-12.3508
ket	-12.3509
▁menghidu	-12.3516
▁diam	-12.3527
pandang	-12.3542
nstr	-12.3551
dic	-12.3551
vens	-12.3553
▁tump	-12.3554
▁parad	-12.3562
▁biokimia	-12.3567
▁perbezaa	-12.3568
▁mengejut	-12.3574
▁Kit	-12.3575
sebelah	-12.358
▁mengenal	-12.3582
karya	-12.3585
rmul	-12.3589
▁Gab	-12.3589
UA	-12.3596
gkap	-12.3597
▁semuda	-12.3599
MI	-12.3602
yamuk	-12.3614
nota	-12.3617
ospital	-12.3622
▁jengk	-12.3634
fu	-12.3634
▁Pemeri	-12.3637
erincian	-12.3638
hafal	-12.364
lektr	-12.3644
rrrrrrrrr	-12.3645
▁hosp	-12.3645
okumen	-12.3646
▁ambi	-12.3646
▁kekec	-12.3647
▁mengimba	-12.3647
rea	-12.3649
eneroka	-12.3649
▁homo	-12.365
syorkan	-12.365
▁elektr	-12.3651
konomi	-12.3652
▁Baby	-12.3653
Pe	-12.3654
oller	-12.3655
sekeliling	-12.366
▁berpenda	-12.3661
roskop	-12.3665
hhh	-12.3667
asukkan	-12.3668
oseksual	-12.3672
emungkinan	-12.3675
▁astro	-12.3678
▁190	-12.3678
ND	-12.3685
bentangkan	-12.3685
esei	-12.3685
osko	-12.3687
▁cont	-12.3687
strak	-12.3692
▁pengec	-12.3696
ejayaan	-12.3696
▁Jose	-12.3702
▁menyampa	-12.3703
ungkin	-12.3703
▁Hol	-12.3708
janda	-12.3709
▁pengajar	-12.3714
omic	-12.3715
ahabat	-12.3715
▁Peny	-12.3717
▁les	-12.3724
▁berkom	-12.3724
▁mendia	-12.3726
nikmat	-12.373
lav	-12.373
bekalkan	-12.3731
rot	-12.3731
▁Ibra	-12.3732
▁prof	-12.3734
lampu	-12.3734
vo	-12.3735
ego	-12.3746
emudi	-12.375
raban	-12.3754
ungsi	-12.3756
▁Menj	-12.3761
▁menghamp	-12.377
▁penerb	-12.3771
tepat	-12.3771
ograf	-12.3778
erco	-12.3781
olitik	-12.3787
jawatan	-12.3789
ll	-12.3794
▁US	-12.3796
gram	-12.3798
RL	-12.3798
cik	-12.3801
▁gand	-12.3808
haru	-12.3809
kalau	-12.3811
▁ac	-12.3812
▁sik	-12.3814
narnya	-12.3834
▁mempercaya	-12.3838
▁bere	-12.384
mbuh	-12.3841
bin	-12.3853
yampai	-12.3856
dipan	-12.3858
okasi	-12.3871
urun	-12.3871
euntungan	-12.3875
▁menyo	-12.3887
usu	-12.3891
rge	-12.3896
▁menyi	-12.39
fokus	-12.3908
▁pende	-12.3912
ingkas	-12.3912
▁kemun	-12.3913
▁Cha	-12.3914
▁tekn	-12.3916
▁benc	-12.3925
▁toksi	-12.3926
enua	-12.3929
organ	-12.3931
menangan	-12.3933
impton	-12.3943
▁bidan	-12.3944
ehid	-12.3949
▁Pad	-12.395
sebabnya	-12.3954
▁Can	-12.3956
ebabnya	-12.3958
▁Bagai	-12.3959
ikmat	-12.3973
▁baj	-12.3974
telefon	-12.3979
eberanian	-12.3982
▁menega	-12.3997
rbincang	-12.3998
▁Ah	-12.4012
imbol	-12.4016
own	-12.402
▁Pert	-12.4036
▁gema	-12.4037
entu	-12.4041
▁Mya	-12.4043
▁Buka	-12.4048
tatistik	-12.4053
▁Perja	-12.4066
abung	-12.4067
▁sendi	-12.4069
mas	-12.407
tern	-12.4089
▁nega	-12.4089
Kat	-12.4092
gini	-12.4093
.7	-12.4096
asif	-12.4097
akrif	-12.4111
skrim	-12.4116
▁Masih	-12.4117
mero	-12.4123
▁mencar	-12.4125
udo	-12.4131
maksudkan	-12.4133
▁kebanyak	-12.4135
lawat	-12.4157
enggara	-12.416
▁dib	-12.4162
▁Kos	-12.4162
▁mut	-12.4171
knik	-12.4174
eliling	-12.4174
▁mengeks	-12.4175
aster	-12.4192
▁Jos	-12.4194
▁bala	-12.4196
▁War	-12.4222
rkah	-12.4238
get	-12.4246
▁dikeka	-12.4246
injauan	-12.4246
▁Penya	-12.4252
oron	-12.4256
mara	-12.4262
▁kemud	-12.4262
embira	-12.4262
eutamaan	-12.4266
▁kesal	-12.4267
linik	-12.4277
▁menyus	-12.4279
warn	-12.4283
tes	-12.4285
▁pinjam	-12.4289
rban	-12.4307
gugur	-12.4309
rten	-12.4316
▁defi	-12.432
ote	-12.4326
dalik	-12.4326
sikan	-12.4329
erganding	-12.4338
ard	-12.4339
▁lemb	-12.4353
▁yak	-12.4354
siaran	-12.4354
isbah	-12.4381
iks	-12.4383
ncetus	-12.4386
nologi	-12.4389
gubah	-12.4394
▁diperl	-12.4395
fel	-12.4395
▁diton	-12.4397
▁terpen	-12.4414
elint	-12.4464
-1	-12.4478
▁biol	-12.4495
13	-12.4497
ndidik	-12.4503
gigi	-12.4508
▁malar	-12.452
isang	-12.4531
lancar	-12.4532
kita	-12.4556
▁kilan	-12.4563
gil	-12.4565
nam	-12.4567
▁cac	-12.4571
▁tok	-12.4572
▁let	-12.4577
▁membacakan	-12.4586
roste	-12.4597
oks	-12.4602
&	-12.4602
▁tek	-12.4608
▁sejen	-12.4632
embina	-12.4646
▁meras	-12.4651
▁Will	-12.4652
▁Th	-12.4665
perincian	-12.4666
wis	-12.4674
▁dibaya	-12.468
▁penget	-12.4681
▁ele	-12.47
▁rag	-12.4702
eretan	-12.471
▁pla	-12.4712
lom	-12.4714
▁pals	-12.473
▁menter	-12.4734
▁perasa	-12.4745
warnakan	-12.4763
elakang	-12.478
ering	-12.478
cor	-12.479
indahkan	-12.4791
bezaan	-12.4793
▁dirasa	-12.4797
▁menimb	-12.4805
RA	-12.4808
fakta	-12.481
▁mengeca	-12.4857
bjek	-12.4858
900	-12.4871
▁kat	-12.4875
▁sila	-12.4876
jabat	-12.4901
eruk	-12.4952
▁2.	-12.4957
ndar	-12.4963
rast	-12.4965
erakam	-12.4967
bus	-12.497
enggam	-12.4978
nter	-12.4987
▁Con	-12.4989
elur	-12.5
gawa	-12.5003
uarkan	-12.5004
injam	-12.5007
▁sis	-12.5011
timan	-12.5029
pendapat	-12.504
rtemu	-12.5048
▁dilab	-12.5075
0-	-12.5107
antar	-12.5111
one	-12.5116
ngge	-12.5127
kurnia	-12.5157
▁tersen	-12.5181
eman	-12.5201
abungkan	-12.5233
mp	-12.5234
ngsa	-12.5237
laluan	-12.5243
▁kelo	-12.5267
▁kak	-12.53
gem	-12.5304
embah	-12.5314
sosi	-12.5318
dangkan	-12.5319
hala	-12.5357
▁panca	-12.5381
nap	-12.5383
▁pengimba	-12.5385
▁bab	-12.5391
rentas	-12.5399
▁berik	-12.5401
dor	-12.5405
▁en	-12.5429
▁menggu	-12.5438
nja	-12.5446
▁o	-12.5468
med	-12.5471
ambah	-12.5474
nggur	-12.5485
▁pender	-12.5492
juru	-12.5496
▁terpa	-12.55
▁bera	-12.5517
▁berma	-12.5524
▁had	-12.5526
▁ben	-12.5563
elak	-12.5568
arangkali	-12.557
rset	-12.5575
▁ratu	-12.5576
ohan	-12.5585
▁rap	-12.5592
▁bahagi	-12.5606
rtikel	-12.5624
ted	-12.5638
▁pakai	-12.5708
klu	-12.571
▁kekun	-12.5713
▁Mend	-12.5715
emur	-12.5717
abadi	-12.573
alur	-12.5743
malar	-12.5748
ercaya	-12.5749
▁memand	-12.5757
▁poli	-12.5784
uca	-12.5788
▁kesusa	-12.5791
huraikan	-12.5798
▁191	-12.5807
letup	-12.5824
▁pot	-12.5832
igal	-12.5833
▁berf	-12.5837
senarai	-12.5865
tera	-12.5871
emis	-12.5881
▁hay	-12.5886
amarata	-12.5892
▁peka	-12.5896
▁opti	-12.5912
ngsu	-12.593
▁berisi	-12.5937
emah	-12.5942
oha	-12.596
perangka	-12.5982
hell	-12.5992
ukum	-12.6002
erol	-12.6005
emisah	-12.6014
asak	-12.6017
andai	-12.603
gs	-12.6033
eragam	-12.6034
embazir	-12.6038
tron	-12.6091
▁lip	-12.6111
mela	-12.6117
hk	-12.6125
▁keli	-12.6142
▁berkat	-12.6144
toh	-12.6149
eta	-12.6152
tra	-12.6158
meluk	-12.616
puan	-12.6165
▁Mah	-12.6167
mati	-12.6191
uha	-12.6208
udar	-12.6217
▁Hasi	-12.6242
ider	-12.6275
▁diak	-12.6276
opa	-12.6277
ngkin	-12.6278
lir	-12.6295
▁jur	-12.6314
▁melen	-12.6352
enjelajah	-12.6357
▁memperka	-12.6384
▁El	-12.6401
▁mengangg	-12.6428
▁bertu	-12.6432
▁semak	-12.6466
yaki	-12.6475
ropo	-12.6545
tig	-12.6548
▁Tum	-12.6561
▁du	-12.6571
▁Pera	-12.66
▁Pat	-12.6604
pla	-12.6615
arl	-12.6621
▁mengo	-12.6623
▁Stati	-12.6635
mbina	-12.6638
atik	-12.6655
▁Kein	-12.6656
ulang	-12.6669
▁laku	-12.6695
uth	-12.6707
amai	-12.671
iga	-12.6724
▁jant	-12.6733
ewajarnya	-12.6742
ngatkan	-12.6758
▁risauka	-12.6771
jis	-12.6782
▁disin	-12.6795
bung	-12.6801
ust	-12.6812
mbaca	-12.6816
▁tor	-12.6819
ganda	-12.682
▁keser	-12.684
▁Sebe	-12.6844
seku	-12.6872
olusi	-12.6882
pel	-12.6885
sukan	-12.6907
kyat	-12.6925
libat	-12.6952
▁Bara	-12.6953
elinga	-12.6988
▁Keh	-12.6995
rsetuju	-12.7053
rgelut	-12.7055
▁berka	-12.7119
siap	-12.7134
umpan	-12.7138
eparuh	-12.7144
aikan	-12.7154
aksanakan	-12.7182
▁tim	-12.7216
kra	-12.7224
▁Perc	-12.7224
luan	-12.7242
sional	-12.7273
ping	-12.7288
liang	-12.731
engkultur	-12.7313
gap	-12.7325
sua	-12.733
▁Nai	-12.7346
upkan	-12.7367
kuti	-12.7384
isk	-12.7395
caha	-12.742
nyumbang	-12.742
abkan	-12.742
gim	-12.7425
lamatkan	-12.7441
▁teru	-12.7466
vin	-12.7478
▁berdeka	-12.7482
lia	-12.7491
rkaitan	-12.7494
endapat	-12.7507
aporkan	-12.7537
▁pil	-12.7547
engimbas	-12.7556
▁ged	-12.7582
istiwa	-12.7593
oti	-12.7627
▁Petu	-12.764
elain	-12.765
sesi	-12.7659
soro	-12.7738
▁Au	-12.7746
inti	-12.7761
rahan	-12.7774
rj	-12.7787
▁perja	-12.7791
guk	-12.7802
▁past	-12.7809
▁kampu	-12.7825
mb	-12.7832
▁sol	-12.7863
enyimpan	-12.7886
rsendiri	-12.7909
tim	-12.7921
▁menggemb	-12.7943
▁stati	-12.7959
mik	-12.7999
rik	-12.8011
ob	-12.8036
atuh	-12.8039
aka	-12.8042
lukis	-12.8043
▁Baha	-12.8043
ost	-12.8044
rancak	-12.8048
▁Mela	-12.8056
▁hidu	-12.8062
pany	-12.8064
rantau	-12.8067
kular	-12.8076
kera	-12.8086
eratus	-12.8116
enarik	-12.8116
inatang	-12.8119
▁at	-12.812
ting	-12.814
▁merung	-12.8158
▁Joh	-12.8171
ahulu	-12.8175
say	-12.8181
▁gabung	-12.8184
mulih	-12.8192
ayar	-12.821
▁fl	-12.821
ndidikan	-12.8221
▁Os	-12.8266
imp	-12.8305
antara	-12.8305
▁katak	-12.8347
atin	-12.8349
▁dala	-12.8392
esi	-12.8427
tiada	-12.8444
bedah	-12.8447
▁Bak	-12.8455
ril	-12.8461
terangkan	-12.8475
agu	-12.8495
mal	-12.8509
lapor	-12.8514
▁Sp	-12.853
erdekat	-12.8542
▁hela	-12.8551
▁dibu	-12.857
▁um	-12.857
▁keper	-12.8609
▁berbi	-12.862
hom	-12.8621
▁perl	-12.8668
▁amb	-12.8686
teria	-12.8688
▁diu	-12.8699
dih	-12.8724
luarkan	-12.873
heri	-12.8732
ayu	-12.8774
masak	-12.8789
empelajari	-12.8818
ekad	-12.8886
▁ev	-12.8909
terang	-12.8932
▁dibi	-12.894
ndo	-12.8957
▁tangg	-12.8961
▁memen	-12.8968
▁Pak	-12.8975
▁bergand	-12.9024
mia	-12.9039
yung	-12.9056
▁dig	-12.9064
▁dilak	-12.907
po	-12.9086
pulas	-12.9115
engetahui	-12.9124
uc	-12.9129
▁keras	-12.9159
gger	-12.9207
▁menghe	-12.9208
kati	-12.9224
fi	-12.9225
bumi	-12.9237
igit	-12.9248
emui	-12.9255
ipis	-12.9274
jang	-12.9297
paka	-12.9301
▁berpi	-12.9306
-2	-12.9315
-5	-12.9337
rbicara	-12.9359
npa	-12.9361
git	-12.9362
nga	-12.9429
senyap	-12.9459
ntukan	-12.9503
▁Uni	-12.9506
geta	-12.9573
ova	-12.9577
erhatian	-12.9591
amatan	-12.9661
enghubung	-12.9676
▁prop	-12.9678
mpir	-12.9735
kup	-12.9744
avi	-12.9748
uny	-12.9798
len	-12.981
hidupan	-12.9818
▁mm	-12.9818
▁gara	-12.9834
▁gr	-12.9855
▁terma	-12.9859
▁cada	-12.9871
ihat	-12.9876
▁geng	-12.9894
▁mengemba	-12.9903
amin	-12.9908
▁lamp	-12.9937
▁semu	-12.9942
▁angk	-12.9982
orti	-12.9984
narai	-12.9991
▁bur	-12.9996
ila	-13.0029
egar	-13.0029
▁renta	-13.0067
iform	-13.0122
erangga	-13.0123
erangka	-13.0135
engembara	-13.0137
iba	-13.0162
ngkai	-13.0171
▁beka	-13.0172
uga	-13.0202
aron	-13.024
▁Tekan	-13.0255
kilan	-13.0258
▁Ger	-13.0282
▁terken	-13.0284
ralih	-13.0289
ekstra	-13.0293
sudah	-13.0308
erlindung	-13.0312
ngga	-13.0322
tut	-13.0328
▁bias	-13.0369
nakan	-13.0378
▁cart	-13.0384
▁mender	-13.0385
sual	-13.0387
▁menyem	-13.0393
arnya	-13.0398
isel	-13.0409
▁ditera	-13.0413
enang	-13.0429
elaku	-13.043
ste	-13.0438
▁kac	-13.0451
rhubung	-13.0458
sihan	-13.048
▁kere	-13.0482
▁seri	-13.0519
njelajah	-13.0587
▁Dar	-13.0598
elihatan	-13.0654
erek	-13.0665
kasi	-13.0672
endakwa	-13.0689
▁mempro	-13.0712
bahas	-13.0715
▁perinci	-13.0717
eni	-13.0723
▁mur	-13.0729
ujuk	-13.0743
ind	-13.0747
esona	-13.0762
▁sele	-13.0791
▁selanj	-13.0807
rhadap	-13.0825
▁asy	-13.0866
gam	-13.0888
▁bermasa	-13.0893
▁tingka	-13.0919
▁vit	-13.0948
enyejuk	-13.0951
erja	-13.0986
erosak	-13.0987
▁Sal	-13.0988
▁Fr	-13.1004
kain	-13.104
uku	-13.1108
erlumba	-13.1115
▁den	-13.1127
est	-13.1137
▁perh	-13.117
▁baga	-13.1176
teruk	-13.1209
bil	-13.1209
rhenti	-13.1214
▁tul	-13.1233
▁Perse	-13.1253
▁dibua	-13.1338
tid	-13.1371
▁senar	-13.1371
dir	-13.1391
erin	-13.1396
nik	-13.1411
njuru	-13.1434
beli	-13.1438
sasar	-13.1508
cera	-13.1534
▁menen	-13.1557
▁menta	-13.1596
jangkakan	-13.163
▁mengam	-13.164
▁samar	-13.1669
tih	-13.168
ncang	-13.1717
Col	-13.175
alun	-13.1764
uncu	-13.1774
njau	-13.1812
nua	-13.1828
▁mengk	-13.1844
enti	-13.185
▁perit	-13.1877
ui	-13.1883
emberi	-13.1902
▁disek	-13.1907
ruskan	-13.1978
tt	-13.1985
ire	-13.2009
▁meram	-13.2025
▁perso	-13.2065
▁situa	-13.2068
▁membo	-13.2122
elar	-13.213
erna	-13.2132
eluang	-13.2134
elindung	-13.2143
rotein	-13.2144
ylo	-13.2185
▁memaks	-13.2212
UR	-13.2217
▁berni	-13.2244
ebab	-13.2265
▁menan	-13.2271
ggung	-13.2275
hin	-13.2295
ratur	-13.2302
▁berjum	-13.2328
engeluarkan	-13.233
ainkan	-13.2336
ndakwa	-13.2366
▁bersum	-13.2366
erimen	-13.2368
endekat	-13.2369
erha	-13.2374
mban	-13.2385
mbah	-13.2436
▁Penga	-13.2466
ilat	-13.2506
tara	-13.2525
nghubung	-13.2603
ngkultur	-13.2719
▁dihar	-13.2749
▁Bela	-13.2765
▁penyela	-13.2766
iden	-13.2804
ong	-13.2837
erisiko	-13.2845
▁psi	-13.2901
sul	-13.2907
bat	-13.2909
elestari	-13.2925
▁penem	-13.2956
batnya	-13.2961
mbar	-13.2973
▁tersi	-13.2976
rdagang	-13.2979
ingga	-13.3008
erpecah	-13.3013
apar	-13.3056
▁mewa	-13.3074
nyejuk	-13.3081
emu	-13.3087
▁membu	-13.3113
riga	-13.3142
ular	-13.3153
17	-13.3155
ibr	-13.3221
tahu	-13.329
kolah	-13.3302
ulas	-13.3379
enyap	-13.3395
▁lipa	-13.3402
ereta	-13.342
▁bada	-13.3555
ritahu	-13.3613
iman	-13.3697
▁kana	-13.3732
ront	-13.3753
▁terka	-13.3764
lidik	-13.3778
▁ru	-13.3782
gha	-13.3782
ejabat	-13.3788
gura	-13.3854
▁sepa	-13.3866
uda	-13.3892
asional	-13.3916
▁kecer	-13.3923
bawah	-13.3972
▁berjal	-13.3973
eruskan	-13.4047
ermain	-13.4078
rja	-13.41
uti	-13.4136
▁menca	-13.416
▁Lon	-13.4185
▁Dap	-13.4198
uas	-13.4214
▁diman	-13.4223
ngk	-13.4249
▁terku	-13.4256
umi	-13.4284
▁sediaka	-13.431
tru	-13.4313
▁padam	-13.434
kai	-13.4364
erlalu	-13.4367
sin	-13.4369
▁dilu	-13.4434
▁Ge	-13.4477
▁mono	-13.4485
iat	-13.4562
ski	-13.4573
gira	-13.4581
▁penyel	-13.4591
apkan	-13.4595
ergas	-13.4602
gunan	-13.4617
▁paru	-13.4646
▁Dav	-13.468
angku	-13.4715
▁mega	-13.472
dika	-13.4747
▁Kek	-13.4759
▁asa	-13.4763
aksa	-13.4792
zo	-13.4877
▁bek	-13.4907
60	-13.4984
▁memat	-13.5011
enda	-13.5019
dengan	-13.5028
▁sung	-13.5085
embo	-13.5085
tahari	-13.509
▁dire	-13.5137
▁tega	-13.5149
▁ub	-13.5153
▁berti	-13.5158
etakutan	-13.52
nggalkan	-13.5244
erbeza	-13.5252
▁Jer	-13.5256
epad	-13.527
▁sesa	-13.5301
wah	-13.5353
ekal	-13.5371
enurun	-13.5412
▁pam	-13.5417
pulang	-13.5503
espon	-13.5611
met	-13.5706
zir	-13.5717
emaran	-13.5729
tapis	-13.5741
▁bro	-13.5743
▁menyimp	-13.5751
ahagian	-13.5755
ea	-13.5761
gih	-13.5828
patkan	-13.5843
jawat	-13.5852
▁tana	-13.5878
idup	-13.5888
nali	-13.5941
igu	-13.5944
kkan	-13.6003
▁berh	-13.6006
mpung	-13.6018
boh	-13.605
▁Kec	-13.6055
ertarung	-13.6059
rlah	-13.609
▁membua	-13.6128
▁terban	-13.6173
situ	-13.621
▁dipak	-13.6243
▁has	-13.6248
rai	-13.6269
umum	-13.6271
nulis	-13.6283
▁pengen	-13.6311
umpu	-13.6362
nce	-13.6364
banya	-13.6383
▁ins	-13.6402
▁pemban	-13.6409
emberita	-13.6433
mlah	-13.6448
laria	-13.6453
iasa	-13.6479
encapaian	-13.6535
nyimpan	-13.661
azim	-13.662
ill	-13.6693
▁lapa	-13.6704
nyakit	-13.6706
penya	-13.7063
lel	-13.7083
baha	-13.7112
ksikan	-13.7115
jur	-13.7242
sib	-13.7272
ajian	-13.7344
▁meme	-13.735
angga	-13.7367
▁gan	-13.737
nti	-13.7394
▁berha	-13.7409
▁lengk	-13.7423
♫	-13.7437
:	-13.7438
)	-13.7439
?	-13.744
J	-13.7441
saian	-13.7441
