<unk>	0
<s>	0
</s>	0
▁်	-1.54847
▁့	-2.56404
င	-3.37833
▁။	-3.73842
▁	-3.82487
▁း	-4.50023
▁၊	-4.52171
▁ကျွန	-4.70861
က	-4.83345
ည	-4.86483
▁တော	-4.95195
ယ	-4.98258
▁အ	-5.05018
;	-5.09075
▁&	-5.1031
ot	-5.11902
qu	-5.12373
▁ကို	-5.20674
▁က	-5.23427
တဲ	-5.26446
ောင	-5.30213
္	-5.32601
စ	-5.34222
တယ	-5.37912
▁တစ	-5.44676
▁တဲ	-5.49925
ိုင	-5.53334
▁လို	-5.55093
▁မ	-5.57841
▁တယ	-5.58012
▁တို	-5.62417
န	-5.65954
▁စ	-5.718
ပါတယ	-5.7219
နဲ	-5.7365
▁တွေ	-5.81497
▁လုပ	-5.81993
▁မှာ	-5.84933
▁ပါ	-5.87741
တ	-5.898
ဲ	-5.9167
▁ပါတယ	-5.92694
ုတ	-5.93802
▁ဖြစ	-5.95357
ဖြစ	-5.98371
(	-6.00448
▁)	-6.0049
▁ခဲ	-6.04535
▁ဟာ	-6.08261
တော	-6.08942
▁သူတို	-6.09005
ခဲ	-6.0903
▁ရ	-6.09274
ကို	-6.09375
▁ရဲ	-6.0959
▁ပြီး	-6.11246
ပေါ	-6.12231
▁နို	-6.13402
▁နှ	-6.15947
တစ	-6.16024
မ	-6.1817
ရဲ	-6.18555
▁ဘ	-6.20474
လုပ	-6.20723
▁ကြ	-6.23434
▁ကိုယ	-6.2381
▁တာ	-6.24713
▁လက	-6.28367
ဉ	-6.2872
▁လ	-6.28869
ဖို	-6.30764
ောက	-6.32735
▁ဖို	-6.33655
▁နေ	-6.37437
ပါ	-6.38999
▁နဲ	-6.40864
▁မတို	-6.42738
▁မြ	-6.42883
▁စိတ	-6.43784
▁သူ	-6.4478
▁ဒါပေမ	-6.45822
ဟာ	-6.45884
▁နောက	-6.4829
▁ရှ	-6.4835
▁းက	-6.49132
▁ခ	-6.50727
မယ	-6.51331
▁သင	-6.52352
▁ပေါ	-6.54031
▁ဒီ	-6.56833
▁တကယ	-6.5739
ွန	-6.57677
ုပ	-6.5971
▁ကျ	-6.60893
▁လိုက	-6.6322
▁ဒါက	-6.63301
▁မှု	-6.65474
လို	-6.65692
▁ပြော	-6.6687
ိမ	-6.67618
▁းကို	-6.69767
▁သံများ	-6.7055
▁ဒါ	-6.71903
▁ချ	-6.72723
▁ပြ	-6.73039
▁ခု	-6.74714
▁ဆ	-6.74896
▁မယ	-6.76167
▁ဘာ	-6.76959
▁ယောက	-6.79552
ရင	-6.80108
▁လာ	-6.80127
▁ဆို	-6.80789
လ	-6.82705
ကြောင	-6.85242
▁ရယ	-6.8647
လိုက	-6.87431
▁ရှိ	-6.87674
▁လေ	-6.87744
အတွက	-6.8813
▁မဟ	-6.88538
▁နည	-6.89674
မှာ	-6.89928
▁ပြန	-6.90688
▁ဆက	-6.91815
▁ရင	-6.91931
▁ဒီတော	-6.92168
ချိန	-6.93347
▁သက	-6.95702
ုန	-6.96462
▁ပ	-6.97304
▁ကမ	-6.9776
▁တွေကို	-6.97941
▁အကြောင	-6.98887
▁ဘူး	-7.00322
ခြ	-7.00771
▁ခြ	-7.01207
▁ဆော	-7.03064
တွေ	-7.0375
ချ	-7.04715
နည	-7.06158
ချက	-7.06404
▁အတွက	-7.06822
▁ပေး	-7.09002
▁ပြီးတော	-7.11792
▁ထုတ	-7.16628
▁သတ	-7.18942
ွမ	-7.20176
▁းတွေ	-7.20833
▁ချက	-7.21838
▁တ	-7.22214
အ	-7.23072
တုန	-7.2309
▁ရာ	-7.23201
▁ပတ	-7.23593
▁ဒါကို	-7.24169
ဝင	-7.26801
ပြီး	-7.27874
▁ကျော	-7.28927
▁းမှာ	-7.29238
ိုက	-7.29259
တွေကို	-7.31017
▁လူ	-7.31498
▁ပို	-7.33578
▁ကော	-7.34106
▁သွား	-7.37146
▁ပဲ	-7.38299
▁လောက	-7.3887
▁အဲဒီ	-7.39159
▁ဆိုတာ	-7.39573
▁ထ	-7.39596
▁ပိုင	-7.3967
▁ခုပ	-7.39819
▁ထင	-7.41097
▁လမ	-7.41616
ပဲ	-7.4168
▁အစ	-7.41839
ပ	-7.42541
သစ	-7.42703
ျက	-7.42891
▁သိ	-7.43508
▁ရေး	-7.4466
နေတဲ	-7.44748
:	-7.45282
▁ခေါ	-7.45893
▁တာက	-7.46083
▁အဆ	-7.46444
▁စက	-7.46684
▁တည	-7.49733
▁သိပ	-7.50255
▁တန	-7.51252
▁ပါဘူး	-7.5158
▁ဖန	-7.51845
▁ဟ	-7.51926
▁ဒါဟာ	-7.5208
▁ဆုံး	-7.53198
▁မက	-7.5371
တွေနဲ	-7.53799
▁အသ	-7.54812
▁အင	-7.55708
လောက	-7.56153
▁းနဲ	-7.56337
▁ခန	-7.56602
နေ	-7.56612
▁းတဲ	-7.58107
▁ဗျားတို	-7.58244
▁လွ	-7.58875
▁ဆိုရ	-7.60838
▁ဖြ	-7.60955
▁တာပါ	-7.61066
တို	-7.62555
ထားတဲ	-7.62599
▁ရပ	-7.63653
▁မှ	-7.63954
▁မှတ	-7.64432
▁အဲဒီလို	-7.65087
▁ဒီလို	-7.66332
▁ပုံ	-7.66873
▁ပစ	-7.67023
ထက	-7.67071
▁ရောက	-7.67387
▁အခု	-7.67586
▁အရ	-7.68683
▁မှန	-7.69861
▁တင	-7.70019
▁ဆန	-7.7051
▁းပါ	-7.70652
▁းဟာ	-7.70947
▁တီး	-7.72118
▁ထား	-7.72806
▁းကျ	-7.73283
လေ	-7.73842
▁းတစ	-7.7471
▁ဖ	-7.74811
-	-7.75193
▁ဒ	-7.75422
▁လူတွေ	-7.75808
တာ	-7.77069
▁အပြ	-7.77384
ကြ	-7.77736
▁သန	-7.77821
▁အက	-7.78131
▁အလ	-7.78138
ရိုက	-7.78266
s	-7.78737
▁ဒါမှမဟ	-7.79901
▁သွ	-7.80095
▁းအ	-7.80476
▁လုံး	-7.80721
▁စစ	-7.80788
ရုပ	-7.81341
▁းရဲ	-7.81499
▁ဝ	-7.81642
▁တွေဟာ	-7.83064
နစ	-7.83171
▁ကြတယ	-7.83255
မှ	-7.83506
▁အဲဒါ	-7.86974
မှု	-7.87487
ိတ	-7.87877
▁စေ	-7.88072
▁ဝန	-7.88512
တွေဟာ	-7.88601
▁ဂ	-7.88691
▁အားလုံး	-7.89133
▁ထပ	-7.89739
▁သုံး	-7.90271
▁ထော	-7.90666
▁သို	-7.90822
▁မင	-7.91446
၎	-7.91944
ဆို	-7.92582
▁ခံ	-7.92837
အရမ	-7.9291
▁အခါ	-7.93201
▁းတွေကို	-7.93355
မှန	-7.93924
▁တာကို	-7.93977
ကျ	-7.93993
မဟ	-7.94311
▁...	-7.9524
လမ	-7.96631
▁ပန	-7.97664
▁ငါ	-7.98022
ရ	-7.98198
▁..	-7.99302
▁ခုကို	-7.99433
▁းတို	-8.00856
▁ကုန	-8.00902
▁မိန	-8.01266
▁ခွ	-8.0145
▁အမြ	-8.02505
▁ကာ	-8.0268
▁ကလေး	-8.02746
▁န	-8.03285
▁ပျ	-8.03426
▁ဦး	-8.03704
▁မှုကို	-8.04001
▁ကဲ	-8.04009
▁ကျေးဇူးတ	-8.04127
ထဲမှာ	-8.04612
▁ရန	-8.05354
ဖြ	-8.05357
▁လေး	-8.05919
▁လှုပ	-8.05974
▁လား	-8.06703
ခန	-8.07257
▁ဗျား	-8.07747
▁းချ	-8.07837
ရှ	-8.08041
▁ထွ	-8.08518
▁အန	-8.08533
ှစ	-8.08882
▁အံ	-8.09301
▁တက	-8.09474
▁ယူ	-8.09597
အော	-8.10062
နော	-8.10154
▁သ	-8.11165
▁ဗျာ	-8.11288
▁အတွ	-8.11533
▁းပြ	-8.12159
▁အဖွဲ	-8.12336
ရှိ	-8.12916
e	-8.13168
▁နားလ	-8.13477
▁ဒီမှာ	-8.13717
▁မော	-8.1427
▁အထ	-8.14394
▁ဖွ	-8.1447
▁စရာ	-8.15755
▁သူက	-8.15946
▁များ	-8.16132
y	-8.16203
များ	-8.16333
▁အဲဒါကို	-8.16358
▁စမ	-8.16505
သင	-8.16839
▁ထဲမှာ	-8.17074
▁ရှိနေ	-8.17169
▁တိုက	-8.17819
▁ပျော	-8.18003
▁မရဲ	-8.18476
▁အချ	-8.18879
▁ကြီး	-8.19324
▁အား	-8.19405
▁လှ	-8.19406
▁ကွ	-8.2007
ထုတ	-8.20336
▁ကနေ	-8.20561
▁မကို	-8.2067
▁လိုအပ	-8.20959
ကတော	-8.21158
မြ	-8.21527
▁ဒီနေ	-8.21812
ရန	-8.22631
ရှိတဲ	-8.22698
▁မိတ	-8.22837
သက	-8.23504
▁လဲ	-8.2364
တည	-8.23729
ကနေ	-8.23828
▁နေရာ	-8.23996
ိန	-8.24164
▁ငန	-8.24381
နောက	-8.24925
▁တမ	-8.25202
ရောက	-8.25243
▁တွ	-8.25384
ကာ	-8.25564
ဝန	-8.26812
ဒ	-8.27294
ုမ	-8.27583
▁တွေက	-8.2765
▁ခုပါ	-8.28044
▁မိ	-8.28138
▁းမ	-8.28196
စိတ	-8.28955
ကြတယ	-8.29125
▁ကျန	-8.29313
တတ	-8.29838
▁ဒီအ	-8.30302
▁ရက	-8.30398
▁အတော	-8.30405
▁ဆေး	-8.30608
▁အပိုင	-8.30738
▁ကတော	-8.31223
▁ဖော	-8.31345
▁းဆုံး	-8.31641
▁းလဲ	-8.31893
▁ချို	-8.32046
▁အများကြီး	-8.32091
▁ပိုပြီး	-8.32605
ပြ	-8.32872
ထ	-8.32877
▁ဘက	-8.32906
▁ရေ	-8.33303
▁ကလေးတွေ	-8.33786
▁မျှော	-8.34022
အကြောင	-8.3414
လက	-8.34357
▁ခေါင	-8.34778
လျက	-8.35515
▁ဘဝ	-8.35625
▁စတ	-8.35691
▁ပိုက	-8.36018
.	-8.36563
နှ	-8.36593
ွက	-8.36957
▁ကြား	-8.37106
ကြိုက	-8.37132
▁သူမ	-8.37894
▁ရှေ	-8.379
လာခဲ	-8.38044
▁ဓာတ	-8.38596
▁အဲဒါဟာ	-8.38839
▁ရော	-8.38979
▁မဟာ	-8.39101
▁တူ	-8.39187
▁နေတာ	-8.39502
ပါပဲ	-8.39752
တောင	-8.40316
လဲ	-8.40337
▁းလ	-8.40643
▁စာ	-8.4087
▁အဲဒီမှာ	-8.41103
▁ကူး	-8.4189
▁အနေန	-8.42418
▁းပေါ	-8.42742
▁ဘာလို	-8.42951
▁ချစ	-8.43222
▁မြို	-8.4337
▁ဆိုတာကို	-8.44091
▁ယုံကြ	-8.44261
လား	-8.44353
▁လွှ	-8.44393
ရော	-8.44439
▁းဆော	-8.44841
▁းပညာ	-8.45045
ဏ	-8.45356
▁သား	-8.45503
မှတ	-8.46402
▁ခုခု	-8.4653
▁ထိန	-8.46664
▁ရွ	-8.46942
▁ပုံစံ	-8.47261
▁အသံ	-8.47276
လာ	-8.4744
▁းလို	-8.47608
ပေး	-8.47616
ာ	-8.48168
ရတဲ	-8.48252
တာပါ	-8.48612
▁ကန	-8.48705
▁မှုတွေ	-8.48847
ပိုင	-8.49742
▁အော	-8.50118
▁ငံ	-8.5015
▁းဆို	-8.50151
▁မေးခွ	-8.50293
▁ပြု	-8.50515
▁တပ	-8.5058
▁မှာပါ	-8.50638
▁ဖက	-8.51152
ေ	-8.51201
▁မျိုး	-8.51605
▁ထဲက	-8.51628
သွား	-8.51793
သူ	-8.51841
▁ခါ	-8.51908
▁သူတွေ	-8.52276
▁နေရ	-8.52743
▁းစား	-8.53577
ဆ	-8.53638
▁သာ	-8.53845
▁ဂျ	-8.53892
▁အလက	-8.541
▁းသပ	-8.5426
ုဒ	-8.5444
ရမ	-8.54598
▁ဆုံးဖြ	-8.55244
▁၂	-8.55271
လေး	-8.55275
▁အဲ	-8.55285
▁စား	-8.55898
ခ	-8.56292
▁ပါပဲ	-8.5638
သံများ	-8.56548
▁ဦးနှ	-8.56609
▁တတ	-8.56649
▁အတို	-8.56681
▁အခြား	-8.56723
▁အတူ	-8.56787
ီထွ	-8.57022
ပြန	-8.57623
ဆိုတာ	-8.57979
▁ဇာတ	-8.58119
ဆန	-8.58121
▁စာအ	-8.58255
▁စပ	-8.58284
▁အပ	-8.58309
ထား	-8.59469
▁စု	-8.59571
▁ဥပမာ	-8.597
▁လူတို	-8.59824
▁းဖြ	-8.59875
လှ	-8.59982
▁ကြာ	-8.59996
▁ကြပါ	-8.61131
▁စုံ	-8.61273
▁ပထမဆုံး	-8.61634
ကြီး	-8.617
▁အိပ	-8.62161
▁းတာ	-8.6277
သာ	-8.62875
▁မသိ	-8.63102
▁လူသား	-8.63103
▁းဖို	-8.63483
▁အခွ	-8.63865
အားဖြ	-8.644
o	-8.65065
ဘ	-8.65202
း	-8.65289
▁မျ	-8.65313
ိ	-8.65711
ကြမ	-8.66026
▁းပြီး	-8.66034
▁အမ	-8.66471
ထဲက	-8.67355
သန	-8.67526
▁ပေမ	-8.67596
▁ချိန	-8.68626
▁ရှိခဲ	-8.68641
▁နက	-8.69076
ထဲ	-8.69115
▁ခုက	-8.698
▁နိူ	-8.69949
▁နော	-8.70157
ပြော	-8.70374
▁အဲဒီအ	-8.70525
ဆိုရ	-8.70618
▁လဲဆို	-8.70628
ို	-8.70682
▁ကား	-8.71028
▁စာရ	-8.71255
▁ဒီဇ	-8.71706
▁ပံ	-8.71826
▁ထက	-8.7205
▁းစ	-8.72479
▁စီးပွားရေး	-8.72516
▁ရတာ	-8.72532
▁ဒါတွေကို	-8.72854
တင	-8.73198
▁နေကြ	-8.73253
▁ဝတ	-8.73354
▁သမ	-8.7336
ရေး	-8.73551
▁အထိ	-8.73558
▁းပဲ	-8.74203
▁အခြေခံ	-8.74468
▁မေး	-8.74494
▁ပွဲ	-8.74659
▁တုံ	-8.74699
▁းမှု	-8.74923
ာဉ	-8.75141
▁လူတွေကို	-8.75249
ချို	-8.75321
▁ကြိုးစား	-8.75495
ား	-8.75908
▁အဲဒါက	-8.75956
▁ခြေ	-8.76052
▁အမျိုးသမီး	-8.76412
ရပ	-8.76788
▁လုံးဝ	-8.77038
▁သူဟာ	-8.77227
▁ပထမ	-8.77377
▁းခဲ	-8.77656
▁ဘာသာ	-8.77669
▁အတ	-8.78233
▁တရ	-8.78283
▁သံ	-8.78922
▁းနို	-8.79706
▁ခက	-8.805
▁၂၀	-8.80647
▁းနေ	-8.81106
ဆဲလ	-8.81316
လှမ	-8.81378
ပစ	-8.81499
▁အရွ	-8.81687
▁ဆရာ	-8.81714
▁သူမရဲ	-8.81855
တာကို	-8.8201
▁ပြောပြ	-8.82107
ရာ	-8.82158
er	-8.83056
ဖြေရှ	-8.83623
တန	-8.84002
▁တွေမှာ	-8.84084
▁အနာဂ	-8.84337
ဆီ	-8.844
အနေန	-8.84426
▁နေထ	-8.84492
apo	-8.8455
▁အခုတော	-8.85124
▁းထဲမှာ	-8.85158
နိူ	-8.85222
▁ဟန	-8.85268
▁၁	-8.85547
▁အမေရိကန	-8.86028
▁နာရီ	-8.86415
စို	-8.8664
ကုန	-8.87231
▁းကြ	-8.87612
▁လျှောက	-8.87637
▁E	-8.87943
▁ထို	-8.88016
▁သေ	-8.8838
▁ကြောက	-8.88545
ိပ	-8.88549
ုင	-8.89074
▁အနုပညာ	-8.89139
ွတ	-8.89202
▁မို	-8.89237
▁ငွေ	-8.89741
▁အရေးပါ	-8.89803
▁ပေါက	-8.89937
▁ထိ	-8.90237
ာကွ	-8.90285
သတ	-8.9029
▁ရောဂါ	-8.90325
▁၁၀	-8.90434
▁ပြဿနာ	-8.90494
▁စီး	-8.90682
▁ဒေါ	-8.90965
▁းခြ	-8.91047
▁ခိုင	-8.91062
▁ငြိမ	-8.91357
ခွ	-8.91661
▁A	-8.9229
▁သည	-8.92674
▁ကိစ	-8.92795
▁ဝက	-8.92823
▁အမြဲ	-8.93508
▁စွာ	-8.93521
ပါလိ	-8.93806
ဖက	-8.9381
▁L	-8.93879
▁းရင	-8.93971
▁တွဲ	-8.94108
a	-8.94142
▁ဂီတ	-8.94217
မျိုး	-8.94495
ဘဲ	-8.94711
လိပ	-8.94921
မှာပါ	-8.95128
▁ပေးန	-8.95322
▁ဖတ	-8.95631
▁းလေး	-8.95659
▁ဂလိပ	-8.95774
▁ဗီဒီယို	-8.96335
▁မှာတော	-8.96614
▁အဓိပ	-8.96687
▁ရှား	-8.97661
စေ	-8.97769
▁ဆွေ	-8.97794
ှိပ	-8.97917
▁လိုချ	-8.98133
ာဏ	-8.98231
▁ကာလ	-8.98323
D	-8.98932
သုံး	-8.9904
▁အားလုံးကို	-8.99395
ေး	-8.99492
ဖွ	-8.99547
▁လပ	-8.99674
ဆုံး	-8.9968
▁ပဏီ	-8.99772
▁သဘာဝ	-8.99781
▁ထဲ	-9.00036
ဘက	-9.00246
▁ပေးလိုက	-9.00667
▁အပေါ	-9.00689
ဘူး	-9.00746
▁နာမ	-9.00867
တွေက	-9.01217
ကွက	-9.01463
▁မရှိ	-9.01519
▁ဖူး	-9.01595
▁မလဲ	-9.01933
ြိုဟ	-9.02251
အရ	-9.02262
▁အရာ	-9.02298
မှုကို	-9.02454
▁ပြောရ	-9.02472
▁းပေး	-9.0248
▁အရာတွေ	-9.02518
ပါဘူး	-9.02666
ထွ	-9.02809
▁ဆီမှာ	-9.02917
▁အို	-9.03643
ခေါ	-9.04253
အဖွဲ	-9.04263
ဝတ	-9.04363
▁သလို	-9.04429
▁ဇ	-9.04493
▁B	-9.0457
▁H	-9.04749
▁အဓိက	-9.0507
▁ဘာသာစကား	-9.05256
▁ရာခ	-9.05416
ဖော	-9.05748
n	-9.05928
▁ဆွဲ	-9.05958
▁အကျ	-9.05987
▁တာန	-9.06119
i	-9.06127
နက	-9.06332
▁ဆံ	-9.06407
▁ပြီ	-9.06433
မှာရှိတဲ	-9.06494
▁ကြီးမား	-9.06958
▁စူးစ	-9.0733
▁ဘာကြီး	-9.074
▁တရား	-9.07472
▁တာတွေ	-9.07491
နေတာ	-9.07759
ဆက	-9.07867
g	-9.08753
▁းရေး	-9.08824
▁းရ	-9.08927
▁အစား	-9.09332
▁းတော	-9.09406
▁အကြ	-9.0959
ပုံ	-9.09649
ော	-9.09732
▁လူတွေဟာ	-9.10317
▁မဲ	-9.10402
▁းထ	-9.10424
▁ခေ	-9.11002
▁ဘူးလေ	-9.1111
ပို	-9.11265
▁ရှာ	-9.11615
▁ဆီ	-9.11864
▁ဆိုတာပါ	-9.12266
▁-	-9.12386
ပတ	-9.1243
ကျော	-9.12469
သွ	-9.12571
▁နာ	-9.12675
▁သီချ	-9.12775
▁ဒုတိယ	-9.129
▁အမှ	-9.13548
ုဏ	-9.13679
▁းသား	-9.14092
▁ဘုရား	-9.14213
▁၃	-9.14293
▁လိ	-9.14596
▁အခါမှာ	-9.1461
▁မောင	-9.14613
▁းသစ	-9.1476
▁ပုံပြ	-9.14766
ပဲလေ	-9.15057
▁မရ	-9.15206
ဗျာ	-9.15682
▁ခုနက	-9.15733
▁ဖွဲ	-9.16128
▁သေး	-9.16136
▁ဘာကို	-9.16382
သ	-9.1639
▁ရွေးချ	-9.16565
▁ပွ	-9.16694
▁အရေး	-9.1675
▁ဆိုလိုတာက	-9.16852
▁အစိတ	-9.16929
▁ကလေးတွေကို	-9.17128
▁မြှ	-9.17259
ီ	-9.17334
▁ကူ	-9.17443
▁ပိတ	-9.17444
▁စကား	-9.17631
▁မထ	-9.17737
▁သိမ	-9.18093
▁စိန	-9.18144
ေတ	-9.18359
ရေ	-9.18493
▁နယ	-9.18727
▁မိသားစု	-9.18745
ု	-9.19034
▁M	-9.19058
ရအ	-9.19068
▁ကူညီ	-9.19118
▁ဘဲ	-9.19186
▁မလား	-9.19838
ဖန	-9.20294
▁မမြ	-9.20363
▁းသွား	-9.2057
ျ	-9.20582
တာက	-9.20596
▁ပျံ	-9.20696
▁ဝှ	-9.20861
▁သေချာ	-9.21205
▁မတ	-9.21457
▁လန	-9.21917
▁ကပ	-9.2204
ဆီကို	-9.22094
▁ခုနှ	-9.22112
ုံ	-9.22238
▁တရာ	-9.2227
ပေါက	-9.23445
သော	-9.23467
▁းဆ	-9.23479
▁အထူး	-9.23836
▁ခုမှာ	-9.24029
▁ဗ	-9.24154
▁မပြော	-9.24217
ယူ	-9.24395
▁ရုံ	-9.24817
▁ရှုပ	-9.24892
▁းပြီ	-9.24936
ရှေ	-9.2498
▁ချိတ	-9.2509
▁းပါပဲ	-9.25199
ဂ	-9.25453
▁ဘာမှ	-9.25539
▁ကျေးမှု	-9.25648
▁လူတွေက	-9.2582
▁လာပြီး	-9.25841
▁လူမှုရေး	-9.25984
မဲ	-9.26342
▁C	-9.2636
▁ခံရ	-9.26471
▁နေတာပါ	-9.26583
ရှိခဲ	-9.26667
▁N	-9.26765
ဆိုတော	-9.26855
▁ချီ	-9.27181
▁စကားပြော	-9.27199
▁းမြ	-9.27204
▁၁၅	-9.2723
▁ကြွ	-9.27234
▁တွန	-9.27329
▁းတွေက	-9.27396
▁းရှ	-9.2769
▁းလာ	-9.27799
ပညာရှ	-9.27872
▁ဆိုပြီး	-9.27996
▁ကြမ	-9.28015
▁ခုတ	-9.28693
▁ဂီတသံ	-9.28751
▁ဆာ	-9.28911
ံ	-9.29134
▁အရေးကြီး	-9.29152
စား	-9.29339
▁လေယ	-9.29617
▁တိုးတ	-9.29844
မိ	-9.29881
ဆော	-9.30007
ီး	-9.30042
▁ပါဝ	-9.30106
▁ခံစားရ	-9.30354
ပေမ	-9.30398
▁အမေ	-9.31081
ူ	-9.31709
ှက	-9.31765
▁လာန	-9.31802
▁လှန	-9.32028
▁ခုရှိ	-9.32067
▁ထု	-9.32085
▁လျှော	-9.32187
၀	-9.32221
ထဲကို	-9.32499
▁ဘဝကို	-9.32848
▁သော	-9.32902
သည	-9.3323
တိုက	-9.33508
t	-9.33635
▁ရှားမှု	-9.33771
▁ရွေး	-9.33807
ပါသေး	-9.33878
▁ပြောတာက	-9.34117
▁မန	-9.34148
▁R	-9.34203
▁နေရာမှာ	-9.34484
လွ	-9.34515
စစ	-9.346
▁းစပ	-9.3484
▁သူမဟာ	-9.34912
▁းရှိ	-9.3507
▁ဆီကို	-9.35144
▁ပုံန	-9.35147
▁မျှဝေ	-9.35501
လပ	-9.35548
▁ရလ	-9.3561
▁းသော	-9.35702
▁K	-9.35816
▁မှုက	-9.35958
▁ရှိနို	-9.36353
▁းကတော	-9.36444
▁ဆိုတော	-9.36495
▁ပညာရေး	-9.36514
▁နှာ	-9.36538
ကိုယ	-9.36584
▁ဖြေ	-9.3675
▁အများစု	-9.36963
l	-9.37389
▁ကိရိယာ	-9.37451
▁သမား	-9.37527
▁အစီအ	-9.37776
▁တွေးမိ	-9.38514
▁ရွေ	-9.38528
▁ယာ	-9.38603
▁ပါပြီ	-9.38606
▁ရှာဖွေ	-9.38711
▁လာကြ	-9.38909
တွေမှာ	-9.38912
▁သူမက	-9.39137
▁P	-9.39427
▁အတွေ	-9.39434
▁တွေပါ	-9.39549
ကော	-9.39721
I	-9.40115
နေကြ	-9.40347
▁၀	-9.40357
▁မှုတွေကို	-9.40705
▁သောက	-9.41065
▁အိုး	-9.41118
▁J	-9.41181
▁ပြောချ	-9.41713
▁စကားလုံး	-9.4173
▁၄	-9.41806
▁အစိုးရ	-9.41879
▁လှပ	-9.4201
▁ရတာက	-9.4206
▁အမြဲတ	-9.42139
▁စီ	-9.42284
အား	-9.4297
ံပါတ	-9.43069
သိ	-9.43208
▁အဖေ	-9.43244
▁းစာ	-9.43539
▁S	-9.43693
▁ထဲကို	-9.43693
▁ပရိ	-9.4395
▁၅၀	-9.43967
▁မတန	-9.44124
စရာ	-9.44178
▁ပြူတာ	-9.44375
▁းနှ	-9.44408
▁ကစား	-9.44466
▁ထိုး	-9.44631
▁မရှိဘူး	-9.44648
▁ရွှ	-9.44685
▁ယှ	-9.4477
▁ငြ	-9.44775
သူတွေ	-9.44877
▁းကြီး	-9.44919
▁မာ	-9.45214
▁ညွှ	-9.45403
▁အခ	-9.45469
le	-9.45475
▁များများ	-9.45815
▁အဆုံးသတ	-9.4583
ခံ	-9.45934
▁နေပြီး	-9.45944
▁းအလဲ	-9.4603
▁ထူးခြား	-9.46035
▁ထမ	-9.46193
▁သူရဲ	-9.46218
▁းလျှောက	-9.46244
အတွ	-9.46265
▁ပြသ	-9.46375
▁ဒါတွေ	-9.46382
▁ခုလုံး	-9.46388
▁စားစရာ	-9.46423
စွာ	-9.46645
ျှပ	-9.46774
h	-9.46958
▁ဇီဝ	-9.47083
▁ဝမ	-9.47119
လူ	-9.47241
▁လှုံ	-9.47403
▁မှုဟာ	-9.47405
▁ထူး	-9.47443
ဇ	-9.47563
▁လျော	-9.47724
▁ပုံကို	-9.47882
▁ပုံမှ	-9.48106
▁စုစ	-9.48498
▁းကနေ	-9.48788
▁ဆာန	-9.48856
အဆ	-9.48913
▁ခုန	-9.49122
▁ပေ	-9.49146
▁ဦးတ	-9.49219
▁ဖေါ	-9.49346
ကွ	-9.49392
▁ဒီအကြော	-9.49565
▁ဒီက	-9.49755
▁စီမံ	-9.49845
▁ဖျ	-9.50533
▁အာဖရိက	-9.5066
▁အသုံးပြု	-9.50752
▁မိခ	-9.50924
▁၅	-9.51071
ြပ	-9.51184
▁နှာပြ	-9.51226
▁တာလဲ	-9.51238
▁အနှ	-9.51563
▁မြေ	-9.51565
▁အာရုံစ	-9.51699
▁ဗျ	-9.51981
ရှာ	-9.52146
ရယ	-9.52211
▁းသားတွေ	-9.52259
သံ	-9.52273
နေပြီး	-9.52278
▁သွေး	-9.52488
▁&#9	-9.52602
▁&#93;	-9.52602
ကျွန	-9.52722
▁ဂို	-9.52725
သလို	-9.52772
စိမ	-9.5287
▁ကြရ	-9.53024
▁လုံးဝကို	-9.5309
▁မွေး	-9.53168
▁လိုတာ	-9.53231
▁သာမ	-9.53231
▁ခွဲ	-9.53341
▁ပုံတွေ	-9.53351
ပြောလိုက	-9.53393
▁ထိပ	-9.53432
▁တခု	-9.53515
r	-9.53705
▁၃၀	-9.53892
များကို	-9.54342
▁းစားကြ	-9.54397
အားလုံးကို	-9.54504
▁အားပေး	-9.54598
▁ပညာရှ	-9.54664
▁ခုခုကို	-9.54755
▁ကြတာ	-9.55226
▁မှုပါ	-9.55555
▁အလားတူ	-9.55604
▁ဆုံ	-9.55703
ယောက	-9.55733
▁G	-9.55827
▁အထက	-9.56012
▁စန	-9.56036
ွဲ	-9.56202
မှုတွေ	-9.56281
▁သုံးပြီး	-9.56397
▁I	-9.56672
▁မလို	-9.56729
သေး	-9.56777
▁တွေး	-9.568
▁းခံ	-9.56862
▁TED	-9.56951
တာတွေ	-9.57095
▁ပရိုဂ	-9.57113
▁းတွေဟာ	-9.5713
▁ခရီး	-9.57178
▁မကြာခ	-9.57253
▁ငါး	-9.57363
▁ပြေး	-9.57439
▁းရော	-9.57521
အားလုံး	-9.57536
▁သုံးန	-9.5771
▁လုံးကို	-9.57918
▁ဓာကို	-9.57927
▁မအ	-9.58347
ပုဂ	-9.58375
▁မေ	-9.58474
▁3	-9.58731
▁ဆွေးနွေး	-9.58733
S	-9.5875
▁၆	-9.58892
▁းသာ	-9.59145
d	-9.59147
နားလ	-9.59202
▁အခြေအနေ	-9.59237
T	-9.59252
▁T	-9.5928
▁းထဲ	-9.5966
▁အရာတွေကို	-9.59661
▁အလွ	-9.59701
▁းများစွာ	-9.59833
ဋ	-9.59851
▁ဥ	-9.59954
▁F	-9.6002
▁လျ	-9.60145
▁စရာက	-9.60276
▁းထဲက	-9.60417
▁မီး	-9.60628
▁တွက	-9.60899
ဝယ	-9.61095
▁ချာ	-9.61132
ne	-9.61424
▁နားထ	-9.61593
အစား	-9.61645
▁ယူဆ	-9.61657
▁ကူးကြ	-9.61785
လုံး	-9.62029
▁ဘာမှာ	-9.62116
ပုံကို	-9.62412
▁ပါလိ	-9.62437
▁သူမကို	-9.6264
▁ညာ	-9.62692
ခေါင	-9.6288
▁ပူး	-9.63072
▁ရှိကြ	-9.63151
ia	-9.63214
ရတာ	-9.63381
▁သွားပြီး	-9.63448
▁မယုံနိ	-9.63661
▁သီး	-9.64019
▁ဝို	-9.6403
▁သိချ	-9.64109
▁ဒီလောက	-9.64189
▁ကယ	-9.644
▁အသွ	-9.64506
▁အမျိုးသမီးတွေ	-9.64519
▁ကျမ	-9.64589
▁ဒါတွေက	-9.64667
ကြား	-9.6469
▁ဂရု	-9.64912
▁ခရ	-9.6496
▁ခြား	-9.65291
p	-9.65494
ဘာ	-9.65507
ပြု	-9.65668
မေးခွ	-9.65726
▁ဌာန	-9.65766
▁မိဘတွေ	-9.65792
▁ပဏီတွေ	-9.66096
▁အားလုံးဟာ	-9.66222
▁ဆိုပါ	-9.66231
▁New	-9.66262
▁အကြုံ	-9.66269
▁D	-9.66289
▁ကျေးဇူးပါ	-9.6632
▁အသိ	-9.66463
▁၁၂	-9.66904
▁ပြတ	-9.67015
တွေပါ	-9.67024
သိုလ	-9.67219
ဦး	-9.67269
▁နေလို	-9.67292
▁သိကြ	-9.67481
▁းတွေမှာ	-9.67603
▁တခြား	-9.67734
ူး	-9.67811
နေတာပါ	-9.67893
▁ဓါတ	-9.68001
▁သူပါ	-9.68066
▁လိုပဲ	-9.6829
▁မစ	-9.68321
ခိုင	-9.68388
▁ခဏာ	-9.68423
▁ထွေး	-9.68573
▁ပိုး	-9.68909
▁တံ	-9.69147
▁မှာပဲ	-9.69242
▁းလှ	-9.69426
▁သွားခဲ	-9.69673
▁ဆိုတာက	-9.69749
▁အမျိုးသား	-9.69774
▁ဆိုး	-9.69851
es	-9.69894
▁ပျူတာ	-9.69913
▁လျှို	-9.69937
ရာမှာ	-9.70001
ဟ	-9.70124
▁၄၀	-9.70161
▁မတူ	-9.70294
▁အထူးသ	-9.70334
▁မီ	-9.7037
▁းများ	-9.70559
▁များစွာ	-9.70586
▁ညီ	-9.70756
▁းထား	-9.70756
▁ကလ	-9.70953
▁အယ	-9.71187
ွ	-9.71231
▁းအရာ	-9.71433
ရိုးရှ	-9.71809
▁အသုံး	-9.71854
မလား	-9.72039
တွ	-9.72069
▁သိရှိ	-9.72319
▁ဂါ	-9.7238
ဇာတ	-9.72395
မှုဟာ	-9.72427
ီးကျန	-9.72577
ခိုက	-9.72626
▁ဘာတွေ	-9.72652
ပေ	-9.72711
သား	-9.72813
▁သူတွေကို	-9.7308
▁....	-9.731
▁လစာ	-9.7314
▁အားသ	-9.73287
▁းအမြ	-9.73323
မေတ	-9.73414
▁မရနိ	-9.73422
▁ယူပြီး	-9.73451
▁းတွေပါ	-9.73632
▁ကိန	-9.73732
အမြ	-9.73774
▁ရခဲ	-9.74189
▁းမာရေး	-9.7427
▁သဘောပေါ	-9.74506
▁းအား	-9.74715
▁မကြာခဏ	-9.74764
▁၁၈	-9.74839
▁ဒီနေရာမှာ	-9.74858
▁ဆံရေး	-9.74993
▁အဲဒီန	-9.75051
▁စီစ	-9.75119
တွေထဲက	-9.75431
ing	-9.75557
▁ဒု	-9.75597
u	-9.7564
▁ဟို	-9.75723
▁ရှိလာ	-9.75772
M	-9.75886
▁ကျောက	-9.75927
▁ဒီစ	-9.7604
မို	-9.76112
▁ဖိုး	-9.76177
▁နိုး	-9.76246
▁မိုး	-9.76304
▁.	-9.76394
▁ယုံ	-9.76409
▁U	-9.76515
ရောဂ	-9.76572
ကိစ	-9.76719
▁ဘာလဲ	-9.76724
▁းပါး	-9.76925
▁သမျှ	-9.771
▁ကြီးပြ	-9.77125
▁လာနေ	-9.77181
▁ပေးရ	-9.77226
▁းကန	-9.775
▁ကြိုး	-9.77543
▁ဒီန	-9.77868
▁ကြော	-9.78045
ပန	-9.78357
▁ထားတာ	-9.78498
▁းကလေး	-9.78644
အပြ	-9.78747
▁နှံ	-9.79057
us	-9.79079
▁မသိဘူး	-9.79278
ရှိနေ	-9.79307
▁နေရာကို	-9.79428
၀၀၀	-9.79517
▁မူ	-9.79558
ဖွဲ	-9.79623
▁လူသားတွေ	-9.80006
▁အတူတူ	-9.80019
▁ပြေ	-9.80287
ခက	-9.80306
▁သဘောထား	-9.80359
နေရ	-9.8046
▁ဖွံ	-9.8052
▁လာမှု	-9.8071
▁ခါမှ	-9.80727
▁ခိုက	-9.80757
▁ယူလိုက	-9.80794
▁အဲဒါတွေကို	-9.80896
▁ရိုး	-9.81032
▁မရဘူး	-9.81098
▁ဒိယ	-9.81201
▁မှား	-9.81258
▁ခံစားမှု	-9.81775
▁အဲဒါတွေ	-9.81873
▁ခုလို	-9.81885
▁သွားကြ	-9.81932
▁York	-9.82082
▁လူဦးရေ	-9.82086
သောက	-9.82142
ပြီးတော	-9.8221
▁သူမှ	-9.82214
▁s	-9.82218
▁ကိရိယာတွေ	-9.82348
▁းပို	-9.82369
▁ယူန	-9.82405
ပျော	-9.82538
▁ရိုးစ	-9.82579
▁တူညီ	-9.82739
▁ပထမဦးဆုံး	-9.82787
an	-9.82942
▁၁၀၀	-9.8298
▁စာလုံး	-9.8335
ခံရ	-9.83369
အစ	-9.83755
းစပ	-9.83837
အပေါ	-9.83921
▁ပါး	-9.84103
▁တံခါး	-9.84215
ဖတ	-9.84357
▁သမီး	-9.84422
▁အလာ	-9.84514
▁သဘော	-9.84888
ွေ	-9.85052
▁အာရုံ	-9.85374
▁ပုန	-9.85741
▁ခံစားချ	-9.85822
▁းမာ	-9.859
▁တတိယ	-9.85966
စာ	-9.85982
▁တု	-9.86005
▁သမုဒ	-9.86023
▁ယူကြ	-9.86043
▁ဝေ	-9.86117
▁တိတ	-9.86186
▁ဘာကြီးကို	-9.86537
▁၈	-9.86581
ယွ	-9.86604
▁ခွေး	-9.86642
ထင	-9.86767
▁ဘဝမှာ	-9.8678
ယုံကြ	-9.86839
▁ဒေသ	-9.87004
▁ကဗျာ	-9.87013
▁ပံပညာရှ	-9.87227
လိုအပ	-9.87239
▁အဖြေ	-9.87274
ကြောက	-9.87395
▁းချမ	-9.87499
ဓာတ	-9.87799
▁းဆက	-9.87804
▁းပ	-9.87814
▁လာရ	-9.87946
ားထုတ	-9.8831
ရာမ	-9.88499
▁ခံစား	-9.88714
▁းထန	-9.88759
▁လာတာ	-9.88778
▁ရလာ	-9.88951
▁ငံရေး	-9.89246
▁၁၁	-9.89384
လိုမျိုး	-9.89514
▁စာတ	-9.89614
ပြောခဲ	-9.89647
▁ဒါဆို	-9.89652
▁သွားရ	-9.89715
ဖ	-9.89726
▁ခြားနား	-9.89803
▁ပြီးခဲ	-9.8986
▁ရေခဲ	-9.90107
▁အမျိုးမျိုး	-9.90226
၄	-9.90244
▁ပေးတာ	-9.90253
k	-9.90338
▁ဝဲ	-9.90545
▁ကြတာပါ	-9.90568
▁ငှ	-9.90584
သိပ	-9.90738
▁ဖိန	-9.90751
▁မနှ	-9.90835
▁ပညာ	-9.91122
▁လူထု	-9.91132
▁းနှီး	-9.9119
▁ကြိုးပ	-9.91414
▁The	-9.91493
▁းမဲ	-9.91549
စမ	-9.91695
▁သုသေသန	-9.91708
▁နေရာတ	-9.91901
၁	-9.91926
▁ခဏ	-9.92056
▁သံသယ	-9.9209
▁DNA	-9.92092
▁ဆီက	-9.92096
မေး	-9.92122
▁ကိုပဲ	-9.92146
ာကို	-9.92193
▁ဝေဒနာ	-9.92246
en	-9.92262
in	-9.9227
လဲဆိုတာ	-9.92325
▁တာပဲ	-9.92471
▁စပြီး	-9.92639
▁အသား	-9.92789
z	-9.92814
▁တီးန	-9.92919
သခ	-9.93115
▁လာစေ	-9.93196
စီး	-9.93383
▁တိ	-9.93404
▁ရာမှာ	-9.93638
▁အရာတ	-9.93678
ြိမ	-9.93787
▁ပြုပြ	-9.93954
▁၁၉	-9.94068
▁အရှ	-9.94136
▁ပြောဆို	-9.94283
▁ကျေးဇူး	-9.94443
▁မြေပုံ	-9.94633
ရက	-9.94635
တာဟာ	-9.94673
▁အကြာမှာ	-9.9482
▁နာကျ	-9.94854
▁းမျ	-9.94897
▁ဥပဒေ	-9.95006
ပေးလိုက	-9.95041
▁နွ	-9.95081
▁ကြံ	-9.95084
c	-9.95106
on	-9.95144
▁ရွှေ	-9.95164
▁စာသ	-9.95358
▁ဒေါသ	-9.95492
▁းချီ	-9.9558
▁မရှိပါဘူး	-9.9558
ard	-9.95858
▁းတ	-9.96038
▁ဖယ	-9.96187
W	-9.96345
F	-9.96367
▁စကြာဝ	-9.96384
▁သဘောတူ	-9.96578
▁၇	-9.96588
▁ရာစု	-9.96675
▁ဒေတာ	-9.96688
▁ပိုများ	-9.96797
▁းလေ	-9.96904
▁အများ	-9.97081
▁ပံပညာ	-9.97278
လာပြီး	-9.97308
▁ဓာ	-9.97334
▁မတော	-9.97336
▁ရို	-9.97378
▁အသုံးချ	-9.97553
လေးကို	-9.97616
တာလဲ	-9.97692
▁စာမျ	-9.97765
▁ါ	-9.97768
▁တုံး	-9.97798
▁စီးပွား	-9.98362
C	-9.98459
▁ထိခ	-9.986
▁ဒီလိုမျိုး	-9.9861
▁ဘူးဆို	-9.98612
▁သတိထားမိ	-9.98613
▁မိုဘ	-9.98667
တိတ	-9.98828
▁အစားထိုး	-9.98865
▁ကြွက	-9.99047
လွှ	-9.99252
▁ဘာလုံး	-9.99374
၅	-9.99408
▁မရာ	-9.99441
as	-9.99679
လေးတွေ	-9.99962
▁းစွာ	-10.0012
▁အဲဒီတော	-10.0017
ရှာတွေ	-10.0042
▁အရေ	-10.0047
▁စာတို	-10.0062
▁းလဲမှု	-10.007
▁အလှန	-10.0083
▁ထားတာပါ	-10.0086
▁SW	-10.0089
▁နိမ	-10.0116
el	-10.0119
ပုံစံ	-10.0132
▁ဗီဇ	-10.0133
▁ဒီတစ	-10.0136
သဖြ	-10.0139
လိုပဲ	-10.0139
▁ကလေးတွေက	-10.0152
▁ဆွေတွေ	-10.0168
▁လူမှု	-10.0168
▁ယော	-10.017
▁ဘော	-10.0174
▁မှာလဲ	-10.021
▁ရွာ	-10.0211
al	-10.0229
ပိတ	-10.023
▁းမှုကို	-10.0233
ကြာ	-10.0264
▁းတာက	-10.0267
အထိ	-10.0267
▁မဆို	-10.027
▁လေးတွေ	-10.0277
▁တွေထဲမှာ	-10.0281
မဆို	-10.0307
▁မှုရှိ	-10.0311
▁ဝါ	-10.0313
▁တိရိ	-10.0321
▁အသိအမှ	-10.0322
▁နေတာကို	-10.0331
▁အတိအကျ	-10.0345
▁းတွ	-10.0346
၃	-10.035
▁ရှု	-10.0373
▁ခံစားမိ	-10.0377
or	-10.0383
ဝ	-10.0384
▁အမျှ	-10.0397
▁ကူးစ	-10.0417
▁ခုပေါ	-10.0441
ာန	-10.0448
▁ဒီပ	-10.0457
ရှိန	-10.0458
▁စွဲ	-10.0481
▁ခါတ	-10.0501
▁မား	-10.0503
son	-10.0513
▁ထားလို	-10.0514
▁ကံက	-10.0531
မရှိ	-10.0534
▁ဘေး	-10.0546
ဆွဲ	-10.055
ထဲတွ	-10.0572
▁အများဆုံး	-10.0585
ားမလ	-10.0588
ချစ	-10.0594
▁စိုးရ	-10.0595
▁ဖျော	-10.0607
▁ဝါး	-10.0608
▁အချို	-10.0615
▁းသိမ	-10.0621
▁စိ	-10.0637
▁ဆီး	-10.0645
▁စော	-10.0667
ခြေထ	-10.0669
ခံစား	-10.0703
▁တိကျ	-10.0724
▁ကြားရ	-10.0728
▁သားတွေ	-10.073
▁ခွဲခြား	-10.0734
▁မနေ	-10.0735
သူတို	-10.0737
▁စိမ	-10.075
▁းမှ	-10.0764
▁ခွက	-10.0779
SA	-10.0807
▁ရေရှ	-10.0821
▁Al	-10.0823
▁ဒီပုံ	-10.0824
▁နမူနာ	-10.0824
▁ဗျားကို	-10.0824
ဖူး	-10.0838
ိုး	-10.0857
▁းကပ	-10.0858
နေရာ	-10.0859
▁ပြဿနာက	-10.0897
စီ	-10.0929
မလဲ	-10.093
▁ပြချ	-10.093
▁နေရာတွေ	-10.0936
▁ငွေကြေး	-10.0937
▁အားလုံးက	-10.0939
စပ	-10.094
▁အကန	-10.094
▁စာရွ	-10.0943
▁ပေးကြ	-10.0943
▁မရှိန	-10.0948
▁အသွေး	-10.0962
▁ပုံတွေကို	-10.0989
ဆိုလို	-10.099
▁အဲလို	-10.0991
▁ရရှိ	-10.0996
▁ဦးဆ	-10.0997
▁ဆုံးမှာ	-10.1001
ေးတယ	-10.1004
▁ကရ	-10.1021
▁Mar	-10.103
▁သူကို	-10.1032
နေတာက	-10.1052
▁အိုကေ	-10.1053
ာဗ	-10.1054
ွေးခေါ	-10.1057
▁သာဓက	-10.1062
▁အကြံ	-10.1074
▁ဒီလူ	-10.1109
▁၁၄	-10.112
ကြပါ	-10.1168
▁ရှိပြီး	-10.1171
ှုန	-10.1195
▁ရှိနေကြ	-10.1198
▁စားပြု	-10.1202
▁လူတ	-10.121
▁မှော	-10.1222
▁လာအော	-10.126
▁ကြုံ	-10.1281
▁အမေရိက	-10.129
ထိ	-10.1297
▁အတွေး	-10.1305
၇	-10.1307
▁အရာရာ	-10.1314
▁သေတ	-10.1317
▁ချပ	-10.1322
▁မျိုးဆ	-10.1331
▁အလိုလို	-10.134
▁ထိတွေ	-10.134
▁းအရ	-10.1352
▁လုံ	-10.1353
▁ဂဏ	-10.1354
▁မြတ	-10.1363
သူပါ	-10.1376
မှာကို	-10.1376
▁ခတ	-10.1376
မရှိဘူး	-10.1384
▁ကူးကို	-10.1403
▁ကြီးကို	-10.1411
သုံးပြီး	-10.142
▁ဒီနှ	-10.1431
ကွာ	-10.1441
▁အကျိုးဆ	-10.1445
အတို	-10.1446
▁အစော	-10.1451
▁ရုံး	-10.1461
မြတ	-10.1477
ထပ	-10.1483
▁တွေထဲက	-10.1483
▁ကူညီပေး	-10.1491
▁အကျိုး	-10.1503
ity	-10.1504
ဘာသာ	-10.1514
▁အကူအညီ	-10.1518
▁၂၀၀	-10.1561
ပေးန	-10.1566
▁မောမှု	-10.1576
▁းချီကား	-10.1585
မြို	-10.1597
▁ပါဦး	-10.1597
w	-10.1603
▁သုတေသန	-10.1606
▁းသူ	-10.1619
▁ပိုလို	-10.1646
▁မွေ	-10.165
▁အေး	-10.1653
▁ပမာဏ	-10.1655
▁မိတာက	-10.1676
တွေထဲမှာ	-10.1692
ယှ	-10.1694
▁စာဖ	-10.1705
▁ဆိုက	-10.1706
▁တဆ	-10.1707
ရိပ	-10.1722
ဆရာ	-10.1722
▁အာမခံ	-10.1725
၈	-10.1759
▁အသံကို	-10.1767
▁ရယူ	-10.1768
▁းပညာကို	-10.1781
ူးစက	-10.1789
▁းလဲန	-10.1794
▁းမတွေ	-10.1797
be	-10.1814
▁စားပွဲ	-10.1837
▁ချန	-10.1841
လူတွေ	-10.1841
▁ဥရောပ	-10.1843
▁းနှီးမြှ	-10.1843
▁ပုလ	-10.1846
▁ရွံ	-10.185
ထားတာပါ	-10.1856
▁ပြား	-10.1863
▁သုံးသ	-10.1863
မှာပဲ	-10.1888
ကိုပဲ	-10.1899
▁ရှိသေးတ	-10.1899
▁အဝေး	-10.1906
▁သိန	-10.193
၂	-10.1941
▁သုံးလို	-10.1942
▁စာရေး	-10.1956
▁အားဖြ	-10.1956
ရိတ	-10.1958
▁တီးမှု	-10.198
ဘော	-10.1981
▁အလားအလာ	-10.1987
▁သွားတာ	-10.1995
▁၂၅	-10.2008
▁၈၀	-10.2033
▁လိုမျိုး	-10.2064
ဆိုတာကို	-10.2065
▁ရတာပါ	-10.2069
▁ကုသ	-10.2079
သွားပြီး	-10.2102
▁အရာပါ	-10.213
▁အသေးစိ	-10.2132
▁ရေးကို	-10.2141
ic	-10.2143
▁မမှာ	-10.2146
▁လိုများ	-10.2147
▁ပြောတာ	-10.2148
တာမျိုး	-10.2156
▁ဒီကမ	-10.2156
ရုံ	-10.2157
လျှောက	-10.2158
▁းဖ	-10.2158
▁တိမ	-10.2169
▁တွေးမိတာက	-10.217
▁အခုဆို	-10.2173
▁းဆန	-10.2173
ပြီ	-10.2175
▁ပုံပါ	-10.2181
▁အကြီးဆုံး	-10.2194
မှာတော	-10.2203
▁ပြုစု	-10.2214
▁ခုလုံးကို	-10.2219
ရှုထ	-10.2225
▁အခြားသူတွေ	-10.2249
▁တီးပေး	-10.2261
ခုန	-10.2266
▁ဆုတ	-10.2278
▁တာမျိုး	-10.228
ယနေ	-10.2289
ပက	-10.2311
▁ရှိတာ	-10.2316
▁ပြောန	-10.2332
အသ	-10.2335
▁းစီ	-10.2337
သို	-10.2348
▁မိမိ	-10.2363
▁းမှာပဲ	-10.2384
▁တီးရီးယား	-10.2395
▁of	-10.2396
A	-10.2406
book	-10.2407
ရစ	-10.2409
▁အီးမေးလ	-10.241
▁ပဋိ	-10.2423
▁အများစုက	-10.2464
▁ဒီအတ	-10.2469
▁အားက	-10.2479
▁မတွေ	-10.2494
▁စာသား	-10.2526
▁းတာကို	-10.2529
▁ခလု	-10.2539
ton	-10.254
▁အရာတစ	-10.2546
မျိုးကို	-10.2589
▁ျား	-10.2595
▁နား	-10.2596
▁ခပ	-10.2597
▁ဦးကို	-10.2617
နေထ	-10.2619
▁သွားန	-10.2622
▁းစေ	-10.2638
▁အမှား	-10.2642
ဒီ	-10.2645
▁မပြ	-10.2648
▁O	-10.2657
ညွှ	-10.2667
ရခဲ	-10.2667
▁ပိုးသ	-10.268
▁နေတာက	-10.2681
▁စျေး	-10.2689
▁Face	-10.2701
ေနပ	-10.2704
▁အကြံပေး	-10.2707
▁သယ	-10.2711
▁မပေး	-10.2717
▁ဘီလီယံ	-10.2724
စု	-10.2735
▁စကားလုံးတွေ	-10.2735
▁များများက	-10.2742
V	-10.2752
▁ပိုမြ	-10.2752
▁သတိပေး	-10.2754
▁ပုံရိပ	-10.2755
▁တီ	-10.2757
မျှော	-10.2784
▁ရတော	-10.2786
m	-10.2799
▁ကြီးတွေ	-10.2803
▁ရမလဲ	-10.2807
▁ထူထ	-10.2808
▁ဘေးက	-10.2808
▁ပျိုး	-10.2826
▁ကြီးလာ	-10.2836
ရှိပြီး	-10.2838
ြ	-10.2849
▁စုပ	-10.2854
▁ဩ	-10.2872
is	-10.2876
လာကြ	-10.2884
▁းမျှ	-10.2913
▁ညစ	-10.2915
▁လူကြီး	-10.2924
▁ပြပေး	-10.2939
သေတ	-10.2942
▁သူများ	-10.2948
▁ခုစီ	-10.2952
▁းဘ	-10.2972
▁၉	-10.298
▁သွားမယ	-10.2982
▁ဇီဝဗေဒ	-10.3004
th	-10.3005
▁နံရံ	-10.3008
ပါရစေ	-10.302
လျှော	-10.3023
▁သူတွေပါ	-10.3027
▁မှာကို	-10.3028
ေချ	-10.304
▁များကို	-10.3054
ထိန	-10.3056
လန	-10.306
▁မျိုးကို	-10.3061
မျိုးပေါ	-10.3063
▁းစားမိ	-10.3066
▁လိုမှ	-10.3078
▁အာဏာ	-10.3082
▁ရာသီ	-10.3083
ပွဲ	-10.3091
▁နီ	-10.31
▁တာတွေကို	-10.3103
▁လူအ	-10.311
f	-10.3111
ဆီက	-10.3111
▁မလွ	-10.3114
▁ပွား	-10.3114
▁စာရေးဆရာ	-10.3115
▁ချောက	-10.3121
▁သလဲ	-10.3125
ပွ	-10.3134
▁နေကြတာ	-10.3139
တူ	-10.3151
အလ	-10.3152
မှုက	-10.317
သလိုပဲ	-10.3179
ဟော	-10.3195
v	-10.3206
▁ကွဲ	-10.3209
ပုံပါ	-10.3227
▁ရာကို	-10.323
▁စုပေါ	-10.3231
▁မွေးဖွား	-10.3242
▁ဘာက	-10.3243
▁လာပါ	-10.3247
▁းပန	-10.325
▁းဆိုတာ	-10.3275
▁ဆိုလို	-10.3283
▁းတမ	-10.3306
▁ရေဒီယို	-10.3316
▁ဘာမြေ	-10.3321
▁ရေးသား	-10.3321
▁အဝ	-10.3328
▁အတွေးအ	-10.3334
ကျန	-10.3337
P	-10.3345
လိုချ	-10.336
▁တခုခု	-10.3373
▁ဆိုဒ	-10.338
▁လုံးလုံး	-10.3386
လာစေ	-10.3387
▁ဆိုတာဟာ	-10.3396
▁ကလေးဘဝ	-10.3424
▁လူမ	-10.3432
and	-10.3434
စွပ	-10.3434
မတို	-10.3437
▁ပေးထား	-10.3445
စကား	-10.3445
ဒါ	-10.3446
ဂန	-10.3457
▁စုန	-10.3471
တာမို	-10.3473
▁းမဖ	-10.3476
သွားခဲ	-10.3476
▁ပြုတ	-10.3506
ကြမှာပါ	-10.3518
▁ပြောကြ	-10.3519
▁လူနာ	-10.352
▁တယောက	-10.3522
မဂ	-10.3538
ခု	-10.3545
▁ခုံ	-10.3547
▁ဒီကိ	-10.3548
▁ကိုလ	-10.355
▁ပေးသူတွေ	-10.3551
▁ကူးတွေ	-10.3592
▁အဖြေက	-10.3622
▁နီယာ	-10.3629
ီဂျ	-10.3634
▁Einstein	-10.3639
▁အယူအဆ	-10.3639
▁ဇနီး	-10.3639
▁စမတ	-10.3652
▁မလိုပါဘူး	-10.3654
ဖျ	-10.3661
one	-10.3666
ောဆ	-10.3674
ထိုး	-10.3691
▁သွားတာက	-10.3696
▁အကျိုးသ	-10.3702
▁မရှိပါ	-10.3711
▁ဆွဲဆ	-10.3713
▁မှုန	-10.3717
ဖေါ	-10.3722
▁ပုံက	-10.3723
▁မကျ	-10.3724
အက	-10.3734
သာမက	-10.374
▁ပုံတူ	-10.3762
▁ချမ	-10.377
လျော	-10.3774
▁အမေရိကမှာ	-10.3779
man	-10.378
▁သူတွေဟာ	-10.3785
အပ	-10.379
▁၁၆	-10.3791
▁မခံ	-10.3797
မိန	-10.3805
▁ညံ	-10.3823
သမျှ	-10.3828
▁အာ	-10.3831
op	-10.3842
▁အဲဒီကို	-10.3844
ကြွ	-10.3856
la	-10.3875
▁ဆေးဝါး	-10.3882
▁ခမ	-10.3888
▁းမား	-10.3893
▁Br	-10.3911
▁ဆုံးရှုံး	-10.3918
▁တွေရှိ	-10.3922
ေးကြ	-10.3925
▁ဓာဗေဒ	-10.3926
▁ခုမှ	-10.3943
▁ပုံစံကို	-10.3944
▁ဒီကို	-10.3945
လှုပ	-10.3949
▁ရေးဆွဲ	-10.3965
▁ဒီမိုကရေစီ	-10.3972
▁ဆု	-10.3973
ကျေးဇူးအများကြီး	-10.3989
▁မတူညီ	-10.3993
▁ရှားစရာ	-10.4002
▁ပူ	-10.4003
မှုတွေကို	-10.4007
▁ကြားခံ	-10.4013
▁လာမှာပါ	-10.402
▁ဒိ	-10.4022
▁အပူ	-10.4026
▁ဟောဒီမှာ	-10.4032
လီ	-10.4035
▁အဆုံးမှာ	-10.4042
K	-10.4057
မျှ	-10.4058
▁သမားတွေ	-10.4069
▁လအ	-10.4076
▁းအဝ	-10.4078
လာန	-10.4081
▁းလဲသွား	-10.4086
▁အာရုံကြော	-10.4087
နာရီ	-10.4092
▁တွေကနေ	-10.4096
▁ရာနှ	-10.4113
▁ဗိသုကာ	-10.4116
▁ထိရ	-10.4119
▁တွေးကြ	-10.4125
မှုပါ	-10.4139
▁အရာကို	-10.4142
▁ရောဂါတွေ	-10.4155
▁ဝါကျ	-10.4163
နံ	-10.4174
▁ချော	-10.4176
▁သိရ	-10.4184
▁းခ	-10.4185
နေလို	-10.4188
▁ဗျားက	-10.4195
▁အများပြ	-10.4218
▁အထဲမှာ	-10.4227
▁ရှူ	-10.4228
ာရပ	-10.4239
▁ဆိုတာမျိုး	-10.4269
▁ထုတွေ	-10.428
▁ပြောနေတာ	-10.4311
▁Google	-10.4317
▁အဆိုးဆုံး	-10.4317
▁ဂေါ	-10.4318
▁မူတ	-10.4323
▁ကနေပြီး	-10.4331
▁သူတွေက	-10.4337
▁းယူ	-10.4339
▁ရိုးရိုး	-10.4345
▁ဘူးလား	-10.4352
▁းကျော	-10.4354
▁ရမှာ	-10.4356
▁ကဏ	-10.4373
▁ပြနေ	-10.4391
▁နှလုံး	-10.4399
▁ထားပြီး	-10.4402
ာနဲ	-10.4404
▁အရေပြား	-10.4408
▁ကြို	-10.4414
▁ပျိုးထ	-10.4424
▁ပြဿနာကို	-10.4425
▁းခြေ	-10.4431
▁ကူပေး	-10.4431
▁အခြားသူ	-10.4435
ဥ	-10.4436
▁အအုံ	-10.4443
▁သုံးကြ	-10.4446
▁းဆီ	-10.4448
၉	-10.445
▁းပြန	-10.4452
R	-10.4453
▁ခိုး	-10.4459
▁းပြော	-10.4477
▁လိုဖွ	-10.4485
▁ကူးယ	-10.4488
ါ	-10.4495
၀၀	-10.4498
▁တွေအ	-10.4501
▁ဝိရောဓိ	-10.4501
▁ပြောဖို	-10.4503
ch	-10.4504
▁ကဆီကို	-10.4508
ie	-10.4511
ဗ	-10.4514
▁စားစရာက	-10.4514
▁းနှီးမှု	-10.4517
တွေကနေ	-10.4536
▁အစီ	-10.4542
▁တိုး	-10.4573
▁သွားစေ	-10.4576
li	-10.4578
▁ကုသမှု	-10.4585
▁လွှာ	-10.4588
sh	-10.4597
▁အမျိုးအစား	-10.4602
ကြီးကို	-10.4604
▁သိလို	-10.4613
▁လုံခြုံ	-10.462
▁အာဖ	-10.4621
▁းအချ	-10.4632
▁ခုအ	-10.4647
▁စျေးက	-10.465
ur	-10.4663
▁ဘာမှမ	-10.4671
မသိ	-10.4673
▁ရာသီဥတု	-10.4675
▁သေဆုံး	-10.4681
▁ပေးပြီး	-10.4687
▁သူပြောတာက	-10.4688
မျိုးပါ	-10.4697
▁ဟေး	-10.4699
▁ကြဘူး	-10.4708
▁လဲဆိုတာ	-10.4713
ငွေ	-10.4715
▁ဒီဂျ	-10.4723
▁ကြပေမ	-10.474
▁မကြာသေး	-10.4745
oin	-10.4747
ရှိတာ	-10.4763
လွှာ	-10.4765
▁မေးကြ	-10.4768
▁ကြီးထွားမှု	-10.4779
▁ကြိုတ	-10.478
ပြီလေ	-10.4798
ma	-10.4809
▁နိ	-10.4831
▁ဓ	-10.4834
မျိုးစုံ	-10.4835
▁၁၃	-10.4835
ပြောရ	-10.4838
▁ငါးန	-10.4839
တီ	-10.4849
တိုး	-10.4858
ပဲလို	-10.486
▁းပတ	-10.4862
▁Ma	-10.4881
ဗျ	-10.4882
▁လေထု	-10.4885
▁လုံးမှာ	-10.4889
▁အဲဒီက	-10.4906
တကယ	-10.4909
▁ပြစ	-10.4924
▁လေးကို	-10.4936
▁ကျား	-10.494
▁ချိုး	-10.4954
▁ဆုပ	-10.4975
▁အလှ	-10.4997
ှန	-10.4997
▁ကိုး	-10.5002
မရှိပါဘူး	-10.5006
▁သြ	-10.5015
▁အစိုးရက	-10.5016
▁စားမှု	-10.5023
▁နေကျ	-10.5023
▁ငံမှာ	-10.5028
▁the	-10.5034
ရမှာ	-10.5039
▁စာကို	-10.5044
မီ	-10.5044
ေဂျ	-10.5044
▁တားဆီး	-10.5057
သွားတာ	-10.5058
▁W	-10.5059
▁းဂဏ	-10.5062
Tu	-10.5071
▁ကြေး	-10.5072
▁ပုံရ	-10.5081
▁မှပဲ	-10.5083
ကလေး	-10.5089
▁လျား	-10.5117
လျောက	-10.5117
▁ခံန	-10.5129
▁ကျစရ	-10.5154
▁နှာကို	-10.5157
▁သွားလို	-10.517
▁အခမ	-10.5177
▁းဖော	-10.5184
းမြေ	-10.5186
▁းညွှ	-10.5189
at	-10.5198
▁ကျပ	-10.521
▁မိမိကို	-10.5218
တွေရှိ	-10.5222
▁လာတာပါ	-10.5228
ခွဲ	-10.5272
▁မျိုးစုံ	-10.5277
▁စရာပါ	-10.5279
ခံလိုက	-10.528
ကျူးလ	-10.5283
ယျ	-10.5286
me	-10.5288
▁လူကြီးတွေ	-10.529
▁မရှိတော	-10.5294
▁ဒရာ	-10.5296
▁ဖြိုး	-10.5303
▁ပြဿနာတွေ	-10.5304
▁မောသံ	-10.5311
လျှ	-10.5323
▁၉၀	-10.5329
▁ပြောနေ	-10.5357
▁ဂျပ	-10.5369
▁ဗဟို	-10.5374
သွားပြီ	-10.5412
ဗေဒ	-10.5417
▁ကလေးကို	-10.5421
▁အသေးစား	-10.5431
▁ဒီပြဿနာ	-10.5439
▁ဖိ	-10.544
▁မသုံး	-10.5441
▁ကျဆ	-10.545
▁အကြီးမားဆုံး	-10.546
ရပါမ	-10.5462
▁လာမှာ	-10.5477
▁စွ	-10.5482
မျိုးတွေ	-10.5486
▁အဆို	-10.5492
re	-10.5494
▁ငွေကို	-10.5501
▁အနေအထား	-10.5505
▁တဒ	-10.5508
နေတာကို	-10.5508
▁အရက	-10.5516
tes	-10.5518
▁Li	-10.5519
▁းစုံ	-10.5525
▁ပြောပါ	-10.5541
▁ရတာကို	-10.5563
da	-10.5566
▁ခရီးထ	-10.5573
အနှံ	-10.5578
O	-10.5582
▁မကတော	-10.5583
းတက	-10.5585
ဘဝ	-10.5587
ကနေပြီး	-10.5588
▁အထပ	-10.5595
ကိုလ	-10.5597
▁အကြားမှာ	-10.5602
B	-10.5607
▁ကြီးကျ	-10.5614
သူတွေဟာ	-10.5621
▁လွှား	-10.5622
အများစု	-10.5626
▁နေပါပြီ	-10.5647
▁နှလုံးသား	-10.5664
▁ကွဲပြား	-10.5664
▁မရပ	-10.5665
▁ညှိ	-10.567
မိတာက	-10.5673
▁ပေးနေ	-10.5682
▁ရှားတဲ	-10.5684
▁အလေ	-10.5688
▁ဒီစာ	-10.5698
သူတွေကို	-10.57
▁စလုပ	-10.5702
ရာတွ	-10.5714
▁မချ	-10.5715
ထားတာက	-10.5729
ရိုး	-10.5739
▁လီ	-10.5753
▁သိသာ	-10.5758
▁ဟောဒီ	-10.5758
▁လှေ	-10.5759
ra	-10.5768
ရီ	-10.5776
▁ကြပါဘူး	-10.5779
▁မျှ	-10.5802
▁းရပ	-10.5806
▁မိကြ	-10.5807
▁မှုဆို	-10.5812
▁အဖိုး	-10.5823
▁ဖျား	-10.5828
▁ဒေသတွ	-10.5828
▁ရူပဗေဒ	-10.5829
▁အတူတကွ	-10.5829
▁ရှာကြံ	-10.583
▁ဘာများ	-10.5833
မူ	-10.5834
▁အရာဝတ	-10.5835
▁ဟာသ	-10.5837
▁ရာစုနှ	-10.5838
▁ဆရာတွေ	-10.5846
ှောက	-10.5849
▁မူလ	-10.5857
▁မကြ	-10.5859
▁းထွ	-10.586
▁Park	-10.5863
▁အများအပြား	-10.587
ကြတာပါ	-10.5883
▁းထဲကို	-10.5886
ညံ	-10.5888
▁နားဆ	-10.5894
▁သုံးနေ	-10.5896
▁သဘာဝကျ	-10.5905
▁မှာကျ	-10.5912
▁းစက	-10.5914
itc	-10.5923
▁ပိုပို	-10.5928
▁အရပ	-10.5932
▁ရထား	-10.5959
▁းကွ	-10.5972
လုံ	-10.5973
▁မဆ	-10.5988
ချပ	-10.6003
▁ပလ	-10.6005
▁နေကာ	-10.6011
▁ပြပွဲ	-10.6018
▁လူမျိုး	-10.6022
ဟေ	-10.6023
တာတွေကို	-10.6035
▁တဝါတွေ	-10.6049
▁အစားအ	-10.6054
▁းအတာ	-10.6066
amb	-10.6071
ဆပ	-10.6072
▁တိရှိ	-10.6077
လဲလို	-10.6097
မိတ	-10.61
သမား	-10.6104
▁ခြေရာခံ	-10.6104
▁အရိုး	-10.6111
▁ဒီတ	-10.6116
▁မရှိတာ	-10.6116
နေကြတာ	-10.6146
ဒေါ	-10.6151
ကြပြီး	-10.6165
နေပါပြီ	-10.6171
▁းကလေးတွေ	-10.6175
▁တွေဆီ	-10.6178
ut	-10.6186
ှ	-10.6188
▁ကပါ	-10.6192
▁လူအများစု	-10.6195
ss	-10.6206
▁းပုံ	-10.6226
▁ဘဝက	-10.6233
▁Ch	-10.6242
▁ငံခြား	-10.6247
▁အရာအားလုံး	-10.6261
▁စာပေ	-10.6263
▁းလဲပေး	-10.6273
▁ရစ	-10.6275
▁ကားတွေ	-10.6276
▁ကွာ	-10.6277
ျယ	-10.6279
▁လုံးတွေ	-10.6284
▁Niger	-10.6286
▁ဆိုးဝါး	-10.629
▁ပြာ	-10.6294
▁နတ	-10.6301
▁ဘီး	-10.6309
ho	-10.6319
ဌာန	-10.6327
▁ခံနေရ	-10.6327
▁ဆပ	-10.6352
▁ဘာသာစကားကို	-10.6357
▁အပါအ	-10.6361
▁Se	-10.6368
းမြ	-10.6381
▁းသားတွေကို	-10.6388
▁ကဒ	-10.6402
▁ရပါမ	-10.6405
▁မိနေ	-10.6409
▁ဩစရာ	-10.641
ဆိုပြီး	-10.6413
▁အာကာသ	-10.6416
▁ခံစာ	-10.6451
▁းမှာပါ	-10.6455
▁အားကိုး	-10.6458
et	-10.6458
▁ဒါမျိုး	-10.6459
▁ပြလိုက	-10.6459
ရွှေ	-10.647
▁ကြီးထွားလာ	-10.6477
all	-10.6482
▁ဖီ	-10.6486
▁နှေး	-10.6488
▁တာပါပဲ	-10.6488
အခွ	-10.6503
▁စံ	-10.6508
ဆိုတာက	-10.651
တခု	-10.6513
▁းသ	-10.6528
ike	-10.6541
သေးတာက	-10.6546
▁ရမှာက	-10.6548
အများကြီး	-10.6552
ကြတာ	-10.6558
▁မီဒီယာ	-10.6559
▁ဒီနေရာ	-10.6559
▁နှံမှု	-10.6559
▁းလုံး	-10.6586
▁မှာလ	-10.6592
ကြီးပါ	-10.6609
▁ဍာ	-10.661
▁ပိုရှ	-10.661
ကိုယူပြီး	-10.6621
▁ကေတ	-10.6627
မိုက	-10.6643
▁အမှု	-10.6662
သလိုမျိုး	-10.6672
▁သလိုမျိုး	-10.6676
▁တွေလို	-10.6677
တပ	-10.668
▁ငံတကာ	-10.6682
ခြား	-10.6687
အပိုင	-10.6696
▁သတိရ	-10.6698
▁လေထီး	-10.6707
ကြီးတွေ	-10.6712
▁မပါ	-10.6719
▁မိတာ	-10.6722
▁တုပ	-10.6723
လေးက	-10.6727
▁နေမှာ	-10.6732
▁ပုံပေါ	-10.6734
▁အကူ	-10.6734
▁ဒီဂ	-10.6739
▁ခွဲစိ	-10.6739
▁ပြောကြား	-10.674
သီချ	-10.6743
▁အမျိုးသမီးတွေဟာ	-10.6751
▁းပါပြီ	-10.6753
ကြရ	-10.6759
▁စကေး	-10.6767
ံဆိ	-10.6768
တာကိုပါ	-10.6774
▁မှုအ	-10.6775
▁မှုတွေက	-10.6794
▁အထား	-10.6799
▁တဦး	-10.6802
▁Mo	-10.6804
▁ပေးချ	-10.6805
▁လျှ	-10.6823
▁ပါမ	-10.6823
ကြားက	-10.6829
▁ဆိုတာပါပဲ	-10.6834
ရှိပေမ	-10.6837
ဆေး	-10.6861
▁ဒီကနေ	-10.6864
▁အတု	-10.6864
▁လော	-10.6867
ပြောတာ	-10.6874
မှာလား	-10.6883
ငါ	-10.6891
▁လူနာတွေ	-10.6905
▁ပြပါ	-10.691
▁ကျီ	-10.6915
ပြောတာက	-10.6916
▁၆၀	-10.6921
▁းသိ	-10.6928
ဆီမှာ	-10.6929
အံ	-10.693
▁သုတ	-10.6932
သေ	-10.6936
▁ဘူးဆိုတာ	-10.6951
▁အရေးကြီးဆုံး	-10.6955
ang	-10.6956
▁ရေအ	-10.6968
▁အအုံတွေ	-10.697
၆	-10.6979
▁ရပြီ	-10.6986
▁အဲဒီလူ	-10.6994
ir	-10.7013
▁စီမံကိ	-10.7023
▁ထားရ	-10.7038
▁းပွ	-10.7048
▁အသံတွေ	-10.7048
▁ယူလာ	-10.705
ri	-10.7056
▁ဆံမှု	-10.7059
▁Andr	-10.7068
ဘဝဟာ	-10.7076
ad	-10.7088
▁စားသ	-10.7091
▁ဟေ	-10.7102
▁ငံသား	-10.7115
ေးမြ	-10.7116
အိပ	-10.7118
▁နေနေ	-10.7118
▁You	-10.7119
id	-10.7126
▁ဟောပြော	-10.7132
▁ထာဝရ	-10.7135
▁စေတနာ	-10.7135
▁Appl	-10.7135
▁မကြာခဏဆိုသလို	-10.7135
▁အပြုသဘော	-10.7135
▁Tom	-10.7136
▁US	-10.7137
▁ယူရ	-10.714
မော	-10.7141
▁တာလို	-10.7143
▁နေရာက	-10.7154
▁တုံတရား	-10.7165
▁ကိုမှ	-10.7168
▁နေပြီ	-10.7168
▁ရာဇဝ	-10.7185
▁ဂျူး	-10.7187
▁ကြတာက	-10.7204
▁မြေအ	-10.7204
▁၁၉၈	-10.7218
▁ကြပြီး	-10.7226
▁ထိတ	-10.7236
▁မတတ	-10.7236
▁ရယူန	-10.724
▁တာလေ	-10.7241
▁ဒါတွေအားလုံး	-10.725
▁ရှိပါသ	-10.7251
လောလ	-10.7266
များစွာ	-10.7269
စာအု	-10.7271
ထားတာ	-10.7272
▁ကိရိယာတွေကို	-10.7272
▁ပိုမို	-10.7275
▁ရှိမှာ	-10.7276
သွားပါပြီ	-10.7276
▁းပညာက	-10.7277
သမ	-10.7278
▁တိုးလာ	-10.728
▁ဝေး	-10.7285
ရေးကို	-10.7295
လာတာ	-10.7298
ပြား	-10.7299
▁နေရာတွေကို	-10.7302
▁ညှ	-10.7309
▁ကြလဲ	-10.7323
ီးဆ	-10.7324
▁းတာပါ	-10.7331
G	-10.7335
ုက	-10.7341
▁သေန	-10.7348
▁ဒီလူတွေ	-10.7351
▁ဆိုပေမ	-10.7353
▁သုံးခု	-10.7357
▁းစု	-10.7362
▁သုံးရ	-10.7363
▁ခွာ	-10.7365
▁ရှိနေတာ	-10.7366
▁လူတော	-10.7367
▁ရူး	-10.7376
ရလာ	-10.7387
တာလေ	-10.7395
ပုံဟာ	-10.74
မျ	-10.7402
▁းကပါ	-10.741
ပြောနို	-10.741
▁ဒီစက	-10.7421
▁လုံးက	-10.7431
▁းအကျ	-10.7432
ီးကပ	-10.7437
ian	-10.7451
▁ဒီအရာ	-10.7453
▁းလေးတွေ	-10.746
▁ပေးပါ	-10.7462
▁၂၁	-10.7463
သေးပါဘူး	-10.7465
ရိယာ	-10.7465
▁Y	-10.747
▁ဒို	-10.7487
ဝို	-10.749
▁မလာ	-10.7501
လေလေ	-10.7501
▁စတွေ	-10.7506
ဟန	-10.7507
ill	-10.7512
မှသာ	-10.7514
▁းပု	-10.7524
ဖြေ	-10.7525
နေပြီ	-10.7536
ac	-10.7539
▁ပေးသူ	-10.7541
de	-10.7546
▁သီ	-10.756
▁စရာကြီး	-10.756
▁အခြေ	-10.756
းမြှ	-10.7575
▁းရုံး	-10.7575
ီးငွေ	-10.7575
▁နူး	-10.7588
▁စာကြ	-10.7588
▁ခံရတဲ	-10.7596
▁စကို	-10.7605
▁သိသိသာသာ	-10.7611
▁Stev	-10.7611
▁အာဒံ	-10.7611
▁းပကား	-10.7612
▁ခံယူ	-10.7619
▁းစားနေ	-10.7628
▁Free	-10.7629
▁ချီပြီး	-10.7633
ဆိုး	-10.7633
▁းစာအ	-10.7635
▁၇၀	-10.7647
ူင	-10.7648
▁မလိုဘူး	-10.7652
IS	-10.7654
ရွာ	-10.7663
land	-10.7665
▁Lo	-10.7667
ဆိုပါ	-10.7667
ပုံရ	-10.7674
▁လစ	-10.7681
▁ငါက	-10.7689
▁ဒီမ	-10.7691
▁မီးလုံး	-10.7692
▁သေခံ	-10.7699
▁များများမှာ	-10.7704
▁ကြိုးစားနေ	-10.7705
▁အများကြီးရှိ	-10.7705
▁လွှားက	-10.7711
တရား	-10.7721
စုံ	-10.7725
▁အမေက	-10.7726
▁းပဲလေ	-10.7727
ရရှိ	-10.7735
▁တေးသွား	-10.774
▁များများကို	-10.7751
▁အခုလို	-10.7751
တွေအ	-10.7755
it	-10.7765
▁ဖိုးရှိ	-10.7769
▁ယန	-10.7776
▁တဝါ	-10.7778
▁လာလို	-10.7783
▁းကမှ	-10.7811
▁ဝေဖ	-10.7812
▁ဆရာမ	-10.7823
▁းလား	-10.7824
တီး	-10.7842
▁ငို	-10.7851
▁အရာက	-10.7868
▁Le	-10.7869
▁းစရာ	-10.788
ဒေသ	-10.7881
▁နီးပါး	-10.7882
dy	-10.7884
ow	-10.7885
▁ပါနဲ	-10.7893
▁ပြုံး	-10.7893
▁၂၄	-10.79
▁ကူးက	-10.79
▁ပိုကြီး	-10.7907
တွက	-10.7911
▁ဖုံး	-10.7923
▁မသာ	-10.7929
မြှ	-10.7933
▁ပွဲတွေ	-10.7951
ေးကွ	-10.796
ရတာက	-10.7963
လာရ	-10.7966
▁မထိ	-10.7983
▁းအတို	-10.7987
▁ရှိတာက	-10.7997
▁စူး	-10.8032
ရှုပ	-10.8037
▁ရှုခ	-10.8048
▁အမျိုးသားတွေ	-10.8048
တွေဆီ	-10.8061
▁ခုကနေ	-10.8062
um	-10.8064
ar	-10.8064
▁ပြောလို	-10.8074
▁းရဲသား	-10.8076
▁အစိုးရတွေ	-10.8077
ီတယ	-10.8079
▁ကြမှာပါ	-10.8085
▁ရှားမှုတွေ	-10.8087
▁မြေပြ	-10.8102
▁ကံဆိုး	-10.811
နိမ	-10.8111
▁Dreyf	-10.8111
▁LED	-10.8111
▁ဝါသနာ	-10.8111
▁သမရိုးကျ	-10.8111
▁မျိုးရိုးဗီဇ	-10.8111
▁းဘူး	-10.8112
▁ကရုဏာတရား	-10.8113
▁ကလေးမလေး	-10.8114
ချာချာ	-10.8114
ားတွေ	-10.8122
▁းလဲစေ	-10.8122
▁သေးသေးလေး	-10.8126
ယူပြီး	-10.8129
▁လီကျူး	-10.8134
▁ဆိုလိုတာပါ	-10.8135
▁St	-10.815
ပုံတွေ	-10.8152
▁ကြာကြာ	-10.8157
ဘူးဆိုရ	-10.8169
▁iP	-10.8171
▁မီးဖို	-10.8173
▁ဂျာ	-10.8175
▁မှုမှာ	-10.8177
▁ဂရုမ	-10.818
▁တီးနေ	-10.8186
ပူ	-10.82
▁ဆူ	-10.8201
▁ပြဿနာတွေကို	-10.8205
▁အဲဒီနေ	-10.8213
▁မရှ	-10.8213
▁တဖြ	-10.8215
ကြီးနဲ	-10.8215
▁ရာတွေ	-10.823
▁စားသုံးသူ	-10.8248
▁သိလား	-10.825
ဆိုတာပါ	-10.8266
ပါနဲ	-10.8272
▁မိဘ	-10.8273
▁ထူ	-10.8273
▁ခရီးစ	-10.8283
များဖြ	-10.8289
▁စားဖို	-10.8292
နေရာပါ	-10.8296
▁ဆုံးတော	-10.8297
▁ရှိတာကို	-10.8302
▁နေကြတာပါ	-10.8304
မွေး	-10.8313
▁ဓာတု	-10.8314
▁ခရာ	-10.8319
▁ပြလို	-10.8319
တွေးမိ	-10.8333
▁ဒန	-10.8359
ွေး	-10.8364
▁Jo	-10.837
တုံး	-10.8384
▁ဟပ	-10.8386
▁ကြရပါ	-10.8394
လေးပါ	-10.8407
တာကိုး	-10.8412
E	-10.8415
▁သွားတော	-10.8419
▁လှော	-10.8444
▁ခုတော	-10.8448
▁မလ	-10.8449
▁မဆီ	-10.8465
▁တွေကတော	-10.8468
ှပ	-10.847
လဲဆိုတာကို	-10.8481
ကြတာက	-10.8497
ce	-10.8506
▁းပြောရ	-10.8507
▁ပိုတော	-10.8508
▁ခဏာတွေ	-10.8512
ကြတာလဲ	-10.8513
▁ဘဝအ	-10.8519
ပေးတာ	-10.8523
▁ဘာလုံးက	-10.8533
▁ချီးကျူး	-10.8556
စာရ	-10.8561
ell	-10.8578
▁ပေးလို	-10.8581
▁းလဲလာ	-10.8583
လိ	-10.8599
ational	-10.8599
▁အစာ	-10.8603
▁ဒယ	-10.8618
▁တီဗွီ	-10.8638
▁Georg	-10.8638
▁ဗြိတိ	-10.8638
▁ရာချီ	-10.8642
▁ထိုးဖော	-10.8643
eech	-10.8647
▁ငံတွေ	-10.8651
▁ထုပ	-10.8653
▁အခုအခါမှာ	-10.8661
▁မပြတ	-10.8663
▁ဒီနေရာကို	-10.8666
▁ပထမဆုံးအက	-10.8674
▁ပြောပြပါ	-10.8685
▁Te	-10.8688
▁l	-10.8693
အားလုံးဟာ	-10.8695
▁ကနေဒါ	-10.8709
▁းအားကို	-10.8715
▁သူမဆို	-10.872
▁းအားပေး	-10.8727
▁စကားလုံးတွေကို	-10.8732
ပွား	-10.8736
▁သုသ	-10.8736
▁ငှား	-10.8748
▁ရှားမှုကို	-10.8752
▁အနီး	-10.8773
ေးခဲ	-10.878
ားကို	-10.8782
▁ကျတဲ	-10.8783
▁နှာပေါ	-10.8792
ကြပါဘူး	-10.8793
▁ထရ	-10.8816
▁ကြိုးစားကြ	-10.8821
▁Bi	-10.8831
▁ဆွ	-10.8835
▁စီးပွားရေးကို	-10.8836
▁မျော	-10.8839
▁ဆေးတွေ	-10.8842
တွေလိုပဲ	-10.8843
▁ရှိပါပြီ	-10.8848
သုံးလို	-10.8849
▁လာပါပြီ	-10.8854
L	-10.8862
တာတို	-10.8878
▁လာကာ	-10.8882
▁ကျိုး	-10.8883
▁းခွ	-10.8887
▁တရားကို	-10.8897
ခံရတဲ	-10.89
▁ကျေး	-10.892
▁အားလုံးမှာ	-10.8921
ေးဟ	-10.8926
▁တာကိုး	-10.8931
pe	-10.8931
တာပဲ	-10.8936
▁မိဘတွေက	-10.8939
▁တာရှ	-10.8941
▁ပွန	-10.8945
တုံ	-10.8948
▁စောစော	-10.8966
အစီအ	-10.8967
▁ပါလား	-10.8972
▁ဒီအခ	-10.8989
▁သတိ	-10.8994
ဝါ	-10.8996
▁အဖ	-10.901
▁ဒါကနေ	-10.9027
▁ဘာပဲ	-10.9031
ထားပြီး	-10.9035
▁တီးလိုက	-10.9035
သီတ	-10.9037
▁၁၇	-10.9038
ly	-10.9042
▁စာန	-10.9042
သလဲ	-10.9044
▁a	-10.9069
ပံ	-10.907
▁းကာ	-10.9079
ကြော	-10.9088
▁သွားနေ	-10.9091
ff	-10.9091
နေပေမ	-10.9098
▁ကျရှုံး	-10.91
ide	-10.9106
လာနေ	-10.9114
▁အရာများ	-10.9123
▁ပုံစံမျိုး	-10.9139
▁သိလာ	-10.9141
အို	-10.9144
▁မလုံ	-10.9148
▁းမိ	-10.915
ကြဘူး	-10.9153
▁စာမေးပွဲ	-10.9157
▁အကြီးအက	-10.917
ခါ	-10.9174
တိရစ	-10.9174
ခံစားရ	-10.9174
ပြပါရစေ	-10.9189
▁Chris	-10.9192
GO	-10.9192
▁John	-10.9193
▁မိုးလေဝသ	-10.9193
▁နိဂုံး	-10.9193
▁လေဆာ	-10.9193
▁းခုံ	-10.9194
▁ဒိုဒို	-10.9194
▁ကုစား	-10.9194
▁အဏုမြူ	-10.9195
▁ရွေးစရာ	-10.9197
▁သွားပြီ	-10.9199
▁AI	-10.9199
▁ပြဌာန	-10.921
▁ထူးခြားမှု	-10.921
▁ဆေးရုံ	-10.9211
▁ဒါမှ	-10.9212
▁သဘာဝတရား	-10.9217
▁ကားမော	-10.9222
▁လာမှုတွေ	-10.9226
▁နေစ	-10.9227
▁သုံးတာ	-10.9233
▁နေရာတွေမှာ	-10.9235
▁Mal	-10.9237
▁မတွေး	-10.9241
▁စေပြီး	-10.9248
▁အူ	-10.9255
▁လွဲ	-10.9265
းတွေ	-10.928
ာပေါ	-10.9285
▁ရံ	-10.9288
▁ကုထုံး	-10.9299
▁စံန	-10.9303
▁မလေး	-10.9306
▁းစန	-10.9314
▁းနေတာ	-10.9315
▁ပါသလား	-10.932
▁မိသားစုကို	-10.9325
▁ကိုသွား	-10.9327
▁တား	-10.9331
▁နှလုံးခ	-10.9337
▁ကာတွ	-10.9343
▁းသေ	-10.9345
▁ပီ	-10.9345
▁အခုအ	-10.9355
▁ပြီးသွား	-10.937
▁အလေးအ	-10.9372
▁ဘာကြီးက	-10.9379
▁ဒီအပို	-10.9383
သဏ	-10.9383
လိုဟာမျိုး	-10.9408
▁ပဏီတွေက	-10.9412
▁Pro	-10.9428
▁သွားပါ	-10.9429
▁မှာရှိ	-10.9439
အထ	-10.9439
ler	-10.945
▁ခုခံ	-10.9453
ြီး	-10.9454
▁မှုမျိုး	-10.9454
tin	-10.9458
▁ပေးတာပါ	-10.9465
▁းကမ	-10.9468
▁ဒီအဆ	-10.9469
ရတာလဲ	-10.9484
▁လွှဲ	-10.9491
▁ငြာ	-10.9495
လေးမှာ	-10.9497
▁ငါဟာ	-10.9505
▁ရေကို	-10.9507
▁သေပြ	-10.9528
▁သုံးစွဲ	-10.9529
▁ဒီလေ	-10.9531
ပြဿနာ	-10.9538
ပါး	-10.9544
Sp	-10.9554
ကူး	-10.9559
▁ကြားပေး	-10.9565
အခြေအနေ	-10.9568
စေန	-10.9573
▁းမိုး	-10.9584
▁ရမှာပါ	-10.9592
▁အများကြီးပါ	-10.9598
▁ခံရတာ	-10.9598
▁လူကို	-10.9604
▁လေးပါ	-10.9616
▁းသုံး	-10.9623
အန	-10.9625
▁ခုပဲ	-10.9628
▁ထားပါ	-10.9629
▁တယော	-10.9634
▁ဆုံးက	-10.9641
▁ရမှာလဲ	-10.9642
▁အများကြီးကို	-10.9659
▁ပုံစံတွေ	-10.968
▁ဘုံ	-10.9681
လွဲ	-10.9684
▁မသေချာ	-10.9685
▁ရှာကြ	-10.969
▁ကု	-10.969
လေးတွေကို	-10.9696
ရွေ	-10.9697
▁လာပြီ	-10.9699
ခတ	-10.9706
▁Wa	-10.9708
ုဇ	-10.9717
▁၁၀၀၀	-10.9719
▁ရုံပါ	-10.9733
▁ဂလာ	-10.9733
▁းတက	-10.9735
တိုးချ	-10.9739
co	-10.9745
နေတတ	-10.9748
▁၃၀၀	-10.9751
▁ဂါတွေ	-10.9753
▁ကူးန	-10.9753
တွေအားလုံး	-10.9756
▁းခြံ	-10.9756
လာအော	-10.9757
▁ဖိစီးမှု	-10.9761
▁များစွာမှ	-10.9763
▁ဂူ	-10.9771
▁အကြား	-10.9779
လားဗျာ	-10.9779
▁ခုချ	-10.978
▁များပြားလှ	-10.9781
▁တေးဂီတ	-10.9781
▁ခုစလုံး	-10.9782
▁အနီရ	-10.9782
▁SP	-10.9783
▁းမယ	-10.9783
▁NP	-10.9783
▁SS	-10.9785
▁ထိုးထွ	-10.9787
▁အဲဒါတွေက	-10.9787
▁မေးစရာ	-10.9789
▁းမံ	-10.9793
▁စုဆော	-10.9795
▁စတု	-10.9803
ရုံမက	-10.9808
▁ဘာမဆို	-10.9812
▁သိလာရ	-10.9813
▁အီ	-10.9815
▁သီအိုရီ	-10.9816
▁ကွာခြား	-10.9817
ith	-10.9818
ast	-10.9824
▁ရှာဖွေတွေ	-10.9826
▁ဒီအသံ	-10.9828
▁မျှတ	-10.9829
ion	-10.9831
▁းသီး	-10.9839
▁စကားဝ	-10.9849
ာတွေ	-10.9849
▁မပြောနို	-10.9852
▁ရုံးခ	-10.9863
▁အကြုံကို	-10.9868
▁ပြူတာတွေ	-10.9869
▁ဟောပြောချ	-10.9878
▁ကွေး	-10.988
ပိုပြီး	-10.9882
▁တီးတာ	-10.9888
▁in	-10.99
ကိရိယာ	-10.9905
▁မြေကြီး	-10.9915
▁အလွှာ	-10.9921
▁းပညာတွေကို	-10.9927
▁တွေလ	-10.993
▁းအရာတွေ	-10.9939
▁းကား	-10.9949
▁းရိုး	-10.995
▁သာရ	-10.9951
မရ	-10.9956
▁ျားတွေ	-10.996
▁ဝါဒ	-10.9961
သူတွေပါ	-10.9962
▁မထား	-10.9962
ဘူးလေ	-10.9977
ဖူးလား	-10.9987
▁ထားနို	-10.9995
▁သိနေ	-11.0001
▁ဆိုတာကိုပါ	-11.0018
ဆိုပေမ	-11.002
▁မဘဝ	-11.0027
▁းပညာတွေ	-11.0027
▁Ya	-11.0032
ah	-11.0035
▁ပဲလို	-11.0041
▁အတားအဆီး	-11.0051
▁ပါးက	-11.0054
▁ရေခဲစ	-11.0054
▁ne	-11.0056
▁စာတွေ	-11.0063
▁ဆိုတာပဲ	-11.0063
▁၁၉၆	-11.0067
နာမ	-11.0071
▁သေးပါဘူး	-11.0072
st	-11.0075
▁ဆိုတာတွေ	-11.0076
ကြသူတို	-11.0084
▁ရလား	-11.0092
▁ဆံပ	-11.0094
▁အထိကို	-11.0097
▁ကြေညာ	-11.0101
▁ပြီးပြ	-11.0109
▁းတူ	-11.0115
▁ရပြီး	-11.0117
▁လုံးပါ	-11.0127
▁ပုံတ	-11.0132
▁အလေး	-11.0135
▁လာလ	-11.0146
▁ကျွ	-11.0153
▁ပါစေ	-11.0156
ကြီးကျ	-11.0159
▁ဆွဲထား	-11.0162
ca	-11.0168
▁မှုဆိုတာ	-11.0169
သိမ	-11.0176
▁သတိထား	-11.018
▁ကလာ	-11.0184
▁၁၉၉	-11.0191
▁ချရ	-11.0201
ရိ	-11.0202
▁ဒီလိုပါ	-11.0218
းလိုက	-11.0219
တွေအများကြီး	-11.0221
ood	-11.0223
အခိုက	-11.0226
▁းအလဲတွေ	-11.025
ရမှာပါ	-11.0254
▁ဦးဦး	-11.0255
▁ဆိုလိုတာ	-11.0263
ကြီးပြ	-11.0265
▁းခေါ	-11.027
▁အစု	-11.0273
▁Je	-11.0275
▁းသူတွေ	-11.0284
▁သုံးစွဲသူ	-11.0295
▁ဘာလီ	-11.0298
သလဲဆို	-11.0298
hi	-11.0304
မှုပါပဲ	-11.0309
ဆုံးဖြ	-11.0315
▁ပြားတွေ	-11.0329
▁းရံ	-11.0329
▁ဒီအပ	-11.0336
ပြာရ	-11.0336
▁ယူမှု	-11.0342
▁လူက	-11.0344
▁ငံထဲက	-11.0345
ni	-11.035
ိုးတက	-11.0353
▁ရာက	-11.0355
▁ခရီးသ	-11.0362
တူညီ	-11.0367
▁အဟ	-11.0375
▁Ro	-11.0395
နီးချ	-11.0398
ကြီးပါပဲ	-11.0404
▁Twitter	-11.0406
▁ချေးငွေ	-11.0406
▁အဦတွေ	-11.0406
▁ဖာသာ	-11.0406
▁တရားမျှတမှု	-11.0406
▁ဘလော	-11.0407
▁မူဝါဒ	-11.0407
▁Green	-11.0407
▁Uni	-11.0407
▁၇၅	-11.0408
▁၃၅	-11.041
age	-11.041
▁ကြတာကို	-11.0417
▁အရေးပါဆုံး	-11.0417
▁းချီဆရာ	-11.0418
▁ကျောရိုး	-11.0418
များဟာ	-11.0419
ပေးပါ	-11.042
အကျ	-11.0424
▁အရှိတရား	-11.043
▁ချိုးဖ	-11.0432
▁အစပြု	-11.0432
▁အားကစား	-11.0433
▁ချုံ	-11.0434
▁သွေးကြော	-11.0445
▁ညီမျှ	-11.0448
ey	-11.0451
▁ပိုလွ	-11.0456
▁နွေရာသီ	-11.0459
ရွေးချ	-11.0461
▁မီးလ	-11.0466
▁ခြေရှိ	-11.0478
▁စေး	-11.0482
▁းလဲမှုကို	-11.0491
▁ဘာကြီးမှာ	-11.0492
▁ခံစားန	-11.0495
နားမှာ	-11.05
▁လူမျိုးရေး	-11.0503
ဝေ	-11.0506
▁အခြေအနေကို	-11.0507
▁ဖြိုးမှု	-11.0517
▁ဘဝတွေကို	-11.0526
▁စကားလုံးကို	-11.0527
▁ကြီးထွား	-11.0528
ဝှ	-11.0535
▁အဲဒီထဲမှာ	-11.0541
▁နှာစာ	-11.0541
amp	-11.0548
ံမက	-11.0559
▁ဂရိ	-11.0577
▁သေးန	-11.0577
▁မူး	-11.0587
▁ဗီဒီယိုကို	-11.0594
▁ဒီကလေး	-11.0595
▁ငံတွေမှာ	-11.0605
ခံရတာ	-11.0605
▁အီရ	-11.0619
ld	-11.0624
▁ပြီးသား	-11.0629
▁ပိုန	-11.0629
▁ကစားတာ	-11.0635
ရွေး	-11.0636
▁ဖိအား	-11.064
▁ဆွဲယူ	-11.064
▁သားတွေကို	-11.064
▁အခြေခံကျ	-11.0645
▁းဆိုး	-11.0647
▁တာရ	-11.0671
▁ပြောနေတာပါ	-11.0672
▁သုံးနှ	-11.0673
ပါပြီ	-11.0675
▁သလား	-11.0677
▁ခုပါပဲ	-11.0678
ter	-11.0683
သဘော	-11.0687
ent	-11.0696
wa	-11.0696
ကြီးမှာ	-11.0705
▁Dr	-11.0706
ha	-11.071
na	-11.0725
ect	-11.0743
ပါဘဲ	-11.0744
▁မှုကနေ	-11.0745
သလား	-11.0747
▁နားမှာ	-11.0748
▁ကြတာလဲ	-11.0756
ation	-11.0756
လာပါပြီ	-11.0762
▁အဲဒီနေရာ	-11.0763
မတူ	-11.0767
▁းလဲပ	-11.0772
▁သူအ	-11.0776
▁ကြီးပါ	-11.0782
▁ရှိချ	-11.0782
▁ရှားန	-11.0788
စုပေါ	-11.0791
မှာလဲ	-11.0792
▁စရာကြီးပါ	-11.0792
လဲဗျာ	-11.0793
ll	-11.0802
▁းအစ	-11.0802
သေချာ	-11.0806
ကာလ	-11.0807
တာလို	-11.0813
▁ရရှိလာ	-11.0817
ိစ	-11.0823
▁မဒ	-11.0835
▁းဆိုသလို	-11.0842
ထံမှ	-11.0848
se	-11.0853
▁ကျလာ	-11.0855
▁ပေးမှု	-11.0861
အလိုက	-11.0862
▁ပဏီကို	-11.0867
▁ဆဲ	-11.0878
▁တိုးပွား	-11.0886
▁V	-11.0892
▁သဘောကျ	-11.0893
▁းခံရ	-11.0895
▁းမှုတွေ	-11.0912
ြောက	-11.0914
လစ	-11.0922
ero	-11.0931
ry	-11.0939
▁ဂလ	-11.0941
ေခဲ	-11.0961
ကျတဲ	-11.0963
▁စကားပြောဆို	-11.0964
▁Po	-11.0976
ရှိတာပါ	-11.0978
အရွ	-11.0989
▁ကြမလဲ	-11.099
လိုပါပဲ	-11.1
▁းပေးရ	-11.1015
▁လူမျိုးစု	-11.1016
ရတာပါ	-11.103
▁ကျသွား	-11.1038
▁ဖူးလား	-11.1042
▁သူပြော	-11.1045
▁ဩဇာ	-11.1049
▁တမျိုး	-11.1053
ီသမ	-11.1054
ine	-11.1058
လားဆိုတာ	-11.1065
▁William	-11.1073
▁ဖီဘိုနာချီ	-11.1073
▁ဟောဟဲ	-11.1073
▁ကိုးကား	-11.1073
NG	-11.1073
▁ကျေးဇူးပြုပြီး	-11.1073
▁ဟောပြောပွဲ	-11.1073
▁ခြေဖုံး	-11.1074
▁သီးခြား	-11.1074
com	-11.1074
▁Bill	-11.1075
မှုန	-11.1075
▁တာကိုပါ	-11.1076
▁ဘာကိုဆိုလို	-11.1076
▁ပကတိ	-11.1079
▁ပုရ	-11.108
▁မသိပါဘူး	-11.1088
▁တကူ	-11.1092
▁မဖ	-11.1094
▁သွားတာပါ	-11.1095
▁အခုကျွန	-11.1096
▁အသေအချာ	-11.1097
▁ပျားတွေကို	-11.1098
▁လေမှာ	-11.1099
▁လူကြီးမ	-11.1103
NA	-11.1108
▁၃၆	-11.1108
▁ခါက	-11.1112
▁Vi	-11.1112
▁ဟိုမှာ	-11.1113
▁ပြပေးပါ	-11.1124
▁တာလ	-11.1125
▁၂၃	-11.1126
▁မလိုပါ	-11.1132
▁မသေ	-11.1136
▁လူသားတို	-11.1138
oco	-11.1138
▁စာရေးသူ	-11.1139
▁ကံ	-11.1145
te	-11.115
▁ငံလုံး	-11.1151
ာထဲက	-11.1154
▁အာရုံကို	-11.1155
▁အကျိုးအ	-11.1164
ထားလို	-11.1168
အဖြေ	-11.1174
▁ပြီးပြီ	-11.1176
▁အာကာသယ	-11.1186
▁ခွဲခ	-11.1195
▁အခုထိ	-11.1205
မရှိတော	-11.1207
▁To	-11.1219
▁းပြပါရစေ	-11.1219
▁ရမလား	-11.122
ူနို	-11.1224
em	-11.1226
▁အခြေခံအ	-11.1227
ာရဲ	-11.1231
▁ဆတ	-11.1246
▁ထန	-11.1246
▁to	-11.125
▁သာမက	-11.1253
▁ဒီရ	-11.1265
▁လေးက	-11.1266
▁ဦးက	-11.1269
ပြေး	-11.127
▁အဆုံး	-11.1272
▁သူလဲ	-11.1275
▁ဂီတကို	-11.1279
▁စူ	-11.1281
▁အမျိုးမျိုးကို	-11.1283
▁ခရီးသွား	-11.1285
▁ရောဂါကို	-11.1286
▁ကာလတွေ	-11.1289
▁းရန	-11.1291
▁းနား	-11.1304
နေကြပြီ	-11.1316
▁းကလ	-11.1317
ရှိနေတာပါ	-11.1323
▁ခံစားမှုတွေ	-11.1325
▁းစာတွေ	-11.1328
▁ဒါပါပဲ	-11.1329
▁အဖေက	-11.1333
▁ပိုကျ	-11.1334
▁ပထမက	-11.1339
▁ဖူးဘူး	-11.1352
ai	-11.1355
ire	-11.136
▁အခါမှာတော	-11.1366
▁ရှားနေ	-11.1378
▁Ton	-11.1383
နေဖို	-11.1385
▁ဖိုးထား	-11.1386
▁ယူဆချ	-11.1388
▁းနေကြ	-11.1389
▁မှုများ	-11.139
▁အနု	-11.1393
မရှိပဲ	-11.1407
ed	-11.1423
တွေလ	-11.1432
by	-11.1438
▁Ge	-11.144
▁ရတာလဲ	-11.1441
▁Gor	-11.1457
ပုံပေါ	-11.1471
စေတာပါ	-11.1475
▁မီတာ	-11.148
bo	-11.1484
▁အနား	-11.1487
▁းပြား	-11.1488
▁းစားရ	-11.1488
▁ရသူ	-11.1496
▁ကလေးက	-11.1501
▁၂၀၀၀	-11.1507
▁ကြားန	-11.1508
▁းလဲနေ	-11.1512
အပြီးမှာ	-11.1512
▁စရာတွေ	-11.1519
ရွ	-11.1519
▁လာရန	-11.1534
ပမာဏ	-11.155
art	-11.1554
▁ဆေးရုံတွေ	-11.1564
ပျိုးထ	-11.1564
ကွဲပြား	-11.1566
ဦးနှ	-11.1573
▁အခြေအနေတွေ	-11.1576
▁သားပြ	-11.1583
ck	-11.1586
▁းတွေထဲက	-11.1591
သွားကြ	-11.1597
▁ရသလို	-11.1602
▁သေသွား	-11.1602
ပိုး	-11.1615
နေတော	-11.1621
vers	-11.1621
▁းပေးန	-11.1628
▁ကိုပါ	-11.1632
ခြားနား	-11.1632
▁လေးနှ	-11.1634
▁နေသလို	-11.1639
▁Sh	-11.1647
▁ဒေသခံ	-11.1651
▁ဒေတာတွေ	-11.1652
းနှော	-11.1652
သွားစေ	-11.1655
▁တဝ	-11.1659
▁ဘာလုံးမှာ	-11.1664
▁အခြေအနေမျိုး	-11.1665
▁အငြ	-11.1666
▁ဘေးမှာ	-11.167
▁လာမလဲ	-11.1673
▁တွဲဖ	-11.168
▁အစုံ	-11.1687
ကျမှ	-11.1692
▁းမရ	-11.1693
▁စလုံး	-11.1696
▁လုံးဝမ	-11.1697
လာမှာပါ	-11.1706
▁းတီး	-11.1719
b	-11.1737
▁အဲဒီလိုဆို	-11.1737
▁အသံထ	-11.1743
▁ဆိုတာလ	-11.1748
▁ခရို	-11.1748
▁းအထ	-11.1752
▁ရှားသူ	-11.1756
တွေထဲ	-11.176
ပြီဆိုတာ	-11.1764
ong	-11.1765
ay	-11.1767
▁ထားတာက	-11.1768
▁အဲဒါမျိုး	-11.1769
▁ရှူးပ	-11.1779
▁အကြုံတွေ	-11.178
rte	-11.1781
▁Stein	-11.1787
▁Naghma	-11.1787
▁ဝိဉာ	-11.1787
▁သူနာပြု	-11.1787
▁၂၀၁၂	-11.1787
▁အာဟာရ	-11.1787
▁နယူးယော	-11.1787
▁ပါရမီ	-11.1787
▁မသိမသာ	-11.1787
▁တီဗီ	-11.1787
▁စံနမူနာ	-11.1787
▁Turin	-11.1788
ပါသလဲ	-11.1788
ရောဂါ	-11.1788
▁ချွ	-11.1789
▁သေသေ	-11.179
▁းဆိုရ	-11.179
▁CA	-11.179
▁ကျွေးမွေး	-11.1791
ကဘာလဲ	-11.1791
▁Tes	-11.1798
bi	-11.1798
▁အခြားသော	-11.1798
ာက	-11.1803
▁မရဏ	-11.1804
▁ဝေးဝေး	-11.1808
▁မှူး	-11.181
▁ဟော	-11.1814
▁းတွေလို	-11.1826
▁နေသူ	-11.1828
▁ဒါအားလုံး	-11.1828
▁War	-11.1828
▁မလဲဆိုတာ	-11.1829
▁တအား	-11.1834
▁အကြာကြီး	-11.1835
ရမလဲ	-11.1839
▁ပြုမူပုံ	-11.1845
▁တိတိကျကျ	-11.1847
▁ရသေးတ	-11.1847
▁ရလို	-11.1849
အေး	-11.1855
▁ခုရ	-11.1857
▁သလ	-11.1859
▁wh	-11.1859
▁းရှာဖွေ	-11.1867
▁လာတာက	-11.1874
ကုသ	-11.1877
မသတ	-11.1884
▁သိစေ	-11.1886
▁ရာထူး	-11.1891
▁ကြုံတွေ	-11.1892
▁ကူးရ	-11.1895
▁နေမိ	-11.1896
▁လာမှုက	-11.1898
ငြိမ	-11.1899
▁ငံသားတွေ	-11.1901
▁ကိုကြ	-11.1903
ကွပ	-11.1903
▁ဍာရေး	-11.1906
ပြောပြ	-11.1908
▁တခုကို	-11.191
ှုမြ	-11.191
▁ထံမှ	-11.1913
▁ပျား	-11.1914
▁ရီ	-11.1919
▁အပို	-11.1925
▁Ger	-11.1927
▁လူအများ	-11.1936
▁လေးစား	-11.1937
တွေလို	-11.1954
သွားန	-11.1958
▁လာမှုကို	-11.1981
▁မမေး	-11.1982
▁အများစုမှာ	-11.1987
▁အကြာ	-11.1988
▁ခာ	-11.1993
▁ထုံး	-11.1994
▁းမသိ	-11.1995
▁အသားပို	-11.2
▁ပဏီတွေကို	-11.2001
ဝက	-11.2004
▁ဒါဆိုရ	-11.2012
ထု	-11.2013
▁ဒီမှာက	-11.2014
▁ဒီမှာပါ	-11.2032
lin	-11.2034
ားနို	-11.2036
ပေးကြပါ	-11.204
▁ညက	-11.2054
▁ကူးပါ	-11.2063
ခံနေရ	-11.2066
▁အနီးက	-11.2069
▁ပြောဆိုနေ	-11.2071
▁ယူသူ	-11.2084
▁c	-11.2084
con	-11.2085
ရှိသေး	-11.2089
▁ယောကျ	-11.209
▁လူစု	-11.2107
ဘူးလား	-11.2108
▁နေဖို	-11.2108
▁လာတာကို	-11.211
▁မြေဆီလွှာ	-11.2121
▁ရှိရမ	-11.2127
ရှိကြ	-11.2129
▁းအဝေး	-11.2139
နေနေ	-11.2143
▁အသုံးချမှု	-11.2145
▁ထံ	-11.2146
▁းမျိုး	-11.2147
▁စပါ	-11.2147
▁မှုခ	-11.2148
မျာ	-11.2154
▁းတွေကနေ	-11.2156
▁မတူကွဲပြား	-11.2173
▁ပြဿနာကြီး	-11.2179
▁သွားချ	-11.2184
▁တရားမ	-11.2185
သွားမှာပါ	-11.2188
▁ဥက	-11.2189
▁ယူလို	-11.2194
ပေးပြီး	-11.2196
▁မသွား	-11.2197
အမျိုးမျိုး	-11.2198
▁အခြေခံပြီး	-11.22
▁မီးသ	-11.2202
အချို	-11.2209
di	-11.2211
▁ကျတာ	-11.2211
▁စာရေးဆရာတွေ	-11.2218
အသိ	-11.2219
▁ပဲလေ	-11.2223
▁Sp	-11.2231
ste	-11.2233
▁ခြေကို	-11.2236
ခံရပြီး	-11.2239
ber	-11.2242
▁အခေါ	-11.2258
▁ကြားမှု	-11.2261
▁ဒပြ	-11.2266
ရှိလား	-11.2273
ပေးနေ	-11.2276
▁De	-11.2281
▁w	-11.2283
▁ဒီပြ	-11.2293
ထားရ	-11.2306
▁ဒါပဲ	-11.2309
မပေးန	-11.2323
ခိုး	-11.233
ဝါဒ	-11.2332
ဒါကို	-11.2336
ငါး	-11.2337
အကျိုး	-11.2339
▁မပြု	-11.2339
▁အဟု	-11.2354
▁များလ	-11.2377
အစိုးရ	-11.2384
▁၅၀၀	-11.2395
eb	-11.2398
▁Da	-11.2402
▁ပုံပြော	-11.2406
အရာတွေကို	-11.2406
လေးတ	-11.2408
▁းပညာရှ	-11.2409
▁စာနာ	-11.2426
များလား	-11.243
ခေ	-11.2441
▁သူဘ	-11.2445
များထဲ	-11.2454
ွားနို	-11.2454
▁မီးတွေ	-11.2458
▁နမ	-11.2462
▁းခြုံ	-11.2471
▁နေပါ	-11.2479
▁Ba	-11.2482
▁တွေထဲ	-11.2485
▁လုံခြုံရေး	-11.2491
ာကိုယ	-11.2494
▁ဒီပုံစံ	-11.25
▁လွှဲပြ	-11.2506
il	-11.2509
ရှုံး	-11.2514
▁သကြား	-11.2524
ရုံတ	-11.2528
▁ဘာတွေလဲ	-11.2534
▁ကြံဆ	-11.2538
▁ခြေရာ	-11.2545
ဂို	-11.2552
▁he	-11.2555
ိရမ	-11.2555
▁Pe	-11.2556
▁CRISPR	-11.2557
▁ကသိကအော	-11.2557
▁မီးရှို	-11.2557
9	-11.2557
▁ဆိုးရွား	-11.2557
▁အမူအရာ	-11.2557
▁ဒီဂရီ	-11.2557
▁အခြေခံအကျဆုံး	-11.2557
▁Jam	-11.2558
▁ဘောလုံး	-11.2559
▁ဇယား	-11.256
▁အခြေခံမူ	-11.256
▁ဩဖွ	-11.256
▁ဒရား	-11.256
ttle	-11.2561
▁လူဖြူ	-11.2561
▁ဆုလာ	-11.2562
▁ဆူပါဦ	-11.2562
▁သီဆို	-11.2563
▁Lu	-11.2564
▁အာရှ	-11.2564
▁ယံ	-11.2568
▁ရေးတာ	-11.2568
▁သြစရာ	-11.2568
▁ပုံဆွဲ	-11.2572
တာမျိုးပါ	-11.2574
▁သု	-11.2578
သာဆို	-11.2579
ကဲဖြ	-11.2579
ာဂါတ	-11.258
နေကျ	-11.2581
ပဲဗျာ	-11.2582
▁းခွဲ	-11.2586
ပြုစု	-11.2588
▁Ver	-11.2589
ဘွ	-11.2591
▁အလားအလာရှိ	-11.2598
စရာမလို	-11.2604
pp	-11.2604
မလားပဲ	-11.2608
▁အဲဒီထဲက	-11.2613
▁နာမှု	-11.2617
▁ငါတော	-11.2617
▁သေဆုံးမှု	-11.2622
ကြသူတွေ	-11.2624
▁အလကား	-11.2629
ago	-11.2634
▁အားတ	-11.2644
မွေးနေ	-11.2646
၂၀	-11.2646
▁ငါသိ	-11.2658
▁အာရုံခံ	-11.2659
▁ဒီလူတွေကို	-11.2661
▁ဆွဲတ	-11.2679
▁ပြမှု	-11.2679
ေးခေ	-11.2683
အကြား	-11.2683
▁အကြွ	-11.2683
သီး	-11.2686
ver	-11.2688
ray	-11.2691
▁ကမှ	-11.2695
▁သုံးလ	-11.2699
▁ယူနေ	-11.2701
ချမ	-11.2706
▁ဒီပုံကို	-11.2707
▁Hu	-11.2709
▁ရှူး	-11.271
▁အစက	-11.2712
▁ပညာရေးကို	-11.2714
▁တံတ	-11.272
▁ဝံ	-11.2726
ရလ	-11.2734
▁နေရတာ	-11.2739
ညီ	-11.2741
ရုဏ	-11.2745
ထမ	-11.2746
ာင	-11.2751
▁ဆွေးနွေးပွဲ	-11.276
▁မှားတယ	-11.2763
▁သွာ	-11.2771
▁မှာလေ	-11.2774
mi	-11.2779
▁အခုပဲ	-11.2782
ez	-11.2783
▁အကျိုးရှိ	-11.2785
▁စတွေကို	-11.2787
▁သိထား	-11.2792
▁းမသားတွေ	-11.2799
▁သူဆိုတာ	-11.28
▁ကရိယ	-11.2803
▁အရာတွေက	-11.2803
ဆီကနေ	-11.2804
▁နေလဲ	-11.2804
▁San	-11.2804
▁နာရီပေါ	-11.2809
▁အသားအရေ	-11.281
▁မှို	-11.2812
▁အခြားအ	-11.2816
▁စုတွေ	-11.2819
▁မှုပေး	-11.2821
▁တာရပ	-11.2829
▁းပညာဟာ	-11.2831
▁စကားကို	-11.2832
ရှိလာ	-11.2836
▁သွားတွေ	-11.2836
ခွံ	-11.284
▁ရှိမှု	-11.284
▁ပညာကို	-11.2844
▁မျိုးပါ	-11.2844
ကြရပါ	-11.2851
မြေ	-11.2854
အကြ	-11.2858
▁ကြားဖူး	-11.2862
▁မှာမှ	-11.2863
iel	-11.287
▁ဦးလေး	-11.2873
ရာပါ	-11.2876
▁းပါဘူး	-11.2878
▁ဒါမ	-11.2879
▁အစားအစာ	-11.2879
တွေပါပဲ	-11.2881
▁၂၂	-11.2886
ပြောဖို	-11.2886
ံကြမ	-11.2889
▁မှုလို	-11.29
▁လာတတ	-11.2902
▁ရှာန	-11.2907
▁ယူမိ	-11.2909
ရှိလို	-11.2911
မလို	-11.2911
သူဟာ	-11.2922
▁မနား	-11.2926
ေးထွ	-11.294
ီလ	-11.2956
▁ဖိစီး	-11.2957
▁စွဲလ	-11.296
အမျိုးသမီး	-11.2962
min	-11.2964
သာစွာ	-11.2964
▁မှုထဲမှာ	-11.2974
▁းအမျိုးမျိုး	-11.2977
▁ပိုးက	-11.2987
▁Re	-11.2996
▁ဘာသာကို	-11.2996
တာကိုလ	-11.2996
စုစ	-11.2997
▁စရေး	-11.3002
▁Co	-11.3012
▁းအားလုံး	-11.3015
was	-11.3024
▁စုကို	-11.3033
▁းကျိုး	-11.3036
▁ရှာဖွေမှု	-11.3036
▁းပါးတွေ	-11.3037
▁ဒီထ	-11.304
▁ဒီလူက	-11.304
▁ဒီဆ	-11.3047
ယူရန	-11.3049
မချ	-11.3058
▁ဓား	-11.3065
▁တကျ	-11.3066
▁ပြူတာက	-11.3073
▁Har	-11.3082
▁အံမ	-11.3083
▁အပြုအမူ	-11.3085
▁သိက	-11.3086
မပေး	-11.3087
▁နေတာလဲ	-11.3092
▁.....	-11.3098
▁ပြီးပါပြီ	-11.3107
mer	-11.3107
▁းမရှိ	-11.3108
▁စကားပြောနေ	-11.312
▁ရှိသေးတာ	-11.3127
ကြိုးစား	-11.3128
▁အဓိကကျတ	-11.3129
▁ဆုံးအ	-11.3129
ama	-11.313
▁ကပြောတ	-11.313
တေးသွား	-11.3138
▁ဒိယမှာ	-11.3141
▁းသွ	-11.3145
▁သားက	-11.3147
အရေးကြီး	-11.3152
H	-11.3153
ew	-11.3157
ကြီးမား	-11.316
အမျိုးအစား	-11.3166
အသံ	-11.3166
N	-11.3166
သဘာဝ	-11.3167
အသုံးပြု	-11.3167
အကြီးဆုံး	-11.3168
ဂီတ	-11.317
▁စမှာ	-11.3174
ရတာကို	-11.3174
အပါအ	-11.3178
▁အစွဲ	-11.3185
▁းနေတာပါ	-11.3188
▁ဒိယက	-11.3193
▁ဘာဆိုတာ	-11.3206
လုံအ	-11.3206
▁းတတ	-11.3209
▁ဘဝတွေ	-11.3214
▁ယို	-11.3216
▁းပေမ	-11.322
နာကျ	-11.3223
▁ရုံတွေ	-11.3229
▁ယူဆကြ	-11.3237
▁စတာတွေ	-11.324
ဖိ	-11.3251
▁တနေ	-11.3252
၁၄	-11.3253
ြောင	-11.3253
ပြေ	-11.3256
ပုံစံမျိုး	-11.3263
ြမ	-11.3266
ina	-11.3276
▁ဟိုက	-11.3285
▁ခံကြ	-11.3293
ာပါ	-11.3298
▁တရားက	-11.33
ရာခ	-11.3304
▁ဆေးပညာ	-11.3321
▁အဲဒီထဲ	-11.3325
▁ချွေတာ	-11.3329
သိန	-11.3329
ဲဒီတော	-11.3329
▁းစားလို	-11.3336
▁ကြုံခံစား	-11.3336
▁လီကျူးတွေ	-11.3351
▁းဆုံ	-11.3364
ta	-11.3372
▁ဂန	-11.3375
▁ပျားတွေ	-11.338
▁မယုံ	-11.3383
▁ကရုဏာ	-11.3387
ool	-11.3387
▁ဒီသ	-11.3387
▁အကျိုးကျေးဇူး	-11.339
▁David	-11.339
▁ဗုံး	-11.339
▁Nathan	-11.339
▁းရေးမှူး	-11.339
▁မေမေ	-11.339
▁လဂိုရ	-11.339
▁တရားသူကြီး	-11.339
niph	-11.339
▁Thom	-11.339
▁ရုရှား	-11.339
▁လှေကား	-11.3391
▁မိမိဘာသာ	-11.3391
▁CE	-11.3391
▁ခတွေ	-11.3392
▁Isa	-11.3392
ပါစေ	-11.3392
▁ရေချိုး	-11.3392
▁Pic	-11.3393
▁မသိကြဘူး	-11.3393
▁ရေကူး	-11.3394
▁ရေနံ	-11.3396
▁ပုံသေ	-11.3398
▁Can	-11.3398
▁ကလွဲ	-11.3399
▁အတူတူပါပဲ	-11.3401
စူးစ	-11.3401
▁ရှာဖွေရေး	-11.3401
ers	-11.3402
▁တံတား	-11.3403
▁နွှဲ	-11.3405
▁ဆေးရုံမှာ	-11.3406
▁ဂျုံ	-11.3407
▁ဒီကာလ	-11.3409
▁းမှာကို	-11.341
ျိုးနွ	-11.3411
▁ဝိုး	-11.3414
▁ရှိနေပါပြီ	-11.3416
ဖြူရော	-11.3417
လုံးဝ	-11.342
▁သံယောဇ	-11.3421
▁သံသရာ	-11.3421
▁းအားတွေ	-11.3422
▁ကတိပေး	-11.3427
▁ဘာလဲဆိုတာ	-11.3428
▁စာမူတ	-11.3428
▁ထဲမှ	-11.3428
▁Me	-11.3431
▁နှလုံးသားကို	-11.3442
▁ကြုံရ	-11.3454
▁အထဲက	-11.3457
မလဲဆိုတာကို	-11.3462
▁ငံကို	-11.3465
▁အညီ	-11.3466
▁ကိရိယာကို	-11.3467
ice	-11.3468
▁ဆုံးအနေန	-11.3469
▁ပီး	-11.3469
ုး	-11.3469
မစပ	-11.347
▁ကြိုဆို	-11.3478
▁ဝေးလံ	-11.348
▁ယူထား	-11.3481
▁ဥပဒေကို	-11.3484
▁သံကြား	-11.3493
▁ဆီကနေ	-11.3494
▁နှာတွေကို	-11.3494
▁သိတာ	-11.3499
▁လာလေ	-11.3512
မတန	-11.3517
▁ပိုးပေး	-11.3525
▁မေးနေ	-11.3529
▁ကျို	-11.3529
ညီအစ	-11.3531
▁ကစပြီး	-11.3538
▁ခြေချ	-11.3538
▁မအထ	-11.3543
▁အဆိုပြု	-11.3549
▁ခုလိုမျိုး	-11.3549
အချ	-11.3558
တွေကြားမှာ	-11.3565
▁သာမှု	-11.357
▁ဖြူ	-11.3571
tru	-11.3576
▁းလဲမှုတွေ	-11.3577
▁ပြောစရာ	-11.3577
နေသူ	-11.3578
လိုတာပါ	-11.3581
▁ကူးတွေကို	-11.3584
▁အထူးပြု	-11.3585
နားက	-11.359
▁ဒီကျော	-11.3592
ထံ	-11.3595
▁ကလေးတို	-11.3596
▁တာတော	-11.3598
အာသာ	-11.3601
▁ဂိုရ	-11.3602
ကြဘူးလေ	-11.3607
▁အမိန	-11.361
ချီ	-11.362
▁ဒီသတ	-11.3623
▁အသံက	-11.3626
▁အမာ	-11.3637
▁လိုသလို	-11.3642
▁များက	-11.3647
▁နားရ	-11.3664
▁ပျူတာကို	-11.3665
▁ကစားန	-11.3689
၁၅	-11.3689
▁အရာရှိ	-11.3692
ကြုံ	-11.3692
▁ညမ	-11.3701
ပဲရှိ	-11.3701
▁လိုအ	-11.3711
▁p	-11.3724
ကလွဲ	-11.373
ive	-11.373
ga	-11.3731
▁းအရာကို	-11.3733
▁မုဒိ	-11.3734
ich	-11.3735
ဆိုတာဟာ	-11.3736
▁မိသားစုတွေ	-11.3737
မျို	-11.3737
▁ရှိအ	-11.3749
▁လုံခြုံမှု	-11.3749
အသွ	-11.3751
▁စုံကို	-11.3756
▁သွားလိ	-11.3757
သားတွေဟာ	-11.3761
▁ဒါအ	-11.3764
▁ကဲပြ	-11.377
im	-11.3776
▁၁၉၇	-11.378
▁းသားတ	-11.3784
▁အသုံးပြုပြီး	-11.3788
▁ပါသလဲ	-11.3789
ျွန	-11.3792
▁မရှိကြ	-11.38
▁စုမှာ	-11.3803
ခြေ	-11.3813
▁ရှာနေ	-11.3821
▁ပထမဆုံးက	-11.3821
▁ဟား	-11.3823
▁မတူကွဲပြားမှု	-11.3825
▁းဖျ	-11.3826
ငြ	-11.3827
▁de	-11.3835
▁ချေ	-11.3839
ပြာ	-11.3855
ဆီကန	-11.3863
▁လူလ	-11.3874
tic	-11.3892
ရမှာက	-11.3896
ိဗ	-11.3899
▁ကြိုးစားနေတာ	-11.391
▁လာရေး	-11.3914
▁စေတာ	-11.3915
ကြိုး	-11.3918
▁သူမပြောတာ	-11.3946
▁နာတွေ	-11.3953
၉၈	-11.3967
ဝေး	-11.3967
ပုံတွေကို	-11.3972
▁းမှုက	-11.3991
▁လိုပြီး	-11.3993
▁းနာ	-11.3997
▁မိသွား	-11.4019
ပြောကြ	-11.4023
▁ကွဲပြားမှု	-11.4024
▁ရိုးသား	-11.4024
ာနိ	-11.4027
▁တိုးတိုး	-11.404
▁ကျွေး	-11.4042
ဆွေးနွေး	-11.405
▁၁၅၀	-11.4053
▁ဦးထ	-11.4059
▁ကစားစရာ	-11.406
▁အားကို	-11.4063
ရွှ	-11.407
ထူးခြား	-11.4076
▁ရှိနေကြတာ	-11.4076
အခြေခံ	-11.4078
ရုံသာမက	-11.4079
၁၀	-11.4081
▁အဆိုး	-11.4082
▁ပြောနေတာက	-11.4085
▁ပဲရှိ	-11.4091
မပါပဲ	-11.4116
▁စားသုံး	-11.4134
▁အလျ	-11.4139
▁စိစ	-11.414
▁းတရား	-11.4145
▁းပေ	-11.4158
▁သွားလာ	-11.416
▁းဘေး	-11.4161
နားထ	-11.4168
▁ကြားမိ	-11.417
▁ရှေး	-11.4174
စာတွေကို	-11.4179
▁မီးလုံးတွေ	-11.4186
▁တစိတ	-11.4188
sa	-11.4189
▁အားအ	-11.4194
▁ပါလာ	-11.4195
းလို	-11.42
နေရာမှာ	-11.4201
နေကြတာပါ	-11.4206
ဘေးမှာ	-11.4209
▁ပြတာ	-11.4214
▁Stan	-11.4214
ဟူး	-11.4217
▁းဝေး	-11.4227
မှာမှ	-11.4234
▁မွေးမြူ	-11.4241
▁အဓ	-11.4253
▁းသာမှု	-11.4255
▁ဖြာ	-11.4258
▁ထုထ	-11.4268
▁တသီကြီး	-11.4272
▁Sa	-11.4275
▁ခွဲမှု	-11.4275
▁းစာက	-11.4279
▁ဂေဟ	-11.4289
▁ချီတ	-11.4289
ဿ	-11.4299
▁myc	-11.4299
▁နီးနားခ	-11.4299
▁Leonard	-11.4299
▁ပခုံး	-11.4299
▁ပရဟိတ	-11.4299
▁မအမေ	-11.4299
▁ရံပုံငွေ	-11.4299
▁သမားရိုးကျ	-11.4299
▁အုံကြွမှု	-11.4299
▁လျူရှု	-11.4299
▁ဂလိက	-11.4299
▁အကြီးစား	-11.4299
▁အကွာအဝေး	-11.4299
ြဖ	-11.4299
▁Night	-11.43
▁Glas	-11.43
▁၉၉	-11.43
▁စားကြ	-11.43
own	-11.4301
▁Art	-11.4301
▁ရှားပါး	-11.4301
▁ဒီဗီဒီယို	-11.4301
▁၈၅	-11.4301
▁အကျိုးပြု	-11.4301
▁Bos	-11.4302
ve	-11.4302
▁သုသေသနပြု	-11.4302
▁မျှဝေခံစား	-11.4302
▁၄၅	-11.4303
▁ခံစားနေရ	-11.4303
▁မျိုးရိုး	-11.4303
▁၂၆	-11.4303
▁စာတိုပို	-11.4304
▁အခြေခံကျကျ	-11.4304
ဝါးဝါး	-11.4305
▁ကီလို	-11.4307
▁မပြေ	-11.4308
▁လေးခု	-11.4308
gg	-11.4308
ola	-11.4308
▁ဆွပ	-11.4309
▁သေချာတာက	-11.4309
ster	-11.4309
▁ထွေးလှ	-11.431
▁မရပါဘူး	-11.4311
▁ဦးစီ	-11.4313
▁သုံးပုံတ	-11.4315
▁ဘုရ	-11.4316
las	-11.4317
ကိရိယာတွေ	-11.4318
▁ဗလာ	-11.4319
▁စာပို	-11.4322
ပေးသူ	-11.4325
▁မွေးမှု	-11.4325
▁ဒီအစီ	-11.4326
▁Ga	-11.4329
▁သွေးစီး	-11.4338
▁မအသ	-11.4339
▁ပြတာက	-11.4342
my	-11.4343
▁တီးရီးယားတွေ	-11.4345
▁ခံယူချ	-11.4346
ရေးရှ	-11.4346
▁ကြားမှာ	-11.4351
▁ဆရာမတွေ	-11.4352
ရေးဆို	-11.4368
▁ဘဝထဲမှာ	-11.4372
▁မတရား	-11.4376
▁ခြံ	-11.4381
▁ညနေ	-11.4383
▁အသိပညာ	-11.4383
မနေပါဘူး	-11.4384
▁ကလေးများ	-11.4388
▁ကြရာ	-11.4391
▁သုည	-11.4395
▁မြူး	-11.4396
▁းခရီး	-11.4398
▁ဘိုး	-11.4401
▁ဒေတာကို	-11.4401
▁မကြား	-11.4403
▁Edw	-11.4405
ုံးကွ	-11.4408
▁မရာကို	-11.4409
▁စျေးကြီး	-11.4411
▁ရစေ	-11.4412
ေးကပ	-11.4417
▁ကြိုးမ	-11.4417
▁းကိရိယာတွေ	-11.4418
▁းထိုး	-11.4418
▁ကျက	-11.4425
▁ဖိုးကို	-11.4425
▁မပါပဲ	-11.4428
▁လျှာ	-11.443
▁ဆုံးရှုံးမှု	-11.443
▁စုက	-11.4435
▁သားစရာ	-11.4437
ရှိအတ	-11.4441
▁းစီကို	-11.4452
ထဲထ	-11.4452
om	-11.4454
▁ရှိတာပါ	-11.446
▁ကြာလာ	-11.4464
တာလ	-11.4472
ach	-11.4476
ဝမ	-11.4479
ထားတာတွေ	-11.4482
OL	-11.4483
▁သူများကို	-11.4485
▁ဒီထဲက	-11.4491
ပျံသ	-11.4494
▁ဒီအက	-11.4499
▁အခဲတွေ	-11.4499
▁ဒီပုံတွေ	-11.4504
▁ပရိုတ	-11.4504
ီးဘ	-11.4506
▁စားမိ	-11.4513
▁ဆေးခြ	-11.4517
ရာကနေ	-11.4518
▁ဒီမျိုး	-11.4518
▁ရှိနေတာကို	-11.4528
▁ပိုပြီးတော	-11.4529
ပြောနေတာ	-11.4533
▁ကြပါပြီ	-11.4543
▁တီးခ	-11.4544
▁သလိုပဲ	-11.4551
▁အကူအညီမ	-11.4554
for	-11.4554
▁းကျပ	-11.4559
▁ဆာကို	-11.4559
ရှာပြီး	-11.4562
▁ပြီးဆုံး	-11.4566
▁းအတွ	-11.4567
▁မျိုးတ	-11.4568
▁Los	-11.4568
▁စီးပွားရေးစွ	-11.4577
ရဘူး	-11.458
းအခေါ	-11.4581
▁အလေးထား	-11.4592
▁ပါးမှု	-11.46
▁Ca	-11.4606
▁တွေအားလုံး	-11.4607
▁အဲဒီကနေ	-11.4612
▁တာမှာ	-11.4615
ak	-11.4616
▁ကွေ	-11.4619
▁ကြားက	-11.4619
▁အဆုံးမ	-11.4621
▁တီးသူတွေ	-11.4625
▁မှုတွေပါ	-11.4629
▁းကဏ	-11.4635
ရှိတာက	-11.4638
▁နီးနီး	-11.4639
▁မှုတ	-11.4645
▁ပြုပေး	-11.4647
▁ဒုတိယက	-11.4649
▁းစရာက	-11.465
▁b	-11.4652
▁ပွတ	-11.4661
▁နေပုံ	-11.4661
▁အတွဲ	-11.4663
▁အစိုးရကို	-11.4663
ွာ	-11.4664
ထားပါ	-11.4667
မေးတာက	-11.4668
▁ချွေး	-11.4671
သိချ	-11.4673
ချိတ	-11.4678
▁အခြားအရာတွေ	-11.468
▁တာနော	-11.4682
နိ	-11.4706
▁နှလုံးသားက	-11.4713
▁Na	-11.4719
▁တွေးတာ	-11.473
▁ထဲမှာတော	-11.4735
▁ဒီလှ	-11.4735
▁ဩမိ	-11.4739
▁နေချ	-11.4745
▁ဦးပါ	-11.4749
ဦးမှာပါ	-11.4755
▁စားလို	-11.4772
▁စားချ	-11.4777
▁မေးရ	-11.4779
▁အခြားသူတွေက	-11.4784
▁မပို	-11.4785
▁Em	-11.4805
▁လောကကြီး	-11.4807
▁းကိုလ	-11.481
▁ငံတွေက	-11.4814
အကျပ	-11.4815
▁ဆေးမှု	-11.4816
▁းတွေဆီ	-11.4818
ဒါန	-11.4822
▁မှိုတွေ	-11.483
ီမှာ	-11.4833
▁စေလို	-11.4844
▁မယူ	-11.4853
▁ဒီကိရိယာ	-11.4853
▁လွှားမှာ	-11.486
▁ကြပ	-11.4877
ဆုံ	-11.4878
▁ညစာ	-11.4886
▁အကျိုးစီးပွား	-11.4897
▁းထိ	-11.4898
▁းလာကြ	-11.4901
▁တာလား	-11.4906
စားလှ	-11.4916
▁ရေတွ	-11.4919
her	-11.4922
သူကို	-11.4939
ub	-11.4943
လာတာလဲ	-11.4945
▁ဒီဒေတာ	-11.4955
ကုလသ	-11.4959
▁ရလဲ	-11.4965
▁ကိုဖြ	-11.4967
▁ပေးထားတာ	-11.4968
▁မသိန	-11.4975
မျိုးပဲ	-11.4982
ကြမလဲ	-11.4984
မထ	-11.4985
ရေးဟာ	-11.4986
▁Be	-11.499
▁လိုတာကို	-11.4994
ထဲကနေပြီး	-11.4996
▁အရေးတွေ	-11.4999
▁ခုခုမှာ	-11.5002
မရှိတာ	-11.5003
အကြာမှာ	-11.5009
ett	-11.5016
ီးစပ	-11.5031
▁သဘောပါ	-11.5036
▁သေတာ	-11.5037
▁ဆလ	-11.504
လူမျိုး	-11.504
▁စွဲမ	-11.5041
▁အခြားလူ	-11.5043
ပိုးအိ	-11.5044
▁ကူးလို	-11.5046
▁ရှိသမျှ	-11.5051
းတွေကို	-11.5057
▁သဘာဝအ	-11.5058
လျှို	-11.5064
နေရာရာမှာ	-11.5067
▁နေတာတွေ	-11.5068
▁ဖွား	-11.5069
မိသားစု	-11.5077
မိမိ	-11.5082
ပေးပါလ	-11.509
▁အားလုံးသိ	-11.5099
▁၁၀၀၀၀	-11.5101
▁အမျိုးသမီးတွေက	-11.5102
▁မပါဘူး	-11.5103
▁ဘဝထဲက	-11.511
▁ဆံမှုတွေ	-11.5112
▁ဦးစားပေး	-11.512
▁အလိုအ	-11.5122
▁ဆံသူ	-11.5125
▁နှာတွေ	-11.5133
▁ဘီလ	-11.5143
လာလေ	-11.5143
▁အလှအပ	-11.5146
▁ကိုပြော	-11.5147
ord	-11.5155
▁Tor	-11.5158
▁အခုမ	-11.5159
ဟပ	-11.5164
လု	-11.5166
လှုံ	-11.5169
ဝဲ	-11.517
▁ဆိုလိုချ	-11.5171
▁ပိုဆိုး	-11.5194
▁စကားပြောတာ	-11.5208
▁မမေ	-11.5208
▁ဒီလိုအ	-11.5211
▁ထားတာကို	-11.5215
▁ပညာရေးဆို	-11.5223
ရှိတာကို	-11.5224
▁ခါး	-11.5225
▁ထူးခ	-11.5225
ခံပြီး	-11.5228
▁မထိန	-11.5236
▁အလွှာတွေ	-11.5247
Bay	-11.5255
▁ဒီလိုဆို	-11.5268
ble	-11.5271
▁ထူးခြားတာ	-11.5276
ven	-11.5284
▁မတွေးမိ	-11.5287
▁In	-11.5287
▁မဲပေး	-11.5289
▁Gre	-11.5297
ridge	-11.5298
▁အဘိဓ	-11.5299
▁Angel	-11.5299
▁INCRA	-11.5299
▁MIT	-11.5299
▁ဂူဂဲ	-11.5299
▁ဒဿန	-11.5299
▁သံမဏိ	-11.5299
▁အရူးအမူး	-11.5299
▁၂၀၁၁	-11.5299
▁စပီကာ	-11.5299
▁နွေးထွေး	-11.5299
▁Every	-11.5299
▁genome	-11.5299
▁တလဲလဲ	-11.5299
▁နေဂျာ	-11.5299
▁ပီတိ	-11.5299
▁ယေဘုယျ	-11.5299
▁သားနား	-11.5299
▁app	-11.5299
▁Navi	-11.5299
▁ဓာတုဗေဒ	-11.5299
▁ဘီလူး	-11.53
▁သိုးမွှေးထိုး	-11.53
▁ဆိုးဆိုး	-11.53
▁၂၀၀၇	-11.5301
▁ကွာဟ	-11.5301
▁မြေမြှ	-11.5301
▁မူလတ	-11.5301
▁Rise	-11.5301
▁Sch	-11.5302
▁ဓားပြ	-11.5302
▁အားလုံးနီးပါး	-11.5303
▁နိုးကြား	-11.5303
▁ဒီစကားလုံး	-11.5303
▁ဝေါ	-11.5303
▁မျိုးပွား	-11.5303
▁သောကြာ	-11.5304
▁စံပြ	-11.5304
▁၃၃	-11.5304
▁တူရိယာ	-11.5304
▁ကြီးရှ	-11.5305
▁Sm	-11.5305
err	-11.5308
▁ခံထားရ	-11.5309
▁ကြုံရာ	-11.531
▁အဟာရ	-11.5311
ပြီးသား	-11.5312
▁ဂျာမန	-11.5313
▁မှီ	-11.5314
▁းမကြီး	-11.5315
ပြီးပြီ	-11.5317
▁ဒီရောဂါ	-11.5319
▁အသိတရား	-11.532
▁လေးန	-11.5322
▁ကားထဲက	-11.5329
▁စောပြီး	-11.533
▁နီယာတွေ	-11.5332
ပြောချ	-11.5338
▁နေသူတွေ	-11.5348
▁ပြနေတာ	-11.5349
▁းရဲဆုံး	-11.5355
▁မိလား	-11.5358
▁အသီး	-11.5359
▁ထားပေး	-11.5364
▁ခဏလေး	-11.5369
ron	-11.537
ပေးတာပါ	-11.5372
ိုအ	-11.5373
▁စကားသံ	-11.5374
▁ကဗျာဆရာ	-11.5378
▁အသီးသီး	-11.5386
▁ခဏာတွေကို	-11.5391
▁ဒါလေး	-11.5393
▁ပညာပေး	-11.5404
▁ဓေ	-11.5406
ရေးရာ	-11.5408
▁အားအက	-11.5408
▁သုံးချ	-11.5411
▁မသွားဘူး	-11.5415
ာတွေကို	-11.5416
ther	-11.5416
▁ဝါဒီ	-11.5418
သုတ	-11.5423
▁အဖြေကို	-11.5432
ပြုပြီး	-11.5435
▁ဩစရာက	-11.5438
ကိုး	-11.5438
▁ကျုံ	-11.5442
နေရတာလဲ	-11.5445
▁ကဘ	-11.5445
▁အချိုး	-11.5453
ပွဲတွေ	-11.5453
▁ငံရေးသမားတွေ	-11.5467
ကြပါပြီ	-11.5472
ရပြီ	-11.5474
▁မျိုးပေါ	-11.5478
▁အာဖရိကကို	-11.548
▁ဗြ	-11.5482
ob	-11.5486
▁စာမ	-11.5486
ူပ	-11.5493
▁နေတာကိုး	-11.5493
▁ငံက	-11.5501
▁ခုထဲမှာ	-11.5502
▁အရာဟာ	-11.5508
▁သွေ	-11.5509
▁နေဦး	-11.5511
▁အရှိဆုံး	-11.5511
ose	-11.5512
▁သုံးဆ	-11.5513
▁နေကြပါပြီ	-11.5514
▁အများစုကို	-11.5515
▁ကမျ	-11.5525
▁ကြရတာ	-11.5527
▁ဆရာတွေက	-11.5535
▁ရပေမ	-11.5537
▁မိဘူး	-11.5546
ပုံပြ	-11.5551
ပြီဆို	-11.556
▁အာဖရိကန	-11.5562
▁အသိပေး	-11.5566
ke	-11.5568
▁ဒီစကား	-11.5569
▁ရှိပြီ	-11.5569
▁းဟ	-11.557
▁ဦးဦးက	-11.5573
▁ဘီ	-11.5586
▁ချပေး	-11.5591
▁အသံတွေကို	-11.5591
▁၁၉၄	-11.5607
▁မီဒီယာတွေ	-11.5607
သဝ	-11.5615
▁များမှာ	-11.5618
cur	-11.5619
▁ဒါပါ	-11.5626
nce	-11.5627
▁၃၀၀၀	-11.563
▁းမျိုးစုံ	-11.5637
▁ပွဲမှာ	-11.5642
▁စရာအ	-11.5643
▁မှုတွေမှာ	-11.5644
သေးလား	-11.5644
▁ညည	-11.5647
▁နာရီကို	-11.5647
▁ကဲကုလ	-11.5652
▁ဒရာတွေ	-11.5653
ခြေကျ	-11.567
ပျံ	-11.567
▁ပြားက	-11.567
▁းလဲတာ	-11.568
▁းကြီးပါ	-11.5694
▁ပေးနေတာ	-11.5698
လေးပေါ	-11.5702
▁စီးန	-11.5702
▁အရေးကြီးဆုံးက	-11.573
▁ပူပ	-11.5735
▁ပိုရ	-11.5742
▁Wi	-11.5747
▁ယူသူတွေ	-11.5749
▁လိုတာက	-11.5755
▁းသမား	-11.5755
▁ဇန	-11.5759
▁Rub	-11.5761
▁းဘာသာ	-11.577
တာကနေ	-11.5774
ရုံလေး	-11.5777
▁၆၀၀	-11.5778
ပု	-11.5783
ral	-11.5787
လာမှာကို	-11.5798
မှုမှာ	-11.5803
▁လူပေါ	-11.5807
▁းစကား	-11.5814
▁ဘာသာရေး	-11.5819
▁မှာထ	-11.5823
▁ရှိရှိ	-11.5828
▁းပိုက	-11.5832
▁းအားရှိ	-11.5832
▁နေကြရ	-11.5832
များပြား	-11.5845
am	-11.5852
နေပြီလေ	-11.5854
ပေးကြ	-11.586
▁ရေးထားတာ	-11.5862
▁တွေကျ	-11.5871
▁သေးတာက	-11.5871
▁လှဲ	-11.5873
▁စီတွေ	-11.5883
▁သေးဘူး	-11.5887
▁မေးန	-11.5892
▁မပျ	-11.5893
▁စီးသွား	-11.5898
▁Mai	-11.5905
▁ရာတွေကို	-11.5906
ခရီး	-11.5907
▁၅၀၀၀	-11.5923
▁ဖား	-11.5925
▁းလိုလို	-11.5928
ထူး	-11.5932
ိကို	-11.5938
▁အစားအစာတွေ	-11.5945
▁အများကြီးတ	-11.5956
လုံခြုံ	-11.5967
▁ဒီအံ	-11.5968
▁ညမှာ	-11.5971
▁ငါးမ	-11.5982
▁၂၈	-11.5983
သွားရ	-11.5987
ဦးထွ	-11.599
နေသလိုမျိုး	-11.6003
▁မိမှာ	-11.6008
▁စခ	-11.6014
ဝပ	-11.6018
သမားတွေ	-11.6035
▁ပေးတာက	-11.6053
ili	-11.6054
fre	-11.6056
▁ဇီ	-11.6059
နီးပါး	-11.6062
▁ကိုထွ	-11.6067
▁မကြာမီ	-11.6071
▁လေးတွေကို	-11.6084
org	-11.6086
ရုံပါပဲ	-11.6094
▁လူသားအ	-11.6096
▁များမှ	-11.6097
ုရ	-11.611
▁မလေးတွေ	-11.6112
▁ပါရစေ	-11.6118
လျား	-11.6119
▁Ra	-11.6121
▁ခံစားလို	-11.6123
▁Bu	-11.6124
တာတော	-11.6137
▁ဂွ	-11.6144
▁မပျော	-11.6144
ဗီဇ	-11.6146
▁ပဏီများ	-11.6154
▁နေရာတွေပါ	-11.6164
▁သွားမှာ	-11.6167
▁စကားမပြော	-11.6168
▁နှိုး	-11.6169
ဘူ	-11.6171
တိကျ	-11.6173
ကြားမှာ	-11.6176
အရှိဆုံး	-11.6178
▁ရိုးရိုးလေး	-11.6183
▁ရှာပေး	-11.6184
အနေအထား	-11.6184
ငှား	-11.6184
▁အထိန	-11.6186
ဝေဒနာ	-11.6188
3	-11.6188
လုံးလုံး	-11.6191
▁အဖြေတွေ	-11.6194
ဓါတ	-11.62
▁သာယာ	-11.6202
▁တွေးနေ	-11.621
လာပြီ	-11.6213
နေရတာ	-11.6217
▁ပြုန	-11.6234
▁ဂီ	-11.6243
▁းပုံကို	-11.6244
▁းဆိုတာက	-11.6245
ရုံပဲ	-11.6258
hu	-11.6262
▁စတေး	-11.6264
▁ချောမွ	-11.6264
▁ဒီလိုပဲ	-11.6268
▁းလာနေ	-11.6272
▁ရှိသ	-11.6283
ဆေးရုံက	-11.6286
▁မရှိကြဘူး	-11.6289
▁ပုံး	-11.6296
▁ပြောထား	-11.6297
▁ရွေးက	-11.6302
▁Gi	-11.6304
▁ဒေသတွေ	-11.6311
▁ရှားမိ	-11.6317
▁ထားသလို	-11.6317
▁ကြသလို	-11.632
▁ကလေးအ	-11.6321
▁ပြုမူ	-11.6325
▁သားကော	-11.6325
▁အရသာ	-11.6326
▁ရှိရာ	-11.6327
▁နံရံတွေ	-11.6327
▁သွေးကြောတွေ	-11.6342
မာန	-11.635
းချပ	-11.6358
▁ပါတီ	-11.636
▁သပ	-11.6363
▁ငံများ	-11.6371
▁လာကြပါ	-11.6378
▁ရှားသူတွေ	-11.6378
▁အဖိုးတ	-11.6379
ီးယား	-11.638
▁သားရေ	-11.6392
▁နံန	-11.6392
▁းလျာ	-11.6392
▁ပုစ	-11.6393
ီးရီးယား	-11.6402
▁အရေးကြီးတာက	-11.6405
▁အဖွား	-11.6405
run	-11.6409
ight	-11.6409
လုံခြံု	-11.641
▁Micro	-11.641
soft	-11.641
ထွေထွေ	-11.641
အစုအဝေး	-11.641
▁California	-11.641
▁Nick	-11.641
▁Robert	-11.641
▁Scott	-11.641
▁Sky	-11.641
▁ပါရဂူ	-11.641
▁မကြာမကြာ	-11.641
▁အခြေခံဥပဒေ	-11.641
▁ဒီဟောပြော	-11.641
▁အပေးအယူ	-11.641
▁နဝါရီ	-11.641
▁အသုံးအနှု	-11.641
▁Franc	-11.641
▁တမှို	-11.641
▁ပြိုကွဲ	-11.641
▁brea	-11.641
▁ဂျူလီ	-11.641
▁ကဗျာစာပေ	-11.641
▁Valle	-11.641
▁မီးသွေး	-11.641
▁နှလုံးရောဂါ	-11.6411
▁၁၉၅၀	-11.6411
▁Jane	-11.6411
▁Adam	-11.6411
▁ဍာရီ	-11.6411
▁အချိုးအစား	-11.6411
▁၂၀၀၉	-11.6411
▁အကာအ	-11.6412
▁၂၀၀၈	-11.6412
▁အရေးမပါဘူး	-11.6412
▁အဖျား	-11.6412
▁၉၅	-11.6412
▁သြဘာ	-11.6412
iza	-11.6412
▁စာရေးသား	-11.6413
▁ရုံတ	-11.6413
▁Alla	-11.6413
alk	-11.6414
▁၅၅	-11.6414
▁TM	-11.6415
▁ညှို	-11.6416
▁ကြိုးစာ	-11.6417
▁ရှိစေ	-11.6418
ူလာ	-11.6418
▁၂၇	-11.6419
▁ပုံသဏ	-11.642
▁CD	-11.6424
▁ဖူးပါဘူး	-11.6428
▁as	-11.6429
▁လာနေကြ	-11.643
ue	-11.643
ခုနှ	-11.643
▁ဘာတွေများ	-11.6431
▁အမျိုးသမီးဝါဒီ	-11.6433
ရှိစေ	-11.6433
▁အခြေအနေတွေမှာ	-11.6442
▁ဒီအမျိုးသမီး	-11.6443
များဆို	-11.6444
▁မခံစားမိ	-11.6448
▁အပြုံး	-11.6452
▁စွဲမြဲ	-11.6453
▁လုံး၀	-11.6453
▁းရဲသားတွေ	-11.6455
air	-11.6457
▁းဗျူဟာ	-11.6459
ဖြူ	-11.6459
▁Sam	-11.6463
▁လိုပုံ	-11.6465
▁ရာဘာ	-11.6465
▁သြစရာက	-11.6468
▁အကြွေး	-11.6469
▁များဆို	-11.6472
▁းဆိုးဝါး	-11.6475
မျိုးလို	-11.6476
▁ဒါတွေအားလုံးကို	-11.6477
▁အနားမှာ	-11.6477
ack	-11.6478
▁မသိတာ	-11.649
မှမဟ	-11.6491
▁ပုံပညာ	-11.6493
▁စျေးပေါ	-11.6496
▁မပူ	-11.6502
▁စားနေ	-11.6505
▁စရာပါပဲ	-11.6509
▁တွေးနေရုံ	-11.6517
▁ဒီအပေါ	-11.6518
ာထဲမှာ	-11.6518
▁ဘူးဆိုတာကို	-11.6521
▁အသွေးကို	-11.6522
▁လူအများကြီး	-11.6538
▁ဘာလုံးကို	-11.6539
ဇူး	-11.6548
▁ထားကြ	-11.6559
▁ကာလမှာ	-11.6563
ရဲစွ	-11.6564
▁မှုဆီကို	-11.6568
▁ရေးနေ	-11.6572
▁ဓာဗေဒကို	-11.6573
▁ငံတ	-11.6573
▁သူဘာ	-11.658
▁ရလာတာ	-11.6582
▁ပိုအ	-11.6583
▁ပိုထိ	-11.6588
▁ခုဆီ	-11.6589
▁ဆုံမ	-11.6592
▁ခုထဲ	-11.6592
▁တေ	-11.6592
ကြလား	-11.6593
▁ကရစ	-11.66
▁အသံပို	-11.6606
▁လူသားတွေဟာ	-11.6606
arv	-11.6611
▁မျှသာ	-11.6621
▁ကျရှုံးမှု	-11.6625
▁မိုးတိ	-11.6633
ထဲမှာပဲ	-11.6633
line	-11.6634
▁းကွဲ	-11.6635
▁ဘာလဲဆို	-11.6636
ာဝန	-11.665
အမြဲပဲ	-11.6652
မျိုးမှာ	-11.6653
▁ထုကို	-11.6656
▁ဆား	-11.666
သမျှကို	-11.667
▁ဇာ	-11.6671
▁နေတာတွေကို	-11.6677
ားရပ	-11.6677
▁လစာရ	-11.6678
▁မှုပညာ	-11.6678
▁ဥပဒေတွေ	-11.6681
▁Gra	-11.6685
to	-11.6686
▁းပြောနေ	-11.6686
ပြောနေ	-11.6687
ဗို	-11.6688
▁ပထမအ	-11.669
စာလုံး	-11.6692
ul	-11.6697
ium	-11.6708
▁ရုံသာမက	-11.671
▁းလဲရေး	-11.6712
▁ပြသပေး	-11.6713
▁ကျေ	-11.6715
yn	-11.6719
အများစုက	-11.6724
▁ဆံကို	-11.6727
▁းဌာန	-11.6734
▁ကလေးတွေမှာ	-11.6738
▁မပေးနိ	-11.6739
▁အပြာ	-11.6739
းလ	-11.6753
▁သူကပြော	-11.6755
နေမိ	-11.6761
▁ဘူ	-11.6762
▁ကူးပြ	-11.6764
လေဆိ	-11.6775
▁ပြုံးနေ	-11.6779
▁ကူညီန	-11.6781
▁တီးပြီး	-11.6782
▁အမှုန	-11.6785
▁ဘာများလဲ	-11.6785
tel	-11.6788
▁ရေးမှာ	-11.6795
▁တိုးဝ	-11.6813
▁ဒရာထဲ	-11.6821
▁Time	-11.6823
▁လေးဆ	-11.6824
▁မကပဲ	-11.6824
▁တိပ	-11.684
▁တွေဆီကို	-11.6846
▁ကြပုံ	-11.6849
မမြ	-11.6851
▁မခေါ	-11.6856
▁ရေတို	-11.6863
if	-11.6864
ဆစ	-11.6866
▁သုံးလာ	-11.6873
▁ရဘူး	-11.6874
▁Bar	-11.6877
▁ဆေးဝါးတွေ	-11.6885
▁စာတိုက	-11.6886
▁းမာရေးစ	-11.6886
▁ကလေးမွေး	-11.6891
▁တွေပေး	-11.6899
os	-11.6909
တာလား	-11.6911
▁ဆီသွား	-11.6913
များထဲက	-11.6914
▁မသိပေ	-11.6917
▁စီမံပေး	-11.6927
လဲဆိုတာပါ	-11.6928
▁အမတ	-11.6931
▁စုတစ	-11.694
စရာကြီး	-11.6941
▁မှားနေ	-11.6943
▁ကျေးဇူးပဲ	-11.6946
▁တလော	-11.6952
uck	-11.6953
▁ကြားရေး	-11.696
▁အမျိုးအစားတွေ	-11.6966
ဦးမှာ	-11.6971
▁းဖူး	-11.6973
▁ထဲမှာပါ	-11.6976
ဘဝမှာ	-11.6979
ကြီးလာ	-11.6984
▁များဖြ	-11.699
▁ကတိ	-11.6994
အလွ	-11.6994
မှုနှ	-11.6996
vil	-11.7015
▁းမရှိဘူး	-11.7018
▁နေရုံ	-11.7028
▁For	-11.7034
းတာ	-11.7036
▁တွေကလ	-11.7039
▁မီးအ	-11.7043
စေပြီး	-11.7046
▁လေသံ	-11.7048
▁re	-11.7054
▁ပထမအကြ	-11.7058
▁ပြေးနေ	-11.7061
▁ကျေးလ	-11.7067
▁ရေးခြ	-11.707
နေကြပါပြီ	-11.7077
▁သုံးနေကြ	-11.7091
▁ဩစရာပါ	-11.7095
▁ယူရေး	-11.71
သွားစေတာ	-11.7104
ရှား	-11.7105
▁ဝေါဟာရ	-11.711
▁Dan	-11.711
သွားတာကို	-11.7113
▁ညီမှု	-11.7113
▁အပြား	-11.7114
သိကြ	-11.7118
tan	-11.7124
▁Ed	-11.7127
rd	-11.7134
မှုမျိုး	-11.7135
▁ရေးကြီး	-11.7136
▁ကြေကွဲ	-11.7137
▁အခြေခံထား	-11.7138
we	-11.7139
▁ကလေးပါ	-11.714
arl	-11.715
ပုံစံကို	-11.7151
▁ဩသွား	-11.7156
▁အဓိကအ	-11.7159
▁းပျော	-11.716
▁ရာတွ	-11.7163
ကြီးထဲမှာ	-11.7179
အမြဲ	-11.718
▁ပထမဦးဆုံးအ	-11.7182
ိတော	-11.7195
▁ပုံမျိုး	-11.7196
▁စီးမှု	-11.7197
▁မရွေး	-11.7207
▁းမှာတော	-11.7214
▁မှီခို	-11.7225
▁အမွေ	-11.7228
IA	-11.7236
▁မှုနှ	-11.7237
▁လူလာ	-11.7245
▁တီးရေး	-11.7245
▁းလာန	-11.7249
▁ဥပဒေပြု	-11.7258
စာရေး	-11.7259
ာဟာ	-11.726
▁အရာရှိတွေ	-11.7261
ပါသလား	-11.7264
လူတွေကို	-11.7266
▁Ri	-11.7274
are	-11.7277
▁းဘာ	-11.728
▁Pa	-11.7282
▁းသားအ	-11.7286
▁ကားလို	-11.7289
▁ညီမ	-11.7291
ကြားချ	-11.7295
▁မရှိသေး	-11.7304
▁အစပျိုး	-11.7306
▁နေအော	-11.7306
ှမ	-11.7315
▁သံတွေ	-11.7318
▁ပြောပြန	-11.732
ချီပြီး	-11.7321
▁ယူသွား	-11.7331
▁သားကို	-11.7334
ဖုံး	-11.7337
လုံးမှာ	-11.7361
ဓ	-11.7366
သူရဲ	-11.7378
▁ကလေးပေါ	-11.7382
ဆိုတာပဲ	-11.7392
သိတာ	-11.7393
▁အာဏာပ	-11.7399
▁စားရ	-11.7401
၇၆	-11.7401
▁ရပါပြီ	-11.7403
▁ပြောဆိုကြ	-11.742
နေသလို	-11.7425
▁သဘာဝပ	-11.7429
ဇီဝ	-11.7434
ဝံ	-11.7436
၁၆	-11.7438
▁အထားတွေ	-11.7441
အကြံ	-11.7443
▁ဒါကြီး	-11.7449
▁းမသား	-11.7452
ဆွေးနွေးပွဲ	-11.7455
▁စရာမရှိ	-11.7455
▁ရှိရတာ	-11.7465
▁နှာက	-11.7472
ရှာဖွေ	-11.7475
▁းသေး	-11.7476
ွေအန	-11.7476
အမေရိကန	-11.7478
ence	-11.7492
ဒီလို	-11.7497
▁အကြီးကြီး	-11.75
ုလ	-11.7501
▁အကြီးအကဲ	-11.7506
od	-11.7515
▁ရှိသူ	-11.7516
▁Str	-11.7523
မပြတ	-11.7524
▁မောနေ	-11.7533
win	-11.7538
▁မှာရှိနေ	-11.7542
လာတာပါ	-11.7544
▁မြွေ	-11.7556
▁းလာစေ	-11.756
▁သိသ	-11.756
▁းကြီးတွေ	-11.7562
▁ရှိနေပြီ	-11.7567
ယူဆ	-11.7571
▁စုံလ	-11.7586
▁Man	-11.7589
လေးစား	-11.7592
ထားနို	-11.7594
▁ဓာတုပ	-11.7595
▁ခါတော	-11.7608
▁အရာလေး	-11.7617
▁Ju	-11.7634
▁ရှာလို	-11.7635
တာတွေပါ	-11.7645
▁အသေ	-11.7646
▁မုသား	-11.7648
▁းမှီ	-11.7654
▁သူမအ	-11.7655
renc	-11.7656
နားကပ	-11.7656
▁ရေးမှူး	-11.7659
▁စတူဒီယို	-11.766
▁Steph	-11.766
▁photocataly	-11.766
▁ခဏခဏ	-11.766
▁လျှူရှု	-11.766
▁သဟဇာတ	-11.766
ograph	-11.766
ဝီစကီ	-11.766
▁America	-11.766
▁Anderson	-11.766
▁Charles	-11.766
▁Grand	-11.766
▁House	-11.766
▁South	-11.766
▁ကီလိုမီတာ	-11.766
▁နိူးကြား	-11.766
▁အကိုးအကား	-11.766
▁အာမီဒါဘ	-11.766
▁Intern	-11.766
▁Morgan	-11.766
▁ခြေတု	-11.766
▁သီကုံး	-11.766
▁ချီးမွ	-11.766
▁အသုဘ	-11.766
▁ပီရူး	-11.766
etzi	-11.766
▁မဆိုလိုပါဘူး	-11.7661
▁သွေဖ	-11.7661
မကြီးပါဘူး	-11.7661
▁ဂနွေ	-11.7661
▁Ava	-11.7661
တေွ	-11.7661
ugu	-11.7661
▁စားပွဲထိုး	-11.7662
mme	-11.7662
▁မိုးရွာ	-11.7662
▁Medi	-11.7662
▁နှာချေ	-11.7662
▁Cent	-11.7662
▁းချီဆွဲ	-11.7663
▁းပုံစံ	-11.7663
▁သတိပြုမိ	-11.7663
အဏုဇီဝ	-11.7663
▁ဒီဟာက	-11.7664
orr	-11.7664
▁အလေးပေး	-11.7665
▁သုသေသီတွေ	-11.7665
▁ဘာတလွှား	-11.7666
▁ဥပမာပြောရ	-11.7667
▁တခြားဟာတွေ	-11.7667
▁၃၄	-11.7667
▁အနွေး	-11.7669
lw	-11.7669
▁Yah	-11.7669
▁မတူပါဘူး	-11.767
eis	-11.7674
▁အရိုးစု	-11.7675
aille	-11.7675
▁အခြားဟာတွေ	-11.7677
▁ဒီခရီး	-11.7678
mas	-11.7678
▁ငါးဆ	-11.7679
▁မအဖေ	-11.7679
▁ကြွား	-11.7681
▁ရေခဲပြ	-11.7681
ham	-11.7682
▁လှူ	-11.7694
တွေးမိတာက	-11.7696
▁အစားအစာကို	-11.7699
▁Dis	-11.7699
▁ဒီအပြ	-11.7699
မျှသာ	-11.77
▁အရူး	-11.77
▁ဒီယာ	-11.7702
▁ပိုကြာ	-11.7702
▁ဟိုး	-11.7704
▁ပြေးပုံစံ	-11.7706
▁အဏု	-11.7707
▁လေထုထဲ	-11.771
▁ကြီးမားလှတ	-11.7711
▁အခြေပြု	-11.7713
▁ဆေးကျော	-11.7713
▁ကျိုးမ	-11.7713
▁ျားတွေဟာ	-11.7714
▁အသေးလေး	-11.7714
▁ဒီဥ	-11.7716
သတိပြု	-11.7717
အရေးမပါ	-11.7722
▁လူပုဂ	-11.7723
▁မကြိုးစား	-11.7724
းသီးဟ	-11.7725
▁လာသူ	-11.7728
▁အဖုံး	-11.7733
▁ပိုအား	-11.7734
▁ဖေး	-11.7736
▁နေကြတာကို	-11.7741
▁ဒရာကို	-11.7743
▁သေစေ	-11.7749
▁ပိုပြီးမြ	-11.775
▁းမာမှု	-11.7754
▁ပွားလေး	-11.776
▁မခံစားရ	-11.776
ထိပ	-11.7761
▁သွားမလဲ	-11.7761
▁ပါရီ	-11.7766
▁၁၉၀	-11.7767
▁းခွံ	-11.7769
ander	-11.7775
တွေအများကြီးရှိ	-11.7776
▁ပုံကြီး	-11.7777
▁ဆုံးရှုံးသွား	-11.7777
▁သေးပါ	-11.7777
▁ဘိုးဘွားတွေ	-11.7779
▁တီးမှုတ	-11.7785
▁အအေး	-11.7785
▁နေပုံရ	-11.7788
▁သွားလဲ	-11.7797
▁ပုလဲ	-11.7802
▁အခြေအနေဟာ	-11.7809
ကြုံရ	-11.7809
▁ရှားမှုတွေကို	-11.781
▁ဝေဒနာကို	-11.7814
Fi	-11.7815
▁းထဲမှာရှိတဲ	-11.7815
▁Son	-11.7815
▁နေတာလေ	-11.7817
ကြသူများ	-11.7825
▁ရာထ	-11.783
▁ကျနေ	-11.7835
▁ကြာပြီး	-11.7836
▁ကြရမှာပါ	-11.7837
ရှာနေ	-11.7847
▁အထုံး	-11.7851
လိုဘဲ	-11.7853
▁He	-11.7856
စာချ	-11.7872
▁Ja	-11.7873
▁ဒီရေ	-11.7876
▁းကျကျ	-11.7876
ntha	-11.7877
▁Mil	-11.7881
ore	-11.7883
▁မိလို	-11.7883
▁မရှိသ	-11.7889
▁ပြပေးန	-11.789
▁မွှေ	-11.7894
ပူဖ	-11.7894
▁ရှားလာ	-11.7895
ကြားရ	-11.7904
ရှိရမ	-11.7904
▁ပြူတာကို	-11.7911
▁Pet	-11.7913
▁ဒိယန	-11.7913
▁ရေလို	-11.7915
thy	-11.7918
ွေကို	-11.7919
▁ဆိုကြပါ	-11.7947
▁ပိုများလာ	-11.7947
▁ခုထဲက	-11.7965
▁ရုံပဲ	-11.7971
▁River	-11.7974
▁သမီးလေး	-11.7976
ချိုး	-11.7981
▁မျှဝေပေး	-11.7983
▁သေကြ	-11.7988
ပုံရိပ	-11.7988
▁တွေအားလုံးကို	-11.7995
▁ဘိ	-11.7997
▁tha	-11.7998
▁လူတွေအားလုံး	-11.8002
▁ရှိသူတွေ	-11.8011
▁နေရာရာမှာ	-11.8013
▁မှုဆိုတာက	-11.8015
▁းတွေရှိတ	-11.8022
ite	-11.803
▁မီးတော	-11.803
▁ကြီးတွေကို	-11.8031
▁စကားပြောဆိုမှု	-11.8032
▁ကုသပေး	-11.8032
တရားထ	-11.8037
▁အဆုံးမရှိ	-11.8039
▁Ind	-11.8043
▁အခြေအနေက	-11.8047
▁မရှိမ	-11.8056
▁Chi	-11.8058
▁ကာလကို	-11.8058
▁ခံစားရတာ	-11.806
ယူလိုက	-11.8063
▁ဆွေတွေက	-11.8067
▁ဘာရ	-11.8067
▁းတပ	-11.8078
▁စုံစ	-11.8081
▁ယမ	-11.8095
▁ကြပြီ	-11.8097
▁ဆိုတာတော	-11.8121
▁လုံးချ	-11.8132
▁တွေးနေမိ	-11.8133
▁ကြိုးစားရ	-11.8144
▁လေးတွေက	-11.8155
ဖျော	-11.8169
▁လေကျ	-11.8174
der	-11.8174
off	-11.8182
▁Do	-11.8185
bu	-11.8197
▁ဖိုးထားမှုတွေ	-11.8205
ေးလ	-11.8207
▁ဒီအထဲမှာ	-11.8207
ဆိုသလို	-11.8209
လာလ	-11.821
▁သွားမှာပါ	-11.8212
အကျဆုံး	-11.8213
ကျိုးပဲ	-11.822
▁အသုံးပြုကြ	-11.8223
မရှိဘူးဆိုရ	-11.8232
▁အရေးပေး	-11.8233
▁အလားအလာတွေ	-11.8238
here	-11.824
▁းလေးပါ	-11.8245
▁ပညာသ	-11.8245
▁းစာရ	-11.8251
အမျိုးမျိုးကို	-11.826
▁ဒီလူတွေက	-11.8272
မပါဘဲ	-11.8285
ure	-11.8289
▁မျိုးရှိ	-11.8293
ကြမှာက	-11.8294
▁ပြေးသွား	-11.8301
▁အာမခံပေး	-11.8302
ရာနှ	-11.8312
လေးတွေပါ	-11.8312
▁းအားက	-11.8318
▁Ru	-11.8319
အရာတွေ	-11.8323
lor	-11.8325
ရှိပါသလား	-11.8326
ဖိန	-11.833
▁သားလေး	-11.8331
ner	-11.8334
▁ဖီဆ	-11.8348
ပါးန	-11.8352
illa	-11.836
▁မတူဘူး	-11.836
yon	-11.8367
▁ခြေလ	-11.8369
▁မှုမှ	-11.8377
▁အရာမျိုး	-11.8382
▁းဆီမှာ	-11.8399
▁Gu	-11.8403
▁ရှိနေပြီး	-11.8407
▁းစာမှာ	-11.8411
ila	-11.8416
ဗိုလ	-11.8422
▁ရှားနေတာ	-11.8423
လာကာ	-11.8426
▁စကားပြောသူ	-11.8432
▁သဘာဝကို	-11.8435
▁အတားအဆီးတွေ	-11.8435
▁El	-11.8445
ရယူ	-11.8452
▁ဆေးကို	-11.8454
▁တရားတွေ	-11.8468
းပတ	-11.8477
▁Nik	-11.8477
▁မစား	-11.848
▁ရုံပါပဲ	-11.8502
ess	-11.8503
အရှ	-11.8504
▁တိကျမှု	-11.8508
olly	-11.851
arch	-11.8511
iger	-11.8521
▁စာဝ	-11.8535
ူရွ	-11.8541
ona	-11.8547
est	-11.8552
ပွဲမှာ	-11.856
▁ထာ	-11.8562
▁လုံးဝအ	-11.8568
စုကို	-11.8572
▁သားမှာ	-11.8576
ခံစားမိ	-11.858
ပြောလဲ	-11.8584
ပါ၀	-11.8594
ထားသလို	-11.8595
anda	-11.8602
ကြသလဲ	-11.8616
လဲလျ	-11.8623
▁ဇော	-11.8633
▁မကြာ	-11.8636
စရာမလိုပါဘူး	-11.8637
oo	-11.8641
သူတွေဆီက	-11.8645
ပြလိုက	-11.8661
ှိနှ	-11.8664
▁Kan	-11.8665
▁ကျူး	-11.8665
▁Ham	-11.8673
▁ပုံစံပြ	-11.8673
ရှေးကျ	-11.8693
▁အစားတွေ	-11.8693
စိုးရ	-11.8707
▁လိုမျိုးလဲ	-11.8722
▁အမေတွေ	-11.8724
▁ရေပ	-11.8726
▁၃၂	-11.873
▁မတူတာက	-11.8754
▁ဘာသာစကားတွေ	-11.8754
▁လူသားဆို	-11.8757
▁အထီး	-11.8783
အာရုံ	-11.8796
▁းစားမိတာက	-11.8813
ရာဇ	-11.8816
▁Ab	-11.882
▁အများက	-11.8821
ဝူး	-11.8831
▁ဒီဖ	-11.8835
▁လိုပါလ	-11.8838
ခံစားချ	-11.8846
▁ဆံရ	-11.8853
mb	-11.8854
တံခါး	-11.8866
၁၃	-11.8868
အဓိပ	-11.8868
သဘောကျ	-11.887
ဆုံးရှုံး	-11.8874
ဆိုလိုတာက	-11.8875
နေဆဲ	-11.8876
ဝါး	-11.888
▁ဘာကြီးထဲ	-11.8881
▁ကုထုံးတွေ	-11.8886
▁ခရီးဆ	-11.8893
ဖွံ	-11.8894
sy	-11.8909
ရှာကြ	-11.891
လုံခြုံရေး	-11.8914
▁၂၅၀	-11.8915
▁သူများတွေ	-11.8915
ာတိတ	-11.8918
▁ပြောနေကြတာ	-11.892
ီလီ	-11.8923
bel	-11.8923
များစွာကို	-11.8927
ata	-11.8928
den	-11.8932
၂၅	-11.8942
▁၄၀၀	-11.8948
▁မနေန	-11.8973
▁သုံးထား	-11.8975
▁ဆီလီ	-11.8978
သေးခ	-11.8987
ဘီဘ	-11.902
အထိကို	-11.9023
အဓိက	-11.9024
ရထား	-11.9024
▁နျူ	-11.9044
ရှိအ	-11.9046
▁းမလဲ	-11.9047
▁အထူးတ	-11.9054
▁းဘီ	-11.9057
ပြုပြ	-11.9059
၃၀	-11.9069
းလာ	-11.9071
အထူးကု	-11.9075
လာနေပါပြီ	-11.908
ndon	-11.9081
han	-11.9082
▁နှာချ	-11.9085
▁ကျေးဇူ	-11.9087
nci	-11.9088
ုံးအ	-11.9089
▁Louis	-11.9089
▁Michael	-11.9089
▁Sculpey	-11.9089
▁Space	-11.9089
▁Super	-11.9089
▁guide	-11.9089
▁ဂျာမဏီ	-11.9089
▁ဍတွေ	-11.9089
▁သူဌေး	-11.9089
▁အလွဲသုံးစား	-11.9089
ROV	-11.9089
မြေဩဇာ	-11.9089
▁Amazon	-11.9089
▁တခါတရံ	-11.9089
▁တပြေးညီ	-11.9089
▁နယူးဒေလီ	-11.9089
▁ဗြိတိသျှ	-11.9089
▁ရေနွေးကရား	-11.9089
▁သတိမထားမိ	-11.9089
▁every	-11.9089
▁ငွေလွှဲ	-11.9089
▁းလျှောစီး	-11.9089
▁ကြိယာ	-11.9089
▁အီတလီ	-11.9089
▁သနားစရာ	-11.9089
▁လေးလံ	-11.9089
▁ယာယီ	-11.9089
▁းစာနာ	-11.9089
▁အစေခံ	-11.9089
▁Black	-11.9089
▁ယုံမှား	-11.9089
▁တရားစွဲ	-11.9089
▁Hann	-11.9089
▁ြပီး	-11.9089
ava	-11.9089
wake	-11.9089
▁ပိုအရေးကြီးတာ	-11.9089
tten	-11.9089
▁ရှေးရိုး	-11.9089
▁သေခါနီး	-11.9089
▁ဘီလီယံချီ	-11.9089
▁အဖိုးအို	-11.9089
▁Snow	-11.9089
▁ယူကေ	-11.909
RIS	-11.909
▁သဘာဝမကျ	-11.909
▁Canad	-11.909
▁ခဲတံ	-11.909
▁Fort	-11.909
▁Lab	-11.909
တီဗ	-11.909
▁Deb	-11.909
▁သဘောမတူ	-11.909
▁Star	-11.909
▁Brun	-11.909
▁ဘီးစီး	-11.909
▁ဩဘာသံ	-11.9091
▁Ven	-11.9091
မူကွဲ	-11.9091
▁လူမှုအက	-11.9091
▁Mark	-11.9092
▁းအနှီး	-11.9092
▁တေး	-11.9092
▁စုဝေး	-11.9092
နယူးက	-11.9092
▁ညှိုး	-11.9092
▁Nort	-11.9093
▁ဝေဒနာခံစား	-11.9093
▁MR	-11.9093
▁အမျိုးသမီးများ	-11.9094
▁သားအရွ	-11.9094
▁Up	-11.9094
▁အများသိ	-11.9095
▁သုံးကား	-11.9095
▁ဘာသာဗေဒ	-11.9095
▁၃၇	-11.9095
▁နဂို	-11.91
▁ရှိနေဆဲ	-11.91
▁နွေဦး	-11.91
▁ဒီဆေး	-11.9101
▁သဘောမကျ	-11.9101
▁အဲဒီရောဂါ	-11.9102
ရီကိ	-11.9103
▁းချီရှိ	-11.9103
▁ကနေဒီ	-11.9104
▁ပြမီး	-11.9105
▁အခုလောလ	-11.9105
▁ညလုံး	-11.9106
▁ဆိုးကျိုးတွေ	-11.9109
▁ဒီအခြေအနေ	-11.911
▁ပိုကြီးမားတ	-11.9111
▁းစွဲ	-11.9113
▁ဘဝလုံး	-11.9113
▁သူလျှို	-11.9114
▁မရှိဘဲ	-11.9114
▁နဖူး	-11.9116
▁သဘာ	-11.9117
▁ပဲလား	-11.9118
မွေ	-11.9118
▁အမှုဆ	-11.9119
▁ပျိုးပ	-11.9121
▁ခုရှိတာက	-11.9122
▁ပိုကစား	-11.9123
▁အထူ	-11.9124
▁အာရုံခံကိရိယာ	-11.9125
▁စကားထ	-11.9127
▁ပျားတွေဟာ	-11.9127
▁ဂါနေ	-11.9127
▁အသုံးချန	-11.9128
လုံးအရ	-11.9129
▁မရှိလို	-11.9131
▁ဒီခေ	-11.9132
ပေးမှာပါ	-11.9132
▁ပိုးမွှား	-11.9132
▁သတိပေးတာ	-11.9138
▁သေထူပြ	-11.9139
ကြီးထဲ	-11.914
▁Is	-11.9146
▁မဘဝကို	-11.9149
▁ပျူတာတွေ	-11.915
▁နာကြ	-11.9151
▁ဖေဖေ	-11.9152
▁ဇာစ	-11.9154
▁ဆေးရုံကို	-11.9154
▁ဒူး	-11.9155
▁မှားတာ	-11.9159
▁မြေပဲ	-11.916
ထူးကဲ	-11.9166
hio	-11.9168
▁ဒါကိုပြော	-11.9173
▁ဘာလဲဆိုတာကို	-11.9173
▁သုံးဖ	-11.9176
ေါ	-11.918
▁ကြီးကြီးမားမား	-11.9182
▁မှေး	-11.9186
▁တသီကြီးကို	-11.9188
▁မငြ	-11.9191
▁းလဲမှုတွေကို	-11.9191
▁မကဘူး	-11.9199
▁စာရေးဆရာမ	-11.92
▁မလဲဗျာ	-11.9204
▁းရာသီ	-11.9205
▁ငုံ	-11.9205
ကလေးတွေကို	-11.921
▁ဆူး	-11.9213
▁မကျော	-11.9215
▁Th	-11.9219
၁၀၀	-11.922
▁ပိုပြီးအ	-11.9223
▁ခြုံ	-11.9225
▁ကာလပါ	-11.923
▁အရာတွေပါ	-11.9231
▁မဆိုး	-11.9233
▁ကူပေးန	-11.9233
▁တွဲပြီး	-11.9234
▁ပြူတာတွေကို	-11.9235
▁လကြာ	-11.9236
▁ဒီလူကို	-11.9238
▁တိုးပေး	-11.9239
▁မျှပေး	-11.9239
▁ဗျားအ	-11.924
▁းနီးပါး	-11.9248
▁မှုအား	-11.925
▁တရားရုံး	-11.9252
ကြီးထွား	-11.9252
▁သဘောမ	-11.9253
▁လူတွေအ	-11.9259
▁နေမှာပါ	-11.926
▁းချီကို	-11.9261
▁အရေးယူ	-11.9265
▁အသုံးပြုသူ	-11.927
▁အဲဒီလှ	-11.9275
မျှပါ	-11.9279
oli	-11.9281
▁သမီးကို	-11.9281
▁သူသိ	-11.9289
ပညာရေး	-11.9293
▁နာရီပါ	-11.9293
▁ဘားတ	-11.9294
▁ခံစားမှုကို	-11.9295
ာမတွေ	-11.9296
▁ဒီကိရိယာတွေ	-11.9305
▁ခုဆီကို	-11.9308
▁တီးမှုကို	-11.9309
▁လူအများစုက	-11.9317
▁နာရီမှာ	-11.9319
▁ရေထဲမှာ	-11.9321
▁နွှ	-11.9322
old	-11.9328
ရာသီ	-11.9329
▁ခွေ	-11.933
▁မီးကို	-11.9331
▁ဒီလိုမျိုးတွေ	-11.9332
▁နေဆဲ	-11.9333
ရယူန	-11.9339
▁ယူနေတာ	-11.934
ဒီမှာ	-11.9346
▁ငါးတွေ	-11.9348
▁ငါအ	-11.935
▁မဆွဲ	-11.9354
တရားကို	-11.9356
▁ညာန	-11.9356
▁နေလိ	-11.9357
အိုး	-11.9362
ဆိုတာပါပဲ	-11.9367
သဲလ	-11.9372
▁ယူတာ	-11.9372
▁လာပြီဆို	-11.9375
▁ပြောပြနေ	-11.9379
အနား	-11.9381
▁ယာန	-11.9382
▁မလွဲ	-11.9383
▁စစီ	-11.9383
▁ဘေးချ	-11.9385
၈၆	-11.9386
ထူးထူး	-11.9389
▁းဂျားတ	-11.9389
▁လုံးဝပြ	-11.9391
▁ဒီအတွေ	-11.9391
▁Mr	-11.9393
▁ဆွပေး	-11.9396
▁နိုဆော	-11.9402
▁သာလ	-11.9406
▁းကာလ	-11.9409
▁မခံနိ	-11.9412
tem	-11.9416
▁ကိုးရ	-11.9416
ရှိသူ	-11.9417
ပဲရှိသေးတ	-11.9423
နီဆီ	-11.9434
▁တိုးပွားလာ	-11.9435
▁အမေရိကကို	-11.9437
▁ဆေ	-11.9444
▁သုံးစွဲမှု	-11.9451
▁သဘောကို	-11.9453
▁ရရှိန	-11.9454
▁ရောဂါပါ	-11.9454
မွေးဖွားလာ	-11.9457
▁အသုံးပြုန	-11.9458
▁ပြုတာ	-11.947
▁အခုနေ	-11.9473
▁ဆုရ	-11.9474
ပဲဗျ	-11.9475
▁ဆရာတွေကို	-11.9481
ပွားများ	-11.9483
▁ရှိနေတာက	-11.9486
▁ဇာတိမြ	-11.9495
▁စေလိ	-11.9498
red	-11.9502
▁ကြီးလာတာ	-11.9507
▁ပေးမှာပါ	-11.9508
သိလား	-11.9508
ny	-11.9514
▁ချာပညာ	-11.9514
▁ဆွဲခဲ	-11.9523
ade	-11.9525
▁းဖြေ	-11.953
▁အတူတူရှိ	-11.9532
▁လွာ	-11.9536
▁ပြုမှု	-11.9552
▁ဆိုတာလေ	-11.9565
▁Bur	-11.9573
eet	-11.9577
ng	-11.9578
▁ဘို	-11.9581
နေတာလဲ	-11.9602
▁La	-11.9608
▁လူနေ	-11.9612
▁နေလား	-11.9614
▁Carolin	-11.9616
ဆိုတာလ	-11.9621
▁သိရှိလာ	-11.9621
▁ဘာမှမရှိ	-11.9621
▁ဆွဲကို	-11.9625
▁ပြစရာ	-11.9633
▁So	-11.9634
ua	-11.9644
une	-11.9647
အကြားမှာ	-11.9654
▁အရေးပါသူ	-11.9666
▁နေပါလ	-11.9668
နီးနီး	-11.9672
ဆု	-11.9685
ဝါရ	-11.9686
▁ရတာဟာ	-11.9687
▁ပူနေ	-11.9688
၈၀	-11.9689
tz	-11.9696
▁ခုံတွေ	-11.9697
▁Car	-11.9702
▁လုံးရှိ	-11.9722
▁ရှာရ	-11.9724
▁ရွာမှာ	-11.9725
▁ဖြေပေး	-11.9731
ဘီ	-11.974
ပြပွဲ	-11.9748
▁စေတာက	-11.9752
ရုံပါ	-11.978
▁ကလေးလေး	-11.9794
▁မသိကြပါ	-11.9811
acit	-11.9814
▁ကိုမေး	-11.9835
ကြီးအ	-11.9848
▁ရံဖ	-11.9861
▁Ho	-11.9864
▁Mur	-11.9876
oro	-11.9876
ala	-11.9891
▁ရောမ	-11.9894
အမျှ	-11.9898
▁GP	-11.9906
▁တာတွေပါ	-11.9909
အားလုံးမှာ	-11.991
ထွေး	-11.9912
နေသူပါ	-11.9914
▁အမျိုးမျိုးရှိ	-11.9921
ရောပဲ	-11.9922
စီရ	-11.9931
ကျဆ	-11.9932
မာပြ	-11.9943
ာထဲ	-11.9952
အားသ	-11.9959
▁ကူးမှု	-11.9962
▁တွေကြာ	-11.9964
မပြီးသေး	-11.9971
ဝု	-11.9979
မိစေ	-11.9987
▁ကစားပွဲ	-11.9988
▁ဖူးသေး	-11.9988
ရိုဂျ	-11.9989
နေတာကိုး	-11.999
▁ခြေတွေ	-12.0016
tad	-12.0018
▁သေးတာ	-12.0025
ာဂျ	-12.0028
▁စားတာ	-12.0061
▁မှားမှု	-12.0063
ကြသူတွေပါ	-12.0069
ale	-12.0071
ီအခိုက	-12.0072
▁သီးနှံတွေ	-12.0079
▁ပုံစံမျိုးဖြ	-12.0092
▁ကြာအ	-12.0101
▁ငွေကြေးဆို	-12.0113
ကြီးလူက	-12.0126
ရမှာလား	-12.0131
ိုးဆော	-12.0132
▁သိကြလား	-12.0139
▁များလှ	-12.0149
▁အမိုး	-12.0153
▁နာရီအ	-12.0161
▁ပြောနေရ	-12.0162
▁မာန	-12.0175
entin	-12.0177
ထဲမှာရှိတဲ	-12.0178
မွေးတိရ	-12.0185
ွဲချော	-12.0185
▁ဒီအရေ	-12.0196
▁ဒီကလေးတွေ	-12.0206
▁ညပ	-12.0214
▁ကိုတက	-12.0215
▁းစားမှု	-12.0222
နေတာလား	-12.0226
▁ပြောရမှာ	-12.0229
▁ဘိုးဘေး	-12.0235
ုဒေါ	-12.0239
▁ကြားနေ	-12.0247
oug	-12.0254
လိုမျိုးတွေ	-12.0258
▁အဲဒီစကားလုံး	-12.0262
▁အသားပိုတွေ	-12.0264
▁မောကြ	-12.0276
ana	-12.0277
▁အဓိကရ	-12.0286
လေးထဲမှာ	-12.0287
▁လူသေ	-12.0289
▁Maria	-12.0289
gen	-12.0296
▁ဓာတွေ	-12.0297
းစားဆ	-12.0299
စွာဖြ	-12.0306
ခွံတွေ	-12.031
▁သွေးထဲက	-12.0311
▁၄၀၀၀	-12.0318
▁ငွေရ	-12.0337
▁စကားမပြောနိ	-12.034
▁အကူရ	-12.0351
no	-12.0363
▁သိသွား	-12.0366
တာကလွဲ	-12.0369
rs	-12.0369
ှေ	-12.0371
▁ဒီနား	-12.0381
ပေးနေတာပါ	-12.0385
▁သုတေသီ	-12.0388
▁သွားအ	-12.039
ling	-12.0391
ေးကြီး	-12.04
cky	-12.0424
▁မာကျ	-12.0428
▁ထိုးန	-12.0434
▁မွေးဝ	-12.0455
မှုဆိုတာက	-12.0471
▁Sand	-12.0471
ရတာမျိုး	-12.0472
▁မျိုချ	-12.0477
nger	-12.0484
ံဖွ	-12.0486
ကုထုံး	-12.0489
ran	-12.0493
ားမထ	-12.0498
၇၀	-12.0499
▁နွေ	-12.0511
▁ျားလေး	-12.0526
တိုးပွား	-12.0526
Y	-12.0529
နမူနာ	-12.053
သုတေသန	-12.0531
လူနာ	-12.0533
တာခံရ	-12.0533
▁ရှိသလို	-12.0534
အတု	-12.0535
ချိုးဖ	-12.0536
▁mo	-12.0536
ဆေးဝါး	-12.0542
ခွဲခြား	-12.0543
▁ခံနေ	-12.0545
▁းအစတွေ	-12.0549
ဂရု	-12.0553
ရာစု	-12.0554
အမှား	-12.0555
▁အတူတူပဲ	-12.0556
ဆွဲပြီး	-12.0557
▁းဆိုတာတွေ	-12.056
▁ဇာတိ	-12.0564
ope	-12.0571
ပုလ	-12.0572
ခုလုံးကို	-12.0573
▁နိုးထ	-12.0583
ania	-12.0583
▁ငွေအ	-12.0583
သုံးသ	-12.0586
▁ပြုံးပြ	-12.0593
▁ပေးခံရ	-12.0594
▁၁၉၅	-12.0596
▁ပြောဖူး	-12.0606
အာရုံစ	-12.0606
ဓိ	-12.0614
▁ဒေလီ	-12.0614
များများ	-12.0616
▁No	-12.0621
▁ရှုနေ	-12.0635
▁Ben	-12.0649
▁ရေထဲ	-12.0656
▁ကားမှု	-12.0657
အရေးပါ	-12.0663
ရပါပြီ	-12.0666
Mart	-12.0681
▁၁၂၀	-12.0692
▁အခုအခါ	-12.0698
ka	-12.0705
▁သုံးစွဲန	-12.0713
▁fl	-12.0715
▁Sahar	-12.0716
▁ထွေးလ	-12.0717
းတာကို	-12.0719
ကျသွားတ	-12.0728
ားကြပ	-12.073
▁ကြီးကြပ	-12.073
▁စူးထား	-12.0734
▁၆၅	-12.0741
▁လူတွေဆီက	-12.0746
▁ညတွ	-12.0747
▁ဗေဒါ	-12.0748
သုသေသီ	-12.0748
▁မိသေးတ	-12.0751
▁ol	-12.0751
▁Cas	-12.0751
▁အီးမေး	-12.0754
▁ပြောမှာက	-12.0755
လုံးလုံးလျားလျား	-12.0755
▁Meggendorfer	-12.0755
▁အသေးအမွှား	-12.0755
မီလီမီတာ	-12.0755
ဝိသေသ	-12.0755
▁Cont	-12.0755
▁Penn	-12.0755
▁cryptograph	-12.0755
▁တခါတလေ	-12.0755
▁တဓူဝ	-12.0755
▁မီးလျှံ	-12.0755
▁အမွှေး	-12.0755
▁ပထဝီ	-12.0755
▁online	-12.0755
▁အလုံးစုံ	-12.0755
▁လူသိများ	-12.0755
▁စီပွားရေး	-12.0755
▁းလျှိုး	-12.0755
▁Gerontolog	-12.0755
▁ကိုးရီးယား	-12.0755
▁ပြိုလဲ	-12.0755
▁မျိုးစလုံး	-12.0755
▁အသိသာကြီး	-12.0755
▁Paul	-12.0755
▁ဘီယာ	-12.0755
▁Phil	-12.0756
▁ထရီလီယံ	-12.0756
▁Kenya	-12.0756
▁ဗွီဒီယို	-12.0756
▁State	-12.0756
တံခ	-12.0756
▁ကူရှာပေး	-12.0756
▁ဟောဒါက	-12.0756
▁အဘွား	-12.0756
▁အရှုံးသမား	-12.0756
▁Dick	-12.0756
▁ရံခါ	-12.0756
▁ပီဇာ	-12.0756
alau	-12.0756
▁အရှုံးပေး	-12.0757
▁အသိသုတ	-12.0757
▁Baha	-12.0757
▁Ob	-12.0757
▁နှာဖုံး	-12.0757
▁ရှေးဦး	-12.0757
▁Inf	-12.0757
▁၂၀၀၆	-12.0757
▁မီးခိုး	-12.0757
▁SH	-12.0757
▁အစအနတွေ	-12.0757
ှူရှ	-12.0757
thar	-12.0758
▁Kong	-12.0758
▁မရေရာမှု	-12.0758
▁ကဲအခု	-12.0758
ဗီယ	-12.0758
▁Ski	-12.0758
lph	-12.0759
ချေသ	-12.0759
elch	-12.0759
▁ဘေးဖ	-12.0759
▁Fla	-12.076
▁တခြားစီ	-12.076
▁Wr	-12.076
▁အာရုံသိမှ	-12.0761
▁သိသာတာက	-12.0761
▁စကြာဝဋ	-12.0761
▁ထိထိ	-12.0762
▁Bla	-12.0762
▁မပါပါဘူး	-12.0762
▁းပူး	-12.0762
▁Ari	-12.0763
▁အလှဆ	-12.0763
▁ဘာမှမရှိဘူး	-12.0764
▁Broo	-12.0765
▁ပျိုးရေး	-12.0766
▁ဆရာကြီးတွေ	-12.0766
▁Cal	-12.0766
တွေဘာတွေ	-12.0766
▁သိပြီးသား	-12.0766
▁မိုးရေ	-12.0767
▁Hawaiian	-12.0767
▁အများသုံး	-12.0767
slash	-12.0768
▁အသံအန	-12.0768
▁ဆီးချို	-12.0768
▁ပုံစံတူ	-12.0769
▁တိုးတိုးပြီး	-12.077
▁ခိုးရှ	-12.077
▁အာဏာရှ	-12.0771
ment	-12.0771
▁ဒီရာစု	-12.0771
▁အညို	-12.0771
▁Min	-12.0771
▁ဖဲရို	-12.0775
▁ဖြေကြား	-12.0775
▁Ph	-12.0776
▁အံဆွဲ	-12.078
ာရသွ	-12.0781
▁းကြံ	-12.0781
လီမ	-12.0782
▁ငတုံး	-12.0783
dor	-12.0786
▁အလားတူပါပဲ	-12.0786
▁မလိုလား	-12.0786
igu	-12.0787
▁လုံးစီ	-12.0788
▁ခုနကလို	-12.0789
▁းကြိုးတွေ	-12.0794
ထဲမှာကျ	-12.0794
▁ပိုများလေ	-12.0795
▁အသားကျ	-12.0795
▁လူတွေအများကြီး	-12.0795
▁ပြားကြီးတွေ	-12.0796
▁နေရာရာ	-12.0797
kl	-12.0797
▁Safe	-12.0798
▁များအား	-12.08
▁သုံးဦး	-12.08
▁ပုလွေ	-12.08
▁ဟူ	-12.0801
▁နေရာယူ	-12.0802
CP	-12.0802
RA	-12.0802
▁အတိုဆုံး	-12.0803
▁ဘူးဗျ	-12.0804
▁Austr	-12.0805
ရှိရှိ	-12.0805
now	-12.0807
နေပါဦး	-12.081
စရာမလိုဘူး	-12.081
▁ပဏီများကို	-12.0811
▁ညို	-12.0812
▁နားချ	-12.0812
▁သေဆုံးန	-12.0814
▁လျားန	-12.0816
▁၆၀၀၀	-12.0816
▁မသိသာ	-12.0816
ussan	-12.0817
▁အချော	-12.0818
▁My	-12.0818
▁နံရံမှာ	-12.082
သဘာဝဗီဇ	-12.082
▁By	-12.0821
▁ဒီအခွ	-12.0824
စရာမရှိ	-12.0826
▁သွားမိတ	-12.0828
▁အသံလှ	-12.0829
▁Mu	-12.083
▁စတိုး	-12.0831
ပြုံး	-12.0832
▁တာတရား	-12.0833
▁ပြောစကား	-12.0833
▁လွှားန	-12.0833
▁အဝလ	-12.0834
▁မဖြေ	-12.0836
▁ခွေးကို	-12.0837
▁နီးနီးက	-12.0838
လွှဲမရ	-12.0839
▁ဂီတသ	-12.0841
yer	-12.0849
▁သုံးခုကို	-12.0849
ရေးသူ	-12.085
▁သေသွားမလား	-12.0851
▁စိုစ	-12.0854
uba	-12.0854
▁ရှာရန	-12.0855
lus	-12.0864
▁အလျား	-12.0869
▁ရေခဲမ	-12.087
▁အသုံးချလို	-12.087
▁ရွေးပြီး	-12.0872
▁ကိုပြောပြ	-12.0873
▁အားသာ	-12.0875
▁ဒီကား	-12.0875
▁အရှား	-12.0883
▁အဲဒီအဆ	-12.089
သွားရှာ	-12.0898
ပြောသလို	-12.0899
▁နံရံကို	-12.0901
▁အရေးကြီးတာ	-12.0902
▁ကြိုးစားတာ	-12.0903
သဘောပေါ	-12.0906
▁ဒေါသကို	-12.091
▁လူသုံး	-12.0913
▁ခဏနေ	-12.0917
▁အဲဒီထဲကို	-12.0918
cu	-12.0918
▁းအလဲတွေကို	-12.0926
ဆရာမ	-12.0931
▁ခရု	-12.0935
▁ဗဟိုမှာ	-12.0935
▁ဗိသုကာတွေ	-12.094
▁ဒါမျိုးကို	-12.094
▁ထုံးစံ	-12.0942
▁ငါဘ	-12.0945
RK	-12.0954
▁မချမ	-12.0963
▁မေးပြီး	-12.0965
▁ပိုဆိုးတာ	-12.0965
▁းပညာဆို	-12.0971
စီမံ	-12.0975
▁လာမိ	-12.0975
▁Matt	-12.0979
▁မတူကြ	-12.098
▁စာလုံးပေါ	-12.0982
▁ပါးကို	-12.0996
▁လာပုံ	-12.0997
obs	-12.0997
▁ပိုရှိ	-12.0998
▁သေချ	-12.1003
▁သဘာဝအရ	-12.1008
းမိမှာ	-12.1019
အတိုးအ	-12.1021
evin	-12.1023
bur	-12.1027
▁Am	-12.1032
သဘောအရ	-12.1035
▁ျားလေးတွေ	-12.1037
▁အရသာရှိ	-12.1043
ans	-12.1046
▁Sc	-12.1047
▁ရှိမှုကို	-12.1049
tar	-12.1049
▁ထိုးပေး	-12.1051
လှပါပြီ	-12.1052
▁မကိုပြော	-12.106
ခိုးဝ	-12.1065
▁မှုအရ	-12.1073
ကျိတ	-12.1078
ထားပြီးသား	-12.1081
ာဆ	-12.1082
▁မှာမရှိ	-12.1085
▁ဇီဝဆ	-12.1087
ှာ	-12.1088
▁စရာပဲ	-12.109
ရသ	-12.1094
wi	-12.1097
▁အဲဒါမျိုးကို	-12.1099
▁ဒေသခံတွေ	-12.1105
စရာပါ	-12.1113
သားတွေကို	-12.1115
လွဲလို	-12.112
▁Mus	-12.1128
▁ဘာလီမှာ	-12.1133
▁သုတေသီတွေ	-12.1137
နေပါလ	-12.1144
str	-12.115
ီးလ	-12.1158
များမှ	-12.116
၄၇	-12.1161
▁ဆုံးနှ	-12.1164
စာတွေမှာ	-12.1171
သလဲဆိုတာ	-12.1179
lv	-12.118
LA	-12.1185
ES	-12.1187
▁ပိုစော	-12.119
▁သဘောတရား	-12.1198
▁Edi	-12.1198
▁ဝေသူ	-12.1199
▁လှဲနေ	-12.1204
▁လုံးမှ	-12.1206
ခံထား	-12.1218
သွားတာပါ	-12.1224
▁ကစားစရာတွေ	-12.1239
နာရီကြာ	-12.1254
omi	-12.1256
▁ခံသူ	-12.1273
▁လီကြူးတွေ	-12.129
သံတွေ	-12.1291
▁အားနာ	-12.1302
▁မကြာမီမှာ	-12.1303
cin	-12.1332
ရှိနေတာကို	-12.1333
သိမှာလဲ	-12.1335
ဂူ	-12.1346
nis	-12.1357
▁ကျေးကျွ	-12.1393
▁လူမျိုးတွေ	-12.1393
သိလာ	-12.1394
▁းမိုးမှု	-12.1396
rad	-12.1397
▁ပြုခံရ	-12.1398
▁နေရတာက	-12.1401
▁ဖြိုးလာ	-12.1403
▁ဒီမန	-12.1414
▁ကြလိ	-12.1416
▁As	-12.1419
▁းရံထား	-12.1425
cal	-12.1425
မာစွာ	-12.1426
▁ပြောနေကြ	-12.143
ိူ	-12.1431
▁ဗိ	-12.1441
▁ကြုံဖူး	-12.1459
ရသေးတ	-12.1462
မှာရှိနေတာ	-12.1469
▁သေရ	-12.1476
▁ပြပေးထား	-12.1477
▁သလဲဆိုတာ	-12.1478
▁သီးနှံ	-12.1482
mag	-12.1484
▁အခြေအနေမှာ	-12.1492
azi	-12.1512
▁ခရီးကို	-12.152
▁ဒီပရိ	-12.1523
▁ထားရာ	-12.1528
စေတာက	-12.1534
▁ညီတာ	-12.1539
စုထဲက	-12.1545
ab	-12.1547
အဝေးမှာ	-12.1551
▁နှမတွေ	-12.1565
▁စာလုံးကြီး	-12.1576
▁သုံးစွဲသူတွေ	-12.1596
▁အတား	-12.1597
ela	-12.1601
▁Hom	-12.1611
မရှိလို	-12.1621
tain	-12.1638
ဖူးတာက	-12.1642
▁းချီပြီး	-12.1662
rica	-12.1669
အမျိုးမျိုးဖြ	-12.168
▁ရရှိကြ	-12.1689
▁ဖြိုးဆဲနိ	-12.1691
ock	-12.1691
ဆုံတွေ	-12.1696
▁ကနေလာ	-12.1716
ari	-12.1719
ထားလဲ	-12.1723
ida	-12.1724
▁နိယာမ	-12.1737
AA	-12.1742
▁Eric	-12.1743
ယုံလို	-12.1747
ors	-12.1752
▁ထုံးစံအ	-12.1773
▁ပိုခ	-12.1779
▁းစားယူ	-12.1793
သေးလဲ	-12.1801
လဲဗျ	-12.1812
▁မြေဆီလွှာထဲ	-12.1819
ရံမှာ	-12.182
read	-12.1821
▁မှီခိုနေ	-12.1826
▁စီးဝ	-12.1826
▁သတိထားမိတာ	-12.1834
လားဆိုတာကို	-12.1837
ဒိ	-12.1853
▁ပိုသိ	-12.1856
ik	-12.1857
လာရတာ	-12.1866
▁ကစားကြ	-12.1866
မရှိရ	-12.1869
sis	-12.1884
တွေးတ	-12.189
▁ပေးလိ	-12.189
dio	-12.1905
လှဘူး	-12.1914
▁ကိုရီးယား	-12.1915
▁ဝမှု	-12.1926
မာရ	-12.1935
၁၈	-12.1942
toc	-12.1943
းလေးပါ	-12.1944
▁းစာတွေက	-12.1952
had	-12.1965
ves	-12.1973
▁ဒါကိုကြား	-12.1975
ြားဖြ	-12.1979
▁ဒါမျိုးတွေ	-12.198
အနားကို	-12.1981
▁ရှားစေ	-12.1991
ture	-12.1991
▁နီးပါးပါ	-12.2002
▁ပျိုးတာ	-12.2013
၆၄	-12.2018
▁ဘာသာစကားမှာ	-12.2025
▁လုံးတွေထဲ	-12.2029
ပွဲတွေမှာ	-12.2046
▁တခြားလူ	-12.207
▁အားသွ	-12.2078
▁ကလေးယူ	-12.2092
▁သီးတွေ	-12.2096
▁တိုးတိုးလာ	-12.2102
▁အတူရှိ	-12.2105
တွဲပ	-12.211
ish	-12.2125
ဆွ	-12.2132
▁ဂူငါး	-12.2136
lad	-12.2152
del	-12.2157
▁ယောကျာ	-12.2168
▁စုံတွေ	-12.2185
ပုံတွေပါ	-12.2201
▁မရှိဘူးလား	-12.2206
ara	-12.2222
လာတာကို	-12.2222
▁ကြံခ	-12.2227
▁လုံလုံ	-12.2233
ရေးအကျ	-12.2238
▁အရာပဲ	-12.2241
မျိုးဆ	-12.2245
▁သွားမှာကို	-12.2249
ကြားထဲ	-12.2261
▁မှုတွေရှိ	-12.2271
▁ခုံး	-12.2278
▁၇၀၀	-12.2281
▁ထိုးထား	-12.229
entu	-12.2294
းနေတာ	-12.2294
ကဲစမ	-12.2297
ရှိရာ	-12.2307
▁တုတွေ	-12.2308
▁ဂရုထား	-12.2317
▁းချီတွေ	-12.2337
ant	-12.2338
▁SO	-12.2346
iet	-12.2347
ဖူးဘူး	-12.2352
မရှိတာကို	-12.2353
▁ဌာ	-12.2353
▁မကြားဖူး	-12.2363
▁အဆိုပြုချ	-12.2365
gon	-12.2367
ကံမ	-12.2381
ug	-12.2383
▁ကူးယူ	-12.2397
ကြာအ	-12.2409
▁သုံးသူ	-12.2409
▁အလံ	-12.2411
▁ခိုးယူ	-12.2414
ာလော	-12.2414
ဝါဒီ	-12.2418
တာများလား	-12.2422
ပြသချ	-12.2425
ဆိုးဝါး	-12.2426
hen	-12.2426
▁ရူးသွ	-12.2431
▁ယူဆမိ	-12.2431
▁ဆံကြ	-12.2434
▁မလာခ	-12.2439
▁Ad	-12.2458
▁၉၀၀	-12.2469
ုံရ	-12.2477
ico	-12.2481
ကြုံတွေ	-12.2483
▁ဆိုးလ	-12.2495
ထူးဆ	-12.25
ပိုများလာ	-12.2521
ဝေးလံ	-12.253
▁းမခံ	-12.2531
အတိအကျ	-12.2532
အများဆုံး	-12.2533
အတူတူ	-12.2534
အလားတူ	-12.2535
အများအပြား	-12.2535
▁၁၂၀၀	-12.2537
ဒေါသ	-12.254
ဒီဇ	-12.2541
ထိုးပေး	-12.2547
တွေရောပါ	-12.256
အလှတရား	-12.2565
ဆံ	-12.2568
▁lo	-12.2569
▁နှိုးဆွ	-12.2577
အတူ	-12.2589
ရှိပါပြီ	-12.2596
သဘောကို	-12.26
▁ရွာတွေ	-12.2604
▁ဆိုတာသိ	-12.2609
▁ခြေမရှိ	-12.2611
▁ဝီ	-12.2614
▁းရေးဆွဲ	-12.2621
▁းစုကြ	-12.2634
▁ဇွဲ	-12.2639
ါလေ	-12.2656
▁ကြုံလာ	-12.2659
AP	-12.2667
▁းချီး	-12.268
▁အဆုံးမသ	-12.2681
▁သူတွေလဲ	-12.2682
ကေးရှ	-12.2682
▁ငါးရ	-12.2699
▁ဟောဟို	-12.2699
▁သတိရကြ	-12.2701
▁အရေးပါတာက	-12.2706
ခရီးသွား	-12.2714
▁ချေရှိ	-12.272
မလိုဘူး	-12.2724
▁စံသ	-12.2727
▁တလွဲ	-12.2727
eec	-12.2731
▁ပြူတ	-12.2739
မီးတ	-12.2744
▁go	-12.2745
▁ဖြူး	-12.2747
▁လွဲမှား	-12.2751
hei	-12.2752
▁ဘေးဘ	-12.2753
▁ဂျူ	-12.2753
ရုရှ	-12.2754
rypto	-12.2755
▁ဗဟု	-12.2755
▁ယာဂု	-12.2755
okite	-12.2755
▁Creat	-12.2755
▁Hawk	-12.2755
▁Kepler	-12.2755
▁မျိုးသု	-12.2755
pap	-12.2755
▁Anto	-12.2755
▁Foundation	-12.2755
▁probiotic	-12.2755
▁ခိုလှုံရာ	-12.2755
▁ချာတူးလံ	-12.2755
▁ငံခြားရေးမူဝါဒ	-12.2755
▁ပါရီကားမား	-12.2755
▁ဘောဂဗေဒ	-12.2755
▁မကူညီ	-12.2755
▁မကြုံစဖူး	-12.2755
▁သီဝရီ	-12.2755
▁သွေးဖြူဥ	-12.2755
▁ဟိုဟိုဒီဒီ	-12.2755
▁အေးအေးဆေးဆေး	-12.2755
▁၂၀၅၀	-12.2755
ထောပနာပြု	-12.2755
▁Power	-12.2755
▁World	-12.2755
▁ကိုလိုနီ	-12.2755
▁ခြေပိုများ	-12.2755
▁ဂိုရိုဂိုရို	-12.2755
▁တာဗျူး	-12.2755
▁နုပျိုလာ	-12.2755
▁ပဏာမ	-12.2755
▁ပရိဘောဂ	-12.2755
▁ဖရိုဖရဲ	-12.2755
▁ဘွားဘွား	-12.2755
▁Frank	-12.2755
▁လူရေးထားတာ	-12.2755
▁းချီရေးခြ	-12.2755
▁ပဒေသာ	-12.2755
▁အသုံးမပြု	-12.2755
▁အားရစရာ	-12.2755
▁Direct	-12.2755
▁ခံအားပေး	-12.2755
▁Atlanti	-12.2755
ဝေလငါး	-12.2755
▁သတိမမူမိ	-12.2755
▁းသမီး	-12.2755
▁ဆေးကုသမှု	-12.2755
▁တီးတိုးသံ	-12.2755
▁အေမီ	-12.2755
▁းပွားစရာ	-12.2755
▁ကြီးစိုး	-12.2755
▁crypto	-12.2755
▁စောဒက	-12.2755
▁Waldo	-12.2755
▁ဂရုဏာ	-12.2755
▁Daniel	-12.2756
▁Hugh	-12.2756
▁ဝံမကြီး	-12.2756
▁Robin	-12.2756
▁၂၉န	-12.2756
▁ခြံမြေ	-12.2756
▁ဇူလ	-12.2756
▁Washin	-12.2756
▁အပုံကြီး	-12.2756
▁ရှာဖွေရေးကိရိယာ	-12.2756
atric	-12.2756
▁အကြံပြုချ	-12.2756
▁Nicol	-12.2756
▁Love	-12.2756
▁အသုံးမကျ	-12.2756
▁အလွှာပါး	-12.2756
▁မှယုံ	-12.2756
▁အလွှာစုံ	-12.2756
▁ကွဲပြားခြားနား	-12.2756
▁ပညာသားပါတ	-12.2756
ွီဒ	-12.2756
▁Flor	-12.2756
▁မိုးပျံ	-12.2757
▁တွားသွား	-12.2757
▁အရသာခံ	-12.2757
▁Mass	-12.2757
▁ဍာငွေ	-12.2757
▁card	-12.2757
▁ဘူမိ	-12.2757
▁အခြာ	-12.2757
ဆိုတာဘာလဲ	-12.2757
ague	-12.2757
▁Beet	-12.2758
dru	-12.2758
▁ရတနာ	-12.2758
▁လီဖ	-12.2758
▁၉၇	-12.2759
▁အနားယူ	-12.2759
▁သဘောတူညီ	-12.2759
▁အကူပြု	-12.2759
▁သူမှမသိ	-12.2759
▁ကျဆုံးမှု	-12.2759
▁ဂီတတေးသွား	-12.2759
▁ဝေမျှ	-12.2759
▁Brit	-12.2759
▁၂၀၀၃	-12.2759
▁လွဲမှားမှု	-12.2759
▁၇၂	-12.276
orman	-12.276
▁၁၄၅	-12.276
▁ဒီလိုပုံမျိုး	-12.276
▁Christ	-12.276
eek	-12.2761
▁အနီးဆုံး	-12.2761
▁ဗျားဘ	-12.2761
▁Op	-12.2761
▁မှေးမှ	-12.2762
▁Had	-12.2762
▁၅၂	-12.2762
▁လုံးဝမတူ	-12.2762
▁ကြွကြွ	-12.2762
▁Vo	-12.2762
▁Fide	-12.2762
▁BB	-12.2763
▁Bang	-12.2763
▁းခလေးတွေ	-12.2763
▁သမားဆရာ	-12.2763
▁Pri	-12.2763
▁မားစွာ	-12.2763
▁စနိုး	-12.2763
ခါးသီး	-12.2764
ph	-12.2764
▁နံရိုးအ	-12.2764
ငလျ	-12.2764
sys	-12.2764
▁သတိရစေ	-12.2764
▁ပိုအရေးပါ	-12.2765
▁၄၄	-12.2765
ေးကွေး	-12.2765
ife	-12.2765
▁ငံကူး	-12.2765
▁မပေးပါဘူး	-12.2765
dah	-12.2765
▁အတူထို	-12.2766
▁ငေါ	-12.2767
▁ဒါတွေအက	-12.2767
▁းမံပေး	-12.2768
▁ကြီးပွား	-12.2768
▁ရေဆေး	-12.2768
▁ဒနီ	-12.2768
▁ကားရုံ	-12.277
▁ဗျူဟာက	-12.277
eep	-12.277
▁မွေးစား	-12.2771
ျူရှ	-12.2771
▁အဲဒီအရာတွေ	-12.2772
▁အစောကြီး	-12.2772
▁ရွှံ	-12.2773
▁ဒီမြေပုံကို	-12.2773
▁ထွေးဆုံး	-12.2773
▁ဆေးထိုး	-12.2774
▁ကူစွာ	-12.2775
▁ရိုးရာ	-12.2775
▁ထွေးမှုတွေ	-12.2775
▁ငွေသား	-12.2775
▁ခံစားစေ	-12.2775
▁ကဗျာရေး	-12.2775
▁ဒီအထဲက	-12.2775
▁ဥပု	-12.2775
net	-12.2776
▁ကဲကဲ	-12.2776
မုသားစကား	-12.2777
▁ပိုးသား	-12.2777
▁ဆွဲအား	-12.2778
▁Dal	-12.2778
▁သေကြေ	-12.2779
▁အဲဒီကာလ	-12.2779
▁နှေးကွေး	-12.2779
▁တသီး	-12.2779
▁နရီ	-12.278
▁းချီပြ	-12.2782
▁သုံးပွဲ	-12.2784
▁လေးပုံတ	-12.2785
▁သေချာစေ	-12.2786
▁ဒပြပွဲတွေ	-12.2787
▁ကနဦး	-12.2789
▁ဒီထူးခြား	-12.2792
▁နူးမှု	-12.2792
▁ဆေးရုံတွေမှာ	-12.2793
▁းစားစရာ	-12.2794
▁ဦးမလဲ	-12.2794
▁ဆွေမျိုး	-12.2794
▁ဦးစီး	-12.2797
▁ပထမဆုံးသော	-12.2797
▁ပုံဆရာ	-12.2797
▁ထရီ	-12.2798
မညီမျှမှု	-12.2798
▁ခရီးသွားတွေ	-12.2799
▁ဘေးကျ	-12.2799
▁ပွဲစား	-12.28
▁Ty	-12.2802
▁အနှေး	-12.2803
▁ဒီပမာဏ	-12.2803
▁ဂျီ	-12.2803
▁ကလေးမွေးပြီး	-12.2803
▁သြစရာပါ	-12.2807
စရာမလိုပဲ	-12.281
▁တွေကြာလာတ	-12.2812
▁ကူအိ	-12.2812
အမာခံ	-12.2814
▁ဒူ	-12.2814
▁ပြီလား	-12.2815
ာတာရှ	-12.2816
▁ကြုံနေရတ	-12.2817
▁ဒီအရွ	-12.2818
▁ဘောပ	-12.2818
▁လှီး	-12.2818
▁အပြုအမူကို	-12.2821
▁အရေးပါတာပါ	-12.2827
▁လုံခြုံရေးကို	-12.2828
စုကနေ	-12.2828
၉၄	-12.2831
▁ဘဝတွေမှာ	-12.2832
▁ဒီမှော	-12.2832
မလာန	-12.2834
▁Thor	-12.2837
▁းငံ	-12.2838
▁တံခါးဝ	-12.2841
▁တမူထူးသူတွေ	-12.2842
ကဗျာက	-12.2844
▁ရေချို	-12.2845
▁းတွေမေး	-12.2846
▁အေးခဲနေတ	-12.2846
▁းခြံကို	-12.2847
မထားပါဘူး	-12.2848
▁ဘီတွေ	-12.2848
▁အဖိုးဟာ	-12.285
▁ဖိစီးမှုကို	-12.2851
▁မဝေး	-12.2852
▁ချထားလို	-12.2855
ဆေးလုံးတွေ	-12.2858
▁စကားပြောကြ	-12.2862
CO	-12.2863
▁ပြုစက	-12.2864
ou	-12.2864
▁ပေါကြွ	-12.2866
နီးလာ	-12.2871
▁ကျေးဇူးပါပဲ	-12.2872
▁ညစာစားပွဲ	-12.2872
လုံခြုံမှု	-12.2872
▁ပူးတွဲ	-12.2877
▁ဆိုတာကလ	-12.2879
▁ညှိပေး	-12.2881
▁နှာကြ	-12.2883
မရဘူး	-12.2883
▁သကြားလုံး	-12.2889
▁းရဲသားတွေကို	-12.2892
▁ဇွဲရှိ	-12.2893
DP	-12.29
▁ပံဆို	-12.2904
▁အစိုးရတွေဟာ	-12.2904
▁နေရာမှာပဲ	-12.2905
▁အရာအားလုံးကို	-12.2907
sia	-12.291
▁သူမသိ	-12.2911
▁ရွှေခ	-12.2918
PC	-12.2925
▁းဆရာတွေ	-12.2926
▁ရွှေရ	-12.2928
▁Ren	-12.2929
ဲကန	-12.2934
IM	-12.2941
အများကြီးပါ	-12.2943
ီလီယာ	-12.2944
ရာဇဝ	-12.2945
▁ဆိုးတာ	-12.2949
▁ဆုံးရှုံးရ	-12.2955
မြေပုံကို	-12.2959
ပမာ	-12.296
၃၉	-12.2962
လူမျိုးတွေ	-12.2963
let	-12.2968
▁ရောမှု	-12.2969
▁ဆုံပွဲ	-12.2983
adi	-12.2986
▁မူပ	-12.2989
ကစပြီး	-12.2992
▁စုံတွဲတွေ	-12.3002
▁အသံကျ	-12.3004
AG	-12.3011
အမျိုးသမီးတွေ	-12.3024
စေတာလဲ	-12.3029
▁ြခ	-12.303
ရဦးမ	-12.3031
ီးနာ	-12.3035
▁သူပြောခဲ	-12.3036
သွားလာမှု	-12.3037
ိုလံ	-12.3039
▁ဓါတု	-12.3045
ဦးဆုံး	-12.3049
ရောဂါမျိုးတွေ	-12.3052
▁ငြိ	-12.3053
▁ခုခံမှု	-12.3059
မှာရှိသမျှ	-12.3062
စားပွဲကို	-12.3068
စွဲဆ	-12.3072
ပြောပြတာက	-12.3084
▁အလှအပကို	-12.3088
▁အကူပေး	-12.3088
စရာတွေ	-12.3094
met	-12.3094
▁ချီးကျူးမှု	-12.3095
▁တိုးပြီး	-12.3096
vin	-12.3098
▁အဲဒီမတ	-12.31
အရေးကြီးတာကို	-12.3105
▁ရှိရပါ	-12.3112
▁ခိုးယူမှု	-12.3116
▁Dann	-12.312
▁မိသလ	-12.3134
up	-12.3138
▁စာမဖ	-12.3138
အရာက	-12.3142
စကားလုံးတွေ	-12.3153
ကိရိယာများကို	-12.3155
▁သာယာမှု	-12.316
▁ရေပြ	-12.3171
ctor	-12.3175
လွဲနေတ	-12.3175
သုံးပါး	-12.3176
▁စားမှုတွေ	-12.3186
အမျိုးမျိုးသော	-12.3187
▁သိထားတာ	-12.3188
းရမလဲဆိုတာ	-12.3194
▁းအလဲကြီး	-12.3201
olog	-12.321
▁သွားသလို	-12.3228
▁အသုံးတ	-12.3233
▁နေမိမှာ	-12.3241
▁ကြုံခံစားရ	-12.3242
▁Colo	-12.3254
uc	-12.3256
ရိုဖ	-12.3259
▁အားလုံးသိကြ	-12.3268
▁အနီးမှာ	-12.3268
ုံးကျ	-12.3269
▁Che	-12.327
ဝါကျကို	-12.3278
ပွဲထဲ	-12.3281
▁နှာစာမှာ	-12.3288
▁ကြားရတာ	-12.3299
▁ကျိုးသွား	-12.3306
mon	-12.3313
▁ဒီရို	-12.3315
▁တွဲသူတွေ	-12.3315
မိခ	-12.3323
▁းအုံး	-12.333
▁ချီပြီးရှိနေ	-12.3341
တီးသံ	-12.3348
ud	-12.3352
▁ဘေးကြီး	-12.3361
မှားသွား	-12.3369
▁ဖွားလာ	-12.3376
▁းလေသ	-12.3376
▁Ta	-12.34
လူစု	-12.3405
▁Sir	-12.3405
▁ဆေးသ	-12.3405
▁ဂူငါးတွေ	-12.3416
▁ဘိုးဘေးတွေ	-12.343
▁Cl	-12.3432
▁ရိုးသားမှု	-12.3432
▁ယူစရာ	-12.3437
ားလေး	-12.3457
▁းတီးမှု	-12.3459
အခြား	-12.3463
ကစားလို	-12.3465
ြာ	-12.3467
ပြုံးကြ	-12.3467
▁သေချာသိ	-12.3467
ရှိနေပြီး	-12.3472
မျိုးမျိုးကို	-12.3476
▁ကလေးဆီ	-12.3479
▁ပြောဆိုမှု	-12.3486
ign	-12.3495
▁အပြုအမူတွေ	-12.3505
ocrat	-12.3506
မရခ	-12.351
ဂဏ	-12.3512
▁ရှားတာ	-12.352
မှုထဲမှာ	-12.3528
▁ငွေရှာ	-12.3531
ပရိုဂ	-12.3533
▁ပညာရေးဆိုတာ	-12.3547
မြဲအ	-12.3549
၂ဦး	-12.3552
gra	-12.3552
▁ပိုအသ	-12.3554
ရှိပြီးသား	-12.356
လှပြီ	-12.3565
int	-12.3576
▁သိလာရတာ	-12.3592
နေသလိုပဲ	-12.3597
▁ရှိတာဆို	-12.3607
▁ထွေးမှု	-12.3614
▁အဲဒီစက	-12.3619
လာနေပြီ	-12.3621
▁ခုပြီးတ	-12.3631
▁Mor	-12.3632
▁မပြောကြဘူး	-12.3636
nig	-12.364
af	-12.3642
နှီး	-12.3643
သုခ	-12.3649
ျိုးစေ	-12.3666
▁ရေးကွ	-12.3668
တံတ	-12.3676
▁အရိုးတွေ	-12.3678
▁ဘဝမျိုး	-12.3681
▁မရှိသေးဘူး	-12.3684
▁ပြားလေး	-12.3689
ရေးသမားတွေ	-12.3689
▁အတိုချု	-12.369
▁စောစောပ	-12.3698
▁ခွဲခြားမှု	-12.3699
▁လားရာ	-12.3706
နီမြ	-12.371
▁cr	-12.3722
▁ဂီတသမား	-12.373
▁ဘေးနား	-12.3743
ပေးကြတာ	-12.3746
ကြပါစေ	-12.3773
အခါ	-12.3776
၈၈	-12.3816
▁Rai	-12.3817
▁အူတွေ	-12.3817
▁Ol	-12.383
▁ရိုးရိုးလေးပါ	-12.3842
▁မလိုတာ	-12.3876
▁ကြေညာချ	-12.3882
▁သဘောကျမိ	-12.3883
▁နိယာမတွေ	-12.3889
▁းအဟ	-12.3889
▁အားပေးမှု	-12.3911
▁အဲဒီနေရာမှာ	-12.3917
▁ဖိစီးနေ	-12.3929
▁ဖြိုးဆဲ	-12.3946
▁သတိရှိ	-12.3951
▁ပေးနေကြ	-12.3952
▁ရမလဲဆိုတာ	-12.3954
▁ဘီးတွေ	-12.3954
▁စံရာ	-12.3969
▁She	-12.4001
llo	-12.4019
▁ကြံု	-12.402
▁Bruc	-12.4023
▁ငြာတွေ	-12.403
▁ရှူမှု	-12.4056
▁ဒီမျ	-12.4061
iz	-12.4063
ုံးကြီး	-12.4082
ဲဆိုသလို	-12.4094
ရှာဖွေမှုက	-12.411
ကြိုဆို	-12.4117
▁သေးသေး	-12.4122
ေးလေးန	-12.4124
ရသလို	-12.4136
▁သွားပါလ	-12.4143
ကြွမှု	-12.4147
ပုံမျိုး	-12.4161
▁ကုသန	-12.4163
ရှိမှာပါ	-12.4165
ပြီးပါပြီ	-12.4177
▁Ig	-12.4205
နဂါးန	-12.4214
▁Wat	-12.4222
▁ထိုသူ	-12.4223
▁Hei	-12.4237
tra	-12.425
းပါဦး	-12.4267
ust	-12.4267
နှံ	-12.4274
▁းကိုကော	-12.4278
▁စုံဆ	-12.4285
hur	-12.429
ndri	-12.4291
tter	-12.4299
▁Fal	-12.43
မှားန	-12.431
▁ဖိုးထားမှု	-12.4315
▁Fo	-12.4338
▁Carol	-12.4349
သံတွေကို	-12.4367
▁Pr	-12.4371
lis	-12.4371
▁အာရုံကြောဆ	-12.4373
မပြောဘူး	-12.4397
zar	-12.4405
▁စားပြုတာ	-12.4407
▁ရသလ	-12.4416
▁ဗရို	-12.4418
▁Par	-12.4449
ခုလုံး	-12.4457
▁မပြောသ	-12.446
▁Emi	-12.4464
▁လူစုတွေ	-12.4468
▁Dam	-12.4471
ကြရမှာပါ	-12.4473
ွေးထွ	-12.4473
▁ပြောဆိုကြတာ	-12.4485
▁Di	-12.4499
▁Dol	-12.4535
▁ခါးအ	-12.4543
ပြောကြတာက	-12.4544
သဘောတူ	-12.4549
သိကြမှာပါ	-12.4559
အခု	-12.4561
sha	-12.4562
ကိရိယာကနေ	-12.4599
▁၂ခု	-12.4604
ria	-12.4605
ကြိုပြီး	-12.4609
▁မထားမိ	-12.4616
▁းပုပညာ	-12.4618
▁Or	-12.4636
အပူ	-12.4655
▁၈၀၀	-12.4697
zi	-12.4705
သဘောဆ	-12.4706
▁Ku	-12.4716
▁mic	-12.4727
▁ဆီးပ	-12.4727
▁Sta	-12.474
ေအတ	-12.4762
aka	-12.4765
▁ဖြိုးရေး	-12.4773
စကေး	-12.4812
ူရာ	-12.4814
▁ပြောခို	-12.4816
dge	-12.4853
တွဲလ	-12.4876
cke	-12.4888
ပြောပြနေတာ	-12.492
ာလန	-12.4937
▁အဝေးကြီး	-12.4942
edit	-12.4944
▁စုံတွဲ	-12.4947
▁ရေပူ	-12.4964
▁သုံးနာရီ	-12.4968
▁ဓာထဲ	-12.4973
▁ပြောလိ	-12.4978
▁ပွားယူ	-12.4986
အဖေ	-12.4996
▁းစကားတွေ	-12.5008
စျေး	-12.5018
ပျိုး	-12.5023
ဦးစားပေး	-12.5024
အသီးသီး	-12.5024
းကြီးတွေကို	-12.5027
အာရုံခံ	-12.5028
နွေရာသီ	-12.5029
အားကစား	-12.5029
ဂါ	-12.5029
ရှုခ	-12.503
များစွာကြာ	-12.503
ဖိအား	-12.5031
တိတိကျကျ	-12.5031
Man	-12.5031
kin	-12.5031
အကြီးမားဆုံး	-12.5031
ဘီလီယံ	-12.5032
U	-12.5034
အဆုံးမှာ	-12.5034
▁ဝေးကွာ	-12.5039
ဂျူး	-12.5042
▁လေလံတ	-12.5045
ဆံပ	-12.5047
ထူထ	-12.505
▁Ban	-12.505
ယူသွားလို	-12.5052
▁အသိပညာတွေ	-12.5055
တာမျိုးကို	-12.5058
ကြာကြာ	-12.5064
▁အနာကြီးရောဂါ	-12.5065
ံကိုက	-12.508
ှု	-12.5086
nch	-12.5093
▁Walt	-12.5095
ီဆုံး	-12.5115
ဗျူဟာ	-12.5117
ပဓာန	-12.5123
အရာမျိုး	-12.5128
▁Af	-12.5139
▁းထိုးပြ	-12.5144
▁တမူထူး	-12.5145
ခရီးထ	-12.515
▁သေထူ	-12.5162
▁သိရတာက	-12.5162
▁Fre	-12.5171
▁အတွေးထဲ	-12.5174
ko	-12.5175
မသိခ	-12.5178
▁ဒီစာရ	-12.5184
▁ခြေဖျ	-12.5188
▁Saf	-12.5191
ထောပ	-12.5196
မွှာ	-12.5212
းမွှေး	-12.5218
တားပါ	-12.5222
ုလားထ	-12.5233
▁သွေးဆ	-12.5236
တလွှား	-12.5244
▁ပါးပြ	-12.5245
und	-12.5249
sup	-12.5249
▁အကူအညီတ	-12.5249
▁ဗလီ	-12.5251
▁မုခ	-12.5254
▁Sacr	-12.5255
▁Trans	-12.5255
omething	-12.5255
▁ပြာမလုံ	-12.5255
▁Crisis	-12.5255
▁What	-12.5255
▁ဂြိုလ	-12.5255
▁ပိုဝေးရာ	-12.5255
sburg	-12.5255
scar	-12.5255
unk	-12.5255
ဆူနာမီ	-12.5255
သေးစားငွေချေးမှု	-12.5255
သေးသေးလေးတွေ	-12.5255
▁Girl	-12.5255
▁folder	-12.5255
▁scan	-12.5255
▁ကြေငြာ	-12.5255
▁ကွဲပြားနေမှုကို	-12.5255
▁ချံပီယံ	-12.5255
▁ငါးမျှား	-12.5255
▁ငိုကြွေး	-12.5255
▁ဇီဝဓာတု	-12.5255
▁တဝီဝီ	-12.5255
▁တီးရီယား	-12.5255
▁ဘာဆိုဘာမှ	-12.5255
▁မသိသေးဘူး	-12.5255
▁မီးဖွား	-12.5255
▁များများစားစား	-12.5255
▁မြေဆွေး	-12.5255
▁သံဝါသပြု	-12.5255
▁အနိဌာရုံ	-12.5255
▁အလဟဿ	-12.5255
▁အသနားခံ	-12.5255
စတြေးလျ	-12.5255
အမူအယာ	-12.5255
အမျိုသမီး	-12.5255
▁Miss	-12.5255
▁ဒီဘာသာစကား	-12.5255
▁ဒီမြေပုံထဲ	-12.5255
▁ပိုးတုံးလုံး	-12.5255
▁ဘီလျံ	-12.5255
▁မြေခွေး	-12.5255
▁ဝံပုလွေ	-12.5255
▁အတိုချုံး	-12.5255
▁အာလူး	-12.5255
two	-12.5255
▁Apo	-12.5255
▁photo	-12.5255
▁ထွေပြား	-12.5255
▁မသိကျိုး	-12.5255
▁လီဖိုးနီးယား	-12.5255
▁လုနီးပါး	-12.5255
▁အားကျစရာ	-12.5255
▁ရေနွေး	-12.5255
▁အထူးခြားဆုံး	-12.5255
သြဇာ	-12.5255
▁စုပြုံ	-12.5255
နှေးနှေး	-12.5255
▁ဒဿနိက	-12.5255
▁အချိုးမညီမှု	-12.5255
ဖွံဖြိုး	-12.5255
▁တွေးတွေး	-12.5255
▁ပရု	-12.5255
▁မာမာ	-12.5255
▁ဆာဗာ	-12.5255
▁ပြိး	-12.5255
▁မမိဘူး	-12.5255
▁open	-12.5255
▁ဗဟုသုတ	-12.5255
▁မဇို	-12.5255
▁အာဏာရှိသူတွေ	-12.5255
path	-12.5255
▁Michel	-12.5255
▁စကြဝ	-12.5255
▁အခြာအာဏာ	-12.5255
izzo	-12.5256
▁ဆီးချိုရောဂါ	-12.5256
▁တွာသွား	-12.5256
▁ဒွိ	-12.5256
အများသုံးနေရာတွေ	-12.5256
▁တမူထူးခြား	-12.5256
▁ဒီလိုနေရာမျိုး	-12.5256
▁Berk	-12.5256
▁ညီအကို	-12.5256
▁လာရေးခရီး	-12.5256
face	-12.5256
▁Cro	-12.5256
▁ဥပစာ	-12.5256
▁Belg	-12.5256
▁ဆေးစွဲ	-12.5256
icki	-12.5256
ီကာဂို	-12.5256
ရောနှော	-12.5256
▁you	-12.5256
▁Bull	-12.5256
nstein	-12.5256
ီးဒယ	-12.5256
▁သရေရှိ	-12.5256
ecca	-12.5256
▁McC	-12.5256
▁သတိမူ	-12.5256
ရှံူး	-12.5256
▁Albert	-12.5256
▁Rookie	-12.5256
▁ဓားစာခံ	-12.5256
▁Aspe	-12.5256
▁Ethiopian	-12.5256
▁chi	-12.5256
kov	-12.5256
occ	-12.5256
ရသေးဘူး	-12.5256
ံကျပ	-12.5256
▁blo	-12.5256
▁Liber	-12.5256
▁UN	-12.5256
▁ညှိုးထိုးပြ	-12.5257
▁ဒီဥပဒေ	-12.5257
▁Ve	-12.5257
amma	-12.5257
rol	-12.5257
ခုခုမှားနေ	-12.5257
▁အေးအေး	-12.5257
မမသိဘူး	-12.5257
▁Bou	-12.5257
တစုံတခု	-12.5257
▁Shar	-12.5257
▁အသေခံ	-12.5257
▁Reut	-12.5257
▁သဘောသဘာဝ	-12.5257
▁မုချ	-12.5257
စုရုံး	-12.5258
▁ဂီတရသ	-12.5258
▁စကားစုကို	-12.5258
▁အံဩ	-12.5258
▁မဟာဗျူဟာ	-12.5258
dam	-12.5258
▁အဓိကအကျဆုံး	-12.5258
▁အေးဆေး	-12.5258
▁ဖြေဖျော	-12.5258
▁လာသိရှိ	-12.5258
▁Mada	-12.5258
itani	-12.5259
chai	-12.5259
▁Bridge	-12.5259
▁နေရာယူလာ	-12.5259
present	-12.5259
▁Jim	-12.5259
▁းလွှဲ	-12.526
▁လုံးဝနီးပါး	-12.526
▁အနီအ	-12.526
ather	-12.526
▁ကတိပြု	-12.526
▁Mau	-12.526
▁အကျိုးခံစား	-12.526
▁ဘုရာ	-12.526
▁NGO	-12.5261
▁လူတွေကပြောကြ	-12.5261
▁ထိဝါဒ	-12.5261
▁နမူနာပုံစံ	-12.5261
▁၂၀၀၁	-12.5261
▁အဆီအ	-12.5261
▁Far	-12.5261
▁Long	-12.5262
▁ငါးဥ	-12.5262
▁ကွဲပြားစွာ	-12.5262
▁Stu	-12.5262
▁းခုံမှုတွေ	-12.5262
▁သတိရမိ	-12.5262
▁ဘဝခရီး	-12.5262
▁ခဏကြာ	-12.5262
lut	-12.5262
ဒီမှာရှိနေတာက	-12.5262
▁တောမီး	-12.5262
▁ဒီမီးလုံး	-12.5262
nco	-12.5262
▁Ted	-12.5263
▁ကံဆိုးတာက	-12.5263
cul	-12.5263
▁Ken	-12.5263
ိဖိ	-12.5263
▁ကိုးစား	-12.5263
▁းစာသမား	-12.5263
▁ပုံပြောသူ	-12.5263
▁Gree	-12.5264
▁ဖြေပွဲ	-12.5264
▁မဟာဂီတ	-12.5264
iO	-12.5264
▁ဖဝါး	-12.5265
▁၁၈၅	-12.5265
▁အသားပြု	-12.5265
alia	-12.5265
▁၆၁	-12.5266
လိုဗေ	-12.5266
▁ဒီလိုအရာတွေ	-12.5267
ရေးအသား	-12.5267
▁စရာအချ	-12.5267
▁ဝဲသံ	-12.5267
▁းအလျား	-12.5267
▁၅၄	-12.5267
▁ခံစားကြရ	-12.5267
▁းနီ	-12.5268
အဖျ	-12.5268
▁ဥပမာဆိုပါ	-12.5268
▁Line	-12.5269
▁မျှား	-12.5269
▁ထိခုံ	-12.527
▁Mc	-12.527
▁ဒရာဘ	-12.527
▁Tru	-12.527
▁ရယူသုံး	-12.527
▁ယခု	-12.527
▁အစောဆုံး	-12.527
▁ကြာသွားပြီ	-12.527
▁Pin	-12.5272
▁ရိုးရိုးလေးပဲ	-12.5272
▁Hir	-12.5272
▁Del	-12.5272
▁အကြားအာရုံ	-12.5272
ူးသား	-12.5273
dne	-12.5273
▁ယူနီ	-12.5273
▁Ram	-12.5273
▁တေးစု	-12.5273
▁ပိုတိကျ	-12.5274
▁Eli	-12.5274
▁ဂါဗ	-12.5274
▁တားပေး	-12.5275
▁Hen	-12.5275
▁Men	-12.5275
▁အစပျိုးမှု	-12.5276
▁ပြုစုထား	-12.5277
▁အလှပြ	-12.5277
▁Bing	-12.5277
▁MT	-12.5277
▁မီးပုံ	-12.5279
▁စားပွဲခ	-12.5279
သံအမ	-12.528
▁အာဒ	-12.528
▁ထီးတ	-12.528
▁အကြံပေးချ	-12.528
▁ဒီစကားစု	-12.5281
▁အာရုံပြုလ	-12.5281
တွေပဲဆိုတာ	-12.5281
▁ကြီးထွားမလာ	-12.5282
ဓါ	-12.5284
ting	-12.5286
▁ဘေးရီးယား	-12.5286
▁ပမထ	-12.5287
▁Fer	-12.5287
▁အသားပေး	-12.5287
▁ဒီကလူတွေ	-12.5288
▁ဘဝပုံစံ	-12.5288
▁သေပြု	-12.5289
ids	-12.5289
▁အဲဒီပြဿနာ	-12.5289
ောဆိုဆွေးနွေးမှု	-12.529
▁လွဲသွား	-12.529
▁လူမှုရေးအရ	-12.5291
▁ရေစီး	-12.5292
▁ပိုခံစားရ	-12.5294
▁ပွဲခံ	-12.5294
▁သုံးပုံန	-12.5295
▁သားသား	-12.5295
▁လာထို	-12.5297
▁Pu	-12.5298
ston	-12.5298
▁နေရာမဆို	-12.5298
▁ပုံငွေ	-12.5299
erson	-12.5299
▁ထူးခြားလှ	-12.53
▁ရှိနေတာကိုး	-12.53
▁မရမက	-12.5301
▁းလဲလာနေ	-12.5301
▁ရှားဆုံး	-12.5304
▁မသုံးပဲ	-12.5305
▁တဒေသ	-12.5306
▁းလဲမှုနှ	-12.531
ပိုသုံး	-12.5311
ပြပါဦး	-12.5314
▁ခံစားကြ	-12.5314
▁ပေးကြရပါ	-12.5316
▁စာစား	-12.5318
အရေပြားက	-12.5319
မပြုဖူး	-12.532
▁တဗေဒ	-12.5321
ဆုံရှုံး	-12.5321
▁ဟိုနား	-12.5321
▁ဒီအတွေး	-12.5327
▁ဟောဟိုမှာ	-12.5328
aye	-12.5332
▁ဒရွ	-12.5336
▁အရိုးတွေကို	-12.5337
there	-12.5342
စားပွဲမှာ	-12.5346
▁ဂိုး	-12.5349
▁လုံခြုံမှုရှိ	-12.5354
ူမှုရေးမီဒီယာတွေ	-12.5355
▁စကားပြောရ	-12.5361
▁ဖြူးရေး	-12.5367
နမူနာတွေကို	-12.5368
▁အာကာသထဲ	-12.537
▁မဲပေးတာ	-12.5371
းခံရတာတွေ	-12.5373
ဗဟိုပြု	-12.5377
nna	-12.5377
ရီယာ	-12.5379
▁Bra	-12.538
ဆိုးဆေး	-12.5383
ပဓာနဝါဒ	-12.5388
ပါးပါး	-12.5393
▁၁၉၂	-12.5394
▁ရှူတာ	-12.5409
▁အစပျိုးပေး	-12.5411
▁Walter	-12.5419
▁ငွေပေးချေမှု	-12.5425
ssin	-12.5425
မသွားပါဘူး	-12.5441
▁Jer	-12.5446
ဝေးသွား	-12.5467
▁းချီးပေး	-12.5469
UV	-12.5471
▁ချုံပ	-12.5474
▁ဗျားဘာ	-12.5475
ဒေလီကနေ	-12.5481
gna	-12.5483
▁တူးဖေ	-12.5487
▁သတိရသွား	-12.5488
▁fi	-12.5496
▁းမကြီးထဲ	-12.5502
▁ယူရို	-12.5516
းတရားတွေ	-12.552
▁လွှဲပေး	-12.5528
ဟဲလို	-12.5531
▁မြေးတွေ	-12.5542
စေရဘူး	-12.5543
▁ရဖူးတ	-12.5547
မလာဘူး	-12.5549
actor	-12.5554
▁ချွေတာပေး	-12.5561
ကြမှာလဲ	-12.5567
တရားဥပဒေ	-12.5571
ယူရမ	-12.5575
ွံ	-12.5578
မရှိဘူးဆိုတာကို	-12.5582
တွေဆီမှာ	-12.5583
မရေရာ	-12.5595
▁ကြီးထွားရေး	-12.56
ရေးသားခ	-12.5601
ရုံးတွေမှာ	-12.5602
ကြေးထ	-12.5609
▁မပြုဘူး	-12.5641
▁တွေးထ	-12.5647
atal	-12.5648
ပြီးပြီလေ	-12.5659
▁စဲပ	-12.5661
▁တဝါကြီး	-12.5665
▁ဒပြမှု	-12.5675
ထားသမျှကို	-12.5685
▁Mand	-12.5689
mbl	-12.5695
ကလေးတွေထဲက	-12.5701
▁Bab	-12.5705
ူရေး	-12.5706
▁နဂါး	-12.5707
▁နှံသူတွေ	-12.5722
စာပေ	-12.5739
▁ပါးစေ	-12.574
▁စာနာမှု	-12.5747
▁ကြားဖူးကြ	-12.5753
▁သိထားကြ	-12.5754
▁အားကစားသမား	-12.5763
မှားအ	-12.5776
သုသေသနမှာ	-12.5777
▁Garn	-12.5779
▁ဆံမှုများ	-12.578
▁တိုးပွားလာနေ	-12.5782
ဆူ	-12.5782
နေပြီလား	-12.5803
▁သုံးထားတာ	-12.5811
အတွေးမျိုး	-12.5817
းထားတာကို	-12.5867
▁အားကစားရုံ	-12.5875
နာကြီး	-12.5877
သံကြိုး	-12.5881
▁Sev	-12.5884
▁အစပျိုးတာ	-12.5884
▁ဖိအားပေး	-12.5884
▁ကိုသွားကြ	-12.5885
▁နာရ	-12.5904
ခါမှာတော	-12.5911
မေးရ	-12.5916
▁ဝါကျများ	-12.5919
းယား	-12.5919
itt	-12.5923
ခံစားမိလဲ	-12.5954
ပုဝါကို	-12.5958
ပြုမိန	-12.5961
မသိဘဲ	-12.5964
ျားရောဂါ	-12.5977
Tr	-12.5995
▁အဆုံးပ	-12.5998
▁ဦးစားပေးမှု	-12.6003
တွေဆီသွား	-12.601
ပေးရပါ	-12.6011
▁Dane	-12.6049
▁ဆွဲသူတွေ	-12.607
ba	-12.607
▁Glo	-12.609
ီးတွေက	-12.6094
ကြားနေရ	-12.6105
မခံရပ	-12.6126
ေကိုထိ	-12.6143
▁အပူပေး	-12.6151
ပုံရတာက	-12.6158
သားကလေး	-12.6175
▁မီသိ	-12.6203
ဦးရေ	-12.6208
obi	-12.6213
▁သတိထားကြ	-12.6234
▁ဒီဒေတာတွေ	-12.6238
ထုံး	-12.6242
အလာအရ	-12.6248
isc	-12.6251
ပေးနေရ	-12.6275
ပုံရှိတ	-12.6294
ussel	-12.6304
အခြေအနေမျိုးမှာ	-12.6311
ွာရှ	-12.6328
lev	-12.6335
▁ထုံးစံတွေ	-12.6347
▁ပေးထားကြ	-12.6348
မခံရဘူး	-12.635
▁အသုံးပြုပုံ	-12.6359
မိုးအ	-12.6367
▁နေဦးမ	-12.6371
▁တခြားလူတွေ	-12.6375
▁ငါးဖ	-12.6396
ဘေးမှ	-12.6398
umba	-12.6407
▁အခြားကလေး	-12.641
▁မေးကြတာ	-12.6423
▁ခြေရာခံပေး	-12.6425
▁Mont	-12.6429
▁အာကာသထဲမှာ	-12.6458
ပေးသလို	-12.6473
▁ပြောဆိုလာ	-12.6473
ခွေးလေး	-12.6487
ပေးလိုကြပါ	-12.6503
bal	-12.6509
ဝေဖ	-12.6519
သာမရှိ	-12.6525
▁ရှားမိတာ	-12.6526
▁အကျိုးရ	-12.653
PD	-12.6542
ပညာကို	-12.6545
aint	-12.6551
▁းစားလာရ	-12.6564
တွဲပါ	-12.6567
နေတာဘဲ	-12.6568
အမွေကို	-12.6577
ဆမိတာက	-12.6577
▁ဝေါဟာရတွေ	-12.6584
▁ပျူတာထဲ	-12.6594
▁ပညာတ	-12.6605
ေမှုန	-12.6627
ပုံတူတွေ	-12.6635
▁ဂါဝ	-12.664
▁ကွဲမှု	-12.6642
▁ဒီနေရာကနေ	-12.6645
▁းစားနေကြ	-12.6645
achu	-12.6676
▁ကြံုရ	-12.6682
▁အခြားလူတွေ	-12.6683
▁သေဆုံးသွား	-12.6692
သရမ	-12.6703
▁မှုအသ	-12.6709
▁တိုးလာနေ	-12.6725
သေးဖွဲ	-12.6731
ရှာသူ	-12.6737
▁ဗိသုကာပညာ	-12.6752
PA	-12.6759
▁တွေးမိစေ	-12.6841
နီယ	-12.6851
လာနေတာကို	-12.6852
▁တားနေ	-12.6856
မလဲဆိုတာပါ	-12.687
afi	-12.6897
▁အဖိုတွေ	-12.6906
▁မမှာရှိတ	-12.692
ုံးဆီကို	-12.6924
သိရှိရ	-12.6929
ze	-12.6939
ကာလတွေမှာ	-12.6946
▁ရှုမှု	-12.6947
စရာရှိပါ	-12.6993
ရှိသွားပြီ	-12.7023
▁သွေးထ	-12.7026
ရုံးမှာ	-12.7038
chu	-12.7058
▁ဂီတသမားတွေ	-12.7071
▁ဘေးပ	-12.7077
ရဘူးလား	-12.7085
▁လူမှုရေးဆ	-12.7103
▁အတူစု	-12.7107
သုံးသူတွေ	-12.7107
ီရိ	-12.7111
ကားထဲမှာ	-12.7149
မသု	-12.7154
umb	-12.7233
ဥပဒေဆို	-12.7234
▁ကြိုးစားနေကြတာ	-12.7277
လာရတာပါ	-12.7289
▁Adv	-12.7294
▁Tim	-12.7315
စီမံခ	-12.7346
▁ဆုံးအရာ	-12.737
▁Soc	-12.7375
အများကြီးထဲက	-12.7381
ယူလာခဲ	-12.7388
▁ရယူကြ	-12.7422
▁တွေးနေမိတာက	-12.7438
ourn	-12.7457
rin	-12.7458
▁အရေးပါတာတွေ	-12.7493
▁ဆေးကု	-12.7511
ဘူးဆိုပေမ	-12.7532
ူးရေ	-12.7569
အရေးကြီးတာလဲ	-12.7579
ရမှာလဲ	-12.7589
▁Chan	-12.7616
၉၆	-12.7616
rest	-12.7631
▁အဲဒီကိုသွား	-12.7635
ုံးခြ	-12.7647
ထွားလာ	-12.765
ail	-12.7664
ညီမျှ	-12.7665
ရွေးကော	-12.7669
းထားကြ	-12.7673
▁ပုဝါ	-12.7686
▁နေမလဲဆိုတာ	-12.7686
▁ပွားလာ	-12.7691
ego	-12.7695
▁သဘာဝထဲ	-12.7707
ကွဲလွဲမှု	-12.771
mit	-12.771
ပေးခ	-12.7711
▁းရံနေ	-12.773
ဒီမှာရှိနေတ	-12.7743
▁ခြားသူတွေက	-12.775
▁Hol	-12.7753
▁Col	-12.776
၆ခု	-12.7763
▁Ib	-12.7767
▁ပီရ	-12.777
သေးဘူးလား	-12.7814
log	-12.7825
လွှားမှု	-12.7836
▁းဂျား	-12.7856
▁ပြောပြခ	-12.7906
ရှိပုံရ	-12.7945
▁သွားလာနေ	-12.795
▁သံချေ	-12.7977
▁ကြားပေးနေ	-12.7989
▁ငံရေးသမား	-12.7991
ဘူးဆိုတာပါပဲ	-12.8002
ကလီယား	-12.8063
ယာမ	-12.8068
သီသ	-12.8101
▁ပြောလိုတာက	-12.8121
▁စကားပြောခ	-12.8126
▁အကြေ	-12.8132
▁ရှိဖူးတ	-12.8166
သမျှအရာ	-12.8179
▁ခံစားမိတာ	-12.8192
၈၉	-12.8201
▁Oc	-12.8215
အနီးအနားက	-12.822
ငိုနေတ	-12.8227
ရိုဘ	-12.8239
▁မားလာ	-12.8239
▁ဘိုးဘွား	-12.8242
ရှိနေတာတ	-12.8244
▁သုံးကြရ	-12.8269
▁အခုပြောနေတ	-12.8272
လှစွာ	-12.8294
▁ဇီတွေ	-12.8311
▁ချီပြီးရှိ	-12.8337
သုံးစွဲန	-12.8351
ကြီးကြီးမားမား	-12.8353
နံရံတွေ	-12.8357
အာဏာပ	-12.8357
ကဗျာဆရာ	-12.8359
၃၂	-12.836
ဆေးပညာ	-12.836
အလကားရ	-12.8361
အကူအညီ	-12.8361
အကြာကြီး	-12.8362
သီးသ	-12.8363
သီအိုရီ	-12.8363
ဩ	-12.8363
နှလုံးသား	-12.8364
လေထီး	-12.8365
နားဆ	-12.8366
ကွာခြား	-12.8367
ရာထူး	-12.8367
မကြာခ	-12.8369
အဆုံးသတ	-12.837
မျှဝေ	-12.8371
အဲဒီလို	-12.8371
▁Card	-12.8371
းချီကားတွေ	-12.841
အဟု	-12.8412
Pod	-12.8418
▁ညစာစား	-12.8419
လုံးချော	-12.843
ေးမပါ	-12.8448
ဒေတာ	-12.845
▁Aust	-12.8497
မွှားတွေ	-12.8503
laza	-12.8516
ညာရှ	-12.8523
သေအလ	-12.8527
ေးနှု	-12.8527
လေးမွေးပြီး	-12.8529
▁အပြောခံ	-12.8531
▁လျားမှု	-12.8539
ဲဒါက	-12.854
▁အီးမေ	-12.855
ခွဲစိ	-12.8558
▁၆၅၀၀	-12.8558
▁Hawaii	-12.8564
ုလားအ	-12.8566
ာလာပ	-12.857
▁းဂျ	-12.8573
▁နံရိုး	-12.8574
ook	-12.8575
▁နျူးကလ	-12.8579
riti	-12.8584
ung	-12.8585
▁Fred	-12.8586
▁ဒီမြေပုံက	-12.8587
▁Clo	-12.8587
▁Ethiopia	-12.8587
▁စတုဂံ	-12.8587
q	-12.8588
ကလီးယား	-12.8588
ookie	-12.8588
တီးရီးယ	-12.8588
ndle	-12.8588
▁မနုဿ	-12.8589
▁အဆိုးရွားဆုံး	-12.8589
▁Moholy	-12.8589
▁Play	-12.8589
▁Tree	-12.8589
▁ကလေးမွေးဖွား	-12.8589
▁ဂျီသြမေထရီ	-12.8589
▁ငွေချေးယူ	-12.8589
▁ဆုံးရှံး	-12.8589
▁ပုခုံး	-12.8589
▁လောဘကြီး	-12.8589
ecompi	-12.8589
some	-12.8589
ကွဲပြားခြာနား	-12.8589
ဆိုးဆိုးရွားရွား	-12.8589
ပြေးအလွှား	-12.8589
လုနီးပါးပဲ	-12.8589
▁Build	-12.8589
▁Concert	-12.8589
▁Gulf	-12.8589
▁Jenni	-12.8589
▁Reshma	-12.8589
▁Syria	-12.8589
▁iTune	-12.8589
▁ကိုရီယား	-12.8589
▁ကူးဗါး	-12.8589
▁ကြွေးမြီ	-12.8589
▁ခရီးကွာဝေး	-12.8589
▁ချီဟွာဟွာ	-12.8589
▁ခြေဖဝါး	-12.8589
▁ဂျားဘီယာ	-12.8589
▁ငွေချေးမှု	-12.8589
▁ငှါး	-12.8589
▁တမူးထူးသူ	-12.8589
▁တရားမမျှတမှု	-12.8589
▁တရွရွဖြ	-12.8589
▁တြိဂံ	-12.8589
▁ဒေသိယစကား	-12.8589
▁ပနားမား	-12.8589
▁ပျားအုံ	-12.8589
▁ဖူကူရှီးမား	-12.8589
▁ဖြေးဖြေး	-12.8589
▁ဗြူရိုကရေစီ	-12.8589
▁ဗွေရာတွေ	-12.8589
▁ဘောဒီးယား	-12.8589
▁မမှီသေး	-12.8589
▁မိုးမရွာဘဲ	-12.8589
▁ရှားရှားပါးပါး	-12.8589
▁ရှားသိသာ	-12.8589
▁လူမှုစီးပွား	-12.8589
▁ဝဲပျံနေ	-12.8589
▁သနားကရုဏာ	-12.8589
▁သဝေထိုး	-12.8589
▁သာသနာပြု	-12.8589
▁အစိုးရအရာရှိတွေ	-12.8589
▁အနာအဆာတွေ	-12.8589
▁အဖိုးအဖွားတ	-12.8589
▁အသံဗလံတွေ	-12.8589
▁အာရုံထွေပြား	-12.8589
▁းထွာရေး	-12.8589
▁းရဲမွဲတေမှု	-12.8589
▁းသုတေသီ	-12.8589
▁၀ါယာကြိုး	-12.8589
အိုဘားမား	-12.8589
▁Animal	-12.8589
▁Kip	-12.8589
▁editor	-12.8589
▁ဂါထာ	-12.8589
▁စာစီစာကုံး	-12.8589
▁စားချေမှု	-12.8589
▁စားဖိုမှုး	-12.8589
▁စိအာရုံခံလွှာ	-12.8589
▁ဒီအယူအဆ	-12.8589
▁နုပျိုမှု	-12.8589
▁ဖိုးပဲဖိုး	-12.8589
▁ဗီရို	-12.8589
▁ရိုးအီ	-12.8589
▁သွေးနီဥ	-12.8589
▁အယူမှား	-12.8589
▁အဲဒီအယူအဆ	-12.8589
Astor	-12.8589
uku	-12.8589
ဂရာဖီ	-12.8589
အုံးမ	-12.8589
▁Reso	-12.8589
▁Vanco	-12.8589
▁ဒူပေနာပေခံ	-12.8589
▁ပိုလျှံ	-12.8589
▁ရှံုး	-12.8589
▁အနုမြူ	-12.8589
▁းစာပညာ	-12.8589
▁Boy	-12.8589
▁ထွေးပွေ	-12.8589
▁မီးဘေး	-12.8589
▁အခရာကျ	-12.8589
▁အဖုများ	-12.8589
ပလာဇာ	-12.8589
▁Amhari	-12.8589
▁တာတိက	-12.8589
▁နဝေတိ	-12.8589
▁နိူးထ	-12.8589
▁နေရာကျသွားတာ	-12.8589
▁ဖွံဖြိုးဆဲ	-12.8589
▁ဘာပြောမလဲ	-12.8589
▁မသမီး	-12.8589
▁သံမှို	-12.8589
▁အာရုံခံစားမှု	-12.8589
▁းစာဆရာတွေ	-12.8589
ဂုရု	-12.8589
▁Jacqu	-12.8589
▁သိုမှီး	-12.8589
မျိုးကွဲတွေ	-12.8589
▁ကြေးနီ	-12.8589
▁ပြေးလွှားရ	-12.8589
▁အမှုမထား	-12.8589
▁အသာစီးရမှု	-12.8589
▁းချီးကား	-12.8589
▁းဓား	-12.8589
ပုံမရပါဘူး	-12.8589
ဖြူအမ	-12.8589
▁နျူကလီးယား	-12.8589
▁အကာအရံ	-12.8589
▁းစံတွေ	-12.8589
▁းစိုပြေ	-12.8589
spa	-12.8589
▁ကူးမှားတွေ	-12.8589
▁းရာချီ	-12.8589
▁၀၀၈	-12.8589
▁အပြာကား	-12.8589
▁Woods	-12.8589
▁ဘရာဇီး	-12.8589
▁........	-12.8589
▁မဆိုလိုဘူး	-12.8589
▁ဆောရီး	-12.8589
▁နေသားကျ	-12.8589
rome	-12.8589
▁Geriatrician	-12.8589
▁Sunda	-12.8589
▁ဂါဇာ	-12.8589
▁ဘီးမီးလုံး	-12.8589
▁ယာဂုချိုတွေ	-12.8589
▁Philip	-12.8589
▁အသာစီး	-12.8589
▁တိုတိုပြောရ	-12.8589
▁အရေးတကြီး	-12.8589
မြူရေးခြံ	-12.8589
lastom	-12.8589
▁နာနို	-12.8589
▁McG	-12.8589
▁အမဲသား	-12.8589
▁မဆိုလိုပါ	-12.8589
▁ချွဲတွေကို	-12.8589
▁လိုဟာမျိုးလဲ	-12.8589
▁ဏဝါ	-12.8589
▁ဖလော	-12.8589
▁Comm	-12.8589
▁Oliv	-12.8589
▁ပြောမပြကြ	-12.8589
▁ကလေးမယူ	-12.8589
▁ဆူညံသံ	-12.8589
▁ဘူမိဗေဒ	-12.8589
▁ဆီယို	-12.8589
▁Chrono	-12.8589
▁Arm	-12.8589
လားမသိဘူး	-12.8589
ycho	-12.8589
endo	-12.8589
▁တခြားနေရာတွေ	-12.8589
▁Rese	-12.8589
▁ဘောသားတွေ	-12.8589
▁Buff	-12.8589
▁Bank	-12.8589
▁ဘာသာတရားတွေ	-12.8589
▁Plan	-12.8589
▁တိကြွမှု	-12.859
▁မလေးရှား	-12.859
telli	-12.859
▁တုစတွေ	-12.859
▁ဒါမေပ	-12.859
▁သရသံ	-12.859
ddit	-12.859
▁အစာခြေ	-12.859
▁းကွာနေ	-12.859
▁နိုးကြွမှု	-12.859
▁Indian	-12.859
▁းဗျား	-12.859
▁လူဆိုးတွေ	-12.859
eopard	-12.859
▁အခြားရောဂါတွေ	-12.859
▁မစွံ	-12.859
▁Inst	-12.859
▁စတုဂံပုံ	-12.859
▁Pitt	-12.859
▁UNI	-12.859
▁ပြုံကြီး	-12.859
▁ဓဟူး	-12.859
မှုမရှိဘဲ	-12.859
▁Dave	-12.859
▁Shell	-12.859
rob	-12.859
▁သတိမူမိ	-12.859
▁စကားစုတွေ	-12.859
▁၁၉၄၈	-12.859
▁အဲဒီကုထုံးတွေ	-12.859
▁ဓဝါဒ	-12.859
▁Twi	-12.859
▁ဘဝသံသရာ	-12.859
▁လိုပဲရှိရှိ	-12.859
▁အကျွံ	-12.8591
vici	-12.8591
▁မကျရှုံး	-12.8591
▁တပါးသူ	-12.8591
▁မအတွေးက	-12.8591
▁၁၉၉၉	-12.8591
▁Gold	-12.8591
▁တေးသံ	-12.8591
▁Val	-12.8591
▁ချေနီ	-12.8591
▁NY	-12.8591
▁ဒီလူထု	-12.8591
astill	-12.8591
▁ပါတီပွဲ	-12.8591
မုဆိုး	-12.8591
uke	-12.8591
tti	-12.8591
▁ကွဲမှုကြီး	-12.8591
▁စိရောဂါ	-12.8591
▁တစားရှိ	-12.8591
▁အခြားလူသား	-12.8591
▁Web	-12.8591
ကြပါစေဗျာ	-12.8591
▁Inv	-12.8591
▁မူထူးခြား	-12.8591
▁Who	-12.8592
▁Down	-12.8592
▁သားမွှေး	-12.8592
▁Muh	-12.8592
▁ဆိုဖာ	-12.8592
▁ကြုံခံစားနေရ	-12.8592
▁ပီယံတ	-12.8592
▁မဆိုးဘူး	-12.8592
▁းပုဆရာ	-12.8592
▁မီခိုး	-12.8592
▁Yor	-12.8592
▁Lind	-12.8592
▁Eng	-12.8593
▁မြူးစရာ	-12.8593
EF	-12.8593
▁ယာကြိုး	-12.8593
eath	-12.8593
▁ရေးမှူးတွေက	-12.8593
ကြံုတွေ	-12.8593
▁ရှုမော	-12.8593
▁စုပုံထား	-12.8593
▁CN	-12.8594
▁လူမှုဘဝ	-12.8594
▁အညှ	-12.8594
▁ပူဆွေးမှု	-12.8594
▁Bert	-12.8594
▁Marsh	-12.8594
▁Yu	-12.8594
နာရီထိုးပြီ	-12.8594
▁ဆာကုသ	-12.8594
▁pro	-12.8595
ump	-12.8595
naut	-12.8595
▁Bren	-12.8595
▁ငံခြားသား	-12.8595
▁ခွဲမွေး	-12.8595
▁ခံရရှိသူ	-12.8595
roso	-12.8595
onda	-12.8596
▁ဝေလီ	-12.8596
▁လစာတိုး	-12.8596
▁မှိုမျိုး	-12.8596
ထိထိမိမိ	-12.8597
fus	-12.8597
▁Dub	-12.8597
▁Maha	-12.8597
▁အံသြစရာ	-12.8597
▁Rob	-12.8598
▁အာလုံး	-12.8598
▁ဒီကုထုံးတွေ	-12.8599
▁လဲကျသွား	-12.8599
▁Iv	-12.8599
▁နားကြား	-12.8599
▁ညီမလေး	-12.8599
ကြေသွား	-12.8599
▁Win	-12.86
ကိုဆိုလိုတာပါ	-12.86
▁စံပြု	-12.86
▁လျာထား	-12.8601
▁Lyn	-12.8601
nric	-12.8602
▁Bun	-12.8602
ူဆလ	-12.8603
▁Sat	-12.8603
dian	-12.8603
▁ဘာဆိုလိုတာ	-12.8603
▁းပွားမှု	-12.8606
▁ကလေးရမှု	-12.8606
▁ပိုတူတာ	-12.8606
▁တွေဆုံမ	-12.8606
▁ဆာဟာရ	-12.8606
▁အစိုးရထော	-12.8607
ဗလီဆရာ	-12.8608
▁ထူးကဲတာ	-12.8609
▁းကူးပေး	-12.8609
▁Fit	-12.861
တွေဆိုတာတော	-12.8611
ဒီမိုကရ	-12.8612
ဒေတာအစု	-12.8614
▁းဆွေး	-12.8615
▁Eb	-12.8617
▁များပြားလာခ	-12.8617
Drop	-12.8622
▁သတိရနေရ	-12.8623
▁းစားလှတွေ	-12.8626
▁ဂေဟာ	-12.863
ပဋိ	-12.863
ပိုနွေး	-12.8637
ရှိဆဲ	-12.8638
တာဘဲလေ	-12.8649
အသုံးမချ	-12.8649
တေးပြု	-12.865
amen	-12.865
ram	-12.8651
ခါနီး	-12.8656
cil	-12.8656
▁အတူတူပဲဆိုတာ	-12.8657
များစွာရှိ	-12.8658
lash	-12.8664
၆၅၀၀၀	-12.8665
▁ပုံစံချထားတ	-12.8669
CH	-12.867
သောအရာ	-12.8674
▁ဒီလူစုတွေက	-12.868
▁၀၀၅	-12.8683
▁တလွဲသုံး	-12.8695
သမားအ	-12.8696
▁ခြေဖျား	-12.8706
bla	-12.871
တာရှိရ	-12.8711
းမိကြ	-12.8726
Yout	-12.8726
OM	-12.8734
ကြဦးမှာလား	-12.8738
▁Jani	-12.8741
သေစေန	-12.8743
သမားတွေဆီ	-12.8745
▁အမျိုးသ	-12.8761
▁အကျများတ	-12.8762
▁ကစားနေကြတ	-12.8765
▁မမွေးခ	-12.8782
▁ဒပြသူတွေ	-12.8816
▁စားစေတာ	-12.8817
▁Clar	-12.882
▁Rick	-12.8821
မွေးမြူရေး	-12.8833
နာရီအကြာမှာ	-12.8846
▁တခြားအချ	-12.8848
အခွေတွေ	-12.885
အကြံပေးနေတာ	-12.8853
▁အဆုံးထိ	-12.8881
တိုးတိုးလေး	-12.8887
▁Pres	-12.8892
▁တေးရေး	-12.8893
ဝေးကွာလ	-12.8906
ဂျိ	-12.8907
▁မပြောလိုပါ	-12.8912
▁နှိုးဆွပေး	-12.8915
ီးခြစ	-12.8928
▁တာသိတ	-12.8943
ခြံထဲက	-12.8958
▁Sara	-12.8976
▁းဘီထဲ	-12.8983
▁သူတိ	-12.8989
▁ကြသေးတ	-12.902
းညှ	-12.9028
#	-13.3589
J	-14.3384
ဍ	-14.8026
ဌ	-14.8027
?	-14.8028
ဦ	-14.8029
)	-14.803
&	-14.8031
၊	-14.8032
။	-14.8033
့	-14.8034
်	-14.8035
