<unk>	0
<s>	0
</s>	0
▁.	-3.05898
▁,	-3.4226
▁de	-3.66147
▁een	-4.02362
▁	-4.04533
▁het	-4.07709
en	-4.09656
▁van	-4.13251
▁en	-4.26256
▁is	-4.37524
▁in	-4.41796
;	-4.43044
▁dat	-4.43266
▁&	-4.44369
s	-4.49523
e	-4.52339
t	-4.56917
▁te	-4.70116
▁je	-4.75135
quot	-4.81983
▁we	-4.85681
▁ik	-4.86075
▁die	-4.90372
▁op	-4.95026
▁zijn	-4.98207
▁niet	-5.11047
▁om	-5.19219
▁voor	-5.23324
▁met	-5.24013
▁ze	-5.25757
▁Ik	-5.32448
▁er	-5.43816
▁:	-5.45119
▁als	-5.46758
▁aan	-5.48261
▁Het	-5.53576
▁?	-5.61339
▁was	-5.62761
apos	-5.66946
-	-5.70316
▁wat	-5.71898
▁over	-5.72474
▁We	-5.75687
▁hebben	-5.8021
▁naar	-5.80637
▁dit	-5.81421
n	-5.81995
▁deze	-5.82221
▁maar	-5.85594
▁dan	-5.89798
▁uit	-5.93617
▁of	-5.98091
▁zo	-5.9848
▁mijn	-5.9864
▁En	-5.99395
▁De	-6.00594
▁waar	-6.0158
▁mensen	-6.01747
▁—	-6.04726
▁kunnen	-6.05649
▁door	-6.06051
▁)	-6.0662
(	-6.0666
d	-6.09841
▁ons	-6.11586
de	-6.14178
▁Maar	-6.16498
▁kan	-6.21272
▁Ze	-6.24644
▁Dit	-6.29036
▁ook	-6.29671
▁Dat	-6.30833
▁s	-6.35575
▁me	-6.36345
er	-6.37256
▁doen	-6.3829
▁meer	-6.40213
▁onze	-6.41497
▁hoe	-6.4545
▁bij	-6.45589
▁hij	-6.45979
▁jaar	-6.46156
▁hun	-6.46362
▁zien	-6.46828
▁zou	-6.48986
▁geen	-6.4899
▁nog	-6.49243
▁al	-6.5786
▁Als	-6.58198
▁tot	-6.58331
▁ge	-6.58702
▁Je	-6.58732
▁wereld	-6.60891
▁nu	-6.60911
▁hier	-6.61138
▁worden	-6.63902
▁veel	-6.64275
▁heeft	-6.64367
ing	-6.65238
▁ver	-6.67105
▁maken	-6.72255
▁andere	-6.72926
▁leven	-6.73597
▁Gelach	-6.74085
▁In	-6.74173
▁gaan	-6.74715
▁heb	-6.7536
▁iets	-6.75723
in	-6.75844
f	-6.76922
le	-6.78078
den	-6.78313
▁werd	-6.79586
▁jullie	-6.82038
k	-6.8222
▁moeten	-6.82463
▁Dus	-6.83271
▁had	-6.86063
▁Hij	-6.87212
el	-6.91282
▁word	-6.91751
len	-6.91857
▁dingen	-6.91923
r	-6.92224
▁Er	-6.92355
▁echt	-6.93845
▁Wat	-6.94816
g	-6.95663
▁zal	-6.97218
▁ben	-6.97324
heid	-6.98004
▁gaat	-6.98267
▁twee	-6.98486
▁daar	-6.987
▁af	-6.98919
▁zoals	-6.98928
▁wil	-6.9931
▁omdat	-7.00157
▁zich	-7.0138
▁dus	-7.01544
▁wel	-7.02288
▁Een	-7.03346
▁heel	-7.03382
▁zei	-7.04419
▁waren	-7.04425
dat	-7.0578
▁alle	-7.05811
▁moet	-7.0583
▁goed	-7.06116
▁be	-7.06802
▁één	-7.10346
▁manier	-7.11693
▁-	-7.12871
▁alleen	-7.13736
▁tijd	-7.14643
▁eerste	-7.15301
▁♫	-7.16771
▁haar	-7.17921
▁na	-7.18465
te	-7.19084
▁mij	-7.20197
▁Applaus	-7.21841
y	-7.23973
▁zie	-7.25343
ten	-7.26422
op	-7.26876
▁toen	-7.27617
▁denk	-7.27987
a	-7.28751
al	-7.29705
ste	-7.30191
▁laten	-7.32335
▁hele	-7.32761
re	-7.33444
▁grote	-7.33694
▁allemaal	-7.36357
▁ging	-7.36647
▁soort	-7.37084
▁zeggen	-7.37361
p	-7.37394
▁komen	-7.38151
▁onder	-7.3873
o	-7.3879
i	-7.39149
ken	-7.39216
▁kun	-7.39276
.	-7.41782
▁kinderen	-7.42178
▁werk	-7.42563
▁hem	-7.43383
▁nieuwe	-7.43397
▁weten	-7.43949
▁terug	-7.44658
m	-7.44773
▁erg	-7.45
▁weet	-7.45295
▁k	-7.45823
pen	-7.46069
▁nodig	-7.47054
▁tegen	-7.47244
▁zul	-7.47263
l	-7.49999
ge	-7.50501
u	-7.5097
▁zouden	-7.51137
▁wij	-7.52222
▁kon	-7.52297
▁willen	-7.529
c	-7.52936
▁hadden	-7.53041
▁dag	-7.53287
▁denken	-7.53856
▁M	-7.54243
▁n	-7.55382
▁mee	-7.55391
▁Deze	-7.56753
▁...	-7.57208
▁toe	-7.57439
▁zelfs	-7.57592
▁Hoe	-7.57957
▁want	-7.59118
▁komt	-7.59811
▁gebruiken	-7.60157
ig	-7.61003
▁ga	-7.61169
▁weg	-7.61492
ren	-7.61952
▁alles	-7.6205
eren	-7.62425
▁drie	-7.62982
▁geven	-7.6301
ie	-7.63406
▁staat	-7.63477
▁elkaar	-7.63567
▁misschien	-7.638
▁idee	-7.64057
▁A	-7.64529
ver	-7.65393
▁Hier	-7.65586
▁gewoon	-7.66662
▁paar	-7.66935
▁werken	-7.68296
▁vinden	-7.68775
▁zeer	-7.68807
▁krijgen	-7.68867
nneer	-7.69603
▁kleine	-7.69694
daag	-7.7024
or	-7.70629
▁nooit	-7.71774
▁kijken	-7.71826
▁samen	-7.72638
▁land	-7.72755
▁eigen	-7.72885
▁net	-7.73217
▁tussen	-7.73244
▁zeg	-7.73348
▁mogelijk	-7.73667
▁iemand	-7.74077
▁hebt	-7.74157
▁vraag	-7.7418
je	-7.74516
▁plaats	-7.74812
▁binnen	-7.74856
h	-7.7539
▁zelf	-7.75478
ers	-7.75863
▁ter	-7.76323
▁B	-7.76347
ro	-7.76569
▁probleem	-7.77062
▁verhaal	-7.77628
▁keer	-7.77906
▁Nu	-7.78014
▁Toen	-7.78329
▁geleden	-7.78517
▁S	-7.78803
▁deel	-7.78934
b	-7.7916
▁moest	-7.79214
▁hen	-7.79228
▁technologie	-7.80087
▁Om	-7.80732
▁verschillende	-7.81492
altijd	-7.81793
▁Op	-7.81828
steeds	-7.82049
▁ongeveer	-7.82164
▁anders	-7.82462
▁per	-7.82503
▁moment	-7.82866
us	-7.83042
▁weer	-7.83589
▁Zo	-7.83821
la	-7.84433
▁water	-7.85055
▁Mijn	-7.85693
ve	-7.85742
▁elke	-7.8607
uit	-7.86111
▁wa	-7.86178
se	-7.86546
▁jaren	-7.86852
ur	-7.87774
▁zonder	-7.87806
om	-7.8898
▁kwam	-7.90261
▁procent	-7.90575
▁rond	-7.90588
▁beter	-7.90622
▁belangrijk	-7.90763
▁man	-7.90853
▁!	-7.90951
▁meest	-7.91582
▁Die	-7.93158
▁waarom	-7.93563
▁zit	-7.93595
▁foto	-7.93912
▁zij	-7.94055
▁20	-7.94448
▁dacht	-7.95066
▁eigenlijk	-7.95111
▁Daar	-7.95351
▁O	-7.95488
▁even	-7.95842
▁u	-7.96064
zelfde	-7.96786
▁vrouwen	-7.96974
ra	-7.97608
▁wie	-7.98543
▁iedereen	-7.98724
▁aantal	-7.98993
▁on	-7.99535
▁leren	-7.9965
be	-7.99942
▁vertellen	-8.0005
et	-8.00534
▁kijk	-8.00728
▁T	-8.00733
▁doet	-8.00791
▁groot	-8.01027
ri	-8.01455
on	-8.01773
mee	-8.02369
▁C	-8.0251
▁miljoen	-8.02861
▁vragen	-8.02961
ar	-8.03069
wijl	-8.0401
▁eens	-8.0401
▁hoop	-8.04832
▁veranderen	-8.05076
▁achter	-8.05245
▁geld	-8.05555
nen	-8.05606
af	-8.05632
▁informatie	-8.05995
▁bent	-8.06022
li	-8.06059
▁lang	-8.06173
▁nemen	-8.06221
wel	-8.06835
▁maakt	-8.06872
▁minder	-8.06882
▁ruimte	-8.0717
an	-8.07261
▁E	-8.07664
▁betekent	-8.07989
▁Ja	-8.08629
gen	-8.09025
der	-8.09062
▁wilde	-8.09465
▁10	-8.10029
▁gemaakt	-8.10976
▁gebeurt	-8.11867
ingen	-8.1198
aan	-8.12044
zelf	-8.12088
▁auto	-8.12359
▁laatste	-8.12595
es	-8.12734
▁ooit	-8.13042
ende	-8.13494
▁begrijpen	-8.13516
▁toch	-8.13549
▁hand	-8.13771
▁genoeg	-8.14381
▁beetje	-8.14541
▁zeker	-8.14657
▁Waarom	-8.15121
▁snel	-8.15292
▁zitten	-8.15705
▁goede	-8.1576
▁laat	-8.15766
▁begon	-8.16108
ven	-8.16771
▁voorbeeld	-8.16988
it	-8.17155
▁gebruikt	-8.17171
▁vier	-8.173
w	-8.17493
▁volgen	-8.17787
▁G	-8.18103
▁groep	-8.18575
atie	-8.19012
▁geweldig	-8.19341
▁gedaan	-8.19396
▁licht	-8.19719
heden	-8.19747
of	-8.19849
▁ander	-8.20663
▁school	-8.20812
▁werkt	-8.21026
▁beginnen	-8.21067
▁enorm	-8.21243
▁staan	-8.21741
▁houden	-8.2184
▁kond	-8.21939
at	-8.22037
ma	-8.22241
▁enkele	-8.22321
▁vaak	-8.22412
▁energie	-8.22538
jes	-8.22697
lo	-8.23044
▁vroeg	-8.23135
ën	-8.23414
▁slechts	-8.23492
▁dollar	-8.23565
▁elk	-8.23735
▁buiten	-8.23808
▁deed	-8.2422
▁beste	-8.25517
▁ont	-8.25543
me	-8.25724
baar	-8.25725
▁Dan	-8.25779
▁K	-8.2602
▁toekomst	-8.26746
▁huis	-8.26828
▁landen	-8.26909
▁volgend	-8.27894
is	-8.27906
▁Voor	-8.2801
▁proberen	-8.28122
▁praten	-8.28263
▁moeilijk	-8.28834
▁vele	-8.28934
v	-8.29014
▁Dank	-8.29015
▁kind	-8.29199
▁helemaal	-8.29319
il	-8.29469
▁klein	-8.30013
▁bijna	-8.30177
▁vrouw	-8.3024
bij	-8.30416
▁verder	-8.3055
lijkt	-8.30611
▁zag	-8.31547
▁tweede	-8.31948
▁V	-8.32607
▁p	-8.32936
▁natuurlijk	-8.33058
▁hoofd	-8.33627
▁meeste	-8.34191
tje	-8.34515
▁stad	-8.34774
z	-8.34962
▁vorm	-8.35489
▁P	-8.35623
door	-8.35805
▁mens	-8.36368
▁problemen	-8.36449
▁gezien	-8.36514
ige	-8.36643
▁boven	-8.36784
ter	-8.37138
ij	-8.37245
▁niets	-8.37251
▁Wij	-8.37256
bo	-8.38291
▁Van	-8.38519
▁later	-8.38561
▁hetzelfde	-8.38703
▁enige	-8.38942
ad	-8.39002
▁menselijke	-8.39936
.000	-8.39988
▁brengen	-8.4025
na	-8.40366
▁geeft	-8.40469
▁3	-8.40621
▁grootste	-8.40701
ul	-8.40728
▁waarschijnlijk	-8.40907
▁eerst	-8.418
▁vrij	-8.41917
ho	-8.4194
▁wist	-8.42016
lijk	-8.42203
▁blijven	-8.42205
▁systeem	-8.42545
▁zoveel	-8.42772
▁lichaam	-8.42794
▁F	-8.42831
▁sommige	-8.43321
▁bouwen	-8.43327
▁helpen	-8.43407
▁gebruik	-8.4348
elijk	-8.43491
aal	-8.43507
▁ervan	-8.43519
▁gevoel	-8.4373
ne	-8.44801
land	-8.44916
▁Met	-8.4494
▁onderzoek	-8.44951
cht	-8.45047
▁graa	-8.45252
ische	-8.45337
ru	-8.4537
▁Al	-8.45376
di	-8.45496
am	-8.45653
▁gek	-8.45712
▁miljard	-8.45977
▁Be	-8.46097
▁delen	-8.46154
▁vijf	-8.46338
man	-8.46558
▁kans	-8.46585
▁dood	-8.46773
▁Na	-8.46911
▁hoeveel	-8.47276
sch	-8.47406
▁sociale	-8.47441
▁computer	-8.47479
S	-8.47511
▁beeld	-8.47781
▁I	-8.47855
▁begin	-8.4855
▁bijvoorbeeld	-8.48558
eerd	-8.48865
ag	-8.4895
zen	-8.49066
▁N	-8.49237
▁tijden	-8.49242
▁mannen	-8.49298
▁Want	-8.49928
▁moeder	-8.50097
▁f	-8.50317
ke	-8.50653
▁welk	-8.50718
▁vast	-8.50977
▁plek	-8.50988
▁duidelijk	-8.51047
▁Lat	-8.5131
ol	-8.51494
▁v	-8.5158
▁re	-8.51807
▁persoon	-8.51972
▁voedsel	-8.52718
▁geloof	-8.52879
▁kreeg	-8.529
▁ten	-8.5297
▁b	-8.53333
▁ideeën	-8.53551
▁project	-8.53698
▁Of	-8.53714
▁basis	-8.53715
▁uur	-8.53759
▁doe	-8.5388
▁ervaring	-8.54332
▁He	-8.54365
▁Afrika	-8.54441
▁reden	-8.54526
▁jij	-8.55146
men	-8.55153
em	-8.55222
▁noemen	-8.55597
A	-8.55679
▁200	-8.55735
▁New	-8.56374
▁heen	-8.56388
▁m	-8.56706
gaan	-8.56868
▁maanden	-8.57228
ziet	-8.57415
▁geweest	-8.57566
tie	-8.57597
im	-8.5826
▁30	-8.584
ic	-8.58425
▁familie	-8.58623
▁echte	-8.58667
▁precies	-8.58674
▁stellen	-8.5878
▁H	-8.59537
▁groter	-8.59541
▁vind	-8.59688
▁zorgen	-8.59756
▁vond	-8.5976
▁planeet	-8.60172
▁dieren	-8.60252
▁gegevens	-8.60464
isschien	-8.60655
▁gemeenschap	-8.60762
▁Wa	-8.60775
▁boek	-8.61275
ster	-8.61596
▁punt	-8.62037
▁zat	-8.62109
do	-8.62132
▁ziekte	-8.62248
▁D	-8.62442
▁hersenen	-8.62446
▁antwoord	-8.62712
▁zichzelf	-8.62738
as	-8.62743
▁spelen	-8.62812
▁kant	-8.63246
▁brein	-8.63495
▁India	-8.63546
licht	-8.63606
▁1	-8.63609
▁film	-8.63681
▁100	-8.63959
▁natuur	-8.64
▁50	-8.64306
▁woorden	-8.64326
ot	-8.64668
▁kunst	-8.6472
▁eeuw	-8.64816
▁Niet	-8.64882
mo	-8.64956
▁anderen	-8.65221
genomen	-8.65226
▁begonnen	-8.65391
maal	-8.65534
to	-8.65619
▁eten	-8.65878
▁ding	-8.66387
▁wetenschap	-8.66567
▁nieuw	-8.67079
▁zetten	-8.67341
um	-8.67562
▁maakte	-8.67595
▁lucht	-8.67607
▁geval	-8.67854
▁aarde	-8.67924
▁open	-8.68321
ha	-8.6868
▁Mensen	-8.68837
▁Waar	-8.68843
ch	-8.69168
▁nam	-8.69203
ek	-8.69204
▁enkel	-8.69264
▁vol	-8.69536
ale	-8.69653
halen	-8.69848
▁vader	-8.70075
▁heet	-8.70091
▁nieuws	-8.7017
▁gebeuren	-8.70213
▁creëren	-8.70352
▁Zij	-8.7045
▁internet	-8.70682
no	-8.70689
▁verhalen	-8.70898
▁muziek	-8.71021
2	-8.7105
▁ogen	-8.71082
C	-8.71203
voor	-8.71241
▁oplossing	-8.71576
ep	-8.71661
▁feite	-8.7181
▁geschiedenis	-8.72044
▁dagen	-8.72158
ut	-8.72202
toe	-8.72248
▁Ma	-8.72251
▁krijgt	-8.7246
▁neem	-8.72488
regen	-8.72517
▁eerder	-8.72764
ork	-8.73275
soms	-8.73341
▁opnieuw	-8.73694
▁her	-8.73961
▁oude	-8.74038
▁bestaat	-8.74212
▁Alle	-8.74591
▁Ge	-8.74907
8	-8.7497
▁kwamen	-8.75322
id	-8.75391
▁zaken	-8.75591
▁gezicht	-8.75836
▁stond	-8.75923
▁kennen	-8.75945
▁uiteindelijk	-8.76005
▁levens	-8.76246
da	-8.76578
▁vooral	-8.7684
▁thuis	-8.77124
ta	-8.77132
▁horen	-8.77274
▁gedrag	-8.7747
▁bestaan	-8.77495
end	-8.77654
▁c	-8.77863
▁overal	-8.77896
▁bedoel	-8.77932
▁15	-8.77934
▁vrienden	-8.77992
▁gebeurde	-8.78001
▁soorten	-8.78088
▁h	-8.78713
▁derde	-8.79037
M	-8.7915
▁stuk	-8.79198
▁gevolg	-8.7944
D	-8.79617
▁verschil	-8.79903
▁doel	-8.79951
▁2	-8.79986
▁oorlog	-8.80087
▁kracht	-8.80094
▁jonge	-8.8027
▁R	-8.80427
▁interessant	-8.80731
▁duizend	-8.8091
▁ja	-8.81109
▁deden	-8.81386
mp	-8.81436
▁woord	-8.81485
ir	-8.81558
▁bezig	-8.82125
▁bedrijf	-8.82156
▁oud	-8.82504
▁beweging	-8.82511
ist	-8.82624
▁niemand	-8.82653
▁geluid	-8.82744
▁Nee	-8.82796
mi	-8.82838
▁Ten	-8.83082
▁onderwijs	-8.83248
▁taal	-8.8328
▁gebied	-8.83324
▁TED	-8.83417
ap	-8.83457
eel	-8.83928
▁eruit	-8.83935
4	-8.8397
▁hart	-8.84003
▁experiment	-8.84163
▁naam	-8.84175
▁Kijk	-8.84213
over	-8.84434
▁bedrijven	-8.84555
▁U	-8.84665
7	-8.85001
▁vormen	-8.85077
ba	-8.85092
▁Le	-8.85136
▁zin	-8.85531
▁mooi	-8.85682
eerde	-8.85777
▁L	-8.85873
▁publiek	-8.8595
▁pro	-8.86004
▁volledig	-8.86117
▁grond	-8.8624
▁plaatsen	-8.86349
ring	-8.86415
weg	-8.86422
wa	-8.86525
ga	-8.86534
▁begint	-8.86992
▁lopen	-8.87214
po	-8.87366
▁liet	-8.87631
▁data	-8.87984
▁Is	-8.88094
▁keuze	-8.88311
▁4	-8.88328
▁Amerikaans	-8.88414
▁stem	-8.88575
▁lange	-8.88601
▁leuk	-8.88719
▁video	-8.88803
▁pas	-8.88847
ko	-8.88927
▁Zoal	-8.8899
▁5	-8.89141
▁fantastisch	-8.89465
bare	-8.89465
▁probeer	-8.8953
sp	-8.89779
oor	-8.90128
▁Verenigd	-8.90481
▁cellen	-8.90589
▁markt	-8.90611
▁honderd	-8.90644
▁Sommige	-8.90652
▁proces	-8.90661
▁omgeving	-8.90927
▁Daarom	-8.91091
▁gaf	-8.9111
5	-8.91393
▁Bij	-8.91408
▁voelen	-8.91419
▁minuten	-8.91507
▁einde	-8.91621
ia	-8.91624
▁ouders	-8.91631
▁ma	-8.91824
▁weinig	-8.91863
▁stap	-8.9191
un	-8.92028
ton	-8.92238
▁krijg	-8.92267
delen	-8.92299
▁jou	-8.92313
▁ontwikkeling	-8.92371
geven	-8.92516
▁blijk	-8.9263
▁Onze	-8.92765
0	-8.92807
▁bepaalde	-8.92864
▁sp	-8.9318
ak	-8.93217
▁VS	-8.93281
▁denkt	-8.93505
▁40	-8.93546
▁steden	-8.93604
rij	-8.93774
▁kanker	-8.9385
ze	-8.94361
▁verandering	-8.94705
▁geloven	-8.95008
91	-8.95021
▁hulp	-8.95281
▁wilden	-8.95465
kant	-8.95465
▁Co	-8.95726
▁test	-8.95799
▁macht	-8.95924
▁kom	-8.95958
▁juiste	-8.96052
tjes	-8.9606
▁Ga	-8.96159
▁zoeken	-8.96162
▁via	-8.96319
systeem	-8.9632
▁Eén	-8.96442
▁g	-8.96464
▁zon	-8.96513
▁recht	-8.96665
ci	-8.96739
▁co	-8.9705
▁lez	-8.97162
ed	-8.97779
bel	-8.98104
ker	-8.98237
▁slecht	-8.98272
ling	-8.98295
▁daarvan	-8.98299
▁bereik	-8.98449
eert	-8.98453
▁China	-8.9864
rlei	-8.98703
ë	-8.98731
ok	-8.98907
▁gelijk	-8.98931
T	-8.99119
son	-8.99481
▁Elk	-8.99558
co	-8.999
▁geluk	-8.99935
▁kennis	-8.99936
▁ligt	-8.99945
▁Re	-9.00307
▁ongelooflijk	-9.0031
sche	-9.00356
schap	-9.00624
ger	-9.00827
▁economisch	-9.01057
▁team	-9.01482
▁beelden	-9.01507
P	-9.0181
▁Laat	-9.01858
▁angst	-9.02018
▁Door	-9.02055
▁midden	-9.02395
▁studenten	-9.02582
▁rest	-9.02583
ck	-9.02649
komen	-9.02699
go	-9.02738
▁dr	-9.02942
▁18	-9.02993
werk	-9.03112
lang	-9.03121
▁model	-9.03179
▁wereldwijd	-9.03209
▁niveau	-9.03242
▁Nou	-9.03384
ce	-9.0349
tra	-9.03849
9	-9.03877
▁ontwerp	-9.04165
▁belangrijke	-9.0423
rie	-9.04278
▁God	-9.04435
▁vertelde	-9.04469
▁bijzonder	-9.04529
▁mooie	-9.04746
eken	-9.04812
dra	-9.04974
1	-9.05294
▁stoppen	-9.0553
▁blijf	-9.05946
lopen	-9.06142
▁baby	-9.06308
▁Amerika	-9.06343
▁meter	-9.06455
▁W	-9.06706
▁week	-9.06851
▁sta	-9.06921
I	-9.06947
va	-9.06996
3	-9.07061
▁generatie	-9.07134
aar	-9.07149
▁men	-9.07178
▁Ro	-9.07236
00	-9.07378
▁groei	-9.07495
▁olie	-9.07544
▁6	-9.07562
▁Ver	-9.07637
▁eenvoudig	-9.07838
▁langer	-9.08019
▁feit	-9.08081
▁tonen	-9.08277
▁werkte	-9.08375
▁spel	-9.08386
pe	-9.08467
tro	-9.09239
per	-9.09266
x	-9.09318
os	-9.09442
▁CA	-9.09524
▁kaart	-9.09596
▁a	-9.09632
▁waarde	-9.09673
▁klaar	-9.097
93;	-9.09757
▁opge	-9.09778
▁best	-9.09857
▁erop	-9.10226
▁waarvan	-9.10478
▁reis	-9.10524
▁gelukkig	-9.10587
▁aandacht	-9.10634
▁media	-9.10639
ké	-9.10701
▁Mo	-9.10738
▁gezegd	-9.10743
▁vertrouwen	-9.10938
▁oceaan	-9.11003
▁sinds	-9.11003
elijke	-9.11166
▁Staten	-9.11246
▁nogal	-9.11317
▁ieder	-9.11406
▁zagen	-9.11786
▁geest	-9.11952
▁liefde	-9.12011
▁economie	-9.12111
▁hoog	-9.12176
▁geleerd	-9.1228
bi	-9.12301
▁jouw	-9.12338
▁verwacht	-9.12349
▁bloed	-9.12408
▁veranderd	-9.12451
ca	-9.12537
▁bracht	-9.12596
ant	-9.12673
heen	-9.12691
▁hoge	-9.12738
▁vonden	-9.12758
ron	-9.12769
sh	-9.12819
▁belangrijkst	-9.12861
▁DNA	-9.12987
▁risico	-9.13013
▁schrijven	-9.13047
▁zoek	-9.13258
▁afgelo	-9.13308
▁cultuur	-9.135
▁klimaat	-9.13544
▁kieze	-9.13775
▁bekijken	-9.13782
▁Stel	-9.13879
▁universum	-9.13972
▁verander	-9.14292
▁sterk	-9.14315
tische	-9.14365
B	-9.14537
▁meestal	-9.14643
▁druk	-9.14714
▁groeien	-9.14779
▁mag	-9.14878
ab	-9.15185
▁spreken	-9.15296
E	-9.15484
▁La	-9.15519
▁neer	-9.15612
▁schaal	-9.15719
ry	-9.15749
▁leerde	-9.15927
é	-9.15985
ec	-9.16041
staan	-9.16231
▁zeven	-9.1627
lijke	-9.1644
▁Iedere	-9.16548
▁stel	-9.16571
▁St	-9.16944
kken	-9.16963
ion	-9.17029
kwam	-9.17072
onder	-9.17154
sten	-9.17254
ast	-9.17351
▁vliegen	-9.17704
▁werkelijk	-9.17819
▁dank	-9.17833
▁bekend	-9.17844
iden	-9.17857
ka	-9.17871
ill	-9.18417
▁ontwikkelen	-9.18667
ber	-9.18674
ni	-9.18811
ergens	-9.18982
uur	-9.19114
▁Wie	-9.19144
▁Ter	-9.19199
▁weken	-9.19329
▁menselijk	-9.19353
tijd	-9.19387
▁geweld	-9.19538
ik	-9.19624
▁machine	-9.20074
▁gehad	-9.2019
▁patiënten	-9.20223
▁fout	-9.20368
za	-9.20441
▁betere	-9.20502
▁eind	-9.20563
▁bewegen	-9.20883
uw	-9.20911
▁los	-9.20921
▁hal	-9.21023
▁geboren	-9.21119
▁belang	-9.21227
▁rol	-9.21273
▁Nog	-9.21396
▁Muziek	-9.21574
▁60	-9.21615
▁milieu	-9.21641
recht	-9.21753
▁Pa	-9.21848
▁politieke	-9.21932
erd	-9.22068
▁voorstellen	-9.22152
▁Julli	-9.22507
daan	-9.226
iteit	-9.22811
ert	-9.22811
▁lijken	-9.22818
▁straat	-9.22972
▁ouder	-9.23003
▁7	-9.23048
we	-9.23072
▁maak	-9.23118
▁kost	-9.23147
▁Geen	-9.23153
▁leggen	-9.23205
ment	-9.23253
▁telefoon	-9.23338
▁geef	-9.23351
zo	-9.23415
min	-9.23422
▁herinner	-9.23448
▁uitdaging	-9.23676
▁gehoord	-9.23752
▁oog	-9.23785
▁top	-9.23961
▁J	-9.24005
▁Zijn	-9.24017
▁hard	-9.24209
▁zes	-9.24215
▁dorp	-9.2428
▁12	-9.24312
ier	-9.24358
▁robot	-9.24429
▁relatie	-9.24529
up	-9.24548
ine	-9.24617
▁simpel	-9.24704
R	-9.24756
zetten	-9.24924
▁naast	-9.25219
▁bo	-9.25279
▁rechts	-9.25303
mon	-9.25549
dien	-9.25613
▁massa	-9.25655
th	-9.25675
loos	-9.2579
▁maakten	-9.25897
▁8	-9.2592
ac	-9.26025
maken	-9.2604
val	-9.26117
▁ontwerpen	-9.26226
▁bang	-9.26391
▁meisjes	-9.26423
▁vriend	-9.26437
▁boeken	-9.26563
▁materiaal	-9.26622
▁kopen	-9.26913
dig	-9.26966
iets	-9.27001
▁Aan	-9.27071
isch	-9.27116
hi	-9.27344
▁verbonden	-9.27416
▁leiden	-9.27446
L	-9.27826
gekomen	-9.27848
▁gesprek	-9.27985
▁richting	-9.28007
▁kosten	-9.28012
▁probeerde	-9.28203
kt	-9.28375
tal	-9.2843
▁gebouw	-9.28435
▁kamer	-9.28583
▁hoorde	-9.28693
▁productie	-9.28747
▁noem	-9.28823
and	-9.28884
▁hield	-9.28891
▁overheid	-9.28942
▁regering	-9.29047
▁sprak	-9.29065
▁zorg	-9.29164
▁veilig	-9.29279
▁w	-9.29387
▁Oo	-9.29411
wi	-9.29609
▁Mars	-9.29647
▁handen	-9.29845
▁netwerk	-9.29918
ja	-9.30007
spel	-9.30089
iv	-9.30114
▁do	-9.30168
▁gezondheid	-9.30198
▁innovatie	-9.30328
keek	-9.3033
▁Denk	-9.30336
▁voelde	-9.30362
und	-9.30464
6	-9.30523
▁vindt	-9.3064
▁dicht	-9.30755
▁vis	-9.3078
verantwoordelijk	-9.31072
ering	-9.31115
O	-9.31213
▁Aarde	-9.31326
▁meisje	-9.31432
▁controle	-9.316
▁toegang	-9.31623
▁o	-9.3163
▁miljoenen	-9.31721
▁mis	-9.31739
▁stukje	-9.31795
▁80	-9.3189
▁la	-9.32086
▁gebaseerd	-9.32097
▁genaamd	-9.32097
deel	-9.32319
▁wetenschappers	-9.3252
plan	-9.32557
▁bewust	-9.32664
▁gebieden	-9.32872
▁sterven	-9.32893
▁sneller	-9.33028
voer	-9.33063
▁Over	-9.33072
aat	-9.33078
▁jezelf	-9.33171
▁Veel	-9.33178
▁nee	-9.33204
▁Zelfs	-9.33274
▁baan	-9.33317
io	-9.33352
▁beide	-9.33451
▁namen	-9.33534
▁fysiek	-9.33657
▁kilometer	-9.33659
lin	-9.33661
ug	-9.33805
▁19	-9.34136
▁wilt	-9.34193
▁gebeurd	-9.34735
▁camera	-9.34807
▁kop	-9.34817
bouw	-9.34913
▁ontwikkeld	-9.35019
▁25	-9.35031
▁Europa	-9.35206
▁bewijs	-9.35243
▁11	-9.35328
▁eraan	-9.35422
komt	-9.3549
▁helft	-9.35512
▁Tot	-9.35599
▁nacht	-9.35701
▁pijn	-9.35799
▁hou	-9.35846
houdt	-9.35881
▁Bedankt	-9.36045
▁ijs	-9.36104
▁mo	-9.36206
▁Bo	-9.36212
▁lab	-9.36262
▁politiek	-9.36264
▁langs	-9.36323
stelling	-9.3633
▁cel	-9.36428
els	-9.36535
▁berg	-9.36574
▁links	-9.36581
▁evolutie	-9.36583
▁leeftijd	-9.36588
▁vermogen	-9.3666
▁duur	-9.36781
gevonden	-9.36858
▁gedur	-9.37111
▁regels	-9.3736
▁richt	-9.37506
vol	-9.3759
▁collega	-9.37669
▁computers	-9.377
▁schreef	-9.37757
▁les	-9.37818
▁programma	-9.37825
▁succes	-9.38198
▁kort	-9.38234
pr	-9.384
▁zwarte	-9.38427
▁The	-9.38594
▁interessante	-9.38687
▁middelen	-9.38691
dag	-9.38705
▁beneden	-9.38809
▁resultaat	-9.38911
mar	-9.38997
▁kleur	-9.39017
▁dia	-9.39553
▁90	-9.39591
▁Som	-9.39677
rs	-9.39702
▁maand	-9.39713
loze	-9.3977
▁papier	-9.39787
▁geworden	-9.39876
brengen	-9.40017
▁uitge	-9.40075
▁klink	-9.40158
▁voorkomen	-9.40358
▁voelt	-9.40499
▁bevolking	-9.40533
▁lijn	-9.40763
▁planten	-9.40781
▁he	-9.40834
slag	-9.40843
▁prijs	-9.41014
sel	-9.41023
▁onderwerp	-9.41027
▁bio	-9.41079
ï	-9.41081
▁ontmoet	-9.41104
▁situatie	-9.41133
G	-9.41174
slagen	-9.41212
▁Natuurlijk	-9.41286
daad	-9.41288
rijk	-9.41373
ui	-9.4145
▁maatschappij	-9.41482
qu	-9.41593
▁Ra	-9.41671
▁arm	-9.41692
▁bepaald	-9.41792
act	-9.41794
nemen	-9.42026
ijn	-9.42038
▁beslo	-9.42101
▁kern	-9.42142
acht	-9.42201
ran	-9.42232
▁buurt	-9.42252
▁acht	-9.42349
▁Zuid	-9.42418
▁wachten	-9.42636
▁diep	-9.42657
▁liep	-9.42817
▁Sh	-9.43069
sta	-9.43194
lui	-9.43283
▁iedere	-9.43345
waar	-9.43431
jarige	-9.43479
con	-9.43525
▁Ba	-9.43744
brengt	-9.43848
▁slechte	-9.43928
▁z	-9.44036
halve	-9.44166
▁dier	-9.4434
▁vallen	-9.44352
▁bevind	-9.44468
▁redenen	-9.44469
▁eerlijk	-9.44571
▁An	-9.44688
▁digitale	-9.44734
▁democratie	-9.44736
▁afge	-9.4478
▁laag	-9.4495
gaat	-9.45019
▁Oh	-9.45024
▁realiteit	-9.45045
▁ontdekk	-9.45232
▁huidig	-9.45264
▁overleven	-9.45309
isme	-9.45312
▁middel	-9.45397
▁wind	-9.45633
▁vlak	-9.45901
▁letterlijk	-9.45932
▁universiteit	-9.46025
leiding	-9.4609
▁blij	-9.4616
▁betrokken	-9.46225
▁tien	-9.46327
▁voorbij	-9.46429
▁strijd	-9.46449
punt	-9.46704
▁lever	-9.4675
▁Ha	-9.4681
▁Te	-9.46925
▁r	-9.46982
▁zoon	-9.46984
▁contact	-9.47116
ië	-9.4717
▁systemen	-9.47256
▁gegeven	-9.47446
▁volg	-9.47485
ler	-9.4755
gewerkt	-9.4788
ide	-9.47905
ppen	-9.4797
▁Google	-9.48008
▁Ka	-9.48023
▁afstand	-9.4809
▁gebouwd	-9.48328
▁gemakkelijk	-9.48441
▁liggen	-9.48755
▁hoef	-9.48905
▁studie	-9.49038
og	-9.49119
▁structuur	-9.49138
▁leid	-9.49223
▁onge	-9.49269
ium	-9.49356
gaven	-9.49547
▁daarna	-9.49633
gesteld	-9.4988
▁theorie	-9.50004
▁cijfer	-9.50006
▁ca	-9.50084
gel	-9.50155
▁design	-9.5019
▁vak	-9.50307
ging	-9.50403
▁sturen	-9.50442
▁normaal	-9.50462
veel	-9.5048
▁ex	-9.50631
▁9	-9.50795
▁scherm	-9.50819
▁behandeling	-9.50954
▁waarheid	-9.51033
▁beschermen	-9.51288
▁Kan	-9.51301
bleef	-9.51394
▁korte	-9.51595
▁luisteren	-9.51679
ff	-9.51679
▁gen	-9.51727
ooi	-9.51785
▁wiskunde	-9.52021
▁omhoog	-9.52021
▁makkelijk	-9.52162
▁produceren	-9.52338
▁Volgen	-9.52346
▁Dr	-9.52647
▁geïnteresseerd	-9.52653
▁individu	-9.52693
plaats	-9.5275
▁effect	-9.52777
▁invloed	-9.52904
▁onmogelijk	-9.5297
▁dochter	-9.5297
▁extra	-9.52985
▁grootte	-9.53044
▁verleden	-9.53052
▁kent	-9.53071
▁Twee	-9.5322
▁oplossen	-9.53289
▁Z	-9.53304
▁lokale	-9.53378
vallen	-9.5344
▁vreemd	-9.53549
bu	-9.53615
▁70	-9.53637
erde	-9.53671
▁resultaten	-9.53839
ex	-9.53842
▁voel	-9.53951
▁product	-9.54139
▁erover	-9.54169
▁droom	-9.54261
▁genetisch	-9.54272
▁loop	-9.54439
▁verteld	-9.54597
▁sterren	-9.54611
gang	-9.54646
▁concept	-9.54746
▁Ho	-9.54758
▁super	-9.5489
ief	-9.54893
▁bepalen	-9.54896
▁betalen	-9.54899
▁geheim	-9.54918
eld	-9.54933
komst	-9.55071
▁juist	-9.55111
▁genoemd	-9.55221
▁online	-9.55246
▁passen	-9.55295
▁principe	-9.55461
▁scholen	-9.5559
▁bed	-9.55613
▁gang	-9.55684
▁Kun	-9.55767
▁patiënt	-9.55828
loog	-9.56024
tor	-9.56105
▁bouw	-9.56566
▁gevallen	-9.56732
▁pakken	-9.56756
▁plan	-9.56792
ki	-9.56982
aire	-9.57045
com	-9.57142
▁da	-9.57164
hand	-9.57166
▁vooruitgang	-9.57199
▁redden	-9.57235
cellen	-9.5725
▁daarom	-9.5736
ly	-9.57525
▁voet	-9.57791
stand	-9.58001
genen	-9.58095
loof	-9.58155
▁Net	-9.58239
del	-9.58339
verandering	-9.58345
▁dragen	-9.58472
▁verbeteren	-9.58495
▁moderne	-9.58499
▁begrijp	-9.58541
▁revolutie	-9.58546
▁stil	-9.58641
kracht	-9.58685
▁doden	-9.58778
▁eenvoudige	-9.5886
▁Chris	-9.58878
uren	-9.58913
▁gemeenschappe	-9.58945
▁besloten	-9.58966
nes	-9.59066
lijn	-9.5907
▁techniek	-9.59161
▁vooruit	-9.59195
▁16	-9.59296
▁jongens	-9.59334
▁interactie	-9.59424
▁seks	-9.59534
▁natuurlijke	-9.59541
▁versie	-9.59615
lon	-9.59719
▁gemiddelde	-9.59819
age	-9.5982
▁werkelijkheid	-9.60023
▁jongen	-9.60026
est	-9.60048
▁hersen	-9.60114
0.000	-9.60238
▁Goed	-9.60253
▁mogen	-9.60265
name	-9.60443
▁verspreid	-9.60478
leven	-9.60506
▁vergeten	-9.60566
▁genen	-9.60635
▁com	-9.60682
ervoor	-9.60791
▁bedankt	-9.60861
▁ontdekt	-9.60904
▁passie	-9.60955
handel	-9.61165
laas	-9.61198
▁vers	-9.612
▁John	-9.61599
▁steun	-9.61603
▁woon	-9.61619
mmer	-9.61793
▁Da	-9.61818
ns	-9.61862
▁veroorzaakt	-9.61946
eur	-9.61969
win	-9.62107
fi	-9.62453
▁Noord	-9.62508
▁Man	-9.62522
▁afval	-9.62678
▁verbinding	-9.62755
▁half	-9.62822
▁kwestie	-9.62922
aai	-9.6293
▁14	-9.62967
▁On	-9.6311
▁San	-9.63119
ft	-9.6313
amelijk	-9.63291
j	-9.63291
▁houd	-9.63323
▁armoede	-9.63347
▁rode	-9.63384
▁eigenschap	-9.6343
▁oppervlak	-9.63443
▁vi	-9.6348
eer	-9.63508
rek	-9.63519
▁prachtige	-9.63571
▁persoonlijke	-9.63574
▁band	-9.63649
▁verlies	-9.63697
▁enzovoort	-9.63701
ey	-9.63823
▁religie	-9.64055
▁verloren	-9.64056
▁leer	-9.64127
▁ervaren	-9.64415
pel	-9.64486
▁onderdeel	-9.64498
▁praat	-9.64514
ies	-9.64516
▁daadwerkelijk	-9.64768
F	-9.64895
▁rechter	-9.64905
▁vertelt	-9.65019
▁toont	-9.65133
▁bedacht	-9.65137
ties	-9.65248
K	-9.6538
▁avond	-9.65446
▁traditione	-9.65486
iemand	-9.65492
▁rij	-9.65545
▁landbouw	-9.65547
port	-9.65563
leek	-9.65572
tenschappelijke	-9.66011
isten	-9.66033
N	-9.66042
ip	-9.66597
▁con	-9.66681
▁veld	-9.66708
▁km	-9.66833
vo	-9.66908
▁Sch	-9.66924
mmen	-9.66941
▁taak	-9.66954
▁gezin	-9.66965
▁onderzoeken	-9.6697
▁stroom	-9.67383
stukken	-9.67419
▁conflict	-9.67562
her	-9.67575
▁beperkt	-9.67672
▁bacteriën	-9.67701
▁type	-9.67715
▁totaal	-9.67777
▁ontstaan	-9.67844
▁communicatie	-9.68041
▁fundamentele	-9.68043
▁huid	-9.68113
▁Neem	-9.68198
▁bereikt	-9.68247
▁beschikbaar	-9.68418
▁bewustzijn	-9.68418
▁loopt	-9.68483
▁hiervan	-9.6851
▁bomen	-9.68593
▁kl	-9.68646
▁organisme	-9.68729
▁bestuder	-9.68788
▁du	-9.69007
▁toon	-9.69068
oon	-9.69071
▁reactie	-9.69104
▁gedachten	-9.69108
▁bedenken	-9.6923
▁vliegtuig	-9.69241
▁vanwege	-9.69262
▁volk	-9.693
▁Video	-9.69531
▁actie	-9.69662
▁hoort	-9.69756
▁periode	-9.69876
beeld	-9.6996
dy	-9.70012
▁winkel	-9.70136
▁verschillen	-9.7023
▁Engels	-9.70301
▁nou	-9.70318
▁micro	-9.70323
laag	-9.70405
▁boom	-9.70421
▁samenleving	-9.70504
▁direct	-9.7067
vaardigheden	-9.70672
bra	-9.70672
▁nadenken	-9.70719
zak	-9.70726
▁bieden	-9.7079
▁pre	-9.70895
▁vrijheid	-9.71002
▁uniek	-9.71044
lig	-9.71069
programma	-9.71206
ana	-9.71223
▁vroeger	-9.71238
technologie	-9.71399
▁raken	-9.71432
▁beleid	-9.71615
water	-9.71636
▁Li	-9.71722
▁veranderde	-9.71763
gra	-9.7204
▁leiders	-9.72041
▁terecht	-9.7214
▁bereid	-9.72194
▁dagelijks	-9.72197
ood	-9.72369
wereld	-9.72379
▁instelling	-9.72381
▁ontmoette	-9.72523
▁Wel	-9.72553
▁rivier	-9.72579
▁vrede	-9.72581
▁kwaliteit	-9.72739
▁snelheid	-9.72781
▁code	-9.72818
▁Hun	-9.72895
▁biologie	-9.72969
▁Dankjewel	-9.7297
▁fl	-9.7317
machine	-9.73179
res	-9.7332
▁context	-9.73355
▁gezondheidszorg	-9.73358
▁samenwerking	-9.73373
▁lossen	-9.73388
▁13	-9.73462
▁ontdekte	-9.7351
▁trekken	-9.73536
▁elektriciteit	-9.73746
▁impact	-9.73746
▁grenzen	-9.73746
▁tegenwoordig	-9.73753
▁betekenis	-9.73793
▁bezoek	-9.74139
▁sc	-9.74139
▁nummer	-9.743
▁wijze	-9.74309
▁gevangenis	-9.74351
vi	-9.7448
▁waard	-9.74501
▁wonen	-9.7464
▁zaak	-9.74683
▁orde	-9.7469
▁Wil	-9.74721
▁software	-9.74781
▁regen	-9.74813
▁perfect	-9.74816
tan	-9.74861
▁regel	-9.74895
▁verzamelen	-9.7494
▁onbe	-9.74981
du	-9.75019
▁ontdekking	-9.7503
▁Zie	-9.7504
trekken	-9.75089
ard	-9.7521
ang	-9.75286
stellen	-9.75324
▁verminder	-9.75324
▁blind	-9.75333
▁object	-9.75354
▁21	-9.75355
▁Jo	-9.75391
▁planet	-9.75426
▁negen	-9.75469
▁begre	-9.75514
huis	-9.75581
oom	-9.75586
▁Eerst	-9.75745
zicht	-9.75894
▁organisatie	-9.75921
▁To	-9.75948
hu	-9.75979
ding	-9.76017
▁wens	-9.76053
▁pad	-9.76077
verbazingwekkend	-9.76122
▁hoor	-9.7636
▁brand	-9.76396
oren	-9.764
▁ziekenhuis	-9.76498
▁algemeen	-9.76524
▁mobiele	-9.76538
▁scho	-9.76549
▁17	-9.76569
doen	-9.76621
▁favoriete	-9.76764
▁hemel	-9.76833
ina	-9.7687
▁individue	-9.76875
▁medische	-9.76888
▁Ben	-9.76934
ah	-9.7704
▁Ons	-9.77065
ari	-9.77396
▁Amerikanen	-9.77408
▁gevangen	-9.7748
▁veiligheid	-9.77575
▁draait	-9.77663
veld	-9.77713
▁leeft	-9.77722
▁verkopen	-9.77741
▁detail	-9.77743
▁vervolgen	-9.77752
zw	-9.77755
kozen	-9.77807
▁Ju	-9.77887
▁gebouwen	-9.78039
▁vraagt	-9.78059
▁kerel	-9.78163
achtig	-9.78202
▁producten	-9.78238
▁neuronen	-9.78245
aars	-9.78336
llen	-9.7851
▁vertel	-9.78514
▁verkeerd	-9.78589
zame	-9.78594
the	-9.78623
▁aard	-9.7869
air	-9.78757
▁politie	-9.78768
▁hoek	-9.78935
▁draaien	-9.78939
▁gratis	-9.78968
groep	-9.79064
▁perspectie	-9.79214
▁rijk	-9.79222
▁heelal	-9.79226
▁hoger	-9.79309
▁plastic	-9.79386
▁projecten	-9.79479
▁geschreven	-9.79624
▁anti	-9.79653
▁boodschap	-9.79739
spraak	-9.79745
▁voeg	-9.7977
▁leg	-9.79893
tuig	-9.79894
cel	-9.79951
▁val	-9.80005
chi	-9.80045
▁West	-9.80093
▁culture	-9.80149
▁Duits	-9.80216
▁stier	-9.80218
naar	-9.80259
zien	-9.80318
igheid	-9.80345
▁prachtig	-9.80366
gram	-9.80534
▁afhankelijk	-9.80539
▁Do	-9.80613
ld	-9.80634
▁motor	-9.80636
▁24	-9.80672
▁Uit	-9.80703
▁helpt	-9.8082
iti	-9.8097
net	-9.81019
▁website	-9.81053
▁web	-9.81085
che	-9.81234
▁koolstof	-9.8124
▁vlucht	-9.8127
bb	-9.81385
▁groene	-9.81417
▁lijst	-9.81519
▁medicijnen	-9.81529
▁min	-9.81605
art	-9.81666
au	-9.81672
▁seconden	-9.81687
▁begrip	-9.81779
▁zus	-9.8184
▁lastig	-9.81911
▁zaal	-9.81933
▁god	-9.81968
▁zonne	-9.82029
▁handel	-9.82054
gegeven	-9.82293
▁Hartelijk	-9.82323
houden	-9.82562
▁bron	-9.82685
▁pagina	-9.82697
pot	-9.82738
▁verliezen	-9.8275
▁herinneren	-9.82784
▁Toch	-9.82791
gebracht	-9.82902
aak	-9.83021
▁veranderingen	-9.83024
middel	-9.83027
eraard	-9.83038
▁Afrikaans	-9.83123
▁Ca	-9.83168
▁interesse	-9.8318
▁financiële	-9.83197
▁mocht	-9.83215
▁inkomen	-9.83245
▁rijden	-9.83325
gezet	-9.83337
ach	-9.83394
▁omstandigheden	-9.83459
▁Meer	-9.83508
project	-9.83594
▁atmosfeer	-9.8361
▁Sa	-9.83651
velen	-9.83673
ond	-9.83763
▁Si	-9.83778
ner	-9.83805
arm	-9.83856
lan	-9.83873
ool	-9.83897
▁elektrisch	-9.84043
▁afbeelding	-9.84044
▁absoluut	-9.84045
▁samenwerken	-9.8407
▁zuid	-9.84094
put	-9.84227
oot	-9.84305
▁belangrijker	-9.84368
▁wezen	-9.84397
▁antwoorden	-9.84479
kan	-9.84482
▁zomer	-9.84494
▁aanpak	-9.84643
nieuw	-9.84669
▁leger	-9.84672
eerden	-9.8468
▁start	-9.84702
fer	-9.84746
▁noemde	-9.84906
▁spannend	-9.84915
uk	-9.8492
▁muur	-9.84954
▁vuur	-9.84954
▁verband	-9.85023
▁jong	-9.85069
▁Welk	-9.85097
▁ster	-9.85143
iel	-9.85198
▁simpele	-9.85236
har	-9.85279
▁realiseerde	-9.85321
▁inzicht	-9.85334
▁gele	-9.85335
▁blauwe	-9.85489
oog	-9.85519
▁gewone	-9.85583
▁daarvoor	-9.85643
vis	-9.85742
▁Japan	-9.85755
▁machines	-9.85775
▁pa	-9.85786
▁grafiek	-9.85805
▁stemmen	-9.85851
▁wijs	-9.85856
▁zwart	-9.85896
eens	-9.8595
▁tafel	-9.8595
▁Sp	-9.85972
▁pu	-9.86168
jo	-9.86208
▁broer	-9.86263
▁as	-9.86339
▁specifieke	-9.86393
mail	-9.8644
▁international	-9.865
▁hoogte	-9.86588
maar	-9.86616
▁communiceren	-9.86681
achtige	-9.86709
▁radio	-9.86722
▁stelt	-9.86779
▁krachtig	-9.86889
▁ontwor	-9.86899
▁bank	-9.86963
zu	-9.86968
▁relaties	-9.86987
ica	-9.87009
wissel	-9.87061
▁voortdurend	-9.87127
▁trots	-9.87128
▁patroon	-9.87161
▁199	-9.87236
▁fa	-9.87398
▁mogelijke	-9.87408
▁ochtend	-9.87514
▁bleek	-9.87601
▁functie	-9.87633
▁vlieg	-9.87677
tisch	-9.87727
kend	-9.87754
▁creëer	-9.87842
rat	-9.87982
H	-9.88012
lam	-9.88021
▁reizen	-9.88026
line	-9.88045
taal	-9.88097
▁schoonheid	-9.88097
▁openbare	-9.88108
▁scha	-9.88127
▁bos	-9.88149
hy	-9.88206
▁visie	-9.88215
▁complexe	-9.88351
▁vorige	-9.88475
cor	-9.88552
vat	-9.88681
▁merk	-9.88864
▁aspect	-9.88933
▁moeite	-9.88933
▁klopt	-9.88935
▁verdienen	-9.88938
lkens	-9.88958
▁banen	-9.89
boek	-9.89065
iger	-9.8909
▁to	-9.89176
richt	-9.89347
▁slim	-9.89364
ici	-9.89386
▁regio	-9.89392
▁lijden	-9.89405
▁kleuren	-9.89499
▁eiland	-9.8952
▁speelt	-9.89552
▁stelde	-9.89557
loop	-9.89641
ll	-9.89644
ële	-9.8993
▁films	-9.90015
▁vervangen	-9.90066
sc	-9.90118
iseren	-9.90157
iek	-9.9017
▁post	-9.90173
▁beslissingen	-9.90214
▁gedachte	-9.90259
▁sociaal	-9.90309
▁normale	-9.90314
pa	-9.9036
▁landschap	-9.90418
▁slachtoffer	-9.90428
▁hond	-9.90455
▁methode	-9.90706
▁stand	-9.9076
▁president	-9.90772
▁behandelen	-9.90774
▁zwaar	-9.90807
▁zak	-9.90865
▁apparaat	-9.90915
▁for	-9.9092
▁Mar	-9.90987
▁vaccin	-9.91066
rit	-9.91085
zinnen	-9.91193
▁operatie	-9.91203
▁Uiteindelijk	-9.91242
▁plekke	-9.91262
aliteit	-9.91297
druk	-9.91304
ram	-9.91309
▁ziek	-9.91402
▁gezond	-9.91629
▁par	-9.91685
▁depressie	-9.91694
▁reageren	-9.91705
▁rand	-9.91734
▁wonder	-9.9176
ow	-9.91797
▁opleiding	-9.91866
▁hout	-9.91897
▁materialen	-9.91897
▁ontdekten	-9.91994
▁wezens	-9.92019
▁maan	-9.92101
▁Pro	-9.92104
▁donkere	-9.92145
vang	-9.92174
▁reeks	-9.92175
▁gr	-9.92229
proces	-9.92273
▁toepassing	-9.9254
▁robots	-9.92577
▁speel	-9.926
▁verschrikkelijk	-9.92646
▁dromen	-9.92647
even	-9.9267
valt	-9.9293
oud	-9.92959
▁Heb	-9.92996
▁leert	-9.93107
▁geheel	-9.9312
▁beweeg	-9.93156
▁voeren	-9.93176
▁gebracht	-9.93214
gene	-9.93362
ator	-9.93484
▁compassie	-9.93596
▁behoorlijk	-9.93622
▁gezet	-9.9363
▁Di	-9.93769
▁Se	-9.93802
▁teken	-9.93812
▁gebruikte	-9.93817
zi	-9.93981
▁Afghanistan	-9.94074
▁chemisch	-9.94075
▁groen	-9.94082
▁genoom	-9.94085
▁OK	-9.94124
▁deur	-9.94161
▁plezier	-9.94555
▁vreselijk	-9.94555
cy	-9.94749
▁vergelijking	-9.94786
▁linker	-9.94797
▁virus	-9.94903
▁burgers	-9.95079
▁bal	-9.95144
ny	-9.95192
▁boeren	-9.95244
stad	-9.95264
▁Har	-9.95276
▁honger	-9.95284
▁Iemand	-9.95524
▁Daarna	-9.95618
▁trouw	-9.95762
ders	-9.95858
▁vreemde	-9.95858
▁ongelofelijk	-9.96012
▁goud	-9.96026
mes	-9.96121
goed	-9.9628
▁vervoer	-9.96315
▁ka	-9.96479
▁collectie	-9.96502
▁Frank	-9.96502
▁tumor	-9.96507
▁geneeskunde	-9.96655
▁vissen	-9.96689
heer	-9.96853
assen	-9.96876
▁gaten	-9.96942
nnen	-9.96959
lotte	-9.97071
▁leidde	-9.97074
red	-9.97202
▁kr	-9.97229
▁weefsel	-9.97261
▁doorgaan	-9.97277
▁verkiezing	-9.97422
▁temperatuur	-9.9743
▁500	-9.97439
▁waarden	-9.97473
▁kwijt	-9.97489
systemen	-9.97503
raad	-9.97544
energie	-9.97732
▁kinder	-9.97838
▁verdwijnen	-9.97934
▁slot	-9.97952
igenlijk	-9.97973
▁Publiek	-9.97987
▁dichter	-9.98002
▁beschaving	-9.98125
les	-9.98159
▁gevaarlijk	-9.98259
▁crisis	-9.98265
▁bestuur	-9.98343
▁nationale	-9.98487
▁wakker	-9.98512
▁fiets	-9.98534
▁tekenen	-9.98561
▁the	-9.98592
▁volledige	-9.98594
▁ondank	-9.98663
▁Bu	-9.98747
▁ha	-9.98782
▁centrum	-9.98818
▁Ko	-9.98889
▁geboorte	-9.98989
▁Vi	-9.98995
▁rug	-9.99016
▁tekst	-9.99026
lus	-9.99215
nden	-9.99292
▁aanwezig	-9.99401
▁modellen	-9.99492
▁voorspellen	-9.99496
▁schilderij	-9.99512
▁achtergrond	-9.9952
zië	-9.99523
▁fabriek	-9.99542
▁Hoeveel	-9.99579
▁arme	-9.99624
▁uitzien	-9.99648
han	-9.99793
leden	-9.99849
ieve	-9.99864
▁winnen	-10
▁oké	-10.0003
hoeft	-10.0015
▁zocht	-10.0016
▁levende	-10.0017
▁besefte	-10.0019
tuur	-10.0023
▁beïnvloed	-10.0029
▁Ne	-10.0034
ters	-10.0035
▁Chine	-10.0047
▁huizen	-10.005
▁Facebook	-10.0051
▁malaria	-10.0051
▁Af	-10.0052
▁overtuigen	-10.0053
▁at	-10.0055
▁behulp	-10.0055
▁beantwoord	-10.0057
▁objecten	-10.0062
▁sterke	-10.0068
mate	-10.0075
wend	-10.0086
▁vertegenwoordig	-10.0091
alië	-10.0094
▁mond	-10.0094
▁netwerken	-10.0098
van	-10.01
▁Zou	-10.0115
▁aange	-10.0117
los	-10.0125
niveau	-10.0134
wezen	-10.0137
pas	-10.0139
50	-10.0139
wat	-10.0141
▁volwassen	-10.0142
▁raakt	-10.0153
▁gereedschap	-10.0154
▁National	-10.0154
▁respect	-10.0154
▁tegelijkertijd	-10.0155
▁adem	-10.0155
▁middelbare	-10.0157
band	-10.0169
minste	-10.0175
▁brug	-10.0186
bro	-10.0196
kaart	-10.0196
▁Brazili	-10.0206
▁cool	-10.0214
delijk	-10.0217
par	-10.022
▁geldt	-10.0229
▁zette	-10.0239
schrift	-10.025
▁standaard	-10.0258
▁hopen	-10.028
▁klas	-10.0281
▁viel	-10.029
industrie	-10.0293
▁Tijden	-10.0293
▁won	-10.0297
▁verg	-10.0303
gro	-10.0306
▁meerdere	-10.0321
▁morgen	-10.0329
▁stappen	-10.0333
roepen	-10.0333
▁leef	-10.0339
▁oppervlakte	-10.0355
▁podium	-10.0363
▁verkocht	-10.0363
▁Irak	-10.0363
▁haal	-10.0364
▁mening	-10.0364
▁liever	-10.0365
▁Jij	-10.0368
▁Ar	-10.037
▁CO	-10.037
▁slag	-10.0375
schreven	-10.0394
V	-10.0398
▁biologische	-10.0398
▁burger	-10.0411
▁kilo	-10.0416
▁verrassend	-10.0416
▁carri	-10.0416
▁fenome	-10.0416
▁zand	-10.0418
▁ti	-10.0419
laat	-10.0425
school	-10.0434
▁cirkel	-10.0439
▁warm	-10.0445
app	-10.0453
▁factor	-10.0466
▁identiteit	-10.0469
▁visuele	-10.0469
▁sterrenstelsel	-10.0469
▁Londen	-10.0469
▁300	-10.0473
staat	-10.0482
▁wetten	-10.0485
▁betref	-10.0491
▁beroep	-10.0497
model	-10.0502
beweging	-10.0509
▁dak	-10.0518
▁zorgt	-10.0526
▁morele	-10.0529
▁lag	-10.0532
▁Ta	-10.0535
ai	-10.0536
▁stopt	-10.0537
▁gericht	-10.055
kers	-10.0555
▁termen	-10.056
▁definitie	-10.0576
▁gigantisch	-10.0576
▁nuttig	-10.0577
▁activiteit	-10.0577
▁verlaten	-10.0587
▁speciale	-10.0594
▁beperking	-10.0596
by	-10.0603
▁armen	-10.0606
stuk	-10.0615
▁stuur	-10.0616
merk	-10.0622
ving	-10.0625
▁architectuur	-10.0631
▁gesproken	-10.0634
▁stat	-10.0635
▁kantoor	-10.0637
▁Californi	-10.0642
▁industrie	-10.0648
▁Drie	-10.0656
amp	-10.0657
▁gegaan	-10.0659
▁wacht	-10.066
▁erger	-10.0668
gelaten	-10.0671
wet	-10.0682
▁zuurstof	-10.0685
▁plaatje	-10.0685
▁langzaam	-10.0687
▁creatieve	-10.0688
▁intelligentie	-10.0688
▁bestond	-10.0689
▁gras	-10.069
▁blok	-10.0698
▁patronen	-10.0701
▁blauw	-10.0704
▁Car	-10.0707
▁getal	-10.0711
ijvoorbeeld	-10.0738
▁vorig	-10.074
▁pi	-10.0742
▁doos	-10.0744
▁tv	-10.075
▁tijdperk	-10.075
▁onderdelen	-10.0759
gebied	-10.0785
▁discussie	-10.0788
▁David	-10.0794
▁continent	-10.0794
▁hiv	-10.0798
▁So	-10.0804
▁duurde	-10.0813
war	-10.0821
▁stof	-10.0826
Afrika	-10.0841
▁besluit	-10.085
▁drugs	-10.085
▁Sta	-10.0852
▁haalde	-10.0858
cre	-10.0862
▁inder	-10.0864
kte	-10.0864
▁structur	-10.0866
▁bodem	-10.0878
▁gat	-10.0888
▁grens	-10.0892
ell	-10.0894
▁prima	-10.0903
▁dokter	-10.0904
▁verbeelding	-10.0905
▁tegelijk	-10.0906
▁bekijk	-10.0912
▁debat	-10.0916
▁toepass	-10.0918
▁tuin	-10.0919
▁gewicht	-10.0933
▁geheugen	-10.0933
▁artikel	-10.0948
▁verbinden	-10.0951
▁complexiteit	-10.0962
▁trend	-10.0963
▁vroege	-10.0965
▁controleren	-10.0976
▁bot	-10.0986
▁sport	-10.0991
▁dienst	-10.0993
ham	-10.0995
▁gevraagd	-10.1009
▁kamp	-10.101
▁voorbereid	-10.1017
▁donker	-10.1021
▁plant	-10.103
▁Ok	-10.1031
▁zulke	-10.1032
▁infrastructuur	-10.1035
▁Brits	-10.1052
tas	-10.1055
▁potentie	-10.1066
▁sleutel	-10.1068
▁grappig	-10.1074
▁materie	-10.1075
▁197	-10.1077
▁10.000	-10.1093
▁eet	-10.1094
▁Europe	-10.1096
▁witte	-10.1098
▁persoonlijk	-10.1101
▁student	-10.1108
ans	-10.1109
▁brood	-10.1109
zij	-10.1118
tussen	-10.1118
▁organisaties	-10.1121
stel	-10.1125
bank	-10.1128
▁creativiteit	-10.113
▁decennia	-10.113
time	-10.1141
▁No	-10.1141
▁betaal	-10.1149
tegen	-10.1164
▁Kom	-10.1179
▁zogenaamd	-10.1188
▁talk	-10.1188
▁overtuigd	-10.1188
▁vogels	-10.1195
▁borst	-10.1196
▁locatie	-10.1218
W	-10.124
▁wou	-10.1241
zag	-10.1254
▁actief	-10.1262
▁partij	-10.1263
▁mate	-10.1265
▁uitleggen	-10.1272
▁positie	-10.1281
▁luister	-10.1289
gelegd	-10.1291
▁strategie	-10.1294
▁bus	-10.1294
▁slaap	-10.1303
▁schijn	-10.1307
▁har	-10.1322
groeid	-10.1342
▁tak	-10.1349
ju	-10.135
gesloten	-10.1361
▁behandeld	-10.1361
▁uitdagingen	-10.1364
eindelijk	-10.1373
▁deeltjes	-10.1376
bal	-10.1379
kop	-10.1397
▁geleid	-10.1401
▁beke	-10.1403
bre	-10.1407
▁insecten	-10.1417
▁compleet	-10.1419
▁constant	-10.1419
iseerd	-10.1438
jaar	-10.145
▁uw	-10.1451
out	-10.1453
ue	-10.1477
▁buitengewoon	-10.1478
▁populair	-10.1478
▁jongeren	-10.1482
▁dom	-10.1488
▁ingewikkeld	-10.1491
▁Mi	-10.1494
▁invester	-10.1495
▁hang	-10.1496
▁seconde	-10.1508
▁moeders	-10.1514
▁ontwikkelde	-10.1529
▁vechten	-10.153
col	-10.1531
▁ruim	-10.1535
▁nul	-10.1537
ruimte	-10.1541
aren	-10.1548
werp	-10.1552
▁Ki	-10.1557
▁publieke	-10.1561
▁schoon	-10.1572
▁succesvol	-10.1575
▁ware	-10.1576
▁verzameld	-10.158
don	-10.158
slanden	-10.158
▁herkenn	-10.1588
▁verspreiden	-10.159
▁oorspronkelijk	-10.1597
▁tiental	-10.1599
gebruik	-10.1602
▁beslissing	-10.1609
▁helder	-10.161
▁onderste	-10.161
hang	-10.1615
▁stoel	-10.1624
▁keren	-10.1638
gie	-10.1646
▁poging	-10.1657
▁historisch	-10.1657
▁jeugd	-10.1658
▁rood	-10.1658
▁Iran	-10.1661
eft	-10.1662
▁schade	-10.1685
wijze	-10.1695
▁mede	-10.1695
▁speelde	-10.1707
leggen	-10.1708
cha	-10.171
▁specifiek	-10.1712
▁Sinds	-10.1717
▁combinatie	-10.1717
▁graden	-10.172
▁politic	-10.1721
avond	-10.1724
▁raakte	-10.1725
▁2000	-10.1734
▁not	-10.1738
▁kleiner	-10.1742
▁Doe	-10.176
▁koffie	-10.1778
▁nieuwsgierig	-10.1778
▁bewijzen	-10.1778
▁Canad	-10.1779
onderzoek	-10.1786
bedrijf	-10.1786
kamer	-10.1788
berg	-10.1792
▁wetenschapper	-10.1793
▁dergelijk	-10.1794
matig	-10.1796
ris	-10.1811
keten	-10.1825
▁herinnering	-10.1834
▁enthousiast	-10.1839
▁moleculen	-10.1839
verbruik	-10.184
test	-10.1847
ance	-10.1855
▁rechten	-10.1857
▁stam	-10.1863
seffen	-10.1877
langs	-10.1879
▁termijn	-10.1884
▁beslissen	-10.19
▁verborgen	-10.19
▁kocht	-10.19
▁Go	-10.1901
▁duurzame	-10.1901
▁ernaar	-10.1904
▁geraakt	-10.1906
▁Po	-10.1909
▁werkten	-10.1923
▁Lo	-10.1951
▁speciaal	-10.1962
▁twijfel	-10.1962
▁ingenieurs	-10.1963
ay	-10.1969
▁herstellen	-10.1972
▁198	-10.1976
▁onderscheid	-10.1976
▁perfecte	-10.198
▁positieve	-10.1981
▁dieper	-10.199
▁leefde	-10.1992
▁blik	-10.2015
zaam	-10.2016
▁400	-10.202
▁statistiek	-10.2024
gehaald	-10.2024
▁Grote	-10.2025
neem	-10.203
▁missie	-10.203
▁mondiale	-10.2031
▁satelliet	-10.2038
▁Onder	-10.2039
▁park	-10.204
euze	-10.2041
▁vierde	-10.2046
erachter	-10.2053
▁woestijn	-10.2064
▁steken	-10.2075
▁Arabisch	-10.2087
▁past	-10.2091
▁vogel	-10.2094
▁Bill	-10.2099
▁slimme	-10.2099
▁Echt	-10.2104
▁betaald	-10.2105
▁uren	-10.2107
kundige	-10.2112
▁schuld	-10.2118
▁lage	-10.2119
▁behoefte	-10.2119
auw	-10.2125
▁Israël	-10.2132
pers	-10.214
▁inhoud	-10.214
Amerika	-10.2141
ble	-10.2149
▁eiwit	-10.2149
▁leraren	-10.2149
▁hielp	-10.2149
▁brandstof	-10.215
▁toevallig	-10.215
▁golf	-10.2152
▁35	-10.2154
▁El	-10.2156
▁noord	-10.2158
laten	-10.216
markt	-10.2166
drijven	-10.2171
▁voeden	-10.2178
▁moeilijker	-10.2181
▁kust	-10.2187
star	-10.2191
▁halve	-10.2205
▁Su	-10.2214
wijd	-10.222
▁groeide	-10.222
▁vlees	-10.2221
▁Haar	-10.2225
bed	-10.2263
wijk	-10.2264
▁inge	-10.2265
▁onderzoeks	-10.2272
ekt	-10.2272
▁multi	-10.2276
regel	-10.2278
▁wandel	-10.228
▁families	-10.228
vorm	-10.2289
▁toonde	-10.2299
▁pol	-10.2301
dom	-10.2308
gebouwd	-10.2309
ation	-10.2314
▁gebrek	-10.2316
▁gezondheids	-10.2325
▁vergelijken	-10.2328
▁krachten	-10.2339
▁algemene	-10.234
▁onmiddellijk	-10.234
▁realiseren	-10.2341
▁complex	-10.2355
▁lees	-10.2359
▁miljarden	-10.2361
grond	-10.2363
▁Ri	-10.2367
▁vriendin	-10.2371
▁enig	-10.2383
▁nood	-10.2405
▁leraar	-10.2405
▁trouwens	-10.2407
kort	-10.2411
wan	-10.2416
▁leuke	-10.2434
▁architect	-10.2436
ctor	-10.2447
▁boot	-10.2447
▁150	-10.2449
ectie	-10.2457
uwen	-10.2468
▁fundamenteel	-10.247
▁exact	-10.2472
▁serieus	-10.2473
▁196	-10.2474
▁recente	-10.2474
▁groeit	-10.2482
▁arts	-10.2489
▁rots	-10.2526
▁voorspelling	-10.2535
▁diensten	-10.2538
▁afvragen	-10.2538
▁beschrijven	-10.2541
all	-10.2543
▁verschijn	-10.2545
▁kaarten	-10.2546
▁zover	-10.255
centrum	-10.2558
▁centrale	-10.256
pje	-10.2562
▁0	-10.2569
▁koud	-10.2571
▁Oost	-10.2578
▁real	-10.2586
grafie	-10.2589
▁las	-10.2589
▁gevaar	-10.2598
▁opname	-10.26
▁beslist	-10.2601
▁diversiteit	-10.2601
waarts	-10.2606
▁redelijk	-10.2617
raden	-10.2619
eme	-10.2622
▁punten	-10.2627
▁onver	-10.2632
▁bedoeling	-10.2649
▁bedrijfs	-10.2658
▁roep	-10.2659
▁para	-10.2664
▁spijt	-10.2667
▁niks	-10.2667
▁gemiddeld	-10.2679
▁traditie	-10.2695
▁ton	-10.2703
geld	-10.2712
▁Con	-10.2712
▁lichaams	-10.2724
▁spul	-10.2733
▁document	-10.2733
▁fascinerend	-10.2734
▁onderzocht	-10.2734
▁interview	-10.2734
▁verkennen	-10.2734
▁verwijderd	-10.2734
besteden	-10.2735
▁vrouwelijke	-10.2742
▁fouten	-10.2753
▁vijand	-10.2754
▁zacht	-10.2764
▁signaal	-10.2767
vatten	-10.2769
▁Hu	-10.2774
▁algoritme	-10.2777
zon	-10.2778
wetenschappelijk	-10.2798
▁lukt	-10.2801
▁verdwe	-10.2801
▁Nigeria	-10.2801
film	-10.2807
ez	-10.2809
▁natie	-10.2811
▁gered	-10.2825
▁verstand	-10.2827
▁hel	-10.2852
▁degene	-10.2853
ya	-10.2864
iz	-10.2868
▁Dankuwel	-10.2869
station	-10.2886
kijk	-10.2889
▁kunstenaar	-10.2892
▁bezorgd	-10.2901
zeer	-10.2902
▁aanpakken	-10.2904
▁verkeerde	-10.2909
isatie	-10.2917
lichamen	-10.2918
car	-10.2921
▁sluiten	-10.2928
▁duren	-10.293
▁Wereld	-10.2936
▁moslim	-10.2937
keer	-10.2937
▁koop	-10.2937
▁schilder	-10.2937
▁sector	-10.2938
▁spier	-10.2941
▁mieren	-10.2944
erende	-10.2947
▁45	-10.2952
▁beïnvloeden	-10.2966
▁stok	-10.2977
▁signalen	-10.2985
▁breng	-10.2985
▁wagen	-10.2989
▁lijnen	-10.2989
for	-10.2995
▁openbaar	-10.2998
last	-10.2999
▁campagne	-10.3001
▁Australië	-10.3005
▁Washington	-10.3005
▁duw	-10.3024
▁onderzoekers	-10.3034
theorie	-10.3037
paard	-10.3048
▁schrijf	-10.306
zeker	-10.3062
vorming	-10.3068
▁huwelijk	-10.3068
▁hogere	-10.3071
▁uitgevonden	-10.3073
▁televisie	-10.3074
▁Binnen	-10.3074
▁sub	-10.3075
▁vermoord	-10.3076
▁voorouder	-10.3077
▁veroorzaken	-10.3082
▁besteed	-10.3086
uel	-10.3087
▁volwassenen	-10.3091
▁diepe	-10.3092
vraag	-10.3092
▁moeilijke	-10.3093
rend	-10.3099
▁bevat	-10.31
ologie	-10.3103
probleem	-10.3108
▁Ch	-10.311
▁rekening	-10.311
▁bord	-10.313
▁emoties	-10.3136
▁verschillend	-10.3137
▁slapen	-10.3144
▁haat	-10.3152
treden	-10.3154
▁instrument	-10.3159
▁geprobeerd	-10.3161
istische	-10.3164
▁lagen	-10.3169
beelden	-10.3177
▁talen	-10.3179
hoofd	-10.3179
▁Fa	-10.3179
▁Alleen	-10.318
▁blog	-10.3181
▁vrije	-10.319
▁waarvoor	-10.3195
▁hoogste	-10.3198
▁reed	-10.3202
tien	-10.3202
▁kende	-10.3203
▁populatie	-10.3206
▁dis	-10.321
▁Einstein	-10.3213
▁chimpansee	-10.3213
▁technologische	-10.3214
▁neus	-10.3215
▁fase	-10.3218
▁voorzien	-10.3224
span	-10.3232
▁lachen	-10.3233
▁zingen	-10.3236
kijken	-10.3247
▁kunstenaars	-10.3259
▁kenmerken	-10.3261
▁plat	-10.3264
▁wegen	-10.3275
▁ramp	-10.3279
▁George	-10.3284
▁journalist	-10.3284
▁ontstond	-10.3285
▁glas	-10.3286
▁City	-10.3287
zijn	-10.3288
▁zenuw	-10.3289
▁inter	-10.3292
actie	-10.3306
bei	-10.3307
maat	-10.3308
zig	-10.3308
▁wapen	-10.3313
gedreven	-10.3315
dia	-10.3316
woord	-10.3322
▁recent	-10.3347
ric	-10.3351
zin	-10.3355
▁geïnspireerd	-10.3355
▁kwetsbaar	-10.3355
▁noodzakelijk	-10.3355
▁voertuig	-10.3355
▁Per	-10.3362
▁bas	-10.3377
slaan	-10.3379
raag	-10.3393
lla	-10.3398
▁bied	-10.3403
▁ziektes	-10.3409
▁investering	-10.3409
baan	-10.3409
▁ocean	-10.3426
▁oorzaak	-10.3426
▁fo	-10.343
stof	-10.3438
▁tegenstelling	-10.3441
grepen	-10.3449
gevallen	-10.3453
meter	-10.3466
stoel	-10.3466
▁l	-10.3468
▁ongeluk	-10.3471
▁Du	-10.3492
▁prototype	-10.3498
▁goedkoop	-10.3498
▁Midden	-10.3498
▁straten	-10.3498
▁starten	-10.3498
▁ruw	-10.3507
▁apparaten	-10.3528
▁feitelijk	-10.353
▁leden	-10.3536
▁chirurg	-10.3544
▁term	-10.3547
ox	-10.3558
▁homo	-10.356
ruis	-10.357
▁Richard	-10.3571
▁extreme	-10.3571
▁typisch	-10.3571
▁Nieuw	-10.3571
▁betekende	-10.3571
▁raam	-10.3571
▁pak	-10.3587
▁Pe	-10.359
▁Men	-10.359
▁wiskundige	-10.3594
hoek	-10.3595
▁snelle	-10.3603
met	-10.3606
▁overheids	-10.3613
▁pers	-10.3625
▁Ru	-10.3631
moedig	-10.3635
liep	-10.3638
org	-10.3638
▁extreem	-10.3644
▁praktisch	-10.3644
▁reclame	-10.3644
▁gehele	-10.3644
▁muis	-10.3644
▁winst	-10.3644
▁truc	-10.3644
▁stop	-10.365
draad	-10.3652
▁geniet	-10.3654
▁fi	-10.366
▁feiten	-10.3669
draai	-10.3677
▁Mu	-10.3679
lij	-10.3681
▁spiegel	-10.3682
code	-10.3686
telt	-10.3687
▁Ni	-10.369
▁Los	-10.3711
▁Mexico	-10.3717
▁cartoon	-10.3717
▁vluchtelingen	-10.3718
▁oudere	-10.3718
logen	-10.3724
▁knop	-10.3728
▁hope	-10.3751
▁industriële	-10.3752
▁vet	-10.3757
▁raad	-10.3759
▁wapens	-10.3761
treffen	-10.3762
plo	-10.3764
▁loka	-10.3772
uwelijks	-10.3774
▁hartelijk	-10.3784
▁gedicht	-10.3791
▁oneindig	-10.3791
▁belasting	-10.3791
▁corruptie	-10.3793
▁Zonder	-10.3794
▁non	-10.3794
▁muren	-10.3796
forma	-10.3802
▁logisch	-10.3814
centra	-10.3823
▁bevatt	-10.3825
▁bla	-10.3832
▁bekende	-10.3834
▁platform	-10.384
▁train	-10.384
foto	-10.3842
gezien	-10.3845
pon	-10.3854
▁Twitter	-10.3866
▁briljant	-10.3866
▁genezen	-10.3866
▁knie	-10.3869
▁standpunt	-10.3873
▁Tegen	-10.3874
▁beheer	-10.3876
ook	-10.3876
▁tijdschrift	-10.3877
▁Ed	-10.388
▁getallen	-10.388
▁conferentie	-10.3882
lic	-10.3883
▁gedacht	-10.3884
▁voorstel	-10.3889
▁onafhankelijk	-10.3909
organisatie	-10.3917
hou	-10.3923
▁tegenover	-10.3926
lden	-10.393
▁krachtige	-10.3932
▁verklaring	-10.3941
▁koppel	-10.3943
hal	-10.3945
▁sms	-10.3949
▁plannen	-10.395
bleven	-10.3951
▁gast	-10.3952
▁kies	-10.3957
▁restaurant	-10.3958
▁lessen	-10.3962
▁effecten	-10.3963
▁geur	-10.3963
▁Gi	-10.3965
▁stijgen	-10.398
▁Bar	-10.3987
▁titel	-10.399
effect	-10.3993
▁intens	-10.3995
que	-10.4002
▁last	-10.4007
uff	-10.4008
▁toekomstig	-10.4009
▁aller	-10.4012
ngeveer	-10.4016
▁betekenen	-10.4017
▁verlangen	-10.4018
▁voeten	-10.4019
▁dichtbij	-10.4024
▁bureau	-10.4044
▁slaan	-10.405
drukken	-10.4053
▁tijdje	-10.4054
▁Paul	-10.4054
gemaakt	-10.4059
▁partner	-10.4059
▁beroemde	-10.4059
▁artsen	-10.4063
▁kwart	-10.4063
▁lot	-10.4071
vermogen	-10.4072
anse	-10.4076
▁bronnen	-10.4077
▁wit	-10.408
stoffen	-10.4084
▁bedoeld	-10.4085
▁diagnose	-10.4093
▁olifant	-10.4093
▁Groot	-10.4093
▁HIV	-10.4093
▁zware	-10.4093
▁ondersteunen	-10.4093
▁minuut	-10.4093
▁bevrijd	-10.4093
▁militaire	-10.4104
scan	-10.4105
▁verwerken	-10.4106
▁nachts	-10.4108
tuin	-10.4112
▁stenen	-10.4114
▁vergele	-10.4127
cus	-10.4136
dienst	-10.4142
▁stuurde	-10.4142
▁opdracht	-10.4153
ull	-10.4161
▁psycho	-10.4161
mis	-10.4161
▁Gelukkig	-10.417
▁produceer	-10.417
▁geraken	-10.417
▁verdeeld	-10.4171
▁mannelijk	-10.4173
▁liedje	-10.4174
▁Wal	-10.4177
▁verbrand	-10.4179
▁Ken	-10.4186
▁gevoelig	-10.4189
munt	-10.4193
▁praktijk	-10.4204
▁Cha	-10.4206
issen	-10.4212
▁leider	-10.4218
▁process	-10.422
▁vat	-10.4224
▁maat	-10.4225
▁verkeer	-10.4226
▁schoenen	-10.423
▁herstel	-10.4231
▁cent	-10.4232
Korea	-10.4232
ou	-10.4233
▁capaciteit	-10.4234
▁intelligent	-10.4242
▁legde	-10.4243
aanse	-10.4247
▁evolutionair	-10.4248
▁fossiele	-10.4248
punten	-10.425
▁hol	-10.4252
▁zichtbaar	-10.4254
▁rijke	-10.4257
▁analyse	-10.4259
▁meet	-10.427
▁ziel	-10.4272
gebieden	-10.4282
▁geslacht	-10.4283
▁gemeen	-10.4284
▁gewon	-10.4298
▁verwachting	-10.4303
gewone	-10.4313
cent	-10.4314
▁essentie	-10.4315
▁moedig	-10.4316
▁long	-10.432
▁fotograf	-10.4323
▁dubbel	-10.4325
▁Darwin	-10.4326
▁gecreëerd	-10.4326
▁plots	-10.4326
▁opgelost	-10.4326
▁Iets	-10.4326
▁museum	-10.4327
▁werknemers	-10.4328
▁thema	-10.433
▁eindigen	-10.4349
▁medicijn	-10.435
▁verwoest	-10.4354
denk	-10.4357
▁spreekt	-10.4364
leed	-10.4372
▁gedeeld	-10.4376
▁gaande	-10.4378
U	-10.4388
▁steen	-10.4402
schiet	-10.4404
spectrum	-10.4404
source	-10.4404
werken	-10.4406
▁Times	-10.4407
▁berekening	-10.4409
voldoende	-10.4409
▁elementen	-10.4418
▁bel	-10.4421
▁falen	-10.4425
▁benader	-10.443
pak	-10.4438
▁Gra	-10.4446
lied	-10.4451
ley	-10.4455
▁studies	-10.4458
tica	-10.4459
graven	-10.4474
materiaal	-10.4476
stig	-10.4482
▁alsjeblief	-10.4484
▁springen	-10.4484
▁bloot	-10.4484
▁zwemmen	-10.4485
rgelijke	-10.4492
▁herken	-10.4495
▁breed	-10.4497
▁Jon	-10.4505
ani	-10.451
graaf	-10.451
▁eer	-10.4515
zinnig	-10.4518
▁uitvoeren	-10.4527
wille	-10.4543
▁doelen	-10.4549
▁hierover	-10.4551
▁ken	-10.4552
stroom	-10.4552
▁training	-10.4553
▁Lu	-10.4553
▁dol	-10.4556
functione	-10.456
ov	-10.4562
▁minst	-10.4562
▁karakter	-10.4564
▁uitzondering	-10.4564
▁verdedig	-10.4564
▁gisteren	-10.4566
▁bedenk	-10.4569
▁vermoed	-10.4571
▁site	-10.4578
▁Samen	-10.4597
▁Vel	-10.4598
kker	-10.4599
▁kapitaal	-10.4609
▁smaak	-10.4612
leren	-10.4612
▁onthouden	-10.4615
▁hangen	-10.4618
scherm	-10.4623
▁ingewikkelde	-10.4627
boom	-10.4632
▁stress	-10.4634
▁Bi	-10.4639
vrij	-10.4643
▁Francisco	-10.4644
▁september	-10.4644
▁transformatie	-10.4644
▁trein	-10.4644
▁microben	-10.4645
▁monster	-10.4645
▁boos	-10.4649
▁steek	-10.4652
▁bestudeerd	-10.4654
spoel	-10.4654
▁Hou	-10.4655
▁Ex	-10.4657
▁Engel	-10.4658
▁Maak	-10.4662
▁gep	-10.4665
▁pan	-10.4666
ich	-10.4671
▁besef	-10.4694
off	-10.4708
weer	-10.4714
▁verlicht	-10.4724
▁selectie	-10.4724
▁inspanning	-10.4726
▁relevant	-10.4726
▁vernietigen	-10.4726
▁Oceaan	-10.4726
▁baas	-10.4726
▁organiseren	-10.4726
▁keuken	-10.4729
▁99	-10.4729
▁biljoen	-10.4729
▁Boven	-10.4735
▁omvang	-10.4741
▁onderneming	-10.4748
▁instrumenten	-10.4759
▁sterker	-10.4761
▁rapport	-10.4786
▁telefoons	-10.4788
antwoord	-10.4792
low	-10.4793
positie	-10.4797
zer	-10.4797
▁breken	-10.4803
▁vriendelijk	-10.4807
▁chemic	-10.4808
geeft	-10.4808
ationaal	-10.4809
▁organ	-10.4811
▁sprong	-10.4811
▁fijn	-10.4814
lijden	-10.4815
▁reken	-10.4816
▁kat	-10.4818
▁ontwerpers	-10.4828
▁geloofde	-10.4831
▁75	-10.4836
die	-10.4839
▁aardig	-10.4841
▁grot	-10.4846
laden	-10.4856
ua	-10.4869
▁trap	-10.4876
▁woonde	-10.4887
▁nauwkeurig	-10.489
▁leeg	-10.4891
▁Kenia	-10.4895
▁aanval	-10.4895
▁buren	-10.4897
▁kruis	-10.4897
▁Min	-10.4898
mming	-10.4899
type	-10.4903
▁Steve	-10.4903
▁set	-10.4911
▁technische	-10.4919
▁bar	-10.4921
▁beroemd	-10.4927
▁verk	-10.4938
▁gehouden	-10.4943
▁Gu	-10.4945
lijst	-10.4954
▁daarop	-10.4958
▁emotione	-10.4963
teld	-10.4966
▁22	-10.4966
▁verrassing	-10.4974
▁suiker	-10.4974
gestorven	-10.4974
▁verwijder	-10.4974
▁patent	-10.4974
braak	-10.4977
▁Hallo	-10.4985
▁bericht	-10.4989
▁Kinder	-10.4991
▁Mc	-10.4993
▁gezonde	-10.4999
baarheid	-10.5005
▁moord	-10.5014
▁startte	-10.5018
▁uitvinding	-10.5034
▁draag	-10.5039
▁app	-10.5045
schijn	-10.5046
▁indruk	-10.5049
sprak	-10.5052
soort	-10.5053
▁mysterie	-10.5058
▁terrorisme	-10.5058
▁kwaad	-10.5058
▁Vorig	-10.5058
▁rust	-10.5058
▁reacties	-10.5059
▁194	-10.5062
▁erom	-10.5071
▁vertrouwd	-10.5073
▁tri	-10.508
▁stapel	-10.5081
▁verbetering	-10.5088
▁apen	-10.51
ity	-10.5101
zorg	-10.5103
▁tanden	-10.5108
wo	-10.5112
▁schrijver	-10.5119
Oosten	-10.5135
,5	-10.5139
▁chip	-10.5141
maakt	-10.5142
▁willekeurige	-10.5142
biliteit	-10.5142
dwong	-10.5143
▁gebeurtenissen	-10.5144
▁oplever	-10.5144
▁presentatie	-10.5144
▁nadenk	-10.5147
productie	-10.5151
gif	-10.5171
▁rot	-10.5171
naam	-10.5173
▁verre	-10.5176
▁wijn	-10.5178
▁piek	-10.5188
▁kleinere	-10.5226
▁variatie	-10.5228
▁griep	-10.5228
middag	-10.5228
▁verplaatsen	-10.5228
▁lezing	-10.5234
▁essentieel	-10.524
▁beschermd	-10.524
macht	-10.524
problemen	-10.525
wand	-10.5261
kkel	-10.5267
seksuele	-10.5273
pressie	-10.5279
▁spreek	-10.5283
▁handelen	-10.5284
▁merken	-10.5291
makers	-10.5295
▁serie	-10.5312
▁focus	-10.5313
ziekte	-10.5314
▁automatisch	-10.5314
▁omgekeerd	-10.5315
▁strand	-10.5315
▁vereist	-10.5318
▁infectie	-10.532
▁krant	-10.5322
▁kerk	-10.5323
▁activiteiten	-10.5325
▁noemt	-10.5327
meer	-10.5327
▁scheid	-10.5329
▁ontstaa	-10.5345
▁bevestig	-10.5353
▁goederen	-10.5363
▁dimensies	-10.5374
▁percentage	-10.5377
letten	-10.5387
▁Pi	-10.5388
▁toevoegen	-10.5391
▁mechanisme	-10.5401
▁abstract	-10.5401
▁Waarschijnlijk	-10.5401
▁laptop	-10.5401
▁oost	-10.5401
▁rijkdom	-10.5402
▁dokters	-10.5402
▁vul	-10.5405
bedrijven	-10.5406
▁nergen	-10.5406
▁noch	-10.5407
▁kostte	-10.5408
▁verhouding	-10.541
▁professor	-10.5424
▁dansen	-10.5426
▁gedeelte	-10.5429
▁dik	-10.543
▁tekening	-10.5432
▁benadering	-10.5462
hoeven	-10.5472
▁nege	-10.5477
▁honden	-10.5482
▁2010	-10.5489
▁Charles	-10.5489
▁continu	-10.5489
▁gepubliceerd	-10.5489
▁maatschappelijk	-10.5489
▁uitgebreid	-10.5489
▁zwaartekracht	-10.5489
▁aangepast	-10.5489
▁aids	-10.5489
▁overtuiging	-10.5489
▁koken	-10.5497
klap	-10.5498
ight	-10.5499
▁spullen	-10.5502
▁partners	-10.5504
▁Geef	-10.5505
boven	-10.5506
▁1000	-10.5511
▁wijzen	-10.5512
▁winter	-10.5516
▁medewerker	-10.5533
▁effectie	-10.5535
bar	-10.5541
▁qua	-10.5542
▁stopte	-10.5543
▁Wi	-10.555
grijpen	-10.5557
▁machtig	-10.5561
▁koe	-10.5563
▁and	-10.5568
▁klanten	-10.5571
▁versch	-10.5574
▁bedreigd	-10.5577
▁centimeter	-10.5577
▁inspiratie	-10.5577
▁soldaten	-10.5577
▁worstel	-10.5577
▁religieuze	-10.5577
▁consumenten	-10.5578
▁Anderson	-10.558
▁onderhandel	-10.5594
voordeel	-10.5598
▁Am	-10.5598
▁uitgevoerd	-10.5599
jarig	-10.5605
▁studeren	-10.5608
▁kwek	-10.5609
pat	-10.561
klasse	-10.5615
▁relatief	-10.562
schild	-10.5626
▁saai	-10.5627
▁talent	-10.5634
▁spoor	-10.5638
▁gesteld	-10.5638
voren	-10.5642
▁Her	-10.5643
▁trek	-10.5653
▁viruss	-10.5657
chip	-10.566
bit	-10.5664
ong	-10.5665
▁MIT	-10.5667
▁ontzettend	-10.5667
▁klinisch	-10.5667
alisme	-10.5669
▁dramatisch	-10.5679
netwerk	-10.5685
▁gooien	-10.5706
gg	-10.5708
sturen	-10.572
my	-10.5727
▁eeuwig	-10.573
▁ernstig	-10.5741
breken	-10.5741
▁zwanger	-10.5755
▁decennium	-10.5757
▁virtuele	-10.5757
▁bezocht	-10.5757
▁opwindend	-10.5757
▁aanpassen	-10.5757
▁meerderheid	-10.5757
▁creatief	-10.5765
kinderen	-10.5766
▁grap	-10.578
▁bepaal	-10.5789
▁gevormd	-10.5793
gek	-10.5803
▁efficiënt	-10.5826
neden	-10.5826
▁verkrijg	-10.5834
roep	-10.5837
▁duurzaam	-10.5839
▁Pri	-10.5842
▁ondernemers	-10.5844
pad	-10.5844
olie	-10.5846
▁iPhone	-10.5848
▁lunch	-10.5848
▁gevecht	-10.5848
▁Vijf	-10.5848
▁Vervolg	-10.5848
▁snijd	-10.585
ala	-10.5856
gemeenschap	-10.5856
▁27	-10.5856
▁Or	-10.5857
stedelijke	-10.5857
▁sporen	-10.5858
speler	-10.586
waarde	-10.5867
▁Tom	-10.5906
▁onbekende	-10.5908
▁23	-10.5908
▁Par	-10.5928
▁luid	-10.593
▁drinken	-10.5938
▁ontwikkel	-10.5938
▁NASA	-10.5939
▁evenwicht	-10.5939
▁platteland	-10.5939
▁oorsprong	-10.5939
▁Universiteit	-10.5939
▁gesloten	-10.5939
▁schouder	-10.594
▁Thom	-10.594
▁ballon	-10.5941
▁filmpje	-10.5942
▁dankzij	-10.5945
▁gedood	-10.5947
rand	-10.5954
▁Andere	-10.5958
schaal	-10.597
geleid	-10.5972
aliseerd	-10.5974
▁Even	-10.5977
▁volgde	-10.5983
▁achteruit	-10.5989
vin	-10.5996
vest	-10.6007
arbeid	-10.6028
▁buitenlands	-10.603
▁sneeuw	-10.6032
▁Harvard	-10.6032
▁brief	-10.6032
trauma	-10.6032
▁verkoop	-10.6032
▁ontvangen	-10.6032
▁streven	-10.6032
▁stamcellen	-10.6033
▁toegankelijk	-10.6033
▁tevoren	-10.6034
J	-10.604
bril	-10.6041
pagina	-10.6043
▁dienen	-10.6045
▁tellen	-10.605
arts	-10.6051
▁biologisch	-10.6064
▁succesvolle	-10.607
werking	-10.607
rare	-10.6087
▁vertal	-10.6089
▁vloer	-10.6091
rdin	-10.6094
▁voeding	-10.6094
▁opgeleid	-10.6102
▁belde	-10.6103
groei	-10.6104
▁eindig	-10.6104
▁score	-10.611
▁dankbaar	-10.6111
▁opzichte	-10.6124
▁Angeles	-10.6125
▁cruciaal	-10.6125
▁geconfronteerd	-10.6125
▁gezamenlijk	-10.6125
▁onzichtbaar	-10.6125
▁aandoening	-10.6126
▁plotseling	-10.6127
▁Tweede	-10.6146
plak	-10.6154
▁bellen	-10.6157
▁omarm	-10.6159
▁lui	-10.616
▁toilet	-10.6162
▁tran	-10.617
▁harde	-10.6177
orst	-10.6181
lak	-10.62
▁minister	-10.6214
▁ontwikkelings	-10.6219
▁privé	-10.622
▁droeg	-10.622
▁misbruik	-10.622
▁verklaren	-10.622
▁rechtstreeks	-10.622
▁schaduw	-10.622
▁domein	-10.622
▁onverwacht	-10.622
▁bedekt	-10.6222
▁Enkele	-10.6224
▁lid	-10.6228
▁tempo	-10.6231
▁pop	-10.6232
▁toestand	-10.6234
vrouw	-10.6235
▁oh	-10.6238
▁stoffen	-10.6248
ung	-10.6251
▁verbaasd	-10.6253
dragen	-10.6255
▁lamp	-10.6261
▁twintig	-10.6265
ura	-10.6267
▁drukken	-10.6268
▁draai	-10.627
▁Pas	-10.6272
our	-10.6273
▁boss	-10.6274
tech	-10.628
▁spar	-10.6298
▁heren	-10.6309
bron	-10.631
elders	-10.6312
▁accepteren	-10.6315
▁correct	-10.6315
▁glimlach	-10.6315
▁terrein	-10.6315
▁Wereldoorlog	-10.6315
ouw	-10.6315
▁stom	-10.6323
▁begeleid	-10.6327
vormen	-10.634
▁volle	-10.6341
▁Zwe	-10.6342
▁red	-10.6349
▁verkracht	-10.6351
▁bak	-10.6363
urende	-10.6366
▁uitvoer	-10.6378
▁beschouwd	-10.638
urf	-10.6385
▁Ged	-10.6389
▁bescherming	-10.641
▁Pakistan	-10.6411
▁uitzonderlijk	-10.6411
▁vermijden	-10.6411
▁hotel	-10.6411
▁transport	-10.6412
▁cognitieve	-10.6413
▁haast	-10.6413
▁sterft	-10.6414
▁verhuisd	-10.6415
▁VN	-10.6418
getrokken	-10.6423
▁status	-10.643
cultuur	-10.643
▁positief	-10.6431
▁jonger	-10.6448
▁schel	-10.6448
▁tekort	-10.6451
▁kopie	-10.6458
▁uiterst	-10.6468
▁oudste	-10.6469
breek	-10.6473
vind	-10.6476
week	-10.648
rik	-10.6484
▁Vele	-10.6488
▁nest	-10.6491
▁Pol	-10.6505
ingenieur	-10.6506
▁autisme	-10.6508
▁batterij	-10.6508
▁inclusief	-10.6508
▁metafoor	-10.6508
▁zonnestelsel	-10.6509
definiër	-10.6509
▁melk	-10.6509
▁slav	-10.651
feest	-10.6511
▁plaatsvind	-10.6513
▁waterstof	-10.6514
▁stilte	-10.6533
▁vouw	-10.6549
▁tiener	-10.6557
stap	-10.6577
burg	-10.6586
▁storm	-10.6586
wiel	-10.6589
molecule	-10.6606
▁bedreiging	-10.6606
▁categorie	-10.6606
▁conclusie	-10.6606
▁verscheiden	-10.6606
▁gelach	-10.6606
▁apart	-10.6606
▁speelgoed	-10.6607
▁vaste	-10.6612
▁verliefd	-10.6614
▁voorname	-10.6615
▁nano	-10.6617
▁woede	-10.662
▁mist	-10.6622
▁warmte	-10.6623
▁duik	-10.6626
▁slechter	-10.6627
▁schip	-10.6628
▁goedkope	-10.6632
▁195	-10.6633
kunst	-10.6636
▁gebruikers	-10.6648
▁Pl	-10.665
▁houding	-10.665
▁rollen	-10.6653
▁makkelijker	-10.6661
▁vormt	-10.6666
▁War	-10.6666
volle	-10.6673
▁bovenop	-10.6676
deling	-10.6679
kking	-10.6684
▁blad	-10.6697
snel	-10.6702
apparatuur	-10.6705
lescoop	-10.6705
▁programmeren	-10.6705
▁chaos	-10.6705
▁mannetje	-10.6706
▁pijnlijk	-10.6706
▁vocht	-10.6706
▁medeleven	-10.6706
▁protest	-10.6708
▁bon	-10.6708
▁vals	-10.6713
▁letter	-10.6718
▁voorwaard	-10.6719
slaat	-10.6719
▁PM	-10.6721
steken	-10.6725
lijm	-10.6728
▁roepen	-10.6736
▁directeur	-10.6742
20	-10.6746
▁moed	-10.6755
▁daarover	-10.6763
▁Niets	-10.6765
▁gl	-10.6765
▁opgezet	-10.6771
rol	-10.6776
oeien	-10.6783
schuld	-10.6786
▁voedings	-10.6796
▁geliefd	-10.6797
buis	-10.6801
tiek	-10.6801
installatie	-10.6805
▁beloning	-10.6805
bil	-10.6808
▁hulpmiddel	-10.6808
▁leerling	-10.6809
verschuiving	-10.681
▁hecht	-10.6813
stelsel	-10.6818
▁schep	-10.6818
▁Ghan	-10.6822
lijnen	-10.6827
▁laboratorium	-10.6828
geluid	-10.6833
trekt	-10.6833
▁alternatieve	-10.6834
atur	-10.6842
▁verspreiding	-10.6843
▁creëerde	-10.6846
kamp	-10.685
▁omlaag	-10.6855
▁waarderen	-10.6856
▁appel	-10.6857
▁epidemie	-10.6862
▁wolken	-10.6862
▁bouwde	-10.6863
gedragen	-10.6875
won	-10.6878
elingen	-10.6879
taart	-10.6883
Brittannië	-10.6906
consumptie	-10.6906
▁aangetoond	-10.6906
▁negatieve	-10.6906
▁boerderij	-10.6906
▁lieg	-10.6908
▁neiging	-10.6913
▁intuïtie	-10.6921
▁lied	-10.6923
▁verloop	-10.6934
structuur	-10.6935
maatschappij	-10.6935
waardigheid	-10.6939
▁gesto	-10.6944
▁Naar	-10.6947
lnu	-10.6947
iëren	-10.6954
▁pil	-10.6956
ora	-10.6961
blaz	-10.6962
▁Lin	-10.6973
▁klik	-10.6973
boeken	-10.6974
▁trans	-10.6976
reis	-10.6978
▁geavanceerde	-10.6983
▁experts	-10.6995
▁Park	-10.6997
ssa	-10.6998
▁voldoen	-10.7002
▁bevorder	-10.7008
▁verdieping	-10.7008
cyclus	-10.7008
▁Michael	-10.7008
▁combineren	-10.7008
▁geproduceerd	-10.7008
▁vreugde	-10.7008
▁Street	-10.7008
useum	-10.7008
▁stort	-10.701
doel	-10.7013
▁verslag	-10.7025
▁ernstige	-10.7027
▁ras	-10.7039
bronnen	-10.7044
▁geo	-10.7045
team	-10.7048
▁ziekenhui	-10.7049
▁samenlevingen	-10.7051
▁teruggaan	-10.7058
ward	-10.706
plaat	-10.7061
▁log	-10.7061
reed	-10.7064
▁kap	-10.7066
niet	-10.7081
worm	-10.7084
▁straling	-10.7097
achter	-10.7104
stat	-10.7105
▁uitvind	-10.7109
circuit	-10.7111
ouTube	-10.7111
▁ambitie	-10.7111
▁lengte	-10.7111
▁welvaart	-10.7111
▁Rusland	-10.7111
▁hedendaags	-10.7111
▁bibliotheek	-10.7112
▁verklaar	-10.7115
▁eco	-10.7121
zit	-10.7122
▁fan	-10.713
schrijven	-10.7136
▁veiligheids	-10.7136
▁jongste	-10.7136
30	-10.7137
ette	-10.7139
▁toename	-10.7143
hoor	-10.7143
▁woordenboek	-10.7151
bestand	-10.7154
▁show	-10.7155
▁organisch	-10.7159
▁tand	-10.7162
loot	-10.7168
zijde	-10.7171
ock	-10.7181
▁zoekt	-10.7184
deels	-10.7184
▁gebroken	-10.7199
▁besmet	-10.7203
▁For	-10.7204
▁Chi	-10.7214
▁advies	-10.7216
▁budget	-10.7216
▁toegepast	-10.7216
▁piano	-10.7216
▁betrouwbaar	-10.7216
▁voorkeur	-10.7216
▁Kort	-10.7216
▁humor	-10.7216
▁regelmatig	-10.7217
▁liter	-10.7217
▁ulti	-10.7218
verhogen	-10.7218
▁vloei	-10.7219
▁gekke	-10.722
▁vingers	-10.7222
▁eigendom	-10.7223
▁analyseren	-10.7225
▁vierkante	-10.7228
▁nauw	-10.723
verwerking	-10.7234
▁sluit	-10.7246
▁dalen	-10.725
brand	-10.7252
straal	-10.7279
▁lief	-10.7291
▁kro	-10.7296
egt	-10.7307
sha	-10.7309
rist	-10.7311
▁intellectuele	-10.7313
▁vinger	-10.7315
rommel	-10.7318
▁bol	-10.732
▁digitaal	-10.7321
▁feedback	-10.7321
▁onzichtbare	-10.7321
▁aanpassing	-10.7321
▁smelt	-10.7321
▁Amazon	-10.7321
▁pijl	-10.7321
▁tienduizend	-10.7321
▁leiderschap	-10.7323
▁misdaad	-10.7324
▁meng	-10.7324
gepakt	-10.7326
▁stammen	-10.7328
▁opeens	-10.7334
▁therapie	-10.7339
▁staart	-10.7345
▁acties	-10.7346
vullen	-10.7358
▁neuro	-10.736
bord	-10.7363
oorlog	-10.7376
mensen	-10.7377
ball	-10.7381
obi	-10.7395
▁suggereer	-10.7396
▁afgeleg	-10.7397
ax	-10.74
▁aanvaard	-10.7415
▁mini	-10.7424
▁Vertel	-10.7427
▁Congres	-10.7427
▁duister	-10.7427
▁onvermijdelijk	-10.7427
▁symptom	-10.7427
▁verjaardag	-10.7427
▁Alzheimer	-10.7427
▁georganiseerd	-10.7427
▁januari	-10.7427
▁privacy	-10.7427
▁kleding	-10.7427
▁cyber	-10.7427
▁elektronisch	-10.7427
▁constructie	-10.7428
▁functioneren	-10.7428
▁live	-10.7428
12	-10.7432
lagen	-10.7433
▁klassieke	-10.7437
▁lagere	-10.7437
▁fles	-10.7443
▁draaide	-10.7443
▁Vol	-10.7447
▁spuit	-10.7452
▁draagt	-10.7452
▁behouden	-10.7452
▁mega	-10.7457
och	-10.7457
▁Moet	-10.746
▁opmerkelijk	-10.7461
ontwerper	-10.7464
▁mode	-10.7465
mijn	-10.7469
ian	-10.7472
buiten	-10.7476
vormig	-10.7483
▁Frans	-10.7489
bak	-10.7491
▁diepte	-10.7492
▁Engelse	-10.7496
▁lacht	-10.7503
▁Tu	-10.7504
anks	-10.7509
▁uitbreid	-10.7512
gevoerd	-10.7513
▁trok	-10.7516
▁bewer	-10.7527
uitstoot	-10.7528
▁bacterie	-10.7535
▁afkomstig	-10.7535
▁scherp	-10.7535
▁koos	-10.7535
▁mentale	-10.7535
▁prestaties	-10.7537
▁tool	-10.7544
▁verdwijn	-10.7546
vlek	-10.7556
product	-10.7559
gri	-10.756
groot	-10.7569
lucht	-10.7573
▁diverse	-10.7577
winkel	-10.7577
virus	-10.758
▁geneesmiddelen	-10.7581
ula	-10.7581
▁econom	-10.7583
zins	-10.7585
▁kolonie	-10.7586
▁oogst	-10.7597
▁merkte	-10.7609
kar	-10.7618
ines	-10.7623
▁beland	-10.7623
▁blanke	-10.7635
auto	-10.7637
▁reageer	-10.764
egenwoordig	-10.7642
club	-10.7643
▁commercië	-10.7643
▁Obama	-10.7643
▁verloor	-10.7644
▁vermeld	-10.7644
gewassen	-10.7644
▁personen	-10.7644
stroming	-10.7644
▁scheppen	-10.765
▁ongelijkheid	-10.7652
aagd	-10.7659
eeuws	-10.7666
▁levert	-10.7668
ix	-10.7677
▁verbind	-10.7683
hulp	-10.7685
kust	-10.7699
▁helden	-10.7706
▁koude	-10.7708
▁bouwd	-10.7741
▁bloem	-10.7745
▁wedstrijd	-10.7748
▁illusie	-10.7753
▁muggen	-10.7753
▁schedel	-10.7753
▁verliet	-10.7753
▁lekker	-10.7754
▁Mil	-10.7754
▁overgang	-10.7755
▁kabel	-10.7756
▁willekeurig	-10.7756
kunde	-10.7764
▁uitleg	-10.7765
▁realiseer	-10.7765
ussen	-10.7767
denken	-10.777
▁nader	-10.7778
▁buik	-10.7782
▁prestatie	-10.7786
▁onderling	-10.7791
▁Vrouwen	-10.7793
tenzij	-10.78
student	-10.78
▁vliegtuigen	-10.7808
bla	-10.7808
▁dode	-10.7809
kosten	-10.781
pest	-10.7812
▁bind	-10.7821
▁lager	-10.7822
▁buur	-10.7828
▁institu	-10.7831
▁Bal	-10.7836
▁straf	-10.7837
oorzaken	-10.7841
▁minste	-10.7841
▁staal	-10.7843
▁overeen	-10.7852
bracht	-10.7858
▁stromen	-10.786
▁minsten	-10.786
sticht	-10.7864
▁gewelddadig	-10.7864
▁spanning	-10.7864
▁orgaan	-10.7865
▁ecosysteem	-10.7867
▁kapot	-10.7868
rtex	-10.7874
▁atom	-10.7874
▁koning	-10.7877
▁herhalen	-10.7877
voorziening	-10.7879
gaande	-10.7882
pakken	-10.7883
▁thee	-10.7887
▁argument	-10.7893
▁rekenen	-10.7897
ller	-10.7911
▁kunstmatige	-10.7912
crisis	-10.7914
blad	-10.7917
▁Brit	-10.7919
▁explosie	-10.7919
▁globale	-10.7923
▁overwinn	-10.7927
ph	-10.793
organ	-10.7931
hol	-10.7936
gegevens	-10.7943
▁game	-10.7943
▁goedkoper	-10.7948
▁zwak	-10.7957
▁toeval	-10.796
▁gehoor	-10.7961
stelden	-10.7967
tocht	-10.797
▁Vier	-10.7971
chauffeur	-10.7977
▁heuvel	-10.7977
▁literatuur	-10.7977
▁vakantie	-10.7977
▁waarneming	-10.7977
▁filter	-10.7977
▁erkennen	-10.7977
reactor	-10.7977
▁voorzichtig	-10.7978
▁eisen	-10.7979
▁traag	-10.798
▁magische	-10.7981
▁rijst	-10.7983
▁Rome	-10.7993
▁overvloed	-10.8001
▁bijdragen	-10.8017
▁varkens	-10.8025
▁schr	-10.8027
xi	-10.8028
▁psychologisch	-10.8028
▁aanwijzing	-10.8028
weefsel	-10.8029
cijfer	-10.8029
▁laser	-10.803
▁opnemen	-10.8031
▁seizoen	-10.8045
grafisch	-10.8056
weeg	-10.8065
▁situaties	-10.8077
▁recept	-10.8085
▁vrijwillig	-10.8086
▁auteur	-10.809
▁belachelijk	-10.809
▁sloppenwijk	-10.809
▁verbluffend	-10.809
▁vrachtwagen	-10.809
sensor	-10.8091
▁honderdduizend	-10.8091
▁ecologisch	-10.8092
▁buig	-10.8093
▁verwarr	-10.8093
record	-10.8095
▁Chinees	-10.8099
▁ei	-10.8101
▁gehol	-10.8105
▁golven	-10.8106
▁voorwerpen	-10.8111
leider	-10.8115
▁beschouwen	-10.8121
wacht	-10.8122
kanker	-10.8133
▁offici	-10.8134
kleed	-10.8142
▁behoeften	-10.8145
trouw	-10.8146
▁koel	-10.8148
stok	-10.8159
▁streng	-10.8163
zetting	-10.8164
▁stak	-10.8167
▁Tim	-10.8167
boot	-10.8177
▁Fr	-10.8185
▁gestuurd	-10.8186
2-	-10.8189
▁dikke	-10.819
▁gebeurtenis	-10.8204
programmeer	-10.8205
▁Chicago	-10.8205
▁identificeren	-10.8205
▁veroorloven	-10.8205
▁stabiel	-10.8205
▁uitzoeken	-10.8205
▁ongelukkig	-10.8206
besparen	-10.8206
▁rook	-10.8207
▁walg	-10.8209
▁symmetrie	-10.821
▁vierkant	-10.821
stijging	-10.8211
sleep	-10.8213
▁emotioneel	-10.8221
▁besturen	-10.8227
▁vee	-10.8228
▁toenemen	-10.8228
▁verberg	-10.8231
▁bijeen	-10.8233
▁zintuig	-10.8234
▁Zal	-10.8234
▁verdubbel	-10.8237
▁600	-10.8239
▁geleidelijk	-10.824
iaanse	-10.8242
▁nucleaire	-10.8243
▁personage	-10.8247
▁theater	-10.8252
▁gooi	-10.8255
▁Franse	-10.8255
gewicht	-10.8263
vlucht	-10.8265
juist	-10.8266
▁zijde	-10.8276
plek	-10.8277
▁wiskundig	-10.8284
loosheid	-10.8301
▁Che	-10.8314
▁financie	-10.8315
▁symbool	-10.8322
▁toestemming	-10.8322
▁berekenen	-10.8322
▁onderwijzen	-10.8322
▁vooroordelen	-10.8322
▁Boston	-10.8322
▁Parijs	-10.8322
▁ethisch	-10.8322
▁belofte	-10.8322
▁berichten	-10.8322
▁geplaatst	-10.8322
▁zelfmoord	-10.8323
iviteit	-10.8325
▁32	-10.8328
stijds	-10.8328
▁voetbal	-10.8336
lijkheid	-10.8338
▁overeenkomst	-10.8341
west	-10.8343
▁stijg	-10.8347
behoud	-10.8352
▁kranten	-10.8358
▁str	-10.8361
▁Uni	-10.8366
maak	-10.837
▁praatte	-10.8371
▁proef	-10.8373
▁Gene	-10.8376
beleid	-10.8381
▁geneesmiddel	-10.839
▁prijzen	-10.8397
▁zoet	-10.8398
▁oefening	-10.8399
verhaal	-10.8411
▁verton	-10.8413
dieren	-10.8421
▁Mark	-10.8422
eestal	-10.8438
▁aardbeving	-10.8439
▁crash	-10.8439
▁dolfijn	-10.8439
▁pensioen	-10.8439
gegooid	-10.8439
▁tevreden	-10.8439
▁Center	-10.844
▁School	-10.8441
▁polio	-10.8441
▁grondstoffen	-10.8441
prothese	-10.8442
▁vergelijkbaar	-10.8444
▁heette	-10.8445
▁optimistisch	-10.8447
▁zonlicht	-10.8452
▁duurzaamheid	-10.8452
▁zorgde	-10.8457
vaardig	-10.8458
roll	-10.8463
▁verzameling	-10.8465
▁toelat	-10.8467
▁westers	-10.8472
▁tieners	-10.8475
▁Indias	-10.8475
▁geschikt	-10.8476
▁overleefd	-10.8476
▁roze	-10.8479
▁sequentie	-10.8481
ikken	-10.8481
▁druppel	-10.8485
▁bezit	-10.8495
▁duiken	-10.8501
computer	-10.8504
▁Ab	-10.852
modellen	-10.8525
geving	-10.8529
▁onderaan	-10.8535
reep	-10.8539
▁schat	-10.8548
▁stijl	-10.8551
vre	-10.8556
▁evolueer	-10.8558
sverwachting	-10.8558
▁World	-10.8558
▁evolueren	-10.8558
▁geslaagd	-10.8558
gespeeld	-10.8558
▁radicale	-10.8558
▁uitnodig	-10.8558
▁mythe	-10.8558
▁dwing	-10.8558
▁wijzigen	-10.8559
▁beoordel	-10.8559
▁schets	-10.8559
printer	-10.8559
▁kritisch	-10.8559
▁vloeistof	-10.8559
▁eier	-10.856
▁besprek	-10.8561
llereerst	-10.8565
▁opbouwen	-10.8565
▁Lang	-10.8566
klei	-10.8573
▁Oke	-10.8575
▁letters	-10.8576
▁vasthoud	-10.8581
voering	-10.8581
▁bom	-10.8593
▁uitmaakt	-10.8597
▁inspireren	-10.8601
zone	-10.8601
gedrag	-10.8605
▁beseft	-10.8608
neer	-10.8615
▁Mag	-10.8618
voeding	-10.8619
▁bloemen	-10.8622
▁Egypte	-10.8634
verdient	-10.8637
▁sloeg	-10.865
lip	-10.865
gelegen	-10.8653
houding	-10.8655
▁Hebbe	-10.8655
▁schok	-10.8656
▁toer	-10.8656
▁nabij	-10.8658
worpen	-10.866
▁pakte	-10.8669
▁dure	-10.8671
istisch	-10.8671
avi	-10.8675
▁bizar	-10.8679
▁Stanford	-10.8679
▁ontwierp	-10.8679
▁appartement	-10.8679
▁kloppen	-10.8679
▁bevro	-10.8679
▁voorstelling	-10.868
▁toneel	-10.8682
▁arbeids	-10.8687
▁medisch	-10.8691
▁onderhouden	-10.8697
▁professionele	-10.8699
▁aanwezigheid	-10.8701
▁uitdrukking	-10.8702
▁bewerk	-10.8703
▁mechanisch	-10.8707
▁held	-10.8714
▁65	-10.873
▁gevaarlijke	-10.874
▁democratische	-10.8745
▁interface	-10.8747
anda	-10.8747
binnen	-10.8751
▁vergelijk	-10.8758
▁stro	-10.8758
▁fragment	-10.8764
gesto	-10.8771
var	-10.8778
▁creatie	-10.8782
▁directe	-10.8787
aria	-10.879
▁complete	-10.8801
▁transformeren	-10.8801
▁beperken	-10.8801
▁gestopt	-10.8801
▁ervaar	-10.8802
▁zaden	-10.8802
▁agent	-10.8802
▁pomp	-10.8803
▁muizen	-10.8803
▁lege	-10.8803
▁Wow	-10.8804
▁opwarming	-10.8806
▁activist	-10.8809
ember	-10.8812
kwal	-10.8822
chu	-10.8826
▁bezitt	-10.883
richting	-10.8833
▁gemet	-10.8835
▁puzzel	-10.8846
▁Art	-10.8846
▁zuiver	-10.8859
dam	-10.8868
park	-10.887
kwaliteit	-10.8874
show	-10.8877
▁zoogdieren	-10.888
▁Vrouw	-10.888
▁mijl	-10.8881
▁plaatselijk	-10.8885
▁Sam	-10.8923
diploma	-10.8924
geobsedeerd	-10.8924
▁applaus	-10.8924
stem	-10.8924
▁subtiel	-10.8924
▁borstkanker	-10.8925
kok	-10.8925
▁zoektocht	-10.8925
▁supermarkt	-10.8926
▁innerlijk	-10.8928
▁concentreren	-10.8928
▁Adam	-10.8929
▁verbod	-10.8932
spoed	-10.8934
▁missen	-10.8937
▁Japanse	-10.8938
wond	-10.8939
▁Ond	-10.8941
▁BG	-10.8943
▁persoonlijkheid	-10.8947
uizen	-10.8966
rijdt	-10.8966
▁stip	-10.8969
▁actieve	-10.8996
▁let	-10.9001
▁voornaam	-10.9003
▁opmerkelijke	-10.901
▁Pu	-10.9031
▁normen	-10.9037
▁personages	-10.9046
ntgen	-10.9047
akkoord	-10.9049
▁antibiotica	-10.9049
▁buitenaards	-10.9049
▁juridisch	-10.9049
tunnel	-10.9049
▁ongemakkelijk	-10.9049
▁raket	-10.9049
▁alledaagse	-10.9049
▁versterken	-10.9049
▁centraal	-10.9049
▁flexibel	-10.905
▁spelletje	-10.905
▁regenwoud	-10.905
curve	-10.905
▁mobieltje	-10.905
vallei	-10.905
▁heerlijk	-10.9051
▁kernenergie	-10.9051
▁beschrijf	-10.9054
▁ondernemer	-10.9057
▁betrekk	-10.9058
▁emotie	-10.9063
stralen	-10.9064
▁Probe	-10.9065
▁economieën	-10.9065
▁plank	-10.9072
▁walvis	-10.9087
az	-10.9089
▁neurowetenschap	-10.9091
▁stree	-10.9092
▁nier	-10.9099
▁voed	-10.9103
▁King	-10.9105
voudig	-10.9123
▁opkomend	-10.9127
hield	-10.9134
▁alternatie	-10.914
▁eigenaar	-10.9141
▁vullen	-10.9146
▁mest	-10.9146
gegaan	-10.9148
11	-10.9154
mobiel	-10.9171
centrale	-10.9173
Amerikaans	-10.9174
▁Gewoon	-10.9176
▁aantrekkelijk	-10.9176
▁filosofie	-10.9176
▁motivatie	-10.9176
producent	-10.9176
▁Sorry	-10.9176
▁bescheiden	-10.9176
▁geschenk	-10.9176
gevuld	-10.9176
▁giftig	-10.9176
▁verwant	-10.9177
▁tonijn	-10.9177
▁sensoren	-10.9179
▁DH	-10.9181
▁schieten	-10.9181
▁present	-10.9189
▁welzijn	-10.9192
▁symbol	-10.9205
▁raar	-10.9209
logica	-10.9211
hur	-10.9224
▁kliniek	-10.9225
proeven	-10.9227
▁magnetisch	-10.9239
▁route	-10.9248
zaak	-10.9253
▁fysica	-10.9254
maker	-10.9256
bureau	-10.9257
situatie	-10.9258
camera	-10.9258
methode	-10.9258
morgen	-10.9259
snelheid	-10.927
box	-10.9273
rok	-10.9274
jaren	-10.9286
▁Zwitser	-10.9304
▁gecompliceerd	-10.9304
resolutie	-10.9304
▁Haïti	-10.9304
▁Nederland	-10.9304
▁chemie	-10.9304
▁marketing	-10.9304
▁universele	-10.9304
▁artiest	-10.9304
▁regime	-10.9304
▁Titan	-10.9304
▁onschuldig	-10.9304
▁voormalig	-10.9304
erwijs	-10.9304
▁vergeet	-10.9304
▁volume	-10.9304
▁productiviteit	-10.9305
▁balans	-10.9305
▁gekleurd	-10.9305
▁mensenrechten	-10.9306
▁optreden	-10.9307
tafel	-10.9308
▁meegemaakt	-10.9313
pan	-10.9314
economie	-10.9322
▁touw	-10.9322
verdeling	-10.9325
▁frequentie	-10.9334
▁schatting	-10.9347
▁My	-10.9353
▁onderweg	-10.9353
▁Stem	-10.9354
bui	-10.9368
▁Ah	-10.9378
▁expert	-10.9378
▁uitzicht	-10.9388
blijven	-10.9389
▁overleden	-10.939
▁oefenen	-10.9391
▁gelijkheid	-10.9396
▁trekt	-10.9415
▁huilen	-10.9425
▁bedrag	-10.9431
onwaarschijnlijk	-10.9434
transplantatie	-10.9434
▁Slechts	-10.9434
▁scenario	-10.9434
▁acteur	-10.9434
▁leeuw	-10.9434
▁hyper	-10.9434
▁bewaren	-10.9434
▁dronk	-10.9435
▁atoom	-10.9436
▁transparantie	-10.9437
plex	-10.9439
▁Terug	-10.9439
▁rustig	-10.9448
▁kader	-10.9448
▁beweer	-10.9453
▁snelweg	-10.9457
▁dames	-10.9465
▁getest	-10.9467
▁rad	-10.9474
▁kapitalis	-10.9494
▁Kunst	-10.9502
▁opgericht	-10.9502
▁verbeterd	-10.9508
schreef	-10.9523
▁veer	-10.9525
letter	-10.953
▁boord	-10.9537
▁vervang	-10.954
▁armste	-10.9547
▁poten	-10.9551
geschreven	-10.9556
▁effectieve	-10.9562
▁Ethiopië	-10.9565
▁Internet	-10.9565
▁Valley	-10.9565
▁hypothese	-10.9565
▁handicap	-10.9565
▁serieuze	-10.9565
▁Golf	-10.9565
▁vaardigheid	-10.9566
▁lijf	-10.9566
▁klimmen	-10.9567
▁demonstratie	-10.9568
▁strak	-10.9568
▁deelnemers	-10.9569
▁Port	-10.957
▁repare	-10.9571
persoon	-10.9575
▁pond	-10.9575
▁Jim	-10.9576
▁jarenlang	-10.9592
vouwen	-10.9598
▁heilige	-10.96
▁kler	-10.9601
fascineerd	-10.9614
▁onafhankelijke	-10.9622
▁cursus	-10.9624
▁vergadering	-10.963
vier	-10.9637
▁Star	-10.9644
▁genot	-10.9646
▁roman	-10.9655
patronen	-10.9658
apparaat	-10.9658
stoten	-10.9659
▁noordelijk	-10.9683
ionele	-10.9685
▁handig	-10.9687
▁250	-10.9688
▁landelijk	-10.9688
▁chromoso	-10.9699
▁private	-10.9699
▁schitterend	-10.9699
▁verdriet	-10.9699
▁schuil	-10.9699
▁inwoners	-10.9699
▁genereren	-10.9699
▁gelegenheid	-10.9699
sessie	-10.9699
▁durf	-10.9699
▁Martin	-10.97
▁vertoon	-10.97
verzekering	-10.9702
wijziging	-10.9704
▁II	-10.9713
zaamheid	-10.9718
▁meedoen	-10.9718
▁Ieder	-10.9725
palm	-10.9727
▁ratione	-10.9727
▁Mary	-10.9728
▁microscoop	-10.9746
gehouden	-10.9746
▁vervuiling	-10.9756
▁internationa	-10.9756
▁wolk	-10.9757
logie	-10.9764
▁beest	-10.9786
▁technisch	-10.9787
structur	-10.9795
nnis	-10.9797
▁leerkrachten	-10.9801
▁klok	-10.9812
▁vezel	-10.9816
post	-10.9817
▁vijfde	-10.9833
▁Interessant	-10.9834
▁gletsjer	-10.9834
▁prioriteit	-10.9834
▁Project	-10.9834
▁kritiek	-10.9834
▁paradigma	-10.9834
▁perceptie	-10.9834
▁bestrijden	-10.9834
Sahara	-10.9834
ificeerd	-10.9834
portret	-10.9834
koorts	-10.9834
▁lift	-10.9834
▁veerkracht	-10.9835
geleverd	-10.9835
▁kolen	-10.9837
▁Bush	-10.9837
▁hervorming	-10.9837
stick	-10.9838
▁woe	-10.9839
▁Hong	-10.9839
▁Bre	-10.984
▁schone	-10.9841
pijp	-10.9842
▁oer	-10.9849
▁zakken	-10.9853
▁overigen	-10.9854
▁afdeling	-10.9858
▁buitenland	-10.987
▁more	-10.9873
blok	-10.9877
zuur	-10.9879
vissen	-10.9882
▁waardevol	-10.9885
▁lelijk	-10.9885
▁designer	-10.9887
▁diepgaand	-10.9889
▁link	-10.9911
tegenovergesteld	-10.9912
▁bezorg	-10.9926
vliegen	-10.9932
▁mal	-10.9933
▁kenden	-10.9938
botten	-10.9941
▁Anders	-10.9945
▁dame	-10.9954
▁elektro	-10.9955
▁vlag	-10.9967
▁brieven	-10.9971
▁component	-10.9971
▁parlement	-10.9971
gerelateerd	-10.9971
procedure	-10.9971
▁Hollywood	-10.9971
▁burgemeester	-10.9971
▁condoom	-10.9971
▁prikkel	-10.9971
▁systematisch	-10.9971
gekoppeld	-10.9971
▁leugen	-10.9971
▁bloei	-10.9971
▁permanent	-10.9971
▁vertragen	-10.9971
▁Brown	-10.9971
▁juni	-10.9971
▁gps	-10.9971
▁drone	-10.9972
▁studeerde	-10.9975
▁vrijwilligers	-10.9976
▁2006	-10.9981
▁stadium	-10.9982
▁neuron	-10.9983
▁Ander	-10.9985
▁antwoordde	-10.999
ologen	-10.9994
▁driedimensiona	-10.9996
▁puur	-10.9998
▁Fo	-11.0009
▁tank	-11.0018
▁studio	-11.0019
lamp	-11.0019
eind	-11.0023
▁cultur	-11.0024
▁favoriet	-11.0027
masker	-11.003
▁zwem	-11.0034
▁schakel	-11.0038
▁boer	-11.0042
scheiding	-11.005
mbo	-11.0053
▁poster	-11.0055
▁Sal	-11.0056
▁magi	-11.0064
biologen	-11.0066
▁voorgesteld	-11.0073
▁schadelijk	-11.0082
eiland	-11.0104
opbrengst	-11.011
uitgenodigd	-11.011
▁Geweldig	-11.011
▁Rwanda	-11.011
▁Vroeger	-11.011
▁Wikipedia	-11.011
▁diabetes	-11.011
▁fantasie	-11.011
▁ontsnapp	-11.011
▁radicaal	-11.011
▁vanzelfsprekend	-11.011
▁stevig	-11.011
vogel	-11.011
▁high	-11.011
▁elite	-11.011
▁stimuleren	-11.011
▁kikker	-11.011
▁allereerste	-11.011
▁bruin	-11.011
▁verzoek	-11.011
▁aanvoel	-11.011
▁zaad	-11.011
▁beheren	-11.011
▁skelet	-11.0111
▁Robert	-11.0111
oloog	-11.0112
▁natuurkunde	-11.0112
tekening	-11.0114
▁Super	-11.0115
▁Apple	-11.0115
▁dichterbij	-11.0117
▁naald	-11.0119
ëren	-11.0119
▁race	-11.012
▁Beeld	-11.0121
▁plakk	-11.0121
▁overwegen	-11.0124
▁slaagde	-11.0124
▁kip	-11.0127
▁zwakke	-11.0135
bby	-11.0138
cil	-11.015
▁publiceerde	-11.0156
▁hoofdstuk	-11.0157
▁moleculaire	-11.0159
ish	-11.0162
▁Mac	-11.0162
▁rijker	-11.0179
▁Later	-11.0197
lokken	-11.0213
ebru	-11.0215
analyse	-11.0217
ritm	-11.0227
ontwerp	-11.0227
▁slimmer	-11.023
▁spiritue	-11.0234
▁kast	-11.0235
▁onthul	-11.0241
rechtvaardigheid	-11.0241
▁95	-11.0243
▁recycl	-11.0251
▁Technologie	-11.0251
▁beschikken	-11.0251
▁empathie	-11.0251
▁gepassioneerd	-11.0251
▁geëvolueerd	-11.0251
▁obstakel	-11.0251
▁visueel	-11.0251
▁getoond	-11.0251
▁identiek	-11.0251
▁ijzer	-11.0251
▁bewonder	-11.0251
▁toestel	-11.0252
▁verhuiz	-11.0253
▁psychologie	-11.0253
▁Tien	-11.0253
▁autoriteit	-11.0254
getekend	-11.0254
▁beheersen	-11.0254
▁naakt	-11.0254
▁duim	-11.0258
▁rennen	-11.0259
gegeten	-11.0267
viel	-11.0268
▁bedank	-11.027
reiken	-11.0277
▁rel	-11.028
▁samenkomen	-11.0283
stoot	-11.0285
preek	-11.0286
▁discipline	-11.0293
▁interne	-11.0295
▁bijeenkomst	-11.0299
▁Had	-11.0304
duid	-11.0305
hip	-11.0315
▁interessanter	-11.0315
▁pauze	-11.0316
▁element	-11.0319
volkomen	-11.0335
▁oran	-11.0343
▁wortels	-11.0345
mama	-11.0352
▁voorwerp	-11.0354
▁zakelijk	-11.0354
▁ontmoeting	-11.036
conferentie	-11.0362
room	-11.0367
▁uitkomst	-11.0368
riteit	-11.037
▁opgroeide	-11.0374
▁bestudeer	-11.0383
ificatie	-11.0388
wagen	-11.0392
▁reputatie	-11.0393
▁simulatie	-11.0393
programmeur	-11.0393
▁Manhattan	-11.0393
▁contract	-11.0393
▁gescheiden	-11.0393
▁ondersteuning	-11.0393
▁poëzie	-11.0393
▁implant	-11.0394
▁grootvader	-11.0394
▁draadloze	-11.0394
▁geïn	-11.0394
▁academisch	-11.0394
▁verplaatst	-11.0395
▁donor	-11.0396
▁jaarlijks	-11.0399
▁opvoed	-11.0399
gericht	-11.04
▁plus	-11.0401
▁doelstelling	-11.0402
▁kerst	-11.0402
▁modern	-11.0406
▁Norma	-11.0408
▁dynamisch	-11.0419
▁Werk	-11.0423
ita	-11.0433
gedrukt	-11.0439
het	-11.0445
▁Land	-11.0448
▁kring	-11.0474
wetenschapp	-11.0479
▁Ach	-11.048
▁cr	-11.0485
▁levendig	-11.0491
▁geë	-11.0495
▁opzicht	-11.0503
▁zinvol	-11.0508
tijdperk	-11.0509
bewust	-11.0513
lessen	-11.0514
▁Big	-11.0517
▁beslag	-11.0529
▁mondia	-11.0531
▁absolut	-11.0538
▁citaat	-11.0538
▁cruciale	-11.0538
▁formule	-11.0538
▁klasloka	-11.0538
▁publiceren	-11.0538
▁spectaculair	-11.0538
▁Luister	-11.0538
▁agressie	-11.0538
▁aanzienlijk	-11.0539
▁job	-11.054
stoornissen	-11.054
breuk	-11.054
▁Congo	-11.0541
▁grootmoeder	-11.0541
▁huur	-11.0549
▁leken	-11.055
▁aap	-11.055
▁verdiend	-11.0551
▁2003	-11.0552
▁vergelijkba	-11.0557
▁schaar	-11.0558
▁poly	-11.0558
▁Verder	-11.0562
sluiting	-11.0566
▁pakt	-11.057
zitten	-11.058
zang	-11.0584
tevens	-11.0585
▁bedien	-11.0598
▁ban	-11.0603
▁dodelijke	-11.0603
dans	-11.0616
▁Bro	-11.0617
▁spellen	-11.0626
▁droog	-11.0635
▁Kar	-11.0649
▁daal	-11.0658
woud	-11.0659
breedte	-11.0664
▁voortkom	-11.0666
▁koraal	-11.0685
▁indrukwekkend	-11.0685
▁kwantum	-11.0685
▁animatie	-11.0685
▁avontuur	-11.0685
▁geïntegreerd	-11.0685
▁toegevoegd	-11.0685
▁zeldzame	-11.0685
▁glazen	-11.0686
▁volgorde	-11.0686
▁medium	-11.0686
shirt	-11.0686
ktober	-11.0686
▁Don	-11.0689
radi	-11.0695
▁Sterk	-11.0698
▁Bang	-11.0703
▁harder	-11.0707
rint	-11.0709
▁achterkant	-11.0712
▁molecuul	-11.0713
▁bescherm	-11.0717
▁ondernemen	-11.0718
▁spelers	-11.0722
▁bad	-11.0747
gescho	-11.0757
▁Wacht	-11.0758
▁MS	-11.0758
▁gemakkelijker	-11.077
gevoel	-11.0783
▁26	-11.0804
EO	-11.0804
▁eenvoud	-11.0806
therapie	-11.0809
controle	-11.081
publiek	-11.081
ervaring	-11.081
▁Vooral	-11.0821
▁luisterde	-11.0826
▁wol	-11.0828
▁referentie	-11.0835
▁Sovjet	-11.0835
▁asteroïde	-11.0835
▁download	-11.0835
▁gehandicapt	-11.0835
▁observatie	-11.0835
▁originele	-11.0835
▁tragisch	-11.0835
▁opgewonden	-11.0835
▁levensduur	-11.0835
▁vergroten	-11.0835
▁Latijns	-11.0835
▁aanbied	-11.0835
▁Spanj	-11.0836
▁verrast	-11.0838
▁bloeddruk	-11.0838
▁terugkeren	-11.0839
▁beurt	-11.0839
▁ritme	-11.084
▁kippen	-11.0841
▁én	-11.0843
dichtheid	-11.0844
▁huil	-11.0845
▁gekend	-11.0848
▁kleinste	-11.0853
▁gooide	-11.0862
▁spin	-11.0867
▁opvallend	-11.0867
▁lawaai	-11.0871
▁opera	-11.0883
▁menselijkheid	-11.0897
▁Tra	-11.0913
▁beton	-11.0916
▁gezonder	-11.0935
ota	-11.0954
telefoon	-11.0964
omgeving	-11.0969
▁breder	-11.0979
vloed	-11.0985
ologische	-11.0986
▁Nobelprijs	-11.0986
▁biodiversiteit	-11.0986
▁kwetsbare	-11.0986
▁microfoon	-11.0986
▁smartphone	-11.0986
▁zorgvuldig	-11.0986
▁Meisje	-11.0986
▁chocolade	-11.0986
▁cluster	-11.0986
korrel	-11.0986
▁conditie	-11.0986
▁haaien	-11.0986
▁schudden	-11.0986
▁dertig	-11.0987
▁burgeroorlog	-11.0987
▁methaan	-11.0987
▁ruil	-11.0987
▁installe	-11.0987
▁stichting	-11.0987
▁ingrediënten	-11.0988
▁mier	-11.0988
▁kalm	-11.0988
▁brandstoffen	-11.0988
▁darm	-11.0988
rekening	-11.0988
▁verlamd	-11.0989
▁financieren	-11.0993
▁inkomsten	-11.0996
▁rechtvaardig	-11.0999
▁Mont	-11.0999
▁riep	-11.1002
invasie	-11.1003
▁katten	-11.1004
sky	-11.1006
▁Rio	-11.1014
▁benutte	-11.1017
▁Spaans	-11.1019
bakken	-11.1021
spoor	-11.103
graad	-11.1032
▁onbekend	-11.1041
moed	-11.1044
▁Medic	-11.1056
60	-11.1057
activiteit	-11.1081
assi	-11.1085
golven	-11.112
vlees	-11.112
oppervlak	-11.112
functie	-11.112
kleur	-11.1125
praat	-11.1127
knop	-11.1128
vleugel	-11.1129
▁snapt	-11.1135
▁36	-11.1137
▁epi	-11.1138
▁vermenigvuldig	-11.114
▁Koninkrijk	-11.114
▁connectie	-11.114
▁equivalent	-11.114
▁genocide	-11.114
▁jihad	-11.114
▁MRI	-11.114
▁plafond	-11.114
▁personeel	-11.114
▁versnellen	-11.114
▁nederig	-11.114
▁verwezenlijk	-11.114
▁anoniem	-11.1141
▁ultra	-11.1141
▁business	-11.1141
verspill	-11.1142
▁bladeren	-11.1149
partij	-11.115
▁recentelijk	-11.115
belang	-11.1153
▁Hill	-11.1154
▁Zeker	-11.1155
versie	-11.1155
▁beschouw	-11.1157
▁dunne	-11.116
generatie	-11.1161
noodzaak	-11.1164
▁haten	-11.117
▁Afrikan	-11.1171
▁jagen	-11.1174
▁mislukking	-11.1179
ernij	-11.118
▁Rob	-11.1183
site	-11.1189
▁Air	-11.1195
▁verplicht	-11.1213
Fi	-11.1215
▁Bay	-11.1221
uut	-11.123
▁bijdrage	-11.1267
spreken	-11.1276
▁28	-11.128
specialist	-11.1281
▁verval	-11.1286
moment	-11.1291
▁concentr	-11.1294
trokken	-11.1295
▁Oxford	-11.1296
▁Saturnus	-11.1296
▁Texas	-11.1296
▁alcohol	-11.1296
▁concurreren	-11.1296
▁habitat	-11.1296
▁optimisme	-11.1296
▁variabel	-11.1296
▁schaamte	-11.1296
management	-11.1296
piramide	-11.1296
▁orkest	-11.1297
▁kogel	-11.1297
▁Honderd	-11.1297
▁brut	-11.1301
▁beschrijving	-11.1302
▁aanbod	-11.1304
▁Rond	-11.1305
adres	-11.1307
▁roken	-11.1308
▁2001	-11.1312
▁grondig	-11.1317
▁Vrij	-11.1318
▁voorspeld	-11.1321
eemt	-11.1323
▁gedeeltelijk	-11.133
▁verzon	-11.1334
▁balk	-11.1374
trekking	-11.139
▁uitvinder	-11.1391
▁kunstwerk	-11.1403
schikking	-11.1407
▁veiliger	-11.1408
missie	-11.1409
▁heilig	-11.1413
▁beschadigd	-11.1421
hak	-11.143
▁waarnemen	-11.1432
▁lens	-11.1438
geraakt	-11.144
fabriek	-11.144
meester	-11.1442
fonds	-11.1455
origami	-11.1455
▁Flori	-11.1455
▁William	-11.1455
▁concert	-11.1455
▁geïsoleerd	-11.1455
▁kindersterfte	-11.1455
▁terroristen	-11.1455
▁veroordeeld	-11.1455
▁anderhalf	-11.1455
▁verstopt	-11.1455
▁Vergeet	-11.1455
reguler	-11.1455
.500	-11.1455
▁arbeiders	-11.1455
▁benzine	-11.1455
▁verwonder	-11.1456
▁strip	-11.1456
▁paniek	-11.1456
▁schattig	-11.1456
gebouw	-11.1457
▁concurrentie	-11.1457
▁organiseer	-11.146
▁klim	-11.1461
▁wereldbevolking	-11.1461
plein	-11.1462
▁huishouden	-11.1465
▁terechtkom	-11.1465
▁ontbreken	-11.1466
▁kook	-11.1467
▁Oude	-11.1478
grad	-11.148
wetenschap	-11.1482
▁Carol	-11.1484
▁maaltijd	-11.1493
▁Westers	-11.1493
▁bewaard	-11.1495
▁efficiënter	-11.1497
RB	-11.1497
▁terugkomen	-11.1503
screen	-11.1522
▁deugd	-11.1535
▁rende	-11.1543
gelijkheid	-11.1556
▁inspirerend	-11.1559
▁toegev	-11.1582
▁Wall	-11.1591
▁bewoo	-11.1593
▁herhaal	-11.1593
▁grijp	-11.1603
efficiënt	-11.1604
gesproken	-11.1604
patroon	-11.1604
▁verouder	-11.1605
afdeling	-11.1609
▁vervolg	-11.1612
▁demonstr	-11.1614
▁Cap	-11.1614
▁Universit	-11.1616
geschakeld	-11.1616
traject	-11.1616
▁advocaat	-11.1616
▁afsluiten	-11.1616
▁dwars	-11.1616
▁elektronica	-11.1616
▁gedetailleerd	-11.1616
▁paradox	-11.1616
▁parallel	-11.1616
▁mutatie	-11.1616
▁geleefd	-11.1616
▁geduld	-11.1616
▁wonderbaarlijk	-11.1616
▁kolom	-11.1616
▁tragedie	-11.1617
▁getrouwd	-11.1617
▁ogenblik	-11.1618
▁dinosaurussen	-11.1618
▁focusse	-11.1618
▁Green	-11.1619
▁rolstoel	-11.1619
▁2,5	-11.1619
▁Auto	-11.162
ecteerd	-11.162
▁Islam	-11.1621
▁vaar	-11.1623
▁Peter	-11.1626
sporen	-11.1627
▁Brun	-11.163
gunst	-11.1633
▁beleven	-11.1659
▁dimensie	-11.1667
▁graf	-11.1668
▁Stop	-11.167
▁bekeek	-11.1677
studie	-11.1681
poot	-11.1683
▁verhoogd	-11.1691
▁verzamel	-11.1694
kap	-11.1695
oorwegen	-11.1708
▁hing	-11.1713
▁vertrek	-11.1729
▁walvisse	-11.1732
iële	-11.1741
▁Russisch	-11.1755
▁Med	-11.1767
prijs	-11.177
revolutie	-11.1771
video	-11.1771
geschiedenis	-11.1771
massa	-11.1775
▁consument	-11.1778
▁diagnosti	-11.178
▁koelkast	-11.178
▁manipule	-11.178
▁wanhopig	-11.178
script	-11.178
▁opzoeken	-11.178
▁verwarm	-11.178
▁ondergronds	-11.1781
▁hitte	-11.1781
▁transactie	-11.1781
▁financiering	-11.1782
▁breid	-11.1783
▁export	-11.1784
moeder	-11.1785
▁Homo	-11.1789
▁vleugels	-11.1792
▁veroudering	-11.1794
detector	-11.18
gestemd	-11.1808
▁tegenkom	-11.1811
ugh	-11.1824
▁warmer	-11.1836
▁vrouwtje	-11.1843
▁barst	-11.1852
grote	-11.1857
werkers	-11.187
zender	-11.1896
▁telefoontje	-11.1922
sprong	-11.194
golf	-11.194
contact	-11.194
geboren	-11.1943
▁Palestijn	-11.1947
▁Antarctica	-11.1947
▁Revoluti	-11.1947
▁Syrië	-11.1947
▁afzonderlijk	-11.1947
▁elegant	-11.1947
▁hectare	-11.1947
▁nagedacht	-11.1947
▁proteïne	-11.1947
▁agenda	-11.1947
▁getraind	-11.1947
▁stunt	-11.1947
▁bedrog	-11.1947
▁onzekerheid	-11.1947
▁hack	-11.1948
▁instructies	-11.1948
▁vertaald	-11.1949
▁verwerkt	-11.195
▁samenvoeg	-11.1951
▁onderliggend	-11.1953
stappen	-11.1955
▁chirurgie	-11.1958
▁gebruikelijke	-11.1967
▁werktuig	-11.1972
▁2.000	-11.1973
▁afloop	-11.1981
dood	-11.1982
erstand	-11.1999
▁wortel	-11.2003
doos	-11.2005
▁120	-11.2008
▁Ric	-11.2041
▁weergave	-11.2047
erkenning	-11.2061
ville	-11.2062
dreven	-11.2063
▁bewak	-11.2065
▁dodelijk	-11.2065
▁plas	-11.2079
ji	-11.2082
AR	-11.2104
activis	-11.2106
snijd	-11.2113
nummer	-11.2114
▁Noordpool	-11.2116
▁extremis	-11.2116
▁stuifmeel	-11.2116
▁conventione	-11.2116
▁salaris	-11.2116
▁fictie	-11.2116
▁winnaar	-11.2117
▁weerspiegel	-11.2119
▁kindertijd	-11.212
▁belangstelling	-11.2123
▁snap	-11.2124
▁mentor	-11.2125
▁Schot	-11.2125
▁Dame	-11.2125
sector	-11.2126
▁driehoek	-11.2128
▁Alex	-11.2129
▁ego	-11.2133
▁koningin	-11.2135
▁bier	-11.2136
▁toespraak	-11.2138
▁papa	-11.2143
▁vloeibaar	-11.2144
▁Mooi	-11.2146
beveiliging	-11.2156
▁schuldig	-11.2159
naast	-11.2166
row	-11.219
▁verbouw	-11.22
▁promot	-11.2206
integratie	-11.2214
erijen	-11.2234
▁special	-11.2249
▁nek	-11.2285
▁bewo	-11.2286
patiënt	-11.2288
estival	-11.2289
▁Herinner	-11.2289
▁Microsoft	-11.2289
▁dreiging	-11.2289
▁implicatie	-11.2289
▁roofdier	-11.2289
▁suggestie	-11.2289
district	-11.2289
▁conservatieve	-11.2289
▁gekocht	-11.2289
▁versterkt	-11.2289
▁extern	-11.2289
▁zuig	-11.2291
schud	-11.2291
▁levensvormen	-11.2292
▁mix	-11.2292
▁Tussen	-11.2294
▁verscheen	-11.2295
▁insect	-11.2296
▁Jongen	-11.2296
▁brak	-11.2297
vocht	-11.2298
alistisch	-11.2299
▁synthetisch	-11.23
▁vergroot	-11.2309
▁AK	-11.2312
▁boodschappen	-11.2314
pakket	-11.2315
▁terugkeer	-11.2315
▁afhang	-11.2317
bomen	-11.2327
herkenning	-11.2328
▁afscheid	-11.2342
▁betrekking	-11.2346
▁lente	-11.235
profit	-11.2354
▁spaar	-11.2354
▁schrik	-11.239
▁nep	-11.24
▁opzet	-11.2401
▁laatst	-11.2421
verteller	-11.2428
duizend	-11.2428
▁kosmo	-11.2431
▁controleer	-11.2434
gebleven	-11.2439
meerd	-11.2445
▁Tri	-11.2448
umor	-11.2451
▁Cambridge	-11.2464
▁Disney	-11.2464
▁LED	-11.2464
▁angstaanjagend	-11.2464
▁medicatie	-11.2464
▁mislukt	-11.2464
▁koralen	-11.2464
▁Vietnam	-11.2464
▁feminis	-11.2464
▁hardware	-11.2464
▁bruikbaar	-11.2465
gezocht	-11.2465
▁voorspelbaar	-11.2466
mechanisme	-11.2466
scanner	-11.2466
overdracht	-11.2467
verlies	-11.2467
▁feestje	-11.2467
▁menigte	-11.2467
▁racis	-11.2467
▁opgroeien	-11.2468
▁drink	-11.2468
behoren	-11.2469
Arabi	-11.2469
▁kaas	-11.2472
▁getroffen	-11.2473
▁Bijbel	-11.2477
▁opinie	-11.2478
lov	-11.2481
▁Win	-11.2489
▁onrecht	-11.2491
▁krachtiger	-11.2498
board	-11.2498
lock	-11.25
▁Ford	-11.2503
▁ongelijk	-11.2504
▁toren	-11.2511
klier	-11.2528
▁mono	-11.2557
liggend	-11.2558
tertijd	-11.2559
smiddelen	-11.2563
huizen	-11.2565
genoot	-11.2569
motor	-11.2577
emma	-11.2608
▁roei	-11.2608
▁Wetenschap	-11.2611
toets	-11.2635
▁consume	-11.2643
▁Onderzoek	-11.2643
dynamiek	-11.2643
▁International	-11.2643
▁Olympisch	-11.2643
▁Parkinson	-11.2643
▁TEDTalk	-11.2643
▁assistent	-11.2643
▁associ	-11.2643
▁comfortabel	-11.2643
▁gespecialiseerd	-11.2643
▁inheemse	-11.2643
▁interpretatie	-11.2643
▁observeren	-11.2643
▁universeel	-11.2643
▁vernietiging	-11.2643
▁krediet	-11.2643
▁opvatting	-11.2643
▁Kleine	-11.2643
▁Detroit	-11.2643
▁bevond	-11.2643
▁uitsterven	-11.2643
▁beleefd	-11.2643
▁gevaren	-11.2643
▁broek	-11.2643
▁bbp	-11.2643
astronomi	-11.2643
▁immuunsysteem	-11.2644
▁sponta	-11.2644
▁Jezus	-11.2644
▁Moeder	-11.2644
▁gemak	-11.2644
▁ideale	-11.2645
▁analogie	-11.2645
printen	-11.2645
▁clip	-11.2646
▁Silic	-11.2647
▁primair	-11.2649
straat	-11.2649
robot	-11.2651
▁lol	-11.2652
▁achterlaten	-11.2652
flits	-11.2652
▁haven	-11.2654
back	-11.2657
▁klant	-11.2661
▁gul	-11.2673
▁groenten	-11.2676
tioneel	-11.2677
▁Begrijp	-11.2683
media	-11.2692
stam	-11.2698
▁potenti	-11.2704
▁Str	-11.2709
▁Za	-11.2734
▁glad	-11.2747
▁profite	-11.2757
▁dil	-11.2802
▁33	-11.2816
▁transparant	-11.282
▁verbazen	-11.2822
▁dinosaurus	-11.2823
▁astronaut	-11.2825
▁onduidelijk	-11.2825
▁Econom	-11.2825
▁NSA	-11.2825
▁verfijnd	-11.2825
▁plaatsvond	-11.2825
▁volstrekt	-11.2825
gerechtigheid	-11.2825
view	-11.2826
▁Gates	-11.2827
▁Koran	-11.2828
▁helling	-11.2828
▁hackers	-11.283
wedstrijd	-11.2833
▁verzet	-11.2834
fronta	-11.2834
genot	-11.2836
▁29	-11.2839
▁liefst	-11.2841
ridge	-11.2844
▁Jack	-11.2854
▁verbeter	-11.2856
voet	-11.2864
ladder	-11.2869
▁bezighoud	-11.2884
▁afnemen	-11.2885
▁gok	-11.289
mmuni	-11.2892
▁verlag	-11.2893
fase	-11.2901
▁keu	-11.2917
▁romantisch	-11.2923
▁wachtte	-11.2935
kins	-11.2938
▁Russ	-11.294
▁193	-11.2943
zorgd	-11.2948
▁horizon	-11.2971
Unie	-11.2977
vriend	-11.298
▁lening	-11.2983
▁raak	-11.2993
▁norm	-11.3006
spreker	-11.3006
▁beschikba	-11.3007
▁fruit	-11.3007
▁beëindig	-11.301
synthese	-11.301
▁America	-11.301
▁Andrew	-11.301
▁ambassade	-11.301
▁broeikasgassen	-11.301
▁conversatie	-11.301
▁gelanceerd	-11.301
▁oxytocine	-11.301
▁precisie	-11.301
verslaafd	-11.301
▁chronisch	-11.301
▁Minister	-11.301
▁fysisch	-11.301
▁illegaal	-11.301
▁afgestudeerd	-11.301
▁gecontroleerd	-11.301
▁sexy	-11.301
▁Global	-11.301
▁rituele	-11.301
▁zeldzaam	-11.301
▁Word	-11.301
▁grootouder	-11.301
▁vuil	-11.301
▁detecte	-11.301
duif	-11.3011
▁Stille	-11.3011
▁Trans	-11.3011
▁diersoort	-11.3012
▁sprekers	-11.3012
▁geopend	-11.3012
engineer	-11.3013
verwege	-11.3013
reserve	-11.3013
▁vervelend	-11.3014
▁onbewust	-11.3014
▁blokker	-11.3016
▁complexer	-11.3017
▁percent	-11.3019
stijl	-11.302
voeg	-11.3021
▁etc	-11.3021
stromen	-11.3022
campagne	-11.3022
factor	-11.3022
onderwijs	-11.3023
▁grotten	-11.3029
▁daarboven	-11.303
besmetting	-11.3032
▁Gore	-11.3035
▁herhaalde	-11.3037
rack	-11.3039
▁deelnemen	-11.3039
▁bevolkingsgroe	-11.304
▁uitbreiding	-11.3049
▁3.000	-11.3052
schil	-11.3053
▁buitenkan	-11.3055
gevoelig	-11.3058
stitutie	-11.3058
▁bouwste	-11.3058
schouw	-11.306
prik	-11.3069
▁statistisch	-11.307
▁danser	-11.3089
▁Beide	-11.309
▁daalde	-11.3092
▁Spel	-11.31
▁Hope	-11.3104
ction	-11.3129
▁tijdelijk	-11.3135
▁waardevolle	-11.3139
bonden	-11.3143
▁vormgev	-11.3158
studeer	-11.3184
structie	-11.3197
ritueel	-11.3198
▁iPod	-11.3199
▁kosmisch	-11.3199
▁tsunami	-11.3199
▁Scott	-11.3199
▁dapper	-11.3199
▁dominant	-11.3199
▁gefrustreerd	-11.3199
▁Ebola	-11.3199
▁grijze	-11.3199
▁Kevin	-11.3199
▁Whit	-11.3199
▁Feit	-11.3199
▁diplomatie	-11.3199
▁tegenstander	-11.3199
▁autonom	-11.32
▁luxe	-11.32
▁commentaar	-11.32
▁redding	-11.32
gedaan	-11.32
▁meld	-11.32
▁verbazend	-11.3201
▁vent	-11.3202
▁lading	-11.3204
▁vriendschap	-11.3208
▁vrijdag	-11.3214
periode	-11.3215
▁700	-11.3217
▁gist	-11.323
▁drade	-11.3233
▁hartslag	-11.3235
▁ballen	-11.3245
▁Dingen	-11.3247
▁paper	-11.3255
▁interactieve	-11.3265
▁nerd	-11.3274
▁beker	-11.3281
▁drijvend	-11.3287
▁Jane	-11.3288
▁Hand	-11.3295
▁verplichting	-11.33
▁85	-11.3307
tub	-11.3311
stond	-11.3315
▁stippe	-11.3323
▁800	-11.3327
geef	-11.3336
▁AIDS	-11.3391
▁Foundation	-11.3391
▁criminele	-11.3391
▁entropie	-11.3391
▁farmaceutisch	-11.3391
▁lanceren	-11.3391
▁lukken	-11.3391
▁mededogen	-11.3391
▁onwetendheid	-11.3391
▁significant	-11.3391
▁soldaat	-11.3391
▁tegemoet	-11.3391
▁vernietigd	-11.3391
alomtegenwoordig	-11.3391
▁Italiaans	-11.3391
▁openbaring	-11.3391
▁Design	-11.3391
▁garage	-11.3391
▁videogame	-11.3391
▁tegenstrijdig	-11.3391
▁benoem	-11.3391
▁reusachtig	-11.3391
▁boeiend	-11.3391
▁Steek	-11.3391
▁vruchtba	-11.3391
▁exponentiële	-11.3391
veronderstelling	-11.3391
▁ratten	-11.3392
▁wachtwoord	-11.3392
▁uitdij	-11.3392
▁expositie	-11.3393
down	-11.3393
▁uitdagend	-11.3394
▁schreeuwen	-11.3394
plegen	-11.3394
▁Long	-11.3394
▁leun	-11.3395
receptor	-11.3399
duct	-11.3399
▁Mike	-11.3399
▁efficiëntie	-11.3402
▁schatten	-11.3406
▁Hé	-11.3407
▁elektroden	-11.3407
▁geestelijke	-11.3408
bescherming	-11.341
populatie	-11.341
sleutel	-11.3411
enoeg	-11.3412
gevangen	-11.3414
▁verleng	-11.3415
▁toevoeg	-11.3418
koppen	-11.3421
bur	-11.3424
▁lach	-11.3428
▁afhankelijkheid	-11.3435
▁kenmerk	-11.3455
▁ontslag	-11.3471
▁weergegeven	-11.348
▁verzend	-11.3495
▁inzet	-11.35
▁wint	-11.3538
▁afleid	-11.3541
▁herb	-11.3542
▁Act	-11.3542
▁Mill	-11.3545
scholen	-11.3556
▁microbi	-11.3567
▁Lab	-11.3573
egelijkertijd	-11.3585
stoornis	-11.3585
▁diarree	-11.3587
▁Science	-11.3587
▁artistiek	-11.3587
▁dwang	-11.3587
▁gezelschap	-11.3587
▁geïnfecteerd	-11.3587
▁illegale	-11.3587
▁obesitas	-11.3587
▁preventie	-11.3587
▁progressie	-11.3587
▁registre	-11.3587
▁respons	-11.3587
▁wanhoop	-11.3587
Aziatisch	-11.3587
▁afspeel	-11.3587
▁database	-11.3587
▁advertentie	-11.3587
▁taxi	-11.3587
▁fusie	-11.3587
▁écht	-11.3587
▁etnisch	-11.3587
▁zelfstandig	-11.3587
▁misdad	-11.3588
▁marker	-11.3588
▁distributie	-11.3588
▁benadrukk	-11.3588
▁bondgeno	-11.3588
▁ontkenn	-11.3589
▁muzikanten	-11.3589
▁nature	-11.3592
▁spinnen	-11.3592
▁behoor	-11.3593
▁uiterlijk	-11.3593
▁reageerde	-11.3593
▁bestemming	-11.3593
▁daling	-11.3595
▁schoot	-11.3596
▁Geloof	-11.3597
▁onthullen	-11.3601
▁vertrouw	-11.3601
▁samenhang	-11.3602
▁Aust	-11.3604
▁werkwoord	-11.3604
klank	-11.3607
vragen	-11.3608
techniek	-11.3611
lichaam	-11.3611
kool	-11.3614
temperatuur	-11.3614
▁realistisch	-11.3619
▁geweer	-11.3623
▁Socia	-11.3632
▁verontrustend	-11.3635
▁gebed	-11.3648
vriendelijk	-11.3656
▁Arm	-11.3658
▁kelder	-11.3667
hia	-11.3669
▁Bob	-11.3669
▁praatje	-11.3671
doc	-11.3694
▁innovatieve	-11.377
▁vertrok	-11.3781
▁schizofren	-11.3787
▁nalatenschap	-11.3787
▁negatief	-11.3787
▁provincie	-11.3787
▁stikstof	-11.3787
▁theoretisch	-11.3787
▁twaalf	-11.3787
▁vleermuizen	-11.3787
ontsteking	-11.3787
▁Smith	-11.3787
▁educatie	-11.3787
▁inzoomen	-11.3787
▁obsessie	-11.3787
▁Oorlog	-11.3787
▁nerveu	-11.3787
▁Brian	-11.3787
▁honing	-11.3787
▁Oegand	-11.3787
▁bloedvaten	-11.3787
▁Delhi	-11.3787
▁Count	-11.3787
▁zenuwstelsel	-11.3788
▁Moore	-11.3788
▁slaapkamer	-11.3788
▁command	-11.3789
▁levensstijl	-11.3789
▁middenklasse	-11.379
▁vertical	-11.379
▁uitstekend	-11.3793
▁Vraag	-11.3794
▁méé	-11.3795
▁Amerikaan	-11.3797
▁ontving	-11.3797
▁hoogtepunt	-11.3799
ramp	-11.3804
stream	-11.3806
▁aanraking	-11.3807
▁bespaar	-11.3808
▁waarschuwing	-11.3809
▁aanrak	-11.3814
vezel	-11.3814
Europa	-11.3815
straling	-11.3816
politiek	-11.3816
▁MK	-11.3818
ochtend	-11.3822
▁weekend	-11.3824
schaff	-11.3824
▁begrav	-11.3829
▁suggere	-11.3846
wolk	-11.3857
gevraagd	-11.3868
▁integr	-11.3871
ellende	-11.388
▁pleeg	-11.3888
uther	-11.3888
▁verhoog	-11.3897
weven	-11.3942
rick	-11.395
▁glamoureu	-11.3952
▁stal	-11.3967
▁Centraal	-11.3991
▁veteranen	-11.3991
arresteerd	-11.3991
▁President	-11.3991
▁Virgin	-11.3991
▁activeren	-11.3991
▁bubbel	-11.3991
▁compromis	-11.3991
▁geneigd	-11.3991
▁grootschalig	-11.3991
▁melkwegstelsel	-11.3991
▁millimeter	-11.3991
▁schimmel	-11.3991
▁telescopen	-11.3991
▁lanceerde	-11.3991
▁tijdstip	-11.3991
▁volksgezondheid	-11.3991
▁Black	-11.3991
▁Earth	-11.3991
▁humanitair	-11.3991
▁interventie	-11.3991
esearch	-11.3991
▁opwinding	-11.3991
▁prins	-11.3991
▁Preci	-11.3991
RNA	-11.3991
biljet	-11.3991
▁Mount	-11.3991
▁overleving	-11.3991
▁bestuiv	-11.3991
▁steenkool	-11.3991
▁vrees	-11.3991
▁verlegen	-11.3991
▁flink	-11.3992
▁brandweer	-11.3993
▁mobiliteit	-11.3993
▁Tony	-11.3994
▁1990	-11.3997
▁Chili	-11.3997
beheersing	-11.4
heim	-11.4001
▁Naties	-11.4004
▁Kong	-11.4004
▁South	-11.4017
▁huiswerk	-11.4019
▁5.000	-11.402
strategie	-11.4023
gebroken	-11.4024
organisme	-11.4025
blik	-11.4025
fensie	-11.4031
▁55	-11.4032
▁Matt	-11.4038
jonge	-11.404
reactie	-11.4046
▁parkeer	-11.4053
pillen	-11.4062
▁overwinning	-11.4087
dimensional	-11.4147
▁42	-11.4158
▁onzin	-11.4162
▁Belangrijk	-11.4199
fysiologi	-11.4199
regisseur	-11.4199
sequenc	-11.4199
▁Bangladesh	-11.4199
▁Gandhi	-11.4199
▁Institute	-11.4199
▁drijft	-11.4199
▁federale	-11.4199
▁geïnvesteerd	-11.4199
▁kernwapen	-11.4199
▁kleuter	-11.4199
▁netvlies	-11.4199
▁robuust	-11.4199
redacteur	-11.4199
▁ademhaling	-11.4199
▁kandidaten	-11.4199
▁Vergelijk	-11.4199
▁immens	-11.4199
▁bidden	-11.4199
▁kruip	-11.4199
▁langzamer	-11.42
▁neurologisch	-11.42
▁figur	-11.42
▁stereo	-11.42
▁Atlantische	-11.4201
logisch	-11.4201
▁diameter	-11.4202
▁ijsberg	-11.4202
▁verschijnsel	-11.4203
▁tempel	-11.4204
▁1,5	-11.4204
▁hergebruik	-11.4205
▁neura	-11.4207
▁snappe	-11.4208
▁jammer	-11.4209
▁kussen	-11.421
▁LG	-11.421
evenement	-11.4214
▁opereren	-11.4216
▁Rock	-11.4216
▁dozen	-11.4217
▁omringd	-11.4219
▁lijd	-11.422
ratio	-11.4222
▁vertrokken	-11.4223
▁Lester	-11.4227
▁wisselen	-11.4231
gestuurd	-11.4235
capaciteit	-11.4236
vertrouwen	-11.4236
▁weigerde	-11.4249
▁tong	-11.4262
deskundig	-11.4267
oever	-11.427
lotseling	-11.4283
▁uiteinde	-11.4293
▁Bell	-11.4347
▁verdubbeld	-11.4353
80	-11.4363
wijzing	-11.4373
▁eindigde	-11.4381
intuïtief	-11.4381
▁Carl	-11.4388
schreeuw	-11.4388
▁Henr	-11.4394
▁192	-11.4399
▁lieve	-11.4404
▁Singapore	-11.4412
▁Tanzania	-11.4412
▁advocaten	-11.4412
▁gelijkaardig	-11.4412
▁strategisch	-11.4412
▁transistor	-11.4412
▁Alexander	-11.4412
▁embryo	-11.4412
▁ironisch	-11.4412
▁vuilnis	-11.4412
▁wederzijds	-11.4412
▁ruiken	-11.4412
▁luchtvaart	-11.4412
▁communiceer	-11.4412
▁expertise	-11.4412
▁demografisch	-11.4412
▁doelwit	-11.4412
▁human	-11.4412
▁koraalrif	-11.4412
▁Links	-11.4412
▁thermo	-11.4412
▁content	-11.4413
▁vastlegg	-11.4413
▁protocel	-11.4413
▁geweten	-11.4413
▁pinguïns	-11.4413
▁schenk	-11.4414
▁Indus	-11.4414
▁documentaire	-11.4414
ploeg	-11.4415
▁koers	-11.4416
incident	-11.4416
▁kever	-11.4417
▁soortgelijk	-11.4419
▁mild	-11.442
▁triest	-11.4422
▁echtgenoot	-11.4424
▁koeien	-11.4425
▁TV	-11.4426
▁5000	-11.4437
▁intiem	-11.4442
▁vecht	-11.4443
gedraaid	-11.4454
▁horizonta	-11.4457
verslaan	-11.4468
kind	-11.4468
▁bestuurder	-11.4485
14	-11.4487
drang	-11.4496
strijd	-11.4497
▁Democra	-11.4502
▁knappe	-11.4509
legd	-11.4521
loper	-11.453
piep	-11.454
▁bor	-11.4546
Tech	-11.4566
▁hoogst	-11.4593
▁Hol	-11.4613
▁vervuil	-11.4616
ruikt	-11.4621
laboratoria	-11.463
service	-11.463
▁Neanderthaler	-11.463
▁Taliban	-11.463
▁augustus	-11.463
▁gemotiveerd	-11.463
▁globalisering	-11.463
▁ontbossing	-11.463
▁ontploff	-11.463
▁publicatie	-11.463
▁reflectie	-11.463
▁amateur	-11.463
▁immers	-11.463
▁ideologie	-11.463
▁check	-11.463
▁gedraag	-11.463
▁Cuba	-11.463
▁Joods	-11.463
▁vrolijk	-11.463
▁katoen	-11.463
▁commun	-11.463
▁tante	-11.4631
injectie	-11.4631
▁venster	-11.4631
▁wreed	-11.4632
▁docent	-11.4632
▁aanmoedigen	-11.4632
▁Zull	-11.4633
▁gemist	-11.4634
schakelen	-11.4638
▁fris	-11.4641
erslaggever	-11.4642
▁ministerie	-11.4647
▁Hans	-11.4654
▁gender	-11.4656
klik	-11.4658
▁jongeman	-11.4661
▁giet	-11.4663
schrijf	-11.4667
hebben	-11.4676
kwestie	-11.4676
muziek	-11.4676
meisje	-11.4677
▁hersteld	-11.4687
▁leerkracht	-11.4687
storm	-11.47
▁rap	-11.4703
▁diepst	-11.471
▁droogte	-11.471
▁magnet	-11.4748
▁geometri	-11.4782
oïde	-11.4785
jager	-11.4786
▁Wist	-11.4787
▁ontbre	-11.4807
drukking	-11.4825
▁grapje	-11.4839
houder	-11.484
straf	-11.4843
▁adolescent	-11.4852
getwijfeld	-11.4852
▁Indonesië	-11.4852
▁Leonardo	-11.4852
▁Philip	-11.4852
▁authentiek	-11.4852
▁calorieën	-11.4852
▁commercie	-11.4852
▁replica	-11.4852
▁fractie	-11.4852
▁insuline	-11.4852
▁comfort	-11.4852
▁Nelson	-11.4852
▁gemengd	-11.4852
▁liberal	-11.4852
materiële	-11.4852
▁examen	-11.4852
▁echo	-11.4852
licentie	-11.4853
▁ontbijt	-11.4853
▁Verteller	-11.4853
▁fondsen	-11.4856
▁Achter	-11.4856
▁1980	-11.4857
▁integreren	-11.4858
▁elektronen	-11.4858
▁Josh	-11.4859
gids	-11.4861
▁muzikale	-11.4862
▁zondag	-11.4863
▁Marc	-11.4865
▁Vind	-11.4876
▁zwangerschap	-11.4877
▁barri	-11.488
betaling	-11.4882
▁gerust	-11.4882
▁effectiever	-11.4883
▁Penn	-11.4887
gebond	-11.4891
opdracht	-11.4902
artikel	-11.4903
basis	-11.4903
boord	-11.4906
tif	-11.4915
hei	-11.4928
Zeeland	-11.4939
▁Kenne	-11.4949
▁blaas	-11.4965
operatie	-11.497
kree	-11.4984
wetenschappers	-11.4995
bab	-11.503
▁onderschat	-11.5057
visualisatie	-11.5079
▁Aristotel	-11.5079
▁Fantastisch	-11.5079
▁Groenland	-11.5079
▁audio	-11.5079
▁essentië	-11.5079
▁gecombineerd	-11.5079
▁introduceren	-11.5079
▁overweldigend	-11.5079
▁priemgetal	-11.5079
▁psychisch	-11.5079
▁variant	-11.5079
▁verpleegster	-11.5079
▁gewapend	-11.5079
▁luchthaven	-11.5079
▁North	-11.5079
verslaving	-11.5079
▁High	-11.5079
▁overduidelijk	-11.5079
▁Help	-11.5079
▁juli	-11.5079
▁technic	-11.5079
plooi	-11.5079
▁stoom	-11.508
▁lood	-11.5082
▁maatsta	-11.5082
▁Recent	-11.5083
▁loon	-11.5083
▁nicht	-11.5084
▁grondwet	-11.5085
▁engage	-11.5088
lvani	-11.5089
hokje	-11.509
▁brede	-11.5092
▁giga	-11.5096
attle	-11.5096
sloeg	-11.5099
▁magisch	-11.5108
▁omzet	-11.5112
▁glamour	-11.5123
▁fundament	-11.5128
▁klom	-11.5129
gezegd	-11.5136
▁interprete	-11.5139
nemers	-11.5153
▁help	-11.5162
▁ecosyste	-11.5185
▁gemeente	-11.5207
▁vijandig	-11.5241
▁Kind	-11.5265
▁technolog	-11.529
oplossing	-11.5291
schrijving	-11.5303
▁fysic	-11.5305
▁exponenti	-11.5311
▁Gebruik	-11.5312
▁Melkweg	-11.5312
▁absurd	-11.5312
▁alfabet	-11.5312
▁beschikt	-11.5312
▁christen	-11.5312
▁drempel	-11.5312
▁helikopter	-11.5312
▁impuls	-11.5312
▁origineel	-11.5312
▁overblijf	-11.5312
▁rubber	-11.5312
▁subject	-11.5312
▁tapijt	-11.5312
▁typt	-11.5312
▁uitgangspunt	-11.5312
▁voortplanting	-11.5312
▁reconstrue	-11.5312
▁schepping	-11.5312
▁verondersteld	-11.5312
limiet	-11.5312
▁accent	-11.5312
▁Berlijn	-11.5312
▁routine	-11.5312
▁vrezen	-11.5312
gordel	-11.5312
▁sfeer	-11.5312
▁Trouw	-11.5312
▁hartaanval	-11.5312
▁oordeel	-11.5312
▁drinkwater	-11.5312
▁euro	-11.5312
▁reikt	-11.5312
zijds	-11.5313
▁versneld	-11.5314
▁objectieve	-11.5315
▁bankier	-11.5318
▁inspireerde	-11.532
▁vastgelegd	-11.532
▁Grand	-11.532
▁onvoldoende	-11.5322
▁Huis	-11.5324
▁44	-11.5333
▁vlot	-11.5334
▁geografisch	-11.5362
principe	-11.5374
vreemd	-11.5375
streek	-11.5411
drive	-11.5464
▁verwerv	-11.5472
▁overleef	-11.5486
rapport	-11.5496
▁onsterfelijk	-11.5546
serveerd	-11.5547
▁Saoedi	-11.555
▁akoesti	-11.555
▁altruïs	-11.555
▁cliënt	-11.555
account	-11.555
fabrikant	-11.555
▁Clinton	-11.555
▁IBM	-11.555
▁Indiër	-11.555
▁SETI	-11.555
▁ambacht	-11.555
▁bamboe	-11.555
▁beangstigend	-11.555
▁gedaald	-11.555
▁gevestigd	-11.555
▁goedgekeurd	-11.555
▁introductie	-11.555
▁matrix	-11.555
▁opgevoed	-11.555
▁verbazing	-11.555
▁zwijgen	-11.555
▁2015	-11.555
▁Bronx	-11.555
▁sculptu	-11.555
▁Blijf	-11.555
▁Charli	-11.555
▁Michel	-11.555
▁herfst	-11.555
▁Blauw	-11.555
▁struik	-11.555
▁blote	-11.555
▁concrete	-11.555
▁belemmer	-11.555
▁antenne	-11.555
▁Arthur	-11.555
kostuum	-11.555
▁aflever	-11.555
▁berekend	-11.555
▁zweven	-11.5551
▁IJsland	-11.5551
▁verkoper	-11.5551
▁glorie	-11.5552
heffen	-11.5552
▁verkenning	-11.5553
▁vliegveld	-11.5553
▁schepsel	-11.5553
▁toenemend	-11.5553
▁hartziekte	-11.5554
▁select	-11.5554
▁Natuur	-11.5554
mobilis	-11.5556
snood	-11.5559
▁bood	-11.5561
▁statisch	-11.5564
▁beleg	-11.5588
▁Indisch	-11.5601
▁Chineze	-11.5607
percentage	-11.5617
schrijver	-11.5617
partner	-11.5617
resultaten	-11.5617
gesprek	-11.5617
begrip	-11.5618
honderd	-11.5618
kraak	-11.5639
▁verstrek	-11.5664
▁rag	-11.5717
grens	-11.5743
▁militair	-11.5759
▁Hall	-11.5776
fotografeerd	-11.5782
▁begrijpelijk	-11.5786
temperatu	-11.579
▁honkbal	-11.5794
▁Computer	-11.5794
▁Jupiter	-11.5794
▁NGO	-11.5794
▁basketbal	-11.5794
▁copyright	-11.5794
▁exempla	-11.5794
▁interageren	-11.5794
▁myceli	-11.5794
▁november	-11.5794
▁primitieve	-11.5794
▁revolutionair	-11.5794
▁sigaret	-11.5794
▁speech	-11.5794
▁subsidie	-11.5794
▁visualiser	-11.5794
uitrusting	-11.5794
▁Blue	-11.5794
▁toegewijd	-11.5794
▁Turki	-11.5794
▁uitgestrekt	-11.5794
▁Wolf	-11.5794
▁reuzen	-11.5794
▁ongebruikelijk	-11.5794
▁zwaai	-11.5794
▁electr	-11.5794
▁geschokt	-11.5794
▁bananen	-11.5794
▁aardgas	-11.5794
▁maïs	-11.5794
▁initiatief	-11.5794
▁excuse	-11.5794
▁grijs	-11.5794
▁scholier	-11.5794
▁gemerkt	-11.5794
▁Julia	-11.5794
▁parkeerplaats	-11.5794
▁afspelen	-11.5795
▁server	-11.5795
▁bewoners	-11.5795
▁Albert	-11.5796
▁aantoon	-11.5797
▁drukpers	-11.5798
town	-11.5798
▁metafor	-11.5799
▁rechtbank	-11.5799
▁genereer	-11.5799
power	-11.58
▁rassen	-11.5803
▁Zaken	-11.5803
▁heup	-11.5803
▁knooppunt	-11.5804
▁BJ	-11.5805
▁raster	-11.5806
▁moeras	-11.5808
▁Franc	-11.5809
▁intellectue	-11.5812
▁botsen	-11.5813
▁bommen	-11.5813
▁intentie	-11.5815
syndro	-11.5825
roeid	-11.584
vliegtuig	-11.5865
chirurg	-11.5867
signalen	-11.5867
conflict	-11.5867
bloed	-11.5868
ontwikkeling	-11.5868
schoenen	-11.5868
fragment	-11.5869
▁Tijd	-11.5875
▁elementair	-11.5879
▁misleid	-11.5928
▁hopeloos	-11.593
verzamelaar	-11.5932
▁96	-11.5933
NH	-11.5953
HC	-11.5961
▁splits	-11.5969
▁zintuiglijk	-11.599
▁diepzee	-11.6004
▁betekenisvol	-11.6014
▁waarschuw	-11.6017
▁cognitie	-11.604
▁aankondig	-11.6044
▁Monterey	-11.6044
▁Niveau	-11.6044
▁beroerte	-11.6044
▁connecto	-11.6044
▁elimin	-11.6044
▁geaccepteerd	-11.6044
▁geïnformeerd	-11.6044
▁langdurig	-11.6044
▁onderzeeër	-11.6044
▁remedie	-11.6044
▁uniform	-11.6044
▁Central	-11.6044
▁London	-11.6044
▁aanraakt	-11.6044
▁begrafenis	-11.6044
▁contrast	-11.6044
▁gevoed	-11.6044
▁enzym	-11.6044
▁tropisch	-11.6044
▁vacu	-11.6044
▁genetica	-11.6044
▁Thai	-11.6044
▁planning	-11.6044
▁Christus	-11.6044
▁gedij	-11.6044
▁doordring	-11.6044
▁binair	-11.6045
▁chef	-11.6045
▁onvoorstelbaar	-11.6045
▁melodie	-11.6045
▁wetgeving	-11.6045
▁mineral	-11.6046
▁eigenaardig	-11.6046
▁slinger	-11.6046
▁botsing	-11.6047
▁emissie	-11.6047
▁amper	-11.6047
▁dozijn	-11.6047
▁verdomd	-11.605
initiatie	-11.6051
▁middelpunt	-11.6054
▁Regel	-11.6054
thans	-11.6055
sulf	-11.6058
alai	-11.6058
▁gepland	-11.6058
▁heerst	-11.6064
▁bedekk	-11.6064
prime	-11.6072
oprichter	-11.6073
▁haalbaar	-11.6077
▁Wetenschapper	-11.6089
▁dosis	-11.609
onica	-11.6099
▁seksue	-11.6119
▁hersengebied	-11.6123
duiken	-11.6123
experiment	-11.6124
papier	-11.6124
relatie	-11.6125
Robot	-11.6139
termijn	-11.6166
▁degelijk	-11.6177
dustriële	-11.6178
▁knap	-11.6185
▁kunstmatig	-11.6197
▁divers	-11.6199
adviseur	-11.62
olly	-11.6204
▁filoso	-11.6292
▁corrupt	-11.6295
▁Atlant	-11.6298
▁dichtstbij	-11.63
▁monument	-11.63
▁vereenvoudig	-11.63
manifest	-11.63
▁Afghaans	-11.63
▁Stephen	-11.63
▁accepteer	-11.63
▁afschuwelijk	-11.63
▁chaotisch	-11.63
▁geconcentreerd	-11.63
▁geregistreerd	-11.63
▁intrinsiek	-11.63
▁mammoet	-11.63
▁pandemie	-11.63
▁pizza	-11.63
▁precieze	-11.63
▁islamitisch	-11.63
▁parasiet	-11.63
▁benodigd	-11.63
▁activa	-11.63
▁modder	-11.63
▁verstopp	-11.63
monitor	-11.63
▁archief	-11.63
▁doorsnee	-11.63
▁ouderwets	-11.63
▁Begin	-11.63
evaluatie	-11.63
▁krimp	-11.63
▁pokken	-11.63
▁verenigd	-11.6301
▁presteren	-11.6301
▁potten	-11.6301
▁representatie	-11.6301
▁langetermijn	-11.6301
▁trillen	-11.6302
muzikant	-11.6303
▁schokkend	-11.6303
▁rock	-11.6304
▁ruzie	-11.6304
▁vijftig	-11.6305
▁rommelig	-11.6306
▁beloon	-11.6306
thiek	-11.6307
▁flessen	-11.6309
gelovig	-11.6309
▁investeer	-11.6309
▁email	-11.6311
▁hamer	-11.6313
▁ongekend	-11.6315
straffen	-11.6316
▁voert	-11.6318
▁blank	-11.6321
▁snor	-11.6342
▁blauwdruk	-11.6392
▁zoogdier	-11.6394
drongen	-11.6401
▁Evere	-11.6403
▁overeenkom	-11.6441
stijgen	-11.6443
eefd	-11.6473
werven	-11.6476
NP	-11.6531
▁schal	-11.6538
wikkeld	-11.656
bsoluut	-11.6562
▁verhinder	-11.6563
verontreinig	-11.6563
▁Boeddha	-11.6563
▁Cyrus	-11.6563
▁Journal	-11.6563
▁aardappel	-11.6563
▁enthousiasme	-11.6563
▁frustratie	-11.6563
▁gemanipuleerd	-11.6563
▁genegeerd	-11.6563
▁goedkeuring	-11.6563
▁ontsnapt	-11.6563
▁piepklein	-11.6563
▁stimulans	-11.6563
▁cadeau	-11.6563
▁criteri	-11.6563
▁tarwe	-11.6563
▁tijger	-11.6563
▁louter	-11.6563
▁idioo	-11.6563
▁smerig	-11.6563
▁Craig	-11.6563
▁zonnepane	-11.6563
▁baarmoeder	-11.6563
▁karton	-11.6563
▁drastisch	-11.6563
▁uitgerust	-11.6563
▁Norden	-11.6563
▁bedrieg	-11.6563
▁scannen	-11.6563
▁ideaal	-11.6563
▁Onderwijs	-11.6564
▁Benjam	-11.6564
▁vissers	-11.6564
▁schema	-11.6564
▁navige	-11.6564
▁gebaren	-11.6565
▁zichtbare	-11.6565
▁tastbaar	-11.6565
▁1999	-11.657
▁knik	-11.6582
▁consequentie	-11.6583
strijken	-11.6617
kraam	-11.6618
▁vreemdeling	-11.6627
zeebodem	-11.6629
Z	-11.6654
tolerantie	-11.6657
platform	-11.6657
algoritme	-11.6657
omstandigheden	-11.6657
familie	-11.6657
▁advise	-11.6667
uitzien	-11.6669
stilstand	-11.6683
▁econo	-11.6741
titel	-11.6746
▁mislukk	-11.6766
prijzen	-11.6812
▁beoefen	-11.6814
troffen	-11.6823
▁dopamine	-11.6826
▁bibliothe	-11.6832
woestijn	-11.6832
▁Academ	-11.6833
cellulair	-11.6833
ceremonie	-11.6833
fabricage	-11.6833
geworteld	-11.6833
▁College	-11.6833
▁Financi	-11.6833
▁Shakespeare	-11.6833
▁afwezig	-11.6833
▁april	-11.6833
▁consistent	-11.6833
▁geassocieerd	-11.6833
▁gefocust	-11.6833
▁globaal	-11.6833
▁hernieuwbare	-11.6833
▁introduceer	-11.6833
▁lancering	-11.6833
▁merkwaardig	-11.6833
▁ongewoon	-11.6833
▁pioniers	-11.6833
▁ruggenmerg	-11.6833
▁schijf	-11.6833
▁correlatie	-11.6833
▁moraliteit	-11.6833
▁priester	-11.6833
▁bevoorrecht	-11.6833
▁mysterieuze	-11.6833
▁pixel	-11.6833
▁stigma	-11.6834
▁steeg	-11.6834
▁local	-11.6834
▁mentaliteit	-11.6834
▁Film	-11.6834
touch	-11.6834
▁portretten	-11.6834
▁erfenis	-11.6834
▁Life	-11.6835
▁verwelkom	-11.6835
▁Griekenland	-11.6835
▁besmettelijk	-11.6836
▁opmerking	-11.6836
▁jagers	-11.6836
▁vermink	-11.6836
▁ledema	-11.6837
anyon	-11.6837
▁zeewater	-11.6838
▁Emma	-11.6838
▁steil	-11.6838
bewoner	-11.6841
vangst	-11.6843
▁oefen	-11.6862
nulsom	-11.6871
vloer	-11.691
▁bezet	-11.6927
cycli	-11.6932
ongeluk	-11.6935
instrument	-11.6935
verkiezing	-11.6935
vaccin	-11.6935
brood	-11.6935
software	-11.6935
bereik	-11.694
ontwikkelaar	-11.6949
resistentie	-11.695
inktvis	-11.6957
strook	-11.6961
geschoold	-11.6977
▁Plots	-11.6997
cepti	-11.7009
weerstaan	-11.7061
▁gewer	-11.7082
▁maximal	-11.7083
▁democratisch	-11.7085
▁versnelling	-11.7094
▁financië	-11.71
▁trof	-11.7111
imuleren	-11.7111
conservat	-11.7111
▁entertainment	-11.7111
▁moskee	-11.7111
discriminatie	-11.7111
▁Bhutan	-11.7111
▁Brooklyn	-11.7111
▁beenmerg	-11.7111
▁cholera	-11.7111
▁combineer	-11.7111
▁institutionele	-11.7111
▁liefdadigheid	-11.7111
▁litteken	-11.7111
▁manuscript	-11.7111
▁motiveren	-11.7111
▁nachtmerrie	-11.7111
▁prostaatkanker	-11.7111
▁schuiven	-11.7111
▁symfonie	-11.7111
▁bonobo	-11.7111
▁boterham	-11.7111
▁elektromagne	-11.7111
▁huidskleur	-11.7111
▁interieur	-11.7111
▁minuscu	-11.7111
▁substantie	-11.7111
▁zilver	-11.7111
▁zwerm	-11.7111
▁herhaling	-11.7111
▁premier	-11.7111
▁opgemerkt	-11.7111
▁lobby	-11.7111
▁klappen	-11.7112
▁Tesla	-11.7112
▁betoog	-11.7112
▁bijwerkingen	-11.7112
▁Iraans	-11.7112
▁Tunesi	-11.7113
▁yog	-11.7113
▁samenwerkt	-11.7114
▁sterfgeval	-11.7114
▁Media	-11.7114
versum	-11.7114
▁knipper	-11.7114
▁woonkamer	-11.7114
▁Nick	-11.7116
notitie	-11.712
vulling	-11.7147
osfeer	-11.7148
▁hante	-11.7174
Cola	-11.718
▁penis	-11.7204
gezondheid	-11.7215
▁Egyptena	-11.7215
▁toegesta	-11.7216
mogelijkhe	-11.7223
brug	-11.7234
▁Israëlisch	-11.7242
▁varken	-11.7275
▁krantenkop	-11.7287
▁geti	-11.7292
kwekerij	-11.7298
▁kromm	-11.7318
▁filmmaker	-11.7331
▁professione	-11.735
▁neig	-11.7383
partement	-11.7397
▁Higgs	-11.7397
▁kwantummechani	-11.7397
geïdentificeerd	-11.7397
▁Bitcoin	-11.7397
▁Galapagos	-11.7397
▁Mohammed	-11.7397
▁Phoenix	-11.7397
▁Sylvi	-11.7397
▁Tibet	-11.7397
▁besproken	-11.7397
▁excuus	-11.7397
▁kubus	-11.7397
▁lichamelijk	-11.7397
▁migratie	-11.7397
▁propaganda	-11.7397
▁sponsor	-11.7397
▁symmetrisch	-11.7397
hormoon	-11.7397
▁BBP	-11.7397
▁golflengte	-11.7397
▁instantie	-11.7397
▁textiel	-11.7397
▁troost	-11.7397
▁cloud	-11.7397
▁taboe	-11.7397
▁Kosov	-11.7397
▁macro	-11.7397
▁koesteren	-11.7397
▁filosofisch	-11.7397
▁prooi	-11.7397
▁innoveren	-11.7397
▁icoon	-11.7397
▁verdacht	-11.7397
▁zeespiegel	-11.7397
▁achtervolg	-11.7397
evalueren	-11.7398
▁rebell	-11.7399
▁journalistiek	-11.7399
vooroordeel	-11.74
▁verschuiven	-11.74
treedt	-11.74
▁blootstelling	-11.74
▁bult	-11.74
▁donder	-11.7403
▁durve	-11.7406
▁pirate	-11.7409
institu	-11.741
▁oplost	-11.7417
commissie	-11.7436
bati	-11.7479
match	-11.7484
▁geloofwaardig	-11.7486
▁onthoud	-11.7493
seizoen	-11.7514
perspectie	-11.7515
behandeling	-11.7515
kwart	-11.7515
liefde	-11.7516
▁antropolog	-11.7526
krijgen	-11.756
geschote	-11.7568
streng	-11.7573
▁uitschakel	-11.7579
▁neerkom	-11.7599
▁kristal	-11.7633
▁mooist	-11.7644
▁opwarm	-11.768
spireer	-11.7682
▁Grieken	-11.7689
▁college	-11.7691
▁observeer	-11.7691
1,3	-11.7691
capsule	-11.7691
faciliteit	-11.7691
gepersonaliseerd	-11.7691
▁Geographic	-11.7691
▁Kopenhagen	-11.7691
▁Ongelooflijk	-11.7691
▁Square	-11.7691
▁beklimm	-11.7691
▁kwaadaardig	-11.7691
▁magazine	-11.7691
▁performance	-11.7691
▁psychiatrisch	-11.7691
▁tatoeage	-11.7691
▁teleurgesteld	-11.7691
▁terroristisch	-11.7691
▁tuberculose	-11.7691
▁virtueel	-11.7691
▁archeolog	-11.7691
▁genezing	-11.7691
▁hormon	-11.7691
organisator	-11.7691
historic	-11.7691
▁Space	-11.7691
gegenereerd	-11.7691
▁Nathan	-11.7691
▁architectonisch	-11.7691
▁Duizend	-11.7691
▁Talk	-11.7691
▁investeerders	-11.7692
▁Vrede	-11.7692
▁poep	-11.7692
▁naïe	-11.7692
▁regelgeving	-11.7693
▁aangenaam	-11.7693
module	-11.7694
▁Momente	-11.7698
▁scheur	-11.7699
filosofen	-11.77
koeling	-11.77
▁Serg	-11.7701
▁gloei	-11.7703
▁Witte	-11.7705
luisterd	-11.771
▁foetus	-11.7715
▁doodsoorza	-11.7721
▁Gold	-11.7721
▁verleidelijk	-11.7728
▁esthetisch	-11.7746
▁volhoud	-11.7772
▁trivia	-11.7791
▁Bank	-11.7808
fysica	-11.7817
tensie	-11.7822
gedeeld	-11.7845
▁resistent	-11.7865
▁inschatt	-11.7893
presenteerd	-11.7921
▁symbolisch	-11.7923
beginsel	-11.7948
index	-11.7963
▁verschui	-11.798
▁knoop	-11.7981
▁broed	-11.7992
▁Republikein	-11.7994
▁science	-11.7994
▁synaps	-11.7994
smolten	-11.7994
verpleegkundigen	-11.7994
▁Apollo	-11.7994
▁FBI	-11.7994
▁Special	-11.7994
▁aluminium	-11.7994
▁bladerdak	-11.7994
▁controversie	-11.7994
▁definieer	-11.7994
▁hulpverlener	-11.7994
▁illustratie	-11.7994
▁ironie	-11.7994
▁koolstofdioxide	-11.7994
▁recessie	-11.7994
▁rooster	-11.7994
▁vastberaden	-11.7994
▁verbijsterend	-11.7994
▁vitamine	-11.7994
▁vruchten	-11.7994
▁zodanig	-11.7994
pleister	-11.7994
▁anticip	-11.7994
▁atelier	-11.7994
▁pluk	-11.7994
▁politieagent	-11.7994
▁trachten	-11.7994
▁variëren	-11.7994
▁vlug	-11.7994
▁dienstverlen	-11.7994
▁fosfor	-11.7994
▁glimp	-11.7994
▁Alaska	-11.7994
▁Klaar	-11.7994
▁halfrond	-11.7994
▁Mandela	-11.7994
▁moraal	-11.7994
▁gloeilamp	-11.7994
▁Lewis	-11.7994
▁onbedoeld	-11.7994
▁omzeil	-11.7994
▁erfgoed	-11.7994
▁Liberia	-11.7994
▁verstoren	-11.7994
▁verstuurd	-11.7994
▁verklein	-11.7995
▁exotisch	-11.7995
▁badkamer	-11.7995
▁isolatie	-11.7995
Pacifi	-11.7995
▁verniel	-11.7995
▁urine	-11.7996
▁ijskap	-11.7997
▁stoep	-11.7997
kjewel	-11.7999
lisering	-11.8
▁genees	-11.8002
▁hulpeloos	-11.8002
ooh	-11.8002
▁gebod	-11.8019
interface	-11.813
epidemie	-11.813
kapitaal	-11.813
bevel	-11.8133
▁stimuleer	-11.8144
▁proefperso	-11.8188
▁moleculair	-11.8196
dynamische	-11.8251
▁informe	-11.8268
▁drama	-11.8271
▁techno	-11.8282
lichtingendienst	-11.8307
sapiens	-11.8307
▁Argentinië	-11.8307
▁Buitenlands	-11.8307
▁Celsius	-11.8307
▁Profess	-11.8307
▁astronomen	-11.8307
▁beoordeeld	-11.8307
▁betrouwbare	-11.8307
▁dossier	-11.8307
▁droevig	-11.8307
▁hiërarchie	-11.8307
▁jaloezie	-11.8307
▁metabolisme	-11.8307
▁parachute	-11.8307
▁skeletspier	-11.8307
▁vagina	-11.8307
▁veelbelovend	-11.8307
▁verpakking	-11.8307
▁Ruimte	-11.8307
▁douche	-11.8307
▁spiraal	-11.8307
▁vulkaan	-11.8307
▁Phila	-11.8307
▁godsdienst	-11.8307
▁computerspellen	-11.8307
nutsel	-11.8307
▁atleten	-11.8307
▁hobby	-11.8307
▁Machine	-11.8307
▁Oostenrijk	-11.8307
▁Geluid	-11.8307
moesson	-11.8307
▁Kansas	-11.8307
besparing	-11.8307
▁Liban	-11.8307
▁autozitje	-11.8307
bestrijding	-11.8307
▁klimmer	-11.8307
▁Edward	-11.8308
▁overbrugg	-11.8308
▁item	-11.8308
vriez	-11.8308
▁marien	-11.8308
▁uitgezonde	-11.8309
getogen	-11.8312
▁kwade	-11.8312
▁wettelijk	-11.8314
▁opschal	-11.8314
meubel	-11.8314
gerekend	-11.8315
▁Merk	-11.8317
▁zanger	-11.8317
▁knal	-11.8322
gediend	-11.8322
route	-11.8349
bind	-11.8367
▁Columbia	-11.8384
onald	-11.8413
één	-11.844
▁oppik	-11.8441
blog	-11.8454
▁trage	-11.847
▁gelijkenis	-11.8506
▁gestre	-11.8508
intensiteit	-11.8508
▁verbaas	-11.8518
▁psycholog	-11.8551
▁mechani	-11.8554
▁verleid	-11.8555
▁zonnecel	-11.8579
concept	-11.8586
▁App	-11.8623
▁Gezondheid	-11.8625
ingrediënt	-11.8626
usiness	-11.8628
ambtena	-11.8629
uitbarsting	-11.8629
▁Elizabeth	-11.8629
▁Himalaya	-11.8629
▁Linux	-11.8629
▁Magazine	-11.8629
▁Mozart	-11.8629
▁bedreigen	-11.8629
▁confrontatie	-11.8629
▁frustrerend	-11.8629
▁gedefinieerd	-11.8629
▁gekopieerd	-11.8629
▁hamburger	-11.8629
▁iPad	-11.8629
▁jungle	-11.8629
▁nastreven	-11.8629
▁ontploft	-11.8629
▁psychiater	-11.8629
▁remix	-11.8629
▁superheld	-11.8629
▁toetsenbord	-11.8629
▁universitair	-11.8629
▁verblijf	-11.8629
▁ellendig	-11.8629
▁Health	-11.8629
anghai	-11.8629
▁Liefde	-11.8629
bommenrichter	-11.8629
▁geschilderd	-11.8629
▁draadloos	-11.8629
▁Zwarte	-11.8629
▁terreur	-11.8629
▁waanzinnig	-11.8629
▁koffer	-11.8629
▁gelinkt	-11.863
▁kwallen	-11.863
▁afmeting	-11.863
▁lippen	-11.863
▁gestoord	-11.863
▁citeer	-11.863
▁vonk	-11.863
gerealiseerd	-11.8631
▁krater	-11.8631
ejuich	-11.8634
▁dingetje	-11.8645
▁skië	-11.8646
▁schreeuwde	-11.866
▁normalite	-11.8666
▁kondigde	-11.8666
▁schoonmake	-11.8745
spiegel	-11.8781
gedeelte	-11.8786
locatie	-11.8786
design	-11.8786
resultaat	-11.8786
risico	-11.8786
▁overstijg	-11.8851
▁nucleair	-11.8852
▁transformeer	-11.8871
waaier	-11.8893
▁klassiek	-11.8932
ewustzijn	-11.8943
huwelijk	-11.8959
▁zweef	-11.8959
▁bevredig	-11.8962
▁relativiteit	-11.8962
▁upload	-11.8962
▁vrijgevig	-11.8962
▁Architect	-11.8962
▁Beethoven	-11.8962
▁Bosnië	-11.8962
▁Cambodja	-11.8962
▁Libië	-11.8962
▁criminaliteit	-11.8962
▁dagdromen	-11.8962
▁geïntroduceerd	-11.8962
▁grammatica	-11.8962
▁kakkerlak	-11.8962
▁kapitein	-11.8962
▁katholiek	-11.8962
▁koninkrijk	-11.8962
▁kudde	-11.8962
▁libellen	-11.8962
▁manipulatie	-11.8962
▁migranten	-11.8962
▁savanne	-11.8962
▁scheikunde	-11.8962
▁vaatziekte	-11.8962
▁Jefferson	-11.8962
▁Kepler	-11.8962
▁chemotherapie	-11.8962
▁doctoraat	-11.8962
▁ineenstort	-11.8962
▁infrarood	-11.8962
▁millennia	-11.8962
ospital	-11.8962
▁kwantitatie	-11.8962
▁vindingrijk	-11.8962
▁zaterdag	-11.8963
▁output	-11.8963
▁Louis	-11.8963
▁pleit	-11.8963
▁overbodig	-11.8963
▁tablet	-11.8963
▁geschat	-11.8963
▁snoep	-11.8963
▁verwijzen	-11.8963
▁globalisatie	-11.8963
flatie	-11.8963
▁Eerlijk	-11.8963
▁astma	-11.8963
verhoging	-11.8964
▁bladzijde	-11.8964
▁verzorgen	-11.8964
▁critic	-11.8964
erfect	-11.8964
▁onderdrukt	-11.8964
reserva	-11.8964
▁geletterd	-11.8964
fonie	-11.8964
▁update	-11.8966
▁fluister	-11.8967
▁wervel	-11.8968
▁schande	-11.8969
▁riske	-11.8969
▁voorstander	-11.897
hekel	-11.8972
▁ondenkba	-11.8972
klaar	-11.8972
▁biosfe	-11.8975
▁academic	-11.8982
jaagd	-11.8999
▁echtgenote	-11.9014
ongeval	-11.9038
bodem	-11.9045
knippe	-11.9047
hersenactiviteit	-11.905
bewakers	-11.907
detectie	-11.9079
bevolking	-11.9117
geheugen	-11.9131
training	-11.9131
honger	-11.9132
vestigen	-11.9154
▁uitroei	-11.9165
werf	-11.9223
schakelaar	-11.9257
▁immuun	-11.9306
▁noordoost	-11.9307
▁Arduino	-11.9307
▁Joseph	-11.9307
▁Namibië	-11.9307
▁PTSS	-11.9307
▁arrogant	-11.9307
▁eBay	-11.9307
▁etiket	-11.9307
▁illustreer	-11.9307
▁illustreren	-11.9307
▁intimiteit	-11.9307
▁krankzinnig	-11.9307
▁membraan	-11.9307
▁nakomelingen	-11.9307
▁oerknal	-11.9307
▁passagiers	-11.9307
▁prostituee	-11.9307
▁scheepvaart	-11.9307
▁schommel	-11.9307
▁vleermuis	-11.9307
▁ALS	-11.9307
▁Dylan	-11.9307
▁FDA	-11.9307
▁congres	-11.9307
▁instorten	-11.9307
▁minimum	-11.9307
▁gefaald	-11.9307
▁trilling	-11.9307
▁Simpel	-11.9307
▁tomaten	-11.9307
▁iconisch	-11.9307
▁Burger	-11.9307
▁sceptisch	-11.9307
▁beleving	-11.9307
▁ambtenaren	-11.9307
▁besturings	-11.9307
▁valuta	-11.9307
segment	-11.9307
▁strikt	-11.9307
▁Islamitisch	-11.9308
▁overeenstemm	-11.9308
▁koekje	-11.9308
▁opruim	-11.9308
Informatie	-11.9308
▁luidspreker	-11.9308
▁fiction	-11.9308
▁archi	-11.9308
▁fluiten	-11.9308
istorisch	-11.9309
▁peil	-11.9309
▁putten	-11.9309
▁music	-11.9311
▁Menselijk	-11.9312
▁negentig	-11.9312
▁Angst	-11.9312
klachten	-11.9312
space	-11.9313
modus	-11.9313
▁klif	-11.9316
geprint	-11.9331
dimensiona	-11.9332
▁blu	-11.9346
q	-11.9455
ibera	-11.9461
pleegd	-11.9486
explosie	-11.9488
signaal	-11.9488
architect	-11.9488
dorp	-11.9506
spits	-11.9507
▁uitoefen	-11.9644
▁tref	-11.9656
zegend	-11.9662
▁flexi	-11.9663
▁sollicit	-11.9664
gediagnosticeerd	-11.9664
symbio	-11.9664
▁1,2	-11.9664
▁Audio	-11.9664
▁Egyptisch	-11.9664
▁Hawaii	-11.9664
▁Pittsburg	-11.9664
▁Zimbabwe	-11.9664
▁bevrucht	-11.9664
▁egoïstisch	-11.9664
▁filantropie	-11.9664
▁geautomatiseerd	-11.9664
▁geïnstalleerd	-11.9664
▁imago	-11.9664
▁krabben	-11.9664
▁logistiek	-11.9664
▁middernacht	-11.9664
▁particuliere	-11.9664
▁potlood	-11.9664
▁uitsluitend	-11.9664
▁vernedering	-11.9664
▁verslechter	-11.9664
▁wrijving	-11.9664
▁achterhaald	-11.9664
▁compliment	-11.9664
▁differenti	-11.9664
▁ietwat	-11.9664
▁verontschuldig	-11.9664
▁vervuld	-11.9664
▁fabrice	-11.9664
▁huisvesting	-11.9664
▁legitiem	-11.9664
▁sterftecijfer	-11.9664
▁wraak	-11.9664
drijving	-11.9664
position	-11.9664
▁gestudeerd	-11.9664
▁Brother	-11.9665
▁weggooi	-11.9665
▁ontcijferen	-11.9665
▁Onthou	-11.9665
▁liefhebben	-11.9665
▁opstarten	-11.9665
▁Klink	-11.9665
▁Verander	-11.9665
▁afwijking	-11.9665
ellows	-11.9665
▁Stasi	-11.9665
▁geregeld	-11.9665
uitsterving	-11.9665
▁gescand	-11.9666
▁meesterwerk	-11.9666
▁genade	-11.9666
strong	-11.9667
broeder	-11.9669
▁fruitvlieg	-11.9671
▁doorbrak	-11.9671
▁woedend	-11.9677
▁samenstell	-11.9679
sturing	-11.9699
▁doorsnede	-11.9702
gehalte	-11.9703
heug	-11.9711
bestemd	-11.975
▁beluister	-11.9784
▁textu	-11.9797
▁beschadig	-11.9836
kolonie	-11.9858
twintig	-11.9858
zuiver	-11.9858
India	-11.9858
moord	-11.987
eryl	-11.9886
veiligheid	-11.9891
▁bacterië	-12.0005
angelo	-12.002
▁intellect	-12.0033
Berkeley	-12.0035
configuratie	-12.0035
faculteit	-12.0035
obligatie	-12.0035
▁1-2-3	-12.0035
▁Babbage	-12.0035
▁CMU	-12.0035
▁Michigan	-12.0035
▁Verschillende	-12.0035
▁Vreemd	-12.0035
▁avonturen	-12.0035
▁bewerkstelligen	-12.0035
▁connectiviteit	-12.0035
▁dictator	-12.0035
▁dinsdag	-12.0035
▁expliciet	-12.0035
▁geestesziekte	-12.0035
▁pesticiden	-12.0035
▁reduceren	-12.0035
▁sequoia	-12.0035
▁vergunning	-12.0035
▁verkondig	-12.0035
▁workshop	-12.0035
therapeut	-12.0035
▁Whitopia	-12.0035
▁gordijn	-12.0035
▁kooldioxide	-12.0035
▁rampzalig	-12.0035
▁exclusie	-12.0035
▁onnodig	-12.0035
▁poeder	-12.0035
▁vertraging	-12.0035
▁transitie	-12.0035
▁spinrag	-12.0035
▁vooraanstaand	-12.0035
▁Jordan	-12.0035
▁existenti	-12.0035
karretje	-12.0035
▁autistisch	-12.0035
▁Great	-12.0035
▁autoritair	-12.0035
▁zweet	-12.0035
▁razend	-12.0035
▁jury	-12.0035
▁browse	-12.0035
▁riskant	-12.0035
▁soja	-12.0035
▁verbied	-12.0035
reparatie	-12.0035
▁merendeel	-12.0035
vlammen	-12.0035
▁baanbrekend	-12.0035
▁verwonding	-12.0035
▁Morgen	-12.0035
▁inherent	-12.0036
▁hevig	-12.0036
▁wereldburger	-12.0036
reproduceren	-12.0036
▁ideologisch	-12.0036
▁sluip	-12.0037
conventie	-12.0039
rray	-12.0061
banis	-12.0079
Women	-12.0084
verbinding	-12.0098
▁weeshui	-12.0127
▁autorijd	-12.0131
▁Hind	-12.0135
transformeerd	-12.0137
economisch	-12.0188
aangename	-12.0242
bloem	-12.0243
kapitalis	-12.0243
geslacht	-12.0243
pauze	-12.0243
proberen	-12.0243
▁idealis	-12.0272
▁fascineer	-12.0276
▁vergiftig	-12.0306
▁geologisch	-12.0307
▁meetkund	-12.0319
▁bleke	-12.0329
legaal	-12.0334
streken	-12.034
▁klikke	-12.0346
▁minimal	-12.0394
▁2.0	-12.0418
▁Patiënt	-12.0419
▁hindernis	-12.0419
formulier	-12.0419
▁CRISPR	-12.0419
▁Klimaat	-12.0419
▁Studenten	-12.0419
▁Tasmaanse	-12.0419
▁absorberen	-12.0419
▁agrarisch	-12.0419
▁auditie	-12.0419
▁benadrukt	-12.0419
▁christelijk	-12.0419
▁componist	-12.0419
▁doodsbang	-12.0419
▁elleboog	-12.0419
▁fragiel	-12.0419
▁immigratie	-12.0419
▁intrigerend	-12.0419
▁joods	-12.0419
▁kronkel	-12.0419
▁levensonderhoud	-12.0419
▁mammografie	-12.0419
▁marshmallow	-12.0419
▁millennium	-12.0419
▁mythologie	-12.0419
▁overweldigd	-12.0419
▁scheeps	-12.0419
▁zelfverzekerd	-12.0419
▁ziekteverwekker	-12.0419
▁Little	-12.0419
▁RIS	-12.0419
▁container	-12.0419
▁filantro	-12.0419
▁musea	-12.0419
▁opeenvolg	-12.0419
▁monnik	-12.0419
▁zwavel	-12.0419
register	-12.0419
▁toenmalig	-12.0419
▁Ontwerp	-12.0419
ISA	-12.042
▁toeschouwer	-12.042
▁bitter	-12.042
▁bijdraag	-12.042
▁werkgever	-12.042
▁welvarend	-12.042
▁martel	-12.042
▁verenigen	-12.042
▁Eerder	-12.042
▁wantrouw	-12.042
penicil	-12.0421
vereniging	-12.0422
lux	-12.0422
▁aangeleerd	-12.0422
▁larv	-12.0423
▁Klik	-12.0423
bestendig	-12.0432
▁pisto	-12.0438
▁geografi	-12.0464
gezwo	-12.0476
formeren	-12.048
▁goeie	-12.0481
▁genial	-12.0526
voorrad	-12.0557
▁tegenhoud	-12.0559
▁vaststell	-12.0594
neutraal	-12.0597
cursus	-12.0643
expert	-12.0643
medicijn	-12.0643
praktijk	-12.0643
cirkel	-12.0643
voedsel	-12.0643
zeggen	-12.0644
omvattend	-12.0646
versteld	-12.0667
oefening	-12.0694
▁onderbrek	-12.0701
▁romanti	-12.0741
▁volstaa	-12.0753
betaald	-12.0758
reiziger	-12.0795
▁infect	-12.081
▁IJs	-12.0817
pinguïn	-12.0817
▁authentic	-12.0819
▁twitter	-12.0819
▁Evoluti	-12.0819
▁Hubble	-12.0819
▁Klopt	-12.0819
▁Palestina	-12.0819
▁Skype	-12.0819
▁accuraat	-12.0819
▁applicatie	-12.0819
▁bioscoop	-12.0819
▁boeddhis	-12.0819
▁caravan	-12.0819
▁conciërge	-12.0819
▁ethanol	-12.0819
▁fluctuatie	-12.0819
▁gedistribueerd	-12.0819
▁gedomineerd	-12.0819
▁glucose	-12.0819
▁gouverneur	-12.0819
▁injecteren	-12.0819
▁lithium	-12.0819
▁maximum	-12.0819
▁neveneffect	-12.0819
▁onbelangrijk	-12.0819
▁placebo	-12.0819
▁problematisch	-12.0819
▁ruïne	-12.0819
▁sanitair	-12.0819
▁ultraviolet	-12.0819
▁videoclip	-12.0819
recensie	-12.0819
▁geïmproviseerd	-12.0819
▁nectar	-12.0819
fontein	-12.0819
▁circul	-12.0819
▁jazz	-12.0819
▁neocort	-12.0819
▁woordenschat	-12.0819
▁ebola	-12.0819
▁nutteloos	-12.0819
▁Alpha	-12.0819
▁gruwelijk	-12.0819
▁vorder	-12.0819
▁prettig	-12.082
▁onverander	-12.082
▁berust	-12.082
▁dwaze	-12.082
▁kalender	-12.082
▁voordracht	-12.082
turbine	-12.082
▁Plaats	-12.082
▁stekel	-12.082
▁Voel	-12.082
▁bliksem	-12.082
▁ontwricht	-12.082
▁Elektr	-12.082
▁verschaft	-12.082
▁Radio	-12.0821
▁Direct	-12.0821
play	-12.0822
dompeld	-12.0826
pluim	-12.0832
▁Susan	-12.0834
▁Wiskund	-12.084
slagader	-12.0849
mmetje	-12.0874
▁ontvouw	-12.0972
plasma	-12.0997
uitroeiing	-12.1014
▁nanotechnologi	-12.1028
apparaten	-12.106
traditie	-12.106
gevolg	-12.1061
▁bombarde	-12.108
▁beveilig	-12.1138
▁vergader	-12.1172
materialen	-12.1232
▁OESO	-12.1236
▁arriveer	-12.1236
▁uranium	-12.1236
▁ventilatie	-12.1236
dynamica	-12.1236
▁AIMS	-12.1236
▁Copernic	-12.1236
▁Hawaï	-12.1236
▁Jeopardy	-12.1236
▁Malediv	-12.1236
▁Olympics	-12.1236
▁activeer	-12.1236
▁avatar	-12.1236
▁betrapt	-12.1236
▁broeikas	-12.1236
▁digitaliser	-12.1236
▁dirigent	-12.1236
▁encyclopedie	-12.1236
▁evident	-12.1236
▁gegarandeerd	-12.1236
▁glanzend	-12.1236
▁improviseren	-12.1236
▁indicator	-12.1236
▁levensreddend	-12.1236
▁medaille	-12.1236
▁meditatie	-12.1236
▁motiveer	-12.1236
▁multinational	-12.1236
▁silicium	-12.1236
▁soepel	-12.1236
▁sympathie	-12.1236
▁symptoom	-12.1236
▁vegetatie	-12.1236
▁verspild	-12.1236
▁zwaarlijvig	-12.1236
leverancier	-12.1236
▁2016	-12.1236
▁actuele	-12.1236
▁ambulance	-12.1236
▁bekritise	-12.1236
▁keizer	-12.1236
▁kwalitatie	-12.1236
▁rimpel	-12.1236
controller	-12.1236
▁Mountain	-12.1236
▁irratione	-12.1236
▁uiteenlopend	-12.1236
▁werkgelegenheid	-12.1236
▁informatica	-12.1236
▁jaloers	-12.1236
oliath	-12.1236
▁idiote	-12.1236
▁zwembad	-12.1236
▁transplante	-12.1236
▁ogenblikkelijk	-12.1236
▁bevolkt	-12.1236
▁vlinder	-12.1236
▁Micro	-12.1236
▁bevecht	-12.1236
▁opwekken	-12.1236
▁poets	-12.1236
▁gamma	-12.1236
▁passage	-12.1236
▁gekweekt	-12.1236
▁sperma	-12.1236
▁begroet	-12.1236
▁Zweeds	-12.1236
▁Nepal	-12.1236
▁kwalijk	-12.1236
▁bemoedigend	-12.1237
▁bemoei	-12.1237
▁opzettelijk	-12.1237
▁volhard	-12.1237
▁gewenst	-12.1237
▁aanbeveling	-12.1237
▁verzorger	-12.1238
▁tastba	-12.1243
▁smalle	-12.1243
vlaggen	-12.1248
certifica	-12.1251
▁synchronis	-12.1252
gestraft	-12.127
▁kosmologi	-12.1318
kristall	-12.1319
vertegenwoordigd	-12.1328
▁gevlo	-12.1331
▁optimal	-12.1342
laarze	-12.1373
▁gedragsverander	-12.1383
▁ontelba	-12.14
▁hakke	-12.149
verschillen	-12.1492
theater	-12.1494
Europe	-12.1495
DNA	-12.1495
gevormd	-12.1496
aëder	-12.1596
▁meebreng	-12.1627
▁onveilig	-12.1633
▁optimist	-12.1642
synchron	-12.1654
gankelijk	-12.1666
▁concurrent	-12.1666
▁vracht	-12.1671
▁overlevingskans	-12.1671
Veiligheids	-12.1671
leveringsketen	-12.1671
ïndustrialiseerd	-12.1671
▁Android	-12.1671
▁Cassini	-12.1671
▁adoptie	-12.1671
▁belediging	-12.1671
▁bemanning	-12.1671
▁betwijfel	-12.1671
▁cliché	-12.1671
▁consensus	-12.1671
▁construeren	-12.1671
▁corrigeren	-12.1671
▁creditcard	-12.1671
▁fractal	-12.1671
▁gepensioneerd	-12.1671
▁gevarieerd	-12.1671
▁graffiti	-12.1671
▁improvisatie	-12.1671
▁kalksteen	-12.1671
▁mammogram	-12.1671
▁milliseconde	-12.1671
▁mystiek	-12.1671
▁ondraaglijk	-12.1671
▁repetitie	-12.1671
▁repliceren	-12.1671
▁ruggengraat	-12.1671
▁slogan	-12.1671
▁vergissing	-12.1671
▁verstedelijking	-12.1671
ificeren	-12.1671
▁bedrading	-12.1671
▁bekommer	-12.1671
▁censuur	-12.1671
▁juwelen	-12.1671
▁octopus	-12.1671
▁ontspannen	-12.1671
▁schildpad	-12.1671
▁stijf	-12.1671
▁aangeboden	-12.1671
▁triomf	-12.1671
▁vibratie	-12.1671
▁daklozen	-12.1671
▁peuter	-12.1671
▁heftig	-12.1671
▁meubil	-12.1671
▁civiel	-12.1671
▁buffer	-12.1671
▁achterliet	-12.1671
▁handdoek	-12.1671
▁Hmm	-12.1671
▁failli	-12.1671
▁overschrijd	-12.1671
▁kubi	-12.1671
▁beziel	-12.1671
▁ongezond	-12.1671
generator	-12.1671
▁winstgevend	-12.1671
▁cardio	-12.1673
▁microscopisch	-12.1673
▁Bruc	-12.1674
gewekt	-12.1674
▁Ugand	-12.1678
sterfelijkheid	-12.1678
▁democratiser	-12.1679
▁Type	-12.1679
▁ontastba	-12.1686
vlakk	-12.1853
druppel	-12.1948
kliniek	-12.1948
universiteit	-12.1949
officier	-12.1949
▁wereldeconomi	-12.195
toilet	-12.1952
▁verbond	-12.1957
veranderend	-12.1959
▁Biolog	-12.1979
journalis	-12.2025
iljoenen	-12.2105
▁ondervrag	-12.2111
formeel	-12.2115
▁analog	-12.2121
fhankelijk	-12.2124
noniem	-12.2125
▁koolhydra	-12.2125
superintelligent	-12.2125
▁polarisatie	-12.2125
▁reflecteren	-12.2125
▁serotonine	-12.2125
▁soeverein	-12.2125
▁supernova	-12.2125
cellulose	-12.2125
gefilterd	-12.2125
imulator	-12.2125
lerbelangrijkst	-12.2125
repertoire	-12.2125
vasculair	-12.2125
▁Alsjeblief	-12.2125
▁Colorado	-12.2125
▁DARPA	-12.2125
▁Friedman	-12.2125
▁GPS	-12.2125
▁McDonald	-12.2125
▁Stewart	-12.2125
▁Tamiflu	-12.2125
▁Zipcar	-12.2125
▁aangekondigd	-12.2125
▁asfalt	-12.2125
▁cocaïne	-12.2125
▁crypto	-12.2125
▁finish	-12.2125
▁gerespecteerd	-12.2125
▁gevorderd	-12.2125
▁gezinsplanning	-12.2125
▁huishoudelijk	-12.2125
▁ongerept	-12.2125
▁privilege	-12.2125
▁samenvatting	-12.2125
▁steekpenning	-12.2125
▁volwaardig	-12.2125
migreren	-12.2125
▁EEG	-12.2125
▁collaboratie	-12.2125
stabiliseren	-12.2125
▁BBC	-12.2125
▁Princeton	-12.2125
▁Reagan	-12.2125
▁aarzel	-12.2125
▁conservatief	-12.2125
▁parfum	-12.2125
▁smokkel	-12.2125
▁tovenaar	-12.2125
▁gitaar	-12.2125
▁supergeleider	-12.2125
▁wildernis	-12.2125
▁nanodeeltje	-12.2125
▁Hulp	-12.2125
▁tafere	-12.2125
▁senior	-12.2126
▁spreid	-12.2126
▁Archie	-12.2126
▁verscheurd	-12.2126
▁toxisch	-12.2126
▁Vriend	-12.2126
▁gebrekkig	-12.2126
▁Compa	-12.2126
▁Solda	-12.2128
▁superzwa	-12.2131
ezondheidszorg	-12.2133
deelnemer	-12.2138
beduidend	-12.2158
▁Oliv	-12.2174
▁discussi	-12.2182
▁gelijkwaardig	-12.2194
▁pikke	-12.2227
sgewij	-12.2284
▁operatione	-12.2291
▁global	-12.2351
puzzel	-12.2425
beperking	-12.2425
▁optimalise	-12.2481
▁verontrust	-12.2483
1986	-12.2509
▁estheti	-12.2512
politi	-12.2577
ymmetrie	-12.2582
▁hydro	-12.2596
microscop	-12.2599
▁Zuidoost	-12.2602
▁pessimist	-12.2602
▁resulteer	-12.2602
kathedraal	-12.2602
kolonial	-12.2602
osauriër	-12.2602
standsbediening	-12.2602
▁Christopher	-12.2602
▁Compassie	-12.2602
▁Lawrence	-12.2602
!	-14.0136
♫	-14.0137
)	-14.0138
—	-14.0139
?	-14.014
:	-14.0141
&	-14.0142
,	-14.0143
