<unk>	0
<s>	0
</s>	0
▁.	-3.2079
▁,	-3.23655
t	-3.35201
e	-3.64936
r	-3.74493
▁er	-3.96052
▁og	-4.13037
▁det	-4.19405
▁	-4.24566
▁en	-4.30528
▁i	-4.31652
;	-4.33598
▁som	-4.35368
▁&	-4.35947
▁å	-4.38645
quo	-4.39578
er	-4.48917
▁av	-4.62366
▁på	-4.63234
▁jeg	-4.64871
▁til	-4.66899
s	-4.73636
▁vi	-4.74626
▁for	-4.80464
en	-4.83594
▁de	-4.8855
▁at	-4.91586
▁ikke	-4.98997
▁Og	-5.04151
▁med	-5.06975
▁har	-5.08627
▁den	-5.15654
▁et	-5.21824
▁du	-5.28814
▁Det	-5.32479
▁om	-5.34331
▁var	-5.40545
▁kan	-5.41636
▁så	-5.47826
▁Jeg	-5.51703
n	-5.5466
▁dette	-5.57036
de	-5.58909
-	-5.60837
▁?	-5.63108
ne	-5.66825
et	-5.80507
▁Så	-5.84544
▁vil	-5.87798
▁hvor	-5.9086
▁:	-5.91512
▁—	-5.92644
(	-5.94175
▁)	-5.94271
▁meg	-5.96812
▁fra	-5.96859
▁Vi	-5.9765
ene	-6.00632
▁men	-6.02087
▁bli	-6.04046
▁dere	-6.0614
▁ut	-6.09319
▁Men	-6.09586
▁alle	-6.11146
▁oss	-6.14403
▁denne	-6.15727
▁eller	-6.20626
▁bare	-6.22598
▁hva	-6.23539
▁seg	-6.24758
▁noen	-6.25079
▁disse	-6.27227
▁noe	-6.3252
▁gjøre	-6.36437
▁opp	-6.36497
▁se	-6.37276
▁De	-6.42406
▁få	-6.44049
▁være	-6.46628
▁der	-6.48553
▁dem	-6.49014
▁si	-6.49558
dan	-6.53296
▁ser	-6.54016
▁had	-6.54061
▁år	-6.54237
▁han	-6.55586
▁andre	-6.55758
a	-6.55958
▁nå	-6.56606
▁når	-6.59588
▁min	-6.60192
nde	-6.61603
▁mer	-6.626
▁her	-6.63368
▁over	-6.63642
▁-	-6.63699
▁vår	-6.64154
▁kunne	-6.68325
▁må	-6.68929
▁inn	-6.70739
▁v	-6.72294
▁ting	-6.73112
▁skal	-6.73463
▁vet	-6.73655
▁verden	-6.74324
▁ble	-6.74657
for	-6.74843
▁deg	-6.7487
▁Latter	-6.74967
▁selv	-6.75195
▁tro	-6.75543
▁gjør	-6.75744
▁ha	-6.76444
▁kommer	-6.76549
▁folk	-6.77007
▁mange	-6.77998
▁fordi	-6.79416
▁slik	-6.79843
▁I	-6.80202
▁faktisk	-6.80986
eldig	-6.80999
▁sa	-6.81743
▁ved	-6.82889
▁ville	-6.83008
▁For	-6.85164
te	-6.8555
▁også	-6.86997
▁alt	-6.87319
▁hel	-6.88686
▁etter	-6.88974
▁finne	-6.92326
▁to	-6.93771
▁enn	-6.94204
ing	-6.95796
▁Du	-6.96138
▁hvis	-6.96353
▁Dett	-6.96378
▁ta	-6.97174
m	-6.97554
▁dag	-6.9852
▁mennesker	-6.99172
▁sin	-6.99733
le	-7.00861
i	-7.03193
▁da	-7.05592
▁mye	-7.06879
▁våre	-7.07327
▁siden	-7.08003
▁sammen	-7.10933
vis	-7.14223
▁Den	-7.1501
▁måte	-7.15462
▁Applaus	-7.16765
▁man	-7.16837
▁snakke	-7.21765
▁gang	-7.2219
▁første	-7.24272
▁virkelig	-7.24539
▁♫	-7.24974
ere	-7.26003
▁før	-7.29048
▁går	-7.29291
▁tilbake	-7.29619
▁ingen	-7.29714
▁Hvor	-7.3047
▁kom	-7.31049
▁hun	-7.33311
▁hver	-7.33451
▁s	-7.33754
▁deres	-7.34504
y	-7.35085
▁g	-7.35125
▁En	-7.35206
▁P	-7.35493
▁del	-7.37773
▁gjennom	-7.38033
▁trenge	-7.38242
▁kanskje	-7.38354
▁gjor	-7.38478
▁gå	-7.39683
▁samme	-7.41226
▁vær	-7.41652
▁bruke	-7.42338
▁litt	-7.42887
.	-7.43032
▁rundt	-7.44699
▁mitt	-7.45055
▁vise	-7.45062
▁stor	-7.46738
▁helt	-7.47163
▁Han	-7.4826
▁komme	-7.4866
▁S	-7.48681
▁mot	-7.48888
o	-7.49491
▁din	-7.49882
▁like	-7.4991
▁la	-7.50136
▁Hva	-7.50414
▁tid	-7.51992
k	-7.52746
▁ned	-7.54261
▁A	-7.56491
g	-7.56715
▁lage	-7.57494
l	-7.58736
fikk	-7.58829
▁neste	-7.5895
het	-7.60581
å	-7.60966
d	-7.61166
▁tre	-7.61437
anske	-7.61965
▁akkurat	-7.63143
▁gi	-7.64731
▁uten	-7.65337
tok	-7.65818
▁land	-7.66697
▁sett	-7.67453
▁skul	-7.68471
▁barn	-7.6855
▁liv	-7.68871
▁begynt	-7.69614
▁eksempel	-7.70739
▁bruker	-7.70989
▁under	-7.72373
▁annen	-7.72815
▁bygge	-7.73123
▁aldri	-7.73606
▁siste	-7.74059
▁bedre	-7.7418
▁starte	-7.74502
▁Når	-7.75223
▁Vel	-7.75334
▁Takk	-7.7535
▁prosent	-7.76547
▁igjen	-7.7662
▁anne	-7.76865
▁million	-7.77137
▁nye	-7.77511
▁mine	-7.78759
▁tar	-7.79432
▁nok	-7.79618
▁mellom	-7.79631
▁skjer	-7.80231
▁slutt	-7.80522
▁Nå	-7.80949
▁bety	-7.81165
▁kalle	-7.81533
▁livet	-7.82217
ende	-7.8238
▁forstå	-7.82645
▁store	-7.83243
▁ny	-7.83698
▁forskjellig	-7.84078
▁ønske	-7.84961
▁grunn	-7.85663
lig	-7.85963
▁...	-7.86577
▁flere	-7.86833
es	-7.87477
▁u	-7.87801
▁!	-7.88573
▁D	-7.88979
▁gjort	-7.89015
▁B	-7.89384
▁jobbe	-7.89626
▁lite	-7.90004
h	-7.91102
▁mest	-7.9188
▁fant	-7.92038
▁rett	-7.93105
▁F	-7.93435
di	-7.93698
▁tenke	-7.93758
▁gikk	-7.9416
▁M	-7.95152
▁K	-7.95275
▁Hvi	-7.95613
da	-7.95722
▁alltid	-7.96277
▁ganger	-7.96601
▁bilde	-7.97268
▁måtte	-7.97763
▁endre	-7.9785
in	-7.97863
▁La	-7.98284
este	-8.02065
▁problem	-8.03023
▁20	-8.03639
ste	-8.04462
▁måten	-8.04689
▁viktig	-8.062
▁b	-8.07644
▁tenker	-8.0838
▁takk	-8.09779
▁gir	-8.09872
▁vann	-8.10143
▁brukt	-8.10402
▁mulig	-8.11294
▁tiden	-8.11673
▁føle	-8.11966
▁type	-8.11997
▁sosial	-8.12044
▁enkelt	-8.12133
on	-8.12628
▁handle	-8.12638
▁Her	-8.13135
▁10	-8.13378
▁informasjon	-8.13647
▁Dere	-8.13699
▁mindre	-8.13719
sk	-8.14071
▁henne	-8.14711
▁par	-8.14725
▁laget	-8.14765
▁lever	-8.15141
p	-8.1528
▁bevissthet	-8.15489
▁O	-8.15615
▁person	-8.16177
▁omtrent	-8.16337
▁hverandre	-8.16338
▁egen	-8.16428
▁tingene	-8.16687
▁holde	-8.17148
▁Da	-8.17266
▁H	-8.1737
ig	-8.17641
▁bestemt	-8.18156
▁bur	-8.18224
▁godt	-8.18648
▁probleme	-8.19204
▁ham	-8.19783
▁god	-8.2063
▁leve	-8.20642
▁data	-8.21029
▁fire	-8.21845
▁lenge	-8.22062
▁hjernen	-8.22451
▁bra	-8.22688
▁TED	-8.22756
▁utrolig	-8.22762
▁små	-8.22831
▁kalt	-8.23365
▁Ja	-8.2346
▁fortelle	-8.24365
▁hve	-8.25229
▁håp	-8.25645
ge	-8.25662
▁hvilke	-8.25699
an	-8.25844
f	-8.25938
▁mat	-8.25996
▁virke	-8.26043
▁all	-8.26604
▁jo	-8.2675
u	-8.26929
▁hvert	-8.27067
▁spørsmål	-8.2712
la	-8.28145
iske	-8.28418
▁sitt	-8.28483
▁New	-8.28617
▁stå	-8.2862
▁skrev	-8.28785
▁T	-8.29
▁beste	-8.2926
▁dagen	-8.29626
▁egentlig	-8.29628
▁lære	-8.29765
som	-8.30019
▁sted	-8.30066
▁frem	-8.30772
▁skjedd	-8.30837
▁vei	-8.3148
▁tusen	-8.31678
▁hans	-8.31733
▁feil	-8.31741
▁bak	-8.31807
▁hjerne	-8.32061
▁E	-8.3263
▁dele	-8.32803
▁f	-8.32837
▁mens	-8.33189
▁samfunn	-8.33242
is	-8.3337
▁Der	-8.33493
▁skape	-8.33536
▁satt	-8.33543
▁én	-8.33773
▁innen	-8.33786
v	-8.33884
▁dra	-8.34792
▁fantastisk	-8.34835
▁Som	-8.34892
▁oppdage	-8.35133
ler	-8.35167
▁større	-8.35218
▁nett	-8.3537
▁høre	-8.35464
▁ditt	-8.35623
▁USA	-8.35911
apos	-8.3603
▁Hun	-8.36052
▁vel	-8.36639
▁san	-8.36813
▁Ikke	-8.37002
▁lys	-8.3756
▁tenkt	-8.3794
▁global	-8.38095
▁klart	-8.38237
▁kjenne	-8.38742
ning	-8.38914
b	-8.38933
slags	-8.39183
▁fortsatt	-8.39207
tatt	-8.40037
vel	-8.40071
▁hånd	-8.40214
▁forandre	-8.40365
▁Denne	-8.40472
▁materiale	-8.40564
▁G	-8.41187
al	-8.41244
▁legge	-8.41323
▁Man	-8.41886
▁C	-8.42305
▁dine	-8.42331
▁utvikle	-8.42547
▁fungere	-8.42617
så	-8.42627
▁åpne	-8.43787
▁Se	-8.44283
▁menneskelig	-8.44978
rede	-8.45289
▁k	-8.45597
ting	-8.45654
▁vanskelig	-8.46302
▁langt	-8.46499
▁200	-8.47775
▁No	-8.48484
▁videre	-8.48571
ske	-8.48576
▁svær	-8.4858
▁begynner	-8.4916
isse	-8.493
▁Kan	-8.49621
▁historien	-8.49971
▁form	-8.50025
▁milliard	-8.5027
▁vite	-8.50847
▁kjent	-8.51075
land	-8.51082
▁lager	-8.51398
▁Et	-8.5148
▁verdens	-8.51631
▁energi	-8.52376
▁be	-8.52389
▁bilder	-8.52619
ma	-8.52734
▁hundre	-8.53902
▁tidlig	-8.53916
▁Er	-8.54038
opp	-8.54068
▁lov	-8.54091
▁valg	-8.54479
▁elsker	-8.548
▁ord	-8.55341
▁merke	-8.55532
▁hjelpe	-8.55695
▁penger	-8.55797
▁fly	-8.55837
▁Google	-8.56218
▁rom	-8.56261
▁masse	-8.56286
▁lært	-8.56366
▁ofte	-8.56438
▁nytt	-8.56562
▁bok	-8.57034
kk	-8.57186
▁bildet	-8.57305
ar	-8.57404
▁løpe	-8.57557
▁musikk	-8.57673
ens	-8.57739
▁historie	-8.57828
▁spurte	-8.57984
▁forhold	-8.5807
▁prøve	-8.58643
▁prøver	-8.58726
▁fleste	-8.59172
▁fem	-8.59419
▁side	-8.60087
▁størst	-8.60274
▁internett	-8.60295
▁datamaskin	-8.60347
▁øke	-8.61661
▁gammel	-8.61722
over	-8.61804
▁halv	-8.61874
▁sener	-8.62029
▁høy	-8.6211
▁visste	-8.62175
▁jente	-8.62175
▁skrive	-8.62306
▁bakterie	-8.62642
be	-8.62722
▁språk	-8.62844
▁grad	-8.63322
▁steder	-8.63326
▁barna	-8.63549
▁hold	-8.64051
▁teknologi	-8.64057
▁L	-8.64059
▁tilfelle	-8.64499
▁Eller	-8.64545
us	-8.6455
▁område	-8.65072
▁lærer	-8.65073
um	-8.65495
▁bevege	-8.65835
▁dro	-8.65955
▁dollar	-8.66023
▁vanlig	-8.66089
▁økonomisk	-8.66167
▁skje	-8.66348
▁spørsmåle	-8.66716
▁system	-8.67207
▁rask	-8.67753
or	-8.67923
▁samle	-8.68046
▁sikker	-8.68537
▁kun	-8.68772
▁fram	-8.68826
▁interessant	-8.68962
▁morgen	-8.6897
▁helst	-8.69098
▁bruk	-8.69413
▁hatt	-8.69764
▁India	-8.70426
▁enorm	-8.70432
▁hode	-8.70617
ingen	-8.70667
▁fortsette	-8.70697
▁lang	-8.7081
▁kroppen	-8.71293
▁seks	-8.72027
▁mor	-8.72041
▁verktøy	-8.72081
▁først	-8.722
▁idé	-8.72201
▁Alle	-8.73104
me	-8.73133
▁vist	-8.73364
▁fortalt	-8.73538
▁typen	-8.73589
▁sende	-8.73638
▁følge	-8.73665
▁reise	-8.73685
lige	-8.73752
▁maskinen	-8.74855
▁delen	-8.74908
▁Ok	-8.75072
▁hos	-8.75128
▁Om	-8.75199
▁begynne	-8.75264
▁gruppe	-8.75357
▁Afrika	-8.75429
▁mann	-8.75453
▁planeten	-8.75901
▁bort	-8.76269
▁Tusen	-8.76728
▁døde	-8.77024
▁molekyle	-8.77285
▁gode	-8.78105
▁menneske	-8.7831
▁forklare	-8.78382
▁selvfølgelig	-8.78385
▁egne	-8.78479
▁støtte	-8.78608
▁mening	-8.79293
▁redde	-8.79638
▁midt	-8.80072
▁kraft	-8.80076
▁venn	-8.80094
▁minutter	-8.80355
▁synes	-8.80364
▁ideen	-8.80486
▁måneder	-8.80526
▁h	-8.80533
▁Alt	-8.80842
▁skole	-8.80955
▁øyeblikk	-8.81469
selig	-8.81629
▁helse	-8.81693
▁gamle	-8.81732
▁100	-8.82375
▁stedet	-8.82397
▁lese	-8.82985
▁ulik	-8.83243
▁huske	-8.83266
▁hjem	-8.83365
▁byen	-8.83654
▁svare	-8.83796
▁rommet	-8.83856
▁fremtid	-8.84226
▁per	-8.84363
▁50	-8.84585
▁stand	-8.84589
▁drive	-8.8481
dag	-8.84841
▁spesiel	-8.84978
▁Nei	-8.85262
ia	-8.85718
ork	-8.85812
▁forteller	-8.86164
funnet	-8.86805
▁krig	-8.87066
▁politisk	-8.87235
▁15	-8.87278
▁foran	-8.87283
ay	-8.87418
▁mål	-8.87447
▁jobb	-8.87556
▁stoppe	-8.88436
▁stille	-8.88552
▁prosjekt	-8.88837
▁U	-8.88879
▁riktig	-8.88987
▁re	-8.89262
el	-8.89769
▁kreft	-8.89906
▁venner	-8.90135
▁filmen	-8.90391
▁Til	-8.90563
▁nær	-8.9058
▁engelsk	-8.90663
to	-8.90683
▁film	-8.90709
▁4	-8.90933
▁plast	-8.91623
▁trodd	-8.91658
▁løse	-8.91667
▁an	-8.92081
▁plass	-8.92372
▁skapt	-8.92613
▁R	-8.92744
▁åpen	-8.92818
sjon	-8.92871
ken	-8.9295
▁prosjekte	-8.92988
▁3	-8.93441
ad	-8.93853
ke	-8.94247
▁unge	-8.94387
▁ligge	-8.94498
ker	-8.94847
91	-8.94869
▁skaper	-8.94972
▁menneskene	-8.94975
▁sette	-8.95232
▁ga	-8.95724
P	-8.9601
▁dør	-8.96101
mer	-8.96414
▁nøyaktig	-8.96433
▁hjelp	-8.96461
▁miste	-8.9659
▁Med	-8.96606
▁treng	-8.96623
▁ute	-8.96668
▁arbeid	-8.96805
ikk	-8.96859
ansett	-8.96936
▁celle	-8.97384
▁muligheten	-8.97472
▁landet	-8.97924
▁Hve	-8.98084
▁tilgjengelig	-8.9814
om	-8.98228
aktisk	-8.98408
▁plei	-8.98437
▁fysisk	-8.98449
▁gjern	-8.98478
▁jorden	-8.98807
C	-8.99007
▁hjerte	-8.99368
▁vokse	-8.99431
▁kunst	-8.99433
A	-8.99515
lag	-8.99836
▁dit	-9.00181
▁makt	-9.00457
▁DNA	-9.00474
▁bør	-9.00474
▁ekte	-9.00484
▁plu	-9.00564
else	-9.00744
▁nivå	-9.00792
▁ønsket	-9.0143
▁engang	-9.01492
it	-9.01599
▁Gud	-9.01649
▁V	-9.02133
▁hørt	-9.02525
il	-9.02549
93;	-9.02557
kring	-9.0259
▁talt	-9.02596
8	-9.0263
▁universet	-9.0267
verre	-9.02921
▁Europa	-9.02946
▁Hver	-9.02972
▁bor	-9.02981
c	-9.03068
ver	-9.03392
part	-9.03624
den	-9.0363
▁Bar	-9.03788
tallet	-9.0382
▁følelse	-9.03889
▁fall	-9.04245
▁kort	-9.04246
men	-9.04631
▁idéen	-9.04687
▁ja	-9.04694
▁forskjell	-9.04754
▁vekst	-9.04798
▁hjemme	-9.04833
▁salen	-9.04858
▁øyne	-9.04869
▁resultate	-9.05138
▁far	-9.05287
▁kamera	-9.05523
▁kultur	-9.05626
▁kvinner	-9.06317
▁natt	-9.0686
▁Kina	-9.06868
▁fisk	-9.06966
▁spise	-9.07164
K	-9.07217
▁foregå	-9.07317
▁video	-9.07328
2	-9.07835
▁ide	-9.07854
▁grunnen	-9.07873
stand	-9.07927
▁publikum	-9.08122
lse	-9.08159
▁systemet	-9.0819
▁hell	-9.0872
▁Min	-9.08726
til	-9.08757
▁navn	-9.08776
▁lill	-9.09084
▁kjærlighet	-9.09088
▁sånn	-9.09266
▁naturlig	-9.09284
vid	-9.0954
del	-9.09594
▁blan	-9.09598
▁øyeblikket	-9.09606
▁tall	-9.09856
▁slag	-9.10087
▁samfunnet	-9.10092
▁skolen	-9.10102
▁000	-9.10146
▁N	-9.1025
▁J	-9.1026
▁30	-9.10851
▁prøvd	-9.11025
▁spør	-9.11159
▁lett	-9.11331
▁grunnleggen	-9.11358
▁kjøpe	-9.11372
▁sendt	-9.11377
▁Etter	-9.11438
ut	-9.11442
▁spiller	-9.11484
▁forsker	-9.1162
5	-9.11769
ton	-9.1189
▁klarer	-9.12031
▁minne	-9.1228
▁stemme	-9.12422
▁teknologien	-9.12545
skap	-9.12899
▁klar	-9.13087
▁fått	-9.13168
eles	-9.1345
øy	-9.13612
▁Folk	-9.13679
▁Tenk	-9.13681
▁moder	-9.13681
▁Vår	-9.13691
▁tanken	-9.13706
▁felles	-9.13803
▁git	-9.14205
▁flott	-9.14331
▁virkelighet	-9.14423
▁vitenskap	-9.14476
▁personlig	-9.14526
og	-9.1456
▁forsøk	-9.14592
▁full	-9.14984
▁timer	-9.15127
asjon	-9.15257
▁nødvendig	-9.15267
ige	-9.15456
▁Først	-9.15749
▁van	-9.15982
▁suksess	-9.16058
▁Ingen	-9.1606
▁tredje	-9.16063
▁snar	-9.16064
▁frykt	-9.16148
▁skade	-9.16189
▁kreve	-9.16226
li	-9.16363
▁sekund	-9.16985
▁øye	-9.17169
▁p	-9.17169
▁Al	-9.1739
ha	-9.17724
▁tingen	-9.17762
▁forestille	-9.17864
heten	-9.18061
▁oksytosin	-9.18499
▁a	-9.18529
▁kaste	-9.18533
▁moralsk	-9.18561
D	-9.18619
tid	-9.18784
mann	-9.19008
ka	-9.19256
▁dager	-9.19599
▁tak	-9.19885
▁ferdig	-9.20211
▁ti	-9.20384
▁design	-9.20493
▁spre	-9.2074
▁sannsynlig	-9.20757
na	-9.20798
▁tydelig	-9.20999
▁perfekt	-9.21
▁familie	-9.21018
▁prate	-9.21018
▁fange	-9.21054
▁født	-9.21206
▁leder	-9.2145
▁ekstrem	-9.21617
▁heter	-9.21693
ry	-9.2189
▁opplevelse	-9.21917
▁sterk	-9.22002
7	-9.2204
pa	-9.22153
▁personen	-9.22428
retter	-9.22745
▁kl	-9.22954
▁enkle	-9.22996
▁skriver	-9.23094
▁lokal	-9.23209
ch	-9.23382
▁bå	-9.23483
▁Musikk	-9.23563
▁koble	-9.23565
▁produsere	-9.23622
▁tillegg	-9.23783
▁maskin	-9.23815
tre	-9.23988
lsen	-9.24124
S	-9.24166
▁utenfor	-9.24166
▁veien	-9.24302
son	-9.24336
eneste	-9.24504
▁fins	-9.24599
▁hus	-9.24646
▁lest	-9.25216
på	-9.25337
▁mengde	-9.25543
▁demokrati	-9.25636
je	-9.2564
6	-9.25648
▁bil	-9.25691
ak	-9.2572
▁antall	-9.25797
ol	-9.26045
▁eksistere	-9.26195
▁genetisk	-9.26195
▁Slik	-9.26209
id	-9.26229
▁glede	-9.26258
▁afrikansk	-9.26294
▁voks	-9.26296
▁nasjonal	-9.26328
▁trengte	-9.26515
▁student	-9.26647
▁lar	-9.26817
▁meter	-9.26865
▁havet	-9.26874
▁kon	-9.27143
▁sagt	-9.27387
▁40	-9.27527
▁svarte	-9.27552
▁arbeidet	-9.27923
▁svar	-9.27946
▁uker	-9.28186
▁blod	-9.28571
isk	-9.28575
▁gjen	-9.28614
▁umulig	-9.28799
am	-9.28809
▁digital	-9.28897
▁protein	-9.28897
▁skikkelig	-9.28904
▁flytte	-9.28946
▁jobben	-9.28998
▁25	-9.29065
▁nettverk	-9.2917
hver	-9.2948
▁død	-9.29627
▁tilgang	-9.29834
med	-9.29845
▁naturen	-9.299
▁ærlig	-9.29927
▁viss	-9.30111
ben	-9.30152
▁fortelling	-9.30297
▁gruppen	-9.30331
▁situasjon	-9.3034
ul	-9.30482
ell	-9.30627
▁mannen	-9.30666
▁Har	-9.3072
▁vent	-9.3072
gang	-9.30803
▁kjøre	-9.30841
gi	-9.30865
år	-9.30878
fra	-9.31431
stod	-9.31471
▁dekke	-9.3149
▁bekymre	-9.31675
▁publisert	-9.31675
rledes	-9.31676
▁faktum	-9.31681
▁generasjon	-9.31741
▁høyre	-9.31797
▁programvare	-9.31822
▁Amerika	-9.31827
▁knytte	-9.31839
▁rike	-9.31884
▁stykke	-9.31948
j	-9.32089
itet	-9.32291
▁slå	-9.33173
4	-9.33179
▁kart	-9.33549
▁gjelde	-9.33854
▁overal	-9.341
amtidig	-9.34119
sett	-9.3421
▁fri	-9.3445
▁gangen	-9.34469
▁lidenskap	-9.34518
▁internasjonal	-9.34532
▁skjønne	-9.34533
▁vakre	-9.34533
▁direkte	-9.34855
imot	-9.35014
▁nærmer	-9.35096
▁demokratisk	-9.35225
▁elske	-9.35273
▁rette	-9.35352
as	-9.35385
bo	-9.35424
▁tale	-9.35505
rige	-9.35748
▁dyr	-9.3594
siden	-9.36056
▁bry	-9.36373
dde	-9.36434
▁lagd	-9.36436
▁ung	-9.36884
▁sitte	-9.372
nei	-9.37404
▁web	-9.37426
▁sak	-9.37438
▁eksemple	-9.37473
▁vakker	-9.37473
▁forbedre	-9.37474
▁bokstavelig	-9.37476
▁absolutt	-9.37476
▁glad	-9.37477
▁steg	-9.37482
.000	-9.37525
▁rekke	-9.37569
▁fullstendig	-9.37585
▁selge	-9.37804
▁nylig	-9.37907
▁toppen	-9.38129
▁lav	-9.38391
▁media	-9.38556
▁hørte	-9.386
sh	-9.3861
▁spille	-9.38621
▁begynnelse	-9.38783
▁lyst	-9.38796
▁høyt	-9.38855
▁grupper	-9.38962
▁ni	-9.38989
▁sang	-9.39096
▁natur	-9.39115
egge	-9.39405
▁håndtere	-9.39565
▁Ta	-9.39698
G	-9.39715
▁henge	-9.40015
▁århundre	-9.40019
▁laste	-9.40129
deo	-9.40356
▁Selv	-9.40502
▁hoved	-9.40504
▁flyktninge	-9.40508
▁vitenskapelig	-9.40526
▁lenke	-9.40533
▁fundamental	-9.40539
▁in	-9.40763
00	-9.40773
▁Internett	-9.4091
000	-9.40944
▁fremd	-9.40955
▁møte	-9.41469
▁størrelse	-9.4148
▁fin	-9.41598
▁inne	-9.41639
▁miljø	-9.41852
post	-9.41994
▁c	-9.42146
▁ba	-9.42151
▁økonomien	-9.42162
▁rolle	-9.42207
▁dårlig	-9.42291
▁fjerne	-9.42303
▁by	-9.42397
3	-9.42668
▁pr	-9.42762
▁dypt	-9.43064
▁former	-9.43074
ve	-9.43378
▁kvinne	-9.43404
▁klare	-9.4344
▁lykke	-9.43483
▁amerikansk	-9.43629
▁følte	-9.43629
▁nevnt	-9.43629
rhythm	-9.43629
▁gåt	-9.4364
▁jorda	-9.43828
I	-9.43847
▁bevisst	-9.44054
▁Le	-9.44335
fall	-9.44402
op	-9.4445
isme	-9.44579
▁borte	-9.4461
▁basert	-9.44693
▁resten	-9.44895
B	-9.45381
ra	-9.45561
▁kjempe	-9.45577
▁dø	-9.45651
▁vokst	-9.46173
▁forskjellen	-9.46187
▁foreldre	-9.46425
▁datamaskinen	-9.4669
▁Be	-9.46806
▁skille	-9.46858
▁slett	-9.46876
▁alene	-9.4698
▁W	-9.4704
▁billig	-9.47136
ublikum	-9.47536
▁plan	-9.4759
▁skog	-9.47676
▁bestå	-9.47728
ou	-9.47931
▁lege	-9.47957
▁avhengig	-9.4797
▁åtte	-9.48031
▁samarbeid	-9.48231
▁ressurs	-9.48494
ant	-9.48537
▁uke	-9.48567
▁galt	-9.48587
sagt	-9.48739
▁vold	-9.48975
ll	-9.49654
▁enkel	-9.49944
▁ege	-9.50069
▁oppnå	-9.50112
tund	-9.50152
▁behov	-9.50188
▁stamcelle	-9.50188
▁venstre	-9.50188
▁forårsake	-9.50208
▁bygd	-9.50232
▁total	-9.50254
▁endelig	-9.50301
▁kunnskap	-9.50314
vi	-9.50464
teknologi	-9.50734
▁hente	-9.50746
▁viktigst	-9.51078
▁maskiner	-9.51165
▁telefon	-9.51206
▁velge	-9.51253
▁prosessen	-9.51339
▁ben	-9.51732
▁stole	-9.51761
▁mobiltelefon	-9.51778
▁økonomi	-9.51785
▁landsby	-9.51944
▁plante	-9.52101
sinne	-9.52163
▁studier	-9.52311
milliarder	-9.52337
▁bo	-9.52429
▁offentlig	-9.52604
▁viktige	-9.52773
▁utvikling	-9.52787
ven	-9.52817
▁nyhete	-9.5302
▁fast	-9.53106
▁Israel	-9.53158
▁tidlige	-9.53219
▁inntekt	-9.53278
▁magi	-9.53283
ow	-9.53369
▁tenk	-9.53398
▁mus	-9.53538
▁arabisk	-9.53636
▁matematikk	-9.53636
▁studere	-9.53637
▁spilt	-9.53637
▁nød	-9.5364
▁The	-9.5364
▁forvente	-9.53643
▁bestemme	-9.53649
▁spørre	-9.53732
▁Hei	-9.53739
▁heldig	-9.5396
▁hav	-9.54089
ble	-9.5414
▁kvinnen	-9.54323
▁ren	-9.54416
▁kropp	-9.54536
▁Jo	-9.5465
▁ring	-9.54659
▁alder	-9.54717
▁2	-9.54736
ier	-9.54778
inger	-9.54929
▁byer	-9.55006
▁endring	-9.55143
▁møtte	-9.55353
▁teori	-9.55662
H	-9.55692
▁grei	-9.55724
▁passer	-9.56198
▁fordel	-9.5623
▁5	-9.56257
ed	-9.56372
▁60	-9.56693
w	-9.5677
▁cellen	-9.56902
▁designe	-9.57139
▁sprø	-9.57206
▁Grøn	-9.57207
▁City	-9.57208
▁Facebook	-9.57208
▁Storbritannia	-9.57208
▁bærekraftig	-9.57227
▁stadig	-9.5723
▁innovasjon	-9.57236
▁bringe	-9.57306
▁saken	-9.57314
▁TV	-9.57455
▁soldat	-9.57506
▁måle	-9.57557
▁hende	-9.5769
▁dukke	-9.57795
▁politikk	-9.57847
▁meste	-9.58036
▁ødelegge	-9.5813
anskje	-9.58227
▁Mit	-9.58245
tiden	-9.58302
▁lik	-9.5831
bruk	-9.58369
wa	-9.58456
▁12	-9.58484
▁penge	-9.58569
itt	-9.58818
▁inni	-9.58848
▁mental	-9.59095
▁interessert	-9.59406
resten	-9.59495
lene	-9.59725
følelse	-9.59777
pi	-9.60455
▁organ	-9.60519
▁To	-9.60553
▁kilo	-9.60565
▁lagt	-9.60698
▁verdi	-9.60846
▁overraske	-9.60899
▁avslutte	-9.60911
▁kveld	-9.60912
▁unna	-9.60913
▁betale	-9.60913
▁putte	-9.60922
▁bøker	-9.60922
▁sammenligne	-9.60941
▁CA	-9.60953
skje	-9.61104
▁papir	-9.61165
▁grense	-9.61195
▁effektiv	-9.61296
▁anta	-9.61333
▁dyp	-9.61415
elig	-9.615
▁lyd	-9.61725
ho	-9.61748
▁verk	-9.61759
mo	-9.61795
▁Fra	-9.61854
▁11	-9.61933
▁muligheter	-9.62097
▁løfte	-9.62109
før	-9.62743
sa	-9.62811
nettet	-9.62947
io	-9.63015
▁sannhet	-9.63263
▁studie	-9.63631
▁kulturen	-9.63636
ale	-9.6379
celle	-9.63819
▁menn	-9.63926
ine	-9.63944
▁konflikt	-9.64162
av	-9.64197
▁beskytte	-9.64249
▁olje	-9.64324
▁likt	-9.64371
▁passe	-9.64393
mm	-9.64586
▁Vest	-9.64725
▁Bibel	-9.64757
▁Akkurat	-9.64757
▁hovedsak	-9.64758
▁beslutning	-9.6476
▁regel	-9.64767
▁Japan	-9.64769
▁narkotika	-9.64774
▁menneskeheten	-9.64784
▁foredrag	-9.6479
▁bakken	-9.64812
▁sjekke	-9.64816
▁bevegelse	-9.6483
▁kommunisere	-9.6485
▁regle	-9.64955
▁flyte	-9.64972
▁medisinsk	-9.65013
▁selskape	-9.65132
▁innså	-9.65189
▁time	-9.65258
lle	-9.65302
▁Sy	-9.65326
▁San	-9.65392
▁kol	-9.65595
▁modell	-9.65598
▁fi	-9.6572
▁mulighet	-9.65923
▁8	-9.6601
ærlig	-9.66094
▁vente	-9.66461
▁dyre	-9.66586
▁tiår	-9.66739
▁løsning	-9.66772
os	-9.66836
▁merkelig	-9.66943
dte	-9.67003
gjennom	-9.67331
▁Ha	-9.67343
▁detalj	-9.67511
▁Ve	-9.67819
▁19	-9.67846
▁verd	-9.67879
▁evne	-9.6796
ba	-9.67965
▁farge	-9.67968
▁forsøke	-9.68212
▁resultat	-9.68232
▁tett	-9.68368
T	-9.68405
▁Sør	-9.68725
▁lag	-9.68735
▁kontakt	-9.68758
▁favoritt	-9.68758
▁nøkkel	-9.68759
▁eldre	-9.68776
▁beskrive	-9.68816
▁nivåe	-9.68824
▁fjor	-9.6885
▁synge	-9.68852
▁utdanning	-9.68853
▁makten	-9.68942
▁lykkelig	-9.68946
▁raskere	-9.69027
▁Che	-9.69159
▁vekk	-9.69198
▁scenen	-9.69231
▁bygning	-9.69232
▁ulikhet	-9.69268
▁kilomet	-9.69347
▁fred	-9.69405
eks	-9.69507
▁måned	-9.69515
▁befolkningen	-9.69576
▁18	-9.70008
▁mi	-9.70018
▁delt	-9.70048
tisk	-9.70071
▁planet	-9.70131
ic	-9.70164
sto	-9.70182
▁tanke	-9.70464
lu	-9.70531
▁rar	-9.7076
▁handling	-9.70821
▁påvirke	-9.70871
lys	-9.70887
sted	-9.70899
▁fyr	-9.70956
ard	-9.7109
▁stat	-9.71286
▁Barn	-9.7129
alitet	-9.71296
▁fattige	-9.71311
ger	-9.71405
full	-9.71493
▁leke	-9.71565
▁199	-9.72053
▁fal	-9.72095
▁skogen	-9.72098
▁fullt	-9.72099
bar	-9.72143
▁kommunikasjon	-9.72192
▁produksjon	-9.72281
▁skru	-9.7256
▁fremst	-9.72635
▁grensen	-9.7278
hen	-9.72858
▁Chris	-9.72893
▁frivillig	-9.72924
▁inspirert	-9.72924
▁budskap	-9.72925
▁utviklingsland	-9.72931
▁lengre	-9.72936
▁styre	-9.72943
▁unngå	-9.72943
▁fengsel	-9.7296
▁hit	-9.72965
nes	-9.73045
▁amerikaner	-9.73084
▁24	-9.73124
▁utdannelse	-9.73157
▁meme	-9.73185
▁familien	-9.73237
tvers	-9.73383
uel	-9.73961
▁hen	-9.74057
un	-9.7407
▁mengden	-9.74332
▁årsaken	-9.74693
1	-9.74792
▁fyren	-9.74942
▁test	-9.75022
▁grønne	-9.75082
ok	-9.75133
ko	-9.75259
▁forsvinne	-9.75328
▁fisken	-9.75339
▁følger	-9.75374
▁sist	-9.75465
▁sønn	-9.75466
▁vitenskapen	-9.75564
basert	-9.75796
▁Si	-9.75826
▁studien	-9.7584
▁formen	-9.75965
▁flotte	-9.76063
systemet	-9.76141
▁syne	-9.76185
▁prosess	-9.76279
ære	-9.76299
▁sykdom	-9.76345
▁best	-9.76804
▁politi	-9.76804
▁9	-9.76935
▁egenskap	-9.7702
▁forskning	-9.77105
▁blå	-9.77124
and	-9.77192
▁inkluder	-9.77213
▁syv	-9.77232
▁ansvar	-9.7724
▁Arduino	-9.77272
▁skjønnhet	-9.77272
▁personvern	-9.77273
▁tilby	-9.77274
▁sykehus	-9.77277
▁retning	-9.77292
▁FN	-9.77294
▁nasjon	-9.77299
▁bio	-9.77351
▁hjul	-9.77381
▁billion	-9.77394
▁puste	-9.77426
▁le	-9.77429
▁krigen	-9.77431
▁komplisert	-9.77433
▁stemmer	-9.7744
dig	-9.77443
▁behandle	-9.77452
▁metall	-9.77619
▁styrke	-9.77823
▁valgt	-9.77874
▁forbi	-9.77893
indre	-9.77993
▁eksperimente	-9.78231
▁morsomt	-9.78688
ans	-9.78941
▁m	-9.79075
▁hjelper	-9.79482
▁søk	-9.79513
▁grønn	-9.79805
▁trekke	-9.79918
9	-9.80289
▁funksjon	-9.80321
▁pris	-9.80437
▁stoff	-9.8056
z	-9.80899
▁selskap	-9.80963
▁råd	-9.80977
▁visjon	-9.81386
▁biologi	-9.81424
▁prosjekter	-9.81467
løs	-9.81649
▁punkt	-9.81652
▁oppleve	-9.81807
▁HIV	-9.81817
▁Oklahoma	-9.81817
▁applau	-9.81818
▁utfordre	-9.81818
▁kaos	-9.81824
▁erfaring	-9.81826
▁mektig	-9.81827
▁EN	-9.81833
▁liksom	-9.8185
▁elektrisk	-9.81855
▁populær	-9.81855
▁økologisk	-9.81871
ff	-9.81913
▁fylle	-9.81924
▁syns	-9.81982
▁hastighet	-9.81992
▁videoen	-9.82094
▁kjemisk	-9.82155
▁boble	-9.82192
▁samtale	-9.82196
▁takle	-9.82205
▁læring	-9.82339
▁spesiell	-9.8242
▁foreldrene	-9.82429
ryl	-9.82563
▁beg	-9.82639
▁overflaten	-9.82656
▁bevis	-9.82726
▁kj	-9.82767
▁røde	-9.82977
▁mil	-9.82987
▁ro	-9.83172
▁ordet	-9.83256
▁fenomen	-9.83368
▁poeng	-9.83387
▁Sa	-9.83525
▁Ma	-9.83588
▁Mann	-9.83668
▁løs	-9.83887
▁bit	-9.83929
ling	-9.83948
▁varme	-9.84153
▁måneden	-9.84295
pp	-9.84334
E	-9.84528
vende	-9.84774
▁trykke	-9.84898
,	-9.85091
ir	-9.8512
▁utfordringen	-9.85174
▁mulige	-9.85194
▁telefonen	-9.85241
eg	-9.85335
▁historier	-9.85602
▁herre	-9.8567
▁ka	-9.85756
▁gaten	-9.85769
gående	-9.85788
▁smart	-9.86195
▁framtid	-9.86215
▁drøm	-9.86232
▁objekt	-9.8624
▁tilfeldig	-9.86316
ator	-9.86332
latt	-9.86456
▁latter	-9.86479
via	-9.86537
nemlig	-9.86551
▁super	-9.86573
▁overleve	-9.86578
▁økning	-9.86579
▁California	-9.86579
▁europeisk	-9.86579
▁fungert	-9.86579
▁individe	-9.86579
▁kjøpt	-9.86579
▁positiv	-9.86579
▁Brown	-9.8658
▁markedsføring	-9.8658
▁Menneske	-9.86586
▁ekspert	-9.86587
▁forferdelig	-9.8659
▁intelligens	-9.8662
▁gener	-9.86633
alp	-9.86639
▁tross	-9.86756
▁religiøs	-9.86763
▁treffe	-9.86765
▁hoppe	-9.86803
▁sex	-9.86809
▁titt	-9.86915
▁forståelse	-9.86944
▁pro	-9.86956
▁versjon	-9.86962
▁anti	-9.86981
▁formål	-9.87015
▁klima	-9.87055
▁slo	-9.87062
▁skjermen	-9.87196
▁tide	-9.87393
▁blande	-9.87532
ber	-9.87545
▁tillate	-9.87561
lass	-9.87602
▁kildekode	-9.87718
▁fest	-9.87719
▁tur	-9.87726
▁tjener	-9.87736
bu	-9.87868
ah	-9.87924
▁ledere	-9.87988
▁utfordring	-9.88117
arbeid	-9.8815
▁designer	-9.88202
istisk	-9.88295
▁spill	-9.88315
▁talen	-9.88431
▁bilen	-9.88585
ong	-9.88765
ær	-9.88867
▁Noe	-9.88881
▁ei	-9.8898
huset	-9.89032
▁nyheten	-9.89042
▁presse	-9.89179
ey	-9.8936
▁gav	-9.89386
▁mobil	-9.89406
▁bryte	-9.89508
delen	-9.89553
▁fiske	-9.89636
▁løsningen	-9.89795
▁faren	-9.89871
▁Par	-9.89925
punkt	-9.89973
▁jenten	-9.89979
form	-9.90086
pper	-9.90112
fir	-9.90127
industrien	-9.90192
▁sam	-9.90247
pe	-9.90298
▁dame	-9.90426
▁uken	-9.90652
▁Side	-9.90706
▁operasjon	-9.90719
▁luft	-9.9086
▁periode	-9.90967
▁hj	-9.91133
▁rettferdig	-9.91292
▁sinn	-9.91378
▁forholde	-9.91395
▁Gu	-9.91411
▁70	-9.91579
▁dilemma	-9.91579
▁element	-9.91579
▁publisere	-9.91579
▁atferd	-9.9158
▁elektrisitet	-9.9158
▁klimaendring	-9.91581
▁syk	-9.91581
▁skaffe	-9.91581
▁syntes	-9.91582
▁seriøs	-9.91586
▁begrense	-9.91587
▁kreativitet	-9.91587
hvert	-9.91589
▁havbruk	-9.9159
▁bakgrunn	-9.91631
▁sentral	-9.91644
▁spredt	-9.9171
▁Pro	-9.91729
▁fot	-9.91744
▁Inn	-9.91744
▁ansvarlig	-9.9182
▁innhold	-9.91864
▁oppmerksomhet	-9.91885
▁dårlige	-9.91913
▁barnet	-9.91983
▁vekt	-9.92004
▁penn	-9.92088
▁redusere	-9.92227
▁koste	-9.92229
▁topp	-9.92362
▁spenne	-9.9239
▁kraftig	-9.9253
▁navne	-9.92534
▁framtiden	-9.92824
ck	-9.92875
nd	-9.92902
▁mal	-9.92943
mel	-9.93103
▁karakter	-9.93246
▁lei	-9.93247
▁lagre	-9.93278
▁ingeniør	-9.93434
▁lyset	-9.93483
▁uttrykk	-9.93486
▁Don	-9.93769
▁regne	-9.93832
alt	-9.93949
▁skyld	-9.9408
▁po	-9.94342
▁interesse	-9.94381
▁of	-9.94389
▁sk	-9.94441
x	-9.94677
handler	-9.94813
▁samler	-9.94843
▁d	-9.94853
tic	-9.94936
▁sammenheng	-9.94938
▁Kom	-9.95017
▁minst	-9.95021
ca	-9.95329
▁ber	-9.95583
▁jord	-9.96039
▁Sh	-9.96314
▁analyse	-9.96405
ley	-9.96486
▁sko	-9.96669
▁ferd	-9.96777
▁Washington	-9.96842
▁benytte	-9.96842
▁involvert	-9.96842
▁jenta	-9.96842
▁studert	-9.96843
▁betydelig	-9.96845
▁kontekst	-9.96845
▁levd	-9.96846
▁gjennomført	-9.96847
▁Irak	-9.96848
▁utført	-9.96861
▁behandling	-9.96861
▁rulle	-9.96869
man	-9.9695
▁sørge	-9.96973
▁organisme	-9.96978
▁Iran	-9.96982
▁robot	-9.97047
ional	-9.97049
▁løp	-9.97064
▁danne	-9.97101
▁referanse	-9.97208
▁AM	-9.97257
▁telle	-9.97328
▁sent	-9.97473
sten	-9.97681
F	-9.97731
▁Mars	-9.97753
kall	-9.97754
▁krise	-9.97844
ord	-9.9796
▁gjeng	-9.98029
▁1	-9.98084
▁stamme	-9.98467
▁ungen	-9.98472
ru	-9.98523
▁banen	-9.98604
▁søt	-9.98751
▁spillet	-9.9886
▁arbeider	-9.98928
▁gro	-9.9909
▁sunn	-9.99157
▁Ne	-9.99222
▁slutte	-9.99349
▁teste	-9.99523
▁Mar	-9.99538
▁snu	-9.99598
▁Jer	-9.99807
▁kjørt	-9.99917
▁påvirker	-10.0004
L	-10.0013
▁temae	-10.0035
▁sør	-10.0043
yn	-10.0081
▁arter	-10.009
▁me	-10.0095
▁mørke	-10.0097
au	-10.01
BG	-10.0115
▁6	-10.0123
▁gutt	-10.0161
estill	-10.0163
▁150	-10.0173
ød	-10.0174
▁strøm	-10.0203
▁Vil	-10.0206
▁14	-10.0218
ang	-10.0235
▁relativ	-10.024
▁karriere	-10.024
▁nevron	-10.024
▁relasjon	-10.024
▁diskusjon	-10.024
▁Gwen	-10.024
▁ødelagt	-10.024
▁betydning	-10.024
▁sirkel	-10.024
▁skremme	-10.024
▁mangle	-10.024
▁oppstå	-10.0241
▁standard	-10.0242
▁forklart	-10.0242
▁bestemor	-10.0242
▁takknemlig	-10.0243
▁bytte	-10.0244
▁greit	-10.0244
▁praktisk	-10.0247
▁inkludert	-10.0247
▁tillit	-10.0248
▁nes	-10.0248
▁plukke	-10.0251
▁brann	-10.0258
▁isteden	-10.0261
▁hardt	-10.0265
▁prinsippe	-10.0265
▁rop	-10.0266
▁kjernen	-10.027
▁høyde	-10.0271
▁tilfeldighet	-10.0272
▁lå	-10.0279
▁utvikler	-10.0296
▁nummer	-10.0296
immel	-10.0324
▁snakk	-10.0325
▁medisin	-10.0334
▁sinne	-10.0359
▁lås	-10.0373
▁plakat	-10.0373
ex	-10.0377
midler	-10.0396
▁Gi	-10.0399
▁planeter	-10.0411
▁17	-10.0413
hopp	-10.042
▁språket	-10.0435
mor	-10.0436
▁prisen	-10.0473
▁forbruker	-10.0475
far	-10.0478
lin	-10.0532
▁fortellingen	-10.0537
5000	-10.0552
▁lab	-10.0565
▁inte	-10.0568
▁leser	-10.0577
spill	-10.0579
▁stolt	-10.059
▁perspektiv	-10.0604
▁kilde	-10.0623
▁uttrykke	-10.0626
▁fysikk	-10.0632
é	-10.0642
▁molekyl	-10.0657
M	-10.0663
▁oppdagelse	-10.067
atisk	-10.0673
agen	-10.0721
tak	-10.0725
klere	-10.0726
▁lo	-10.0736
skole	-10.0752
od	-10.0763
▁dans	-10.0765
ember	-10.0786
▁vennen	-10.0789
▁forbindelse	-10.0792
▁kjemi	-10.0798
▁transport	-10.0801
▁økt	-10.0807
ara	-10.0815
▁bidra	-10.0821
henger	-10.0822
▁undersøke	-10.0826
qu	-10.0826
▁tilstand	-10.0827
▁kreativ	-10.0827
▁smerte	-10.0828
▁identitet	-10.0828
▁infrastruktur	-10.0828
▁søppel	-10.0828
▁begrep	-10.0828
▁karbon	-10.0828
▁skritt	-10.0828
▁snill	-10.0828
▁Jorden	-10.0828
▁kognitiv	-10.0828
▁neokort	-10.0828
▁forklaring	-10.0828
▁multi	-10.0828
▁Andr	-10.0829
▁Like	-10.0831
▁tonn	-10.0833
▁vaskemaskin	-10.0834
▁rusmidle	-10.0838
▁Syl	-10.0838
▁besatt	-10.0842
▁fokusere	-10.0853
▁innsiden	-10.0854
▁team	-10.0857
▁søke	-10.0858
▁kontroll	-10.0859
▁spist	-10.0859
▁baby	-10.086
▁innehold	-10.0867
▁Jorda	-10.0874
▁hendelse	-10.0877
▁vev	-10.0878
▁stress	-10.0884
▁triks	-10.0885
▁eksperiment	-10.0885
▁staten	-10.0893
▁biologisk	-10.0896
▁ein	-10.0909
▁nettsiden	-10.0914
▁sykdommer	-10.0914
▁kult	-10.0917
meter	-10.0931
▁ringe	-10.0935
bare	-10.0941
▁mennesket	-10.0941
tra	-10.095
▁80	-10.0959
▁bi	-10.0965
▁dess	-10.0973
han	-10.0974
▁gråt	-10.0979
▁organisasjoner	-10.0988
▁syn	-10.1002
▁bakterien	-10.1015
▁posisjon	-10.1017
▁ansikt	-10.1029
▁pen	-10.1032
ug	-10.1043
▁listen	-10.1065
heter	-10.1081
▁effekt	-10.1082
ster	-10.1083
rev	-10.1087
▁høye	-10.1095
▁7	-10.1104
▁lærere	-10.1116
▁biler	-10.1116
▁situasjonen	-10.1121
slag	-10.113
ningen	-10.1133
▁verst	-10.1134
side	-10.1139
▁sikkerhet	-10.1175
po	-10.1176
▁Mor	-10.1176
▁kald	-10.1183
▁hellig	-10.1203
søk	-10.1217
ag	-10.1228
▁opplevelsen	-10.1231
▁beskjed	-10.1238
▁loven	-10.1242
▁vinne	-10.1243
met	-10.1246
gel	-10.1263
▁greie	-10.1278
trekker	-10.128
▁ra	-10.1297
handling	-10.1302
kildekode	-10.1305
▁rot	-10.1312
▁møter	-10.1315
▁vegg	-10.133
svar	-10.1332
rommet	-10.1361
ket	-10.1363
▁interesser	-10.137
▁hvite	-10.1372
▁svart	-10.1377
tur	-10.138
▁modeller	-10.138
▁Go	-10.1391
▁Co	-10.1415
▁Kenya	-10.1431
ik	-10.1451
▁Hør	-10.1453
▁ansatt	-10.1453
▁oksygen	-10.1453
▁produsert	-10.1453
▁røre	-10.1453
▁umiddelbar	-10.1453
▁utgangspunkt	-10.1453
▁Kongo	-10.1453
▁Kvinne	-10.1453
▁britisk	-10.1453
▁symbol	-10.1453
▁Paul	-10.1453
▁mikroRNA	-10.1453
▁nervecelle	-10.1453
▁isfjell	-10.1453
▁reagere	-10.1453
▁Frank	-10.1453
▁nevne	-10.1453
▁nyhets	-10.1454
▁samling	-10.1454
▁berømt	-10.1454
▁føde	-10.1454
▁skjønt	-10.1454
▁slippe	-10.1454
▁slåss	-10.1455
▁politiker	-10.1455
▁verb	-10.1455
▁Hvilke	-10.1456
▁lederskap	-10.1456
▁reklame	-10.1458
▁akseptere	-10.1459
▁Plu	-10.1464
▁religion	-10.1468
▁kontrollere	-10.1468
▁setning	-10.1469
▁glemme	-10.147
▁Nord	-10.1471
▁vestlig	-10.1473
▁styring	-10.1478
▁plassert	-10.1479
▁dobbelt	-10.1483
▁bro	-10.1483
▁kopp	-10.1485
▁gjennomsnittlig	-10.1486
▁liste	-10.1489
▁hull	-10.1499
▁Bu	-10.1509
ska	-10.1513
▁regionen	-10.1515
▁programme	-10.1523
▁gul	-10.1526
▁Di	-10.1528
▁drept	-10.1532
▁spore	-10.1542
▁ligne	-10.1546
▁trær	-10.1555
▁luften	-10.1559
▁Time	-10.1559
▁medie	-10.1567
▁århundret	-10.157
▁trekk	-10.1578
▁nyttig	-10.1599
▁eier	-10.1622
▁kompleks	-10.1626
▁filme	-10.1631
ill	-10.1637
▁sky	-10.1642
▁stater	-10.1646
▁flyet	-10.1654
▁90	-10.166
▁bevise	-10.1679
▁fler	-10.1705
▁Av	-10.1709
▁sannheten	-10.171
▁pasiente	-10.1714
dd	-10.1715
▁negative	-10.1741
plan	-10.1744
kraft	-10.1747
▁karen	-10.175
R	-10.1769
▁art	-10.1774
▁Sk	-10.1788
▁møtt	-10.1791
▁fremmed	-10.1804
▁vitne	-10.1805
▁Hele	-10.1816
▁stemmen	-10.1816
▁regjering	-10.185
stasjon	-10.1862
▁institusjon	-10.1869
▁Bo	-10.1875
▁Re	-10.1882
ce	-10.19
▁kne	-10.1903
▁avgjøre	-10.1904
syn	-10.1905
▁sto	-10.1907
▁minste	-10.1913
▁sanger	-10.1935
O	-10.1936
▁komplekse	-10.1937
▁lede	-10.1943
ick	-10.195
ua	-10.1976
stammen	-10.1982
▁produkt	-10.2001
vann	-10.2006
▁overflate	-10.2025
▁forsøkt	-10.2037
drett	-10.2039
Tu	-10.2041
▁befolkning	-10.2044
co	-10.2047
▁lide	-10.2078
▁smitte	-10.208
▁åpenbar	-10.2093
▁500	-10.2097
▁forsv	-10.2099
▁Gre	-10.21
▁utdanne	-10.2101
pol	-10.2105
elvfølgelig	-10.2112
▁klasse	-10.2112
▁vaske	-10.2114
▁afrikaner	-10.212
▁dramatisk	-10.212
▁gigantisk	-10.212
▁matematisk	-10.212
▁representere	-10.212
▁Skolen	-10.212
▁invitert	-10.212
▁redskap	-10.212
▁forhindre	-10.212
▁skjebne	-10.212
▁designerbaby	-10.212
▁ekstra	-10.212
▁postkort	-10.212
▁president	-10.212
▁tvil	-10.212
▁nord	-10.212
▁klikke	-10.2121
▁aktivitet	-10.2121
▁vesentlig	-10.2121
▁verdifull	-10.2121
▁Stor	-10.2122
▁historisk	-10.2122
▁erstatte	-10.2122
stri	-10.2123
▁bed	-10.2123
▁kvart	-10.2125
▁Darwin	-10.2126
▁våkne	-10.2126
▁utnytte	-10.2126
▁kriminali	-10.2127
▁spesifikk	-10.2128
▁ego	-10.2128
▁oppføre	-10.2129
▁glass	-10.2129
▁vidunderlig	-10.2129
linjen	-10.2131
▁Far	-10.2133
▁fedrene	-10.2134
▁Tysk	-10.2136
▁Sve	-10.2142
▁moro	-10.2146
▁virus	-10.2146
▁handel	-10.215
▁fritt	-10.2151
▁gull	-10.2156
▁tilsvare	-10.2162
▁lim	-10.2167
▁metafor	-10.2181
▁frisk	-10.2183
▁Vet	-10.2189
▁dype	-10.2193
▁foreslå	-10.2195
50	-10.2196
▁forlate	-10.2199
▁overbevis	-10.2203
pass	-10.2237
▁ball	-10.2243
▁magisk	-10.2246
▁frihet	-10.2252
▁parti	-10.2256
▁strekke	-10.2269
▁aktiv	-10.2284
▁opptre	-10.229
▁rik	-10.2292
▁gal	-10.2314
▁veggen	-10.2315
▁mangel	-10.2321
▁Mu	-10.2321
pet	-10.2324
▁gave	-10.2346
størrelsen	-10.2362
▁tema	-10.2374
ledning	-10.2382
▁tom	-10.2384
▁grader	-10.2388
▁regjeringen	-10.2403
▁sakte	-10.2409
▁lete	-10.241
ves	-10.242
dyr	-10.2431
elt	-10.2437
▁metode	-10.2453
▁di	-10.2459
aksjon	-10.2476
▁betydd	-10.2484
▁drepe	-10.2489
▁isen	-10.2491
later	-10.2517
▁hund	-10.2531
▁medisinen	-10.2547
▁my	-10.2556
▁kameraer	-10.2558
▁Lu	-10.2561
▁sjanse	-10.2568
▁brø	-10.257
▁effekten	-10.2576
▁Git	-10.2576
anse	-10.2578
▁Ra	-10.2595
pen	-10.2596
▁miljøe	-10.2598
tiv	-10.2604
▁skyen	-10.2612
ående	-10.2613
▁All	-10.2616
▁punkte	-10.2616
▁danse	-10.2618
0	-10.2625
kant	-10.263
▁velger	-10.2634
▁Mer	-10.264
jør	-10.2645
tro	-10.2651
▁Ti	-10.2661
▁konsept	-10.2661
ja	-10.2672
bygge	-10.2674
kake	-10.2676
▁følelsen	-10.2676
N	-10.268
løp	-10.2686
Afrika	-10.2688
ike	-10.2689
bit	-10.2696
unnet	-10.2716
▁kamp	-10.2718
red	-10.2736
▁krysse	-10.274
▁overbevise	-10.2746
trykk	-10.2749
▁univers	-10.276
▁nådd	-10.2775
▁kal	-10.2781
▁Dr	-10.2782
barn	-10.2783
▁Jam	-10.2788
▁fokus	-10.2796
▁bygningen	-10.2798
▁sol	-10.28
▁samtalen	-10.2802
▁kar	-10.2805
▁dei	-10.2813
▁fattigdom	-10.2833
gypt	-10.2834
▁presis	-10.2834
emerkelsesverdig	-10.2834
▁Afghan	-10.2834
▁Bestemor	-10.2834
▁Delhi	-10.2834
▁college	-10.2834
▁forurens	-10.2834
▁individuell	-10.2834
▁kylling	-10.2834
▁opplevd	-10.2834
▁opprinnelig	-10.2834
▁poesi	-10.2834
▁eksistert	-10.2834
▁John	-10.2834
▁Tesla	-10.2834
▁automatisk	-10.2834
▁hugge	-10.2834
▁osv	-10.2834
▁smelte	-10.2834
▁etterspørsel	-10.2834
▁Tony	-10.2834
▁ordentlig	-10.2835
▁samhandling	-10.2835
▁nydelig	-10.2835
▁motivasjon	-10.2836
▁alvorlig	-10.2836
▁forslag	-10.2836
▁normal	-10.2837
▁vesen	-10.2837
▁datter	-10.2838
▁Mill	-10.2839
▁vinter	-10.2839
▁Asia	-10.2839
▁drikke	-10.284
▁intelligent	-10.284
▁litteratur	-10.284
▁teknisk	-10.284
▁unik	-10.2841
▁dreve	-10.2843
▁fett	-10.2844
▁utvide	-10.2845
▁kutte	-10.2846
▁kode	-10.2847
▁gress	-10.2851
▁sjekkliste	-10.2851
mal	-10.2851
▁the	-10.2853
▁mag	-10.2857
ria	-10.286
▁Leg	-10.2861
▁organisert	-10.2863
▁apparate	-10.2864
▁utforske	-10.2882
▁tung	-10.2892
so	-10.2895
▁signale	-10.2895
unge	-10.2897
asjonen	-10.2898
isere	-10.2899
▁gjenstand	-10.2902
▁gjeld	-10.2906
jer	-10.2911
▁problemløs	-10.2911
her	-10.2914
▁øre	-10.2916
▁kron	-10.2952
▁antallet	-10.2953
▁organisasjon	-10.2954
▁peker	-10.2956
▁fuglen	-10.2956
▁farlig	-10.2959
▁bank	-10.297
▁Dan	-10.2972
▁sikt	-10.2975
▁Kor	-10.2987
▁andel	-10.299
▁bunnen	-10.2991
▁Sam	-10.2993
▁kollektiv	-10.3001
fi	-10.3003
sept	-10.3006
▁vill	-10.3013
up	-10.3013
▁utgjør	-10.3018
▁eksperimenter	-10.3024
▁gj	-10.3028
▁trening	-10.3031
▁militær	-10.3036
▁husk	-10.3051
▁avfall	-10.3073
▁borde	-10.3092
rik	-10.3094
▁besøke	-10.3095
▁blad	-10.31
sia	-10.3102
▁sun	-10.3116
und	-10.3125
▁Nat	-10.3144
▁revolusjon	-10.3145
jev	-10.3147
▁stoffe	-10.3157
brudd	-10.3158
▁sær	-10.317
lei	-10.3187
▁produkter	-10.3188
▁ok	-10.3215
▁tråd	-10.3219
▁plasten	-10.3227
måte	-10.3242
▁linje	-10.3254
▁sterke	-10.3279
▁privat	-10.3323
▁hemmelighet	-10.3324
▁bar	-10.3339
▁delta	-10.334
▁poenge	-10.3344
▁finn	-10.3351
▁melding	-10.3359
åle	-10.343
▁planten	-10.3432
stat	-10.344
▁vanskelige	-10.3442
▁uro	-10.3443
forskning	-10.345
laten	-10.3451
ood	-10.3453
Europa	-10.3457
prøve	-10.3457
hu	-10.3462
punkte	-10.347
▁drømme	-10.3483
▁su	-10.3492
fisk	-10.3509
▁scene	-10.3517
bok	-10.3522
▁løst	-10.3529
mar	-10.3541
▁filosofi	-10.3557
▁Ka	-10.3558
▁kjerne	-10.3565
verk	-10.3565
▁dikt	-10.3569
▁bein	-10.3582
ologi	-10.3588
▁Før	-10.3596
▁fakt	-10.3598
▁ski	-10.3602
▁Malteserfalk	-10.3603
▁Harvard	-10.3603
▁Ushahidi	-10.3603
▁alkohol	-10.3603
▁artikkel	-10.3603
▁dialog	-10.3603
▁gratis	-10.3603
▁inspirere	-10.3603
▁mamma	-10.3603
▁sigarett	-10.3603
▁Evan	-10.3603
▁fornuft	-10.3603
▁konstant	-10.3603
▁ukjent	-10.3603
▁innbygger	-10.3604
▁Appl	-10.3604
▁utstyr	-10.3604
▁fallskjerm	-10.3604
▁egoistisk	-10.3604
▁forbli	-10.3604
▁undre	-10.3604
▁sikre	-10.3604
▁sult	-10.3604
▁Charles	-10.3605
▁uavhengig	-10.3605
▁Rob	-10.3605
▁lukke	-10.3605
▁pakke	-10.3606
▁overraskelse	-10.3606
▁22	-10.3606
▁videregående	-10.3607
▁klem	-10.3607
▁fryktelig	-10.3608
▁unntak	-10.3608
▁Pink	-10.3609
▁objektiv	-10.361
▁original	-10.361
▁kontinente	-10.3613
▁Bob	-10.3618
▁tenkning	-10.3618
va	-10.362
▁fjell	-10.3622
▁fulgt	-10.3622
▁relatert	-10.3622
▁sentrum	-10.3622
▁trygg	-10.3624
▁Husk	-10.3626
▁Ny	-10.3627
▁trent	-10.3629
▁budsjette	-10.3631
▁myk	-10.3632
▁rase	-10.3632
▁dyrke	-10.3633
▁grunnlag	-10.3638
▁forsto	-10.3638
▁kjøtt	-10.3646
▁Tom	-10.3649
▁annonser	-10.3654
▁tv	-10.3658
▁markeds	-10.3665
▁arbeide	-10.3666
▁objektet	-10.3671
▁brutt	-10.3673
▁Verdens	-10.3681
▁sannsynlighet	-10.3683
fo	-10.3685
▁seng	-10.3691
▁Wi	-10.3692
▁Eng	-10.3694
▁tjeneste	-10.3706
▁Tre	-10.3712
▁stol	-10.3721
▁ære	-10.3725
▁alternative	-10.3735
▁hvit	-10.3736
somme	-10.3738
ald	-10.3762
▁målt	-10.3763
▁ordene	-10.3768
▁programmerer	-10.3769
fas	-10.377
▁tradisjonell	-10.3781
ju	-10.3785
▁behøve	-10.3791
tyr	-10.3793
▁sort	-10.38
▁redd	-10.38
epart	-10.3821
ks	-10.3828
▁fangens	-10.3838
istan	-10.3841
▁detaljer	-10.3852
▁fortiden	-10.3854
▁evnen	-10.3858
▁universitete	-10.3859
▁live	-10.386
ds	-10.3863
bbe	-10.3881
ub	-10.3888
▁Fl	-10.389
▁gjette	-10.3898
æren	-10.3901
▁stil	-10.3905
▁fattig	-10.3913
▁vind	-10.3924
▁daglig	-10.3928
alderen	-10.3933
▁regn	-10.3933
▁langs	-10.3937
ice	-10.3937
ium	-10.3945
▁op	-10.395
▁Bur	-10.3957
▁ca	-10.3958
asjoner	-10.3961
legge	-10.397
▁katt	-10.3979
▁ris	-10.3996
▁o	-10.4003
stid	-10.4006
▁post	-10.4022
▁Bra	-10.4023
kode	-10.4037
bord	-10.405
▁Ala	-10.4073
▁halvt	-10.4094
kort	-10.41
bil	-10.4113
▁fare	-10.4118
▁orden	-10.4127
▁pasienten	-10.4131
▁start	-10.4139
▁vindu	-10.4144
gjøre	-10.4145
12	-10.4156
▁spurt	-10.4161
▁Kunn	-10.4168
sikt	-10.4174
nivå	-10.4193
▁oppgaver	-10.4198
ps	-10.4198
▁lot	-10.42
▁silke	-10.4201
▁produkte	-10.4222
ister	-10.4225
▁300	-10.4226
kket	-10.4238
▁linjen	-10.4246
▁måling	-10.4248
▁konsekvens	-10.4264
politikk	-10.4278
prosjekt	-10.4281
øv	-10.4283
marked	-10.4283
▁nede	-10.4285
fly	-10.4291
▁45	-10.4291
▁alternativ	-10.4295
▁21	-10.4301
▁folket	-10.431
▁minutt	-10.4318
▁nettside	-10.4334
▁sans	-10.4348
▁bunn	-10.4356
merke	-10.4365
▁studenten	-10.4373
▁stimul	-10.4379
▁tidsskrifte	-10.4379
ygg	-10.4382
▁kirurgi	-10.4394
▁gjennomsnitt	-10.4397
ID	-10.4399
wan	-10.4406
trukket	-10.4434
▁fjerde	-10.4435
▁advokat	-10.4437
▁innflytelse	-10.4437
▁mikrofon	-10.4437
▁tilnærming	-10.4437
▁London	-10.4437
▁donor	-10.4437
▁innrømme	-10.4437
▁involvere	-10.4437
▁kokain	-10.4437
▁konklusjon	-10.4437
▁lytte	-10.4437
▁søl	-10.4437
▁trappen	-10.4437
▁gjenvinne	-10.4437
▁simpelt	-10.4437
▁skuffe	-10.4437
▁sukker	-10.4437
▁klatre	-10.4437
▁oppførsel	-10.4437
▁hjernebark	-10.4437
▁uendelig	-10.4437
▁stikke	-10.4437
▁Lærer	-10.4437
▁rammeverk	-10.4437
▁befinne	-10.4437
▁undersøkt	-10.4437
▁overvelde	-10.4437
▁lurt	-10.4437
▁sirkle	-10.4437
▁kondom	-10.4437
▁partner	-10.4437
▁Brett	-10.4437
▁sjelden	-10.4437
rettighete	-10.4437
▁radikal	-10.4438
▁oven	-10.4438
▁reist	-10.4438
flod	-10.4438
imee	-10.4438
▁Anders	-10.4438
akistan	-10.4438
▁Hall	-10.4439
▁CO	-10.444
▁sykdommen	-10.444
▁Vær	-10.4441
siktig	-10.4442
▁dusin	-10.4442
▁finans	-10.4442
▁borger	-10.4443
▁begeistr	-10.4444
veis	-10.4446
▁utføre	-10.4446
▁diagramme	-10.4449
▁ild	-10.445
▁oppskrift	-10.445
▁printe	-10.4454
▁kapital	-10.4457
▁skygge	-10.4458
▁opprør	-10.446
▁kone	-10.4462
legging	-10.4469
▁synd	-10.4471
▁Gå	-10.4476
▁lange	-10.4478
▁mønster	-10.448
isert	-10.448
▁blanding	-10.4483
▁modig	-10.4483
▁klær	-10.4485
hop	-10.4488
▁lidelse	-10.4492
gra	-10.4496
▁elever	-10.4497
▁drev	-10.4499
stilling	-10.4531
flu	-10.4534
▁mødre	-10.4536
▁synlig	-10.4544
jernen	-10.4546
▁oppover	-10.455
▁maleri	-10.4556
▁organisk	-10.4556
tall	-10.4568
▁fag	-10.4569
dé	-10.457
ina	-10.4577
10	-10.4586
▁Po	-10.4587
▁biblioteke	-10.4592
▁Helt	-10.4603
▁samfunns	-10.4603
ive	-10.4605
▁dyrene	-10.4605
▁sivilisasjonen	-10.4605
▁hest	-10.4608
▁generell	-10.4612
rike	-10.4615
▁konsekvensen	-10.4617
▁plassere	-10.4619
▁medisiner	-10.4626
▁Mine	-10.4627
▁forsknings	-10.4634
▁Fisk	-10.4657
gjen	-10.468
▁stjerne	-10.4689
okk	-10.4693
ktiv	-10.4717
▁fysikken	-10.4725
østen	-10.4737
▁Na	-10.4748
jo	-10.4758
▁tidspunkte	-10.4794
cel	-10.4805
ater	-10.4808
▁strukturen	-10.481
▁dum	-10.4858
▁hei	-10.4861
iz	-10.4865
hold	-10.4879
▁teorien	-10.4881
dagen	-10.4882
▁eksperimentere	-10.4885
dre	-10.4887
lek	-10.4887
▁ko	-10.4901
probleme	-10.491
▁bek	-10.4911
bart	-10.4925
▁overføre	-10.4942
ire	-10.4946
▁tiåre	-10.4959
▁tap	-10.4971
▁tanker	-10.4974
▁måler	-10.4974
▁spenning	-10.4981
▁overfor	-10.5006
▁endringen	-10.5009
material	-10.5025
▁Ni	-10.504
▁fenomene	-10.5057
▁185	-10.5064
▁årsak	-10.5065
▁tekst	-10.5067
▁fart	-10.5073
▁tegn	-10.5086
▁mark	-10.5086
▁bære	-10.5101
off	-10.5109
rie	-10.5113
▁militære	-10.5114
▁risiko	-10.5118
øye	-10.5123
ortsett	-10.5124
▁balanse	-10.5124
rakk	-10.5125
▁forme	-10.5125
▁stein	-10.5139
▁forvirre	-10.5148
▁voksen	-10.5156
▁flinke	-10.5158
▁forberede	-10.5174
▁generel	-10.5183
ørene	-10.5187
▁høyest	-10.5188
▁letter	-10.519
anlegg	-10.5196
kultur	-10.5198
stoff	-10.5202
plass	-10.5202
▁stre	-10.5206
rk	-10.5206
▁organisasjonen	-10.5211
rale	-10.5212
ull	-10.5214
farge	-10.5216
ball	-10.5217
▁elv	-10.522
▁feire	-10.5226
▁lyden	-10.5233
senter	-10.5233
trær	-10.5237
▁stilt	-10.5247
▁Verden	-10.5254
lager	-10.5268
▁hendelsen	-10.5275
▁industri	-10.5285
▁sanse	-10.5287
gift	-10.5298
▁fjern	-10.5299
▁muslim	-10.5299
▁fellesskap	-10.5308
▁psykologi	-10.5311
▁kopi	-10.5316
lighet	-10.534
▁nabo	-10.5342
rapport	-10.5345
bølge	-10.5345
▁Gjennom	-10.5346
▁engasjere	-10.5346
▁ettermiddag	-10.5346
▁fabrikk	-10.5346
▁ultimat	-10.5346
▁Mexico	-10.5346
▁atmosfære	-10.5346
▁avsløre	-10.5346
▁diskutere	-10.5346
▁engasjert	-10.5346
▁fascinere	-10.5346
▁grasrot	-10.5346
▁kombinere	-10.5346
▁kommersiell	-10.5346
▁marihuana	-10.5346
▁rimelig	-10.5346
▁rituale	-10.5346
▁ulovlig	-10.5346
▁drukne	-10.5346
▁genmodifiser	-10.5346
▁interaksjon	-10.5346
▁kommando	-10.5346
▁trafikk	-10.5346
▁narrative	-10.5346
▁barbari	-10.5346
▁klinisk	-10.5346
▁regnskog	-10.5346
▁elektronisk	-10.5346
▁definere	-10.5346
▁trykkpresse	-10.5346
▁definitiv	-10.5346
▁Jesu	-10.5346
▁Rist	-10.5346
▁Natur	-10.5346
▁matvare	-10.5346
▁sivil	-10.5346
▁null	-10.5346
▁konkret	-10.5347
▁industriell	-10.5347
▁198	-10.5347
▁skam	-10.5348
▁vond	-10.5349
▁søvn	-10.5349
▁16	-10.535
▁ventet	-10.5351
▁slapp	-10.5351
▁utvalg	-10.5351
▁blekkspruten	-10.5351
▁omgivelse	-10.5353
▁oppfatning	-10.5353
▁kritisk	-10.5354
▁symptome	-10.5354
▁kikke	-10.5358
PS	-10.5358
▁forbedring	-10.5358
▁Uten	-10.5361
▁visst	-10.5362
▁Matt	-10.5372
▁undervise	-10.5373
▁forbinde	-10.5374
▁viljestyr	-10.5377
▁Ca	-10.5378
▁klippe	-10.5381
▁konkurranse	-10.5382
▁basis	-10.5382
svekke	-10.5385
▁skatte	-10.5385
▁13	-10.5386
▁akademisk	-10.5386
▁lukte	-10.5386
▁snudd	-10.5387
▁Los	-10.5391
▁forhåpentlig	-10.5391
▁professor	-10.5397
▁stål	-10.5398
uk	-10.5399
▁teppe	-10.5399
wei	-10.5406
▁stige	-10.5406
område	-10.5407
▁Ga	-10.542
▁smarte	-10.5421
▁investeringer	-10.5424
ap	-10.5428
▁utslipp	-10.5441
▁fransk	-10.5445
▁kule	-10.5453
▁brette	-10.5457
▁rammen	-10.5461
▁arbeids	-10.5466
▁bloggen	-10.5472
▁kompleksiteten	-10.5472
undet	-10.5472
materiale	-10.5484
▁oppgave	-10.549
▁opptatt	-10.55
▁laboratorie	-10.5509
▁pan	-10.5511
emmel	-10.5512
▁figuren	-10.5514
løse	-10.5521
messig	-10.5526
▁Tan	-10.5531
▁landskape	-10.5537
▁journalist	-10.5544
▁koden	-10.5545
løsning	-10.5546
▁bevegelsen	-10.556
▁valgene	-10.5561
▁stopp	-10.5562
unn	-10.5562
▁al	-10.5568
arbeider	-10.5569
holdt	-10.5576
▁forsvare	-10.5587
revis	-10.5593
▁bokstaven	-10.5595
▁Col	-10.5596
▁fine	-10.5598
▁fil	-10.5608
▁legen	-10.5629
▁au	-10.5629
sti	-10.5637
▁lette	-10.5639
▁ku	-10.564
▁ordne	-10.5646
▁opptak	-10.5657
▁forbruke	-10.5657
▁reaksjon	-10.5667
▁steden	-10.5681
standen	-10.5686
▁sjansen	-10.5699
syne	-10.5703
▁1,	-10.5704
ngene	-10.5717
ox	-10.5717
▁vindue	-10.5722
▁atom	-10.5723
venn	-10.5748
▁biten	-10.5763
ation	-10.5764
kal	-10.5767
▁gale	-10.579
▁utviklingen	-10.5792
▁besøkt	-10.5814
slått	-10.5846
bilde	-10.5865
▁svi	-10.5869
ight	-10.589
▁Sal	-10.5891
ach	-10.5891
▁løser	-10.5911
▁danser	-10.5923
topp	-10.5925
▁tidspunkt	-10.593
▁Hol	-10.5936
▁struktur	-10.5937
itasjon	-10.5942
▁farger	-10.5946
▁co	-10.596
▁innse	-10.5971
▁glemt	-10.5973
▁tilpasse	-10.5982
▁prøv	-10.5982
vin	-10.6007
▁fremme	-10.6014
▁Ste	-10.6017
▁unger	-10.6037
klon	-10.604
▁kor	-10.6042
▁tog	-10.6049
følge	-10.6054
▁ru	-10.6059
▁tjene	-10.6071
▁nytte	-10.6073
ini	-10.6074
ford	-10.6077
▁bla	-10.6083
za	-10.6086
heve	-10.6088
ark	-10.6091
art	-10.6111
iff	-10.6114
▁lagret	-10.6119
▁tilstede	-10.6127
▁felt	-10.6144
smessig	-10.6147
▁isbre	-10.6162
▁400	-10.6169
pinne	-10.617
menn	-10.619
▁kapasitet	-10.6193
vær	-10.6195
kreft	-10.6199
ville	-10.6203
▁barndom	-10.6215
fag	-10.6219
▁beholde	-10.622
▁Ju	-10.6229
▁Best	-10.623
▁Van	-10.6231
virke	-10.6236
▁opphav	-10.6256
▁boblen	-10.6264
kret	-10.6265
75	-10.6267
▁arten	-10.6284
▁pa	-10.6284
mønster	-10.6286
▁20.	-10.6287
havet	-10.6289
mark	-10.6292
signal	-10.6296
elen	-10.6303
▁evig	-10.6304
▁barne	-10.6305
var	-10.6327
▁liter	-10.6328
ransiti	-10.6338
▁nervøs	-10.6345
konferanse	-10.6346
temperatur	-10.6346
▁LOLcat	-10.6346
▁Smith	-10.6346
▁Soldat	-10.6346
▁bakkenivå	-10.6346
▁engasjement	-10.6346
▁eventyr	-10.6346
▁hylle	-10.6346
▁innvirkning	-10.6346
▁investere	-10.6346
▁islamsk	-10.6346
▁kjemikalie	-10.6346
▁kvadrat	-10.6346
▁laparoskopi	-10.6346
▁lønn	-10.6346
▁motsetning	-10.6346
▁oppvarming	-10.6346
▁særskilt	-10.6346
▁tryllekunstner	-10.6346
▁tørk	-10.6346
▁uvanlig	-10.6346
▁Nobelpris	-10.6346
▁beboelig	-10.6346
▁identifiser	-10.6346
▁innsats	-10.6346
▁synapse	-10.6346
▁vitenskapsmenn	-10.6346
▁flagg	-10.6346
▁intensjon	-10.6346
▁klassisk	-10.6346
▁Jenna	-10.6346
▁frustr	-10.6346
▁Twitter	-10.6346
▁dytte	-10.6346
▁portrett	-10.6346
▁myndighete	-10.6346
▁ryggen	-10.6346
▁spare	-10.6346
▁klimagass	-10.6346
▁stemt	-10.6346
▁identisk	-10.6346
▁kjedelig	-10.6346
▁beregne	-10.6346
▁galakse	-10.6346
▁lærdommen	-10.6346
▁solgt	-10.6346
▁Midt	-10.6346
▁dreie	-10.6346
▁blomstre	-10.6346
▁maskinvare	-10.6347
▁angripe	-10.6347
▁skadd	-10.6347
▁nøye	-10.6347
leksjon	-10.6347
▁hud	-10.6348
▁terrorist	-10.6348
nging	-10.6349
▁fersk	-10.635
▁Star	-10.6351
▁gjennomføre	-10.6351
dra	-10.6352
▁klode	-10.6352
▁anelse	-10.6353
▁reell	-10.6354
▁pil	-10.6354
▁infeksjon	-10.6355
▁påvirkning	-10.6355
▁relevant	-10.6355
▁representert	-10.6355
liggen	-10.6357
▁israelsk	-10.6357
▁plage	-10.6359
▁molekylær	-10.6359
▁innsikt	-10.6362
▁elevene	-10.6363
lik	-10.6364
▁Hom	-10.6366
▁sykkel	-10.6371
▁brenne	-10.6371
▁globalisering	-10.6372
▁tradisjon	-10.6373
▁motstand	-10.6374
▁morsomme	-10.6377
nak	-10.6379
▁abstrakt	-10.638
damp	-10.6381
▁kunden	-10.6381
▁angrep	-10.6386
mål	-10.639
▁skjult	-10.6396
▁overgang	-10.6398
▁hendt	-10.6399
dia	-10.64
▁føtte	-10.6403
▁vinkel	-10.6403
▁prosessering	-10.6405
▁smittede	-10.6406
▁graf	-10.6406
▁informasjons	-10.6415
▁sopp	-10.6415
▁nærmest	-10.6416
▁trinn	-10.6419
▁gutten	-10.6423
▁2000	-10.6432
▁modifisert	-10.6439
▁fantasien	-10.6443
▁fritid	-10.6447
oster	-10.6449
▁gripe	-10.6451
▁skrudd	-10.6463
spiller	-10.6465
▁leire	-10.648
▁gud	-10.6483
▁sau	-10.6485
▁kontore	-10.6485
▁bånd	-10.6489
▁Første	-10.6492
plank	-10.6493
▁konflikten	-10.6507
▁skifte	-10.6508
▁tilgjengelighet	-10.6508
▁inntekten	-10.651
▁motor	-10.6513
▁ark	-10.6515
▁røyk	-10.6531
sykdommer	-10.654
▁hate	-10.6556
▁lurer	-10.6576
▁kommunikasjons	-10.6585
▁ofre	-10.6587
sjen	-10.6594
▁havne	-10.6597
stru	-10.6616
▁kropps	-10.6622
▁isbreen	-10.6633
▁mørk	-10.6639
dommen	-10.6642
muren	-10.6646
▁sanne	-10.6648
▁strømme	-10.6662
kule	-10.6665
▁halve	-10.6667
ink	-10.6671
liv	-10.6683
▁kanten	-10.669
▁høste	-10.6704
ekker	-10.6704
kjede	-10.6704
▁Su	-10.6707
▁glem	-10.6711
▁runde	-10.6719
▁bærer	-10.6723
fylt	-10.6728
eller	-10.6739
▁Bos	-10.6743
▁folde	-10.6749
▁kva	-10.6754
▁vinner	-10.677
▁Opp	-10.6778
værende	-10.6797
▁motta	-10.6804
kart	-10.6806
▁Guds	-10.6823
lem	-10.6838
▁frigjøre	-10.6838
hal	-10.684
imp	-10.6843
▁kilden	-10.6851
▁statistikk	-10.6852
▁villig	-10.6855
las	-10.687
▁varm	-10.6876
▁merkelige	-10.6876
▁opprettholde	-10.688
▁presser	-10.6882
abel	-10.6912
apt	-10.6933
▁kreften	-10.6937
maskin	-10.6937
▁w	-10.6939
ulle	-10.6955
▁ledet	-10.6958
▁katten	-10.6963
▁helhet	-10.6969
▁metoden	-10.6973
▁klokke	-10.6976
system	-10.6979
▁mester	-10.6984
▁ender	-10.6991
▁kanal	-10.6992
▁tone	-10.6994
▁nærhet	-10.6997
ligne	-10.7049
▁spor	-10.7058
▁ansikte	-10.7081
▁morsom	-10.7081
▁Mart	-10.7112
kris	-10.7114
▁oppfinnelse	-10.7127
▁Sp	-10.7137
ool	-10.7187
▁mantisreke	-10.7196
▁kollektive	-10.7197
▁Viss	-10.7204
▁lure	-10.7208
▁verdenskrig	-10.7208
▁ekstremist	-10.7237
▁2.	-10.7242
stille	-10.7246
▁hæl	-10.7249
spor	-10.7253
▁sikkerhets	-10.7268
▁filosof	-10.727
skrift	-10.7281
▁strategi	-10.7288
snitt	-10.729
ager	-10.729
▁deltake	-10.7292
▁oppfatte	-10.7292
språk	-10.7294
▁sy	-10.7294
folk	-10.73
gud	-10.7304
kutt	-10.7306
kilde	-10.7309
kon	-10.7311
▁styrken	-10.7313
døde	-10.7316
▁adferd	-10.7316
▁gård	-10.7329
programme	-10.7331
▁fantasi	-10.7352
▁markede	-10.7363
▁søken	-10.7373
åring	-10.7379
▁teknolog	-10.7379
gul	-10.7382
fil	-10.7392
▁kunstner	-10.7411
▁Universit	-10.7411
film	-10.7412
▁samarbeide	-10.7419
▁trans	-10.7426
▁nysgjerrig	-10.7427
▁mikro	-10.7435
▁reisen	-10.7436
hode	-10.7437
▁hemmelig	-10.7443
▁svak	-10.7448
bevegelsen	-10.745
▁jul	-10.7453
drift	-10.7453
bøke	-10.7453
▁kvitt	-10.7455
▁hjørne	-10.7455
▁defini	-10.7456
▁praksis	-10.7457
▁titusen	-10.7457
▁trussel	-10.7457
▁Georgetown	-10.7457
▁Maskin	-10.7457
▁berøre	-10.7457
▁eksistens	-10.7457
▁fascinert	-10.7457
▁foredragsholder	-10.7457
▁innovativ	-10.7457
▁isolert	-10.7457
▁kontinuerlig	-10.7457
▁observere	-10.7457
▁online	-10.7457
▁presentere	-10.7457
▁prosedyre	-10.7457
▁pålitelig	-10.7457
▁reporter	-10.7457
▁røtte	-10.7457
▁skremt	-10.7457
▁søndag	-10.7457
▁CRISPR	-10.7457
▁illusjon	-10.7457
▁sensore	-10.7457
▁araber	-10.7457
▁kolleger	-10.7457
▁motsatt	-10.7457
▁undervisning	-10.7457
▁uvente	-10.7457
▁tuppen	-10.7457
▁Hous	-10.7457
▁fotografie	-10.7457
▁Thom	-10.7457
▁oppfordre	-10.7457
▁rapportert	-10.7457
▁salg	-10.7457
▁stanse	-10.7457
▁lunge	-10.7457
▁ubehagelig	-10.7457
▁spektakulær	-10.7457
▁fødsel	-10.7457
▁legevitenskap	-10.7457
▁radio	-10.7457
▁funksjonshemme	-10.7458
▁mislykke	-10.7458
▁søkelys	-10.7458
▁partikle	-10.7458
▁energiforbruk	-10.7458
▁kartlegge	-10.7458
▁avvik	-10.7458
▁straffe	-10.7459
▁Finn	-10.7459
▁hule	-10.7459
▁65	-10.7459
▁tillatelse	-10.746
▁betjent	-10.746
▁27	-10.746
▁medlidenhet	-10.746
▁genererer	-10.7461
riplett	-10.7461
▁Eco	-10.7461
▁spark	-10.7461
▁jevn	-10.7461
▁avansert	-10.7462
▁undertrykke	-10.7463
typisk	-10.7464
▁genial	-10.7464
▁Bill	-10.7464
▁32	-10.7464
▁anerkjenne	-10.7465
▁tenåring	-10.7465
▁Bang	-10.7465
▁evolusjonær	-10.7466
lipp	-10.7467
▁overdose	-10.7467
▁rekrutter	-10.7467
evolusjonen	-10.7468
▁fremgang	-10.7468
▁Sky	-10.7468
▁terning	-10.7468
kartlagt	-10.7469
▁overskudd	-10.7469
▁grep	-10.7469
▁fr	-10.7469
▁finger	-10.747
▁istede	-10.747
▁syvende	-10.747
▁Wall	-10.7473
▁oversikt	-10.7476
▁11.	-10.7476
▁Mc	-10.7478
▁kategori	-10.7479
yw	-10.7479
▁haug	-10.748
▁kinesisk	-10.7481
profil	-10.7483
lege	-10.7483
▁gen	-10.7483
veie	-10.7483
▁reb	-10.7484
▁plattform	-10.7484
▁spredning	-10.7485
▁betalt	-10.7485
▁debatt	-10.7485
▁kopiere	-10.7486
▁lysbilde	-10.7486
▁algoritm	-10.7487
▁legemidle	-10.7488
▁samhandle	-10.7488
ått	-10.7492
▁personlighet	-10.7492
▁øvelse	-10.7493
▁Anta	-10.7497
▁økte	-10.7498
▁Canad	-10.75
▁epidemi	-10.7503
▁majoritet	-10.7503
▁ulykke	-10.7503
▁ankomme	-10.7503
▁gass	-10.7508
▁Oh	-10.7509
traff	-10.7519
▁salgsautomat	-10.752
▁elektronikk	-10.7521
▁syklus	-10.7521
▁misbruk	-10.7521
sjefen	-10.7523
mtrent	-10.7523
▁tegning	-10.7527
▁kulturell	-10.7529
akterie	-10.753
treff	-10.7532
▁drille	-10.7532
▁80-	-10.7532
▁tidsskrift	-10.7536
▁program	-10.7539
▁Bro	-10.754
▁koblinge	-10.7543
grave	-10.7543
▁blåse	-10.7544
▁kurve	-10.7551
▁smake	-10.7553
▁doble	-10.7558
▁tål	-10.7559
▁bryst	-10.7561
▁oppdrag	-10.7566
▁omfang	-10.7569
▁lokalsamfunn	-10.757
foto	-10.757
opter	-10.757
▁tilhører	-10.757
▁sørlig	-10.7573
▁aksen	-10.7573
▁visuell	-10.7582
▁hør	-10.7584
hip	-10.7596
teknologien	-10.7604
▁para	-10.7615
▁vilje	-10.7621
▁fylt	-10.7622
▁gift	-10.7624
▁tetthet	-10.7625
▁ape	-10.7628
▁kollapse	-10.7635
▁mønstere	-10.7639
▁filosofer	-10.7648
▁protes	-10.7649
holde	-10.7662
▁kurs	-10.7668
▁marked	-10.7671
▁omfavne	-10.7674
▁oppgaven	-10.7676
tz	-10.7681
▁nyte	-10.7681
▁lovlig	-10.7687
▁pu	-10.7689
▁opplagt	-10.771
▁øy	-10.7723
▁drømmen	-10.7723
▁Wa	-10.7726
▁lavt	-10.7731
▁registrert	-10.7732
▁Ig	-10.7734
▁produksjons	-10.7735
talen	-10.7745
▁vurdere	-10.7746
kost	-10.7752
▁etablert	-10.7753
▁matte	-10.776
▁kampen	-10.7763
▁mysterie	-10.7782
▁sl	-10.7788
▁oppfinnelsen	-10.7798
▁Ham	-10.7802
▁dags	-10.7806
▁etikk	-10.7808
▁avgjørelse	-10.7813
▁sover	-10.7865
▁hemmeligheten	-10.7911
dy	-10.7917
▁mån	-10.7922
▁ille	-10.7925
▁sove	-10.7931
▁sønnen	-10.7951
▁kostnaden	-10.796
▁industrien	-10.7961
▁klokk	-10.7966
▁perspektive	-10.7971
ki	-10.7979
▁sport	-10.8013
▁rollen	-10.8033
▁avis	-10.8033
lk	-10.8035
fri	-10.8044
▁enklest	-10.8056
▁Kat	-10.8058
▁skjerm	-10.8061
▁landsbyen	-10.807
▁etterlate	-10.807
▁næring	-10.8077
▁bryter	-10.8079
▁modellen	-10.8085
ya	-10.8098
▁nabolage	-10.8114
lot	-10.8117
lekte	-10.8142
evne	-10.8143
▁forbruk	-10.818
▁sammenhengen	-10.8185
nene	-10.8198
vol	-10.8199
▁filtre	-10.82
rum	-10.8203
heim	-10.8209
dus	-10.8212
▁diagnose	-10.8234
linje	-10.8244
▁Angel	-10.8252
anser	-10.8264
▁binde	-10.8266
30	-10.8283
▁sommer	-10.8285
ci	-10.8287
▁Ru	-10.8288
▁kostnad	-10.8293
▁bedrift	-10.8301
▁sivilisasjon	-10.8334
▁mur	-10.834
▁handlingen	-10.8354
▁forestillinge	-10.8355
▁Kl	-10.8362
▁gate	-10.8367
▁Tu	-10.8374
kkelig	-10.8385
▁søker	-10.8387
▁behøv	-10.8403
▁hum	-10.8404
▁røyke	-10.8411
▁nærme	-10.8413
▁blind	-10.8414
▁lån	-10.8416
▁utviklings	-10.8421
▁tradisjonel	-10.8435
▁dis	-10.845
▁stu	-10.8455
V	-10.8455
▁utstilling	-10.8456
W	-10.8456
▁punkter	-10.8461
▁no	-10.847
▁programmere	-10.8471
▁skala	-10.8479
▁spi	-10.848
klar	-10.8493
kurs	-10.8507
lokk	-10.851
ronisk	-10.8518
▁kontor	-10.852
skudd	-10.8532
▁kompleksitet	-10.8535
▁blogg	-10.8544
strømmen	-10.8549
forfatter	-10.8551
motor	-10.8554
mødre	-10.8556
miljøe	-10.8556
bunnen	-10.8557
J	-10.8558
design	-10.8558
direkte	-10.856
sikkerhet	-10.8561
menneske	-10.8561
skala	-10.8561
mellom	-10.8562
navn	-10.8562
20	-10.8563
af	-10.8564
▁konstruksjon	-10.8572
▁mis	-10.8574
hjelp	-10.8574
▁klimae	-10.8577
ny	-10.8584
data	-10.8585
bånde	-10.8587
problem	-10.859
læring	-10.8592
forhold	-10.8596
▁damen	-10.8597
slå	-10.86
▁ramme	-10.86
min	-10.8602
livet	-10.8612
butikk	-10.8615
graf	-10.8617
▁dumme	-10.8625
butikken	-10.8638
lia	-10.8642
▁finansier	-10.8661
▁lemme	-10.8667
▁tull	-10.8671
▁ankom	-10.8675
▁akademi	-10.8676
▁argument	-10.868
▁tids	-10.8681
▁Ko	-10.8687
sjekk	-10.8687
▁interne	-10.8687
bane	-10.8699
rktis	-10.8702
aktig	-10.8705
▁ungdom	-10.8705
straks	-10.8707
▁gruve	-10.8707
▁mono	-10.8707
▁bøt	-10.8707
▁eugenikk	-10.8707
▁fotavtrykk	-10.8707
▁frø	-10.8707
▁jukse	-10.8707
▁juni	-10.8707
▁katedral	-10.8707
▁nevrovitenskap	-10.8707
▁sceneskrekk	-10.8707
▁snø	-10.8707
▁søst	-10.8707
▁trappeoppgang	-10.8707
▁Francisco	-10.8707
▁Kjærlighet	-10.8707
▁Richard	-10.8707
▁Spørsmål	-10.8707
▁antakelig	-10.8707
▁belønne	-10.8707
▁dodoskjelett	-10.8707
▁dybde	-10.8707
▁finansiell	-10.8707
▁forespørs	-10.8707
▁fuktig	-10.8707
▁illustrere	-10.8707
▁inngrep	-10.8707
▁januar	-10.8707
▁korrekt	-10.8707
▁kryptert	-10.8707
▁nedbrytbar	-10.8707
▁nøytral	-10.8707
▁omstendighete	-10.8707
▁primitiv	-10.8707
▁primær	-10.8707
▁rekvisitt	-10.8707
▁vellykke	-10.8707
▁zoome	-10.8707
▁økosystem	-10.8707
▁Scott	-10.8707
▁fremskritt	-10.8707
▁kommentar	-10.8707
▁oppmuntre	-10.8707
▁velkjent	-10.8707
▁hodepine	-10.8707
▁observasjon	-10.8707
▁reserve	-10.8707
ibera	-10.8707
▁utslette	-10.8707
▁volum	-10.8707
▁transnasjonal	-10.8707
uixot	-10.8707
▁forelder	-10.8707
▁allianse	-10.8707
funksjonshemming	-10.8707
▁Historien	-10.8707
▁spekter	-10.8707
▁interaktiv	-10.8707
▁misforstå	-10.8707
▁heroin	-10.8707
▁retina	-10.8707
▁flak	-10.8707
▁yng	-10.8707
▁anonym	-10.8707
▁forkaste	-10.8707
▁ekstraordinær	-10.8707
▁trang	-10.8707
▁Stemme	-10.8707
▁demonstrer	-10.8707
▁helikopteret	-10.8707
▁skummel	-10.8707
▁narkotikakrig	-10.8707
▁kryssord	-10.8707
▁fiskeoppdrett	-10.8707
▁medlemme	-10.8707
▁skilt	-10.8707
▁satellitt	-10.8707
▁sjokolade	-10.8707
▁symfoni	-10.8707
▁minaret	-10.8707
▁komiker	-10.8707
▁menneskehjerne	-10.8707
▁legemiddel	-10.8708
▁Uni	-10.8708
▁tvang	-10.8708
▁Sannhet	-10.8708
▁emne	-10.8708
prikkene	-10.8708
▁hensikt	-10.8708
▁true	-10.8708
▁beregning	-10.8708
▁forlenge	-10.8708
▁stenge	-10.8708
▁subjektiv	-10.8708
▁rekkefølge	-10.8708
▁egeninteresse	-10.8708
▁EU	-10.8708
▁organisere	-10.8708
undring	-10.8708
▁planlegge	-10.8708
Mai	-10.8708
▁Svare	-10.8708
▁instrumente	-10.8708
useum	-10.8708
▁99	-10.8709
▁oppfinner	-10.8709
▁dynamisk	-10.8709
▁fornøy	-10.8709
▁gris	-10.8709
▁urban	-10.8709
▁ubevisst	-10.8709
▁intervjue	-10.8709
▁700	-10.871
embran	-10.871
llige	-10.871
DA	-10.871
scan	-10.871
▁synspunkt	-10.871
▁såkalt	-10.871
▁suksessfull	-10.871
▁uenig	-10.8711
▁systematisk	-10.8711
▁sving	-10.8711
▁frigi	-10.8711
▁mekanismen	-10.8712
▁Koran	-10.8712
▁fiskeri	-10.8712
▁tolke	-10.8712
▁Michael	-10.8712
▁Lang	-10.8713
okale	-10.8713
▁sprint	-10.8713
▁bestefar	-10.8713
polar	-10.8713
▁komfortabel	-10.8713
scher	-10.8713
▁State	-10.8714
▁usikkerhet	-10.8714
▁kull	-10.8714
brio	-10.8715
▁surfe	-10.8715
▁35	-10.8715
▁oppfylle	-10.8717
grupper	-10.8717
▁arv	-10.8717
▁Måt	-10.8717
ative	-10.8717
elsker	-10.8718
▁rang	-10.8718
▁flykt	-10.8718
▁juli	-10.8718
▁mangfold	-10.8718
▁operativsystem	-10.8718
▁telt	-10.8718
▁forlo	-10.8719
▁forpliktelse	-10.8719
▁fokusert	-10.872
▁megaby	-10.872
▁7.	-10.8721
▁Port	-10.8722
▁ideale	-10.8724
▁Over	-10.8727
▁bestikkelse	-10.8729
▁alge	-10.8731
▁rå	-10.8731
▁komponente	-10.8731
▁tjent	-10.8731
▁fugler	-10.8735
▁Plat	-10.8736
▁assosier	-10.8738
▁Sch	-10.8739
sdyktig	-10.8739
▁kledd	-10.8739
▁Steve	-10.8742
▁Rand	-10.8745
▁stave	-10.8746
dømt	-10.8756
▁koke	-10.8758
▁spredd	-10.8759
▁varmer	-10.8759
▁kjøretøy	-10.8759
Amerikansk	-10.8763
▁oppnådd	-10.8764
▁fellesskapet	-10.8766
▁virtuell	-10.8772
▁skyve	-10.8779
▁pul	-10.8783
hou	-10.8787
▁smak	-10.8793
00-	-10.8794
▁evolusjon	-10.8806
▁so	-10.882
▁dimensjon	-10.8822
▁dokumenter	-10.8822
gram	-10.8825
kle	-10.8826
isten	-10.8836
▁sommeren	-10.8837
▁rødt	-10.885
▁transplantasjon	-10.8853
▁Stan	-10.8857
▁Vestlig	-10.8861
▁klinikke	-10.8866
▁butikken	-10.8869
▁El	-10.8871
▁dominere	-10.8871
▁kryss	-10.8878
▁Vent	-10.8882
▁kyst	-10.8891
ment	-10.8892
▁knappen	-10.8893
▁Få	-10.89
▁Hu	-10.8909
▁late	-10.8914
▁løper	-10.8917
▁konkurrere	-10.8921
▁besøk	-10.8942
▁fengslet	-10.8942
▁sann	-10.8946
▁hælen	-10.8947
bano	-10.895
▁hette	-10.895
verdig	-10.8951
▁Mik	-10.8952
old	-10.8954
▁selskapene	-10.8956
salder	-10.8966
konto	-10.8972
bildet	-10.898
▁omgi	-10.8986
lært	-10.899
▁ufor	-10.8994
▁fienden	-10.8995
▁meldt	-10.9003
▁drap	-10.9029
▁sykdoms	-10.9033
▁seine	-10.9038
amp	-10.9045
stro	-10.9047
minister	-10.9053
sang	-10.9063
▁Car	-10.9085
▁tegne	-10.9095
▁eks	-10.9103
▁kjøl	-10.9111
▁forb	-10.9118
▁funn	-10.9123
lah	-10.9128
com	-10.9133
▁funksjonen	-10.9144
▁spilles	-10.9147
ppet	-10.915
▁ban	-10.9173
▁håndter	-10.9185
▁private	-10.9192
▁Li	-10.9204
▁forestill	-10.9236
ED	-10.9245
▁So	-10.9261
kel	-10.9276
lapp	-10.9305
▁tiltrekke	-10.9317
▁nabolag	-10.9351
▁visdom	-10.936
▁legene	-10.9366
▁cent	-10.9367
▁slave	-10.938
ssystem	-10.9382
kva	-10.9394
▁forandring	-10.9404
munnen	-10.9406
▁forandringen	-10.9407
▁bred	-10.9417
▁mobiltelefonen	-10.9445
▁kap	-10.9447
▁frigjør	-10.9459
fin	-10.9465
▁trykk	-10.9465
▁negativ	-10.9481
▁tråden	-10.9506
▁bru	-10.9508
sel	-10.9528
▁Bot	-10.9529
▁samarbeider	-10.9539
▁Pi	-10.954
▁tapt	-10.9544
▁mors	-10.9551
▁spesial	-10.9571
▁10.	-10.959
▁operere	-10.9609
▁søte	-10.9612
ologisk	-10.9612
val	-10.9619
▁moral	-10.9627
▁likhet	-10.9652
▁universitet	-10.9664
▁slite	-10.9723
▁fargen	-10.9741
igere	-10.9753
▁blikk	-10.9762
▁Ba	-10.9766
▁kjør	-10.9783
verdenen	-10.9797
▁stjernen	-10.9799
beredt	-10.9801
bevegelse	-10.9801
▁ansett	-10.9805
mbia	-10.981
▁kjøle	-10.9814
hamm	-10.9817
lær	-10.9831
▁flest	-10.9836
mønst	-10.9842
▁120	-10.9847
otisk	-10.9847
holder	-10.9868
▁sjel	-10.987
▁gjenkjenne	-10.9883
▁peke	-10.9888
takene	-10.9893
▁konkurrer	-10.9909
▁farlige	-10.9925
▁muliggjøre	-10.9931
▁do	-10.9933
vekk	-10.9937
vitenskap	-10.9939
▁egg	-10.9942
▁figur	-10.9952
▁knapp	-10.9967
▁Ap	-10.9967
verdi	-10.9974
verktøy	-10.9978
gripe	-10.998
kostnad	-10.9982
transplantasjon	-10.9983
utslipp	-10.9984
nummer	-10.9987
▁intens	-10.9987
periode	-10.9988
bank	-10.9988
møte	-10.9988
Amerika	-10.9989
nettverk	-10.9989
student	-10.9989
riktig	-10.999
opprette	-10.999
selskap	-10.9991
effektiv	-10.9992
kamp	-10.9992
kommen	-10.9993
mester	-10.9993
jord	-10.9997
grunn	-11.0012
ami	-11.0013
▁fjær	-11.0015
dype	-11.0016
stykke	-11.0017
alle	-11.0018
gruppen	-11.0018
rykte	-11.002
næring	-11.0021
rytme	-11.0021
▁investering	-11.0023
pris	-11.0027
mekanisme	-11.0029
▁MT	-11.0036
lyd	-11.0039
ala	-11.004
ografi	-11.0042
▁oppmerksom	-11.0044
lubb	-11.0047
sjef	-11.0051
▁bambus	-11.0055
▁magnet	-11.006
prinsipp	-11.0068
stein	-11.0068
▁felle	-11.0069
▁diplomat	-11.0071
apparat	-11.0074
▁stolen	-11.0079
spillet	-11.0088
skjær	-11.0092
▁diplomati	-11.0097
lyn	-11.0098
▁Ad	-11.0107
organisasjoner	-11.0109
▁fundament	-11.0118
▁belønning	-11.0119
▁troverdig	-11.0125
▁sangen	-11.0125
ifisert	-11.0128
▁komfortab	-11.0129
plikasjon	-11.0129
▁Span	-11.013
▁fordøy	-11.0131
verdighet	-11.0131
blomst	-11.0132
bsolutt	-11.0134
▁arkitekt	-11.0134
økkel	-11.0135
▁Liberia	-11.0135
▁Found	-11.0135
leverandør	-11.0135
▁NAND	-11.0135
▁Betzig	-11.0135
▁George	-11.0135
▁Islam	-11.0135
▁Moriarty	-11.0135
▁Parkinson	-11.0135
▁Probleme	-11.0135
▁Woody	-11.0135
▁ambulanse	-11.0135
▁beslutt	-11.0135
▁bredbånd	-11.0135
▁dodo	-11.0135
▁eksplodere	-11.0135
▁erobre	-11.0135
▁forvandle	-11.0135
▁forventning	-11.0135
▁frokost	-11.0135
▁garanter	-11.0135
▁horisont	-11.0135
▁hypotese	-11.0135
▁idrettsutøver	-11.0135
▁innebygd	-11.0135
▁introdusere	-11.0135
▁jordklode	-11.0135
▁kidnappe	-11.0135
▁legitim	-11.0135
▁middag	-11.0135
▁muffin	-11.0135
▁næringsstoffe	-11.0135
▁oseane	-11.0135
▁panpsykis	-11.0135
▁populasjon	-11.0135
▁potensiale	-11.0135
▁publikasjon	-11.0135
▁regulere	-11.0135
▁respondere	-11.0135
▁rørt	-11.0135
▁selvtillit	-11.0135
▁sopran	-11.0135
▁spøk	-11.0135
▁stable	-11.0135
▁stemmeseddel	-11.0135
▁sykepleier	-11.0135
▁traktatbasert	-11.0135
▁trillion	-11.0135
▁turbulen	-11.0135
▁utelukke	-11.0135
▁utsagn	-11.0135
▁uunngåelig	-11.0135
▁Balinesisk	-11.0135
▁EEG	-11.0135
▁Linux	-11.0135
▁Microsoft	-11.0135
▁aspekt	-11.0135
▁banebryt	-11.0135
▁forbause	-11.0135
▁forstyrre	-11.0135
▁hurtig	-11.0135
▁iPhone	-11.0135
▁knust	-11.0135
▁lunsj	-11.0135
▁lyve	-11.0135
▁mafia	-11.0135
▁stryk	-11.0135
▁ydmyk	-11.0135
mskritt	-11.0135
▁batteri	-11.0135
▁forsikre	-11.0135
▁forsikring	-11.0135
▁frukt	-11.0135
▁oppstart	-11.0135
▁silikon	-11.0135
▁trusle	-11.0135
▁grønnsake	-11.0135
▁Ansikt	-11.0135
▁pumpe	-11.0135
▁usynlig	-11.0135
▁galleri	-11.0135
▁mystisk	-11.0135
▁sneglen	-11.0135
▁definert	-11.0135
▁flau	-11.0135
detektor	-11.0135
ikale	-11.0135
▁fatte	-11.0135
▁tolv	-11.0135
▁brikke	-11.0135
▁paradoks	-11.0135
▁planetarium	-11.0135
▁uheldig	-11.0135
▁oversatt	-11.0135
ldri	-11.0135
▁helvete	-11.0135
▁angst	-11.0135
▁vagina	-11.0135
▁fikse	-11.0136
▁råvare	-11.0136
rkut	-11.0136
▁omvendt	-11.0136
▁Lyd	-11.0136
▁utvinne	-11.0136
▁lommebok	-11.0136
▁antibiotik	-11.0136
▁halvanne	-11.0136
▁homo	-11.0136
▁tårer	-11.0136
▁grusom	-11.0136
▁improviser	-11.0136
▁oppdretts	-11.0136
▁bronse	-11.0136
▁instinkt	-11.0136
▁gjenskape	-11.0136
▁ugle	-11.0136
▁bekrefte	-11.0136
▁utøver	-11.0136
▁programmerbar	-11.0136
▁tynn	-11.0136
▁restaurant	-11.0136
▁splitte	-11.0136
▁grensesnitt	-11.0136
▁inversjon	-11.0136
▁museum	-11.0136
▁Adam	-11.0136
▁reint	-11.0137
▁1980	-11.0137
▁Island	-11.0137
▁hengt	-11.0137
▁romantisk	-11.0137
▁skrike	-11.0137
▁Niko	-11.0137
▁konstruert	-11.0137
▁forsyning	-11.0137
▁vrak	-11.0137
▁jordbruk	-11.0137
▁Serge	-11.0138
▁streng	-11.0138
▁veldedighet	-11.0138
▁Latin	-11.0138
▁kaffe	-11.0138
▁mobilitet	-11.0138
▁langsiktig	-11.0138
dynamikk	-11.0139
▁indisk	-11.014
▁human	-11.014
▁innføre	-11.014
▁reform	-11.014
integrasjon	-11.0141
▁hindre	-11.0141
▁problemstilling	-11.0142
utsatt	-11.0142
▁sorg	-11.0142
▁frakte	-11.0142
▁status	-11.0142
aksen	-11.0142
▁anfall	-11.0142
▁utforme	-11.0142
pilot	-11.0143
klipp	-11.0143
▁Jente	-11.0143
stol	-11.0143
▁beskrev	-11.0143
▁OL	-11.0144
▁materiell	-11.0144
▁Kunst	-11.0145
▁tann	-11.0146
▁trekant	-11.0147
▁innfødt	-11.0147
▁panafrikanisme	-11.0147
▁kontrollert	-11.0149
▁utbytte	-11.0149
▁kollega	-11.0149
▁respons	-11.0149
▁skulptur	-11.0149
▁kandidat	-11.0149
tenskapsmann	-11.0149
scen	-11.015
▁sju	-11.0151
▁brille	-11.0151
artikle	-11.0153
▁skum	-11.0153
▁vri	-11.0154
▁deprimer	-11.0155
▁epost	-11.0155
▁selvorganiser	-11.0157
stadion	-11.016
▁tilbringe	-11.016
▁programmert	-11.016
leser	-11.0161
gal	-11.0161
▁inntrykk	-11.0163
▁tykk	-11.0164
▁skjelve	-11.0165
alistisk	-11.0165
▁Art	-11.0166
▁argumentere	-11.0168
▁froske	-11.0169
▁latterlig	-11.0169
▁netto	-11.0169
▁initiativ	-11.017
▁muliggjor	-11.0172
▁uttale	-11.0172
▁gummi	-11.0172
▁parasitt	-11.0172
▁blokker	-11.0172
▁bensin	-11.0172
▁troverdighet	-11.0173
▁bedra	-11.0174
▁nysgjerrighet	-11.0175
▁utenom	-11.0176
▁brakt	-11.0177
▁Lib	-11.0177
▁brede	-11.0178
▁skjære	-11.0178
sjan	-11.0179
▁mapp	-11.018
▁grafisk	-11.0181
▁Talen	-11.0181
puss	-11.0181
▁solsystem	-11.0182
▁Cal	-11.0183
▁sjokker	-11.0188
▁Tro	-11.0188
▁profesjonell	-11.0188
▁såklar	-11.0188
▁Pol	-11.019
▁svikte	-11.0192
▁term	-11.0192
▁stipend	-11.0196
▁regulering	-11.0196
▁forbud	-11.0196
▁dyktig	-11.0197
▁elektro	-11.0197
strukturen	-11.0199
▁passasjeren	-11.0208
▁syr	-11.0209
▁kg	-11.0209
▁riv	-11.0209
sprosess	-11.0217
▁Dess	-11.0218
▁show	-11.022
▁klø	-11.0222
▁arr	-11.0222
▁stadie	-11.0223
▁båten	-11.0223
▁Lov	-11.0225
▁beveg	-11.023
▁fase	-11.023
▁universell	-11.0233
▁folkebevegelser	-11.0236
▁rense	-11.0238
▁innad	-11.0242
mprov	-11.0244
▁Halv	-11.0254
▁åndelig	-11.0262
▁verdien	-11.0263
lett	-11.0265
80	-11.0265
▁middel	-11.0269
▁forutse	-11.0269
▁forfølge	-11.0269
▁front	-11.0269
all	-11.0278
▁mikroskop	-11.0285
dom	-11.0291
overføring	-11.0293
▁testen	-11.0294
▁innsjø	-11.0301
▁dansen	-11.0307
▁solen	-11.0317
▁kur	-11.0318
▁forfatter	-11.0318
▁faks	-11.0322
▁kirurgen	-11.0325
▁holdning	-11.0327
▁skrift	-11.0328
rosa	-11.0329
▁strukturer	-11.0334
▁støt	-11.0338
▁vanskelighete	-11.0343
▁vitenskaplig	-11.0346
▁skyte	-11.0367
▁blodet	-11.0376
triks	-11.0384
▁Neste	-11.0394
▁konstruksjonen	-11.0404
▁Brit	-11.0404
▁sjelen	-11.0405
▁arenaen	-11.0409
jakk	-11.042
▁mo	-11.042
▁band	-11.0423
▁spesialisert	-11.0426
maskinen	-11.0427
olo	-11.0429
brett	-11.0434
▁blank	-11.0444
takelse	-11.045
▁rad	-11.0452
urolig	-11.0455
▁buk	-11.0461
organisasjon	-11.0465
▁kapasiteten	-11.0471
års	-11.0473
▁50-	-11.0488
▁kolonnen	-11.0507
nker	-11.0522
cast	-11.0524
▁riste	-11.0535
evissthet	-11.0547
sløse	-11.0553
▁Gra	-11.0562
iti	-11.0563
årig	-11.0564
▁balanser	-11.0565
inf	-11.057
▁serie	-11.0572
▁ond	-11.0585
▁fortid	-11.0597
▁offentlighet	-11.06
▁prototypen	-11.0609
▁øst	-11.0614
▁beholder	-11.0616
avdelingen	-11.0623
▁gjenta	-11.0628
▁steine	-11.0637
▁forestillingen	-11.0642
▁beskjeden	-11.0666
▁Nem	-11.0669
▁bedriften	-11.0675
▁Bok	-11.07
▁sov	-11.0702
▁Am	-11.072
voldelig	-11.072
▁jakt	-11.0724
hale	-11.0727
▁resirkulerings	-11.0732
▁legg	-11.0734
▁protestert	-11.0738
▁tu	-11.0752
▁teksten	-11.0753
▁spenningen	-11.0753
▁Ting	-11.0758
▁teknikken	-11.0765
▁teknologisk	-11.0776
▁forbered	-11.0782
▁trenden	-11.0786
▁tilpasset	-11.0791
▁snur	-11.0791
sete	-11.0796
▁animasjon	-11.0799
▁bevist	-11.0804
▁avgjør	-11.0824
▁skjø	-11.0825
sider	-11.0826
▁bill	-11.0852
▁hakk	-11.0859
▁rund	-11.0902
fest	-11.0904
▁integrere	-11.0917
▁integrer	-11.0918
▁Tra	-11.0932
▁åpenbaring	-11.094
▁slaveri	-11.0952
organisasjonen	-11.0976
▁rytmen	-11.0977
▁årlig	-11.1002
etnisk	-11.1016
▁eld	-11.1021
ius	-11.1099
▁avisen	-11.11
▁pass	-11.11
,5	-11.1104
▁teknikk	-11.1112
▁femte	-11.1143
▁kunsten	-11.1151
irke	-11.1165
ida	-11.1167
▁arm	-11.1195
isering	-11.1212
▁Rom	-11.122
▁reaksjonen	-11.122
▁vers	-11.1237
▁smile	-11.1239
kjennelse	-11.1241
ham	-11.1248
▁bane	-11.1265
▁psyk	-11.1285
▁webside	-11.1327
▁23	-11.1338
lappen	-11.134
trolig	-11.134
▁bokstav	-11.1344
▁avhengighe	-11.1347
sty	-11.1384
sky	-11.1392
▁hunden	-11.1404
▁fortell	-11.1405
▁vende	-11.1405
▁lomme	-11.1424
▁park	-11.1427
selv	-11.1435
▁fiende	-11.1446
▁bøn	-11.1448
▁mani	-11.1478
▁Britis	-11.1494
▁laboratori	-11.1499
æ	-11.1501
stilt	-11.151
pro	-11.1531
▁strømmen	-11.1599
maker	-11.161
program	-11.1611
▁knuse	-11.1613
kjøl	-11.1622
▁600	-11.1626
▁forretnings	-11.164
leder	-11.1641
▁utsette	-11.1642
født	-11.1643
skjorte	-11.1644
middel	-11.1645
▁oppdrage	-11.1645
▁medføle	-11.1646
front	-11.1646
▁elev	-11.1647
dimensjon	-11.1648
doble	-11.1649
bærer	-11.165
elger	-11.1651
felt	-11.1652
kontroll	-11.1653
karakter	-11.1654
skjerm	-11.1654
produksjon	-11.1654
soldat	-11.1655
resultate	-11.1655
mengde	-11.1656
støtte	-11.1656
avhengig	-11.1658
berg	-11.1658
vekt	-11.1659
fred	-11.166
slo	-11.1661
kroppen	-11.1661
øyeblikk	-11.1663
▁Atlant	-11.1668
▁forsvar	-11.1671
▁vest	-11.1677
▁kore	-11.1685
jobb	-11.1692
banen	-11.1694
tanke	-11.1695
familie	-11.1695
▁Itali	-11.1698
▁immun	-11.1707
skinn	-11.1708
forbruk	-11.1708
asi	-11.1709
tjenester	-11.1714
håpentlig	-11.1716
fal	-11.1716
▁universel	-11.1718
lip	-11.1719
porten	-11.172
pasient	-11.1725
dreve	-11.1725
reise	-11.1726
▁grøn	-11.1726
▁skatt	-11.1729
oten	-11.1731
budsjett	-11.174
skyen	-11.1743
gate	-11.1748
▁tryg	-11.1755
▁anbefal	-11.1767
▁kjære	-11.1774
lød	-11.1782
▁transplant	-11.1788
▁kosm	-11.1792
▁Vitenskap	-11.1793
▁knap	-11.1796
rømt	-11.1797
obi	-11.1797
▁tomme	-11.1801
helikopter	-11.1801
▁maktskifte	-11.1802
▁patogene	-11.1802
direktør	-11.1802
doktor	-11.1802
frekvens	-11.1802
stilfelle	-11.1802
ørkenen	-11.1802
▁Academ	-11.1802
▁Bradley	-11.1802
▁Buddha	-11.1802
▁Justin	-11.1802
▁Marianne	-11.1802
▁Mount	-11.1802
▁PostSecret	-11.1802
▁SOLE	-11.1802
▁administrer	-11.1802
▁ambisiøs	-11.1802
▁applikasjon	-11.1802
▁bekymring	-11.1802
▁diabet	-11.1802
▁disiplin	-11.1802
▁distribuert	-11.1802
▁empati	-11.1802
▁flamme	-11.1802
▁fossil	-11.1802
▁fysiker	-11.1802
▁geometri	-11.1802
▁historiefortell	-11.1802
▁intervall	-11.1802
▁invitasjon	-11.1802
▁kaptein	-11.1802
▁kysse	-11.1802
▁livsstil	-11.1802
▁manipuler	-11.1802
▁massiv	-11.1802
▁mutant	-11.1802
▁navigere	-11.1802
▁observert	-11.1802
▁organdon	-11.1802
▁permanent	-11.1802
▁presisjon	-11.1802
▁rasjonell	-11.1802
▁redefinere	-11.1802
▁referer	-11.1802
▁rektor	-11.1802
▁resirkulere	-11.1802
▁skittent	-11.1802
▁smittsom	-11.1802
▁superdatamaskin	-11.1802
▁svette	-11.1802
▁tragedie	-11.1802
▁tørr	-11.1802
▁ukomfortabel	-11.1802
▁understreke	-11.1802
▁usedvanlig	-11.1802
▁utadvendt	-11.1802
▁utbredt	-11.1802
adresse	-11.1802
▁Saturn	-11.1802
▁Virkelig	-11.1802
▁betrakt	-11.1802
▁bomull	-11.1802
▁bryllup	-11.1802
▁bærbar	-11.1802
▁harpiks	-11.1802
▁jøde	-11.1802
▁logo	-11.1802
▁smaragd	-11.1802
▁tendens	-11.1802
paradigme	-11.1802
▁Hawai	-11.1802
▁Nigeria	-11.1802
▁high	-11.1802
▁minoritet	-11.1802
▁selvstyrt	-11.1802
▁sjeldne	-11.1802
▁stirre	-11.1802
▁hotell	-11.1802
▁konkurrente	-11.1802
▁magefølelse	-11.1802
▁muter	-11.1802
▁Virtuel	-11.1802
tilførsel	-11.1802
▁overvinne	-11.1802
▁trist	-11.1802
▁ansiktsuttrykk	-11.1802
▁fattigdomsgrens	-11.1802
▁superorganisme	-11.1802
▁tilfredsstille	-11.1802
▁foreldet	-11.1802
▁stakk	-11.1802
▁udødelig	-11.1802
▁Berlin	-11.1802
▁variante	-11.1802
repliker	-11.1802
▁kombinasjon	-11.1802
▁biografisk	-11.1802
▁drivstoff	-11.1802
▁milli	-11.1802
▁moment	-11.1802
▁folkemengde	-11.1802
magasin	-11.1802
▁sirkul	-11.1802
islamis	-11.1802
▁buss	-11.1802
▁College	-11.1802
▁embryonal	-11.1803
▁pause	-11.1803
skjevhet	-11.1803
▁transaksjon	-11.1803
▁gjensidig	-11.1803
▁Gates	-11.1803
▁Wiki	-11.1803
terapi	-11.1803
▁døgn	-11.1803
▁Nobelprisvinner	-11.1803
▁SMS	-11.1803
▁Grunne	-11.1803
▁spent	-11.1803
▁Brook	-11.1803
▁merkevare	-11.1803
▁katastrofe	-11.1803
▁millisekund	-11.1803
▁betingelse	-11.1803
▁livskvalitet	-11.1803
▁velutvikle	-11.1803
▁Russ	-11.1803
▁Albert	-11.1803
septuell	-11.1803
▁fullføre	-11.1803
▁dupl	-11.1803
▁Roy	-11.1804
▁skjermbilde	-11.1804
▁tablet	-11.1804
▁mikromaskine	-11.1804
skrap	-11.1804
▁rock	-11.1804
▁tilbakemelding	-11.1804
▁utløser	-11.1804
▁forestilt	-11.1804
▁funk	-11.1804
▁brent	-11.1805
betjen	-11.1805
▁galskap	-11.1805
▁kunstverk	-11.1805
▁vakt	-11.1805
▁ideologi	-11.1806
▁opptreden	-11.1806
▁påstå	-11.1806
▁fartøy	-11.1806
▁pensjon	-11.1806
▁tilbud	-11.1806
▁fremstille	-11.1806
▁overlevelse	-11.1807
▁link	-11.1807
▁Bali	-11.1808
▁hår	-11.1808
▁generaliser	-11.1808
▁nettstede	-11.1808
▁vedvare	-11.1808
▁Mot	-11.1808
▁esel	-11.1808
▁berett	-11.1809
▁GM	-11.1809
▁optisk	-11.1809
AB	-11.181
▁tvetydighet	-11.181
▁lidenskapelig	-11.1811
prosessen	-11.1811
▁prosessor	-11.1811
▁spreng	-11.1812
▁skisse	-11.1812
▁forby	-11.1812
▁diagnostisere	-11.1813
▁kosmologi	-11.1814
▁krist	-11.1814
▁hekta	-11.1814
▁meningsløs	-11.1814
▁svakhet	-11.1816
▁prestasjon	-11.1816
▁kopiert	-11.1816
▁gjennomsiktig	-11.1816
▁måltid	-11.1816
▁Ess	-11.1817
▁foton	-11.1818
▁Global	-11.1818
▁guddommelig	-11.1818
▁lovgivning	-11.1818
▁stomatopod	-11.1818
etasje	-11.1818
▁visualiser	-11.182
skontrollsystem	-11.1821
▁kraftcellen	-11.1821
▁tenne	-11.1822
▁altruis	-11.1822
print	-11.1823
▁sammenbrudd	-11.1823
mannskape	-11.1823
▁tromme	-11.1824
▁smal	-11.1824
▁ytr	-11.1825
▁oppdra	-11.1825
▁Ever	-11.1826
▁instruksjone	-11.1826
ærre	-11.1826
▁sub	-11.1826
▁tvinge	-11.1831
▁tilbrakt	-11.1831
▁Helse	-11.1832
▁mikrobe	-11.1833
▁12.	-11.1834
▁Ray	-11.1834
▁sterkeste	-11.1836
▁MA	-11.1836
byrå	-11.1836
▁bonde	-11.1836
▁stabilitet	-11.1837
▁Seks	-11.1838
▁sku	-11.184
▁rav	-11.1843
▁giftig	-11.1845
▁krangle	-11.1845
▁håret	-11.1845
▁kabine	-11.1846
veits	-11.1846
▁pensum	-11.1846
▁gjerde	-11.1847
▁Mest	-11.1848
▁lederen	-11.185
▁nederst	-11.1851
▁trener	-11.1853
▁laser	-11.1854
▁adskilt	-11.186
▁sch	-11.1861
▁legemidlene	-11.1862
▁skapninge	-11.1862
▁Pra	-11.1864
▁Arabisk	-11.1864
▁mais	-11.1864
▁Palestiner	-11.1865
tekst	-11.1869
▁tullet	-11.1872
▁omsorgen	-11.1875
▁seremoni	-11.1875
▁krav	-11.1875
▁spiss	-11.1876
▁Ric	-11.1877
▁seksjonen	-11.1877
▁ek	-11.1879
▁lengde	-11.188
▁snurre	-11.1883
kobling	-11.1884
▁kunstnerisk	-11.1886
▁vaksiner	-11.1886
▁poly	-11.1887
▁kork	-11.1889
▁ytterl	-11.1889
▁muslimsk	-11.1891
▁tilføre	-11.1895
▁brukbar	-11.1897
▁formate	-11.1899
▁slu	-11.19
▁rikelig	-11.1904
fter	-11.1907
▁fjæren	-11.1908
klubbe	-11.1908
taliensk	-11.1909
▁plikter	-11.191
▁finansiering	-11.1911
▁lekse	-11.1911
▁stimulere	-11.1911
▁bukse	-11.1917
▁Map	-11.1919
nia	-11.1925
desember	-11.1929
▁yrke	-11.1931
▁vesten	-11.1933
▁Rose	-11.1935
settelse	-11.1936
flom	-11.1937
▁synke	-11.1944
▁nytelse	-11.1944
▁Ac	-11.1944
▁forretning	-11.1945
▁kirurgisk	-11.1945
▁toalett	-11.1951
▁arbeidsplassen	-11.1954
▁barnehagen	-11.1954
strever	-11.1957
▁skjorte	-11.1962
▁analysere	-11.1968
▁mauren	-11.1972
ysten	-11.1974
▁våpen	-11.1975
▁sivilisasjoner	-11.1988
▁My	-11.1995
▁algoritmer	-11.2004
talls	-11.2005
snivå	-11.2008
▁Mak	-11.2011
▁adferds	-11.2023
gjest	-11.2023
▁Okol	-11.2024
▁respekter	-11.2041
bass	-11.2041
oya	-11.2059
▁autis	-11.206
pille	-11.2061
arte	-11.2063
lod	-11.2064
▁minimal	-11.2066
▁knuser	-11.2069
▁klage	-11.2092
▁anlegg	-11.2112
▁foreg	-11.2123
hus	-11.2123
▁mobilen	-11.2124
uri	-11.2125
▁dødelig	-11.2147
mannen	-11.2163
▁nåtid	-11.2171
▁styg	-11.2172
▁lansert	-11.2194
▁strategien	-11.2199
▁gløden	-11.2201
▁hint	-11.2203
▁verdenskrigen	-11.2203
sling	-11.2213
historien	-11.2217
▁mantisreker	-11.2218
▁regning	-11.2229
▁felten	-11.2245
loven	-11.2255
▁syrer	-11.2263
▁speile	-11.2267
▁senke	-11.2284
ance	-11.2289
▁Mag	-11.2292
▁erfare	-11.2294
▁papp	-11.2296
▁aktiver	-11.2316
▁ånden	-11.2322
▁timen	-11.2327
▁websiden	-11.2331
▁Kev	-11.2339
▁psyko	-11.2344
andel	-11.2349
▁God	-11.2391
cou	-11.2395
setting	-11.2414
▁nødvendighet	-11.242
▁rydde	-11.2454
bra	-11.2458
▁armen	-11.2462
▁operer	-11.2466
▁Kun	-11.2478
▁38	-11.2483
logisk	-11.2485
▁Komm	-11.2489
▁overfør	-11.2494
pedi	-11.2501
▁diagnosen	-11.2501
▁flate	-11.2502
små	-11.2503
kikk	-11.254
▁tilknytt	-11.2559
▁forstand	-11.2565
▁antyde	-11.2611
▁publikums	-11.2617
▁2,	-11.2619
▁erkjenne	-11.2662
kap	-11.267
▁eldgam	-11.2672
▁193	-11.2683
▁landbruk	-11.2687
▁still	-11.2697
▁mestre	-11.2698
dw	-11.271
▁ferdighete	-11.2754
▁munn	-11.2755
▁Mac	-11.2771
▁sand	-11.2771
lås	-11.2774
strebe	-11.2781
▁statistikken	-11.2832
▁stadi	-11.2868
▁driv	-11.2878
troppen	-11.288
▁areale	-11.2889
kjørt	-11.2904
exa	-11.2904
▁rytme	-11.2909
▁Hel	-11.2928
▁utif	-11.2934
▁bran	-11.2956
▁forhandle	-11.2973
▁William	-11.2994
▁protester	-11.3004
▁storm	-11.3011
▁jakte	-11.3012
06	-11.3014
ama	-11.302
blade	-11.3028
▁formidle	-11.3066
sper	-11.3066
bevisst	-11.3077
85	-11.3082
tera	-11.3153
▁prototype	-11.3156
▁les	-11.3174
▁55	-11.3202
▁gran	-11.3203
▁raskest	-11.3222
gelse	-11.323
▁Gran	-11.3238
▁Cam	-11.3249
▁kampanj	-11.3261
ppen	-11.3264
▁etabler	-11.3267
▁grå	-11.3275
krig	-11.3304
▁skriv	-11.3342
▁tilstre	-11.335
▁journal	-11.3356
gruppe	-11.3359
fanger	-11.3359
sområde	-11.3366
▁reflektere	-11.3374
▁kommunis	-11.3381
▁imperie	-11.3381
▁registrer	-11.3407
▁arena	-11.342
▁fengsle	-11.3422
▁tenkemåte	-11.3426
båte	-11.3429
roppen	-11.3429
elske	-11.3436
▁uta	-11.3447
▁krets	-11.3448
▁Mel	-11.3476
legg	-11.3481
▁potensiel	-11.3483
samfunnet	-11.3489
▁hin	-11.3493
▁Chi	-11.3496
▁essensiel	-11.3499
▁Lo	-11.3509
▁oversette	-11.3511
▁plate	-11.3521
forsker	-11.3525
▁greid	-11.354
klinikk	-11.3543
kreve	-11.3546
▁ånd	-11.3553
byen	-11.3553
▁tropp	-11.3554
▁behold	-11.3554
▁kirurg	-11.3559
økonomi	-11.3563
egne	-11.3565
▁landskap	-11.3566
ali	-11.3567
sjøen	-11.3568
▁2.0	-11.3569
▁170	-11.3571
▁arts	-11.3581
hei	-11.3584
burg	-11.3589
▁mikroskope	-11.359
zan	-11.3598
skreve	-11.3601
oung	-11.3602
▁led	-11.361
liter	-11.3613
samfunn	-11.3613
bygning	-11.3634
strategi	-11.3638
våpen	-11.3644
effekt	-11.3646
syrer	-11.3646
orval	-11.3647
▁påtrenge	-11.3647
▁kul	-11.3648
boksen	-11.3648
konstruksjon	-11.3648
rsaken	-11.3648
filosof	-11.3649
kapasitet	-11.365
kanal	-11.365
trinn	-11.3651
teorien	-11.3651
hemme	-11.3651
skrive	-11.3652
brutt	-11.3652
endring	-11.3652
produkt	-11.3652
eksperiment	-11.3653
referanse	-11.3654
vokse	-11.3654
landskape	-11.3654
dukke	-11.3655
papir	-11.3655
molekyl	-11.3656
park	-11.3656
musikk	-11.3656
sosial	-11.3657
AM	-11.3659
drill	-11.3663
▁trend	-11.3664
▁profet	-11.3665
versjon	-11.3668
stigen	-11.3669
folken	-11.367
org	-11.3671
▁plikt	-11.3672
god	-11.3678
hull	-11.3682
kasse	-11.3684
befolkningen	-11.3685
skog	-11.3685
ioner	-11.369
bygging	-11.369
▁opera	-11.37
hel	-11.37
▁forstørre	-11.3713
▁omsorg	-11.3715
modellen	-11.3719
lykte	-11.3723
▁fordelen	-11.3724
▁økonom	-11.3729
▁Cana	-11.3729
brø	-11.3742
▁biolog	-11.3745
▁Hy	-11.3759
▁Fortell	-11.3761
ykker	-11.3764
ji	-11.3765
▁simul	-11.3768
▁diagram	-11.3771
yrke	-11.3773
kontinent	-11.3776
▁fros	-11.3777
▁jern	-11.378
fatning	-11.3784
▁passasje	-11.3786
programmerere	-11.3786
studi	-11.3786
agh	-11.3793
arth	-11.3793
▁pågå	-11.3794
▁AS	-11.3794
annsynlig	-11.3794
▁hygge	-11.3799
stitusjon	-11.3799
▁usikker	-11.3799
▁slekt	-11.38
▁Tami	-11.3801
▁ubehag	-11.3801
▁stabil	-11.3801
▁reduksjon	-11.3801
▁ødela	-11.3802
øsningen	-11.3802
dørs	-11.3802
▁Hoved	-11.3802
▁Fysik	-11.3802
▁Matematikk	-11.3802
▁evaluere	-11.3802
▁flaskekork	-11.3802
▁graffiti	-11.3802
▁kalligraf	-11.3802
▁republik	-11.3802
▁resulter	-11.3802
▁ryggrad	-11.3802
▁terskel	-11.3802
▁unormal	-11.3802
▁velferd	-11.3802
forstyrrelse	-11.3802
fotografering	-11.3802
installasjon	-11.3802
lacebo	-11.3802
redaktøre	-11.3802
sponsore	-11.3802
▁Bridge	-11.3802
▁Clinton	-11.3802
▁Disney	-11.3802
▁Faktum	-11.3802
▁Fantastisk	-11.3802
▁Føl	-11.3802
▁Giacometti	-11.3802
▁Hemmelighete	-11.3802
▁Himalaya	-11.3802
▁Internasjonal	-11.3802
▁Moore	-11.3802
▁Oppdrag	-11.3802
▁Seattle	-11.3802
▁Uganda	-11.3802
▁absorbere	-11.3802
▁aluminium	-11.3802
▁automatisert	-11.3802
▁begrensinge	-11.3802
▁berørt	-11.3802
▁biljardkule	-11.3802
▁depresjon	-11.3802
▁dominan	-11.3802
▁dristig	-11.3802
▁egentranscenden	-11.3802
▁eksplodert	-11.3802
▁eksponensiel	-11.3802
▁ekteskapsbryter	-11.3802
▁emballasje	-11.3802
▁fabelaktig	-11.3802
▁favelaen	-11.3802
▁fedme	-11.3802
▁fiendtlig	-11.3802
▁fotografert	-11.3802
▁høg	-11.3802
▁implanter	-11.3802
▁innadvendt	-11.3802
▁installere	-11.3802
▁installert	-11.3802
▁invader	-11.3802
▁jødisk	-11.3802
▁konsentrasjon	-11.3802
▁konservativ	-11.3802
▁kvalifisert	-11.3802
▁livslang	-11.3802
▁lørdag	-11.3802
▁medikament	-11.3802
▁mekanisk	-11.3802
▁overnormal	-11.3802
▁personalisering	-11.3802
▁presentert	-11.3802
▁propaganda	-11.3802
▁punksjon	-11.3802
▁pyramide	-11.3802
▁resirkulert	-11.3802
▁samtykke	-11.3802
▁scenario	-11.3802
▁sjenerøs	-11.3802
▁skuespiller	-11.3802
▁smugl	-11.3802
▁strøk	-11.3802
▁tannbørste	-11.3802
▁triumf	-11.3802
▁ubrukelig	-11.3802
kompositt	-11.3802
▁Amazon	-11.3802
▁Collusion	-11.3802
▁Edu	-11.3802
▁Engelsk	-11.3802
▁Scrabble	-11.3802
▁Stamcelle	-11.3802
▁autonom	-11.3802
▁husholdning	-11.3802
▁klassifiser	-11.3802
▁kliente	-11.3802
▁kryptering	-11.3802
▁luksus	-11.3802
▁partikkel	-11.3802
▁prostituer	-11.3802
▁rovdyr	-11.3802
▁sammenkoble	-11.3802
▁tilnærme	-11.3802
▁utrydde	-11.3802
sutstyr	-11.3802
▁Leyma	-11.3802
▁ampulle	-11.3802
▁betydningsfull	-11.3802
▁elendig	-11.3802
▁hofte	-11.3802
▁jetstrømme	-11.3802
▁uhell	-11.3802
▁Hammett	-11.3802
▁novelle	-11.3802
▁slummen	-11.3802
▁spontan	-11.3802
▁insister	-11.3802
▁krevde	-11.3802
▁overlevd	-11.3802
loh	-11.3802
▁Hjerte	-11.3802
▁fæl	-11.3802
▁gjemt	-11.3802
▁reverser	-11.3802
▁fibre	-11.3802
▁forflytte	-11.3802
▁knip	-11.3802
▁smykke	-11.3802
▁dykk	-11.3802
▁filteret	-11.3802
▁usannsynlig	-11.3802
▁sammenligning	-11.3802
▁dreid	-11.3802
▁estim	-11.3802
▁aktør	-11.3802
▁friskluft	-11.3802
▁arrester	-11.3802
▁fremgangsrik	-11.3802
▁infla	-11.3802
▁spy	-11.3802
▁vertikal	-11.3802
Tetris	-11.3802
væske	-11.3802
▁pepper	-11.3802
▁antagelig	-11.3802
▁laptop	-11.3802
▁sydpol	-11.3802
▁solenergi	-11.3802
▁sjenert	-11.3802
lisens	-11.3802
▁flis	-11.3802
▁fødselsdag	-11.3802
▁invitere	-11.3802
▁insekt	-11.3802
▁lovgive	-11.3802
▁produktivitet	-11.3802
▁Radio	-11.3802
▁entropi	-11.3802
▁grunnlegger	-11.3802
▁fullført	-11.3802
fAfrica	-11.3802
▁tjue	-11.3802
▁kompis	-11.3802
▁enzym	-11.3802
▁koordiner	-11.3802
▁dømme	-11.3802
▁buddhistisk	-11.3802
▁Kambodsja	-11.3802
▁terrorisme	-11.3802
▁rutenett	-11.3802
kniv	-11.3803
yggelig	-11.3803
jette	-11.3803
phi	-11.3803
▁reprodusere	-11.3803
▁kvantemekanikk	-11.3803
▁leketøy	-11.3803
▁stj	-11.3803
▁søkeresultate	-11.3803
offiser	-11.3803
▁naiv	-11.3803
▁Person	-11.3803
▁sprøyte	-11.3803
▁teater	-11.3803
▁gjennomtenk	-11.3803
▁kalvingsfront	-11.3803
▁opium	-11.3803
▁uforutsigbar	-11.3803
▁fotball	-11.3803
▁datagrunnlag	-11.3803
▁honning	-11.3803
▁LSA	-11.3803
▁praktiser	-11.3803
▁temp	-11.3803
▁påminne	-11.3803
▁hacker	-11.3803
▁real	-11.3803
aften	-11.3803
▁narr	-11.3803
▁ugress	-11.3803
▁leilighet	-11.3803
▁antagelse	-11.3803
▁bevare	-11.3804
▁trådløs	-11.3804
▁stjele	-11.3804
▁stemmebånd	-11.3804
▁rangering	-11.3804
▁sollys	-11.3804
▁Kur	-11.3804
helbrede	-11.3804
▁elite	-11.3804
▁øverst	-11.3804
▁ineffektiv	-11.3804
▁overskriften	-11.3804
▁smertefull	-11.3804
▁Max	-11.3804
▁Forskjell	-11.3804
▁trokar	-11.3805
▁skjelett	-11.3805
▁Eleve	-11.3805
▁eksam	-11.3805
▁kyr	-11.3805
tagge	-11.3805
▁tappe	-11.3805
▁beleiring	-11.3806
▁bukspyttkjertel	-11.3806
▁Science	-11.3806
▁fingre	-11.3806
brid	-11.3806
midlertid	-11.3806
gust	-11.3806
▁faen	-11.3806
▁rumpe	-11.3806
▁tøffe	-11.3807
egrense	-11.3807
▁mynt	-11.3807
▁slukke	-11.3807
▁nevrologisk	-11.3807
kostning	-11.3807
▁støv	-11.3807
▁flyplass	-11.3807
▁profan	-11.3807
▁196	-11.3807
▁194	-11.3807
▁kriminaliser	-11.3807
arkitektur	-11.3807
▁Palestina	-11.3807
▁ungdommen	-11.3807
▁Tamil	-11.3808
▁bragt	-11.3808
▁glan	-11.3808
▁lovverk	-11.3808
▁spole	-11.3808
▁hyggelig	-11.3808
▁Liv	-11.3808
▁forvalt	-11.3808
▁latin	-11.3809
▁beite	-11.3809
▁26	-11.3809
▁hyp	-11.3809
▁høyskole	-11.3809
▁landsbygd	-11.3809
▁flytur	-11.3809
▁forutsi	-11.3809
▁støp	-11.381
head	-11.381
prang	-11.381
▁fedre	-11.3811
▁Chu	-11.3811
▁pluss	-11.3811
▁døtre	-11.3811
▁ammoniakk	-11.3812
▁uttrykt	-11.3812
▁uttal	-11.3812
▁Fire	-11.3812
▁berike	-11.3812
▁geni	-11.3812
▁Pres	-11.3812
▁komplikasjon	-11.3813
▁bestille	-11.3813
▁kokk	-11.3814
▁36	-11.3814
▁spansk	-11.3814
▁cir	-11.3815
▁diger	-11.3815
▁stygge	-11.3815
▁feb	-11.3815
mentet	-11.3816
▁sørafrikan	-11.3816
▁stillhet	-11.3817
gos	-11.3817
▁42	-11.3817
▁sertifiser	-11.3817
umba	-11.3817
▁dru	-11.3817
cond	-11.3818
▁instrument	-11.3819
▁konstruere	-11.3819
▁vegne	-11.3819
▁kurere	-11.3819
▁undervist	-11.382
▁Hos	-11.3821
▁springe	-11.3821
▁embryo	-11.3822
▁prioritet	-11.3822
▁dråpe	-11.3822
▁hormon	-11.3822
▁sensitiv	-11.3822
TV	-11.3822
▁forutsett	-11.3823
▁CD	-11.3824
▁SM	-11.3824
▁uærlig	-11.3826
▁Lokal	-11.3827
Tech	-11.3828
▁mineral	-11.3828
▁utenlandsk	-11.3828
▁Var	-11.3828
▁sitat	-11.3829
▁Sammen	-11.3829
▁neo	-11.3829
▁tele	-11.3831
bød	-11.3831
chan	-11.3831
▁Peter	-11.3832
▁rått	-11.3832
▁konvolutten	-11.3832
▁forfedre	-11.3834
▁metan	-11.3836
åpning	-11.3837
▁irakisk	-11.3839
▁klasseromme	-11.384
▁Bli	-11.384
▁uka	-11.3841
▁presentasjonen	-11.3841
▁undersøkelse	-11.3841
▁irrasjonell	-11.3842
▁hjemby	-11.3843
▁gangster	-11.3843
nestesi	-11.3843
gner	-11.3843
▁krype	-11.3844
▁Post	-11.3845
▁krymper	-11.3847
▁barnebarn	-11.3848
phen	-11.3848
▁nedgang	-11.3849
▁Laden	-11.3849
▁spå	-11.3849
▁tilstedeværelse	-11.3851
▁unnta	-11.3856
▁strålen	-11.3857
▁flaske	-11.3857
▁Inte	-11.3857
elly	-11.3858
▁muskle	-11.386
▁veilede	-11.386
▁stilig	-11.3861
▁sjimpanse	-11.3862
▁mislyk	-11.3863
ugg	-11.3864
▁Rett	-11.3864
mming	-11.3864
gisk	-11.3868
▁mistenk	-11.3871
▁falme	-11.3871
▁tredel	-11.3873
nok	-11.3874
▁satse	-11.3878
▁konkur	-11.3879
kaff	-11.388
formue	-11.3884
▁umulighet	-11.3885
▁regime	-11.3887
▁Universitet	-11.3888
▁non	-11.3892
▁lengst	-11.3895
▁utgave	-11.3898
▁produsent	-11.3901
alem	-11.3902
isia	-11.3904
øvn	-11.3906
▁mønst	-11.3907
seende	-11.3907
▁røyking	-11.3916
▁alfabet	-11.3917
▁brydd	-11.3923
▁skinne	-11.3925
▁psykologisk	-11.3926
▁innerst	-11.3933
▁glim	-11.3936
▁hemme	-11.3939
▁90-	-11.394
▁profeten	-11.3941
▁forbindelsen	-11.3941
▁drikk	-11.3943
enget	-11.3943
listen	-11.3946
▁gutta	-11.3947
▁Hav	-11.3952
▁dummest	-11.3956
▁dokument	-11.3956
▁egenskapene	-11.3957
mottaker	-11.3957
▁omringe	-11.3958
▁kran	-11.3962
▁strid	-11.3963
bran	-11.3965
▁Sist	-11.3966
▁Atlanter	-11.3969
▁1-	-11.3971
▁intellektuell	-11.3985
▁Flo	-11.3985
▁server	-11.3985
▁stø	-11.3994
▁skjule	-11.4002
▁boksen	-11.4011
misjon	-11.4015
skitne	-11.4018
▁Jub	-11.4019
aksellerer	-11.402
føye	-11.4021
▁parker	-11.4021
▁lyn	-11.4036
▁Bru	-11.4037
▁Ned	-11.4041
skrise	-11.4048
▁oljen	-11.405
▁line	-11.4055
klag	-11.4057
strid	-11.406
opplyst	-11.4071
alisere	-11.4072
assin	-11.4074
▁reseptoren	-11.4075
lim	-11.4075
▁skudd	-11.4077
▁bitte	-11.4085
▁filosofisk	-11.4087
▁sola	-11.4097
TL	-11.4104
▁turist	-11.4104
▁ligningen	-11.4108
▁snitt	-11.4113
▁muliggjør	-11.4113
▁Wil	-11.4113
▁Who	-11.4125
▁platen	-11.4129
▁potensiell	-11.4131
▁reke	-11.4141
rump	-11.4142
tegn	-11.4147
▁oppfattelse	-11.4147
▁beskyttelse	-11.415
▁pinne	-11.4151
utveksling	-11.4153
▁statisk	-11.4155
▁heve	-11.4165
▁giraffen	-11.4168
stu	-11.4197
▁later	-11.42
▁30-	-11.4206
▁jobba	-11.4206
▁begjær	-11.4211
dal	-11.4219
▁dalen	-11.4222
drene	-11.4224
▁motorveien	-11.4227
▁faktoren	-11.4228
muskel	-11.423
▁omgang	-11.4232
▁operasjons	-11.4237
bål	-11.4245
▁reflekter	-11.425
▁berg	-11.4251
▁bønn	-11.4252
▁minske	-11.4255
▁Con	-11.4257
▁leng	-11.4274
▁perioden	-11.4294
ambi	-11.4294
party	-11.4297
▁utstillingen	-11.4297
▁fortjene	-11.431
▁synsk	-11.4327
▁Stillehav	-11.4328
ac	-11.4356
▁Sing	-11.4358
▁gaven	-11.4359
▁stifte	-11.4367
bora	-11.437
ferdighet	-11.4377
▁Imperi	-11.4386
ommet	-11.4394
gger	-11.4398
▁lavest	-11.4401
ødeleggelse	-11.4402
usjon	-11.4405
▁musik	-11.4419
▁allmen	-11.4431
stjerne	-11.4458
▁virksomhet	-11.4459
▁elven	-11.4469
TR	-11.4473
▁Grand	-11.4478
▁risikoen	-11.4479
antisk	-11.4496
▁smil	-11.4536
rchi	-11.4575
▁last	-11.4575
▁likheten	-11.4585
selen	-11.4595
▁meldingen	-11.4596
▁Ob	-11.461
▁stad	-11.4644
▁angå	-11.4659
▁avdeling	-11.4661
▁tonen	-11.4669
▁plyndre	-11.4675
▁omdann	-11.4686
filtrert	-11.4721
ligst	-11.4741
▁leken	-11.4754
tube	-11.478
▁institusjonen	-11.4816
▁supp	-11.4822
▁forsvinn	-11.483
kom	-11.4838
spennen	-11.4842
marbeidspartnere	-11.4849
▁rus	-11.4853
dump	-11.4911
orier	-11.4969
▁oppfyl	-11.4975
▁ressursen	-11.4985
▁gre	-11.4987
akseptab	-11.5005
hm	-11.501
knytte	-11.5074
▁Eli	-11.5076
▁tilstanden	-11.5086
▁landbruks	-11.5092
lov	-11.5117
pher	-11.5132
skip	-11.5135
▁velst	-11.5141
▁2,5	-11.5149
FI	-11.5155
psh	-11.5158
finn	-11.518
▁fortjen	-11.5183
▁tilpas	-11.5207
▁revolusjonen	-11.5255
▁ferdigheten	-11.5275
▁fortaue	-11.5289
▁Ung	-11.53
▁resirkulering	-11.5307
▁farkost	-11.5338
tråd	-11.5354
ogra	-11.5362
alo	-11.5404
▁hjertesykdom	-11.5431
▁Salm	-11.5435
nad	-11.545
▁kjel	-11.545
▁avgjørelsen	-11.5502
appa	-11.5506
▁begrensninge	-11.5514
stemme	-11.552
▁artist	-11.5536
iva	-11.5539
▁posisjonen	-11.5561
hall	-11.5571
▁Nok	-11.5605
shistorie	-11.5643
▁kolonne	-11.565
▁høst	-11.5663
▁plakaten	-11.5664
ransje	-11.5674
▁Farge	-11.573
struktur	-11.5765
amle	-11.5779
▁motorvei	-11.5782
U	-11.581
ivt	-11.5829
▁vend	-11.5839
▁fløy	-11.5879
delingen	-11.5888
anon	-11.5908
▁Internet	-11.5935
▁faktor	-11.5944
▁Ins	-11.5949
hoo	-11.5957
▁dominer	-11.596
▁respekt	-11.5965
fic	-11.5967
▁opplag	-11.5975
▁strand	-11.5987
wis	-11.5991
ftig	-11.6003
▁visuel	-11.6013
▁eiendom	-11.6022
stamme	-11.6029
▁maur	-11.6042
modell	-11.6045
▁tilhøre	-11.605
▁gjenstanden	-11.6062
industri	-11.6068
dio	-11.6074
ping	-11.6084
RNA	-11.6084
gjort	-11.6087
jente	-11.609
verden	-11.6094
▁Fem	-11.6095
ilig	-11.6108
institusjone	-11.6115
▁Carol	-11.6121
svulst	-11.6127
blikk	-11.613
▁vanskeligst	-11.6133
faktore	-11.6141
▁Mon	-11.6141
regning	-11.6142
figur	-11.6146
▁hvil	-11.6146
▁pl	-11.6147
glim	-11.6149
elektronikk	-11.6149
syklus	-11.6149
misbruk	-11.6149
ekstremist	-11.6149
føtte	-11.615
mulighet	-11.6151
salgsautomaten	-11.6151
vinkel	-11.6151
risiko	-11.6151
professor	-11.6151
blanding	-11.6151
prosessering	-11.6152
kjøtt	-11.6152
vekst	-11.6152
veggen	-11.6153
oppgaver	-11.6153
regionen	-11.6153
medisin	-11.6154
perspektiv	-11.6154
kulturell	-11.6154
ingeniør	-11.6154
vokst	-11.6154
kilomet	-11.6155
show	-11.6155
Israel	-11.6155
inntekt	-11.6155
hørte	-11.6156
kommunikasjon	-11.6156
programvare	-11.6156
modig	-11.6156
minutter	-11.6156
dollar	-11.6157
metode	-11.6157
sammen	-11.6158
kameraer	-11.616
ustra	-11.6162
frihet	-11.6165
barna	-11.6169
▁distribusjon	-11.617
årsak	-11.6171
▁vaksin	-11.6172
masse	-11.6177
fant	-11.6179
bry	-11.6187
▁geo	-11.619
vev	-11.6197
mani	-11.62
▁livsfor	-11.6209
▁mai	-11.621
ljestyr	-11.6211
ståelse	-11.6218
kunsten	-11.623
språket	-11.6234
▁krang	-11.6236
skapning	-11.624
apo	-11.6242
▁kines	-11.6244
ilmen	-11.6245
▁psykolog	-11.6249
ncy	-11.6251
▁uni	-11.6254
▁solid	-11.6257
veien	-11.6262
▁økolog	-11.6269
økonomien	-11.6275
▁tyk	-11.6275
smakte	-11.6277
▁prakt	-11.6278
aby	-11.6282
▁klasserom	-11.6285
▁materie	-11.6286
▁øve	-11.6289
▁monte	-11.629
▁advar	-11.6293
konvensjone	-11.6294
▁mirak	-11.6297
ifisere	-11.6298
komst	-11.6298
entral	-11.6299
oppfinne	-11.6299
▁unnskyld	-11.6299
▁forplikte	-11.63
▁tilfreds	-11.63
▁prest	-11.63
▁despera	-11.6301
erfekt	-11.6301
▁generøs	-11.6301
▁aspir	-11.6301
bibel	-11.6302
automat	-11.6302
▁Histor	-11.6302
▁kontrovers	-11.6302
▁refleks	-11.6302
▁preserv	-11.6302
▁Whit	-11.6302
▁assosiasjon	-11.6302
▁biomarkør	-11.6302
▁budbringer	-11.6302
▁dirigent	-11.6302
▁fasiner	-11.6302
▁introduksjon	-11.6302
▁kafeteri	-11.6302
▁kokosnøtt	-11.6302
▁logikk	-11.6302
▁modifikasjon	-11.6302
▁naturressurs	-11.6302
▁okkuper	-11.6302
▁sentrifug	-11.6302
9,1	-11.6302
africa	-11.6302
agnosti	-11.6302
barmhjertig	-11.6302
direktivet	-11.6302
eksplosjon	-11.6302
hierarki	-11.6302
kjøkken	-11.6302
konservatisme	-11.6302
penicillin	-11.6302
sensurer	-11.6302
stedsnærværende	-11.6302
tilknytning	-11.6302
tyngdekraft	-11.6302
▁Android	-11.6302
▁Balkan	-11.6302
▁Blackberry	-11.6302
▁Chicago	-11.6302
▁Digital	-11.6302
▁Etiopi	-11.6302
▁Filosof	-11.6302
▁Frihet	-11.6302
▁Gapminder	-11.6302
▁Institut	-11.6302
▁Kepler	-11.6302
▁MIT	-11.6302
▁NASA	-11.6302
▁Napoleon	-11.6302
▁Nevada	-11.6302
▁Resultate	-11.6302
▁Riktig	-11.6302
▁Skjøn	-11.6302
▁Universe	-11.6302
▁Unnskyld	-11.6302
▁World	-11.6302
▁Worldchanging	-11.6302
▁amputert	-11.6302
▁artsspesifik	-11.6302
▁astrologi	-11.6302
▁attributte	-11.6302
▁auditiv	-11.6302
▁bagasje	-11.6302
▁bedøvelse	-11.6302
▁behagelig	-11.6302
▁brennstoff	-11.6302
▁briljant	-11.6302
▁bølgebryter	-11.6302
▁cellebiologi	-11.6302
▁cockpite	-11.6302
▁cortex	-11.6302
▁cowboy	-11.6302
▁demonstrasjon	-11.6302
▁differensier	-11.6302
▁emosjonel	-11.6302
▁episode	-11.6302
▁etterkommer	-11.6302
▁filterboble	-11.6302
▁forkjærlighet	-11.6302
▁fornærme	-11.6302
▁forvandlinge	-11.6302
▁fostre	-11.6302
▁fotografere	-11.6302
▁google	-11.6302
▁gratispassasjer	-11.6302
▁grundig	-11.6302
▁hevde	-11.6302
▁hjernelidelse	-11.6302
▁humør	-11.6302
▁huseieren	-11.6302
▁høflig	-11.6302
▁implementer	-11.6302
▁indikere	-11.6302
▁inngangspunkte	-11.6302
▁innovatøre	-11.6302
▁intervensjon	-11.6302
▁intrikat	-11.6302
▁introdusert	-11.6302
▁jordbær	-11.6302
▁kapillær	-11.6302
▁konkluder	-11.6302
▁korrespond	-11.6302
▁littegran	-11.6302
▁melodie	-11.6302
▁meteoritt	-11.6302
▁mutasjon	-11.6302
▁nøkle	-11.6302
▁opprinnelse	-11.6302
▁oppspilt	-11.6302
▁patenter	-11.6302
▁projisere	-11.6302
▁rehabilitering	-11.6302
▁relevans	-11.6302
▁representasjon	-11.6302
▁ryggmarg	-11.6302
▁scenarie	-11.6302
▁separert	-11.6302
▁skuddveksling	-11.6302
▁skulptør	-11.6302
▁sofistikert	-11.6302
▁sponse	-11.6302
▁sylinder	-11.6302
▁søp	-11.6302
▁tilbragt	-11.6302
▁tråkke	-11.6302
▁tåpelig	-11.6302
▁ufattelig	-11.6302
▁ulempe	-11.6302
▁unaturlig	-11.6302
▁uteksaminer	-11.6302
▁velsigne	-11.6302
▁voldtekt	-11.6302
▁væskedynamikk	-11.6302
ambassadør	-11.6302
business	-11.6302
symmetri	-11.6302
▁Clark	-11.6302
▁entusias	-11.6302
▁fotografisk	-11.6302
▁illustra	-11.6302
▁infisere	-11.6302
▁jazz	-11.6302
▁kapitalismen	-11.6302
▁musikalsk	-11.6302
▁oppfordring	-11.6302
▁overkomme	-11.6302
▁risikere	-11.6302
▁smelta	-11.6302
▁tangente	-11.6302
▁tilstelning	-11.6302
▁tirsdag	-11.6302
▁twitre	-11.6302
▁utbedre	-11.6302
forsamling	-11.6302
sourc	-11.6302
▁gjemme	-11.6302
▁kriminell	-11.6302
▁spaser	-11.6302
▁tørkepapir	-11.6302
▁Phil	-11.6302
▁kompani	-11.6302
▁operasjonssal	-11.6302
departement	-11.6302
tanageren	-11.6302
▁Nasjonal	-11.6302
▁Slink	-11.6302
▁overvektig	-11.6302
▁spirituell	-11.6302
▁vridninge	-11.6302
▁Brasil	-11.6302
▁opplysning	-11.6302
▁pengevask	-11.6302
▁beretning	-11.6302
▁beundre	-11.6302
▁knær	-11.6302
▁syntetisk	-11.6302
▁dommer	-11.6302
▁korrup	-11.6302
▁postuler	-11.6302
▁North	-11.6302
▁antidepress	-11.6302
▁omtenksom	-11.6302
bjørn	-11.6302
▁dødsfall	-11.6302
▁viktoria	-11.6302
▁Kevlar	-11.6302
▁nevroforsker	-11.6302
▁ordinær	-11.6302
▁favo	-11.6302
▁fleksibel	-11.6302
▁onkel	-11.6302
▁rakett	-11.6302
▁skanne	-11.6302
▁våken	-11.6302
humanitær	-11.6302
▁teokrati	-11.6302
delingsleder	-11.6302
▁Moz	-11.6302
▁bly	-11.6302
▁eksakt	-11.6302
▁hodeskalle	-11.6302
▁juvel	-11.6302
▁kjempestor	-11.6302
▁helsevesen	-11.6302
nolog	-11.6302
▁snegler	-11.6302
▁Einstein	-11.6302
▁pinlig	-11.6302
▁reading	-11.6302
▁japansk	-11.6302
▁koloniser	-11.6302
▁spesifiser	-11.6302
▁Paci	-11.6302
▁Frem	-11.6302
▁Moder	-11.6302
lektive	-11.6302
▁resonnement	-11.6302
▁svelge	-11.6302
▁Still	-11.6302
▁kirken	-11.6302
▁datasimuleringe	-11.6302
▁innsatt	-11.6302
▁overordne	-11.6302
▁sverge	-11.6302
▁telegraf	-11.6302
▁Ferdig	-11.6302
▁sammenvevd	-11.6302
▁utenkelig	-11.6302
seksual	-11.6302
▁foreldrerolle	-11.6302
▁jordskjelv	-11.6302
▁klistremerke	-11.6302
▁korrelasjon	-11.6302
▁munt	-11.6302
▁Rumi	-11.6302
▁håndskrev	-11.6302
▁parallel	-11.6302
▁bursdag	-11.6302
▁skryt	-11.6302
▁supermakt	-11.6302
▁beskyld	-11.6302
▁kommentere	-11.6302
▁rekkevidde	-11.6302
▁katastrofal	-11.6302
lgar	-11.6302
▁Kjen	-11.6302
▁kunngjør	-11.6302
▁stevne	-11.6302
▁rediger	-11.6303
▁ladning	-11.6303
▁svømme	-11.6303
▁bakkestasjone	-11.6303
▁beboer	-11.6303
▁obduksjon	-11.6303
▁taktikk	-11.6303
▁borgermester	-11.6303
▁kranie	-11.6303
▁prekognisjon	-11.6303
▁biomasse	-11.6303
skolelærer	-11.6303
▁bibelsk	-11.6303
▁marin	-11.6303
▁tretti	-11.6303
▁diagnostisering	-11.6303
▁peil	-11.6303
▁virkning	-11.6303
▁supermarkede	-11.6303
▁byggesteinen	-11.6303
▁plotte	-11.6303
▁hundretusen	-11.6303
▁franskmenn	-11.6303
▁utforming	-11.6303
▁indeks	-11.6303
▁søkemotor	-11.6303
▁Mauri	-11.6303
ebraisk	-11.6303
▁programmering	-11.6303
▁rapportere	-11.6303
▁lærde	-11.6303
▁garasje	-11.6303
▁luftstrømmen	-11.6303
▁slang	-11.6303
▁Lys	-11.6303
▁tropisk	-11.6303
▁bankkort	-11.6303
▁marsjer	-11.6303
▁norsk	-11.6303
olombia	-11.6303
▁reseptb	-11.6304
▁tvillinge	-11.6304
▁kongen	-11.6304
▁bekjempe	-11.6304
resident	-11.6304
▁fordelaktig	-11.6304
▁kobolt	-11.6304
▁hagl	-11.6304
øyaktig	-11.6304
▁kreditt	-11.6304
▁diktator	-11.6304
▁Sufi	-11.6304
risto	-11.6304
▁eksponer	-11.6304
▁niåring	-11.6304
▁130	-11.6304
▁kjøleskap	-11.6304
▁dynamikken	-11.6304
▁underlagt	-11.6304
Was	-11.6304
▁vendepunkt	-11.6304
▁aksje	-11.6305
▁unnskyldning	-11.6305
▁1990	-11.6305
▁iraner	-11.6305
TO	-11.6305
▁melk	-11.6305
▁moden	-11.6305
▁antakelse	-11.6305
▁komple	-11.6305
▁forekomme	-11.6305
▁dokumentar	-11.6305
▁utkanten	-11.6305
▁akutt	-11.6305
▁Olive	-11.6305
▁slektning	-11.6306
▁redesign	-11.6306
▁blomster	-11.6306
▁linse	-11.6306
▁følelsesmessig	-11.6306
▁nekte	-11.6306
▁felleskap	-11.6306
▁skeptisk	-11.6306
▁Coca	-11.6306
▁nærvær	-11.6306
undergrunns	-11.6306
▁dyreart	-11.6306
▁Bush	-11.6306
▁landmine	-11.6307
▁kunstprosjekt	-11.6307
▁Plast	-11.6307
▁diff	-11.6307
▁Afrikansk	-11.6307
▁hjørneblokk	-11.6307
▁fjerdedel	-11.6307
▁basere	-11.6307
▁etterklang	-11.6307
▁29	-11.6307
▁mirakel	-11.6307
▁lokket	-11.6307
▁sommerfugl	-11.6308
▁mars	-11.6308
▁blød	-11.6308
▁akselerasjon	-11.6308
▁edle	-11.6308
▁feilaktig	-11.6308
▁Kamen	-11.6308
▁bistand	-11.6308
▁tankesett	-11.6309
▁underbevisst	-11.6309
▁innpakning	-11.6309
▁53	-11.6309
▁anslag	-11.6309
▁prosa	-11.6309
▁197	-11.6309
▁Rød	-11.631
▁effektivitet	-11.631
▁bibl	-11.631
▁akseptert	-11.631
▁velvære	-11.631
▁breen	-11.631
▁tyve	-11.631
▁2030	-11.631
▁West	-11.631
▁Klar	-11.631
▁oppspring	-11.6311
▁arkiv	-11.6311
▁3,	-11.6311
▁Videre	-11.6311
▁57	-11.6311
▁graver	-11.6311
▁DV	-11.6311
▁uklar	-11.6311
▁variasjon	-11.6311
▁belei	-11.6312
▁oppført	-11.6312
gulvet	-11.6312
▁Byen	-11.6312
▁dagsentre	-11.6312
▁funksjonell	-11.6312
▁utløst	-11.6313
▁Carter	-11.6313
▁Fox	-11.6314
▁spekulere	-11.6314
▁Vod	-11.6314
▁motivere	-11.6314
▁logg	-11.6314
▁realitet	-11.6315
▁uskyldig	-11.6315
▁Wars	-11.6315
▁klapp	-11.6315
▁Venn	-11.6315
▁33	-11.6316
▁dekning	-11.6316
▁morge	-11.6317
AR	-11.6317
▁Enkel	-11.6317
rampe	-11.6319
ugal	-11.6319
▁ekteskap	-11.6319
▁viderefør	-11.6319
▁JA	-11.632
gask	-11.6321
▁Nav	-11.6321
lump	-11.6322
negl	-11.6322
retningsmodell	-11.6322
▁treverk	-11.6322
▁spådomme	-11.6323
▁koalisjoner	-11.6324
mino	-11.6324
konvensjonell	-11.6325
▁meta	-11.6326
▁Fly	-11.6327
▁delstat	-11.6328
▁kontrakt	-11.6328
sgiv	-11.6328
▁demokratiser	-11.6328
▁anstendig	-11.6329
▁arrangement	-11.6329
▁bremse	-11.6329
▁leksikon	-11.6329
▁Bud	-11.6329
amerika	-11.6329
▁verve	-11.6331
▁rotert	-11.6331
▁selvlært	-11.6331
▁motivert	-11.6332
type	-11.6332
▁maksimere	-11.6333
▁Mada	-11.6334
▁Spill	-11.6335
▁eksp	-11.6337
▁nigeriansk	-11.6337
utmerkelse	-11.6339
down	-11.6339
▁neurone	-11.634
▁dativ	-11.6341
årsdag	-11.6342
▁forbløffe	-11.6343
▁rolig	-11.6344
▁skrumaskin	-11.6344
▁Mark	-11.6345
▁Høy	-11.6345
ador	-11.6345
▁module	-11.6346
▁9.	-11.6346
erebr	-11.6347
▁Mos	-11.6347
▁Sex	-11.6348
▁spinn	-11.635
sion	-11.6351
▁revolusjonær	-11.6351
▁Ron	-11.6353
▁dose	-11.6353
▁SH	-11.6353
ytelse	-11.6358
cia	-11.6358
▁videokamera	-11.6358
▁Brun	-11.6358
wy	-11.636
▁aktivist	-11.636
▁Livet	-11.636
▁Ash	-11.636
▁tolerere	-11.6362
▁henvis	-11.6364
▁Walk	-11.6364
ith	-11.6369
▁ingrediensen	-11.6372
redning	-11.6373
▁bonden	-11.6375
▁mild	-11.6377
▁Fru	-11.638
▁Stre	-11.6382
grafitt	-11.6382
▁Gutt	-11.6382
▁forståelig	-11.6382
▁analysert	-11.6383
▁universal	-11.6384
skade	-11.6387
▁markør	-11.6387
bust	-11.6388
▁lemmene	-11.6389
lfen	-11.6391
▁pion	-11.6394
sprekken	-11.6395
▁transi	-11.6397
▁øya	-11.64
▁Istede	-11.6405
▁grov	-11.6407
▁Ein	-11.641
▁solo	-11.6411
▁evighet	-11.6415
▁merkelapp	-11.6416
▁tær	-11.6416
klær	-11.6419
▁integrering	-11.6419
▁operaen	-11.6421
▁lokaliser	-11.6422
krets	-11.6423
▁friste	-11.6425
sidig	-11.6425
▁feltet	-11.6427
▁transportere	-11.6429
▁fjæring	-11.643
▁kjøring	-11.6435
▁tisse	-11.6437
urve	-11.6437
kontroversiell	-11.6437
▁seile	-11.6442
ibrere	-11.6442
LO	-11.6447
▁fortolkning	-11.645
▁Bak	-11.645
▁rotere	-11.6455
▁målbar	-11.6457
▁komma	-11.6459
▁israeler	-11.6461
lukt	-11.6461
▁variere	-11.6467
▁målestokken	-11.6467
billett	-11.6475
▁Cre	-11.6477
noter	-11.6487
sfære	-11.6489
▁tapet	-11.6489
smekanisme	-11.649
▁likningen	-11.6492
▁diplomatisk	-11.6497
stunt	-11.6505
▁vag	-11.6509
▁Hus	-11.651
ogge	-11.6511
▁flue	-11.6515
▁Carolin	-11.6519
▁Nov	-11.652
▁flydd	-11.6522
▁Femte	-11.6524
ordningen	-11.6552
pekte	-11.6559
▁foruts	-11.6571
▁bol	-11.6575
▁toler	-11.6576
ung	-11.6593
rgin	-11.6595
▁Ky	-11.6595
hjel	-11.6598
grop	-11.6602
døve	-11.6605
▁grupperinge	-11.6612
▁eiendomme	-11.662
stranden	-11.6628
▁Twi	-11.6646
▁Vann	-11.6656
▁kvinnelig	-11.6657
renner	-11.6663
▁uren	-11.6667
▁feir	-11.6669
blad	-11.6679
regle	-11.6682
▁reve	-11.6686
lob	-11.669
Greg	-11.6696
▁gjelds	-11.6701
▁Invi	-11.6704
essensiell	-11.6704
▁Chil	-11.6709
40	-11.6715
▁fløyte	-11.6733
mond	-11.6747
vamp	-11.6755
▁fastsl	-11.6765
RI	-11.6768
hai	-11.6774
andre	-11.6801
CK	-11.6821
▁tenkemåten	-11.6822
▁rep	-11.6824
iater	-11.6828
▁Mah	-11.684
▁enslig	-11.6841
GP	-11.6849
flate	-11.6861
teppe	-11.6864
▁flink	-11.6883
sentre	-11.6891
▁forvirr	-11.6916
▁lommen	-11.6925
▁kretsen	-11.6944
inberg	-11.6966
▁Farg	-11.6968
▁samstem	-11.7007
48	-11.7016
▁flertall	-11.7028
sspørsmål	-11.7043
kunst	-11.705
hagen	-11.705
porno	-11.7103
▁Byg	-11.7158
▁Dra	-11.7174
▁kjæreste	-11.7185
▁begrensningen	-11.7186
spesialist	-11.719
▁tilhørighet	-11.7215
▁slit	-11.7294
obs	-11.7302
lente	-11.7331
▁Land	-11.735
▁fornekt	-11.7357
toria	-11.737
▁farkosten	-11.7371
resistent	-11.7373
▁dårligst	-11.7378
ahli	-11.7384
▁bind	-11.7391
team	-11.7396
▁Ang	-11.7396
vnen	-11.7406
▁Williams	-11.7444
▁fortau	-11.7451
yren	-11.7472
råder	-11.7501
▁Park	-11.7525
nger	-11.7537
▁Wal	-11.7603
▁areal	-11.7609
ontant	-11.7614
varsel	-11.7615
grad	-11.7637
▁Hawk	-11.764
▁skolesystem	-11.7646
kling	-11.7667
arterie	-11.7679
▁kjenn	-11.7682
▁skrek	-11.7696
ksjoner	-11.7719
▁provinse	-11.7727
▁fjernest	-11.7729
▁aksept	-11.775
hjerne	-11.7753
aktive	-11.7757
ich	-11.7766
▁følg	-11.7784
nnlegg	-11.7803
vennlig	-11.7806
lateral	-11.7818
gammel	-11.7821
▁oppretthold	-11.7849
redden	-11.7897
centi	-11.793
føds	-11.7982
▁overlat	-11.8041
▁disk	-11.8077
idig	-11.8099
penbaringen	-11.8105
uck	-11.8117
dow	-11.8154
oppløsning	-11.8161
▁Arab	-11.8268
▁ustabil	-11.83
▁rød	-11.8307
▁gjett	-11.8312
ktelse	-11.8336
▁fold	-11.8338
▁hals	-11.8384
ynth	-11.8414
rivkraft	-11.8459
olas	-11.8497
▁brud	-11.8529
bri	-11.8532
▁Mal	-11.8533
▁Lil	-11.8555
grensen	-11.8572
kjæresten	-11.8585
▁overbelast	-11.8587
▁overvåk	-11.8587
▁Organis	-11.8592
TE	-11.8597
▁flat	-11.8691
stiftelse	-11.8699
imo	-11.8716
▁karakteren	-11.873
sorter	-11.8759
▁speil	-11.8779
13	-11.8824
▁lanser	-11.8832
fange	-11.8871
▁meld	-11.8912
▁glød	-11.8922
abb	-11.8941
▁okto	-11.8941
fordeling	-11.8943
▁ledd	-11.8947
prosess	-11.8955
estring	-11.8977
▁nano	-11.899
protese	-11.9004
elva	-11.9053
▁kollaps	-11.9058
▁Tim	-11.9072
Cola	-11.9091
▁minim	-11.9099
▁ligning	-11.9113
revolusjon	-11.9116
lson	-11.9121
malerie	-11.9142
▁145	-11.9151
ix	-11.9197
▁spesialiser	-11.9217
▁1.	-11.9219
ådig	-11.922
trekke	-11.9251
kanin	-11.9259
▁vinge	-11.926
plast	-11.9264
▁fu	-11.9269
ramme	-11.9285
sbree	-11.9288
14	-11.9301
▁høyhastighets	-11.9314
ofren	-11.9317
▁intellektuel	-11.9318
15	-11.9355
▁drikkeva	-11.9356
▁Ros	-11.938
▁folkebevegelse	-11.9381
▁Holl	-11.9385
dyktig	-11.9386
dnatt	-11.9387
▁annonse	-11.9389
▁innspil	-11.9403
bakk	-11.9406
▁250	-11.9414
organisert	-11.9435
olkningen	-11.9435
makt	-11.9436
▁tw	-11.9437
▁virtuel	-11.9445
▁spesifik	-11.9449
ødd	-11.945
penger	-11.9454
▁240	-11.9463
afrikansk	-11.9465
▁190	-11.9468
ilitet	-11.947
regulering	-11.9474
kirurg	-11.9476
fuglen	-11.9478
seremoni	-11.9478
spiss	-11.9479
knuse	-11.9479
tilpasset	-11.948
passasjeren	-11.948
stipend	-11.948
krav	-11.948
forbud	-11.948
hånd	-11.9481
ulykke	-11.9482
kjøretøy	-11.9482
majoritet	-11.9483
epidemi	-11.9483
gass	-11.9483
skrudd	-11.9484
tradisjon	-11.9484
angrep	-11.9484
konkurranse	-11.9485
basis	-11.9485
balanse	-11.9485
sykdom	-11.9485
kjempe	-11.9487
styring	-11.9487
posisjon	-11.9487
hvit	-11.9487
analyse	-11.9488
robot	-11.9488
religiøs	-11.9488
utvikle	-11.9488
overflaten	-11.9488
hastighet	-11.9488
Mann	-11.9488
sikker	-11.9489
fullstendig	-11.9489
demokrati	-11.949
frykt	-11.949
politisk	-11.949
hjem	-11.949
samtale	-11.9491
svikt	-11.9491
hvor	-11.9491
amerikaner	-11.9492
▁kommun	-11.9492
feil	-11.9492
organ	-11.9493
11	-11.9495
blod	-11.9495
AS	-11.9498
høye	-11.9499
nteressant	-11.9501
▁sjokk	-11.9501
valg	-11.9508
ansvar	-11.951
codi	-11.9513
kunnskap	-11.9513
energi	-11.9516
▁selvstendig	-11.9528
årlig	-11.9533
ystemet	-11.9542
pråk	-11.9542
baby	-11.9546
▁våp	-11.9547
▁formuler	-11.9552
▁Olymp	-11.9557
skjelv	-11.9562
kryp	-11.9562
▁neuro	-11.9572
▁nerve	-11.9573
stav	-11.9573
bro	-11.9573
▁bestikke	-11.9573
ipe	-11.9576
krimin	-11.9585
▁nigerian	-11.9587
▁Ell	-11.9587
▁bidr	-11.9589
▁regjer	-11.9596
▁Politi	-11.9602
▁lagring	-11.9603
▁Samme	-11.9604
▁idiot	-11.9604
▁hol	-11.9608
q	-11.961
▁kraftcelle	-11.9611
▁demografi	-11.9615
▁bærekraft	-11.9617
▁unng	-11.9618
▁Micha	-11.9623
▁terror	-11.9624
▁160	-11.9624
▁kreasjon	-11.9625
▁godkjen	-11.9626
▁tøf	-11.9627
uksess	-11.9628
▁kjærlig	-11.9628
▁180	-11.963
▁norm	-11.963
cience	-11.9631
bestikk	-11.9631
samvittighet	-11.9631
rgumente	-11.9631
gentlig	-11.9632
▁persep	-11.9633
▁span	-11.9633
atastrofe	-11.9633
obolt	-11.9633
svøm	-11.9634
▁lærdom	-11.9634
▁dyd	-11.9634
▁cyberkrimin	-11.9634
konsekven	-11.9634
pital	-11.9634
rasje	-11.9634
▁prins	-11.9635
institu	-11.9635
▁trylle	-11.9635
▁konstruk	-11.9635
▁bud	-11.9635
▁Scien	-11.9635
blokken	-11.9635
fleksib	-11.9635
▁projek	-11.9635
▁soft	-11.9635
▁Gagarin	-11.9635
▁Netflix	-11.9635
▁afghan	-11.9635
▁fordømmelse	-11.9635
▁fotgjenger	-11.9635
▁pessimist	-11.9635
▁piksle	-11.9635
▁portvakte	-11.9635
Europeisk	-11.9635
avmildhet	-11.9635
cellulær	-11.9635
frekvent	-11.9635
frøkapsle	-11.9635
fylling	-11.9635
gjennomstrømning	-11.9635
helikoptre	-11.9635
iksdepartementet	-11.9635
imbabwe	-11.9635
klusiv	-11.9635
kompatibel	-11.9635
labyrint	-11.9635
molekylærbiologi	-11.9635
nspektør	-11.9635
observatør	-11.9635
platform	-11.9635
prisutdelingen	-11.9635
ravitasjonsbølge	-11.9635
smetaforen	-11.9635
tastature	-11.9635
traktaten	-11.9635
▁Brandon	-11.9635
▁Bukseløs	-11.9635
▁Endringen	-11.9635
▁Industri	-11.9635
▁Instrumente	-11.9635
▁Kallikuppa	-11.9635
▁Madoff	-11.9635
▁Matematisk	-11.9635
▁Photos	-11.9635
▁Republik	-11.9635
▁Sputnik	-11.9635
▁Spør	-11.9635
▁Szymborska	-11.9635
▁Teknologi	-11.9635
▁Thailand	-11.9635
▁Tokyo	-11.9635
▁Toyota	-11.9635
▁Voldtekt	-11.9635
▁affære	-11.9635
▁aggressiv	-11.9635
▁ambusyk	-11.9635
▁anmodninge	-11.9635
▁antropologe	-11.9635
▁anvendelse	-11.9635
▁apotek	-11.9635
▁auksjon	-11.9635
▁avsløring	-11.9635
▁bakgård	-11.9635
▁bataljon	-11.9635
▁begivenhet	-11.9635
▁benmarg	-11.9635
▁besteforeldre	-11.9635
▁blunk	-11.9635
▁bordplat	-11.9635
▁brasiliansk	-11.9635
▁brosjyre	-11.9635
▁brudgommen	-11.9635
▁cocktail	-11.9635
▁diskutert	-11.9635
▁dissonans	-11.9635
▁dodohodeskalle	-11.9635
▁drøfte	-11.9635
▁eksemplar	-11.9635
▁elegant	-11.9635
▁eliminere	-11.9635
▁enkeltperson	-11.9635
▁etterprøvbar	-11.9635
▁fagfelle	-11.9635
▁fellings	-11.9635
▁fluorisere	-11.9635
▁flyvningen	-11.9635
▁fordreining	-11.9635
▁forsørge	-11.9635
▁fysiologisk	-11.9635
▁følsom	-11.9635
▁genuin	-11.9635
▁grimase	-11.9635
▁hindringe	-11.9635
▁hukommelse	-11.9635
▁hypotetisk	-11.9635
▁hysterisk	-11.9635
▁imperativ	-11.9635
▁irritert	-11.9635
▁kapittel	-11.9635
▁klistret	-11.9635
▁kokong	-11.9635
▁konsumere	-11.9635
▁konvertere	-11.9635
▁kritiser	-11.9635
▁kryptere	-11.9635
▁kunstferdig	-11.9635
▁maskering	-11.9635
▁mekanikk	-11.9635
▁månedslønn	-11.9635
▁møkk	-11.9635
▁nominasjon	-11.9635
▁offisiel	-11.9635
▁oftalmolog	-11.9635
▁oppdatering	-11.9635
▁oppfostr	-11.9635
▁overnaturlig	-11.9635
▁palestinsk	-11.9635
▁parkeringsplass	-11.9635
▁pattedyr	-11.9635
▁popstjerne	-11.9635
▁profitt	-11.9635
▁prøvepersone	-11.9635
▁prøverørs	-11.9635
▁pshuu	-11.9635
▁påkjenning	-11.9635
▁raffiner	-11.9635
▁relasjonstypen	-11.9635
▁resirkulerbar	-11.9635
▁returner	-11.9635
▁ryggsekk	-11.9635
▁rådgiver	-11.9635
▁sadelforme	-11.9635
▁signifikant	-11.9635
▁sjøm	-11.9635
▁sjøvann	-11.9635
▁skrekkslage	-11.9635
▁småbarnsreg	-11.9635
▁smør	-11.9635
▁sosiologe	-11.9635
▁spektr	-11.9635
▁stemmesedle	-11.9635
▁stridsvogn	-11.9635
▁subdivider	-11.9635
▁tegneserie	-11.9635
▁toalettbørste	-11.9635
▁topografi	-11.9635
▁trailer	-11.9635
▁umoralsk	-11.9635
▁upublisert	-11.9635
▁uregulert	-11.9635
▁ustoppelig	-11.9635
▁utilitaris	-11.9635
▁uungåelig	-11.9635
▁valuta	-11.9635
▁vedlikehold	-11.9635
▁verdensrekord	-11.9635
▁vindmølle	-11.9635
▁vokabular	-11.9635
▁ærbødig	-11.9635
▁øyekontakt	-11.9635
▁Jacqu	-11.9635
▁Programmer	-11.9635
▁TEDTalk	-11.9635
▁automatisere	-11.9635
▁avfallsstoffe	-11.9635
▁avstemning	-11.9635
▁eksepsjonel	-11.9635
▁email	-11.9635
▁evangelis	-11.9635
▁fiksjon	-11.9635
▁folkehelse	-11.9635
▁gipsvegg	-11.9635
▁gjennomsyre	-11.9635
▁intui	-11.9635
▁korreler	-11.9635
▁nukle	-11.9635
▁overkokt	-11.9635
▁perfeksjon	-11.9635
▁pøl	-11.9635
▁regulasjon	-11.9635
▁spedbarn	-11.9635
▁tennis	-11.9635
▁tenåringsjente	-11.9635
▁tinninglapp	-11.9635
▁tsunami	-11.9635
Swazi	-11.9635
▁BBC	-11.9635
▁Funksjonshemm	-11.9635
▁Massachusetts	-11.9635
▁Muslim	-11.9635
▁Tilbake	-11.9635
▁arbeidsleire	-11.9635
▁autorit	-11.9635
▁ektefelle	-11.9635
▁forutsigbar	-11.9635
▁hoppmester	-11.9635
▁infisert	-11.9635
▁intim	-11.9635
▁komponist	-11.9635
▁kringkasting	-11.9635
▁omdefiner	-11.9635
▁pedagogi	-11.9635
▁petrokjemi	-11.9635
▁propelle	-11.9635
▁protokoll	-11.9635
▁rekord	-11.9635
▁tilslutt	-11.9635
▁ubegrense	-11.9635
▁verdsatt	-11.9635
bjelke	-11.9635
inntektsland	-11.9635
klimaforandringe	-11.9635
virtuos	-11.9635
▁Pringle	-11.9635
▁Tidlig	-11.9635
▁analyti	-11.9635
▁basille	-11.9635
▁folkemord	-11.9635
▁håndvask	-11.9635
▁implikasjonen	-11.9635
▁krystall	-11.9635
▁læringsmiljø	-11.9635
▁monster	-11.9635
▁signalisere	-11.9635
▁stemning	-11.9635
field	-11.9635
ndskapsfull	-11.9635
plantasje	-11.9635
▁0,	-11.9635
▁Barbie	-11.9635
▁CERN	-11.9635
▁Guttenberg	-11.9635
▁Kongress	-11.9635
▁Medisin	-11.9635
▁Trikse	-11.9635
▁Tutsi	-11.9635
▁epidural	-11.9635
▁genetikk	-11.9635
▁henrette	-11.9635
▁konsentrer	-11.9635
▁nominer	-11.9635
▁senior	-11.9635
▁testamente	-11.9635
arrangert	-11.9635
roject	-11.9635
▁Interna	-11.9635
▁bakvendt	-11.9635
▁drittsekke	-11.9635
▁fjoråret	-11.9635
▁flystripe	-11.9635
▁juster	-11.9635
▁sapiens	-11.9635
karabi	-11.9635
vittig	-11.9635
▁ABC	-11.9635
▁Neuro	-11.9635
▁nyttelast	-11.9635
mponere	-11.9635
okrate	-11.9635
▁Isfjell	-11.9635
▁huleboer	-11.9635
▁levebrød	-11.9635
innehaver	-11.9635
strakt	-11.9635
▁High	-11.9635
▁Tretti	-11.9635
▁heftig	-11.9635
▁modne	-11.9635
▁isolere	-11.9635
▁restrukturer	-11.9635
▁Luther	-11.9635
▁dekrypter	-11.9635
▁kjernefysisk	-11.9635
▁lynmelding	-11.9635
▁swing	-11.9635
▁Brian	-11.9635
▁Demokrat	-11.9635
▁traume	-11.9635
▁uviten	-11.9635
azz	-11.9635
▁kaviar	-11.9635
▁reparer	-11.9635
▁stempling	-11.9635
▁ukontroller	-11.9635
▁Fermi	-11.9635
▁kritik	-11.9635
▁Sierra	-11.9635
▁pga	-11.9635
▁Count	-11.9635
▁oppsummere	-11.9635
▁synonym	-11.9635
azo	-11.9636
lstatsbudsjett	-11.9636
refleksjon	-11.9636
sparing	-11.9636
▁Jim	-11.9636
▁penetrer	-11.9636
▁tekstmelding	-11.9636
interplanetarisk	-11.9636
▁talentfull	-11.9636
▁rutine	-11.9636
▁flercellet	-11.9636
▁tyske	-11.9636
▁kontinuitet	-11.9636
▁Suga	-11.9636
▁drastisk	-11.9636
▁Nyhets	-11.9636
▁friskgrønn	-11.9636
▁nevene	-11.9636
▁kompil	-11.9636
▁Jeff	-11.9636
▁rusmiddel	-11.9636
Rock	-11.9636
▁kompakt	-11.9636
▁rasjonalis	-11.9636
▁Hutu	-11.9636
▁Bilde	-11.9636
▁absurd	-11.9636
▁stramme	-11.9636
ornado	-11.9636
▁Roger	-11.9636
▁storslagen	-11.9636
▁orgel	-11.9636
▁smarttelefon	-11.9636
slutninge	-11.9636
▁agenda	-11.9636
▁virvle	-11.9636
▁halloween	-11.9636
båndbredde	-11.9636
▁kassett	-11.9636
▁gjetning	-11.9636
▁Små	-11.9636
▁anrop	-11.9636
myndig	-11.9636
▁kjennetegne	-11.9636
▁utstrek	-11.9636
▁avdekke	-11.9636
▁kvante	-11.9636
▁brystforstørre	-11.9636
▁fotballspiller	-11.9636
▁Johann	-11.9636
▁1970	-11.9636
▁nedgangstide	-11.9636
▁tøyse	-11.9636
▁Titan	-11.9636
▁langtids	-11.9636
▁hamstre	-11.9636
▁sammenlikne	-11.9636
▁flamingoe	-11.9636
▁håndfast	-11.9636
▁Liberiansk	-11.9636
▁illegal	-11.9636
▁dediker	-11.9636
▁strømkrets	-11.9636
▁gruvedrift	-11.9636
▁innretning	-11.9636
kratisk	-11.9636
sjåfør	-11.9636
▁lindre	-11.9636
▁barnedødelighet	-11.9636
▁sammenkoblingen	-11.9636
▁forhånds	-11.9636
▁Vekst	-11.9636
▁ungdomsskole	-11.9636
▁Kassava	-11.9636
▁digre	-11.9636
▁styresmakte	-11.9636
▁Payne	-11.9636
▁informati	-11.9636
▁irak	-11.9636
▁middelald	-11.9636
▁oversvømt	-11.9636
TRE	-11.9636
▁notat	-11.9636
▁sjar	-11.9637
▁oppdrettere	-11.9637
Euro	-11.9637
▁glassaktig	-11.9637
▁rollefigur	-11.9637
▁basket	-11.9637
BM	-11.9637
asteur	-11.9637
▁potent	-11.9637
banetur	-11.9637
▁krem	-11.9637
ksid	-11.9637
▁nedlast	-11.9637
▁generøsitet	-11.9637
lomma	-11.9637
▁regnestykke	-11.9637
▁korall	-11.9637
ggle	-11.9637
▁signert	-11.9637
▁sesong	-11.9637
hyd	-11.9637
▁hobby	-11.9637
▁brutal	-11.9637
▁avsender	-11.9637
▁befolke	-11.9637
VE	-11.9637
▁Førti	-11.9637
▁verdsette	-11.9637
▁veps	-11.9637
gyll	-11.9637
▁verkstede	-11.9637
▁celletype	-11.9637
▁scanne	-11.9637
▁klimakris	-11.9637
▁dyst	-11.9637
▁heal	-11.9637
ournal	-11.9638
▁savne	-11.9638
▁eksos	-11.9638
▁desperasjon	-11.9638
ammenlignbar	-11.9638
▁ryddig	-11.9638
▁fryse	-11.9638
▁plump	-11.9638
▁avslappe	-11.9638
▁sperre	-11.9638
▁dingle	-11.9638
▁organisat	-11.9638
▁abnormalite	-11.9638
▁Luca	-11.9638
▁Talk	-11.9639
▁lydanlegg	-11.9639
▁dydig	-11.9639
▁sveve	-11.9639
▁verktøykasse	-11.9639
▁Marked	-11.9639
▁videoklipp	-11.9639
▁Lykke	-11.9639
sjå	-11.9639
▁høydehopp	-11.9639
▁Silke	-11.9639
▁konseptuell	-11.9639
mbor	-11.9639
▁spidde	-11.9639
▁mygg	-11.9639
▁travel	-11.9639
▁Kris	-11.9639
etnam	-11.9639
▁miljømessig	-11.9639
▁1983	-11.9639
▁alvorleg	-11.9639
▁Web	-11.9639
▁nervøsitet	-11.9639
▁fremvekst	-11.9639
▁stupe	-11.964
▁grus	-11.964
▁flekken	-11.964
▁Medica	-11.964
▁godkjenning	-11.964
▁monoton	-11.964
▁Redd	-11.964
▁grusomheten	-11.964
ljar	-11.964
phic	-11.964
▁råtne	-11.964
▁ignorert	-11.964
▁frimerke	-11.964
▁knok	-11.964
▁psykoaktiv	-11.964
▁kynis	-11.964
▁suger	-11.964
temmeurne	-11.9641
yrki	-11.9641
▁fjernsyn	-11.9641
▁Afr	-11.9641
▁signere	-11.9641
lumine	-11.9641
▁flomme	-11.9641
▁tilfredstil	-11.9641
▁triv	-11.9642
▁Baby	-11.9642
▁pugge	-11.9642
▁begripe	-11.9642
▁ferie	-11.9642
▁seksåring	-11.9642
▁anslå	-11.9642
▁strippe	-11.9642
▁kvittering	-11.9642
▁kanadisk	-11.9643
▁mul	-11.9643
▁makuler	-11.9643
▁beundring	-11.9643
▁Valg	-11.9643
▁innebygge	-11.9643
▁suver	-11.9643
▁Mass	-11.9643
ponert	-11.9643
▁undertøy	-11.9643
▁godarte	-11.9643
rensel	-11.9643
hilse	-11.9644
▁hive	-11.9644
▁oppgradering	-11.9644
▁førstehånd	-11.9644
▁matche	-11.9644
▁teit	-11.9644
▁UN	-11.9644
▁skoleverk	-11.9644
▁Scal	-11.9645
▁fattigdommen	-11.9645
▁Shang	-11.9645
▁overtale	-11.9645
▁overdrive	-11.9645
▁utenriksny	-11.9645
vinning	-11.9645
▁assiste	-11.9645
▁valgarbeider	-11.9645
▁Glem	-11.9645
▁naboland	-11.9645
▁forbrenn	-11.9645
▁idretts	-11.9646
▁flokk	-11.9646
▁puslespill	-11.9646
▁neurolog	-11.9646
▁kreasjoniste	-11.9646
▁lotus	-11.9646
▁spillested	-11.9646
▁ledetråd	-11.9646
▁flik	-11.9647
▁foretrukket	-11.9647
asko	-11.9647
▁hjerneområde	-11.9647
turnering	-11.9648
pont	-11.9648
redje	-11.9648
▁ideé	-11.9648
▁nerde	-11.9648
AI	-11.9649
▁39	-11.9649
▁Klokk	-11.9649
gaby	-11.965
TP	-11.965
▁utforsking	-11.9651
▁Jona	-11.9651
▁hologra	-11.9651
ribb	-11.9651
▁mestring	-11.9651
▁verten	-11.9651
▁dop	-11.9652
▁innhent	-11.9652
▁utfolde	-11.9652
▁Saken	-11.9652
▁kraftfull	-11.9652
▁sympatisk	-11.9652
▁plantever	-11.9652
▁klam	-11.9653
▁vilkår	-11.9653
▁fortette	-11.9654
▁oppnåelse	-11.9654
▁Reis	-11.9654
SA	-11.9654
▁nyskape	-11.9654
▁tiger	-11.9654
▁tverr	-11.9655
▁montert	-11.9655
▁Than	-11.9655
kategorisere	-11.9655
▁gnist	-11.9656
▁tommel	-11.9656
▁analogi	-11.9656
▁opphøye	-11.9656
▁plastko	-11.9656
▁Judi	-11.9656
▁homeopatisk	-11.9657
▁Ghan	-11.9657
kommand	-11.9657
silo	-11.9657
▁taktil	-11.9658
▁fredelig	-11.9658
▁seksuel	-11.9658
▁landområde	-11.9659
▁ovn	-11.9659
▁TEDx	-11.9659
▁selvutforsk	-11.9659
▁46	-11.966
Indisk	-11.966
scar	-11.966
assis	-11.966
▁Emi	-11.966
▁skolegang	-11.9661
▁savanne	-11.9662
▁livstid	-11.9662
▁sci	-11.9663
▁stimulans	-11.9663
▁leseferdighet	-11.9664
▁forbryte	-11.9664
studio	-11.9664
▁katalogiser	-11.9664
eopard	-11.9664
▁Christi	-11.9665
▁fremfør	-11.9666
▁tvit	-11.9666
▁utholden	-11.9667
▁franskmann	-11.9668
▁Aur	-11.9668
action	-11.9668
▁variert	-11.9669
▁gjenv	-11.9669
viter	-11.967
▁Politisk	-11.967
oppgang	-11.9671
▁Fang	-11.9672
▁betinge	-11.9672
▁oppbygning	-11.9673
▁Gell	-11.9673
enriksminister	-11.9675
uniform	-11.9675
▁idiotisk	-11.9675
allas	-11.9677
▁Charl	-11.9677
▁allier	-11.9678
▁byggesten	-11.9678
▁rettferdiggjør	-11.9678
bunt	-11.9679
▁mentor	-11.9679
▁treart	-11.968
frakk	-11.9681
▁summer	-11.9681
▁innenlands	-11.9681
booke	-11.9682
lber	-11.9683
▁prestere	-11.9683
abba	-11.9684
▁14.	-11.9685
▁komfort	-11.9685
▁kultiver	-11.9685
▁regnskapsfør	-11.9687
tolsk	-11.9687
▁Leon	-11.969
▁stiv	-11.9691
▁avkjøle	-11.9691
▁loppe	-11.9691
▁tidsmaskin	-11.9695
kkelt	-11.9695
oller	-11.9696
befolkningsvekst	-11.9696
gour	-11.9697
▁fornye	-11.9697
▁jage	-11.9698
ammenlikn	-11.9698
▁aksellerere	-11.97
zy	-11.97
▁Litt	-11.9701
gyldighet	-11.9701
▁demografisk	-11.9702
▁tomat	-11.9705
▁strende	-11.9706
▁fargerik	-11.9706
olidarit	-11.9708
▁fry	-11.9711
▁pub	-11.9711
fru	-11.9712
▁anbefaling	-11.9712
▁Meme	-11.9712
▁klargjør	-11.9713
▁verktøylinj	-11.9713
▁utgifte	-11.9713
orgerkrigen	-11.9713
▁kalletone	-11.9714
▁Too	-11.9716
▁Olympisk	-11.9716
diagnostiser	-11.9718
▁Tall	-11.9718
psi	-11.9721
blikket	-11.9723
▁bidrag	-11.9735
▁Fortelling	-11.9741
▁poppe	-11.9741
▁Val	-11.9742
ovjet	-11.9743
fus	-11.9744
▁selvstendighet	-11.9744
yso	-11.975
ezo	-11.9758
1,2	-11.976
onning	-11.9762
oca	-11.9763
▁Spansk	-11.9771
▁lid	-11.9772
▁livsform	-11.9775
▁verdensbilde	-11.9784
østk	-11.9784
roco	-11.9787
Wo	-11.9794
▁Astor	-11.9796
▁diktere	-11.9804
▁resep	-11.9806
prat	-11.981
tanten	-11.9817
drakt	-11.9823
▁Bell	-11.9835
eraba	-11.9838
▁oppfølg	-11.9839
▁magnetisk	-11.984
▁kompa	-11.9851
nomi	-11.9856
rvan	-11.9861
spørmål	-11.9866
▁syd	-11.9868
tankegang	-11.987
▁venteliste	-11.9872
▁navnelappe	-11.988
▁svulste	-11.9885
muleringen	-11.9886
vurdering	-11.9894
vridd	-11.9896
måling	-11.99
▁kameramann	-11.9902
▁Mul	-11.9909
▁generisk	-11.9951
▁falsk	-11.9959
srom	-11.9983
psjon	-11.9983
mien	-11.9988
▁app	-11.9995
▁holdbar	-12.0009
▁industrialiser	-12.001
▁Informa	-12.0023
intensiv	-12.0032
▁fortær	-12.0043
▁Monte	-12.0054
omedie	-12.0058
▁romalder	-12.0066
▁darwinis	-12.0072
rico	-12.0103
SU	-12.0135
▁Rest	-12.0152
jebr	-12.0176
bill	-12.0186
▁ledelse	-12.0194
▁eksta	-12.0202
onden	-12.0212
produsente	-12.0218
▁Data	-12.0229
ahara	-12.0233
euter	-12.0241
iko	-12.0246
fremkalle	-12.0262
▁Kjø	-12.0287
kvaliteten	-12.0295
▁nanoteknolog	-12.0325
LS	-12.0325
▁matsystem	-12.0341
▁administrati	-12.0361
▁Fas	-12.04
▁Israelsk	-12.041
▁bark	-12.0428
ltagelse	-12.0438
otus	-12.0452
▁Kai	-12.0461
anselig	-12.0521
demping	-12.0532
▁Dav	-12.0546
rush	-12.057
personell	-12.0608
▁konseptu	-12.0615
Ex	-12.0656
ummere	-12.0657
▁Cap	-12.0676
▁mobiliser	-12.0682
▁Danse	-12.0716
EP	-12.0801
▁proto	-12.0823
▁sekvens	-12.0866
▁visninge	-12.0881
irector	-12.0949
havn	-12.1009
lotte	-12.1013
Swa	-12.1024
vurdert	-12.1048
▁Arabi	-12.1061
vidd	-12.1078
▁drep	-12.1138
blå	-12.1193
▁skallen	-12.1285
▁planke	-12.1331
▁kantin	-12.1339
innslag	-12.134
ordninge	-12.1358
ianer	-12.1568
ødsel	-12.1612
▁brød	-12.1658
lengs	-12.17
▁ødelegg	-12.1757
jonell	-12.1866
gry	-12.1905
▁omgjør	-12.1945
provinsen	-12.1989
amarbeidspartner	-12.2084
isjonær	-12.2119
dgar	-12.2125
▁antyd	-12.2187
suppe	-12.2201
pptak	-12.2341
ekter	-12.2385
eph	-12.2468
▁list	-12.2468
målingene	-12.2513
veksler	-12.2541
▁resisten	-12.2553
▁rydd	-12.2601
▁ingeniørkun	-12.2661
onia	-12.2682
▁løft	-12.2778
dgang	-12.2785
hørigheten	-12.2821
kampanjen	-12.2835
Stra	-12.2854
Aw	-12.2911
musiker	-12.2924
rodd	-12.2946
spørsmål	-12.2984
▁mysteri	-12.3016
ridd	-12.3035
eriet	-12.3265
▁Steinb	-12.3289
starter	-12.3335
bukt	-12.3461
begjæret	-12.3529
azi	-12.355
▁Giu	-12.3581
tagelse	-12.3592
▁giraff	-12.3638
▁kvalitete	-12.3639
▁skift	-12.3695
▁fugl	-12.3729
▁skoleb	-12.3732
kamera	-12.3835
fur	-12.3842
▁reduser	-12.3854
▁reseptor	-12.3879
▁tilkobl	-12.3901
gaver	-12.3918
▁Prosesse	-12.3952
▁luk	-12.4051
leveringe	-12.4054
▁modifiser	-12.4079
▁påpek	-12.4084
metaforisk	-12.4103
historie	-12.4107
▁barnehage	-12.4114
▁arbeidsplasse	-12.4115
toalette	-12.4123
▁flo	-12.4147
▁Mikro	-12.4147
▁utled	-12.4172
bakt	-12.4189
▁israel	-12.4213
mperiene	-12.4241
▁likninge	-12.4253
▁målestokk	-12.427
handle	-12.4281
lvan	-12.4293
leksen	-12.432
muskle	-12.4321
▁elektr	-12.4327
▁ytter	-12.4331
halvdel	-12.4334
▁inkompatib	-12.4335
▁kontroversiel	-12.4335
lyp	-12.4343
▁dobbel	-12.4343
aralympi	-12.4365
▁region	-12.4366
▁seksjon	-12.4374
▁registre	-12.4376
brakt	-12.438
fedre	-12.4386
bringe	-12.4396
▁Palestin	-12.44
befolkning	-12.44
arytmi	-12.4402
▁signa	-12.4418
▁profesjonel	-12.4422
vifte	-12.4426
epal	-12.4439
bedrifte	-12.4456
folde	-12.4459
fylle	-12.4471
blokker	-12.4472
▁utenriks	-12.4472
drive	-12.4474
beskyttelse	-12.4477
strålen	-12.4477
flaske	-12.4477
speile	-12.448
gløden	-12.448
▁integr	-12.448
melding	-12.448
finansiering	-12.448
lengde	-12.448
kabine	-12.448
pensum	-12.448
gjerde	-12.448
gummi	-12.4482
parasitt	-12.4482
fjær	-12.4482
knapp	-12.4482
bukse	-12.4483
bensin	-12.4483
assosier	-12.4483
kategori	-12.4484
plattform	-12.4484
spredning	-12.4485
sykkel	-12.4485
globalisering	-12.4485
fenomene	-12.4485
debatt	-12.4485
meldt	-12.4486
fjell	-12.4486
kledd	-12.4486
forestillinge	-12.4486
betalt	-12.4486
militære	-12.4486
fulgt	-12.4487
sentrum	-12.4487
borger	-12.4487
sjekkliste	-12.4488
biblioteke	-12.4488
Tysk	-12.4488
religion	-12.4488
nyttig	-12.4488
besatt	-12.4489
grønn	-12.4489
kapital	-12.4489
mørke	-12.4489
presse	-12.4489
telefon	-12.4489
objekt	-12.4489
utfordringen	-12.4489
produsere	-12.4489
operasjon	-12.449
billion	-12.449
høyde	-12.449
utdannelse	-12.449
skygge	-12.449
utdanning	-12.449
organisme	-12.449
hjul	-12.449
fjor	-12.449
luft	-12.4491
Iran	-12.4491
århundre	-12.4491
grunnlag	-12.4491
relatert	-12.4492
oppnå	-12.4492
bestemt	-12.4492
prosent	-12.4492
nitiativ	-12.4493
morgen	-12.4493
blan	-12.4493
nasjonal	-12.4494
landsby	-12.4495
viruse	-12.4497
▁hydro	-12.4498
iverte	-12.4499
midt	-12.4502
▁krymp	-12.4504
rolle	-12.4506
kademiet	-12.4511
komponent	-12.4519
gyldig	-12.4529
ktigst	-12.4534
bløffe	-12.4543
▁konvolutt	-12.4547
instruksjon	-12.455
andring	-12.4554
primer	-12.4554
uliss	-12.4559
ygda	-12.4561
spring	-12.4562
dunderlig	-12.4565
versjonskontroll	-12.4569
▁visual	-12.457
konstruer	-12.458
ction	-12.4582
▁panafrikanis	-12.4585
givelse	-12.4585
▁anerkjen	-12.4592
▁spådom	-12.4592
▁tenår	-12.4592
tilhørere	-12.4595
surf	-12.4595
▁analog	-12.4602
▁homeopati	-12.4603
▁Produk	-12.4604
▁tvetydig	-12.4607
▁uskyld	-12.4609
▁alvor	-12.4611
tripl	-12.4613
▁Begre	-12.4613
kjemi	-12.4614
brill	-12.4618
nyhete	-12.4618
▁medliden	-12.4619
▁pusle	-12.4619
▁forferdel	-12.4621
▁akseler	-12.4622
klang	-12.4624
pesifik	-12.4624
▁synkron	-12.4624
▁veldedig	-12.4625
▁strip	-12.4627
elvorganiser	-12.4627
eriøs	-12.4627
gnorer	-12.4628
høvd	-12.4628
▁subjekt	-12.463
kredit	-12.463
ilstre	-12.4631
rømmen	-12.4631
midlene	-12.4632
estaurant	-12.4632
▁Befolkning	-12.4632
sraten	-12.4632
væpne	-12.4633
▁trav	-12.4633
iskeoppdrett	-12.4633
alvingsfront	-12.4633
ompleks	-12.4633
omeopati	-12.4633
marsj	-12.4633
monstre	-12.4633
undretusen	-12.4634
nonym	-12.4634
flekk	-12.4634
▁forbanne	-12.4634
▁prekogni	-12.4634
ntibiotik	-12.4634
▁gni	-12.4634
strøms	-12.4635
ateriell	-12.4635
gunstig	-12.4635
▁kompromiss	-12.4635
arkedsføring	-12.4635
▁optimal	-12.4635
ksytosin	-12.4635
▁resonn	-12.4635
ppgaven	-12.4635
▁Spesi	-12.4635
ørreundersøkelse	-12.4635
stempl	-12.4635
pressiv	-12.4635
▁tekno	-12.4635
▁instruks	-12.4635
▁Tenårings	-12.4635
▁crowd	-12.4635
▁steril	-12.4635
oskopi	-12.4635
▁Fukushima	-12.4635
▁filmrekvisi	-12.4635
▁katalys	-12.4635
▁kjæle	-12.4635
▁konserverings	-12.4635
hjulssyklist	-12.4635
kopiering	-12.4635
korrespondent	-12.4635
nyttelsesprosent	-12.4635
støpning	-12.4635
▁Blomste	-12.4635
▁Commons	-12.4635
▁Eksperte	-12.4635
▁Inkluder	-12.4635
▁Investering	-12.4635
▁Klasseromme	-12.4635
▁Klimaendring	-12.4635
▁Mantisreke	-12.4635
▁administrasjon	-12.4635
▁albatross	-12.4635
▁amatør	-12.4635
▁astronaute	-12.4635
▁balsamering	-12.4635
▁baseball	-12.4635
▁bivirkning	-12.4635
▁båtpropell	-12.4635
▁crisp	-12.4635
▁dinosaur	-12.4635
▁diskotek	-12.4635
▁dispensasjon	-12.4635
▁elefante	-12.4635
▁familiemedlemme	-12.4635
▁fanatiker	-12.4635
▁forskyvning	-12.4635
▁frastøt	-12.4635
▁fredagskveld	-12.4635
▁fuglereservat	-12.4635
▁gløtt	-12.4635
▁hardwarebutikke	-12.4635
▁hentydning	-12.4635
▁hundevalp	-12.4635
▁incentiv	-12.4635
▁jakthugge	-12.4635
▁kollisjon	-12.4635
▁kvadrillion	-12.4635
▁linjal	-12.4635
▁løgn	-12.4635
▁markedsreforme	-12.4635
▁mastodont	-12.4635
▁migrasjons	-12.4635
▁oppfinnsomhet	-12.4635
▁parallellogram	-12.4635
▁plastfragmente	-12.4635
▁representant	-12.4635
▁rovfisk	-12.4635
▁satelitt	-12.4635
▁stereotype	-12.4635
▁stikkorde	-12.4635
▁utlendinge	-12.4635
▁vannkrystalle	-12.4635
▁våtmark	-12.4635
America	-12.4635
annonsøre	-12.4635
autorisert	-12.4635
bombeangrep	-12.4635
disiplinær	-12.4635
eksportøren	-12.4635
eocortex	-12.4635
forutinntatt	-12.4635
gymnas	-12.4635
ikkelakselerator	-12.4635
infanteri	-12.4635
invasiv	-12.4635
karusell	-12.4635
konomien	-12.4635
kroppsliggjøring	-12.4635
ksjonsalgoritmen	-12.4635
nevrofysiologisk	-12.4635
nferanseromsmøte	-12.4635
ntektsforskjelle	-12.4635
ovedbudskap	-12.4635
prioritere	-12.4635
privilegert	-12.4635
punksjonsredskap	-12.4635
røykekampanje	-12.4635
saktivitete	-12.4635
sressursene	-12.4635
sstrøm	-12.4635
sutfordring	-12.4635
ævla	-12.4635
▁Apollo	-12.4635
▁Arekapalme	-12.4635
▁Argentin	-12.4635
▁Brigade	-12.4635
▁Buchanan	-12.4635
▁Budbringer	-12.4635
▁Bøke	-12.4635
▁Challenge	-12.4635
▁Encyclop	-12.4635
▁Kardashian	-12.4635
▁Kommunisme	-12.4635
▁Kostnaden	-12.4635
▁Kreft	-12.4635
▁Kultur	-12.4635
▁MENA	-12.4635
▁Matthew	-12.4635
▁Meksikogulf	-12.4635
▁Milit	-12.4635
▁Minecraft	-12.4635
▁Naturhistorisk	-12.4635
▁Pandora	-12.4635
▁Papir	-12.4635
▁Pengeplante	-12.4635
▁Prosjekt	-12.4635
▁Samfunns	-12.4635
▁Shakespear	-12.4635
▁Shinerama	-12.4635
▁Spesialist	-12.4635
▁Statsminister	-12.4635
▁Tahrir	-12.4635
▁Tononi	-12.4635
▁Tradisjon	-12.4635
▁Tørk	-12.4635
▁Utdanning	-12.4635
▁Utfordringen	-12.4635
▁Valentine	-12.4635
▁andregenerasjon	-12.4635
▁ansamling	-12.4635
▁antiserum	-12.4635
▁apartheid	-12.4635
▁armaturtråd	-12.4635
▁autentisitet	-12.4635
▁autentisk	-12.4635
▁avgrense	-12.4635
▁avsondret	-12.4635
▁ballettdanser	-12.4635
▁bataljonssjefen	-12.4635
▁befatte	-12.4635
▁beseire	-12.4635
▁bidragsyter	-12.4635
▁bilvindue	-12.4635
▁bombingen	-12.4635
▁cembalo	-12.4635
▁champagne	-12.4635
▁dampboble	-12.4635
▁databrikke	-12.4635
▁destruksjon	-12.4635
▁diagnostisk	-12.4635
▁dugnads	-12.4635
▁dyslektiker	-12.4635
▁dødsdømte	-12.4635
▁elektrokjemisk	-12.4635
▁energibehov	-12.4635
▁energiinnhold	-12.4635
▁entreprenør	-12.4635
▁essens	-12.4635
▁evidensbasert	-12.4635
▁fascinasjon	-12.4635
▁feromonene	-12.4635
▁forkynne	-12.4635
▁forvreng	-12.4635
▁fragmenter	-12.4635
▁franchise	-12.4635
▁funskjon	-12.4635
▁føydal	-12.4635
▁gatehjørne	-12.4635
▁gevinst	-12.4635
▁gullmedalje	-12.4635
▁hardbarke	-12.4635
▁hindu	-12.4635
▁inspirasjon	-12.4635
▁instruert	-12.4635
▁intervallopptak	-12.4635
▁irritere	-12.4635
▁jomfru	-12.4635
▁jordsmonn	-12.4635
▁jubel	-12.4635
▁kinofilm	-12.4635
▁klesvask	-12.4635
▁kollidere	-12.4635
▁kommersialiser	-12.4635
▁konfiskert	-12.4635
▁kongerike	-12.4635
▁konsument	-12.4635
▁kringkaster	-12.4635
▁kriteri	-12.4635
▁kroppsklokke	-12.4635
▁kumulativ	-12.4635
▁kvalitetss	-12.4635
▁kvantifisere	-12.4635
▁lunsjpausen	-12.4635
▁lysbryter	-12.4635
▁lyspære	-12.4635
▁læregutt	-12.4635
▁løvlag	-12.4635
▁marginal	-12.4635
▁marijuana	-12.4635
▁matressursen	-12.4635
▁middelklasse	-12.4635
▁narsissis	-12.4635
▁navigasjon	-12.4635
▁nedrustning	-12.4635
▁næringskjeden	-12.4635
▁observerbar	-12.4635
▁okkult	-12.4635
▁olympier	-12.4635
▁omdirigere	-12.4635
▁omfatte	-12.4635
▁omformulere	-12.4635
▁optimist	-12.4635
▁orienter	-12.4635
▁paraboloid	-12.4635
▁paranormal	-12.4635
▁pengevekslerne	-12.4635
▁perifer	-12.4635
▁personalisert	-12.4635
▁piano	-12.4635
▁pluripoten	-12.4635
▁politiradioe	-12.4635
▁poloskjorte	-12.4635
▁popularisert	-12.4635
▁portefølje	-12.4635
▁privilegi	-12.4635
▁prognose	-12.4635
▁proporsjon	-12.4635
▁pysjamas	-12.4635
▁pøse	-12.4635
▁repetitiv	-12.4635
▁representativ	-12.4635
▁restaurer	-12.4635
▁retorikk	-12.4635
▁revisjon	-12.4635
▁rømme	-12.4635
▁røntgen	-12.4635
▁røpe	-12.4635
▁selvmonter	-12.4635
▁selvmordsbomb	-12.4635
▁selvoppofre	-12.4635
▁selvpåført	-12.4635
▁sertifikate	-12.4635
▁skattebetaler	-12.4635
▁skjødesløshet	-12.4635
▁skravling	-12.4635
▁skreddersy	-12.4635
▁sovetablette	-12.4635
▁spaghetti	-12.4635
▁spindelvev	-12.4635
▁spurven	-12.4635
▁stamfar	-12.4635
▁substantiv	-12.4635
▁sverdfisk	-12.4635
▁svindler	-12.4635
▁switch	-12.4635
▁symbiose	-12.4635
▁såpeopera	-12.4635
▁særhendelse	-12.4635
▁sømløs	-12.4635
▁søppelhaug	-12.4635
▁termodynamikk	-12.4635
▁territorie	-12.4635
▁tilslørt	-12.4635
▁tjukk	-12.4635
▁transatlantisk	-12.4635
▁trigger	-12.4635
▁turnuskandidat	-12.4635
▁tyrannisk	-12.4635
▁tømme	-12.4635
▁tømming	-12.4635
▁underernært	-12.4635
▁utenomjordisk	-12.4635
▁vektløft	-12.4635
▁vindpotensiale	-12.4635
▁whiteboard	-12.4635
▁zimbabw	-12.4635
▁åpningssjokk	-12.4635
▁ørlite	-12.4635
rystal	-12.4635
▁BMW	-12.4635
▁aktuel	-12.4635
▁avfallsprodukt	-12.4635
▁bevaring	-12.4635
▁forbudspolitikk	-12.4635
▁impoten	-12.4635
▁initial	-12.4635
▁opptegnelse	-12.4635
▁smultring	-12.4635
▁utflukt	-12.4635
forsterkning	-12.4635
utskift	-12.4635
uttømm	-12.4635
▁Beatles	-12.4635
▁Black	-12.4635
▁Fried	-12.4635
▁Louis	-12.4635
▁Middel	-12.4635
▁Mikrofon	-12.4635
▁Sports	-12.4635
▁Superman	-12.4635
▁Terrafug	-12.4635
▁allmennheten	-12.4635
▁anleggsarbeider	-12.4635
▁atlanter	-12.4635
▁betegnelse	-12.4635
▁bisarr	-12.4635
▁flåte	-12.4635
▁fovea	-12.4635
▁hegemoni	-12.4635
▁hyrde	-12.4635
▁immigra	-12.4635
▁informert	-12.4635
▁jungel	-12.4635
▁kaffekopp	-12.4635
▁kolonial	-12.4635
▁manusforfatter	-12.4635
▁meksikan	-12.4635
▁meningsmåling	-12.4635
▁middagsbord	-12.4635
▁millennium	-12.4635
▁mutter	-12.4635
▁overnattings	-12.4635
▁pionér	-12.4635
▁predik	-12.4635
▁premie	-12.4635
▁rulletrappe	-12.4635
▁sjøve	-12.4635
▁statsborger	-12.4635
▁støvsug	-12.4635
▁tanagrateat	-12.4635
▁toppsaken	-12.4635
▁tryggleik	-12.4635
▁trål	-12.4635
▁viljesterk	-12.4635
Prince	-12.4635
bsorpsjon	-12.4635
dispensere	-12.4635
erstrek	-12.4635
grims	-12.4635
jernobyl	-12.4635
konsulent	-12.4635
ttighetsaktivist	-12.4635
▁Build	-12.4635
▁Filipp	-12.4635
▁Kniphause	-12.4635
▁SARS	-12.4635
▁adlyde	-12.4635
▁avfallsstrømmen	-12.4635
▁doktorgrad	-12.4635
▁dolos	-12.4635
▁dreiemoment	-12.4635
▁geysir	-12.4635
▁injiser	-12.4635
▁krabbe	-12.4635
!	-13.8246
♫	-13.8247
)	-13.8248
—	-13.8249
:	-13.825
?	-13.8251
&	-13.8252
ø	-13.8253
