<unk>	0
<s>	0
</s>	0
▁,	-3.00791
▁.	-3.14379
a	-3.90581
t	-4.043
y	-4.05847
▁	-4.10175
▁w	-4.10371
e	-4.14681
▁i	-4.4983
;	-4.49998
▁&	-4.51121
▁się	-4.55392
quo	-4.57788
ć	-4.59191
i	-4.59555
▁z	-4.61941
▁na	-4.62691
ę	-4.70857
▁to	-4.73002
u	-4.74648
ą	-4.81052
▁nie	-4.88106
▁że	-5.03918
▁do	-5.07304
my	-5.12655
▁jest	-5.14737
em	-5.15025
ie	-5.24924
m	-5.25368
o	-5.26047
ów	-5.35814
ych	-5.40555
▁o	-5.42893
ej	-5.46588
j	-5.55943
▁po	-5.60403
ego	-5.60668
▁jak	-5.70764
▁?	-5.71459
ch	-5.72097
▁W	-5.72176
▁co	-5.74196
▁:	-5.75344
sz	-5.77145
ł	-5.78715
▁To	-5.78833
cie	-5.7962
li	-5.83104
▁za	-5.96242
▁a	-6.01398
▁od	-6.06787
▁)	-6.07016
(	-6.07046
ach	-6.11769
▁tak	-6.14233
ś	-6.14998
ym	-6.15193
nie	-6.15914
▁tym	-6.16328
ami	-6.18204
▁dla	-6.25618
liśmy	-6.25639
s	-6.2626
▁Nie	-6.27685
▁są	-6.28926
▁ale	-6.29326
▁I	-6.32092
▁A	-6.34176
▁może	-6.35711
▁tego	-6.39345
łem	-6.41499
▁które	-6.42555
ła	-6.45335
▁by	-6.47657
z	-6.50783
ją	-6.50814
ż	-6.51309
ek	-6.52202
▁przez	-6.53434
▁ma	-6.5495
ło	-6.55198
nia	-6.55578
▁Po	-6.56908
▁bardzo	-6.64401
ni	-6.66627
▁czy	-6.66741
▁-	-6.67529
▁lat	-6.67716
▁Ale	-6.67987
c	-6.68572
ki	-6.71334
.	-6.72823
k	-6.72972
▁tylko	-6.73795
ka	-6.74129
g	-6.7648
▁Śmiech	-6.79088
d	-6.81844
▁mi	-6.81998
ne	-6.82833
▁ich	-6.82909
▁mnie	-6.83113
w	-6.83985
▁przy	-6.84962
le	-6.87017
p	-6.87734
▁u	-6.8846
r	-6.90043
▁który	-6.90094
▁ludzi	-6.901
▁Na	-6.90538
▁te	-6.90611
▁je	-6.91794
-	-6.92229
ły	-6.9267
▁więc	-6.92861
łam	-6.92873
▁ten	-6.93364
na	-6.93765
▁—	-6.96894
▁pod	-6.9739
▁sobie	-6.97457
▁bo	-6.97654
ce	-6.97749
l	-6.99565
mi	-6.99674
▁prze	-7.00189
▁było	-7.02055
▁♫	-7.02986
▁nas	-7.03779
om	-7.03868
cz	-7.06221
▁być	-7.06265
▁kiedy	-7.07998
▁Z	-7.09362
▁s	-7.10915
▁będzie	-7.11206
▁jeśli	-7.12226
wi	-7.12826
ci	-7.13471
am	-7.16315
▁Jest	-7.16318
▁go	-7.16582
▁też	-7.1744
▁był	-7.19173
▁ze	-7.19457
▁S	-7.2024
ny	-7.2097
▁Tak	-7.21232
▁tych	-7.21418
▁gdzie	-7.2267
ość	-7.2353
▁gdy	-7.25371
▁niż	-7.25678
▁już	-7.25871
▁można	-7.26033
▁...	-7.26566
wa	-7.28105
▁tej	-7.2828
▁Co	-7.29467
▁żeby	-7.29559
▁tam	-7.31814
▁rzeczy	-7.32864
▁sposób	-7.3311
ń	-7.33522
n	-7.34065
▁jako	-7.34388
jąc	-7.34598
ości	-7.35746
▁wiele	-7.35934
▁więcej	-7.36196
▁roku	-7.36861
uje	-7.36988
▁która	-7.37336
b	-7.37449
▁O	-7.38547
▁nasz	-7.38923
▁tu	-7.39141
no	-7.3937
▁ludzie	-7.39591
▁Jak	-7.40161
▁lub	-7.40722
ra	-7.41018
▁teraz	-7.41532
▁nam	-7.42537
▁aby	-7.42706
▁naprawd	-7.43488
▁Czy	-7.43709
la	-7.44694
er	-7.44748
▁Jeśli	-7.44937
▁nad	-7.47422
zy	-7.4865
▁moj	-7.51999
▁nawet	-7.52218
go	-7.52289
▁Więc	-7.52693
▁jej	-7.53831
ymi	-7.54112
rze	-7.54614
▁wszystko	-7.54763
▁nich	-7.5575
▁czas	-7.55901
▁jego	-7.56183
ować	-7.56572
▁sam	-7.56702
▁temu	-7.56855
▁Może	-7.5791
▁mamy	-7.57954
▁J	-7.58319
▁dzieci	-7.58599
ze	-7.5872
▁ja	-7.5879
▁bez	-7.59283
▁świecie	-7.59944
▁ponieważ	-7.59968
dzi	-7.60279
▁Za	-7.60781
pi	-7.60785
▁przykład	-7.6141
▁ta	-7.62514
▁p	-7.62984
▁właśnie	-7.63303
tem	-7.63765
▁jeszcze	-7.64071
▁taki	-7.64628
▁mówi	-7.6469
▁przed	-7.6477
f	-7.64928
bardziej	-7.65444
▁była	-7.66294
si	-7.66546
▁którz	-7.66882
▁wam	-7.67092
bi	-7.67369
apos	-7.67888
coś	-7.6815
▁mają	-7.68411
enia	-7.69916
cy	-7.70151
▁Kiedy	-7.70691
▁wszystkie	-7.70845
▁Brawa	-7.7085
▁życia	-7.71101
rz	-7.7148
▁zrobić	-7.71632
▁świat	-7.72036
ści	-7.72352
▁roz	-7.72556
by	-7.73065
niu	-7.73076
▁których	-7.73085
owe	-7.74093
um	-7.75639
▁Dziękuję	-7.76103
▁T	-7.76135
al	-7.77942
▁kto	-7.78367
▁którym	-7.78377
▁U	-7.78984
▁P	-7.79102
▁da	-7.80624
ku	-7.81054
▁mogą	-7.81118
▁ją	-7.81684
▁%	-7.82211
ko	-7.8326
or	-7.83652
enie	-7.83843
st	-7.84284
czy	-7.85117
wo	-7.85276
▁Ma	-7.85841
▁B	-7.8592
▁kilka	-7.86187
▁innych	-7.86272
▁życie	-7.86381
▁wielu	-7.87637
ro	-7.87655
▁każdy	-7.87737
ują	-7.88494
ąc	-7.90092
▁tutaj	-7.90328
▁on	-7.9114
dy	-7.91243
▁Do	-7.91523
ry	-7.91699
▁nasze	-7.91869
an	-7.91991
▁widzi	-7.9218
owi	-7.92195
in	-7.92799
one	-7.93805
za	-7.93923
▁takie	-7.93944
▁robi	-7.9438
ną	-7.9438
tego	-7.94559
▁mam	-7.94621
ar	-7.94765
sta	-7.94834
▁10	-7.95072
▁was	-7.95281
▁G	-7.95872
▁cał	-7.9617
▁ko	-7.96799
on	-7.97311
nych	-7.97393
▁albo	-7.97479
▁system	-7.97615
owych	-7.97853
▁jaki	-7.97871
ga	-7.97886
▁20	-7.98129
▁!	-7.98283
▁im	-7.98305
iem	-7.98315
▁chodzi	-7.98587
▁miał	-7.98849
ść	-7.99057
▁inne	-8.00063
▁mog	-8.00171
▁także	-8.00245
lu	-8.0039
dzie	-8.00495
▁Oto	-8.00803
re	-8.01027
▁oraz	-8.01336
▁raz	-8.01366
▁również	-8.01867
ad	-8.03545
el	-8.03842
▁E	-8.04123
▁stanie	-8.0431
▁samo	-8.04501
▁rodzaj	-8.04604
▁chce	-8.04744
▁wszystkich	-8.0482
▁3	-8.0497
▁pracy	-8.04996
▁jesteśmy	-8.05971
da	-8.0599
▁świata	-8.0621
▁Od	-8.06559
▁jednak	-8.06846
bie	-8.06918
▁now	-8.07147
ur	-8.07456
▁dwa	-8.07841
gi	-8.0797
▁siebie	-8.08047
rzy	-8.08111
▁były	-8.08396
eń	-8.0855
od	-8.08568
▁wtedy	-8.08769
▁obraz	-8.0908
ał	-8.09153
▁Prze	-8.09461
kę	-8.09528
▁milion	-8.09813
▁którą	-8.09906
▁swoje	-8.10418
▁jeden	-8.1062
en	-8.10645
▁Te	-8.11546
▁projekt	-8.11663
ca	-8.11875
▁Dla	-8.12017
▁czasu	-8.12028
▁swoj	-8.12942
▁dużo	-8.13343
dzięki	-8.13605
▁C	-8.13959
▁jestem	-8.13988
raz	-8.14206
dczas	-8.14728
▁ci	-8.14892
owy	-8.14987
▁tę	-8.15368
▁trochę	-8.15426
ujemy	-8.15982
▁problem	-8.17061
▁różn	-8.17652
▁rzecz	-8.17804
▁części	-8.18201
zie	-8.18979
▁wygląda	-8.19742
▁spraw	-8.19792
▁mu	-8.1993
▁działa	-8.20393
▁jakie	-8.21171
ają	-8.21407
▁myśl	-8.21456
po	-8.2147
to	-8.21511
▁razem	-8.21832
▁przypadk	-8.22205
▁około	-8.22257
▁nic	-8.22313
Teraz	-8.23006
▁mó	-8.23175
▁będą	-8.23235
▁powiedział	-8.233
▁Ta	-8.2353
ony	-8.23577
ując	-8.23598
▁zawsze	-8.23752
▁której	-8.2381
▁wszyscy	-8.24118
▁moje	-8.24173
trzeba	-8.2465
▁prostu	-8.24796
wy	-8.24809
▁czego	-8.2547
▁D	-8.25795
▁K	-8.2617
owa	-8.26245
▁mieć	-8.26462
nd	-8.27641
▁R	-8.28164
▁H	-8.2865
▁temat	-8.29024
▁trzy	-8.2975
▁pytanie	-8.3011
▁nigdy	-8.30116
lo	-8.30214
śmy	-8.30216
▁musi	-8.30346
ką	-8.30369
▁używa	-8.3082
▁między	-8.31257
▁dobrze	-8.31356
▁nim	-8.31395
sa	-8.31912
▁g	-8.31922
▁miejsce	-8.32288
ri	-8.32558
ona	-8.32869
▁musimy	-8.33554
ru	-8.33773
▁Przy	-8.34205
bo	-8.3457
▁ponad	-8.34696
▁czym	-8.34942
▁grup	-8.35186
▁Ten	-8.35201
cze	-8.35915
▁Musi	-8.36061
ając	-8.36076
▁Są	-8.36102
▁osób	-8.36123
▁ostatni	-8.3624
▁proces	-8.3632
▁każd	-8.36788
▁domu	-8.368
▁jedno	-8.368
pa	-8.36809
ter	-8.36893
▁dolarów	-8.37704
▁pierwsze	-8.37783
▁później	-8.38275
▁mniej	-8.38443
▁Jednak	-8.3854
▁powiedzieć	-8.39037
▁czasie	-8.39661
▁zobaczyć	-8.3967
ków	-8.3971
▁oznacza	-8.39827
▁Bo	-8.39873
▁następn	-8.39996
owej	-8.40025
▁Mam	-8.40455
ow	-8.40629
▁Ja	-8.40867
▁cel	-8.40909
▁dzieje	-8.40963
ście	-8.41051
fi	-8.41431
▁pierwszy	-8.41515
▁lata	-8.41603
anie	-8.41769
zi	-8.41807
▁kobiet	-8.41977
▁widać	-8.41999
ska	-8.42093
▁Mamy	-8.42187
▁form	-8.42447
czego	-8.42473
ba	-8.42505
▁pewn	-8.42884
cza	-8.43134
owie	-8.43329
▁dnia	-8.43525
os	-8.4385
▁najbardziej	-8.44
▁poziom	-8.44206
▁nowe	-8.44601
us	-8.44878
▁Myśl	-8.4507
▁Ziemi	-8.45174
▁Gdy	-8.4521
▁historii	-8.45714
str	-8.4579
▁wieku	-8.4587
owanie	-8.45935
▁gra	-8.46155
▁pomysł	-8.47246
▁5	-8.47327
▁Był	-8.47518
▁4	-8.4766
owania	-8.47736
▁dane	-8.47761
▁pi	-8.47878
▁ob	-8.47948
▁niektór	-8.48784
▁star	-8.49001
br	-8.49142
A	-8.49324
dz	-8.49386
▁Można	-8.49455
▁re	-8.49513
ono	-8.496
nik	-8.49666
▁pomoc	-8.49759
▁którego	-8.49776
ź	-8.4992
▁robić	-8.50425
h	-8.50523
▁dalej	-8.50652
▁rząd	-8.50674
▁mózgu	-8.5113
▁cały	-8.51316
▁moim	-8.51372
uję	-8.51408
▁Ch	-8.51887
dziś	-8.52145
nym	-8.52494
▁ciągu	-8.52542
kiem	-8.52987
▁dni	-8.53212
▁r	-8.5323
2	-8.53369
▁one	-8.53433
▁ty	-8.54265
▁innym	-8.54519
▁ważne	-8.54589
▁2	-8.54849
▁zaczyna	-8.54942
▁żadn	-8.5519
▁USA	-8.55234
mu	-8.55324
▁możliwości	-8.55504
▁moi	-8.56689
▁jedyn	-8.56841
S	-8.57053
▁zrobi	-8.57075
▁pokaza	-8.57141
▁Oklaski	-8.57156
cia	-8.57187
owego	-8.57481
▁50	-8.57498
▁30	-8.57753
▁kraj	-8.58163
▁wcześniej	-8.58379
▁chcę	-8.58622
ciąż	-8.58735
▁stworzyć	-8.59116
▁końcu	-8.59363
▁F	-8.59392
amiast	-8.59925
▁razy	-8.60019
▁danych	-8.60439
ul	-8.60613
▁jesteś	-8.61087
▁miejsca	-8.61249
0	-8.61276
▁M	-8.61567
wał	-8.61612
▁obecn	-8.61617
▁model	-8.61874
▁gór	-8.62424
▁kr	-8.62482
▁tyle	-8.62499
▁częś	-8.62648
▁szybko	-8.62933
▁ani	-8.63126
ali	-8.63169
▁nadziej	-8.63446
▁naszym	-8.64047
▁aż	-8.64051
▁pro	-8.64274
es	-8.64664
▁technologii	-8.64709
jących	-8.64803
▁procent	-8.64825
▁wpływ	-8.64887
▁Wiel	-8.6503
że	-8.65326
▁ona	-8.65368
owym	-8.65485
nego	-8.65561
nej	-8.65582
▁de	-8.65602
ck	-8.65751
▁badania	-8.65753
owo	-8.65894
ową	-8.6595
▁Dlaczeg	-8.663
▁jedną	-8.66555
▁dwóch	-8.66839
▁często	-8.66985
▁my	-8.67123
▁100	-8.67143
▁energii	-8.67288
▁każdego	-8.67348
▁wszystkim	-8.67362
▁sposob	-8.67427
▁podobn	-8.67673
▁Ludzi	-8.67818
de	-8.68121
ania	-8.68651
▁większość	-8.68777
▁wiem	-8.6883
▁h	-8.68963
nią	-8.68986
▁zbyt	-8.69232
▁program	-8.69473
▁powodu	-8.69537
▁Chc	-8.69647
▁sobą	-8.69673
kolwiek	-8.69816
▁znaleźć	-8.70085
D	-8.7022
▁całym	-8.70275
uk	-8.70311
dr	-8.70735
▁wiemy	-8.70863
▁Dzi	-8.70881
▁zmienić	-8.71108
▁jednym	-8.71111
▁No	-8.71301
▁lepiej	-8.71756
kon	-8.71955
▁k	-8.72037
▁ziemi	-8.72155
▁młod	-8.72355
era	-8.72358
▁chciał	-8.72446
▁życiu	-8.7246
▁Mówi	-8.72508
▁czyli	-8.72511
sty	-8.73046
▁głos	-8.73248
▁zmienia	-8.7339
▁oczywiście	-8.73457
▁myśli	-8.73551
liście	-8.73626
▁wielki	-8.73755
4	-8.73781
▁wody	-8.73837
▁zna	-8.73981
▁zrozumieć	-8.7407
▁różne	-8.74113
▁ruch	-8.74468
jcie	-8.74565
▁stan	-8.74765
▁oni	-8.75019
zna	-8.75035
iej	-8.75234
▁mężczyzn	-8.75327
▁publiczn	-8.75566
▁sieci	-8.75835
nt	-8.75914
do	-8.75982
wie	-8.76051
▁główn	-8.76164
▁istnieje	-8.76205
▁latach	-8.76297
▁TED	-8.76645
▁By	-8.76651
▁1	-8.76688
▁dwie	-8.76757
▁zmian	-8.77067
▁naszego	-8.77153
5	-8.77201
▁kraju	-8.77249
▁drugi	-8.77383
pad	-8.77568
▁lecz	-8.77589
▁zdjęcie	-8.77831
▁mózg	-8.78178
▁prawie	-8.78311
▁informacji	-8.78393
▁czegoś	-8.78798
zupełnie	-8.79297
▁Mi	-8.79424
▁niego	-8.7989
▁kobiety	-8.80006
▁kilku	-8.80094
nieważ	-8.8021
▁niej	-8.80217
rod	-8.80648
▁fakt	-8.80696
▁takiego	-8.80697
nę	-8.8075
▁koniec	-8.80783
▁15	-8.80843
ks	-8.81042
▁mogli	-8.81292
▁ba	-8.81468
śród	-8.81526
▁byli	-8.81734
▁Jesteś	-8.81985
ak	-8.81994
▁poza	-8.81998
▁minut	-8.82021
▁miała	-8.82122
anim	-8.82185
▁dosta	-8.82776
▁większ	-8.82837
▁V	-8.82917
jące	-8.83005
▁c	-8.83023
▁zobaczy	-8.83106
▁Le	-8.83623
▁prawdziw	-8.83675
▁kon	-8.83916
▁godzin	-8.84047
▁film	-8.84179
▁inny	-8.84201
▁język	-8.84205
ing	-8.84221
ó	-8.84261
▁prawda	-8.84483
op	-8.84487
▁jakby	-8.84579
▁samym	-8.84685
▁Mo	-8.84756
▁nimi	-8.84914
▁stało	-8.84969
P	-8.85022
▁strony	-8.85062
między	-8.85218
owane	-8.85293
▁N	-8.85498
jący	-8.85521
nk	-8.85535
czą	-8.85607
M	-8.85709
wiecie	-8.85897
▁ok	-8.85897
▁f	-8.85939
8	-8.85998
▁uwagę	-8.86088
▁społeczności	-8.86129
▁jednego	-8.86136
▁telefon	-8.86218
▁odpowiedni	-8.86232
▁tworzy	-8.8631
▁nowy	-8.86402
óż	-8.86638
▁swoich	-8.86716
▁sp	-8.86756
ll	-8.86783
ol	-8.8683
▁nauk	-8.86932
▁jedna	-8.86957
▁plan	-8.87307
▁dokładnie	-8.87363
sko	-8.87382
▁200	-8.87438
▁6	-8.87505
▁miejscu	-8.87532
▁swoim	-8.87534
ór	-8.87703
C	-8.87745
▁obszar	-8.87809
9	-8.87845
żyć	-8.87897
cyjn	-8.88144
bu	-8.88175
▁początku	-8.88529
tor	-8.88808
▁przyszłości	-8.88944
▁szuka	-8.88952
zwykle	-8.89024
▁Oczywiści	-8.89025
▁nadal	-8.89073
wiedzieć	-8.89268
▁został	-8.89359
▁naturaln	-8.89483
▁zmiany	-8.89803
▁wyp	-8.90013
▁zdjęcia	-8.9003
kół	-8.90338
przez	-8.904
▁przestrzeni	-8.90706
▁ciała	-8.90746
▁posiada	-8.90885
lon	-8.91018
▁praw	-8.91631
T	-8.91633
▁uży	-8.91797
▁dzisiaj	-8.91901
▁małe	-8.92115
▁prób	-8.92138
▁jednej	-8.92161
▁Ob	-8.92195
▁powierzchni	-8.92245
▁Pod	-8.92254
▁typ	-8.9231
is	-8.92448
▁piękn	-8.92566
▁firm	-8.92648
▁rzeczywistości	-8.92796
niem	-8.92838
▁całe	-8.93036
▁globaln	-8.93289
▁uda	-8.93295
▁Ci	-8.93304
▁kształt	-8.9337
▁mieli	-8.93371
▁produkt	-8.93458
▁słowa	-8.93482
▁Bardz	-8.93619
▁chcą	-8.93639
we	-8.93717
▁Dzięk	-8.93724
cji	-8.93898
▁potrafi	-8.93936
▁miasta	-8.94042
▁pracę	-8.94147
▁wspóln	-8.94306
gu	-8.94618
rząd	-8.94811
▁eksperyment	-8.94888
I	-8.94932
▁gen	-8.95
▁tysięc	-8.95056
cja	-8.95101
▁sie	-8.95116
▁Tu	-8.95208
▁gdyby	-8.95314
▁prowadzi	-8.95348
▁dobr	-8.9539
▁znaczy	-8.95522
▁Widzi	-8.95525
▁polega	-8.95606
▁wymaga	-8.95751
ował	-8.96131
kow	-8.96251
▁wartości	-8.96348
▁prac	-8.96393
szyscy	-8.9643
▁dobre	-8.96683
3	-8.96925
byście	-8.96995
▁robią	-8.97075
▁wydaje	-8.97095
▁Re	-8.97279
▁powinniś	-8.97477
▁ludziom	-8.97548
▁ku	-8.97623
▁rak	-8.97753
▁komputer	-8.97803
man	-8.97949
1	-8.9798
▁kolor	-8.98107
▁badań	-8.98141
nów	-8.98143
min	-8.98274
kami	-8.98377
91	-8.98406
▁właściwie	-8.98427
▁dzień	-8.9849
sto	-8.98499
▁40	-8.98595
du	-8.98634
6	-8.98808
▁zosta	-8.99217
E	-8.99385
▁punkt	-8.9944
▁nazywa	-8.99448
▁cię	-8.99475
▁Przez	-8.99492
7	-8.9974
▁opiek	-8.99744
spół	-8.99978
▁nik	-9.00061
▁rok	-9.0043
▁cen	-9.00437
▁kogo	-9.00468
▁pół	-9.00515
▁sukces	-9.00688
▁naukowc	-9.0091
uż	-9.00967
▁koszt	-9.01036
▁mał	-9.01247
ob	-9.0131
▁materiał	-9.01388
dź	-9.01419
▁ile	-9.0153
▁drugie	-9.01547
▁komórki	-9.01631
▁Powiedział	-9.01851
sh	-9.01888
▁dr	-9.01961
ent	-9.0212
▁wys	-9.0212
ton	-9.02178
▁tr	-9.02185
▁La	-9.02217
▁szczególn	-9.02269
▁zabaw	-9.02596
▁dziecko	-9.02639
▁musz	-9.02668
▁zap	-9.02855
▁pr	-9.02857
▁mieszka	-9.03075
00	-9.0311
▁Ro	-9.03179
▁takim	-9.03239
▁człowiek	-9.03408
O	-9.03621
sy	-9.03634
▁b	-9.03723
▁Sz	-9.03812
swój	-9.03959
tar	-9.04002
ok	-9.04132
dzą	-9.04184
▁Ka	-9.04244
▁tygodni	-9.04421
edług	-9.04506
▁Wszystk	-9.04632
▁liczb	-9.04746
▁Tuta	-9.04775
▁organizm	-9.04918
▁d	-9.04999
▁szkoły	-9.05109
▁duż	-9.05229
▁pozwala	-9.05306
▁Następn	-9.05311
praw	-9.05459
▁pacjent	-9.05477
▁metod	-9.05505
▁historię	-9.05672
▁zaczą	-9.05748
▁chorob	-9.05759
▁zbudowa	-9.05843
▁pierwsz	-9.05865
93;	-9.05881
wać	-9.05947
▁Niektór	-9.06079
▁człowieka	-9.0617
wan	-9.06289
▁Wiem	-9.06439
▁oto	-9.0654
▁ważn	-9.06723
▁Kto	-9.06755
▁Ra	-9.06817
▁całkowic	-9.07073
▁lekarz	-9.07117
▁dźwięk	-9.07153
▁mówić	-9.07282
▁inaczej	-9.07473
▁względ	-9.07473
▁brzmi	-9.07512
ością	-9.07789
▁pozna	-9.07983
eniu	-9.08016
acji	-9.08121
ski	-9.08188
▁ulic	-9.08232
▁centr	-9.08242
▁znajduje	-9.0828
nicz	-9.08312
▁zale	-9.08334
▁możliwe	-9.08371
▁odpowiedzi	-9.08371
▁całki	-9.08425
ns	-9.08535
▁tys	-9.08616
zo	-9.08621
▁częścią	-9.08668
▁L	-9.08862
▁stara	-9.08865
▁osoby	-9.09055
pu	-9.09057
▁naukow	-9.09219
▁pas	-9.09276
▁nauczyciel	-9.095
▁000	-9.09502
ist	-9.09796
▁Każdy	-9.1003
▁otrzyma	-9.10105
▁szans	-9.10116
G	-9.10128
▁18	-9.10136
▁granic	-9.10137
▁odkry	-9.10139
▁mały	-9.10141
ności	-9.10212
letni	-9.10387
▁Ba	-9.10407
▁kiedyś	-9.10537
▁test	-9.10553
▁biał	-9.10745
dział	-9.10749
▁czymś	-9.10789
▁kim	-9.10837
▁teori	-9.1096
▁opowiada	-9.1104
▁7	-9.1109
▁przedmiot	-9.11151
wet	-9.11249
▁mówił	-9.11256
▁ciekaw	-9.11444
ator	-9.11458
▁Ko	-9.1155
łeś	-9.11715
▁staje	-9.11716
nika	-9.1175
▁dostęp	-9.11781
▁muszą	-9.11845
▁doda	-9.11894
▁ogromn	-9.1195
▁ludźmi	-9.11987
tedy	-9.12138
ład	-9.12183
ed	-9.1238
▁pyta	-9.12421
▁syn	-9.12431
▁mówiąc	-9.12483
▁umysł	-9.12555
▁problemów	-9.12579
▁udało	-9.1261
por	-9.12788
▁uważa	-9.12889
▁zasad	-9.13097
nu	-9.13119
▁historia	-9.13191
▁czarn	-9.13255
▁maszyn	-9.13342
nąć	-9.13377
▁par	-9.13461
war	-9.13475
▁zda	-9.1361
▁pytania	-9.13628
▁najlepsz	-9.1368
▁będę	-9.1368
▁należy	-9.1368
▁roślin	-9.13689
▁ciąg	-9.13702
▁in	-9.1379
▁sta	-9.13958
▁postęp	-9.14059
▁osob	-9.1418
▁inn	-9.14398
lan	-9.1442
▁no	-9.14661
tan	-9.14925
▁bi	-9.14927
▁edukacj	-9.14969
▁miesięcy	-9.14969
▁przedstawi	-9.15054
▁Roz	-9.15202
▁map	-9.15231
▁celu	-9.15257
▁Muzyk	-9.15404
▁różnic	-9.15511
▁naszą	-9.15547
▁musiał	-9.15634
kach	-9.15638
R	-9.15707
▁Al	-9.15729
▁wasz	-9.15903
▁60	-9.16006
▁krok	-9.16037
▁miejsc	-9.16089
▁przyszłość	-9.16114
▁układ	-9.16169
zon	-9.16344
▁pisa	-9.16488
owaliśmy	-9.16557
hi	-9.16566
▁czeka	-9.16608
▁Bu	-9.16665
ewien	-9.16737
▁otwart	-9.16934
▁myśleć	-9.16975
▁ocean	-9.16994
▁średni	-9.17068
▁równ	-9.17092
▁proste	-9.17127
▁Afryce	-9.17155
▁daje	-9.1721
▁las	-9.17303
▁same	-9.17427
ność	-9.1751
▁zwan	-9.17542
▁mówią	-9.17558
▁ludzki	-9.17734
▁8	-9.17922
▁pomóc	-9.17962
gen	-9.18091
czne	-9.1845
▁wyda	-9.18506
rów	-9.18978
rac	-9.18979
czas	-9.19116
▁jaką	-9.19123
pro	-9.19126
▁mas	-9.19261
▁energi	-9.19288
▁słucha	-9.19312
▁Chodzi	-9.1939
▁DNA	-9.19616
▁12	-9.19766
▁pieniędzy	-9.19789
▁własn	-9.20086
ik	-9.20087
onych	-9.20175
▁uczy	-9.20256
owany	-9.203
▁Now	-9.20353
bym	-9.20422
▁szczęście	-9.20526
▁budow	-9.20725
▁ochron	-9.20758
ir	-9.20789
▁pewnie	-9.21104
emu	-9.21153
▁Wielki	-9.21221
▁Pi	-9.21273
▁rozumie	-9.21344
▁porusza	-9.21402
▁informacje	-9.21512
▁mógł	-9.21614
ner	-9.21657
▁kar	-9.21686
▁problemy	-9.21724
zę	-9.22034
▁prawd	-9.22062
równo	-9.22226
▁zaczął	-9.22259
▁chciałby	-9.22568
▁światło	-9.2259
▁kultur	-9.22608
▁moc	-9.22707
▁dobry	-9.22792
krę	-9.22804
▁mną	-9.22869
ran	-9.2309
▁zmieni	-9.23237
▁pan	-9.23476
▁firmy	-9.23536
▁efekt	-9.23542
▁śmiech	-9.23542
▁pochodzi	-9.23615
▁stronie	-9.23657
óg	-9.23717
▁rozwoju	-9.2372
owali	-9.23858
▁spotka	-9.23862
▁pieniądze	-9.23901
▁choć	-9.23946
ve	-9.23948
▁sekund	-9.24015
▁ogląda	-9.24252
▁osiągną	-9.24489
▁wzrost	-9.24572
▁zada	-9.24665
ng	-9.24804
▁stronę	-9.24838
▁powstał	-9.24932
▁list	-9.24944
▁korzysta	-9.24966
▁światła	-9.25037
znacznie	-9.25121
▁zdrow	-9.25174
wanie	-9.25239
▁użyci	-9.25287
▁wiedz	-9.25297
▁zrobił	-9.25481
▁9	-9.25547
▁80	-9.25601
ujące	-9.25649
il	-9.25783
ss	-9.25895
▁duże	-9.25951
▁struktur	-9.26139
▁niesamowite	-9.26153
▁Czas	-9.26179
▁wybor	-9.26287
th	-9.26318
▁element	-9.2642
B	-9.26434
den	-9.26447
▁mniejsz	-9.2655
▁uzna	-9.26603
▁mnóstw	-9.26653
▁cztery	-9.26653
▁prawa	-9.26879
ho	-9.26929
ron	-9.26966
▁śmierci	-9.27176
▁spo	-9.27368
eś	-9.27513
log	-9.27534
▁widział	-9.2754
ety	-9.27585
▁technologia	-9.28177
▁technologi	-9.28324
▁podstaw	-9.28352
▁lokaln	-9.28369
son	-9.28392
ała	-9.28421
▁stworzy	-9.28503
▁udział	-9.28506
▁chyb	-9.28535
▁Internet	-9.28616
dni	-9.28763
stety	-9.28823
▁środku	-9.28947
awia	-9.2914
▁działania	-9.29334
nnego	-9.29345
▁sami	-9.29392
▁In	-9.29393
▁Da	-9.29457
▁Mar	-9.29535
▁największ	-9.29599
▁lek	-9.29632
▁jakim	-9.29688
stęp	-9.29749
zu	-9.29805
▁moment	-9.30003
▁pomocy	-9.30191
▁On	-9.302
▁rozwija	-9.30258
▁zwierząt	-9.30366
▁Miał	-9.30379
▁sw	-9.30439
▁prawdopodobnie	-9.30456
▁Mog	-9.30532
▁mógłby	-9.30692
▁Jako	-9.30707
gl	-9.30821
▁rozmow	-9.30907
▁pełn	-9.30985
▁złożon	-9.30994
▁zauważy	-9.31009
▁Ha	-9.31116
▁Wyobraź	-9.3138
▁przyjaciół	-9.3138
tro	-9.31435
▁racz	-9.31463
ha	-9.31513
▁gotow	-9.31518
▁Sta	-9.31541
der	-9.31594
▁rozmawia	-9.31681
▁ostatnie	-9.31775
▁kupi	-9.31797
▁ps	-9.31944
▁ro	-9.31997
▁fizyczn	-9.32156
▁przyczyn	-9.32199
wal	-9.32295
▁możliwość	-9.32444
▁dziewczyn	-9.32571
▁zwierzęta	-9.32666
▁ilości	-9.3278
▁serca	-9.32838
mierz	-9.32851
▁wiedział	-9.32941
▁patrzy	-9.32962
▁wierzy	-9.33019
▁masz	-9.33082
▁szczęśliw	-9.33179
▁trzech	-9.3318
▁Większoś	-9.3324
▁rozwiązanie	-9.33266
▁władz	-9.33293
▁Si	-9.33294
dza	-9.33316
▁dobra	-9.33368
▁rodziny	-9.33369
▁prywatn	-9.33439
▁zysk	-9.33496
▁została	-9.33524
▁pewnym	-9.33538
L	-9.33641
▁prawo	-9.3365
▁stać	-9.33686
kry	-9.33705
zwyczaj	-9.33928
▁rad	-9.34047
eni	-9.3415
▁Było	-9.34154
▁wykona	-9.34374
▁Pa	-9.345
▁dom	-9.34557
▁polityczn	-9.34688
▁Pierwsz	-9.34837
▁bio	-9.34892
▁zostało	-9.34919
▁zasadzi	-9.34926
▁wo	-9.35
cznie	-9.35018
▁ryb	-9.35127
▁miliardów	-9.35239
ane	-9.3526
▁przypomina	-9.35276
▁skór	-9.35289
▁wysoki	-9.35361
▁pomaga	-9.35635
sie	-9.35638
żeli	-9.35768
▁Chciał	-9.35777
▁Me	-9.3592
▁głow	-9.35951
▁la	-9.35979
ment	-9.36012
▁wielkie	-9.36038
ren	-9.36053
▁instytucj	-9.36074
▁dzisiejsz	-9.36074
pr	-9.36119
▁Spójrz	-9.36342
▁rozwiązania	-9.3636
▁niezwykł	-9.36369
fer	-9.36395
cześnie	-9.36419
▁przyszł	-9.3642
szedł	-9.36453
▁trudno	-9.36545
▁sprawi	-9.36555
▁reszt	-9.36626
▁pozwoli	-9.36678
▁praca	-9.36739
▁lepsze	-9.36827
▁systemu	-9.36861
▁oczy	-9.36861
▁osoba	-9.36909
spo	-9.36976
▁trzeci	-9.37096
▁długi	-9.37125
▁trzyma	-9.37148
▁czemu	-9.37152
rzeba	-9.37175
eżeli	-9.37205
▁znaczenie	-9.37216
be	-9.37581
▁bada	-9.3772
▁Każd	-9.37805
▁pracować	-9.3781
▁Pro	-9.37818
▁90	-9.37829
łby	-9.37936
▁sądz	-9.37996
czenie	-9.38223
▁stał	-9.38257
▁komórek	-9.38259
▁poważn	-9.38332
▁codzienn	-9.38511
kowa	-9.38566
▁przesta	-9.38751
rzuca	-9.38754
▁żon	-9.38754
▁nami	-9.38763
▁Chciałby	-9.38822
▁kocha	-9.38829
mar	-9.38892
▁Mó	-9.39193
▁De	-9.39272
▁Br	-9.39393
ników	-9.39401
ster	-9.39409
▁obiekt	-9.39421
▁11	-9.39681
kra	-9.39704
▁brak	-9.39799
czek	-9.39816
▁pamięta	-9.39822
▁czu	-9.39834
źle	-9.39861
▁powinien	-9.39884
▁społeczn	-9.39949
▁cyfrow	-9.39972
▁pewne	-9.40176
per	-9.40178
▁sprawia	-9.4061
rab	-9.40628
ian	-9.408
▁25	-9.40867
▁skupi	-9.40895
▁Cóż	-9.41051
▁mieliś	-9.41197
▁iloś	-9.41213
▁potrzebujemy	-9.41224
▁Istniej	-9.41281
noszą	-9.4149
▁konkretn	-9.41563
▁opowiedzieć	-9.41564
▁byłoby	-9.41636
kom	-9.41647
▁pojawił	-9.41723
fa	-9.41781
chodząc	-9.41791
▁teren	-9.41821
cki	-9.41829
▁miało	-9.41886
miesz	-9.42002
▁zielon	-9.42141
▁Li	-9.42148
▁zdrowia	-9.42153
▁pokazuje	-9.42176
▁siln	-9.42213
▁Tr	-9.42215
▁chwili	-9.42216
▁ścian	-9.42233
piero	-9.42285
▁Nasz	-9.42397
▁momencie	-9.42412
▁samolot	-9.42415
wiąz	-9.42442
▁tworzyć	-9.42487
▁książki	-9.42495
▁wspaniał	-9.42682
con	-9.42758
czyć	-9.42763
▁kor	-9.42766
tąd	-9.42828
▁zaraz	-9.42847
ana	-9.4289
▁trudne	-9.42912
▁ciemn	-9.42935
▁Nigd	-9.42986
▁mimo	-9.43154
zenia	-9.43182
▁niewiel	-9.43217
▁stanowi	-9.43256
▁kamer	-9.43272
▁pięć	-9.43295
▁fa	-9.43317
▁odpowiada	-9.43649
▁długo	-9.43665
puści	-9.43668
▁choroby	-9.43748
▁znalazł	-9.43845
▁stopni	-9.44001
▁odpowiedź	-9.44004
wrócić	-9.44182
tra	-9.44276
▁zaczęła	-9.44426
głos	-9.44443
▁OK	-9.4448
▁ofiar	-9.44715
▁nagle	-9.44743
▁wynik	-9.44743
najmniej	-9.44813
▁Wszystkie	-9.44821
▁organizacj	-9.44873
▁Nik	-9.44983
▁przetrwa	-9.45007
▁Pokaż	-9.45027
patrz	-9.4503
▁sytuacji	-9.45055
zenie	-9.45123
▁nauczył	-9.45427
▁potrzeba	-9.45429
▁wyniki	-9.45496
zm	-9.45507
▁prosty	-9.45537
▁Ar	-9.45672
puszcza	-9.45714
dwie	-9.45718
▁Zna	-9.45758
▁czerwon	-9.45886
▁końca	-9.45886
▁własne	-9.45978
▁odda	-9.46132
▁drug	-9.46152
▁interes	-9.46173
▁Cał	-9.46174
▁cech	-9.46257
▁powrot	-9.4641
▁tysiące	-9.46455
▁chroni	-9.46477
cą	-9.46529
▁nieco	-9.46624
▁środowisk	-9.4683
lec	-9.46831
▁wykorzystać	-9.46918
▁robot	-9.47009
▁krajów	-9.47027
wali	-9.47119
▁umiera	-9.4728
▁normaln	-9.474
id	-9.47473
▁Sp	-9.47496
N	-9.47526
▁70	-9.47692
▁pojawia	-9.47731
▁okres	-9.47738
leg	-9.47781
▁powiedziała	-9.47786
▁Robi	-9.47901
▁zawiera	-9.48244
▁znajom	-9.48272
▁Była	-9.48319
acja	-9.48389
chodzą	-9.48472
▁chwil	-9.48493
▁zwykł	-9.48573
▁medyczn	-9.48573
▁wyjątkow	-9.48759
▁chwilę	-9.48864
▁twarz	-9.48975
▁stop	-9.49031
par	-9.49061
▁Kon	-9.49096
▁kod	-9.49107
czny	-9.49172
ale	-9.49278
▁ogól	-9.4929
F	-9.49312
▁podróż	-9.49357
▁wojny	-9.49424
art	-9.49447
▁obecni	-9.49465
▁wyobrazi	-9.49485
▁przemoc	-9.49485
▁ponown	-9.4955
▁pierwszym	-9.49591
▁komputerow	-9.49664
▁sił	-9.49681
▁n	-9.49682
▁kontrol	-9.49918
▁Chce	-9.49924
▁problemu	-9.50003
▁bezpieczn	-9.50095
skich	-9.50159
▁środowiska	-9.50257
▁Moja	-9.50419
▁nauczyć	-9.50426
▁łatwo	-9.50495
▁przeciw	-9.50505
▁Jorku	-9.5058
▁elektryczn	-9.50601
▁Go	-9.5064
▁wraca	-9.50684
▁przyjaciel	-9.50714
▁gwiazd	-9.50955
dać	-9.50966
▁kryzys	-9.51023
▁dotyczy	-9.51027
▁trwa	-9.51047
logiczn	-9.51312
wier	-9.51388
eniem	-9.51415
▁My	-9.51427
▁trudn	-9.5145
▁Cz	-9.51504
▁pewno	-9.51551
▁zapyta	-9.51593
▁liczba	-9.51693
▁drogi	-9.51702
▁lini	-9.5184
▁miejscach	-9.51842
▁właściw	-9.51865
ina	-9.51989
▁Gdyby	-9.52074
tki	-9.52228
▁wykład	-9.52284
▁lewej	-9.52293
▁gry	-9.52312
yn	-9.52511
▁kart	-9.52526
▁większości	-9.52582
▁pokoju	-9.52594
▁np	-9.52701
IV	-9.52743
▁ekonomiczn	-9.52779
▁odpowiedzialn	-9.52892
▁węgla	-9.52903
▁relacj	-9.52904
▁laboratorium	-9.52911
▁wiedzą	-9.52933
▁kolejn	-9.52944
▁New	-9.52981
▁demokracj	-9.53218
▁umiejętności	-9.53218
▁Bi	-9.53238
obec	-9.53251
up	-9.53274
▁wodę	-9.53298
▁Inn	-9.53359
▁sto	-9.53362
▁myślenia	-9.53389
▁związan	-9.53412
łoby	-9.5353
▁przestrzeń	-9.53535
ber	-9.53588
▁Mars	-9.53631
▁fal	-9.53724
owałem	-9.53799
skiej	-9.53831
▁wszędzie	-9.53854
ste	-9.5386
cale	-9.53922
▁kiedykolwiek	-9.54049
▁kierunku	-9.54082
▁zapis	-9.54143
▁miast	-9.5415
▁pojęcia	-9.54173
▁rozmiar	-9.54174
▁znajdzie	-9.54506
▁ciało	-9.54513
▁finansow	-9.54556
▁inni	-9.5465
men	-9.54713
▁mo	-9.54776
▁Indiach	-9.54815
▁moraln	-9.54816
▁wiatr	-9.54818
▁miały	-9.54863
▁niesamowit	-9.54973
▁Zat	-9.54992
gar	-9.55048
▁słowo	-9.55051
▁poczucie	-9.55074
▁Będzie	-9.55149
▁Naj	-9.55192
▁planet	-9.55206
▁Op	-9.55246
▁Ho	-9.55392
▁cierpi	-9.55418
▁wiadomości	-9.55485
▁łączy	-9.55608
▁lepsz	-9.55647
ające	-9.5567
▁mało	-9.55681
▁słoneczn	-9.55786
▁sensie	-9.55817
▁biur	-9.55853
▁większe	-9.55999
K	-9.56037
stra	-9.56048
▁Google	-9.56112
▁uważam	-9.56134
▁Wiec	-9.56271
▁przejś	-9.56365
▁kwesti	-9.56369
lin	-9.56398
▁pomyślał	-9.56418
nic	-9.56579
set	-9.56584
ps	-9.56651
kro	-9.56706
libyśm	-9.56708
▁żyw	-9.56723
▁parę	-9.56853
ktyw	-9.56946
roz	-9.57046
▁specjaln	-9.57095
▁reakcj	-9.57096
▁bieg	-9.57123
▁czasach	-9.57156
ang	-9.57188
▁duży	-9.57252
ców	-9.57312
▁zebra	-9.57384
▁doświadczenie	-9.57486
idać	-9.57563
▁gaz	-9.57653
▁starsz	-9.57677
▁połączy	-9.57698
ard	-9.5771
▁199	-9.57771
owała	-9.57975
▁zbiera	-9.5802
▁powie	-9.58036
nymi	-9.58243
▁polityk	-9.58259
▁istot	-9.58307
gro	-9.58313
▁trafi	-9.58333
co	-9.58374
▁biznes	-9.58392
pe	-9.58416
nowu	-9.58425
▁projektu	-9.58523
▁ide	-9.58547
▁zabi	-9.58583
▁baz	-9.58617
▁istnieją	-9.58708
▁ulubion	-9.58756
▁sklep	-9.58757
▁prost	-9.58784
▁wersj	-9.58786
stwo	-9.58827
łaby	-9.5885
▁Sh	-9.59042
ejść	-9.59051
▁niezależn	-9.59092
▁zdrowotn	-9.59093
▁nocy	-9.59093
▁Ś	-9.59117
▁widzenia	-9.59118
▁zniszcz	-9.59127
▁ust	-9.59363
▁Jeden	-9.5943
▁16	-9.59458
▁szpital	-9.59581
▁współprac	-9.59714
▁razie	-9.5976
▁miesiąc	-9.59766
▁porządku	-9.59768
▁km	-9.59797
▁potrzeb	-9.59844
▁planety	-9.59873
łaśnie	-9.59926
▁przyzna	-9.60014
wor	-9.60034
▁zostały	-9.60043
nicy	-9.60083
▁społeczeństwa	-9.60268
▁sama	-9.60315
▁nazwa	-9.60343
▁rozwój	-9.60446
▁dowod	-9.60612
▁sprawy	-9.60647
▁fragment	-9.60787
▁narzędzi	-9.60846
alne	-9.61061
▁temperatur	-9.6113
▁St	-9.61131
ylko	-9.61178
▁komórk	-9.61263
▁pole	-9.61294
▁siły	-9.61376
▁Amerykan	-9.61415
▁Obecni	-9.61449
▁sygnał	-9.61473
▁me	-9.61519
▁scen	-9.6167
setki	-9.61743
▁jedzeni	-9.61815
▁macie	-9.61994
▁spa	-9.62022
▁ludzkie	-9.62024
▁komunikacj	-9.62164
▁muzyk	-9.62316
▁kolejny	-9.62464
▁pozostał	-9.62493
wania	-9.62521
▁powod	-9.62557
stwa	-9.62801
▁sk	-9.62808
obok	-9.62833
▁kolejne	-9.63201
▁podstawow	-9.63207
▁Ostatni	-9.63209
res	-9.63291
▁świetn	-9.63362
▁wirus	-9.63363
czyn	-9.63488
▁Afryki	-9.63526
▁analiz	-9.63546
▁produkcji	-9.63562
▁dzieli	-9.63587
▁zastanawia	-9.63595
▁14	-9.63599
▁woln	-9.63715
▁wyk	-9.6375
▁zachowa	-9.63925
▁koleg	-9.63976
▁sztuki	-9.64024
▁rozwijając	-9.64091
▁tworzą	-9.6422
▁dziwn	-9.64233
▁daleko	-9.64362
▁słow	-9.64408
▁Nic	-9.6441
arn	-9.6442
▁lot	-9.64523
▁natury	-9.64548
skie	-9.64601
▁mod	-9.64601
▁wykres	-9.64627
▁gr	-9.64659
▁ciekawe	-9.64783
▁Uważam	-9.64924
▁wystarczy	-9.65131
▁moglibyś	-9.65201
▁potrzebuje	-9.65251
▁grupa	-9.65435
▁sali	-9.65451
▁informacj	-9.65674
▁kontakt	-9.65692
▁umieści	-9.65729
▁Albo	-9.65733
▁CA	-9.65786
dob	-9.65822
▁wspaniałe	-9.65844
▁dziedzin	-9.65868
▁drodze	-9.66052
rób	-9.66184
▁noc	-9.66219
▁organizacji	-9.6622
▁świadom	-9.66397
▁powszechn	-9.66412
▁spor	-9.66413
▁Chris	-9.66414
▁zespoł	-9.66423
niesie	-9.66493
▁kości	-9.66509
▁doświadczenia	-9.66669
▁prosto	-9.66762
▁międzynarodow	-9.66775
▁emocj	-9.66776
▁wiadomość	-9.66796
▁amerykański	-9.66812
wiedz	-9.66883
▁bawi	-9.66978
▁An	-9.67045
▁wraz	-9.67075
▁zewnątrz	-9.67138
▁postaci	-9.67209
▁dosłownie	-9.6727
ących	-9.67342
▁stworzył	-9.67459
▁chor	-9.67482
▁współczesn	-9.67503
▁partner	-9.67504
▁widzie	-9.67572
▁budyn	-9.67601
▁woda	-9.67836
▁początek	-9.6787
▁John	-9.6787
jącym	-9.67897
▁rynk	-9.67935
▁szkole	-9.6806
▁Musz	-9.68108
▁pomyśle	-9.68113
▁powinno	-9.68239
▁technik	-9.68247
▁słysz	-9.68255
kan	-9.68257
ler	-9.68261
▁Pomyśl	-9.6836
nictw	-9.68386
▁stron	-9.6841
▁Lo	-9.68554
▁pal	-9.68577
▁gatunków	-9.68579
▁super	-9.68608
▁broni	-9.68618
▁bogat	-9.68618
▁interesując	-9.68674
▁odkrywa	-9.68712
▁siedzi	-9.68716
▁metr	-9.68728
▁Ku	-9.68744
▁historie	-9.68845
▁rodzin	-9.68934
ada	-9.68974
▁dziękuję	-9.68977
▁ropy	-9.69003
▁mow	-9.69019
mer	-9.69063
cje	-9.69077
▁metrów	-9.69078
▁sądzi	-9.6917
krót	-9.69286
▁zrozumiał	-9.69349
▁reklam	-9.6935
▁facet	-9.69352
▁mocn	-9.69368
▁mając	-9.69441
▁wzią	-9.69581
▁skuteczn	-9.6965
▁twoj	-9.69685
▁wysyła	-9.6973
▁wypadk	-9.69733
▁Bez	-9.69739
▁prawej	-9.69918
▁jakiego	-9.7001
▁czuje	-9.70089
▁ogromne	-9.70092
▁przygotowa	-9.70097
▁idzie	-9.70172
▁krwi	-9.7019
▁zadanie	-9.70512
▁rozpozna	-9.70519
▁Pierwszy	-9.70722
chód	-9.7074
▁jasn	-9.70827
owana	-9.70834
▁czyta	-9.70847
▁drzwi	-9.7085
▁wymiar	-9.70863
▁prawdziwe	-9.70887
▁wiek	-9.70959
▁napisał	-9.71004
▁każde	-9.71069
▁drog	-9.71212
▁wytwarza	-9.71228
▁dziur	-9.71243
▁blisko	-9.71292
▁wielkości	-9.71368
▁populacji	-9.71427
▁bu	-9.71469
tyka	-9.71481
▁19	-9.71565
▁skali	-9.71594
▁samochód	-9.71641
ownik	-9.71666
▁państw	-9.71803
▁Sk	-9.71921
▁Ameryce	-9.7199
▁zależy	-9.71995
▁najważniejsz	-9.72011
▁internetow	-9.72012
▁widzę	-9.72182
▁skomplikowan	-9.72204
▁podejście	-9.72375
▁wyższ	-9.72375
▁wzor	-9.7242
▁sprawdza	-9.72423
▁Sam	-9.72462
▁wielk	-9.72618
▁podzieli	-9.72673
▁podobne	-9.7273
▁Sądz	-9.72748
▁członk	-9.72758
▁warstw	-9.72766
▁wspólnego	-9.72797
▁nazywam	-9.72803
▁fajn	-9.72828
▁problemem	-9.72881
cież	-9.72961
dziej	-9.72965
▁składa	-9.73059
▁Zawsz	-9.73147
▁Pan	-9.73151
▁paliw	-9.73181
▁architektur	-9.73273
▁Jo	-9.73297
H	-9.73397
▁wyzwanie	-9.73418
▁zmiana	-9.73432
▁bank	-9.73441
▁bra	-9.7347
sun	-9.73523
▁genetyczn	-9.73535
▁zestaw	-9.73539
▁kluczow	-9.73611
and	-9.73732
▁utrzyma	-9.73741
zą	-9.73798
▁atak	-9.73847
▁tradycyjn	-9.73921
▁zdjęć	-9.73921
▁mieści	-9.73927
▁opart	-9.73934
▁San	-9.73935
▁Ki	-9.73984
▁Kr	-9.74009
V	-9.74019
▁połow	-9.74258
▁będąc	-9.74296
▁krótki	-9.74304
▁potężn	-9.74311
▁Naprawd	-9.74313
▁biedn	-9.74435
▁wpływa	-9.74495
▁słab	-9.74604
ark	-9.74647
▁pokażę	-9.74703
▁osobist	-9.74731
▁kwestia	-9.74748
▁wystaw	-9.74755
▁dodatkow	-9.74813
▁powodów	-9.74839
▁skalę	-9.7493
▁Afryka	-9.74948
▁mogła	-9.74996
lny	-9.75036
▁wizj	-9.75045
właszcza	-9.75097
▁cudown	-9.75105
▁poczu	-9.7545
▁opowieści	-9.75492
▁słońc	-9.75492
▁oblicz	-9.75519
czki	-9.75526
▁Ok	-9.75581
dze	-9.75609
▁Ty	-9.75709
ciu	-9.7574
▁genom	-9.75748
▁kobieta	-9.75781
dę	-9.75884
▁pomog	-9.75889
▁słów	-9.7591
ujących	-9.75931
▁stają	-9.76167
▁uczyć	-9.76248
▁próbuje	-9.76304
▁rodzice	-9.76337
▁płyn	-9.76591
▁pozosta	-9.76614
▁godziny	-9.76635
▁seri	-9.76654
▁etap	-9.76688
▁miłości	-9.76706
▁Zaczął	-9.76719
▁trakc	-9.76738
▁pop	-9.76766
▁Zrobi	-9.76777
▁otoczeni	-9.76786
▁walczy	-9.76792
▁głowy	-9.76877
▁lubi	-9.76889
▁zajmuje	-9.76906
▁zmienił	-9.76918
encj	-9.76985
ński	-9.77032
owało	-9.77185
▁czyst	-9.77206
cych	-9.77253
▁13	-9.77337
▁najpierw	-9.77375
▁kawał	-9.77454
▁chłopc	-9.77492
▁szerok	-9.77492
▁myślą	-9.77512
▁jedzenie	-9.77516
▁chcieli	-9.77571
▁lew	-9.77587
▁Gdzie	-9.77701
▁zdecydowa	-9.77844
▁stworzenia	-9.77878
for	-9.77888
▁Zjednoczonych	-9.77897
▁ojciec	-9.77899
▁dawn	-9.77953
▁medi	-9.77995
▁autor	-9.78144
▁Używa	-9.7815
niosł	-9.78267
▁złe	-9.78287
iejsze	-9.78348
czył	-9.78355
▁zasady	-9.78355
▁dziecka	-9.78381
ół	-9.78481
▁używając	-9.78494
▁prosz	-9.78518
▁Zaczę	-9.78612
,	-9.7868
▁rynek	-9.78714
▁Zaczyna	-9.78717
▁wybiera	-9.78792
▁zastosowa	-9.78869
sku	-9.78884
▁dzieł	-9.79018
▁pełni	-9.79046
▁tworzenia	-9.79084
▁ból	-9.79122
▁zostawi	-9.79305
▁urządzenie	-9.79311
▁nazw	-9.79327
▁punktu	-9.79409
▁niedo	-9.79493
▁dorosł	-9.79513
▁artykuł	-9.79533
▁powtarza	-9.79533
▁obu	-9.79562
▁tysiąc	-9.79565
▁wygra	-9.796
▁powiem	-9.79669
▁wprowadzi	-9.79692
▁obc	-9.79698
czenia	-9.79731
▁narzędzia	-9.7983
yba	-9.79873
▁żyjąc	-9.79896
▁zostanie	-9.79928
▁design	-9.79947
▁medycyn	-9.79947
▁ruchu	-9.79953
▁potrzeby	-9.79964
▁bakteri	-9.80025
▁najlep	-9.80042
▁miasto	-9.80067
▁Wierz	-9.80102
skim	-9.80111
▁ogóln	-9.80211
▁użyt	-9.80272
ański	-9.80303
▁Di	-9.80343
▁wewnątrz	-9.80361
▁galaktyk	-9.80361
▁ostateczn	-9.80361
▁niemal	-9.80394
ff	-9.80424
▁przeży	-9.8046
▁środowisko	-9.80484
▁up	-9.80485
▁żyje	-9.80586
▁książ	-9.80631
▁społeczeństw	-9.80686
nos	-9.80693
▁działać	-9.80798
▁przesz	-9.80838
▁Pomyślał	-9.80915
▁mil	-9.80976
▁Nowy	-9.80994
▁sposobów	-9.80995
▁rzek	-9.81007
▁roboty	-9.81068
wiście	-9.81109
rak	-9.81189
▁umie	-9.81196
▁pozycj	-9.81228
ujący	-9.81245
mię	-9.81248
▁skąd	-9.81261
▁pl	-9.81283
▁kraje	-9.81324
ujesz	-9.8141
▁ocen	-9.81436
▁rocznie	-9.81444
cznym	-9.81506
▁wszechświat	-9.8155
▁sześć	-9.81618
▁rozwiązać	-9.81629
▁poprawi	-9.81655
▁aspekt	-9.81677
▁ewolucji	-9.81834
skiego	-9.81834
▁tworząc	-9.81845
▁projektowani	-9.81966
▁domow	-9.81997
▁Kilka	-9.82039
▁pozytywn	-9.82039
▁chemiczn	-9.821
▁rezultat	-9.82167
her	-9.8217
las	-9.82176
▁szkoł	-9.82214
▁zapewni	-9.82271
▁powiedz	-9.82281
▁przekona	-9.823
mor	-9.8232
▁pojedyncz	-9.82462
▁usług	-9.82462
leni	-9.82555
▁mikro	-9.82656
▁rol	-9.82657
▁materi	-9.82678
▁przeszłości	-9.82889
ill	-9.82905
▁kwestii	-9.82926
▁drzew	-9.82963
▁opini	-9.83058
▁pani	-9.83068
▁zabija	-9.83073
▁Stan	-9.83111
▁pomysły	-9.83189
▁przemysł	-9.83194
▁Właściw	-9.83315
▁straszn	-9.83318
▁przywódc	-9.83318
▁córk	-9.83319
▁ręce	-9.83319
▁przekonani	-9.83326
▁żywności	-9.8333
▁większy	-9.83384
▁dekad	-9.83386
▁konflikt	-9.8362
▁przedstawia	-9.83679
▁szybciej	-9.83746
▁podoba	-9.83774
▁kul	-9.83929
▁mar	-9.84019
▁funkcj	-9.8416
▁przychodzi	-9.84181
▁papier	-9.84184
▁idealn	-9.84264
▁stworzon	-9.84303
rywa	-9.84375
▁Dobrze	-9.84609
bin	-9.84614
cznych	-9.84631
W	-9.84705
▁Ri	-9.84877
▁twarzy	-9.84905
▁ludzkiego	-9.84977
owanych	-9.85041
▁nowym	-9.85049
▁sztuk	-9.85051
▁sprawa	-9.85099
▁ręk	-9.85244
▁Gra	-9.85245
▁budynku	-9.85259
nek	-9.8533
▁ląd	-9.85394
lik	-9.85395
▁region	-9.85402
▁zrozumie	-9.85455
▁konsekwencj	-9.8548
▁znacząc	-9.85482
▁but	-9.85485
▁skończy	-9.85504
▁interesujące	-9.85539
vi	-9.85561
▁pomyśl	-9.85666
▁zaczynają	-9.85697
▁Tam	-9.85721
▁zachowanie	-9.85797
▁nowo	-9.85839
▁wczesn	-9.8592
est	-9.85944
lek	-9.85986
▁wartość	-9.86009
▁przekaz	-9.86099
eszcze	-9.86136
szczę	-9.86166
▁pewności	-9.86173
horób	-9.86207
▁morski	-9.86255
▁pracował	-9.86327
▁górę	-9.86353
▁dostarcza	-9.86359
▁szczyt	-9.8636
▁sprawdzić	-9.86362
▁spojrzeć	-9.86365
▁nagrod	-9.86471
▁działają	-9.86488
▁ryzyko	-9.86518
▁neuron	-9.86535
▁muzyki	-9.86702
▁mężczyźni	-9.86802
▁związek	-9.86804
▁seks	-9.86825
▁17	-9.8684
▁szybki	-9.86927
▁ram	-9.8707
▁wspaniały	-9.8708
▁ran	-9.87156
▁zacznie	-9.87192
▁wspiera	-9.87246
gan	-9.8727
▁pust	-9.87294
▁skład	-9.87299
ver	-9.87323
▁wios	-9.87326
▁idea	-9.87436
▁znaczn	-9.87441
▁ludzkości	-9.87798
▁żył	-9.87823
▁wystarczająco	-9.87874
▁Aby	-9.8788
▁Jednym	-9.87973
▁dochod	-9.88097
▁pracując	-9.88107
▁studentów	-9.88109
▁wart	-9.88154
dowa	-9.88181
▁sztuczn	-9.88182
▁Praw	-9.88255
▁300	-9.88286
▁pierwszych	-9.8837
▁porówna	-9.88546
▁gospodarcz	-9.88568
▁biologiczn	-9.88588
▁potencjał	-9.88591
▁wybuch	-9.88591
yzm	-9.88646
ah	-9.88677
▁zaczęli	-9.88709
▁potrafią	-9.8871
▁dotycząc	-9.88715
▁niebezpieczn	-9.88727
▁opisa	-9.88804
▁Tym	-9.88829
▁Lecz	-9.8888
▁błęd	-9.8889
▁interakcj	-9.89044
czna	-9.89051
▁bierze	-9.89052
▁zabra	-9.89077
▁ogromny	-9.8913
ham	-9.8914
▁wewnętrzn	-9.89156
▁ha	-9.89208
▁Mają	-9.89229
▁nosi	-9.89301
▁znak	-9.89329
▁stosunk	-9.89379
▁matka	-9.89484
▁Okazuje	-9.89498
▁Problem	-9.89498
▁powiedziałem	-9.8964
▁liczy	-9.89865
▁Nasze	-9.89889
▁dostrze	-9.89901
▁martwi	-9.89919
▁angielski	-9.89955
▁mln	-9.89955
▁spotyka	-9.89966
▁postrzega	-9.90031
▁zdolności	-9.90054
▁palc	-9.90061
▁dziennie	-9.90071
▁spad	-9.9027
▁spojrzy	-9.90275
sion	-9.90287
▁umożliwi	-9.90331
▁pasj	-9.90388
▁opis	-9.90401
▁bohater	-9.90413
▁przekształc	-9.90413
▁500	-9.90428
▁24	-9.90477
reszc	-9.90522
▁wideo	-9.90556
▁wzrostu	-9.90716
▁zaczęliś	-9.9077
▁zrobiłem	-9.90796
▁ciężko	-9.90875
▁198	-9.90892
▁włos	-9.90951
▁samochod	-9.90953
▁media	-9.911
ger	-9.91105
▁Nazywa	-9.9112
▁wiar	-9.91132
▁sprzeda	-9.91181
▁urządzenia	-9.91183
▁rozumiem	-9.91241
▁najważniejsze	-9.91312
▁wynosi	-9.91338
▁opiera	-9.91338
▁niczego	-9.91364
▁wysp	-9.91375
▁kultury	-9.91515
owiec	-9.91527
ura	-9.91599
▁języka	-9.91616
▁naucz	-9.91625
▁Jedn	-9.91758
▁artyst	-9.9178
▁Afganistan	-9.91802
▁Wygląda	-9.91802
▁powinna	-9.91803
owały	-9.91826
▁sytuacj	-9.91951
▁pory	-9.92032
▁niebieski	-9.92053
▁musieli	-9.92115
▁bezpieczeństwa	-9.92129
▁robię	-9.92197
▁inżynier	-9.92243
▁popularn	-9.9227
▁tekst	-9.92307
▁możliw	-9.92326
▁rolę	-9.92371
▁zachowania	-9.925
▁jednostk	-9.92524
row	-9.92607
▁żyją	-9.92736
▁szczęścia	-9.92739
▁Par	-9.9278
▁piękne	-9.92856
▁miliona	-9.92878
▁Świat	-9.93037
▁stworzenie	-9.9312
ską	-9.93182
▁Pozwólci	-9.93211
▁pogląd	-9.93211
▁Dzieci	-9.93218
▁przyrod	-9.93238
rażeni	-9.93313
▁jakiej	-9.93336
▁sporo	-9.9337
▁konieczn	-9.93472
▁stały	-9.93477
świetl	-9.93616
▁slajd	-9.93686
▁wielkim	-9.93697
▁Czemu	-9.93707
▁wzrok	-9.93749
▁własnym	-9.93765
▁skupia	-9.93866
▁Takie	-9.93974
owano	-9.93984
▁państwa	-9.94137
▁światow	-9.9414
▁dokonać	-9.94146
łóż	-9.94153
▁pojazd	-9.94161
▁numer	-9.94162
▁zaufani	-9.94162
prowadzi	-9.94165
▁drzewa	-9.94222
▁badanie	-9.94227
czka	-9.94268
▁Potrzebuje	-9.94386
▁ono	-9.94395
▁związane	-9.94415
▁firma	-9.94491
▁stawia	-9.94504
ld	-9.94507
▁komórkow	-9.94549
▁dwu	-9.94579
▁Północn	-9.94639
▁tlen	-9.94641
▁Wydaje	-9.94691
▁okolic	-9.947
▁The	-9.94741
rop	-9.94744
▁własny	-9.94747
▁potrzebn	-9.94798
▁przekaza	-9.94891
▁Stanach	-9.94899
▁iść	-9.94929
▁Dr	-9.9509
▁planecie	-9.95135
▁misj	-9.95206
▁per	-9.95355
▁dokument	-9.95359
▁społeczeństwo	-9.95478
▁mysz	-9.9548
▁występ	-9.95492
▁prąd	-9.95644
nieść	-9.95677
▁Prosz	-9.95688
▁kontroli	-9.95706
zór	-9.95752
▁szyb	-9.95828
▁radzi	-9.95831
▁społeczne	-9.95903
▁zakłada	-9.95938
ój	-9.96025
▁przeczyta	-9.9609
▁wyglądają	-9.96217
czony	-9.96245
▁wyobraźni	-9.96331
▁istotne	-9.96476
▁itd	-9.96539
▁obserwowa	-9.96577
▁wnętrz	-9.96577
▁tytuł	-9.96581
▁spędza	-9.96603
▁książkę	-9.96614
▁inną	-9.96627
▁najlepsze	-9.96661
▁dotrze	-9.967
▁Moje	-9.96702
▁dolar	-9.96772
▁dziewczynk	-9.9678
▁dostaje	-9.96797
▁strategi	-9.96869
ork	-9.96943
▁perspektywy	-9.96945
▁okazało	-9.96951
▁Star	-9.96981
50	-9.97021
▁symbol	-9.97058
▁Przed	-9.97066
▁okropn	-9.97069
▁Dzisia	-9.9707
▁widok	-9.97071
▁Pewnie	-9.97109
▁działanie	-9.97175
▁cud	-9.97296
▁podstawie	-9.97322
▁istotn	-9.97392
▁przeprowadzi	-9.97446
mimo	-9.9747
▁ekran	-9.97514
▁trwał	-9.97528
▁Patrz	-9.97552
bel	-9.97689
▁owad	-9.97735
▁równie	-9.97738
▁Jakie	-9.97752
▁społecznych	-9.97873
▁powiązan	-9.97899
▁ważny	-9.9801
▁uczyni	-9.9807
▁twoje	-9.98115
▁eks	-9.98131
▁znajdują	-9.98311
twór	-9.98461
low	-9.98467
▁str	-9.98505
bro	-9.98566
▁Jedna	-9.98585
▁chcecie	-9.98691
▁przewod	-9.98775
▁Dan	-9.98786
łyby	-9.98805
śnie	-9.9891
▁podda	-9.98927
▁zeszł	-9.98995
▁klimatu	-9.99011
ideo	-9.99075
▁sens	-9.99131
▁zdrowie	-9.99194
▁nagra	-9.99224
▁Mu	-9.99367
▁dług	-9.9939
land	-9.99472
▁ska	-9.99476
▁leków	-9.99508
▁Pewn	-9.99512
▁maszyny	-9.99524
▁mechanizm	-9.99555
omiast	-9.99556
▁otwiera	-9.99556
▁So	-9.99617
▁temp	-9.99702
▁wasze	-9.99751
▁rodziców	-9.99903
▁decyzj	-10
▁czuł	-10.0004
▁widoczn	-10.0006
▁budować	-10.0015
▁Car	-10.0017
▁niko	-10.002
▁gazet	-10.0035
▁matki	-10.0036
▁neuro	-10.0043
▁odkryć	-10.0044
▁czasów	-10.0045
lne	-10.0049
▁przeciwk	-10.0052
▁ekscytując	-10.0057
▁kosmiczn	-10.0057
▁zwiększa	-10.0057
▁innowacj	-10.0057
▁współpracy	-10.0058
▁student	-10.006
▁aktywn	-10.0062
▁ostr	-10.0063
▁ogranicz	-10.0072
▁pojawi	-10.0077
▁powoduje	-10.0078
▁Ros	-10.0096
▁technologie	-10.0104
▁duch	-10.0118
▁kl	-10.0119
▁zdanie	-10.0122
▁ga	-10.0127
▁Brytanii	-10.0133
▁znaczenia	-10.0139
▁szczegół	-10.0139
▁zimn	-10.0144
▁dum	-10.0147
▁Kar	-10.0154
dio	-10.0158
▁infrastruktur	-10.0159
▁zatrudni	-10.0159
▁tkank	-10.0159
▁leki	-10.016
▁ciepł	-10.0161
latk	-10.0165
▁obie	-10.0176
▁dokona	-10.0185
▁zamieni	-10.0196
▁Chiny	-10.0197
▁czuj	-10.0201
▁gospodark	-10.0206
▁ciężki	-10.0211
▁śmierteln	-10.0211
▁warunki	-10.0222
▁Wam	-10.0222
▁zmieniło	-10.0224
▁wydajn	-10.0225
▁pomysłów	-10.0227
▁pierwsza	-10.0231
▁lekcj	-10.0236
dawać	-10.0248
lenie	-10.0248
▁powiedzieli	-10.0251
▁Fi	-10.0257
▁chmur	-10.0263
▁zgadza	-10.0265
daniem	-10.0269
▁dół	-10.0272
v	-10.0274
▁pre	-10.0276
▁jakich	-10.0282
▁mogły	-10.0285
▁szalon	-10.0287
scy	-10.0288
▁pracowników	-10.0289
▁północn	-10.0301
tyczne	-10.0309
▁nowoczesn	-10.0314
▁oprogramowani	-10.0314
▁zwiększy	-10.0314
▁Indii	-10.0314
▁kompletn	-10.0316
▁wrócił	-10.0326
▁dostępne	-10.0327
▁małp	-10.0335
▁Im	-10.0338
▁drugim	-10.0345
▁ludzk	-10.0347
▁czyni	-10.0348
▁Tego	-10.0348
▁klas	-10.0357
▁Europie	-10.0364
▁piosenk	-10.0367
▁spodziewa	-10.0367
▁pracuje	-10.0367
▁okazji	-10.0367
▁technologiczn	-10.037
▁wiesz	-10.0381
▁wyłącz	-10.0381
▁dłuż	-10.0388
▁doświadczy	-10.0391
▁znamy	-10.0399
▁ogni	-10.0402
▁stała	-10.0402
▁strach	-10.0413
ńsk	-10.0416
▁przemyśle	-10.0419
▁siostr	-10.0419
▁uwagi	-10.042
▁odczuwa	-10.042
▁struktury	-10.0426
▁uczą	-10.0429
ens	-10.0439
▁niewielki	-10.0444
dzień	-10.0457
▁be	-10.0462
▁oceanu	-10.0469
▁siłę	-10.047
▁inteligencj	-10.0472
▁czwart	-10.0472
▁wszelki	-10.0472
▁wybór	-10.0472
▁powinny	-10.0472
▁użytkownik	-10.0472
▁ekspert	-10.0472
▁patrząc	-10.0473
▁śpiewa	-10.0474
gle	-10.0475
▁uzyska	-10.0477
▁zdolność	-10.0478
▁potrzebują	-10.0479
▁Podobn	-10.048
▁wszechświata	-10.0481
▁własnej	-10.0484
▁myślimy	-10.049
▁Spraw	-10.0494
▁krzyw	-10.0494
owaniu	-10.0508
bur	-10.0511
niki	-10.0514
▁Dosta	-10.0516
▁osiągnię	-10.0522
▁używają	-10.0525
▁olbrzymi	-10.0526
▁prezydent	-10.0526
▁opowiem	-10.0526
▁trans	-10.0526
▁próbował	-10.0527
▁rękę	-10.0529
▁słyszał	-10.0532
▁znan	-10.055
▁wyboru	-10.0555
▁założeni	-10.0568
▁śmier	-10.0571
graf	-10.0572
dzwoni	-10.0574
▁epidemi	-10.0579
▁łańcuch	-10.0579
▁Londyn	-10.0579
▁techniczn	-10.0579
▁dyskusj	-10.0579
▁wsparci	-10.0579
▁efektywn	-10.0579
▁płyt	-10.0583
▁cząsteczk	-10.0584
▁martw	-10.0585
▁idei	-10.0586
▁gatunk	-10.0592
▁okazuje	-10.0597
▁Boga	-10.0598
▁narodow	-10.0604
▁Str	-10.0604
▁park	-10.0607
▁Ameryki	-10.0611
czną	-10.0625
▁He	-10.063
▁przechodzi	-10.0633
▁sektor	-10.0633
ser	-10.0633
▁poprzedni	-10.0634
▁komp	-10.0641
▁rewolucj	-10.0641
▁zewnętrzn	-10.0641
▁odpad	-10.0652
▁żyjemy	-10.0658
▁dobrym	-10.0671
▁spada	-10.0674
rk	-10.0676
▁inteligentn	-10.0687
▁Opowiem	-10.0687
▁rower	-10.0695
▁ptak	-10.0698
łód	-10.0702
▁wrażenie	-10.0709
▁używan	-10.0715
▁chociaż	-10.0741
▁wywiad	-10.0741
gh	-10.0742
▁święt	-10.0743
▁południow	-10.0752
▁społeczność	-10.0755
▁rano	-10.0755
▁pytań	-10.0758
▁przerw	-10.076
▁Hu	-10.076
▁prosta	-10.0765
▁Mim	-10.0768
▁klasy	-10.0772
▁zwierzę	-10.0784
niejszy	-10.079
▁internet	-10.0793
▁niesamowici	-10.0796
▁powietrza	-10.0796
▁fundusz	-10.0796
▁sprzęt	-10.0796
▁wzajemn	-10.0796
▁wystąpi	-10.0798
▁założy	-10.0804
▁wywoła	-10.0809
▁tworzenie	-10.0816
pokoj	-10.0817
▁tygodniu	-10.082
▁linii	-10.082
▁dziedzinie	-10.0824
▁auto	-10.0828
▁anty	-10.0828
owni	-10.084
▁kończy	-10.0843
▁nauka	-10.0846
▁napis	-10.0846
▁związku	-10.0847
▁niski	-10.0848
▁rozmawiać	-10.085
▁najbliższ	-10.0851
▁dziećmi	-10.0851
▁głowie	-10.0853
▁wielo	-10.0864
▁uczucie	-10.0865
▁miliard	-10.087
▁pokazał	-10.087
▁Chinach	-10.0871
form	-10.0872
▁zaję	-10.0882
▁traw	-10.0887
▁zje	-10.0894
▁robił	-10.0899
▁wchodzi	-10.0906
▁malari	-10.0906
▁zakres	-10.0906
▁Drugi	-10.0909
▁narzędzie	-10.0912
▁wyglądał	-10.0913
▁miliardy	-10.0914
▁Bada	-10.0917
▁odległ	-10.0923
▁imieni	-10.0927
▁Ne	-10.0937
▁rozp	-10.0937
▁muzyka	-10.0951
▁Kolejn	-10.0953
▁natychmiast	-10.0962
▁rolnictw	-10.0966
▁filmu	-10.098
cznej	-10.0983
▁krew	-10.1003
nął	-10.1006
▁walk	-10.1007
▁lepszy	-10.1008
▁nowa	-10.1013
▁spod	-10.1016
▁decyzji	-10.1017
▁czterech	-10.1017
▁ekosystem	-10.1017
▁uwielbia	-10.1017
▁piersi	-10.1019
▁strona	-10.1023
▁uderz	-10.1029
▁cokolwiek	-10.1036
▁niemożliwe	-10.1038
óz	-10.1043
▁Nazywam	-10.1044
▁doświadcza	-10.1047
▁wolności	-10.1051
▁ekologiczn	-10.1053
▁byłby	-10.1061
va	-10.1069
▁faktyczni	-10.1069
▁fantastyczn	-10.1074
▁kampani	-10.1074
▁rzeźb	-10.1074
▁zarabia	-10.1074
suwa	-10.1075
▁przepływ	-10.1076
▁porównaniu	-10.1079
▁dotąd	-10.1085
▁przepis	-10.1085
▁rozpoczę	-10.1089
▁stoi	-10.1091
ację	-10.1102
▁robota	-10.1103
▁małym	-10.1105
▁straci	-10.111
▁stu	-10.1114
▁żołnierz	-10.113
▁powietrze	-10.113
▁sąsiad	-10.113
har	-10.1133
gram	-10.1138
▁bud	-10.1138
▁spełni	-10.1138
▁pokona	-10.1139
▁zaprojektowa	-10.1139
▁prezentacj	-10.1145
▁zmierza	-10.1145
▁przemysłow	-10.1155
▁zrobili	-10.116
pełn	-10.1164
▁skończył	-10.1165
▁2000	-10.1172
▁pociąg	-10.1172
▁uprawia	-10.1177
eby	-10.1177
▁określi	-10.1181
▁zaczęły	-10.1187
▁rośnie	-10.1188
▁zmianę	-10.1193
▁myślicie	-10.1198
▁zawod	-10.1201
▁wodzie	-10.1202
▁przekonać	-10.121
top	-10.1217
▁podróży	-10.1223
▁wynika	-10.1231
▁stwierdzi	-10.1233
▁organ	-10.1235
▁Południow	-10.1244
▁sum	-10.1245
▁Sto	-10.1253
▁słyszy	-10.1256
jpierw	-10.1261
rd	-10.1262
stw	-10.1263
▁bied	-10.1264
▁kup	-10.1267
▁wykonan	-10.1276
▁skal	-10.128
▁liczbę	-10.128
▁kapitał	-10.1302
▁służy	-10.1302
owymi	-10.1302
▁kur	-10.1303
▁mięśni	-10.1304
▁blok	-10.1304
▁pacjenta	-10.1304
▁rzeczywistość	-10.1306
▁Europ	-10.1306
ód	-10.1313
▁gatun	-10.1313
▁komputera	-10.1316
wer	-10.1317
▁ostatnio	-10.1317
▁Spo	-10.1318
▁Oni	-10.1319
▁wol	-10.132
kąd	-10.1329
ers	-10.133
▁pat	-10.1331
szerz	-10.1335
▁określon	-10.1337
▁programu	-10.1343
▁głęboko	-10.1352
▁pięt	-10.1352
▁charakter	-10.1354
▁wypełni	-10.1355
▁kontek	-10.1356
▁XX	-10.1358
▁pamięci	-10.1359
▁substancj	-10.1359
▁Oznacza	-10.1359
▁Okazał	-10.1359
▁wybrać	-10.136
▁najmniej	-10.1365
▁wyjaśni	-10.1371
▁postawi	-10.1379
10	-10.1383
▁lubię	-10.1389
▁spróbować	-10.1392
cal	-10.1415
▁pokazują	-10.1417
▁Później	-10.1418
▁obserwuj	-10.1418
▁Indie	-10.1418
▁korzyści	-10.142
▁dokładn	-10.142
▁doceni	-10.1427
▁zrozumienie	-10.1438
▁kilometrów	-10.1438
list	-10.1442
▁tradycj	-10.1476
▁istniał	-10.1477
▁stacj	-10.1488
sor	-10.1494
▁wierz	-10.1496
▁liter	-10.1503
▁400	-10.1509
▁samochody	-10.1514
▁widowni	-10.1516
▁fabryk	-10.1535
▁filozof	-10.1535
▁Często	-10.1535
▁techniki	-10.1535
▁emocjonaln	-10.1535
▁Zmieni	-10.1536
▁metal	-10.1537
▁blog	-10.1538
▁zjawisk	-10.155
▁obywatel	-10.1557
▁zajęci	-10.1566
▁jakości	-10.1566
▁Aplauz	-10.1594
▁magazyn	-10.1594
▁usłysze	-10.1594
▁opowieść	-10.1594
▁poniżej	-10.1594
▁ślad	-10.1594
▁zachodni	-10.1594
▁cykl	-10.1594
▁studia	-10.1594
▁projektant	-10.1595
▁twierdz	-10.1596
▁wyzna	-10.1606
▁określa	-10.161
pas	-10.1614
▁kolej	-10.1629
▁wprowadza	-10.1641
górze	-10.1642
▁zobacz	-10.1644
▁dzieciak	-10.1647
▁przodu	-10.1653
▁Ni	-10.1654
▁twó	-10.1655
▁pięciu	-10.1655
▁X	-10.1664
▁stylu	-10.1666
▁poszukiwani	-10.1669
▁przerażając	-10.1678
▁sytuacja	-10.1684
▁gwiazdy	-10.1688
▁Raz	-10.1697
mysł	-10.1701
▁wiedzę	-10.1703
rus	-10.1704
▁Har	-10.1704
▁powsta	-10.1705
▁wiadomo	-10.1705
▁innowacji	-10.1713
▁inwestycj	-10.1713
▁niezbędn	-10.1713
▁wskaźnik	-10.1713
▁kwiat	-10.1713
▁poradzi	-10.1715
▁wirtualn	-10.1715
▁dociera	-10.1717
▁ćwicz	-10.1718
▁czynienia	-10.172
▁zakończy	-10.172
▁Pamiętam	-10.1722
▁guz	-10.1726
zji	-10.173
▁skan	-10.174
▁skomplikowane	-10.174
▁Lu	-10.1741
▁szk	-10.1751
▁pełne	-10.1754
▁widz	-10.1758
▁podział	-10.1761
ryn	-10.1762
móc	-10.1766
▁pracują	-10.1772
▁AIDS	-10.1774
▁zapytał	-10.1784
▁dziwne	-10.1786
▁bar	-10.1791
▁Coś	-10.1793
▁For	-10.1796
liby	-10.18
nięcie	-10.1805
▁fo	-10.1806
tywn	-10.1812
▁twórcz	-10.1812
▁istnie	-10.1816
▁dwo	-10.1823
▁złot	-10.1831
▁ojc	-10.1832
▁nawzajem	-10.1834
▁skoro	-10.1835
▁religijn	-10.1837
▁chiński	-10.1838
▁byci	-10.184
▁kosmos	-10.1841
▁siła	-10.1841
▁kop	-10.1845
▁zbudowan	-10.1846
▁chciała	-10.185
▁Wal	-10.1852
▁pływa	-10.1853
▁zrozumienia	-10.1854
▁fotografi	-10.1856
▁jasne	-10.1859
▁połączenie	-10.1863
▁powód	-10.1865
wców	-10.1865
▁najgorsz	-10.1895
▁terapi	-10.1895
▁wykonywa	-10.1895
▁samochodów	-10.1895
▁biologii	-10.1896
▁smak	-10.1897
▁leczenia	-10.1897
▁zostaje	-10.1901
onaln	-10.1907
pla	-10.1909
▁150	-10.1911
▁modelu	-10.1915
▁zgodzi	-10.1917
▁policj	-10.1917
▁zmarł	-10.1919
▁dziel	-10.1923
staje	-10.1924
▁świec	-10.193
▁tani	-10.193
▁głęboki	-10.1941
▁Fr	-10.195
▁Projekt	-10.1957
▁aplikacj	-10.1957
▁całkowit	-10.1957
▁służb	-10.1957
▁reguł	-10.1957
▁traci	-10.1957
▁świ	-10.1971
▁miejski	-10.1974
▁miesiące	-10.1977
▁pola	-10.1993
▁Jaki	-10.1993
▁zmysł	-10.1997
now	-10.1998
▁prezent	-10.2002
▁współczucie	-10.2007
▁własnego	-10.2007
▁współczuci	-10.2009
▁Drug	-10.2016
▁pragnie	-10.2018
▁zastanowi	-10.2018
▁zaczęło	-10.2018
▁doktor	-10.2019
▁ukryt	-10.2019
▁przyjrze	-10.2019
▁płci	-10.202
▁dusz	-10.2021
▁sumie	-10.2021
amp	-10.2028
▁zobaczył	-10.2034
▁badacz	-10.2049
▁potrzebne	-10.2049
▁rodzina	-10.2052
▁mogło	-10.2056
▁gatunki	-10.2058
▁samotn	-10.2058
▁matematyk	-10.2059
▁miliarda	-10.2059
trzymywa	-10.207
▁Dwa	-10.2071
▁próbując	-10.2073
▁uzyskać	-10.2075
▁potencjaln	-10.208
▁emisj	-10.208
▁przewidzie	-10.208
▁chleb	-10.208
▁wzrasta	-10.2084
trzymują	-10.2087
▁otrzymuje	-10.2095
plo	-10.2111
▁szczepionk	-10.2113
com	-10.2121
▁źród	-10.2126
▁wróci	-10.2131
▁samochodu	-10.2133
▁Meksyk	-10.2143
▁algorytm	-10.2143
▁przeciętn	-10.2143
▁wychodzi	-10.2143
red	-10.2144
▁197	-10.2145
▁kot	-10.2146
▁prędkości	-10.2148
▁rosną	-10.2148
▁osobę	-10.2149
▁otworzy	-10.2149
▁dach	-10.2153
▁przeciwieństw	-10.2155
▁gdybyś	-10.2155
▁ryzyka	-10.2155
▁zabrać	-10.2157
▁perspektyw	-10.2159
▁działo	-10.2163
▁religi	-10.2165
▁jakoś	-10.2165
▁płaci	-10.2184
▁ras	-10.2184
▁twierdzi	-10.2186
▁oczekiwa	-10.2188
▁świadomości	-10.2192
▁pójś	-10.2206
▁niczym	-10.2207
▁gospodarki	-10.2208
▁zwraca	-10.2213
▁projektów	-10.2213
▁Został	-10.2218
▁piąt	-10.222
▁bomb	-10.2222
▁ogrod	-10.2224
▁Chin	-10.2226
▁oczywiste	-10.223
▁komputery	-10.2236
▁popraw	-10.2243
▁łatw	-10.225
▁znany	-10.2258
▁walki	-10.2258
▁południ	-10.2259
▁podstawowe	-10.2265
▁potwierdz	-10.2267
▁narkotyk	-10.2269
▁satelit	-10.2269
▁zdjęciu	-10.2269
▁patrzeć	-10.2269
▁rację	-10.2272
dia	-10.2274
▁mark	-10.228
▁kawałk	-10.228
▁dowoln	-10.228
▁wysokości	-10.2281
▁nadzie	-10.2287
▁głośn	-10.2287
▁przeprowadza	-10.2295
▁ojca	-10.2306
▁Mieliś	-10.2311
line	-10.2314
▁Widz	-10.2315
▁serce	-10.2321
▁Lubi	-10.2323
rażon	-10.2323
rp	-10.2324
▁ograniczon	-10.2329
oną	-10.2332
▁gorąc	-10.2333
▁sekwencj	-10.2333
▁lider	-10.2334
▁budynk	-10.2334
▁myślenie	-10.2335
▁grun	-10.2336
byś	-10.2345
▁wielka	-10.2347
▁pracujemy	-10.2353
cznego	-10.2354
▁kreatywn	-10.2368
lnych	-10.2372
▁Pracuj	-10.2376
▁natur	-10.2379
▁mała	-10.238
▁pojecha	-10.239
▁nos	-10.239
▁zaś	-10.2391
▁Facebook	-10.2397
▁kategori	-10.2397
▁dookoła	-10.2397
▁stref	-10.2397
▁grzyb	-10.2397
▁wiec	-10.2398
▁fascynując	-10.2403
▁urodził	-10.2404
▁środka	-10.2411
▁warunkach	-10.2413
▁tłumacz	-10.2421
kor	-10.2428
▁zeszły	-10.2435
▁wirusa	-10.2435
▁powstani	-10.244
▁magi	-10.2441
▁zają	-10.2446
▁poważnie	-10.2448
dar	-10.2456
świetnie	-10.2458
pon	-10.246
▁ulepsz	-10.2461
▁rozpoczą	-10.2461
▁żółt	-10.2461
▁równowag	-10.2462
▁żywi	-10.2464
▁głupi	-10.2465
▁zbadać	-10.2472
▁opcj	-10.2475
▁świadomoś	-10.2478
▁zauważ	-10.2481
▁statk	-10.2482
▁różnica	-10.2485
iejszy	-10.2489
▁kaw	-10.2502
▁dał	-10.2504
▁środk	-10.2505
nikiem	-10.2509
▁życiem	-10.251
▁Jedyn	-10.2526
nęła	-10.2541
▁Boże	-10.2541
▁zainteresowani	-10.2547
▁Światow	-10.255
▁zatrzyma	-10.2555
dno	-10.2572
▁sensu	-10.2575
▁niezwykłe	-10.2585
▁przodk	-10.2592
▁definicj	-10.2592
▁dinozaur	-10.2592
▁krajobraz	-10.2592
▁udowodni	-10.2592
▁zbliża	-10.2592
▁drobn	-10.2593
▁dzieciom	-10.2593
▁pokry	-10.2594
▁CO	-10.2602
prowadził	-10.2604
▁atmosfer	-10.2616
▁zrobieni	-10.2621
ród	-10.2621
qu	-10.2622
▁populacj	-10.2623
▁wkład	-10.263
▁zmieniają	-10.2632
▁mieszkańców	-10.2633
▁zabiera	-10.2634
▁typow	-10.2635
▁prototyp	-10.2657
▁Twitter	-10.2657
▁konstrukcj	-10.2657
▁platform	-10.2657
▁porozmawia	-10.2657
▁udostępni	-10.2658
▁siedem	-10.2658
▁miłość	-10.2658
▁gęst	-10.2661
▁Bill	-10.2667
▁strat	-10.2669
▁trzecie	-10.2671
▁największych	-10.2674
▁wrog	-10.2674
▁przeciwn	-10.2675
▁osiąga	-10.2676
▁Zosta	-10.2677
mont	-10.2678
droż	-10.2695
▁fotograf	-10.2704
▁wyjaśnić	-10.2704
▁rodzinie	-10.2707
▁książka	-10.2707
onej	-10.271
▁sekret	-10.2724
▁przypadek	-10.2724
▁Kan	-10.2725
▁pokazywa	-10.2727
▁Prac	-10.2728
▁Cel	-10.2739
▁para	-10.2742
▁pokolenie	-10.2742
▁nieznan	-10.2746
▁ewolucj	-10.2756
▁stopniu	-10.2759
▁powol	-10.2761
▁filmy	-10.2772
▁miar	-10.2777
,000	-10.2785
▁wybrzeż	-10.279
▁śmieci	-10.279
▁pojęcie	-10.279
▁kierowa	-10.2791
▁Weźm	-10.2791
▁met	-10.2795
▁decyzje	-10.2798
▁wiedzieli	-10.2798
▁ciągł	-10.2807
▁rodzic	-10.2808
▁dają	-10.2816
▁nogi	-10.2817
▁wymyśl	-10.2822
▁dotyczące	-10.2823
▁most	-10.2831
▁Innym	-10.2836
▁lodow	-10.2841
▁katastrof	-10.2841
▁dotyka	-10.2841
▁państwo	-10.2842
,5	-10.2847
▁zaprojektowan	-10.2848
▁rozprzestrzenia	-10.2848
▁Fa	-10.2848
alizm	-10.2852
lność	-10.2854
arza	-10.2856
dom	-10.2856
▁bliżej	-10.2857
▁uświadomi	-10.2857
▁gorsz	-10.2858
▁kolei	-10.2859
▁zadziała	-10.2861
▁śpi	-10.2862
▁koloni	-10.2862
▁król	-10.2863
klej	-10.2864
▁zależności	-10.2867
▁wymyśli	-10.2872
▁człowiekiem	-10.2872
▁Bra	-10.2881
▁uwierzy	-10.2899
▁zdoln	-10.2905
▁czytać	-10.2905
▁rewolucji	-10.2915
org	-10.2922
▁ustawi	-10.2925
▁macierzyst	-10.2925
▁babci	-10.2926
▁żywo	-10.2928
▁wykorzysta	-10.2928
▁doskonał	-10.2931
▁dłoni	-10.2931
▁Duż	-10.2936
wen	-10.2937
▁kąt	-10.2948
wrócił	-10.295
▁duża	-10.2955
▁idą	-10.2959
▁stos	-10.296
▁polityki	-10.2961
▁zdarza	-10.297
▁Musiał	-10.2979
▁okresie	-10.2981
▁zależn	-10.2991
▁wzdłuż	-10.2993
▁płuc	-10.2993
▁drewn	-10.2993
▁Moim	-10.2996
▁komu	-10.2999
▁gleb	-10.3
▁kamieni	-10.3002
▁Chciałaby	-10.3003
▁kopi	-10.3004
▁dziesiątk	-10.3008
▁świetny	-10.3013
▁magiczn	-10.3018
▁wyraz	-10.3018
▁Bar	-10.3018
▁Stworzy	-10.3023
▁wykorzystani	-10.3026
▁dłuższ	-10.3034
rost	-10.3049
▁mówili	-10.306
kla	-10.3061
▁restauracj	-10.3062
▁zęb	-10.3062
▁gryp	-10.3063
▁neuronów	-10.3069
▁nacisk	-10.3069
▁opró	-10.307
▁Powiedz	-10.3071
▁mogłaby	-10.3073
▁powstaj	-10.3094
▁zrobione	-10.3095
▁35	-10.3098
▁ważniejsze	-10.3106
▁telewizji	-10.3107
▁seksualn	-10.311
ern	-10.3127
▁Izrael	-10.3131
▁depresj	-10.3131
▁koncepcj	-10.3131
▁obserwacj	-10.3131
▁porażk	-10.3131
▁grub	-10.3132
▁całość	-10.3137
▁wodą	-10.3143
▁Dal	-10.3153
▁prosi	-10.3156
stąpi	-10.3157
koło	-10.316
▁Kalifornii	-10.3166
lnym	-10.3169
dajemy	-10.3185
▁fr	-10.3196
▁magnetyczn	-10.32
▁David	-10.32
▁przemian	-10.3202
▁uczni	-10.3204
▁więzienia	-10.3205
▁pras	-10.3208
▁jad	-10.3214
▁lit	-10.3215
▁ciele	-10.3224
▁zakończeni	-10.3227
▁zastąpi	-10.3228
▁buduje	-10.3233
▁Or	-10.3242
▁połowa	-10.3252
▁źródło	-10.3256
▁więzi	-10.3264
▁indywidualn	-10.327
▁spójrz	-10.327
▁zaskakując	-10.327
▁budżet	-10.327
▁wiersz	-10.3271
▁matematyczn	-10.3271
▁odwiedzi	-10.3272
▁zasadnicz	-10.3274
▁objaw	-10.3274
▁zmierzy	-10.3275
▁Ile	-10.3284
▁północ	-10.3288
▁silnik	-10.3289
▁krop	-10.3291
▁doprowadził	-10.3292
▁dochodzi	-10.3305
▁wodn	-10.3312
▁dostrzega	-10.3313
▁droga	-10.332
▁atom	-10.332
▁sprzed	-10.3321
▁Australi	-10.334
▁dyrektor	-10.334
▁rozwiązań	-10.334
▁teleskop	-10.334
▁Dobra	-10.3341
▁gości	-10.3341
▁tyłu	-10.3342
▁dzieckiem	-10.3342
▁myślałem	-10.3343
▁zwyczajn	-10.3348
▁odpowiedział	-10.3353
▁sfer	-10.3363
▁powinni	-10.3369
▁brat	-10.337
▁zarządzani	-10.338
▁miastach	-10.3381
▁Jej	-10.3382
▁Los	-10.3384
▁zaczn	-10.3391
▁deszcz	-10.3395
zja	-10.3398
▁środki	-10.3406
▁jedynym	-10.3407
▁Einstein	-10.3411
▁absolutn	-10.3411
▁uratowa	-10.3412
▁dotarł	-10.3419
▁pracuję	-10.3419
▁zawi	-10.3422
▁Mogą	-10.3422
rok	-10.343
wszy	-10.3432
▁bliski	-10.3434
▁budynki	-10.3435
▁praktycznie	-10.3452
▁popełni	-10.3456
▁sztuka	-10.3459
▁okaz	-10.346
▁hip	-10.3465
▁sal	-10.3474
▁przedsiębiorc	-10.3476
cję	-10.3476
wierzę	-10.348
▁zaangażowani	-10.3482
▁instrument	-10.3483
▁księżyc	-10.3483
▁praktyk	-10.3483
▁szympans	-10.3483
▁aparat	-10.3483
▁odniesieni	-10.3486
▁biegun	-10.3494
lok	-10.3495
▁zainteresowa	-10.3498
▁postanowił	-10.3501
▁ręki	-10.3506
▁schod	-10.3521
▁ryby	-10.3523
▁El	-10.3525
rynku	-10.3528
niejsze	-10.3531
▁ekonomi	-10.3535
▁polityc	-10.3549
▁wyjść	-10.3555
wadze	-10.3557
▁ssak	-10.3561
▁inżynieri	-10.3564
▁odkrycia	-10.3564
▁styl	-10.3567
▁staw	-10.3568
▁plac	-10.3568
wałem	-10.3579
czeni	-10.3593
▁dźwięki	-10.3594
▁tłum	-10.3595
▁najlepszym	-10.3598
▁Niemc	-10.3601
▁dołącz	-10.3607
han	-10.3609
▁głębi	-10.361
▁Prawd	-10.3611
▁wyzwania	-10.3612
▁czujnik	-10.3613
▁wyobraża	-10.3616
▁utwor	-10.3622
▁zapewnia	-10.3625
▁PKB	-10.3627
▁niewiarygodn	-10.3627
▁obchodzi	-10.3627
▁metafor	-10.3627
▁wieczor	-10.3627
▁punkci	-10.3627
▁odmienn	-10.3627
▁leży	-10.3627
▁ster	-10.3628
▁farm	-10.363
▁szkół	-10.363
▁Choć	-10.3631
bój	-10.3633
▁młodzi	-10.3646
▁45	-10.3647
▁Odpowiedział	-10.3656
▁wolno	-10.3667
▁Chcie	-10.367
ńskiej	-10.3679
▁bezpośrednio	-10.368
▁masow	-10.3685
▁los	-10.3689
▁klucz	-10.3689
▁chirurg	-10.3699
▁laptop	-10.37
▁radykaln	-10.37
▁statystyk	-10.37
▁ujawni	-10.37
▁rozwinięt	-10.3701
▁wręcz	-10.3702
▁łatwiej	-10.3706
▁znane	-10.3716
▁sięga	-10.3719
▁Paul	-10.3719
▁zasobów	-10.372
▁kł	-10.3722
▁wymieni	-10.3723
▁poprze	-10.3723
▁zajmowa	-10.3725
▁klient	-10.3726
▁ładn	-10.3737
▁serc	-10.3738
▁ośmi	-10.3739
▁kurs	-10.374
tion	-10.3745
▁zadania	-10.3753
▁dar	-10.3766
▁źródła	-10.3772
▁Europy	-10.3772
nęło	-10.3773
▁Wystarczy	-10.3774
▁właściciel	-10.3774
▁schemat	-10.3774
▁zużywa	-10.3774
▁trend	-10.3774
▁Mc	-10.3776
▁kaza	-10.3777
▁jazd	-10.3778
▁wydarzenia	-10.3782
▁zapach	-10.3789
▁oboz	-10.379
▁połowę	-10.3797
▁stanowią	-10.38
▁pokój	-10.3803
▁umożliwia	-10.3809
▁21	-10.3815
▁pies	-10.3827
▁danym	-10.3828
▁itp	-10.3839
▁wspina	-10.3848
▁Steve	-10.3848
▁ścieżk	-10.3848
▁dopó	-10.3848
▁kanał	-10.3848
rzód	-10.3856
▁Pytanie	-10.3873
▁rodzi	-10.3874
▁światowej	-10.3875
▁filmie	-10.3877
run	-10.388
▁pojawiają	-10.3885
▁osad	-10.3898
▁bakterie	-10.3908
▁Miała	-10.391
▁konferencji	-10.3914
bor	-10.3914
▁zaawansowan	-10.3922
▁zamknięt	-10.3922
▁intelektualn	-10.3922
▁pszczoł	-10.3922
▁brzeg	-10.3923
▁spróbuj	-10.3923
▁stuleci	-10.3923
▁Ponad	-10.3923
▁morza	-10.3923
▁wpadł	-10.3924
▁lubią	-10.3927
kwi	-10.3934
▁1000	-10.3935
ącym	-10.3942
owca	-10.3945
▁nazwie	-10.3949
▁jeździ	-10.395
▁poszedł	-10.3951
▁bla	-10.3958
▁geo	-10.3964
▁biznesu	-10.3966
▁Częś	-10.3972
▁pozwalając	-10.3974
▁Azji	-10.398
dża	-10.3988
▁realn	-10.3997
▁Zastanawia	-10.3998
▁odnosi	-10.3998
▁oczekuj	-10.3998
▁zamierza	-10.401
▁jaj	-10.4024
▁mieszkańc	-10.4026
▁owoc	-10.4028
▁wyraża	-10.4036
▁spędzi	-10.4038
▁widzą	-10.4042
▁Zobaczy	-10.4042
wrot	-10.4048
▁osiem	-10.4059
więcej	-10.406
▁chemi	-10.4065
▁największy	-10.4071
▁ONZ	-10.4073
▁Richard	-10.4073
▁Zauważ	-10.4073
▁najwyższ	-10.4073
▁uśmiech	-10.4073
▁Postanowi	-10.4073
▁tzw	-10.4073
▁dziennikarz	-10.4075
▁tkwi	-10.4076
▁widzieliście	-10.4079
▁faz	-10.408
▁szar	-10.4086
▁zagra	-10.4095
▁wykry	-10.4096
▁linia	-10.4107
▁wzorc	-10.4113
▁mogłoby	-10.4118
wód	-10.412
▁kocham	-10.4123
dziesiąt	-10.4132
▁Was	-10.4135
▁naukę	-10.4136
▁napisan	-10.4138
▁zaangażowa	-10.4149
▁negatywn	-10.415
▁szacunk	-10.415
▁oszczędza	-10.415
▁odrobin	-10.415
▁towarzysz	-10.415
▁zmniejsza	-10.415
▁zachęca	-10.415
▁nud	-10.415
▁termin	-10.415
▁klimatyczn	-10.4151
▁patent	-10.4151
▁podją	-10.416
▁Działa	-10.4161
ńczyk	-10.4166
▁momentu	-10.4185
owani	-10.4187
▁polu	-10.4189
▁rysunk	-10.4192
▁niesamowity	-10.4194
▁budowani	-10.4194
▁Kanad	-10.4198
izmu	-10.4207
▁działań	-10.4209
▁wyłączni	-10.4209
stawieni	-10.4214
▁energetyczn	-10.4227
▁pełen	-10.4227
▁trójwymiarow	-10.4227
▁zainspirowa	-10.4227
▁pomoże	-10.4227
▁Nigeri	-10.4227
▁Tworz	-10.4228
▁żad	-10.423
▁narod	-10.4232
▁usłyszał	-10.4239
▁różnią	-10.4244
▁motyw	-10.4244
▁niedawno	-10.4257
▁cich	-10.4257
▁cieszy	-10.4259
▁ustaw	-10.4261
▁ciast	-10.4262
▁towar	-10.4262
wieczn	-10.4271
▁września	-10.4277
▁architekt	-10.4278
kładzie	-10.4282
▁zamierzam	-10.4296
▁dało	-10.43
▁wizualn	-10.4304
▁korupcj	-10.4304
▁umieszcza	-10.4304
▁mrówk	-10.4304
▁okazję	-10.4304
dawno	-10.4305
▁zjawisko	-10.4305
▁świadk	-10.4305
▁dosy	-10.4305
▁łączn	-10.4305
▁psycholog	-10.4315
▁pokolenia	-10.4316
▁Daj	-10.4319
strzyk	-10.432
dan	-10.4333
▁Ed	-10.4338
▁staną	-10.4346
zowane	-10.4357
▁obywateli	-10.4359
▁finans	-10.4367
▁kontrolę	-10.4372
▁zastanawiać	-10.4374
▁wydają	-10.4379
▁doświadcz	-10.4381
▁demokratyczn	-10.4382
▁zrównoważon	-10.4382
▁siedmi	-10.4382
▁islam	-10.4382
▁dostarczy	-10.4382
▁Iraku	-10.4383
▁szef	-10.4383
▁wieloma	-10.4384
▁znajd	-10.4384
▁lęk	-10.4385
▁zapobiega	-10.4386
▁piask	-10.4389
▁grze	-10.4389
liwy	-10.4389
▁stres	-10.4392
▁odporn	-10.4393
▁Uwielbiam	-10.4407
▁radio	-10.4412
bar	-10.4416
▁Uży	-10.4428
▁dużym	-10.4437
▁postanowi	-10.444
▁wiedzieliś	-10.4448
▁zrobion	-10.4454
ważne	-10.4455
jechał	-10.4459
▁bogactw	-10.4461
▁poświęci	-10.4461
wschodni	-10.4461
▁Trzeci	-10.4463
▁afrykański	-10.4464
▁99	-10.4466
▁rzęd	-10.4467
ple	-10.4468
▁aktor	-10.4469
▁dostępu	-10.4471
▁mierzy	-10.4472
▁początk	-10.4474
▁wojna	-10.4482
▁obron	-10.4485
▁społecznej	-10.4488
▁matematyki	-10.4488
▁świetne	-10.449
▁dal	-10.4491
▁Iran	-10.4494
▁standard	-10.4496
▁Per	-10.4506
dszedł	-10.4511
▁kontynent	-10.4515
▁opuszcz	-10.4518
▁Samo	-10.453
▁warto	-10.4535
▁nuklearn	-10.454
▁wykorzystuje	-10.454
▁branż	-10.454
▁zachodzi	-10.4541
▁chciałaby	-10.4541
▁znaleźliśmy	-10.4542
ującym	-10.4544
ble	-10.4549
▁Skąd	-10.4551
▁tamtej	-10.4558
▁ocenia	-10.4562
▁sprzedaż	-10.4566
▁koło	-10.4571
▁złoży	-10.4573
▁dalsz	-10.4574
▁postrzegani	-10.4576
▁jedn	-10.4577
▁pokaz	-10.4589
lnej	-10.4589
▁Myślał	-10.4591
▁Mil	-10.4605
czyk	-10.4612
▁75	-10.4614
▁ludzkim	-10.4619
▁zasoby	-10.462
▁Uniwersytet	-10.462
▁ubóstw	-10.462
▁hotel	-10.462
▁podąża	-10.4621
▁jaskini	-10.4621
▁II	-10.4621
▁operacj	-10.4622
▁Rozmawia	-10.4624
▁Zda	-10.4625
▁pamiętam	-10.4632
▁pozostawi	-10.464
▁Ser	-10.4645
▁błędn	-10.4647
▁materiałów	-10.4661
▁długości	-10.467
▁istniejąc	-10.4672
rium	-10.4679
▁rzeczach	-10.4683
▁badan	-10.4691
▁fizyk	-10.4692
▁Ameryka	-10.4697
▁filmów	-10.4697
▁zwolni	-10.4698
▁norm	-10.47
▁Angeles	-10.4701
▁skorzysta	-10.4701
▁urządzeń	-10.4701
▁nerwow	-10.4701
▁wspomniał	-10.4701
▁Zacznij	-10.4701
▁uczucia	-10.4703
▁marzenie	-10.4707
▁Czego	-10.4709
▁Stanów	-10.4715
win	-10.4723
▁Nauk	-10.4724
▁rozkład	-10.4725
▁nastąpił	-10.4732
▁kolejnych	-10.4738
▁wyjaśnia	-10.4747
▁byłaby	-10.475
▁pozwolił	-10.4754
▁Trzy	-10.4762
▁planetę	-10.4762
▁wybran	-10.4767
▁tajemnic	-10.4777
▁przewidywa	-10.4782
▁profesor	-10.4782
▁psychiczn	-10.4782
len	-10.4783
▁oddycha	-10.4783
▁żart	-10.4783
▁połączenia	-10.4794
▁dysk	-10.4795
▁uczeni	-10.4798
▁podatk	-10.4804
▁operacji	-10.4804
▁zakup	-10.4811
▁zabawn	-10.4814
▁rzeczywistym	-10.4814
▁twórc	-10.482
▁Japonii	-10.4822
baw	-10.4824
turze	-10.4829
wiedziałem	-10.4829
▁kas	-10.4839
▁robisz	-10.4847
racając	-10.4863
▁delikatn	-10.4864
▁powstrzyma	-10.4864
▁powtórz	-10.4864
▁zasług	-10.4864
▁przemieszcza	-10.4864
▁Centr	-10.4864
▁treści	-10.4864
▁wzrosł	-10.4866
▁XXI	-10.4866
▁muzyczn	-10.4866
▁oddziaływa	-10.4867
▁nog	-10.4877
pożycz	-10.4898
▁odbiera	-10.4899
▁trudności	-10.4901
dpowiedź	-10.4902
▁rozważa	-10.4913
▁braku	-10.4916
▁myśląc	-10.4925
▁promieni	-10.4928
▁ciężar	-10.4943
▁rejestr	-10.4947
▁zaobserwowa	-10.4947
▁nieskończon	-10.4947
▁muzeum	-10.4947
▁bądź	-10.4947
▁wysiłk	-10.4947
▁badawcz	-10.4947
20	-10.4948
▁handlow	-10.4948
▁organiczn	-10.4948
▁dokąd	-10.4955
▁Man	-10.4957
▁komar	-10.4959
▁piłk	-10.4963
▁zasięg	-10.4966
▁musiała	-10.4967
▁wyglądało	-10.4969
▁dostępny	-10.497
▁zdaje	-10.4973
▁chcielibyś	-10.4975
▁późn	-10.4975
▁traktowa	-10.4976
▁natura	-10.4977
różnorodność	-10.4982
▁zainteresowan	-10.4986
▁Popatrz	-10.4987
▁atmosfery	-10.4999
▁znam	-10.5013
▁robiąc	-10.5018
▁Zdecydowa	-10.503
▁producent	-10.503
▁wieloryb	-10.503
▁błąd	-10.503
▁obejrze	-10.503
▁odbywa	-10.5032
▁pomieszcze	-10.5033
▁armi	-10.5037
▁dba	-10.5043
▁drogą	-10.5044
▁książce	-10.5049
▁krótko	-10.5052
▁prawdopodob	-10.5059
▁zarządza	-10.5067
wagę	-10.5073
▁wysok	-10.5076
▁rządow	-10.5082
▁czynniki	-10.5099
▁włącz	-10.5103
▁osi	-10.5108
▁George	-10.5114
▁ewolucyjn	-10.5114
▁intensywn	-10.5114
▁małżeństw	-10.5114
▁mikroskop	-10.5114
▁zapłaci	-10.5114
izacji	-10.5115
▁Narodow	-10.5117
▁całości	-10.5117
▁pustyni	-10.5119
▁studiowa	-10.5119
▁transport	-10.5124
▁kontrolować	-10.5128
▁występuje	-10.5131
▁wolność	-10.514
▁kosztuje	-10.5143
▁odwró	-10.515
bierają	-10.5156
▁właściwości	-10.5156
pływają	-10.5164
▁pada	-10.5165
dło	-10.5165
▁brać	-10.5168
▁pomagają	-10.5169
▁powstają	-10.5172
▁musieliś	-10.5173
▁interesuje	-10.5177
▁zbior	-10.5184
▁mózgi	-10.5184
▁Gdybyś	-10.5184
▁zgod	-10.5187
▁miejscow	-10.5194
▁rur	-10.5196
▁myśleli	-10.5197
▁swobod	-10.5199
▁przebieg	-10.52
▁tablic	-10.52
▁mld	-10.5201
▁budują	-10.5206
▁Udał	-10.5214
▁słoni	-10.5226
▁pracowałem	-10.5232
▁kulturow	-10.5235
▁dostał	-10.5238
▁dostaw	-10.5241
▁odkrycie	-10.5244
płynę	-10.5257
▁surow	-10.5257
▁zatrzymać	-10.5261
▁Mon	-10.5283
▁Waszyngton	-10.5284
▁powietrzu	-10.5284
▁SMS	-10.5284
▁rozrywk	-10.5284
▁Spróbuj	-10.5285
▁rejon	-10.5286
▁przeszkod	-10.5287
▁Powinniś	-10.5287
▁kontekst	-10.5291
▁2008	-10.5292
jecie	-10.5295
▁łącząc	-10.5304
▁komuś	-10.5311
▁dzielnic	-10.5315
▁leczenie	-10.532
▁zdecydował	-10.5322
▁rezulta	-10.5344
▁łączą	-10.5351
▁włączy	-10.5354
▁więźni	-10.5367
▁podpis	-10.5367
▁kierowc	-10.5371
▁pudełk	-10.5371
▁skłonn	-10.5371
▁Darwin	-10.5371
▁Osob	-10.5371
▁otwarci	-10.5371
▁automatyczn	-10.5371
▁Kenii	-10.5372
▁rytm	-10.5373
ieństwo	-10.5375
▁wspólnot	-10.5375
▁użyteczn	-10.5376
U	-10.5379
▁wyczu	-10.538
▁ekranie	-10.538
▁wydawać	-10.538
▁fizyki	-10.538
▁unika	-10.5383
▁kręg	-10.5389
▁znają	-10.5394
▁potrzebowa	-10.5396
▁plastik	-10.5403
leciał	-10.5405
▁Poza	-10.5407
▁wygląd	-10.541
▁rodzinn	-10.542
▁religii	-10.5424
▁ogranicza	-10.5429
▁szkod	-10.5431
▁lepszym	-10.5439
▁twoim	-10.5454
praszam	-10.5455
▁niepełnosprawn	-10.5458
▁molekuł	-10.5458
▁pierwotn	-10.5458
▁sześciu	-10.5458
▁Bibli	-10.5458
▁zdobyć	-10.5458
▁lodu	-10.5458
▁odbudow	-10.5458
▁pism	-10.5459
▁pozostaje	-10.5459
▁marzenia	-10.546
▁zawodow	-10.5462
prost	-10.5465
kurat	-10.5465
długo	-10.5469
▁stosowa	-10.547
▁Kolejny	-10.5473
▁łodzi	-10.5491
▁średnio	-10.5492
▁wszechświecie	-10.5495
▁strachu	-10.5515
wija	-10.552
▁największym	-10.5531
▁zbada	-10.5532
▁pokazując	-10.5537
▁pogod	-10.5538
▁pochodzeni	-10.554
▁wyjątki	-10.5542
▁robieni	-10.5545
▁Francisco	-10.5545
▁NAS	-10.5545
▁autobus	-10.5545
▁niewidzialn	-10.5545
▁uniwersytet	-10.5545
▁wrażliw	-10.5545
▁zagrożon	-10.5545
▁wspomina	-10.5545
▁System	-10.5545
▁papieru	-10.5545
▁stabiln	-10.5546
▁elektroniczn	-10.5546
▁Times	-10.5547
▁gier	-10.5547
▁koralow	-10.5548
▁Franc	-10.5548
▁potęg	-10.5549
▁194	-10.5549
tury	-10.5555
skarż	-10.5558
▁zmieniła	-10.5569
▁rzadko	-10.5575
▁Kor	-10.5575
▁małego	-10.5578
▁wnios	-10.5586
▁czują	-10.5589
▁warunk	-10.5592
▁problemami	-10.5598
▁23	-10.5601
▁dostałem	-10.5614
acyjny	-10.5621
▁piękno	-10.5624
▁wyniku	-10.5627
niósł	-10.5634
▁MIT	-10.5634
▁inspiracj	-10.5634
▁przygląda	-10.5634
▁następując	-10.5635
▁jądrow	-10.5635
▁Szuka	-10.5635
grzewa	-10.5637
▁rogu	-10.5639
▁przystosowa	-10.5641
▁spotkanie	-10.5643
▁uwolni	-10.5644
▁przydatn	-10.5645
▁balon	-10.5646
▁Ben	-10.5651
▁wojnie	-10.5657
▁karmi	-10.5672
▁włącza	-10.5675
▁wierzą	-10.5676
▁źródł	-10.5677
▁Skor	-10.568
▁ufa	-10.5682
▁Gene	-10.5689
krotni	-10.5692
▁Zrobił	-10.5703
▁wydoby	-10.5705
▁rosnąc	-10.5715
▁Mal	-10.5721
▁starożytn	-10.5723
▁wczoraj	-10.5723
▁znalezieni	-10.5723
▁delfin	-10.5723
▁szereg	-10.5723
▁przegląd	-10.5723
▁nastolatk	-10.5723
▁ochot	-10.5724
▁Rozumie	-10.5724
▁godn	-10.5724
▁artystyczn	-10.5726
▁nastąpi	-10.5727
▁skutk	-10.5729
▁osiągnięcia	-10.5729
▁odpowiedzieć	-10.573
▁śledzi	-10.5732
▁wymian	-10.5744
▁zostawia	-10.5746
▁złapa	-10.5748
▁opublikowa	-10.5751
▁odkrył	-10.5752
▁filmow	-10.5754
▁ekonomii	-10.5759
stawić	-10.576
▁stracił	-10.5768
olodz	-10.577
sja	-10.5792
▁dorasta	-10.5795
▁połącz	-10.5803
▁łatwe	-10.5809
▁Wasz	-10.581
▁przedsięwzię	-10.5813
▁Mężczyzn	-10.5813
▁uruchomi	-10.5813
▁Mieszka	-10.5813
▁zmienn	-10.5813
▁rusza	-10.5814
▁Kocham	-10.5816
▁lamp	-10.5816
▁spokojn	-10.5817
▁klasie	-10.5817
▁odwrotn	-10.5819
▁Umie	-10.5825
▁22	-10.5826
▁raf	-10.5829
▁wojsk	-10.5833
▁sen	-10.5841
▁działając	-10.5853
▁domów	-10.586
▁pochodzą	-10.5863
▁wyrzu	-10.5865
▁zajmując	-10.587
▁spotkania	-10.5872
lnego	-10.5891
▁spotkał	-10.5896
▁Słucha	-10.5904
▁interfejs	-10.5904
▁prelekcj	-10.5904
▁wdzięczn	-10.5904
▁broń	-10.5904
▁terroryzm	-10.5904
▁poznawcz	-10.5905
▁pilot	-10.5905
▁funkcjonowa	-10.5905
▁kuchni	-10.5905
▁196	-10.5905
▁Próbuj	-10.5911
▁tamtym	-10.5919
▁Ciąg	-10.592
▁brakuj	-10.5921
▁stali	-10.5926
▁tańc	-10.5932
▁publiczności	-10.5937
mniej	-10.5946
alistyczn	-10.5952
▁wyraźnie	-10.5962
▁dziesię	-10.5964
▁Czuj	-10.5967
▁zmniejszyć	-10.5975
▁mur	-10.5977
nizm	-10.5979
▁łap	-10.5995
▁diagnoz	-10.5996
▁historyczn	-10.5996
▁kliniczn	-10.5996
▁zapamięta	-10.5996
▁życiow	-10.5996
▁elastyczn	-10.5996
▁Państw	-10.5996
▁zmaga	-10.5996
▁bilion	-10.5997
sen	-10.5998
▁jutr	-10.5999
▁rozmów	-10.6
▁wykrywa	-10.6001
▁zamiar	-10.6001
▁płat	-10.6005
▁wydarzyło	-10.6012
▁spis	-10.6013
▁rozbi	-10.6017
▁promieniowani	-10.6018
wiązan	-10.6026
▁obszarze	-10.6026
▁rolnik	-10.6027
▁wykorzystując	-10.6032
▁męsk	-10.6037
▁praktyczn	-10.6039
▁pracownik	-10.6044
▁scenie	-10.605
▁przyjecha	-10.6052
▁skał	-10.6057
stron	-10.6064
▁politycznych	-10.6064
▁przełom	-10.6069
▁prawdziwym	-10.6074
pisuje	-10.6078
nięcia	-10.608
▁kłopot	-10.6088
▁odnaleź	-10.6088
▁stóp	-10.6088
▁przybliż	-10.6089
▁odzyska	-10.6089
▁kilko	-10.6089
kup	-10.6089
▁straż	-10.609
▁plaż	-10.6091
▁Zasad	-10.6094
▁zdrad	-10.6096
▁ograniczenia	-10.6097
▁oczu	-10.6102
▁wyrzuca	-10.6102
▁pobra	-10.6104
▁kap	-10.6106
▁płac	-10.6111
▁Mor	-10.6117
▁pochodząc	-10.612
▁przyszedł	-10.6125
▁chodziło	-10.6135
van	-10.6143
▁Pyta	-10.6156
▁plec	-10.6156
latek	-10.6158
▁niezł	-10.616
▁transportu	-10.6171
▁gorz	-10.6172
▁Histori	-10.6182
▁Słońca	-10.6182
▁chłopak	-10.6182
▁hodowl	-10.6182
▁prognoz	-10.6182
▁zróżnicowan	-10.6182
▁Technologi	-10.6182
▁kontynuowa	-10.6182
▁choler	-10.6182
▁szersz	-10.6182
▁butelk	-10.6182
▁oddech	-10.6182
▁Rzecz	-10.6183
▁utrat	-10.6183
▁Prowadz	-10.6183
▁Film	-10.6183
▁artystów	-10.6184
pewn	-10.6191
▁pokojow	-10.6194
sprawiedliwości	-10.6199
▁Wiesz	-10.6205
▁bezpośredni	-10.6207
▁nazywan	-10.6209
30	-10.6212
▁zegar	-10.6214
▁rodzinę	-10.6224
▁rozwi	-10.6225
rr	-10.6235
▁zagrożenie	-10.6235
▁zadawa	-10.6237
▁związk	-10.6246
▁chcieliś	-10.6247
▁poprosił	-10.6264
▁elementów	-10.6272
▁wpis	-10.6275
▁wstyd	-10.6275
▁cywil	-10.6276
▁empati	-10.6276
▁wyprodukowa	-10.6276
▁produkują	-10.6276
▁słyszeliście	-10.6276
▁urzęd	-10.6276
▁Spotka	-10.6277
▁przyjrzy	-10.6277
▁mistrz	-10.6277
▁spacer	-10.6278
▁operacyjn	-10.6279
▁klimat	-10.6282
▁rakiet	-10.6282
▁27	-10.6286
▁Bank	-10.6289
▁występują	-10.629
▁odcin	-10.629
▁zauważył	-10.6291
▁przyjemn	-10.6296
▁obowiązk	-10.6297
▁pozwalają	-10.6299
▁pokrywa	-10.6313
▁dąż	-10.6313
▁trosz	-10.6315
▁trudniej	-10.6318
▁lud	-10.6318
▁biznesow	-10.6324
▁zmieniając	-10.6342
▁dziecięc	-10.6344
▁różnym	-10.6347
▁piec	-10.6349
▁mieszan	-10.6356
▁prawn	-10.6357
▁dzieleni	-10.6363
szczep	-10.6366
▁Księżyc	-10.6371
▁XIX	-10.6371
▁fałszyw	-10.6371
▁francusk	-10.6371
▁nowotwor	-10.6371
▁recept	-10.6371
▁sugeruj	-10.6371
▁konserw	-10.6372
▁szkoln	-10.6372
▁śwież	-10.6372
▁kobiec	-10.6379
▁przejd	-10.6386
yjemy	-10.6387
powiada	-10.6396
strzał	-10.6397
▁wioski	-10.6397
J	-10.6398
▁wytrzyma	-10.6398
▁Zapytał	-10.64
▁podejmuj	-10.6403
▁szal	-10.6423
▁radości	-10.6429
gina	-10.643
▁Jedno	-10.643
▁Zada	-10.6434
▁histori	-10.6435
▁duchow	-10.6452
▁radiow	-10.6456
ryg	-10.6458
▁stojąc	-10.6463
▁Pla	-10.6467
▁Anglii	-10.6468
▁GPS	-10.6468
▁Harvard	-10.6468
▁bibliotek	-10.6468
▁innowacyjn	-10.6468
▁przedsiębiorstw	-10.6468
▁studenci	-10.6468
▁szkielet	-10.6468
▁ułatwi	-10.6468
▁James	-10.6468
▁ślep	-10.6468
▁męż	-10.6468
vo	-10.6469
darzyło	-10.6469
▁wycin	-10.647
czoła	-10.6471
▁głu	-10.6471
▁wykonują	-10.6474
▁akt	-10.6476
▁klik	-10.6476
▁poprosi	-10.648
▁wypraw	-10.6484
▁rozwiną	-10.6487
▁woli	-10.6489
▁szczerz	-10.649
▁Napisał	-10.6492
▁druk	-10.6492
▁siedział	-10.6499
ds	-10.6502
▁zajmują	-10.6505
ciągnąć	-10.6512
san	-10.6518
▁Brak	-10.6536
▁marn	-10.6537
▁prędkoś	-10.6557
▁mail	-10.6559
▁mikrob	-10.6563
▁Zachodni	-10.6565
▁autyzm	-10.6565
▁Rząd	-10.6566
▁pomiar	-10.6566
▁krzycz	-10.6566
▁Wiedział	-10.6567
▁Przedstawi	-10.6571
▁zdoła	-10.6571
▁diet	-10.6572
▁zagadk	-10.6574
▁spadł	-10.6577
▁zwrotn	-10.658
▁zakaz	-10.6581
▁upraw	-10.6582
▁napędza	-10.6587
▁sztuc	-10.6588
▁Bea	-10.6598
łud	-10.6603
▁ataku	-10.6605
▁założ	-10.6611
▁wziął	-10.6615
płynie	-10.6642
▁Będ	-10.6647
▁stal	-10.6647
▁mieszkani	-10.6648
▁burz	-10.6652
▁kwadratow	-10.6657
▁skutki	-10.6657
▁przypomn	-10.6663
▁argument	-10.6663
▁odróżni	-10.6663
▁osiągnę	-10.6663
▁podekscytowan	-10.6663
▁uniwersaln	-10.6663
▁wspomnienia	-10.6663
▁ośrodk	-10.6663
▁projekci	-10.6663
▁kariery	-10.6663
▁roczn	-10.6665
▁ciśnieni	-10.6666
▁walczą	-10.6668
sprzeczn	-10.667
▁wynalaz	-10.6671
▁przyciąga	-10.6674
wieść	-10.6675
▁Będą	-10.6687
nięty	-10.6688
▁wybra	-10.6703
▁pobiera	-10.6708
▁odwag	-10.6708
▁obraca	-10.6715
▁wyzwaniem	-10.6731
▁sprzedawa	-10.6734
▁dowód	-10.6747
▁obywatelski	-10.6754
▁inicjatyw	-10.6762
▁odtworzy	-10.6762
▁przeprowadzon	-10.6762
▁zaproponowa	-10.6762
▁szczur	-10.6762
▁naprawić	-10.6762
▁narodzin	-10.6762
▁zagraniczn	-10.6762
wolni	-10.6763
▁fundamentaln	-10.677
▁zagrożenia	-10.6772
dając	-10.6775
▁Prawdopodob	-10.6777
▁lice	-10.6782
▁wychowa	-10.6782
▁własności	-10.6782
owski	-10.6786
▁głównym	-10.6789
▁rzeczywist	-10.6797
▁Del	-10.6801
▁nazywają	-10.6805
dor	-10.6812
▁wyobraź	-10.6812
nauce	-10.682
ker	-10.6821
▁bezpieczeństwo	-10.6832
▁cywilizacji	-10.6846
▁krótk	-10.6856
▁Nadal	-10.6858
▁brutaln	-10.6862
▁Trudno	-10.6862
▁pozbyć	-10.6862
▁doskonal	-10.6862
▁raport	-10.6862
▁smutn	-10.6862
▁przenosi	-10.6862
▁współpracownik	-10.6864
▁tward	-10.6864
▁the	-10.6873
▁mogłyby	-10.6878
▁głod	-10.6896
▁księ	-10.6901
▁oper	-10.6901
▁Kim	-10.6904
▁spojrzał	-10.6907
▁młodym	-10.6911
▁Nad	-10.6913
▁znajdowa	-10.6913
▁dając	-10.6914
▁szpitalu	-10.6917
▁drzewo	-10.6932
▁wykorzystywa	-10.6936
rysow	-10.6942
▁przeżyć	-10.6951
▁zapobie	-10.6958
▁darmo	-10.6962
▁wydarzy	-10.6962
▁kształci	-10.6963
▁mechaniczn	-10.6963
▁Kobiety	-10.6963
▁Pakistan	-10.6963
▁prawidłow	-10.6963
▁korporacj	-10.6963
▁aktualn	-10.6963
▁wojen	-10.6963
▁Brzmi	-10.6963
▁zarobi	-10.6963
.000	-10.6963
▁identyczn	-10.6963
▁agencj	-10.6964
▁cukr	-10.6964
▁ucieka	-10.6965
▁odgrywa	-10.6965
▁Wojn	-10.6965
▁darmow	-10.6967
▁rekin	-10.6967
▁Patrząc	-10.6971
▁przemawia	-10.6974
▁zostali	-10.6974
▁inter	-10.6974
▁przenieść	-10.6982
▁dotyk	-10.6991
▁biologi	-10.6992
▁kreatywności	-10.6997
▁ogon	-10.7002
▁aktywności	-10.7003
▁filtr	-10.7008
▁stopniow	-10.7014
▁grę	-10.7014
przed	-10.7017
▁standardow	-10.7019
▁związki	-10.7022
▁oczywist	-10.7026
▁Brazylii	-10.7027
▁Pani	-10.703
▁zostan	-10.7034
▁początkow	-10.7046
▁Pamiętaj	-10.7048
▁ptaków	-10.7051
▁Park	-10.7053
▁stosowan	-10.7053
▁Przeprowadz	-10.7056
grafii	-10.7061
precyzyjn	-10.7065
▁Anderson	-10.7065
▁Kongres	-10.7065
▁rozpowszechni	-10.7065
▁wspanial	-10.7065
▁zaakceptowa	-10.7065
▁kredyt	-10.7065
▁wspomaga	-10.7065
▁zapomina	-10.7065
▁podwodn	-10.7065
▁siedząc	-10.7065
▁prowadzeni	-10.7065
▁lotnisk	-10.7065
▁zamieszka	-10.7065
▁wskazują	-10.7066
▁spektr	-10.7066
▁żywność	-10.7068
▁przeszczep	-10.7075
▁nagrywa	-10.7076
▁tle	-10.7104
▁podejmowani	-10.7105
▁kw	-10.7106
gryw	-10.7117
▁nisk	-10.712
▁brytyjski	-10.7128
▁rzadk	-10.7133
▁stole	-10.7135
▁zawart	-10.7136
▁niebiesk	-10.7137
▁okazał	-10.7138
pisałem	-10.7154
▁akcji	-10.7158
▁wyzwa	-10.7164
▁nazwan	-10.7165
▁walc	-10.7166
▁Człowiek	-10.7168
▁bezprzewodow	-10.7168
▁interaktywn	-10.7168
▁krawędzi	-10.7168
▁przejrzyst	-10.7168
▁symulacj	-10.7168
▁Potrafi	-10.7168
▁wykazał	-10.7168
▁lekarstw	-10.7168
▁lód	-10.7168
▁Któr	-10.7168
▁Frank	-10.7168
▁śmia	-10.7169
▁ludności	-10.7169
▁chip	-10.717
▁lustr	-10.717
▁Ocean	-10.717
▁dziki	-10.7174
▁mózgow	-10.7175
▁ratowa	-10.7176
▁kontra	-10.7177
▁spyta	-10.7184
▁fan	-10.7192
▁nogami	-10.7195
▁biorą	-10.7197
▁samochodow	-10.7204
▁przyda	-10.7209
mail	-10.721
ologii	-10.721
▁Założ	-10.7214
▁istnienie	-10.7232
des	-10.7233
car	-10.7235
hol	-10.7236
▁atomow	-10.7255
szczycie	-10.7255
ultur	-10.7256
yjne	-10.7258
▁instalacj	-10.7272
▁pożywieni	-10.7272
▁urodzin	-10.7272
▁grawitacj	-10.7272
▁krzesł	-10.7272
▁pamięć	-10.7272
▁mądroś	-10.7272
▁ścisł	-10.7272
▁hałas	-10.7272
▁produktywn	-10.7272
▁unikną	-10.7273
▁Zwykl	-10.7274
▁przebywa	-10.7275
▁palec	-10.7276
▁korzeni	-10.7277
▁toalet	-10.7283
▁próbują	-10.7284
▁samic	-10.7285
▁zabieg	-10.7287
▁spojrzenie	-10.7289
▁odległości	-10.7297
▁mecz	-10.7299
▁lodowc	-10.7303
rodził	-10.732
▁podróżowa	-10.7335
▁gracz	-10.7338
▁widzieli	-10.734
▁przetwarza	-10.7351
▁szczer	-10.7353
▁motywacj	-10.7353
▁fundament	-10.7368
▁Pracował	-10.7371
▁Zjednoczone	-10.7377
▁asteroid	-10.7377
▁prowadząc	-10.7377
▁Amazon	-10.7377
▁zdobywa	-10.7377
▁opłat	-10.7377
▁niewidom	-10.7377
▁chaos	-10.7377
▁upewni	-10.7377
▁zmusza	-10.7378
▁obiad	-10.7378
▁Twoj	-10.7378
▁krytyczn	-10.7379
▁grafik	-10.738
rozdziel	-10.7381
▁reform	-10.7382
▁Internecie	-10.7394
▁teatr	-10.7395
▁195	-10.7399
odawc	-10.7403
▁szp	-10.7406
▁składniki	-10.7407
▁link	-10.7407
knął	-10.7409
▁surowc	-10.7423
wiec	-10.7426
▁skończ	-10.7426
▁spędził	-10.7426
▁odkryłem	-10.7429
▁zapas	-10.7435
▁wysoko	-10.7437
▁sportow	-10.7441
▁obró	-10.7448
▁biorąc	-10.7454
▁białka	-10.7456
▁obaw	-10.7462
▁kg	-10.7473
▁symetri	-10.7484
▁czynności	-10.7484
▁Głos	-10.7485
▁nazwisk	-10.7488
▁połączone	-10.7511
▁długoś	-10.7516
▁tworzeni	-10.7516
▁600	-10.7528
▁wojnę	-10.7529
▁dziw	-10.7532
▁szkołach	-10.7542
▁250	-10.7554
▁dostanie	-10.7558
▁zorganizowa	-10.7559
▁Wschod	-10.7564
▁czynnik	-10.7566
▁cząstk	-10.7575
acją	-10.7576
▁rzuci	-10.7583
▁wydajnoś	-10.7589
▁powró	-10.759
▁Uczy	-10.7591
▁Czerwon	-10.7591
▁informacyjn	-10.7591
▁Niesamowit	-10.7591
▁konkurs	-10.7591
▁produkuje	-10.7591
▁wprowadzeni	-10.7591
▁dialog	-10.7591
▁przeszłość	-10.7591
▁węglow	-10.7591
▁kiepsk	-10.7591
▁odczyta	-10.7592
▁umrze	-10.7597
▁odwiedza	-10.7598
▁kupowa	-10.7599
▁wstecz	-10.7607
▁przesuwa	-10.7609
▁utrzymywa	-10.7611
▁otaczając	-10.7612
▁nut	-10.7612
▁sond	-10.7614
▁istnienia	-10.7618
▁wniosku	-10.7635
▁ryzyk	-10.7637
▁szukając	-10.7639
stawia	-10.7659
▁nagranie	-10.7661
▁klientów	-10.7661
▁Zaraz	-10.7662
▁miesiącach	-10.7664
▁Badani	-10.7666
pracowaliśmy	-10.767
▁wybrał	-10.7676
▁otacza	-10.768
▁wojskow	-10.768
▁siatk	-10.7696
▁stoł	-10.7696
▁cząstecz	-10.7699
▁Możliw	-10.77
▁Zrozumiał	-10.77
▁molekularn	-10.77
▁obsług	-10.77
▁wytworzy	-10.77
miesięczn	-10.77
▁malutki	-10.77
▁śmieszn	-10.77
▁błędów	-10.77
▁krytyk	-10.77
▁wizyt	-10.7701
▁szklan	-10.7702
▁Widział	-10.7703
▁ocali	-10.7703
▁Ghan	-10.7709
▁uważają	-10.7715
▁potrzebował	-10.7722
▁sedn	-10.7725
tacy	-10.7733
▁kin	-10.7743
▁Zobaczmy	-10.7756
▁Tyle	-10.7758
▁przesła	-10.7761
▁stadi	-10.7779
eria	-10.7783
▁przegra	-10.7785
ight	-10.7786
▁waszym	-10.7788
▁65	-10.7796
▁Lib	-10.7801
▁edukacyjn	-10.781
▁impuls	-10.781
▁inwestowa	-10.781
▁konsument	-10.781
▁mądrz	-10.781
▁powyżej	-10.781
▁zanieczyszczeni	-10.781
▁zdumiewając	-10.781
▁Znalazł	-10.781
▁oklaski	-10.781
▁Robert	-10.781
▁zapomnie	-10.781
▁elektrowni	-10.781
▁rozszerza	-10.7811
▁wielokrotn	-10.7811
▁więzieniu	-10.7812
▁parking	-10.7813
▁Bliski	-10.7815
▁telefoniczn	-10.7816
▁wzięł	-10.7816
▁2007	-10.7818
wróć	-10.7833
▁Wiedz	-10.7833
▁ciąży	-10.7835
▁zajęło	-10.7843
dziesięci	-10.7848
▁centraln	-10.7851
▁skrz	-10.7857
▁0,	-10.7858
▁Lin	-10.7861
izacj	-10.7863
▁dziadk	-10.7878
▁specjalist	-10.7881
▁zajmował	-10.7885
▁barw	-10.7889
▁doprowadz	-10.7893
▁spowodowan	-10.7898
▁Min	-10.7905
▁pozwol	-10.7907
owce	-10.792
▁Chicago	-10.7921
▁serwis	-10.7921
▁telewizor	-10.7921
▁tłuszcz	-10.7921
▁uwzględni	-10.7921
▁uczelni	-10.7921
▁efekci	-10.7921
▁humor	-10.7921
▁protest	-10.7921
▁zachorowa	-10.7921
▁ruszy	-10.7921
▁Pokaza	-10.7921
▁podnosi	-10.7921
▁rąk	-10.7922
▁barier	-10.7922
▁strun	-10.7927
▁Mark	-10.7939
▁akcj	-10.7942
▁Pomysł	-10.7947
▁oczekiwania	-10.7952
▁Ken	-10.7973
▁Afryk	-10.7974
▁wagi	-10.7982
▁rozumieją	-10.7995
▁poszukiwa	-10.8005
zacja	-10.801
▁etyk	-10.8016
▁zostają	-10.8018
▁śledz	-10.8022
▁słuch	-10.8023
▁tożsamoś	-10.8025
▁chromosom	-10.8033
▁pingwin	-10.8033
▁Alzheimer	-10.8033
▁Thomas	-10.8033
▁konsumpcj	-10.8033
▁okoliczności	-10.8033
▁umiejętność	-10.8033
▁wybudowa	-10.8033
▁dobrobyt	-10.8033
▁drużyn	-10.8033
▁dzieciństwa	-10.8033
▁pobliż	-10.8033
▁Street	-10.8033
▁przyjęci	-10.8035
przyjazn	-10.8035
▁ręczn	-10.8039
▁klatk	-10.8041
▁targ	-10.8043
▁przestępc	-10.8046
▁pisarz	-10.8046
▁kreatywność	-10.8046
▁żal	-10.8057
ciągnę	-10.8058
▁PM	-10.8062
▁przynios	-10.8072
▁wypowiedzi	-10.8084
▁płynn	-10.8096
▁Han	-10.8097
▁pieś	-10.81
zbyt	-10.8102
▁podnieś	-10.8116
▁klasyczn	-10.8118
▁przeciąg	-10.812
zan	-10.812
▁zdania	-10.8122
▁brzmiał	-10.8125
amerykańsk	-10.8135
ometr	-10.8145
▁zakład	-10.8146
▁rolnic	-10.8147
▁uczestnik	-10.8147
▁Charles	-10.8147
▁Michael	-10.8147
▁gniazd	-10.8147
▁kieszeni	-10.8147
▁scenariusz	-10.8147
▁Wybuch	-10.8147
▁Ciekaw	-10.8147
▁toksyczn	-10.8147
▁wpłyną	-10.8147
▁jezior	-10.8147
▁autostrad	-10.8147
▁Główn	-10.8147
▁przynosi	-10.8147
▁wyścig	-10.8147
▁życz	-10.8149
▁napęd	-10.815
▁śnieg	-10.8151
▁upadk	-10.8157
▁konferencj	-10.816
▁wydobywa	-10.817
▁poczt	-10.8174
▁rozwoj	-10.8175
▁Rok	-10.8177
▁ciemności	-10.8191
▁wydarzenie	-10.82
odpowiedzialność	-10.8203
▁potrzebuj	-10.8206
▁najmniejsz	-10.8212
▁spojrz	-10.8228
▁porozumie	-10.8229
▁Widzieliś	-10.8233
▁Układ	-10.8234
▁włoży	-10.824
▁pasuje	-10.8241
▁odnawialn	-10.8262
▁Wspania	-10.8262
▁dystans	-10.8262
▁fenomen	-10.8262
▁hipotez	-10.8262
▁ubezpiecz	-10.8262
▁zadziwiając	-10.8262
▁zapoczątkowa	-10.8262
▁wiąże	-10.8262
▁Super	-10.8262
▁pak	-10.8265
▁Czarn	-10.8265
▁epok	-10.8265
▁odmian	-10.8265
▁umarł	-10.8269
▁rządzi	-10.8288
▁zastosowanie	-10.8288
▁Cl	-10.8289
▁komputerze	-10.8297
ypadek	-10.8325
▁powiedzeni	-10.834
trój	-10.8341
czeń	-10.8348
▁głodu	-10.8355
▁gromad	-10.8359
▁kosmosie	-10.8365
▁Pre	-10.837
▁otworzył	-10.8372
▁tras	-10.8376
▁infekcj	-10.8378
▁komentarz	-10.8378
▁końcow	-10.8378
▁marketing	-10.8378
▁dotychczas	-10.8378
▁status	-10.8378
▁kopalni	-10.8378
▁wydawało	-10.8379
▁płask	-10.8379
▁odnośni	-10.838
▁bateri	-10.8381
▁dojść	-10.8383
▁wyobraż	-10.8383
▁ciałem	-10.8386
ling	-10.839
▁tunel	-10.8394
rochę	-10.8396
▁Przykład	-10.8419
▁doświadczeni	-10.8421
▁ledw	-10.8433
▁ekonomist	-10.8448
pokój	-10.845
▁Słysz	-10.846
▁panel	-10.8463
nternecie	-10.8481
▁Zobacz	-10.8483
▁stwierdził	-10.8485
▁Uniwersytec	-10.8496
▁dyscyplin	-10.8496
▁nieruchom	-10.8496
▁oryginaln	-10.8496
▁wyjścia	-10.8496
▁kolumn	-10.8496
▁plakat	-10.8496
▁stwarza	-10.8496
▁kolekcj	-10.8496
▁najczę	-10.8496
▁odebra	-10.8496
▁Francji	-10.8496
▁warzyw	-10.8497
▁2,5	-10.8499
▁literatur	-10.85
▁oczami	-10.85
krzyw	-10.8502
słycha	-10.8503
▁pisze	-10.8503
▁próbk	-10.8503
▁Firm	-10.8503
▁Nazwa	-10.8507
▁nierówności	-10.8509
▁Zaczn	-10.8511
▁tamtych	-10.8524
▁zgad	-10.8531
▁pęd	-10.8537
syp	-10.8547
centów	-10.8552
▁przyjemności	-10.8557
▁zgodn	-10.8591
proszeni	-10.8603
▁dziewcz	-10.8607
▁zaburz	-10.8612
▁Staram	-10.8613
▁kupuj	-10.8613
▁telewizyjn	-10.8615
▁autentyczn	-10.8615
▁najnowsz	-10.8615
▁pacjenci	-10.8615
▁ostrożn	-10.8615
▁weźmie	-10.8615
▁służą	-10.8615
▁zaprosi	-10.8615
▁Prawdziw	-10.8615
▁łączeni	-10.8616
▁pracownic	-10.8616
▁Robot	-10.8616
▁ramion	-10.8617
▁pozbawion	-10.8621
BM	-10.8624
▁animacj	-10.8625
▁przeżywa	-10.8627
▁współpracować	-10.8633
▁cywilizacj	-10.8634
▁znajdując	-10.8637
▁usuwa	-10.864
▁wykorzystywan	-10.8647
▁czytani	-10.8649
▁porad	-10.8658
▁obra	-10.8664
▁handlu	-10.8669
▁wystarcz	-10.8672
▁uważn	-10.8673
rokiem	-10.8675
▁wyw	-10.8684
▁Sal	-10.8686
▁parti	-10.8689
▁podejmowa	-10.8689
▁silniejsz	-10.8706
▁nagł	-10.8717
▁Doda	-10.8726
▁oddział	-10.8732
▁otwor	-10.8733
▁sadz	-10.8733
▁brudn	-10.8735
▁fundacj	-10.8735
▁obsesj	-10.8735
▁odtwarza	-10.8735
▁pozwól	-10.8735
▁prowadzon	-10.8735
▁pszczół	-10.8735
▁uchodźc	-10.8735
▁kwantow	-10.8735
▁Szwecj	-10.8735
▁pięcio	-10.8735
▁przestępstw	-10.8735
▁zaskoczeni	-10.8736
▁wyrusz	-10.8736
▁Król	-10.8736
▁nielegaln	-10.8736
▁wykonuje	-10.8736
▁sędzi	-10.8737
▁jabł	-10.8738
▁Kraj	-10.8738
▁obwod	-10.8738
styczne	-10.8738
czołow	-10.8738
▁Powiem	-10.8741
▁ustali	-10.8745
▁rozwiązywani	-10.8748
▁such	-10.8748
bije	-10.8749
▁niszczy	-10.8749
▁badaniu	-10.8757
▁Świetni	-10.8761
▁Wyda	-10.8765
wers	-10.8779
▁wzrokow	-10.8784
▁wynaj	-10.8785
▁poprawn	-10.8786
▁czynników	-10.8789
▁wydatk	-10.8793
▁rękach	-10.8799
▁jednost	-10.8806
padają	-10.883
▁pył	-10.8844
▁kosztował	-10.8847
otwór	-10.885
▁wyszukiwa	-10.8857
▁Publiczn	-10.8857
▁bieżąc	-10.8857
▁bolesn	-10.8857
▁Próbował	-10.8857
▁obliczeniow	-10.8857
▁zmusi	-10.8858
▁wskaza	-10.8858
▁funkcjonaln	-10.8858
▁oszczędności	-10.8859
▁nadzwyczajn	-10.886
▁częstotliwości	-10.886
▁wygod	-10.886
▁twoi	-10.8862
▁oczach	-10.8864
▁kabl	-10.8864
tional	-10.8864
▁tajemnicz	-10.8865
▁tuńczyk	-10.8867
12	-10.8867
▁patrzeni	-10.8874
▁policz	-10.8874
dmuch	-10.8884
▁auta	-10.8887
mąż	-10.8891
zgodnie	-10.8894
▁przychodzą	-10.8902
▁słownik	-10.8913
▁malowa	-10.8918
Z	-10.8939
▁zgon	-10.8942
▁Sar	-10.8955
▁taśm	-10.8958
strzega	-10.8966
eczkę	-10.8973
ócz	-10.8974
ouTub	-10.8981
▁Instytut	-10.8981
▁instrukcj	-10.8981
▁skróci	-10.8981
▁wszechobecn	-10.8981
▁Interesuj	-10.8981
▁Należy	-10.8981
▁skutek	-10.8981
▁Pokazuj	-10.8981
▁sztuczk	-10.8982
▁statek	-10.8982
▁Adam	-10.8983
▁szkic	-10.8984
▁uczestniczy	-10.8984
▁produkcja	-10.8987
▁dostosowa	-10.8987
▁Odkrył	-10.8987
▁naczeln	-10.8991
▁wysłan	-10.8997
▁Uważa	-10.8999
▁Tim	-10.9001
▁posłucha	-10.9002
▁Jim	-10.9011
▁wiejski	-10.9012
▁budzi	-10.9016
▁zapewn	-10.9021
▁nagrania	-10.9022
▁kij	-10.9025
sięg	-10.9033
oskop	-10.9034
▁publik	-10.9036
▁kierun	-10.9043
▁wiedząc	-10.9052
▁sol	-10.9054
▁jecha	-10.9058
▁opublikowan	-10.9067
IS	-10.907
▁dwutlenk	-10.9071
▁wyciąga	-10.9074
▁krow	-10.9077
▁uszkodz	-10.9081
▁dawał	-10.9087
▁stworzeni	-10.9098
▁Auto	-10.91
▁chętnie	-10.9101
▁dziewięć	-10.9106
▁niewidoczn	-10.9106
▁skrzydła	-10.9106
▁trzęsieni	-10.9106
▁Pozwala	-10.9106
▁muzułman	-10.9106
▁Kobieta	-10.9106
▁Słoneczn	-10.9106
▁położeni	-10.9106
▁talent	-10.9106
▁Przyjrzyj	-10.9107
▁wytłumaczyć	-10.9107
▁pójdzie	-10.9107
▁Program	-10.9108
▁Powod	-10.9111
▁motor	-10.9112
▁mlek	-10.9113
łąb	-10.9114
▁obliczenia	-10.9121
▁Organizacj	-10.9132
▁brawa	-10.9132
▁głębin	-10.9135
▁trafił	-10.914
▁ciesz	-10.9152
▁wpada	-10.9154
▁Biał	-10.9156
▁zajmuj	-10.9182
▁przewag	-10.9184
▁Th	-10.92
▁uczu	-10.9202
▁obowiąz	-10.9204
tycznych	-10.9207
▁120	-10.921
▁odpowiadają	-10.9223
▁Zajmuj	-10.9228
▁Ostateczn	-10.9232
▁dynamiczn	-10.9232
▁kilogram	-10.9232
▁komercyjn	-10.9232
▁najstarsz	-10.9232
▁przechowywa	-10.9232
▁rezonans	-10.9232
▁decydują	-10.9232
▁hormon	-10.9232
▁Zebra	-10.9232
▁kieruje	-10.9232
▁wyświetla	-10.9233
▁przesyła	-10.9233
▁Sztuk	-10.9233
▁pionow	-10.9235
▁starzeni	-10.9236
▁przyczep	-10.9237
▁analogi	-10.9237
▁ciężarówk	-10.9238
▁DH	-10.9241
▁zamyka	-10.9245
11	-10.9246
▁Najlepsz	-10.9248
▁zbiorow	-10.925
▁elit	-10.925
▁obawia	-10.9255
▁wyraż	-10.9261
▁przetwarzani	-10.9264
▁stosuje	-10.9276
▁poezj	-10.9294
▁stworz	-10.9306
ford	-10.9313
▁kartk	-10.9315
▁wystarczając	-10.932
▁Zapyta	-10.9322
▁kierunk	-10.9333
sunąć	-10.9353
▁znaleźli	-10.9358
▁ewoluowa	-10.936
▁Słońce	-10.9361
▁burmistrz	-10.9361
▁horyzon	-10.9361
▁imprez	-10.9361
▁slums	-10.9361
▁wskazuje	-10.9361
▁cytat	-10.9361
▁Island	-10.9361
▁cukrzyc	-10.9361
▁zbiór	-10.9361
▁ukaza	-10.9361
▁Dzieck	-10.9361
▁skarb	-10.9362
▁uboczn	-10.9362
berg	-10.9365
▁monitor	-10.9365
▁Zapewn	-10.9368
▁kwadrat	-10.9368
▁pomp	-10.9376
▁szok	-10.9377
▁oznak	-10.9379
▁losow	-10.9391
▁Wschodni	-10.9394
▁doszło	-10.9396
▁zorganizowan	-10.9399
▁wózk	-10.9402
▁przejmuj	-10.9415
pol	-10.9416
▁unikaln	-10.9425
fon	-10.9428
▁składają	-10.943
▁obiecuj	-10.9431
▁niedawn	-10.9438
▁rozważ	-10.9438
daleko	-10.9456
▁etyczn	-10.9462
▁Zabi	-10.9474
▁non	-10.9485
▁abstrakcyjn	-10.949
▁koncert	-10.949
▁Pacyfik	-10.949
▁spogląda	-10.949
▁uczciw	-10.949
▁piramid	-10.949
RPA	-10.9491
▁mianowi	-10.9491
▁protez	-10.9491
▁koszul	-10.9491
▁opowiedział	-10.9491
▁matką	-10.9494
▁szkodliw	-10.9494
▁wszczepi	-10.9494
▁ziarn	-10.9495
▁nauczania	-10.9496
▁foto	-10.9497
▁skazan	-10.9497
▁ryż	-10.9499
▁tożsamości	-10.95
▁pamiętaj	-10.95
▁złożoności	-10.95
▁2006	-10.95
rzucił	-10.95
▁kurczak	-10.9504
▁różnorodności	-10.9513
▁alternatyw	-10.9517
▁podchodz	-10.952
▁zmniejszy	-10.9521
▁zamian	-10.9522
rośli	-10.9526
metrow	-10.9532
▁nauczyliś	-10.9541
dwoje	-10.9573
▁mogliby	-10.9576
▁Her	-10.9579
▁oszustw	-10.9581
▁elektryczności	-10.9588
▁Kol	-10.9597
▁spytał	-10.9603
▁wytłumacz	-10.962
▁astronom	-10.9621
▁Musieliś	-10.9621
▁odzwierciedla	-10.9622
▁wiarygodn	-10.9622
▁Mógłby	-10.9622
▁reżim	-10.9622
▁uwalnia	-10.9622
▁strzela	-10.9622
▁rekord	-10.9622
▁pozarządow	-10.9622
▁pokaże	-10.9626
▁rozpacz	-10.9627
▁gwałtown	-10.9629
▁32	-10.963
▁26	-10.9636
▁gest	-10.9638
iejsza	-10.9646
▁olej	-10.9648
▁polio	-10.9655
▁sprawił	-10.9664
▁podziel	-10.9664
▁wyraźn	-10.9671
▁szczegółow	-10.9673
▁mono	-10.9679
▁zastosowania	-10.9684
▁założył	-10.9694
▁osobnik	-10.9711
▁państwow	-10.9725
▁zdawał	-10.9734
ciśni	-10.9742
dostępn	-10.975
▁sądow	-10.9752
▁racjonaln	-10.9755
▁Dziewczyn	-10.9755
▁interpretacj	-10.9755
▁priorytet	-10.9755
▁produkować	-10.9755
▁propozycj	-10.9755
▁rozpoczyna	-10.9755
▁tragedi	-10.9755
▁wskazówk	-10.9755
▁zaatakowa	-10.9755
▁zaprezentowa	-10.9755
▁Zachodu	-10.9755
▁dwudziest	-10.9755
▁Również	-10.9755
▁geniusz	-10.9755
▁opanowa	-10.9755
▁rozdzielczoś	-10.9756
▁niepokojąc	-10.9756
▁nurk	-10.9756
▁słynn	-10.9756
▁Nauczył	-10.9757
▁drukark	-10.9757
▁wyrazić	-10.9757
▁klinik	-10.9757
▁iluzj	-10.9757
▁klip	-10.9758
▁powiedzian	-10.9759
▁zdarzeni	-10.976
▁urocz	-10.976
▁Ważn	-10.9762
▁Matk	-10.9769
dejdzie	-10.9769
▁prawnik	-10.9774
▁King	-10.9782
▁radość	-10.9792
ależało	-10.9794
▁znaczeni	-10.9794
▁przeszedł	-10.9801
▁Słow	-10.9824
▁społecznym	-10.9827
▁przeprowadził	-10.9829
▁publikacj	-10.983
▁kilometr	-10.9843
▁skok	-10.9853
▁wykształc	-10.9854
▁mierze	-10.9859
▁przyjś	-10.9859
trą	-10.9865
yjny	-10.987
▁nazwał	-10.9871
▁pielęgniark	-10.9882
▁ekstremaln	-10.989
▁podręcznik	-10.989
▁Chociaż	-10.989
▁Manhattan	-10.989
▁Wszechświat	-10.989
▁naśladowa	-10.989
▁sponsor	-10.989
▁wizualizacj	-10.989
▁syntetyczn	-10.989
▁zużycie	-10.989
▁ubogi	-10.989
▁krzyż	-10.9891
▁udziela	-10.9891
▁dokonywa	-10.9891
▁ukształtowa	-10.9891
▁odpowie	-10.9891
▁popiera	-10.9891
▁flag	-10.9891
▁Stanford	-10.9891
▁Bierze	-10.9891
▁zasila	-10.9892
▁naftow	-10.9893
▁dwukrotn	-10.9893
▁pożar	-10.9897
▁żyli	-10.9898
▁zbiornik	-10.9898
▁przypis	-10.99
▁dopasowa	-10.9901
▁otyłoś	-10.9903
▁Juli	-10.9904
▁udaje	-10.9905
▁kończyn	-10.9909
▁przyjemnoś	-10.9931
roje	-10.9934
▁okno	-10.9945
▁wzięli	-10.9956
▁Dopier	-10.9958
▁blisk	-10.9968
▁leczeni	-10.9982
▁wynalazk	-10.9994
▁Gro	-11
▁rank	-11.0013
owisk	-11.0014
▁margines	-11.0027
▁inwestor	-11.0027
▁łagodn	-11.0027
▁angielsku	-11.0027
▁odbiorc	-11.0027
▁trening	-11.0027
▁ukończy	-11.0027
▁wzmacnia	-11.0027
▁zadowoleni	-11.0027
▁zrealizowa	-11.0027
▁niemowl	-11.0027
▁ożywi	-11.0027
▁następuje	-11.0028
▁uprzedze	-11.0028
▁kłamstw	-11.0028
▁logik	-11.0028
▁produkcję	-11.0028
▁zachęci	-11.0028
▁zdobył	-11.0029
▁oparci	-11.003
▁Boston	-11.0031
brew	-11.0033
▁utrzymuje	-11.0036
▁cienk	-11.0037
▁cząst	-11.0038
▁braci	-11.0048
ografia	-11.0048
▁usuną	-11.0049
▁ubrania	-11.0049
▁poruszając	-11.0053
▁Zrób	-11.006
▁Plan	-11.0062
▁elektron	-11.0067
ologów	-11.0071
▁samodzieln	-11.0078
▁płacz	-11.0081
▁przesłanie	-11.0091
▁aktywnoś	-11.0108
▁Chil	-11.0109
▁liczn	-11.0112
▁Mniej	-11.0124
▁Stał	-11.013
X	-11.0141
▁czekolad	-11.0166
▁inspirując	-11.0166
▁nieświadom	-11.0166
▁oficjaln	-11.0166
▁orkiestr	-11.0166
▁portret	-11.0166
▁procedur	-11.0166
▁znalezion	-11.0166
▁korytarz	-11.0166
▁teraźniejszoś	-11.0166
▁emerytur	-11.0166
▁komiks	-11.0166
▁cztero	-11.0166
▁poruszy	-11.0166
▁przekracza	-11.0166
▁ogród	-11.0166
▁skromn	-11.0166
▁skrzynk	-11.0166
▁Naukowc	-11.0166
▁wyjdzie	-11.0167
▁adres	-11.0167
▁mikrofon	-11.0167
▁wymiera	-11.0168
▁kręci	-11.0168
▁Pamięta	-11.0168
▁Mieli	-11.0169
▁Rzym	-11.017
▁klub	-11.017
▁Bush	-11.0175
▁zechc	-11.0178
▁Muze	-11.0182
▁mutacj	-11.0182
▁Jasn	-11.0188
▁MS	-11.0189
▁utwór	-11.0199
alizuje	-11.0202
▁czaszk	-11.0203
▁połączeni	-11.0207
▁wymyślił	-11.0208
idownia	-11.0212
▁planowani	-11.0215
▁mielibyś	-11.0219
▁snu	-11.0219
▁Warto	-11.0227
▁prawdopodobne	-11.0234
nast	-11.024
▁plus	-11.0245
▁stwierdz	-11.0255
▁wnuk	-11.0262
▁nakład	-11.027
▁dokonał	-11.0274
noszon	-11.0274
ograficzn	-11.0304
▁wykorzystan	-11.0305
▁Dokładnie	-11.0307
▁Dźwięk	-11.0307
▁chłopie	-11.0307
▁cieplarnian	-11.0307
▁europejski	-11.0307
▁intuicyjn	-11.0307
▁korzystn	-11.0307
▁podziękowa	-11.0307
▁rytuał	-11.0307
▁studiów	-11.0307
▁zarejestrowa	-11.0307
▁lunch	-11.0307
▁kończą	-11.0307
▁okular	-11.0307
▁sześcio	-11.0307
▁opracowan	-11.0307
▁wystrzel	-11.0307
▁tendencj	-11.0307
▁tańsz	-11.0308
▁różow	-11.0308
▁ukrywa	-11.0308
▁robak	-11.0308
▁wyżej	-11.0308
▁Atlan	-11.0309
▁poczucia	-11.0315
▁świetle	-11.0315
▁wakacj	-11.0316
pracować	-11.0336
▁naduży	-11.0337
▁życzenie	-11.0337
▁sprowadza	-11.0353
▁kres	-11.0355
rowan	-11.0358
▁ekologi	-11.0377
EC	-11.038
▁bl	-11.0389
▁miesza	-11.0421
▁powoln	-11.0425
▁wiosc	-11.0431
▁sprawiedliw	-11.0448
▁zaprogramowa	-11.045
▁Przypomina	-11.045
▁człowieczeństw	-11.045
▁kapitalizm	-11.045
▁komfort	-11.045
▁najbiedniejs	-11.045
▁pasażer	-11.045
▁słuszn	-11.045
▁węgiel	-11.045
▁licencj	-11.045
▁wątpliwości	-11.045
▁intencj	-11.045
▁Wysp	-11.045
▁dowiedział	-11.0455
▁Moglibyś	-11.0461
▁utworzy	-11.0462
▁podłoż	-11.0465
▁przedstawiając	-11.0466
▁28	-11.0468
▁zawierając	-11.0476
▁Zaczęła	-11.0488
▁kal	-11.049
▁poszło	-11.0491
▁próbować	-11.0493
▁Czuł	-11.0496
▁stosun	-11.0497
▁Pal	-11.0512
▁odważn	-11.0539
▁umożliwiając	-11.0552
▁przedstawion	-11.0584
▁Global	-11.0595
▁długoterminow	-11.0595
▁kandydat	-11.0595
▁niewłaściw	-11.0595
▁pokoleń	-11.0595
▁pośredni	-11.0595
▁rezerw	-11.0595
▁wylądowa	-11.0595
▁Wiadomo	-11.0595
▁Poprosi	-11.0595
▁podziwia	-11.0595
▁ślub	-11.0595
▁młodzież	-11.0595
▁wydosta	-11.0596
▁Zmian	-11.0597
▁psychologiczn	-11.0597
▁odmieni	-11.0599
▁komet	-11.0602
▁igł	-11.0602
▁porzuci	-11.0603
▁podłog	-11.0609
▁znikną	-11.0629
▁pusz	-11.0636
▁przesad	-11.0644
▁strumieni	-11.0646
▁dziad	-11.0653
▁przekr	-11.0691
▁ważniejsz	-11.0701
▁lw	-11.0702
▁dorastał	-11.0705
▁biolog	-11.0709
▁rozpad	-11.0724
▁Komputer	-11.0742
▁wyróżni	-11.0742
▁Najważniejsz	-11.0742
▁Zdjęci	-11.0742
▁intuicj	-11.0742
▁niedźwiedzi	-11.0742
▁zdefiniowa	-11.0742
▁pochłania	-11.0742
▁Apple	-11.0742
▁Odkryliśmy	-11.0742
▁dykt	-11.0742
▁wątrob	-11.0742
▁nieprawda	-11.0742
▁dłoń	-11.0742
▁wzroś	-11.0742
▁zidentyfikowa	-11.0742
▁generacj	-11.0742
▁profil	-11.0743
▁podkreślić	-11.0743
▁dramatyczn	-11.0743
▁genialn	-11.0743
pisali	-11.0744
▁funt	-11.0744
▁1,5	-11.0746
▁uczniowie	-11.0747
▁lotnicz	-11.0748
▁premier	-11.0748
wiązać	-11.0748
▁Trzyma	-11.0749
▁równości	-11.0749
▁wiecznie	-11.0749
▁narysowa	-11.0749
▁Opowiada	-11.0752
▁trosk	-11.0752
▁tańczy	-11.0752
▁głosowa	-11.0766
▁Słyszeliś	-11.0769
▁przygod	-11.0771
▁luk	-11.0792
▁zawartoś	-11.0793
▁Cal	-11.0795
▁deszczow	-11.0795
▁przybył	-11.0802
▁uderzył	-11.0831
▁wnioski	-11.084
▁Młod	-11.0842
▁gospodarc	-11.0848
▁glin	-11.0864
▁zakocha	-11.0868
▁przekazywa	-11.0872
kropki	-11.088
▁laboratori	-11.0886
▁spowodował	-11.0887
▁homo	-11.0888
wątpliw	-11.0891
▁Największ	-11.0891
▁Wikipedi	-11.0891
▁alkohol	-11.0891
▁architektoniczn	-11.0891
▁drapieżnik	-11.0891
▁harmoni	-11.0891
▁kierownic	-11.0891
▁pasożyt	-11.0891
▁rozróżni	-11.0891
▁zapotrzebowani	-11.0891
▁figur	-11.0891
▁japoński	-11.0891
▁projektanci	-11.0892
▁okładk	-11.0892
▁dojdzie	-11.0897
▁Urodził	-11.0897
wymiarow	-11.0905
▁dron	-11.0906
▁wyszedł	-11.0908
▁Słyszał	-11.0911
▁połączony	-11.0914
▁Dwie	-11.0921
▁uderzeni	-11.0924
▁materialn	-11.0936
town	-11.0936
▁choćby	-11.0937
▁sławn	-11.0946
▁różnorodn	-11.0953
▁umieralnoś	-11.0961
▁dyplom	-11.0963
▁wyjaśnienie	-11.0971
▁badając	-11.0978
▁ław	-11.0993
▁wydarze	-11.1003
▁Świetn	-11.101
▁ubran	-11.1012
▁skrajn	-11.1017
▁próbuj	-11.1017
▁środkow	-11.1021
▁cześ	-11.1027
▁Grec	-11.1028
▁kropl	-11.1036
▁zabawk	-11.1038
▁dzieciństwie	-11.1043
▁herbat	-11.1043
▁konkurencj	-11.1043
▁osiągnie	-11.1043
▁poświęcon	-11.1043
▁specyficzn	-11.1043
▁globalizacj	-11.1043
▁końców	-11.1043
▁wywołuje	-11.1043
▁zobowiąza	-11.1043
▁zrezygnowa	-11.1043
▁zaoszczędz	-11.1043
▁Posiada	-11.1043
▁podsumowa	-11.1043
▁chwyt	-11.1043
▁reagowa	-11.1043
▁syntez	-11.1043
▁siark	-11.1044
▁Hollywood	-11.1044
▁królestw	-11.1044
▁pogrzeb	-11.1045
▁zaangażowan	-11.1045
▁obrot	-11.1046
▁żab	-11.1047
▁błon	-11.105
▁700	-11.1054
▁2003	-11.1055
▁przedsiębiorcz	-11.1056
▁susz	-11.1061
▁obudzi	-11.1062
▁zebran	-11.1068
▁bitw	-11.1069
▁uległ	-11.1076
szkód	-11.1076
▁udawa	-11.1089
ręcznie	-11.1091
▁telewizj	-11.1095
jdą	-11.1098
▁lekko	-11.1107
▁rysun	-11.1111
▁znajdował	-11.1112
żyje	-11.1113
▁Jork	-11.1134
▁świni	-11.1141
▁Wall	-11.1171
▁William	-11.1197
▁atrakcyjn	-11.1197
▁październik	-11.1197
▁przygnębi	-11.1197
▁regularn	-11.1197
▁rozmnaża	-11.1197
▁jedwab	-11.1197
▁podwójn	-11.1197
▁skoncentrowa	-11.1197
▁World	-11.1197
▁zaoferowa	-11.1197
▁zaszczyt	-11.1197
▁umieszczon	-11.1197
▁Paryż	-11.1197
▁wzgórz	-11.1205
▁przestrzega	-11.1208
wszem	-11.1214
▁niewinn	-11.1222
▁Powiedzieli	-11.1228
▁gospodar	-11.123
▁Gór	-11.1232
▁polowa	-11.1233
krotn	-11.1249
▁zakończ	-11.1276
▁Natur	-11.128
ńczyc	-11.1296
pędza	-11.1308
▁tworzon	-11.1312
▁fizyc	-11.1348
dpowiedzialności	-11.1349
▁anonimow	-11.1353
▁dynamik	-11.1353
▁wycofa	-11.1353
▁wydrukowa	-11.1353
▁plemion	-11.1353
▁słup	-11.1353
▁portal	-11.1353
▁kółko	-11.1353
▁optymistyczn	-11.1354
▁zapyla	-11.1354
▁haker	-11.1354
▁siedzeni	-11.1354
▁kosztown	-11.1355
▁rdzeni	-11.1355
▁zniknęł	-11.1355
▁poszła	-11.1356
▁Ugand	-11.136
▁zajmie	-11.1362
▁2001	-11.1365
▁obliczeń	-11.1366
▁przepaś	-11.1384
▁Wrócił	-11.1388
▁spowodowa	-11.1389
▁ideologi	-11.1391
▁drga	-11.1391
▁widząc	-11.1394
▁żelaz	-11.1406
▁głębok	-11.1415
▁posad	-11.1423
▁słyszeliśm	-11.1426
▁rynkow	-11.143
▁zwierzęci	-11.1441
▁rządzą	-11.1448
▁komór	-11.1463
▁waha	-11.1466
▁częściow	-11.1473
▁programist	-11.1496
▁pozbawi	-11.1504
▁Wróć	-11.1512
▁czerwc	-11.1512
▁kombinacj	-11.1512
▁maleńki	-11.1512
▁origami	-11.1512
▁prymitywn	-11.1512
▁Republik	-11.1512
▁czerpa	-11.1512
▁mądry	-11.1512
▁zmniejszeni	-11.1512
▁Dług	-11.1512
▁zachowują	-11.1512
▁mobiln	-11.1512
▁policjant	-11.1512
▁obietnic	-11.1512
▁przeznaczon	-11.1513
▁Agencj	-11.1513
▁operator	-11.1513
▁Martin	-11.1513
▁hodowa	-11.1514
▁narzeka	-11.1517
▁wyszło	-11.152
▁zadzwonił	-11.1524
▁dawk	-11.1532
▁gromadzi	-11.1539
▁pozwoleni	-11.1547
▁wykształcenie	-11.155
▁Brazyli	-11.1571
▁spostrzeże	-11.159
▁800	-11.159
▁osobn	-11.1596
▁trud	-11.1598
▁cenn	-11.1612
▁plastikow	-11.1613
▁191	-11.1656
▁rozwiązywa	-11.1657
▁posiadani	-11.1664
▁monitorowa	-11.1667
▁Far	-11.1671
▁farmaceutyczn	-11.1673
▁zintegrowa	-11.1673
▁Różnic	-11.1673
▁brzuch	-11.1673
▁gigantyczn	-11.1673
▁hierarchi	-11.1673
▁koledzy	-11.1673
▁nieuniknion	-11.1673
▁ocieplenie	-11.1673
▁przeszkadza	-11.1673
▁przywództw	-11.1673
▁uniwersytec	-11.1673
▁uzasadni	-11.1673
▁ściśle	-11.1673
▁nietoperz	-11.1673
▁podobieństw	-11.1673
▁Liczb	-11.1674
▁kciuk	-11.1674
▁zaskoczy	-11.1674
▁obniży	-11.1674
▁Dolin	-11.1676
▁ulega	-11.1678
▁Pięć	-11.168
▁dowiedzieli	-11.168
latują	-11.1685
▁metan	-11.1691
▁tryb	-11.1699
▁gospodarstw	-11.1701
▁Morz	-11.1723
▁Lub	-11.1732
▁wróc	-11.1735
▁próbowali	-11.1755
▁waży	-11.176
▁kurcz	-11.1771
▁zdecydowani	-11.1786
▁rozsądn	-11.1832
▁Powinn	-11.1834
▁opowiedz	-11.1836
▁najtrudniejsz	-11.1837
▁Szwajcar	-11.1837
▁Znaleź	-11.1837
▁antybiotyki	-11.1837
▁dotknięt	-11.1837
▁głębsz	-11.1837
▁kukurydz	-11.1837
▁statystyczn	-11.1837
▁Korzysta	-11.1837
▁lodów	-11.1837
▁Pomaga	-11.1837
▁napotka	-11.1837
▁proporcj	-11.1837
▁190	-11.1837
▁reagują	-11.1837
▁łóżku	-11.1837
▁chęci	-11.1837
▁półtora	-11.1837
▁wściekł	-11.1837
▁wywiera	-11.1838
▁gniew	-11.1838
▁zdąż	-11.1839
▁zjada	-11.1841
▁zagraża	-11.1841
▁radzą	-11.1843
▁osobowości	-11.1843
▁Kolor	-11.1844
▁Ciesz	-11.1846
charakterystyczn	-11.1851
▁wynalazc	-11.1864
mour	-11.1868
▁mebl	-11.1878
MA	-11.1882
▁podzielon	-11.1887
▁przełomow	-11.1899
▁przemówi	-11.1916
▁omówi	-11.194
▁hand	-11.1945
▁pokład	-11.1948
▁umow	-11.1962
▁wypełnion	-11.197
▁mega	-11.1979
▁wiern	-11.1979
wodzą	-11.198
▁nadaje	-11.1994
▁Etiopii	-11.2003
▁Fundacj	-11.2003
▁Saturn	-11.2003
▁benzyn	-11.2003
▁decydowa	-11.2003
▁decyduje	-11.2003
▁dziedzictw	-11.2003
▁filantrop	-11.2003
▁helikopter	-11.2003
▁pomarańczow	-11.2003
▁stereotyp	-11.2003
▁supermarke	-11.2003
▁usłyszy	-11.2003
▁wyeliminowa	-11.2003
▁wzmocni	-11.2003
▁Dorastał	-11.2004
▁pobudza	-11.2004
▁załatwi	-11.2004
▁zbrodni	-11.2004
▁galeri	-11.2004
▁pożądan	-11.2004
▁przewiduj	-11.2004
▁Model	-11.2004
▁płaka	-11.2004
▁spójn	-11.2004
▁sezon	-11.2005
▁lesie	-11.2005
▁przycisk	-11.2005
▁Lekarz	-11.2005
▁żąda	-11.2005
▁Korei	-11.2007
▁pająk	-11.201
▁Hill	-11.2015
możn	-11.204
▁turyst	-11.2069
▁odległoś	-11.2081
▁85	-11.2084
▁dzieck	-11.2085
▁szkoleni	-11.2085
▁umysłow	-11.2087
nger	-11.209
▁rozwiązan	-11.2114
▁nawyk	-11.214
▁Lan	-11.2149
▁Koniec	-11.215
▁opłac	-11.2154
,3	-11.2155
▁zamówi	-11.2162
▁wprowadzon	-11.2173
▁wstrząs	-11.2173
▁aresztowan	-11.2173
▁inwestuj	-11.2173
▁moskitier	-11.2173
▁opóźni	-11.2173
▁redukcj	-11.2173
▁rozmyśla	-11.2173
▁żarówk	-11.2173
▁niemiecki	-11.2173
▁replik	-11.2173
▁wbudowan	-11.2173
▁usiadł	-11.2173
▁Średni	-11.2173
▁wzbudz	-11.2173
▁chemikali	-11.2173
▁Spędził	-11.2173
▁zwalcza	-11.2173
▁wspomnieć	-11.2173
▁ultra	-11.2173
▁wygrywa	-11.2173
▁niejasn	-11.2173
migran	-11.2173
▁wyłania	-11.2174
▁odczuci	-11.2174
▁przenośn	-11.2174
▁kierują	-11.2174
▁dwójk	-11.2174
▁Rosji	-11.2174
▁narracj	-11.2175
▁wycieczk	-11.2175
▁dziwaczn	-11.2176
▁rozsąd	-11.2178
▁zaburzenia	-11.2181
▁95	-11.2196
▁rozprzestrzeni	-11.2197
▁poparci	-11.22
▁szum	-11.22
▁elektronik	-11.2214
▁pogodzi	-11.2217
▁Ameryk	-11.2254
▁wysokoś	-11.2267
▁wykorzystują	-11.2277
▁niemożliw	-11.2283
▁dotkną	-11.2284
trzymać	-11.2293
▁zasob	-11.2299
panowie	-11.2299
▁elektrod	-11.231
▁Zbiera	-11.2311
▁częst	-11.2314
▁odbija	-11.2315
▁inżynierowi	-11.2332
jechali	-11.2337
▁przychod	-11.2342
▁terroryst	-11.2344
▁Międzynarodow	-11.2345
▁brązow	-11.2345
▁produkcyjn	-11.2345
▁przestrzenn	-11.2345
▁przywilej	-11.2345
▁reputacj	-11.2345
▁uchwyci	-11.2345
▁wolontariusz	-11.2345
▁zagłębi	-11.2345
▁Ogląda	-11.2345
▁interwencj	-11.2345
▁karierę	-11.2345
▁melodi	-11.2345
▁nienawidzi	-11.2345
▁ślimak	-11.2345
▁powietrzn	-11.2345
▁Piękn	-11.2345
▁solidn	-11.2345
▁meduz	-11.2346
▁posiłk	-11.2346
▁przekroczy	-11.2346
▁siedlisk	-11.2346
▁mentor	-11.2346
▁przyjmowa	-11.2346
▁postaw	-11.2347
▁zakaże	-11.2347
▁wysłucha	-11.2348
▁socjo	-11.2348
▁okazja	-11.2349
▁wykształcenia	-11.2352
▁działalności	-11.2353
dźwięk	-11.2354
▁Niewiel	-11.2357
▁presj	-11.2358
▁Zero	-11.2376
▁salon	-11.239
▁opakowa	-11.2403
▁skierowan	-11.2407
dobrzy	-11.2418
▁szczepion	-11.2428
▁termo	-11.2445
▁zepsu	-11.245
▁elektro	-11.2461
▁spółk	-11.2462
▁łowi	-11.247
▁rozpoczęci	-11.2472
▁znikają	-11.2473
▁sław	-11.2475
▁gada	-11.251
▁Koran	-11.2519
RI	-11.2521
rchitekci	-11.2521
▁Antarktyd	-11.2521
▁behawioraln	-11.2521
▁humanitarn	-11.2521
▁koncept	-11.2521
▁oksytocyn	-11.2521
▁przyspieszy	-11.2521
▁socjaln	-11.2521
▁zanieczyszczeń	-11.2521
▁zredukowa	-11.2521
▁Hindus	-11.2521
▁Wyobraża	-11.2521
▁gałęzi	-11.2521
▁Zgadza	-11.2521
▁reaguje	-11.2521
▁Zamierzam	-11.2521
▁Ludzk	-11.2521
▁obręb	-11.2521
▁odmówi	-11.2521
▁Life	-11.2521
▁cyber	-11.2521
▁pomija	-11.2522
▁wyleczy	-11.2522
▁szlak	-11.2523
▁trzem	-11.2523
▁sąsiedztw	-11.2525
▁muzyc	-11.2525
▁Odpowiada	-11.2527
▁Zabra	-11.2527
▁kwas	-11.2527
▁organizowa	-11.2529
▁niewolnik	-11.2532
▁zginęł	-11.2532
▁cofną	-11.2533
▁wyobrażenie	-11.2541
vin	-11.2545
▁Monte	-11.255
▁stwierdzenie	-11.2563
BC	-11.2567
▁pojawieni	-11.2582
▁Stwierdz	-11.2587
sprawiedliwość	-11.2592
ięciu	-11.2606
▁torb	-11.263
kładają	-11.263
▁rap	-11.2632
▁postrzegan	-11.2644
▁Zakłada	-11.2656
▁alternatywn	-11.2662
ologia	-11.2668
▁Gaz	-11.2669
▁owc	-11.2669
▁odpornoś	-11.2691
▁Fakt	-11.2699
▁Niezależn	-11.2699
▁Cambridge	-11.2699
▁Higgs	-11.2699
▁School	-11.2699
▁fosfor	-11.2699
▁okrągł	-11.2699
▁profesjonaln	-11.2699
▁przyspiesza	-11.2699
▁ubiegł	-11.2699
▁utrudni	-11.2699
▁warsztat	-11.2699
▁wizerun	-11.2699
▁wynalezion	-11.2699
▁zainwestowa	-11.2699
▁zwycięstw	-11.2699
▁Powinien	-11.2699
▁Scott	-11.2699
▁oszacowa	-11.2699
▁klawiatur	-11.2699
▁Zaprojektowa	-11.2699
▁podmiot	-11.2699
▁wibracj	-11.2699
▁chłodn	-11.27
▁Zielon	-11.27
▁Chłop	-11.27
▁mentaln	-11.27
▁hojn	-11.27
▁tracą	-11.2701
▁gładk	-11.2701
▁sesj	-11.2702
▁popatrzy	-11.2704
▁ropę	-11.2706
▁więź	-11.2708
▁azot	-11.2709
▁oddalon	-11.271
▁Nobl	-11.2711
▁budowlan	-11.2712
▁określenie	-11.2713
▁sile	-11.2714
▁opiekun	-11.2717
▁uzależni	-11.2727
▁Amerykański	-11.2728
▁porozumiewa	-11.2738
▁żyj	-11.2754
▁uliczn	-11.2759
taniec	-11.2767
▁pyłk	-11.277
▁wycią	-11.2775
▁spróbowa	-11.2779
rozumieniu	-11.2784
▁współczu	-11.2787
bijają	-11.2805
▁wyjecha	-11.2819
▁królow	-11.2866
▁Parkinson	-11.2881
▁Szybko	-11.2881
▁akumulator	-11.2881
▁centymetr	-11.2881
▁egzamin	-11.2881
▁nieznajom	-11.2881
▁paradoks	-11.2881
▁poszczególnych	-11.2881
▁sparaliżowan	-11.2881
▁sprzeciw	-11.2881
▁wierzchoł	-11.2881
▁wyhodowa	-11.2881
▁zakłóc	-11.2881
▁zorientowa	-11.2881
▁tragiczn	-11.2881
▁Środkow	-11.2881
▁Powstał	-11.2881
▁przetestowa	-11.2881
▁łazien	-11.2881
▁Smith	-11.2881
▁zaznaczon	-11.2881
▁zagadnienie	-11.2881
▁Atlantyk	-11.2881
▁dojrzewa	-11.2882
▁miękk	-11.2882
▁Skupi	-11.2882
▁Wcześniej	-11.2882
▁przyjdzie	-11.2882
▁zderzeni	-11.2883
▁bodźc	-11.2885
▁wyciągnąć	-11.2887
▁siatkówk	-11.2888
▁basen	-11.2889
vill	-11.2892
▁powraca	-11.2894
▁ubra	-11.2898
▁jądra	-11.2898
▁cierpiąc	-11.2906
▁ramieni	-11.2908
▁gotowani	-11.2915
▁uszkodzon	-11.2917
▁Podziel	-11.292
▁wykonawc	-11.2931
▁upadł	-11.2934
▁wypada	-11.2964
cisną	-11.2987
trzymuje	-11.2989
▁Odpowiedzi	-11.2993
samodzielnie	-11.2999
▁powodzeni	-11.3007
wołanie	-11.3032
▁podkreśl	-11.3034
▁wyzwani	-11.304
▁osiedl	-11.3048
▁dzieją	-11.3064
▁Wyjaśni	-11.3066
▁Wykorzystuj	-11.3066
▁dystrybucj	-11.3066
▁eksploracj	-11.3066
▁inspirowa	-11.3066
▁nadchodzi	-11.3066
▁najszybciej	-11.3066
▁niezmiern	-11.3066
▁optymizm	-11.3066
▁percepcj	-11.3066
▁psychiatr	-11.3066
▁reprezentuje	-11.3066
▁zadowolon	-11.3066
▁archiw	-11.3066
▁luksus	-11.3066
▁selekcj	-11.3066
▁transformacj	-11.3066
▁złośliw	-11.3066
▁aktywist	-11.3066
▁Śpiew	-11.3066
▁geograficzn	-11.3066
▁grudni	-11.3066
▁wydziela	-11.3066
▁Pozwol	-11.3067
▁zachowywa	-11.3067
▁Podstaw	-11.3067
▁kalori	-11.3067
▁umyśl	-11.3067
▁imperi	-11.3068
▁legaln	-11.3068
▁ekip	-11.3068
▁Podoba	-11.3069
▁1960	-11.307
▁Połącz	-11.307
▁systematyczn	-11.307
▁przeznaczeni	-11.307
▁towarzysk	-11.3073
▁matkę	-11.3073
▁półkul	-11.3074
▁Wygra	-11.3074
▁Brian	-11.3076
▁ratuj	-11.3085
▁dotyczą	-11.3112
▁logo	-11.3114
cytuj	-11.3126
▁zagroże	-11.3129
▁sub	-11.3144
▁zapewnieni	-11.315
jmując	-11.3156
ancer	-11.3159
▁odkryje	-11.3182
▁sterowan	-11.3188
rastają	-11.3209
▁zaprasza	-11.3213
▁godnoś	-11.3214
▁dodatk	-11.3214
rosły	-11.3218
▁programowani	-11.3228
▁działalnoś	-11.3238
▁dó	-11.324
ciągnięci	-11.3246
posób	-11.3247
▁odbył	-11.3248
▁Wspóln	-11.3255
▁niespodziewan	-11.3255
▁skonstruowa	-11.3255
▁zainstalowa	-11.3255
▁Zdrowia	-11.3255
▁akceptacj	-11.3255
▁dźwig	-11.3255
▁ekspres	-11.3255
▁paradygmat	-11.3255
▁przyjaźni	-11.3255
▁rywalizacj	-11.3255
▁sprząta	-11.3255
rósł	-11.3255
▁Zachodzie	-11.3255
▁demograficzn	-11.3255
▁patogen	-11.3255
▁diabł	-11.3255
▁zbliży	-11.3255
▁robocz	-11.3255
▁ogół	-11.3255
▁Wysyła	-11.3255
▁komunikowa	-11.3256
▁Mózg	-11.3256
▁graficzn	-11.3256
▁Brown	-11.3256
▁obfit	-11.3256
równuje	-11.3256
▁farb	-11.3257
▁trójkąt	-11.3257
▁szanowa	-11.3257
▁ujrze	-11.3257
▁podwoi	-11.3258
▁drogow	-11.3259
▁Nagrod	-11.3259
▁ludzkoś	-11.3277
▁sprzedawan	-11.3303
▁sterowa	-11.3324
▁uważan	-11.3352
▁określ	-11.3354
▁przyłącz	-11.3371
▁tajn	-11.3373
▁Gab	-11.3381
▁pierws	-11.3385
▁cyfr	-11.3386
▁powro	-11.3392
▁zbierani	-11.3433
▁matematyc	-11.3443
▁terror	-11.3446
▁Bangladesz	-11.3447
▁bakteryjn	-11.3447
▁charytatywn	-11.3447
▁czasopism	-11.3447
▁ludobójstw	-11.3447
▁prezerwatyw	-11.3447
▁soczewk	-11.3447
▁włókien	-11.3447
▁Obserwuj	-11.3447
▁bliźni	-11.3447
▁insulin	-11.3447
▁kojarzy	-11.3447
▁magnes	-11.3447
▁powiększa	-11.3447
▁reprezentują	-11.3447
▁spadochron	-11.3447
▁śniadani	-11.3447
▁subteln	-11.3447
▁Święt	-11.3447
▁sprzyja	-11.3447
▁szóst	-11.3447
▁mechanik	-11.3447
▁rozwiąże	-11.3447
▁Gates	-11.3447
▁etniczn	-11.3447
▁Przejdź	-11.3447
▁pomruk	-11.3448
▁chodnik	-11.3448
▁dziennik	-11.3448
▁bezdomn	-11.3449
▁rzut	-11.3449
▁Studi	-11.3449
▁iPod	-11.3449
▁wybierz	-11.3449
▁przybywa	-11.3449
▁anten	-11.345
▁amator	-11.345
rrator	-11.345
▁naczynia	-11.3453
▁generowa	-11.3453
▁chętn	-11.3456
▁zamkną	-11.3463
świat	-11.3477
▁detal	-11.3479
spekt	-11.3481
ciągnął	-11.3483
▁rozrasta	-11.3484
zerowej	-11.3486
▁giga	-11.3492
▁pokazuj	-11.3493
▁medialn	-11.3503
▁napędzan	-11.3536
acińsk	-11.3541
▁Kaliforni	-11.3542
▁boisk	-11.3543
▁pokoleni	-11.3559
▁zatrzymuj	-11.3565
▁powstawani	-11.3567
▁postępowani	-11.3585
▁omawia	-11.3586
▁Pochodz	-11.3616
▁praktyc	-11.3636
▁wulkan	-11.3643
▁nieoczekiwan	-11.3643
▁wyrafinowan	-11.3643
kontrowersyjn	-11.3643
▁Nauczyciel	-11.3643
▁Prezydent	-11.3643
▁Znajduje	-11.3643
▁eksplozj	-11.3643
▁gruźlic	-11.3643
▁implant	-11.3643
▁kompromis	-11.3643
▁lokalizacj	-11.3643
▁maksymaln	-11.3643
▁niewyobrażaln	-11.3643
▁parlament	-11.3643
▁przygotowuj	-11.3643
▁spowoduj	-11.3643
▁Zatrzyma	-11.3643
▁Zastanów	-11.3643
▁izolacj	-11.3643
▁Język	-11.3644
▁gołębi	-11.3644
▁prowincj	-11.3644
▁ambitn	-11.3644
▁eksport	-11.3644
▁lipc	-11.3644
▁trener	-11.3644
▁przeważ	-11.3644
▁postara	-11.3644
definiuj	-11.3644
▁Wziął	-11.3644
▁doradc	-11.3644
▁zakątk	-11.3645
▁skrzyp	-11.3645
▁sztywn	-11.3645
▁nadmiar	-11.3645
▁tortur	-11.3646
▁kolacj	-11.3647
▁Obama	-11.3647
▁stolic	-11.3648
profit	-11.3648
▁umr	-11.3649
▁okien	-11.3649
▁Dawn	-11.365
▁wezwa	-11.3654
▁opisywa	-11.3657
▁Rwand	-11.366
▁Koszt	-11.3672
morzu	-11.3675
▁przekazywan	-11.3687
▁uzupełni	-11.3692
▁pokarm	-11.3697
▁wyszła	-11.3698
▁promowa	-11.3708
▁uprawn	-11.3709
▁odrzuci	-11.371
okaże	-11.3714
▁wstępn	-11.3746
▁krajow	-11.3759
wrócili	-11.3759
zyskują	-11.3778
▁uczon	-11.3793
łożyli	-11.3794
▁piersiow	-11.3838
▁nieprawdopodobn	-11.3843
▁pośrodku	-11.3843
▁regulacj	-11.3843
▁rozproszon	-11.3843
▁tropikaln	-11.3843
▁Earth	-11.3843
▁Wykorzysta	-11.3843
▁Wymyśli	-11.3843
▁traktuje	-11.3843
▁schorze	-11.3843
▁groźn	-11.3843
▁szaleństw	-11.3843
▁zakaźn	-11.3843
▁generaln	-11.3844
▁tancerz	-11.3844
▁wiążą	-11.3844
▁Całkowi	-11.3844
▁realizacj	-11.3844
▁Spytał	-11.3844
▁Wysła	-11.3844
▁wkracza	-11.3844
▁dopamin	-11.3844
▁przyjęt	-11.3844
▁odpornościow	-11.3844
▁poszukuj	-11.3845
▁Porusz	-11.3845
▁zachęt	-11.3848
▁utraci	-11.3848
▁zajrze	-11.3848
▁Long	-11.3849
▁umiał	-11.3854
▁Współprac	-11.3855
ołnierz	-11.3856
▁dywan	-11.3856
▁Wyniki	-11.3863
skuteczn	-11.3882
▁oferują	-11.3892
▁specjali	-11.3914
▁podłączon	-11.3921
▁odbici	-11.393
▁rozciąga	-11.3937
▁Brytani	-11.3946
▁dawc	-11.399
▁nauczyli	-11.4
▁wydan	-11.4011
▁zbocz	-11.4017
▁uczestnic	-11.4034
▁Floryd	-11.4048
▁Microsoft	-11.4048
▁Pojawił	-11.4048
▁autonomiczn	-11.4048
▁brzydk	-11.4048
▁frustracj	-11.4048
▁grawitacyjn	-11.4048
▁ilustracj	-11.4048
▁jeżdżą	-11.4048
▁kawiarni	-11.4048
▁manipulowa	-11.4048
▁metabolizm	-11.4048
▁powiększy	-11.4048
▁reprezentowa	-11.4048
▁romantyczn	-11.4048
▁schizofreni	-11.4048
▁płetw	-11.4048
▁pajęcz	-11.4048
▁garaż	-11.4048
▁rozbudow	-11.4048
▁Cztery	-11.4048
▁rozszerzy	-11.4048
▁urodzeni	-11.4048
▁potomstw	-11.4048
▁Grup	-11.4048
▁Twierdz	-11.4048
▁Stref	-11.4048
▁Dawid	-11.4049
▁Szkoł	-11.405
▁prośb	-11.4051
▁czytelnik	-11.4052
▁ryzykown	-11.4052
▁Drog	-11.4053
▁sekcj	-11.4057
▁biern	-11.4058
▁sprzedaje	-11.4059
▁brakowa	-11.4059
▁oferowa	-11.4072
▁oddziałuj	-11.4072
▁osąd	-11.4078
▁faktyczn	-11.4095
▁naiwn	-11.4096
▁lądowani	-11.4112
▁sprzedawc	-11.4119
▁równocześ	-11.4126
▁otoczon	-11.4143
▁Potrzebuj	-11.4157
▁Japoni	-11.4157
▁mówc	-11.4164
▁Jednocześni	-11.4165
▁Sprzeda	-11.4199
▁wielkoś	-11.4213
▁obydw	-11.4246
▁pójd	-11.4253
▁Egipc	-11.4255
▁Szczególn	-11.4256
▁adaptacj	-11.4256
▁agresywn	-11.4256
▁cukier	-11.4256
▁dziesięcioleci	-11.4256
▁dziewięci	-11.4256
▁informatyk	-11.4256
▁obserwator	-11.4256
▁ocieplenia	-11.4256
▁teoretyczn	-11.4256
▁Jezus	-11.4256
▁Zbliż	-11.4256
▁niepokoi	-11.4256
▁niestabiln	-11.4256
▁pragną	-11.4256
▁sfotografowa	-11.4256
▁diagram	-11.4256
▁neurobiologi	-11.4256
▁zapomnę	-11.4256
▁funkcjonuje	-11.4256
▁leżąc	-11.4256
▁Wymaga	-11.4256
▁Codzienn	-11.4256
synchroniz	-11.4256
▁ankiet	-11.4256
▁leżał	-11.4256
▁alarm	-11.4256
▁Ciężk	-11.4256
▁położon	-11.4256
▁płaszczyzn	-11.4256
▁wykazują	-11.4256
▁poszuka	-11.4256
▁Wykona	-11.4256
▁pojemnik	-11.4256
▁wspomnian	-11.4257
▁zaplanowa	-11.4257
▁oferuje	-11.4257
▁Trans	-11.4257
▁Media	-11.4259
▁randk	-11.4259
▁obejmują	-11.4262
▁tętnic	-11.4263
izowany	-11.427
▁przecin	-11.4274
▁Ponown	-11.4275
fun	-11.4302
▁świetln	-11.4303
▁przeprasza	-11.4309
▁kulturaln	-11.4346
▁Połow	-11.437
▁wywodz	-11.4373
▁nierówn	-11.4393
▁niedziel	-11.4399
▁uzależnieni	-11.4436
▁dzienn	-11.4445
▁zagad	-11.4457
▁studio	-11.4457
jwyraźniej	-11.4469
▁Departament	-11.4469
▁Książk	-11.4469
▁antybiotyków	-11.4469
▁detektor	-11.4469
▁dżihad	-11.4469
▁entropi	-11.4469
▁geometryczn	-11.4469
▁przedmieścia	-11.4469
▁przyśpiesz	-11.4469
▁szczebl	-11.4469
▁uporządkowa	-11.4469
▁wyewoluowa	-11.4469
▁zasugerowa	-11.4469
▁zdiagnozowa	-11.4469
▁Clinton	-11.4469
▁bawełn	-11.4469
▁dowcip	-11.4469
▁fantazj	-11.4469
▁terytori	-11.4469
▁wystartowa	-11.4469
▁wyżywi	-11.4469
▁rozczarowa	-11.4469
▁Henry	-11.4469
▁Podróż	-11.4469
▁nadmiern	-11.4469
▁serwer	-11.4469
▁nietypow	-11.4469
▁oczyszcza	-11.4469
▁napotyka	-11.4469
▁zazdroś	-11.4469
▁pustynn	-11.4469
▁wymarł	-11.447
▁giełd	-11.447
▁dzwon	-11.4472
▁Homo	-11.4472
▁Sieci	-11.4473
▁Wspomn	-11.4473
▁oświetleni	-11.4473
▁bańk	-11.4475
▁ucieczk	-11.4481
▁kryje	-11.4482
▁tłumaczeni	-11.4484
▁hasł	-11.449
▁Równ	-11.4491
▁świadcz	-11.4492
▁Colle	-11.451
▁dotarci	-11.453
▁Doświadcz	-11.4531
down	-11.4536
▁oszust	-11.4536
▁bankow	-11.4546
▁wojn	-11.4549
▁eksperymentaln	-11.456
▁wyjątk	-11.4561
▁złożonoś	-11.4564
słucha	-11.4617
▁odnieś	-11.462
▁przejecha	-11.4632
▁Wróc	-11.4637
chodzenie	-11.4672
,6	-11.4672
▁Egipt	-11.4686
▁Lincoln	-11.4686
▁Potrzebn	-11.4686
▁Tanzani	-11.4686
▁Universit	-11.4686
▁akceptowa	-11.4686
▁entuzjazm	-11.4686
▁kaskader	-11.4686
▁konsumenc	-11.4686
▁konwencjonaln	-11.4686
▁nieprzyjemn	-11.4686
▁zatytułowan	-11.4686
▁Leonard	-11.4686
▁produkowan	-11.4686
▁przepiękn	-11.4686
▁tatuaż	-11.4686
▁kompleks	-11.4686
▁Krzemow	-11.4686
▁podłodze	-11.4686
▁niszczeni	-11.4686
▁wychowywa	-11.4686
▁Bądź	-11.4686
▁Hiszpanii	-11.4686
▁Nagra	-11.4687
▁Zdoby	-11.4687
▁przypomniał	-11.4687
▁kwot	-11.4689
▁osobowoś	-11.4692
▁odegra	-11.4692
iction	-11.4692
▁krąży	-11.4693
▁podlega	-11.4694
▁Dobry	-11.4694
▁Obecn	-11.4702
▁płod	-11.4706
▁zginą	-11.4714
▁rozwinęł	-11.4724
▁podróżuj	-11.4729
osobow	-11.4731
▁Azj	-11.474
▁kontrolowani	-11.4744
▁dwutlen	-11.4746
▁podłączy	-11.4779
▁nerk	-11.4829
▁zrozum	-11.4839
▁pokarmow	-11.4848
▁przykr	-11.4851
▁piln	-11.4876
▁zdaln	-11.4878
▁korzyś	-11.4906
▁najwspanialsz	-11.4908
▁Andrew	-11.4908
▁Singapur	-11.4908
▁dylemat	-11.4908
▁egzystencj	-11.4908
▁federaln	-11.4908
▁fortepian	-11.4908
▁ignorancj	-11.4908
▁negocjacj	-11.4908
▁nieuchronn	-11.4908
▁posłuży	-11.4908
▁pożegna	-11.4908
▁przeanalizowa	-11.4908
▁zareagowa	-11.4908
▁Aleksand	-11.4908
▁Nelson	-11.4908
▁Otrzyma	-11.4908
▁fotelik	-11.4908
▁Komórk	-11.4908
▁cieplej	-11.4908
▁skorup	-11.4908
▁Podsumow	-11.4908
▁obniża	-11.4908
▁video	-11.4908
▁Center	-11.4908
▁przedszkol	-11.4908
▁zachowuje	-11.4908
▁objętoś	-11.4908
▁pogarsza	-11.4908
▁rysować	-11.4908
▁minerał	-11.4908
▁wywołują	-11.4909
▁realizowa	-11.4909
▁Green	-11.4909
▁akademicki	-11.4909
▁intymn	-11.4909
▁unosi	-11.4909
▁podziemn	-11.4909
▁Derek	-11.491
▁kuzyn	-11.4911
▁następstw	-11.4911
▁ponur	-11.4918
▁studiu	-11.492
▁krzyk	-11.4923
▁analizowa	-11.4926
▁odparł	-11.4939
▁wysoc	-11.4943
▁przedstawiciel	-11.4953
▁pieniędz	-11.4961
▁dążeni	-11.5007
rażając	-11.5014
łączyli	-11.504
▁odkrywc	-11.5065
▁nabiera	-11.5096
▁urządzeni	-11.5106
▁odkłada	-11.5132
▁Bezpieczeństw	-11.5136
▁Philip	-11.5136
▁administracj	-11.5136
▁ambasad	-11.5136
▁ignorowa	-11.5136
▁integracj	-11.5136
▁nieszczęśliw	-11.5136
▁niezliczon	-11.5136
▁odizolowan	-11.5136
▁recykling	-11.5136
▁reprezentacj	-11.5136
▁sugesti	-11.5136
▁szacunek	-11.5136
▁tygrys	-11.5136
▁zablokowa	-11.5136
▁zbliżeni	-11.5136
▁żydowsk	-11.5136
▁poinformowa	-11.5136
▁przygotowywa	-11.5136
▁reporter	-11.5136
▁weekend	-11.5136
▁morderc	-11.5136
▁rosyjsk	-11.5136
▁przestarzał	-11.5136
▁pomógł	-11.5136
▁kryteri	-11.5136
▁towarzystw	-11.5136
▁koszmar	-11.5136
▁pandemi	-11.5136
▁album	-11.5136
▁zmieści	-11.5136
▁Hawaj	-11.5136
▁rozkwit	-11.5136
▁przyjmuje	-11.5136
▁toksyn	-11.5136
▁zaskoczon	-11.5136
hydro	-11.5136
▁błysk	-11.5136
▁niosą	-11.5137
▁monet	-11.5138
▁Teori	-11.5138
▁zasłon	-11.5142
▁trójk	-11.5151
▁osobliw	-11.516
▁cieni	-11.5173
Kocha	-11.5176
strzeżenie	-11.526
mawiał	-11.5269
▁przywróci	-11.528
▁traktowan	-11.5285
▁skierowa	-11.5286
▁chodzeni	-11.529
bezpieczniejsz	-11.53
▁desk	-11.5339
▁chińsk	-11.5354
ollywood	-11.5366
▁płaszcz	-11.5368
▁Architekt	-11.5368
▁Rozpoczę	-11.5368
▁Virgin	-11.5368
▁beznadziejn	-11.5368
▁dogłębn	-11.5368
▁huragan	-11.5368
▁pułapk	-11.5368
▁uzyskuje	-11.5368
▁zgromadzi	-11.5368
▁gwizd	-11.5368
▁ustanowi	-11.5368
▁współdziała	-11.5368
▁Zelandi	-11.5368
▁spożywa	-11.5368
▁znakomit	-11.5368
source	-11.5368
▁wspomnień	-11.5368
▁krańc	-11.5368
▁skrzyżowa	-11.5368
▁tweet	-11.5368
▁zagadnienia	-11.5368
▁zapomniał	-11.5368
▁Kevin	-11.5368
▁samobójstw	-11.5368
▁tabletk	-11.5368
▁traktują	-11.5368
▁ambicj	-11.5368
▁przestępczości	-11.5368
▁plemieni	-11.5368
▁Zupełn	-11.5368
▁spokoju	-11.5368
▁trafn	-11.5368
▁przeznacza	-11.5369
▁wstręt	-11.5369
▁bezradn	-11.5369
▁piwnic	-11.5369
▁zaszczepi	-11.5369
▁dziewic	-11.5369
▁zbuduj	-11.5369
▁udzieli	-11.5369
▁radosn	-11.5369
▁ministr	-11.537
▁genetyk	-11.537
patrywa	-11.537
▁tymczasow	-11.5375
▁pętl	-11.5377
kontrolowan	-11.5385
▁łąk	-11.5395
▁demon	-11.5405
▁pożyczk	-11.5405
▁wyciek	-11.542
seksualn	-11.544
rzekł	-11.5455
▁złaman	-11.5469
siedli	-11.5536
prawiają	-11.5537
▁pitn	-11.5538
głośni	-11.5555
▁wypracowa	-11.5581
▁satysfakcj	-11.5605
▁Wietnam	-11.5606
▁tranzystor	-11.5606
▁utalentowan	-11.5606
▁Arystoteles	-11.5606
▁Spojrzał	-11.5606
▁Szanghaj	-11.5606
▁astronaut	-11.5606
▁błękitn	-11.5606
▁modyfikowa	-11.5606
▁najniższ	-11.5606
▁niewolnictw	-11.5606
▁poszczególne	-11.5606
▁rachunk	-11.5606
▁samopoczuci	-11.5606
▁sfinansowa	-11.5606
▁dojrzał	-11.5606
▁ignoruj	-11.5606
▁podejrzewa	-11.5606
▁science	-11.5606
▁usprawni	-11.5606
▁Twój	-11.5606
▁nadgarst	-11.5606
▁pozbywa	-11.5606
▁bałagan	-11.5606
▁militarn	-11.5606
▁Śmier	-11.5606
▁ćwierć	-11.5606
▁skłoni	-11.5606
▁Karolin	-11.5606
▁eksperc	-11.5606
▁penis	-11.5607
▁obiektywn	-11.5607
▁generuje	-11.5607
▁Etap	-11.5607
▁taksówk	-11.5607
▁Efekt	-11.5608
▁open	-11.5609
▁Witam	-11.5611
▁przeniesieni	-11.5612
▁zarys	-11.5613
▁kanal	-11.562
główki	-11.5628
łączone	-11.5651
▁weszła	-11.5662
grup	-11.5685
▁Pomyśleliś	-11.5688
▁ułoży	-11.57
▁tworz	-11.5729
▁Gotow	-11.578
▁przejaw	-11.5786
▁zwróc	-11.5788
▁rozpoznawani	-11.5819
▁glob	-11.5843
▁pierwiastk	-11.585
▁smartfon	-11.585
▁żołąd	-11.585
bioróżnorodności	-11.585
▁XVI	-11.585
▁najprostsz	-11.585
▁niewygodn	-11.585
▁odżywczy	-11.585
▁oszukiwa	-11.585
▁potraktowa	-11.585
▁protokomórk	-11.585
▁rozgląda	-11.585
▁uruchamia	-11.585
▁uświadamia	-11.585
▁zdecyduj	-11.585
▁Między	-11.585
▁podejrzan	-11.585
▁zgłębi	-11.585
▁demonstracj	-11.585
▁pragnę	-11.585
▁poproszon	-11.585
ślizg	-11.585
równując	-11.585
▁Watson	-11.585
▁okrutn	-11.585
▁Elektr	-11.585
▁wspomnienie	-11.585
▁Miasto	-11.5851
▁cenzur	-11.5851
▁Wydawało	-11.5851
▁boryka	-11.5851
▁Prag	-11.5851
▁kontrakt	-11.5851
▁oddziela	-11.5851
▁Niemiec	-11.5851
▁Miasta	-11.5851
▁domaga	-11.5851
▁grozi	-11.5852
▁podjęci	-11.5852
▁fabryc	-11.5856
▁Chcielibyś	-11.5857
▁mgł	-11.5857
▁banan	-11.5857
▁lalk	-11.5857
▁Naturaln	-11.5857
▁odwraca	-11.5858
▁piank	-11.5859
▁węzł	-11.5863
▁dokonuje	-11.5864
▁ściąga	-11.5873
▁skraj	-11.5893
▁upływ	-11.5905
produkcj	-11.5927
▁Składa	-11.5947
pełniają	-11.5987
stosuj	-11.6005
▁zjawi	-11.608
Kaid	-11.608
▁spojrzeli	-11.6093
▁optymist	-11.6098
▁Disney	-11.61
▁Najwyższ	-11.61
▁Olimpiad	-11.61
▁XVIII	-11.61
▁eleganck	-11.61
▁geometri	-11.61
▁najpotężniejsz	-11.61
▁najszybsz	-11.61
▁niezrozumia	-11.61
▁obojętn	-11.61
▁polepszy	-11.61
▁reżyser	-11.61
▁rodzeństw	-11.61
▁skrzydeł	-11.61
▁wynalezieni	-11.61
▁zignorowa	-11.61
▁2015	-11.61
▁Zakończ	-11.61
▁debaty	-11.61
▁karaluch	-11.61
▁minimaln	-11.61
▁obejmuje	-11.61
▁zniekształc	-11.61
▁osłabi	-11.61
▁nakarmi	-11.61
▁wykracza	-11.61
▁Islam	-11.61
▁swoist	-11.61
▁Przeczyta	-11.61
▁Rozwoj	-11.61
▁miłosn	-11.61
▁zachwyt	-11.61
▁gwałt	-11.61
▁nowatorski	-11.61
▁wrodzon	-11.61
▁zdejm	-11.6101
▁Indian	-11.6101
▁zgubi	-11.6101
▁Egipcjan	-11.6101
▁sensown	-11.6103
▁polarn	-11.6105
▁okręg	-11.6106
▁rysuj	-11.6108
▁założyciel	-11.611
▁Eric	-11.6133
prowadzają	-11.6147
słownie	-11.6148
▁słuchani	-11.6154
samobójc	-11.6159
mówienia	-11.6176
▁przeraża	-11.626
▁Najlep	-11.6325
▁kryształ	-11.6356
▁parametr	-11.6356
▁pestycyd	-11.6356
▁rentgenowsk	-11.6356
▁szkolnictw	-11.6356
▁szlachetn	-11.6356
▁Potrzebowa	-11.6356
▁anatomi	-11.6356
▁bzdur	-11.6356
▁festiwal	-11.6356
▁kręgosłup	-11.6356
▁morderstw	-11.6356
▁pistolet	-11.6356
▁przezroczyst	-11.6356
▁rewolucyjn	-11.6356
▁stypendi	-11.6356
▁sypialni	-11.6356
▁szczelin	-11.6356
▁ukazuje	-11.6356
▁świątyni	-11.6356
jłatwiej	-11.6356
▁Społeczn	-11.6356
▁żółwi	-11.6356
▁Tysiąc	-11.6357
▁autorytet	-11.6357
▁drożdż	-11.6357
▁wzrusz	-11.6357
▁ukochan	-11.6357
▁śluz	-11.6357
▁pobliski	-11.6357
▁zbrojn	-11.6357
▁pionier	-11.6357
▁wiodąc	-11.6357
▁Cyrus	-11.6357
▁paraliż	-11.6357
▁przerobi	-11.6357
▁niedorzeczn	-11.6357
▁listopad	-11.6357
▁zabroni	-11.6357
▁Witaj	-11.6357
▁potworn	-11.6357
▁szaf	-11.6357
▁sprosta	-11.6357
▁rozprasza	-11.6357
▁przejmowa	-11.6358
▁rozległ	-11.6358
▁zdobyci	-11.6358
▁przywraca	-11.6358
▁rozumowani	-11.6359
▁funkcjonują	-11.6361
▁pralk	-11.6362
▁wielc	-11.6363
▁optyczn	-11.6364
▁wkroczy	-11.6364
▁odcisk	-11.6366
tknęli	-11.637
▁drukowan	-11.6372
▁zleceni	-11.6378
▁odpocz	-11.6423
▁kolc	-11.6433
słyszałam	-11.6464
▁dotacj	-11.6464
▁elektrycznoś	-11.652
▁strumie	-11.6528
▁zastrze	-11.6575
jprawdopodobniej	-11.662
▁Gandhi	-11.662
▁Geographic	-11.662
▁Institute	-11.662
▁Ogóln	-11.662
▁Początkow	-11.662
▁Seattle	-11.662
▁dżungl	-11.662
▁kapelusz	-11.662
▁końcem	-11.662
▁mikroorganizm	-11.662
▁niepotrzebn	-11.662
▁niespotykan	-11.662
▁poślubi	-11.662
▁spontaniczn	-11.662
▁wilgotn	-11.662
▁zafascynowan	-11.662
▁zbliżon	-11.662
▁bioluminescenc	-11.662
▁czołg	-11.662
▁liberał	-11.662
▁urlop	-11.662
▁zwolennik	-11.662
▁dobroczynn	-11.662
▁Ogromn	-11.662
▁Holandi	-11.662
▁Miejsc	-11.662
▁piksel	-11.662
▁pól	-11.662
▁namacaln	-11.662
▁gabine	-11.662
▁minister	-11.662
▁prezes	-11.662
▁kwietni	-11.662
▁Czwart	-11.662
▁kosmolog	-11.662
▁przenoszeni	-11.662
▁sierpni	-11.662
▁przeczuci	-11.662
▁dostateczn	-11.662
▁banaln	-11.662
▁zwłok	-11.6621
▁klock	-11.6621
▁przewidywaln	-11.6622
▁pisząc	-11.6622
▁skurcz	-11.6624
▁komunikat	-11.6626
▁przemieni	-11.6627
▁wstrzyma	-11.6628
▁mitologi	-11.6648
kradł	-11.666
▁Arabsk	-11.6697
świadczy	-11.6719
▁przekład	-11.6793
▁Usłysz	-11.683
gwałtownie	-11.6875
▁czarnoskór	-11.689
▁inwestycyjn	-11.689
▁najpiękniej	-11.689
Prince	-11.689
▁Brytyjsk	-11.689
▁Przygląda	-11.689
▁Science	-11.689
▁Zbudowaliś	-11.689
▁hamburger	-11.689
▁hybryd	-11.689
▁komponent	-11.689
▁komunikacyjn	-11.689
▁koncentracj	-11.689
▁niezawodn	-11.689
▁niezmienn	-11.689
▁schronieni	-11.689
▁styczniu	-11.689
▁ukończeni	-11.689
▁zlokalizowa	-11.689
▁Środowisk	-11.689
▁naprzeciw	-11.689
▁Informacj	-11.689
▁naśladuj	-11.689
▁Znajdź	-11.689
▁hrabstw	-11.689
▁przekonywa	-11.689
▁transakcj	-11.689
▁wodoru	-11.689
▁pomidor	-11.689
▁skopiowa	-11.689
▁Chodź	-11.689
▁sekwencjonowani	-11.689
▁Berlin	-11.689
▁pszenic	-11.689
stycznia	-11.689
▁Stracił	-11.689
▁front	-11.6891
▁Dzisiejsz	-11.6891
▁życzliw	-11.6891
▁umieszczeni	-11.6891
▁jaźni	-11.6891
▁oddoln	-11.6891
▁akcent	-11.6891
▁pianin	-11.6892
▁nastroj	-11.6895
▁kostn	-11.6897
▁pojmowa	-11.6898
▁uczestnictw	-11.69
▁łapówk	-11.6903
▁Przyjrz	-11.6904
▁samoloci	-11.6908
▁namalowa	-11.6909
▁płon	-11.6932
▁konflik	-11.6969
▁Stworzyliś	-11.7045
sygn	-11.7097
godzinn	-11.7105
▁Organiz	-11.7109
darzają	-11.7111
▁zrzuci	-11.7133
▁fascynuj	-11.714
żyteczn	-11.7158
▁najbogatsz	-11.7168
▁Grenlandi	-11.7168
▁Ministerstw	-11.7168
▁Porozmawiaj	-11.7168
▁Second	-11.7168
▁absurdaln	-11.7168
▁alfabet	-11.7168
▁bambus	-11.7168
▁błyskotliw	-11.7168
▁ceremoni	-11.7168
▁fraktal	-11.7168
▁hiszpańsk	-11.7168
▁kierownik	-11.7168
▁neutraln	-11.7168
▁odżywcze	-11.7168
▁portfel	-11.7168
▁przyswaja	-11.7168
▁współczynnik	-11.7168
▁zaniedba	-11.7168
▁zmotywowa	-11.7168
▁Biorąc	-11.7168
▁Finans	-11.7168
▁Kennedy	-11.7168
▁WWW	-11.7168
▁rdzenn	-11.7168
▁tolerancj	-11.7168
▁wdraża	-11.7168
▁wschodzi	-11.7168
▁Rzadk	-11.7168
▁piasek	-11.7168
▁uprzejm	-11.7168
▁urodzon	-11.7168
▁Black	-11.7168
▁bezużyteczn	-11.7168
▁kapitan	-11.7168
▁South	-11.7168
▁Wybrał	-11.7168
▁Rozważ	-11.7168
▁spuścizn	-11.7168
▁ptasi	-11.7168
▁królewsk	-11.7168
▁Albert	-11.7168
▁powłok	-11.7168
▁przebada	-11.7168
▁klif	-11.7168
▁przeciwdziała	-11.7168
▁Proces	-11.7169
▁informatyc	-11.7169
▁mammografi	-11.717
▁proponuj	-11.717
▁klęsk	-11.7171
▁nieszczęści	-11.7172
▁talerz	-11.7174
▁informuj	-11.7175
▁wyrwa	-11.7175
▁tuzin	-11.7177
▁Ebol	-11.7178
▁Neuro	-11.718
kręceni	-11.7187
▁odsłon	-11.7196
▁Niebiesk	-11.7198
▁szpieg	-11.7217
▁Wybiera	-11.723
▁wyrasta	-11.7307
▁pomysłowoś	-11.7308
bezpieczeństwo	-11.7355
▁uwierz	-11.7378
▁łask	-11.7391
▁wydawc	-11.7397
▁cierpliw	-11.74
▁błyskawiczn	-11.7453
▁Studenci	-11.7453
▁Sydney	-11.7453
▁akceptuj	-11.7453
▁bezprecedensow	-11.7453
▁dysponuje	-11.7453
▁halucynacj	-11.7453
▁odrzuceni	-11.7453
▁skamielin	-11.7453
▁skamieniał	-11.7453
▁spektakularn	-11.7453
▁zmodyfikowa	-11.7453
▁Apollo	-11.7453
▁Benjamin	-11.7453
▁Craig	-11.7453
▁nigdzie	-11.7453
▁symfoni	-11.7453
▁zaśpiewa	-11.7453
▁napięcia	-11.7453
▁położył	-11.7453
▁zamknięci	-11.7453
▁ujrzał	-11.7453
▁klimatyzacj	-11.7453
▁rozbieżnoś	-11.7453
▁debata	-11.7454
▁dobrowoln	-11.7454
▁Numer	-11.7454
▁piśmie	-11.7454
▁napięcie	-11.7454
▁Dodatkow	-11.7454
▁długopis	-11.7454
▁wybitn	-11.7454
▁zapozna	-11.7454
▁dyskutowa	-11.7454
▁enzym	-11.7454
▁witamin	-11.7454
▁milimetr	-11.7454
▁trzydziest	-11.7454
▁dziewczęta	-11.7454
▁fataln	-11.7455
▁księgow	-11.7455
oceaniczn	-11.7455
▁gejowsk	-11.7455
▁Turcj	-11.7457
▁chirurgiczn	-11.7457
▁zaznaczy	-11.7457
▁wyrob	-11.7457
▁gorączk	-11.7458
▁uformowa	-11.7458
▁tapir	-11.7459
▁odchyl	-11.746
▁Kosow	-11.7461
▁Jenn	-11.747
piętrow	-11.751
▁koordynacj	-11.7516
▁totaln	-11.7523
▁radzeni	-11.7558
▁wypływa	-11.7703
▁Wprowadz	-11.7712
▁automat	-11.7745
▁instynkt	-11.7746
▁Instytuc	-11.7748
▁najmłodsz	-11.7748
▁odrzucon	-11.7748
▁spędzon	-11.7748
▁Inżynier	-11.7748
▁Irlandi	-11.7748
▁Kepler	-11.7748
▁Przeciętn	-11.7748
▁Stephen	-11.7748
▁Szekspir	-11.7748
▁definiowa	-11.7748
▁klienci	-11.7748
▁kradzież	-11.7748
▁odnalezieni	-11.7748
▁odwzorowa	-11.7748
▁oryginał	-11.7748
▁pierścieni	-11.7748
▁piosenek	-11.7748
▁propagand	-11.7748
▁subiektywn	-11.7748
▁włókna	-11.7748
▁świadectw	-11.7748
▁Ekonomi	-11.7748
▁absolwent	-11.7748
▁alumini	-11.7748
▁angażują	-11.7748
▁pęcherz	-11.7748
▁umiejscowi	-11.7748
▁zareaguj	-11.7748
▁Mozart	-11.7748
▁Chińczyc	-11.7748
▁Norden	-11.7748
▁modlitw	-11.7748
▁wgląd	-11.7748
▁diament	-11.7748
▁sznur	-11.7748
▁Otwiera	-11.7748
▁cylind	-11.7748
▁zamieszkują	-11.7748
▁Zbada	-11.7748
▁mądre	-11.7748
▁skłania	-11.7748
▁Somali	-11.7748
▁podwaja	-11.7748
▁łazik	-11.7748
▁wypróbowa	-11.7748
▁obciążeni	-11.7748
▁użytkowani	-11.7749
▁poduszk	-11.775
▁generał	-11.775
▁przewraca	-11.7751
▁zwykli	-11.7753
▁faceci	-11.7755
▁Odparł	-11.7755
▁zjadł	-11.7759
▁dotarliś	-11.7761
▁pielęgniar	-11.7766
▁szanuj	-11.7805
▁Fajn	-11.7807
▁kaczk	-11.785
łapał	-11.7864
▁strategiczn	-11.7869
▁pieniądz	-11.7892
ciągają	-11.7913
▁Dowiedział	-11.7951
▁zatwierdz	-11.7961
▁dramat	-11.8049
▁akademi	-11.805
▁spożywcz	-11.8051
▁Arduino	-11.8051
▁Norwegii	-11.8051
▁Pensylwani	-11.8051
▁Radziecki	-11.8051
▁Reporter	-11.8051
▁Rezultat	-11.8051
▁Zatrudni	-11.8051
▁Zwiększ	-11.8051
▁biotechnologi	-11.8051
▁dyskryminacj	-11.8051
▁długotrwał	-11.8051
▁fluorescencyjn	-11.8051
▁groźb	-11.8051
▁kompozycj	-11.8051
▁najsilniej	-11.8051
▁nieograniczon	-11.8051
▁przetworzon	-11.8051
▁przetworzy	-11.8051
▁prześladowa	-11.8051
▁przytłaczając	-11.8051
▁reaktor	-11.8051
▁sfilmowa	-11.8051
▁udokumentowa	-11.8051
▁uniemożliwi	-11.8051
▁wyposażon	-11.8051
▁zachwyca	-11.8051
▁konektom	-11.8051
▁stężeni	-11.8051
▁etanol	-11.8051
▁Rzeczywiście	-11.8051
▁zdumieni	-11.8051
▁Edukacj	-11.8051
▁gamma	-11.8051
▁nastawion	-11.8051
▁imponując	-11.8051
▁plastyczn	-11.8051
▁Posłuchaj	-11.8051
▁przekonując	-11.8051
▁smutk	-11.8051
▁Istotn	-11.8051
▁seksown	-11.8051
▁honor	-11.8053
▁sąsiedz	-11.8053
▁woźn	-11.8055
▁Faktyczn	-11.8055
▁pyszn	-11.8056
▁emituj	-11.8062
▁kopalny	-11.8064
▁przystępn	-11.8067
▁wrzuci	-11.8089
▁Wiedzieliś	-11.8093
▁czyteln	-11.81
▁regionaln	-11.8105
▁wyprowadz	-11.8129
▁kontynen	-11.8147
▁fizjologiczn	-11.8148
▁wrześni	-11.8161
▁Analiz	-11.8163
▁niesprawiedliw	-11.8185
▁minęł	-11.819
▁widzialn	-11.8191
szyfrow	-11.8199
minutow	-11.8206
▁szyfr	-11.8212
▁fizjologi	-11.8263
▁starann	-11.8289
▁przypływ	-11.8297
▁Włącz	-11.8316
skończenie	-11.8321
▁najistotniejsz	-11.8363
▁America	-11.8363
▁Beethoven	-11.8363
▁Bombaj	-11.8363
▁Cofnij	-11.8363
▁Fascynuj	-11.8363
▁Jefferson	-11.8363
▁Teksasie	-11.8363
▁Uświadomił	-11.8363
▁asystent	-11.8363
▁baseball	-11.8363
▁czerpią	-11.8363
▁deficyt	-11.8363
▁hinduski	-11.8363
▁identyfikacj	-11.8363
▁kalendarz	-11.8363
▁katalog	-11.8363
▁opracował	-11.8363
▁orientacj	-11.8363
▁penicylin	-11.8363
▁poskłada	-11.8363
▁posługuj	-11.8363
▁sformułowa	-11.8363
▁sierocińc	-11.8363
▁sojusz	-11.8363
▁spersonalizowan	-11.8363
▁stymulacj	-11.8363
▁symetryczn	-11.8363
▁trajektori	-11.8363
▁trucizn	-11.8363
▁wyposażeni	-11.8363
▁zakorzenion	-11.8363
▁zwycięzc	-11.8363
▁transmisj	-11.8363
▁wywoływa	-11.8363
▁usunięt	-11.8363
▁wykarmi	-11.8363
▁czterem	-11.8363
▁sugerowa	-11.8363
▁wskazywa	-11.8363
▁arkusz	-11.8363
▁dowiaduje	-11.8363
▁żywieniow	-11.8363
▁Charlie	-11.8364
▁bliżs	-11.8364
▁dentyst	-11.8364
▁bezsiln	-11.8364
▁instynktown	-11.8364
▁drukarsk	-11.8365
▁Wzięliś	-11.8366
▁zgłosił	-11.8367
▁specjalizacj	-11.8368
▁rozpoczn	-11.8368
▁sprawdzeni	-11.8369
▁Związk	-11.8373
▁teatraln	-11.8395
▁opłacaln	-11.8399
▁jadaln	-11.8406
▁paczk	-11.8413
▁wciąga	-11.8454
▁przeciwstawi	-11.8464
▁morsk	-11.8465
▁Przychodz	-11.8474
awdopodobieństwa	-11.8486
▁pochodz	-11.8565
jeździe	-11.8566
▁napływ	-11.8579
▁Uwielbia	-11.858
▁osiągaln	-11.8594
kochałem	-11.8599
▁odpływ	-11.8648
▁doszliś	-11.8656
▁upośledz	-11.8686
▁uwięzion	-11.8686
▁Babbag	-11.8686
▁FBI	-11.8686
▁Jerozolim	-11.8686
▁LED	-11.8686
▁Michigan	-11.8686
▁Saudyjsk	-11.8686
▁Umożliwi	-11.8686
▁antropolog	-11.8686
▁egzekucj	-11.8686
▁ekspansj	-11.8686
▁instytut	-11.8686
▁koszykówk	-11.8686
▁liberaln	-11.8686
▁najciekawsz	-11.8686
▁nieprawidłow	-11.8686
▁nieprzewidywaln	-11.8686
▁niszcząc	-11.8686
▁odnalazł	-11.8686
▁ogólnoświatow	-11.8686
▁organizacyjn	-11.8686
▁personel	-11.8686
▁pogłębi	-11.8686
▁powstrzymuj	-11.8686
▁samowystarczaln	-11.8686
▁sześcian	-11.8686
▁usprawiedliwi	-11.8686
▁wesprze	-11.8686
▁wyodrębni	-11.8686
▁wyzwoleni	-11.8686
▁zadecydowa	-11.8686
▁ówczesn	-11.8686
▁Arthur	-11.8686
▁Demokrat	-11.8686
▁Pozostał	-11.8686
▁Zachęca	-11.8686
▁archeolog	-11.8686
▁eBay	-11.8686
▁elektromagnety	-11.8686
▁monsun	-11.8686
▁projekcj	-11.8686
▁przejazd	-11.8686
▁zdominowan	-11.8686
▁Palestyn	-11.8686
▁migracj	-11.8686
▁pornografi	-11.8686
▁romans	-11.8686
▁plankton	-11.8686
▁komedi	-11.8686
▁remiks	-11.8686
▁ułożon	-11.8686
▁Rozwiązanie	-11.8686
▁wegeta	-11.8686
▁nawadnia	-11.8686
▁Dotyczy	-11.8686
▁galaktyc	-11.8686
▁tańcząc	-11.8686
▁zmarnowa	-11.8686
▁Zgodn	-11.8686
▁blizn	-11.8686
▁Budyn	-11.8687
▁plotk	-11.869
▁zawiodł	-11.8691
▁miniatur	-11.8691
▁rozłoży	-11.8692
▁Poważn	-11.8694
▁wzięci	-11.8698
▁pocisk	-11.8699
▁wykładowc	-11.8724
▁porcj	-11.8741
▁katastrofaln	-11.8765
kształt	-11.8852
bezpieczeństwie	-11.8872
▁reproduk	-11.8894
twierdzenia	-11.8902
▁Większ	-11.894
▁porównywa	-11.8971
▁dwó	-11.8994
▁Akademi	-11.9019
▁Galapagos	-11.9019
▁Natychmiast	-11.9019
▁Wczoraj	-11.9019
▁Zbudował	-11.9019
▁dziewiąt	-11.9019
▁egzotyczn	-11.9019
▁holendersk	-11.9019
▁immunologiczn	-11.9019
▁improwizacj	-11.9019
▁interpretowa	-11.9019
▁inwalidzki	-11.9019
▁konkurencyjn	-11.9019
▁kontynuuj	-11.9019
▁manipulacj	-11.9019
▁membran	-11.9019
▁najgłębsz	-11.9019
▁nanotechnologi	-11.9019
▁odrębn	-11.9019
▁opatentowa	-11.9019
▁optymaln	-11.9019
▁podczerwie	-11.9019
▁płótn	-11.9019
▁sceptyczn	-11.9019
▁sprzężeni	-11.9019
▁uszczęśliwi	-11.9019
▁wygenerowa	-11.9019
▁zabezpieczeni	-11.9019
▁zainfekowa	-11.9019
▁Design	-11.9019
▁Eksperyment	-11.9019
▁Jeździ	-11.9019
▁Powtarza	-11.9019
▁chaotyczn	-11.9019
▁cmentarz	-11.9019
▁cyberprzestępc	-11.9019
▁dofinansow	-11.9019
▁ekscytuje	-11.9019
▁klawisz	-11.9019
▁pośrednictw	-11.9019
▁regulowa	-11.9019
▁oficer	-11.9019
▁zaprzecza	-11.9019
▁zobrazowa	-11.9019
▁zaproszon	-11.9019
▁siódm	-11.9019
▁wykończ	-11.9019
▁lodem	-11.9019
▁torebk	-11.9019
▁korelacj	-11.9019
▁Urządzeni	-11.9019
▁frajd	-11.9019
▁rozwiązuje	-11.902
▁przyzwyczajeni	-11.902
▁walizk	-11.902
▁oszukuj	-11.902
▁hołd	-11.9021
▁uścisk	-11.9021
▁motyl	-11.9022
▁Rodzin	-11.9022
▁symboliczn	-11.9025
▁Szkol	-11.9027
▁dominacj	-11.9028
▁rękawic	-11.9034
▁sprytni	-11.9034
▁przyjeżdża	-11.9063
procentow	-11.9065
cierpliwości	-11.9082
▁eksperymen	-11.9167
q	-11.9276
▁spływa	-11.9327
▁podświadom	-11.9364
▁Argentyn	-11.9364
▁Brooklyn	-11.9364
▁Gwiazd	-11.9364
▁Porównaj	-11.9364
▁bezbronn	-11.9364
▁gadżet	-11.9364
▁międzyludzki	-11.9364
▁motocykl	-11.9364
▁niepowtarzaln	-11.9364
▁niewydolnoś	-11.9364
▁plemienn	-11.9364
▁powiększeni	-11.9364
▁producenci	-11.9364
▁przyspieszeni	-11.9364
▁recenzj	-11.9364
▁republik	-11.9364
▁skontaktowa	-11.9364
▁tęskni	-11.9364
▁udoskonala	-11.9364
▁udowadnia	-11.9364
▁urzeczywistni	-11.9364
▁wielbłąd	-11.9364
▁zachwycon	-11.9364
▁chrześcijan	-11.9364
▁kłótni	-11.9364
▁lojaln	-11.9364
▁smutek	-11.9364
▁Kolumbi	-11.9364
▁komplikacj	-11.9364
▁podwórk	-11.9364
▁analogow	-11.9364
▁wznosi	-11.9364
▁Komisj	-11.9364
▁utracon	-11.9364
▁nieśmiał	-11.9364
▁komisj	-11.9364
▁matryc	-11.9364
▁zabudow	-11.9365
▁ilustruj	-11.9366
▁pochodn	-11.9366
▁kwestionowa	-11.9366
tygodniow	-11.9369
▁oddzieln	-11.937
▁ucisk	-11.937
▁Pracowaliś	-11.9544
pakowan	-11.9563
stosowania	-11.9595
ężczyźni	-11.972
▁Zapomnij	-11.9721
▁Everest	-11.9721
▁Filadelfi	-11.9721
▁Himalaj	-11.9721
▁Joseph	-11.9721
▁Kryzys	-11.9721
▁Nairobi	-11.9721
▁Niezwykł	-11.9721
▁Wybrzeż	-11.9721
▁chłodzeni	-11.9721
▁czcionk	-11.9721
▁dizajn	-11.9721
▁eksploatacj	-11.9721
▁emerytaln	-11.9721
▁humanistyczn	-11.9721
▁konfiguracj	-11.9721
▁konstytucj	-11.9721
▁krwionośne	-11.9721
▁lekceważ	-11.9721
▁oszałamiając	-11.9721
▁partyzant	-11.9721
▁perfekcyjn	-11.9721
▁przewlekł	-11.9721
▁przewyższa	-11.9721
▁przezwycięży	-11.9721
▁tarapat	-11.9721
▁uproszczon	-11.9721
▁uspokoi	-11.9721
▁zapomnij	-11.9721
▁zwiększon	-11.9721
▁Kopenha	-11.9721
▁RNA	-11.9721
▁Telefon	-11.9721
!	-13.7628
%	-13.7629
♫	-13.763
—	-13.7631
)	-13.7632
:	-13.7633
?	-13.7634
&	-13.7635
Ś	-13.7635
