<unk>	0
<s>	0
</s>	0
s	-2.76868
▁,	-3.15486
▁.	-3.19075
▁a	-3.5582
▁de	-3.71304
▁que	-3.78121
▁o	-4.13305
▁	-4.14797
▁e	-4.21122
;	-4.21319
▁&	-4.24609
quot	-4.26785
▁é	-4.5941
-	-4.75346
▁um	-4.81559
▁para	-4.88213
▁uma	-4.88618
▁E	-4.98521
▁do	-5.01164
▁da	-5.01717
o	-5.13003
▁não	-5.13506
▁em	-5.17196
m	-5.22597
▁com	-5.24865
▁por	-5.35626
mos	-5.38252
ão	-5.3877
r	-5.4183
▁se	-5.42029
a	-5.44098
mente	-5.44408
▁os	-5.46023
▁no	-5.5409
▁?	-5.57295
▁como	-5.58013
▁A	-5.58028
▁na	-5.59688
▁mai	-5.60077
l	-5.68893
u	-5.7448
is	-5.7887
▁:	-5.79516
ção	-5.80947
▁O	-5.82769
es	-5.87081
▁as	-5.8783
▁muito	-5.90376
se	-5.98921
▁eu	-6.08577
▁ser	-6.09009
▁Mas	-6.09632
ando	-6.11148
que	-6.11469
▁isso	-6.12047
▁são	-6.16225
▁pessoas	-6.16718
▁à	-6.16747
▁ao	-6.193
▁)	-6.21713
(	-6.21917
▁mas	-6.25839
▁fazer	-6.26525
▁ou	-6.28619
á	-6.3256
▁está	-6.33588
▁Por	-6.37366
e	-6.37563
▁todo	-6.38547
▁isto	-6.39083
ões	-6.39278
em	-6.39722
▁É	-6.41477
me	-6.42029
do	-6.42604
▁qu	-6.42831
am	-6.44152
as	-6.45635
▁—	-6.45894
▁esta	-6.4597
▁nos	-6.48084
▁sobre	-6.52772
▁foi	-6.5474
▁dos	-6.55451
▁meu	-6.56112
▁anos	-6.57071
▁ver	-6.58499
▁Não	-6.58974
▁vez	-6.59696
da	-6.59837
▁era	-6.61724
▁minha	-6.63562
▁há	-6.6646
▁sua	-6.665
i	-6.69049
▁nós	-6.69085
ns	-6.71901
▁seu	-6.72113
gora	-6.72301
▁nossa	-6.73641
▁ter	-6.73732
▁mundo	-6.73861
ntão	-6.74408
▁este	-6.76399
os	-6.76424
▁ele	-6.77005
▁mesmo	-6.7704
▁nosso	-6.77416
▁forma	-6.77513
▁Eu	-6.80063
▁estão	-6.83591
▁pode	-6.83615
▁tem	-6.84214
▁também	-6.84425
▁me	-6.87495
▁temos	-6.89582
▁aqui	-6.94104
to	-6.94403
▁toda	-6.94795
▁dia	-6.95334
▁coisas	-6.95593
▁vida	-6.95844
nos	-6.96126
▁apen	-6.99148
ia	-7.00443
lo	-7.00686
▁Se	-7.01315
té	-7.01325
▁H	-7.01534
▁tempo	-7.03094
ei	-7.03271
▁eles	-7.04196
▁podem	-7.04233
▁coisa	-7.07159
▁têm	-7.08002
▁qual	-7.08446
ções	-7.0861
ar	-7.08844
▁outra	-7.0908
▁você	-7.12828
la	-7.13228
▁Riso	-7.13548
ndo	-7.13556
▁grande	-7.15915
tudo	-7.1597
▁dizer	-7.16765
▁num	-7.17068
n	-7.17906
▁real	-7.1794
▁Ele	-7.2011
▁estava	-7.21355
▁depoi	-7.21853
▁pelo	-7.22057
▁podemo	-7.22084
▁Aplausos	-7.22275
▁S	-7.22489
ram	-7.23492
▁tinha	-7.25177
.	-7.25583
▁algo	-7.25688
va	-7.25925
▁numa	-7.26288
▁parte	-7.26845
idade	-7.27721
▁bem	-7.29014
tão	-7.29257
inda	-7.29431
▁tipo	-7.29918
▁pela	-7.30884
▁Com	-7.31116
▁diferente	-7.31127
▁assim	-7.33952
▁só	-7.3397
quer	-7.34799
nde	-7.34893
▁alguma	-7.35708
▁disse	-7.37127
▁essa	-7.38064
▁Esta	-7.38122
▁Ist	-7.38592
c	-7.39097
p	-7.40333
í	-7.40531
ou	-7.40876
tanto	-7.41607
já	-7.41772
▁falar	-7.41934
▁verdade	-7.44253
mo	-7.44553
▁melhor	-7.44919
▁cada	-7.45194
vos	-7.45345
▁Qu	-7.45353
▁muita	-7.45524
t	-7.4612
▁esse	-7.46646
▁re	-7.47684
▁N	-7.47856
▁maior	-7.48406
g	-7.49164
▁entre	-7.50114
▁exemplo	-7.50261
dos	-7.50288
▁trabalho	-7.50326
te	-7.5093
▁ela	-7.51668
▁pouco	-7.52789
▁tal	-7.52895
▁Este	-7.54271
▁pensar	-7.55725
▁problema	-7.55803
▁sistema	-7.56171
▁Os	-7.56602
▁T	-7.57111
▁sem	-7.5769
▁hoje	-7.58227
▁ideia	-7.58662
▁Na	-7.59482
▁história	-7.597
ra	-7.60746
das	-7.6075
▁importante	-7.60831
▁acontece	-7.61671
▁No	-7.62126
▁então	-7.62266
▁casa	-7.62943
▁vai	-7.63191
vez	-7.64079
▁nova	-7.6438
▁sempre	-7.65899
▁facto	-7.66196
▁algu	-7.66677
▁ir	-7.67624
▁milhões	-7.67962
%	-7.68292
▁estamo	-7.68481
▁lá	-7.68903
▁outros	-7.7001
▁ano	-7.71357
▁mim	-7.72306
▁De	-7.72411
▁menos	-7.7397
▁lado	-7.7412
mento	-7.7419
▁estas	-7.75143
▁Bem	-7.7655
h	-7.76751
▁outro	-7.76881
▁primeiro	-7.76954
▁desta	-7.7716
y	-7.7741
▁estar	-7.77581
ámos	-7.77629
▁poder	-7.78243
▁três	-7.78701
no	-7.79039
▁estes	-7.80744
co	-7.81178
▁usar	-7.81345
▁dua	-7.81492
ca	-7.82547
▁precisa	-7.82553
▁cérebro	-7.83516
▁pessoa	-7.83996
▁criar	-7.84398
▁primeira	-7.84758
onde	-7.85112
le	-7.8518
de	-7.85356
▁neste	-7.85595
▁nunca	-7.85596
▁durante	-7.85807
ta	-7.86063
▁atra	-7.866
▁número	-7.87714
▁in	-7.87755
▁nas	-7.87895
▁novo	-7.88547
▁Em	-7.88658
íamo	-7.88865
d	-7.88959
▁faz	-7.89532
▁momento	-7.89663
▁começar	-7.90014
▁volta	-7.90478
▁!	-7.9054
▁Is	-7.90773
▁image	-7.90821
▁deste	-7.91205
▁tenho	-7.91428
▁existe	-7.91667
▁mesma	-7.91877
1	-7.92007
er	-7.92053
▁seja	-7.92662
et	-7.93166
▁vou	-7.93916
▁tentar	-7.94391
▁antes	-7.945
ós	-7.94839
▁lugar	-7.95565
▁p	-7.95669
▁Um	-7.96284
vel	-7.96934
▁informação	-7.97006
vés	-7.97129
▁-	-7.97153
▁...	-7.97155
na	-7.97402
re	-7.97412
▁dar	-7.97694
▁J	-7.9829
▁tecnologia	-7.9856
ce	-7.98678
ti	-7.98878
▁mulheres	-7.98952
▁estou	-7.99078
lhe	-7.99355
▁experiência	-7.99774
▁As	-8.00197
ntro	-8.00654
▁significa	-8.01821
▁crianças	-8.0216
▁cor	-8.02562
remos	-8.02743
▁vosso	-8.0304
▁escola	-8.03187
f	-8.03457
▁olhar	-8.04481
▁vamo	-8.04771
▁resposta	-8.05241
▁B	-8.05278
▁cerca	-8.05427
▁espaço	-8.05497
▁nada	-8.05549
▁quero	-8.05572
▁nem	-8.05573
▁vão	-8.07132
res	-8.07835
apos	-8.08928
▁Uma	-8.08977
▁Temos	-8.09639
▁alguém	-8.09742
ado	-8.09951
▁disso	-8.10471
▁P	-8.10874
▁feito	-8.10934
▁raz	-8.11287
▁eram	-8.11932
▁acontecer	-8.12053
▁mudar	-8.12101
▁dado	-8.12226
▁água	-8.12387
▁pequena	-8.12662
nte	-8.12714
▁encontrar	-8.12802
amente	-8.13402
rem	-8.13936
▁10	-8.14923
▁trabalhar	-8.14954
▁C	-8.15106
▁amigo	-8.15745
▁aquele	-8.16314
▁foram	-8.16324
▁família	-8.16589
▁Foi	-8.16608
▁Obrigado	-8.16669
quilo	-8.16875
▁quase	-8.16884
▁vos	-8.16897
▁empresa	-8.16993
▁país	-8.17735
▁energia	-8.17773
▁difícil	-8.18034
▁futuro	-8.18322
▁Para	-8.18681
▁sou	-8.188
ro	-8.18992
ria	-8.19163
▁un	-8.19174
al	-8.19456
▁en	-8.19529
▁vossa	-8.19555
ência	-8.19568
▁claro	-8.20751
▁Muito	-8.21277
▁si	-8.22133
▁realidade	-8.22376
▁diz	-8.22501
▁nesta	-8.22788
▁mostrar	-8.22917
▁vi	-8.22971
▁caso	-8.23068
▁quanto	-8.23824
z	-8.24158
▁sei	-8.24183
▁Aqui	-8.2481
▁dinheiro	-8.2494
▁con	-8.2521
▁sociedade	-8.25251
▁possíve	-8.25254
▁sido	-8.25471
▁maneira	-8.2549
▁certo	-8.25564
▁palavras	-8.25594
▁Ela	-8.25622
▁espécie	-8.25912
▁elas	-8.25946
▁Vamo	-8.2611
▁meio	-8.26519
▁seria	-8.26669
vam	-8.2668
▁fazem	-8.26916
ma	-8.2755
▁contra	-8.27603
▁grupo	-8.27779
▁somos	-8.28017
000	-8.28579
▁simples	-8.28633
▁mil	-8.28663
▁estavam	-8.28826
▁doença	-8.29393
▁altura	-8.29397
in	-8.29971
▁bom	-8.30027
ga	-8.303
▁bastante	-8.30705
▁luz	-8.30749
▁fora	-8.30865
on	-8.30946
ada	-8.3138
▁interessante	-8.31716
▁níve	-8.31748
ação	-8.31782
b	-8.31801
▁corpo	-8.3196
▁enquan	-8.32306
▁ponto	-8.32434
▁consegui	-8.32965
▁20	-8.33012
▁ficar	-8.33273
▁I	-8.33302
▁sabemos	-8.33517
▁funciona	-8.33886
▁questão	-8.33981
▁cidade	-8.34
▁saber	-8.3473
▁V	-8.35238
ci	-8.35368
▁países	-8.35432
▁modo	-8.35433
▁mãe	-8.36466
▁certa	-8.36467
▁mudança	-8.37169
▁penso	-8.37248
▁conta	-8.37544
▁célula	-8.37578
di	-8.38201
ir	-8.38295
▁pequeno	-8.38331
▁prova	-8.38365
▁quem	-8.38462
▁sabem	-8.39225
▁sala	-8.3988
los	-8.40134
guém	-8.40242
▁desde	-8.4028
▁lhe	-8.403
▁último	-8.4111
ve	-8.41128
▁tinham	-8.41248
k	-8.41264
▁saúde	-8.41483
▁havia	-8.4163
▁pergunta	-8.41882
▁ali	-8.42422
las	-8.42501
▁semana	-8.42598
emos	-8.42758
▁F	-8.42808
▁jove	-8.42957
▁aprender	-8.43506
▁passado	-8.43577
▁&#9	-8.43702
ri	-8.43725
▁tornar	-8.43751
▁causa	-8.43843
▁Vou	-8.43847
▁começa	-8.44029
li	-8.44219
vamos	-8.45023
0	-8.45047
▁final	-8.45277
▁Que	-8.45646
vi	-8.45885
▁parece	-8.45907
ing	-8.45975
▁processo	-8.46364
▁&#93;	-8.46364
▁maioria	-8.46616
▁área	-8.46751
pe	-8.46831
ina	-8.46933
▁relaç	-8.47305
▁viver	-8.47926
▁quatro	-8.4831
▁co	-8.48358
▁dela	-8.48369
▁completa	-8.48704
▁Podem	-8.48953
▁acho	-8.48971
rá	-8.49448
il	-8.49711
▁gente	-8.49905
▁dólares	-8.49928
dores	-8.50112
▁Todo	-8.50308
ssemos	-8.5031
▁pai	-8.50801
▁ajudar	-8.50847
▁própria	-8.51099
▁tive	-8.5112
▁única	-8.51504
▁construir	-8.51601
▁longo	-8.5191
▁aquela	-8.51973
▁deles	-8.5202
x	-8.52413
▁resultado	-8.52451
▁humano	-8.52595
▁ciência	-8.52913
▁estado	-8.53076
cima	-8.53181
▁chegar	-8.53459
▁dessa	-8.53552
▁for	-8.53569
▁fim	-8.53763
ne	-8.53958
▁fez	-8.53983
▁D	-8.54682
▁Tal	-8.54769
▁governo	-8.54803
▁200	-8.54876
▁tanto	-8.55107
vemos	-8.55348
▁Depois	-8.55645
▁Intern	-8.55646
cerca	-8.56185
▁homem	-8.56495
▁Era	-8.565
▁capaz	-8.56503
▁olho	-8.57468
▁política	-8.57782
▁homens	-8.57782
▁perceber	-8.57785
▁total	-8.58215
▁caminho	-8.58265
▁boa	-8.58437
▁fazemos	-8.58472
▁projeto	-8.58675
▁Assi	-8.5869
▁Está	-8.58982
▁ca	-8.59661
ter	-8.59865
▁valor	-8.60096
2	-8.60116
▁simplesmente	-8.60117
▁Podemo	-8.609
▁vê	-8.61279
▁frente	-8.61299
ecei	-8.61871
▁humanos	-8.61893
▁vídeo	-8.62652
ssem	-8.63091
▁Você	-8.63105
▁arte	-8.63184
▁chamado	-8.63709
▁direito	-8.64024
▁cinco	-8.64025
en	-8.6403
▁baixo	-8.64091
▁podia	-8.64209
▁local	-8.6424
▁força	-8.6442
▁humana	-8.64481
▁fácil	-8.64483
▁3	-8.64486
▁sentido	-8.64604
▁comunidade	-8.6466
agem	-8.64768
▁Obrigad	-8.64814
▁medo	-8.64899
▁problemas	-8.65109
▁economia	-8.65427
▁partir	-8.65559
▁noite	-8.65571
▁carro	-8.65673
ados	-8.65863
▁universo	-8.65876
▁nome	-8.66034
▁contar	-8.66062
▁atrás	-8.66087
▁sim	-8.66191
▁pobre	-8.66348
▁quais	-8.66488
▁fosse	-8.6649
▁preciso	-8.66626
tu	-8.66727
▁sabe	-8.66942
▁nin	-8.66976
▁começo	-8.67291
▁rede	-8.67352
▁queria	-8.67599
▁passar	-8.67741
▁conseguir	-8.67774
▁estudo	-8.67834
ê	-8.67915
frica	-8.68158
ância	-8.68236
▁planeta	-8.68731
ba	-8.68734
▁meses	-8.68943
▁global	-8.6904
▁Quero	-8.69103
▁pens	-8.69136
ntes	-8.69154
an	-8.69515
▁Ou	-8.69563
▁diferença	-8.69695
▁enorme	-8.70192
▁Sim	-8.70197
▁segundo	-8.70721
dor	-8.70983
▁oportunidade	-8.71166
▁posso	-8.71167
▁deixar	-8.71478
lhes	-8.71549
▁per	-8.71609
▁estrutura	-8.71801
go	-8.71838
▁guerra	-8.72158
▁obrigado	-8.7218
▁poderia	-8.72247
é	-8.72429
▁milhar	-8.72551
▁música	-8.72658
▁base	-8.72963
tra	-8.73012
▁ambiente	-8.73161
▁fui	-8.73162
▁descobrir	-8.73351
▁mulher	-8.73369
▁algum	-8.7338
▁minuto	-8.73666
▁Con	-8.73675
▁ajuda	-8.73717
▁modelo	-8.74496
▁livro	-8.74514
▁normal	-8.74608
ida	-8.74649
▁mal	-8.74902
▁social	-8.75059
ambém	-8.75183
▁fazê	-8.75236
▁especial	-8.75247
▁di	-8.75263
ríamo	-8.75458
▁Re	-8.75508
tiva	-8.75809
▁deve	-8.75864
▁30	-8.76016
▁palavra	-8.76181
▁soluç	-8.76328
▁médico	-8.76751
▁linha	-8.76758
▁Terra	-8.7677
▁cultura	-8.76796
igo	-8.7685
▁mão	-8.76958
▁programa	-8.76967
▁voltar	-8.77436
▁computador	-8.77569
icamente	-8.77731
▁horas	-8.77991
▁histórias	-8.78238
ni	-8.78241
▁100	-8.78286
▁Estado	-8.78523
▁conseguem	-8.78701
▁pro	-8.78795
▁risco	-8.79397
▁suficiente	-8.79398
▁público	-8.79934
▁comida	-8.7995
5	-8.79992
▁chamada	-8.80112
▁50	-8.80176
▁tarde	-8.80475
▁filhos	-8.80521
▁dizem	-8.80762
za	-8.81315
▁ferramenta	-8.81565
amos	-8.81599
iam	-8.81731
▁seguir	-8.81856
▁próximo	-8.82114
▁século	-8.82114
▁passa	-8.82192
▁lei	-8.8238
▁máquina	-8.82667
C	-8.82716
▁querem	-8.82915
▁Nova	-8.82979
ismo	-8.83
▁2	-8.83172
▁tamanho	-8.83222
▁capacidade	-8.83223
▁papel	-8.83223
▁gera	-8.83514
▁Só	-8.83848
▁dele	-8.8413
▁próprio	-8.84231
▁EUA	-8.84343
▁voz	-8.84345
▁termos	-8.84737
ais	-8.84803
ante	-8.84899
▁medida	-8.85025
S	-8.85248
▁torna	-8.85265
▁desafio	-8.85476
tar	-8.85561
▁Ok	-8.85783
▁início	-8.86052
▁conjunto	-8.86067
▁mensage	-8.86068
▁fizemos	-8.86069
▁le	-8.86135
visão	-8.86259
CA	-8.86462
▁disto	-8.86653
▁alta	-8.86818
▁rua	-8.86935
v	-8.86973
▁li	-8.87218
▁compreender	-8.87602
▁aula	-8.8775
▁criança	-8.87933
▁seguinte	-8.88392
▁campo	-8.88525
▁5	-8.88696
teve	-8.8888
4	-8.89072
ido	-8.89092
▁socia	-8.89122
ura	-8.89186
segurança	-8.89406
▁desenvolvimento	-8.89561
▁único	-8.90141
▁junto	-8.90143
▁verdadeira	-8.90177
▁conhecimento	-8.90188
▁levar	-8.90211
▁c	-8.90321
▁fiz	-8.90537
▁ouvir	-8.90665
▁desse	-8.90667
▁Tenho	-8.90745
▁comportamento	-8.90748
bo	-8.90847
▁melhore	-8.90965
line	-8.91
▁carros	-8.91016
▁Do	-8.91136
▁edifício	-8.91343
▁estudante	-8.91348
▁cabeça	-8.91387
ó	-8.91552
▁te	-8.91889
cia	-8.92136
▁pais	-8.92215
▁notícia	-8.92558
▁negócio	-8.92559
▁vir	-8.92651
▁precisam	-8.92823
▁15	-8.9303
▁possa	-8.93132
▁natural	-8.93174
▁Ca	-8.93356
▁M	-8.93565
▁ADN	-8.93789
▁tínhamo	-8.93791
▁colocar	-8.93814
ver	-8.9401
▁doente	-8.94052
▁procura	-8.94108
▁cidades	-8.94167
▁além	-8.94279
nia	-8.94389
▁morte	-8.94524
▁pesquisa	-8.94592
▁Pode	-8.94643
ig	-8.94682
▁marca	-8.94713
ch	-8.94917
▁língua	-8.95035
▁Estou	-8.95089
▁f	-8.95662
▁sucesso	-8.95664
▁última	-8.95664
▁escala	-8.9581
8	-8.95904
▁particular	-8.96297
▁sentir	-8.96685
▁cientista	-8.96934
▁quer	-8.9744
fi	-8.9798
▁vem	-8.98275
9	-8.98501
A	-8.98717
▁violência	-8.9898
▁Tem	-8.99074
▁sabia	-8.99105
▁animais	-8.99138
▁fundo	-8.99146
▁Da	-8.99234
pa	-8.99343
▁equipa	-8.9948
▁Precisa	-8.99486
▁fotografia	-8.99528
ês	-8.99721
▁Ora	-8.9989
bra	-8.99949
▁Estamo	-9.00008
or	-9.00069
I	-9.00177
▁som	-9.00196
▁t	-9.00321
▁loca	-9.00453
▁iria	-9.00471
▁confiança	-9.00844
▁população	-9.00926
▁educação	-9.00995
▁ex	-9.01147
aria	-9.01226
▁mar	-9.01245
▁matemática	-9.0151
▁imaginar	-9.01518
vo	-9.01571
▁201	-9.01582
▁recente	-9.01678
▁efeito	-9.01921
▁hora	-9.01957
jo	-9.02069
▁cria	-9.02107
▁vista	-9.02217
▁passo	-9.02542
▁resolver	-9.02607
▁movimento	-9.02857
▁escrever	-9.02863
▁dá	-9.03037
▁professores	-9.0307
7	-9.03263
▁leva	-9.03533
▁segunda	-9.03537
▁TED	-9.0354
pesar	-9.03626
cento	-9.03808
▁ouvi	-9.03955
▁pa	-9.03998
tro	-9.04023
M	-9.04041
▁centena	-9.04233
▁n	-9.04273
▁sob	-9.04615
▁decidi	-9.04705
▁conversa	-9.04879
▁floresta	-9.04973
▁En	-9.05082
▁continuar	-9.0523
▁can	-9.05593
▁cancro	-9.05609
▁forte	-9.057
tura	-9.05978
nt	-9.06039
ton	-9.06126
quanto	-9.06149
po	-9.06176
▁Existe	-9.06305
▁Primeiro	-9.06305
▁longe	-9.06306
▁situaç	-9.06431
▁teria	-9.06432
▁partilhar	-9.0667
▁Unidos	-9.06882
▁quantidade	-9.0701
▁colega	-9.07018
ur	-9.07023
▁ideias	-9.07201
w	-9.07295
oje	-9.07455
▁su	-9.07469
▁vidas	-9.07578
quê	-9.0759
▁trata	-9.07644
▁serem	-9.07646
▁W	-9.07667
▁design	-9.07682
▁indústria	-9.07719
ário	-9.07886
▁manter	-9.07901
▁Penso	-9.07997
▁L	-9.0803
▁rapid	-9.08476
▁Sabem	-9.0848
▁perto	-9.0857
man	-9.08716
ha	-9.08945
▁atenção	-9.0901
▁viage	-9.09046
▁sair	-9.09086
▁1	-9.09136
▁incrível	-9.0928
▁ler	-9.09641
▁terra	-9.09702
▁Tudo	-9.09933
▁tornou	-9.09969
▁chama	-9.10234
▁espera	-9.10423
▁4	-9.10512
▁instituiç	-9.10607
▁série	-9.10607
▁erro	-9.10628
adas	-9.10871
▁idade	-9.10961
▁tenha	-9.11037
▁Deus	-9.11423
isto	-9.11592
▁decis	-9.11708
▁controlo	-9.12083
▁perguntar	-9.12206
▁auto	-9.12446
▁miúdo	-9.12829
▁laboratório	-9.1283
▁nessa	-9.1283
▁Toda	-9.12846
▁centro	-9.12866
▁China	-9.12892
ndia	-9.12981
tas	-9.13107
▁haver	-9.13263
▁G	-9.13488
▁pre	-9.13509
▁ar	-9.13515
▁mostra	-9.13549
▁escolha	-9.13581
▁obter	-9.1364
it	-9.13884
▁Mo	-9.13888
ja	-9.13981
eiro	-9.14279
▁crescimento	-9.14352
ita	-9.14542
ito	-9.1457
▁inter	-9.1469
▁K	-9.14754
▁comum	-9.14767
▁geral	-9.14896
▁teste	-9.15102
▁possam	-9.15159
▁arma	-9.15252
▁portanto	-9.15494
▁fica	-9.15684
▁40	-9.15798
nd	-9.16023
▁vári	-9.16071
▁consegue	-9.16109
▁anima	-9.16241
pressão	-9.16255
▁Essa	-9.16258
▁R	-9.16524
▁entrar	-9.16538
▁filho	-9.16584
ista	-9.16598
▁amor	-9.166
▁certeza	-9.16647
▁feita	-9.16654
▁sonho	-9.16655
▁Imaginem	-9.16665
▁visto	-9.16669
▁estrada	-9.16767
▁pequenos	-9.17198
▁pessoal	-9.17692
uro	-9.17935
B	-9.18187
▁nuclear	-9.18215
▁impacto	-9.18215
▁resto	-9.18271
tivo	-9.18407
▁nenhum	-9.18453
▁ch	-9.18534
ica	-9.18602
6	-9.18934
▁quest	-9.18995
▁natureza	-9.19009
▁palestra	-9.19009
tor	-9.19084
▁Qual	-9.1941
▁Sou	-9.1945
inha	-9.19737
▁serviço	-9.19809
▁vive	-9.19901
▁fun	-9.19996
▁rapariga	-9.20615
▁filme	-9.20618
▁po	-9.20637
▁alunos	-9.20819
▁livros	-9.20885
▁principal	-9.20942
tic	-9.21011
▁bas	-9.2107
▁importa	-9.21192
▁nenhuma	-9.21209
bu	-9.21287
K	-9.21356
▁carbono	-9.21428
▁começá	-9.21428
passe	-9.21475
▁redes	-9.21607
car	-9.21617
3	-9.21814
▁estiver	-9.2207
▁demasiado	-9.22248
▁caixa	-9.22248
dora	-9.22272
▁fizeram	-9.22359
▁sentimento	-9.2252
ico	-9.22591
▁U	-9.22885
fa	-9.22964
▁político	-9.23075
▁acesso	-9.23075
▁metro	-9.232
▁porta	-9.23836
▁padrões	-9.23908
▁teoria	-9.23908
▁irá	-9.23957
▁funcionar	-9.24099
▁andar	-9.24168
▁disseram	-9.24361
▁sub	-9.24368
▁computadores	-9.24386
ste	-9.24638
▁América	-9.24748
▁Europa	-9.24748
▁nisso	-9.24748
▁recurso	-9.24751
▁rob	-9.24758
▁pior	-9.24916
▁pegar	-9.25038
▁mercado	-9.25201
▁chega	-9.25546
▁líder	-9.25596
▁próxima	-9.25596
▁artista	-9.25596
▁nesse	-9.25598
▁devido	-9.2561
▁Iorqu	-9.25645
▁pensa	-9.25698
▁tu	-9.25772
bi	-9.25814
▁lidar	-9.25853
▁Mai	-9.26047
nta	-9.26079
▁Quer	-9.26294
▁físico	-9.2645
D	-9.2645
▁Ba	-9.26859
▁ensinar	-9.26873
▁Clar	-9.27156
▁Co	-9.27219
▁tecido	-9.27316
▁esperança	-9.27321
▁regra	-9.27383
usando	-9.27394
▁mau	-9.276
▁formas	-9.2772
▁Vi	-9.27728
▁Me	-9.27774
▁pensam	-9.27819
tri	-9.27882
óleo	-9.28183
▁naquele	-9.28186
▁acabar	-9.2819
▁sexo	-9.28191
▁crescer	-9.28379
▁8	-9.28424
dade	-9.28775
▁continua	-9.28823
▁super	-9.29002
▁aprendi	-9.29024
▁inteligente	-9.29059
▁física	-9.29062
▁presente	-9.29063
▁plano	-9.29138
▁consig	-9.29237
▁Ao	-9.29525
▁cara	-9.29539
▁Ma	-9.29628
▁necessário	-9.29947
lmente	-9.302
▁tomar	-9.30383
▁aumentar	-9.30585
▁pontos	-9.30653
▁seis	-9.30759
▁mapa	-9.30849
▁tecnologias	-9.31199
▁transforma	-9.31281
▁ensino	-9.31414
gar	-9.31562
▁apó	-9.31594
▁buraco	-9.31738
▁indivíduo	-9.31738
▁página	-9.31738
▁18	-9.31755
▁necessidade	-9.31756
▁melhorar	-9.3184
▁gostaria	-9.31939
▁senti	-9.32192
▁25	-9.3232
▁perguntas	-9.32401
▁on	-9.32515
▁trans	-9.32583
▁semelhante	-9.32647
▁profunda	-9.32647
▁tanta	-9.32654
▁exatamente	-9.32681
▁ce	-9.3271
▁custo	-9.32732
sangue	-9.32801
▁posiç	-9.32821
▁sejam	-9.32828
▁bon	-9.33056
P	-9.33089
▁neurónios	-9.33178
▁Al	-9.3336
▁telemóve	-9.33564
▁Goog	-9.33565
▁errado	-9.33566
▁parede	-9.3359
▁alto	-9.33673
▁material	-9.33901
ávamos	-9.34272
▁pedir	-9.343
io	-9.343
▁explicar	-9.3447
▁Músic	-9.3449
▁complexo	-9.3449
▁bebé	-9.34491
▁muda	-9.3477
▁Le	-9.3491
aram	-9.35155
▁assunto	-9.35425
▁contrário	-9.35425
▁livre	-9.35425
▁representa	-9.35495
▁emprego	-9.35541
▁liga	-9.35606
▁Estava	-9.35655
▁fundamental	-9.35744
▁terem	-9.35809
▁morrer	-9.35833
▁professor	-9.36071
ente	-9.36073
nda	-9.36184
im	-9.36205
▁altera	-9.3625
▁linguage	-9.36368
▁negro	-9.36368
▁jogo	-9.36369
▁opera	-9.36475
▁mundial	-9.36498
▁próprios	-9.36556
tal	-9.36683
▁houve	-9.3685
▁Tinha	-9.36889
unca	-9.37309
▁preço	-9.37321
▁rápido	-9.37321
▁projecto	-9.37321
▁revoluç	-9.37322
▁mudou	-9.37341
▁metade	-9.37416
▁aprendiz	-9.3742
▁falta	-9.37512
▁ma	-9.37808
▁religi	-9.38276
▁petr	-9.38286
▁económico	-9.38377
▁so	-9.38599
▁60	-9.38651
ad	-9.3868
▁tirar	-9.38697
▁Po	-9.38867
ng	-9.39035
eira	-9.39152
▁democracia	-9.39253
▁vivo	-9.39256
▁desejo	-9.39262
▁oito	-9.39333
▁foto	-9.39833
▁entender	-9.39882
▁Fu	-9.39894
▁tivesse	-9.39927
O	-9.40042
ula	-9.40044
▁devem	-9.40227
▁Vejam	-9.40234
▁seguro	-9.40234
iz	-9.40237
▁fonte	-9.4031
ava	-9.4032
▁via	-9.40359
ã	-9.40598
▁permite	-9.40683
▁Te	-9.40936
▁carta	-9.41223
▁fantástico	-9.41224
▁possibilidade	-9.41224
▁inovaç	-9.41225
▁desenvolver	-9.41313
▁90	-9.41624
▁fotos	-9.41651
▁sol	-9.41786
era	-9.41895
▁uso	-9.41929
gue	-9.41946
▁digital	-9.42037
istas	-9.42102
▁comer	-9.42204
▁Sabe	-9.42219
▁pedaço	-9.42224
▁interesse	-9.42226
▁Algu	-9.42425
iza	-9.42445
gem	-9.42555
▁deveria	-9.42851
▁par	-9.42876
▁verde	-9.42892
▁massa	-9.42905
▁conseguia	-9.43058
▁princípio	-9.43234
▁fazia	-9.43234
der	-9.43288
▁tratamento	-9.43296
▁curso	-9.43324
tido	-9.43417
▁clara	-9.43859
▁feliz	-9.43956
▁igual	-9.44024
gen	-9.44172
▁molécula	-9.44254
▁17	-9.44272
▁observa	-9.44373
▁tenta	-9.44834
▁olha	-9.44842
▁sítio	-9.45152
▁código	-9.45285
▁superfície	-9.45285
▁acredito	-9.45285
▁Ro	-9.45288
bvia	-9.45297
ard	-9.4549
▁embora	-9.45593
▁ti	-9.45759
▁80	-9.4576
▁cuidados	-9.45938
▁comprar	-9.45988
▁qualidade	-9.46032
bro	-9.46294
▁liberdade	-9.46327
▁branco	-9.46327
▁prática	-9.46327
▁malária	-9.46337
▁vivem	-9.46441
▁deixa	-9.46548
▁rea	-9.4671
ho	-9.46818
▁boas	-9.46859
▁fe	-9.46901
▁Oh	-9.4692
▁trás	-9.47178
▁oceano	-9.4735
du	-9.47369
▁memória	-9.47379
▁levou	-9.47379
▁abelha	-9.4738
▁correr	-9.47417
▁organizaç	-9.47417
ven	-9.47417
▁descoberta	-9.47422
▁membro	-9.47573
▁procurar	-9.47593
▁repent	-9.47731
▁tenham	-9.47826
▁consci	-9.47899
▁devemos	-9.4831
▁g	-9.48343
▁responder	-9.48439
▁câmara	-9.48443
▁faço	-9.48443
▁potencial	-9.48443
▁conceito	-9.48448
▁pensamento	-9.48511
▁Bom	-9.48568
▁bili	-9.48634
▁usam	-9.48689
▁estudar	-9.48752
anha	-9.48834
izar	-9.48838
▁escolher	-9.49425
▁12	-9.49506
▁dispositivo	-9.49518
▁velocidade	-9.49518
▁digo	-9.49564
cor	-9.49589
▁solar	-9.49627
ie	-9.49672
▁pagar	-9.49689
▁extrema	-9.49874
▁usado	-9.49934
enta	-9.49975
ável	-9.50055
H	-9.50108
▁fi	-9.5018
▁materia	-9.50207
▁sete	-9.50242
▁aplica	-9.50257
▁tiver	-9.50382
nas	-9.50445
▁hipótese	-9.50605
▁objetivo	-9.50605
▁disponíve	-9.50605
▁esquerda	-9.50607
▁acordo	-9.50613
▁daquele	-9.50614
▁Neste	-9.50652
▁condiç	-9.50653
▁Deixem	-9.50685
▁mãos	-9.50698
▁pensem	-9.50711
L	-9.5082
▁povo	-9.50911
mbos	-9.50952
▁baixa	-9.51168
▁podiam	-9.51355
▁Pensem	-9.5149
▁produç	-9.51511
▁Ach	-9.51627
▁distância	-9.51705
▁velho	-9.51705
▁gráfico	-9.51706
▁média	-9.51707
▁quarto	-9.51707
▁Parece	-9.51708
▁estive	-9.51852
▁frequente	-9.51907
▁evolu	-9.51916
▁crise	-9.51933
▁ba	-9.51962
▁b	-9.51971
▁Ap	-9.52216
ze	-9.52216
▁ia	-9.52366
▁dire	-9.5237
▁nasce	-9.52438
be	-9.52479
▁6	-9.52496
cha	-9.52545
ú	-9.52555
▁sa	-9.52725
▁ameaça	-9.52815
▁vítima	-9.52815
▁cadeia	-9.52816
▁interior	-9.52816
▁taxa	-9.52816
▁verdadeiro	-9.52868
▁70	-9.52969
▁op	-9.53113
▁produtos	-9.53147
▁essencial	-9.53162
ira	-9.53196
▁vó	-9.5328
sta	-9.53465
00	-9.53776
dia	-9.53823
▁documento	-9.53939
▁técnica	-9.53939
▁mental	-9.54008
▁entra	-9.5418
▁manhã	-9.54498
ud	-9.54535
▁chamamos	-9.54732
▁ouvido	-9.54796
▁depende	-9.54893
▁rapaz	-9.55076
▁veem	-9.55084
▁11	-9.55136
▁motor	-9.55237
▁poderá	-9.55314
▁usada	-9.55478
▁gosto	-9.55525
▁cont	-9.556
E	-9.55603
qui	-9.55687
inho	-9.55729
lá	-9.55869
▁Ser	-9.56047
tru	-9.56075
▁favor	-9.56077
▁humanidade	-9.56225
▁objeto	-9.56225
▁transporte	-9.56225
▁vacina	-9.56226
▁Quanto	-9.56228
▁limite	-9.56236
▁poderoso	-9.56237
▁varia	-9.56246
▁Esse	-9.56249
ite	-9.5625
▁Gr	-9.56285
▁imagina	-9.56303
▁genes	-9.56309
cul	-9.56359
▁Qua	-9.56546
▁enviar	-9.56754
▁usa	-9.56784
▁produzir	-9.57011
▁naquela	-9.57403
▁roda	-9.57423
▁surpreendente	-9.57432
▁transformar	-9.57489
▁parar	-9.5753
▁absoluta	-9.57613
▁medi	-9.57737
nça	-9.58021
▁porquê	-9.58179
um	-9.58351
▁luta	-9.58367
▁permitir	-9.58484
▁produto	-9.58516
▁anterior	-9.58564
▁vejo	-9.58565
▁aspeto	-9.58565
▁matéria	-9.58566
▁ataque	-9.58598
▁cidadão	-9.58633
▁incri	-9.58661
▁abrir	-9.58702
T	-9.59007
▁7	-9.59276
▁ficam	-9.59336
▁La	-9.59354
nce	-9.59421
▁planta	-9.59678
▁familiar	-9.59748
ador	-9.59753
▁partícula	-9.59755
▁abordage	-9.59755
▁pouca	-9.59755
▁norte	-9.59768
▁conflito	-9.59803
▁aumento	-9.59813
▁Ra	-9.59966
▁199	-9.60152
▁juntar	-9.60289
▁Som	-9.60386
▁descobrimo	-9.60456
th	-9.60529
▁encontra	-9.60537
▁esperar	-9.60584
▁Li	-9.6061
▁regi	-9.60651
tado	-9.60778
at	-9.60882
▁aspecto	-9.60959
▁período	-9.60959
▁tarefa	-9.60959
▁acreditar	-9.61031
je	-9.61078
▁saí	-9.61493
▁cola	-9.61508
▁parecer	-9.61557
▁Pe	-9.61648
▁preocupa	-9.61992
▁veio	-9.6218
▁topo	-9.62185
▁investigaç	-9.62188
▁recebe	-9.62306
▁parque	-9.62458
▁Pa	-9.62498
ém	-9.62607
▁lembrar	-9.62674
cção	-9.62928
▁Chama	-9.62971
▁querer	-9.63033
el	-9.63122
bilidade	-9.63241
▁estranho	-9.63248
▁observar	-9.6327
▁atual	-9.63369
cidade	-9.63404
▁companhia	-9.63413
▁época	-9.63414
▁imediata	-9.63414
▁ingl	-9.63436
▁duma	-9.63575
tou	-9.63606
▁fizer	-9.63617
▁fala	-9.63725
entes	-9.63799
▁pod	-9.63819
▁pois	-9.63869
▁sensaç	-9.6394
▁Jo	-9.64194
▁13	-9.64202
iva	-9.64219
▁salvar	-9.64378
▁aumenta	-9.64411
ncia	-9.6448
▁percebi	-9.645
tivos	-9.6461
▁paciente	-9.64663
▁rendimento	-9.64663
▁bloco	-9.64664
▁vír	-9.64664
▁Têm	-9.64664
▁Univers	-9.64666
▁constante	-9.64667
▁Pro	-9.6473
▁interessa	-9.64733
min	-9.64768
▁abaixo	-9.64774
▁pública	-9.64816
▁In	-9.6492
▁norma	-9.6511
▁partilha	-9.65126
▁Est	-9.65434
▁junta	-9.65519
▁ligar	-9.65562
▁esforço	-9.65929
▁genoma	-9.65929
▁método	-9.65929
▁década	-9.6598
▁explica	-9.6598
▁lista	-9.65987
▁literal	-9.66026
cre	-9.66238
cina	-9.66373
bri	-9.66411
▁vêem	-9.66418
▁conduzir	-9.6648
▁car	-9.66502
▁dança	-9.66732
▁utiliza	-9.67021
fiquei	-9.6714
▁sinto	-9.67192
▁céu	-9.67211
▁Tive	-9.67231
▁amostra	-9.67245
urante	-9.67556
▁sinal	-9.67682
▁começam	-9.6788
▁diria	-9.67952
▁ignor	-9.68025
▁descobri	-9.68338
▁milh	-9.68412
▁bairro	-9.6851
▁droga	-9.6851
▁tendência	-9.6851
▁superior	-9.6851
▁zona	-9.68511
génio	-9.68511
▁inteiro	-9.68517
▁Muita	-9.68518
▁aberto	-9.6852
por	-9.68696
▁fal	-9.68844
▁cá	-9.68935
▁i	-9.68948
▁Lo	-9.68971
ização	-9.6929
▁deixem	-9.69516
iro	-9.69564
up	-9.6957
▁inf	-9.69608
▁custos	-9.69702
▁prazo	-9.69828
▁trazer	-9.69864
cional	-9.69973
▁hospital	-9.70008
▁traz	-9.70058
có	-9.701
▁mor	-9.70149
▁imp	-9.70191
▁compaixão	-9.70232
▁bola	-9.70234
▁modelos	-9.70314
pensamos	-9.70398
▁inc	-9.70436
▁trabalhador	-9.70605
▁autor	-9.70622
izado	-9.7078
▁ligaç	-9.70896
▁ganhar	-9.71056
ações	-9.71098
▁eficaz	-9.71159
▁filha	-9.71162
▁extra	-9.71169
▁antigo	-9.71174
▁peso	-9.71175
▁Outra	-9.71206
▁perder	-9.71271
▁pi	-9.71406
bil	-9.71839
ge	-9.71946
▁tra	-9.72058
▁acha	-9.72172
▁Sa	-9.72184
▁exacta	-9.72231
ix	-9.72246
ivo	-9.72399
▁braço	-9.72511
▁longa	-9.72511
▁palco	-9.72511
▁universidade	-9.72516
▁antiga	-9.72531
▁lutar	-9.72826
▁unidade	-9.72834
▁toca	-9.72871
▁camada	-9.72877
▁explora	-9.72883
▁capital	-9.72913
▁Di	-9.72976
mina	-9.73189
ment	-9.73277
baixo	-9.73548
▁divers	-9.73553
▁devia	-9.73729
ficou	-9.73761
▁epidemia	-9.7388
▁polícia	-9.7388
▁responsáve	-9.7388
▁barato	-9.73881
▁campanha	-9.73883
▁km	-9.73912
▁sobreviver	-9.73955
▁direita	-9.73994
▁sina	-9.74084
este	-9.7417
▁fomos	-9.74281
tade	-9.74388
▁cri	-9.74497
▁gostam	-9.74506
▁passou	-9.74533
R	-9.7477
ger	-9.74826
▁diga	-9.74942
▁parecem	-9.75107
▁nove	-9.75149
▁Facebook	-9.75269
▁brilhante	-9.75269
▁ecrã	-9.75269
▁fábrica	-9.75269
▁Posso	-9.75273
▁pris	-9.75286
▁Alguma	-9.75321
▁pudesse	-9.75498
▁perna	-9.75603
▁conhecer	-9.75608
▁pena	-9.75616
▁v	-9.7585
ten	-9.75856
▁pare	-9.7599
▁import	-9.75997
▁fa	-9.7603
▁Ri	-9.76218
▁apresenta	-9.76326
▁vale	-9.76326
▁irmão	-9.76326
▁Mesm	-9.76367
▁poderiam	-9.76386
mês	-9.76534
ídeo	-9.76675
▁climática	-9.76678
▁contexto	-9.76678
▁objecto	-9.76678
▁padrão	-9.76678
▁saudáve	-9.76678
▁impossíve	-9.76678
▁mover	-9.76692
▁GP	-9.76695
▁Orient	-9.76722
▁daquela	-9.7673
▁media	-9.76756
▁bomba	-9.76779
▁Su	-9.76824
▁funcionam	-9.76945
▁conhecido	-9.76969
ion	-9.77021
▁tens	-9.7715
▁sort	-9.772
▁cirurgia	-9.77252
▁vimos	-9.77455
▁frase	-9.7761
▁comunidades	-9.77613
gás	-9.77738
▁encontro	-9.77781
▁ta	-9.77878
▁escrito	-9.77909
responsabilidade	-9.78106
▁bactéria	-9.78106
▁perspetiva	-9.78106
▁química	-9.78106
▁telefone	-9.78106
▁veículo	-9.78106
▁ju	-9.78107
▁perfeita	-9.78141
▁poderosa	-9.78199
▁terríve	-9.7822
▁Num	-9.78274
▁precis	-9.78296
▁pé	-9.78334
▁Nem	-9.78392
▁Ar	-9.78469
war	-9.78577
rei	-9.78603
▁aparecer	-9.78625
▁cal	-9.78665
▁chamar	-9.78738
▁medic	-9.78875
▁chave	-9.78891
ic	-9.78912
▁desenvolve	-9.78922
▁mesa	-9.79087
▁nota	-9.79167
nho	-9.79199
▁fossem	-9.79208
▁tema	-9.79243
ed	-9.7941
▁bi	-9.7949
▁eleiç	-9.79496
▁9	-9.79507
▁opini	-9.79556
▁peixe	-9.79556
▁proteína	-9.79556
▁excelente	-9.79556
▁azul	-9.79556
▁biologia	-9.7956
▁investimento	-9.79585
▁bal	-9.79601
▁grau	-9.79807
▁soft	-9.79818
▁Tom	-9.7996
▁Ei	-9.80002
▁Bo	-9.80033
mar	-9.8021
▁tornam	-9.80438
▁perda	-9.80447
tório	-9.80561
ry	-9.80586
▁tocar	-9.80678
▁tua	-9.8074
com	-9.80782
▁reconhecer	-9.80834
▁alimentar	-9.80885
he	-9.81024
▁análise	-9.81026
▁aparelho	-9.81026
▁consequência	-9.81026
▁sozinho	-9.81028
vários	-9.81234
▁busca	-9.81247
▁far	-9.81274
▁14	-9.81313
▁terceiro	-9.81635
▁onda	-9.81725
▁fé	-9.8181
▁árvores	-9.81812
▁daqui	-9.81843
▁teu	-9.81859
▁impress	-9.81979
▁morta	-9.8198
▁peça	-9.82175
j	-9.82269
▁visual	-9.825
▁chego	-9.82526
cra	-9.82783
▁demonstra	-9.82806
bre	-9.82845
ticamente	-9.82922
par	-9.8314
▁Car	-9.83224
▁utilizar	-9.83462
▁rio	-9.83476
▁ab	-9.83509
lin	-9.83815
▁Nos	-9.84023
▁Nin	-9.84034
▁dificuldade	-9.84034
▁fronteira	-9.84034
▁aldeia	-9.84034
▁convosco	-9.84034
▁janela	-9.84034
▁ritmo	-9.84034
▁pele	-9.84037
▁depressa	-9.84039
▁encontrei	-9.84044
▁Sul	-9.84045
▁sério	-9.84048
▁carv	-9.84051
▁aranha	-9.84072
id	-9.84241
▁Hav	-9.84281
▁corre	-9.84449
▁esteja	-9.84688
éis	-9.8483
▁acham	-9.84864
▁Des	-9.84946
▁considerar	-9.85038
veis	-9.85077
ect	-9.85127
▁matar	-9.85556
▁invisíve	-9.85572
▁sequência	-9.85572
▁errada	-9.85575
▁cadeira	-9.85576
▁logo	-9.85577
▁gene	-9.85586
son	-9.8568
▁segura	-9.85717
▁Certo	-9.85724
▁alcançar	-9.85728
tores	-9.85734
▁seda	-9.85919
missão	-9.86016
▁viva	-9.86017
▁gosta	-9.8609
▁h	-9.86094
▁comun	-9.86152
lho	-9.86205
sistência	-9.86235
tá	-9.86451
ck	-9.86551
▁Fa	-9.86739
▁comunica	-9.86756
ária	-9.8695
▁Vo	-9.87125
▁fantástica	-9.87135
▁propriedade	-9.87135
▁rosto	-9.87135
▁respeito	-9.87136
▁Chris	-9.87138
▁quilómetro	-9.87146
ália	-9.87283
▁avi	-9.87302
▁usamo	-9.87351
mpre	-9.87411
▁informa	-9.87541
▁nacional	-9.87568
enas	-9.87583
▁dimens	-9.87648
▁espero	-9.87706
tina	-9.87746
nosco	-9.87897
▁fo	-9.88096
ifica	-9.8824
▁significado	-9.88583
▁morre	-9.88641
▁aplicaç	-9.88667
lém	-9.88709
▁son	-9.88716
▁galáxia	-9.88722
▁árabe	-9.88722
▁ponta	-9.88753
▁von	-9.88757
▁receber	-9.88763
▁Vai	-9.88846
tais	-9.88873
ler	-9.89012
▁competi	-9.8903
▁Ga	-9.8919
▁pensava	-9.892
pol	-9.89208
▁tiveram	-9.89251
▁controlar	-9.89312
▁Man	-9.89459
▁cart	-9.89577
chi	-9.89598
▁parecia	-9.89636
▁perde	-9.89767
▁dor	-9.89839
▁acaba	-9.90113
mbi	-9.9013
▁décadas	-9.90271
▁facil	-9.90319
▁agricultor	-9.90335
▁científica	-9.90335
▁fenómeno	-9.90335
▁insecto	-9.90335
▁propósito	-9.90335
▁rápida	-9.90335
▁género	-9.90335
▁apoio	-9.90336
▁necessária	-9.90337
▁cheia	-9.90346
▁micro	-9.9035
▁debate	-9.90374
▁The	-9.90396
▁meta	-9.90423
▁bocado	-9.90542
▁cai	-9.90612
▁felizes	-9.9081
▁16	-9.90823
▁proteger	-9.90854
▁sendo	-9.90936
▁cama	-9.91035
cabou	-9.91136
mais	-9.91137
ível	-9.91142
▁puder	-9.91241
▁coloca	-9.91398
mba	-9.9153
pul	-9.91625
▁considera	-9.91778
▁cliente	-9.91974
▁complexidade	-9.91974
▁conteúdo	-9.91974
▁escrita	-9.91974
▁vermelho	-9.91975
▁imaginem	-9.91975
▁extraordinária	-9.91975
▁Acredit	-9.91977
▁idoso	-9.91983
▁Irão	-9.91984
▁pronto	-9.91984
▁exce	-9.9199
▁cego	-9.92017
▁calor	-9.92076
▁monte	-9.92078
ibilidade	-9.92153
▁lix	-9.92212
tei	-9.9227
ensa	-9.92288
▁custa	-9.92372
▁anti	-9.92396
▁explorar	-9.92519
▁sai	-9.92553
▁Lu	-9.92613
▁compreens	-9.9266
cho	-9.92702
▁aprendemo	-9.92768
▁vindo	-9.92811
▁Ka	-9.92934
▁tom	-9.93002
fo	-9.93075
▁guarda	-9.93096
▁encontramo	-9.93128
▁Mar	-9.93305
▁segui	-9.93316
▁vejam	-9.93323
▁estivesse	-9.93381
dito	-9.93447
▁Afeganistão	-9.93641
▁perguntei	-9.93641
▁pintura	-9.93641
▁mistura	-9.93642
▁terreno	-9.93645
▁aberta	-9.93657
▁americano	-9.93675
▁cabo	-9.93694
U	-9.93695
▁compra	-9.93802
▁alimento	-9.93854
▁central	-9.93889
▁especialista	-9.93915
▁compara	-9.93947
riam	-9.94066
▁irmã	-9.94083
▁adora	-9.94177
▁ben	-9.9466
▁sab	-9.94673
▁estud	-9.9472
▁elementos	-9.94768
tual	-9.94913
▁Mi	-9.9498
▁precisava	-9.94995
▁Uni	-9.95154
ber	-9.95227
▁d	-9.95261
▁Acontece	-9.95336
▁espírito	-9.95336
▁maravilhosa	-9.95336
▁sustentáve	-9.95336
▁órgão	-9.95336
▁curva	-9.95336
▁artigo	-9.95336
▁texto	-9.95337
beleza	-9.95341
ren	-9.95343
▁agir	-9.95344
▁registo	-9.95351
▁marido	-9.95372
▁paz	-9.95419
wa	-9.9542
▁morto	-9.95457
▁comunicaç	-9.95615
▁ge	-9.95642
▁Dr	-9.95918
per	-9.95965
▁orige	-9.95975
▁alvo	-9.95996
▁criação	-9.96115
paixão	-9.96279
▁lembra	-9.96363
▁Per	-9.9642
▁construç	-9.96525
▁decidir	-9.9678
and	-9.9689
▁presidente	-9.9706
▁temperatura	-9.9706
▁genética	-9.9706
▁inteira	-9.9706
▁Médio	-9.97063
▁desenho	-9.97068
▁visita	-9.97086
▁carne	-9.97089
▁usá	-9.97095
▁viram	-9.97135
▁viu	-9.97159
▁cuidado	-9.97232
zi	-9.97288
▁liberta	-9.97399
▁fic	-9.9747
▁tira	-9.97482
▁Mu	-9.97523
▁queriam	-9.97559
pat	-9.97774
iu	-9.97784
▁estrelas	-9.98013
▁tornaram	-9.98058
qu	-9.98082
▁ligado	-9.98113
▁alimenta	-9.9857
ordem	-9.98733
▁complexa	-9.98814
▁inteligência	-9.98814
▁silêncio	-9.98814
▁afirma	-9.98814
▁cálculo	-9.98814
▁arquitet	-9.98815
▁fogo	-9.98833
▁incluindo	-9.98834
▁perfeito	-9.98838
▁pratica	-9.98839
▁menor	-9.98845
▁reforma	-9.98846
▁detalhe	-9.98856
▁24	-9.9886
▁cresce	-9.98923
ores	-9.98924
▁avó	-9.98965
N	-9.98983
▁moderno	-9.99025
▁adoro	-9.99049
▁sexual	-9.99096
▁sentem	-9.99144
▁maneiras	-9.99233
▁gest	-9.99312
▁estrela	-9.99623
▁envia	-9.99829
▁terceir	-9.99911
▁má	-9.99918
G	-9.99967
▁terminar	-10.0011
▁encontrámo	-10.0028
▁existir	-10.0047
▁rei	-10.0057
▁Descobri	-10.006
▁Natureza	-10.006
▁dúvida	-10.006
▁stress	-10.006
▁extraordinário	-10.006
▁dizia	-10.0061
▁moral	-10.0064
▁acredita	-10.0064
▁areia	-10.0064
tur	-10.0068
▁caro	-10.0068
▁pão	-10.0084
final	-10.0084
▁enfrentar	-10.0089
▁falha	-10.0099
▁conhecemos	-10.01
by	-10.0102
▁fase	-10.0102
▁actual	-10.0132
▁mercados	-10.0144
▁profissiona	-10.0178
▁gra	-10.0184
▁aceitar	-10.0185
adores	-10.0187
▁tratar	-10.0189
▁public	-10.0209
▁trabalh	-10.021
zo	-10.0217
▁perigo	-10.0221
ust	-10.0238
▁científico	-10.0242
▁exterior	-10.0242
▁imenso	-10.0242
▁infeliz	-10.0242
▁tradicional	-10.0242
▁nela	-10.0245
▁rico	-10.0248
▁Pens	-10.0254
xpressão	-10.026
▁ponte	-10.0263
▁localiza	-10.0269
▁baseado	-10.0277
▁senhor	-10.0284
▁evitar	-10.0284
▁primo	-10.0285
MS	-10.0286
art	-10.0287
▁site	-10.0292
cedo	-10.0294
▁mi	-10.0301
▁Ver	-10.0302
▁medir	-10.0307
▁eficiente	-10.0308
▁sul	-10.0331
▁ri	-10.0333
▁permitem	-10.0342
▁indica	-10.0367
▁produz	-10.0378
ndi	-10.0411
▁John	-10.0427
▁escritório	-10.0427
▁maravilhoso	-10.0427
▁útil	-10.0427
▁carreira	-10.0427
▁vantage	-10.0427
▁característica	-10.0427
▁quanta	-10.0427
▁imensa	-10.0427
▁banco	-10.0427
▁198	-10.0428
▁tumor	-10.0429
▁nele	-10.043
▁brincar	-10.043
▁sombra	-10.043
▁motivo	-10.0434
▁canto	-10.044
▁passei	-10.045
▁emocional	-10.0453
▁zero	-10.0459
▁faria	-10.0471
▁casamento	-10.0476
▁aparece	-10.0502
▁falamos	-10.0515
▁fio	-10.052
▁popular	-10.0522
▁criado	-10.0532
▁Cha	-10.0561
▁comunicar	-10.0564
▁solo	-10.0582
▁chamo	-10.0584
bel	-10.059
▁quiser	-10.0598
▁medicamentos	-10.0602
▁conseguiu	-10.0605
▁difíc	-10.0614
▁Higgs	-10.0616
▁componente	-10.0616
▁mosquito	-10.0616
▁prazer	-10.0616
▁roupa	-10.0616
▁chuva	-10.0616
▁graça	-10.0616
▁vento	-10.0616
▁obrigada	-10.0623
▁obte	-10.0625
bol	-10.0625
▁gelo	-10.0626
▁preso	-10.0643
ide	-10.0646
▁sentado	-10.0647
▁colo	-10.0667
▁500	-10.0668
ent	-10.0674
▁raio	-10.0695
▁interessado	-10.0712
▁acreditam	-10.0723
▁est	-10.0724
▁Ador	-10.0726
▁limita	-10.073
▁troca	-10.0735
▁Sh	-10.0746
▁be	-10.0752
▁incríve	-10.0774
▁descrev	-10.0775
▁sal	-10.0785
ac	-10.0794
▁Vemo	-10.0808
ído	-10.0808
▁alternativa	-10.0808
▁estranha	-10.0808
▁identidade	-10.0808
▁pedra	-10.0808
▁económica	-10.0808
▁comentário	-10.0808
▁breve	-10.0808
▁felic	-10.0808
▁implica	-10.0809
rosa	-10.0809
▁chip	-10.0809
▁fibra	-10.081
▁chegue	-10.0811
▁letra	-10.0813
▁condutor	-10.0813
▁independente	-10.0818
▁costumava	-10.0819
▁proje	-10.0819
▁analisar	-10.0828
▁moderna	-10.0828
▁lar	-10.0838
▁ganha	-10.0838
▁original	-10.0847
mor	-10.0854
▁Du	-10.0861
▁bot	-10.0863
▁dão	-10.0867
▁lu	-10.0887
ine	-10.0894
▁criativ	-10.0895
▁civil	-10.09
▁falam	-10.0901
▁direta	-10.0904
▁x	-10.0923
▁300	-10.0947
trás	-10.0956
▁alterar	-10.0959
▁percebe	-10.0963
▁toma	-10.0979
▁paga	-10.098
▁rec	-10.0993
▁pré	-10.1004
▁algoritmo	-10.1004
▁barreira	-10.1004
▁estratégia	-10.1004
▁expans	-10.1004
▁frequência	-10.1004
▁micróbio	-10.1004
▁museu	-10.1004
▁médica	-10.1004
▁História	-10.1004
▁Mundial	-10.1004
▁cabelo	-10.1004
▁provável	-10.1004
▁químico	-10.1004
▁New	-10.1004
▁negra	-10.1004
▁montanha	-10.1004
▁fazerem	-10.1004
▁lembro	-10.1004
▁fixe	-10.1005
▁costa	-10.1011
tude	-10.1016
▁equipamento	-10.1017
▁Trata	-10.1021
▁direcç	-10.1042
eza	-10.1047
▁meia	-10.1047
che	-10.105
▁voar	-10.1057
▁apresentar	-10.1059
▁participa	-10.106
▁Sem	-10.1062
▁frio	-10.1065
creio	-10.1098
▁testar	-10.1113
▁revela	-10.113
▁atingir	-10.1135
▁notas	-10.1141
ografia	-10.1165
▁defini	-10.1169
▁rep	-10.1175
▁quisere	-10.1178
tem	-10.1179
▁existia	-10.1188
▁ratos	-10.1192
▁resulta	-10.1199
▁Twitt	-10.1204
▁automóve	-10.1204
▁benefício	-10.1204
▁individuais	-10.1204
▁treino	-10.1204
▁profundo	-10.1204
▁consumo	-10.1204
▁estilo	-10.1204
▁deixou	-10.1204
▁evento	-10.1204
▁cheio	-10.1205
▁acidente	-10.1206
▁tradiç	-10.1206
▁Gostaria	-10.1207
▁Sol	-10.1208
▁jornalista	-10.1209
▁avançar	-10.1211
▁perigoso	-10.1212
▁falso	-10.122
▁ho	-10.1232
▁magi	-10.1244
▁reuni	-10.1262
lhar	-10.1276
ke	-10.1282
▁adolescentes	-10.1283
▁corte	-10.13
▁requer	-10.1311
▁faça	-10.132
▁sentimo	-10.1369
▁utilizador	-10.137
▁situa	-10.1373
▁relativa	-10.1374
▁afastar	-10.1375
ámo	-10.138
▁Fi	-10.1392
dura	-10.1397
▁repara	-10.1404
▁batalha	-10.1408
▁ecossistema	-10.1408
▁instrumento	-10.1408
▁quadrado	-10.1408
▁noutro	-10.1409
▁loja	-10.1409
▁crença	-10.1409
▁vizinho	-10.1409
▁audiência	-10.1409
▁tentativa	-10.1411
▁Bras	-10.1411
▁cami	-10.1412
▁nuve	-10.1417
▁Foram	-10.1427
▁patente	-10.1428
cri	-10.1432
▁preto	-10.1434
▁motiva	-10.145
▁Cad	-10.1466
▁mentira	-10.1472
▁Tra	-10.1487
▁leve	-10.149
▁poupar	-10.1508
cidental	-10.1527
▁reduzir	-10.1533
▁inspira	-10.1572
▁dez	-10.1572
▁respira	-10.1583
ow	-10.1598
▁litera	-10.1601
lan	-10.1602
▁grave	-10.1607
▁flutua	-10.1616
▁segredo	-10.1616
▁inovador	-10.1617
▁rádio	-10.1617
▁orienta	-10.1617
▁menina	-10.1617
▁elevado	-10.1621
▁desaparece	-10.1621
▁bio	-10.1625
▁africano	-10.1627
▁conhecem	-10.1638
▁escolhe	-10.1639
bor	-10.1645
▁larga	-10.1652
▁consciente	-10.1653
▁peças	-10.1665
▁apanhar	-10.1668
▁encontram	-10.1685
▁pista	-10.1692
▁pude	-10.1693
▁quinta	-10.1693
ip	-10.1696
▁ganho	-10.1698
caso	-10.171
▁conheci	-10.1722
lica	-10.1725
ana	-10.1727
▁atividade	-10.1736
▁conclus	-10.1737
ord	-10.174
▁priva	-10.1741
▁preve	-10.1751
▁dura	-10.1763
cionais	-10.1794
▁desaparecer	-10.1826
▁cenário	-10.1829
▁explos	-10.1829
▁fascinante	-10.1829
▁mecânica	-10.1829
▁estatística	-10.1829
▁quadro	-10.1829
▁Calif	-10.1829
▁discuss	-10.1829
▁acessíve	-10.1829
▁fazendo	-10.1829
▁ótimo	-10.183
nstein	-10.183
▁espantoso	-10.183
▁rato	-10.1844
feira	-10.1848
ciona	-10.1851
▁Pelo	-10.1865
▁construído	-10.1867
▁construída	-10.187
▁soa	-10.187
▁escuro	-10.1871
▁prote	-10.1873
dio	-10.1887
▁investir	-10.1891
▁perce	-10.1912
ley	-10.1912
ex	-10.1914
▁publica	-10.1948
▁infe	-10.1952
▁principa	-10.1959
▁libertar	-10.1968
amento	-10.1974
▁soube	-10.1975
IB	-10.1982
▁digita	-10.2001
ez	-10.2007
▁Fo	-10.2029
▁Mé	-10.2042
▁Israel	-10.2046
▁olhem	-10.2046
▁admira	-10.2047
▁mecanismo	-10.2047
▁perspectiva	-10.2047
▁reconstruir	-10.2047
▁riqueza	-10.2047
▁surpresa	-10.2047
▁símbolo	-10.2047
▁tradicionais	-10.2047
▁progresso	-10.2047
▁comp	-10.2047
▁descrever	-10.2052
▁dezena	-10.2058
▁designer	-10.2058
▁sentia	-10.206
▁Col	-10.2067
▁combustível	-10.2068
▁bl	-10.2069
▁bela	-10.207
▁impr	-10.2075
▁Lond	-10.209
50	-10.21
etc	-10.2104
F	-10.2106
▁reparar	-10.2113
for	-10.2127
▁façam	-10.2142
▁entrevista	-10.2144
▁pés	-10.2146
▁quis	-10.2148
▁sustenta	-10.2161
▁cirurgi	-10.2179
▁salva	-10.2199
pós	-10.2209
▁trabalha	-10.2209
órni	-10.2225
▁Har	-10.2237
▁boca	-10.2241
▁ultrapassar	-10.2246
▁roub	-10.226
tância	-10.2261
▁governa	-10.2269
▁esqueleto	-10.2269
▁individual	-10.2269
▁vidro	-10.2269
▁agricultur	-10.2269
▁personage	-10.2269
▁ilus	-10.2269
▁naturais	-10.2269
▁átomo	-10.2269
▁kg	-10.2269
▁conferência	-10.227
▁televisão	-10.227
▁divis	-10.2272
▁face	-10.2274
nha	-10.228
▁construímo	-10.2282
▁corrente	-10.2282
▁mat	-10.2286
▁sofri	-10.2295
▁substituir	-10.2298
▁sítios	-10.2298
▁espa	-10.2321
▁devo	-10.2337
▁Unido	-10.2338
▁acto	-10.2349
stro	-10.2352
▁termo	-10.2357
▁adicionar	-10.2359
▁preocupar	-10.2362
ka	-10.2372
▁ha	-10.2373
▁apoia	-10.2374
▁dentes	-10.2375
▁ligada	-10.2385
xito	-10.2397
▁participar	-10.2403
▁destrui	-10.2405
▁consumidor	-10.2408
ró	-10.2411
fu	-10.2437
▁cole	-10.2444
éria	-10.2446
▁mostram	-10.245
▁Segund	-10.2451
▁cozinha	-10.2453
▁segundos	-10.2491
ínio	-10.2492
justiça	-10.2492
▁1,	-10.2496
▁bicicleta	-10.2496
▁círculo	-10.2496
▁matemático	-10.2496
▁objectivo	-10.2496
▁plataforma	-10.2496
▁pássaro	-10.2496
▁trânsito	-10.2496
▁óbvio	-10.2496
▁recompensa	-10.2496
▁atmosf	-10.2496
▁chegá	-10.2496
▁oposto	-10.2496
▁velha	-10.2496
▁receita	-10.2497
▁voto	-10.2497
▁Aquele	-10.2497
▁engenheiro	-10.2497
▁197	-10.2497
▁visualiza	-10.2499
▁moda	-10.25
▁dormi	-10.2503
▁complicado	-10.2505
▁rura	-10.2506
▁arranjar	-10.2512
▁meios	-10.2517
▁escreveu	-10.2523
▁cair	-10.2526
▁Fica	-10.2526
▁nervos	-10.2528
▁privado	-10.2541
▁Disse	-10.257
tion	-10.2574
▁Rec	-10.2579
▁Ge	-10.2595
▁instalaç	-10.2605
▁cortar	-10.2612
▁recuperar	-10.2618
▁gostava	-10.263
▁Rein	-10.2637
ego	-10.2641
▁lua	-10.2642
▁conce	-10.2644
▁envolve	-10.2644
▁viajar	-10.2648
grama	-10.2654
▁construí	-10.2655
▁Be	-10.2657
▁diminui	-10.2659
pra	-10.2661
tex	-10.2667
▁estejam	-10.2673
redor	-10.2694
▁funda	-10.2702
▁mant	-10.271
tricidade	-10.2716
▁evolui	-10.272
▁gigante	-10.2728
▁barulho	-10.2729
▁básica	-10.2729
▁faculdade	-10.2729
▁secundário	-10.2729
▁vermelha	-10.2729
▁reputaç	-10.2729
▁máxim	-10.2729
▁infraestrutura	-10.2729
▁extens	-10.2729
▁cerebra	-10.2729
▁Torn	-10.2729
▁truque	-10.2729
▁surge	-10.273
▁bonito	-10.2731
▁dign	-10.2733
▁Bang	-10.2736
▁esco	-10.2737
▁preste	-10.2738
▁alma	-10.2739
ional	-10.2749
▁espacia	-10.2751
▁desenhar	-10.2754
▁partido	-10.2765
▁defender	-10.2766
▁investi	-10.2793
fund	-10.28
nel	-10.2817
▁acab	-10.2838
▁tivessem	-10.2843
pro	-10.2845
▁grav	-10.2846
▁Wi	-10.2866
▁envolver	-10.2867
▁cura	-10.2891
feito	-10.2902
▁recu	-10.2903
▁retirar	-10.2903
▁serve	-10.2904
▁Ta	-10.2905
▁criativo	-10.2905
▁anda	-10.292
ento	-10.2922
rgu	-10.2929
▁Faz	-10.294
▁elemento	-10.2957
▁enormes	-10.2963
▁crítica	-10.2967
▁entropia	-10.2967
▁envelheci	-10.2967
▁exercício	-10.2967
▁horríve	-10.2967
▁ilumina	-10.2967
▁infanti	-10.2967
▁conselho	-10.2967
▁discurso	-10.2967
▁gripe	-10.2967
▁organismo	-10.2967
▁administra	-10.2967
▁esquerdo	-10.2967
versário	-10.2967
▁poupança	-10.2967
▁Marte	-10.2976
▁universal	-10.2978
▁esper	-10.2979
via	-10.298
▁Ch	-10.2981
▁comercial	-10.2982
▁sensor	-10.2989
DA	-10.2992
▁passam	-10.3024
▁Ali	-10.303
ético	-10.303
▁quente	-10.3046
▁oferecer	-10.3051
▁estaria	-10.3054
▁informaç	-10.3055
▁surgir	-10.3063
▁vender	-10.307
▁andava	-10.3071
▁responde	-10.3071
▁nervoso	-10.3077
▁engenh	-10.3082
▁obra	-10.3104
▁combina	-10.3111
▁falhar	-10.3113
▁fundamenta	-10.3127
▁move	-10.3136
▁preparar	-10.3142
estre	-10.3145
scar	-10.3149
▁Ter	-10.316
▁desempenh	-10.3175
iedade	-10.3185
▁cultural	-10.3189
▁pudessem	-10.3192
▁sugerir	-10.3196
▁previs	-10.3197
lguém	-10.32
▁fome	-10.3201
▁Eram	-10.3202
▁visitar	-10.3208
▁Começa	-10.3211
▁autocarro	-10.3211
▁compromisso	-10.3211
▁conectoma	-10.3211
▁médio	-10.3211
▁narrativa	-10.3211
▁terço	-10.3211
▁vazio	-10.3211
▁revista	-10.3211
▁barata	-10.3211
▁amiga	-10.3211
▁Norte	-10.3211
▁desenvolvido	-10.3211
▁úte	-10.3211
▁acontecimento	-10.3214
▁TV	-10.3215
▁lava	-10.3215
▁criá	-10.3218
qua	-10.3219
xico	-10.3221
▁chamam	-10.3227
▁terrorista	-10.3227
▁pega	-10.3228
rial	-10.3229
▁criativa	-10.3234
▁crime	-10.3242
▁banho	-10.3246
▁eventual	-10.325
med	-10.3257
▁Alem	-10.3267
▁levanta	-10.3267
▁porco	-10.3284
▁louco	-10.3288
xe	-10.3291
▁Cri	-10.3303
▁constru	-10.3306
mit	-10.3308
entemente	-10.3326
▁árvore	-10.3328
▁Diz	-10.3329
▁Sal	-10.335
▁deseja	-10.3356
ick	-10.3358
fere	-10.3363
▁ani	-10.3366
avam	-10.3372
vergonha	-10.3388
▁precisar	-10.3397
▁tri	-10.3409
▁venda	-10.3415
ino	-10.3419
▁amar	-10.3421
▁torno	-10.3429
▁militar	-10.3431
▁im	-10.3431
▁centra	-10.3444
eixo	-10.3451
▁gastar	-10.3456
▁ciclo	-10.346
▁Japão	-10.3461
▁crítico	-10.3461
▁distribuiç	-10.3461
▁divertido	-10.3461
▁empreendedor	-10.3461
▁Trabalh	-10.3461
▁herói	-10.3461
almoço	-10.3461
▁engano	-10.3461
▁cresci	-10.3461
▁diagnóstico	-10.3463
▁tinta	-10.3463
▁rara	-10.3463
wi	-10.3465
▁criatura	-10.3465
▁lenta	-10.3467
▁atravessar	-10.3467
▁Outro	-10.3467
▁integra	-10.347
ah	-10.3477
▁limpa	-10.3477
▁significativa	-10.3477
▁gas	-10.3478
xi	-10.3479
▁riso	-10.3481
▁Fique	-10.3489
▁bu	-10.3491
▁aproxima	-10.3492
▁Ira	-10.35
▁Canad	-10.35
▁afasta	-10.3503
vida	-10.3505
▁mon	-10.3506
ork	-10.3539
▁ligeira	-10.354
▁av	-10.3555
▁Cor	-10.3558
▁Queria	-10.357
▁frases	-10.3575
▁Consegue	-10.3577
▁focar	-10.3592
ult	-10.3593
▁formar	-10.3606
▁civilizaç	-10.3609
▁igua	-10.3625
▁Tu	-10.3636
fin	-10.3647
▁fator	-10.365
▁continuam	-10.3658
▁intern	-10.3678
▁hospita	-10.3682
▁provar	-10.3685
▁Consegui	-10.3688
▁cem	-10.3694
▁subir	-10.3708
▁alegr	-10.3712
▁disc	-10.3716
▁adulto	-10.3717
▁chefe	-10.3717
▁classifica	-10.3717
▁escaravelho	-10.3717
▁específico	-10.3717
▁probabilidade	-10.3717
▁Mãe	-10.3717
▁volume	-10.3717
▁Austr	-10.3717
▁equivalente	-10.3717
▁voltei	-10.3718
▁parecido	-10.3718
▁gato	-10.3718
▁navio	-10.3721
▁artificial	-10.3728
▁criou	-10.3729
▁Prova	-10.3732
▁Go	-10.3739
▁internacional	-10.374
▁cena	-10.3743
cro	-10.3746
▁presa	-10.3752
▁clar	-10.3754
▁fila	-10.3759
▁apareceu	-10.3761
▁Acab	-10.3762
men	-10.3765
▁nutri	-10.3765
▁contacto	-10.3767
▁conhecida	-10.377
▁exército	-10.3779
▁subi	-10.3786
▁tivé	-10.3792
▁seriam	-10.3815
,	-10.3815
▁dev	-10.3828
▁americana	-10.3843
▁ru	-10.3846
▁toneladas	-10.385
▁Repare	-10.3851
▁poes	-10.3852
fre	-10.3856
▁recolher	-10.387
▁aprende	-10.3874
▁espalha	-10.3878
▁pra	-10.3889
▁mudaram	-10.3899
▁associa	-10.3903
▁pedi	-10.3912
▁San	-10.3927
▁programar	-10.3938
▁irem	-10.3946
▁Fiz	-10.3956
▁adapta	-10.3957
▁conduzi	-10.3967
▁distin	-10.398
▁web	-10.398
▁armazena	-10.398
▁clima	-10.398
▁diálogo	-10.398
▁financeiro	-10.398
▁Houve	-10.398
▁market	-10.398
▁mortalidade	-10.398
▁elefante	-10.398
▁deserto	-10.3982
▁Entre	-10.3982
▁ilustra	-10.3982
▁flores	-10.3983
▁Ciro	-10.3986
▁Homem	-10.3997
▁Paris	-10.3998
▁Fina	-10.4
▁confiar	-10.4002
▁perguntou	-10.4002
▁Seria	-10.4006
▁fato	-10.4012
▁militares	-10.4012
▁sofrer	-10.4021
▁escura	-10.4023
▁guia	-10.4029
▁torná	-10.4032
▁cozinhar	-10.4032
nto	-10.4041
▁electric	-10.4047
▁150	-10.405
▁deviam	-10.4053
acional	-10.4077
▁Poderia	-10.4081
▁processa	-10.4082
raça	-10.4083
ática	-10.4088
▁escreve	-10.4096
mail	-10.4097
▁emiss	-10.4109
▁passaram	-10.4109
▁recebi	-10.411
▁votar	-10.4112
▁dita	-10.4115
▁virem	-10.4118
▁avalia	-10.4136
támos	-10.4147
▁entendi	-10.4156
▁paisage	-10.416
▁Ah	-10.4181
▁fra	-10.4185
▁levantar	-10.4193
▁osso	-10.4213
▁assistir	-10.4238
▁Fala	-10.4242
▁França	-10.4251
▁Infeliz	-10.4251
▁conheç	-10.4251
▁desastre	-10.4251
▁existência	-10.4251
▁parceiro	-10.4251
▁positiva	-10.4251
▁técnico	-10.4251
▁variedade	-10.4251
▁desculpa	-10.4251
▁reserva	-10.4251
▁Espero	-10.4251
▁Ingl	-10.4251
▁completo	-10.4251
▁investigador	-10.4251
▁mistério	-10.4251
▁colocá	-10.4251
▁deficiência	-10.4251
▁café	-10.4251
imento	-10.4252
▁funcionário	-10.4252
▁194	-10.4252
vivência	-10.4252
▁exame	-10.4253
▁gira	-10.4254
▁agente	-10.4256
▁radia	-10.4259
▁1000	-10.426
pen	-10.4262
▁piada	-10.4263
▁assina	-10.4275
▁ocorre	-10.4277
▁potência	-10.428
▁referi	-10.4284
▁regressar	-10.4286
▁realizar	-10.4288
ib	-10.4291
the	-10.43
tendo	-10.4309
▁descobriu	-10.4317
▁quisermos	-10.432
▁visíve	-10.4325
ácia	-10.4336
▁Usa	-10.4337
▁permiti	-10.4344
▁vier	-10.4358
▁recupera	-10.4381
▁faziam	-10.4388
▁19	-10.4393
SA	-10.4395
iana	-10.4425
▁passava	-10.4427
▁aluno	-10.4458
camente	-10.4471
▁Qué	-10.4472
tamente	-10.4473
▁jorna	-10.4494
▁Querem	-10.4494
▁concentra	-10.4498
▁confi	-10.4499
▁analis	-10.4502
▁trouxe	-10.4521
▁jornal	-10.4522
▁Can	-10.4527
▁básico	-10.4528
▁continente	-10.4528
▁equilíbrio	-10.4528
▁fêmea	-10.4528
▁influência	-10.4528
▁protótipo	-10.4528
▁curto	-10.4528
▁folha	-10.4528
▁tijolo	-10.4528
▁Web	-10.4528
▁esposa	-10.4528
▁pudé	-10.4528
▁sapato	-10.4528
▁website	-10.4528
▁produtiv	-10.4528
▁Museu	-10.4528
▁envolvido	-10.4528
▁distante	-10.4529
▁bonita	-10.4532
▁talento	-10.4535
▁recebem	-10.454
▁perdido	-10.4547
▁21	-10.4547
▁transiç	-10.4553
▁radical	-10.4561
▁cuidar	-10.4574
▁Podia	-10.4583
▁madeir	-10.4594
▁falo	-10.461
cidente	-10.4621
▁Centr	-10.4645
dula	-10.4657
▁passada	-10.4662
▁demora	-10.4666
press	-10.4673
igualdade	-10.4679
Bret	-10.468
▁apoiar	-10.4685
▁más	-10.469
▁inventar	-10.4696
▁controla	-10.4711
▁Olhem	-10.4719
▁aproximad	-10.472
▁terroris	-10.4737
▁poderem	-10.4762
éni	-10.4786
▁75	-10.4789
▁bar	-10.4793
▁Sei	-10.4805
▁Angeles	-10.4814
▁Nenhum	-10.4814
▁bocadinho	-10.4814
▁doméstica	-10.4814
▁intestino	-10.4814
▁maravilha	-10.4814
▁microscópio	-10.4814
▁prioridade	-10.4814
▁Pergunt	-10.4814
▁inferior	-10.4814
▁triste	-10.4814
▁jogar	-10.4814
ridge	-10.4814
▁Bill	-10.4814
▁móve	-10.4814
▁Wash	-10.4814
▁instruç	-10.4814
▁exposiç	-10.4814
▁prop	-10.4814
▁destino	-10.4814
▁sozinha	-10.4815
▁famoso	-10.4815
▁arranj	-10.4816
▁duro	-10.4817
▁conex	-10.4818
▁barco	-10.4818
▁haja	-10.4819
▁setembro	-10.482
▁Coca	-10.4828
▁industrial	-10.4828
▁virtual	-10.4828
▁complicada	-10.4834
▁relevante	-10.4836
▁baseada	-10.4841
pé	-10.4842
▁obes	-10.4844
▁trabalham	-10.4856
▁relacionada	-10.4861
▁interagir	-10.4861
▁pedido	-10.4863
▁causar	-10.4864
▁mala	-10.4868
▁Dia	-10.4881
▁fri	-10.4888
aiti	-10.4893
▁pen	-10.49
▁transmitir	-10.4902
▁apercebi	-10.4914
▁Ante	-10.492
▁acção	-10.4926
para	-10.4933
▁he	-10.495
▁espalhar	-10.4952
chave	-10.4953
▁empati	-10.4969
gio	-10.4973
plan	-10.4987
▁criada	-10.5
americanos	-10.5003
▁queima	-10.5007
▁escrevi	-10.5011
tt	-10.5015
▁jardi	-10.5017
▁diante	-10.5018
▁apar	-10.5027
▁identificar	-10.5039
logia	-10.5042
▁corpora	-10.5042
if	-10.5045
▁obras	-10.5051
▁funcion	-10.5062
▁assusta	-10.5065
▁Deve	-10.5068
▁gasta	-10.5069
▁propor	-10.5074
▁flor	-10.5079
reta	-10.5079
▁resol	-10.5081
▁esquec	-10.5086
▁ajudam	-10.5095
▁san	-10.5097
lând	-10.5108
▁CRISPR	-10.5108
▁circuito	-10.5108
▁comprimento	-10.5108
▁criminoso	-10.5108
▁financeira	-10.5108
▁fluxo	-10.5108
▁informático	-10.5108
▁renováve	-10.5108
▁satélite	-10.5108
▁violenta	-10.5108
▁vulneráve	-10.5108
▁coopera	-10.5108
▁honra	-10.5108
▁classe	-10.5108
▁ideal	-10.5108
▁argumento	-10.5108
▁fracasso	-10.5109
▁noutra	-10.5109
▁reside	-10.5109
▁anúncio	-10.5109
▁intervenç	-10.511
▁festa	-10.5113
▁euro	-10.5115
▁ostra	-10.5115
Cola	-10.5124
▁desce	-10.5127
land	-10.5132
▁expandir	-10.5134
▁arco	-10.5146
▁estranhos	-10.5148
▁escritor	-10.5149
▁gritar	-10.5154
▁pintar	-10.517
▁vira	-10.5176
▁salto	-10.5179
▁ó	-10.5189
▁interpreta	-10.5192
▁gostar	-10.52
▁usou	-10.5205
mago	-10.5209
▁fugir	-10.5219
▁equaç	-10.5222
▁rece	-10.5256
▁organiza	-10.5274
▁juntas	-10.5304
▁oferece	-10.5305
▁habitua	-10.532
▁sabiam	-10.532
▁mold	-10.5327
▁escrev	-10.5342
▁pede	-10.5346
▁convencer	-10.5353
▁Volt	-10.5381
▁culpa	-10.5382
tentei	-10.5385
▁multi	-10.5411
▁aleatória	-10.5411
▁beneficia	-10.5411
▁categoria	-10.5411
▁curiosidade	-10.5411
▁gratuita	-10.5411
▁prémio	-10.5411
▁Ciência	-10.5411
▁Grande	-10.5411
▁Guerra	-10.5411
eficiência	-10.5412
érci	-10.5412
▁mantém	-10.5412
▁elevada	-10.5412
▁lida	-10.5413
▁pilha	-10.5413
▁fizesse	-10.5414
▁canal	-10.5425
écia	-10.5426
cida	-10.5431
prim	-10.5435
▁sente	-10.5435
cimento	-10.5438
▁For	-10.544
▁Norma	-10.5441
▁permitiu	-10.5444
▁realiza	-10.5451
dy	-10.5453
▁conform	-10.5464
▁instal	-10.5486
▁mina	-10.5508
▁percebem	-10.5513
den	-10.5515
▁avanço	-10.5516
▁bate	-10.552
▁diziam	-10.5521
▁ouviram	-10.553
▁acelerar	-10.5538
▁transporta	-10.5542
▁fico	-10.5543
▁Quere	-10.5548
▁produzi	-10.5553
▁gasto	-10.5556
forma	-10.5563
▁volto	-10.557
ética	-10.5579
▁email	-10.5587
▁400	-10.5595
▁actua	-10.5598
▁Sr	-10.5631
▁Ten	-10.5641
▁ultra	-10.5654
▁Son	-10.5655
ático	-10.5693
ólogo	-10.5703
▁virar	-10.5712
▁aconteça	-10.5724
▁agulha	-10.5724
▁colónia	-10.5724
▁competência	-10.5724
▁distúrbio	-10.5724
▁específica	-10.5724
▁hormona	-10.5724
▁Pessoa	-10.5724
▁mantêm	-10.5724
▁moeda	-10.5724
▁pirata	-10.5724
▁bolso	-10.5724
▁primata	-10.5724
▁Mulher	-10.5724
▁aceite	-10.5724
▁lucro	-10.5724
▁economista	-10.5724
▁jantar	-10.5724
▁beber	-10.5725
▁Anders	-10.5725
▁colaps	-10.5725
▁Lembro	-10.5725
▁espantosa	-10.5727
▁desloca	-10.5727
▁cheiro	-10.5728
▁23	-10.573
▁placa	-10.573
▁essência	-10.573
▁leitura	-10.5731
▁tento	-10.5732
▁rica	-10.5734
▁22	-10.5735
ell	-10.5738
▁mov	-10.5739
heim	-10.5741
dutor	-10.5744
▁advogado	-10.5747
▁aconteci	-10.575
ph	-10.5754
▁prim	-10.5761
idão	-10.5762
▁Wa	-10.5762
▁Senti	-10.5767
▁criam	-10.5776
▁Bab	-10.5779
▁sentar	-10.5783
▁aproximar	-10.5788
▁urbano	-10.5798
tin	-10.5799
▁Aprendi	-10.5799
▁fornecer	-10.5806
▁louca	-10.5807
▁entrada	-10.5809
▁Min	-10.5821
▁partilhado	-10.5843
▁lembrem	-10.585
▁chora	-10.5851
▁aprendem	-10.5866
▁Junt	-10.5869
▁contrato	-10.5873
lhando	-10.5874
▁conhece	-10.5879
▁aplicar	-10.5883
manhã	-10.5886
▁mandar	-10.5887
▁vivia	-10.5889
▁simul	-10.5917
mer	-10.593
timo	-10.5945
▁pó	-10.5949
▁fabrica	-10.5973
▁alter	-10.5982
ner	-10.5986
amp	-10.5987
▁data	-10.5992
▁Sch	-10.5993
▁apartamento	-10.5999
▁bloque	-10.6007
▁perturba	-10.6011
erra	-10.6014
▁empregado	-10.6022
▁chin	-10.6026
▁seca	-10.6032
▁ensina	-10.6034
▁caça	-10.6046
▁alcance	-10.6046
▁bigode	-10.6046
▁branca	-10.6046
▁pertence	-10.6046
▁Paquist	-10.6046
▁suposto	-10.6046
▁cujo	-10.6046
uropeia	-10.6046
▁legal	-10.6046
▁cavalo	-10.6046
▁encant	-10.6046
▁choque	-10.6048
▁agência	-10.6048
▁interacç	-10.6049
▁banda	-10.6049
▁Nesta	-10.6053
▁27	-10.6054
▁sintoma	-10.6056
nco	-10.6056
▁Francis	-10.6056
▁vibra	-10.606
▁toque	-10.606
▁corrida	-10.6062
▁Arte	-10.6063
BG	-10.607
gito	-10.607
bage	-10.6071
▁medicamento	-10.6071
▁gerir	-10.6072
▁notável	-10.6078
▁Fizemo	-10.6089
▁rai	-10.6089
▁tele	-10.6091
▁retira	-10.6091
▁abrigo	-10.6092
partamento	-10.6094
▁chamou	-10.6102
▁Gu	-10.6113
V	-10.6127
▁nano	-10.6136
▁vá	-10.6153
▁vol	-10.6161
esta	-10.6162
▁Mal	-10.6192
▁criador	-10.6196
▁parti	-10.6199
embro	-10.6204
▁conto	-10.6206
americana	-10.6218
▁assustador	-10.6219
▁Ua	-10.6221
▁imag	-10.6221
▁termina	-10.6224
pend	-10.6237
▁circuns	-10.6238
▁acelera	-10.6242
▁contribui	-10.6254
▁trabalhava	-10.6261
▁cin	-10.6265
▁Men	-10.6285
▁Vive	-10.6286
▁atacar	-10.6295
▁enfrent	-10.6323
▁aves	-10.6329
▁Lev	-10.6342
▁35	-10.6356
▁atravessa	-10.6371
▁Log	-10.6372
ínhamo	-10.6379
▁Começámo	-10.638
▁dinâmica	-10.638
▁evidência	-10.638
▁histórico	-10.638
▁refugiados	-10.638
▁macaco	-10.638
▁promessa	-10.638
▁relatório	-10.638
▁clínica	-10.638
▁judeu	-10.638
▁ecológica	-10.638
▁percentage	-10.638
▁elétrico	-10.638
▁dizendo	-10.638
▁ótima	-10.638
▁menino	-10.638
▁aquecimento	-10.638
▁poema	-10.638
▁lago	-10.6381
▁instante	-10.6381
▁vinha	-10.6386
▁cantar	-10.6387
▁restaurante	-10.6387
▁pago	-10.6388
▁cometa	-10.639
▁retina	-10.6392
▁bateria	-10.6392
▁repetir	-10.6407
olly	-10.6409
▁entusiasmado	-10.6413
▁pico	-10.6417
▁flexíve	-10.6423
▁preferido	-10.6427
reen	-10.6429
▁acabado	-10.6432
▁45	-10.6434
ang	-10.6452
▁bord	-10.6452
▁proporciona	-10.6455
▁identifica	-10.6459
▁tornei	-10.648
▁aceita	-10.6485
bati	-10.6497
▁cre	-10.6506
▁consumi	-10.6511
▁conclui	-10.6527
▁decidiu	-10.6537
parou	-10.6538
▁olham	-10.6548
▁esqui	-10.6555
▁Cria	-10.6561
W	-10.6566
▁bater	-10.6567
▁mata	-10.6591
▁dissemos	-10.6617
▁Chi	-10.6618
lec	-10.6638
▁senhora	-10.6649
▁perceb	-10.6654
▁origina	-10.6656
▁dirigi	-10.6679
▁experimentar	-10.668
prov	-10.6682
▁combustíve	-10.669
▁dólar	-10.6695
ciência	-10.6713
▁necess	-10.6715
pont	-10.6717
▁comporta	-10.6722
▁manu	-10.6724
▁Frank	-10.6724
▁George	-10.6724
▁agrícola	-10.6724
▁ajudou	-10.6724
▁cognitivo	-10.6724
▁diploma	-10.6724
▁garantir	-10.6724
▁lógica	-10.6724
▁mamífero	-10.6724
▁personalidade	-10.6724
▁quântica	-10.6724
▁telhado	-10.6724
▁veterano	-10.6724
▁divulga	-10.6724
▁retorno	-10.6724
▁incerteza	-10.6725
▁mexer	-10.6725
▁esconder	-10.6725
▁Thom	-10.6725
▁documenta	-10.6725
▁percurso	-10.6725
▁sujeito	-10.6725
▁Sabia	-10.6725
▁Feliz	-10.6725
▁sanita	-10.6726
▁macho	-10.6726
▁reconhecimento	-10.6728
▁Rich	-10.6728
▁refere	-10.6732
▁Harv	-10.6732
▁36	-10.6732
▁passá	-10.6739
▁trem	-10.6743
▁zu	-10.6744
jam	-10.6744
▁linda	-10.6747
eamento	-10.675
▁belo	-10.6755
▁menta	-10.6758
▁psic	-10.6759
Tub	-10.676
▁perigosa	-10.6762
▁salvo	-10.6762
her	-10.6765
▁terapia	-10.6768
▁excremento	-10.6779
▁Sara	-10.6784
▁tirada	-10.6788
▁Rua	-10.6805
▁preparado	-10.6805
▁ilha	-10.6811
▁esperava	-10.6812
▁comece	-10.6814
▁fraca	-10.6821
▁senta	-10.6825
ker	-10.6827
▁lançar	-10.6833
ney	-10.6833
▁dir	-10.6834
▁percorrer	-10.685
ple	-10.6859
▁gerar	-10.6863
▁soma	-10.6866
▁dedica	-10.6872
▁He	-10.6873
▁recolhe	-10.6874
tenção	-10.6874
▁provoca	-10.688
▁generos	-10.6885
▁entrega	-10.6886
▁hi	-10.689
▁levado	-10.6912
▁ouve	-10.6926
gua	-10.693
▁ficava	-10.6935
▁interna	-10.6939
▁ocupa	-10.6946
▁confus	-10.6952
▁Cost	-10.6956
▁melhoria	-10.6965
▁Ken	-10.6979
ford	-10.6989
versa	-10.6993
▁determina	-10.6994
cido	-10.6999
▁Jam	-10.7001
▁Ru	-10.7006
▁camp	-10.701
▁mundia	-10.7032
▁dum	-10.704
▁alcanç	-10.7045
ística	-10.7047
▁tendem	-10.7057
nge	-10.7066
▁surpreend	-10.7066
▁voc	-10.7069
▁julg	-10.7071
▁chegam	-10.7071
ebol	-10.7071
▁prosper	-10.7073
top	-10.7077
▁transpar	-10.708
▁Gan	-10.708
▁agarrar	-10.7081
▁MIT	-10.7082
▁cilindro	-10.7082
▁desconhecido	-10.7082
▁inveja	-10.7082
▁manuscrito	-10.7082
▁positivo	-10.7082
▁procedimento	-10.7082
▁tuberculose	-10.7082
▁abordar	-10.7082
▁terramoto	-10.7082
▁corrup	-10.7082
▁ensaio	-10.7082
▁arrisca	-10.7082
▁dispara	-10.7082
▁sugere	-10.7082
▁fósseis	-10.7082
▁recorda	-10.7082
▁levá	-10.7082
▁correcta	-10.7082
▁olhá	-10.7082
▁fixa	-10.7083
▁surpreendido	-10.7083
▁habilidade	-10.7083
▁investigar	-10.7083
▁escrav	-10.7086
▁injustiça	-10.7088
▁emergente	-10.7088
▁esquecer	-10.7088
▁estima	-10.709
▁Davi	-10.7094
▁excep	-10.7095
▁mudam	-10.7097
▁imigrante	-10.7101
▁extremo	-10.7105
▁querido	-10.711
▁voluntário	-10.711
mag	-10.7116
▁rap	-10.7132
▁preferida	-10.7133
▁lições	-10.7135
▁Ouvi	-10.7138
▁concentrar	-10.7141
int	-10.7153
cada	-10.7155
▁discutir	-10.7155
▁apert	-10.7163
ong	-10.7167
▁Mil	-10.7167
▁cordas	-10.7167
▁partilhada	-10.7168
net	-10.7176
seguida	-10.7179
pil	-10.7181
▁nu	-10.7195
▁quebra	-10.7196
ntrou	-10.7198
aterra	-10.7214
▁escutar	-10.722
▁grava	-10.7221
ór	-10.7234
▁test	-10.7239
▁imita	-10.724
▁acabam	-10.725
▁aponta	-10.7255
▁questionar	-10.7259
ood	-10.7267
▁globa	-10.7279
DI	-10.7285
▁afeta	-10.7286
ham	-10.7286
▁ganh	-10.7291
▁representar	-10.7305
▁continu	-10.7308
▁acrescent	-10.7314
alha	-10.7346
ty	-10.7357
▁manda	-10.7358
▁repeti	-10.7369
ux	-10.737
pera	-10.7378
mico	-10.7391
▁mencion	-10.7411
▁mentir	-10.7418
▁habita	-10.7418
▁imun	-10.742
▁carregar	-10.7429
▁cão	-10.7437
dução	-10.7445
iça	-10.7451
▁Neanderta	-10.7452
▁Professor	-10.7452
▁arquitectura	-10.7452
▁curioso	-10.7452
▁cêntimo	-10.7452
▁disposto	-10.7452
▁evidente	-10.7452
▁iPhone	-10.7452
▁interface	-10.7452
▁molecular	-10.7452
▁morcego	-10.7452
▁obstáculo	-10.7452
▁tecnológica	-10.7452
▁título	-10.7452
▁tópico	-10.7452
▁ângulo	-10.7452
▁Significa	-10.7452
▁curta	-10.7452
▁duplo	-10.7452
▁mostrou	-10.7452
▁obtive	-10.7452
▁proposta	-10.7452
▁bolha	-10.7452
▁limpo	-10.7452
▁tanque	-10.7452
▁defesa	-10.7452
▁cardíaco	-10.7452
▁foguet	-10.7452
▁tridimensiona	-10.7452
▁soldado	-10.7452
▁transferência	-10.7452
▁pénis	-10.7453
▁justo	-10.7454
▁viaja	-10.7454
▁conquista	-10.7455
▁Paul	-10.7455
▁diária	-10.7456
▁ativista	-10.7456
▁existi	-10.7459
▁impressionante	-10.7459
▁intenç	-10.7463
▁praia	-10.7466
gueira	-10.7468
percebeu	-10.7471
▁especifica	-10.7472
▁sugeri	-10.7474
▁fabricante	-10.7474
▁transferi	-10.7474
▁treinar	-10.7477
▁pura	-10.7477
▁perdida	-10.7482
▁aproveitar	-10.7483
▁ilegal	-10.7492
▁inevitáve	-10.7494
▁SI	-10.7494
▁oxi	-10.7495
▁evoluí	-10.7503
▁houvesse	-10.7504
▁lindo	-10.7506
▁encaixa	-10.7513
▁aprova	-10.7515
▁confortáve	-10.7521
▁pesa	-10.7523
▁perdeu	-10.7526
chei	-10.7532
▁encoraja	-10.7539
▁falando	-10.7542
▁Pri	-10.7548
▁ataca	-10.7557
▁diminuir	-10.7584
▁profissional	-10.7586
▁venh	-10.7588
dit	-10.7594
ko	-10.7595
▁Fal	-10.7604
▁revelar	-10.7625
▁preocupado	-10.7626
▁Hal	-10.7636
▁escolar	-10.7637
▁computa	-10.7664
▁raça	-10.768
▁marge	-10.7685
▁amplia	-10.7693
▁regress	-10.7703
30	-10.7709
▁especia	-10.7709
▁Devi	-10.7713
▁vende	-10.7713
▁preferi	-10.7728
▁barb	-10.773
▁inclu	-10.7736
▁viaj	-10.7739
íveis	-10.7753
SP	-10.7754
▁representam	-10.7758
▁valoriza	-10.7759
▁destruir	-10.776
▁eletr	-10.7764
▁rot	-10.7767
▁grit	-10.7781
▁vesti	-10.7791
▁pergunto	-10.7804
▁existente	-10.7805
▁confront	-10.7811
▁achava	-10.7811
▁seguido	-10.7813
iço	-10.7823
▁Tent	-10.7825
róstata	-10.7837
▁Leonard	-10.7837
▁ciúme	-10.7837
▁corresponde	-10.7837
▁descoberto	-10.7837
▁filósofo	-10.7837
▁intelectual	-10.7837
▁microfone	-10.7837
▁mínimo	-10.7837
▁preconceito	-10.7837
▁tempestade	-10.7837
▁universitário	-10.7837
▁Observ	-10.7837
▁espelho	-10.7837
▁permanente	-10.7837
▁variáve	-10.7837
▁fechado	-10.7837
▁comboio	-10.7837
▁Desculp	-10.7837
▁pontua	-10.7837
▁biblioteca	-10.7837
▁rocha	-10.7837
▁igreja	-10.7837
▁ampla	-10.7837
▁proibi	-10.7837
▁Perceb	-10.7837
▁Estive	-10.7837
▁robótica	-10.7837
▁necessita	-10.7838
rbita	-10.7839
▁pulm	-10.7839
▁salário	-10.7839
▁referência	-10.7839
▁Arqui	-10.7839
▁mostrei	-10.7839
▁cór	-10.784
▁excitante	-10.7841
▁inclusiv	-10.7841
▁tubo	-10.7843
▁extrair	-10.7843
óxi	-10.7844
▁servir	-10.7847
▁surgiu	-10.7854
▁falsa	-10.7858
▁Wal	-10.786
▁Real	-10.7862
▁estarem	-10.7862
▁basta	-10.7862
tável	-10.7871
▁considerado	-10.789
▁Stan	-10.7893
▁pato	-10.7894
▁libert	-10.7902
▁carrega	-10.7915
▁privada	-10.7922
ói	-10.7927
▁tomada	-10.7929
▁aparente	-10.7933
▁Gost	-10.7953
▁isola	-10.7958
▁sabor	-10.7971
▁resolve	-10.7991
▁neurónio	-10.8003
▁passage	-10.801
▁inventa	-10.8014
tima	-10.8027
▁organizar	-10.8034
av	-10.8035
▁conseguirem	-10.8041
▁pensado	-10.8056
▁Time	-10.8065
▁diretor	-10.8069
ificar	-10.8072
▁conduz	-10.8083
▁apanha	-10.8087
▁monta	-10.809
▁reduzi	-10.8091
▁compreende	-10.8095
▁recusa	-10.8097
conect	-10.8107
▁iam	-10.8114
▁result	-10.8115
olina	-10.8119
rês	-10.8132
▁sofre	-10.8141
▁obriga	-10.8155
▁desenha	-10.8165
▁prepara	-10.817
ble	-10.8171
sopa	-10.8174
▁convida	-10.8175
▁VI	-10.8197
ótica	-10.8197
▁capita	-10.8202
▁dançar	-10.8214
▁avaliar	-10.8225
caminhar	-10.8232
▁codifica	-10.8235
nço	-10.8235
íssimo	-10.8236
▁Amazóni	-10.8237
▁Lembram	-10.8237
▁currículo	-10.8237
▁escultura	-10.8237
▁figura	-10.8237
▁inimigo	-10.8237
▁liderança	-10.8237
▁metáfora	-10.8237
▁muçulmano	-10.8237
▁mágico	-10.8237
▁orçamento	-10.8237
▁parceria	-10.8237
▁pareça	-10.8237
▁plástico	-10.8237
▁prótese	-10.8237
▁romance	-10.8237
▁telescópio	-10.8237
▁equilibra	-10.8237
▁glaciar	-10.8237
▁reflex	-10.8237
▁suicida	-10.8237
▁remover	-10.8237
▁retrato	-10.8237
▁amarelo	-10.8237
▁abertura	-10.8237
▁aventura	-10.8237
▁doutora	-10.8237
▁turma	-10.8237
▁eletrónica	-10.8237
▁atitude	-10.8237
▁êx	-10.8237
▁baleia	-10.8237
ísica	-10.8237
▁resili	-10.8237
▁grão	-10.8237
▁lobo	-10.8238
▁cópia	-10.8238
▁196	-10.8238
▁enfrentamos	-10.8239
▁2,	-10.8239
▁Nesse	-10.8239
▁decorre	-10.8239
▁Quanta	-10.824
▁influencia	-10.8241
▁Algo	-10.8245
▁invenç	-10.8246
zinha	-10.8248
▁cega	-10.8248
▁encar	-10.8248
▁regista	-10.8251
▁activa	-10.8254
▁hidro	-10.8255
back	-10.8257
org	-10.8263
▁Pedi	-10.8264
▁plantar	-10.8264
▁aleg	-10.8269
▁barra	-10.8275
▁correto	-10.8284
▁abandona	-10.8287
▁reconhece	-10.829
▁revolucion	-10.8298
▁funcione	-10.83
▁incluí	-10.83
▁inicia	-10.8302
▁orden	-10.8309
ecer	-10.8312
▁hip	-10.8315
▁vig	-10.8336
▁limitado	-10.8336
▁consiga	-10.8356
▁rir	-10.8369
▁lanç	-10.838
▁acreditem	-10.8382
▁Park	-10.8385
berg	-10.8394
we	-10.8402
▁investidor	-10.8407
▁foca	-10.8413
▁rever	-10.8422
▁pun	-10.8429
▁levam	-10.8433
▁construi	-10.8437
▁candidato	-10.8452
▁Encontra	-10.8455
▁entendem	-10.8458
▁desistir	-10.8458
▁sono	-10.8467
▁caminha	-10.8477
low	-10.8479
J	-10.8494
▁recolh	-10.8497
▁reunir	-10.8497
ficiente	-10.85
▁Comece	-10.8509
▁tentam	-10.8513
▁andam	-10.8515
gh	-10.8526
▁milha	-10.8533
tadas	-10.8542
▁ficamos	-10.8546
▁falh	-10.8551
▁Poder	-10.8566
▁procur	-10.8569
▁fina	-10.8576
▁nasci	-10.859
red	-10.8599
▁flui	-10.8599
doria	-10.8603
▁passeio	-10.8604
▁elimina	-10.8609
▁Espa	-10.861
estar	-10.8632
▁proteç	-10.8648
▁execu	-10.8652
▁ajudá	-10.8653
▁Institut	-10.8653
▁Michael	-10.8653
▁Número	-10.8653
▁Prémio	-10.8653
▁agradáve	-10.8653
▁antepassado	-10.8653
▁clube	-10.8653
▁crucial	-10.8653
▁curiosa	-10.8653
▁desperdício	-10.8653
▁dividir	-10.8653
▁dívida	-10.8653
▁dúzia	-10.8653
▁egípcio	-10.8653
▁empresário	-10.8653
▁estrangeiro	-10.8653
▁maçã	-10.8653
▁multiplica	-10.8653
▁negocia	-10.8653
▁núcleo	-10.8653
▁peço	-10.8653
▁prisioneiro	-10.8653
▁resistente	-10.8653
▁resistir	-10.8653
▁suicídio	-10.8653
▁Decidi	-10.8653
▁esfera	-10.8653
▁esquizofr	-10.8653
▁incentivo	-10.8653
▁clínico	-10.8653
▁colocou	-10.8653
▁faixa	-10.8653
▁cinema	-10.8653
▁Procur	-10.8653
▁sequencia	-10.8654
▁vapor	-10.8654
▁colaborador	-10.8654
▁fisicamente	-10.8654
▁julgamento	-10.8654
▁biológico	-10.8654
▁hotel	-10.8654
▁condena	-10.8654
izou	-10.8654
▁religiosa	-10.8655
▁feed	-10.8656
▁idosa	-10.8656
▁portát	-10.8657
▁tentá	-10.8657
▁favorito	-10.8657
▁agarra	-10.8658
▁avançada	-10.8659
▁lê	-10.866
▁carga	-10.8662
▁grá	-10.8663
▁ONG	-10.8665
▁perdi	-10.8666
▁sector	-10.8667
▁académico	-10.8667
▁corrigir	-10.8668
onica	-10.8669
▁voo	-10.8673
fiquem	-10.8673
▁ambiental	-10.8673
▁autoridade	-10.8676
▁cruz	-10.8676
imi	-10.868
▁pegue	-10.8681
▁estabelecer	-10.8685
▁corta	-10.8685
▁tiro	-10.8685
▁combate	-10.8687
▁alemã	-10.8689
▁verificar	-10.869
▁permanece	-10.8691
▁Passa	-10.8694
guei	-10.8694
▁casar	-10.8694
▁eliminar	-10.8698
▁separaç	-10.8702
▁respondeu	-10.8709
▁Steve	-10.8714
▁neuro	-10.8716
▁celebra	-10.8716
▁formos	-10.8719
▁pegada	-10.8719
▁aviso	-10.872
fusão	-10.8722
▁significativo	-10.8724
▁fum	-10.8728
▁resta	-10.8731
cente	-10.8732
LA	-10.8737
▁voa	-10.874
▁Lá	-10.8741
▁Medi	-10.876
▁Nano	-10.8765
▁impedir	-10.8783
▁NA	-10.8785
▁determinado	-10.88
▁Pete	-10.8812
▁vencer	-10.8845
▁achar	-10.8847
édia	-10.8854
▁ombro	-10.8858
▁adop	-10.8871
▁Basic	-10.8888
▁definiç	-10.8893
▁impe	-10.8899
bido	-10.89
ódio	-10.8903
ony	-10.8905
▁anunci	-10.8907
▁entend	-10.8907
▁deixam	-10.8919
fia	-10.8922
▁falava	-10.8926
▁apercebemo	-10.8929
▁descer	-10.8945
▁val	-10.8945
bl	-10.8957
▁apontar	-10.8966
▁pain	-10.8973
▁olhou	-10.8979
▁Che	-10.8984
▁Kan	-10.8985
cera	-10.8993
▁Movem	-10.9019
▁combater	-10.9055
▁utili	-10.908
rea	-10.9083
▁estimula	-10.9083
ji	-10.9083
ício	-10.9085
▁fut	-10.9086
Q	-10.9088
sucedido	-10.9088
▁acumula	-10.9088
▁adequada	-10.9088
▁britânico	-10.9088
▁cerveja	-10.9088
▁chimpanzé	-10.9088
▁coluna	-10.9088
▁crédito	-10.9088
▁espetacular	-10.9088
▁livrar	-10.9088
▁raíz	-10.9088
▁europeu	-10.9088
▁movimenta	-10.9088
▁respeita	-10.9088
▁tribuna	-10.9088
▁degrada	-10.9088
▁expressõe	-10.9088
▁colaboraç	-10.9088
▁anatomi	-10.9088
▁dieta	-10.9088
▁inclina	-10.9089
▁Coloca	-10.9089
▁licencia	-10.9089
▁vaga	-10.909
▁iniciativa	-10.909
▁apaixonada	-10.909
hattan	-10.909
▁confiante	-10.909
▁Alex	-10.909
▁vaca	-10.9091
▁actividade	-10.9091
▁nega	-10.9093
táve	-10.9094
▁pretende	-10.9094
▁habitat	-10.9095
▁pronta	-10.9096
▁pagamento	-10.9098
▁foco	-10.9099
▁CO	-10.9101
▁dê	-10.9103
▁sobrevivente	-10.9107
▁partida	-10.9115
bon	-10.9122
▁presta	-10.9124
▁aposta	-10.9127
▁desconfortáve	-10.913
culos	-10.915
▁captar	-10.9154
▁inici	-10.9158
▁Jan	-10.9158
▁Jer	-10.916
▁aparecem	-10.916
▁But	-10.9162
▁atua	-10.9175
▁reagir	-10.9176
▁saiu	-10.9178
▁terror	-10.9179
ight	-10.9181
tória	-10.9184
▁poli	-10.9186
▁regresso	-10.9187
▁encontrado	-10.9187
▁correta	-10.9187
▁sofrem	-10.9195
ónico	-10.9202
▁experimenta	-10.9205
▁assumir	-10.9226
▁ocorreu	-10.9229
▁múltipla	-10.9233
▁Appl	-10.9234
▁nev	-10.9235
▁rol	-10.9236
▁mapear	-10.9246
▁acreditava	-10.9248
▁ignorar	-10.9255
▁entende	-10.9265
▁tornado	-10.9272
▁patr	-10.9282
▁Dá	-10.9286
▁calcular	-10.9287
▁chamava	-10.9294
yan	-10.9302
▁reduç	-10.9313
▁poupa	-10.9321
▁cultiva	-10.9338
punha	-10.9347
▁determinar	-10.936
▁adolescente	-10.9365
▁concord	-10.9366
▁Bel	-10.9383
▁compreendemo	-10.9384
▁tratado	-10.9399
▁Devem	-10.94
▁editor	-10.9401
▁continuava	-10.9403
▁transmiti	-10.9404
tempo	-10.9407
▁morri	-10.9409
▁programador	-10.9428
▁tio	-10.9429
▁capitalism	-10.9445
▁rejeit	-10.9458
▁indo	-10.9461
▁interliga	-10.9474
ológico	-10.951
▁morrem	-10.9526
▁regular	-10.9537
copia	-10.9542
▁possivel	-10.9543
▁dupla	-10.9543
▁Presidente	-10.9543
▁calça	-10.9543
▁capítulo	-10.9543
▁cardíaca	-10.9543
▁contínu	-10.9543
▁disposta	-10.9543
▁doloroso	-10.9543
▁energética	-10.9543
▁exigência	-10.9543
▁gabinete	-10.9543
▁gordura	-10.9543
▁ingrediente	-10.9543
▁lacuna	-10.9543
▁lâmpada	-10.9543
▁manifesta	-10.9543
▁modela	-10.9543
▁obcecado	-10.9543
▁privilégio	-10.9543
▁tragédia	-10.9543
▁mobiliz	-10.9543
▁mutaç	-10.9543
▁túne	-10.9543
ópia	-10.9543
▁Consider	-10.9543
▁resumi	-10.9543
▁neutr	-10.9543
▁castanh	-10.9543
▁poliniza	-10.9543
▁Melhor	-10.9543
▁Nessa	-10.9543
▁biológica	-10.9543
▁efic	-10.9543
▁Camb	-10.9543
▁Senhor	-10.9543
▁excesso	-10.9543
▁detetar	-10.9544
▁abuso	-10.9544
▁quisesse	-10.9544
▁famosa	-10.9545
▁precisávamos	-10.9545
▁lento	-10.9546
▁relacionamento	-10.9547
▁raci	-10.9547
▁racioc	-10.9547
▁negativo	-10.9548
▁correio	-10.9548
▁Espera	-10.955
▁percepç	-10.9551
▁26	-10.9551
▁diário	-10.9553
avera	-10.9555
▁copiar	-10.9557
ivel	-10.9558
▁saco	-10.956
▁esperto	-10.9561
▁roubar	-10.9562
▁séria	-10.9563
▁directamente	-10.9564
▁novidade	-10.9567
▁demorar	-10.9571
▁inspirar	-10.9573
▁mito	-10.9574
▁abrandar	-10.9578
▁ascen	-10.9582
▁2001	-10.9584
omi	-10.9587
▁Continua	-10.9588
▁estamina	-10.9601
▁angaria	-10.9601
▁Val	-10.9619
▁chinesa	-10.9632
▁descont	-10.9632
▁associado	-10.9633
▁posto	-10.9652
▁juntam	-10.9652
▁estivessem	-10.9655
rinho	-10.9665
parem	-10.967
▁digam	-10.9675
▁Ban	-10.9677
▁põe	-10.9684
▁lice	-10.9694
úss	-10.9708
cionado	-10.9714
▁inspirado	-10.9726
▁fasc	-10.9727
▁Joe	-10.9736
▁louc	-10.9744
▁haveria	-10.9744
▁deixado	-10.975
▁saltar	-10.9751
fú	-10.9756
▁planea	-10.9759
▁Fazemo	-10.977
tividade	-10.9792
▁apareci	-10.9794
▁vila	-10.9799
▁Dizem	-10.9817
vil	-10.9821
▁Passe	-10.9821
▁Ko	-10.9823
▁citaç	-10.9832
▁Pod	-10.9835
▁net	-10.9835
▁escur	-10.9848
▁gravar	-10.9855
▁caí	-10.9858
▁conseguisse	-10.9859
▁Dev	-10.9859
tecnologia	-10.9859
▁costum	-10.9861
udio	-10.9878
▁rota	-10.9879
▁entram	-10.9886
▁significava	-10.9886
▁Mostra	-10.9887
ool	-10.9891
nny	-10.9893
▁concorda	-10.9909
▁vend	-10.9922
ey	-10.9925
▁perfura	-10.9931
din	-10.9932
▁aterr	-10.9941
▁sexua	-10.9942
▁histori	-10.9943
▁verifica	-10.9955
▁curar	-10.9961
▁comparar	-10.9962
▁entusiasma	-10.9963
▁cã	-10.9966
▁Fil	-10.9969
▁imigra	-10.9993
▁devolv	-10.9994
▁prestar	-10.9996
▁orgulho	-10.9998
▁limpar	-11.0002
▁sorri	-11.0012
ake	-11.0012
oço	-11.0015
▁efetiva	-11.0019
▁Street	-11.0019
▁William	-11.0019
▁World	-11.0019
▁brinquedo	-11.0019
▁desperdiç	-11.0019
▁eléctrico	-11.0019
▁experienci	-11.0019
▁horizonte	-11.0019
▁músculo	-11.0019
▁partilhá	-11.0019
▁rabisca	-11.0019
▁secundária	-11.0019
▁companheiro	-11.0019
▁escondida	-11.0019
▁recruta	-11.0019
▁arroz	-11.0019
▁descobre	-11.0019
▁cuja	-11.0019
▁luxo	-11.0019
▁teatro	-11.0019
▁franca	-11.0019
▁Simples	-11.0019
▁poeta	-11.0019
▁sexta	-11.0019
▁directo	-11.0019
▁video	-11.0019
▁planifica	-11.0019
▁imposto	-11.0019
▁toler	-11.0019
▁domínio	-11.002
▁vasta	-11.002
▁resolvido	-11.002
▁pormenor	-11.002
▁àquele	-11.002
▁paradox	-11.002
▁Conselh	-11.0021
▁estimativa	-11.0021
▁Archi	-11.0021
▁condução	-11.0022
▁pinto	-11.0022
ábia	-11.0023
▁manual	-11.0023
▁barri	-11.0024
▁desesperada	-11.0024
ilicon	-11.0025
▁alerta	-11.0025
▁entusiasmante	-11.0027
etembro	-11.0027
▁Aquela	-11.0029
▁ganham	-11.0032
▁perfi	-11.0033
▁nascimento	-11.0034
▁disparo	-11.0034
▁Síri	-11.0035
▁musical	-11.0037
morou	-11.0037
▁32	-11.0039
▁Cente	-11.004
▁sinta	-11.004
▁suporte	-11.0041
▁Her	-11.0042
▁plen	-11.0042
▁descriç	-11.0043
▁crescente	-11.0045
▁amarra	-11.0045
▁desigualdade	-11.0046
▁clássico	-11.0048
▁escapar	-11.0051
▁falei	-11.0053
▁desenhado	-11.0053
▁sentada	-11.0054
passageiro	-11.0054
▁unir	-11.0062
▁disciplina	-11.0063
▁ficarem	-11.0064
▁assegurar	-11.0067
▁modifica	-11.0067
▁Ce	-11.0068
ícia	-11.0071
▁leitor	-11.0075
▁pediu	-11.0078
óti	-11.008
ff	-11.0086
▁Bro	-11.0093
▁polariza	-11.01
▁tende	-11.0107
▁Olha	-11.0113
▁navegar	-11.0121
▁constitui	-11.013
▁processar	-11.0137
▁ligam	-11.0141
elite	-11.015
▁respondi	-11.0159
pit	-11.0166
▁trabalhado	-11.0171
▁traduç	-11.0173
▁circula	-11.0174
▁assisti	-11.0179
▁formato	-11.0185
▁consiste	-11.0188
▁eleitor	-11.0194
▁Mad	-11.0195
▁Meu	-11.0201
▁queiram	-11.0206
▁Hum	-11.0208
▁comete	-11.022
▁deixaram	-11.0222
▁possu	-11.0226
▁contribuir	-11.0233
▁tempora	-11.0233
▁empurra	-11.0247
▁definir	-11.0251
▁avaliaç	-11.0254
▁converte	-11.0254
▁Bol	-11.0263
▁acabá	-11.0271
▁relaciona	-11.0271
▁ética	-11.0281
reparem	-11.0292
ónica	-11.0294
▁merece	-11.0297
▁gui	-11.0301
▁Fale	-11.031
▁havi	-11.0311
▁Ke	-11.0316
ên	-11.0325
▁Ben	-11.0329
vê	-11.0345
▁acompanha	-11.0351
gosto	-11.0365
▁torne	-11.0368
▁160	-11.0374
mbora	-11.0377
▁195	-11.0384
▁apresent	-11.0388
▁Marc	-11.0393
ila	-11.0401
ndado	-11.041
▁trav	-11.0411
▁pinta	-11.042
grav	-11.043
▁pareceu	-11.0437
▁capt	-11.0447
far	-11.0451
bé	-11.0457
stria	-11.0472
▁reprodu	-11.0476
enia	-11.0477
▁Jane	-11.0478
▁testa	-11.0481
▁audi	-11.0484
▁ocasi	-11.0493
cabaram	-11.0494
tern	-11.0511
▁traduzi	-11.0517
▁vegeta	-11.0519
géne	-11.0519
▁infinita	-11.0519
▁Darwin	-11.0519
▁Jeopardy	-11.0519
▁adulta	-11.0519
▁argumenta	-11.0519
▁cognitiva	-11.0519
▁emergência	-11.0519
▁escondido	-11.0519
▁estúdio	-11.0519
▁fragmenta	-11.0519
▁generaliza	-11.0519
▁idiota	-11.0519
▁idêntica	-11.0519
▁incapacidade	-11.0519
▁informática	-11.0519
▁israelita	-11.0519
▁legisla	-11.0519
▁minúsculo	-11.0519
▁multiverso	-11.0519
▁músico	-11.0519
▁nódulo	-11.0519
▁orelha	-11.0519
▁refleti	-11.0519
▁reforça	-11.0519
▁simpático	-11.0519
▁traço	-11.0519
▁hambúrguer	-11.0519
▁passiva	-11.0519
▁presença	-11.0519
▁vulgar	-11.0519
▁recomend	-11.0519
▁externa	-11.0519
▁piloto	-11.0519
▁pression	-11.0519
▁composto	-11.0519
▁desporto	-11.0519
▁parcial	-11.0519
▁intenciona	-11.0519
▁refeiç	-11.0519
▁confirma	-11.0519
▁vasto	-11.0519
▁recorre	-11.0519
▁abund	-11.0519
▁capa	-11.052
▁fác	-11.052
▁inventor	-11.052
▁quarta	-11.052
▁parecida	-11.052
▁nariz	-11.052
▁Criança	-11.052
▁Josh	-11.052
▁admitir	-11.052
▁uniforme	-11.0521
▁decide	-11.0521
▁agita	-11.0521
▁testemunha	-11.0522
▁virtude	-11.0522
▁coletiva	-11.0522
▁acende	-11.0522
▁preveni	-11.0524
▁MT	-11.0525
▁Gostava	-11.0526
▁RM	-11.0527
▁deixei	-11.0528
▁vaso	-11.053
▁chove	-11.053
▁190	-11.0531
▁avançado	-11.0533
▁Han	-11.0535
▁razoáve	-11.0536
▁Cat	-11.0537
▁Charles	-11.0538
rade	-11.0547
arqui	-11.0548
▁astrónomo	-11.0549
▁Natal	-11.055
▁duplicar	-11.0552
▁relacionado	-11.0558
abilidade	-11.0559
▁atingido	-11.056
▁deitar	-11.0575
wn	-11.0576
▁convenciona	-11.0577
▁Par	-11.0578
▁Usamo	-11.0578
▁sup	-11.0581
▁selvage	-11.0582
▁exponencial	-11.0589
visua	-11.0593
▁Gro	-11.0599
▁pedimos	-11.061
urg	-11.0617
▁fraco	-11.0621
▁atingi	-11.0622
▁aperceber	-11.0626
▁concebe	-11.0632
▁incluir	-11.064
tenta	-11.0641
▁preocupação	-11.0645
▁enganado	-11.0662
▁manipular	-11.0665
▁Tenta	-11.0676
▁publicado	-11.0676
rey	-11.0682
▁cave	-11.0682
▁publicar	-11.0686
iologia	-11.0687
diante	-11.0698
▁cativ	-11.0708
▁Indo	-11.0709
▁vivi	-11.0716
▁demonstrar	-11.0717
▁250	-11.0723
▁conversar	-11.0733
quia	-11.0742
▁Anda	-11.075
▁baixar	-11.0772
▁got	-11.0772
▁globaliza	-11.0774
squecemo	-11.0783
▁operado	-11.0785
▁tornarem	-11.0786
▁Tinham	-11.0787
▁circular	-11.0799
▁ramo	-11.0802
põe	-11.082
▁desafia	-11.0823
▁Façam	-11.0827
▁Reg	-11.0842
▁reduz	-11.0852
seguem	-11.087
▁cau	-11.087
dimensiona	-11.0871
▁saibam	-11.0871
▁vendedor	-11.0885
▁devasta	-11.0889
▁memori	-11.0891
▁sentirem	-11.0892
▁Estavam	-11.0908
▁custar	-11.0917
▁diversa	-11.0928
▁financi	-11.0939
▁aproveita	-11.0961
▁substitui	-11.0976
ónia	-11.0984
scola	-11.0992
▁sobrevive	-11.0993
▁chines	-11.0994
▁populaç	-11.0996
▁permanecer	-11.0997
▁proporcionar	-11.0999
▁desliga	-11.1
▁cent	-11.1007
▁Dez	-11.1013
▁cru	-11.1017
▁corredor	-11.1025
▁inspir	-11.1034
aúde	-11.1037
▁brinc	-11.1037
▁durar	-11.1039
▁apropri	-11.104
▁humil	-11.1041
▁nalgu	-11.1042
▁absor	-11.1044
elétrica	-11.1045
sucedida	-11.1045
▁antecipa	-11.1045
▁anónima	-11.1045
▁bandeira	-11.1045
▁diapositivo	-11.1045
▁diarreia	-11.1045
▁diâmetro	-11.1045
▁expectativa	-11.1045
▁exposto	-11.1045
▁francês	-11.1045
▁gratidão	-11.1045
▁idêntico	-11.1045
▁mergulho	-11.1045
▁profundidade	-11.1045
▁telefónica	-11.1045
▁transformou	-11.1045
▁típica	-11.1045
▁valioso	-11.1045
▁vigilância	-11.1045
▁declaraç	-11.1045
▁divertir	-11.1045
▁estilista	-11.1045
▁plateia	-11.1045
▁recicl	-11.1045
▁genético	-11.1045
▁preservativo	-11.1045
▁prático	-11.1045
▁vertical	-11.1045
▁justifica	-11.1045
▁multa	-11.1045
▁tatuage	-11.1045
celular	-11.1045
▁Cerca	-11.1045
▁explicou	-11.1045
▁Andre	-11.1045
▁hábito	-11.1045
▁encolhe	-11.1045
▁penetra	-11.1045
▁envolvida	-11.1045
▁Venez	-11.1045
▁remoto	-11.1045
▁póster	-11.1045
▁detecta	-11.1045
▁aceder	-11.1046
ílio	-11.1046
▁biólogo	-11.1046
▁prédio	-11.1046
▁religioso	-11.1046
▁urso	-11.1046
▁recém	-11.1047
▁juven	-11.1048
▁vitória	-11.1048
▁apelo	-11.105
▁projetar	-11.105
▁inicial	-11.105
▁lançamento	-11.105
▁kit	-11.1051
▁transparente	-11.1051
▁Funda	-11.1051
▁clicar	-11.1054
▁apaixonado	-11.1055
▁28	-11.1058
▁tropicais	-11.1062
▁cobra	-11.1063
▁Chega	-11.1063
▁Gate	-11.1064
▁2005	-11.1065
▁diagrama	-11.1068
▁Tex	-11.107
▁estica	-11.1071
▁electrónic	-11.1072
▁Precis	-11.1076
▁garage	-11.1076
▁contribu	-11.1078
▁clic	-11.1081
ácido	-11.1092
▁conhecia	-11.1096
▁culpado	-11.1098
▁associada	-11.1098
▁conserva	-11.1112
gama	-11.1114
▁participante	-11.1116
▁teia	-11.1142
hop	-11.1143
▁honesto	-11.1143
basti	-11.1143
▁guardar	-11.115
▁tela	-11.116
▁Sub	-11.117
▁profiss	-11.1173
▁urbana	-11.1186
▁tomate	-11.1195
▁contente	-11.1197
▁propagand	-11.1199
▁limitada	-11.1201
▁saído	-11.1205
▁gostaría	-11.1207
▁escap	-11.1209
▁jardin	-11.1212
▁At	-11.1219
bola	-11.1221
▁ensinam	-11.1226
▁mega	-11.1227
▁organizado	-11.1237
▁cred	-11.1239
rta	-11.1241
▁acompanhar	-11.125
▁trocar	-11.1253
▁Chamamos	-11.1255
▁levaram	-11.1259
▁lente	-11.126
▁Estud	-11.1272
▁lança	-11.1285
▁honesta	-11.1293
▁Inc	-11.1298
▁configuraç	-11.1302
▁65	-11.1308
▁sustentar	-11.131
▁desejava	-11.132
▁pól	-11.133
▁possui	-11.1335
▁questiona	-11.1338
rat	-11.1339
▁Eric	-11.134
▁calcula	-11.1351
▁simulaç	-11.1352
▁Pai	-11.136
uk	-11.1369
▁Nat	-11.1374
ráfico	-11.1377
▁adorava	-11.1382
▁orig	-11.1426
▁avanç	-11.1427
▁educador	-11.1428
sentimento	-11.1441
estrutura	-11.1441
▁lançado	-11.1453
▁concordar	-11.1466
▁Cla	-11.1467
▁inspirador	-11.1473
cy	-11.1481
tivé	-11.1485
▁pla	-11.1493
▁ocorrer	-11.1494
▁mostrado	-11.1503
▁diari	-11.1505
▁caracter	-11.1514
▁neur	-11.1519
▁danifica	-11.1522
▁experiment	-11.1524
▁acorda	-11.1527
▁combinar	-11.1553
tifica	-11.1559
▁ultrapassa	-11.1565
nési	-11.1567
▁tê	-11.1575
lon	-11.1575
ológica	-11.1585
▁Seja	-11.1585
▁persegui	-11.1587
▁represent	-11.1599
▁preserv	-11.1601
▁Britânic	-11.1601
▁Nelson	-11.1601
▁Parkinson	-11.1601
▁Scratch	-11.1601
▁agradecer	-11.1601
▁brincadeira	-11.1601
▁cobertura	-11.1601
▁conseguí	-11.1601
▁diferencia	-11.1601
▁distinguir	-11.1601
▁egoísta	-11.1601
▁engraçado	-11.1601
▁episódio	-11.1601
▁erradica	-11.1601
▁feminina	-11.1601
▁filosofia	-11.1601
▁impulso	-11.1601
▁inacreditáve	-11.1601
▁inesperado	-11.1601
▁intensidade	-11.1601
▁lâmina	-11.1601
▁mecânico	-11.1601
▁preocupe	-11.1601
▁reinventar	-11.1601
▁silenciosa	-11.1601
▁smartphone	-11.1601
▁supermercado	-11.1601
▁índice	-11.1601
▁agrega	-11.1601
▁comprimido	-11.1601
▁improvisa	-11.1601
▁correcto	-11.1601
▁humor	-11.1601
▁álbu	-11.1601
▁multidão	-11.1601
▁Conheci	-11.1601
▁inventou	-11.1601
▁surpreendeu	-11.1601
▁juntá	-11.1601
▁substância	-11.1601
▁slide	-11.1601
▁secreto	-11.1601
▁analogia	-11.1601
▁Sinto	-11.1601
▁dominante	-11.1601
▁fechar	-11.1601
ónimo	-11.1601
▁pausa	-11.1601
▁financiamento	-11.1601
▁Cresci	-11.1601
▁licença	-11.1601
▁ruído	-11.1602
▁relva	-11.1602
▁Micro	-11.1602
▁convencido	-11.1602
▁extinç	-11.1602
▁óbvia	-11.1602
▁futura	-11.1603
▁policia	-11.1603
▁Holand	-11.1603
▁educativo	-11.1603
▁difusão	-11.1603
▁baby	-11.1603
▁africana	-11.1603
▁raro	-11.1603
▁Super	-11.1603
▁Encontrei	-11.1603
cioso	-11.1604
▁similar	-11.1604
▁transmissão	-11.1604
▁GG	-11.1604
▁separar	-11.1604
▁definitiva	-11.1605
▁àquela	-11.1606
▁impede	-11.1607
▁facia	-11.1607
▁suportar	-11.1607
▁marcha	-11.1607
▁deriva	-11.1608
▁Gab	-11.1608
▁191	-11.1609
▁mineir	-11.1609
▁fã	-11.1609
▁72	-11.161
▁insul	-11.1611
apura	-11.1623
▁infra	-11.1624
peito	-11.1628
▁Junta	-11.1635
▁piso	-11.1637
▁governamenta	-11.1643
▁maluco	-11.1644
▁chame	-11.1651
▁Mande	-11.1652
▁Nig	-11.1654
▁Desta	-11.1655
▁fita	-11.1657
▁Polo	-11.1657
▁activo	-11.1658
▁determinada	-11.1661
▁planear	-11.1662
▁define	-11.1675
▁pesado	-11.1682
▁tornando	-11.1683
▁regime	-11.1683
▁desempenhar	-11.1684
▁muro	-11.1695
▁ocupado	-11.1703
▁esmagado	-11.1704
▁apag	-11.1707
▁Sing	-11.1714
▁expressar	-11.172
▁dependente	-11.1722
▁focado	-11.1722
▁encontrou	-11.1731
IV	-11.1739
▁relacionar	-11.1741
▁internaciona	-11.1747
▁conseguiria	-11.1748
▁testemunh	-11.1754
éc	-11.176
fectar	-11.1764
▁urban	-11.1767
▁instalar	-11.1769
▁Hol	-11.1791
▁houver	-11.1806
▁ensinou	-11.1809
▁acrescentar	-11.1813
▁aplicada	-11.1814
▁ampli	-11.1815
▁convenc	-11.1816
▁interessada	-11.1819
▁desafiar	-11.1828
▁tráf	-11.1828
▁queixa	-11.1831
▁geri	-11.1841
▁merecem	-11.1855
▁Core	-11.1856
▁cultivar	-11.1857
▁pan	-11.1904
▁vota	-11.1909
▁empurr	-11.1912
bril	-11.1924
irb	-11.1924
▁ajudaram	-11.1929
▁sonhar	-11.1932
▁transportar	-11.1935
▁salta	-11.1958
▁receb	-11.1966
▁segurar	-11.1971
▁Conta	-11.1973
▁convers	-11.1974
▁crescem	-11.1985
IS	-11.2006
▁eleitora	-11.2015
▁apanhado	-11.2024
▁atirar	-11.2033
erdão	-11.2035
▁impedi	-11.2038
▁electr	-11.2054
ref	-11.2056
▁gravado	-11.206
▁adiciona	-11.2063
▁sof	-11.2071
▁defende	-11.2072
▁Aprende	-11.2072
leste	-11.2077
cionamento	-11.2079
▁contact	-11.209
tribuí	-11.2108
▁Sentia	-11.2112
ontem	-11.2133
▁cobrir	-11.2137
▁escolhi	-11.214
▁estabelece	-11.2144
▁civi	-11.2155
▁certifica	-11.2167
▁apercebe	-11.2167
▁baseia	-11.2169
▁impressiona	-11.2177
▁cumpr	-11.2186
istério	-11.2188
Rabbit	-11.2189
mocrática	-11.2189
▁Bitcoin	-11.2189
▁Direito	-11.2189
▁FreeSpeech	-11.2189
▁Funciona	-11.2189
▁Talibã	-11.2189
▁antibiótico	-11.2189
▁aplicá	-11.2189
▁arranca	-11.2189
▁assistente	-11.2189
▁astronauta	-11.2189
▁centímetro	-11.2189
▁congestiona	-11.2189
▁considero	-11.2189
▁contemporâne	-11.2189
▁convincente	-11.2189
▁destruída	-11.2189
▁frigorífico	-11.2189
▁garrafa	-11.2189
▁humanitário	-11.2189
▁infinito	-11.2189
▁joelho	-11.2189
▁laço	-11.2189
▁milagre	-11.2189
▁milímetro	-11.2189
▁minúscula	-11.2189
▁optimista	-11.2189
▁orgânico	-11.2189
▁precedente	-11.2189
▁puzzle	-11.2189
▁reconstruí	-11.2189
▁reflecti	-11.2189
▁térmica	-11.2189
▁óptimo	-11.2189
▁golf	-11.2189
▁minoria	-11.2189
▁polui	-11.2189
▁prolonga	-11.2189
▁Associa	-11.2189
▁Lembre	-11.2189
▁Matemátic	-11.2189
▁recife	-11.2189
▁rodeia	-11.2189
▁aterroriza	-11.2189
▁paradigma	-11.2189
▁Vejo	-11.2189
▁insetos	-11.2189
▁sotaque	-11.2189
receptor	-11.2189
▁High	-11.2189
▁azuis	-11.2189
▁ultrasson	-11.2189
▁indiano	-11.2189
▁milénio	-11.2189
▁ferro	-11.2189
▁sinapse	-11.2189
▁ecologia	-11.2189
▁Pouco	-11.2189
▁frances	-11.2189
▁estatuto	-11.2189
▁mudá	-11.2189
▁aspira	-11.2189
▁Geral	-11.2189
▁sagrado	-11.2189
▁Veem	-11.2189
▁violaç	-11.219
▁fascinad	-11.219
▁divertida	-11.219
▁escava	-11.219
▁Jenn	-11.219
▁restriç	-11.219
▁entidade	-11.219
▁forneci	-11.219
▁afro	-11.2191
▁Satur	-11.2191
▁templo	-11.2191
▁inunda	-11.2191
▁agenda	-11.2191
▁falsifica	-11.2191
▁enrol	-11.2191
▁Narra	-11.2192
▁Uber	-11.2192
ciosa	-11.2193
tributo	-11.2194
▁favorita	-11.2195
▁0,	-11.2195
▁Law	-11.2196
▁coletivo	-11.2197
▁efectiva	-11.2197
▁mudei	-11.2198
▁justa	-11.2199
▁cheira	-11.2199
▁exista	-11.2199
▁adivinhar	-11.22
▁contamina	-11.2201
▁enviou	-11.2202
▁reacç	-11.2203
▁alinha	-11.2204
▁maré	-11.2204
▁Diga	-11.2204
▁Mary	-11.2208
▁fotógrafo	-11.2209
▁120	-11.2212
▁filmar	-11.2213
▁promover	-11.2215
penha	-11.2216
▁marítimo	-11.2218
▁monitorizar	-11.2223
▁educar	-11.2225
▁psicólog	-11.2228
▁embar	-11.223
▁resolv	-11.223
▁mur	-11.2239
▁inicialmente	-11.2241
▁clique	-11.2244
▁téni	-11.2249
▁reino	-11.225
▁contrata	-11.225
▁captura	-11.2257
▁ensinada	-11.2257
▁limi	-11.2262
▁afetar	-11.2263
▁nascido	-11.2268
▁sanguíneo	-11.2268
▁forçado	-11.2269
▁pesc	-11.2272
reio	-11.2277
▁late	-11.2282
▁afetado	-11.2282
each	-11.2287
▁mante	-11.2288
▁perderam	-11.2294
▁Sejam	-11.2296
▁tabu	-11.2301
▁Long	-11.2306
▁Mac	-11.2309
▁paix	-11.2313
▁critica	-11.2317
▁detecç	-11.232
▁capacita	-11.2324
▁colocado	-11.2339
▁Lei	-11.2339
▁Nov	-11.2354
▁guard	-11.2374
▁praticar	-11.2377
▁utilizada	-11.238
▁chegada	-11.2382
▁indicador	-11.2386
▁decora	-11.2388
▁colocada	-11.2389
▁considerada	-11.239
▁traduzir	-11.2401
dial	-11.2409
▁Lin	-11.2417
ET	-11.2427
ifer	-11.2428
▁montar	-11.2445
▁transformado	-11.2448
xting	-11.2449
▁pisca	-11.245
▁ocidenta	-11.2451
▁interno	-11.2453
bert	-11.2454
▁emociona	-11.2463
▁Dan	-11.2471
▁protegem	-11.2471
▁candidat	-11.2483
▁Casa	-11.249
lice	-11.249
▁desenvolv	-11.2496
▁corri	-11.2499
descrit	-11.2508
▁soar	-11.251
▁engenho	-11.251
▁evita	-11.2533
▁mot	-11.2549
tz	-11.2555
▁encontrava	-11.2561
▁pap	-11.2561
▁Ki	-11.2585
▁Cap	-11.2597
▁Gar	-11.2614
prima	-11.262
▁espin	-11.2629
▁rebo	-11.2637
xército	-11.2662
▁constitu	-11.2663
▁oficia	-11.2672
▁colocamo	-11.2672
▁800	-11.2672
▁tornámo	-11.269
▁escuta	-11.2693
▁biod	-11.2707
atch	-11.2721
She	-11.2729
▁abandonar	-11.2734
ock	-11.2741
▁acontecia	-11.2751
▁compreendia	-11.2756
envolvimento	-11.2765
▁II	-11.2769
▁Cert	-11.2774
raiz	-11.2789
ístico	-11.2791
▁frac	-11.2796
▁adv	-11.2798
mbros	-11.2803
▁reconheci	-11.2809
▁transformá	-11.2814
pânico	-11.2814
▁Antárti	-11.2814
▁Públic	-11.2814
▁adequado	-11.2814
▁aeroporto	-11.2814
▁afectam	-11.2814
▁aplauso	-11.2814
▁barbearia	-11.2814
▁cinzento	-11.2814
▁colaborativo	-11.2814
▁distribuído	-11.2814
▁empréstimo	-11.2814
▁estímulo	-11.2814
▁estúpida	-11.2814
▁fórmula	-11.2814
▁histórica	-11.2814
▁instinto	-11.2814
▁lágrima	-11.2814
▁líquido	-11.2814
▁programáve	-11.2814
▁quarteir	-11.2814
▁substituí	-11.2814
▁tecnológico	-11.2814
▁tweet	-11.2814
▁ventila	-11.2814
▁automática	-11.2814
▁colaborar	-11.2814
▁desespero	-11.2814
▁japon	-11.2814
▁liderar	-11.2814
▁repórter	-11.2814
▁ajude	-11.2814
▁ridícul	-11.2814
ministro	-11.2814
▁inovar	-11.2814
▁brilhar	-11.2814
▁dispers	-11.2814
▁tabela	-11.2814
fabrico	-11.2814
▁intuiç	-11.2814
▁despedi	-11.2814
▁gravitaciona	-11.2814
▁assemelha	-11.2814
▁legado	-11.2814
▁impressora	-11.2814
▁Video	-11.2814
▁secular	-11.2814
▁dirige	-11.2814
▁bolsa	-11.2814
▁coberto	-11.2814
▁separada	-11.2815
▁permita	-11.2815
▁inglesa	-11.2815
▁Parecia	-11.2815
▁esgota	-11.2815
▁prender	-11.2815
▁jamai	-11.2815
▁desenvolvida	-11.2816
▁germe	-11.2816
▁protesto	-11.2816
▁abundante	-11.2816
▁Deixa	-11.2816
▁Jesu	-11.2816
▁prefere	-11.2817
▁Pensam	-11.2817
▁carteira	-11.2817
▁largu	-11.2819
▁psicologi	-11.282
▁facilita	-11.282
▁permissão	-11.2821
▁espira	-11.2822
▁recort	-11.2822
▁Mark	-11.2823
▁altruísta	-11.2825
▁Parte	-11.2828
▁54	-11.283
▁causado	-11.2831
▁bolo	-11.2831
▁Encontrámo	-11.2831
▁acordar	-11.2832
▁posse	-11.2832
▁38	-11.2833
▁solid	-11.2833
▁Aplauso	-11.2833
▁escada	-11.2835
▁Evan	-11.2836
▁Flor	-11.2837
▁prato	-11.2838
zinho	-11.2841
▁Dê	-11.2841
▁contraste	-11.2841
▁subti	-11.2842
▁sentei	-11.2842
▁Gosta	-11.2842
▁Haver	-11.2843
▁intim	-11.2847
ssonância	-11.285
▁Envi	-11.2852
▁prepar	-11.2853
▁quotidiana	-11.2854
▁atingiu	-11.2854
▁erva	-11.2855
▁parasita	-11.2855
▁sensíve	-11.2856
▁registar	-11.2856
▁mantenh	-11.2857
yd	-11.2866
▁artístico	-11.2867
▁desligar	-11.2868
▁traiç	-11.287
▁escolhido	-11.2871
▁mexicano	-11.2875
▁atira	-11.2877
▁adicional	-11.2879
▁acordado	-11.2882
▁Mort	-11.2884
rane	-11.2893
▁bloquear	-11.2893
▁reduzida	-11.2894
DE	-11.2904
▁repetida	-11.2906
▁chor	-11.2907
▁gal	-11.2914
▁diretora	-11.2917
▁lançámo	-11.2917
▁receberam	-11.2922
▁adquirir	-11.2923
▁afetada	-11.2924
▁teto	-11.2925
▁contou	-11.2929
▁perfurado	-11.293
▁gere	-11.2938
▁Segunda	-11.2942
▁atraente	-11.2943
▁primor	-11.2947
▁Tan	-11.2952
▁urbanizaç	-11.2956
oficial	-11.2958
▁meter	-11.2979
▁Tur	-11.298
ung	-11.2983
utono	-11.2985
▁denso	-11.2994
▁integrar	-11.3001
órdi	-11.3001
▁termin	-11.3013
nb	-11.3021
▁integr	-11.3028
95	-11.3028
▁55	-11.3041
▁integrado	-11.3041
mónio	-11.3041
▁batedor	-11.3058
vul	-11.306
▁ultrapass	-11.3067
▁Basta	-11.3073
▁utilizado	-11.3076
iversidade	-11.3112
abilóni	-11.3115
▁procurá	-11.313
old	-11.3141
▁funcionava	-11.3151
▁representado	-11.3157
▁saíd	-11.3158
otável	-11.3166
▁puxar	-11.3175
▁Leva	-11.3176
▁diabo	-11.3193
▁imitador	-11.3194
▁Bur	-11.3204
▁introduzir	-11.3221
▁Carol	-11.3225
vindo	-11.3244
▁manipula	-11.3287
consistente	-11.3287
▁propaga	-11.3288
extrover	-11.3315
▁pesca	-11.3316
nus	-11.3321
ilha	-11.3325
infecta	-11.3327
▁treina	-11.3339
▁treinado	-11.3339
▁envelhece	-11.3339
▁fornecem	-11.3352
▁confort	-11.3356
▁escut	-11.3362
▁essencia	-11.3377
▁metan	-11.339
▁autorizaç	-11.3398
▁ficaria	-11.34
▁Chin	-11.3402
▁ilega	-11.3408
▁complica	-11.3409
▁Continu	-11.3413
ranja	-11.3415
ier	-11.342
▁influenciar	-11.3424
cut	-11.3425
▁papa	-11.3444
▁acert	-11.3445
▁comercia	-11.3447
▁esperem	-11.3448
▁puser	-11.3463
▁restaura	-11.3469
▁Maria	-11.3471
organ	-11.3472
logicamente	-11.3472
▁tentado	-11.3474
▁controlado	-11.3474
▁prejudi	-11.3479
▁estabeleci	-11.3481
instantaneamente	-11.3481
▁Domingo	-11.3481
▁Saudita	-11.3481
▁Watson	-11.3481
▁aconselha	-11.3481
▁alavanca	-11.3481
▁aperfeiço	-11.3481
▁assassina	-11.3481
▁cachorro	-11.3481
▁calcário	-11.3481
▁chocante	-11.3481
▁cinzenta	-11.3481
▁culinári	-11.3481
▁empolgante	-11.3481
▁endereço	-11.3481
▁energético	-11.3481
▁entusiasmo	-11.3481
▁espectr	-11.3481
▁espetáculo	-11.3481
▁farmacêutica	-11.3481
▁feminino	-11.3481
▁gémeo	-11.3481
▁hemisfério	-11.3481
▁implementar	-11.3481
▁imunitário	-11.3481
▁indígena	-11.3481
▁limpeza	-11.3481
▁membrana	-11.3481
▁módulo	-11.3481
▁perguntámo	-11.3481
▁reutiliza	-11.3481
▁secretária	-11.3481
▁trágic	-11.3481
▁típico	-11.3481
▁violento	-11.3481
▁ícone	-11.3481
▁ONU	-11.3481
▁aguentar	-11.3481
▁atleta	-11.3481
▁atribui	-11.3481
▁desagradáve	-11.3481
▁disponibili	-11.3481
▁examinar	-11.3481
▁fingir	-11.3481
▁galeria	-11.3481
▁mosquiteir	-11.3481
▁Organizaç	-11.3481
▁abraçar	-11.3481
▁censura	-11.3481
▁dádiva	-11.3481
▁balança	-11.3481
▁fechada	-11.3481
▁filtro	-11.3481
▁fóru	-11.3481
▁imprimir	-11.3481
▁trauma	-11.3481
▁namorada	-11.3481
▁Brian	-11.3481
▁Ilha	-11.3481
▁comportamenta	-11.3481
▁eólica	-11.3481
▁ecológico	-11.3481
▁soluciona	-11.3481
▁utilizá	-11.3481
▁interativo	-11.3481
▁aleatori	-11.3481
▁urgente	-11.3481
▁Terceir	-11.3481
▁drama	-11.3481
▁mobilidade	-11.3481
▁fatia	-11.3481
▁inferno	-11.3481
▁blogue	-11.3481
▁gelado	-11.3481
▁Anna	-11.3481
▁concurso	-11.3482
▁remota	-11.3482
▁blog	-11.3482
▁Martin	-11.3482
▁ausência	-11.3482
▁tradutor	-11.3482
▁Virg	-11.3482
▁laser	-11.3482
▁escass	-11.3482
▁gradual	-11.3482
▁Glass	-11.3482
▁paraíso	-11.3482
▁vinga	-11.3483
▁compensa	-11.3483
▁seringa	-11.3483
▁assinatura	-11.3484
VC	-11.3484
▁Líbia	-11.3484
▁tribo	-11.3484
▁tirei	-11.3485
▁mantido	-11.3485
▁giro	-11.3486
▁Cinc	-11.3486
▁comprometer	-11.3487
▁99	-11.3487
▁Liber	-11.3488
scritur	-11.3488
▁morais	-11.3488
▁South	-11.3489
acci	-11.349
rueg	-11.3491
▁dobrar	-11.3491
▁continuou	-11.3491
▁Fazer	-11.3492
▁Bob	-11.3492
▁chamá	-11.3492
taneamente	-11.3492
▁enche	-11.3494
▁invas	-11.3494
▁litro	-11.3495
ittle	-11.35
▁fizé	-11.35
▁compreendi	-11.3501
▁mama	-11.3501
▁compará	-11.3501
▁certificado	-11.3506
▁preocupante	-11.3507
▁redond	-11.3509
▁Americano	-11.3511
igma	-11.3513
▁repor	-11.352
▁Cit	-11.3522
▁mentalidade	-11.3524
▁gado	-11.3525
▁atingem	-11.3532
▁reuniões	-11.354
▁adaptar	-11.3541
▁hiper	-11.3543
▁estádio	-11.3543
panhei	-11.3545
cript	-11.3547
▁vestido	-11.3561
drena	-11.3561
pólio	-11.3562
▁propri	-11.3565
▁coral	-11.3565
▁dirigir	-11.357
▁produzido	-11.3571
▁Naquel	-11.3571
▁duração	-11.3582
▁interligado	-11.3583
unís	-11.3594
raumátic	-11.3598
triz	-11.3611
anche	-11.3612
▁Olho	-11.3615
▁Aprendemo	-11.3616
▁comparado	-11.3618
tocol	-11.3623
▁envelhecer	-11.3624
▁Vida	-11.3624
▁usem	-11.3625
▁organizada	-11.3627
▁chamaram	-11.3632
▁Miss	-11.3658
▁guiar	-11.3658
▁Tai	-11.3659
evoluç	-11.3669
▁animado	-11.367
▁regenera	-11.3683
▁habituado	-11.3688
▁glob	-11.3705
▁Mostr	-11.3719
▁senso	-11.3719
▁reator	-11.3726
▁passea	-11.3731
▁Oxf	-11.3741
ky	-11.3759
▁Faça	-11.3765
▁600	-11.3768
▁perseguir	-11.3772
▁post	-11.378
tária	-11.379
gresso	-11.3805
▁sonha	-11.3806
▁entregue	-11.382
▁Tim	-11.3821
▁especula	-11.3821
▁aplicam	-11.3822
▁Ur	-11.3831
NA	-11.3848
▁generosa	-11.3867
prime	-11.3873
▁surgi	-11.3873
▁viv	-11.3879
▁iniciar	-11.3884
▁lido	-11.3886
▁provocar	-11.3891
▁espi	-11.3892
▁isolado	-11.3905
▁fornece	-11.391
▁assustadora	-11.3922
▁fugi	-11.3926
▁700	-11.394
ctiva	-11.3944
gela	-11.3946
▁múltipl	-11.3957
citar	-11.3958
▁direto	-11.3966
nx	-11.3969
▁Cong	-11.3974
▁continue	-11.398
▁Fazem	-11.4001
▁tratava	-11.4012
lugar	-11.4036
▁Van	-11.4045
▁Gor	-11.4054
▁motivado	-11.4055
gie	-11.4055
olhei	-11.407
▁menti	-11.4071
fruta	-11.4075
▁inclui	-11.408
▁estende	-11.41
▁ajust	-11.4109
▁assegur	-11.4122
abul	-11.4136
▁atinge	-11.414
▁Deixe	-11.4149
▁independ	-11.4155
▁ambienta	-11.416
▁industria	-11.416
sistem	-11.416
▁Jun	-11.4176
▁apaixon	-11.4178
▁descol	-11.4179
▁casca	-11.4191
▁encorajar	-11.4191
ever	-11.4193
▁admit	-11.4193
▁introdu	-11.4195
▁corajosa	-11.4195
▁demasiada	-11.4195
▁sintetiza	-11.4195
▁suspeita	-11.4195
▁Academ	-11.4195
▁Aparece	-11.4195
▁Brooklyn	-11.4195
▁Daniel	-11.4195
▁Humanidade	-11.4195
▁Project	-11.4195
▁aborrecido	-11.4195
▁ambulância	-11.4195
▁ancestral	-11.4195
▁armadilha	-11.4195
▁arquitecto	-11.4195
▁centrifugador	-11.4195
▁cicatriz	-11.4195
▁colmeia	-11.4195
▁democrático	-11.4195
▁diagnosticado	-11.4195
▁dicionário	-11.4195
▁discrimina	-11.4195
▁eléctrica	-11.4195
▁enfermaria	-11.4195
▁espreita	-11.4195
▁esqueçam	-11.4195
▁furac	-11.4195
▁fármaco	-11.4195
▁gratuito	-11.4195
▁harmoni	-11.4195
▁imediato	-11.4195
▁impulsion	-11.4195
▁intangíve	-11.4195
▁interruptor	-11.4195
▁magnífico	-11.4195
▁malicioso	-11.4195
▁masculino	-11.4195
▁pioneiro	-11.4195
▁pirâmide	-11.4195
▁possibilita	-11.4195
▁protegida	-11.4195
▁quantia	-11.4195
▁rabisco	-11.4195
▁rastreio	-11.4195
▁reflete	-11.4195
▁relógio	-11.4195
▁sofisticada	-11.4195
▁trivial	-11.4195
▁valiosa	-11.4195
▁válvula	-11.4195
▁anual	-11.4195
▁colheita	-11.4195
▁território	-11.4195
▁congelado	-11.4195
▁constroem	-11.4195
▁neuronal	-11.4195
▁Nike	-11.4195
▁logístic	-11.4195
▁filtra	-11.4195
▁meteorológic	-11.4195
▁urgência	-11.4195
▁Story	-11.4195
▁intensa	-11.4195
▁lucrativ	-11.4195
▁Jean	-11.4195
▁tangíve	-11.4195
▁Odisse	-11.4195
▁concerto	-11.4195
▁condicionad	-11.4195
▁ferida	-11.4195
▁terrestre	-11.4195
▁palma	-11.4195
▁inverno	-11.4195
▁mutua	-11.4195
▁reclama	-11.4195
▁tranquil	-11.4195
▁Brown	-11.4195
▁irriga	-11.4195
▁pulso	-11.4195
▁colectiva	-11.4195
▁favela	-11.4195
▁Exce	-11.4195
▁exclusiva	-11.4195
▁adquiri	-11.4195
▁formou	-11.4196
▁creche	-11.4196
▁inút	-11.4196
▁fosso	-11.4196
▁reproduzir	-11.4197
▁absorver	-11.4197
▁separado	-11.4197
▁discord	-11.4197
▁submete	-11.4197
▁Green	-11.4197
▁Wood	-11.4197
▁liguei	-11.4197
▁vendida	-11.4197
▁negativa	-11.4197
▁Calcu	-11.4198
▁cumprir	-11.4198
▁jan	-11.4198
▁Jack	-11.4199
▁começava	-11.4199
▁Islão	-11.42
▁emocionante	-11.4201
▁Vivia	-11.4201
▁otimista	-11.4202
▁Gene	-11.4202
▁lata	-11.4202
▁Fez	-11.4203
▁trazido	-11.4203
▁estimulante	-11.4203
▁cargo	-11.4205
▁deitado	-11.4205
▁cobre	-11.4206
▁esquina	-11.4206
▁fundamento	-11.4209
▁fumar	-11.4211
▁perito	-11.4211
▁usavam	-11.4212
▁espiritual	-11.4212
▁orgulhosa	-11.4214
vínc	-11.4216
▁ARN	-11.4217
▁Henr	-11.4217
▁Disseram	-11.4218
▁Tempo	-11.4219
▁enganar	-11.4221
▁liberal	-11.4225
▁excita	-11.423
▁educada	-11.4231
▁progredir	-11.4237
▁composiç	-11.4242
▁acertar	-11.4244
▁insisti	-11.4247
ntário	-11.4252
▁Wall	-11.4262
tarra	-11.4265
▁subida	-11.4266
▁superar	-11.4268
▁parto	-11.4269
▁cobri	-11.4272
▁Conseguir	-11.4278
▁iraniano	-11.4278
▁mencionar	-11.4283
▁quebrar	-11.4287
icina	-11.4289
▁fluido	-11.4289
▁educa	-11.4307
sistimos	-11.4311
lóri	-11.4313
▁definido	-11.4314
▁convidado	-11.4316
ower	-11.4319
▁Perde	-11.432
▁relativ	-11.4325
▁delicad	-11.4326
▁ocupar	-11.4342
▁sepult	-11.4342
▁politica	-11.4347
▁confusa	-11.4361
▁deixe	-11.4376
▁Liga	-11.4379
▁preencher	-11.4384
▁oposi	-11.4385
omé	-11.4386
grafia	-11.4412
▁enfi	-11.4415
▁apanh	-11.4419
▁devastador	-11.443
▁gan	-11.4432
▁aprecia	-11.4444
▁treinador	-11.4456
▁explodir	-11.4498
▁Mag	-11.4514
▁Mari	-11.4515
▁cantor	-11.4527
deira	-11.4527
teiro	-11.453
▁previsíve	-11.4533
▁plane	-11.4536
▁popula	-11.4543
ack	-11.4552
vidade	-11.4597
▁protecç	-11.4622
▁colecç	-11.4625
▁deixava	-11.4633
▁deixada	-11.4689
cionista	-11.4696
incidente	-11.4699
oster	-11.4704
▁impor	-11.4708
▁assumi	-11.4721
venham	-11.4743
ividade	-11.4744
▁testemunhar	-11.4749
▁fotografa	-11.4768
▁soubesse	-11.4775
▁Gri	-11.4779
▁quint	-11.4793
▁escal	-11.4801
capacita	-11.4803
▁apreciar	-11.4805
▁convence	-11.4807
For	-11.481
ducação	-11.4814
▁frequent	-11.4818
▁posta	-11.4825
▁content	-11.4838
bed	-11.4869
▁radica	-11.4873
▁capturar	-11.4877
trónomo	-11.4916
ântico	-11.4947
▁altruís	-11.495
▁compromet	-11.4954
▁cidad	-11.4959
▁coincid	-11.4961
▁satisfa	-11.4963
,000	-11.4964
▁Palestin	-11.4964
nómica	-11.4964
▁incorpor	-11.4964
▁DVD	-11.4964
▁Ushahidi	-11.4964
▁acústic	-11.4964
▁aleatório	-11.4964
▁bailarino	-11.4964
▁blockchain	-11.4964
▁democratiza	-11.4964
▁desfloresta	-11.4964
▁dinossauro	-11.4964
▁extraterrestre	-11.4964
▁fantasia	-11.4964
▁fluoresc	-11.4964
▁homicídio	-11.4964
▁humanitária	-11.4964
▁hélice	-11.4964
▁húmid	-11.4964
▁inesperada	-11.4964
▁inúmer	-11.4964
▁microbiana	-11.4964
▁observe	-11.4964
▁proprietário	-11.4964
▁psiquiatra	-11.4964
▁rastrea	-11.4964
▁saudita	-11.4964
▁sofisticado	-11.4964
▁trajetória	-11.4964
▁zangado	-11.4964
zân	-11.4964
▁carácter	-11.4964
▁precoce	-11.4964
▁subestima	-11.4964
▁enfermeira	-11.4964
▁horário	-11.4964
▁tremenda	-11.4964
▁estufa	-11.4964
▁protocolo	-11.4964
▁tiroteio	-11.4964
▁abenço	-11.4964
▁frág	-11.4964
▁migraç	-11.4964
▁controle	-11.4964
▁brilho	-11.4964
▁Permite	-11.4964
▁caverna	-11.4964
▁espanhol	-11.4964
▁selecciona	-11.4964
▁etiqueta	-11.4964
▁expedi	-11.4964
▁basquete	-11.4964
▁arrasta	-11.4964
▁interroga	-11.4964
▁piscina	-11.4964
▁asfalt	-11.4964
▁TEDTalk	-11.4964
▁eletrónico	-11.4964
ustiça	-11.4964
▁império	-11.4964
▁neurociência	-11.4964
▁pusemo	-11.4964
Ministro	-11.4965
ícula	-11.4965
▁brutal	-11.4965
▁manga	-11.4965
▁secreta	-11.4965
▁economiza	-11.4965
▁deposit	-11.4965
▁invasiva	-11.4965
▁projecta	-11.4965
▁petiç	-11.4965
▁cruel	-11.4965
▁capitã	-11.4965
▁galinha	-11.4965
▁arquivo	-11.4965
▁desperta	-11.4966
▁verbal	-11.4966
▁exibi	-11.4966
▁enviá	-11.4966
▁repete	-11.4967
▁autonom	-11.4967
▁Ponto	-11.4967
▁mestre	-11.4967
▁usei	-11.4967
▁agrupamento	-11.4967
▁Moham	-11.4968
▁queijo	-11.4968
iforme	-11.4968
▁familiarizado	-11.4968
▁colis	-11.4969
▁192	-11.497
▁abriu	-11.497
▁humilde	-11.497
▁poço	-11.497
▁arranh	-11.4971
namorado	-11.4971
▁fizeste	-11.4972
OR	-11.4973
▁monitoriza	-11.4973
▁Chile	-11.4974
▁86	-11.4974
▁iniciou	-11.4976
▁autista	-11.4976
▁servidor	-11.4977
▁consol	-11.4977
▁orgulhoso	-11.4978
▁séc	-11.4979
▁propens	-11.4983
▁encara	-11.4983
▁29	-11.4983
▁vinho	-11.4983
▁trouxeram	-11.4985
▁copo	-11.499
▁Pega	-11.499
▁Chamo	-11.4991
▁recorde	-11.4992
▁construíram	-11.4994
▁vencedores	-11.4994
▁vivido	-11.5002
▁possuí	-11.5006
▁grato	-11.5007
▁borr	-11.5008
▁simplific	-11.5009
▁rotin	-11.5012
▁diminuí	-11.5012
▁querida	-11.5014
▁magoa	-11.5018
▁personalizado	-11.5023
▁combinaç	-11.5031
▁cere	-11.5032
▁especializado	-11.5034
▁Muda	-11.5038
▁Charl	-11.504
▁cuida	-11.5055
▁recebido	-11.5055
▁gravada	-11.5057
invent	-11.5059
▁Naquele	-11.5066
▁desisti	-11.5073
▁neo	-11.5074
▁existisse	-11.5077
▁preparada	-11.5078
fé	-11.5098
▁encontrá	-11.5105
latina	-11.5109
▁combinado	-11.5112
▁deixá	-11.5117
▁Espanh	-11.5134
▁abort	-11.5138
ouri	-11.5139
▁protege	-11.515
▁Recebe	-11.5183
moldura	-11.5189
▁previ	-11.5207
▁saiba	-11.5236
▁Bre	-11.5265
▁interage	-11.5274
▁ub	-11.5282
▁digitaliza	-11.5284
lívi	-11.5288
MA	-11.5301
▁exigir	-11.5304
Pad	-11.5306
▁infecç	-11.5306
▁aceitáve	-11.531
dez	-11.5311
▁repensa	-11.5311
▁computaciona	-11.5319
▁puxa	-11.5332
▁Corre	-11.5342
▁curador	-11.5342
percebi	-11.5346
▁Rica	-11.5368
▁caminh	-11.5397
▁adopta	-11.5399
▁evit	-11.5409
Corp	-11.5411
▁falem	-11.5425
▁empresaria	-11.5451
dico	-11.5469
▁Pat	-11.5481
ónio	-11.5499
itz	-11.5532
▁Lati	-11.5573
ES	-11.5576
▁saíre	-11.558
▁caír	-11.5612
▁discuti	-11.5625
vertida	-11.5629
▁Kin	-11.565
▁esmaga	-11.5654
óli	-11.5671
▁pegá	-11.5694
▁selva	-11.5702
posiç	-11.5718
▁insegura	-11.5732
▁agress	-11.5742
▁suport	-11.575
▁Home	-11.5757
▁radio	-11.5763
▁libera	-11.5763
fectiv	-11.5786
▁mude	-11.5786
concretiza	-11.5789
íssima	-11.5796
▁bilh	-11.5797
regulamenta	-11.5797
▁Johnny	-11.5797
▁inconsciente	-11.5797
acífico	-11.5797
uíç	-11.5797
▁Gandhi	-11.5797
▁Jordan	-11.5797
▁Primeira	-11.5797
▁Rapariga	-11.5797
▁Wikipedia	-11.5797
▁afectada	-11.5797
▁anfitri	-11.5797
▁autêntico	-11.5797
▁catedra	-11.5797
▁catástrofe	-11.5797
▁chocolate	-11.5797
▁cineasta	-11.5797
▁compreendo	-11.5797
▁comunitário	-11.5797
▁concorrente	-11.5797
▁consomem	-11.5797
▁critério	-11.5797
▁defensor	-11.5797
▁desenrol	-11.5797
▁dividido	-11.5797
▁décimo	-11.5797
▁enriqueci	-11.5797
▁esclarec	-11.5797
▁fluente	-11.5797
▁gaiola	-11.5797
▁genocídio	-11.5797
▁incentiva	-11.5797
▁incomplet	-11.5797
▁inquérito	-11.5797
▁introvertido	-11.5797
▁mergulhar	-11.5797
▁persuadi	-11.5797
▁premissa	-11.5797
▁presidencia	-11.5797
▁problemático	-11.5797
▁promissor	-11.5797
▁reconcilia	-11.5797
▁requisito	-11.5797
▁revolta	-11.5797
▁satisfeito	-11.5797
▁semelhança	-11.5797
▁silencioso	-11.5797
▁slogan	-11.5797
▁unidimensional	-11.5797
▁vestígio	-11.5797
▁Geoff	-11.5797
▁amizade	-11.5797
▁improváve	-11.5797
▁reconstruç	-11.5797
▁automático	-11.5797
▁coelho	-11.5797
▁Escrevi	-11.5797
▁General	-11.5797
▁carrinha	-11.5797
▁grego	-11.5797
▁levantou	-11.5797
▁pacote	-11.5797
▁tremendo	-11.5797
▁táxi	-11.5797
▁aptid	-11.5797
▁evapora	-11.5797
▁detalhada	-11.5797
▁exaust	-11.5797
▁reverbera	-11.5797
▁obsess	-11.5797
▁tripulaç	-11.5797
▁disposiç	-11.5797
▁embalage	-11.5798
▁acusaç	-11.5798
▁castig	-11.5798
▁sugest	-11.5798
▁tecla	-11.5798
▁tigre	-11.5798
▁alarme	-11.5798
▁Juli	-11.5798
▁resume	-11.5798
▁oposta	-11.5798
▁externo	-11.5798
▁elogio	-11.5798
▁Inici	-11.5798
▁estigma	-11.5798
▁inerente	-11.5798
▁Escolh	-11.5798
▁Atlant	-11.5798
▁esquema	-11.5798
▁fralda	-11.5798
▁empenhado	-11.5798
▁cruzamento	-11.5798
▁sólido	-11.5798
▁Sandy	-11.5798
▁fixo	-11.5798
▁preferência	-11.5798
▁sentou	-11.5799
▁Whit	-11.5799
▁calculadora	-11.5799
▁gramátic	-11.58
ferência	-11.58
▁ciente	-11.58
▁oferecid	-11.58
▁ferve	-11.58
▁celebridade	-11.5801
▁aloja	-11.5801
▁intersecç	-11.5801
▁abrangente	-11.5801
▁receio	-11.5801
▁ponha	-11.5802
▁Ensina	-11.5802
▁matern	-11.5802
▁estático	-11.5802
Gowan	-11.5803
▁hard	-11.5803
▁exige	-11.5803
▁Esperem	-11.5803
▁triba	-11.5804
▁Hanna	-11.5804
▁bruto	-11.5805
▁massiva	-11.5806
▁MR	-11.5806
▁cascata	-11.5807
▁irritante	-11.5807
▁Sky	-11.5808
▁adotar	-11.5808
▁aliena	-11.5808
▁Carne	-11.5808
▁64	-11.5809
▁eterna	-11.5809
▁oculta	-11.5809
Bit	-11.581
▁Barb	-11.5811
▁suja	-11.5812
▁corria	-11.5812
▁Tanto	-11.5812
adé	-11.5812
▁arredor	-11.5814
rgentin	-11.5815
▁quântico	-11.5816
ffit	-11.5816
▁puseram	-11.5819
▁Lord	-11.5821
▁vencedor	-11.5821
▁prosperar	-11.5821
▁rumo	-11.5823
▁dominar	-11.5823
▁trilh	-11.5824
▁estudado	-11.5826
▁mosca	-11.5831
▁Médic	-11.5832
▁desliza	-11.5833
▁restante	-11.5847
▁rasg	-11.5847
▁panor	-11.5847
▁pombo	-11.5849
têm	-11.5849
▁Passá	-11.585
▁introduzido	-11.5857
▁constituíd	-11.5858
▁cit	-11.5859
▁cól	-11.5861
▁bó	-11.5861
minente	-11.5861
▁vinda	-11.5869
▁conter	-11.589
▁ensinado	-11.5899
mplo	-11.5903
▁retirado	-11.5916
nforme	-11.5918
▁danificado	-11.5923
▁Pop	-11.5927
perceberam	-11.5936
▁Naciona	-11.5957
▁Bru	-11.5958
▁Record	-11.5968
▁fiáve	-11.5969
▁travar	-11.597
▁vela	-11.5972
▁exact	-11.5978
▁activado	-11.5981
▁apresentado	-11.5988
▁alimentare	-11.6005
Bay	-11.6029
▁costume	-11.6034
▁gast	-11.6049
▁Pegue	-11.6054
▁amava	-11.6062
▁geografi	-11.6073
▁nó	-11.6078
▁ritua	-11.6095
▁organiz	-11.6115
▁honest	-11.6121
▁processador	-11.6134
▁Boy	-11.6137
▁fundador	-11.6146
▁Construímo	-11.6169
orgânica	-11.617
eleito	-11.6176
▁Lab	-11.6191
▁fof	-11.6209
gras	-11.6232
stante	-11.6245
poeira	-11.6259
▁cortado	-11.627
arlamento	-11.6353
▁acredite	-11.6376
▁traduz	-11.6385
lab	-11.6386
nami	-11.6392
vital	-11.6454
▁produtor	-11.6471
▁confiam	-11.6517
▁Brun	-11.6526
▁percorre	-11.6529
guarda	-11.6546
soft	-11.6546
violência	-11.6546
célula	-11.6547
▁polar	-11.6557
ventual	-11.6559
poder	-11.6564
zero	-11.6571
MM	-11.6577
▁Lut	-11.6579
▁flex	-11.6584
▁Pic	-11.6594
orden	-11.6603
gri	-11.6632
▁duplic	-11.6645
▁directa	-11.6663
metria	-11.6666
▁musica	-11.6672
q	-11.6674
▁especializa	-11.6685
▁muni	-11.6694
migrante	-11.6706
▁otimis	-11.6706
▁Frequente	-11.6706
▁Ajuda	-11.6706
▁arrepend	-11.6706
▁desencade	-11.6706
▁esforça	-11.6706
▁evacua	-11.6706
▁horizontal	-11.6706
▁sujeita	-11.6706
bacteria	-11.6706
experiente	-11.6706
plégic	-11.6706
▁Amazon	-11.6706
▁CEO	-11.6706
▁Começo	-11.6706
▁Guiné	-11.6706
▁Peço	-11.6706
▁Utiliz	-11.6706
▁Voyage	-11.6706
▁abraço	-11.6706
▁absoluto	-11.6706
▁absurdo	-11.6706
▁acampamento	-11.6706
▁afegã	-11.6706
▁ansioso	-11.6706
▁arbusto	-11.6706
▁autónom	-11.6706
▁chapéu	-11.6706
▁constrói	-11.6706
▁desvanece	-11.6706
▁dinâmico	-11.6706
▁distribuir	-11.6706
▁dividida	-11.6706
▁drone	-11.6706
▁embaixador	-11.6706
▁enzima	-11.6706
▁espectáculo	-11.6706
▁fabulosa	-11.6706
▁garantia	-11.6706
▁glândula	-11.6706
▁homossexual	-11.6706
▁imunitária	-11.6706
▁intrigante	-11.6706
▁intrínsec	-11.6706
▁invulgar	-11.6706
▁lealdade	-11.6706
▁mochila	-11.6706
▁mutante	-11.6706
▁observá	-11.6706
▁pequenina	-11.6706
▁perguntem	-11.6706
▁pesticida	-11.6706
▁piratea	-11.6706
▁prossegui	-11.6706
▁reabilita	-11.6706
▁responsabiliza	-11.6706
▁simultâne	-11.6706
▁solteira	-11.6706
▁subjacente	-11.6706
▁suspenso	-11.6706
▁síndrome	-11.6706
▁taça	-11.6706
▁universitária	-11.6706
▁Jeff	-11.6706
▁Oceano	-11.6706
▁Smith	-11.6706
▁autentic	-11.6706
▁filosófic	-11.6706
▁fragmento	-11.6706
▁fraqueza	-11.6706
▁rebelde	-11.6706
▁Vietnam	-11.6706
▁alargar	-11.6706
▁conspiraç	-11.6706
▁divide	-11.6706
▁expande	-11.6706
▁banana	-11.6706
▁dilema	-11.6706
▁mestrado	-11.6706
▁Suponh	-11.6707
▁filantrop	-11.6707
▁abasteci	-11.6707
▁contracep	-11.6707
▁fraude	-11.6707
lcool	-11.6707
▁textura	-11.6707
▁colorido	-11.6707
▁Design	-11.6707
▁arrog	-11.6707
▁suspeito	-11.6707
▁adaptáve	-11.6707
▁suposta	-11.6707
▁aérea	-11.6707
bbie	-11.6707
▁gross	-11.6707
▁esgoto	-11.6707
▁acolher	-11.6707
▁posiciona	-11.6707
▁paralisia	-11.6707
▁óssea	-11.6707
▁Bush	-11.6707
▁link	-11.6707
▁redefini	-11.6707
▁elegante	-11.6707
tlântico	-11.6707
▁armazé	-11.6707
▁gordo	-11.6707
▁skate	-11.6707
▁psicológica	-11.6707
▁acusad	-11.6707
▁cristal	-11.6707
▁propuls	-11.6707
▁inscrev	-11.6707
ígado	-11.6707
▁falecid	-11.6707
▁causou	-11.6707
▁etapa	-11.6707
▁coordena	-11.6707
▁Irmã	-11.6708
▁matriz	-11.6708
▁prometi	-11.6708
▁holand	-11.6708
▁Plant	-11.6708
▁aderir	-11.6708
▁primária	-11.6708
▁precioso	-11.6708
▁embarcar	-11.6708
▁crânio	-11.6708
tzman	-11.6709
▁excessiv	-11.6709
▁aproxim	-11.6709
▁russo	-11.6709
▁Americana	-11.6709
úpi	-11.6709
léxic	-11.671
▁clon	-11.671
▁Viaj	-11.671
▁vendido	-11.671
▁primário	-11.671
▁conservadores	-11.6711
▁codificador	-11.6711
▁ressoa	-11.6711
▁executar	-11.6711
▁País	-11.6711
▁lama	-11.6711
▁predador	-11.6711
▁barriga	-11.6711
▁tristeza	-11.6712
▁zoo	-11.6712
▁feminista	-11.6712
▁torre	-11.6713
▁colher	-11.6713
▁Chego	-11.6714
▁Deixo	-11.6717
▁74	-11.6718
▁apresentou	-11.6718
▁Perdi	-11.672
▁sonora	-11.672
▁praça	-11.672
▁46	-11.6721
▁sorriso	-11.6721
▁Aceit	-11.6721
source	-11.6721
▁hier	-11.6722
▁viesse	-11.6723
▁pasta	-11.6723
▁48	-11.6724
▁viciad	-11.6725
▁magni	-11.6726
▁personalizada	-11.6726
▁GC	-11.6726
▁Lego	-11.6729
▁atrasado	-11.6731
▁Noutr	-11.6731
▁atrasar	-11.6732
▁lápi	-11.6732
▁37	-11.6732
▁cinto	-11.6734
▁grata	-11.6735
▁Gil	-11.6735
▁aposto	-11.6735
▁Lib	-11.6735
▁bimet	-11.6736
▁solta	-11.6746
▁traseir	-11.6755
▁saíram	-11.6761
▁compreendida	-11.6764
▁navegador	-11.6764
▁confe	-11.6765
bete	-11.6768
▁defend	-11.6774
▁habitante	-11.6778
▁preta	-11.6787
▁isolada	-11.6792
▁Hond	-11.6795
▁perturbador	-11.6811
▁selecç	-11.6815
▁instáve	-11.6826
ricat	-11.6828
▁trop	-11.6834
óide	-11.6837
▁abrimo	-11.6843
▁caracteriza	-11.6852
▁descrevemo	-11.6858
▁Mard	-11.6886
▁financiar	-11.6913
▁falante	-11.6914
▁Partilh	-11.6924
▁gostem	-11.6941
Cash	-11.6957
▁Pare	-11.6969
correu	-11.6977
▁contesta	-11.6978
ISA	-11.7009
avali	-11.7038
▁prega	-11.7058
terminado	-11.7058
otel	-11.7061
untu	-11.7062
▁193	-11.7067
nunciou	-11.7106
lhada	-11.7151
▁vence	-11.7175
▁hot	-11.7175
▁promete	-11.7191
▁moti	-11.7222
▁chorava	-11.7272
▁Desenh	-11.7272
▁determin	-11.7272
▁dedicar	-11.7305
▁Mund	-11.7346
▁mapea	-11.7347
▁alg	-11.7352
mund	-11.7366
RS	-11.7379
ratória	-11.738
▁acolhi	-11.7383
PA	-11.7398
tta	-11.7401
grado	-11.741
▁navega	-11.7427
▁West	-11.7446
▁expressa	-11.7492
ED	-11.7538
excremento	-11.7544
▁peg	-11.7545
estrada	-11.7548
▁empreg	-11.7556
llen	-11.7558
▁criminal	-11.7569
▁apreci	-11.7569
conservador	-11.7573
▁deixámo	-11.758
NT	-11.7586
▁sinaliza	-11.7587
▁personaliza	-11.7608
▁expandi	-11.7616
▁invers	-11.7625
▁artístic	-11.7627
▁artificia	-11.7661
▁promove	-11.7663
42	-11.7667
▁Franc	-11.7675
▁tropica	-11.7675
explic	-11.7687
▁Parti	-11.7692
▁ativis	-11.7695
▁irrita	-11.7697
▁agrupa	-11.7702
▁abrang	-11.7703
▁câm	-11.7706
▁Antiga	-11.7706
▁exercer	-11.7706
conveniência	-11.7706
doméstico	-11.7706
gradeço	-11.7706
▁Câmara	-11.7706
▁LOLcat	-11.7706
▁Soviétic	-11.7706
▁Stephen	-11.7706
▁Stuxne	-11.7706
▁Tecnologi	-11.7706
▁Trouxe	-11.7706
▁alienígena	-11.7706
▁aprofunda	-11.7706
▁australian	-11.7706
▁bancári	-11.7706
▁besouro	-11.7706
▁bitcoins	-11.7706
▁britânica	-11.7706
▁carpinteiro	-11.7706
▁cigarro	-11.7706
▁colidir	-11.7706
▁comunitária	-11.7706
▁controvérsia	-11.7706
▁destroço	-11.7706
▁diagnosticar	-11.7706
▁disfun	-11.7706
▁distrito	-11.7706
▁dramática	-11.7706
▁dramático	-11.7706
▁enfermeiro	-11.7706
▁estúpido	-11.7706
▁exposta	-11.7706
▁fenomena	-11.7706
▁fruto	-11.7706
▁helicóptero	-11.7706
▁híbrido	-11.7706
▁ideologia	-11.7706
▁implacáve	-11.7706
▁imprevisíve	-11.7706
▁judicia	-11.7706
▁líquida	-11.7706
▁magnética	-11.7706
▁marginal	-11.7706
▁maxilar	-11.7706
▁minima	-11.7706
▁mínima	-11.7706
▁nanopartícula	-11.7706
▁omnipresente	-11.7706
▁perplex	-11.7706
▁polímero	-11.7706
▁proximidade	-11.7706
▁ramificações	-11.7706
▁recipiente	-11.7706
▁rigorosa	-11.7706
▁rígido	-11.7706
▁sacrifício	-11.7706
▁telefonar	-11.7706
▁transplante	-11.7706
métrica	-11.7706
▁Scott	-11.7706
▁Victor	-11.7706
▁chocado	-11.7706
▁consultor	-11.7706
▁crónica	-11.7706
▁elástic	-11.7706
▁encomenda	-11.7706
▁humilhação	-11.7706
▁judaica	-11.7706
▁questionário	-11.7706
▁baralho	-11.7706
▁engoli	-11.7706
▁habitáve	-11.7706
▁infiltra	-11.7706
▁alucinaç	-11.7706
▁Black	-11.7706
▁Levantem	-11.7706
▁coberta	-11.7706
▁desempreg	-11.7706
▁tambor	-11.7706
▁obtêm	-11.7707
▁considerem	-11.7707
▁Donna	-11.7707
▁legenda	-11.7707
▁tablet	-11.7707
▁deprimido	-11.7707
VIII	-11.7707
▁máscara	-11.7707
▁renova	-11.7707
▁intervalo	-11.7707
▁minera	-11.7707
▁levantem	-11.7707
▁Tipo	-11.7707
▁maciç	-11.7707
▁Justin	-11.7707
▁fuga	-11.7707
▁dolorosa	-11.7707
▁hesita	-11.7707
▁imóve	-11.7707
▁plasma	-11.7707
▁injec	-11.7707
▁Stew	-11.7707
▁provou	-11.7707
▁intermédi	-11.7707
▁sobrevivi	-11.7707
▁rasto	-11.7707
▁exato	-11.7707
▁agressiva	-11.7707
▁caneta	-11.7707
▁firme	-11.7707
ítica	-11.7708
▁suponh	-11.7708
▁imers	-11.7708
▁Robert	-11.7708
▁derrete	-11.7708
▁Visua	-11.7708
▁suposiç	-11.7708
▁íman	-11.7708
▁diamante	-11.7708
▁Albert	-11.7709
rizon	-11.7709
▁atribuída	-11.7709
▁dinam	-11.7709
▁pigment	-11.7709
atidão	-11.7709
▁Pronto	-11.7709
▁Buda	-11.771
▁porreiro	-11.771
rbitr	-11.771
▁autis	-11.771
▁fóss	-11.771
▁RV	-11.771
▁coincidência	-11.771
▁julho	-11.771
▁espeta	-11.7711
▁imprud	-11.7711
▁atrev	-11.7711
▁bombea	-11.7711
▁trinta	-11.7711
▁extremidade	-11.7711
well	-11.7711
▁manteve	-11.7711
▁4,	-11.7711
▁espetr	-11.7711
▁fecho	-11.7712
▁conclu	-11.7712
▁Fey	-11.7712
▁desfrutar	-11.7712
▁Roger	-11.7713
▁veia	-11.7713
▁fomenta	-11.7713
▁prové	-11.7713
▁confinad	-11.7714
▁trigo	-11.7714
▁96	-11.7714
▁Chern	-11.7715
▁Muni	-11.7715
▁paralelo	-11.7716
▁turno	-11.7717
▁interpret	-11.7717
▁explique	-11.7718
▁Hill	-11.7719
▁ajustar	-11.7719
filia	-11.772
▁caber	-11.7721
than	-11.7724
▁Passo	-11.7724
▁fertilizante	-11.7724
▁noturn	-11.7725
tuário	-11.7735
▁Vinc	-11.7738
conhecê	-11.7739
▁julgava	-11.7748
mergir	-11.7748
▁Pensava	-11.7749
▁contradiç	-11.7752
▁2.0	-11.7752
▁elevar	-11.7756
▁activ	-11.7762
▁alivia	-11.7763
▁Stac	-11.7771
▁usámo	-11.7772
▁reproduz	-11.7794
viole	-11.7796
▁filmage	-11.78
profe	-11.7804
▁festiv	-11.7815
irtual	-11.7836
hrir	-11.7845
▁van	-11.7855
▁historiador	-11.7873
▁Pel	-11.7896
▁penic	-11.7901
▁Cabe	-11.7903
outub	-11.7908
andamento	-11.7913
▁Nasci	-11.7927
▁construtor	-11.7933
▁Medici	-11.795
▁pretend	-11.798
▁verific	-11.7999
erança	-11.8011
▁introduzi	-11.8042
ubb	-11.8045
DM	-11.8046
▁fornecedor	-11.8048
americano	-11.8065
▁juíz	-11.8091
NG	-11.8108
▁previst	-11.8118
▁Crist	-11.8127
tágio	-11.8134
▁nervo	-11.8144
▁circun	-11.8159
▁achá	-11.817
▁automat	-11.825
ério	-11.8266
▁configur	-11.828
TO	-11.8293
▁inorgânic	-11.8335
gurança	-11.8339
▁permitid	-11.8383
▁preenche	-11.8525
▁signific	-11.853
▁Milh	-11.8531
nvolvente	-11.8559
▁modern	-11.8561
mediata	-11.8567
▁reagi	-11.8588
competitivo	-11.8595
dental	-11.8615
BM	-11.8617
abrigo	-11.8656
▁exponencia	-11.8658
repara	-11.8666
banho	-11.867
▁angari	-11.8672
▁diminu	-11.8687
▁desconfi	-11.8689
▁filma	-11.87
carregar	-11.872
terrâneo	-11.8738
duzir	-11.8744
cunha	-11.8769
▁virtua	-11.8773
▁exata	-11.8775
▁Imagin	-11.8789
grafo	-11.8797
gnóstico	-11.8808
▁bru	-11.8809
núnci	-11.8814
▁extraordin	-11.8816
crâni	-11.8816
▁exclus	-11.8817
▁instintiva	-11.8818
#	-11.8818
▁sincera	-11.8818
rivilegia	-11.8818
▁ansiosa	-11.8818
▁aplaudir	-11.8818
▁disfarça	-11.8818
▁estupid	-11.8818
▁frustrante	-11.8818
▁instantânea	-11.8818
▁voluntaria	-11.8818
shirt	-11.8818
▁Accenture	-11.8818
▁CMU	-11.8818
▁Edward	-11.8818
▁Força	-11.8818
▁Maravilha	-11.8818
▁OPEP	-11.8818
▁Shakespear	-11.8818
▁Tribun	-11.8818
▁admiráve	-11.8818
▁aglomerado	-11.8818
▁assassino	-11.8818
▁asteroide	-11.8818
▁atómica	-11.8818
▁bancada	-11.8818
▁climático	-11.8818
▁constipaç	-11.8818
▁cromossoma	-11.8818
▁desaparecido	-11.8818
▁desconhecida	-11.8818
▁detergente	-11.8818
▁distribuída	-11.8818
▁drasticamente	-11.8818
▁duvido	-11.8818
▁engraçada	-11.8818
▁enriquece	-11.8818
▁espessura	-11.8818
▁espingarda	-11.8818
▁expetativa	-11.8818
▁exprimir	-11.8818
▁fantasma	-11.8818
▁frustraç	-11.8818
▁fósforo	-11.8818
▁garantido	-11.8818
▁horror	-11.8818
▁imortali	-11.8818
▁impotente	-11.8818
▁inserir	-11.8818
▁intacto	-11.8818
▁interferi	-11.8818
▁magnífica	-11.8818
▁miniaturiza	-11.8818
▁mágica	-11.8818
▁neurocientista	-11.8818
▁neurocirurgi	-11.8818
▁noticiário	-11.8818
▁obcecada	-11.8818
▁obsoleto	-11.8818
▁ocorrido	-11.8818
▁prateleira	-11.8818
▁pressuposto	-11.8818
▁proveniente	-11.8818
▁providencia	-11.8818
▁psicopata	-11.8818
▁psicossocia	-11.8818
▁quadrada	-11.8818
▁refrigera	-11.8818
▁retângulo	-11.8818
▁rodeado	-11.8818
▁salientar	-11.8818
▁submarino	-11.8818
▁subsídio	-11.8818
▁sussurr	-11.8818
▁teórico	-11.8818
▁transborda	-11.8818
▁tubarões	-11.8818
▁tóxico	-11.8818
▁túmulo	-11.8818
▁óptic	-11.8818
▁Preocup	-11.8818
▁bombeiro	-11.8818
▁cabine	-11.8818
▁desvantage	-11.8818
▁emprestado	-11.8818
▁metabólic	-11.8818
▁Permitam	-11.8818
▁alargad	-11.8818
▁excedente	-11.8818
▁pesadelo	-11.8818
▁ambicioso	-11.8818
▁carruage	-11.8818
▁cintila	-11.8818
▁higien	-11.8818
▁inflex	-11.8818
▁presumi	-11.8818
▁romântic	-11.8818
▁coerente	-11.8818
▁convite	-11.8818
▁coreano	-11.8818
▁batata	-11.8818
▁agrada	-11.8818
▁potente	-11.8818
▁retalho	-11.8818
▁adesivo	-11.8818
▁jogador	-11.8818
▁estreita	-11.8818
▁bambo	-11.8818
▁savana	-11.8818
▁Fizeram	-11.8818
▁mandei	-11.8818
▁memorizar	-11.8818
▁replicar	-11.8818
▁empilha	-11.8818
imburg	-11.8818
▁envergonhado	-11.8818
▁artéria	-11.8818
▁exporta	-11.8818
▁necro	-11.8818
▁sombria	-11.8818
▁vitorian	-11.8818
▁coloquei	-11.8818
▁diverg	-11.8818
▁violar	-11.8818
▁revelou	-11.8818
▁domingo	-11.8818
▁Venha	-11.8818
▁asiático	-11.8818
▁sensata	-11.8818
▁nerd	-11.8818
▁característico	-11.8818
▁composta	-11.8818
▁paviment	-11.8818
▁pêlo	-11.8818
▁garante	-11.8818
▁sintétic	-11.8818
▁roedor	-11.8818
▁garga	-11.8818
▁boom	-11.8818
eogra	-11.8818
▁confundi	-11.8818
▁urina	-11.8818
▁transmite	-11.8818
▁invoca	-11.8818
▁prostitui	-11.8818
▁arsena	-11.8818
fortuna	-11.8818
▁infeciosa	-11.8818
▁artesana	-11.8818
▁patologia	-11.8818
▁surto	-11.8818
▁conectado	-11.8819
▁educacional	-11.8819
▁agressivo	-11.8819
▁grávida	-11.8819
▁ingeri	-11.8819
▁mentiroso	-11.8819
▁digest	-11.8819
▁comprou	-11.8819
▁Natural	-11.8819
▁frasco	-11.8819
▁simplista	-11.8819
▁autoestrada	-11.8819
▁gigantesco	-11.8819
▁gigantesca	-11.8819
▁imagino	-11.8819
▁Ponham	-11.8819
▁fogueira	-11.8819
▁sistemátic	-11.8819
íduo	-11.8819
▁carrinho	-11.8819
▁ciclovia	-11.882
▁deparei	-11.882
▁ocular	-11.882
▁finança	-11.882
▁Gold	-11.882
▁monstro	-11.882
▁arqueológic	-11.882
▁picada	-11.882
▁resgat	-11.882
▁prejudicia	-11.882
▁enterr	-11.882
pacto	-11.8821
▁ímp	-11.8821
▁comprei	-11.8821
▁distingue	-11.8821
▁cristão	-11.8821
▁regiona	-11.8821
▁cessar	-11.8821
▁transgress	-11.8822
rough	-11.8822
▁atento	-11.8822
ncipe	-11.8822
▁partitura	-11.8822
▁excecional	-11.8822
íbli	-11.8822
▁Inver	-11.8822
▁Turk	-11.8823
▁colina	-11.8823
▁ligá	-11.8823
▁1,3	-11.8823
▁relev	-11.8823
▁hack	-11.8823
▁Israelita	-11.8824
▁nalguma	-11.8825
▁emerge	-11.8825
▁protetor	-11.8825
jeito	-11.8825
▁Berk	-11.8826
prud	-11.8826
▁Chef	-11.8827
▁bebem	-11.8827
▁enterrado	-11.8827
▁assume	-11.8828
▁martel	-11.8828
▁concretizar	-11.8829
▁acciona	-11.8829
▁Insta	-11.8829
▁evoca	-11.8831
▁feio	-11.8831
▁Altera	-11.8833
▁Freu	-11.8837
▁gravid	-11.8839
▁desafiante	-11.8845
▁Apost	-11.8845
▁confessa	-11.8857
▁Usámo	-11.8867
film	-11.8876
▁confrontado	-11.8896
▁Investi	-11.8904
ácte	-11.8905
ibera	-11.8911
▁agressor	-11.8913
gradua	-11.8925
▁detetor	-11.8936
onfiança	-11.8947
efiro	-11.8957
▁Tune	-11.8958
▁criminaliza	-11.8974
fiel	-11.899
▁veja	-11.9043
▁cosmo	-11.9054
SS	-11.906
ruz	-11.9075
▁atirador	-11.9134
FL	-11.9297
▁Hub	-11.9311
▁parlament	-11.9318
Shar	-11.9326
senhei	-11.933
struiu	-11.9337
▁93	-11.9384
▁tonelada	-11.9412
▁especulador	-11.9441
▁confiáve	-11.947
consistência	-11.9516
▁acompanhad	-11.9539
▁auditiv	-11.961
sensoria	-11.9619
▁engana	-11.9659
▁inventá	-11.9687
head	-11.9758
▁Kenn	-11.9813
ácu	-11.9818
▁irónic	-11.9827
fissão	-11.984
ésimo	-11.9852
▁interagi	-11.9854
determina	-11.9902
terapia	-11.9904
pública	-11.9907
computador	-11.9908
nergia	-11.9918
ssencial	-11.9943
pareciam	-11.9946
istó	-11.9961
▁exempl	-11.9984
▁simpli	-11.9992
luz	-12
▁universa	-12.0004
▁hidr	-12.001
▁corrigi	-12.0023
▁fertiliza	-12.0045
▁espanto	-12.0051
▁particip	-12.006
▁equival	-12.0066
lfabeto	-12.0067
▁miseric	-12.0068
▁Compreend	-12.0068
▁Public	-12.0068
▁banquete	-12.0068
▁embrulh	-12.0068
▁envelope	-12.0068
▁gentil	-12.0068
lânc	-12.0068
▁Barulho	-12.0068
▁Cameron	-12.0068
▁Cidadão	-12.0068
▁Hebraica	-12.0068
▁Hiroshi	-12.0068
▁Hospita	-12.0068
▁Islâmic	-12.0068
▁Mountain	-12.0068
▁Reconhece	-12.0068
▁Representa	-12.0068
▁aborrecida	-12.0068
▁ambiguidade	-12.0068
▁antidepressivo	-12.0068
▁autêntica	-12.0068
▁banqueiro	-12.0068
▁barulhento	-12.0068
▁benéfico	-12.0068
▁biomolécula	-12.0068
▁borboleta	-12.0068
▁bronze	-12.0068
▁cibernétic	-12.0068
▁cobarde	-12.0068
▁contempla	-12.0068
▁crocodilo	-12.0068
▁cívico	-12.0068
▁decifra	-12.0068
▁descansar	-12.0068
▁diagnosticada	-12.0068
▁dispendioso	-12.0068
▁distancia	-12.0068
▁documentário	-12.0068
▁doutrina	-12.0068
▁enfatiza	-12.0068
▁esquadra	-12.0068
▁estilhaç	-12.0068
▁estrangeira	-12.0068
▁fabuloso	-12.0068
▁formidáve	-12.0068
▁frustrada	-12.0068
▁gafanhoto	-12.0068
▁geometria	-12.0068
▁hostilidade	-12.0068
▁hóspede	-12.0068
▁iPod	-12.0068
▁imperativo	-12.0068
▁incêndio	-12.0068
▁indício	-12.0068
▁insignific	-12.0068
▁intensivo	-12.0068
▁latrina	-12.0068
▁legítimo	-12.0068
▁linfático	-12.0068
▁manufatura	-12.0068
▁maquina	-12.0068
▁maratona	-12.0068
▁marinheiro	-12.0068
▁maximizar	-12.0068
▁mesquita	-12.0068
▁oferta	-12.0068
▁oftalmologista	-12.0068
▁optimiza	-12.0068
▁palpite	-12.0068
▁peculiar	-12.0068
▁psiquiátrico	-12.0068
▁péssima	-12.0068
▁repercuss	-12.0068
▁rigoroso	-12.0068
▁scanner	-12.0068
▁segrega	-12.0068
▁simbólic	-12.0068
▁sábio	-12.0068
▁tartaruga	-12.0068
▁tímida	-12.0068
▁vislumbre	-12.0068
▁vizinhança	-12.0068
▁vulnerabilidade	-12.0068
▁árduo	-12.0068
▁íntima	-12.0068
canadiano	-12.0068
▁Independ	-12.0068
▁McC	-12.0068
▁Titã	-12.0068
▁arrefece	-12.0068
▁consenso	-12.0068
▁espalhou	-12.0068
▁ficheiro	-12.0068
▁imaginei	-12.0068
▁interactivo	-12.0068
▁obedecer	-12.0068
▁pizza	-12.0068
▁prolifera	-12.0068
▁retornar	-12.0068
▁veneno	-12.0068
▁vitamina	-12.0068
▁Curios	-12.0068
▁Photos	-12.0068
▁Princeton	-12.0068
▁Rachel	-12.0068
▁ascendente	-12.0068
▁fronta	-12.0068
▁infidel	-12.0068
▁trafica	-12.0068
▁traçado	-12.0068
LEG	-12.0068
▁acasala	-12.0068
▁beijo	-12.0068
▁cabana	-12.0068
▁hosped	-12.0068
▁instrutor	-12.0068
▁laboratoria	-12.0068
▁obtém	-12.0068
▁pilares	-12.0068
▁watt	-12.0068
gipto	-12.0068
▁paliativ	-12.0068
▁válida	-12.0068
▁bebida	-12.0068
▁masculina	-12.0068
▁passivo	-12.0068
▁irradia	-12.0068
▁fortalecer	-12.0068
▁traumatiza	-12.0068
▁monumento	-12.0068
▁modest	-12.0068
▁tronco	-12.0068
▁inocente	-12.0068
▁oprimido	-12.0068
▁Irland	-12.0068
▁duche	-12.0068
▁abstrat	-12.0068
▁persuas	-12.0068
▁caravana	-12.0068
▁lamenta	-12.0068
▁reorganiza	-12.0068
▁Transform	-12.0068
▁abrevia	-12.0068
▁modalidade	-12.0068
▁sufoca	-12.0068
▁publicitári	-12.0068
▁ideais	-12.0068
▁quantific	-12.0068
▁desmonta	-12.0068
▁dessaliniza	-12.0068
▁multinaciona	-12.0068
▁Campo	-12.0068
▁destinado	-12.0068
▁temporária	-12.0068
▁parafuso	-12.0068
▁geográfica	-12.0068
▁drive	-12.0068
▁obtido	-12.0068
▁Feli	-12.0068
▁genita	-12.0068
▁otimiza	-12.0068
▁pára	-12.0068
▁qualificado	-12.0068
▁refiro	-12.0068
▁soletra	-12.0069
▁narrador	-12.0069
firmou	-12.0069
▁Reserv	-12.0069
▁sólida	-12.0069
▁concebido	-12.0069
▁superpoder	-12.0069
▁Trum	-12.0069
▁colatera	-12.0069
▁gangue	-12.0069
▁Free	-12.0069
quático	-12.0069
▁LED	-12.0069
▁biomas	-12.0069
▁satisfaze	-12.0069
▁lábio	-12.0069
▁cometido	-12.0069
▁protestar	-12.0069
▁atendi	-12.007
▁Olhei	-12.007
▁Toy	-12.007
rapeut	-12.007
▁espantad	-12.007
▁preciosa	-12.007
▁Avanç	-12.007
▁relato	-12.007
pavor	-12.007
▁sondage	-12.007
▁punho	-12.007
▁educativa	-12.007
▁rainha	-12.0071
▁florescer	-12.0071
▁gay	-12.0071
▁seroton	-12.0071
▁prevê	-12.0071
▁cheque	-12.0071
▁romp	-12.0071
▁Filip	-12.0071
▁inibi	-12.0071
▁fisca	-12.0071
▁ardente	-12.0072
planetária	-12.0073
▁State	-12.0073
étrico	-12.0073
Soph	-12.0074
▁ruido	-12.0075
▁retoca	-12.0076
▁extremista	-12.0077
▁criptograf	-12.0078
▁preval	-12.0079
▁Morre	-12.0079
▁Clint	-12.0079
▁relata	-12.008
▁veado	-12.008
▁apropriada	-12.008
▁Coisa	-12.0081
▁Kev	-12.0083
hall	-12.0084
▁suscita	-12.0084
▁municipa	-12.0085
▁Tirar	-12.0087
clíni	-12.0089
▁injeç	-12.0091
▁Esqueci	-12.0093
▁render	-12.0102
▁Berl	-12.0103
▁psiqu	-12.0109
ubara	-12.0126
Prince	-12.0129
▁ful	-12.0134
▁dissi	-12.0143
▁fotográfic	-12.0149
oots	-12.016
▁pescador	-12.0214
ctav	-12.0215
▁Voltemo	-12.0215
scubram	-12.0242
▁olhasse	-12.0255
▁voltá	-12.0275
▁respond	-12.0277
▁respir	-12.0281
desejáve	-12.0299
▁rejei	-12.0318
▁palh	-12.0328
RN	-12.033
▁solidari	-12.0352
▁fotograf	-12.0418
▁montage	-12.0546
▁explor	-12.0612
▁dourad	-12.0637
endido	-12.0669
▁Elv	-12.0768
prometeu	-12.077
aki	-12.0881
▁Adicion	-12.091
▁travage	-12.0964
▁muit	-12.1178
bsoluta	-12.1205
gand	-12.1223
rive	-12.1246
▁encaix	-12.1252
volucionári	-12.1269
▁sanguíne	-12.1297
▁inevit	-12.1328
▁espéci	-12.133
nutri	-12.1334
potência	-12.1336
à	-12.1337
fazer	-12.1337
conómico	-12.1346
anima	-12.1349
ndure	-12.1352
▁Wav	-12.1376
▁nutritiv	-12.138
▁abranda	-12.1382
▁monitor	-12.1393
▁marítim	-12.1424
▁America	-12.1425
▁emergi	-12.1436
▁perfei	-12.1449
▁provoc	-12.1459
▁espiritua	-12.1461
▁convert	-12.1462
▁envio	-12.1464
▁mudo	-12.1467
▁maluc	-12.1474
▁desespera	-12.1479
rânio	-12.1495
▁adolesc	-12.1495
ndustrial	-12.1495
ministra	-12.1496
▁incessante	-12.1496
▁intuitiva	-12.1496
▁misteriosa	-12.1496
▁posterior	-12.1496
▁substancial	-12.1496
▁Especial	-12.1496
▁fisioterap	-12.1496
▁moderada	-12.1496
▁quantitativa	-12.1496
Donald	-12.1496
iorquino	-12.1496
neurotransmissor	-12.1496
retrovira	-12.1496
satisfeita	-12.1496
▁Audiência	-12.1496
▁Conhecemo	-12.1496
▁Connect	-12.1496
▁Demasiad	-12.1496
▁Desenvolve	-12.1496
▁Economia	-12.1496
▁Envolve	-12.1496
▁Existia	-12.1496
▁Experimente	-12.1496
▁Fantástic	-12.1496
▁Galile	-12.1496
▁Hawking	-12.1496
▁MOOC	-12.1496
▁abstracta	-12.1496
▁absurda	-12.1496
▁adjacente	-12.1496
▁amígdala	-12.1496
▁analítico	-12.1496
▁anestesia	-12.1496
▁apetite	-12.1496
▁assombra	-12.1496
▁bêbado	-12.1496
▁calendário	-12.1496
▁catastrófica	-12.1496
▁católic	-12.1496
▁cemitério	-12.1496
▁cerimónia	-12.1496
▁chávena	-12.1496
▁cirúrgica	-12.1496
▁convidá	-12.1496
▁correspondência	-12.1496
▁criptodivisa	-12.1496
▁cúbico	-12.1496
▁desvaloriza	-12.1496
▁disputa	-12.1496
▁download	-12.1496
▁dígito	-12.1496
▁enxaqueca	-12.1496
▁espectador	-12.1496
▁evidencia	-12.1496
▁explode	-12.1496
▁faísca	-12.1496
▁federal	-12.1496
▁gigawatt	-12.1496
▁grandioso	-12.1496
▁gruta	-12.1496
▁heroína	-12.1496
▁hipotétic	-12.1496
▁icebergue	-12.1496
▁ilimitad	-12.1496
▁influente	-12.1496
▁inseguro	-12.1496
▁intacta	-12.1496
▁islâmico	-12.1496
▁jitney	-12.1496
▁legitim	-12.1496
▁linguística	-12.1496
▁longitudina	-12.1496
▁lógico	-12.1496
▁nanómetro	-12.1496
▁numérica	-12.1496
▁obscuro	-12.1496
▁pastilha	-12.1496
▁perpetua	-12.1496
▁quadrante	-12.1496
▁rebentar	-12.1496
▁remédio	-12.1496
▁reutilizáve	-12.1496
▁rígida	-12.1496
▁singular	-12.1496
▁solitário	-12.1496
▁subúrbio	-12.1496
▁suicidou	-12.1496
▁trecho	-12.1496
▁ténue	-12.1496
▁tímido	-12.1496
▁unicórnio	-12.1496
▁usual	-12.1496
▁visitei	-12.1496
▁óptima	-12.1496
▁Cheryl	-12.1496
▁Computador	-12.1496
▁Constitui	-12.1496
▁Construir	-12.1496
▁Importa	-12.1496
▁Sistema	-12.1496
▁aluguer	-12.1496
▁analógic	-12.1496
▁assimétrica	-12.1496
▁bizarra	-12.1496
▁burocrátic	-12.1496
▁cadáver	-12.1496
▁desprez	-12.1496
▁encerra	-12.1496
▁enraizada	-12.1496
▁esboço	-12.1496
▁exagero	-12.1496
▁excluíd	-12.1496
▁extinto	-12.1496
▁formiga	-12.1496
▁genérico	-12.1496
▁horrorizada	-12.1496
▁intrigad	-12.1496
▁luminos	-12.1496
▁perpétu	-12.1496
▁precipita	-12.1496
▁rebento	-12.1496
▁reforço	-12.1496
▁ridiculariza	-12.1496
▁sacrific	-12.1496
▁simpática	-12.1496
▁sincroni	-12.1496
▁Administra	-12.1496
▁Projeto	-12.1496
▁Rapaz	-12.1496
▁automonta	-12.1496
▁boleia	-12.1496
▁defeca	-12.1496
▁engrenage	-12.1496
▁infravermelh	-12.1496
▁partilhei	-12.1496
▁polegar	-12.1496
▁portugues	-12.1496
▁píxe	-12.1496
▁violada	-12.1496
▁Presum	-12.1496
▁amplifica	-12.1496
▁arqueologi	-12.1496
▁espessa	-12.1496
▁festeja	-12.1496
▁patrocina	-12.1496
▁precursor	-12.1496
▁treine	-12.1496
▁vazia	-12.1496
celulo	-12.1496
▁Hindu	-12.1496
▁concreto	-12.1496
▁congelada	-12.1496
▁latino	-12.1496
▁miúda	-12.1496
▁desmoron	-12.1496
▁medalha	-12.1496
▁suprema	-12.1496
▁Robin	-12.1496
▁estratos	-12.1496
▁pontinho	-12.1496
▁repleto	-12.1496
▁emblema	-12.1496
▁fresca	-12.1496
▁genial	-12.1496
▁gozar	-12.1496
▁purifica	-12.1496
▁descendente	-12.1496
▁alquimi	-12.1496
▁sentinela	-12.1496
▁sobrinha	-12.1496
▁chumbo	-12.1496
ergaminho	-12.1496
intestina	-12.1496
▁levantei	-12.1496
▁torturad	-12.1496
▁aliança	-12.1496
▁incendi	-12.1496
▁desportivo	-12.1496
▁Titan	-12.1496
▁subsarian	-12.1496
▁formula	-12.1496
▁freira	-12.1496
▁plut	-12.1496
▁Disney	-12.1496
▁Grupo	-12.1496
▁precauç	-12.1496
▁péssimo	-12.1496
▁juntem	-12.1496
▁intermináve	-12.1496
▁muco	-12.1496
▁nómada	-12.1496
▁deliberad	-12.1496
▁anteced	-12.1496
▁implante	-12.1496
▁vulc	-12.1496
▁evangel	-12.1496
▁mancha	-12.1496
▁existencial	-12.1496
▁Céu	-12.1496
▁comediante	-12.1496
▁ligou	-12.1496
▁profeta	-12.1496
▁chatea	-12.1496
▁recordo	-12.1496
▁cerco	-12.1496
▁Vermelh	-12.1497
▁Mantive	-12.1497
anical	-12.1497
▁asneira	-12.1497
▁erguer	-12.1497
▁Alimenta	-12.1497
antoche	-12.1497
▁jorr	-12.1497
▁amigáve	-12.1497
▁converg	-12.1497
▁despesa	-12.1497
▁desprovid	-12.1497
▁encosta	-12.1497
▁Cooper	-12.1497
▁mensal	-12.1497
▁Direct	-12.1497
▁Anali	-12.1497
▁radar	-12.1497
▁retrata	-12.1497
▁dispor	-12.1497
▁Coloque	-12.1498
▁pseud	-12.1498
▁convicç	-12.1498
▁Humano	-12.1498
légio	-12.1498
▁Ensino	-12.1498
▁binári	-12.1498
▁emitir	-12.1498
▁Escute	-12.1498
▁manada	-12.1498
▁bilhete	-12.1499
▁desviar	-12.15
▁transcriç	-12.15
▁fortale	-12.15
▁Model	-12.15
▁Anima	-12.15
▁urna	-12.1501
▁dentista	-12.1501
▁constat	-12.1502
▁embutid	-12.1502
▁fideli	-12.1502
tectur	-12.1502
▁incert	-12.1503
▁colch	-12.1503
▁Afast	-12.1503
▁alonga	-12.1506
lfato	-12.1507
▁suín	-12.1507
▁surf	-12.1508
▁Image	-12.1509
▁Demora	-12.1511
▁Multi	-12.1511
▁Patric	-12.1512
▁utilitári	-12.1512
attle	-12.1514
▁Nicol	-12.1515
▁prevalece	-12.1526
▁Plat	-12.1556
▁ternur	-12.1559
▁correlaç	-12.1565
▁Vimo	-12.1575
▁complement	-12.1602
▁Retir	-12.1606
ajustado	-12.1617
▁Supr	-12.1651
biótic	-12.1655
▁favorece	-12.1665
▁African	-12.1692
érico	-12.1709
lyn	-12.1713
agan	-12.1717
monstrou	-12.1727
▁concentr	-12.1824
percebê	-12.1911
▁demonstr	-12.1931
▁derrota	-12.2013
▁Denn	-12.2022
▁irregular	-12.2028
▁descarrega	-12.2049
úc	-12.2154
▁corporativ	-12.226
umentada	-12.2268
▁gost	-12.2319
▁entrevist	-12.2396
▁Construí	-12.2429
▁cartograf	-12.2434
▁exigi	-12.2435
▁explodi	-12.2457
▁extrem	-12.2457
▁lembre	-12.2472
tirando	-12.2545
colhido	-12.2579
ulenta	-12.2687
▁Receb	-12.2697
avesso	-12.2726
▁encoraj	-12.2763
cordei	-12.2799
feridos	-12.2833
nvolvi	-12.2876
▁pomo	-12.2957
▁iranian	-12.2962
▁conhec	-12.2976
▁modific	-12.2985
aparecer	-12.2989
▁mexican	-12.2992
gráfica	-12.2992
curso	-12.2993
▁desconfort	-12.2995
disciplina	-12.2999
clique	-12.2999
espacia	-12.3002
stituir	-12.3051
▁clássic	-12.3056
▁vitr	-12.3059
▁nenhu	-12.3107
cipal	-12.314
▁encontre	-12.3151
▁mostre	-12.3152
conquist	-12.3154
▁feminis	-12.3155
▁Líb	-12.3158
recta	-12.3158
olaborador	-12.3161
greja	-12.3162
díaco	-12.3162
aboratório	-12.3162
encedor	-12.3162
▁dificil	-12.3163
▁fossiliza	-12.3163
▁predominante	-12.3163
POO	-12.3163
curricular	-12.3163
heterossexua	-12.3163
hidrofóbic	-12.3163
psiquiátrica	-12.3163
uscultador	-12.3163
xadrez	-12.3163
▁3,1	-12.3163
▁Adivinh	-12.3163
▁Aeroporto	-12.3163
▁BitCoin	-12.3163
▁Brancotopia	-12.3163
▁CPU	-12.3163
▁Cuidado	-12.3163
▁Federa	-12.3163
▁IGF	-12.3163
▁Jefferson	-12.3163
▁McDonald	-12.3163
▁Muçulman	-12.3163
▁Nikola	-12.3163
▁Quinhent	-12.3163
▁Tijuana	-12.3163
▁adversidade	-12.3163
▁alarmante	-12.3163
▁ambígua	-12.3163
▁anomalia	-12.3163
▁apicultor	-12.3163
▁apofenia	-12.3163
▁arrojad	-12.3163
▁artefacto	-12.3163
▁artifício	-12.3163
▁berço	-12.3163
▁bioquímic	-12.3163
▁brasileiro	-12.3163
▁cabeludo	-12.3163
▁chaminé	-12.3163
▁ciclista	-12.3163
▁circulo	-12.3163
▁cirúrgico	-12.3163
▁colaborativa	-12.3163
▁compassivo	-12.3163
▁conjuga	-12.3163
▁conselheiro	-12.3163
▁consideráve	-12.3163
▁costeira	-12.3163
▁cozinheir	-12.3163
▁cósmica	-12.3163
▁desagrega	-12.3163
▁dificulta	-12.3163
▁disparidade	-12.3163
▁enviesamento	-12.3163
▁estratégic	-12.3163
▁farmacêutico	-12.3163
▁fotovoltaic	-12.3163
▁frustrado	-12.3163
▁genérica	-12.3163
▁glóbulo	-12.3163
▁golpe	-12.3163
▁hectare	-12.3163
▁hidrostático	-12.3163
▁imoral	-12.3163
▁impressionou	-12.3163
▁inadequado	-12.3163
▁inaugura	-12.3163
▁incapaz	-12.3163
▁ineficaz	-12.3163
▁insecticida	-12.3163
▁insustentáve	-12.3163
▁interpessoa	-12.3163
▁introspe	-12.3163
▁inutil	-12.3163
▁itiner	-12.3163
▁maiúscul	-12.3163
▁medíocre	-12.3163
▁mergulhador	-12.3163
▁microflu	-12.3163
▁misterioso	-12.3163
▁mobília	-12.3163
▁mortífer	-12.3163
▁negligencia	-12.3163
▁negocei	-12.3163
▁neurologista	-12.3163
▁ofensiv	-12.3163
▁orfanato	-12.3163
▁pacífica	-12.3163
▁padroniza	-12.3163
▁planalto	-12.3163
▁preocupo	-12.3163
▁publique	-12.3163
▁reconfigur	-12.3163
▁reflecte	-12.3163
▁reivindica	-12.3163
▁repositório	-12.3163
▁residência	-12.3163
▁robótico	-12.3163
▁rodoviári	-12.3163
▁solitária	-12.3163
▁súbit	-12.3163
▁trégua	-12.3163
▁vagina	-12.3163
▁violino	-12.3163
▁virtuoso	-12.3163
lírio	-12.3163
▁Brother	-12.3163
▁Digita	-12.3163
▁Nichol	-12.3163
▁Segui	-12.3163
▁bipolar	-12.3163
▁capacete	-12.3163
▁denuncia	-12.3163
▁detalhado	-12.3163
▁deteriora	-12.3163
▁escandalos	-12.3163
▁esculpi	-12.3163
▁feroz	-12.3163
▁greve	-12.3163
▁indefinid	-12.3163
▁jarra	-12.3163
▁minhoca	-12.3163
▁monopólio	-12.3163
▁pegajosa	-12.3163
▁pertença	-12.3163
▁pontiagud	-12.3163
▁primitiva	-12.3163
▁proclam	-12.3163
▁protegido	-12.3163
▁pátio	-12.3163
▁rejuvenesc	-12.3163
▁rép	-12.3163
▁simboliza	-12.3163
▁ultima	-12.3163
cancerígen	-12.3163
▁2040	-12.3163
▁Massachus	-12.3163
▁Movimento	-12.3163
▁Olimp	-12.3163
▁TAC	-12.3163
▁anedota	-12.3163
▁antropólog	-12.3163
▁babilónio	-12.3163
▁camionista	-12.3163
▁consciencializ	-12.3163
▁traumatismo	-12.3163
▁Fuller	-12.3163
▁cedência	-12.3163
▁consoante	-12.3163
▁estudioso	-12.3163
▁inquiet	-12.3163
▁rácio	-12.3163
▁viúva	-12.3163
▁Doença	-12.3163
▁consciencios	-12.3163
▁intenso	-12.3163
▁pincel	-12.3163
▁combiná	-12.3163
▁estipul	-12.3163
▁fachada	-12.3163
▁insensíve	-12.3163
▁relaxa	-12.3163
▁Negra	-12.3163
▁aéreo	-12.3163
▁cabina	-12.3163
▁coreografia	-12.3163
▁expulso	-12.3163
▁flash	-12.3163
▁ineficiente	-12.3163
▁tocou	-12.3163
▁primitivo	-12.3163
▁repulsiv	-12.3163
▁tecnic	-12.3163
▁válido	-12.3163
▁chocada	-12.3163
▁expresso	-12.3163
▁investe	-12.3163
▁vigarista	-12.3163
▁Blue	-12.3163
▁clã	-12.3163
▁duvida	-12.3163
▁efémer	-12.3163
meteor	-12.3163
▁concreta	-12.3163
▁seleciona	-12.3163
▁Club	-12.3163
▁Columb	-12.3163
▁boneca	-12.3163
▁comprida	-12.3163
▁deliciosa	-12.3163
▁pistola	-12.3163
▁Antigo	-12.3163
▁Isabel	-12.3163
▁interativa	-12.3163
▁Brinc	-12.3163
▁caderno	-12.3163
▁medieva	-12.3163
▁cartoon	-12.3163
▁nitid	-12.3163
▁pálid	-12.3163
▁divino	-12.3163
▁Palestiniano	-12.3163
▁enviem	-12.3163
▁costela	-12.3163
♫	-13.5988
!	-13.5989
â	-13.599
—	-13.5991
É	-13.5992
)	-13.5993
:	-13.5994
õ	-13.5995
?	-13.5996
ç	-13.5997
&	-13.5998
