<unk>	0
<s>	0
</s>	0
▁,	-3.21665
▁.	-3.23975
a	-3.60436
▁de	-3.66697
e	-3.86754
ă	-3.86814
i	-3.90215
▁	-4.2011
t	-4.23342
▁în	-4.26892
-	-4.30637
▁să	-4.31941
m	-4.49995
▁a	-4.51182
▁o	-4.74724
▁că	-4.76075
▁care	-4.77728
▁la	-4.83088
▁un	-4.90939
▁și	-4.93579
le	-4.96638
▁şi	-4.9746
▁cu	-5.02734
▁nu	-5.06289
▁pe	-5.07284
▁&	-5.08009
;	-5.08014
ul	-5.08044
▁din	-5.17756
quo	-5.18522
▁mai	-5.18586
▁pentru	-5.2113
▁ce	-5.2363
▁e	-5.25177
▁este	-5.35751
▁ca	-5.49459
▁se	-5.49625
▁am	-5.51781
u	-5.54117
o	-5.578
▁sunt	-5.72251
▁?	-5.73049
l	-5.7405
ţi	-5.89634
ți	-5.90297
▁ne	-5.90649
▁asta	-5.91473
▁:	-5.96136
▁fi	-5.96173
lor	-5.98935
▁au	-5.99823
am	-6.01266
▁fost	-6.03084
ului	-6.03276
▁—	-6.10017
▁)	-6.13978
(	-6.14105
▁s	-6.14592
▁Şi	-6.16307
▁le	-6.28362
▁foarte	-6.31839
▁mult	-6.3186
▁sau	-6.32147
▁Dar	-6.32152
▁Și	-6.3248
▁cum	-6.32957
s	-6.35403
▁dar	-6.3736
▁despre	-6.37469
▁in	-6.37719
▁când	-6.38806
▁ar	-6.39609
▁dacă	-6.39819
▁Nu	-6.43062
▁acest	-6.47965
ar	-6.51212
un	-6.52769
▁ani	-6.52896
▁era	-6.55307
▁A	-6.55687
▁sa	-6.55717
▁într	-6.56625
▁Am	-6.58344
au	-6.61898
▁În	-6.63092
▁E	-6.65807
▁pute	-6.68559
ele	-6.68628
▁va	-6.68922
▁De	-6.69545
▁vă	-6.69683
▁aceste	-6.70197
▁face	-6.70265
▁al	-6.71784
▁doar	-6.71891
▁aceast	-6.74047
ete	-6.74576
▁noi	-6.75512
c	-6.78331
▁poate	-6.79846
re	-6.80261
▁si	-6.80847
▁acum	-6.81083
▁ceva	-6.81712
▁”	-6.82505
ri	-6.82821
▁fac	-6.83171
▁mă	-6.85324
▁putea	-6.87663
▁bine	-6.88186
▁m	-6.88352
„	-6.88624
▁oameni	-6.891
▁trebuie	-6.89556
▁prin	-6.91644
▁mare	-6.92455
▁fapt	-6.92903
▁aici	-6.94238
rea	-6.94252
▁dintre	-6.95093
▁Râs	-6.95274
▁pot	-6.9536
r	-6.9685
▁chiar	-6.98305
▁ei	-7.02396
▁Deci	-7.02424
▁făcut	-7.02551
▁voi	-7.02652
ăm	-7.02843
are	-7.03493
▁avea	-7.03733
şi	-7.04465
▁toate	-7.05094
uri	-7.05579
n	-7.05881
▁multe	-7.06478
▁iar	-7.08209
esc	-7.08721
▁parte	-7.09492
▁♫	-7.09537
▁fel	-7.09799
▁timp	-7.10772
▁mi	-7.11704
ând	-7.11724
ii	-7.11726
▁tot	-7.12383
▁lucru	-7.12703
te	-7.12929
▁avem	-7.13692
▁Ce	-7.14649
▁te	-7.15728
▁unde	-7.16056
▁spus	-7.16711
▁lui	-7.17311
și	-7.18899
▁fie	-7.19997
▁spune	-7.21371
ceea	-7.21862
▁oamenii	-7.2288
▁lor	-7.23438
ează	-7.24786
▁are	-7.25972
▁lucruri	-7.26234
▁vor	-7.26534
▁mea	-7.27617
▁Iar	-7.29357
va	-7.30053
ați	-7.31147
▁cel	-7.31645
▁Dacă	-7.31742
▁cred	-7.31886
.	-7.31903
▁Asta	-7.32275
▁cele	-7.32403
g	-7.33416
▁fiecare	-7.33832
▁există	-7.33896
▁Aplauze	-7.35226
▁eu	-7.36012
▁atât	-7.36706
▁spun	-7.37647
▁decât	-7.38374
y	-7.38594
▁trebui	-7.38893
▁după	-7.39055
apoi	-7.39268
▁O	-7.4023
aţi	-7.40583
mi	-7.42119
▁acolo	-7.42608
▁-	-7.42638
▁început	-7.42665
se	-7.42788
p	-7.42806
▁lumea	-7.42984
▁așa	-7.43302
▁două	-7.44206
▁meu	-7.44329
ne	-7.44696
▁l	-7.46037
area	-7.46066
▁atunci	-7.46347
d	-7.46931
▁loc	-7.47254
▁Acum	-7.47343
▁el	-7.47408
tor	-7.48217
▁facem	-7.48306
▁Este	-7.49044
▁S	-7.49235
▁n	-7.49557
▁aşa	-7.50583
▁mine	-7.50805
▁mod	-7.51034
▁nevoie	-7.51048
▁Si	-7.51462
or	-7.51664
f	-7.52742
▁cât	-7.53024
▁ale	-7.53342
on	-7.53591
▁până	-7.53874
▁Un	-7.56667
▁î	-7.56879
▁Așa	-7.57921
al	-7.57972
z	-7.58843
▁lume	-7.6019
▁re	-7.60381
▁Aşa	-7.62318
▁nou	-7.62485
▁unui	-7.62894
▁ai	-7.6365
▁vedea	-7.63878
in	-7.65238
ci	-7.66274
nd	-7.67027
▁noastre	-7.67241
Pentru	-7.67467
zi	-7.6757
▁Sunt	-7.67638
de	-7.67712
vă	-7.68196
▁alte	-7.68228
▁trei	-7.68338
▁M	-7.68356
urile	-7.70784
▁unei	-7.71036
▁îi	-7.71283
▁avut	-7.71373
▁fără	-7.71798
ate	-7.71878
rii	-7.72302
▁peste	-7.72359
▁mic	-7.72489
▁!	-7.74273
▁vom	-7.74476
▁câtev	-7.74962
▁aceasta	-7.74984
▁Ei	-7.76108
an	-7.76226
ce	-7.76302
apos	-7.76719
▁acesta	-7.77893
▁noastră	-7.7831
eze	-7.78975
îl	-7.79019
▁zi	-7.79861
▁exemplu	-7.80443
▁alt	-7.80654
b	-7.8087
▁Se	-7.81504
▁ci	-7.82095
▁adevărat	-7.82442
▁unul	-7.82627
▁cei	-7.82763
▁Când	-7.82873
▁ori	-7.83379
▁I	-7.83497
▁%	-7.83571
▁erau	-7.83819
▁i	-7.83855
stfel	-7.83889
▁B	-7.84903
▁ele	-7.8637
▁La	-7.87058
▁acea	-7.87958
▁P	-7.88191
▁Acesta	-7.89281
▁bun	-7.89579
▁mari	-7.90071
▁cea	-7.90402
ată	-7.90793
▁da	-7.90939
▁an	-7.91212
▁Vă	-7.91546
▁toat	-7.91827
▁nici	-7.92931
▁prea	-7.93033
▁îm	-7.93227
▁folosi	-7.93731
ui	-7.94374
▁dat	-7.9501
tre	-7.9502
▁încă	-7.95177
▁orice	-7.95535
▁întâmplă	-7.96145
▁Da	-7.96649
▁văzut	-7.96746
▁nostru	-7.96981
▁G	-7.98154
▁înseamn	-7.98383
suntem	-7.99095
ni	-7.99963
▁sub	-7.99983
▁acel	-8.00589
▁înainte	-8.00713
▁aproape	-8.00862
▁N	-8.01136
os	-8.02049
▁asemenea	-8.02349
▁10	-8.02405
▁diferite	-8.02544
▁destul	-8.03184
▁important	-8.03237
▁prima	-8.0333
k	-8.03332
si	-8.04072
▁merge	-8.04175
dar	-8.04242
▁Să	-8.04314
▁puțin	-8.0472
▁Cum	-8.05127
▁20	-8.05316
▁între	-8.05671
▁spre	-8.05747
▁timpul	-8.06273
▁Era	-8.0647
▁milioane	-8.06973
▁probleme	-8.07103
ur	-8.07842
▁Ne	-8.07907
▁lucrurile	-8.07963
▁Cred	-8.08593
▁F	-8.08606
▁vreau	-8.08674
ra	-8.08707
ilor	-8.0928
▁puţin	-8.0934
▁...	-8.09482
▁ea	-8.09491
▁Trebui	-8.10096
us	-8.11264
tori	-8.11424
▁începe	-8.12175
▁co	-8.12225
ch	-8.12279
▁ta	-8.12424
▁Aceasta	-8.12494
▁trecut	-8.12685
▁şti	-8.133
▁Au	-8.13957
ro	-8.14296
▁copii	-8.14664
▁urmă	-8.14814
▁ști	-8.14898
▁vedem	-8.15197
ră	-8.15683
cât	-8.15827
▁bună	-8.1602
▁trăi	-8.16748
▁Pute	-8.16979
▁aceea	-8.16988
▁v	-8.17453
ez	-8.17724
▁jur	-8.18452
▁Cu	-8.19353
di	-8.19586
na	-8.19741
▁devin	-8.19872
▁cineva	-8.20066
sc	-8.20254
▁interesant	-8.20301
itatea	-8.20328
▁moment	-8.20487
▁Mi	-8.20576
▁simplu	-8.20912
ări	-8.21894
▁vorbi	-8.21984
▁apă	-8.22198
▁proiect	-8.22306
▁dată	-8.22466
▁toți	-8.22645
▁probabil	-8.2271
la	-8.23062
vi	-8.23425
▁bani	-8.23486
h	-8.24137
▁pare	-8.24785
ș	-8.24797
▁arată	-8.25802
▁3	-8.26105
▁totul	-8.26139
▁mele	-8.26493
▁problem	-8.26541
▁tip	-8.27113
▁pune	-8.27403
▁Pe	-8.27543
▁vrea	-8.27711
▁primul	-8.27712
▁dolari	-8.2774
▁venit	-8.27837
▁acele	-8.2824
▁crede	-8.28296
er	-8.28473
▁nimic	-8.28714
x	-8.28881
▁asupr	-8.29789
▁singur	-8.30707
▁mici	-8.31236
▁pre	-8.31302
▁luat	-8.31932
▁dintr	-8.32149
itate	-8.32825
▁;	-8.32839
că	-8.3401
▁acestea	-8.34229
▁poți	-8.34291
▁zile	-8.34486
▁Apo	-8.34645
▁azi	-8.35077
▁ajuns	-8.35942
▁niciodată	-8.36135
ş	-8.3618
.000	-8.36481
▁femei	-8.36813
▁seama	-8.37006
▁deoarece	-8.37141
▁toţi	-8.37461
▁diferit	-8.37731
▁idee	-8.37958
▁crea	-8.38411
▁numai	-8.38627
▁ajunge	-8.38987
▁departe	-8.39058
▁Ca	-8.39087
▁Le	-8.39185
▁împreună	-8.39499
▁creier	-8.39793
▁creat	-8.39929
▁oamenilor	-8.40269
▁Iată	-8.40402
▁faci	-8.40464
▁cam	-8.41035
ist	-8.41469
A	-8.41833
▁poţi	-8.41923
▁doi	-8.41997
ve	-8.42122
▁numit	-8.42314
▁vorba	-8.4238
▁sistem	-8.42728
▁posibil	-8.42771
▁vi	-8.42941
▁devenit	-8.42954
▁exista	-8.43276
▁întrebare	-8.43326
ns	-8.43414
▁găsi	-8.4375
▁Avem	-8.43952
▁complet	-8.43959
▁gândi	-8.44436
ru	-8.44601
ându	-8.44748
▁special	-8.44849
▁Ar	-8.45064
▁altă	-8.45836
▁patru	-8.46131
za	-8.46327
ală	-8.46327
toare	-8.46837
▁pus	-8.47034
ol	-8.47124
▁exact	-8.47345
â	-8.47374
ească	-8.47465
▁bune	-8.48069
▁jos	-8.48205
▁deja	-8.48387
▁Eu	-8.48442
cu	-8.4924
▁idei	-8.49327
▁place	-8.49363
el	-8.49626
ezi	-8.49657
▁mulți	-8.49719
▁tehnologie	-8.50045
▁poveste	-8.5039
▁In	-8.50401
▁greu	-8.50845
▁nouă	-8.51061
▁persoane	-8.51075
▁Africa	-8.51179
▁folosit	-8.51318
▁vorbesc	-8.51806
▁date	-8.52088
gi	-8.52226
▁lumii	-8.52279
▁precu	-8.52355
▁Poate	-8.52365
veţi	-8.52387
▁C	-8.52395
st	-8.52532
▁schimb	-8.52587
▁locuri	-8.53099
▁copil	-8.53189
▁putut	-8.53283
▁T	-8.53287
ter	-8.53451
▁El	-8.53829
▁social	-8.54118
man	-8.54123
▁copiii	-8.54226
ic	-8.54245
▁Există	-8.54352
▁luni	-8.54655
▁încerc	-8.54816
▁nume	-8.55043
ân	-8.55132
▁acestor	-8.55556
▁sus	-8.55654
▁faptul	-8.55687
str	-8.55934
▁acestui	-8.55994
▁final	-8.56093
▁Al	-8.56242
▁felul	-8.56473
rile	-8.56479
▁Din	-8.5672
▁L	-8.56892
▁deci	-8.57094
▁merg	-8.57563
▁cap	-8.5759
v	-8.57668
▁b	-8.57712
▁K	-8.57747
▁energie	-8.58177
ba	-8.58252
car	-8.58379
▁ideea	-8.58388
▁par	-8.58415
▁cauza	-8.58691
▁dă	-8.58731
▁sigur	-8.58802
▁întâmplat	-8.58815
ții	-8.6002
▁Chi	-8.60496
ga	-8.60652
▁își	-8.61459
w	-8.61479
▁g	-8.61523
0	-8.61528
co	-8.6165
▁lua	-8.61825
ca	-8.61986
▁Aic	-8.62232
▁măsură	-8.6229
▁viaț	-8.62772
▁problema	-8.62797
▁ma	-8.62879
▁fiind	-8.63156
▁Re	-8.63195
▁grup	-8.635
abil	-8.63793
ver	-8.63942
▁D	-8.64313
▁Acest	-8.645
▁J	-8.64559
▁incredibil	-8.64763
▁jumătate	-8.64763
▁modul	-8.64812
▁miliarde	-8.64971
▁cine	-8.64971
▁rapid	-8.65002
▁viitor	-8.65213
▁arăt	-8.65686
j	-8.65708
▁acestei	-8.65786
ţii	-8.65884
▁gândit	-8.65898
▁văd	-8.66
imeni	-8.66127
▁5	-8.66376
▁permite	-8.66875
▁produc	-8.66889
▁30	-8.66998
chi	-8.67109
▁simt	-8.67335
ării	-8.67374
ent	-8.67449
▁dau	-8.67521
▁4	-8.67749
en	-8.67818
▁proces	-8.67827
▁Mai	-8.67943
▁cuvinte	-8.68284
▁New	-8.68316
sta	-8.68364
▁prezent	-8.68717
▁50	-8.68758
▁punct	-8.68996
▁nivel	-8.69229
eori	-8.69375
pă	-8.69568
eşte	-8.69703
▁viață	-8.69893
▁astea	-8.70176
▁anumit	-8.70268
▁scris	-8.70372
pi	-8.70468
▁construi	-8.70737
▁găsit	-8.70795
▁află	-8.7083
▁persoană	-8.70911
▁con	-8.71001
▁model	-8.71091
▁dori	-8.71116
▁descoperit	-8.71161
▁vine	-8.71347
▁sistemul	-8.71433
▁Vrea	-8.71465
2	-8.71715
▁tu	-8.72103
da	-8.72362
▁majoritate	-8.7245
▁pur	-8.72541
eşti	-8.72574
▁unele	-8.72608
▁extrem	-8.72832
ice	-8.72839
▁uman	-8.7288
▁mulţi	-8.72951
▁celule	-8.7296
▁minunat	-8.72972
▁cinci	-8.72974
fi	-8.72976
ing	-8.73083
ști	-8.73084
▁arăta	-8.73267
▁auzit	-8.73349
▁imagine	-8.73607
▁înapoi	-8.73646
ește	-8.74019
▁încep	-8.74258
▁vedere	-8.74373
▁pic	-8.74382
▁ştiu	-8.74472
▁știu	-8.7465
▁zis	-8.7491
▁Ști	-8.74922
țe	-8.74928
▁1	-8.7515
▁vedeți	-8.75186
▁2	-8.75239
bi	-8.75417
▁duce	-8.75484
ică	-8.75496
as	-8.75675
▁țări	-8.7573
▁Îm	-8.76117
torii	-8.7615
▁doua	-8.76255
▁astăzi	-8.76392
ant	-8.76567
▁politic	-8.76579
▁viaţa	-8.76653
▁târzi	-8.76658
▁Astfel	-8.77015
▁urma	-8.77148
▁pro	-8.7715
onal	-8.77449
▁vin	-8.77775
▁Ma	-8.77825
▁Mă	-8.77983
C	-8.78026
▁spate	-8.7818
▁După	-8.78195
▁carte	-8.78354
▁dus	-8.78392
▁tehnologi	-8.7891
▁mers	-8.7899
S	-8.79032
ge	-8.79172
▁corect	-8.7938
▁mei	-8.79429
ești	-8.79511
iei	-8.80129
▁ales	-8.80154
lui	-8.80211
es	-8.80217
ţe	-8.80247
▁schimbare	-8.80303
▁construit	-8.80318
▁vreme	-8.80371
▁schimba	-8.80618
▁reprezint	-8.80766
▁anul	-8.80793
▁rău	-8.80799
▁Unite	-8.80943
▁imagini	-8.81091
▁succes	-8.81187
▁intr	-8.81273
▁ăsta	-8.81365
▁rând	-8.81455
▁TED	-8.81892
▁100	-8.82029
D	-8.82063
▁film	-8.82458
▁aduce	-8.82636
colo	-8.83422
▁tine	-8.83691
▁număr	-8.83887
▁dezvoltare	-8.83905
▁tuturor	-8.84038
tic	-8.8446
▁Toat	-8.84525
▁mii	-8.84683
▁caz	-8.85041
▁legat	-8.85077
oare	-8.85172
▁viaţă	-8.85202
ț	-8.85276
▁repede	-8.85642
▁R	-8.85789
oc	-8.85962
▁printr	-8.86343
▁uită	-8.8641
▁ore	-8.8646
niște	-8.86821
pa	-8.87048
▁Şti	-8.87097
uc	-8.87263
▁public	-8.87302
▁Oameni	-8.87421
▁trece	-8.87644
▁Po	-8.87652
▁India	-8.87723
▁mere	-8.87769
▁p	-8.87952
▁vârst	-8.88021
I	-8.88223
▁comun	-8.8838
▁perioad	-8.88474
▁însă	-8.8859
▁acasă	-8.88625
▁15	-8.89014
▁daca	-8.8914
▁pun	-8.89265
nic	-8.89316
▁locul	-8.89583
▁real	-8.89747
şti	-8.89768
▁vrut	-8.89844
▁unor	-8.89976
▁personal	-8.89992
▁pas	-8.90034
is	-8.90115
4	-8.90149
M	-8.90308
▁muncă	-8.90308
▁creierul	-8.90439
5	-8.90736
▁Va	-8.91014
▁h	-8.91035
▁clar	-8.91391
▁animale	-8.9145
▁motiv	-8.91454
▁Co	-8.91553
▁formă	-8.91725
▁Mulțumesc	-8.91739
sem	-8.91806
▁aș	-8.91807
▁realizat	-8.91883
adevăr	-8.91931
▁dificil	-8.92012
▁folosesc	-8.92181
▁minute	-8.92248
nişte	-8.92257
▁Aceast	-8.9228
▁U	-8.92476
▁întreaga	-8.92528
▁schimbat	-8.92904
▁schimbă	-8.93177
▁întrebat	-8.93482
▁vrem	-8.9359
▁întrebări	-8.93746
ork	-8.93982
ind	-8.94042
▁sine	-8.94404
▁anum	-8.94522
▁acelaș	-8.94806
▁200	-8.9495
▁boli	-8.95375
ck	-8.95459
▁sta	-8.95481
ze	-8.9555
nta	-8.95598
▁celor	-8.95669
▁sper	-8.95813
▁necesar	-8.95844
▁local	-8.96052
▁cand	-8.96055
▁om	-8.9621
▁lâng	-8.96333
▁design	-8.96442
▁f	-8.96453
▁sănătate	-8.97154
nă	-8.97242
totdeauna	-8.97306
ţ	-8.97524
▁povestea	-8.97752
▁totu	-8.97771
ng	-8.97783
ati	-8.97785
ac	-8.97828
▁ajung	-8.97968
torul	-8.97983
3	-8.98262
▁împotriv	-8.98323
ori	-8.98339
sh	-8.98372
▁forma	-8.98433
▁acelaş	-8.98555
▁deschis	-8.98649
▁aş	-8.98762
tat	-8.98786
dă	-8.98802
▁ia	-8.98819
aj	-8.98855
▁deveni	-8.99041
ism	-8.99545
▁auto	-8.99629
▁stat	-8.99696
▁vezi	-8.99712
▁mediu	-8.99777
ven	-8.99924
▁științ	-9.00154
and	-9.00193
▁realitate	-9.00207
▁Noi	-9.0069
vo	-9.00716
nt	-9.00828
▁crescut	-9.00851
00	-9.00991
▁W	-9.01182
▁privi	-9.01273
▁Sau	-9.01552
op	-9.01701
▁experiment	-9.01722
▁duc	-9.01734
▁răspuns	-9.01919
▁vreodată	-9.02056
ste	-9.02075
ită	-9.02225
▁bază	-9.02241
▁înţelege	-9.02299
▁aceşti	-9.02403
▁gândesc	-9.02614
▁global	-9.02662
▁zone	-9.02767
▁companii	-9.02893
▁umane	-9.02911
▁Sunte	-9.02941
▁fiindc	-9.02974
▁Voi	-9.03043
▁America	-9.03088
▁Într	-9.03172
E	-9.03176
ătoare	-9.03257
fe	-9.03366
▁apa	-9.03487
▁practic	-9.03583
▁ex	-9.03637
▁față	-9.03806
▁40	-9.03915
▁mulţumesc	-9.03977
▁Te	-9.04201
▁cunoscut	-9.04239
tele	-9.04244
▁doile	-9.04253
▁aibă	-9.04276
▁aproximativ	-9.04362
▁suficient	-9.04452
▁dis	-9.04679
▁iată	-9.04756
▁Mo	-9.04862
ici	-9.04874
▁cazul	-9.0505
turi	-9.05201
ger	-9.05206
▁pi	-9.05223
go	-9.05259
▁produce	-9.0539
▁plin	-9.05631
rat	-9.05664
▁Aceste	-9.05711
▁folosind	-9.06014
▁sut	-9.06226
▁normal	-9.06482
▁primit	-9.06511
▁ultimii	-9.06535
▁c	-9.06561
ulțumesc	-9.06614
▁decis	-9.06896
▁momentul	-9.06933
9	-9.07094
▁H	-9.07176
sti	-9.07207
urilor	-9.07397
▁următoare	-9.07443
▁aer	-9.0753
▁direct	-9.07602
▁Acestea	-9.0769
P	-9.07816
▁întâmpla	-9.07856
▁afaceri	-9.07938
▁SUA	-9.08121
▁baza	-9.08145
1	-9.0822
T	-9.08277
▁6	-9.0859
▁acord	-9.08756
▁făcea	-9.08863
▁program	-9.08868
▁li	-9.09318
▁întreb	-9.09373
bo	-9.09377
▁activ	-9.09769
▁vedeţi	-9.09792
▁curs	-9.09886
▁faţă	-9.09985
▁com	-9.10198
▁vei	-9.10333
ata	-9.10467
▁general	-9.10645
▁ați	-9.10681
▁vorbit	-9.1069
▁simpl	-9.10875
▁încerca	-9.10876
▁obicei	-9.1092
▁scen	-9.10926
▁desigur	-9.10932
▁puterea	-9.10967
▁sute	-9.11033
▁fizic	-9.11279
▁fiu	-9.11306
▁Pământ	-9.11833
▁ajuta	-9.11867
91	-9.11899
▁test	-9.11966
▁aflat	-9.1213
▁perspectiv	-9.12254
ric	-9.12267
ran	-9.12363
▁munca	-9.12374
▁ţări	-9.12467
▁ziu	-9.12779
▁societate	-9.1283
▁grozav	-9.12831
▁vreo	-9.12927
▁evident	-9.13024
▁afară	-9.13309
▁scurt	-9.13329
mp	-9.13779
▁mama	-9.13787
în	-9.13868
per	-9.13929
▁V	-9.14176
▁vrei	-9.14184
▁încercat	-9.14257
ţă	-9.1428
▁pl	-9.14336
▁China	-9.14436
▁imediat	-9.14582
▁sal	-9.14647
▁niciun	-9.14658
▁tehnologii	-9.1481
▁Statele	-9.1484
▁picioare	-9.1537
▁comunitate	-9.15379
veți	-9.15408
▁singură	-9.15507
▁tău	-9.15584
▁des	-9.1568
ire	-9.15797
▁cancer	-9.15932
▁puternic	-9.16026
▁schimbări	-9.16145
tare	-9.1633
ză	-9.16521
▁război	-9.16525
▁importantă	-9.16662
mb	-9.16663
▁lungul	-9.16729
8	-9.16787
▁produs	-9.16954
▁specii	-9.16965
pe	-9.16993
▁genul	-9.17146
ment	-9.17313
ceva	-9.17364
▁uitat	-9.1737
ască	-9.17403
▁cer	-9.17717
▁OK	-9.17807
rul	-9.17865
▁aţi	-9.17914
▁total	-9.18119
▁acces	-9.183
▁18	-9.18308
▁di	-9.18569
▁Bine	-9.18634
▁stare	-9.18655
do	-9.18754
ine	-9.18921
▁video	-9.18996
▁luă	-9.19036
▁Care	-9.19041
cul	-9.19068
th	-9.19239
▁asa	-9.19358
men	-9.19381
▁afla	-9.19413
▁cercetare	-9.19631
ad	-9.19769
ier	-9.19799
▁principal	-9.19819
▁companie	-9.19936
▁drept	-9.19981
ect	-9.20031
▁facut	-9.20099
▁încredere	-9.20234
▁ADN	-9.20234
▁lumină	-9.20283
▁alți	-9.20337
▁ciudat	-9.20349
▁natural	-9.20407
▁primi	-9.20539
iv	-9.20761
▁economi	-9.21141
▁dor	-9.21205
con	-9.21246
▁19	-9.21291
mer	-9.21328
▁sisteme	-9.21433
▁joc	-9.2211
▁noapte	-9.22121
▁câte	-9.22328
▁Mulţumesc	-9.22336
ton	-9.2239
bă	-9.22423
▁perfect	-9.22546
▁apar	-9.22675
▁ajut	-9.22847
▁Însă	-9.2302
▁rezultate	-9.2307
▁Dumnezeu	-9.23184
▁sens	-9.23249
▁nicio	-9.23292
pt	-9.2332
▁familie	-9.23399
▁Con	-9.23704
▁pământ	-9.23989
aș	-9.24037
▁60	-9.24161
▁resurse	-9.24175
▁legătură	-9.24278
▁recent	-9.24574
▁femeie	-9.24582
▁vechi	-9.24695
▁ocean	-9.24721
▁importante	-9.24771
▁Ro	-9.24887
▁gen	-9.24891
▁numărul	-9.25165
pre	-9.25204
▁12	-9.25205
▁po	-9.25289
▁creez	-9.25367
lin	-9.25376
onat	-9.25398
▁Vo	-9.25555
▁veți	-9.25719
▁liber	-9.25791
▁refer	-9.25934
▁bucur	-9.26228
▁produse	-9.26237
▁arătat	-9.26395
▁7	-9.26535
▁tineri	-9.26609
▁pierdut	-9.26669
▁cale	-9.26692
▁oraș	-9.26856
rg	-9.26955
tiv	-9.27098
▁fața	-9.27116
▁acela	-9.27159
7	-9.27393
▁prieten	-9.27418
▁vis	-9.27579
unde	-9.27673
▁odată	-9.27703
▁mediul	-9.27729
▁adus	-9.27916
▁pui	-9.27969
▁bi	-9.2802
▁fr	-9.28054
▁femeile	-9.28209
▁mâncare	-9.28312
R	-9.28407
93;	-9.28455
po	-9.28554
▁adic	-9.29034
▁Tot	-9.29129
▁auzi	-9.29133
▁lips	-9.29161
bu	-9.29286
▁lucrat	-9.29401
▁acești	-9.29605
▁boal	-9.29731
aş	-9.29749
izare	-9.29802
▁Muzic	-9.29817
gen	-9.29997
son	-9.30009
▁numită	-9.3008
▁aduc	-9.30231
iuni	-9.3034
▁corpul	-9.30504
▁frumos	-9.30515
▁întoarce	-9.30615
▁ajută	-9.30698
▁forme	-9.30717
ităţi	-9.30733
ian	-9.30813
od	-9.30889
du	-9.30892
ina	-9.31013
▁per	-9.31014
▁metri	-9.31026
▁apărut	-9.31047
▁carbon	-9.312
▁crește	-9.31366
▁planetă	-9.3143
▁tocm	-9.31437
▁Ho	-9.31503
▁obiect	-9.31524
▁informații	-9.31664
▁uita	-9.3172
▁ş	-9.3174
▁absolut	-9.31991
▁casă	-9.3207
▁Li	-9.3213
▁8	-9.3229
hi	-9.32371
br	-9.32478
▁ușor	-9.32624
G	-9.32684
6	-9.32739
▁calcul	-9.32764
▁uşor	-9.32857
▁Ha	-9.32954
▁săptămâni	-9.33069
▁dezvoltat	-9.33118
▁explic	-9.33238
▁conduc	-9.33299
▁computer	-9.33302
▁câți	-9.33306
▁stânga	-9.3338
▁umană	-9.3357
▁acelea	-9.33601
▁planete	-9.33647
▁secol	-9.33679
B	-9.3368
▁valoare	-9.33789
▁minte	-9.33795
▁cont	-9.33988
▁putere	-9.34017
▁istorie	-9.34018
▁veni	-9.34065
ță	-9.34094
▁Cel	-9.34109
ității	-9.34218
▁foc	-9.34311
oară	-9.34637
▁Doar	-9.34846
▁univers	-9.34896
ll	-9.34932
▁control	-9.34991
▁lucra	-9.35193
izat	-9.35362
▁potrivit	-9.35407
▁lucrez	-9.35464
oase	-9.35518
▁fim	-9.35929
▁spital	-9.35944
▁Cine	-9.36009
▁funcţionează	-9.36188
▁inter	-9.36282
▁imens	-9.36431
▁calculator	-9.36471
cat	-9.3656
▁electric	-9.36651
▁petrecut	-9.36679
▁calitate	-9.36749
▁datorit	-9.36841
O	-9.36875
ju	-9.36882
▁învățat	-9.36936
fer	-9.36937
▁camer	-9.36956
▁ridicat	-9.36998
▁genetic	-9.37062
▁termen	-9.3719
der	-9.37197
ndu	-9.37205
tura	-9.37237
şte	-9.37385
▁Cr	-9.37409
▁rămâne	-9.37414
▁scrie	-9.37811
▁Pot	-9.37832
▁buni	-9.37962
▁fericit	-9.38155
▁deasupra	-9.38163
▁Prin	-9.38198
ten	-9.38268
▁Vi	-9.38329
▁9	-9.38361
▁continuă	-9.38379
▁câţi	-9.38404
▁rog	-9.38409
▁materiale	-9.38509
▁american	-9.38559
▁fete	-9.38633
▁iau	-9.38634
tate	-9.38807
▁medicamente	-9.38818
▁cealaltă	-9.38903
ităţii	-9.38918
▁înțelege	-9.3894
▁vieții	-9.39066
L	-9.39158
▁moarte	-9.39211
▁dans	-9.39251
▁trebuia	-9.39263
▁lucreaz	-9.39331
▁Are	-9.39606
▁vitez	-9.3967
▁dreapta	-9.39682
▁sol	-9.39816
▁nivelul	-9.39981
▁fric	-9.40015
▁sti	-9.40277
▁transport	-9.40419
ază	-9.40449
▁datele	-9.405
▁clădiri	-9.40542
be	-9.40606
▁conteaz	-9.40606
▁fericire	-9.40671
▁alb	-9.40759
pri	-9.40956
▁fundamental	-9.40999
▁lumina	-9.41152
▁mâna	-9.4119
▁Avea	-9.41256
▁11	-9.41281
▁stă	-9.41342
▁motive	-9.41353
▁studii	-9.41695
▁copiilor	-9.41824
▁obține	-9.4195
▁mașini	-9.41953
fa	-9.41962
▁imp	-9.42223
▁modele	-9.42258
▁informaţii	-9.42285
▁ochii	-9.42403
▁dispar	-9.42475
▁locui	-9.42497
▁zic	-9.42541
▁restul	-9.42704
▁uit	-9.42911
▁80	-9.42949
▁poli	-9.42958
▁Ras	-9.43146
▁înalt	-9.4324
▁istoria	-9.43252
▁propria	-9.43252
▁Asa	-9.43272
▁energi	-9.43273
▁vizual	-9.43383
▁profund	-9.4352
▁poată	-9.43559
▁observat	-9.43623
▁clădire	-9.43637
ip	-9.43648
▁deloc	-9.43674
tunci	-9.43712
▁urmare	-9.43995
▁extraordinar	-9.43997
▁sex	-9.44021
▁crezut	-9.44044
▁efect	-9.44116
▁Primul	-9.44247
▁spațiu	-9.44498
▁tipuri	-9.44501
▁grafic	-9.44574
nte	-9.44596
▁numim	-9.44639
▁interiorul	-9.45078
▁metod	-9.45173
mente	-9.45234
▁obiecte	-9.45234
ss	-9.45241
▁familia	-9.45289
▁An	-9.45332
▁funcționeaz	-9.45403
▁punctul	-9.45526
▁masă	-9.45723
▁viitorul	-9.45801
▁încearcă	-9.45901
▁teren	-9.46153
▁capacitate	-9.4617
▁țară	-9.4617
▁apare	-9.46184
bil	-9.4626
▁drum	-9.46311
▁pat	-9.46491
ed	-9.46559
N	-9.46563
▁Fi	-9.46684
▁similar	-9.46709
▁treab	-9.46712
cre	-9.46806
tro	-9.46861
▁ochi	-9.46962
▁alege	-9.47056
▁scară	-9.47264
dic	-9.47386
▁25	-9.47393
▁anii	-9.47434
▁englez	-9.47525
▁faţa	-9.4753
▁Ra	-9.47553
▁vede	-9.4766
ov	-9.47691
▁trec	-9.4774
▁ultima	-9.4802
▁ecran	-9.48349
▁petrol	-9.48549
▁cazuri	-9.48568
▁Europa	-9.48622
▁murit	-9.4878
▁întâlnit	-9.48854
▁robot	-9.48862
▁adânc	-9.48898
▁legi	-9.4895
▁oferi	-9.48999
▁spunea	-9.49012
▁mobil	-9.4904
▁material	-9.49067
▁natura	-9.4908
▁Prima	-9.49143
ber	-9.49254
▁creăm	-9.49282
▁regulă	-9.49453
▁trimis	-9.49453
▁citi	-9.49602
▁complicat	-9.49608
nţi	-9.49633
▁lung	-9.4965
▁rezultat	-9.49845
▁grupuri	-9.49854
ke	-9.49931
▁imagina	-9.50004
▁Fiecar	-9.50011
ghe	-9.50015
▁rec	-9.50017
▁Sa	-9.50129
▁zon	-9.50247
▁răspunsul	-9.50367
mele	-9.50388
▁case	-9.50574
▁eficient	-9.50755
▁risc	-9.50758
▁plan	-9.50772
▁vieţii	-9.50831
▁Google	-9.50854
▁media	-9.50904
▁afar	-9.50944
ard	-9.50969
izarea	-9.5099
▁subiect	-9.50991
▁studiu	-9.50992
▁experienț	-9.51133
▁călători	-9.51138
▁încet	-9.51264
▁începutul	-9.51275
▁corp	-9.51287
▁moduri	-9.51396
▁ajutorul	-9.51418
nii	-9.51432
▁alţi	-9.5144
▁luptă	-9.51441
▁Vede	-9.51476
▁zice	-9.51496
▁mijloc	-9.51549
▁Di	-9.51627
▁ţar	-9.51849
land	-9.51859
▁90	-9.51965
▁trimite	-9.51976
▁To	-9.51978
▁Adic	-9.52035
ica	-9.52066
▁economic	-9.52184
tfel	-9.52308
▁fii	-9.52459
iști	-9.5254
▁globală	-9.52571
▁siguranț	-9.52583
▁întors	-9.52584
▁încercă	-9.52592
▁opt	-9.527
▁Mare	-9.52708
▁mijlocul	-9.52797
▁bazat	-9.52815
lalte	-9.5283
▁rămas	-9.52848
▁culoare	-9.52853
▁secret	-9.52865
▁creștere	-9.5294
▁oferă	-9.5298
▁dispozitiv	-9.53125
▁Ve	-9.53133
▁ajutor	-9.53219
▁conduce	-9.53252
▁moral	-9.533
▁plante	-9.53305
▁vre	-9.53329
▁creştere	-9.53667
▁exemple	-9.53715
rilor	-9.53795
▁născut	-9.53872
▁medical	-9.53954
oasă	-9.54071
▁ceilal	-9.54076
▁maşini	-9.54088
▁car	-9.54116
▁creativ	-9.5412
▁fotografie	-9.54381
▁sud	-9.544
▁animal	-9.54484
▁cre	-9.54683
î	-9.54685
fin	-9.54707
▁făcând	-9.54883
▁gene	-9.5496
▁sale	-9.55087
▁plac	-9.55095
▁enorm	-9.5518
▁oare	-9.55325
id	-9.55327
▁vad	-9.55346
▁drumul	-9.55371
▁condus	-9.55479
▁creşte	-9.55501
▁aminte	-9.55636
▁cod	-9.55745
▁alta	-9.55836
▁telefon	-9.56034
▁aceeași	-9.56082
▁experienţ	-9.5609
▁învăţat	-9.56107
▁post	-9.56123
nță	-9.56131
▁simţi	-9.56229
▁ştiinţă	-9.5625
▁petrece	-9.56341
▁mașină	-9.5636
▁verde	-9.56364
▁reală	-9.56387
ități	-9.56409
▁Internet	-9.56462
▁economie	-9.56562
▁bo	-9.56725
▁mor	-9.56729
▁descoperi	-9.57004
▁împ	-9.57044
▁prim	-9.57095
▁Sud	-9.57199
▁fenomen	-9.5726
▁ultimul	-9.57343
▁responsabil	-9.57374
seră	-9.57453
▁St	-9.57526
▁voce	-9.57565
▁grij	-9.57575
▁măsura	-9.57584
▁ș	-9.57589
▁reușit	-9.57675
▁Tr	-9.57733
tia	-9.57999
▁identific	-9.58167
▁Sp	-9.58203
▁70	-9.58288
▁z	-9.58549
▁progres	-9.58644
nți	-9.58689
▁privire	-9.58773
▁spui	-9.58817
nța	-9.59036
▁specific	-9.59082
▁decizii	-9.59136
▁alegeri	-9.59137
▁artă	-9.59167
▁răspunde	-9.59284
▁diferenţ	-9.59395
▁pacient	-9.59484
▁mar	-9.59547
știți	-9.59672
▁povești	-9.59696
▁clip	-9.59716
▁ni	-9.59793
▁aspect	-9.59956
▁poveşti	-9.60005
▁Pro	-9.60031
▁imaginea	-9.60107
cum	-9.60304
oarece	-9.60332
▁mări	-9.60431
▁Jo	-9.60476
ow	-9.60518
▁super	-9.60607
ismul	-9.60683
▁Bo	-9.60761
▁ieftin	-9.60936
▁noştri	-9.60936
▁servicii	-9.60937
▁199	-9.60953
işti	-9.61005
▁complex	-9.61042
▁posibilitate	-9.61048
▁muzica	-9.61104
ura	-9.61168
▁milion	-9.61252
▁adese	-9.61295
▁cor	-9.61324
▁motivul	-9.61324
▁Sh	-9.61379
ricine	-9.61381
▁Ele	-9.61389
sigur	-9.61478
▁prost	-9.61567
▁plus	-9.61612
▁mearg	-9.61662
▁simți	-9.61677
bel	-9.61694
▁şcoală	-9.61851
▁zona	-9.61859
vid	-9.61929
▁serie	-9.62103
tură	-9.6214
▁cheltui	-9.62191
▁strad	-9.62203
tra	-9.62215
▁Ba	-9.623
tru	-9.62317
▁atac	-9.62327
▁prieteni	-9.6233
▁digital	-9.62335
▁celulele	-9.62365
▁exp	-9.62413
▁presupune	-9.62448
▁pierde	-9.62466
▁oraş	-9.62478
ieni	-9.62664
▁întâi	-9.62827
▁părți	-9.63044
▁profesor	-9.63075
▁tipul	-9.6311
▁zbor	-9.63152
▁stau	-9.6316
▁uimitor	-9.63164
▁consum	-9.63385
▁părea	-9.63386
▁respect	-9.63423
▁casa	-9.63451
mesc	-9.63451
▁alătur	-9.63575
▁Lu	-9.63744
▁disponibil	-9.63785
can	-9.64019
▁CA	-9.64061
▁poză	-9.64126
▁altul	-9.64266
ren	-9.64335
▁sp	-9.64413
▁tânăr	-9.64429
amintesc	-9.64563
curând	-9.64618
▁vest	-9.64689
▁nuclear	-9.64754
▁cărți	-9.64797
▁onli	-9.6489
▁pă	-9.64958
▁găsesc	-9.65077
▁tatăl	-9.65207
▁ho	-9.65238
▁observa	-9.65262
▁fur	-9.65288
▁singura	-9.6529
▁provocare	-9.65343
▁creeaz	-9.65354
ăr	-9.65382
▁HIV	-9.65403
▁accident	-9.65403
▁clas	-9.6551
▁centrul	-9.65673
▁financiar	-9.65729
▁Totu	-9.65866
înţeles	-9.65871
▁frumoas	-9.65905
▁fa	-9.66051
▁interes	-9.66164
abia	-9.6635
▁compasiune	-9.66386
▁bio	-9.66506
▁continua	-9.66516
▁cuvânt	-9.66604
gu	-9.66717
▁desen	-9.66807
▁procesul	-9.67011
pro	-9.67012
▁du	-9.67015
gh	-9.67124
▁voastră	-9.67127
form	-9.67199
▁permit	-9.67215
▁inventat	-9.67234
don	-9.67284
tică	-9.67306
▁micro	-9.67307
▁noștri	-9.67391
▁actual	-9.67492
zo	-9.6762
▁lun	-9.67637
▁domeniul	-9.67705
▁mână	-9.67721
▁mărime	-9.67738
▁oră	-9.67742
▁piele	-9.67823
▁simple	-9.6784
▁Car	-9.67891
▁proiecte	-9.67978
ologi	-9.68039
▁exprim	-9.68049
▁km	-9.68134
▁nevoi	-9.68292
▁Ta	-9.68357
▁do	-9.68506
▁guvernul	-9.68599
▁drepturi	-9.68646
▁durat	-9.68655
▁păstr	-9.68656
▁valori	-9.68658
▁fotografii	-9.69105
▁tar	-9.69199
▁capital	-9.69236
▁imposibil	-9.69396
▁neuroni	-9.6941
▁camera	-9.6947
▁laborator	-9.69472
▁abordare	-9.69473
oane	-9.69587
▁Ri	-9.69693
vin	-9.69729
▁familii	-9.69737
▁articol	-9.69737
▁bucat	-9.69747
▁urmări	-9.6981
▁conving	-9.69868
▁secolul	-9.69899
▁16	-9.69913
▁părţi	-9.69975
este	-9.70098
▁reduce	-9.70253
▁impact	-9.703
▁mintea	-9.70361
pozi	-9.70402
▁tehnic	-9.70487
▁obţine	-9.70678
ha	-9.70697
prin	-9.7071
▁central	-9.70765
▁numeşte	-9.7081
▁port	-9.70845
nit	-9.70864
țiile	-9.709
▁permis	-9.71018
ţiile	-9.71037
▁guvern	-9.71067
▁realiza	-9.7111
▁mişcare	-9.7111
▁John	-9.71111
▁americani	-9.71274
▁genera	-9.71373
▁sânge	-9.71386
▁14	-9.71441
▁înlocui	-9.71456
▁cost	-9.71482
zând	-9.71695
▁pu	-9.71723
ster	-9.71778
dat	-9.71784
▁anti	-9.718
▁vostru	-9.71802
▁socială	-9.71978
lan	-9.72023
▁sunteți	-9.72112
▁urmează	-9.72155
▁Marte	-9.72233
▁acei	-9.72295
▁stele	-9.72321
rac	-9.72453
▁tratament	-9.72488
▁raport	-9.72501
▁stră	-9.72543
ala	-9.7258
▁format	-9.72673
▁puternică	-9.72683
▁rol	-9.72743
tice	-9.72751
▁semn	-9.72768
▁matematic	-9.72842
▁Nord	-9.72866
▁cărţi	-9.72898
nc	-9.73001
▁Nici	-9.73169
▁mie	-9.7317
spre	-9.73184
▁şase	-9.73206
▁avion	-9.73212
▁activitate	-9.73378
K	-9.73405
▁jocuri	-9.73556
ța	-9.73582
▁citit	-9.73593
▁ține	-9.73872
▁bărbaţi	-9.73911
▁critic	-9.73913
bor	-9.73998
▁întorc	-9.74025
▁cl	-9.74134
ţa	-9.74281
▁propriile	-9.74302
ște	-9.74361
▁întreg	-9.74614
▁înțeleg	-9.74649
ho	-9.74751
▁transformă	-9.7476
▁vieți	-9.74773
▁munci	-9.7478
▁radio	-9.74795
▁putin	-9.74988
▁prietenii	-9.75026
âr	-9.75072
▁povesti	-9.75101
▁celălalt	-9.75119
tive	-9.75145
ini	-9.75188
▁bu	-9.75262
▁plastic	-9.75343
▁însemna	-9.75344
▁provin	-9.7536
▁gata	-9.75379
▁greșit	-9.75388
ja	-9.75672
▁muzică	-9.75703
▁structura	-9.75703
▁școală	-9.75705
▁uimitoare	-9.75707
▁terminat	-9.75808
▁lăsat	-9.75992
▁siguranţă	-9.76033
▁persoana	-9.76066
ah	-9.76113
▁inca	-9.76181
reg	-9.76301
▁cantitate	-9.76434
▁deschide	-9.76449
▁intrat	-9.76461
▁fantastic	-9.76543
▁Ai	-9.76658
▁cânt	-9.76735
▁mondial	-9.76794
▁intampla	-9.76794
▁data	-9.76852
▁mulţime	-9.7686
▁lucrăm	-9.76893
▁câştig	-9.77038
▁bărbat	-9.77161
▁magazin	-9.77161
▁secunde	-9.7717
▁gând	-9.77211
▁lucrul	-9.77284
▁închei	-9.77441
▁structuri	-9.77528
▁linie	-9.77534
▁câștig	-9.77548
▁spaţiu	-9.77562
▁profesori	-9.77609
put	-9.77752
eni	-9.77753
▁pagin	-9.77827
▁pan	-9.7785
vreme	-9.77882
▁temperatur	-9.77897
▁urban	-9.77897
▁chei	-9.77901
▁internet	-9.78037
▁echipa	-9.78041
den	-9.78045
▁său	-9.78203
▁pozitiv	-9.7827
▁șase	-9.7827
▁înțeles	-9.78271
▁filme	-9.78278
▁mame	-9.78356
▁lideri	-9.78518
▁larg	-9.78629
▁specie	-9.78641
▁efectiv	-9.78657
cer	-9.78695
▁sticl	-9.78741
▁întreba	-9.79076
▁implicat	-9.79081
▁Pân	-9.79142
▁cadrul	-9.79144
▁ras	-9.79148
▁zeci	-9.7925
▁elimin	-9.79364
▁Chris	-9.79387
▁chinez	-9.79391
▁prime	-9.79407
▁anilor	-9.79534
▁intră	-9.79605
▁capabil	-9.79733
▁Problem	-9.79763
▁scăzut	-9.79763
▁standard	-9.79763
▁urc	-9.79804
▁instrument	-9.79821
scriu	-9.79861
▁numere	-9.79878
izez	-9.80006
▁parc	-9.80041
cin	-9.80042
▁bacterii	-9.8014
nţa	-9.80145
▁copaci	-9.80188
stra	-9.80273
▁rezolva	-9.80292
▁joacă	-9.80307
▁non	-9.80313
▁tăi	-9.80331
▁dorea	-9.80333
▁rata	-9.80406
▁conflict	-9.80409
▁înţeleg	-9.80422
▁17	-9.80547
▁respir	-9.80616
▁sec	-9.80618
▁Cam	-9.80845
▁concluzi	-9.80899
▁poze	-9.80935
▁ti	-9.80941
▁vot	-9.80977
▁lăsa	-9.81076
▁act	-9.81217
▁sufer	-9.8122
din	-9.81235
▁transformat	-9.81266
▁echipă	-9.81281
▁site	-9.81286
▁util	-9.81361
▁Medi	-9.8138
▁transforma	-9.8145
▁modelul	-9.81472
▁lungă	-9.81484
▁tale	-9.81492
▁sunet	-9.81523
▁degrab	-9.81664
▁plăcut	-9.81664
▁cultura	-9.81674
▁libertate	-9.8168
▁13	-9.81701
ser	-9.81735
▁lupta	-9.81807
▁stimul	-9.81843
▁cartier	-9.82049
▁timpului	-9.82071
itati	-9.8208
H	-9.82133
▁dreptate	-9.82136
▁feluri	-9.82176
▁știe	-9.82224
▁capul	-9.82296
▁plăcea	-9.82435
▁întreagă	-9.82455
▁planeta	-9.8246
▁străzi	-9.82487
▁diverse	-9.82541
▁dur	-9.82556
▁medie	-9.82634
vel	-9.82662
ug	-9.82691
of	-9.82778
▁natură	-9.82825
▁unelte	-9.82842
▁cere	-9.82904
▁Oh	-9.82906
▁Ea	-9.83012
▁interesat	-9.83309
▁maşină	-9.83313
▁faceți	-9.83362
▁bloc	-9.83364
▁întregi	-9.83375
▁San	-9.83564
▁ambel	-9.83652
▁aspecte	-9.83675
bur	-9.83777
▁oraşe	-9.83779
▁cresc	-9.83799
▁serios	-9.83816
eaza	-9.83872
▁Bu	-9.83911
▁atinge	-9.83965
ieri	-9.84059
▁Do	-9.84084
▁intra	-9.84108
▁Su	-9.8416
▁funcționa	-9.84228
▁teori	-9.84271
▁puncte	-9.84289
▁apel	-9.84306
ante	-9.84366
fo	-9.84401
▁Ci	-9.84468
▁Par	-9.84491
▁teme	-9.84572
▁oferit	-9.84589
▁propriul	-9.84625
▁Vedeți	-9.84771
▁direcți	-9.84783
▁Video	-9.84784
▁nord	-9.84786
orul	-9.84804
▁vreun	-9.84986
ron	-9.85007
▁trans	-9.85057
▁integr	-9.85217
▁Ka	-9.85273
▁disc	-9.85284
▁privat	-9.85288
▁ultim	-9.85453
▁top	-9.85519
▁Probabil	-9.85579
▁inima	-9.85599
▁plec	-9.85683
▁armat	-9.85821
▁voastr	-9.85882
▁curent	-9.86018
▁24	-9.86021
▁Pre	-9.86035
▁So	-9.86089
▁rezultatul	-9.86098
▁Dr	-9.86121
▁dragoste	-9.8638
▁dovedit	-9.86401
▁mânca	-9.86635
▁mănânc	-9.86783
▁viziune	-9.86784
abile	-9.86795
▁vânt	-9.86823
▁privind	-9.86873
▁lege	-9.86937
▁răs	-9.87049
▁Aş	-9.87085
▁dez	-9.87136
▁informație	-9.87189
▁contact	-9.8719
▁efecte	-9.87571
▁chesti	-9.8758
▁reflect	-9.87595
▁cultur	-9.87675
▁ciuda	-9.87778
▁soare	-9.87836
▁Ok	-9.87849
▁concept	-9.87916
▁adun	-9.87938
▁lucr	-9.8798
▁sincer	-9.88004
bra	-9.88166
▁programe	-9.88187
▁mișcare	-9.88249
rate	-9.88253
▁hartă	-9.88277
50	-9.88288
▁vinde	-9.88361
▁indivizi	-9.88413
▁cerut	-9.88458
țele	-9.88505
▁Aș	-9.88534
▁il	-9.8857
▁computere	-9.88587
▁insul	-9.8866
▁ridic	-9.8871
iva	-9.88755
▁dupa	-9.88844
▁abilitate	-9.88896
▁indic	-9.88907
▁atent	-9.88977
▁informaţie	-9.88998
▁economică	-9.89038
▁continu	-9.89235
▁civil	-9.8926
▁Încă	-9.89507
▁imaginați	-9.89596
▁combustibil	-9.89652
▁clinic	-9.89653
▁următorul	-9.89658
asă	-9.89732
esti	-9.89742
▁industria	-9.89743
▁tur	-9.89831
▁hârtie	-9.89831
▁ţin	-9.90069
▁studenţi	-9.90069
▁peisaj	-9.90073
▁zero	-9.90073
▁corpului	-9.90084
▁vieţi	-9.9013
▁doctor	-9.9016
▁Daca	-9.9022
▁cercetători	-9.90373
▁filmul	-9.90515
▁conecta	-9.90627
▁muri	-9.90669
▁Sper	-9.90703
▁gândiți	-9.9084
▁imi	-9.90875
▁No	-9.90882
▁contribui	-9.90908
▁rece	-9.90989
▁rar	-9.91086
▁explica	-9.91196
▁aparat	-9.91279
▁aud	-9.9129
▁închis	-9.91305
▁afacere	-9.9133
▁păduri	-9.91332
▁mulțime	-9.91425
up	-9.91452
ner	-9.91504
▁discut	-9.91589
▁nor	-9.91612
rs	-9.91615
▁comunicare	-9.91665
▁păr	-9.91673
▁instrumente	-9.91688
▁părinţi	-9.91754
gram	-9.9181
▁diferenț	-9.91873
▁descrie	-9.91927
▁mesaj	-9.92134
▁trăit	-9.92195
▁greşit	-9.92219
asca	-9.92228
▁constant	-9.92265
▁intre	-9.92271
▁biologic	-9.92285
▁miliard	-9.92289
▁religi	-9.92333
▁costuri	-9.92423
▁chimic	-9.92432
▁decat	-9.92529
▁supra	-9.92534
▁pacienți	-9.92606
▁categori	-9.92606
▁mile	-9.92616
▁linii	-9.92633
▁egal	-9.9272
▁cumpăra	-9.92887
▁masa	-9.92906
cal	-9.93027
▁altor	-9.93027
▁administra	-9.93035
▁înăuntru	-9.93036
▁viata	-9.93089
▁Col	-9.93147
▁medicament	-9.93185
▁Unde	-9.93191
▁reuşit	-9.93244
▁etc	-9.93267
▁canal	-9.93305
▁străin	-9.93329
▁structură	-9.93466
▁carier	-9.93493
cut	-9.93549
▁verific	-9.93575
▁călătorie	-9.93632
cid	-9.93743
▁opri	-9.9376
pol	-9.93826
▁păsări	-9.939
▁plimb	-9.939
▁inceput	-9.93902
▁reţea	-9.93917
▁comportament	-9.93973
▁profit	-9.94299
▁vorbea	-9.94327
▁părinți	-9.94337
▁pies	-9.94492
▁efort	-9.94629
▁publice	-9.94667
▁zilnic	-9.94771
▁text	-9.94828
▁elemente	-9.94881
atoare	-9.94972
▁compar	-9.95021
▁reveni	-9.95086
▁bar	-9.95193
▁oportunitate	-9.9521
▁Major	-9.9521
nul	-9.95219
▁remarcabil	-9.95233
▁Or	-9.95255
▁înţeles	-9.95266
uş	-9.95323
ion	-9.95345
▁universul	-9.95364
cent	-9.95539
▁plecat	-9.95553
grafi	-9.95624
▁cerc	-9.95634
▁depinde	-9.95634
▁ziar	-9.95634
▁săptămână	-9.9565
▁camere	-9.95805
log	-9.95816
▁urmat	-9.95877
▁d	-9.95891
▁folosite	-9.9593
▁lansat	-9.96019
▁comunități	-9.96066
▁domeniu	-9.96103
▁viitoare	-9.96108
▁căror	-9.9614
▁sentiment	-9.9615
▁puternice	-9.96169
▁ajutat	-9.96212
▁mam	-9.96228
▁sexual	-9.96244
▁numeșt	-9.96253
▁întâmpl	-9.9637
▁art	-9.96402
▁secundă	-9.96537
com	-9.9659
▁scoate	-9.96624
▁reguli	-9.96714
▁colabor	-9.96724
sat	-9.96724
▁Vest	-9.96749
▁scopul	-9.96937
▁const	-9.96957
▁studenți	-9.96983
▁Ex	-9.97119
▁motor	-9.97126
▁vorbind	-9.97178
if	-9.97298
val	-9.97312
▁copilul	-9.97378
ler	-9.97381
▁principiu	-9.97432
▁vroia	-9.97432
▁purta	-9.97474
▁funcţiona	-9.97503
F	-9.97727
▁fata	-9.97796
▁gândiţi	-9.97817
▁căuta	-9.97822
▁pădure	-9.97882
▁comunităţi	-9.97883
▁scump	-9.97884
▁logic	-9.97888
▁limite	-9.97896
▁speranț	-9.97901
▁contra	-9.97953
▁făcută	-9.98035
▁cuvântul	-9.98036
▁săraci	-9.98053
torilor	-9.98078
▁dezvoltă	-9.98157
▁prezentat	-9.98208
▁pace	-9.98316
▁student	-9.98335
▁experimente	-9.98368
ex	-9.98394
▁198	-9.98429
loc	-9.9847
▁gândire	-9.98498
▁500	-9.98632
res	-9.98645
▁sistemului	-9.98717
▁securitate	-9.98789
▁transmite	-9.98803
▁animalele	-9.98817
▁redus	-9.98822
▁obiectiv	-9.98828
wa	-9.9889
▁crez	-9.98996
▁ingineri	-9.99048
▁proiectat	-9.99112
▁preferat	-9.99126
▁ora	-9.99177
▁Păi	-9.99243
▁Idee	-9.99254
eti	-9.99347
▁publicat	-9.99347
▁întregul	-9.99354
▁alerg	-9.99392
▁ţine	-9.99427
▁timpuri	-9.99653
▁mal	-9.99657
▁infrastructur	-9.99705
▁mâinile	-9.99746
▁electricitate	-9.9975
onar	-9.99756
▁cântec	-9.99838
▁molecule	-9.99847
▁limba	-9.99904
▁înțelegem	-9.99938
ly	-9.99975
▁grade	-10.0009
▁proiectul	-10.0013
▁pește	-10.0016
▁zbura	-10.0016
▁alternativ	-10.0017
▁revist	-10.0017
▁chestii	-10.0017
▁ştie	-10.0019
▁trai	-10.0023
▁varia	-10.0028
▁accept	-10.0028
▁dorit	-10.003
▁nebun	-10.0034
▁celulă	-10.0036
▁Ad	-10.004
ruc	-10.0048
▁Univers	-10.0052
▁muta	-10.0053
▁sărac	-10.0053
▁inclusiv	-10.0063
▁speranţ	-10.0063
▁studiat	-10.0071
ps	-10.0079
▁cutie	-10.0085
izează	-10.0087
▁publică	-10.0103
▁științific	-10.0109
▁folosească	-10.011
▁lumini	-10.0118
▁extinde	-10.0124
▁Alt	-10.0143
est	-10.0143
V	-10.0144
mai	-10.0148
▁agricultur	-10.0156
▁ştiinţific	-10.0156
▁cauză	-10.0157
▁fizică	-10.0159
▁plat	-10.0159
▁interior	-10.0165
▁comportamentul	-10.0176
▁atat	-10.0176
▁modific	-10.0177
▁comunica	-10.0193
▁fabrica	-10.0203
▁platform	-10.0204
▁drag	-10.0207
▁semnal	-10.021
▁oricu	-10.0225
▁Mar	-10.0234
▁bal	-10.0236
▁bărbați	-10.0236
▁următori	-10.0245
▁miros	-10.0251
▁carne	-10.0261
▁prezint	-10.0277
ry	-10.0289
▁fusese	-10.0295
▁cit	-10.0295
▁ocazi	-10.0296
▁Londr	-10.0298
▁uriaș	-10.0298
▁condiți	-10.0299
▁rețea	-10.03
▁lucrări	-10.031
▁arme	-10.0312
▁pod	-10.0312
▁climatic	-10.0328
▁foloseşt	-10.0331
▁aștepta	-10.0335
▁complexe	-10.0339
▁culturi	-10.0341
▁dimensiuni	-10.0345
▁ascuns	-10.0345
▁semnificativ	-10.0345
comp	-10.0352
▁rul	-10.0352
▁culori	-10.0361
▁ofer	-10.0368
▁sfârşitul	-10.0381
▁repet	-10.0386
sur	-10.0389
▁grav	-10.0391
▁Una	-10.0396
▁Foar	-10.0404
arie	-10.0404
▁min	-10.0406
▁Vre	-10.0407
▁transform	-10.0413
▁Ja	-10.042
▁multor	-10.043
icul	-10.0441
▁ră	-10.0449
▁invent	-10.0452
▁300	-10.0459
uiţi	-10.0472
▁Cât	-10.0475
▁considerat	-10.0482
▁investi	-10.0487
▁avantaj	-10.0489
▁influenț	-10.0489
▁direcţi	-10.049
▁slab	-10.049
ţele	-10.0493
▁sup	-10.0496
▁petrec	-10.0498
▁capăt	-10.0499
▁invers	-10.0505
▁centru	-10.0509
▁bogat	-10.0518
▁generat	-10.0523
▁albastru	-10.0531
▁plăti	-10.0537
▁regiune	-10.0538
▁preda	-10.0549
▁medi	-10.0558
▁învăţa	-10.0576
▁termeni	-10.0582
▁iubesc	-10.0587
▁zgomot	-10.0587
▁deosebit	-10.0589
▁limbaj	-10.0589
▁Haide	-10.0592
▁respectiv	-10.0593
▁ambi	-10.0601
▁Wi	-10.0602
▁prins	-10.0607
▁cunosc	-10.0615
▁dumneavoastră	-10.0617
▁hotărât	-10.0621
▁situaţi	-10.0629
▁afirm	-10.0636
▁adevarat	-10.0636
▁detalii	-10.0636
▁discurs	-10.0641
▁trage	-10.0642
▁cancerul	-10.0643
▁căută	-10.0649
▁uitaţi	-10.0658
▁răspunsuri	-10.0661
▁pana	-10.0661
gan	-10.0664
▁participa	-10.0669
▁conectat	-10.067
▁treile	-10.0673
xi	-10.0673
▁stea	-10.0677
▁artist	-10.068
▁ultimel	-10.0681
▁grămad	-10.0685
▁Încerc	-10.0685
antă	-10.0696
▁As	-10.0698
▁creare	-10.0702
▁banc	-10.0706
▁Lucr	-10.072
▁consider	-10.072
▁solar	-10.0721
▁hai	-10.0728
▁membri	-10.0729
▁căutare	-10.0732
▁comercial	-10.0735
▁şans	-10.0735
▁păcate	-10.0736
▁limbi	-10.0738
▁deget	-10.0738
▁Că	-10.0739
▁durere	-10.0739
▁apropiat	-10.074
▁fals	-10.0742
▁spunând	-10.0744
▁vină	-10.075
bilă	-10.076
▁Tu	-10.0762
▁rele	-10.0762
gur	-10.0766
▁esti	-10.0777
▁calculatoare	-10.0786
▁obișnuit	-10.0786
▁cărui	-10.0794
▁educație	-10.0802
▁relați	-10.0804
▁lucrare	-10.0808
▁team	-10.081
▁gândeam	-10.0816
▁pasă	-10.0819
▁cumpărat	-10.082
▁val	-10.0826
▁inteligent	-10.0827
▁ton	-10.0828
▁naturii	-10.0834
▁deplas	-10.0834
▁capabili	-10.0836
▁colectiv	-10.0838
▁priv	-10.0841
rus	-10.0849
▁sună	-10.0851
▁sfârșit	-10.0857
▁guverne	-10.0857
▁rezolv	-10.0862
▁Du	-10.0866
▁document	-10.0867
▁por	-10.0877
▁orașe	-10.0883
▁virtual	-10.0885
▁şapte	-10.0885
▁continent	-10.0885
▁dreptul	-10.0895
▁chi	-10.0904
cop	-10.0907
▁lăs	-10.091
▁rolul	-10.0911
▁sfârșitul	-10.0913
▁supraviețui	-10.0916
▁sunete	-10.0917
▁bineînțeles	-10.0935
▁evoluat	-10.0935
▁negativ	-10.0935
▁versiune	-10.0937
▁modalitate	-10.0939
▁for	-10.0946
▁îndepărtat	-10.0949
▁râ	-10.0954
numit	-10.0959
▁var	-10.0959
▁frumoase	-10.0961
▁grad	-10.0963
▁având	-10.0975
▁veche	-10.0986
▁țara	-10.0986
▁vizita	-10.0986
▁clasa	-10.0987
▁politici	-10.0998
▁moar	-10.1002
▁Face	-10.1008
▁opera	-10.101
▁curat	-10.101
▁termin	-10.1014
orii	-10.1017
▁caut	-10.1026
▁be	-10.1035
▁nisip	-10.1037
▁amuzant	-10.1037
▁munte	-10.1039
▁Spune	-10.1041
▁unic	-10.1042
▁primesc	-10.1054
▁proteja	-10.1064
▁gol	-10.1074
▁sensul	-10.1081
▁matematică	-10.1087
▁evoluţi	-10.1088
▁şcoli	-10.1088
▁argument	-10.1088
▁indiferent	-10.109
▁prezentare	-10.1091
▁imaginaţi	-10.1092
▁presiune	-10.1101
▁relaţi	-10.1103
▁cultural	-10.1121
turile	-10.1124
▁industrial	-10.1128
▁Cei	-10.113
▁primel	-10.1132
gin	-10.1135
▁african	-10.1136
▁dovezi	-10.114
▁epidemi	-10.114
▁distanţ	-10.114
▁liceu	-10.1161
▁uitați	-10.1163
▁uș	-10.1166
izate	-10.1181
▁politice	-10.1183
▁organisme	-10.1187
▁interpret	-10.1188
▁Mondial	-10.1191
▁pericol	-10.1192
▁trup	-10.1192
▁rămân	-10.1197
▁acelei	-10.1197
cineva	-10.1198
▁ştii	-10.1202
▁relativ	-10.1204
vor	-10.1206
▁faceţi	-10.1216
rin	-10.1224
▁droguri	-10.1225
▁peşte	-10.1227
▁salva	-10.1228
▁mutat	-10.1239
▁radical	-10.1244
▁marca	-10.1245
▁închisoare	-10.1245
▁consideră	-10.1269
port	-10.127
ajul	-10.1271
▁Internetul	-10.1278
▁vârf	-10.1283
▁Hai	-10.1284
▁asculta	-10.1287
▁singuri	-10.1289
▁surs	-10.129
▁acelor	-10.1293
▁biciclet	-10.1296
▁pornit	-10.1296
▁zece	-10.1296
▁gra	-10.1302
▁scurtă	-10.1318
▁amestec	-10.1321
▁acelui	-10.1332
▁colegii	-10.134
uiți	-10.134
▁dimensiune	-10.1349
▁istoric	-10.1349
▁oxigen	-10.1349
▁regula	-10.1349
▁stătea	-10.1353
▁educaţie	-10.1361
▁scop	-10.1368
▁propriu	-10.1374
▁copac	-10.1395
▁bunic	-10.1399
▁arhitectur	-10.1399
▁sînt	-10.1403
▁stabil	-10.1403
▁separ	-10.1409
pli	-10.1412
ota	-10.1413
▁Pământul	-10.1414
▁momente	-10.143
▁răspând	-10.1431
▁Bar	-10.144
▁gener	-10.1444
indu	-10.1446
▁pregăti	-10.1447
ang	-10.1451
▁maxim	-10.1455
▁neagr	-10.1455
▁accesibil	-10.1455
▁fascinant	-10.1457
iene	-10.1457
▁cin	-10.1459
teva	-10.1465
▁învăța	-10.1467
▁diagnostic	-10.1477
▁limitat	-10.1486
media	-10.1497
▁alegere	-10.1498
▁gheaţ	-10.1508
▁teorie	-10.1519
▁credeți	-10.1536
▁iubi	-10.1539
▁aştepta	-10.1546
▁ridică	-10.1552
▁sprijin	-10.1553
▁ştiam	-10.1556
▁populație	-10.1562
▁expresi	-10.1562
▁facultate	-10.1562
▁dispărut	-10.1563
▁poziţi	-10.1564
▁ridica	-10.1565
ff	-10.157
▁convins	-10.157
▁pagini	-10.1572
▁apei	-10.1577
▁linia	-10.1578
▁sarcin	-10.1578
▁pasiune	-10.1581
▁organism	-10.1585
▁particip	-10.1603
▁cercetări	-10.1616
▁militar	-10.1616
▁omul	-10.1616
tivă	-10.1617
▁fix	-10.162
▁Ap	-10.162
▁Gra	-10.1623
U	-10.1628
▁eveniment	-10.1633
▁inspirat	-10.1639
▁21	-10.1639
▁omor	-10.165
▁metode	-10.1655
▁virus	-10.1667
▁adaug	-10.167
▁antren	-10.1671
▁merită	-10.1672
▁vorbeasc	-10.1675
▁componente	-10.1683
▁noroc	-10.1689
▁invit	-10.1701
▁For	-10.1709
▁asigur	-10.171
▁sunetul	-10.1711
▁explora	-10.1714
▁colegi	-10.1718
▁arata	-10.172
▁Imaginați	-10.1725
▁recunoaște	-10.1725
▁trafic	-10.1725
▁transmis	-10.1725
▁Copii	-10.1725
▁intern	-10.1731
▁strat	-10.1732
▁He	-10.1736
▁țin	-10.1743
▁element	-10.1755
▁ajungă	-10.1759
▁lucrurilor	-10.177
▁perete	-10.177
▁tinere	-10.1777
▁mut	-10.1777
▁Sun	-10.1779
las	-10.178
▁dimineaţ	-10.178
▁societăţi	-10.178
▁ies	-10.1781
▁confruntă	-10.1782
▁trimit	-10.1783
▁părere	-10.1786
▁coast	-10.1794
▁organizat	-10.1797
▁întâlni	-10.1797
▁genom	-10.1804
▁context	-10.181
zăm	-10.1833
stăzi	-10.1834
▁artificial	-10.1835
▁potenţial	-10.1835
▁software	-10.1835
▁Acești	-10.1835
▁poziți	-10.1838
izată	-10.1839
▁provocări	-10.1841
▁ordine	-10.1842
▁turn	-10.1845
▁Uni	-10.1853
▁orbi	-10.1853
van	-10.1855
▁controlul	-10.1861
▁biologie	-10.1867
▁complexitate	-10.188
▁afecteaz	-10.1891
▁revoluți	-10.1891
▁echipe	-10.1891
▁popular	-10.1891
▁pisic	-10.1891
▁ascult	-10.1898
▁autor	-10.1907
▁pregătit	-10.1911
▁simţit	-10.1914
ji	-10.1918
stic	-10.1924
▁automat	-10.1936
▁chimi	-10.1944
▁analiză	-10.1947
▁invizibil	-10.1947
▁particule	-10.1947
▁Afganistan	-10.1947
▁revoluţi	-10.1947
▁metal	-10.1947
for	-10.1954
▁minun	-10.1963
▁rezolvat	-10.1978
▁sărăcie	-10.1985
▁Doamne	-10.1989
▁insecte	-10.1995
▁separat	-10.2
▁influenţ	-10.2003
▁magic	-10.2003
▁oricare	-10.2004
▁porni	-10.2013
▁furnici	-10.2023
▁arte	-10.2037
▁șans	-10.205
▁web	-10.2059
▁opini	-10.206
▁bătrân	-10.2066
izări	-10.2067
▁supravieţui	-10.2068
▁asigură	-10.207
▁sfârşit	-10.2074
▁combin	-10.2081
▁criz	-10.2081
▁mesaje	-10.2084
▁medic	-10.2085
▁maşin	-10.2085
▁calea	-10.2094
▁reacți	-10.2096
▁California	-10.2108
▁echilibr	-10.2116
▁independent	-10.2116
▁volum	-10.2116
▁opus	-10.2117
▁microbi	-10.2121
▁bat	-10.2158
▁piese	-10.2159
▁dorinţ	-10.2163
▁înregistrat	-10.2163
▁state	-10.2169
▁pacienţi	-10.2173
▁dvs	-10.2173
▁național	-10.2173
▁zboar	-10.2173
psi	-10.2174
▁intermedi	-10.2175
▁stil	-10.2175
▁implică	-10.2178
▁Azi	-10.2182
▁răspund	-10.2193
▁avans	-10.221
▁cald	-10.2211
▁lumi	-10.2214
▁sala	-10.2217
fund	-10.222
▁fat	-10.2224
▁Facebook	-10.2231
▁Japoni	-10.2231
▁Înainte	-10.2231
▁kilometri	-10.2231
▁masiv	-10.2231
▁gândeșt	-10.2235
uș	-10.2237
odată	-10.2248
▁hrăni	-10.2256
▁ieși	-10.226
▁colect	-10.2267
▁simbol	-10.2272
▁serviciu	-10.2274
▁câmp	-10.2284
▁societăți	-10.2288
▁gust	-10.229
▁crească	-10.2293
▁Acel	-10.2298
▁stem	-10.2301
▁dinamic	-10.231
▁diversitate	-10.231
▁Ah	-10.2315
▁telefonul	-10.2316
▁Mama	-10.2317
▁continuat	-10.2319
ntă	-10.232
▁Mu	-10.2322
▁existe	-10.2322
▁compani	-10.2324
▁Britanie	-10.2328
▁tras	-10.2346
▁ecosistem	-10.2347
▁mecanic	-10.2347
▁original	-10.2347
▁atins	-10.2347
▁197	-10.2349
stul	-10.235
▁The	-10.235
▁procente	-10.2351
▁aleg	-10.2351
▁Universitate	-10.2356
▁teste	-10.2361
▁rezolvă	-10.2372
▁apropie	-10.2383
▁lucreze	-10.2385
▁arhitectura	-10.2387
▁juca	-10.2392
▁universal	-10.2404
▁individ	-10.2405
▁materie	-10.2405
▁adevărul	-10.2407
▁venea	-10.2407
▁rețele	-10.2413
▁cânta	-10.2416
▁fiic	-10.2417
▁elevi	-10.242
▁150	-10.2439
▁mecanism	-10.2456
▁tehnologic	-10.2459
▁preocup	-10.2464
▁intereseaz	-10.2466
▁dispozitive	-10.2466
▁Hu	-10.2474
▁prefer	-10.2485
▁lemn	-10.2495
▁relații	-10.25
▁2000	-10.251
▁Twitter	-10.2523
▁câine	-10.2523
▁sensibil	-10.2523
▁State	-10.2532
resc	-10.2545
▁naturale	-10.2554
▁biologi	-10.2578
▁potențial	-10.2583
▁distrus	-10.2583
▁îngrijora	-10.2583
▁pieţe	-10.2584
▁restaurant	-10.2585
▁Che	-10.2587
▁reţele	-10.2589
▁medicale	-10.2592
▁beneficii	-10.2592
▁Vor	-10.2609
▁grea	-10.261
▁tren	-10.2625
onul	-10.2629
▁evalu	-10.2629
gon	-10.2636
▁minunate	-10.2639
▁asemănător	-10.2639
▁SIDA	-10.2642
▁domenii	-10.2642
▁întunecat	-10.2642
▁promov	-10.2643
▁Fără	-10.2643
▁reale	-10.265
▁piaţă	-10.2671
▁circul	-10.2672
▁sum	-10.2672
▁tipar	-10.2675
▁Sti	-10.2678
▁lovit	-10.2679
▁aruncat	-10.2685
▁formeaz	-10.2698
▁foto	-10.2699
▁Washington	-10.2703
▁principii	-10.2703
▁școli	-10.2703
▁tradițional	-10.2704
▁lichid	-10.2704
▁creativitate	-10.2704
proape	-10.271
▁oprit	-10.2719
▁aur	-10.2724
▁informaţi	-10.2725
▁implic	-10.2725
cel	-10.273
▁mese	-10.273
▁196	-10.273
▁pierdere	-10.2731
▁degete	-10.2739
▁ating	-10.2739
▁caracter	-10.274
▁evenimente	-10.2744
▁introduce	-10.2745
▁Toți	-10.2762
▁scufund	-10.2763
▁băiat	-10.2763
▁mașina	-10.2763
▁Fac	-10.2767
▁alimente	-10.2775
▁to	-10.2788
ker	-10.2795
▁limb	-10.2796
▁joac	-10.2797
▁Cor	-10.2809
bar	-10.2809
▁piață	-10.281
▁descurc	-10.2819
10	-10.282
▁cunoaşte	-10.2824
▁Gândiți	-10.2824
▁industrie	-10.2824
▁hrană	-10.2824
▁descoperire	-10.2825
▁brut	-10.2825
▁braț	-10.2826
▁vârful	-10.2835
▁Ru	-10.2838
▁reprezenta	-10.285
▁aplica	-10.285
▁tri	-10.2857
▁minut	-10.2862
▁construiesc	-10.2865
▁400	-10.287
tern	-10.2874
▁Ed	-10.2876
▁trata	-10.2878
nos	-10.288
▁Război	-10.2886
▁asistent	-10.2886
▁galben	-10.2886
▁decenii	-10.2886
▁spectr	-10.2887
▁zicem	-10.2889
▁sfer	-10.289
▁rot	-10.289
▁continuare	-10.2901
venind	-10.2906
▁îngrijire	-10.2906
▁analiza	-10.2914
▁știi	-10.2916
▁râset	-10.2928
▁Cal	-10.2931
▁proteine	-10.2941
▁incerca	-10.2942
▁adevăr	-10.2943
▁metafor	-10.2947
▁sălbatic	-10.2947
▁naţional	-10.2947
▁doctori	-10.2969
▁folosire	-10.2972
▁îmbunătăți	-10.2977
▁angajat	-10.2978
▁suprafaţă	-10.298
vest	-10.2981
▁studiez	-10.2993
▁pictur	-10.2998
▁rug	-10.3002
▁identitate	-10.3009
▁noastra	-10.3009
▁asum	-10.301
▁glum	-10.301
▁urme	-10.3013
▁vaccin	-10.3021
▁soluţie	-10.3035
▁ferm	-10.3043
▁depozit	-10.3043
▁talent	-10.3045
nter	-10.3049
▁râs	-10.3051
▁vas	-10.3051
▁sor	-10.3056
▁lent	-10.3064
▁aceștia	-10.3068
rba	-10.3069
▁est	-10.3069
▁pal	-10.307
▁renunț	-10.3072
▁margine	-10.3072
▁vorbeșt	-10.3073
ificat	-10.3084
▁afectat	-10.3084
▁războiul	-10.3084
▁dr	-10.3086
▁Go	-10.3094
▁avansat	-10.3096
▁ideal	-10.3108
gar	-10.3114
▁șapte	-10.3135
▁renunţ	-10.3135
▁căsători	-10.3135
▁res	-10.3144
▁fara	-10.3148
▁adunat	-10.3148
▁programul	-10.3156
▁trist	-10.3157
▁lungi	-10.316
hal	-10.3166
iunea	-10.3167
▁fă	-10.3169
▁primar	-10.3176
▁Reg	-10.318
▁include	-10.318
▁vremuri	-10.3189
▁soluţii	-10.3192
▁Ins	-10.3197
▁nas	-10.3199
▁Mulți	-10.3201
▁arunc	-10.3202
▁mental	-10.3203
▁contract	-10.3206
▁fir	-10.321
nder	-10.3212
▁faz	-10.3215
▁servi	-10.3223
▁controla	-10.3224
▁lipi	-10.3236
▁echipament	-10.3237
bal	-10.3242
▁Lo	-10.3248
▁dispu	-10.3248
▁adopt	-10.3251
▁voci	-10.3263
▁extern	-10.3263
▁TV	-10.3265
ţiune	-10.3266
▁statistici	-10.3281
▁iubire	-10.3284
▁prinde	-10.3285
▁w	-10.329
înd	-10.3297
▁mobile	-10.3298
▁obişnui	-10.3307
▁individual	-10.3311
▁note	-10.3313
▁distruge	-10.3318
▁telefoane	-10.3318
▁bate	-10.3322
▁fragment	-10.3326
▁vizibil	-10.3326
▁dovad	-10.3326
▁stoc	-10.3334
▁baze	-10.3354
▁dorinț	-10.3365
▁decide	-10.3368
▁inspir	-10.3384
▁săptămâna	-10.339
▁manual	-10.3391
▁demonstra	-10.3391
▁listă	-10.3394
mite	-10.3415
▁minți	-10.3416
▁forțe	-10.3418
▁parcursul	-10.3422
▁proprii	-10.3451
▁mişcă	-10.3453
▁Africi	-10.3455
▁copilărie	-10.3456
▁transfer	-10.3457
▁utilizare	-10.3465
▁vân	-10.3475
▁Vrem	-10.3482
▁0	-10.3488
▁Art	-10.3496
▁organic	-10.3497
▁Est	-10.3498
▁arat	-10.3503
▁schi	-10.3509
▁mâini	-10.3515
▁bolnav	-10.3521
▁cerebral	-10.3521
▁vândut	-10.3522
▁conform	-10.3524
▁minim	-10.3526
▁ape	-10.3528
mentul	-10.3538
▁forţe	-10.3544
▁considerare	-10.3554
▁încercare	-10.3557
ram	-10.356
ley	-10.3562
ill	-10.3567
metri	-10.358
▁cărei	-10.3581
▁intens	-10.3581
iană	-10.3584
▁Vin	-10.3586
▁roboți	-10.3587
▁explozi	-10.3587
▁situați	-10.3588
▁esenț	-10.3589
▁asigura	-10.3594
▁celebr	-10.3597
▁emisii	-10.3598
▁Odat	-10.36
▁practică	-10.3602
▁priveşte	-10.3608
▁descoperiri	-10.361
▁decizie	-10.3613
▁tratat	-10.3615
▁Soare	-10.363
▁seară	-10.3638
▁pierd	-10.3639
▁galaxii	-10.3639
▁iese	-10.3641
▁impresi	-10.3652
▁inteligenț	-10.3653
▁găseșt	-10.3653
▁fosil	-10.3653
nor	-10.3654
▁Can	-10.3654
▁extrage	-10.3655
▁obişnuit	-10.3673
▁privit	-10.3674
ung	-10.3675
▁ieșit	-10.369
▁aminti	-10.3699
▁cunoaște	-10.3702
▁atenţie	-10.3704
▁preț	-10.3704
▁organe	-10.3705
▁ieşi	-10.3709
▁privește	-10.371
▁porumb	-10.372
▁informația	-10.372
▁examin	-10.372
▁Cap	-10.372
▁precis	-10.372
▁terapi	-10.372
▁Ur	-10.3721
▁acceptat	-10.3725
fon	-10.3726
▁îmbunătăţi	-10.3728
▁situație	-10.3729
▁naştere	-10.3738
▁dreapt	-10.3748
qu	-10.3765
nce	-10.3766
tinde	-10.3773
▁uş	-10.3773
▁tehnici	-10.3774
han	-10.3774
obi	-10.3782
nume	-10.3783
▁atenție	-10.3783
▁domn	-10.3785
▁acțiune	-10.3787
▁strâns	-10.3787
▁uscat	-10.3787
▁suport	-10.3787
▁Bill	-10.3791
▁aştept	-10.3799
▁economisi	-10.38
▁gândeşt	-10.3801
▁cr	-10.3809
▁Ki	-10.3809
▁35	-10.3811
▁procent	-10.3825
▁Cha	-10.3825
▁lasă	-10.3827
▁Cele	-10.3832
▁trez	-10.3848
rați	-10.3852
far	-10.3853
▁adăpost	-10.3854
▁echivalent	-10.3854
▁ţesut	-10.3854
▁plăcere	-10.3854
▁apropo	-10.3854
▁scăpa	-10.3854
▁obținut	-10.3855
▁forța	-10.3855
▁esențial	-10.3855
▁anual	-10.3856
▁legătur	-10.3859
▁Mari	-10.386
by	-10.3867
▁găuri	-10.3873
▁dezvolta	-10.389
▁gaz	-10.3903
▁preveni	-10.3904
▁victime	-10.391
▁organiza	-10.3916
▁aflu	-10.3918
▁fabrică	-10.3922
▁neapărat	-10.3922
▁necesită	-10.3922
▁spectacol	-10.3922
▁intelectual	-10.3922
▁găseasc	-10.3923
bile	-10.3924
▁rost	-10.3925
agă	-10.3925
▁emoţi	-10.3926
▁legal	-10.3938
▁marin	-10.394
▁inova	-10.3945
▁criză	-10.3966
▁informat	-10.3969
▁susţine	-10.3978
▁acoperit	-10.3979
▁legături	-10.398
▁ban	-10.398
▁Hei	-10.3985
▁ascultă	-10.399
▁George	-10.3991
▁vulnerabil	-10.3991
▁descris	-10.3991
▁execut	-10.3991
▁buget	-10.3991
▁uriaş	-10.3991
▁scos	-10.3992
▁dezvolt	-10.3992
▁observ	-10.3993
▁atomi	-10.3998
▁circa	-10.4007
▁reuși	-10.402
▁confrunta	-10.4032
ino	-10.4037
▁aplicat	-10.4041
▁largă	-10.4042
▁Imaginaţi	-10.406
▁Ultim	-10.406
▁cognitiv	-10.406
▁internațional	-10.406
▁infecta	-10.406
▁Mexic	-10.406
▁găseşt	-10.406
▁violenț	-10.406
▁realizez	-10.4062
lip	-10.4062
▁unghi	-10.4065
▁albine	-10.4065
▁personaj	-10.4066
▁Bun	-10.407
▁soți	-10.4076
▁riscuri	-10.4086
▁Pur	-10.4089
▁aerul	-10.4097
▁spaţiul	-10.4115
▁Întrebare	-10.4126
▁grip	-10.4126
▁Germani	-10.4129
▁fiecărui	-10.4129
▁manifest	-10.4129
▁gratuit	-10.413
▁epoc	-10.4131
▁etap	-10.4134
dy	-10.4134
▁serioas	-10.4135
▁entuziasm	-10.4143
▁venituri	-10.4143
pen	-10.4145
▁celui	-10.4148
▁memorie	-10.4148
▁bul	-10.4153
▁mișcă	-10.4157
▁Bra	-10.4162
ris	-10.4168
▁designeri	-10.4169
▁Acela	-10.4183
▁laboratorul	-10.4183
▁provocat	-10.4198
▁conștient	-10.4199
▁ecologic	-10.4199
▁protest	-10.42
▁tipic	-10.4203
▁surprinzător	-10.4204
▁semnale	-10.4207
▁migr	-10.4216
▁interesa	-10.4216
▁filtr	-10.4219
ologic	-10.4222
▁impactul	-10.4224
▁țint	-10.4224
▁coad	-10.4227
▁citat	-10.4237
age	-10.4259
▁stric	-10.4263
▁arab	-10.4266
▁uite	-10.4268
▁alcătui	-10.4269
▁împrumut	-10.4269
▁conversaţi	-10.4269
▁avioane	-10.4269
▁000	-10.4271
▁slujb	-10.4276
▁Fo	-10.4279
▁asemănăto	-10.4282
▁rugat	-10.4284
▁orașul	-10.4284
▁împărtăși	-10.4285
▁solară	-10.429
▁rup	-10.4297
top	-10.43
▁luna	-10.4304
▁regulile	-10.4312
▁fonduri	-10.4312
▁strategi	-10.4318
▁folosește	-10.4329
▁factori	-10.4331
▁45	-10.4334
▁nano	-10.4342
▁mişcări	-10.4343
▁suprafaț	-10.4344
▁stres	-10.4344
▁aceia	-10.4345
▁gri	-10.4348
▁asociat	-10.435
▁scrii	-10.435
▁revin	-10.4352
▁parcă	-10.4372
▁observă	-10.4378
▁antreprenori	-10.4382
▁educat	-10.4396
▁ceas	-10.4399
dus	-10.441
▁Americii	-10.4412
▁reduc	-10.4412
▁întreabă	-10.4412
▁abuz	-10.4413
▁totdeauna	-10.4417
▁Asia	-10.4436
sk	-10.4438
▁picior	-10.444
▁credeţi	-10.445
cord	-10.4454
▁lecți	-10.4454
▁învățăm	-10.4456
▁vii	-10.4463
rap	-10.4476
▁detecta	-10.448
▁Brazilia	-10.4484
▁excelent	-10.4484
▁împiedic	-10.4484
▁cunoștințe	-10.4484
▁televizor	-10.4484
▁conversați	-10.4484
▁importanț	-10.4484
▁costum	-10.4485
▁haine	-10.4493
abilitate	-10.4497
▁durabil	-10.4498
▁Iran	-10.4499
▁utilizat	-10.452
▁simțit	-10.4527
▁surse	-10.4552
▁suprafață	-10.4553
▁gunoi	-10.4556
▁obţinut	-10.4557
▁cumper	-10.4557
▁poza	-10.4564
▁atmosfer	-10.4564
▁birou	-10.457
▁medici	-10.4586
sion	-10.4586
▁aruncă	-10.4592
raj	-10.46
nez	-10.4606
▁moderne	-10.4617
▁oceane	-10.4623
▁proprie	-10.4627
glo	-10.4628
▁străluc	-10.4629
▁democraţi	-10.4629
▁periculos	-10.4629
▁laptop	-10.4629
▁Aceşti	-10.4629
▁livr	-10.463
▁Corect	-10.463
▁planta	-10.4634
▁aștept	-10.4634
▁spațiul	-10.464
sch	-10.4643
▁atenţi	-10.4648
▁modern	-10.4658
▁ocupă	-10.4661
▁Mc	-10.4661
▁glob	-10.4662
cra	-10.4666
▁răc	-10.4672
▁instal	-10.4677
▁populaţie	-10.4681
▁afl	-10.4688
▁înţele	-10.4688
▁Einstein	-10.4703
▁interacțion	-10.4703
▁rezistent	-10.4703
▁absorb	-10.4703
▁soluții	-10.4703
▁deosebire	-10.4703
▁limbajul	-10.4703
▁esenţial	-10.4704
▁literal	-10.4708
▁aventur	-10.4713
▁Multe	-10.472
▁Lun	-10.4722
▁rândul	-10.4722
▁răni	-10.4732
▁fum	-10.4734
▁răspândit	-10.4735
▁limita	-10.4735
▁dormi	-10.4738
▁poartă	-10.4742
▁ţara	-10.4745
ong	-10.4745
ers	-10.4746
▁Fiindc	-10.4747
▁pătrat	-10.4754
▁fibr	-10.4757
▁Pu	-10.4761
nții	-10.4765
▁câteodat	-10.477
▁Richard	-10.4777
▁satelit	-10.4777
▁cifre	-10.4777
▁Singur	-10.4777
▁inimă	-10.478
ras	-10.4782
▁întinde	-10.4786
▁impuls	-10.4786
▁Intr	-10.4796
ern	-10.48
▁câştigat	-10.4802
▁clasic	-10.4803
▁Per	-10.4804
▁soţi	-10.4811
▁acțion	-10.4815
▁medii	-10.4816
▁gânduri	-10.482
▁aliment	-10.4822
▁Stud	-10.4825
▁ocup	-10.4828
lii	-10.4832
pune	-10.4836
▁transformare	-10.4837
▁rezult	-10.4839
▁fermieri	-10.4842
▁introdus	-10.4851
▁sănătoas	-10.4851
▁Lumea	-10.4852
▁Times	-10.4853
▁tone	-10.4854
▁flori	-10.4856
▁crim	-10.4856
▁adună	-10.4856
▁porc	-10.4863
▁termina	-10.4864
▁transmit	-10.4869
▁grati	-10.4871
▁tata	-10.4872
▁plătit	-10.4879
▁învăţăm	-10.4889
▁destin	-10.4892
▁necunoscut	-10.4893
▁ias	-10.4923
▁musulman	-10.4927
▁exterior	-10.4927
▁infinit	-10.4928
▁nave	-10.493
▁inginer	-10.493
▁împing	-10.4931
▁noul	-10.4934
▁sân	-10.4938
▁considera	-10.4941
▁corpuri	-10.4948
enţă	-10.496
ţiuni	-10.4961
▁invitat	-10.4963
▁actor	-10.4964
▁comunică	-10.4969
▁colaborare	-10.497
▁îndoi	-10.4974
▁cadru	-10.4976
▁statul	-10.4977
▁uz	-10.4979
▁fond	-10.4981
▁prezice	-10.4992
▁atmosferă	-10.4994
▁productiv	-10.5
▁designul	-10.5002
▁britanic	-10.5002
▁distractiv	-10.5002
▁izolat	-10.5002
▁obstacol	-10.5002
▁oficial	-10.5002
▁îndeplin	-10.5002
▁Înseamn	-10.5002
▁finanţ	-10.5002
▁umbr	-10.5003
▁celorlal	-10.5004
▁CO	-10.5009
▁Vorb	-10.5015
stig	-10.5024
presc	-10.5029
▁semne	-10.5037
râm	-10.5037
▁Jam	-10.5042
▁ador	-10.5044
▁bazeaz	-10.5047
▁reprezentat	-10.5059
▁chip	-10.5065
▁dezvălui	-10.5079
▁PIB	-10.5079
▁diplom	-10.5079
▁tradiţional	-10.508
▁delfin	-10.5081
▁credinț	-10.5088
▁caracteristici	-10.5091
cro	-10.5094
▁ieşit	-10.5095
▁populaţi	-10.5102
▁solid	-10.5103
▁ateriz	-10.5105
▁determină	-10.5106
▁lider	-10.5108
▁negru	-10.5112
▁altora	-10.5116
▁determina	-10.5116
▁roti	-10.5116
▁instituţii	-10.512
ham	-10.5125
▁ignor	-10.513
fur	-10.5136
▁molecul	-10.5146
▁Oricu	-10.5146
▁demonstrat	-10.5154
▁internaţional	-10.5156
▁autobuz	-10.5156
▁brusc	-10.5156
▁adresa	-10.5156
▁pricep	-10.5156
asambla	-10.5156
mbrie	-10.5156
▁ritm	-10.5163
bun	-10.5165
▁concep	-10.5166
▁Bună	-10.5167
▁susține	-10.5172
erie	-10.5175
▁lista	-10.5179
list	-10.5181
▁Ori	-10.5185
▁Alb	-10.5185
▁variant	-10.5208
▁folosea	-10.5217
▁fiinţ	-10.522
▁parteneri	-10.5221
▁repara	-10.523
▁extraordinară	-10.5231
▁Tehnologi	-10.5233
▁abstract	-10.5233
▁francez	-10.5233
▁regiuni	-10.5233
▁treacă	-10.5233
▁menţin	-10.5233
▁Eviden	-10.5234
▁căldur	-10.5235
▁Sigur	-10.5242
stiti	-10.5244
▁situaţie	-10.5244
▁sentimente	-10.5251
▁repar	-10.5252
▁scaun	-10.5256
▁director	-10.5272
▁ocupa	-10.5282
▁extra	-10.529
▁Cand	-10.5302
▁peşti	-10.5311
▁MIT	-10.5311
▁manipul	-10.5311
▁microscop	-10.5311
▁groaznic	-10.5312
▁adult	-10.5312
▁zbur	-10.5313
▁femel	-10.5314
▁Nou	-10.5315
▁concentra	-10.5316
▁Motiv	-10.5317
▁publicul	-10.5317
▁predic	-10.5319
▁Stan	-10.532
▁centre	-10.5321
▁studia	-10.5323
▁Trei	-10.5324
▁codul	-10.533
▁mențin	-10.5331
▁continuu	-10.5331
spec	-10.5334
▁hart	-10.5338
▁prezintă	-10.5346
potriv	-10.5346
▁Sal	-10.5346
▁studiul	-10.5351
▁Man	-10.5354
▁sentimentul	-10.5362
▁ferme	-10.5365
pta	-10.5368
her	-10.5371
▁Wal	-10.5373
rios	-10.5384
hid	-10.5386
▁conexiuni	-10.539
▁rezum	-10.539
▁implementa	-10.539
▁gaură	-10.539
▁rural	-10.539
▁Anul	-10.539
▁instrui	-10.539
▁negre	-10.5391
▁forţa	-10.5391
▁99	-10.5394
▁organ	-10.5396
▁tema	-10.5403
▁artistic	-10.5404
▁nevoia	-10.5405
ntul	-10.5407
▁cafea	-10.5407
▁mișcări	-10.541
▁caută	-10.5418
▁democrați	-10.542
▁apropiere	-10.542
▁imagin	-10.5422
▁minţi	-10.5422
▁mort	-10.543
soft	-10.5436
▁înregistr	-10.5447
▁interesul	-10.5452
▁chem	-10.5453
viz	-10.5454
▁învăț	-10.5457
▁ştiinţ	-10.5466
▁misiune	-10.5467
▁Guvern	-10.5469
▁populația	-10.5469
▁tendinț	-10.5469
▁încuraja	-10.5469
▁autonom	-10.5469
▁schelet	-10.547
▁interacţion	-10.5472
▁Pol	-10.5473
▁braţ	-10.5473
▁golf	-10.5478
ko	-10.5478
▁bărbații	-10.5493
▁utiliza	-10.5493
▁eficiente	-10.5497
▁conducere	-10.55
▁conserva	-10.5501
▁lup	-10.5504
▁contextul	-10.5506
▁aborda	-10.5532
▁ştiinţe	-10.5538
hu	-10.5538
▁Israel	-10.5549
▁inseamn	-10.5549
▁Irak	-10.5549
▁atitudine	-10.5549
▁apartament	-10.5549
▁proprietate	-10.555
▁origine	-10.555
▁cuantic	-10.5556
▁favorit	-10.5557
▁select	-10.5565
▁Trăi	-10.5566
▁grupul	-10.5567
▁ciclu	-10.5567
▁creaturi	-10.5568
▁scap	-10.5569
▁înțelegere	-10.5572
▁Paul	-10.5578
▁neuron	-10.5582
▁aplică	-10.5582
▁ofere	-10.5586
▁Min	-10.5593
▁Tur	-10.5593
▁priviți	-10.5599
▁materia	-10.5606
▁tind	-10.5612
▁aparate	-10.5614
▁precedent	-10.563
▁raspuns	-10.563
▁trăsătur	-10.563
▁criminal	-10.563
▁conferinţ	-10.5631
▁ascund	-10.5633
▁acoperi	-10.5639
flu	-10.5651
▁familiar	-10.566
▁condiţii	-10.5671
parte	-10.5673
▁mortal	-10.568
▁stâng	-10.5686
▁atrage	-10.569
▁22	-10.57
▁cântăr	-10.5702
▁învăţ	-10.5707
▁benzi	-10.5709
etul	-10.5711
▁ansamblu	-10.5711
▁dramatic	-10.5711
▁particular	-10.5711
▁soluție	-10.5711
▁tendinţ	-10.5711
▁bunuri	-10.5713
▁gasi	-10.5713
▁Astea	-10.5714
▁conţin	-10.5714
▁colț	-10.5715
▁gaze	-10.5716
▁taxe	-10.5719
▁mil	-10.5723
▁extraordinare	-10.5727
▁evoluție	-10.5727
dis	-10.5727
ificare	-10.5747
▁treime	-10.5753
▁ucis	-10.5756
▁hrăn	-10.5758
line	-10.576
▁jucă	-10.5763
▁călător	-10.5765
alitate	-10.5766
▁mesajul	-10.5766
▁Los	-10.5771
▁planuri	-10.5784
▁oraşul	-10.5785
▁slujbă	-10.5786
▁Australia	-10.5793
▁muşchi	-10.5793
▁reconstrui	-10.5793
▁recunoaşte	-10.5793
▁proastă	-10.5793
▁dioxid	-10.5794
▁furtun	-10.5794
▁dezastru	-10.5794
▁înclin	-10.5794
▁percepe	-10.5795
▁ţinut	-10.5795
▁dădea	-10.5801
▁electronic	-10.5801
▁investiți	-10.5804
▁intervi	-10.5808
▁costul	-10.5809
▁Ver	-10.5811
▁mister	-10.5813
▁salvat	-10.5816
▁apărea	-10.582
▁celular	-10.5821
▁cerere	-10.5822
▁partener	-10.5826
▁suflet	-10.5837
▁stiu	-10.5839
▁riscul	-10.5839
▁uitând	-10.5842
nut	-10.5843
▁priviţi	-10.5845
▁simț	-10.5852
▁diferențe	-10.5853
▁construiasc	-10.5854
▁funcți	-10.5856
ling	-10.5864
▁cetățeni	-10.5876
▁energetic	-10.5876
▁inevitabil	-10.5876
▁ipotez	-10.5876
▁roșu	-10.5876
▁periculoas	-10.5876
▁rachet	-10.5876
▁pilot	-10.5876
▁ilegal	-10.5876
▁Exista	-10.5876
▁invata	-10.588
▁violenţ	-10.5881
▁aripi	-10.5882
▁utilizatori	-10.5885
▁pescuit	-10.5897
bon	-10.5908
▁Începe	-10.5912
▁gre	-10.5913
▁suprafaţ	-10.5916
▁digitale	-10.5922
▁trib	-10.5938
fri	-10.594
▁împărtăș	-10.5941
▁drumuri	-10.5945
▁modernă	-10.5948
cît	-10.5952
▁costa	-10.5954
▁chirurgi	-10.5954
▁intelege	-10.5959
▁NAS	-10.5959
▁acțiuni	-10.5959
▁excepţi	-10.5959
▁instituții	-10.5959
▁reciproc	-10.5959
▁împărți	-10.5959
▁Darwin	-10.5959
▁frustr	-10.5959
▁acţiune	-10.5959
▁hotel	-10.596
▁piatră	-10.5961
▁adăugat	-10.5963
▁plaj	-10.5965
▁vazut	-10.5969
▁Dis	-10.597
▁copie	-10.5971
▁surprins	-10.5975
▁învaț	-10.5976
▁coborâ	-10.598
▁cumpără	-10.5981
▁umanitate	-10.5991
onează	-10.5998
▁maimuțe	-10.6004
▁Prim	-10.6004
dor	-10.6005
▁atenția	-10.6006
▁plut	-10.6007
▁religie	-10.6024
▁afecta	-10.6028
▁oceanul	-10.6041
▁kilo	-10.6043
▁ciuperc	-10.6043
▁mulțumi	-10.6043
▁permanent	-10.6043
▁construcți	-10.6043
▁sugera	-10.6043
▁spațial	-10.6043
▁conferinț	-10.6044
▁accent	-10.6044
▁experiențe	-10.6044
gro	-10.6044
▁oarec	-10.6045
▁1000	-10.6048
▁75	-10.6052
▁expus	-10.6052
▁inteligente	-10.6055
▁blog	-10.6065
▁suna	-10.6067
▁democratic	-10.6074
▁existenț	-10.6079
ifer	-10.6083
▁ghi	-10.6084
▁reducere	-10.6085
▁bec	-10.6087
părut	-10.6088
liber	-10.61
▁beneficia	-10.6104
sen	-10.6109
▁vecin	-10.6117
▁fu	-10.612
▁pian	-10.6124
▁Charles	-10.6128
▁distanță	-10.6128
▁extins	-10.6128
▁videoclip	-10.6128
▁mâine	-10.6128
▁cardiac	-10.6128
▁inainte	-10.6128
▁diagram	-10.6128
▁limită	-10.6128
▁Uite	-10.6129
▁generație	-10.613
▁cablu	-10.613
▁conțin	-10.6131
▁lungime	-10.6131
▁iubit	-10.6135
▁Comp	-10.6136
▁23	-10.6136
ford	-10.6137
▁pasiona	-10.6138
▁galaxi	-10.6145
▁stabili	-10.6147
veti	-10.6147
▁jucător	-10.6154
▁majore	-10.6155
▁sport	-10.6161
▁muzical	-10.6167
▁malarie	-10.6173
▁explicat	-10.6178
▁albastr	-10.6187
▁inginerie	-10.6191
▁greutate	-10.6205
▁amintiri	-10.6209
▁adăuga	-10.621
ământ	-10.621
▁reda	-10.6213
▁excepți	-10.6214
▁Observ	-10.6214
▁conținut	-10.6215
▁medicină	-10.6215
▁deceniu	-10.6217
▁esenţ	-10.6218
▁haide	-10.6222
▁regim	-10.6223
▁trăieşt	-10.6225
▁cro	-10.6238
▁definit	-10.6238
▁morți	-10.6238
▁scade	-10.6243
olog	-10.6243
▁subiectul	-10.6258
▁vase	-10.6264
▁funcţi	-10.6264
▁ființe	-10.6265
,	-10.6267
pic	-10.6269
▁tipare	-10.627
▁mascul	-10.6277
▁consumatori	-10.6279
▁gand	-10.6298
▁Harvard	-10.63
▁strig	-10.63
▁roşi	-10.6301
bb	-10.6301
▁septembrie	-10.6304
uza	-10.6308
▁modificat	-10.6309
▁concentrat	-10.6311
▁judecat	-10.6313
▁Femei	-10.6315
▁Ben	-10.6321
▁procese	-10.6323
▁existenţ	-10.6325
▁funcţie	-10.6335
▁popor	-10.6336
▁raz	-10.6336
▁funcție	-10.6344
▁democrație	-10.6353
▁sofisticat	-10.6356
▁puterii	-10.6367
▁privinţ	-10.637
▁molecular	-10.6371
▁imaginez	-10.6372
ricând	-10.6373
▁Pan	-10.6374
▁decizi	-10.6376
▁câștigat	-10.6382
▁eroi	-10.6382
▁buzunar	-10.6387
▁mijloace	-10.6387
▁roboţi	-10.6387
▁anticip	-10.6388
▁izb	-10.6388
▁Har	-10.6388
▁forţă	-10.6389
▁amândo	-10.6392
▁2008	-10.6392
▁Francisc	-10.6393
W	-10.6407
▁înveț	-10.641
▁suma	-10.6414
pon	-10.6417
▁biroul	-10.6417
▁eliberat	-10.6438
▁trăieșt	-10.6441
▁căutat	-10.6444
▁educați	-10.6447
▁sculptur	-10.645
cher	-10.6452
▁datori	-10.6453
▁regener	-10.6462
▁economii	-10.6462
▁flexibil	-10.6474
▁țesut	-10.6474
▁conştient	-10.6474
▁drăguţ	-10.6474
▁urât	-10.6474
▁ameninţ	-10.6474
▁empati	-10.6477
▁Big	-10.6478
▁rechin	-10.6479
▁dedicat	-10.6482
▁proced	-10.6484
▁nebunie	-10.6486
▁valabil	-10.6487
▁Dor	-10.6489
▁habitat	-10.6491
▁dimineața	-10.6497
▁pământul	-10.6498
bandă	-10.6506
▁balene	-10.6507
▁progresul	-10.6512
▁deschid	-10.6522
▁propun	-10.6524
▁pretu	-10.653
▁desenat	-10.6535
▁sunat	-10.6539
▁guvernului	-10.6547
▁membru	-10.6547
▁consumă	-10.6548
▁campanie	-10.6548
▁integrat	-10.6555
▁Răspunsul	-10.6563
▁băieţi	-10.6563
▁câini	-10.6563
▁frecvent	-10.6563
▁civilizaţi	-10.6563
▁job	-10.6563
▁teribil	-10.6563
▁ucide	-10.6564
▁teatru	-10.6565
▁candida	-10.6566
▁întâlnesc	-10.6568
▁întâlnire	-10.6568
▁Alex	-10.6569
▁pleca	-10.6572
▁robotic	-10.6575
▁trecere	-10.6587
▁organizaţii	-10.6592
▁recunosc	-10.6604
▁declar	-10.6606
▁Doi	-10.6609
▁diet	-10.6618
▁definiți	-10.6619
▁Toc	-10.6623
▁gam	-10.6623
▁dolar	-10.6626
ijlociu	-10.6627
▁balon	-10.6628
▁194	-10.6634
▁travers	-10.6636
▁rep	-10.6641
▁filozof	-10.6652
▁surpriz	-10.6652
▁refugi	-10.6652
▁Poveste	-10.6652
▁evit	-10.6653
▁cînd	-10.6654
▁griji	-10.6655
▁colţ	-10.6656
▁Str	-10.6659
▁mass	-10.6659
▁întâmplare	-10.666
▁bla	-10.666
▁ghid	-10.6674
▁consumul	-10.6679
▁coleg	-10.668
▁naștere	-10.6681
▁organizații	-10.6686
▁albastră	-10.6693
▁benefic	-10.6705
▁cauze	-10.6707
▁Cla	-10.6709
▁Sol	-10.6713
▁sarcini	-10.6715
▁efectul	-10.6717
▁jocul	-10.6731
▁jurnal	-10.674
▁Nigeria	-10.6742
▁conexiune	-10.6742
▁constitui	-10.6742
▁japonez	-10.6742
▁sclavi	-10.6742
▁vertical	-10.6742
▁întuneric	-10.6742
▁dinainte	-10.6742
▁învaţă	-10.6743
▁încărca	-10.6743
▁Folosi	-10.6743
▁vizion	-10.6744
▁polar	-10.6746
pedia	-10.6747
▁politicieni	-10.6749
▁distribui	-10.675
▁sursa	-10.6758
▁Cur	-10.6764
▁stilul	-10.6765
▁stați	-10.6771
▁flux	-10.6773
▁Ros	-10.6777
▁Gal	-10.6781
▁sustenabil	-10.6792
▁spirit	-10.6795
▁oblig	-10.6805
▁îndrept	-10.6805
▁monitoriz	-10.6814
niste	-10.6817
zon	-10.6822
▁îmb	-10.6831
▁fine	-10.6833
▁GPS	-10.6833
▁Pacific	-10.6833
▁interactiv	-10.6833
▁iluzi	-10.6833
▁prezenț	-10.6833
▁pietre	-10.6834
▁furniza	-10.6834
▁coloan	-10.6834
▁recunoscut	-10.6835
▁dați	-10.6838
▁scara	-10.6838
▁șoc	-10.6843
▁realizare	-10.6848
▁ulei	-10.6854
▁major	-10.6857
▁materialul	-10.6864
▁fotografia	-10.6871
▁leagă	-10.6874
▁proiectare	-10.6874
▁protejat	-10.6876
▁litere	-10.6879
▁parcurs	-10.6881
▁vedet	-10.6898
▁algoritmi	-10.6902
▁detect	-10.6908
▁Parte	-10.6917
▁cooper	-10.6921
zeci	-10.6921
▁îndrăzn	-10.6925
▁bucătări	-10.6925
▁băieți	-10.6925
▁melodi	-10.6925
▁sănătos	-10.6925
▁secvenț	-10.6925
▁toalet	-10.6925
▁întrerup	-10.6925
▁Thom	-10.6926
old	-10.6926
▁Anders	-10.6929
▁roc	-10.6929
▁tari	-10.6937
▁simptome	-10.6957
cular	-10.6964
,000	-10.6964
▁oase	-10.6967
▁activități	-10.6969
pan	-10.6973
▁speră	-10.6977
▁ascultat	-10.6979
▁oprim	-10.6983
▁designer	-10.6996
▁roman	-10.7
▁educaţi	-10.7
▁Dan	-10.7001
▁strategie	-10.7002
▁filmat	-10.701
▁urmărit	-10.7015
ring	-10.7016
▁războaie	-10.7017
▁Congres	-10.7018
▁bucăți	-10.7018
▁terorism	-10.7018
▁Kenya	-10.7018
▁abilități	-10.7018
▁pauz	-10.7018
▁Fund	-10.7018
▁propus	-10.7019
▁forță	-10.7019
▁diviz	-10.702
▁Mulţi	-10.7021
▁gestion	-10.7022
▁doved	-10.7026
▁investit	-10.7028
▁albi	-10.703
▁încălz	-10.7033
tub	-10.7033
▁magnetic	-10.7038
▁privinț	-10.7045
▁studie	-10.7047
▁lupte	-10.7049
▁citeasc	-10.705
▁stabilit	-10.7052
▁îndreptă	-10.7064
▁Merge	-10.7068
stând	-10.707
▁piciorul	-10.7075
▁dureaz	-10.7084
▁oraşului	-10.7093
▁religioas	-10.7099
▁părăs	-10.711
▁ingredient	-10.7111
▁recomand	-10.7111
▁studio	-10.7111
▁secundar	-10.7111
▁sugereaz	-10.7111
▁cortex	-10.7111
▁substanț	-10.7111
▁Europe	-10.7111
▁tumoare	-10.7111
▁implant	-10.7111
▁replic	-10.7111
▁hidrogen	-10.7112
▁defect	-10.7112
▁mostr	-10.7113
▁trezit	-10.7115
▁consecințe	-10.7115
▁gest	-10.7117
▁colorat	-10.7117
▁pomp	-10.7117
▁Natur	-10.712
des	-10.712
▁gândac	-10.7124
▁viol	-10.7124
▁plase	-10.7125
▁vital	-10.7127
▁acelasi	-10.7128
▁Bang	-10.7139
▁Trans	-10.7142
▁sectorul	-10.7149
▁deschidere	-10.7151
▁email	-10.7153
ign	-10.7159
▁evoluți	-10.7187
▁responsabilitat	-10.7192
▁accelera	-10.7194
▁factor	-10.72
▁Fra	-10.7202
▁Angeles	-10.7205
▁pachet	-10.7205
▁mâncă	-10.7205
▁unealt	-10.7206
▁emoţional	-10.7207
▁Sch	-10.7211
▁Timp	-10.7212
▁înţelegere	-10.7224
umesc	-10.7226
▁reacţi	-10.7235
▁încântat	-10.7235
▁agenți	-10.7241
▁mono	-10.7243
kin	-10.725
▁fier	-10.7275
▁fire	-10.7275
▁controlat	-10.7277
▁Ter	-10.7282
▁ritmul	-10.7292
▁emis	-10.7298
▁lipsit	-10.7298
▁drăguț	-10.7301
▁inteligenţ	-10.7301
▁mulţumi	-10.7301
▁tropical	-10.7301
▁aprecia	-10.7301
▁înconjurător	-10.7301
▁abilităţi	-10.7301
cap	-10.7302
▁conceput	-10.7302
▁febr	-10.7302
▁primeşt	-10.7305
▁investiga	-10.7307
▁Câte	-10.7311
▁Vorbi	-10.7312
▁memoria	-10.7313
▁preţ	-10.7314
▁testat	-10.7318
▁Lucruri	-10.7319
▁orienta	-10.7321
▁imaginat	-10.7323
▁lovi	-10.7327
imic	-10.7328
▁inovaţi	-10.7333
▁cip	-10.7356
▁construire	-10.7357
▁susțin	-10.7367
▁comportamente	-10.7369
▁vând	-10.7369
▁plâng	-10.7373
▁muzeu	-10.738
▁locuitori	-10.7382
▁bătrâni	-10.7385
▁experienţe	-10.7388
▁oportunităţi	-10.7397
▁opțiuni	-10.7397
▁Anglia	-10.7397
▁fereastr	-10.7397
▁construcţi	-10.7397
▁relevant	-10.7397
▁importanţ	-10.7397
▁iniţial	-10.7397
▁detaliu	-10.7397
▁artişti	-10.7399
▁orașele	-10.74
▁truc	-10.7403
▁înregistrare	-10.7404
▁provoc	-10.7407
▁Gene	-10.7413
▁șanse	-10.7413
▁îndoial	-10.7424
verzi	-10.7436
▁psihologi	-10.7445
▁africani	-10.7451
▁scut	-10.7452
▁Spre	-10.7458
▁presa	-10.7459
▁împărtăşi	-10.7466
▁distrug	-10.7467
▁Oare	-10.747
▁ținut	-10.7493
chid	-10.7494
▁pâine	-10.7494
▁Apropo	-10.7494
▁identic	-10.7494
▁consult	-10.7494
▁piept	-10.7494
▁laolalt	-10.7494
▁unică	-10.7494
▁kg	-10.7495
▁ghici	-10.75
▁fratel	-10.7508
▁sprijini	-10.751
▁stadiu	-10.7511
▁scria	-10.7512
▁ocupat	-10.7521
▁mândri	-10.7529
▁guvernamental	-10.7533
▁Tom	-10.754
berg	-10.7547
▁observați	-10.7551
▁obișnui	-10.7555
▁prosper	-10.7563
▁apuc	-10.7582
▁Michael	-10.7592
▁cetăţeni	-10.7592
▁trilioane	-10.7592
▁client	-10.7592
▁Canada	-10.7592
▁Orientul	-10.7593
▁produsul	-10.7594
▁roz	-10.7594
▁eroare	-10.7597
▁acuz	-10.7601
▁Mult	-10.7606
▁evaluare	-10.7615
▁antic	-10.7625
▁pregătire	-10.763
▁accesul	-10.7631
▁fotograf	-10.764
J	-10.764
▁bea	-10.7643
dreapt	-10.7645
ranj	-10.766
▁statistic	-10.7662
▁fundul	-10.767
▁brevet	-10.7691
▁bănci	-10.7691
▁varietate	-10.7691
▁diabet	-10.7691
▁Bineînțel	-10.7691
▁bucăţi	-10.7691
▁toxic	-10.7691
▁masina	-10.7691
▁aprecie	-10.7691
▁literatur	-10.7691
▁optimist	-10.7692
▁strânge	-10.7694
▁educ	-10.77
▁semnific	-10.7703
▁greutatea	-10.7709
▁ploai	-10.7718
▁oribil	-10.7724
▁gandit	-10.7726
▁Chine	-10.7739
▁simțea	-10.7741
▁pregăt	-10.7747
▁rupt	-10.7762
▁naiba	-10.7768
dan	-10.7776
▁mândr	-10.7776
▁veri	-10.7781
▁Ș	-10.7787
▁straturi	-10.7789
▁cărbune	-10.7791
▁difuz	-10.7791
▁institut	-10.7791
▁rădăcin	-10.7791
▁Frank	-10.7791
▁plămân	-10.7791
▁corupți	-10.7791
▁tabăr	-10.7791
▁Priviți	-10.7791
▁violent	-10.7793
▁dureri	-10.7798
▁mancare	-10.7801
▁prietenul	-10.7801
▁cursuri	-10.7812
▁jucat	-10.7813
▁polen	-10.7818
▁învățare	-10.782
▁majoră	-10.7829
▁distrugere	-10.7831
▁gas	-10.7833
▁referito	-10.7838
▁analizat	-10.7846
▁conservare	-10.7852
▁discutat	-10.7859
▁gandi	-10.7872
▁arunca	-10.7883
▁instinct	-10.7892
▁pinguin	-10.7892
▁protecți	-10.7892
▁urechi	-10.7892
▁sinuci	-10.7892
▁regret	-10.7892
▁retrag	-10.7892
▁Indie	-10.7894
▁scriitor	-10.7894
▁împărtăşesc	-10.7895
▁acţion	-10.7904
▁angajament	-10.7907
ntr	-10.7911
▁inovaţie	-10.7913
▁laser	-10.7915
▁individuale	-10.7916
▁bogate	-10.7934
organ	-10.7936
▁minor	-10.7939
▁morţi	-10.7944
▁intrebare	-10.7946
▁gras	-10.7954
▁fondat	-10.7962
dra	-10.7971
▁uşoar	-10.7972
▁incepe	-10.7976
▁vehicul	-10.7983
▁fla	-10.7983
▁titlu	-10.7992
▁iPhone	-10.7994
▁ilustra	-10.7994
▁oglind	-10.7994
▁senzați	-10.7994
▁admir	-10.7994
▁adulți	-10.7994
▁civilizați	-10.7994
▁Sistemul	-10.7994
▁Amazon	-10.7994
▁amprent	-10.7995
▁înceap	-10.7995
▁crani	-10.7998
▁domnilor	-10.7999
▁27	-10.8001
▁dron	-10.8005
▁mecanisme	-10.8008
▁100.000	-10.8011
▁combinat	-10.8017
▁bin	-10.8018
▁plânge	-10.8019
▁percep	-10.803
bro	-10.8036
▁Ken	-10.804
▁statului	-10.8046
▁implicaţi	-10.805
▁mișca	-10.8054
▁Ceva	-10.8054
▁credit	-10.806
▁Institutul	-10.8062
▁soi	-10.8075
▁grele	-10.8084
▁munc	-10.8084
▁foame	-10.8086
▁dinozauri	-10.8094
▁agricol	-10.8097
▁concentră	-10.8097
▁marketing	-10.8097
▁stăpân	-10.8097
▁transplant	-10.8097
▁neclar	-10.8097
▁manier	-10.8097
▁portret	-10.8099
▁spaţii	-10.81
▁următor	-10.81
▁buton	-10.8101
▁încetini	-10.8101
▁scot	-10.8102
▁subtil	-10.8103
▁daţi	-10.8104
▁copia	-10.8107
▁scrisoare	-10.811
▁lumin	-10.8111
▁fan	-10.8113
▁axa	-10.8123
▁explorare	-10.8125
▁evita	-10.8125
▁Arată	-10.8138
▁defini	-10.8142
▁fugi	-10.8147
▁gheață	-10.8158
▁serv	-10.8166
▁publicului	-10.8166
odata	-10.8166
▁intim	-10.8168
▁Th	-10.8168
▁afli	-10.8193
▁constat	-10.8193
▁firm	-10.8195
▁cerceta	-10.8195
▁Bur	-10.8196
▁martor	-10.82
▁școal	-10.8201
▁Gândiţi	-10.8201
▁adolescent	-10.8201
▁bebeluș	-10.8201
▁fotbal	-10.8201
▁naviga	-10.8201
▁performanţ	-10.8201
▁satisfac	-10.8201
▁treptat	-10.8201
▁Adevăr	-10.8201
▁scuze	-10.8201
▁mamifere	-10.8201
▁Drept	-10.8201
▁graniț	-10.8201
▁inițial	-10.8201
▁circuite	-10.8206
▁American	-10.8207
▁întregime	-10.8208
▁mută	-10.8208
▁vieti	-10.8208
▁conceptul	-10.8209
▁protez	-10.8213
zut	-10.8219
▁mărit	-10.8221
▁electronice	-10.8228
▁open	-10.8229
▁petrolul	-10.823
▁temă	-10.8231
șcă	-10.8235
▁etic	-10.824
▁frumuseţe	-10.824
▁analize	-10.8242
▁autism	-10.8243
▁implicați	-10.8246
▁virusul	-10.8265
▁internetul	-10.8273
▁pacientul	-10.8274
▁pist	-10.8277
▁situații	-10.8289
▁expun	-10.8294
▁distribuit	-10.8298
▁coordona	-10.8306
▁occidental	-10.8306
▁Egipt	-10.8306
▁departament	-10.8306
▁improviz	-10.8306
▁capitol	-10.8306
▁Schimb	-10.8306
▁deșert	-10.8306
▁însuși	-10.8306
▁cursul	-10.8307
▁tridimensional	-10.8307
▁tumori	-10.8307
▁generaţie	-10.8308
▁fierbinte	-10.8309
▁minge	-10.8313
▁zid	-10.8315
▁vibra	-10.8316
▁Orice	-10.8318
▁suferit	-10.8318
▁vorbeşte	-10.8323
lalt	-10.8339
▁arhitect	-10.8345
▁Steve	-10.8346
zis	-10.8348
▁Act	-10.8354
▁intrare	-10.8357
▁atenți	-10.8361
rop	-10.8365
▁generații	-10.8366
▁prind	-10.8368
▁genomul	-10.8369
▁cântecul	-10.8386
▁testare	-10.8386
▁simţ	-10.8389
▁căzut	-10.8393
▁ochiul	-10.8398
▁punctele	-10.8403
12	-10.8406
▁expert	-10.8412
▁iti	-10.8412
▁Chicago	-10.8413
▁absolvi	-10.8413
▁consecinţ	-10.8413
▁frumusețe	-10.8413
▁biseric	-10.8413
fericiți	-10.8413
▁Ocean	-10.8413
▁Următor	-10.8413
▁fundal	-10.8413
▁piețe	-10.8415
▁medicina	-10.842
▁înflor	-10.8423
▁vehicule	-10.8424
▁urcat	-10.8424
▁seamăn	-10.8448
▁eforturi	-10.8449
scrie	-10.845
▁posibilități	-10.845
▁salvare	-10.8455
▁activităţi	-10.846
▁obțin	-10.8464
▁suplimentar	-10.8469
▁realiză	-10.8471
▁salariu	-10.8471
▁repetat	-10.8474
▁reuşi	-10.8476
▁nori	-10.8482
ction	-10.8483
ph	-10.8487
▁doz	-10.8493
zer	-10.8501
▁personaje	-10.8511
▁traduc	-10.8516
▁făcuse	-10.8519
▁Pakistan	-10.852
▁cimpanzei	-10.852
▁Antarctic	-10.852
▁dezbatere	-10.852
▁zahăr	-10.852
▁genunchi	-10.852
▁compus	-10.852
▁german	-10.8521
▁Obama	-10.8521
▁haos	-10.8521
▁conţinut	-10.8521
▁corali	-10.8521
▁profesional	-10.8522
▁existente	-10.8524
▁indien	-10.8524
▁inform	-10.8526
▁gândind	-10.8534
▁vecini	-10.8534
▁urmez	-10.8541
▁Jim	-10.8542
treaga	-10.8543
▁Priv	-10.8546
▁muncitori	-10.856
▁uci	-10.8569
▁Loc	-10.8571
▁senzori	-10.8577
▁podea	-10.8587
▁acceptă	-10.8592
▁tăiat	-10.8606
▁vaccinuri	-10.8608
▁umple	-10.8608
▁sfert	-10.8615
▁genereaz	-10.8616
▁negoci	-10.8627
▁prăbuş	-10.8629
▁astronom	-10.8629
▁competiți	-10.8629
▁hacker	-10.8629
▁pătrund	-10.8629
▁televiziune	-10.8629
▁website	-10.8629
▁dezamăg	-10.8629
▁salvez	-10.8629
▁egalitate	-10.863
▁chestiune	-10.863
▁închide	-10.8633
▁Micro	-10.8633
▁şcoal	-10.8638
▁curte	-10.8643
▁Plan	-10.8647
▁porn	-10.8652
▁cultiv	-10.8658
▁angajați	-10.8678
▁tabl	-10.8685
▁250	-10.8698
▁ştiri	-10.8698
▁doamne	-10.8701
▁alge	-10.8712
▁fotografiat	-10.8713
▁elev	-10.8714
▁raze	-10.8717
60	-10.8727
▁fug	-10.8733
▁Dintr	-10.8736
▁mişca	-10.8739
▁fabrici	-10.8739
▁poliomielit	-10.8739
▁transparent	-10.8739
▁zăpad	-10.8739
▁parteneriat	-10.8741
▁spații	-10.8742
▁burs	-10.8745
▁rezolvare	-10.8745
▁2007	-10.8745
▁intru	-10.8769
▁amintit	-10.877
puşi	-10.8783
▁arde	-10.8785
▁angajaţi	-10.8786
▁Pr	-10.8788
▁nota	-10.8797
▁firme	-10.88
▁gândeasc	-10.8807
▁Eşti	-10.8827
▁refuz	-10.8834
▁alimentare	-10.8842
not	-10.8843
▁optic	-10.8849
▁îmbrăca	-10.885
source	-10.885
▁eşec	-10.885
▁funcţionez	-10.885
▁situat	-10.885
▁proaste	-10.885
▁surori	-10.885
▁anunț	-10.8852
▁paralel	-10.8853
▁Paris	-10.8855
jo	-10.8858
▁distra	-10.8868
▁îmbătrâni	-10.887
lig	-10.8871
▁rată	-10.8879
minte	-10.8879
▁cunoştinţe	-10.8891
ight	-10.8899
▁visul	-10.8906
▁tablou	-10.8911
▁aplic	-10.8913
▁cutii	-10.8919
depărtare	-10.8919
▁creaz	-10.8926
▁reprezent	-10.8928
▁disciplin	-10.893
▁65	-10.8931
▁totalitate	-10.8934
▁știri	-10.8934
▁pești	-10.894
▁cobor	-10.8944
▁rad	-10.8944
▁dezvoltări	-10.8945
▁cultiva	-10.8945
▁experimental	-10.8956
▁tulbur	-10.8956
▁hip	-10.8959
,5	-10.8961
▁antibiotice	-10.8962
▁grădini	-10.8962
▁nefericire	-10.8962
▁fragil	-10.8962
▁praf	-10.8962
▁numeroase	-10.8962
▁adâncime	-10.8963
▁emoții	-10.8963
▁încăpere	-10.8963
▁spiritual	-10.8963
▁Două	-10.8965
▁reproduce	-10.8965
▁Super	-10.8966
▁feţe	-10.8966
▁atras	-10.8967
▁depresie	-10.8968
▁prototip	-10.8978
▁campani	-10.8981
▁comparați	-10.8985
11	-10.8987
▁zâmb	-10.8989
▁reamint	-10.8993
▁controlează	-10.8996
▁doamn	-10.9002
▁folos	-10.9017
mult	-10.9021
▁trag	-10.9027
▁Folos	-10.9029
▁pasăre	-10.9035
▁comportamental	-10.9044
▁relaţii	-10.9044
▁foloseșt	-10.9058
▁pierderi	-10.906
▁ordin	-10.9063
▁îngriji	-10.9068
ptăm	-10.9068
▁adolescenț	-10.9076
▁confirm	-10.9076
▁ochelari	-10.9076
▁laboratoare	-10.9076
▁părinte	-10.9076
▁advers	-10.9076
▁Fer	-10.9077
▁înțeleag	-10.9078
▁sondaj	-10.9079
▁chimicale	-10.9082
▁imun	-10.9082
▁Pest	-10.9111
▁comunic	-10.9118
spa	-10.9122
▁poezie	-10.9143
▁discută	-10.9164
▁percepți	-10.9165
▁bunici	-10.9171
▁195	-10.9173
▁ilumin	-10.9191
▁președinte	-10.9191
▁scurge	-10.9191
▁aeroport	-10.9191
▁Boston	-10.9191
▁simultan	-10.9191
▁dialog	-10.9191
▁hrana	-10.9191
▁comanda	-10.9192
▁învârt	-10.9194
▁supăra	-10.9195
▁soarelui	-10.9195
▁tulburări	-10.9197
▁încălzire	-10.9199
▁incerc	-10.9205
▁atacuri	-10.9209
▁tratamentul	-10.9217
▁plantă	-10.9217
▁voluntari	-10.922
▁pop	-10.9224
▁luaţi	-10.9236
▁amintiți	-10.9239
▁petrecere	-10.9239
▁ouă	-10.924
▁barb	-10.9264
asemenea	-10.9274
bby	-10.9276
▁determinat	-10.9284
pp	-10.9288
▁caracteristic	-10.9289
▁scădere	-10.9289
turn	-10.9293
▁îmbolnăv	-10.9307
▁cromozom	-10.9307
▁domestic	-10.9307
▁faimos	-10.9307
▁feedback	-10.9307
▁fiecărei	-10.9307
▁protejez	-10.9307
▁ureche	-10.9307
▁inject	-10.9307
▁evidenț	-10.9307
▁sintetiz	-10.9307
▁curiozitate	-10.9307
eficienț	-10.9307
▁moned	-10.9307
▁somn	-10.9307
▁umil	-10.9308
▁lanţ	-10.9308
▁şef	-10.9308
▁proprietar	-10.9309
▁formula	-10.9309
▁anunţ	-10.931
▁trată	-10.931
▁barier	-10.9311
sten	-10.9311
▁rand	-10.9311
sus	-10.9311
▁câr	-10.9312
inteles	-10.9313
▁sângele	-10.9314
▁eliminat	-10.9315
▁procesului	-10.9318
▁întrebați	-10.9321
▁corel	-10.9323
▁scopuri	-10.9326
▁patra	-10.9327
▁susţin	-10.9329
▁adoptat	-10.933
rek	-10.9346
▁variabil	-10.935
▁frac	-10.9351
▁programare	-10.9355
▁lapte	-10.9356
▁Mas	-10.9358
▁împart	-10.936
nny	-10.9367
▁clim	-10.9372
rească	-10.9375
▁Met	-10.9378
▁solicit	-10.9381
▁blocat	-10.9383
▁scaune	-10.9397
▁primeșt	-10.9403
▁monta	-10.9406
▁Pat	-10.9408
▁calm	-10.9411
▁apropia	-10.9413
▁armă	-10.9414
▁arătăm	-10.9415
oid	-10.9418
▁doreşt	-10.9423
▁tradiți	-10.9423
▁Practic	-10.9425
▁bacterie	-10.9425
▁concentrez	-10.9425
▁dedesubt	-10.9425
▁dezgust	-10.9425
▁pantofi	-10.9425
▁piramid	-10.9425
▁proprietăți	-10.9425
▁Organiz	-10.9425
▁evrei	-10.9425
▁substanţ	-10.9425
▁minciun	-10.9425
▁Apple	-10.9425
▁City	-10.9425
▁Martin	-10.9425
▁slăb	-10.9425
▁omeniri	-10.9425
▁600	-10.9427
▁recif	-10.9428
▁discursul	-10.9445
▁şoc	-10.9446
▁presupun	-10.9448
▁piaț	-10.9456
▁matur	-10.9466
▁preţul	-10.947
▁reacțion	-10.9471
▁fascinat	-10.9475
hil	-10.9477
▁Bal	-10.9481
▁angaja	-10.9483
▁Inter	-10.9487
▁descoper	-10.9488
▁agenţi	-10.9493
▁întâlniri	-10.9499
▁planul	-10.95
▁nerv	-10.9512
▁neuro	-10.9516
▁elit	-10.9522
șine	-10.9522
▁Niciun	-10.9524
▁obți	-10.9528
▁scaunul	-10.9537
▁Economi	-10.9544
▁Occident	-10.9544
▁cutremur	-10.9544
▁sincron	-10.9544
▁academic	-10.9544
▁Golf	-10.9544
▁autentic	-10.9544
▁Wiki	-10.9544
▁concert	-10.9544
▁spaţial	-10.9544
▁plăci	-10.9545
▁Compani	-10.9545
▁îngrozitor	-10.9546
▁artiști	-10.9547
▁Întâ	-10.9548
▁intenţi	-10.9548
▁superioar	-10.9548
▁gură	-10.9552
▁scări	-10.9557
▁Ghan	-10.956
▁menționat	-10.9576
▁atrag	-10.9576
▁cercetător	-10.9577
▁potrivi	-10.958
▁obligat	-10.9582
ook	-10.9583
▁capitalism	-10.9601
▁adapta	-10.9602
lson	-10.9602
▁sezon	-10.9604
▁virusuri	-10.9604
▁utiliză	-10.9615
▁utilizator	-10.962
▁dimineaț	-10.9633
cultur	-10.9634
▁electro	-10.9647
▁resping	-10.9664
▁Street	-10.9665
▁Rusia	-10.9665
▁acţiuni	-10.9665
▁psiho	-10.9665
▁profil	-10.9665
▁insist	-10.9667
▁nervos	-10.9668
▁frunze	-10.9669
▁Rob	-10.9674
ministru	-10.9677
▁foamete	-10.9677
▁manca	-10.9679
▁înveţ	-10.9679
▁premiul	-10.9681
▁micuț	-10.9685
▁incep	-10.9685
▁comparat	-10.9692
hote	-10.9702
▁Britani	-10.9703
▁posibilităţi	-10.9731
▁obţin	-10.9731
▁celula	-10.9731
▁întrebă	-10.9734
▁memor	-10.9738
▁Pal	-10.9755
▁component	-10.9757
▁climat	-10.9766
▁obţi	-10.9772
▁adaptat	-10.9779
xact	-10.978
▁ușoar	-10.9785
▁Islam	-10.9786
▁ciocolat	-10.9786
▁confuz	-10.9786
▁emoțional	-10.9786
▁exploata	-10.9786
▁provoac	-10.9786
▁colecți	-10.9786
▁reglement	-10.9786
▁Câți	-10.9786
▁propoziți	-10.9787
▁geometri	-10.9787
▁sparg	-10.9787
▁caricatur	-10.9787
▁ideologi	-10.9787
▁propuls	-10.9788
▁indian	-10.9788
▁soldat	-10.9789
ilicon	-10.979
▁jurnalist	-10.979
▁înving	-10.979
▁rezid	-10.9791
▁jucării	-10.9794
▁cabin	-10.9794
▁Centrul	-10.9796
▁târ	-10.9798
▁niveluri	-10.9801
▁retin	-10.9801
▁închisori	-10.9802
şine	-10.9803
▁jocului	-10.9809
▁eradica	-10.9819
▁neutr	-10.982
▁includ	-10.9822
▁ramur	-10.9826
▁sărăci	-10.9826
▁vast	-10.9831
▁procesare	-10.9842
▁aspira	-10.9842
▁condiţi	-10.9847
▁liter	-10.9855
▁tată	-10.986
▁condamn	-10.9873
▁râu	-10.9875
▁judec	-10.9882
▁Femeile	-10.9888
▁Proiectul	-10.9909
▁compromis	-10.991
▁teoretic	-10.991
▁pereche	-10.991
▁Atât	-10.991
▁risip	-10.991
▁concret	-10.991
▁aprox	-10.991
▁inimii	-10.991
▁motoare	-10.991
▁explorez	-10.9911
▁căutând	-10.9911
▁metrou	-10.9912
▁ianu	-10.9914
▁mintal	-10.9923
▁capătul	-10.9929
▁guvernare	-10.9936
▁planific	-10.994
▁Mor	-10.9943
▁opere	-10.9958
ney	-10.997
▁birouri	-10.9976
20	-10.9981
▁Bru	-10.9995
▁Ban	-11.0008
▁imprim	-11.0017
▁Abi	-11.0022
▁crucial	-11.0035
▁paradigm	-11.0035
▁sugerez	-11.0035
▁impresionant	-11.0035
▁deşert	-11.0035
▁Central	-11.0035
▁legatur	-11.0035
adevar	-11.0035
▁pleac	-11.0036
▁functioneaz	-11.0036
▁bas	-11.0037
▁necesita	-11.0037
▁confortabil	-11.0038
▁profesi	-11.0038
▁niciodata	-11.0039
▁Număr	-11.004
▁universitate	-11.0041
▁gard	-11.0044
▁captivant	-11.0045
▁telefoanele	-11.005
▁spori	-11.005
▁geam	-11.005
▁inspiraţi	-11.0051
▁alarm	-11.0052
▁aplicații	-11.0074
▁directorul	-11.0077
▁instalat	-11.0081
▁Mark	-11.0093
▁nordul	-11.0093
▁pluti	-11.0101
▁Her	-11.0112
▁Adam	-11.0112
▁fluxul	-11.0118
▁domin	-11.0127
▁32	-11.0129
mail	-11.0138
▁circuit	-11.0155
▁intuitiv	-11.0161
▁Împreun	-11.0161
▁dublu	-11.0161
▁Câţi	-11.0161
▁murdar	-11.0161
▁conectez	-11.0162
▁contamin	-11.0162
▁Suedi	-11.0162
▁diferiți	-11.0162
▁inovație	-11.0162
▁rușin	-11.0162
▁elibera	-11.0163
▁Scri	-11.0164
▁precizie	-11.0165
▁umanitar	-11.0165
▁scenariu	-11.0166
▁Liber	-11.0166
▁măsoar	-11.0167
▁proveni	-11.0168
▁record	-11.017
▁speriat	-11.0173
▁acordat	-11.0176
▁geo	-11.0177
▁sufletul	-11.0179
▁introduc	-11.0201
▁MS	-11.0204
▁spiritul	-11.0214
▁locați	-11.0216
▁Tată	-11.0218
▁Cost	-11.0222
▁Stat	-11.0228
▁înaint	-11.0244
▁învăţare	-11.0245
▁meme	-11.0246
▁informatic	-11.025
▁liberal	-11.0253
▁reprezentare	-11.0284
▁încercări	-11.0285
▁valuri	-11.0289
▁Manhattan	-11.029
▁dubla	-11.029
▁eticheta	-11.029
▁infantil	-11.029
▁psihic	-11.029
▁dispoziți	-11.029
▁National	-11.029
▁experţi	-11.029
▁inutil	-11.029
▁cheam	-11.029
▁receptor	-11.029
▁lanț	-11.029
▁înlătur	-11.0291
▁onoare	-11.0291
▁personalitate	-11.0294
▁albinele	-11.0295
▁valoroas	-11.0297
▁spălat	-11.03
▁evoluti	-11.0305
▁frig	-11.0306
▁Port	-11.031
▁nod	-11.0321
▁inovații	-11.0326
▁urmăr	-11.0328
▁serviciul	-11.0329
▁captur	-11.033
▁vindeca	-11.0331
▁recicl	-11.0335
hn	-11.0343
▁cauzeaz	-11.0343
▁instituţi	-11.035
▁psihologic	-11.0356
▁Sco	-11.0357
zar	-11.0357
▁specia	-11.0377
▁voluntar	-11.0387
▁denum	-11.0398
▁simul	-11.0403
▁fraz	-11.0404
▁primitiv	-11.0409
▁Crăciun	-11.0419
▁adecvat	-11.0419
▁cibernetic	-11.0419
▁configur	-11.0419
▁conștienț	-11.0419
▁minuscul	-11.0419
▁obsedat	-11.0419
▁prânz	-11.0419
▁rezistenţ	-11.0419
▁atelier	-11.0419
▁automobil	-11.0419
▁gravitaţi	-11.0419
▁hărţi	-11.0419
▁anterioar	-11.042
▁roșii	-11.042
▁fluid	-11.042
▁intervenți	-11.042
▁Domnul	-11.042
▁întins	-11.042
▁ajust	-11.0421
▁apărare	-11.0421
▁apariți	-11.0424
▁genial	-11.0425
▁ridicol	-11.0433
▁erori	-11.0433
▁decor	-11.0434
▁Tim	-11.0437
▁camion	-11.0437
low	-11.0438
▁miezul	-11.0443
▁publicitate	-11.0447
plan	-11.0452
▁câmpul	-11.0457
▁savan	-11.047
▁spin	-11.0474
▁poezi	-11.0488
▁War	-11.0499
▁aparțin	-11.0501
▁plictis	-11.0504
▁animat	-11.0514
▁cread	-11.0526
▁poet	-11.0531
leagă	-11.0539
▁remarc	-11.0544
▁inclus	-11.055
▁aplauze	-11.0551
▁management	-11.0551
▁prizonier	-11.0551
▁înălţime	-11.0551
▁aşteaptă	-11.0551
▁prag	-11.0551
▁Național	-11.0551
▁analogi	-11.0551
▁fetiţ	-11.0551
▁hormon	-11.0551
▁personalizat	-11.0551
▁experți	-11.0551
▁funcționez	-11.0551
▁Titan	-11.0551
▁Copil	-11.0551
▁pasager	-11.0552
▁Permite	-11.0552
▁masura	-11.0552
▁perceput	-11.0552
▁comportă	-11.0554
▁mega	-11.0554
▁regl	-11.0556
▁interval	-11.0557
▁presă	-11.0557
▁urs	-11.0558
▁bord	-11.0565
oaie	-11.057
▁sănătă	-11.0571
▁Pune	-11.0573
▁steag	-11.0574
▁menţionat	-11.0582
▁Scopu	-11.0591
▁reper	-11.0596
▁înconjur	-11.0597
▁omoar	-11.0598
▁simţea	-11.0609
chin	-11.0616
▁agit	-11.0638
▁atacat	-11.0647
▁reuș	-11.0647
▁relati	-11.0654
aptă	-11.0658
▁piel	-11.0665
▁observaţi	-11.0667
▁împlin	-11.0684
▁Rezultat	-11.0684
▁bebeluş	-11.0684
▁obisnui	-11.0684
▁însărcinat	-11.0684
▁Prieten	-11.0684
▁așteaptă	-11.0684
▁audienț	-11.0684
▁vizită	-11.0684
▁proporți	-11.0684
▁garant	-11.0685
▁frontier	-11.0685
▁Muzeul	-11.0686
▁gay	-11.0687
▁paşi	-11.0688
▁înşel	-11.069
▁Voce	-11.0712
▁greș	-11.0714
▁desp	-11.0732
▁Merg	-11.0747
▁prețul	-11.0754
▁privea	-11.077
conce	-11.0788
▁programator	-11.0799
▁clasific	-11.0801
▁prietenilor	-11.0814
▁plăt	-11.0817
▁puzzle	-11.082
ouTube	-11.082
▁Global	-11.082
▁ONU	-11.082
▁dependenț	-11.082
▁nenumărate	-11.082
▁sfarsit	-11.082
▁discuție	-11.082
▁manager	-11.082
▁fetiț	-11.082
▁poluare	-11.082
▁roșie	-11.082
▁însuşi	-11.082
▁Robert	-11.082
▁graniţ	-11.082
▁cristal	-11.082
▁îngrijoră	-11.082
▁conștiinț	-11.082
▁organizaţie	-11.0821
▁eşu	-11.0823
▁acoperiş	-11.0823
▁părăsit	-11.0827
▁norocos	-11.0828
▁interpretare	-11.0828
▁verb	-11.0833
▁ficat	-11.0834
▁Publicul	-11.0834
▁agent	-11.0836
▁parcare	-11.0837
▁densitate	-11.0841
▁PM	-11.0852
▁amintire	-11.0856
▁realizeaz	-11.0858
▁Star	-11.0873
▁investiţii	-11.0882
▁poart	-11.0886
▁malari	-11.0887
▁Tes	-11.0893
▁alimentar	-11.0916
▁creator	-11.0916
american	-11.0942
▁procedur	-11.0943
▁Gre	-11.0944
▁emite	-11.0944
▁asemen	-11.0954
▁ONG	-11.0956
▁spectaculo	-11.0956
▁distribuți	-11.0957
▁ferestre	-11.0957
▁traiectori	-11.0957
▁bombă	-11.0957
▁partid	-11.0957
▁lux	-11.0957
▁elegant	-11.0957
▁deschiz	-11.0957
▁înfrunt	-11.0958
▁aşez	-11.0958
▁bunăstare	-11.0958
▁preia	-11.0958
▁șef	-11.0958
▁declin	-11.0959
▁sportiv	-11.0961
▁protein	-11.097
▁spaţiului	-11.0971
siunea	-11.0972
▁gura	-11.0978
▁zei	-11.0981
▁combinați	-11.0987
▁cereale	-11.099
▁banal	-11.0994
▁tran	-11.1006
▁intimitate	-11.1007
▁sacrific	-11.1007
▁Polul	-11.1014
▁păstrez	-11.1029
▁Real	-11.1054
▁păc	-11.1074
▁asocia	-11.1078
▁promis	-11.1088
▁Atlantic	-11.1095
▁Rwand	-11.1095
▁contemporan	-11.1095
▁dispărea	-11.1095
▁paianjen	-11.1095
▁împărţi	-11.1095
▁Design	-11.1095
▁cartografi	-11.1095
▁pahar	-11.1095
▁expoziţi	-11.1096
▁misiuni	-11.1096
▁comandă	-11.1096
▁vocal	-11.1096
▁comparativ	-11.1097
▁anterior	-11.1099
▁benzină	-11.1099
▁sistematic	-11.1099
▁acoperiș	-11.11
▁pastil	-11.11
▁Bush	-11.11
▁curăț	-11.1103
▁2006	-11.1103
▁desenez	-11.1105
▁cercuri	-11.1106
▁pretind	-11.1111
▁Acea	-11.1119
▁ironi	-11.112
▁vești	-11.1126
▁intreg	-11.1128
▁algoritm	-11.113
▁probabilitate	-11.1143
▁Trec	-11.1152
plat	-11.1157
80	-11.1185
BC	-11.1201
▁Don	-11.1202
▁devii	-11.1206
▁vers	-11.1207
▁entuziasmat	-11.1208
lălalt	-11.1214
▁experimentat	-11.1223
barcă	-11.123
▁tradiţi	-11.1235
▁World	-11.1236
▁bătut	-11.1236
▁demografic	-11.1236
▁feminin	-11.1236
▁homosexual	-11.1236
▁reinvent	-11.1236
▁descompun	-11.1236
▁Uitați	-11.1236
▁faimoas	-11.1236
▁viziuni	-11.1236
▁Creierul	-11.1236
▁margini	-11.1236
▁club	-11.1236
▁Hollywood	-11.1237
▁deşeuri	-11.1239
▁Spani	-11.1239
▁chirurg	-11.1243
▁măsuri	-11.1252
▁găt	-11.1275
▁poster	-11.1286
▁întreţin	-11.1288
▁concurs	-11.1298
▁întoarc	-11.1311
▁piaţ	-11.1317
▁operare	-11.1319
▁scana	-11.1322
▁dos	-11.1332
▁soț	-11.1337
▁Sub	-11.1346
▁26	-11.1353
▁percepţi	-11.1357
▁editor	-11.1363
▁bizar	-11.1366
▁comis	-11.1368
▁spăl	-11.1374
▁manevr	-11.1379
▁oportunități	-11.1379
▁prăbuș	-11.1379
▁Alzheimer	-11.1379
▁Italia	-11.1379
▁Texas	-11.1379
▁dobând	-11.1379
▁farmaceutic	-11.1379
▁instantane	-11.1379
▁performanț	-11.1379
▁sceptic	-11.1379
▁clienți	-11.1379
▁reclamă	-11.1379
▁amenință	-11.1379
▁musculiț	-11.1379
▁modalităţi	-11.1379
▁elefant	-11.1379
ștepți	-11.1379
▁cantităţi	-11.1379
▁legume	-11.1379
▁roşu	-11.1379
▁Coreea	-11.138
▁pension	-11.138
▁bombe	-11.138
▁strani	-11.138
▁perechi	-11.138
▁organizație	-11.138
dimensional	-11.138
▁95	-11.1381
▁rude	-11.1381
▁Scott	-11.1381
▁puls	-11.1382
▁aprins	-11.1383
▁notă	-11.1384
▁climei	-11.1384
▁uniform	-11.1386
▁baie	-11.1386
▁fețe	-11.1386
▁edit	-11.1387
▁munți	-11.1387
▁judecător	-11.1389
▁curge	-11.139
cursul	-11.1398
▁crestere	-11.1398
▁foi	-11.14
▁armoni	-11.1407
▁alăturat	-11.1412
▁aparent	-11.1427
▁sufl	-11.1429
▁definiţi	-11.1446
▁creând	-11.1451
▁inegal	-11.146
▁hârti	-11.1461
▁atingere	-11.1467
▁divers	-11.1473
▁simulare	-11.1476
AR	-11.148
izați	-11.1491
▁îndreptat	-11.1497
▁Încep	-11.1503
▁functi	-11.1504
▁anatomi	-11.1524
▁clienţi	-11.1524
▁competiţi	-11.1524
▁ţânţar	-11.1524
▁SMS	-11.1524
▁nedrept	-11.1524
▁rezerva	-11.1524
▁incendi	-11.1524
▁văzuse	-11.1524
▁eșec	-11.1524
▁sintetic	-11.1524
▁costisito	-11.1524
▁grăb	-11.1524
▁audienţ	-11.1525
▁cooperare	-11.153
▁decad	-11.1533
▁duș	-11.1533
▁înregistrări	-11.154
▁apucat	-11.154
▁bag	-11.1543
▁imprimant	-11.1545
▁superb	-11.1545
▁combinaţi	-11.155
▁ulterio	-11.1555
▁băut	-11.1575
omon	-11.1576
▁orez	-11.1582
▁36	-11.1585
▁idea	-11.1594
▁reuş	-11.1595
▁dispus	-11.1597
▁participare	-11.1607
▁lăsând	-11.1618
▁Pic	-11.1621
▁soluţi	-11.1627
▁prezentări	-11.163
▁prelu	-11.1634
▁surprin	-11.1648
▁uimit	-11.1661
▁groaz	-11.1671
▁desfăşur	-11.1671
▁Oxford	-11.1671
▁Valley	-11.1671
▁evolueaz	-11.1671
▁prezervativ	-11.1671
▁raţional	-11.1671
▁terorist	-11.1671
▁închipui	-11.1671
▁Ugand	-11.1671
▁bombard	-11.1671
▁privilegiu	-11.1671
▁teritoriu	-11.1671
▁neregul	-11.1672
▁Cânt	-11.1672
▁interzis	-11.1673
▁segment	-11.1674
▁inunda	-11.1674
▁Mac	-11.1674
▁Ebol	-11.1675
▁îndrăgostit	-11.1677
▁dilem	-11.1678
kh	-11.1679
▁Congo	-11.168
▁Haiti	-11.168
▁colecţi	-11.1682
▁imperi	-11.1683
▁US	-11.1686
▁punând	-11.1687
▁infra	-11.1688
▁lansare	-11.1694
tudine	-11.1697
▁activat	-11.1701
▁obezitate	-11.1706
▁investitori	-11.1715
▁interveni	-11.1717
▁terenuri	-11.172
▁bilet	-11.1724
▁tratare	-11.1753
▁înconjurat	-11.1768
cade	-11.177
▁motivați	-11.1771
▁mişt	-11.1775
▁crescând	-11.178
▁premiu	-11.1785
▁mortalitate	-11.1787
remedi	-11.1788
▁surprind	-11.181
▁atribui	-11.182
▁Presupun	-11.182
▁fuziune	-11.182
▁opțiune	-11.182
▁rezistenț	-11.182
▁tăcere	-11.182
▁Island	-11.182
▁reclame	-11.182
▁expoziți	-11.182
▁regăs	-11.1821
▁cheltuieli	-11.1821
▁stimulente	-11.1821
▁alunec	-11.1821
▁enerv	-11.1823
▁deştep	-11.1826
▁opreasc	-11.1826
▁finanț	-11.1827
▁purtă	-11.1828
reproduc	-11.1828
▁fun	-11.1828
▁implicare	-11.1839
▁scrisori	-11.1844
vând	-11.1845
▁victim	-11.1847
▁Pas	-11.1853
▁păș	-11.186
puși	-11.1868
▁Hy	-11.1873
▁Ob	-11.1896
▁imita	-11.1912
▁mișt	-11.1913
▁furnic	-11.1925
▁discursuri	-11.193
▁scor	-11.1932
ben	-11.1932
▁deranja	-11.1957
▁Intel	-11.197
▁Brown	-11.1972
▁Higg	-11.1972
▁William	-11.1972
▁federal	-11.1972
▁fericiri	-11.1972
▁nefericit	-11.1972
▁împrejur	-11.1972
▁adăugă	-11.1972
▁catastrof	-11.1972
▁dependenţ	-11.1972
▁distinct	-11.1972
▁eficac	-11.1972
▁telescop	-11.1972
▁asocie	-11.1972
▁alcool	-11.1972
▁prezenţ	-11.1972
▁vulcan	-11.1972
▁Vroia	-11.1972
▁imunitar	-11.1972
▁avocat	-11.1972
▁dulce	-11.1972
▁link	-11.1972
▁magie	-11.1973
▁curbe	-11.1975
▁scr	-11.1975
▁tunel	-11.1976
▁invenţi	-11.1977
▁titluri	-11.1977
▁statut	-11.1978
▁Life	-11.1981
▁mingi	-11.1985
▁traseu	-11.1986
▁furat	-11.1992
rob	-11.1992
▁operă	-11.1995
▁scăde	-11.1996
inţe	-11.1998
▁King	-11.1998
▁pasiv	-11.2002
▁hab	-11.2011
▁rau	-11.2012
▁contur	-11.2019
▁documentar	-11.2024
▁picătur	-11.2029
▁Tor	-11.2037
▁insa	-11.2038
▁Apar	-11.2052
▁producere	-11.2066
▁senzorial	-11.2074
ateria	-11.2074
▁Mont	-11.2075
▁700	-11.2085
terior	-11.2093
47	-11.21
▁Omul	-11.21
amiaz	-11.2102
▁altcu	-11.211
olit	-11.2114
▁creste	-11.2116
hen	-11.2124
bridge	-11.2126
▁bătăli	-11.2126
▁conştienţ	-11.2126
▁corespund	-11.2126
▁exterioar	-11.2126
▁murmur	-11.2126
▁muzicii	-11.2126
▁neobişnuit	-11.2126
▁ierarhi	-11.2126
▁profesionist	-11.2126
▁europen	-11.2126
▁Următoare	-11.2126
▁meduz	-11.2126
▁neglij	-11.2126
▁greșeli	-11.2126
cunoască	-11.2126
▁umăr	-11.2126
▁pânz	-11.2126
▁metan	-11.2126
▁mărturi	-11.2126
▁strădui	-11.2126
▁populat	-11.2126
▁radiați	-11.2126
▁trateaz	-11.2127
▁Model	-11.2127
▁Saturn	-11.2127
▁Tipul	-11.2127
▁autoritate	-11.2131
▁export	-11.2131
▁intenți	-11.2131
▁Recent	-11.2132
▁membran	-11.2133
ținut	-11.2133
gli	-11.2135
▁incluzând	-11.2136
▁Dup	-11.2136
▁cadou	-11.2137
▁2001	-11.2137
▁gătit	-11.2138
▁Ford	-11.2142
▁calculat	-11.2142
▁Lucrez	-11.2145
▁120	-11.2155
▁Stai	-11.2158
▁hiper	-11.2161
▁musc	-11.2162
▁85	-11.2166
▁II	-11.2167
▁sculpt	-11.217
▁gazd	-11.2177
▁consumator	-11.218
▁tast	-11.2185
versus	-11.2186
▁formare	-11.2195
▁utilizeaz	-11.2204
▁bere	-11.2215
▁controlez	-11.2217
▁nasc	-11.2221
▁democrat	-11.2225
▁studiaz	-11.2232
▁interconectat	-11.2243
▁pung	-11.2244
▁planificare	-11.2267
burg	-11.2277
▁lilieci	-11.2282
▁protecţi	-11.2282
▁wireless	-11.2282
▁Naţional	-11.2282
▁cosmic	-11.2282
▁frigider	-11.2282
▁îndrum	-11.2282
▁detaliat	-11.2282
▁floare	-11.2282
▁slide	-11.2282
▁parcurg	-11.2282
▁nopţi	-11.2282
▁Priviţi	-11.2283
▁intaln	-11.2283
▁civic	-11.2283
▁acoperă	-11.2284
▁Gen	-11.2285
▁gînd	-11.2287
▁frân	-11.2287
▁joas	-11.2289
▁liniște	-11.2295
hib	-11.2296
tional	-11.2297
▁indicator	-11.2297
▁Munc	-11.2298
▁lovitur	-11.2304
▁așteptăm	-11.2305
▁Franţ	-11.2312
▁chemat	-11.2315
▁merita	-11.2318
▁aplicaţii	-11.2319
cotro	-11.2328
▁Web	-11.2335
▁demnitate	-11.2336
▁obișnuiț	-11.2336
▁destinat	-11.2343
▁28	-11.2344
▁Gh	-11.2346
▁amintiţi	-11.2347
▁organizare	-11.2357
▁filmare	-11.2367
▁panouri	-11.2382
prinzător	-11.2384
▁consili	-11.2391
▁ciclul	-11.2407
▁sănătăţi	-11.2417
▁mase	-11.2435
▁agresiv	-11.2441
▁conştiinţ	-11.2441
▁jumatate	-11.2441
▁proaspăt	-11.2441
▁grădină	-11.2441
▁Uitaţi	-11.2441
▁colonie	-11.2441
▁națiuni	-11.2441
▁Smith	-11.2441
▁show	-11.2441
▁Multumesc	-11.2441
▁copert	-11.2441
▁parţial	-11.2441
▁susţinut	-11.2442
▁grec	-11.2443
▁natal	-11.2443
▁deșeuri	-11.2444
▁susținut	-11.2444
▁întâln	-11.2455
▁meri	-11.2457
erry	-11.2457
▁așez	-11.2458
▁formez	-11.2459
▁dominant	-11.2463
▁Coca	-11.2463
▁refuzat	-11.2463
▁insect	-11.2463
▁just	-11.2467
▁1.000	-11.247
▁Câteodat	-11.2471
▁romantic	-11.2472
▁Lege	-11.2477
▁telefonie	-11.2482
dura	-11.2482
▁simboluri	-11.2488
▁varst	-11.2488
▁ignorat	-11.2491
▁priveşt	-11.2498
▁resurs	-11.2504
▁creatur	-11.2504
▁doctorat	-11.2512
▁inventator	-11.2519
universitar	-11.254
▁triburi	-11.2547
grop	-11.2557
mănă	-11.2564
ţelepciune	-11.2602
▁Interesant	-11.2602
▁descărca	-11.2602
▁feminist	-11.2602
▁imbatran	-11.2602
▁industrii	-11.2602
▁nimănui	-11.2602
▁sugesti	-11.2602
▁temporar	-11.2602
▁triunghi	-11.2602
▁discuţie	-11.2602
▁intestin	-11.2602
▁paradox	-11.2602
▁impreun	-11.2602
ozitate	-11.2602
▁soldați	-11.2602
▁etaje	-11.2602
▁recolta	-11.2602
▁Cinci	-11.2602
▁afiş	-11.2602
▁mărunt	-11.2603
▁seminţe	-11.2603
▁paine	-11.2603
▁dărui	-11.2603
▁paraliza	-11.2604
▁întampl	-11.2608
▁rezon	-11.2609
▁agend	-11.261
▁munţi	-11.261
▁confer	-11.2611
▁2003	-11.2615
▁hidro	-11.2615
erra	-11.2616
▁construieșt	-11.2624
▁West	-11.2624
▁Pop	-11.2625
▁33	-11.2628
▁corzi	-11.2628
▁roat	-11.2644
▁Roma	-11.2647
▁plictisitor	-11.2651
▁stop	-11.2654
▁contrast	-11.266
oștri	-11.2668
▁Marc	-11.2675
▁sfat	-11.2685
▁simplitate	-11.2687
▁scanare	-11.269
▁diagnosticat	-11.2696
▁orizont	-11.2697
▁Wall	-11.2698
▁amenințare	-11.2704
▁încânta	-11.2714
▁parol	-11.2716
▁extind	-11.2718
▁Mala	-11.272
▁Park	-11.2733
▁secet	-11.2735
▁productivitate	-11.2737
▁Inc	-11.2737
▁inovato	-11.2737
▁prăjit	-11.274
Cola	-11.2747
▁umfl	-11.2755
▁corespunzăto	-11.2766
▁demonstrez	-11.2766
▁nemaipomenit	-11.2766
▁noțiune	-11.2766
▁obtine	-11.2766
▁înghețat	-11.2766
▁șobolan	-11.2766
▁comerț	-11.2766
▁miracol	-11.2766
▁anonim	-11.2766
▁razboi	-11.2766
▁amplific	-11.2766
▁opţiuni	-11.2766
▁persist	-11.2766
▁conecteaz	-11.2766
▁baterie	-11.2767
▁recrut	-11.2767
▁metru	-11.2768
▁maimuţ	-11.2768
▁bucl	-11.277
▁Jack	-11.2771
▁rezonabil	-11.2772
▁tavan	-11.2775
ajuns	-11.2783
▁aşteptări	-11.2788
▁proiectez	-11.2794
▁cumpăr	-11.2808
▁aloca	-11.282
▁Devin	-11.2832
descifr	-11.2833
▁aşezat	-11.2839
▁aib	-11.2844
▁promit	-11.2857
▁răp	-11.2871
▁recuperare	-11.2873
▁modest	-11.2873
▁Uniune	-11.2878
mplu	-11.2889
▁transmitere	-11.2891
oxid	-11.2896
▁magnet	-11.2896
▁Etiopia	-11.2933
▁dependent	-11.2933
▁elicopter	-11.2933
▁filosof	-11.2933
▁muzicieni	-11.2933
▁sateliţi	-11.2933
▁supraveghere	-11.2933
▁trunchi	-11.2933
▁îmbrățiș	-11.2933
▁competiti	-11.2933
▁exclusiv	-11.2933
▁soluția	-11.2933
▁încoace	-11.2933
▁reusit	-11.2933
▁semințe	-11.2933
▁stânc	-11.2933
▁altitudine	-11.2933
▁vânzare	-11.2933
▁mătase	-11.2933
▁recolte	-11.2933
▁epuiza	-11.2933
▁camioane	-11.2933
▁garaj	-11.2934
▁cadre	-11.2935
▁greșeal	-11.2935
▁educațional	-11.2936
▁exers	-11.2936
▁lateral	-11.2939
▁cuplu	-11.294
▁toler	-11.2943
▁fuseseră	-11.2943
▁intensiv	-11.295
mont	-11.2951
profit	-11.2951
▁erou	-11.2952
▁Mary	-11.2961
,2	-11.2963
▁îmbin	-11.2966
▁veşti	-11.2972
▁vestic	-11.2972
▁pereţi	-11.2982
▁pereți	-11.2985
▁vorbă	-11.2991
▁supraviețuire	-11.2997
▁optim	-11.3
▁acceler	-11.3003
▁opereaz	-11.3006
0,000	-11.3031
▁luc	-11.3036
▁demn	-11.3039
▁naşte	-11.3055
▁primeasc	-11.3063
▁socio	-11.3078
▁citeșt	-11.3079
▁scriere	-11.3085
▁card	-11.309
▁consecinț	-11.3094
▁confort	-11.3097
▁patrulea	-11.31
▁Bibli	-11.3102
▁Bărbat	-11.3102
▁comentarii	-11.3102
▁frecvenț	-11.3102
▁furnizor	-11.3102
▁protejeaz	-11.3102
▁rezoluți	-11.3102
▁Revoluți	-11.3102
▁baseball	-11.3102
▁patogen	-11.3102
▁disperare	-11.3102
▁rezista	-11.3102
▁acustic	-11.3102
▁Punct	-11.3102
▁favoare	-11.3102
,3	-11.3105
▁Henr	-11.3106
▁pași	-11.3106
▁Viaţ	-11.3107
▁explodat	-11.3107
▁beton	-11.3109
▁găin	-11.3109
ation	-11.3111
▁specializat	-11.3118
▁geologi	-11.3124
▁preşedintel	-11.3128
▁ritual	-11.3149
▁Vezi	-11.315
▁locuinț	-11.3157
▁piat	-11.3158
▁orizontal	-11.3174
▁justific	-11.3204
▁complic	-11.3209
▁Air	-11.322
▁plăteasc	-11.3228
▁abs	-11.3236
▁copleşi	-11.3274
▁demonstrează	-11.3274
▁dezbateri	-11.3274
▁european	-11.3274
▁neaşteptat	-11.3274
▁oricărei	-11.3274
▁prădător	-11.3274
▁suspendat	-11.3274
▁voştri	-11.3274
▁îndelungat	-11.3274
▁alfabet	-11.3274
▁saptaman	-11.3274
▁suprafeţe	-11.3274
▁șofer	-11.3275
▁Virgin	-11.3275
▁plâns	-11.3275
▁readuc	-11.3275
▁bogați	-11.3275
▁comprim	-11.3275
▁colonii	-11.3275
▁delicat	-11.3275
▁comparaţie	-11.3275
▁terestr	-11.3275
▁tabere	-11.3276
▁mașinărie	-11.3276
▁suferinț	-11.3277
▁devastat	-11.3277
▁convert	-11.3277
▁gros	-11.3278
▁împătur	-11.3279
▁invenți	-11.3281
▁Casa	-11.3286
▁negri	-11.329
▁măreţ	-11.3296
▁CD	-11.3299
▁liste	-11.3299
ness	-11.3301
way	-11.3302
grad	-11.3309
▁ingenio	-11.3309
▁Gore	-11.3311
▁orb	-11.3314
▁optimism	-11.3316
▁Ray	-11.3316
vâr	-11.3327
▁determin	-11.3337
▁modificare	-11.3358
vill	-11.3359
▁cuib	-11.3363
▁55	-11.3368
▁povestiri	-11.3392
▁lansa	-11.34
▁analizez	-11.3405
▁Bunic	-11.3409
▁800	-11.3418
▁credinţ	-11.3422
▁evolutiv	-11.3428
▁difer	-11.343
▁găsea	-11.3447
▁RMN	-11.345
▁Republic	-11.345
▁bănui	-11.345
▁dureros	-11.345
▁emergent	-11.345
▁intitulat	-11.345
▁neobișnuit	-11.345
▁neplăcut	-11.345
▁spontan	-11.345
▁supermarket	-11.345
▁eficienţ	-11.345
▁entropi	-11.345
▁tsunami	-11.345
▁ventila	-11.345
▁absurd	-11.345
▁bazin	-11.345
▁înfiinţ	-11.345
▁rătăc	-11.345
▁discuţii	-11.345
▁nopți	-11.3451
▁răspândirea	-11.3451
▁Moore	-11.3451
▁sonor	-11.3452
▁specul	-11.3452
▁cuprins	-11.3453
▁opreșt	-11.3453
▁octo	-11.3454
▁aparţin	-11.3455
▁tortur	-11.3467
▁luând	-11.3472
▁fermier	-11.3476
▁captiv	-11.3479
▁gigantic	-11.3488
▁păsa	-11.349
▁abordări	-11.349
▁operații	-11.3494
▁cunoaștere	-11.3497
▁Peter	-11.3499
▁geografic	-11.3522
,6	-11.3525
▁elementar	-11.3525
▁coco	-11.3539
▁beneficiu	-11.3544
▁reușeșt	-11.3554
▁alimentat	-11.3557
existent	-11.3573
▁poleniz	-11.3583
▁scad	-11.3598
▁scoat	-11.3599
▁supravieţuire	-11.3601
▁vorbeşt	-11.3602
Bay	-11.3609
▁Carte	-11.3621
▁mentalitate	-11.3625
▁dicţionar	-11.3628
▁diminu	-11.3628
▁filantropi	-11.3628
▁interacţiune	-11.3628
▁oricărui	-11.3628
▁portocali	-11.3628
▁matrice	-11.3628
▁Viața	-11.3629
▁frunte	-11.3629
▁chinui	-11.3629
▁Cealalt	-11.3629
▁tensiune	-11.3629
▁Iubes	-11.3629
▁pierz	-11.363
▁microfon	-11.363
▁operație	-11.3631
ward	-11.3631
▁globalizare	-11.3631
▁educaţional	-11.3632
▁șoarece	-11.3633
▁Ridic	-11.3633
▁admit	-11.3634
▁naiv	-11.3635
▁umplut	-11.3638
▁calorii	-11.3642
eopard	-11.3643
▁patent	-11.3645
▁Răs	-11.3662
▁macar	-11.3663
▁membr	-11.3672
▁umanități	-11.3672
▁masculin	-11.3677
▁comporta	-11.3679
▁auzea	-11.3682
▁indicii	-11.3683
▁tragic	-11.3685
▁Bob	-11.369
▁abandon	-11.3691
▁extras	-11.3691
▁inegalitate	-11.3708
▁donator	-11.3709
▁regel	-11.3709
▁Printr	-11.3709
versa	-11.3713
▁sperant	-11.3714
▁gândea	-11.3716
▁Banc	-11.3731
▁băutur	-11.3747
▁balen	-11.3756
▁liniar	-11.376
▁menţion	-11.3768
▁raț	-11.3776
▁intervin	-11.3798
▁simplific	-11.3799
▁aplaud	-11.381
▁dublă	-11.381
▁primăvar	-11.381
▁genocid	-11.381
▁except	-11.381
▁enzim	-11.381
▁stup	-11.381
▁predispu	-11.381
▁eliberează	-11.381
▁viermi	-11.381
▁sublinia	-11.381
▁atît	-11.381
▁adulţi	-11.381
▁Înțeleg	-11.3811
▁periferi	-11.3811
▁origini	-11.3811
▁Fapt	-11.3811
▁imigr	-11.3811
▁antrenament	-11.3812
▁stupid	-11.3812
▁umor	-11.3812
▁operaţie	-11.3812
▁Lumin	-11.3813
▁Program	-11.3813
▁Mah	-11.3813
▁Gates	-11.3814
▁oțel	-11.3814
▁credibil	-11.3816
▁capcan	-11.3822
▁prop	-11.3822
▁ploi	-11.3823
▁supus	-11.3823
▁inamic	-11.3828
▁spatiu	-11.383
▁inalt	-11.3836
▁Jane	-11.3837
▁probe	-11.3841
▁muzeul	-11.3842
▁așezat	-11.3848
▁Drag	-11.3849
▁urmărire	-11.385
▁Tata	-11.386
▁înmulț	-11.3864
▁arbore	-11.387
▁pătra	-11.3877
▁the	-11.3888
▁cereri	-11.3893
▁insulin	-11.3902
▁amestecat	-11.391
▁compl	-11.3923
▁abandonat	-11.3931
▁naște	-11.3936
▁iert	-11.3939
▁triş	-11.3951
▁abordă	-11.3954
▁sacr	-11.3972
▁curajo	-11.3992
▁binecuvânt	-11.3995
▁bumbac	-11.3995
▁fosfor	-11.3995
▁izolare	-11.3995
▁rinichi	-11.3995
▁Continu	-11.3995
▁gravitați	-11.3995
▁mușchi	-11.3995
▁senzaţi	-11.3995
▁reporter	-11.3996
▁parlament	-11.3996
▁subteran	-11.3996
▁constructi	-11.3996
▁jucărie	-11.3996
▁încadr	-11.3996
▁localnici	-11.3996
▁versiuni	-11.3997
▁cumpara	-11.3997
▁intrebari	-11.3997
▁aplicație	-11.3997
▁cronic	-11.3999
▁Hill	-11.3999
▁propunere	-11.4
▁Film	-11.4
▁recunoscăto	-11.4001
▁Produc	-11.4002
▁iubea	-11.4003
▁arbori	-11.4004
▁Long	-11.4004
▁datoreaz	-11.4007
star	-11.4011
▁logo	-11.4012
▁calități	-11.4012
▁orbita	-11.4016
▁regin	-11.4019
rivesc	-11.4035
▁ființ	-11.4036
▁uluitor	-11.4039
▁permisiune	-11.4045
▁Lini	-11.4051
▁pictat	-11.4061
▁îmbunătățire	-11.4064
▁oferind	-11.4074
▁Niciodat	-11.4086
▁strategic	-11.4088
▁privest	-11.4109
▁Steven	-11.4114
▁mențion	-11.4134
▁traum	-11.4158
▁mobilitate	-11.4173
▁programat	-11.4176
steroizi	-11.4184
▁îmbrăţiş	-11.4184
▁Consiliul	-11.4184
▁Departamentul	-11.4184
▁compasiuni	-11.4184
▁grăsime	-11.4184
▁ineficient	-11.4184
▁reflex	-11.4184
▁sindromul	-11.4184
▁tradus	-11.4184
▁impozit	-11.4184
▁capacități	-11.4184
▁utilizând	-11.4184
▁Sky	-11.4184
▁fluier	-11.4184
▁deficit	-11.4184
▁tremur	-11.4184
▁proporţi	-11.4184
▁matase	-11.4184
▁copleș	-11.4184
▁tăcut	-11.4184
▁vesel	-11.4185
▁preajm	-11.4185
arkinson	-11.4186
▁greşeal	-11.4186
▁impresionat	-11.4187
▁utilizez	-11.4187
▁instabil	-11.4193
▁serial	-11.4194
▁vou	-11.4195
▁pictez	-11.4196
▁reacţion	-11.4196
▁împlinit	-11.4197
▁oţel	-11.4199
▁stereo	-11.42
▁29	-11.4201
▁marcă	-11.4202
rific	-11.4202
hop	-11.4202
▁nativ	-11.4203
▁convingeri	-11.4206
▁spațiului	-11.4207
▁creşteri	-11.4207
▁ferat	-11.421
▁impus	-11.421
▁micuţ	-11.421
▁finanțat	-11.4211
▁încheietur	-11.4221
▁preluat	-11.4241
▁aplicare	-11.4249
▁curajul	-11.4254
▁Arab	-11.4259
▁antreprenor	-11.4264
▁postat	-11.4271
▁valoreaz	-11.4272
▁aerian	-11.4282
▁asigurare	-11.4286
▁realizări	-11.4286
▁ascul	-11.4295
▁computerizat	-11.4298
▁adaptare	-11.431
▁ritualuri	-11.4323
▁bloguri	-11.4334
▁râuri	-11.4337
▁favor	-11.4341
▁prototipuri	-11.4349
▁constrân	-11.4376
▁diametru	-11.4376
▁distribuţi	-11.4376
▁plănui	-11.4376
▁schizofreni	-11.4376
▁spaniol	-11.4376
▁subacvatic	-11.4376
▁temporal	-11.4376
▁înălțime	-11.4376
▁țânțar	-11.4376
▁asistenț	-11.4376
▁cenzur	-11.4376
▁iPod	-11.4376
▁proprietăţi	-11.4376
▁Ministerul	-11.4377
▁bătai	-11.4377
▁mouse	-11.4377
▁noţiune	-11.4377
▁vinovat	-11.4377
▁Tony	-11.4377
▁rațional	-11.4377
▁schem	-11.4377
▁încurc	-11.4377
▁retras	-11.4377
▁pălări	-11.4377
▁diferiţi	-11.4377
▁flutur	-11.4377
▁fundați	-11.4378
▁Kev	-11.4378
well	-11.4378
▁baloane	-11.4379
▁Salut	-11.4379
▁diferent	-11.4379
▁superior	-11.438
▁îngust	-11.438
▁matematicieni	-11.438
▁spart	-11.4381
▁datorat	-11.4382
▁suferinţ	-11.4384
▁carton	-11.4385
▁expunere	-11.4385
▁promisiune	-11.4387
▁intrig	-11.4387
▁devenea	-11.4388
▁steril	-11.4389
▁referinţ	-11.439
▁Insulel	-11.4391
▁Jud	-11.4391
▁păreri	-11.4392
▁fizician	-11.4393
▁BG	-11.4409
▁începuse	-11.4429
▁consilier	-11.4437
▁sigurant	-11.4447
▁Cercetare	-11.4453
▁compun	-11.4459
▁încălc	-11.4462
califica	-11.4474
TI	-11.4477
▁onora	-11.4493
▁depresi	-11.4524
▁câmpuri	-11.453
▁concentrare	-11.4535
▁priveasc	-11.4549
▁Public	-11.4551
▁stabilitate	-11.4552
▁greş	-11.4566
▁exces	-11.457
▁LED	-11.4573
▁adolescenţ	-11.4573
▁republic	-11.4573
▁atrăgăto	-11.4573
▁avusese	-11.4573
▁brânz	-11.4573
▁concentrează	-11.4573
▁dezavantaj	-11.4573
▁diavol	-11.4573
▁extraterestr	-11.4573
▁fericiţi	-11.4573
▁robust	-11.4573
▁stomac	-11.4573
▁subliniez	-11.4573
▁suprafețe	-11.4573
▁tocilar	-11.4573
▁transparenț	-11.4573
▁urgenţ	-11.4573
▁urgenț	-11.4573
▁întâmpin	-11.4573
▁lacrimi	-11.4573
▁submarin	-11.4573
▁Ajung	-11.4573
▁Beij	-11.4573
▁sanatate	-11.4573
▁veteran	-11.4573
▁vânzări	-11.4573
▁bogaţi	-11.4573
▁acasa	-11.4573
▁Brian	-11.4573
▁înnebun	-11.4573
▁deconect	-11.4573
▁prad	-11.4573
▁fundaţi	-11.4573
▁învățământ	-11.4573
▁omenire	-11.4573
▁canceroas	-11.4576
▁mirare	-11.4576
▁referinț	-11.4578
▁Latin	-11.4582
▁încheiere	-11.4583
▁pasiuni	-11.4584
▁Terra	-11.4585
▁reforme	-11.4586
▁Citi	-11.4598
▁modificări	-11.4599
▁dând	-11.4612
▁operaţii	-11.4613
▁stricat	-11.4616
▁vizitez	-11.4618
▁Rest	-11.4631
▁totodat	-11.4645
▁mentor	-11.4659
▁eliberare	-11.4668
▁sond	-11.4672
▁ziduri	-11.4687
▁nava	-11.4688
▁neurolog	-11.4708
▁hotar	-11.4715
▁sector	-11.4731
▁hotărâ	-11.4746
▁familiariza	-11.4756
▁iarn	-11.4756
▁panou	-11.4761
▁restaur	-11.4763
▁intensitate	-11.477
ținuți	-11.477
▁neașteptat	-11.4773
▁oxitocin	-11.4773
▁înconjoară	-11.4773
▁Berlin	-11.4773
▁Consider	-11.4773
▁bărci	-11.4773
▁divertisment	-11.4773
▁elefanți	-11.4773
▁incitant	-11.4773
▁interfaţ	-11.4773
▁fantezi	-11.4773
▁vopsea	-11.4773
▁Florid	-11.4773
▁Leonard	-11.4773
▁cript	-11.4773
▁vacanţ	-11.4773
▁chirurgical	-11.4775
▁excesiv	-11.4775
▁depus	-11.4777
▁start	-11.4778
▁navă	-11.4781
▁emisiune	-11.4785
▁vârfuri	-11.4788
▁descurcat	-11.479
▁inspirați	-11.4795
▁dominat	-11.4802
▁vindecare	-11.4806
▁predă	-11.4812
▁suprapun	-11.4814
▁contrar	-11.4818
▁considerabil	-11.4825
tehnologi	-11.4826
eeland	-11.4827
▁48	-11.4839
▁monitorizare	-11.4844
▁intreb	-11.4858
Corp	-11.4863
▁Fiind	-11.4865
▁prostat	-11.4867
▁sfaturi	-11.4876
▁declarat	-11.4877
▁functiona	-11.4884
▁electroni	-11.4927
nghi	-11.493
▁finanțare	-11.4939
▁asemăn	-11.4952
ografia	-11.4965
▁Iraq	-11.4977
▁dopamin	-11.4977
▁hibrid	-11.4977
▁profesoar	-11.4977
▁asteroid	-11.4977
▁bogăţi	-11.4977
▁dispoziţi	-11.4977
▁multiplic	-11.4977
▁acopere	-11.4977
▁mananc	-11.4977
▁pamant	-11.4977
▁obosit	-11.4977
▁compoziți	-11.4977
▁soldaţi	-11.4977
▁soart	-11.4977
▁subestim	-11.4977
▁examen	-11.4977
▁cerneal	-11.4977
▁îngrozitoare	-11.4977
▁naţiune	-11.4977
▁tratez	-11.4977
▁Bono	-11.4978
▁crud	-11.4978
▁inteleg	-11.4978
▁strop	-11.4978
▁eolian	-11.4978
▁emisfer	-11.4979
▁miroas	-11.498
▁tastatur	-11.4981
▁interviuri	-11.4982
▁ocazional	-11.4983
▁viral	-11.4983
▁divin	-11.4984
▁Științ	-11.4984
▁Greci	-11.4986
▁cuvant	-11.4991
▁prezis	-11.4996
▁contest	-11.5009
▁banda	-11.5013
▁trac	-11.5017
▁Franț	-11.5019
ugust	-11.5033
▁implicit	-11.5034
schel	-11.504
▁colectat	-11.5044
▁neurologic	-11.5045
▁telefonic	-11.5053
▁optimiz	-11.5066
▁Veni	-11.5072
▁maimuț	-11.5076
▁reciclat	-11.5111
▁votat	-11.5111
▁caritate	-11.5131
▁doreșt	-11.5143
▁destu	-11.5148
▁îmbunătăţ	-11.5159
▁atom	-11.517
▁strâng	-11.5178
▁Jeff	-11.5183
▁Industria	-11.5185
▁Watson	-11.5185
▁arhitecţi	-11.5185
▁bibliotecă	-11.5185
▁interacțiuni	-11.5185
▁intoarce	-11.5185
▁obsesi	-11.5185
▁recompensa	-11.5185
▁stâlp	-11.5185
▁cladire	-11.5185
▁expansiune	-11.5185
▁comerţ	-11.5185
▁păcăli	-11.5185
▁dureroas	-11.5185
▁Carolin	-11.5185
▁Diferen	-11.5185
▁Istori	-11.5185
▁împins	-11.5186
▁curbă	-11.5186
▁plou	-11.5187
▁afro	-11.5187
▁aleatoriu	-11.5187
▁explicație	-11.5189
▁iniţiativ	-11.519
▁fiziologi	-11.5191
▁mamografi	-11.5192
▁propag	-11.5193
▁SW	-11.5198
▁Mere	-11.5199
▁estimeaz	-11.5201
▁schiţ	-11.5202
▁marti	-11.5205
▁curajoas	-11.5207
▁intrebat	-11.5208
▁Premiul	-11.523
▁violat	-11.5234
▁preţuri	-11.5235
▁Gaz	-11.5236
fapt	-11.5257
▁multime	-11.5264
▁Folosind	-11.527
▁ostil	-11.5279
▁riscant	-11.528
▁detector	-11.5283
▁tob	-11.5284
▁proiec	-11.5287
▁fundament	-11.5336
▁pescui	-11.5344
▁cascador	-11.5352
▁Harr	-11.5368
▁obez	-11.5375
▁textur	-11.5375
▁degrada	-11.5382
▁Columbia	-11.5398
▁aglomerat	-11.5398
▁antropolog	-11.5398
▁cauciuc	-11.5398
▁episod	-11.5398
▁frecvenţ	-11.5398
▁moștenire	-11.5398
▁presupus	-11.5398
▁protocelul	-11.5398
▁regizor	-11.5398
▁rezerve	-11.5398
▁talibani	-11.5398
▁şcolar	-11.5398
▁Imaginea	-11.5398
▁apropii	-11.5398
▁experient	-11.5398
▁rezervă	-11.5398
▁trotuar	-11.5398
▁presiuni	-11.5398
▁autostrad	-11.5398
▁greşeli	-11.5398
▁parazit	-11.5398
▁pionier	-11.5398
▁scoli	-11.5398
▁colonia	-11.5398
▁evidenţ	-11.5398
▁simetrie	-11.5399
▁îngropat	-11.54
▁Datorit	-11.54
▁piatra	-11.5402
▁Bell	-11.5402
▁dinozaur	-11.5404
▁comunitar	-11.5404
▁audio	-11.5405
▁electrozi	-11.5406
▁tricou	-11.5406
▁dejun	-11.5408
▁depind	-11.541
▁etnic	-11.541
▁meci	-11.541
▁Modul	-11.5411
▁sustin	-11.5412
▁click	-11.5412
▁taxi	-11.5412
▁Cyr	-11.5413
▁înșel	-11.5414
▁citez	-11.5433
numiți	-11.5439
▁reprezentativ	-11.5439
▁rotund	-11.5445
▁cascad	-11.5447
▁subțir	-11.5448
▁făcu	-11.5451
DP	-11.5461
▁condamnat	-11.5461
▁ucid	-11.5471
▁operator	-11.5492
▁geniu	-11.5514
▁zâmbet	-11.5564
▁culc	-11.5575
▁surprinzăto	-11.56
ndiferent	-11.5608
ristotel	-11.5615
▁ambasad	-11.5615
▁corporații	-11.5615
▁declanş	-11.5615
▁desfășura	-11.5615
▁dizabilități	-11.5615
▁improbabil	-11.5615
▁răspunz	-11.5615
pajură	-11.5615
▁jongl	-11.5615
▁spectator	-11.5615
▁vâsl	-11.5615
▁relaxa	-11.5615
▁interfaț	-11.5615
▁angajă	-11.5615
▁constrângeri	-11.5615
▁jucând	-11.5615
▁astepta	-11.5615
▁atârn	-11.5615
▁Națiunil	-11.5615
▁grâu	-11.5615
▁termic	-11.5615
▁Politic	-11.5615
▁Whit	-11.5615
▁Delhi	-11.5616
▁duzin	-11.5616
▁înspăimântător	-11.5616
▁povar	-11.5616
▁simpati	-11.5617
▁aranjat	-11.5618
▁trimiț	-11.5618
▁rețet	-11.5619
▁Clint	-11.5619
▁dovedeşte	-11.5619
▁album	-11.5621
▁menit	-11.5622
▁pariu	-11.5622
▁fizicieni	-11.5623
▁vapor	-11.5625
▁server	-11.563
▁dres	-11.5642
▁indiciu	-11.5652
▁clic	-11.5658
▁palme	-11.5661
▁interconect	-11.5669
▁pac	-11.5678
▁prosperitate	-11.5679
▁încorporat	-11.5688
▁universități	-11.5689
supra	-11.5694
▁amenința	-11.5698
▁centur	-11.5716
▁sustenabilitate	-11.5716
▁acționez	-11.5723
▁vizualizare	-11.5799
▁dovedeșt	-11.5802
▁Profesor	-11.5837
▁Andrew	-11.5837
▁Bangladesh	-11.5837
▁Shanghai	-11.5837
▁Singapore	-11.5837
▁bacteria	-11.5837
▁descuraj	-11.5837
▁dicționar	-11.5837
▁embrion	-11.5837
▁faliment	-11.5837
▁grădina	-11.5837
▁telescoape	-11.5837
▁vocabular	-11.5837
▁atractiv	-11.5837
▁ghețar	-11.5837
▁incident	-11.5837
▁rigid	-11.5837
▁urgent	-11.5837
▁Detroit	-11.5837
▁Arctic	-11.5837
▁remix	-11.5837
▁selecţi	-11.5837
▁interioară	-11.5838
▁parametri	-11.5838
▁Earth	-11.5838
▁Mandel	-11.5838
▁sosit	-11.5838
▁palmier	-11.5838
▁naţiuni	-11.5838
▁intenționat	-11.5839
▁transpir	-11.5839
▁intenţionat	-11.5839
▁bancher	-11.5839
▁lift	-11.5841
▁aplec	-11.5843
▁2020	-11.5843
▁matematician	-11.5844
▁creion	-11.5844
▁stiint	-11.5847
▁barca	-11.5849
▁plictisito	-11.585
▁Acei	-11.5851
▁salut	-11.5852
▁figuri	-11.5856
▁aprovizionare	-11.5858
▁rock	-11.5862
▁frontal	-11.587
▁Ştiinţ	-11.5875
▁fertiliz	-11.5886
▁circ	-11.5919
▁procentaj	-11.5928
▁israel	-11.5938
▁controversat	-11.5957
▁îndepărta	-11.5981
▁donat	-11.6004
morf	-11.604
▁simulat	-11.6047
▁îndrăgost	-11.6055
▁profitabil	-11.6059
▁psiholog	-11.6063
eographic	-11.6065
▁Monterey	-11.6065
▁bijuteri	-11.6065
▁business	-11.6065
▁criterii	-11.6065
▁distanțe	-11.6065
▁evoluez	-11.6065
▁hardware	-11.6065
▁imagistic	-11.6065
▁infecții	-11.6065
▁pantaloni	-11.6065
▁protejă	-11.6065
▁recompensă	-11.6065
▁rostogol	-11.6065
▁îngheţat	-11.6065
▁Vietnam	-11.6065
▁contribuți	-11.6065
▁district	-11.6065
▁monument	-11.6065
▁perturb	-11.6065
▁colaps	-11.6065
▁ecuaţie	-11.6065
▁tranziţi	-11.6065
▁tatuaj	-11.6065
▁certificat	-11.6065
▁toxin	-11.6065
▁Pacien	-11.6065
▁Second	-11.6065
▁micşor	-11.6065
▁vânzător	-11.6065
▁linişti	-11.6065
invaziv	-11.6065
▁otrăv	-11.6065
▁cantități	-11.6065
▁afiș	-11.6065
▁juridic	-11.6065
▁reține	-11.6066
▁sârm	-11.6066
▁raman	-11.6066
▁chestiuni	-11.6067
,7	-11.6067
,4	-11.6068
▁Patru	-11.607
▁Green	-11.6071
▁nebuneasc	-11.6073
▁Întreb	-11.608
▁cuptor	-11.6084
▁Gold	-11.6086
▁taxa	-11.6091
▁curioas	-11.6092
▁siguranţ	-11.6095
▁islamic	-11.6107
▁inovativ	-11.6121
▁convin	-11.6155
▁exagerat	-11.6166
▁urin	-11.6186
▁explod	-11.619
▁exager	-11.6195
▁realități	-11.6274
ștri	-11.6277
ntâmpl	-11.6292
gomot	-11.6297
▁Jumătate	-11.6297
▁Lincoln	-11.6297
▁Norvegia	-11.6297
▁Sovietic	-11.6297
▁abordez	-11.6297
▁biodiversitate	-11.6297
▁competenț	-11.6297
▁electoral	-11.6297
▁exercițiu	-11.6297
▁extensi	-11.6297
▁fluctu	-11.6297
▁găzdui	-11.6297
▁ilustreaz	-11.6297
▁interacțiune	-11.6297
▁manuscris	-11.6297
▁metabolism	-11.6297
▁motociclet	-11.6297
▁muzician	-11.6297
▁respins	-11.6297
▁secvenţă	-11.6297
▁îndemână	-11.6297
▁2015	-11.6297
▁Administr	-11.6297
▁performant	-11.6297
▁prelegere	-11.6297
▁aprobat	-11.6297
▁Băiat	-11.6297
▁catalog	-11.6297
▁selecți	-11.6297
▁strălucitoare	-11.6297
▁înscris	-11.6297
▁deștept	-11.6297
▁apogeu	-11.6297
▁răsturna	-11.6298
▁Stătea	-11.6298
▁milimetr	-11.6298
▁intervenţi	-11.6298
▁îndemn	-11.6298
▁conceptual	-11.6298
▁Proiect	-11.6298
▁Nick	-11.6298
▁variol	-11.6299
▁băga	-11.6299
▁măduv	-11.63
▁larve	-11.63
▁foaie	-11.63
▁vânători	-11.6301
▁măsor	-11.6308
▁roţi	-11.6312
▁ultra	-11.6312
▁deranjeaz	-11.6314
▁măreț	-11.6315
▁calităţi	-11.632
olly	-11.6333
▁inimil	-11.6334
▁Trad	-11.6351
▁ocol	-11.6364
▁înregistrez	-11.6365
play	-11.6373
▁recupera	-11.6382
model	-11.6394
▁voinţ	-11.6426
▁tripl	-11.6429
lvani	-11.6517
▁înspăimânt	-11.6534
▁egipten	-11.6535
▁Brooklyn	-11.6535
▁absoarb	-11.6535
▁anxietate	-11.6535
▁aptitudini	-11.6535
▁diapozitiv	-11.6535
▁exerciţiu	-11.6535
▁glamour	-11.6535
▁independenț	-11.6535
▁prioritate	-11.6535
▁recompense	-11.6535
▁înființat	-11.6535
▁Procesul	-11.6535
▁convenabil	-11.6535
▁muşuroi	-11.6535
▁fraged	-11.6535
▁haotic	-11.6535
▁dirija	-11.6535
▁reportaj	-11.6535
▁şofer	-11.6535
▁Construi	-11.6535
▁combate	-11.6535
▁asiatic	-11.6535
▁modalități	-11.6535
▁concedi	-11.6535
▁scăpă	-11.6535
▁ramas	-11.6535
▁însemnă	-11.6536
▁loveșt	-11.6536
▁loveşt	-11.6536
▁titan	-11.6536
▁hectar	-11.6536
▁suprem	-11.6536
▁reactor	-11.6536
▁biotehnologi	-11.6536
▁bancnot	-11.6536
▁converg	-11.6536
▁elastic	-11.6537
▁scoţi	-11.6537
▁colaborativ	-11.6537
▁erup	-11.6538
▁Doctor	-11.6541
▁apariţi	-11.6542
▁reforma	-11.6543
▁inițiativ	-11.6544
▁jenant	-11.6544
▁tuburi	-11.6545
▁induc	-11.6546
▁termo	-11.6549
▁lansez	-11.6554
▁cumpărături	-11.6563
▁facilita	-11.6585
▁Parcul	-11.6605
▁biolog	-11.6615
▁construieşt	-11.6649
▁urmăreşt	-11.6701
▁exclud	-11.6732
hakespeare	-11.6779
▁Hawaii	-11.6779
▁Philip	-11.6779
▁Sănătate	-11.6779
▁aluminiu	-11.6779
▁biblioteca	-11.6779
▁exercit	-11.6779
▁încurajează	-11.6779
▁încurajez	-11.6779
▁nelimitat	-11.6779
▁nevăzător	-11.6779
▁tranzistor	-11.6779
▁întârzie	-11.6779
▁aranjament	-11.6779
▁reputați	-11.6779
▁bogăți	-11.6779
▁hărți	-11.6779
▁masini	-11.6779
▁Stadiul	-11.6779
▁Echipa	-11.6779
▁umed	-11.6779
▁aniversare	-11.6779
▁legitim	-11.678
▁semăna	-11.678
▁Albert	-11.678
▁Disney	-11.678
▁pizz	-11.678
▁radiaţi	-11.678
▁valoros	-11.678
▁scoal	-11.6781
▁demonstrație	-11.6781
▁misterioas	-11.6781
▁conectă	-11.6781
▁diaree	-11.6782
▁expertiz	-11.6782
▁2,5	-11.6783
▁1,5	-11.6783
▁potriveșt	-11.6783
▁crab	-11.6785
▁placut	-11.6787
▁Opera	-11.6813
▁prezic	-11.6816
▁mișc	-11.6843
spira	-11.6923
▁priveșt	-11.696
q	-11.6966
▁jen	-11.7022
▁Mulțumi	-11.7029
▁Securitate	-11.7029
▁Tanzania	-11.7029
▁ambuteiaj	-11.7029
▁convenţional	-11.7029
▁flăcări	-11.7029
▁imbunatati	-11.7029
▁prăpasti	-11.7029
▁2030	-11.7029
▁Audienț	-11.7029
▁asistenţ	-11.7029
▁distanța	-11.7029
▁weekend	-11.7029
▁încurajă	-11.7029
▁Benjam	-11.7029
▁Black	-11.7029
▁Călător	-11.7029
▁subsol	-11.7029
▁stârn	-11.7029
▁Investi	-11.703
▁corporal	-11.703
▁multitudine	-11.703
▁stanga	-11.703
▁exotic	-11.703
▁minerale	-11.7031
▁secţiune	-11.7032
▁petreac	-11.7032
▁Mașin	-11.7032
▁olandez	-11.7032
▁marker	-11.7032
▁litri	-11.7033
▁vizor	-11.7033
▁baril	-11.7033
▁campion	-11.7033
▁Alege	-11.7034
▁negocieri	-11.7035
▁Coast	-11.7055
▁pap	-11.7063
trecând	-11.7084
▁clarific	-11.7088
▁scala	-11.7162
▁urmăreșt	-11.7195
▁fertil	-11.7229
▁gigant	-11.723
▁îmbătrân	-11.724
▁festival	-11.7286
▁Charli	-11.7286
▁Preşedintel	-11.7286
▁Special	-11.7286
▁asfalt	-11.7286
▁autostrăzi	-11.7286
▁centimetri	-11.7286
▁interacţiuni	-11.7286
▁intrinsec	-11.7286
▁jihad	-11.7286
▁mâzgăl	-11.7286
▁primordial	-11.7286
▁provizii	-11.7286
▁suburbii	-11.7286
▁sufrageri	-11.7286
▁tranzacți	-11.7286
▁tranziție	-11.7286
▁ultrasunet	-11.7286
▁înțelepciune	-11.7286
▁Consum	-11.7286
▁duminic	-11.7286
▁hranei	-11.7286
▁șoareci	-11.7286
▁Supra	-11.7286
▁consens	-11.7286
▁prevede	-11.7286
▁Persoan	-11.7286
▁dinăuntru	-11.7286
▁compens	-11.7286
▁Animal	-11.7286
▁Efect	-11.7286
▁egoist	-11.7286
▁arheolog	-11.7286
▁afgan	-11.7286
▁Conduc	-11.7286
▁desfac	-11.7286
▁noiembrie	-11.7286
▁brand	-11.7287
▁Secret	-11.7287
▁randament	-11.7287
▁pompieri	-11.7287
▁maşinărie	-11.7287
▁aluat	-11.7288
▁prepar	-11.729
▁nobil	-11.729
▁autoritar	-11.729
elicitări	-11.729
▁Phoe	-11.7291
▁spiral	-11.7299
control	-11.74
▁controvers	-11.7408
semnând	-11.7434
▁senzor	-11.7498
▁deoseb	-11.7537
▁frunz	-11.7542
▁consol	-11.7543
▁Arhitec	-11.7549
▁Bhutan	-11.7549
▁Dezvoltare	-11.7549
▁aprilie	-11.7549
▁arhitecți	-11.7549
▁bambus	-11.7549
▁cinematograf	-11.7549
▁comentariu	-11.7549
▁dimineata	-11.7549
▁extincți	-11.7549
▁inferior	-11.7549
▁pesticide	-11.7549
▁revizui	-11.7549
▁tweet	-11.7549
▁întîmpl	-11.7549
sănătoși	-11.7549
▁Bronx	-11.7549
▁IBM	-11.7549
▁adaptez	-11.7549
▁container	-11.7549
▁pedeaps	-11.7549
▁seducătoar	-11.7549
▁gheţar	-11.7549
▁influent	-11.7549
▁frânghi	-11.7549
▁borcan	-11.7549
▁dezastre	-11.7549
▁lărgi	-11.7549
▁rutin	-11.7549
▁îngrijoreaz	-11.7549
▁tărâm	-11.7549
▁Jones	-11.7549
▁leziuni	-11.7549
▁opţiune	-11.7549
▁șterg	-11.7549
▁simetric	-11.7549
▁cercetez	-11.7549
▁umeri	-11.7549
▁străbat	-11.755
▁subţire	-11.755
▁posed	-11.755
▁scoți	-11.755
▁ăștia	-11.755
▁propagand	-11.7551
▁groas	-11.7551
▁Căuta	-11.7551
▁iveal	-11.7551
▁întrucât	-11.7551
▁maestr	-11.7551
▁irig	-11.7552
▁parțial	-11.7552
▁import	-11.7552
▁tranzit	-11.7552
▁vener	-11.7552
▁Găsi	-11.7552
▁estimare	-11.7554
▁consolid	-11.7555
▁poliție	-11.7556
▁organiză	-11.7562
▁Robot	-11.7568
script	-11.7591
▁mitologi	-11.7595
▁presu	-11.7619
numiţi	-11.7656
uther	-11.769
▁Clo	-11.77
▁vizite	-11.7762
ilioane	-11.7814
▁subiecți	-11.7819
▁DVD	-11.7819
▁Familia	-11.7819
▁Groenlanda	-11.7819
▁Kennedy	-11.7819
▁abundent	-11.7819
▁amploare	-11.7819
▁bucătar	-11.7819
▁bălegar	-11.7819
▁declanșat	-11.7819
▁gospodăr	-11.7819
▁imobiliar	-11.7819
▁italian	-11.7819
▁parfum	-11.7819
▁poştal	-11.7819
▁previzibil	-11.7819
▁psihiatri	-11.7819
▁ultraviolet	-11.7819
▁școlar	-11.7819
▁ședinț	-11.7819
▁bronz	-11.7819
▁nevinova	-11.7819
▁tâmp	-11.7819
▁Everest	-11.7819
▁Square	-11.7819
▁1.5	-11.7819
▁Computer	-11.7819
▁galerii	-11.7819
▁intersect	-11.7819
▁Craig	-11.7819
▁liniștit	-11.7819
▁Wolf	-11.7819
▁pandemi	-11.7819
▁regândi	-11.7819
▁raspund	-11.7819
▁intact	-11.7819
▁Apollo	-11.7819
▁neuroștiinț	-11.7819
▁gresit	-11.7819
▁gaura	-11.782
▁decedat	-11.782
▁pescari	-11.782
▁Cercetători	-11.782
▁procur	-11.7821
▁cumplit	-11.7821
▁moştenire	-11.7823
▁arestat	-11.7823
▁Porn	-11.7824
▁avatar	-11.7824
▁vultur	-11.7826
▁șose	-11.7828
▁clădi	-11.7829
▁traducere	-11.7829
ield	-11.788
▁Doamn	-11.7889
▁împărtăş	-11.7889
cântătoare	-11.7893
▁Cultur	-11.7895
▁suficien	-11.7905
▁Creeaz	-11.7906
▁hotăr	-11.7936
născut	-11.7949
bsolut	-11.7982
▁geografi	-11.7985
▁norocoas	-11.7995
▁umpl	-11.8
funcţional	-11.8058
▁îmbunătăț	-11.8061
născuţi	-11.8097
▁Buddh	-11.8097
▁atitudini	-11.8097
▁conectom	-11.8097
▁dificultate	-11.8097
▁discrimin	-11.8097
▁eventual	-11.8097
▁exemplar	-11.8097
▁fântân	-11.8097
▁incearca	-11.8097
▁licurici	-11.8097
▁mexican	-11.8097
▁nesfârșit	-11.8097
▁omniprezent	-11.8097
▁perfecţi	-11.8097
▁profunzime	-11.8097
▁recipient	-11.8097
▁răbdare	-11.8097
▁tangibil	-11.8097
▁Gandhi	-11.8097
▁rezistă	-11.8097
▁Provocar	-11.8097
▁căpitan	-11.8097
▁elaborat	-11.8097
▁interfeţe	-11.8097
▁transcend	-11.8097
▁fecale	-11.8097
▁zahar	-11.8097
▁Anglie	-11.8097
▁Făcând	-11.8097
▁evapor	-11.8097
▁suspect	-11.8097
▁intervievat	-11.8097
▁butoane	-11.8097
▁slogan	-11.8097
▁monstru	-11.8097
▁corupt	-11.8097
▁General	-11.8097
▁impotriv	-11.8097
▁inerent	-11.8097
▁incomod	-11.8097
▁pînă	-11.8097
▁fractal	-11.8097
▁tactic	-11.8097
▁blând	-11.8097
▁calendar	-11.8098
▁House	-11.8098
fantom	-11.8098
▁reţine	-11.8098
▁avertiza	-11.8099
▁penetr	-11.8099
▁jurnaliști	-11.8099
▁nepoţi	-11.81
▁ceramic	-11.8101
▁Adese	-11.8101
▁treaz	-11.8104
ctiune	-11.8112
▁formând	-11.8116
▁semnătur	-11.8118
cunoștință	-11.8127
▁disec	-11.8173
▁Institut	-11.8191
▁nervoas	-11.8192
▁surf	-11.8195
▁îndoitur	-11.8201
▁luminoas	-11.8201
▁drog	-11.8217
▁Limba	-11.8224
▁pătur	-11.8245
▁întrețin	-11.8254
▁cunoşti	-11.8382
▁Descoperi	-11.8383
▁Societate	-11.8383
▁Stephen	-11.8383
▁dizabilităţi	-11.8383
▁sfătui	-11.8383
sprezece	-11.8383
▁FDA	-11.8383
▁Ierusalim	-11.8383
▁dreptunghi	-11.8383
▁iubeșt	-11.8383
▁magnific	-11.8383
▁sanguin	-11.8383
▁scandal	-11.8383
▁submersibil	-11.8383
▁etichete	-11.8383
▁Minunat	-11.8383
▁acvatic	-11.8383
▁adresă	-11.8383
▁dăunătoare	-11.8383
▁aleargă	-11.8383
▁singular	-11.8383
▁vitamin	-11.8383
▁odihn	-11.8383
▁Explor	-11.8383
▁groap	-11.8383
▁piscin	-11.8383
▁coloniz	-11.8383
▁campus	-11.8383
▁libertăți	-11.8383
▁scuza	-11.8383
▁premier	-11.8383
▁volan	-11.8383
▁Făcea	-11.8383
▁Viitorul	-11.8384
▁vacanț	-11.8384
▁eliberez	-11.8385
▁auditiv	-11.8386
▁învins	-11.8387
▁Bruno	-11.8395
▁Jenn	-11.8425
▁compor	-11.844
▁organizeaz	-11.8448
▁plăteşt	-11.8563
▁vizualiza	-11.8579
▁Opr	-11.8584
▁accelereaz	-11.8588
▁expir	-11.8596
▁împerech	-11.8675
▁Copenhag	-11.8677
▁Linux	-11.8677
▁analizând	-11.8677
▁cosmos	-11.8677
▁desfășoar	-11.8677
▁exponențial	-11.8677
▁hamburger	-11.8677
▁handicap	-11.8677
▁longevitat	-11.8677
▁mormânt	-11.8677
▁profesionişti	-11.8677
▁refolos	-11.8677
▁restrâns	-11.8677
▁revolte	-11.8677
▁tuberculoz	-11.8677
▁încărcătur	-11.8677
▁îndepărtez	-11.8677
▁înfricoșător	-11.8677
▁înghesui	-11.8677
▁înrădăcinat	-11.8677
▁Mumbai	-11.8677
▁Somali	-11.8677
▁angajez	-11.8677
▁Energi	-11.8677
▁dulap	-11.8677
▁incapabil	-11.8677
▁simfoni	-11.8677
▁Electro	-11.8677
▁Parlament	-11.8677
▁infractori	-11.8677
▁furnizeaz	-11.8677
▁Sincer	-11.8677
▁cocain	-11.8677
▁misterios	-11.8677
▁Narator	-11.8677
▁dispers	-11.8677
▁libertăţi	-11.8677
▁Aminti	-11.8677
▁stagn	-11.8677
▁contrazic	-11.8677
alapag	-11.8677
▁loveasc	-11.8677
▁afirmație	-11.8678
▁moale	-11.8678
▁argint	-11.8679
▁celalalt	-11.868
▁articula	-11.868
▁potriveşt	-11.8681
▁Fotograf	-11.8682
▁sfid	-11.8683
▁surprindere	-11.8686
▁ruin	-11.8694
▁Simpl	-11.8709
▁cerinţ	-11.8712
▁Conteaz	-11.8745
▁îmbunătățeșt	-11.8761
▁Neuro	-11.8816
▁confrun	-11.8822
▁Cercet	-11.8858
▁islam	-11.8923
▁front	-11.8938
▁rămâ	-11.8944
▁inițiat	-11.897
▁Sahar	-11.8977
▁Obiect	-11.898
▁zdrob	-11.898
▁răsplăt	-11.898
▁supravietui	-11.898
imbabw	-11.898
▁Biseric	-11.898
▁Jersey	-11.898
▁Sylvi	-11.898
▁biblioteci	-11.898
▁cetățean	-11.898
▁cotidian	-11.898
▁drojdi	-11.898
▁esential	-11.898
▁grămezi	-11.898
▁instrucțiuni	-11.898
▁navighez	-11.898
▁obscur	-11.898
▁rapoarte	-11.898
▁umbla	-11.898
▁îndepărtă	-11.898
▁Audienţ	-11.898
▁analitic	-11.898
▁cilindru	-11.898
▁populații	-11.898
▁tulpin	-11.898
▁cafenea	-11.898
▁uragan	-11.898
▁ruşine	-11.898
▁reactiv	-11.898
▁ataşat	-11.898
▁revede	-11.898
▁desprind	-11.898
▁Membr	-11.898
▁licenț	-11.898
▁generozitate	-11.898
▁reunit	-11.8981
▁simetrii	-11.8981
▁stadii	-11.8981
▁riguro	-11.8981
▁strălucitor	-11.8981
▁locuieșt	-11.8984
▁surd	-11.8999
▁preciz	-11.9009
▁munto	-11.9034
▁exclu	-11.9039
▁sponsoriz	-11.9044
corp	-11.9071
▁caracteriz	-11.91
definit	-11.9141
african	-11.9141
▁sesiune	-11.9149
▁vitr	-11.9207
▁îngrij	-11.9208
portunit	-11.9218
▁cunoști	-11.9263
▁sfârș	-11.9289
▁Bibliotec	-11.9292
▁îmbogăț	-11.9292
▁Director	-11.9292
▁Indonezia	-11.9292
▁Jupiter	-11.9292
▁Oklahom	-11.9292
▁Philadelphi	-11.9292
▁Reporter	-11.9292
▁abundenţ	-11.9292
▁analfabe	-11.9292
▁artefact	-11.9292
▁baschet	-11.9292
▁circumstanțe	-11.9292
▁cosmologi	-11.9292
▁dezordine	-11.9292
▁excursie	-11.9292
▁infiltr	-11.9292
▁perpetu	-11.9292
▁rezoluţi	-11.9292
▁sanatos	-11.9292
▁surplus	-11.9292
▁terifiant	-11.9292
▁trofic	-11.9292
▁vegetal	-11.9292
▁secțiune	-11.9292
▁națiune	-11.9292
▁încrederi	-11.9292
▁canapea	-11.9292
▁ARN	-11.9292
▁Irland	-11.9292
▁adeziv	-11.9292
▁intercept	-11.9292
▁aeronav	-11.9292
▁muzee	-11.9292
▁constructor	-11.9292
▁distracţi	-11.9292
▁Louis	-11.9292
▁treburi	-11.9292
▁Alpha	-11.9292
▁ușurinț	-11.9292
▁animaţie	-11.9292
▁curăţă	-11.9292
▁vierme	-11.9293
▁national	-11.9293
▁distracți	-11.9293
▁halucinaţii	-11.9293
▁blocheaz	-11.9293
▁Libia	-11.9293
▁Naţiunil	-11.9293
▁Saudit	-11.9294
▁sintez	-11.9294
▁mizeri	-11.9294
▁machet	-11.9295
▁South	-11.9295
▁auditoriu	-11.9295
▁sediment	-11.9296
▁Urmeaz	-11.9309
▁conspir	-11.931
▁Californi	-11.9338
depărtează	-11.9358
Prince	-11.9393
cunoscut	-11.9429
▁cunoştinţ	-11.9497
▁activeaz	-11.9501
▁meniu	-11.9555
▁citeşt	-11.961
ollywood	-11.9614
▁Atlanta	-11.9615
▁CMU	-11.9615
▁Nathan	-11.9615
▁capodoper	-11.9615
▁coliziune	-11.9615
▁contribuţi	-11.9615
▁glaciar	-11.9615
▁indirect	-11.9615
▁informațional	-11.9615
▁kilometru	-11.9615
▁neajutora	-11.9615
▁orfelinat	-11.9615
▁sovietic	-11.9615
▁suveran	-11.9615
▁sănătoşi	-11.9615
▁transparenţ	-11.9615
▁despărți	-11.9615
▁libelule	-11.9615
▁prelegeri	-11.9615
▁restricți	-11.9615
▁tactil	-11.9615
▁incuraj	-11.9615
▁inferioar	-11.9615
▁Școal	-11.9615
▁plăceri	-11.9615
▁comenzi	-11.9615
▁orfan	-11.9615
▁compartiment	-11.9615
▁gemeni	-11.9615
▁Asculta	-11.9615
▁înghiți	-11.9615
▁stadion	-11.9615
▁neatins	-11.9615
▁regenerabilă	-11.9615
▁Blue	-11.9615
▁nepotrivit	-11.9615
▁Daniel	-11.9615
▁amplas	-11.9615
▁miniatur	-11.9615
▁salveaz	-11.9616
▁tanar	-11.9616
▁mandat	-11.9616
▁împerechere	-11.9617
▁limpe	-11.9618
▁sanitar	-11.9618
▁scoic	-11.9619
▁împăca	-11.9622
▁eronat	-11.9622
▁melc	-11.9622
▁roag	-11.9622
▁miceliu	-11.9622
▁ancor	-11.9625
corn	-11.9704
▁întâlneșt	-11.9778
științ	-11.9804
▁sponsor	-11.9877
preşedinte	-11.9897
▁munceasc	-11.992
▁sfârş	-11.9945
▁Afghanistan	-11.9948
▁Argentin	-11.9948
▁Importan	-11.9948
▁Incredibil	-11.9948
▁Joseph	-11.9948
▁atribut	-11.9948
▁biodiversită	-11.9948
▁cărămizi	-11.9948
▁declanșeaz	-11.9948
▁dizolv	-11.9948
▁glucoz	-11.9948
▁inacceptabil	-11.9948
▁instrucţiuni	-11.9948
▁jazz	-11.9948
▁metabolic	-11.9948
▁oglinzi	-11.9948
▁sinapse	-11.9948
▁vertebr	-11.9948
▁înfățiș	-11.9948
▁Olimpiad	-11.9948
▁arbitrar	-11.9948
▁cladiri	-11.9948
▁etanol	-11.9948
▁identităţi	-11.9948
▁paznic	-11.9948
▁revoltă	-11.9948
▁smartphone	-11.9948
▁împușca	-11.9948
▁Alaska	-11.9948
▁bomboan	-11.9948
▁ecologie	-11.9948
▁traditi	-11.9948
▁învechit	-11.9948
▁Larry	-11.9948
▁enigm	-11.9948
▁Johnny	-11.9948
▁incidenţ	-11.9948
▁Academi	-11.9948
▁uimire	-11.9948
▁Fried	-11.9948
▁imigranți	-11.9948
▁prematur	-11.9948
▁Wood	-11.9948
▁Iisus	-11.9948
▁constient	-11.9948
▁bomba	-11.9948
▁Extrem	-11.9948
▁index	-11.9949
▁miraculo	-11.9949
▁răsuci	-11.995
▁partitur	-11.9951
▁Urmăr	-11.9954
▁fiscal	-11.9958
▁valorific	-11.9964
▁trezeșt	-11.9996
▁dumneavoastr	-12.0081
cţionează	-12.0092
ncerc	-12.0162
▁încorpor	-12.0178
▁încântă	-12.0214
▁iniţiat	-12.0286
▁moşten	-12.0288
rozav	-12.0291
▁anotimp	-12.0293
născuți	-12.0293
▁CEO	-12.0293
▁Concluzi	-12.0293
▁Danemarc	-12.0293
▁Elizabet	-12.0293
▁afecţiuni	-12.0293
▁amănunt	-12.0293
▁bonobo	-12.0293
▁ceremonie	-12.0293
▁cimpanzeu	-12.0293
▁compact	-12.0293
▁cunoştea	-12.0293
▁dizabilitate	-12.0293
▁ecologist	-12.0293
▁enciclopedi	-12.0293
▁etichetă	-12.0293
▁legislaţi	-12.0293
▁neîncreder	-12.0293
▁pulmonar	-12.0293
▁reproiect	-12.0293
▁revelaţie	-12.0293
▁revolta	-12.0293
▁răzbun	-12.0293
▁Depinde	-12.0293
▁adresez	-12.0293
▁catalizator	-12.0293
▁iPad	-12.0293
▁rezervor	-12.0293
▁Părinţi	-12.0293
▁biosfer	-12.0293
▁infirm	-12.0293
▁radioactiv	-12.0293
▁uşurinţ	-12.0293
▁persever	-12.0293
▁jungl	-12.0293
▁nevăzut	-12.0293
▁tribunal	-12.0293
▁înrudit	-12.0293
▁Informați	-12.0293
▁anormal	-12.0293
▁bătăi	-12.0293
▁ucigaș	-12.0293
▁comedie	-12.0293
▁înfiorăto	-12.0293
▁dezacord	-12.0293
▁timid	-12.0293
▁Michel	-12.0293
▁turbin	-12.0293
▁estimări	-12.0293
▁diamant	-12.0293
▁gramad	-12.0293
▁prefac	-12.0293
▁Analiz	-12.0294
▁Material	-12.0294
▁Exempl	-12.0294
▁investeasc	-12.0294
▁Întregul	-12.0294
▁descarc	-12.0295
▁trăd	-12.0295
▁repetitiv	-12.0295
▁Nair	-12.0296
efferson	-12.0297
▁decalaj	-12.0298
▁Funcţion	-12.0299
▁deteriorat	-12.03
▁Jocuril	-12.0303
▁prelucr	-12.0306
▁isteț	-12.031
călugăriţ	-12.0316
▁drive	-12.0319
▁depărt	-12.0328
▁naib	-12.0375
▁gheaț	-12.0437
▁fascina	-12.0486
▁reuşeşt	-12.0495
negru	-12.0499
▁halucin	-12.0649
▁CRISPR	-12.065
▁Cunoaște	-12.065
▁Deschide	-12.065
▁Murmur	-12.065
▁cadavre	-12.065
▁certitudine	-12.065
▁desfăşoar	-12.065
▁electromagnetic	-12.065
▁extratereștri	-12.065
▁infarct	-12.065
▁logistic	-12.065
▁nefolosit	-12.065
▁reconcili	-12.065
▁retrospectiv	-12.065
▁rugăciuni	-12.065
▁suprafata	-12.065
▁înfricoşăto	-12.065
▁şobolan	-12.065
▁FBI	-12.065
▁Revoluţi	-12.065
▁dubleaz	-12.065
▁gelozi	-12.065
▁ingrijor	-12.065
▁penicilin	-12.065
▁privilegiat	-12.065
▁revendic	-12.065
▁Natash	-12.065
▁Sănătă	-12.065
▁Tunisi	-12.065
▁iubeşt	-12.065
▁mărfuri	-12.065
▁scazut	-12.065
▁catedral	-12.065
▁sufoc	-12.065
▁2.5	-12.065
▁gramatic	-12.065
▁recenzi	-12.065
▁coerent	-12.065
▁delicioas	-12.065
▁narativ	-12.065
▁inauntru	-12.065
▁concura	-12.065
▁Perfec	-12.065
▁High	-12.065
▁Părinți	-12.065
▁contradicţi	-12.065
▁prelungi	-12.065
▁formulă	-12.065
▁Mesaj	-12.0651
▁Cunosc	-12.0651
▁crater	-12.0651
▁Sisteme	-12.0651
▁nepoat	-12.0654
▁centrat	-12.0655
▁otrav	-12.0675
▁trezeşt	-12.0725
▁automatiza	-12.0729
disciplinar	-12.0756
▁perfecți	-12.0765
▁Misiune	-12.0859
▁plăteșt	-12.0865
guvernamental	-12.0869
▁actualiz	-12.0897
▁porneșt	-12.0918
▁2.0	-12.092
▁fierbin	-12.101
▁Bosnia	-12.102
▁Georgia	-12.102
▁Namibia	-12.102
▁Particip	-12.102
▁RIS	-12.102
▁afecțiuni	-12.102
▁alpinişti	-12.102
▁constituți	-12.102
▁corporatist	-12.102
▁fabuloas	-12.102
▁genealogic	-12.102
▁imprevizibil	-12.102
▁nutrienţi	-12.102
▁nutrienți	-12.102
▁paralizie	-12.102
▁reabilitare	-12.102
▁recuperez	-12.102
▁sandvici	-12.102
▁scântei	-12.102
▁secvenţa	-12.102
▁supraveghea	-12.102
▁virtute	-12.102
▁îmbrăcăminte	-12.102
VIII	-12.102
saharian	-12.102
▁Amsterdam	-12.102
▁Pittsburgh	-12.102
▁Sydney	-12.102
▁competenţ	-12.102
▁corporaţii	-12.102
▁crocodil	-12.102
▁instructor	-12.102
▁nimerit	-12.102
▁poștal	-12.102
▁predictibil	-12.102
▁recensământ	-12.102
▁suedez	-12.102
▁terapeu	-12.102
▁victorie	-12.102
▁rabin	-12.102
iribati	-12.102
▁dictator	-12.102
▁toamna	-12.102
▁viruşi	-12.102
▁indigen	-12.102
▁dăunător	-12.102
▁izvor	-12.1021
▁iceberg	-12.1021
▁pronunț	-12.1021
▁budist	-12.1021
▁Cameron	-12.1021
▁Obiectivel	-12.1021
▁Partidul	-12.1021
▁străinătate	-12.1021
▁solemn	-12.1021
▁iranien	-12.1021
ISA	-12.1021
▁nectar	-12.1021
▁secvent	-12.1021
▁contempl	-12.1021
▁licenţ	-12.1021
▁tomograf	-12.1021
▁absenț	-12.1021
▁toleranț	-12.1022
▁Biroul	-12.1023
▁economiseasc	-12.1024
▁transmiț	-12.1024
▁reziduuri	-12.1024
▁tapir	-12.1037
▁agăţ	-12.1039
▁Regatul	-12.1046
▁incomplet	-12.1094
▁osoas	-12.1153
cifră	-12.1257
▁monitor	-12.135
▁incluz	-12.138
%	-15.9415
!	-15.9416
♫	-15.9417
”	-15.9418
Î	-15.9419
)	-15.942
—	-15.9421
Ş	-15.9422
:	-15.9423
?	-15.9424
&	-15.9425
Ș	-15.9425
