<unk>	0
<s>	0
</s>	0
▁,	-2.81266
▁.	-3.23476
е	-3.74207
▁	-3.8597
и	-3.86431
▁в	-4.07103
а	-4.19171
▁и	-4.20483
й	-4.49839
▁что	-4.57536
м	-4.58209
▁на	-4.68316
▁не	-4.69642
ы	-4.76229
х	-4.7886
▁с	-4.83143
у	-4.90893
я	-5.04315
▁это	-5.07484
▁я	-5.13042
▁мы	-5.24307
ть	-5.28693
-	-5.33794
ся	-5.36002
т	-5.36203
о	-5.39224
ов	-5.40139
▁по	-5.40328
▁как	-5.45807
▁И	-5.53265
;	-5.59794
▁:	-5.6038
▁—	-5.60569
▁вы	-5.65616
ю	-5.65812
▁&	-5.68
ot	-5.68838
го	-5.69184
qu	-5.69358
▁из	-5.70314
▁?	-5.71884
▁Я	-5.76234
▁у	-5.77624
▁за	-5.78191
ом	-5.79745
▁к	-5.80475
▁о	-5.81052
▁Это	-5.89047
ой	-5.96652
в	-5.97922
ли	-5.98749
«	-5.99223
▁»	-6.00037
▁для	-6.00095
▁от	-6.02808
то	-6.03918
▁то	-6.09265
▁В	-6.09933
▁они	-6.12072
▁)	-6.14526
(	-6.14635
▁так	-6.20069
▁но	-6.21183
▁Но	-6.24691
▁все	-6.24719
с	-6.25068
ая	-6.2585
▁бы	-6.27838
▁Мы	-6.28322
ую	-6.28496
ми	-6.28657
▁чтобы	-6.30517
ет	-6.3096
ем	-6.31327
▁был	-6.319
ь	-6.34792
л	-6.39969
▁а	-6.4197
▁он	-6.42681
▁когда	-6.42764
▁же	-6.42771
з	-6.46613
д	-6.47004
▁или	-6.4852
▁их	-6.50837
▁эти	-6.51624
▁С	-6.51795
▁было	-6.52063
ей	-6.53405
▁есть	-6.53729
▁если	-6.54696
▁до	-6.54986
▁А	-6.55167
ами	-6.55243
но	-6.56429
▁нас	-6.56479
▁меня	-6.57135
▁очень	-6.57187
▁которые	-6.58306
ла	-6.62286
▁его	-6.62813
▁при	-6.63909
▁может	-6.66098
ка	-6.69934
▁Он	-6.70855
ться	-6.73316
▁том	-6.74876
▁мне	-6.75668
▁лет	-6.77361
▁раз	-6.77481
▁-	-6.78437
на	-6.79817
к	-6.81359
▁об	-6.81856
▁всё	-6.82907
▁только	-6.8465
ло	-6.84818
ют	-6.85827
▁Смех	-6.87211
ки	-6.8819
ст	-6.92166
те	-6.9386
▁про	-6.93916
п	-6.93969
▁под	-6.94594
▁вам	-6.94679
▁У	-6.95619
лись	-6.95696
▁потому	-6.97099
▁нам	-6.97636
▁людей	-6.97717
▁чем	-6.97771
▁просто	-6.98162
▁того	-6.98212
▁больше	-6.98292
ах	-6.98392
▁быть	-6.99151
ется	-7.00077
▁со	-7.00633
н	-7.02194
ен	-7.03612
▁она	-7.03876
ого	-7.0437
▁На	-7.05353
ных	-7.06251
▁этого	-7.06882
▁Так	-7.0778
▁Они	-7.09774
р	-7.10629
▁ли	-7.12256
их	-7.12381
▁который	-7.12557
ные	-7.1342
▁этом	-7.15546
ра	-7.15586
▁друг	-7.16102
▁вот	-7.16164
▁где	-7.1626
▁можно	-7.16363
му	-7.16461
▁будет	-7.17817
▁время	-7.18266
ок	-7.18498
ни	-7.19861
▁люди	-7.20592
▁более	-7.21153
ной	-7.21285
▁Вы	-7.2144
▁вас	-7.21462
▁была	-7.21498
▁ещё	-7.22793
чи	-7.24566
за	-7.25249
▁Если	-7.25642
▁них	-7.27113
▁во	-7.27287
.	-7.27823
▁которо	-7.2798
▁много	-7.28462
▁–	-7.29101
г	-7.29235
▁Как	-7.29997
да	-7.3004
▁её	-7.30413
▁этот	-7.30433
ются	-7.31423
▁Вот	-7.31923
▁♫	-7.32441
▁К	-7.33313
сти	-7.33508
та	-7.34574
ная	-7.34588
ых	-7.36829
лось	-7.37497
▁Аплодисменты	-7.37713
ный	-7.378
ку	-7.3852
▁тем	-7.38755
▁уже	-7.39505
ко	-7.39732
▁даже	-7.40043
▁нужно	-7.40216
▁сделать	-7.40648
ый	-7.40896
▁По	-7.41867
ти	-7.43119
▁кто	-7.44535
▁здесь	-7.45359
▁жизни	-7.45451
▁можем	-7.46072
ё	-7.46778
▁этой	-7.47254
же	-7.4794
сь	-7.48389
▁один	-7.4928
▁свое	-7.49329
▁всего	-7.49576
▁нет	-7.50314
лась	-7.51263
ную	-7.51309
▁себя	-7.51314
▁сейчас	-7.52174
ж	-7.52288
ч	-7.53486
б	-7.54009
▁Не	-7.54527
лся	-7.54937
▁также	-7.55214
▁пере	-7.55277
▁вопрос	-7.56228
▁сказал	-7.58028
▁которая	-7.58682
ного	-7.58765
▁Что	-7.59843
ль	-7.60614
▁!	-7.60951
▁самом	-7.60971
ру	-7.61213
▁могут	-7.62629
▁думаю	-7.63302
▁должны	-7.63402
ди	-7.63584
ния	-7.65223
▁Когда	-7.65372
ва	-7.65655
ны	-7.66341
ля	-7.66617
▁мир	-7.67464
▁деле	-7.67908
▁там	-7.69213
ш	-7.6946
▁Да	-7.70343
▁мое	-7.70613
▁свои	-7.72537
сть	-7.72703
ри	-7.73581
▁назад	-7.73856
▁эту	-7.7432
хочу	-7.75315
▁да	-7.75454
га	-7.75755
▁пол	-7.75899
ле	-7.75963
▁само	-7.76598
▁ни	-7.76904
ма	-7.77035
▁этим	-7.77252
▁Итак	-7.77669
жи	-7.79648
▁через	-7.79695
▁...	-7.79699
ое	-7.80911
ф	-7.81719
▁те	-7.82525
▁ты	-7.82786
▁человек	-7.82795
▁созда	-7.83576
▁без	-7.83603
ным	-7.83874
▁себе	-7.84023
ши	-7.84025
▁котор	-7.84587
1	-7.85932
▁наш	-7.86143
▁эта	-7.86565
▁несколько	-7.87094
▁жизнь	-7.87372
ан	-7.87437
▁П	-7.87824
▁одна	-7.88197
▁делать	-7.882
вер	-7.88207
▁года	-7.88293
▁им	-7.88636
ре	-7.8896
▁после	-7.89021
он	-7.89049
▁Спасибо	-7.89678
▁То	-7.90034
▁лучше	-7.90368
▁которы	-7.91339
▁день	-7.91499
юсь	-7.91608
пример	-7.91649
▁О	-7.91653
ние	-7.91774
▁действительно	-7.92145
▁мире	-7.92492
e	-7.92694
ное	-7.9303
▁году	-7.93621
ду	-7.94337
тор	-7.95565
▁пример	-7.95601
▁времени	-7.95968
▁возможно	-7.96079
▁Д	-7.96712
до	-7.97405
▁происходит	-7.9864
ями	-7.98977
▁некоторы	-7.99115
не	-7.99299
▁между	-7.99329
▁над	-7.99591
ин	-7.99987
▁сегодня	-8.00714
ро	-8.00926
▁хотел	-8.01652
▁ко	-8.02614
▁знаю	-8.03625
▁момент	-8.04611
▁год	-8.04882
▁способ	-8.04961
ци	-8.05041
▁Б	-8.05236
▁каждый	-8.05446
би	-8.05949
ты	-8.06101
▁10	-8.06545
▁тех	-8.07082
▁сказать	-8.07493
▁г	-8.0809
▁перед	-8.08228
ор	-8.08282
▁Е	-8.08569
ал	-8.08725
▁почему	-8.09127
▁два	-8.09541
че	-8.09759
▁видит	-8.0991
▁образо	-8.10005
▁являет	-8.1095
бо	-8.11254
по	-8.11642
▁именно	-8.11793
▁теперь	-8.12578
▁человека	-8.13102
▁детей	-8.13431
▁могли	-8.13607
▁всегда	-8.14597
▁Поэтому	-8.14781
▁нашей	-8.15512
▁часть	-8.15521
▁вместе	-8.15527
▁Р	-8.15656
▁никогда	-8.15723
тер	-8.15833
▁вид	-8.1759
жа	-8.18139
де	-8.18925
▁наши	-8.18926
▁три	-8.19158
▁будут	-8.1916
▁мои	-8.19164
▁использовать	-8.1947
ста	-8.19571
▁мой	-8.19596
▁стал	-8.19617
ча	-8.1974
ят	-8.198
ном	-8.19941
▁важно	-8.19976
либо	-8.20402
o	-8.2091
ски	-8.21332
▁тогда	-8.21451
ёт	-8.21508
вою	-8.2152
▁пока	-8.21696
▁тысяч	-8.22443
a	-8.22876
▁процесс	-8.2319
▁Мне	-8.23205
ешь	-8.236
еще	-8.23896
▁вещи	-8.24064
▁могу	-8.24273
▁такие	-8.24786
▁говорил	-8.24984
▁такой	-8.25121
▁ин	-8.25126
ну	-8.25161
ба	-8.25333
▁потом	-8.25644
▁друго	-8.25908
▁лишь	-8.25962
▁Одна	-8.26247
▁говоря	-8.27014
или	-8.27088
ту	-8.27856
▁М	-8.281
ще	-8.28515
▁проблем	-8.28735
тся	-8.28871
▁Все	-8.29091
▁Г	-8.2914
об	-8.29813
▁него	-8.29979
▁наших	-8.30012
па	-8.30334
▁немного	-8.30593
▁З	-8.30595
▁ничего	-8.30792
▁случае	-8.3082
▁20	-8.31396
ков	-8.31425
ными	-8.31497
▁тот	-8.31498
▁США	-8.31521
▁3	-8.31533
i	-8.31686
ке	-8.32
▁затем	-8.3228
▁таким	-8.323
ар	-8.32302
▁говорит	-8.32609
▁сам	-8.32711
▁Теперь	-8.33069
▁хорошо	-8.33374
▁последни	-8.33544
▁ним	-8.33871
▁мозг	-8.34063
▁За	-8.3439
▁конечно	-8.34467
ыми	-8.34623
▁понять	-8.35143
▁около	-8.35249
▁миллион	-8.35425
▁мира	-8.35506
знаем	-8.35586
▁первы	-8.35739
▁истории	-8.3578
мер	-8.3614
▁таких	-8.36171
емся	-8.36434
▁пор	-8.36691
лу	-8.37084
си	-8.37307
▁начал	-8.37381
▁пыта	-8.37749
▁знаете	-8.38009
ша	-8.38033
во	-8.3838
▁проблема	-8.38957
▁женщин	-8.39367
▁одной	-8.39391
▁проект	-8.39409
▁рас	-8.39643
ги	-8.39694
▁другие	-8.40085
▁результат	-8.40197
ож	-8.4066
▁поэтому	-8.40713
▁Э	-8.40903
ает	-8.40952
▁ответ	-8.40999
ил	-8.41215
▁чего	-8.41366
▁такое	-8.41503
▁долларов	-8.41521
▁место	-8.41642
ировать	-8.42049
▁оно	-8.42528
ности	-8.42595
s	-8.42967
▁идея	-8.43113
ющих	-8.43998
ство	-8.44167
▁000	-8.4442
▁&#9	-8.44472
са	-8.44519
▁ему	-8.44632
▁&#93;	-8.44639
▁одно	-8.44672
▁помощью	-8.44764
э	-8.44923
▁возможность	-8.45007
▁найти	-8.45193
▁ре	-8.45197
ально	-8.45297
▁Для	-8.45555
▁которым	-8.45597
▁проблемы	-8.45647
ически	-8.45814
▁наше	-8.45818
▁Во	-8.45829
▁работа	-8.45976
лен	-8.46072
ня	-8.46073
прав	-8.46105
снова	-8.46192
▁Ф	-8.47307
сколько	-8.47357
ком	-8.47432
ическ	-8.47451
▁Потому	-8.47669
▁свет	-8.47883
ров	-8.47915
▁мо	-8.47976
думать	-8.4799
про	-8.48115
▁мог	-8.48475
ение	-8.48651
▁голов	-8.48994
стро	-8.49102
▁пред	-8.49127
ения	-8.49224
али	-8.49701
ейчас	-8.50061
вать	-8.50098
ше	-8.50269
▁новы	-8.50336
▁работы	-8.50348
▁ш	-8.50962
ер	-8.51036
▁стать	-8.51225
▁б	-8.51283
▁работает	-8.51596
▁Почему	-8.51637
▁имеет	-8.51701
▁Мо	-8.51707
▁больш	-8.51857
▁Эти	-8.51983
ность	-8.51992
нибудь	-8.52445
▁;	-8.52966
▁ма	-8.53141
▁делает	-8.53416
▁форм	-8.53461
▁моя	-8.53574
▁значит	-8.53592
округ	-8.53808
▁данные	-8.539
должен	-8.53987
бы	-8.54107
▁дело	-8.54212
▁Нам	-8.54319
▁достаточно	-8.54331
▁Т	-8.54356
▁каждо	-8.54612
ости	-8.54873
▁течение	-8.54873
▁почти	-8.54912
▁пре	-8.55006
первы	-8.55088
▁смысл	-8.55106
▁ваш	-8.55587
ос	-8.55835
вы	-8.55896
▁увидеть	-8.55933
▁э	-8.5602
▁ее	-8.56098
▁основ	-8.56171
▁прямо	-8.56177
ём	-8.56245
ев	-8.56331
▁работать	-8.56403
▁надо	-8.56566
▁любо	-8.56799
▁свой	-8.56897
▁компьютер	-8.57222
вод	-8.57278
ясь	-8.57689
▁4	-8.57808
▁всем	-8.57825
▁технологии	-8.57981
кс	-8.57999
чь	-8.58012
▁количество	-8.58445
ры	-8.58696
▁занима	-8.58715
▁двух	-8.58819
дер	-8.58874
▁групп	-8.59428
ц	-8.59537
▁причин	-8.59964
▁многие	-8.60228
▁Давайте	-8.60336
▁видим	-8.60336
пл	-8.60343
▁мозга	-8.60394
▁кажет	-8.60526
▁работу	-8.60942
огда	-8.60995
▁другим	-8.61099
▁котором	-8.61272
▁какой	-8.61321
▁оста	-8.61435
▁При	-8.61622
▁весь	-8.61844
▁показать	-8.62106
▁2	-8.62213
бе	-8.6228
▁быстро	-8.62315
▁меньше	-8.624
▁вер	-8.62413
▁Х	-8.62568
▁ос	-8.62871
сс	-8.62957
тоже	-8.62971
дать	-8.63289
бер	-8.63493
▁часто	-8.63752
ющие	-8.63861
▁культур	-8.64175
▁стали	-8.64192
▁людям	-8.6441
▁па	-8.64538
лю	-8.64686
▁разны	-8.64958
▁5	-8.65315
ман	-8.66415
▁образ	-8.66649
▁собо	-8.66818
роде	-8.66878
▁Ну	-8.66984
стра	-8.67075
▁хотя	-8.67122
▁видео	-8.67227
▁система	-8.67594
▁изменить	-8.67622
▁всему	-8.67713
▁начали	-8.67866
▁семь	-8.67876
▁этому	-8.67913
▁Нет	-8.67964
ностью	-8.68048
▁ваше	-8.68063
▁Ш	-8.68084
▁слишком	-8.68244
тель	-8.6826
тельно	-8.68364
ость	-8.68385
▁план	-8.68479
▁совершенно	-8.68504
▁необходимо	-8.68861
пер	-8.69135
▁говорить	-8.69552
зи	-8.69704
▁своё	-8.69749
▁войн	-8.70011
▁две	-8.70034
лов	-8.70087
нию	-8.70201
▁одного	-8.70281
▁карт	-8.70457
▁совсем	-8.70706
▁30	-8.70887
ел	-8.70965
▁части	-8.71001
▁Про	-8.71062
▁закон	-8.7111
нии	-8.71123
▁тут	-8.71495
ол	-8.71656
▁примерно	-8.71681
род	-8.71913
▁ряд	-8.72125
▁узна	-8.72238
▁видеть	-8.72523
▁страны	-8.72611
▁системы	-8.72721
▁довольно	-8.73005
▁50	-8.73105
ник	-8.73262
ний	-8.73268
▁программ	-8.7369
▁ведь	-8.7373
десь	-8.73832
▁правд	-8.74367
бу	-8.74518
▁сделали	-8.74603
▁многих	-8.74681
▁миру	-8.74708
▁Эта	-8.7481
йти	-8.74819
▁своим	-8.75071
▁внимание	-8.75346
▁процент	-8.75763
▁перво	-8.7602
▁цен	-8.76121
2	-8.76261
лет	-8.7634
▁буду	-8.76374
▁та	-8.76473
▁19	-8.76528
овать	-8.76599
ён	-8.76723
▁де	-8.7687
кой	-8.76881
▁стран	-8.76967
▁конце	-8.7698
йте	-8.77191
▁Ма	-8.77215
▁До	-8.77253
ают	-8.77368
▁должно	-8.77422
хотим	-8.77424
▁информации	-8.77484
c	-8.77518
▁подумал	-8.77771
▁Всё	-8.77772
ющий	-8.78049
▁история	-8.78254
▁эксперимент	-8.78735
▁существует	-8.79065
▁внутри	-8.79307
▁стоит	-8.79362
▁оказа	-8.79377
бл	-8.79406
▁Америк	-8.79647
▁делают	-8.7966
бр	-8.79681
▁дома	-8.79745
столько	-8.79945
место	-8.80089
▁новые	-8.80339
означает	-8.80439
▁различны	-8.80601
▁минут	-8.80704
▁п	-8.80741
▁работал	-8.80789
▁получить	-8.80952
▁обычно	-8.81027
▁точно	-8.81077
▁стороны	-8.81112
▁экономик	-8.81439
▁100	-8.81829
▁особенно	-8.81868
▁сделал	-8.82069
▁бо	-8.82169
▁рост	-8.82336
▁слова	-8.82374
▁телефон	-8.82533
смотреть	-8.8254
уп	-8.82541
▁исследования	-8.82585
вал	-8.82629
чен	-8.8271
ды	-8.82735
▁факт	-8.82833
▁Нью	-8.82903
▁находит	-8.8325
вор	-8.83327
▁сами	-8.83494
▁самых	-8.83811
▁против	-8.83931
▁энергии	-8.83949
▁решения	-8.8406
▁начала	-8.84241
▁сильно	-8.84312
▁хороши	-8.84329
▁гор	-8.84359
▁рассказать	-8.84381
▁Ес	-8.8445
ска	-8.84571
нес	-8.84673
▁данных	-8.84823
су	-8.84898
▁интересно	-8.85158
ите	-8.85427
▁дети	-8.85602
▁историю	-8.85603
ик	-8.85655
▁людьми	-8.8575
▁интерес	-8.85792
▁технологи	-8.86281
▁Сегодня	-8.86381
▁уда	-8.864
жды	-8.86474
менее	-8.8692
▁Люд	-8.87062
▁TED	-8.87144
▁кон	-8.87201
вести	-8.87297
▁ген	-8.87439
▁всю	-8.87476
ца	-8.877
▁никак	-8.87856
▁одну	-8.87914
▁наде	-8.87917
▁важны	-8.88203
пу	-8.88326
▁звук	-8.88482
▁материал	-8.88591
▁выбор	-8.88599
вид	-8.88738
t	-8.88818
▁планет	-8.88843
▁сложно	-8.89185
▁1	-8.89232
▁Мож	-8.89349
ской	-8.89503
▁города	-8.89596
тесь	-8.89733
ща	-8.89846
кр	-8.89988
ции	-8.90145
▁становит	-8.90237
▁называет	-8.90373
▁метод	-8.90389
5	-8.90532
пол	-8.90557
▁чём	-8.90917
▁увидел	-8.9105
▁уверен	-8.91248
▁места	-8.91308
▁постоянно	-8.91413
▁15	-8.91511
▁фильм	-8.91849
пад	-8.91851
0	-8.92048
раз	-8.92133
▁изменения	-8.92378
ирует	-8.92485
▁следующи	-8.92503
▁большой	-8.92641
ден	-8.9272
▁компании	-8.92733
7	-8.92826
спе	-8.92887
▁сред	-8.92906
вают	-8.9295
▁деньги	-8.9299
со	-8.93043
y	-8.93059
▁перв	-8.93216
ью	-8.93254
p	-8.93413
нуть	-8.93582
▁Конечн	-8.93768
▁представить	-8.93793
▁ново	-8.93891
▁Л	-8.93915
▁ф	-8.9408
ур	-8.94222
▁благодаря	-8.94276
▁структур	-8.94524
▁цвет	-8.94599
три	-8.94646
▁кого	-8.94892
▁зрения	-8.95111
▁ник	-8.95178
▁дела	-8.95233
▁воды	-8.95369
ус	-8.95672
▁возможности	-8.95908
▁создал	-8.9592
▁точки	-8.95947
▁помоч	-8.95962
▁город	-8.96022
▁понял	-8.96231
▁доступ	-8.9627
цы	-8.96273
▁иметь	-8.96415
ец	-8.96462
нее	-8.9657
▁начинает	-8.96747
тельны	-8.96843
▁будем	-8.96846
▁обо	-8.96875
▁мере	-8.9698
бра	-8.97268
▁говорю	-8.97348
▁начать	-8.97368
▁опыт	-8.9737
▁такого	-8.97493
▁стало	-8.97588
▁Таким	-8.97786
▁горазд	-8.97915
лы	-8.97954
▁буд	-8.98068
аль	-8.98212
вали	-8.9839
вая	-8.98672
▁решение	-8.99048
▁сможем	-8.99058
▁язык	-8.99198
▁мест	-8.9928
ран	-8.99483
це	-8.99538
▁должна	-8.99635
▁женщины	-8.99753
▁област	-8.99915
▁множество	-8.99953
▁информацию	-8.99961
▁вещей	-8.99986
чно	-8.99987
тан	-9.00059
С	-9.00079
гра	-9.00173
нные	-9.0065
▁принцип	-9.00653
▁инструмент	-9.00783
пис	-9.00853
при	-9.01067
▁большинство	-9.01286
▁мной	-9.01371
оз	-9.01554
стан	-9.01671
▁друга	-9.01786
▁спасибо	-9.01828
▁идеи	-9.0191
шего	-9.02034
▁подход	-9.02068
ъ	-9.02111
▁центр	-9.02309
▁спросил	-9.02371
нь	-9.02372
▁работаю	-9.02575
▁Может	-9.02662
▁От	-9.02784
▁выглядит	-9.03139
▁класс	-9.03148
▁сказала	-9.03332
▁туда	-9.03339
▁систему	-9.0342
рон	-9.0345
▁размер	-9.03687
К	-9.03784
▁четыре	-9.03832
▁дом	-9.04173
▁нов	-9.04179
▁жить	-9.04299
дж	-9.04427
▁Ко	-9.04455
тр	-9.04527
кра	-9.04703
▁нашем	-9.04772
▁сможет	-9.04829
дут	-9.04834
▁самы	-9.04872
▁C	-9.05005
▁нечто	-9.05019
▁Ка	-9.0502
▁взять	-9.0504
▁слово	-9.05115
▁куда	-9.05155
▁помощ	-9.05258
▁намного	-9.05278
▁вообще	-9.05287
▁взгляд	-9.05288
▁риск	-9.05308
вляются	-9.05368
▁бизнес	-9.05412
▁Инди	-9.0555
▁сколько	-9.05662
▁раньше	-9.05901
▁Со	-9.05903
ёр	-9.05918
менно	-9.06076
▁клетки	-9.0627
▁стране	-9.06301
чу	-9.06372
▁Об	-9.06454
▁приходит	-9.06794
▁т	-9.06831
▁странах	-9.06874
ского	-9.06975
▁нужны	-9.07146
▁цел	-9.07195
▁нравит	-9.07202
ства	-9.0726
▁Ин	-9.07285
▁знал	-9.07333
шу	-9.07468
▁океан	-9.07472
▁делаем	-9.07492
▁считаю	-9.07512
▁суд	-9.07662
▁орган	-9.07696
▁прав	-9.07841
▁имеют	-9.07841
▁произошло	-9.07871
▁ж	-9.08026
▁Хорошо	-9.08028
▁мало	-9.08347
▁систем	-9.08348
er	-9.08441
▁лучши	-9.08454
▁ту	-9.08478
▁ресурс	-9.08712
4	-9.08957
▁воз	-9.09095
▁слышал	-9.09191
смотря	-9.09235
▁название	-9.09571
▁труд	-9.09761
▁второ	-9.09844
▁подобны	-9.09862
▁моё	-9.10068
d	-9.10203
дальше	-9.10211
бор	-9.10212
▁смерт	-9.10334
дел	-9.10564
ления	-9.1075
гу	-9.10919
▁6	-9.10924
вой	-9.10932
разу	-9.10938
▁другом	-9.11044
ятся	-9.11091
хотите	-9.11096
тебя	-9.11178
гл	-9.11487
▁Или	-9.1154
▁месте	-9.11831
▁итог	-9.1185
▁40	-9.11896
▁пути	-9.11922
▁источник	-9.12094
кон	-9.12131
▁собственно	-9.1222
▁машин	-9.12403
▁кра	-9.12425
▁защит	-9.12431
▁Кто	-9.12556
▁ваши	-9.12659
▁огромны	-9.12731
▁Дж	-9.1274
▁равно	-9.12751
нд	-9.12859
▁тво	-9.1287
▁интернет	-9.12916
▁модель	-9.12919
▁Зате	-9.1302
▁какие	-9.1306
▁S	-9.13065
ель	-9.13074
ский	-9.13075
▁уровень	-9.1311
▁Те	-9.13251
▁месяцев	-9.13263
▁шаг	-9.13458
▁называем	-9.13459
9	-9.13464
фи	-9.13671
▁дня	-9.13752
▁Из	-9.13858
▁высоко	-9.13913
▁задач	-9.13998
▁ста	-9.14033
▁страх	-9.1411
▁смогл	-9.1416
▁глаза	-9.1444
▁голос	-9.1447
▁ответил	-9.14489
▁зале	-9.14508
▁спустя	-9.14581
ря	-9.14693
▁социальны	-9.14751
ками	-9.14775
8	-9.14784
▁лаборатори	-9.14918
вин	-9.14964
нос	-9.14968
l	-9.152
▁период	-9.15255
▁имею	-9.15284
▁пар	-9.15326
▁стен	-9.15478
▁долго	-9.15672
▁видели	-9.15763
▁Возможно	-9.15764
▁человеческо	-9.16037
нной	-9.16162
▁пару	-9.16284
овые	-9.16393
▁нами	-9.16411
▁крайне	-9.16451
▁невероятно	-9.16467
▁плохо	-9.1647
6	-9.16482
▁кажд	-9.16489
лён	-9.16584
▁Ро	-9.16678
▁думал	-9.16686
дин	-9.16703
оп	-9.16788
▁18	-9.16804
нная	-9.16847
ственн	-9.16884
▁большое	-9.16886
▁появи	-9.16927
▁животных	-9.16961
▁легко	-9.16961
▁8	-9.17172
u	-9.17175
▁организм	-9.17198
▁ед	-9.17621
▁вопросы	-9.17625
▁женщина	-9.17662
3	-9.1798
▁секунд	-9.18171
▁появля	-9.18185
щих	-9.18222
▁дерев	-9.18251
ится	-9.18357
▁огромно	-9.18518
▁Ты	-9.1857
▁эффект	-9.18598
образ	-9.18606
▁самым	-9.18615
▁среди	-9.18639
▁думает	-9.18646
▁собственны	-9.18701
▁пять	-9.189
фор	-9.18926
▁сил	-9.19004
▁уровне	-9.19107
стер	-9.19194
▁правильно	-9.19225
▁Тогда	-9.19257
говорим	-9.19373
▁тела	-9.19448
изм	-9.19511
ели	-9.19518
что	-9.1955
▁ДНК	-9.19574
▁вещь	-9.19751
▁После	-9.19844
▁населения	-9.19931
▁школ	-9.20093
ставить	-9.20165
▁готов	-9.20264
▁денег	-9.20282
▁свобод	-9.20325
ряд	-9.20374
▁маленьки	-9.20376
▁каким	-9.20526
стати	-9.20539
▁зна	-9.20651
ек	-9.20728
▁рода	-9.20737
▁знать	-9.20789
g	-9.20925
▁Интернет	-9.20996
n	-9.21138
▁будущем	-9.21363
ческо	-9.21429
▁создания	-9.21497
▁Ли	-9.21714
▁решили	-9.21865
▁одним	-9.219
нг	-9.21918
▁P	-9.2194
▁решил	-9.2214
альны	-9.22222
кор	-9.22372
ление	-9.22633
▁стол	-9.22746
льзя	-9.22808
▁общества	-9.22926
▁вес	-9.23057
▁развития	-9.23252
▁Один	-9.23392
кладыва	-9.23518
А	-9.23766
▁Африке	-9.24002
▁волн	-9.24053
▁давайте	-9.24087
▁политик	-9.24214
▁наконец	-9.24272
▁прошлом	-9.24339
▁нашим	-9.24454
нных	-9.24636
ак	-9.24687
▁кое	-9.2479
▁оп	-9.25016
▁доход	-9.25066
нет	-9.25168
ющая	-9.25369
▁число	-9.25388
▁получил	-9.25522
▁видел	-9.2555
▁врач	-9.25561
щ	-9.25563
щие	-9.25577
▁вирус	-9.25594
▁нескольки	-9.25608
▁используют	-9.25662
▁дизайн	-9.25788
рос	-9.25842
▁будущее	-9.25952
тически	-9.25998
▁сама	-9.26294
ог	-9.26294
сон	-9.26622
чер	-9.26821
лин	-9.26859
▁ди	-9.26911
щи	-9.26996
▁абсолютно	-9.27137
▁миллиардов	-9.2717
▁идёт	-9.27284
▁Большо	-9.27349
▁демократи	-9.27445
▁путь	-9.2763
начала	-9.27677
инг	-9.27927
ина	-9.27953
▁связи	-9.28145
▁Там	-9.28327
нер	-9.28351
▁сотн	-9.2858
стью	-9.28592
пит	-9.28601
I	-9.28653
▁качестве	-9.28691
ис	-9.2871
▁Представь	-9.28814
▁часов	-9.28858
▁связан	-9.29004
▁отношения	-9.29099
Р	-9.29099
▁прос	-9.29201
ника	-9.2924
▁использовани	-9.29254
▁полно	-9.2934
нём	-9.2958
▁работе	-9.29626
▁пе	-9.29734
ющей	-9.29796
▁сети	-9.2987
▁Некоторы	-9.29982
▁используем	-9.29982
▁частью	-9.30072
ижу	-9.3022
▁собира	-9.30255
друг	-9.3026
ция	-9.30348
▁климат	-9.30353
▁такая	-9.30355
чет	-9.30465
▁наибол	-9.30545
вших	-9.3084
▁ей	-9.31051
могла	-9.31088
ённы	-9.31089
цен	-9.31329
▁Музыка	-9.31363
r	-9.31407
▁дней	-9.3141
она	-9.31575
▁сме	-9.31598
▁руки	-9.3167
▁обратно	-9.31698
▁Ле	-9.31761
▁использует	-9.31761
▁трудно	-9.31894
▁Кажды	-9.31933
▁круг	-9.32029
▁M	-9.32034
жда	-9.32125
▁эволюци	-9.32153
▁состоит	-9.32189
▁одном	-9.32454
▁дел	-9.32458
▁кор	-9.32461
▁скоре	-9.32474
▁сигнал	-9.32562
▁предмет	-9.32567
▁знает	-9.3261
▁сут	-9.32619
▁разговор	-9.32777
▁9	-9.32796
▁право	-9.32811
ивает	-9.33105
нимать	-9.33147
▁Наш	-9.33156
▁известно	-9.33177
рез	-9.33379
▁200	-9.33486
▁Ре	-9.33562
▁масштаб	-9.33589
▁проб	-9.33611
▁A	-9.33685
b	-9.33749
▁бес	-9.33776
ому	-9.34074
▁чувство	-9.34155
▁знали	-9.34159
▁борьб	-9.34185
▁позволяет	-9.34386
хотят	-9.34431
ван	-9.34511
нное	-9.34577
▁невозможно	-9.34592
▁матери	-9.34755
▁машины	-9.34841
сход	-9.34896
▁создавать	-9.35061
▁стар	-9.35182
▁Многи	-9.3521
D	-9.35388
▁пришлось	-9.35641
ходят	-9.35829
▁7	-9.36179
ун	-9.36198
▁картин	-9.36574
k	-9.36655
нный	-9.36886
▁банк	-9.36935
ируют	-9.37031
ско	-9.37144
▁похоже	-9.37185
▁зон	-9.37237
ству	-9.37409
▁12	-9.37417
▁видов	-9.37451
▁границ	-9.37462
шла	-9.37493
▁остальны	-9.37728
▁Ч	-9.3778
ющее	-9.37873
▁фотографии	-9.37898
▁сфер	-9.37981
раж	-9.3802
М	-9.3812
▁мужчин	-9.38208
▁нейрон	-9.38235
▁био	-9.3833
▁домой	-9.38346
m	-9.38377
S	-9.38392
▁решить	-9.38399
▁образование	-9.38408
▁уме	-9.38449
▁написал	-9.38573
▁покажу	-9.3858
▁технология	-9.38621
▁молоды	-9.38637
ходить	-9.3864
▁протяжени	-9.38781
▁природ	-9.38788
▁сер	-9.38843
▁тело	-9.3889
▁I	-9.38959
шёл	-9.39006
▁станет	-9.39018
▁дале	-9.39054
рт	-9.39131
кры	-9.39327
▁след	-9.39407
▁настоящи	-9.39455
▁команд	-9.39462
▁права	-9.39563
▁типа	-9.39593
▁выше	-9.39602
▁заключается	-9.39674
ологи	-9.39756
▁доби	-9.39823
▁самые	-9.39834
▁Чтоб	-9.39849
▁здравоохранени	-9.39857
▁движение	-9.39888
▁сцен	-9.39938
ируем	-9.39955
▁поверхност	-9.40154
▁следует	-9.40292
тре	-9.40312
▁раздел	-9.40319
▁болезн	-9.40449
лей	-9.40534
▁вниз	-9.40606
▁вариант	-9.40725
▁Оно	-9.40764
ала	-9.40843
▁движения	-9.40892
▁времен	-9.40993
вет	-9.41055
▁бактери	-9.41163
A	-9.41247
▁вероятно	-9.41285
нести	-9.4134
▁удивительно	-9.41598
▁последне	-9.41623
▁соверш	-9.41756
ительны	-9.41802
▁практически	-9.41822
▁далеко	-9.41824
▁школу	-9.41859
▁речь	-9.42095
▁Мой	-9.42137
▁половин	-9.42222
▁произ	-9.42323
▁даёт	-9.42462
▁компания	-9.42564
тра	-9.42567
▁используя	-9.42708
▁B	-9.42832
▁человечески	-9.42963
▁плат	-9.42982
щий	-9.43029
чик	-9.43232
ист	-9.43289
▁мою	-9.4334
тебе	-9.43395
▁позволя	-9.43423
▁цели	-9.43428
креп	-9.43464
нным	-9.43497
▁посмотрим	-9.43585
▁рак	-9.43617
ском	-9.43634
▁Джон	-9.43661
▁11	-9.43898
in	-9.4399
▁сын	-9.44003
ены	-9.44042
▁вернуть	-9.44049
шел	-9.44059
▁связь	-9.44062
▁Бог	-9.4418
нут	-9.44184
фа	-9.44186
вол	-9.44292
▁музык	-9.44322
мент	-9.44323
▁поскольк	-9.44417
лом	-9.4445
ar	-9.44457
▁Меня	-9.44507
▁сделан	-9.44636
▁уж	-9.44719
on	-9.44738
хотелось	-9.44755
рован	-9.44763
▁роль	-9.4477
▁треть	-9.44839
▁включа	-9.44906
▁увидите	-9.4494
лад	-9.44986
▁тест	-9.45018
ваем	-9.4508
▁хорош	-9.45083
едь	-9.45091
▁уровня	-9.45092
▁мысли	-9.45123
Г	-9.45138
▁Вам	-9.45161
работа	-9.45272
▁осозна	-9.45284
▁наук	-9.45394
h	-9.45401
▁математик	-9.45414
▁влия	-9.45449
▁планеты	-9.45557
▁Ж	-9.45688
давать	-9.45697
▁расс	-9.45766
ред	-9.45873
▁группа	-9.46
люб	-9.46072
О	-9.46075
▁фото	-9.46102
▁небольшо	-9.46106
вшие	-9.46256
▁Был	-9.46446
П	-9.46547
ила	-9.46636
▁пл	-9.46723
▁книг	-9.4698
▁призна	-9.47167
вар	-9.47209
▁дорог	-9.47315
▁инженер	-9.47492
▁Го	-9.47552
▁цифр	-9.47567
▁случилось	-9.47639
▁цель	-9.47645
нул	-9.47721
▁професси	-9.47726
▁рад	-9.47883
▁модели	-9.48159
▁порядк	-9.4822
▁25	-9.48247
▁моим	-9.4839
▁решени	-9.48412
шь	-9.48567
▁общество	-9.48584
▁воздух	-9.48806
▁ног	-9.48831
нного	-9.48878
сво	-9.48903
▁идею	-9.48924
чески	-9.48951
щё	-9.49017
▁масс	-9.49022
▁поиск	-9.49108
▁буквально	-9.49151
▁правительство	-9.49256
ней	-9.49337
ива	-9.49453
рат	-9.49584
▁верну	-9.49732
▁сайт	-9.49745
чк	-9.49758
дет	-9.49815
▁прежде	-9.50009
ники	-9.50091
▁причина	-9.50101
ному	-9.50107
▁безопасности	-9.5012
▁хочет	-9.50185
▁ба	-9.50188
▁обнаружили	-9.50299
▁обычны	-9.50383
▁сюда	-9.50471
ющего	-9.50472
▁игр	-9.50474
▁Раз	-9.50538
▁хотела	-9.50544
ян	-9.5055
▁Ещ	-9.50701
▁Бо	-9.50739
лько	-9.50741
▁рука	-9.50806
▁ночь	-9.50875
ген	-9.50876
▁пу	-9.50908
▁игра	-9.50943
▁каждом	-9.51113
▁интересны	-9.51116
▁душ	-9.5119
▁поговорить	-9.51298
▁народ	-9.51344
▁G	-9.51402
▁выход	-9.5152
▁ситуаци	-9.51586
▁способны	-9.51677
▁реально	-9.51769
▁бу	-9.52036
▁основан	-9.52053
▁понимает	-9.5209
воду	-9.52112
▁чему	-9.52145
▁доктор	-9.52273
клон	-9.52434
▁энерги	-9.52535
▁район	-9.52641
▁прекрасно	-9.52654
▁готовы	-9.5283
▁код	-9.52951
▁местах	-9.53011
▁разум	-9.5325
очно	-9.53339
▁большие	-9.53402
▁света	-9.53409
▁века	-9.53476
▁книги	-9.53515
фер	-9.53519
▁здания	-9.53638
▁значение	-9.53664
▁трёх	-9.53727
▁график	-9.53753
▁пользу	-9.5376
ников	-9.53788
▁нужна	-9.53789
▁самого	-9.53807
▁помощь	-9.53937
тон	-9.54051
▁пищ	-9.5406
др	-9.5418
▁род	-9.54225
жу	-9.54246
▁концов	-9.54263
▁действия	-9.54498
or	-9.54546
бил	-9.54619
▁рассказ	-9.54722
▁D	-9.54785
▁слов	-9.55341
ось	-9.55423
▁основном	-9.55424
раст	-9.55458
думаем	-9.55485
00	-9.55514
▁мечта	-9.5559
▁теори	-9.55596
▁Крис	-9.55827
▁ход	-9.55932
▁Земле	-9.55989
▁похожи	-9.55996
нно	-9.55997
▁90	-9.56009
▁обраща	-9.56014
▁расскажу	-9.56017
ично	-9.5611
▁результаты	-9.56201
писать	-9.56278
бит	-9.56297
живут	-9.56357
▁рассказыва	-9.56432
▁исследований	-9.56453
▁нуж	-9.56501
нс	-9.5652
▁Очень	-9.56523
▁пространство	-9.56534
an	-9.56539
▁годы	-9.5661
▁Пол	-9.56688
▁социально	-9.567
▁университет	-9.56741
▁целы	-9.56751
▁находятся	-9.56791
▁способность	-9.56796
мысл	-9.56806
▁Па	-9.56835
▁шанс	-9.57036
ват	-9.57176
▁столько	-9.57234
▁быстрее	-9.57292
▁анализ	-9.57298
люблю	-9.57312
▁Знает	-9.57412
▁хороше	-9.57485
вест	-9.57534
щик	-9.57564
▁развива	-9.57565
▁образования	-9.5757
▁Н	-9.57626
эн	-9.57746
▁объект	-9.57757
▁сожалени	-9.57809
▁сосед	-9.57809
вание	-9.57909
▁делал	-9.58017
al	-9.58059
▁коллег	-9.58184
▁большим	-9.58216
рен	-9.58241
настоящему	-9.5825
Т	-9.58307
▁ради	-9.58351
▁лес	-9.58353
▁длин	-9.58461
шен	-9.58508
▁продукт	-9.58558
▁тип	-9.58576
пре	-9.58582
▁кризис	-9.58587
▁иначе	-9.58598
▁больниц	-9.58617
▁инноваци	-9.58647
▁сторон	-9.58707
▁жил	-9.58712
чные	-9.5876
▁исследование	-9.588
▁показывает	-9.58809
▁Просто	-9.58852
▁кем	-9.5888
▁страниц	-9.58893
ишь	-9.5904
ниц	-9.59078
▁начинают	-9.59102
кам	-9.59109
▁организации	-9.59115
▁Марс	-9.59196
вший	-9.59219
▁шесть	-9.59248
▁делали	-9.59329
Л	-9.5938
клеток	-9.59405
▁получит	-9.59413
▁виде	-9.59424
▁60	-9.59447
▁метров	-9.59577
▁отец	-9.59581
▁поддержк	-9.59636
▁провел	-9.59653
ывает	-9.59655
ющим	-9.59663
▁час	-9.5967
▁окружающе	-9.59786
▁возвраща	-9.59944
▁чувств	-9.60036
▁реальность	-9.60116
▁тюрьм	-9.60164
▁известны	-9.60182
▁смог	-9.60287
▁мор	-9.6049
▁начало	-9.60658
▁Позволь	-9.60696
▁высоки	-9.60774
▁Потом	-9.60792
▁предел	-9.60835
▁поведение	-9.60925
▁сложны	-9.60933
▁месяц	-9.61109
▁актив	-9.61202
тели	-9.61204
▁посмотрите	-9.6123
вых	-9.61241
▁каза	-9.61397
▁обучени	-9.614
▁Второ	-9.61436
▁операци	-9.61544
▁мил	-9.61552
▁ну	-9.61561
▁единственны	-9.61726
вания	-9.61749
▁явля	-9.6183
▁курс	-9.61866
пустил	-9.61899
▁Первы	-9.61907
▁штат	-9.61945
▁Рас	-9.61952
дите	-9.61953
лек	-9.6196
▁здорово	-9.62042
▁электро	-9.62123
▁Ба	-9.62163
▁миллиона	-9.6233
▁фотографи	-9.62357
ская	-9.62394
▁геро	-9.62424
▁магазин	-9.62577
▁прекрасны	-9.62582
▁архитектур	-9.62849
▁температур	-9.62849
▁нефт	-9.62878
ировал	-9.62905
▁Ц	-9.62915
▁разниц	-9.62923
▁главно	-9.62958
▁обща	-9.62998
▁T	-9.63088
▁религи	-9.6312
▁становят	-9.63122
▁Та	-9.63137
▁теле	-9.63202
▁глав	-9.63235
▁остров	-9.63409
▁смотреть	-9.63447
▁пут	-9.63492
▁степени	-9.63669
ках	-9.63839
▁скажу	-9.63855
Йорк	-9.6389
▁правила	-9.63904
▁попросил	-9.63929
▁высот	-9.63973
печат	-9.63982
▁КА	-9.64042
C	-9.64051
▁Ни	-9.64062
▁надежд	-9.64062
▁развитие	-9.64137
▁птиц	-9.6422
▁жертв	-9.64222
▁силы	-9.64265
▁черн	-9.64372
▁урок	-9.64481
▁территори	-9.64495
▁бедны	-9.64656
▁сравнени	-9.64741
▁граждан	-9.64767
▁изучени	-9.64773
▁регион	-9.6505
мню	-9.65108
эй	-9.65189
▁информаци	-9.653
▁природы	-9.6533
▁утро	-9.65511
▁проекта	-9.65547
▁сторону	-9.6556
▁нашли	-9.65593
▁умер	-9.65603
▁часа	-9.65717
нием	-9.65754
▁рук	-9.65765
зер	-9.65777
▁большинств	-9.65798
▁школе	-9.66004
▁видно	-9.66012
▁открыт	-9.66028
▁открыто	-9.66083
▁лично	-9.66119
льд	-9.66276
▁успех	-9.66281
▁Сан	-9.66381
пал	-9.66398
▁показал	-9.66408
▁сеть	-9.66437
▁политически	-9.66454
▁авто	-9.6649
▁общественно	-9.665
▁робот	-9.66529
▁изуча	-9.66589
рас	-9.66633
▁особ	-9.66648
▁член	-9.66737
▁счёт	-9.66807
ьте	-9.66813
тар	-9.66867
▁Google	-9.67016
▁черт	-9.67106
▁ограничен	-9.67117
няя	-9.67156
глу	-9.67157
▁стратеги	-9.673
▁художник	-9.673
▁изменени	-9.67359
ваться	-9.67437
▁игры	-9.67464
▁потеря	-9.67507
▁вода	-9.67541
▁опять	-9.67591
▁глаз	-9.67612
▁имел	-9.6767
▁общем	-9.67724
оль	-9.67785
▁существую	-9.67793
смотр	-9.6781
▁поняли	-9.67892
▁мысль	-9.67893
▁ла	-9.67983
▁тро	-9.68001
▁возника	-9.68089
▁необходимы	-9.68117
▁получили	-9.68216
вается	-9.68238
▁взял	-9.6829
Д	-9.68324
▁Га	-9.68355
▁изменя	-9.6839
▁словам	-9.68453
▁форма	-9.68598
▁конфликт	-9.68733
▁ребёнка	-9.68839
▁занят	-9.68857
раб	-9.69097
▁Кор	-9.69162
▁сердце	-9.69198
▁одновременно	-9.69316
▁Африки	-9.6935
▁расп	-9.69493
▁Ми	-9.69559
▁газ	-9.69575
▁угроз	-9.69603
▁любим	-9.69623
▁придёт	-9.69632
▁живо	-9.69702
▁объясни	-9.69736
▁Ник	-9.69794
▁Земли	-9.69803
▁заметил	-9.69827
▁механизм	-9.69894
▁журнал	-9.69948
▁рек	-9.69954
▁назвал	-9.69965
▁запис	-9.70022
ограф	-9.70153
▁рака	-9.70184
▁пришли	-9.70194
ница	-9.70228
▁устройство	-9.70325
▁фотография	-9.70444
йтесь	-9.70445
▁значительно	-9.70485
▁70	-9.70492
▁огромн	-9.7052
ган	-9.70552
▁рассказал	-9.70673
▁школы	-9.70727
И	-9.7074
▁знания	-9.70764
знаком	-9.70797
щая	-9.70856
думайте	-9.70859
▁рыб	-9.70866
пуск	-9.70897
▁идей	-9.70918
E	-9.71039
▁изображение	-9.71103
▁сним	-9.71134
▁исследова	-9.71144
зу	-9.71157
▁сила	-9.71163
вый	-9.71311
ачива	-9.71345
▁пациент	-9.71399
▁поддержива	-9.71459
▁Думаю	-9.71463
чный	-9.71583
▁состоянии	-9.71663
щей	-9.71664
▁Нужн	-9.71706
▁смех	-9.7173
▁смогу	-9.71739
▁имени	-9.71765
▁16	-9.71794
ич	-9.71837
▁лицо	-9.71863
▁построить	-9.71882
▁Кар	-9.71934
▁двига	-9.7194
▁разработк	-9.71959
▁физик	-9.7196
▁мар	-9.71964
▁Под	-9.71969
▁таком	-9.72017
▁коп	-9.72121
▁кому	-9.72174
▁мама	-9.72193
▁человеком	-9.72221
▁потенциал	-9.72253
▁институт	-9.72258
▁картинк	-9.72265
ющиеся	-9.72359
▁земле	-9.72407
▁дух	-9.72528
▁Видео	-9.72557
телей	-9.72638
▁машина	-9.7269
▁кол	-9.72759
▁организаци	-9.72808
вил	-9.72828
▁задача	-9.7287
стей	-9.72882
щим	-9.72889
ации	-9.72972
летни	-9.72981
▁маленькие	-9.73002
▁средства	-9.73067
ложить	-9.73087
▁местны	-9.73149
кий	-9.73157
▁стара	-9.73182
▁спас	-9.73213
знач	-9.73377
вит	-9.73384
▁ВИЧ	-9.73461
▁научны	-9.7348
▁скоро	-9.73654
вёл	-9.73686
▁открыл	-9.73747
▁реклам	-9.73768
▁Ла	-9.73768
▁мужчины	-9.73773
▁человечеств	-9.73773
▁бед	-9.73795
▁Бр	-9.7381
▁попытк	-9.7385
▁вверх	-9.73855
давно	-9.73927
▁использовали	-9.73993
▁бумаг	-9.74069
▁лица	-9.74097
бот	-9.74224
▁рынк	-9.74267
верить	-9.7431
▁др	-9.74332
▁совет	-9.7435
▁представляет	-9.74383
▁Китай	-9.74401
▁заболевани	-9.74415
▁пят	-9.74435
▁маленько	-9.74478
ительн	-9.74603
▁Их	-9.74679
▁кроме	-9.74686
▁задума	-9.74693
клад	-9.74716
▁поз	-9.74744
▁обнаружил	-9.74776
лер	-9.74833
▁Би	-9.74866
▁открыты	-9.74877
▁пара	-9.74955
▁аудитори	-9.74985
▁штук	-9.7499
▁велики	-9.75001
ировали	-9.75021
▁влияние	-9.75161
▁глобально	-9.7519
ново	-9.75241
▁поделить	-9.75295
▁набор	-9.75304
▁сад	-9.75361
▁80	-9.75383
▁дизайнер	-9.75432
ским	-9.75511
▁миллиарда	-9.75542
▁здание	-9.75556
жешь	-9.75556
▁получи	-9.75578
▁Кон	-9.75587
▁Посмотрите	-9.75601
▁чуть	-9.75623
▁очевидно	-9.7565
чем	-9.75703
▁реш	-9.75794
оборот	-9.75794
▁создание	-9.75802
▁удивительны	-9.75885
ави	-9.76002
альный	-9.76064
ош	-9.76184
щего	-9.76247
▁пяти	-9.76387
▁геном	-9.76406
▁Хо	-9.76427
▁руку	-9.76429
▁характер	-9.76533
▁друзей	-9.76533
▁ситуация	-9.7665
▁просты	-9.76809
ился	-9.76815
ток	-9.76903
гер	-9.76989
▁удар	-9.76991
▁показыва	-9.77033
фон	-9.77042
▁14	-9.77048
▁глубоко	-9.7713
льше	-9.77155
лок	-9.77181
ющую	-9.77182
▁этап	-9.77289
▁поступ	-9.77352
вые	-9.7736
▁живы	-9.77386
▁воспринима	-9.77474
▁семья	-9.77505
▁фермер	-9.77528
▁какое	-9.77542
▁миллиард	-9.77581
иц	-9.7761
▁силу	-9.77657
▁нужда	-9.77736
▁принять	-9.7775
▁секрет	-9.77789
▁наверное	-9.77792
шки	-9.77825
▁белы	-9.77877
▁зрител	-9.77885
В	-9.77888
воз	-9.78055
▁пост	-9.78097
▁мальчик	-9.78106
▁слайд	-9.78108
▁выполня	-9.7811
чат	-9.7814
▁называют	-9.78152
чки	-9.78173
уют	-9.78195
▁идее	-9.78215
▁фактор	-9.78216
шло	-9.78303
▁ошибк	-9.78321
▁кажды	-9.78402
▁част	-9.78412
▁получает	-9.78454
зор	-9.78474
▁считают	-9.78476
▁фактически	-9.7848
пустить	-9.78508
▁современно	-9.78699
▁угодно	-9.78742
▁глубин	-9.78742
▁любом	-9.78768
▁элемент	-9.78839
▁друзья	-9.78852
илл	-9.78958
▁находи	-9.78961
▁физически	-9.7908
▁случая	-9.79218
нять	-9.79222
▁поле	-9.79238
▁важна	-9.79249
вши	-9.79258
▁современны	-9.79352
дом	-9.79504
▁перемен	-9.79555
▁определени	-9.79637
гул	-9.79662
▁представление	-9.79761
▁микро	-9.79765
▁десятк	-9.79766
цев	-9.79888
▁написан	-9.79943
▁прост	-9.79971
50	-9.79978
▁попыта	-9.79978
▁достиг	-9.79986
▁счастлив	-9.80012
дают	-9.80105
енные	-9.80117
▁пытаемся	-9.80126
▁доста	-9.80132
нем	-9.80278
▁делаю	-9.80347
▁центре	-9.80395
роб	-9.80482
it	-9.80552
▁виды	-9.80568
▁Большинство	-9.80674
▁аппарат	-9.80674
▁транспорт	-9.80676
▁переход	-9.80704
ясн	-9.80754
▁приводит	-9.8077
▁муж	-9.80869
▁недель	-9.80875
▁боро	-9.80904
сил	-9.80932
▁мирово	-9.80996
▁практик	-9.81
▁искусства	-9.81007
▁Европе	-9.81018
▁ранее	-9.81074
▁поиска	-9.81082
▁отношени	-9.81177
Х	-9.81194
▁капитал	-9.81194
▁проблемой	-9.81218
▁океана	-9.81287
▁продолжать	-9.81297
▁президент	-9.81326
▁Ди	-9.81465
▁Ха	-9.81502
▁знани	-9.816
▁испытыва	-9.81654
▁применя	-9.81657
▁широко	-9.81661
ехать	-9.81695
▁произойд	-9.81699
M	-9.81717
▁получается	-9.8183
▁стары	-9.8188
en	-9.81941
▁вне	-9.81974
▁ро	-9.82081
▁Где	-9.82126
метр	-9.82267
▁вида	-9.82305
▁недостаточно	-9.82318
лез	-9.82364
▁целом	-9.82493
▁власти	-9.82541
▁правительства	-9.82554
ром	-9.82688
▁построен	-9.82736
▁Пар	-9.82761
▁обществе	-9.82791
▁времена	-9.82798
▁поток	-9.82859
▁создаёт	-9.82895
есь	-9.82932
▁леса	-9.82943
▁объём	-9.82977
▁родители	-9.82982
▁думали	-9.83174
▁считает	-9.83234
▁умира	-9.83268
▁17	-9.83346
▁экономически	-9.83353
▁трати	-9.83403
▁растени	-9.83434
▁бол	-9.83517
овал	-9.83539
▁болезнь	-9.83552
▁эмоци	-9.83642
▁Больш	-9.83661
▁станови	-9.83694
▁условия	-9.83734
▁кус	-9.83839
▁мужчина	-9.83867
P	-9.83898
▁функци	-9.83975
▁парк	-9.83984
▁живёт	-9.84024
▁любовь	-9.84325
дра	-9.84414
эр	-9.84419
▁точк	-9.84487
ческ	-9.84518
▁искусство	-9.8484
▁прогресс	-9.84985
▁стандарт	-9.84993
▁документ	-9.84994
чным	-9.85059
чаще	-9.85082
жить	-9.85088
▁узнал	-9.85199
▁лечения	-9.85199
▁500	-9.85222
▁последствия	-9.85291
▁неделю	-9.85342
▁оценк	-9.854
▁условиях	-9.85505
▁явлени	-9.85537
лени	-9.85547
▁больши	-9.85636
▁отправ	-9.8565
▁внимания	-9.85675
▁взгляну	-9.85675
исты	-9.85684
▁улиц	-9.85722
щу	-9.85769
нова	-9.85928
сле	-9.85944
,	-9.85954
▁получают	-9.86007
▁Благодар	-9.86017
▁галактик	-9.86017
▁текст	-9.86027
▁пользовател	-9.8607
▁замечательно	-9.86111
▁километров	-9.86176
▁выясни	-9.86196
▁доступны	-9.86228
▁лидер	-9.86229
▁дал	-9.86306
▁лиш	-9.864
▁детств	-9.8641
▁книгу	-9.86423
▁позже	-9.86433
▁научно	-9.86461
▁участие	-9.86463
▁улучши	-9.86706
▁самолёт	-9.86706
▁сумм	-9.86751
▁радио	-9.86787
атив	-9.86812
▁расход	-9.86858
▁обсужда	-9.87052
▁детям	-9.87052
▁выглядел	-9.87053
▁экран	-9.87102
▁забот	-9.87179
роз	-9.87288
могут	-9.87353
▁посмотрел	-9.87401
щем	-9.87567
▁баз	-9.87596
▁земли	-9.87599
овали	-9.87669
▁газет	-9.87697
▁касает	-9.8771
▁распространя	-9.87748
▁живём	-9.87766
вторы	-9.8781
рик	-9.87849
▁информация	-9.87858
под	-9.8789
▁случай	-9.87903
▁желание	-9.87915
▁дости	-9.87926
▁довери	-9.88
▁услуг	-9.88097
▁расстояни	-9.88097
▁зависит	-9.88106
▁лиц	-9.88114
▁стоя	-9.88129
тическо	-9.88241
▁ясно	-9.88252
▁примени	-9.8827
дти	-9.88277
▁играть	-9.8835
▁использование	-9.88368
▁позволи	-9.88428
торая	-9.88433
работать	-9.88457
▁здоровь	-9.88482
▁страна	-9.88485
▁13	-9.88498
купить	-9.88536
▁согласи	-9.88559
▁машину	-9.88621
▁истин	-9.88624
▁пациентов	-9.88635
▁встреча	-9.88643
ывать	-9.88702
▁веща	-9.88706
▁музыка	-9.88736
Б	-9.88767
▁создан	-9.88788
шей	-9.88986
▁обще	-9.89081
▁реальны	-9.89087
▁потер	-9.89113
ётся	-9.89123
▁вперёд	-9.89154
▁космос	-9.89154
▁парень	-9.89155
▁супер	-9.89175
▁определить	-9.89181
нц	-9.89184
енных	-9.89205
▁вполне	-9.8932
▁мер	-9.89336
▁момента	-9.89522
▁месяца	-9.89635
▁действительност	-9.89657
▁данны	-9.89673
▁помогает	-9.89705
▁лекарства	-9.89796
енный	-9.89826
грамм	-9.89857
▁расположен	-9.89873
▁древн	-9.89875
▁ран	-9.8988
▁Вселенн	-9.89902
T	-9.89907
▁вывод	-9.89974
▁относительно	-9.90239
▁полу	-9.90454
щую	-9.90471
таки	-9.90512
альная	-9.90605
▁сильны	-9.90642
другому	-9.90657
очн	-9.90662
рел	-9.90903
▁студентов	-9.90927
▁интеллект	-9.90938
▁имеем	-9.90992
Йорке	-9.91009
▁ткан	-9.91009
шн	-9.91244
▁собак	-9.91341
▁отдел	-9.91388
▁понимание	-9.914
▁общественны	-9.91401
▁имя	-9.91403
▁понимаю	-9.91476
▁целью	-9.91512
леп	-9.91643
▁ребёнок	-9.91663
▁голод	-9.91678
Н	-9.91741
ющими	-9.91751
▁показан	-9.9179
▁приз	-9.91878
▁мечт	-9.91907
▁любимы	-9.92002
▁детал	-9.92027
▁стреми	-9.92031
▁Ю	-9.92045
▁жили	-9.9222
▁ужасно	-9.92251
▁чувства	-9.9228
▁Друг	-9.92286
▁бор	-9.92302
▁чувствовал	-9.92355
▁мед	-9.9238
▁связ	-9.92393
▁будущего	-9.9241
держать	-9.92445
▁техник	-9.92447
▁использовал	-9.92495
▁пациента	-9.92521
▁откуда	-9.92522
▁рис	-9.92581
▁возраста	-9.92582
▁тра	-9.92745
▁основны	-9.92817
▁недавн	-9.92826
▁количества	-9.92832
▁верно	-9.9285
▁рыно	-9.92862
план	-9.92892
▁Бер	-9.92946
▁карьер	-9.93125
▁производства	-9.93168
▁ошиб	-9.93194
▁Запад	-9.93235
▁суть	-9.93324
ворот	-9.93331
es	-9.93338
▁север	-9.93397
брос	-9.93404
▁крупны	-9.93442
нок	-9.93462
жил	-9.93491
▁конца	-9.9356
▁небольши	-9.93649
▁боль	-9.938
▁инфраструктур	-9.93865
▁шар	-9.93877
▁изменение	-9.93889
▁верси	-9.93971
▁мол	-9.93976
▁форму	-9.94053
▁общи	-9.94071
▁строи	-9.94079
▁замети	-9.94085
▁продолжа	-9.94193
▁замечательны	-9.94204
▁важне	-9.94318
▁собрать	-9.94481
▁всеми	-9.94485
▁СМИ	-9.94609
▁эксперт	-9.94609
▁Мак	-9.94639
▁E	-9.94647
▁городе	-9.94648
▁спин	-9.94656
▁открыва	-9.94681
▁Му	-9.94694
▁помога	-9.94756
шек	-9.94875
▁случайно	-9.94896
▁индустри	-9.94951
▁колледж	-9.94984
▁расти	-9.94985
▁двумя	-9.94988
▁отлично	-9.95008
овым	-9.95058
способ	-9.95111
▁повтор	-9.9521
изма	-9.95216
▁Че	-9.95348
▁аспект	-9.9536
▁взрыв	-9.95366
▁выбора	-9.95386
рыв	-9.95413
▁называю	-9.95437
▁жив	-9.95442
▁давно	-9.9547
▁земл	-9.95487
▁стади	-9.95489
▁показател	-9.95568
▁экономическо	-9.95589
▁семей	-9.95601
лик	-9.95605
▁пространства	-9.95755
▁животно	-9.9578
▁Пока	-9.95835
▁остава	-9.95966
▁здоровье	-9.95983
пс	-9.96054
▁занимает	-9.96084
▁изображения	-9.96134
огласно	-9.96164
▁Ваш	-9.96165
рожден	-9.9619
▁сообщества	-9.96271
▁частиц	-9.96368
▁провести	-9.96408
▁ужас	-9.96423
▁встреч	-9.96438
▁поколение	-9.96612
▁очередь	-9.96616
▁жела	-9.96638
▁устройства	-9.96711
▁всём	-9.96713
нта	-9.96818
▁определённы	-9.96819
▁R	-9.96837
▁предполага	-9.96878
▁реакци	-9.96934
▁недели	-9.96943
▁создают	-9.96988
▁двигаться	-9.97033
рус	-9.97091
сер	-9.97117
▁канал	-9.97129
лон	-9.97226
▁доказательств	-9.97261
▁символ	-9.97262
▁фонд	-9.97301
полне	-9.9734
▁существ	-9.97349
▁бег	-9.97542
водит	-9.97554
▁состояние	-9.97555
▁выбрал	-9.97571
▁журналист	-9.97574
▁секс	-9.97597
▁мать	-9.97598
▁углерод	-9.97646
▁услыша	-9.97669
▁убива	-9.97805
▁возраст	-9.9785
▁получа	-9.97884
▁принят	-9.97931
▁находим	-9.97958
▁спор	-9.97991
▁алгоритм	-9.98032
▁многим	-9.98032
▁счастливы	-9.98048
гляд	-9.98093
скоре	-9.98102
▁вред	-9.98146
▁песн	-9.98236
▁замеча	-9.98337
▁подним	-9.98348
▁снимк	-9.98357
▁Тем	-9.98362
▁дик	-9.98414
▁офис	-9.98423
▁пространстве	-9.98454
▁блок	-9.98469
▁вселенной	-9.9851
▁жал	-9.98523
▁компаний	-9.98566
▁работаем	-9.98593
R	-9.98662
▁убедить	-9.98667
▁миллионы	-9.98738
▁обеспечени	-9.98808
▁вакцин	-9.98809
▁хуже	-9.9881
▁девушк	-9.98816
жение	-9.98855
теля	-9.98886
▁каса	-9.98889
▁возможност	-9.98977
▁останови	-9.98997
▁получаем	-9.991
▁воображени	-9.99199
▁голуб	-9.99199
▁красот	-9.99201
▁благо	-9.99248
прям	-9.99346
▁дизайна	-9.99359
▁считал	-9.99469
скую	-9.99603
▁усили	-9.99618
▁поколения	-9.99644
▁другу	-9.99689
▁шум	-9.99798
▁акт	-9.99828
▁пришёл	-9.99831
▁обеспечи	-9.9989
▁исп	-9.99948
▁реальност	-9.99985
льной	-9.99988
▁нового	-10.0004
▁начинае	-10.001
▁науки	-10.0022
▁странно	-10.0025
▁автор	-10.0026
вели	-10.0036
▁велосипед	-10.0038
▁перспектив	-10.0038
▁Проблем	-10.0038
хожу	-10.004
▁программу	-10.0062
лан	-10.0068
▁Ар	-10.0068
▁спис	-10.0069
▁Перв	-10.0076
▁понятия	-10.0079
бежать	-10.0081
▁новости	-10.0087
пир	-10.0091
▁поверхность	-10.0103
▁будь	-10.0113
▁ощущение	-10.0116
▁представь	-10.0118
▁Кроме	-10.0118
▁совместно	-10.0119
▁правило	-10.012
дали	-10.0121
летне	-10.0132
кая	-10.0145
le	-10.0147
▁возрасте	-10.0157
▁мод	-10.0168
▁первым	-10.0169
▁21	-10.0173
▁утра	-10.0188
▁выброс	-10.0198
▁мобильны	-10.0198
▁сердца	-10.0208
▁норм	-10.022
искать	-10.0221
▁Мар	-10.0227
граф	-10.023
▁оказывает	-10.0232
▁представлен	-10.0232
▁защища	-10.0238
▁нормально	-10.024
кер	-10.0242
▁вашем	-10.0247
▁эффективны	-10.0249
▁следующе	-10.0266
▁девочк	-10.0267
▁век	-10.0267
ирование	-10.0284
▁изучать	-10.0292
▁данным	-10.0302
▁кур	-10.0303
▁растения	-10.0307
▁управлять	-10.0318
африканск	-10.0319
▁автомобиль	-10.0319
▁создани	-10.0329
▁Кажд	-10.0331
▁ситуацию	-10.0337
▁взяли	-10.0339
▁Боле	-10.0342
▁передач	-10.0347
▁участк	-10.036
▁естественно	-10.0363
▁справа	-10.0366
▁угол	-10.0376
альным	-10.0378
▁вспомни	-10.0383
▁уничтож	-10.0391
▁специалист	-10.0401
▁Южно	-10.0407
▁особенност	-10.0408
▁появилась	-10.0414
▁комнат	-10.0418
нными	-10.0423
▁разви	-10.0425
▁боя	-10.0427
▁нерв	-10.0429
▁позволит	-10.043
делить	-10.0433
▁выглядеть	-10.0442
▁везде	-10.0442
▁Перво	-10.0451
▁красны	-10.0457
вис	-10.0457
▁команда	-10.0458
▁Наши	-10.0463
▁фи	-10.0473
▁происходил	-10.0483
▁объединя	-10.0484
▁сегодняшни	-10.0484
▁маленьк	-10.049
▁измен	-10.0495
▁окруж	-10.0495
▁умны	-10.0496
▁убеди	-10.0499
изации	-10.0503
▁танц	-10.0504
▁остановить	-10.0505
▁атом	-10.0505
▁взрослы	-10.0514
▁Ан	-10.0516
▁микроб	-10.0516
▁линии	-10.052
▁следующем	-10.052
▁события	-10.0527
▁отдельны	-10.0528
▁какая	-10.0533
ированны	-10.0533
▁перевод	-10.0537
▁управля	-10.0547
готов	-10.0557
▁Лондон	-10.0567
▁позици	-10.0569
ic	-10.0575
▁Чем	-10.0583
▁дороги	-10.0584
▁способом	-10.0589
могло	-10.0593
▁рассматрива	-10.0596
▁переста	-10.0608
ация	-10.0608
▁Тут	-10.0611
▁Пере	-10.0618
▁обрати	-10.062
▁Чере	-10.0621
▁программа	-10.0624
▁300	-10.0628
B	-10.0628
▁связаны	-10.063
эл	-10.0646
▁преодоле	-10.065
▁конец	-10.0658
▁серьёзно	-10.0664
▁публик	-10.0665
at	-10.0667
▁истори	-10.0668
▁дыр	-10.0674
▁принимать	-10.0674
▁Джо	-10.0677
▁слыш	-10.0678
рес	-10.068
▁раск	-10.0681
▁любв	-10.0694
▁сидел	-10.0698
▁определённо	-10.0716
▁номер	-10.0724
▁заболевания	-10.0734
▁Афганистан	-10.0735
▁хоть	-10.0736
▁читать	-10.0738
▁пережива	-10.0739
▁дра	-10.0748
▁позволил	-10.075
▁жизнью	-10.0754
ёл	-10.0759
▁наблюдать	-10.0765
▁звон	-10.0776
▁обезьян	-10.0778
▁хирург	-10.0778
▁цивилизаци	-10.0778
▁детьми	-10.0778
▁столкну	-10.0779
▁схем	-10.0781
▁размера	-10.0781
▁вызов	-10.0784
▁обуча	-10.0789
▁музыку	-10.0789
▁повторя	-10.0793
▁Ло	-10.0799
▁встретил	-10.0802
помнить	-10.0803
▁собираем	-10.0808
▁собран	-10.0811
▁независимо	-10.0817
▁полезны	-10.0825
▁качества	-10.0827
▁разве	-10.0831
▁атмосфер	-10.0832
▁любы	-10.0836
▁плохи	-10.0841
▁чрезвычайно	-10.0846
▁вкус	-10.085
▁замен	-10.0852
▁считать	-10.0854
▁образц	-10.0855
▁смотрите	-10.0858
▁привлек	-10.0862
▁сектор	-10.0863
▁политическо	-10.0863
▁Тр	-10.0867
бин	-10.0877
▁полици	-10.0882
коп	-10.0885
▁конц	-10.0886
▁управления	-10.0887
▁успеха	-10.089
▁цвета	-10.0894
▁вызыва	-10.09
▁воздействи	-10.0906
▁режим	-10.0907
брасыва	-10.0907
пон	-10.0909
▁помнит	-10.0913
▁отлича	-10.0914
▁разрабатыва	-10.0925
тельной	-10.093
▁представител	-10.093
▁служб	-10.095
▁сострадани	-10.095
▁животные	-10.095
▁понимал	-10.095
▁учителя	-10.095
казать	-10.0951
▁велико	-10.0955
▁стоимость	-10.0956
станут	-10.0963
▁вести	-10.097
▁среду	-10.0971
▁лист	-10.0979
очку	-10.0985
▁букв	-10.0991
▁клиент	-10.0993
▁сделано	-10.0994
▁дни	-10.0999
▁улице	-10.1001
▁городов	-10.1004
▁подобное	-10.1012
▁24	-10.1015
частью	-10.1016
▁желез	-10.1016
▁власть	-10.1016
▁кампани	-10.1037
▁эпох	-10.1037
▁эффективно	-10.1037
▁охран	-10.1038
▁спрашива	-10.104
▁выступления	-10.104
▁направлении	-10.1041
▁кадр	-10.1042
▁американски	-10.1044
▁огранич	-10.1044
▁счита	-10.1046
▁состав	-10.1055
▁отход	-10.1066
бел	-10.1069
▁цикл	-10.107
▁влияет	-10.1074
▁потерял	-10.1075
▁поводу	-10.1076
▁существу	-10.1077
▁числа	-10.1081
▁статистик	-10.1081
▁приобре	-10.1081
▁описыва	-10.1082
нец	-10.1084
▁учиться	-10.1086
▁писать	-10.1091
▁знакомы	-10.1091
▁торгов	-10.1093
▁мост	-10.11
▁разговарива	-10.1107
▁Ча	-10.1111
делаем	-10.1113
▁главны	-10.1113
▁динозавр	-10.1125
▁придумал	-10.1125
▁Хотя	-10.1125
▁наличи	-10.1129
▁кров	-10.1132
чную	-10.1132
кар	-10.1134
▁повсюду	-10.1135
▁сбор	-10.114
▁контрол	-10.1141
▁сделала	-10.1146
▁жизне	-10.1147
▁устойчиво	-10.115
▁здани	-10.1152
▁ноги	-10.1152
▁наблюда	-10.1156
▁направлен	-10.1156
▁континент	-10.1169
▁неудач	-10.1169
▁развити	-10.117
учиться	-10.1175
▁провод	-10.1179
▁мнение	-10.1181
▁сталкива	-10.1183
▁кап	-10.1185
▁небольш	-10.1194
бирать	-10.1202
▁контекст	-10.1213
▁сотрудничеств	-10.1213
▁приехал	-10.1214
pos	-10.1215
▁почв	-10.1223
▁девочка	-10.1227
жать	-10.1229
▁отношение	-10.1238
▁настоящее	-10.1244
▁следующее	-10.1255
▁кино	-10.1256
▁творчески	-10.1258
▁появлени	-10.1258
▁родителей	-10.1259
▁выгод	-10.1282
▁вечер	-10.1282
▁веке	-10.1291
▁способности	-10.1303
▁учёные	-10.1303
▁середин	-10.1303
▁зову	-10.1303
▁деревья	-10.1304
▁разработал	-10.1315
▁питани	-10.1315
крыл	-10.1322
▁продолжает	-10.1325
▁превращ	-10.1327
▁скрыт	-10.1328
▁остально	-10.1331
▁Ок	-10.1338
▁перес	-10.1339
▁сельско	-10.1345
▁насчёт	-10.1348
▁Китае	-10.1349
▁коробк	-10.1349
▁вершин	-10.1349
▁население	-10.1349
▁хими	-10.1352
дал	-10.1358
▁брат	-10.1358
▁рассмотре	-10.1363
бег	-10.1366
▁роди	-10.1377
▁лечение	-10.1379
▁богаты	-10.1386
re	-10.1388
▁конечном	-10.139
▁Оказывает	-10.1393
▁сквоз	-10.1393
держива	-10.1403
▁потрясающе	-10.1414
▁важное	-10.1415
▁облада	-10.1417
рож	-10.1424
▁новым	-10.1426
▁философ	-10.1439
▁выбрать	-10.1445
дём	-10.1454
▁красивы	-10.1457
▁организация	-10.1467
▁получени	-10.147
▁облак	-10.1472
двиг	-10.1475
▁живу	-10.1483
▁традици	-10.1483
▁депресси	-10.1484
▁контролирова	-10.1489
▁книга	-10.1491
▁пес	-10.1492
▁крыш	-10.1494
▁продолжи	-10.1502
▁цифрово	-10.1508
▁узнали	-10.1508
олл	-10.151
▁среде	-10.1515
▁увеличени	-10.1517
вел	-10.1518
▁вдохнов	-10.1524
▁наука	-10.1529
▁бабушк	-10.153
▁партнёр	-10.153
▁мусор	-10.153
▁гре	-10.1536
▁водой	-10.1546
▁средств	-10.1549
▁вероятность	-10.155
▁единственно	-10.1565
▁включ	-10.1571
▁отсутстви	-10.1576
▁предоставля	-10.1578
▁составляет	-10.1582
▁выступление	-10.1587
▁человеку	-10.1596
▁полёт	-10.1608
▁процесса	-10.1609
рин	-10.1613
▁прогноз	-10.1614
▁невероятны	-10.1619
▁обязательно	-10.1623
▁понимаем	-10.1623
▁поможет	-10.1623
▁поменя	-10.1624
ирования	-10.1636
вала	-10.1641
▁относи	-10.1642
▁случа	-10.1643
▁любя	-10.1646
▁чисто	-10.1647
▁Само	-10.1654
▁собирает	-10.1658
отен	-10.1664
▁еду	-10.1668
▁одни	-10.1669
▁директор	-10.1669
▁специально	-10.1669
▁четырёх	-10.1669
силия	-10.167
▁компьютеры	-10.1671
▁движени	-10.1682
▁область	-10.1683
▁учитыва	-10.1688
▁показывают	-10.1693
▁усилия	-10.1693
▁прошлого	-10.1698
уча	-10.1708
▁пик	-10.1708
▁увеличи	-10.1711
▁звёзд	-10.1716
▁неправильно	-10.1716
▁качество	-10.1717
▁198	-10.1719
▁государства	-10.1729
министр	-10.173
▁некоторо	-10.174
сюда	-10.1742
▁проводил	-10.1742
▁студент	-10.1746
▁пришла	-10.1749
▁представи	-10.1751
▁осознал	-10.1753
▁владе	-10.1758
▁увидим	-10.1763
▁зависимости	-10.1763
▁мин	-10.1767
▁глобальны	-10.1786
▁море	-10.1793
om	-10.1794
▁Эл	-10.1804
▁частно	-10.1806
▁доллар	-10.1808
▁контакт	-10.181
▁Одно	-10.1814
▁богат	-10.182
▁спасти	-10.1821
▁количеств	-10.1822
нял	-10.1824
▁вклад	-10.1826
▁женск	-10.1828
▁ближе	-10.1833
рис	-10.1834
▁задн	-10.1841
▁N	-10.1844
▁Следующ	-10.1857
▁скажет	-10.1857
▁термин	-10.1857
▁Видите	-10.1858
▁зуб	-10.1862
▁фотограф	-10.1862
▁шести	-10.1866
ойти	-10.1868
▁клетк	-10.1871
▁необходим	-10.1871
сад	-10.188
▁охот	-10.1882
▁языка	-10.1883
▁положение	-10.1905
▁берег	-10.1905
▁транс	-10.191
▁основани	-10.1917
▁Лос	-10.192
▁жител	-10.1921
▁Сам	-10.1927
▁опасност	-10.1928
льная	-10.1929
▁показали	-10.1929
мор	-10.1934
вшего	-10.1936
▁ребята	-10.1952
▁средни	-10.1954
▁собираю	-10.1957
▁писал	-10.1966
▁связанны	-10.1967
▁атак	-10.1974
рок	-10.1975
кажу	-10.1979
▁ответственность	-10.1979
▁пустын	-10.1987
▁попал	-10.1996
▁внутр	-10.1997
▁оборудовани	-10.2001
▁ощуща	-10.2001
▁звучит	-10.2001
▁десяти	-10.2006
▁данном	-10.2007
▁собственн	-10.201
▁чувствую	-10.2011
истов	-10.2035
цел	-10.2049
▁Вопрос	-10.2049
▁отличны	-10.2061
вшим	-10.2062
▁близко	-10.2064
▁покуп	-10.2078
пар	-10.208
▁взят	-10.2084
▁телевизор	-10.2098
▁великолепн	-10.2098
▁закончи	-10.2099
▁наблюдал	-10.2103
▁лежа	-10.2105
▁бело	-10.2105
▁един	-10.2105
▁зач	-10.211
▁проходит	-10.2113
▁приложени	-10.2116
▁строить	-10.2124
▁изменило	-10.2125
▁цеп	-10.2126
▁медицин	-10.2135
▁Северно	-10.2139
пользова	-10.2144
▁Солнц	-10.2146
▁наркотик	-10.2147
вшей	-10.2147
смотрим	-10.2151
час	-10.2158
▁молекул	-10.2158
▁происходя	-10.2161
▁Мои	-10.2163
▁брать	-10.2167
▁знак	-10.2174
▁тяжело	-10.2175
▁горд	-10.2178
добав	-10.2181
▁скоростью	-10.2183
▁чита	-10.2186
▁определ	-10.2192
▁особо	-10.2193
▁эпидеми	-10.2195
▁бар	-10.2198
▁семье	-10.2198
носят	-10.2199
▁волос	-10.2201
▁закрыт	-10.2201
▁ответить	-10.2202
▁обучение	-10.2213
уществует	-10.2214
▁ниже	-10.2216
▁языке	-10.222
▁рисова	-10.2221
▁дали	-10.2231
▁пройти	-10.224
▁столь	-10.224
▁пальц	-10.2242
▁понрави	-10.2245
▁действова	-10.2245
▁генетически	-10.2245
▁солнечны	-10.2246
▁остаёт	-10.2248
▁выращива	-10.2253
▁срок	-10.2257
▁честно	-10.2273
▁Эй	-10.229
▁альтернатив	-10.2294
▁категори	-10.2294
▁улучшени	-10.2295
▁затрат	-10.2297
▁Дело	-10.2297
▁тайн	-10.2299
▁поезд	-10.23
▁бомб	-10.2304
▁близки	-10.2304
▁тонн	-10.2308
▁2000	-10.2311
▁энергия	-10.2313
▁звезд	-10.2315
▁молод	-10.2317
стве	-10.2317
▁правильны	-10.232
▁водо	-10.2322
гар	-10.2328
▁объяснени	-10.233
итесь	-10.2343
▁ООН	-10.2344
▁преступлени	-10.2344
▁куч	-10.2346
▁решать	-10.2347
▁сделаю	-10.2347
очек	-10.2348
▁Ал	-10.2352
▁ферм	-10.2362
▁политики	-10.2363
▁использую	-10.2377
▁путешествие	-10.2382
▁важным	-10.2391
▁объясн	-10.2392
▁красиво	-10.2392
▁кислород	-10.2394
▁пункт	-10.2394
▁назвать	-10.2395
▁Япони	-10.2401
▁товар	-10.2403
мон	-10.2409
▁изменит	-10.241
рева	-10.2412
овое	-10.2415
сен	-10.2424
▁Последн	-10.2427
▁скорость	-10.2434
изу	-10.2436
▁наверняка	-10.2444
▁маляри	-10.2444
▁пользоваться	-10.2445
▁концепци	-10.2445
скольк	-10.2446
▁вырос	-10.2448
▁услышал	-10.245
▁скорост	-10.245
▁доказа	-10.2456
▁победи	-10.2458
▁конкретно	-10.2463
верю	-10.2467
ктивн	-10.2472
▁предостави	-10.2477
▁Бразили	-10.2495
▁попробовать	-10.2495
▁старше	-10.25
▁служи	-10.25
▁начинал	-10.2505
▁страну	-10.2516
▁закончил	-10.2517
▁военны	-10.2519
вольн	-10.2526
▁искусств	-10.2529
▁медицински	-10.2531
▁математическ	-10.2546
▁препарат	-10.2546
▁направля	-10.2546
▁одежд	-10.2547
▁крупнейш	-10.2547
▁отца	-10.2547
▁общин	-10.2549
▁400	-10.2549
▁ветр	-10.2549
▁взаимодействи	-10.2551
▁способов	-10.2552
▁хочется	-10.2554
ливо	-10.2557
▁возможны	-10.2557
▁лев	-10.2557
очки	-10.2559
носить	-10.2572
▁предложил	-10.2577
гал	-10.2578
▁свободно	-10.2582
▁комнате	-10.2585
▁держа	-10.2589
▁правительств	-10.2592
▁научить	-10.2595
остью	-10.2596
▁фильма	-10.2596
▁вынужден	-10.2597
▁выглядят	-10.2597
▁тяжёл	-10.2597
▁онлайн	-10.2597
▁редко	-10.2597
▁конференции	-10.2599
▁продуктов	-10.2637
▁прибор	-10.2641
▁ключ	-10.2646
▁содержани	-10.2648
▁экосистем	-10.2648
▁Центр	-10.2648
▁профессор	-10.2648
ступить	-10.266
▁финанс	-10.267
▁пожалуйста	-10.267
над	-10.2672
▁обед	-10.2672
ните	-10.2677
▁Ази	-10.2678
▁открыть	-10.2681
▁воде	-10.2692
▁рыбы	-10.2695
ошёл	-10.2695
▁отдал	-10.2697
▁архитектор	-10.2699
▁мисси	-10.2699
▁купил	-10.2705
▁добро	-10.2707
▁городах	-10.2707
▁хоч	-10.2709
лучилось	-10.2722
реж	-10.2723
▁клетка	-10.2726
▁естественны	-10.2743
▁выступа	-10.2743
▁настояще	-10.2746
▁вперед	-10.2747
▁потребител	-10.2749
▁гигантск	-10.2751
▁компонент	-10.2751
▁завтра	-10.2751
▁металл	-10.2752
▁традиционны	-10.2752
▁низко	-10.2753
▁доверя	-10.2754
▁смотрит	-10.2758
▁визуальн	-10.276
▁выросл	-10.2761
▁дают	-10.2762
▁обратить	-10.2765
▁исчез	-10.2765
▁поведения	-10.277
▁нашёл	-10.2771
▁нижн	-10.2772
скоп	-10.2773
▁толк	-10.2776
▁задать	-10.2778
▁сообщество	-10.2781
et	-10.2786
▁фундамент	-10.2786
▁газа	-10.2796
▁планета	-10.2796
▁сестр	-10.2803
▁испытани	-10.2805
сор	-10.2806
ложения	-10.2806
▁продаж	-10.2806
▁ранни	-10.2807
▁холод	-10.2811
▁находить	-10.2814
▁собрали	-10.2815
лки	-10.2817
▁лекарств	-10.2823
▁броса	-10.2828
▁углу	-10.2831
ol	-10.2832
▁потрясающи	-10.2833
▁помогл	-10.2834
▁личност	-10.284
▁Великобритании	-10.2844
▁понимают	-10.2846
▁пря	-10.2849
▁играет	-10.2849
▁Ган	-10.2852
▁живущи	-10.2852
▁людях	-10.2856
▁ресторан	-10.2856
▁кредит	-10.2856
▁Аль	-10.2856
▁экологически	-10.2856
▁замет	-10.2857
▁бог	-10.2857
▁ученик	-10.2858
▁сильнее	-10.286
▁Без	-10.2861
пан	-10.2865
▁пытается	-10.2865
▁считае	-10.2866
▁вернулся	-10.2867
ведения	-10.287
лег	-10.2873
плыв	-10.2873
дар	-10.2879
▁приём	-10.288
▁встрети	-10.2881
▁роботов	-10.2888
st	-10.2891
▁успешно	-10.2892
мышления	-10.2904
порт	-10.2907
▁заставил	-10.2908
▁рождения	-10.2908
▁сомнени	-10.2909
▁предсказа	-10.2909
▁кофе	-10.291
▁движ	-10.2911
▁запас	-10.2912
▁требует	-10.2913
▁обман	-10.2915
▁ветер	-10.2923
▁протест	-10.2924
▁проявля	-10.2928
▁контроль	-10.2929
▁страшно	-10.2932
▁цело	-10.2938
▁заставляет	-10.2939
▁корн	-10.2945
▁веб	-10.2951
▁оказыва	-10.2953
Ф	-10.296
▁рыба	-10.2961
▁сохраня	-10.2961
▁справля	-10.2961
▁пещер	-10.2962
▁ума	-10.2965
▁развивающих	-10.2966
▁Лад	-10.2969
▁действий	-10.2981
▁вышл	-10.2996
ланд	-10.2996
▁игру	-10.2998
▁оцени	-10.3001
▁сохранить	-10.3001
▁Буд	-10.3002
▁лекарство	-10.3004
▁сери	-10.3005
▁высок	-10.3005
▁получать	-10.3005
▁Африка	-10.3008
▁интервью	-10.3014
▁посредств	-10.3014
▁химически	-10.3015
▁Кита	-10.3016
▁производство	-10.3021
▁больны	-10.3024
▁доме	-10.3029
▁подс	-10.3031
▁Такие	-10.3034
▁фраз	-10.3034
▁социальн	-10.3039
▁опер	-10.3043
is	-10.3048
▁приходят	-10.3052
▁проник	-10.3055
▁обнаружен	-10.3068
▁платформ	-10.3068
▁театр	-10.3071
ключить	-10.3075
▁повлия	-10.3076
▁вызывает	-10.3079
▁преврати	-10.3079
▁следи	-10.3082
менить	-10.3084
▁подобно	-10.3084
▁отличие	-10.3091
кажите	-10.3091
▁компьютера	-10.3103
▁сложне	-10.3105
▁блог	-10.3124
▁Идея	-10.3124
▁научили	-10.3135
▁сознание	-10.3136
▁общего	-10.3139
лева	-10.3143
▁подар	-10.3146
▁прошло	-10.3151
▁ужасны	-10.3153
▁наблюдаем	-10.3155
▁150	-10.3158
▁достижени	-10.317
▁сложные	-10.3172
▁точка	-10.3173
▁спектр	-10.3176
▁китайск	-10.3176
▁оружие	-10.3176
▁биологически	-10.3178
ch	-10.3183
▁медленно	-10.3186
▁изменили	-10.3187
▁серьёзны	-10.3188
▁обеспечива	-10.3189
пать	-10.3197
гру	-10.3198
▁словно	-10.3207
▁ценности	-10.3207
▁связыва	-10.3209
▁существовани	-10.3213
▁событий	-10.323
▁полагаю	-10.3231
▁похож	-10.3232
▁Три	-10.3249
▁обмен	-10.3251
▁революции	-10.326
▁настоящ	-10.3262
▁американско	-10.3262
▁Вмест	-10.3266
рост	-10.3268
▁открытие	-10.3268
важн	-10.327
▁представляют	-10.3276
▁Фр	-10.328
▁видят	-10.3284
▁лежит	-10.3285
▁господ	-10.3285
▁мощно	-10.3286
▁познакоми	-10.3289
▁Земля	-10.3292
▁стимул	-10.3293
▁плава	-10.3297
▁расту	-10.3298
▁проверя	-10.3298
▁открытия	-10.3299
▁национально	-10.3314
читыва	-10.3315
овсе	-10.3327
кажем	-10.333
▁требуется	-10.3334
▁исполни	-10.334
▁начиная	-10.3341
▁обеща	-10.3342
▁представления	-10.3344
▁медицинско	-10.3345
▁понимания	-10.3346
▁солнечно	-10.3347
▁достижения	-10.3357
▁оказался	-10.3364
▁данно	-10.3365
▁среднем	-10.3369
▁ценность	-10.337
▁сторона	-10.3372
▁имели	-10.3382
стическ	-10.3388
▁футбол	-10.3395
▁счастье	-10.3395
▁попасть	-10.3395
▁Люб	-10.3396
очка	-10.3397
▁робота	-10.3402
▁гражданск	-10.3402
▁рабочих	-10.3403
▁Нас	-10.3409
▁рынка	-10.3414
▁парти	-10.3418
▁новость	-10.3425
▁голоса	-10.3431
▁привело	-10.3438
▁градус	-10.345
▁деятельности	-10.345
▁размышля	-10.345
▁восемь	-10.345
▁производит	-10.345
емых	-10.3451
▁чувствует	-10.3452
▁сыгра	-10.3453
▁горяч	-10.3455
▁хозяйств	-10.3457
ro	-10.3461
ir	-10.3462
▁смотрел	-10.3466
▁чувствова	-10.3478
▁биологии	-10.3481
▁Мир	-10.3486
th	-10.3491
▁сверх	-10.3495
▁опыта	-10.3501
▁бюджет	-10.3506
▁солдат	-10.3506
▁мощны	-10.3507
▁модел	-10.3519
▁белк	-10.3527
▁слуша	-10.3534
▁решила	-10.3537
▁зло	-10.3546
▁шир	-10.355
▁поддерживать	-10.3557
лучается	-10.3557
▁горы	-10.3562
▁письмо	-10.3562
▁запуска	-10.3566
▁отдельно	-10.3568
▁спутник	-10.3572
N	-10.3578
▁чудес	-10.3586
ходим	-10.3587
▁счет	-10.3592
▁Вер	-10.3596
▁отправить	-10.3597
▁тур	-10.36
▁теория	-10.36
▁маги	-10.3601
▁существа	-10.3607
▁возник	-10.3609
▁Вашингтон	-10.3619
▁процвета	-10.3619
▁вновь	-10.3619
▁растёт	-10.3619
▁анти	-10.3622
▁звуча	-10.3622
▁разобраться	-10.3623
▁окружающи	-10.3623
▁пап	-10.3627
эк	-10.3633
▁молодо	-10.3633
▁Кол	-10.3633
▁хватает	-10.3634
лево	-10.3638
▁восприятие	-10.3641
▁контроля	-10.3645
▁Ирак	-10.3645
▁работ	-10.3649
▁жар	-10.3654
▁заказ	-10.3665
▁экране	-10.3668
▁неравенств	-10.3676
▁коралл	-10.3677
▁трех	-10.3678
▁понятие	-10.3681
▁защитить	-10.3687
▁зарабатыва	-10.3691
▁реальном	-10.3692
▁измери	-10.3693
▁смерть	-10.3697
▁Земл	-10.3698
▁вещества	-10.3699
▁поднять	-10.3701
▁действие	-10.3706
▁читал	-10.371
▁занял	-10.3712
▁одному	-10.3716
ur	-10.3718
▁катастроф	-10.3733
▁триллион	-10.3733
▁шимпанзе	-10.3733
▁давление	-10.3733
▁разрушен	-10.3733
▁Значит	-10.3734
▁Перед	-10.3736
гло	-10.3736
▁Факт	-10.3736
▁плод	-10.3738
▁мет	-10.3743
▁услови	-10.3746
▁подходит	-10.3751
легка	-10.3752
▁чист	-10.3752
▁воздуха	-10.3756
▁пределам	-10.3761
▁дву	-10.3762
▁ледник	-10.3765
ленд	-10.3769
оставить	-10.3772
▁передать	-10.3773
▁списк	-10.3774
▁местно	-10.3774
▁масштаба	-10.3777
шая	-10.3778
▁стоял	-10.379
▁тенденци	-10.379
▁зелен	-10.3791
▁пита	-10.3798
▁рамках	-10.3798
▁помог	-10.3799
▁проче	-10.3799
вшая	-10.38
▁учат	-10.3803
▁занять	-10.3808
нном	-10.3813
идеть	-10.3814
▁прошлое	-10.3814
▁увеличива	-10.3817
тика	-10.3822
▁погиб	-10.3829
▁самостоятельно	-10.3837
▁понимани	-10.3839
▁крови	-10.3839
▁налог	-10.3842
▁мгновен	-10.3848
▁СПИД	-10.3848
▁указыва	-10.3848
▁распределен	-10.3848
▁сообща	-10.3848
▁череп	-10.3848
el	-10.3858
▁Обычно	-10.3859
▁Пер	-10.386
▁сверху	-10.3868
▁финансовы	-10.387
▁единственн	-10.3873
▁окружающ	-10.388
рек	-10.3885
▁друзьями	-10.3886
▁пластик	-10.3887
▁элементы	-10.3888
30	-10.3893
▁распозна	-10.3893
▁работник	-10.3894
сек	-10.3895
щение	-10.3901
▁поставил	-10.3901
▁едино	-10.3902
▁внезапно	-10.3906
▁обработк	-10.3906
прежнем	-10.3906
▁опасны	-10.3906
▁Германи	-10.3906
▁туалет	-10.3906
▁хлеб	-10.3906
▁заверш	-10.3907
▁Ответ	-10.391
▁арми	-10.3911
▁Билл	-10.3915
▁неделе	-10.3919
▁международны	-10.3927
▁нежел	-10.393
У	-10.3931
▁отношении	-10.3932
▁свин	-10.394
▁крив	-10.3941
▁упомина	-10.3941
▁Штат	-10.395
▁заключа	-10.3956
▁учёных	-10.3965
▁Сколько	-10.3965
▁определяет	-10.397
▁предложение	-10.397
▁сложност	-10.3972
▁начну	-10.3978
▁физическо	-10.3981
▁провал	-10.3988
▁долг	-10.3992
▁предположи	-10.3995
▁опасно	-10.3995
▁мимо	-10.3998
▁Калифорнии	-10.4003
▁выходит	-10.4007
алл	-10.4016
▁общения	-10.4018
▁взаимодействия	-10.4018
▁ВВП	-10.4024
▁сотруднича	-10.4024
▁Вообще	-10.4024
▁технически	-10.4024
▁ислам	-10.4024
▁выделя	-10.4025
▁различия	-10.4029
▁тепло	-10.4032
▁бесплатно	-10.4035
▁американце	-10.4044
технологи	-10.4052
▁нефть	-10.4057
▁группу	-10.4061
▁вашим	-10.4062
▁историй	-10.4062
▁международно	-10.4065
▁построили	-10.4073
▁отвеча	-10.408
▁присоедини	-10.4083
acebook	-10.4083
▁низки	-10.4083
▁враща	-10.4084
▁запах	-10.4086
льш	-10.4089
мимо	-10.4103
▁заинтересован	-10.4105
▁Ман	-10.4111
▁мировы	-10.4114
наружи	-10.4114
▁безопасность	-10.4115
▁завод	-10.4117
▁Мон	-10.4119
▁гон	-10.4124
▁разработан	-10.4132
равне	-10.4139
▁персонаж	-10.4142
▁добавить	-10.4142
кую	-10.4148
▁университета	-10.4151
телем	-10.4153
▁продукты	-10.416
▁изменил	-10.416
▁проще	-10.4163
▁материалов	-10.4165
▁успешны	-10.4165
▁работающи	-10.4169
ракт	-10.4169
дель	-10.4176
▁удовольствие	-10.4177
▁студенты	-10.4192
▁труб	-10.4193
▁расстройств	-10.4202
▁деятельность	-10.4202
▁увеличить	-10.4205
▁бизнеса	-10.4213
▁сыр	-10.4216
▁акул	-10.4217
ступает	-10.4221
▁биологи	-10.4223
▁компанию	-10.4228
▁чёрны	-10.4232
▁кар	-10.4237
▁Бел	-10.424
▁35	-10.4245
зон	-10.426
▁углекисл	-10.4262
▁лёгки	-10.4262
▁фигур	-10.4262
▁любил	-10.4266
▁причинам	-10.427
▁достигл	-10.4271
▁миф	-10.4274
бес	-10.4289
▁экологи	-10.4292
▁сидя	-10.4304
▁очеред	-10.4304
▁играл	-10.4306
дова	-10.4307
▁развивать	-10.4309
▁распространен	-10.431
▁завис	-10.4318
▁грипп	-10.4323
▁задумыва	-10.4323
▁память	-10.4323
▁отрица	-10.4323
йших	-10.4326
▁отправил	-10.4328
▁продолжал	-10.433
▁друж	-10.4333
▁окружени	-10.4355
▁спроси	-10.4355
▁нрави	-10.436
▁юг	-10.4363
▁Гу	-10.4364
строить	-10.4365
ремя	-10.4367
▁проектов	-10.4368
▁здоровы	-10.4371
▁моря	-10.4371
▁соглас	-10.4372
астую	-10.4374
▁коротки	-10.4376
▁признать	-10.4379
▁Австрали	-10.4384
▁десятилетия	-10.4384
▁перемеща	-10.4384
▁сделает	-10.4384
▁талант	-10.4384
▁ведёт	-10.4384
▁расширен	-10.4385
▁приходилось	-10.4385
▁лодк	-10.4385
▁активно	-10.4385
▁гос	-10.4385
▁спроектирова	-10.4385
▁идет	-10.439
▁называемы	-10.4391
▁парня	-10.4392
▁насилие	-10.4393
▁груди	-10.4393
▁проводить	-10.4408
▁половина	-10.4416
▁заинтересова	-10.4422
▁плот	-10.4423
▁гены	-10.4442
▁памяти	-10.4445
▁содержит	-10.4445
▁сумасшедш	-10.4445
▁автобус	-10.4445
▁вычислени	-10.4445
▁детски	-10.4446
ируя	-10.4446
▁доступно	-10.4449
части	-10.4449
▁Канад	-10.4451
▁возможным	-10.4455
▁Стр	-10.4458
▁существовал	-10.4459
▁диск	-10.4461
▁кожи	-10.4462
▁бесед	-10.4464
▁линия	-10.4468
▁Бар	-10.4472
▁создава	-10.4484
слева	-10.4489
водят	-10.4491
▁Мил	-10.45
▁зелёны	-10.4507
▁позволь	-10.4507
английски	-10.4507
▁агент	-10.4508
▁поехал	-10.4509
▁поверну	-10.4515
▁отличается	-10.452
▁семи	-10.4527
▁преимуществ	-10.4529
▁стрел	-10.4534
▁Воз	-10.4536
шедш	-10.4539
▁понятно	-10.4546
▁роли	-10.455
▁глазами	-10.4554
▁брак	-10.4555
▁множеств	-10.4557
▁ценност	-10.4557
▁инвестици	-10.4559
энд	-10.456
верен	-10.456
▁относит	-10.4563
▁речи	-10.4563
▁Зна	-10.4563
Анджелес	-10.4569
▁комплекс	-10.4569
▁девочек	-10.4569
▁личны	-10.4571
▁учителе	-10.4575
▁опрос	-10.4575
▁мяс	-10.458
▁минуту	-10.458
▁жителе	-10.4592
▁отвечаю	-10.4595
▁морско	-10.4598
▁переговор	-10.4605
центр	-10.4618
нутри	-10.4618
▁различи	-10.4627
▁оставля	-10.4628
▁Два	-10.463
▁благотворительн	-10.4632
▁обстоятельств	-10.4632
▁останавлива	-10.4632
▁постепенно	-10.4632
▁гряз	-10.4632
▁надёжн	-10.4632
▁предположени	-10.4632
▁маленьким	-10.4634
▁продолжительно	-10.4638
▁станци	-10.4639
▁добавля	-10.4639
▁прийти	-10.4646
селе	-10.4647
▁правил	-10.4661
▁типичн	-10.4664
▁поднял	-10.4681
ri	-10.4688
доль	-10.4689
▁психологи	-10.4694
▁библиотек	-10.4695
▁прекрати	-10.4695
▁изучал	-10.4697
▁лекци	-10.4697
▁шоу	-10.4697
▁дорого	-10.4701
▁зл	-10.4703
▁стволовы	-10.4706
▁участи	-10.471
▁честь	-10.4716
▁получал	-10.4717
▁массово	-10.4726
▁двер	-10.4728
la	-10.4737
▁полны	-10.4737
скажем	-10.4739
▁третий	-10.4752
▁Наде	-10.4753
▁Гор	-10.4756
чалось	-10.4757
▁коррупци	-10.4758
▁неожиданно	-10.4758
▁учреждени	-10.4758
▁стресс	-10.4758
▁смотрю	-10.4761
▁надея	-10.4765
▁выража	-10.4768
▁Велик	-10.4772
▁сообщение	-10.4773
▁простым	-10.4781
▁игрок	-10.4786
▁беспоко	-10.4791
▁электрически	-10.4792
▁местност	-10.4803
▁Университет	-10.4822
▁симптом	-10.4822
▁установить	-10.4822
▁помещени	-10.4822
▁составляющ	-10.4823
десят	-10.4826
▁обнаружить	-10.4828
▁полезно	-10.4829
▁полос	-10.4829
жит	-10.4837
▁смотрят	-10.484
▁записыва	-10.4844
фф	-10.4847
▁слон	-10.485
▁измерения	-10.4852
пред	-10.4862
▁существова	-10.4865
▁смертност	-10.4875
▁правы	-10.4876
▁спрашиваю	-10.4876
▁устройств	-10.4883
▁Соединённы	-10.4886
▁коммуникаци	-10.4886
▁феномен	-10.4886
▁установлен	-10.4886
▁передвига	-10.4886
▁единиц	-10.4889
▁проводим	-10.4889
▁сущност	-10.4891
▁поместить	-10.4897
▁закончить	-10.4902
тремя	-10.4905
▁штата	-10.491
▁Ne	-10.4911
▁искал	-10.4924
легче	-10.4929
ad	-10.493
▁Ор	-10.4932
▁средне	-10.4932
▁дерево	-10.4936
▁побед	-10.4941
нски	-10.4942
▁внутренне	-10.4942
▁Ричард	-10.495
▁исключение	-10.495
▁обсуждени	-10.495
▁фабрик	-10.495
▁величайш	-10.495
▁удастся	-10.495
▁ожидал	-10.4951
▁запрет	-10.4952
▁измеря	-10.4952
▁оставил	-10.4955
▁препод	-10.4956
▁взросл	-10.4968
▁тонк	-10.4969
▁Иран	-10.4975
▁ранне	-10.4977
▁предложи	-10.4983
▁чип	-10.499
▁картина	-10.4995
▁болезней	-10.5001
циальн	-10.5004
▁самим	-10.5011
▁Джордж	-10.5015
▁коммерческ	-10.5015
▁полицейск	-10.5015
▁гибк	-10.5015
▁фирм	-10.5016
▁Хоч	-10.5035
даём	-10.5037
▁представлял	-10.5039
▁разнообразие	-10.504
▁заканчива	-10.5053
▁результатов	-10.5061
▁Поз	-10.5069
▁числе	-10.508
▁аутизм	-10.5081
▁инвалид	-10.5081
▁десять	-10.5083
▁финансово	-10.5094
▁фокус	-10.5094
▁Индия	-10.5095
▁захват	-10.5101
▁малы	-10.5107
стоит	-10.511
▁взаимодейству	-10.512
▁значения	-10.5121
▁говори	-10.5127
▁природа	-10.513
▁дли	-10.5132
▁сидит	-10.5134
▁ближайши	-10.5146
▁конструкци	-10.5146
▁реагиру	-10.5146
▁сенсор	-10.5146
▁убийств	-10.5146
▁выполни	-10.5146
▁микроскоп	-10.5147
▁телескоп	-10.5147
▁судьб	-10.5148
▁пожар	-10.5152
▁огн	-10.5158
▁посыла	-10.5158
▁кровь	-10.5166
▁проверить	-10.5167
▁отправили	-10.5168
пят	-10.5169
▁45	-10.5174
казано	-10.5202
▁Пред	-10.5211
▁Конгресс	-10.5212
▁дешёв	-10.5212
▁костюм	-10.5212
▁потребля	-10.5212
▁Наконец	-10.5213
▁топлива	-10.5213
нка	-10.5215
▁зеркал	-10.5216
▁пошли	-10.5216
изация	-10.5223
▁вчера	-10.5223
▁намерен	-10.523
▁ребёнком	-10.5231
us	-10.5235
▁привел	-10.5236
▁родил	-10.5241
▁идеал	-10.5242
▁чуж	-10.5243
▁ядерно	-10.5248
▁20-	-10.5253
спор	-10.5258
▁смотрели	-10.5264
▁трудност	-10.5269
▁пригласил	-10.5276
▁воспользова	-10.5279
▁четверт	-10.5279
▁достойн	-10.5281
▁пишу	-10.5281
▁снижа	-10.5281
▁улица	-10.5281
▁Гре	-10.5286
▁исследовани	-10.529
▁вход	-10.5298
▁водител	-10.53
▁травм	-10.5302
▁оценива	-10.5302
▁Африк	-10.531
▁прочита	-10.5326
▁камен	-10.5326
▁пра	-10.5327
▁класса	-10.5331
▁75	-10.5337
▁учит	-10.5339
▁отслежива	-10.5346
▁Человек	-10.5346
▁деревьев	-10.5346
▁отчёт	-10.5346
▁внутренни	-10.5348
▁экстр	-10.5348
▁двор	-10.5349
начал	-10.5349
▁забыва	-10.535
▁берёт	-10.535
▁другому	-10.5355
енность	-10.5358
▁Кан	-10.5362
▁Боже	-10.5363
▁рассказывал	-10.5364
▁едва	-10.5366
▁сини	-10.5366
йдём	-10.5368
▁объекты	-10.5368
▁кусочк	-10.5373
▁продела	-10.5379
▁Другим	-10.5381
▁иск	-10.5387
▁противо	-10.5399
▁роман	-10.54
▁малыш	-10.5405
▁тёмн	-10.5406
▁Нигери	-10.5414
▁повезл	-10.5414
▁племен	-10.5414
▁идеально	-10.5415
▁случит	-10.5416
▁клиник	-10.5418
▁снят	-10.5436
▁бесконечно	-10.5437
▁весел	-10.5449
▁называл	-10.5456
режде	-10.5457
▁системой	-10.5459
▁исключительно	-10.546
▁магнит	-10.5462
▁жир	-10.5474
▁удиви	-10.5478
▁муравь	-10.5482
▁Мужчин	-10.5482
▁пчёл	-10.5482
▁одинаково	-10.5482
▁Израил	-10.5482
▁Главн	-10.5482
▁сообществ	-10.5484
▁протез	-10.5484
▁мышц	-10.549
▁плеч	-10.5491
▁сообщения	-10.5494
▁производить	-10.5504
▁Хорош	-10.5505
▁произошл	-10.5505
▁виртуальн	-10.5506
▁Буду	-10.5513
▁потребност	-10.5514
▁выставк	-10.5516
▁ходил	-10.5518
▁вызва	-10.5518
▁поставить	-10.5523
▁безопасно	-10.5526
▁взаимосвяз	-10.5528
▁Кени	-10.5529
▁сокращ	-10.553
▁справедливост	-10.5534
пиш	-10.5536
▁существующи	-10.5537
▁задал	-10.5549
,5	-10.555
▁импульс	-10.555
▁предотврати	-10.555
▁потратил	-10.555
▁Эйнштейн	-10.555
▁террорист	-10.5552
▁помогаю	-10.5565
▁пресс	-10.5567
▁морски	-10.5568
▁лё	-10.5573
▁отвечает	-10.5573
▁спросит	-10.5573
▁прошли	-10.5583
▁сложи	-10.5587
▁Зач	-10.5602
▁комнату	-10.5605
▁использован	-10.5617
▁глубоки	-10.5619
▁дополнительны	-10.5619
▁приближа	-10.5619
▁противоречи	-10.5619
▁дверь	-10.5619
▁одинаковы	-10.5619
▁жестоко	-10.5619
▁критик	-10.562
▁удобн	-10.562
▁подпис	-10.5621
▁снижени	-10.5621
▁экономи	-10.5637
▁преми	-10.5638
▁последн	-10.5639
государств	-10.565
▁рабоче	-10.5672
▁слома	-10.5677
участвовать	-10.5689
▁Очевидно	-10.5689
▁предприяти	-10.5689
▁движет	-10.5689
▁участву	-10.5689
▁карман	-10.5691
▁частны	-10.5692
▁давал	-10.5693
▁вспомина	-10.5695
▁инструментов	-10.5696
▁выживани	-10.5698
▁признак	-10.5699
▁аналог	-10.5704
▁доклад	-10.5709
▁коров	-10.5721
ническ	-10.5736
▁Европ	-10.5739
▁Много	-10.574
▁ощущения	-10.5741
▁позволяю	-10.5745
▁любит	-10.5749
▁уязвим	-10.5759
▁разруша	-10.5759
▁рабоч	-10.5761
▁Дети	-10.5766
мель	-10.5766
▁родителям	-10.577
мышлен	-10.5772
▁Отлично	-10.5775
▁благодар	-10.5776
клеточн	-10.5777
▁добрать	-10.5777
▁Лун	-10.5782
20	-10.5783
▁течени	-10.579
ресс	-10.5791
одно	-10.5794
ter	-10.5795
▁ведущ	-10.5796
▁звуков	-10.58
▁приходил	-10.5809
▁американц	-10.5812
Франциск	-10.5829
▁прототип	-10.5829
▁степень	-10.5829
▁баланс	-10.5829
▁диалог	-10.5829
▁улучша	-10.5829
▁метафор	-10.5829
▁датчик	-10.5829
▁помеща	-10.5829
▁сегодняшне	-10.583
▁авари	-10.5831
▁автомат	-10.5831
▁бывает	-10.5836
▁изменила	-10.5839
▁называ	-10.5839
▁приняли	-10.5844
фил	-10.5861
изирован	-10.5861
▁природу	-10.5862
▁попада	-10.5862
▁лучшим	-10.5878
▁основыва	-10.5894
▁образовани	-10.5899
▁горизонт	-10.59
▁минимум	-10.59
▁Всемирн	-10.59
▁упаков	-10.59
▁сценари	-10.5901
▁столети	-10.5902
▁луч	-10.5902
▁долги	-10.5903
▁Самы	-10.5903
▁мирового	-10.5904
▁появил	-10.5906
долго	-10.5915
▁ничто	-10.5919
бран	-10.5921
▁психо	-10.593
▁превращает	-10.5934
▁промышленност	-10.5934
нтов	-10.5935
▁смен	-10.5936
ed	-10.5937
▁поколени	-10.594
▁принял	-10.5947
подобн	-10.5953
▁подверга	-10.5956
▁Сер	-10.5956
▁играю	-10.5957
▁враг	-10.5959
▁словар	-10.5963
▁проектом	-10.5965
▁управление	-10.5971
▁воспроизв	-10.5971
▁расширя	-10.5971
▁Андерсон	-10.5971
▁литератур	-10.5971
▁симметри	-10.5971
▁событие	-10.5971
▁уникальны	-10.5972
▁гриб	-10.5972
▁животным	-10.5972
▁уважени	-10.5973
телями	-10.5974
▁приступ	-10.5976
▁слушать	-10.5982
▁интересует	-10.5987
▁скач	-10.5989
▁ведут	-10.5993
▁прожи	-10.6004
▁района	-10.6007
▁сознания	-10.6008
выше	-10.6014
явить	-10.6015
▁молекулы	-10.6026
▁обязан	-10.6029
▁разрыв	-10.6031
▁поездк	-10.6031
▁реакция	-10.6033
▁заболе	-10.6036
▁потребова	-10.6043
▁аплодисменты	-10.6043
▁зарплат	-10.6043
▁исследу	-10.6043
▁корпораци	-10.6043
▁располага	-10.6043
▁скульптур	-10.6043
▁родственник	-10.6043
▁пенси	-10.6043
▁значимо	-10.6044
▁рисунк	-10.6044
▁Восток	-10.6044
▁кнопк	-10.6044
▁портрет	-10.6044
▁подготовк	-10.6044
▁подходящ	-10.6046
▁избавиться	-10.6049
следовать	-10.605
кус	-10.6052
▁комар	-10.6052
▁цифровы	-10.6055
▁скрыва	-10.6056
▁ждать	-10.6057
▁технологиям	-10.6058
▁непосредственно	-10.6059
▁надежды	-10.6061
▁происходяще	-10.6063
▁национальны	-10.6064
тент	-10.6066
▁деталь	-10.6067
▁пришло	-10.6068
▁сотрудник	-10.607
▁солнце	-10.607
▁прош	-10.6071
▁превратить	-10.6072
пить	-10.6075
▁главным	-10.6079
▁принимают	-10.608
держал	-10.6093
▁напомина	-10.6094
▁пойма	-10.6114
▁Твиттер	-10.6116
▁демонстриру	-10.6116
▁коллекци	-10.6116
▁потеплени	-10.6116
▁быстры	-10.6116
▁любую	-10.6117
▁распространения	-10.6118
▁патент	-10.6118
падают	-10.6125
▁безумн	-10.6126
учу	-10.613
▁сентября	-10.6134
▁творчеств	-10.6136
▁лидеров	-10.614
американ	-10.614
▁маленькую	-10.6149
▁синтез	-10.6163
▁песня	-10.6163
▁квартир	-10.6164
ёшь	-10.6164
▁перемены	-10.6165
▁атмосферу	-10.6169
▁забыл	-10.6176
▁открывает	-10.6179
▁перестал	-10.6179
▁Гар	-10.6185
▁Дэвид	-10.6189
▁Единственн	-10.6189
▁поразительно	-10.6189
▁захватывающ	-10.6189
▁камеры	-10.6189
▁хакер	-10.6189
▁знаменит	-10.619
ing	-10.6192
▁показывал	-10.6193
▁Причин	-10.6194
вшее	-10.6194
▁трениров	-10.6201
▁средство	-10.6204
▁вечно	-10.6216
▁работой	-10.6223
▁лучш	-10.6228
▁удач	-10.6229
водить	-10.6231
▁собирать	-10.6235
▁будущи	-10.6246
▁изображен	-10.6248
▁бур	-10.6248
▁поступил	-10.6251
▁убежден	-10.6258
▁соединен	-10.6259
▁интерфейс	-10.6262
▁Правд	-10.6262
▁колен	-10.6272
образован	-10.6273
▁ПМ	-10.6276
▁постоянн	-10.6281
▁финансировани	-10.6282
▁уход	-10.6282
▁предлага	-10.6288
▁трав	-10.6289
▁площад	-10.6292
▁самолет	-10.6293
▁погод	-10.6299
▁22	-10.6307
▁отража	-10.6309
стях	-10.6312
▁новом	-10.6315
▁меш	-10.6321
▁бри	-10.6322
реш	-10.6324
▁гражданско	-10.6327
▁оружия	-10.6336
▁письма	-10.6336
▁повседневн	-10.6336
▁препятстви	-10.6336
▁столкновени	-10.6336
▁цитат	-10.6337
▁сахар	-10.6339
▁направления	-10.6339
▁терроризм	-10.634
▁хлоп	-10.6341
▁искусственно	-10.6342
▁электронны	-10.6343
▁кресл	-10.6343
чайш	-10.6344
гружен	-10.6346
▁Ниче	-10.6347
чувств	-10.6347
▁Дэн	-10.6347
бежал	-10.6352
▁Штата	-10.6356
▁пус	-10.6357
учим	-10.6364
ированн	-10.6364
▁Фор	-10.6367
▁почувствова	-10.6372
▁эмоциональн	-10.6376
▁ребенка	-10.6376
▁перенос	-10.6378
▁жизненно	-10.6381
▁порт	-10.6383
▁привыкл	-10.6391
▁торговл	-10.6395
▁стекл	-10.6398
▁сложна	-10.6407
▁универсальн	-10.6411
▁стремлени	-10.6411
▁популяци	-10.6411
▁изучить	-10.6411
▁телевидени	-10.6411
▁установил	-10.6411
▁зрение	-10.6411
▁медвед	-10.6412
▁наблюдени	-10.6412
▁слышать	-10.6413
▁2008	-10.6415
▁свойства	-10.642
▁Разве	-10.6425
▁беженце	-10.6425
▁государство	-10.6431
▁напоминает	-10.6431
▁противостоя	-10.6434
селенная	-10.6434
▁коллектив	-10.6435
чек	-10.6435
▁производств	-10.6436
потребления	-10.6445
▁учеб	-10.645
▁верит	-10.6457
▁Марк	-10.6467
▁лун	-10.6469
▁Эд	-10.6471
▁волшебн	-10.6486
▁нынешн	-10.6486
▁счастья	-10.6486
▁установк	-10.6486
▁посеща	-10.6486
▁сильн	-10.6492
▁найден	-10.6495
ab	-10.6496
▁Пре	-10.65
▁верил	-10.6501
▁возникл	-10.6512
ap	-10.6513
▁отрыв	-10.6513
▁Вас	-10.6515
▁распространи	-10.6515
▁23	-10.6516
▁приносит	-10.6519
▁просмотр	-10.6523
▁детско	-10.6529
экономическ	-10.6532
▁орбит	-10.6532
▁мусульман	-10.6534
▁сосуд	-10.6538
▁вечером	-10.6539
подростк	-10.6541
следствие	-10.6556
▁рамк	-10.6556
▁инфекци	-10.6561
▁наблюдения	-10.6561
▁диагноз	-10.6562
▁загрязнен	-10.6562
▁традиционно	-10.6563
▁камера	-10.6563
▁замечательн	-10.6564
бросить	-10.6565
▁нарисова	-10.6565
▁вырасти	-10.6569
▁ракет	-10.659
▁экономист	-10.6593
▁сексуально	-10.6598
▁справить	-10.6599
▁дает	-10.66
▁прибыль	-10.6603
▁красив	-10.6611
▁бедност	-10.6613
▁Мал	-10.6617
▁участник	-10.6622
▁благ	-10.6631
▁специальны	-10.6638
▁характеристик	-10.6638
▁Интересно	-10.6638
▁внешне	-10.6639
▁электричество	-10.6639
▁реформ	-10.6639
▁ритм	-10.6639
▁собрал	-10.6643
▁коротко	-10.6644
▁уверенность	-10.6644
▁слух	-10.6645
▁восстановить	-10.6648
▁мелки	-10.6648
▁прожива	-10.665
▁описан	-10.6653
▁близ	-10.6661
человеческ	-10.6662
▁дума	-10.6663
▁плав	-10.6663
важен	-10.6677
активны	-10.6679
▁рассказываю	-10.6682
▁ежедневно	-10.6689
▁удивлени	-10.6712
▁мак	-10.6712
▁нравятся	-10.6715
▁2010	-10.6715
▁антибиотик	-10.6715
▁дельфин	-10.6715
▁внешни	-10.6715
▁точне	-10.6718
▁99	-10.672
ходили	-10.672
▁хранит	-10.6722
▁длинны	-10.6728
жат	-10.6732
▁последовательно	-10.674
▁сетк	-10.6743
▁конкретны	-10.6745
▁команду	-10.6751
▁некотором	-10.6752
▁зим	-10.6755
▁почувствовал	-10.6757
▁стоил	-10.676
▁принимает	-10.6765
▁старо	-10.6788
▁электричеств	-10.6793
▁автомобиля	-10.6793
▁дискусси	-10.6793
▁астроном	-10.6793
▁изначально	-10.6793
▁найдёт	-10.6793
▁задание	-10.6794
▁слабо	-10.6795
нёс	-10.6803
лизм	-10.6807
▁отличи	-10.6839
фин	-10.6842
▁194	-10.6843
▁долин	-10.6859
▁поэт	-10.6859
▁получен	-10.6862
туда	-10.6868
▁ландшафт	-10.6871
▁презентаци	-10.6871
▁Среди	-10.6872
▁резко	-10.6872
▁учитель	-10.6873
▁ключевы	-10.6873
▁медиа	-10.6883
▁платить	-10.6887
▁сложн	-10.6912
▁порядо	-10.6923
▁захотел	-10.6925
▁настроен	-10.6943
▁революция	-10.6943
конференци	-10.6945
▁предлагаю	-10.6947
▁восстановлен	-10.6948
▁космически	-10.695
▁космическо	-10.695
▁трагеди	-10.695
▁достоинств	-10.695
▁подразумева	-10.695
▁угрожа	-10.695
▁начнём	-10.695
▁впечатля	-10.695
▁выпуска	-10.6955
▁позвонил	-10.6962
▁веществ	-10.6962
▁развиты	-10.6963
▁справедлив	-10.6969
▁мем	-10.697
▁обнаружив	-10.6972
▁Калифорни	-10.6977
to	-10.6978
▁государственны	-10.6981
▁всяки	-10.6991
▁назван	-10.6995
▁нормальны	-10.6996
▁звезды	-10.7008
▁случи	-10.7009
▁Друго	-10.7011
изаци	-10.7013
▁залив	-10.7015
▁площадк	-10.7021
▁St	-10.7023
▁вооруж	-10.7027
▁иллюзи	-10.7029
▁привлечь	-10.7029
▁происхождени	-10.7029
▁отказыва	-10.7029
▁Работа	-10.7029
▁разнообразн	-10.7029
▁подел	-10.703
▁разреши	-10.703
▁приятно	-10.7031
▁начальн	-10.7033
▁воспоминания	-10.7033
▁спуска	-10.7034
▁196	-10.7035
▁принесл	-10.704
Е	-10.7059
класс	-10.706
влекательн	-10.7061
▁прорыв	-10.7064
▁активист	-10.7068
▁среднего	-10.7071
▁квадрат	-10.7083
▁задумать	-10.7097
▁куб	-10.7098
▁вруч	-10.7104
▁строительств	-10.7105
▁глуп	-10.7107
▁подозрева	-10.7109
▁астероид	-10.7109
▁ноутбук	-10.7109
▁бренд	-10.7109
▁Голос	-10.7109
▁исследовательск	-10.711
▁разным	-10.7124
▁темп	-10.7125
▁необходимост	-10.7136
▁имена	-10.7142
▁высше	-10.7147
▁ката	-10.7149
чник	-10.7155
▁насекомых	-10.7155
▁прибыл	-10.7159
ставляют	-10.716
▁государственно	-10.7161
▁похожа	-10.7167
▁способност	-10.7169
ард	-10.7184
▁ником	-10.7185
▁оптимист	-10.719
▁мёртв	-10.719
▁объединить	-10.719
▁новост	-10.7191
▁равны	-10.7191
▁объединен	-10.7191
▁продуктивн	-10.7192
▁посчита	-10.7195
▁действи	-10.7196
атур	-10.7197
▁брал	-10.7199
▁заключен	-10.7199
▁умени	-10.7201
▁компани	-10.721
плоть	-10.7219
вращени	-10.7224
▁показатель	-10.7228
▁мал	-10.7231
▁парне	-10.7241
▁медицины	-10.7251
▁авиа	-10.7256
▁страст	-10.7259
▁руководител	-10.7263
▁Мексик	-10.727
▁опухоль	-10.7271
▁сосредоточи	-10.7271
▁Джеймс	-10.7271
▁комфорт	-10.7271
▁недостатк	-10.7271
▁неплохо	-10.7271
▁рейтинг	-10.7271
▁лестниц	-10.7271
ставляет	-10.7277
▁вернём	-10.7279
▁распространение	-10.7287
▁жидкост	-10.729
▁придет	-10.7291
моем	-10.7295
▁метра	-10.7305
▁красно	-10.7317
▁производят	-10.7321
▁Каж	-10.7324
▁представляю	-10.7333
▁крошечны	-10.7343
▁миг	-10.7344
▁Южн	-10.7349
▁автомобилей	-10.7353
▁Дарвин	-10.7353
▁повыша	-10.7353
▁запрос	-10.7357
▁поймё	-10.736
▁полюс	-10.7362
▁приведу	-10.7365
ладно	-10.7366
▁направление	-10.7367
▁загляну	-10.7367
▁Бен	-10.7369
▁изобрета	-10.7369
ставим	-10.7375
▁отделени	-10.7375
▁спорт	-10.7376
▁выдающи	-10.7381
справить	-10.7381
▁мяч	-10.7387
▁сравн	-10.7392
▁стул	-10.7402
▁революци	-10.7411
производител	-10.7414
▁объектов	-10.7416
▁частя	-10.742
▁60-	-10.7423
▁пищев	-10.743
▁гравитаци	-10.7436
▁индийск	-10.7436
▁палец	-10.7436
▁наследи	-10.7436
▁организован	-10.7437
▁прошлы	-10.7438
▁стоят	-10.7439
▁2009	-10.744
▁поражен	-10.7441
▁задавал	-10.7443
▁разрешение	-10.7446
am	-10.7446
▁пас	-10.7456
▁проведё	-10.7457
▁дорогу	-10.7458
▁сокращени	-10.7461
▁радость	-10.7466
▁электронно	-10.7469
▁путешествия	-10.7476
плен	-10.7493
стон	-10.7495
▁работников	-10.7502
лететь	-10.7503
▁лесов	-10.7508
фар	-10.7516
▁уменьша	-10.7519
▁Англии	-10.7519
▁величин	-10.7519
▁логик	-10.7519
▁сочувстви	-10.7519
▁иностранн	-10.7519
▁Томас	-10.752
дневн	-10.7521
com	-10.7522
▁Помнит	-10.7524
▁ярки	-10.7525
▁стиле	-10.7527
▁наград	-10.7536
▁крут	-10.7536
▁справи	-10.7537
▁Европы	-10.7538
▁бутылк	-10.7544
id	-10.7549
▁присутствующи	-10.7549
▁собираются	-10.7551
▁плох	-10.7553
▁пусто	-10.7557
Э	-10.7558
айн	-10.7561
против	-10.7562
▁поднимает	-10.7565
▁состояния	-10.7565
▁упал	-10.7576
▁чисты	-10.7577
▁учили	-10.7584
▁серьезн	-10.7586
▁испыта	-10.7586
▁серьёзн	-10.7595
▁круто	-10.7601
▁млекопитающи	-10.7603
▁путешествова	-10.7603
▁Звук	-10.7603
▁значительны	-10.7604
▁арест	-10.7606
▁урожа	-10.7609
▁частично	-10.7615
▁покупк	-10.7627
▁двигатель	-10.763
▁слышит	-10.7633
стараюсь	-10.7634
▁Оп	-10.7636
▁здоров	-10.7642
▁нужд	-10.766
▁мысля	-10.766
▁включает	-10.766
▁Майкл	-10.7662
▁предпоч	-10.7663
▁музыкант	-10.7664
американск	-10.7674
▁общени	-10.7677
сексуальн	-10.7684
▁фрагмент	-10.7688
▁The	-10.7688
▁утверждаю	-10.7688
▁млн	-10.7688
▁600	-10.7689
▁пчел	-10.769
▁Привет	-10.7695
▁чувствуют	-10.7696
▁крыс	-10.7697
▁составляют	-10.7698
ведение	-10.7698
▁проверк	-10.7699
ладельц	-10.7714
▁фундаментальны	-10.7715
▁игрушк	-10.7716
▁странам	-10.7728
▁земля	-10.7739
▁подобного	-10.7742
▁1000	-10.7742
▁простая	-10.7744
▁определенны	-10.775
верим	-10.7769
▁мудрост	-10.7771
ступают	-10.7772
▁потребует	-10.7773
▁процедур	-10.7773
▁абстрактн	-10.7773
▁кандидат	-10.7773
▁квартал	-10.7773
▁хвост	-10.7773
▁религиозны	-10.7773
▁плюс	-10.7774
душев	-10.7775
▁определенно	-10.7777
▁замуж	-10.7777
▁верхне	-10.7778
▁рабочие	-10.7779
▁арабск	-10.778
▁добавил	-10.779
▁обладает	-10.781
▁популярны	-10.7822
▁80-	-10.7822
G	-10.7822
▁студентам	-10.7822
▁живет	-10.7823
▁большом	-10.7828
▁уменьшить	-10.7834
▁промышленно	-10.7836
▁отпуск	-10.7845
▁основал	-10.7852
▁встретить	-10.7855
▁жук	-10.7858
▁воссозда	-10.7859
▁неизвестно	-10.7859
▁чётко	-10.7859
▁лечить	-10.786
▁Росси	-10.786
▁повыси	-10.786
▁географи	-10.786
▁попроси	-10.7864
▁существенно	-10.7871
▁старши	-10.7877
▁позад	-10.7895
бан	-10.7933
▁Технологи	-10.7946
▁восторг	-10.7946
▁начнёт	-10.7946
▁окончани	-10.7946
▁равенств	-10.7946
▁Возьмё	-10.7946
▁поощр	-10.7946
▁мягк	-10.7946
▁грузовик	-10.7946
▁наслажда	-10.7946
▁выразить	-10.7946
▁Почти	-10.7946
▁навсегда	-10.7946
▁Важно	-10.7947
▁Истори	-10.7947
▁Оказа	-10.7947
▁биологическо	-10.7949
▁закрыва	-10.7952
▁предложения	-10.7953
▁очевидны	-10.7958
рение	-10.796
▁отличн	-10.7963
▁рискова	-10.7967
ожидать	-10.7993
▁парол	-10.7999
▁называть	-10.8
очный	-10.8002
li	-10.8003
бирают	-10.8005
▁воск	-10.8016
▁товаров	-10.8026
▁рукой	-10.8029
ent	-10.8031
▁аргумент	-10.8034
▁отметить	-10.8034
▁Гарвард	-10.8034
▁лёгко	-10.8034
▁хаос	-10.8034
▁выжив	-10.8036
▁Понимает	-10.8037
▁подростков	-10.8037
▁планировани	-10.8041
▁трёхмерн	-10.8043
▁идеальны	-10.8043
давая	-10.8051
▁существования	-10.8058
▁панел	-10.8059
▁рассматривать	-10.8059
ткуда	-10.8063
▁останет	-10.8071
цин	-10.8085
▁участников	-10.8087
▁обществ	-10.8106
стоять	-10.8113
▁запись	-10.8115
сказыва	-10.8119
▁меж	-10.8121
▁гипотез	-10.8123
▁применения	-10.8123
▁топливо	-10.8123
▁адрес	-10.8123
▁камеру	-10.8123
▁динамик	-10.8123
▁берут	-10.8123
▁произвед	-10.8123
▁состоял	-10.8123
▁окажет	-10.8123
▁занимают	-10.8123
▁худ	-10.8124
▁юмор	-10.8124
▁исторически	-10.8124
▁избирател	-10.8125
▁зме	-10.8133
нцев	-10.814
ойдёт	-10.8146
▁Суд	-10.8151
▁капитализм	-10.8159
▁метро	-10.8161
▁проходил	-10.8173
▁сравнива	-10.8178
строения	-10.818
▁спрашивал	-10.8189
▁пройд	-10.8189
▁мух	-10.8197
▁спутников	-10.8197
▁Какие	-10.8203
▁отобра	-10.8206
▁свидетел	-10.8208
▁Соединенны	-10.8212
▁внимательно	-10.8212
▁гуманитарн	-10.8212
▁соглашени	-10.8212
▁соответстви	-10.8212
▁утверждени	-10.8212
▁обитания	-10.8212
▁обсуди	-10.8212
▁аэропорт	-10.8212
▁нищет	-10.8214
▁сезон	-10.8215
▁пляж	-10.8216
▁попадает	-10.8218
▁риф	-10.8219
▁толп	-10.8225
▁Северн	-10.8229
▁смертельн	-10.8237
▁путе	-10.8238
▁достигнут	-10.8251
▁устойчивы	-10.8267
000	-10.8271
верят	-10.8272
убить	-10.8277
▁печаль	-10.8282
▁страсть	-10.8285
▁городски	-10.8288
▁произойт	-10.8289
▁ткань	-10.829
▁человечество	-10.8299
▁iPhone	-10.8302
▁осуществля	-10.8302
▁рентген	-10.8302
▁Пакистан	-10.8302
▁стабильно	-10.8302
▁дедушк	-10.8302
▁домашни	-10.8302
▁проводит	-10.8304
▁восьми	-10.8304
▁чудо	-10.8304
▁ребят	-10.8304
▁склонны	-10.8304
▁английском	-10.8306
▁объясняет	-10.8308
▁мэр	-10.8308
▁Речь	-10.8311
▁Солнечн	-10.8312
▁ошибок	-10.8321
▁раком	-10.8338
▁цепочк	-10.8343
▁каково	-10.835
▁разнообрази	-10.8358
работало	-10.8362
▁площадь	-10.8365
▁шутк	-10.8368
▁природны	-10.8373
▁смело	-10.8377
▁стоимост	-10.838
правительственн	-10.8381
▁кроват	-10.8382
зависимость	-10.8382
европейск	-10.8393
▁путешеству	-10.8393
▁дыхани	-10.8393
▁минимальн	-10.8393
▁студи	-10.8394
▁продвига	-10.8394
▁пакет	-10.8395
▁повышени	-10.8395
▁кухн	-10.8396
▁груз	-10.8396
▁опубликовал	-10.8399
▁дне	-10.8401
▁упор	-10.841
▁максимально	-10.8413
▁городско	-10.8418
▁Рай	-10.8418
▁основно	-10.8418
▁Обам	-10.8424
▁задавать	-10.8426
▁сельск	-10.8437
▁ждал	-10.8445
▁активность	-10.8447
as	-10.8459
▁снег	-10.8461
▁всеобщ	-10.8461
▁помогал	-10.8467
▁задействова	-10.8485
механическ	-10.8485
▁НАСА	-10.8485
▁ежегодно	-10.8485
▁мобильно	-10.8485
▁праздн	-10.8485
▁жёлт	-10.8485
▁генетическо	-10.8485
аньше	-10.8485
вшую	-10.8486
▁уходит	-10.8486
▁областях	-10.8488
▁поместил	-10.8488
▁произведения	-10.8488
▁27	-10.8497
писания	-10.8498
▁ролик	-10.8503
▁подверг	-10.8505
▁ужин	-10.8506
ставлять	-10.851
▁восприятия	-10.8512
▁проводят	-10.8513
▁страдаю	-10.8516
▁сделанны	-10.8523
▁ушл	-10.8526
▁Оста	-10.8527
▁полученны	-10.8529
вязать	-10.8536
▁спрос	-10.8537
▁слой	-10.8552
берг	-10.8553
▁продемонстрир	-10.8555
▁порог	-10.8561
тобой	-10.8574
счёт	-10.8576
ouTube	-10.8577
▁пожертвова	-10.8577
▁твёрд	-10.8577
▁диаграмм	-10.8577
▁радикально	-10.8577
▁впечатление	-10.8577
▁вдвое	-10.8577
▁Около	-10.8577
▁Чикаг	-10.8578
▁описал	-10.8578
▁Примерн	-10.8584
▁пожилы	-10.8585
▁изобретение	-10.859
▁Созда	-10.8595
▁бок	-10.8601
▁плач	-10.8605
▁Национальн	-10.8607
▁военно	-10.8609
▁польз	-10.8609
▁проходя	-10.8615
▁снизи	-10.862
▁спасени	-10.8622
любить	-10.8625
▁выяснил	-10.8626
▁компьютерны	-10.8628
▁никого	-10.864
говорил	-10.8642
З	-10.8648
▁ламп	-10.8649
▁осознава	-10.8655
▁потряс	-10.8663
▁рецепт	-10.8666
▁понадоби	-10.8667
▁вспышк	-10.8671
▁комментари	-10.8671
▁положительны	-10.8671
▁присутстви	-10.8671
▁участок	-10.8671
▁карикатур	-10.8671
▁распространён	-10.8671
▁фантастическ	-10.8671
▁клинически	-10.8671
▁расчёт	-10.8671
▁отклонени	-10.8672
▁Мартин	-10.8674
▁делиться	-10.8674
▁заплати	-10.8676
▁2007	-10.8677
▁занятия	-10.868
▁Совет	-10.8684
▁балл	-10.8685
▁желания	-10.8685
▁стыд	-10.8691
▁ребен	-10.871
▁вдохновени	-10.8714
▁назначен	-10.8721
▁измерени	-10.8722
▁сотрудников	-10.873
▁преимущество	-10.8731
▁Стар	-10.8734
▁необычно	-10.8735
▁искусственны	-10.8735
▁изобретател	-10.8739
▁Мор	-10.8739
▁больно	-10.8743
▁холодно	-10.875
▁изобретен	-10.8752
▁попытать	-10.8759
▁совместн	-10.8762
▁килограмм	-10.8765
▁устанавлива	-10.8765
▁участвовал	-10.8765
▁вертикальн	-10.8765
▁фильтр	-10.8765
▁квантов	-10.8765
▁реагирова	-10.8765
▁молодёж	-10.8765
▁снизу	-10.8765
▁Спуст	-10.8766
▁производительно	-10.8766
▁биолог	-10.8771
▁договор	-10.8777
▁интенсивно	-10.8777
▁окна	-10.8777
▁золот	-10.8779
▁ожидания	-10.8779
▁безопасны	-10.8783
ологически	-10.8785
▁грани	-10.8787
▁корми	-10.8789
▁вовлечен	-10.8804
▁тяжел	-10.8804
▁снизить	-10.8817
веду	-10.8819
▁увеличивает	-10.8827
▁чьи	-10.8837
▁реали	-10.8841
▁бесплатн	-10.8842
▁батаре	-10.8852
▁250	-10.8858
▁Основ	-10.8858
▁гостин	-10.886
▁врем	-10.886
▁GPS	-10.886
▁Действительно	-10.886
▁вмешательств	-10.886
▁обслужива	-10.886
▁сюжет	-10.886
▁Систем	-10.886
▁январ	-10.8861
▁положил	-10.8861
▁уделя	-10.8862
▁слав	-10.8871
▁находя	-10.8875
▁подошл	-10.8875
▁незнакомц	-10.8877
остр	-10.8884
▁Хар	-10.8886
▁созданны	-10.8887
▁муч	-10.8888
▁меньш	-10.8889
бираем	-10.8894
▁встроен	-10.8899
▁Красн	-10.8901
изован	-10.8902
▁частот	-10.8906
▁создавал	-10.8907
▁выступлени	-10.8925
▁Мед	-10.8936
▁следующ	-10.8945
▁внук	-10.895
▁гром	-10.895
▁Женщины	-10.8956
▁Франции	-10.8956
▁демонстраци	-10.8956
▁невидимы	-10.8956
▁терапи	-10.8956
▁художественн	-10.8956
▁Господ	-10.8956
▁непрерывн	-10.8956
▁сочетани	-10.8956
▁Опять	-10.8957
▁яблок	-10.8957
▁безусловно	-10.8957
▁мега	-10.8958
сайт	-10.8959
▁танцева	-10.8961
▁съед	-10.8961
▁ответственны	-10.8962
▁технологически	-10.8963
▁известна	-10.8963
▁создаё	-10.8964
▁пишет	-10.8964
▁троп	-10.8967
▁родилась	-10.8969
▁Стивен	-10.8971
▁Париж	-10.8971
дешевле	-10.8973
▁молча	-10.8976
▁начне	-10.8977
▁умно	-10.8977
▁Недавн	-10.8984
▁девять	-10.8987
▁явно	-10.8988
центов	-10.9001
▁отражает	-10.9002
▁проведен	-10.9007
▁необходимость	-10.9024
▁творчество	-10.9026
▁особенны	-10.9049
▁Женщина	-10.9053
▁Жизнь	-10.9053
▁взаимоотношени	-10.9053
▁разочарован	-10.9053
▁требовани	-10.9053
▁взаимодействова	-10.9053
▁Ближн	-10.9054
▁подтвержда	-10.9054
▁терпе	-10.9054
▁последующи	-10.9055
▁автоматически	-10.9057
▁принима	-10.9057
▁спокойно	-10.9057
▁убеждения	-10.9059
▁заставля	-10.9069
бель	-10.9084
▁Смотрит	-10.9086
▁красн	-10.9088
▁осуществить	-10.9094
▁индивидуально	-10.9097
чество	-10.91
▁километр	-10.9106
▁вещами	-10.9112
▁Дале	-10.9114
▁солнц	-10.9115
▁старени	-10.9125
▁учить	-10.9136
▁Весь	-10.9137
▁65	-10.9138
▁видение	-10.9139
▁Стив	-10.9145
▁эффективность	-10.9148
▁Одним	-10.9152
▁повсеместн	-10.9152
▁предназначен	-10.9152
▁съёмк	-10.9152
▁четвёрт	-10.9152
▁Доктор	-10.9152
▁поздно	-10.9152
звлечь	-10.9152
▁мышление	-10.9152
▁изучил	-10.9153
▁потребление	-10.9156
▁нарко	-10.9156
un	-10.9157
▁наибольш	-10.9166
▁решает	-10.917
▁последстви	-10.9172
▁обладаю	-10.9175
▁донор	-10.9178
▁стоп	-10.918
▁разработа	-10.9184
▁вычислительн	-10.919
▁страдания	-10.9208
▁шест	-10.9218
▁моральны	-10.9219
▁коллективно	-10.9219
▁персонал	-10.9224
▁обычн	-10.9239
модел	-10.9241
▁отражен	-10.9246
ошел	-10.9248
▁нейро	-10.925
▁Апплодисменты	-10.9251
▁пингвин	-10.9251
▁приведёт	-10.9251
▁тщательно	-10.9251
▁предприня	-10.9251
▁Говоря	-10.9251
▁заявил	-10.9251
▁проигра	-10.9252
▁земно	-10.9254
▁избега	-10.9257
▁круж	-10.9267
▁плотно	-10.9271
▁содержат	-10.9272
▁достигает	-10.928
▁тесно	-10.9281
▁окно	-10.9303
▁вещество	-10.9308
▁продолжают	-10.9311
▁гео	-10.9311
▁пыльц	-10.9318
▁простит	-10.9322
▁означа	-10.9332
▁груд	-10.9338
▁Гер	-10.934
ходящих	-10.9343
▁находящи	-10.9348
▁рацион	-10.9348
▁христиан	-10.9351
▁беспроводн	-10.9351
▁глобализаци	-10.9351
▁применение	-10.9351
▁диабет	-10.9351
▁водоросл	-10.9351
▁переехал	-10.9351
крытие	-10.9352
▁лазер	-10.9354
▁добыч	-10.9354
▁шкал	-10.9356
▁прекрасна	-10.9357
▁сократить	-10.9358
▁сража	-10.9359
▁лево	-10.9369
▁слепо	-10.9372
▁Атлант	-10.9374
▁личность	-10.9374
▁уничтожени	-10.9376
ag	-10.9386
▁точек	-10.9387
хватил	-10.9387
▁заключённы	-10.9395
▁бросил	-10.9414
▁принимал	-10.9421
ho	-10.9431
▁Давай	-10.9442
очень	-10.9446
▁постав	-10.9446
▁1990	-10.9452
▁взгляне	-10.9452
▁скелет	-10.9452
▁клуб	-10.9454
▁изображений	-10.9455
▁существо	-10.9461
▁случиться	-10.9467
▁обход	-10.9472
действует	-10.9474
▁возл	-10.9475
▁шарик	-10.9481
▁поврежден	-10.9485
нтерес	-10.9502
▁коллегами	-10.9509
▁удивительн	-10.951
▁рул	-10.9532
▁понят	-10.9537
ранее	-10.9547
▁вызвал	-10.955
▁Существую	-10.9554
▁восстанавлива	-10.9554
▁предоставлен	-10.9554
▁Руанд	-10.9554
▁учёным	-10.9554
▁немноги	-10.9554
▁творческо	-10.9554
▁приблизительно	-10.9554
▁тишин	-10.9554
▁образовательн	-10.9554
▁гипер	-10.9555
▁рассчитыва	-10.9555
▁палат	-10.9557
▁свободны	-10.9558
▁сравнить	-10.9558
▁выражение	-10.956
▁ярко	-10.9561
▁мертв	-10.9562
▁Будь	-10.9567
▁элит	-10.9572
восток	-10.958
▁падени	-10.9583
▁бедность	-10.9596
▁встречал	-10.9598
▁относят	-10.9608
▁печ	-10.9614
▁парни	-10.9617
▁привет	-10.9619
мыва	-10.964
▁подключи	-10.9642
▁хозяйство	-10.9645
▁Пус	-10.9647
▁сократи	-10.9651
▁мульти	-10.9657
▁опухоли	-10.9657
▁церкв	-10.9657
▁экспедици	-10.9657
▁интуици	-10.9657
▁полиомиелит	-10.9657
▁реактор	-10.9657
▁музей	-10.9657
▁ощути	-10.9657
▁трюк	-10.9657
▁афро	-10.9657
тревож	-10.9657
▁Бостон	-10.9658
▁днём	-10.9658
▁Цель	-10.9661
▁строительство	-10.9662
▁разумно	-10.9663
▁ответственност	-10.9664
▁занимал	-10.9666
▁управляет	-10.9683
▁сложность	-10.9683
разном	-10.9685
▁призыв	-10.9687
▁собирал	-10.9704
▁искр	-10.9708
▁ищет	-10.9711
▁потребность	-10.9712
▁мотиваци	-10.9724
▁поход	-10.9725
▁32	-10.9727
▁сине	-10.974
▁жизненны	-10.9752
▁мастер	-10.9752
▁пожалуй	-10.9758
▁оркестр	-10.9761
▁репутаци	-10.9761
▁энергетик	-10.9761
▁приезжа	-10.9761
▁вечеринк	-10.9761
▁разрешения	-10.9762
▁книж	-10.9763
▁покупать	-10.9763
▁скромн	-10.9764
▁Разум	-10.9764
▁глупо	-10.9765
▁Эрик	-10.9769
▁концерт	-10.977
▁велика	-10.9773
▁БД	-10.9773
▁выиграл	-10.9773
▁крупн	-10.9777
▁случайны	-10.9781
▁предприниматель	-10.9782
▁упомянул	-10.9792
▁прекрасн	-10.9799
▁ядерны	-10.9804
▁мотор	-10.9808
▁согласны	-10.9811
▁принимаем	-10.9813
▁формул	-10.9825
свидетельств	-10.9831
▁расширить	-10.9849
▁повлиял	-10.9849
▁долгосрочно	-10.9866
▁соотношени	-10.9866
▁Международн	-10.9866
▁Огромн	-10.9866
▁Прямо	-10.9866
▁восхища	-10.9866
▁поглоща	-10.9866
▁статус	-10.9866
▁Чарльз	-10.9866
▁учёт	-10.9866
▁смешно	-10.9867
▁учился	-10.9867
▁обозначен	-10.9868
▁сервис	-10.9868
▁Треть	-10.9869
▁ритуал	-10.987
ork	-10.987
▁понадобит	-10.987
▁2005	-10.9873
▁Адам	-10.9878
▁опубликован	-10.9896
▁отвечал	-10.9898
уляци	-10.9921
▁чтени	-10.9927
▁Верно	-10.9942
▁лечени	-10.9942
бур	-10.9955
▁предложен	-10.9959
▁землетрясени	-10.9972
▁инициатив	-10.9972
▁соединить	-10.9972
▁соответствует	-10.9972
▁стихотворени	-10.9972
▁трансформаци	-10.9972
▁требуют	-10.9972
▁упражнени	-10.9972
▁энерго	-10.9973
▁двое	-10.9973
▁струн	-10.9973
▁богатства	-10.9975
▁башн	-10.9976
▁принятия	-10.9976
▁пригород	-10.9977
▁груб	-10.9983
▁англ	-10.9984
▁удивля	-10.9985
▁интересовал	-10.9986
тянуть	-10.9991
пич	-10.9991
▁Закон	-10.9992
▁точны	-10.9995
▁современн	-11.0003
▁превратил	-11.0015
поляр	-11.002
▁эмоционально	-11.0024
▁обрабатыва	-11.0033
▁реальн	-11.0035
▁хвата	-11.0051
▁глобальн	-11.0062
▁золото	-11.0064
▁Западно	-11.0068
▁идеологи	-11.0076
▁беспилотн	-11.008
▁микроорганизм	-11.008
▁организовать	-11.008
▁трущоб	-11.008
▁шрифт	-11.008
▁денежн	-11.008
▁Проект	-11.008
▁невролог	-11.008
▁домашне	-11.008
▁кафе	-11.0081
▁пилот	-11.0081
▁микрофон	-11.0082
▁побочны	-11.0083
▁устроен	-11.0084
▁ребенк	-11.0086
▁лент	-11.0087
▁приспособлен	-11.0088
▁объектив	-11.0093
▁массив	-11.0103
▁напечата	-11.0103
▁необычны	-11.011
▁показало	-11.0116
▁уголк	-11.0122
▁заботить	-11.0132
▁отличают	-11.0149
▁бесконечн	-11.0152
▁точност	-11.0153
▁гидро	-11.0171
▁автомобили	-11.0189
▁адаптирова	-11.0189
▁блестящ	-11.0189
▁гнезд	-11.0189
▁подвержен	-11.0189
▁постройк	-11.0189
▁примитивн	-11.0189
▁порожда	-11.0191
▁Наверно	-11.0192
▁актёр	-11.0192
▁Никогда	-11.0196
▁воздушны	-11.0196
▁школьно	-11.0199
▁Могу	-11.0203
▁западно	-11.0207
рочно	-11.0212
енько	-11.0217
▁Джим	-11.0219
▁привык	-11.0223
▁совершил	-11.0223
▁облегч	-11.0232
▁удовольстви	-11.0234
▁летать	-11.0243
▁руководство	-11.0249
хранения	-11.0256
▁чёрно	-11.026
следовательность	-11.0274
▁хвати	-11.0285
переди	-11.0285
▁крич	-11.029
▁Джен	-11.0298
▁приблиз	-11.0299
▁африканц	-11.0299
▁благосостояни	-11.0299
▁вулкан	-11.0299
▁инструкци	-11.0299
▁преступност	-11.0299
▁сосредоточен	-11.0299
▁траектори	-11.0299
▁эквивалент	-11.0299
▁возобновляем	-11.0299
▁колоссальн	-11.0299
▁посреди	-11.0299
▁состоящ	-11.0299
▁удовлетворен	-11.0299
▁обращени	-11.0299
▁холм	-11.0299
излучени	-11.0299
▁мудр	-11.0302
▁принадлежит	-11.0303
co	-11.0306
▁заключение	-11.0306
озьмите	-11.0315
▁формировани	-11.0322
▁интересна	-11.0333
▁изобрел	-11.0334
▁взаимосвязан	-11.0335
▁сериал	-11.0336
▁ребёнк	-11.0338
▁сохранен	-11.0341
▁Стран	-11.0343
▁проектировани	-11.0352
▁мел	-11.0361
▁страшн	-11.0361
▁корол	-11.0371
▁посетил	-11.0375
ключения	-11.0378
▁инновационн	-11.0384
вучит	-11.0397
▁строк	-11.04
▁скот	-11.0404
▁нарушен	-11.0404
▁любител	-11.0407
▁возьмём	-11.041
▁десятилетий	-11.041
▁организовал	-11.041
▁смартфон	-11.041
▁ущерб	-11.041
▁объем	-11.041
▁Мэри	-11.041
▁мутаци	-11.041
▁продвинут	-11.0411
▁потенциально	-11.0412
▁опира	-11.0412
▁Исследовани	-11.0413
▁отзыв	-11.0417
▁Город	-11.042
▁битв	-11.043
▁пережил	-11.0438
ушка	-11.0438
▁возможностям	-11.0444
остей	-11.0449
▁Средн	-11.0453
▁скучно	-11.0466
▁центрально	-11.0469
▁доск	-11.0472
▁девят	-11.0487
▁поддержа	-11.0494
▁чёрн	-11.0506
▁шелк	-11.0507
▁медленн	-11.0514
▁Египт	-11.0522
▁Институт	-11.0522
▁восхитительн	-11.0522
▁когнитивн	-11.0522
▁преподавател	-11.0522
▁стереотип	-11.0522
▁юридическ	-11.0522
▁придумыва	-11.0522
прыгну	-11.0522
▁ожирени	-11.0522
▁сканирова	-11.0523
▁уменьшени	-11.0523
▁возвращени	-11.0524
убийц	-11.0524
▁дочери	-11.0524
▁пересека	-11.0524
пряжен	-11.0524
▁редки	-11.0525
▁изобретения	-11.0527
▁покрыва	-11.0534
▁перевоз	-11.0541
▁кожу	-11.0542
▁зарази	-11.0543
▁серьезно	-11.0545
▁вселенн	-11.0546
▁колес	-11.055
▁придержива	-11.0555
▁наблюдает	-11.0556
▁Суть	-11.0557
▁оказывают	-11.0557
40	-11.0572
жённ	-11.0579
▁Рад	-11.0579
▁хор	-11.058
▁обманыва	-11.0608
▁выделен	-11.0623
▁независимы	-11.0636
▁сантиметр	-11.0636
▁шоколад	-11.0636
▁доказыва	-11.0636
▁заполни	-11.0636
▁Сахар	-11.0636
▁теряет	-11.0638
▁немало	-11.064
▁добры	-11.0642
▁Мисс	-11.0644
▁активност	-11.0646
НБ	-11.0649
▁Никак	-11.0652
▁построил	-11.0655
▁сохрани	-11.0664
действуют	-11.0671
▁компьютерно	-11.0673
▁чай	-11.0678
▁двигател	-11.0692
▁противоположно	-11.0696
▁Тим	-11.07
▁медицинск	-11.0711
▁обратн	-11.0715
хватить	-11.0721
▁загадк	-11.0722
▁жидк	-11.0725
▁крест	-11.0732
▁королев	-11.0734
▁перешл	-11.0741
кнул	-11.0746
▁мероприяти	-11.0751
▁всевозможны	-11.0751
▁маршрут	-11.0751
▁предыдущи	-11.0751
▁сбережени	-11.0751
▁несчастн	-11.0751
▁требовал	-11.0751
▁учёб	-11.0751
▁2011	-11.0751
▁музее	-11.0751
▁Швеци	-11.0751
▁двадцат	-11.0751
▁комикс	-11.0751
▁раствор	-11.0751
▁широки	-11.0752
подобие	-11.0753
▁параметр	-11.0753
▁глядя	-11.0756
▁слышим	-11.0757
▁жажд	-11.0759
▁поразил	-11.0761
▁формируют	-11.0762
▁китов	-11.0764
▁умираю	-11.0769
жалуйста	-11.0777
ождения	-11.0783
▁соответствую	-11.0796
▁тёмно	-11.0805
▁вдохновил	-11.0823
ледовательно	-11.0824
▁желани	-11.083
▁популярно	-11.0855
▁сущность	-11.0857
▁неизбежно	-11.086
▁крупно	-11.0862
▁Apple	-11.0867
▁Альцгеймер	-11.0867
▁агрессивн	-11.0867
▁конкуренци	-11.0867
▁оптимизм	-11.0867
▁пейзаж	-11.0867
▁преступник	-11.0867
▁хищник	-11.0867
▁захочет	-11.0867
▁заявля	-11.0867
▁концентраци	-11.0867
▁рекорд	-11.0867
▁дожде	-11.0867
▁держит	-11.0867
▁берём	-11.0867
▁парниковы	-11.0868
▁тропически	-11.087
▁питательны	-11.087
▁акци	-11.0876
▁означало	-11.0879
▁вырабатыва	-11.0896
▁заражен	-11.0896
▁изготовлен	-11.09
▁кабел	-11.0904
▁рассмотри	-11.0904
▁губ	-11.0908
▁просил	-11.0912
▁программировани	-11.0922
▁французск	-11.0933
здор	-11.0936
еньк	-11.0942
ставят	-11.0943
▁ссылк	-11.0945
▁упомяну	-11.095
▁южно	-11.0956
ладить	-11.0963
▁ожидаем	-11.0985
▁пассажир	-11.0985
▁сфокусирова	-11.0985
▁хромосом	-11.0985
▁Похоже	-11.0985
▁поразительны	-11.0985
▁значимы	-11.0985
▁извлека	-11.0985
▁проследи	-11.0985
▁улыба	-11.0985
▁поэзи	-11.0985
▁сомнева	-11.0985
▁интеллектуальны	-11.0985
▁Фонд	-11.0986
▁пойдёт	-11.0987
▁Музе	-11.0988
▁гормон	-11.099
▁пальцев	-11.0991
▁волнует	-11.0992
▁способствуе	-11.0992
▁умерл	-11.0993
▁крошечн	-11.0999
▁Взгляните	-11.1
▁обменива	-11.1001
▁рабств	-11.1002
▁иммунн	-11.1005
▁плоск	-11.1022
▁квадратны	-11.1024
▁пусты	-11.1028
Джер	-11.1032
▁беременн	-11.1037
▁предлагает	-11.1066
▁Хан	-11.1087
▁Эфиопи	-11.1104
▁иллюстраци	-11.1104
▁несомненно	-11.1104
▁объявил	-11.1104
▁похорон	-11.1104
▁пирамид	-11.1104
▁превыша	-11.1104
▁перемещени	-11.1104
▁функциональн	-11.1104
▁дяд	-11.1105
▁удаётся	-11.1109
▁промышленны	-11.1109
▁опуска	-11.111
тянул	-11.1111
▁Пять	-11.1112
▁овощ	-11.1115
▁родно	-11.1116
▁28	-11.1117
▁оригинальн	-11.1117
▁климатически	-11.1118
▁дипломат	-11.1121
▁руч	-11.1122
▁западны	-11.1123
▁лидерств	-11.1128
▁занимаем	-11.1139
▁составил	-11.1155
▁неверно	-11.1163
▁чудесны	-11.1174
▁слушал	-11.1188
кратно	-11.1188
▁сталкиваем	-11.1207
Американск	-11.1224
▁комбинаци	-11.1224
▁приоритет	-11.1224
▁просматрива	-11.1224
▁самоубийств	-11.1224
▁таблиц	-11.1224
▁затрагива	-11.1224
▁тысячелети	-11.1224
▁исполня	-11.1224
▁резерв	-11.1224
▁продвижени	-11.1224
▁обширн	-11.1224
▁уникально	-11.1224
▁геометри	-11.1225
▁тратят	-11.1225
▁огонь	-11.1226
▁неважно	-11.1227
▁1960	-11.1228
▁представлять	-11.1228
▁аэро	-11.123
▁подавлен	-11.123
▁объединил	-11.1231
▁валют	-11.1232
▁странным	-11.1236
▁пр	-11.1256
▁прочитал	-11.1268
▁вызван	-11.1276
▁сухо	-11.128
▁прозрачн	-11.1284
▁глин	-11.129
▁состоят	-11.1291
▁уличн	-11.1317
▁поддержани	-11.1332
▁Результат	-11.1346
▁дисциплин	-11.1346
▁изобража	-11.1346
▁посвяти	-11.1346
▁психически	-11.1346
▁публично	-11.1346
▁архив	-11.1346
▁Техас	-11.1346
▁предпочитаю	-11.1346
▁гольф	-11.1346
▁инстинкт	-11.1346
▁вымирани	-11.1346
▁гнев	-11.1347
,000	-11.1347
▁восстановления	-11.1348
▁голосовани	-11.1349
▁засух	-11.1349
▁2004	-11.1353
▁Сири	-11.1356
▁слепы	-11.1362
▁Банк	-11.1374
▁Обще	-11.139
▁операционн	-11.139
▁Ch	-11.1395
вшем	-11.1399
▁пил	-11.14
▁противоположн	-11.1405
▁трени	-11.1411
▁120	-11.1417
▁трети	-11.142
▁Национально	-11.143
▁прояви	-11.1451
▁выигра	-11.1462
▁Необходимо	-11.147
▁Таймс	-11.147
▁адвокат	-11.147
▁гламур	-11.147
▁кабинет	-11.147
▁обязательств	-11.147
▁соревновани	-11.147
▁ждёт	-11.147
▁паразит	-11.147
▁догада	-11.147
▁Роберт	-11.147
▁флаг	-11.147
▁видеоигр	-11.1472
читать	-11.1474
▁просьб	-11.1475
▁составлял	-11.1476
▁2006	-11.1476
▁яйца	-11.1477
▁решают	-11.1484
слать	-11.1487
▁наруж	-11.1492
▁электроник	-11.1494
▁95	-11.1506
▁уменьши	-11.1507
▁нуля	-11.1508
прашива	-11.1513
▁предпринима	-11.1523
пользуются	-11.1528
▁лоб	-11.1531
▁печата	-11.1535
▁развивает	-11.154
▁северно	-11.1554
▁рыночн	-11.1555
▁всяко	-11.1568
▁беспокоить	-11.1572
▁700	-11.1575
▁Кир	-11.1578
делайте	-11.1583
▁шут	-11.1584
▁Колумби	-11.1595
▁Компьютер	-11.1595
▁Особенно	-11.1595
▁Правительств	-11.1595
▁инвестор	-11.1595
▁любопытств	-11.1595
▁парадокс	-11.1595
▁посередине	-11.1595
▁шаблон	-11.1595
▁муравьёв	-11.1595
▁просыпа	-11.1595
▁принтер	-11.1595
▁гармони	-11.1595
▁задания	-11.1595
▁продолжени	-11.1597
▁выйдет	-11.1598
▁свеч	-11.1598
▁родитель	-11.1599
▁лыж	-11.16
▁диагностик	-11.1601
▁стиль	-11.1601
▁потрясающ	-11.1602
▁убрать	-11.1602
▁указан	-11.1605
▁Посмотрим	-11.161
▁спусти	-11.1619
культур	-11.1636
▁покупател	-11.1649
▁южн	-11.165
▁руководств	-11.1651
▁демо	-11.1658
▁виртуально	-11.1676
▁программист	-11.1678
▁объяснил	-11.1696
▁невероятн	-11.1714
▁конкурс	-11.1721
▁полушари	-11.1721
▁психиатр	-11.1721
▁прыж	-11.1721
▁нелегко	-11.1721
▁послуж	-11.1721
▁покинул	-11.1721
▁подробност	-11.1721
▁функционирова	-11.1722
▁отцом	-11.1722
▁техническо	-11.1722
▁наруша	-11.1723
▁предпочтени	-11.1723
▁произведение	-11.1726
▁Союз	-11.1726
▁демократически	-11.1727
,2	-11.1727
▁выстав	-11.1732
▁начинаю	-11.174
▁трубк	-11.1743
▁сознани	-11.175
▁погибл	-11.175
▁800	-11.1768
▁стимулирова	-11.1788
двинуть	-11.1788
▁сообщи	-11.1823
▁воспитани	-11.1826
▁записан	-11.1831
▁воспоминани	-11.1843
нимаешь	-11.1846
▁Википеди	-11.1849
▁благополучи	-11.1849
▁дефицит	-11.1849
▁заявление	-11.1849
▁исчезновени	-11.1849
▁маркетинг	-11.1849
▁неожиданны	-11.1849
▁сопровожда	-11.1849
▁учёный	-11.1849
▁бумажн	-11.1849
▁ускоря	-11.1849
▁нехватк	-11.185
▁ненавист	-11.185
бавля	-11.185
▁Джули	-11.1851
▁способствова	-11.1851
▁поставлен	-11.1853
▁завершени	-11.1859
▁кибер	-11.1861
▁технологическо	-11.1862
▁обязанност	-11.1876
звините	-11.1877
▁Пожалуй	-11.1896
Ж	-11.1899
▁плит	-11.1899
▁управлени	-11.1909
дадим	-11.1912
▁26	-11.1913
▁прозрачност	-11.1915
▁популяр	-11.1919
▁берет	-11.192
ul	-11.1924
▁радиаци	-11.1928
▁упрощ	-11.1934
▁исследователе	-11.1938
ставлю	-11.195
▁Тер	-11.1953
▁разумеет	-11.1958
▁Две	-11.1959
человеч	-11.1959
▁гаранти	-11.1963
▁бейсбол	-11.1979
▁2012	-11.1979
▁бензин	-11.1979
▁дождь	-11.1979
▁писатель	-11.1979
▁поведенческ	-11.1979
▁приглаша	-11.1979
▁проанализирова	-11.1979
▁синдром	-11.1979
▁фрукт	-11.1979
▁Британи	-11.1979
▁корабль	-11.1979
▁фунтов	-11.1979
▁жестоки	-11.1979
▁перечисл	-11.1979
▁прыга	-11.1979
▁раскрыть	-11.198
▁исчезл	-11.198
▁выпускник	-11.1981
▁Титан	-11.1982
▁аренд	-11.1984
▁повреждения	-11.1988
▁водород	-11.1989
звуч	-11.1989
▁встал	-11.1991
▁выреза	-11.1996
▁поведени	-11.2002
▁магнитно	-11.2017
▁прочн	-11.2033
едят	-11.2041
▁Майк	-11.2043
▁семейны	-11.2047
▁власт	-11.2056
▁наполнен	-11.2058
▁хит	-11.2059
▁генерал	-11.2085
▁внутренн	-11.2085
60	-11.2094
тянут	-11.2096
▁лед	-11.2103
▁английско	-11.2105
▁чест	-11.2109
остаточно	-11.2111
▁Стэнфорд	-11.2111
▁визуализаци	-11.2111
▁энтузиазм	-11.2111
▁дистанци	-11.2111
▁разновидност	-11.2111
▁галере	-11.2111
нвестировать	-11.2111
▁выстрел	-11.2111
▁привычк	-11.2111
▁умрё	-11.2112
▁Молод	-11.2112
▁сжига	-11.2112
▁массовы	-11.2113
▁предсказыва	-11.2114
▁эффективност	-11.2114
▁забыть	-11.2115
▁худши	-11.2117
▁Итали	-11.2119
▁причё	-11.2119
▁Буш	-11.2124
▁шахт	-11.2126
▁повторить	-11.2131
▁размышлени	-11.2134
▁громко	-11.2134
▁Использу	-11.2139
▁пластиковы	-11.2154
▁восточно	-11.2155
▁разговаривал	-11.2164
▁куск	-11.2171
▁развивающе	-11.2171
▁электрическ	-11.2173
▁совершенств	-11.2174
▁изобре	-11.2187
▁загад	-11.2188
▁сообщени	-11.2188
▁выступал	-11.219
▁предпринимателе	-11.2195
▁летучи	-11.2198
▁физическ	-11.2199
▁Сдела	-11.2204
▁путешестви	-11.2211
▁возвращает	-11.2222
▁льв	-11.2222
цикл	-11.2229
▁детск	-11.2235
▁недостато	-11.2243
льскохозяйственн	-11.2244
▁MIT	-11.2244
▁компромисс	-11.2244
▁холодильник	-11.2244
▁ископаемы	-11.2244
▁исполнени	-11.2244
▁заложен	-11.2244
▁тарелк	-11.2245
▁психологически	-11.2246
▁Питер	-11.2247
▁исследователи	-11.2247
▁1980	-11.2248
,3	-11.2248
▁названия	-11.2252
▁присутствует	-11.2253
▁Начнё	-11.2254
▁песк	-11.2259
▁взорва	-11.2266
▁деньгам	-11.2267
влечение	-11.2271
▁взаимо	-11.2278
▁поступк	-11.23
думаешь	-11.2304
▁обратил	-11.2312
▁посвящен	-11.2314
▁добыва	-11.2321
▁ручк	-11.2322
▁No	-11.2327
марк	-11.234
олнечн	-11.2343
▁приключени	-11.2346
▁возмож	-11.2375
▁Оксфорд	-11.2379
▁приглашен	-11.2379
▁Вероятно	-11.2379
▁диапазон	-11.2379
▁механик	-11.2379
▁некоммерческ	-11.2379
▁предубеждени	-11.2379
▁удобрени	-11.2379
▁чрезмерн	-11.2379
▁контракт	-11.2379
▁преобразовани	-11.2379
▁начинать	-11.2379
▁юрист	-11.2379
▁генетик	-11.2381
▁служа	-11.2383
▁обожаю	-11.2383
▁соединения	-11.2385
ard	-11.2386
известен	-11.2386
▁имеющих	-11.239
▁распознавани	-11.241
▁устал	-11.2429
▁переключ	-11.2431
▁Жив	-11.2436
▁образуют	-11.2442
▁покида	-11.2445
ализирова	-11.2447
▁продолжил	-11.2449
бывают	-11.2464
порить	-11.2479
▁оставши	-11.2486
▁готовить	-11.25
▁объед	-11.2506
▁выражен	-11.2509
▁Между	-11.2516
▁пропаганд	-11.2516
▁Лучше	-11.2516
▁Манхэттен	-11.2516
▁ингредиент	-11.2516
▁подтвержден	-11.2516
▁редактор	-11.2516
▁хрупк	-11.2516
▁колебани	-11.2516
▁продовольственн	-11.2516
▁нейробиолог	-11.2516
▁обложк	-11.2516
▁диаметр	-11.2516
▁Браун	-11.2516
▁громадн	-11.2517
▁грустн	-11.2517
▁Уганд	-11.2517
▁незаконн	-11.2517
несут	-11.2517
▁Маленьк	-11.2518
▁чашк	-11.2518
▁Эбол	-11.2518
▁экологическо	-11.2519
▁мастерск	-11.2521
▁пропуска	-11.2521
▁нарушения	-11.2524
▁БФ	-11.2525
▁ТВ	-11.2525
▁издели	-11.2525
восточн	-11.2527
▁находитесь	-11.253
▁примат	-11.253
▁столиц	-11.2535
▁забрать	-11.2535
▁метан	-11.2539
▁сообщил	-11.2544
▁определил	-11.2547
далеко	-11.2585
▁учебник	-11.2585
ЭС	-11.2586
▁мужско	-11.26
▁публикаци	-11.2607
▁подходил	-11.2609
ect	-11.2617
ороче	-11.2635
▁разрешен	-11.2637
▁входит	-11.2648
▁невозможны	-11.2655
▁передвижения	-11.2655
▁пешеход	-11.2655
▁пистолет	-11.2655
▁предотвращени	-11.2655
▁регулярно	-11.2655
▁сэкономи	-11.2655
▁окончательн	-11.2655
▁потратить	-11.2655
▁Довольно	-11.2655
▁барьер	-11.2655
▁роскош	-11.2655
▁наверху	-11.2655
▁реализаци	-11.2655
▁отвлек	-11.2656
кручива	-11.2656
▁Сатурн	-11.2656
▁звал	-11.2657
▁приземли	-11.2657
um	-11.2662
▁уровн	-11.2671
▁испытал	-11.268
▁встречает	-11.2681
▁увлечен	-11.2687
нтин	-11.2711
▁сопереживани	-11.2719
▁беременност	-11.2733
ближе	-11.2744
БР	-11.2756
▁мотив	-11.2782
▁плакат	-11.2784
Эн	-11.2788
▁помощник	-11.2791
▁премьер	-11.2796
▁алкогол	-11.2796
▁бедстви	-11.2796
▁геноцид	-11.2796
▁объявлен	-11.2796
▁поблагодари	-11.2796
▁производим	-11.2796
иммигрант	-11.2796
РНК	-11.2796
▁обстановк	-11.2796
▁охватыва	-11.2796
▁замедлен	-11.2796
▁мелоди	-11.2796
▁электростанци	-11.2796
▁рассужда	-11.2796
▁Эконом	-11.2796
▁колонии	-11.2796
▁ураган	-11.2796
▁отчаяни	-11.2796
▁субъективн	-11.2796
▁натуральн	-11.2796
▁инвестиру	-11.2797
▁дебат	-11.2797
▁ученых	-11.2797
▁семена	-11.2797
▁представляем	-11.2798
▁выключ	-11.2798
▁бетон	-11.2799
▁мелоч	-11.2799
▁сравним	-11.28
▁Машин	-11.2801
▁пригодн	-11.2802
ездить	-11.2805
▁подводны	-11.2806
▁спортивн	-11.2811
▁линз	-11.2819
▁подсчита	-11.282
научн	-11.2822
▁Неуж	-11.2824
▁зависим	-11.2833
звонить	-11.2858
ходишь	-11.286
проект	-11.2873
▁Игр	-11.2878
▁желт	-11.2889
▁Дума	-11.2895
предпринимател	-11.2901
▁усовершенствова	-11.2904
▁самц	-11.2911
▁ствол	-11.2915
▁выращивани	-11.2915
▁1970	-11.2939
▁дискриминаци	-11.2939
▁кошмар	-11.2939
▁переработк	-11.2939
▁послание	-11.2939
▁услышит	-11.2939
▁корабля	-11.2939
▁супруг	-11.2939
▁погружа	-11.2939
▁убежда	-11.2939
▁привез	-11.2939
▁фанат	-11.2939
▁кратко	-11.2939
▁смешива	-11.294
▁запечатле	-11.2941
▁анатоми	-11.2941
▁толст	-11.2942
▁Скоре	-11.2943
▁доставк	-11.2945
▁рецептор	-11.2945
▁радости	-11.2951
▁умру	-11.2952
▁передаёт	-11.2956
▁несправедлив	-11.2956
▁начальник	-11.2963
просту	-11.2968
▁принадлеж	-11.297
истическо	-11.2973
▁ветрян	-11.2982
▁никуд	-11.2982
регулирован	-11.2988
ющему	-11.3004
▁краск	-11.3008
эффект	-11.3019
гласит	-11.3035
▁запомина	-11.305
▁маск	-11.3057
▁безопасн	-11.3065
▁Re	-11.3077
тягивает	-11.3078
▁Учёные	-11.3084
▁бассейн	-11.3084
▁взволнован	-11.3084
▁кукуруз	-11.3084
▁октябр	-11.3084
▁предыдуще	-11.3084
▁страдает	-11.3084
▁утверждает	-11.3084
▁церемони	-11.3084
▁освобожден	-11.3084
▁парламент	-11.3084
▁первоначальн	-11.3084
▁сформировал	-11.3084
▁академи	-11.3084
▁сужден	-11.3084
▁партнер	-11.3084
▁проповед	-11.3084
▁перемести	-11.3084
▁рыболов	-11.3084
▁надпись	-11.3084
▁Франк	-11.3085
▁высказывани	-11.3086
▁термо	-11.3087
▁1,5	-11.3087
недельн	-11.3088
▁билет	-11.3088
▁определять	-11.3089
▁строительны	-11.3089
and	-11.309
▁камне	-11.3093
▁покажет	-11.3099
▁наилучш	-11.3099
▁намерения	-11.3103
▁Смит	-11.3107
▁насекомы	-11.3147
▁ставит	-11.3156
▁решит	-11.3191
▁решающ	-11.3196
тверж	-11.3202
третьи	-11.3209
▁культ	-11.3229
▁Александр	-11.3231
▁Брайан	-11.3231
▁Прекрасн	-11.3231
▁инфицирова	-11.3231
▁кирпич	-11.3231
▁корпоративн	-11.3231
▁присутствова	-11.3231
▁содержащ	-11.3231
▁супермаркет	-11.3231
▁таблетк	-11.3231
▁коридор	-11.3231
▁феминист	-11.3231
▁легенд	-11.3231
▁изолирован	-11.3231
▁отклик	-11.3231
▁Часто	-11.3231
нервнича	-11.3231
▁Вспомни	-11.3231
▁файл	-11.3232
▁отправлять	-11.3232
▁визит	-11.3232
▁разреша	-11.3232
▁импери	-11.3232
▁блюд	-11.3232
▁пожела	-11.3234
▁контролирует	-11.3235
▁эволюционно	-11.3236
▁просит	-11.3237
▁ключево	-11.3237
тивны	-11.3255
▁разумны	-11.3264
нимают	-11.3286
летают	-11.3289
BM	-11.3296
▁казн	-11.3326
контролируем	-11.3327
▁очевид	-11.3336
▁тестировани	-11.3374
▁конкурент	-11.3379
▁индивид	-11.338
▁аспирант	-11.338
▁обеспокоен	-11.338
▁побережья	-11.338
▁попробуем	-11.338
▁презерватив	-11.338
▁соответствова	-11.338
▁переосмысли	-11.338
▁заголовк	-11.338
▁интеллектуально	-11.338
оригами	-11.338
▁возьму	-11.338
▁ненавиде	-11.338
▁размеща	-11.338
▁шприц	-11.338
▁умнее	-11.3384
▁продавал	-11.3385
▁Готов	-11.3385
▁исчезает	-11.3387
▁2003	-11.3388
▁лицензи	-11.3388
▁CA	-11.3388
▁сторонник	-11.3389
▁привязан	-11.3391
▁Дела	-11.3395
▁нападени	-11.3397
▁приятны	-11.34
носител	-11.3405
▁читател	-11.3407
▁постара	-11.3412
▁насыщен	-11.3419
▁Джек	-11.3455
▁понятны	-11.3456
▁войск	-11.3461
▁материальны	-11.3471
удивительно	-11.3473
слушайте	-11.3482
▁Школ	-11.3491
▁финансирова	-11.3493
▁приход	-11.3496
▁Войн	-11.3498
пространств	-11.3505
задач	-11.3523
▁соглаша	-11.3532
▁Флорид	-11.3532
▁предупреждени	-11.3532
▁присоединя	-11.3532
▁равновеси	-11.3532
▁экспорт	-11.3532
проигрыва	-11.3532
▁накаплива	-11.3532
▁необыкновенн	-11.3532
▁превосходн	-11.3532
▁критери	-11.3532
▁нагрузк	-11.3532
▁действующ	-11.3532
▁затрону	-11.3532
▁подготовить	-11.3532
▁остановк	-11.3532
▁акцент	-11.3532
зовём	-11.3533
▁Кевин	-11.3533
▁гладк	-11.3534
▁хранил	-11.3534
▁теряют	-11.3534
▁медуз	-11.3536
▁2,5	-11.3536
▁съест	-11.3536
▁определяют	-11.3537
▁тихо	-11.3542
▁Гугл	-11.3545
▁заповедник	-11.3546
▁ставк	-11.3546
читаю	-11.3557
▁Мирово	-11.3566
▁заполнен	-11.358
▁линейн	-11.3585
▁сидящи	-11.3587
▁происходящи	-11.3598
▁верны	-11.3601
▁Никол	-11.3606
▁честны	-11.3619
меньше	-11.3636
▁базовы	-11.3641
▁несчасть	-11.366
▁Немног	-11.3664
▁употребл	-11.3674
энергетическ	-11.3675
▁раковы	-11.3679
временно	-11.3685
▁Искусств	-11.3685
▁Норвеги	-11.3685
▁замедли	-11.3685
▁зарегистрирова	-11.3685
▁контейнер	-11.3685
▁немедленно	-11.3685
▁повествовани	-11.3685
▁привилеги	-11.3685
▁соблазн	-11.3685
▁Четыре	-11.3685
▁кислот	-11.3685
▁разрушительн	-11.3685
▁улыбк	-11.3685
▁эволюционировал	-11.3685
▁печень	-11.3686
▁анимаци	-11.3686
дышать	-11.3686
▁гараж	-11.3687
▁Супер	-11.3687
▁протеин	-11.3687
▁палочк	-11.3689
▁решаем	-11.3689
▁поселени	-11.3691
▁разреза	-11.3694
следовало	-11.3694
послед	-11.3696
▁твит	-11.3697
▁листья	-11.3697
▁длительно	-11.3699
▁сказав	-11.3699
▁сумк	-11.3721
▁Тихо	-11.3725
▁духовно	-11.3742
▁Наук	-11.3745
лучше	-11.3762
▁беспокоит	-11.3781
▁Должн	-11.3825
▁избави	-11.3831
▁Голливуд	-11.3842
▁воплотить	-11.3842
▁распоряжени	-11.3842
▁электроэнерги	-11.3842
▁Нобелевск	-11.3842
▁адаптаци	-11.3842
▁беспрецедентн	-11.3842
▁дальнейше	-11.3842
▁парадигм	-11.3842
▁декабр	-11.3842
▁сетчатк	-11.3842
▁паутин	-11.3842
▁воплощен	-11.3842
▁индивидуальны	-11.3842
▁слежк	-11.3842
▁оператор	-11.3842
▁камня	-11.3842
▁мысленно	-11.3842
▁религиозно	-11.3842
▁легки	-11.3843
ack	-11.3843
▁одиночеств	-11.3843
▁дур	-11.3844
▁уехал	-11.3845
меньшинств	-11.3845
▁разверну	-11.3847
▁выражения	-11.3847
▁энергетически	-11.3852
▁парковк	-11.3855
опустим	-11.3859
▁Начина	-11.3867
▁исходит	-11.3877
▁Куд	-11.3879
▁лампочк	-11.3883
оедино	-11.3903
лучалось	-11.3904
▁заканчивает	-11.3907
крытия	-11.3916
▁продвин	-11.3917
▁ограниченны	-11.3918
▁соответствующи	-11.3938
▁исчезаю	-11.395
▁совпада	-11.3953
▁жителям	-11.3957
▁носит	-11.3969
▁Micros	-11.4
▁Предположи	-11.4
▁любопытно	-11.4
▁эпизод	-11.4
▁запущен	-11.4
▁спонсор	-11.4
▁фантастик	-11.4
▁экзамен	-11.4
▁Гейтс	-11.4
▁ископаемо	-11.4
▁подъём	-11.4
коричнев	-11.4
▁Дизайн	-11.4
▁закономерност	-11.4
▁погрузи	-11.4
▁подвижн	-11.4
▁протокол	-11.4
▁монитор	-11.4
▁Генри	-11.4
▁динамичн	-11.4001
▁Библи	-11.4001
▁изобили	-11.4001
▁Дерек	-11.4001
▁Честно	-11.4001
▁Совсем	-11.4001
▁химикат	-11.4001
▁привлекательны	-11.4002
ation	-11.4002
▁отправляют	-11.4002
▁тверд	-11.4002
▁высши	-11.4003
▁рационально	-11.4004
▁позитивно	-11.4006
▁допуска	-11.4007
▁колод	-11.4008
▁беспокойств	-11.4009
демократ	-11.4014
▁гарантирова	-11.402
▁творени	-11.4032
близнец	-11.4034
▁стеклянн	-11.4039
▁заходит	-11.4048
▁День	-11.4055
▁ежедневн	-11.4056
▁создател	-11.4074
▁забира	-11.4087
▁пролета	-11.4098
ходящие	-11.4105
систем	-11.4117
▁аналогичн	-11.4126
революционн	-11.4135
▁трудны	-11.4148
прощения	-11.4153
▁устроил	-11.4154
пробуйте	-11.4162
▁Золото	-11.4162
▁бессмысленн	-11.4162
▁выигрыва	-11.4162
▁запрограммирова	-11.4162
▁проявления	-11.4162
▁сооружени	-11.4162
▁феврал	-11.4162
▁демографическ	-11.4162
▁наступил	-11.4162
▁освеща	-11.4162
▁индекс	-11.4162
▁сопротивля	-11.4162
▁лагеря	-11.4162
▁футов	-11.4162
▁регистр	-11.4162
▁давления	-11.4162
▁звен	-11.4162
▁тренд	-11.4162
▁приготовлени	-11.4162
▁мембран	-11.4162
▁обвиня	-11.4163
▁виноват	-11.4163
▁камни	-11.4163
ace	-11.4163
▁храм	-11.4164
amp	-11.4164
▁страдал	-11.4165
▁угля	-11.4166
▁новостях	-11.4166
▁представл	-11.4175
▁остры	-11.4179
▁Привед	-11.4192
▁Зрител	-11.4199
▁Десят	-11.4208
▁склонност	-11.4209
▁страдани	-11.4231
▁рассчита	-11.4237
▁конечн	-11.4253
▁посети	-11.4253
эффективны	-11.428
половин	-11.4281
▁абсолютн	-11.4282
▁разобра	-11.4314
▁здраво	-11.4326
▁Бангладеш	-11.4326
▁Массачусетс	-11.4326
▁Президент	-11.4326
▁аккумулятор	-11.4326
▁ассоцииру	-11.4326
▁беспорядо	-11.4326
▁дьявол	-11.4326
▁клавиатур	-11.4326
▁подключа	-11.4326
▁правосуди	-11.4326
▁тревог	-11.4326
▁земель	-11.4326
▁внедря	-11.4326
▁Скотт	-11.4326
▁непонят	-11.4326
▁детях	-11.4326
▁лягуш	-11.4326
▁тунца	-11.4326
утверждать	-11.4326
▁теряем	-11.4326
▁токсичн	-11.4326
бытия	-11.4328
▁провед	-11.4328
▁отметк	-11.4328
▁Трети	-11.4328
▁Вернём	-11.4328
▁молекулярны	-11.4329
▁прогулк	-11.4329
▁увлек	-11.4336
▁клип	-11.4348
▁планирова	-11.4348
▁либеральн	-11.4354
▁растущи	-11.4356
▁пригласи	-11.4382
ложите	-11.4394
месячн	-11.4404
▁значил	-11.4405
▁ледян	-11.4421
ологов	-11.4446
компьютер	-11.4449
▁помести	-11.4458
▁либерал	-11.4471
Сити	-11.4481
послуш	-11.4487
▁ориентир	-11.4492
▁Амазонк	-11.4492
▁Министерств	-11.4492
▁администраци	-11.4492
▁волшебств	-11.4492
▁воспитыва	-11.4492
▁зрелищ	-11.4492
▁интуитивно	-11.4492
▁окситоцин	-11.4492
▁пузырь	-11.4492
▁размножа	-11.4492
▁реализовать	-11.4492
▁шизофрени	-11.4492
▁Правил	-11.4492
▁возглавля	-11.4492
▁лагерь	-11.4492
▁матерью	-11.4492
▁продавц	-11.4492
▁подавля	-11.4492
▁фантази	-11.4492
▁этническ	-11.4492
▁требующ	-11.4492
▁эфир	-11.4493
▁азот	-11.4493
▁Альберт	-11.4493
▁оправдан	-11.4493
▁ловушк	-11.4493
▁провинци	-11.4493
▁наполня	-11.4494
▁заполня	-11.4494
▁побывал	-11.4494
▁накорми	-11.4494
▁мистер	-11.4497
▁предвиде	-11.4497
▁Чарл	-11.4498
▁куриц	-11.45
▁ехал	-11.4514
мешать	-11.4518
сегда	-11.4532
ставляем	-11.4557
▁сделк	-11.4559
▁преследова	-11.4571
▁приговор	-11.4585
▁определённ	-11.4615
▁значени	-11.4618
встреч	-11.4622
Ш	-11.4622
миллион	-11.4622
▁лидерам	-11.4626
крою	-11.4628
▁многочисленны	-11.4662
▁модифицирова	-11.4662
▁беспорядк	-11.4662
▁волонтёр	-11.4662
▁альбом	-11.4662
▁ожидает	-11.4662
▁подчеркну	-11.4662
▁напуган	-11.4662
▁радикальны	-11.4662
▁мощь	-11.4662
▁внедри	-11.4662
▁Обратит	-11.4662
▁полагать	-11.4663
▁прошедши	-11.4663
▁дороже	-11.4664
▁дорожк	-11.4665
▁пугающ	-11.4668
▁Добро	-11.4675
▁посвящённ	-11.4675
▁настаива	-11.4676
тащил	-11.4678
▁привлечени	-11.4685
▁мастерств	-11.4691
▁несёт	-11.4695
▁встречают	-11.4699
Times	-11.4701
ационны	-11.471
▁фаз	-11.4714
▁выявля	-11.4734
▁дошл	-11.4751
▁обнаружит	-11.4818
▁Организаци	-11.4834
▁попробовал	-11.4834
▁совокупност	-11.4834
▁тюрем	-11.4834
▁фосфор	-11.4834
▁2015	-11.4834
▁информирова	-11.4834
▁треугольник	-11.4834
▁Нельсон	-11.4834
▁артери	-11.4834
▁Джефф	-11.4834
▁внедрени	-11.4834
▁Настоящ	-11.4834
▁Каролин	-11.4834
▁молитв	-11.4834
▁вариаци	-11.4835
▁физиологи	-11.4835
▁насекомо	-11.4835
▁рождает	-11.4835
▁сказк	-11.4835
▁отправляет	-11.4836
▁колонн	-11.4836
▁артист	-11.4837
▁трехмерн	-11.4842
▁волнующ	-11.4852
▁мрачн	-11.4854
▁ужасающ	-11.4863
▁сделав	-11.4908
▁обитаю	-11.4909
▁ссыл	-11.4921
безопас	-11.4949
▁правильн	-11.495
▁бутыл	-11.4959
▁центральн	-11.496
▁беженц	-11.4976
защит	-11.4977
▁привнес	-11.4985
воздушн	-11.4998
▁письме	-11.5008
▁осуществлен	-11.501
▁Невозможно	-11.501
▁конфиденциально	-11.501
▁реабилитаци	-11.501
▁эксплуатаци	-11.501
▁Рождеств	-11.501
▁иерархи	-11.501
▁недоступн	-11.501
▁разработчик	-11.501
▁искренне	-11.501
▁младенц	-11.501
▁Британск	-11.501
▁барабан	-11.501
▁дилемм	-11.501
▁необычайно	-11.501
▁эффективне	-11.501
▁наставник	-11.501
▁логическ	-11.501
▁Иисус	-11.501
▁цензур	-11.501
▁верхушк	-11.501
▁свидани	-11.501
▁забуду	-11.5011
▁свято	-11.5011
▁численност	-11.5013
▁позитивны	-11.5015
▁осадк	-11.5016
▁руководи	-11.5029
▁национальн	-11.5041
реалистичн	-11.5043
▁свидетельство	-11.5078
▁скучн	-11.5089
потреблени	-11.509
нимает	-11.5103
RB	-11.5104
▁моделировани	-11.5108
серьёз	-11.5109
▁участникам	-11.5119
▁болезням	-11.5145
▁протестирова	-11.5147
сложне	-11.5158
▁дешев	-11.516
▁ожидани	-11.5161
▁Кембридж	-11.5188
▁абсурд	-11.5188
▁возникновени	-11.5188
▁инсталляци	-11.5188
▁консерватив	-11.5188
▁лошадь	-11.5188
▁менеджер	-11.5188
▁млрд	-11.5188
▁рубашк	-11.5188
▁запрещен	-11.5188
▁медсестр	-11.5188
▁напомнил	-11.5188
▁оранжев	-11.5188
▁тормоз	-11.5188
▁ухажива	-11.5188
▁разместил	-11.5188
▁чёрт	-11.5188
▁Правильно	-11.5188
▁Испани	-11.5188
▁Фрэнк	-11.5188
▁негативны	-11.5188
▁одобрен	-11.5188
▁ложь	-11.5188
▁авторитет	-11.5188
▁свежи	-11.5188
▁новшеств	-11.5188
▁лагере	-11.5188
▁пиани	-11.5188
▁колония	-11.5189
▁допустим	-11.5189
▁Ama	-11.5189
▁деятел	-11.5189
▁поистин	-11.5189
▁очища	-11.519
▁разгляде	-11.519
▁персональны	-11.519
▁социолог	-11.5192
▁Хотит	-11.5192
гляну	-11.5195
▁нацелен	-11.5196
▁изгиб	-11.5196
▁Долж	-11.5207
вежлив	-11.5212
▁неверны	-11.5214
▁мужеств	-11.5257
▁четыр	-11.5293
▁засел	-11.5308
▁сложен	-11.531
платить	-11.5314
▁подключен	-11.5338
звезд	-11.5343
▁восстанови	-11.5347
▁страдающи	-11.535
▁принадлежност	-11.535
▁Уильям	-11.537
▁бюрократ	-11.537
▁враждебн	-11.537
▁долгосрочны	-11.537
▁интерпретаци	-11.537
▁кристалл	-11.537
▁максимум	-11.537
▁неустойчив	-11.537
▁официально	-11.537
▁продовольстви	-11.537
▁разногласи	-11.537
▁убеждён	-11.537
▁хозяин	-11.537
▁энтропи	-11.537
▁могущественн	-11.537
▁осторожно	-11.537
▁Латинск	-11.537
▁негативно	-11.537
▁Движени	-11.537
▁парашют	-11.537
▁положительно	-11.537
▁совпадени	-11.537
▁матерей	-11.537
▁судебны	-11.537
▁пульс	-11.537
▁свеже	-11.537
▁подчиня	-11.537
▁исключения	-11.5371
▁ученые	-11.5371
▁поставщик	-11.5371
▁брош	-11.5372
▁резин	-11.5375
▁посадк	-11.5382
▁успел	-11.5398
следователь	-11.5433
мешает	-11.5444
▁произноси	-11.5503
▁Задума	-11.5509
▁диплом	-11.5529
згляните	-11.5533
▁девуш	-11.5553
▁Леонард	-11.5555
▁Швейцари	-11.5555
▁зафиксирова	-11.5555
▁неотъемлем	-11.5555
▁фармацевтическ	-11.5555
▁церковь	-11.5555
▁элегантн	-11.5555
влёк	-11.5555
▁Поднимите	-11.5555
▁краткосрочн	-11.5555
▁режиссёр	-11.5555
▁синтетическ	-11.5555
▁симуляци	-11.5555
▁китайц	-11.5555
▁клиническо	-11.5555
▁утверждал	-11.5555
▁царств	-11.5555
▁корабле	-11.5555
▁загружа	-11.5555
▁богаче	-11.5555
▁пугает	-11.5555
▁тренер	-11.5555
▁отметил	-11.5555
▁Пекин	-11.5555
▁послал	-11.5556
▁выясня	-11.5557
▁преподавани	-11.5558
▁вообрази	-11.5558
▁сумел	-11.5558
▁всемирно	-11.5559
▁Стал	-11.556
▁необыч	-11.5565
▁коротк	-11.5566
стараться	-11.5567
▁молекулярно	-11.5572
▁злоупотреб	-11.5577
текает	-11.5579
▁заставит	-11.5588
▁способствую	-11.5591
▁костн	-11.5605
▁призываю	-11.5649
▁исключительн	-11.5659
▁совмести	-11.5678
братьев	-11.568
▁принадлежат	-11.5688
▁забрал	-11.57
всюду	-11.5708
ровень	-11.5712
▁заслуживаю	-11.5744
▁Зеланди	-11.5744
▁Невероятно	-11.5744
▁Паркинсон	-11.5744
▁Процесс	-11.5744
▁Филипп	-11.5744
▁Эндрю	-11.5744
▁ассоциаци	-11.5744
▁безразлич	-11.5744
▁кишечник	-11.5744
▁недвижимост	-11.5744
▁разрушить	-11.5744
▁свадьб	-11.5744
▁сконцентрирова	-11.5744
▁соединяет	-11.5744
▁индивидуум	-11.5744
▁мотоцикл	-11.5744
▁пересечени	-11.5744
▁размножени	-11.5744
▁оптимальн	-11.5744
▁тупик	-11.5744
▁боевик	-11.5744
▁полагаем	-11.5744
▁писателе	-11.5744
выносим	-11.5744
▁Джейн	-11.5744
▁отрасли	-11.5744
▁идиот	-11.5744
▁антрополог	-11.5745
▁проделыва	-11.5745
▁решётк	-11.5745
▁ложны	-11.5745
▁наполни	-11.5747
▁углом	-11.5749
▁почувству	-11.5749
▁птич	-11.5753
стрит	-11.5753
▁неизбеж	-11.5755
▁движут	-11.5758
▁специфическ	-11.576
▁духовны	-11.5761
▁разбива	-11.5763
▁выявлен	-11.5766
▁добродетел	-11.5782
кидыва	-11.5798
▁оплат	-11.5834
▁возьми	-11.5908
▁оригинал	-11.5915
нимание	-11.5915
▁Антарктик	-11.5936
▁Индонези	-11.5936
▁напряжённ	-11.5936
▁ориентаци	-11.5936
▁секвенирова	-11.5936
▁Государств	-11.5936
▁август	-11.5936
▁вертолёт	-11.5936
▁детектор	-11.5936
▁дождя	-11.5936
▁защищен	-11.5936
▁сознательно	-11.5936
▁сюрприз	-11.5936
▁фестивал	-11.5936
▁головоломк	-11.5936
▁чемпион	-11.5936
▁поражает	-11.5936
▁впечатления	-11.5936
▁пирог	-11.5936
▁локально	-11.5936
▁покончи	-11.5937
▁поздне	-11.5937
▁шляп	-11.5937
▁Алекс	-11.5937
▁возьме	-11.5937
▁паралич	-11.5937
▁печени	-11.5937
▁проезж	-11.5938
▁стакан	-11.5939
▁Мозг	-11.5943
▁минерал	-11.5953
▁наглядно	-11.5966
▁спальн	-11.5991
▁нахождени	-11.606
▁слушател	-11.6073
▁посетител	-11.6083
▁последовал	-11.6092
слыша	-11.61
▁успешн	-11.6117
ключите	-11.6125
ировщик	-11.613
▁осторожны	-11.6132
▁еврейск	-11.6132
▁игнорировать	-11.6132
▁идентичны	-11.6132
▁лихорадк	-11.6132
▁логотип	-11.6132
▁предвзято	-11.6132
▁преобразовать	-11.6132
▁сконструирова	-11.6132
▁чиновник	-11.6132
▁Ребён	-11.6132
▁палестин	-11.6132
▁симфони	-11.6132
▁глагол	-11.6132
▁пластин	-11.6132
▁послушать	-11.6132
▁толщин	-11.6132
▁местоположени	-11.6132
▁щедро	-11.6132
▁бирж	-11.6132
▁запутанн	-11.6132
▁впоследстви	-11.6132
▁кардинальн	-11.6132
▁немнож	-11.6133
▁обитател	-11.6133
▁питьев	-11.6133
сестёр	-11.6133
▁фонар	-11.6134
▁Сомали	-11.6134
▁роботизированн	-11.6135
▁крепко	-11.6138
▁привлекательно	-11.6139
▁поверил	-11.6147
▁Скоро	-11.6161
▁воспита	-11.6168
▁почтов	-11.6172
▁диагностирова	-11.6175
▁мусульманск	-11.6206
ответственно	-11.6237
▁приведе	-11.625
▁вычисли	-11.6254
▁Послушай	-11.6269
▁сталкиваютс	-11.6303
▁отправлял	-11.6318
▁Групп	-11.6332
▁МРТ	-11.6332
▁Танзани	-11.6332
▁возьмёт	-11.6332
▁галлюцинаци	-11.6332
▁грандиозн	-11.6332
▁композици	-11.6332
▁конструирова	-11.6332
▁неандертальц	-11.6332
▁необязательно	-11.6332
▁сформировать	-11.6332
▁транзистор	-11.6332
▁Аристотел	-11.6332
▁нравственно	-11.6332
▁пандеми	-11.6332
▁преследу	-11.6332
▁разворачива	-11.6332
▁священник	-11.6332
▁распределя	-11.6332
▁незначительны	-11.6332
▁отмечен	-11.6332
▁поиграть	-11.6332
▁Девочк	-11.6332
▁недорог	-11.6333
▁Габб	-11.6333
▁вибраци	-11.6333
▁оруди	-11.6333
▁корзин	-11.6334
▁оболочк	-11.6334
▁диаре	-11.6334
▁мечет	-11.6335
▁плёнк	-11.6335
▁неловко	-11.6337
▁банан	-11.6337
▁выстраива	-11.6339
▁переполнен	-11.6341
тащить	-11.6342
▁тигр	-11.6348
▁повышенн	-11.6357
школ	-11.6387
▁ощущени	-11.639
▁увелич	-11.6395
▁стимулиру	-11.6478
▁экспериментальн	-11.6482
сутствует	-11.6523
▁попыт	-11.6524
▁посчастливи	-11.6536
▁Бруклин	-11.6536
▁Понятно	-11.6536
▁Сингапур	-11.6536
▁Юпитер	-11.6536
▁беспомощ	-11.6536
▁вознагражден	-11.6536
▁гибрид	-11.6536
▁джихад	-11.6536
▁джунгл	-11.6536
▁калорий	-11.6536
▁парализован	-11.6536
▁рождаются	-11.6536
▁сопротивление	-11.6536
▁химиотерапи	-11.6536
▁чудовищ	-11.6536
▁восхищен	-11.6536
▁выбирает	-11.6536
▁позаботи	-11.6536
▁подумает	-11.6536
▁привычно	-11.6536
▁волокна	-11.6536
▁антенн	-11.6536
▁бонобо	-11.6536
▁устаревш	-11.6536
▁очарован	-11.6536
▁ориентирован	-11.6536
▁нигде	-11.6537
▁умственны	-11.6537
▁замкнут	-11.6537
▁челюст	-11.6537
▁Medi	-11.6537
▁подъем	-11.6537
▁мамонт	-11.6537
▁ступн	-11.6537
▁ненулево	-11.6537
▁далёко	-11.6537
▁миграци	-11.6537
▁Природа	-11.6537
ill	-11.6537
▁прилага	-11.6538
▁литров	-11.6539
▁опасен	-11.654
▁наследств	-11.6542
▁пиксел	-11.6542
▁ускорени	-11.6542
▁увидев	-11.6545
спокойн	-11.6556
▁направил	-11.657
▁выдерж	-11.6609
▁пыль	-11.6617
рабатывает	-11.6632
▁излуча	-11.6651
▁состояни	-11.6676
Каид	-11.67
▁международн	-11.6735
▁государственн	-11.6739
▁Аудитори	-11.6745
▁Силиконов	-11.6745
▁Сноуден	-11.6745
▁Студент	-11.6745
▁интегрирован	-11.6745
▁конституци	-11.6745
▁консультант	-11.6745
▁ошеломляющ	-11.6745
▁цилиндр	-11.6745
▁Клинтон	-11.6745
▁таракан	-11.6745
▁тротуар	-11.6745
▁обдумыва	-11.6745
▁возврат	-11.6745
▁оглядыва	-11.6745
▁конфет	-11.6745
▁Артур	-11.6745
▁Гавай	-11.6745
▁коррект	-11.6745
▁ремонт	-11.6746
ike	-11.6746
▁элементарны	-11.6746
▁разрушил	-11.6746
▁юнош	-11.6747
▁пьян	-11.6749
▁уникальна	-11.6749
▁стойк	-11.676
▁Тысяч	-11.6762
ыглядит	-11.6786
творц	-11.6793
▁выделил	-11.6809
▁полагал	-11.6834
▁оптическ	-11.6842
ходящего	-11.6851
▁поврежд	-11.6873
▁Смотр	-11.6886
▁Ирланди	-11.6957
▁Лучши	-11.6957
▁Сиэтл	-11.6957
▁Хиггс	-11.6957
▁Человеческ	-11.6957
▁озабочен	-11.6957
▁опустош	-11.6957
▁полномочи	-11.6957
▁практическо	-11.6957
▁прекраща	-11.6957
▁сопротивления	-11.6957
▁субсиди	-11.6957
▁удовлетвори	-11.6957
редактирова	-11.6957
▁консерватор	-11.6957
▁Управление	-11.6957
▁отверстие	-11.6957
надцать	-11.6957
▁Эдвард	-11.6957
▁вмешива	-11.6957
▁вырубк	-11.6957
▁резюм	-11.6958
▁стиральн	-11.6958
▁созида	-11.6958
▁пересадк	-11.6959
▁усвоил	-11.6959
▁дизайнерск	-11.696
▁испуга	-11.6962
▁вдохновляющ	-11.6965
▁сражени	-11.6973
▁светящ	-11.6975
▁выучил	-11.6986
▁обоснован	-11.6989
видимом	-11.7009
▁Начн	-11.7014
▁романтическ	-11.7018
▁виновн	-11.7056
▁качеств	-11.7059
▁развлека	-11.7071
▁амбици	-11.7175
▁Возвраща	-11.7175
▁1999	-11.7175
▁Антарктид	-11.7175
▁Аргентин	-11.7175
▁Вьетнам	-11.7175
▁Гренланди	-11.7175
▁Компании	-11.7175
▁айсберг	-11.7175
▁игнориру	-11.7175
▁иероглиф	-11.7175
▁итальянск	-11.7175
▁обыкновен	-11.7175
▁предупрежда	-11.7175
▁расшифрова	-11.7175
▁специализирова	-11.7175
▁стипенди	-11.7175
▁баскетбол	-11.7175
▁благоприятн	-11.7175
▁вообража	-11.7175
▁загрязня	-11.7175
▁медикамент	-11.7175
▁олицетвор	-11.7175
▁посредник	-11.7175
▁сигарет	-11.7175
▁Цифр	-11.7175
▁переезжа	-11.7175
▁пьес	-11.7175
▁потрачен	-11.7175
▁прислал	-11.7175
▁колёс	-11.7175
▁высказать	-11.7175
▁логичн	-11.7176
▁полноценно	-11.7176
▁привычны	-11.7176
▁заглядыва	-11.7176
▁потолк	-11.7177
▁Количеств	-11.7179
нестатистическ	-11.718
▁удивлен	-11.7184
групп	-11.7186
▁Книг	-11.7188
▁естественн	-11.7192
▁батарейк	-11.7193
▁мобилиз	-11.7197
▁одева	-11.7211
▁Тесл	-11.7264
▁неопределённост	-11.7281
▁анализиру	-11.7324
означают	-11.7339
▁вложен	-11.7355
▁Республик	-11.7397
▁бесполезны	-11.7397
▁джентльмен	-11.7397
▁интеграци	-11.7397
▁лабораторн	-11.7397
▁муравей	-11.7397
▁параллельно	-11.7397
▁протоклетк	-11.7397
▁светодиод	-11.7397
▁содержимо	-11.7397
▁2013	-11.7397
▁пешком	-11.7397
▁Арктик	-11.7397
▁благослов	-11.7397
▁вступил	-11.7397
▁выпущен	-11.7397
▁новаторств	-11.7397
▁Трудно	-11.7397
▁археолог	-11.7397
▁прибрежн	-11.7397
▁патоген	-11.7397
▁изобрё	-11.7397
▁вдохновляет	-11.7397
▁Взрыв	-11.7397
▁азиат	-11.7397
▁доминирую	-11.7397
▁хранят	-11.7397
▁займёт	-11.7397
▁пират	-11.7398
▁спарива	-11.7398
▁радостн	-11.7398
▁Подобны	-11.7398
▁японски	-11.7399
▁Кенне	-11.74
▁бездомны	-11.74
▁японско	-11.7403
гвозд	-11.7414
▁Представи	-11.7458
следование	-11.746
▁привяз	-11.7467
нейтральн	-11.748
▁желающи	-11.7506
▁изнасилован	-11.7511
▁первичн	-11.753
▁выплат	-11.7567
▁Отличн	-11.7616
▁знаменитост	-11.762
Second	-11.7624
▁Детройт	-11.7624
▁Здорово	-11.7624
▁Пациент	-11.7624
▁Филадельфи	-11.7624
▁биоразнообрази	-11.7624
▁выигрыш	-11.7624
▁грамотност	-11.7624
▁импровизаци	-11.7624
▁конфигураци	-11.7624
▁милосерди	-11.7624
▁охлаждени	-11.7624
▁реконструкци	-11.7624
▁Бенджамин	-11.7624
▁Мэтт	-11.7624
▁подтвердил	-11.7624
▁детеныш	-11.7624
▁сегмент	-11.7624
▁притяжени	-11.7624
▁находк	-11.7624
▁аромат	-11.7624
▁побужда	-11.7624
▁отследи	-11.7624
▁мебель	-11.7624
▁капитан	-11.7624
▁постановк	-11.7625
▁запомнил	-11.7625
▁посещени	-11.7625
▁комеди	-11.7625
▁обруши	-11.7625
▁форум	-11.7625
▁чувствительност	-11.7625
▁раковин	-11.7626
▁завоева	-11.7626
▁кукл	-11.7627
▁ходьб	-11.7627
▁розовы	-11.7628
▁внешност	-11.7631
▁Арабск	-11.7637
▁апрел	-11.7638
▁знакомств	-11.7644
индустри	-11.7645
▁осуществи	-11.7682
▁конкретн	-11.7683
▁Остальн	-11.7713
▁посвящ	-11.7718
▁коренны	-11.774
одиночк	-11.7741
▁ответствен	-11.7797
сылают	-11.7811
моложе	-11.7812
▁пресн	-11.784
езусловно	-11.7855
▁пропорци	-11.7857
▁приспосаблива	-11.7857
▁эмбрион	-11.7857
▁Линкольн	-11.7857
▁Палестин	-11.7857
▁Поразительно	-11.7857
▁Свобод	-11.7857
▁бесчисленн	-11.7857
▁заблуждени	-11.7857
▁карандаш	-11.7857
▁кольцо	-11.7857
▁мальчишк	-11.7857
▁метаболизм	-11.7857
▁оптимизаци	-11.7857
▁подразделени	-11.7857
▁прикосновени	-11.7857
▁психическо	-11.7857
▁расцвет	-11.7857
▁татуировк	-11.7857
▁ускорить	-11.7857
▁Талибан	-11.7857
▁бамбук	-11.7857
▁вовлечь	-11.7857
▁переворачива	-11.7857
▁рычаг	-11.7857
▁Аполлон	-11.7857
▁Бронкс	-11.7857
▁издержк	-11.7857
▁кассет	-11.7857
▁пшениц	-11.7857
▁запясть	-11.7857
▁британско	-11.7857
▁пицц	-11.7857
▁конкурир	-11.7857
▁двойно	-11.7857
▁пенис	-11.7857
▁расстроен	-11.7857
▁шкаф	-11.7857
▁преград	-11.7857
▁перевернул	-11.7858
▁соединил	-11.7858
▁божеств	-11.7861
ставлял	-11.7861
▁чертовск	-11.7862
▁республиканц	-11.7862
▁вписыва	-11.7863
▁согласован	-11.7873
▁прелест	-11.7875
▁Исследовател	-11.788
террористическ	-11.7898
▁производя	-11.7954
▁проход	-11.7958
▁экологичны	-11.7971
движен	-11.8057
▁возбужден	-11.8095
▁1998	-11.8095
▁Абсолютно	-11.8095
▁Шекспир	-11.8095
▁вовлечён	-11.8095
▁восприня	-11.8095
▁догадыва	-11.8095
▁инфляци	-11.8095
▁испытуемы	-11.8095
▁компакт	-11.8095
▁марсоход	-11.8095
▁мобильник	-11.8095
▁проявление	-11.8095
▁спрятан	-11.8095
▁сфотографировал	-11.8095
▁темнокожи	-11.8095
▁урбанизаци	-11.8095
▁экземпляр	-11.8095
▁безграничн	-11.8095
▁заблокирова	-11.8095
▁общепринят	-11.8095
▁памятник	-11.8095
▁стрекоз	-11.8095
▁туберкулёз	-11.8095
▁предупреди	-11.8095
▁крохотн	-11.8095
▁комитет	-11.8095
▁придуман	-11.8095
▁мигрант	-11.8095
▁новаторск	-11.8095
▁покрыты	-11.8095
▁Брэд	-11.8095
▁поражён	-11.8095
▁пострадал	-11.8095
▁поглощен	-11.8097
▁вернёт	-11.8097
▁воспроизводит	-11.8097
▁ненужн	-11.8098
▁наткну	-11.8099
▁коляск	-11.81
сторонни	-11.8108
▁Современн	-11.8114
▁человечност	-11.8117
▁приводил	-11.8124
▁банальн	-11.8141
▁королевск	-11.8143
▁производственн	-11.8198
▁миллиметр	-11.8211
▁перейдё	-11.8253
▁законодател	-11.832
▁республик	-11.8333
▁субъект	-11.8338
▁швейцар	-11.8339
▁Внезапн	-11.8339
▁Олимпиад	-11.8339
▁Сьерра	-11.8339
▁Тунис	-11.8339
▁диспле	-11.8339
▁добровольц	-11.8339
▁исключа	-11.8339
▁леопард	-11.8339
▁модификаци	-11.8339
▁официальны	-11.8339
▁педагог	-11.8339
▁пестицид	-11.8339
▁попробую	-11.8339
▁священны	-11.8339
▁ультразвук	-11.8339
▁экспонат	-11.8339
▁окрестност	-11.8339
▁преувеличен	-11.8339
▁2014	-11.8339
▁Глобальн	-11.8339
▁Здравствуй	-11.8339
▁Мальчик	-11.8339
▁динамическ	-11.8339
▁Ребят	-11.8339
▁штраф	-11.8339
▁экстремист	-11.8339
▁сустав	-11.8339
▁секвой	-11.8339
▁витамин	-11.8339
▁фронт	-11.8339
▁людск	-11.8339
▁равна	-11.834
▁полагает	-11.834
▁Ключ	-11.834
▁Верховн	-11.834
▁штуковин	-11.8341
▁Христ	-11.8342
▁взбира	-11.8342
минутн	-11.8342
▁растительност	-11.8343
▁подготовил	-11.8343
▁перерабатыва	-11.8344
▁дорожно	-11.8345
▁Здани	-11.8348
▁потребительск	-11.8348
▁товарищ	-11.8352
▁хаотич	-11.8355
▁целостно	-11.8356
▁последовател	-11.8375
▁искажен	-11.8376
масштаб	-11.8377
▁отображен	-11.8387
спасатель	-11.8388
▁Соглас	-11.8399
▁мышечн	-11.8448
▁опубликова	-11.8499
▁iPod	-11.8589
▁Гонконг	-11.8589
▁Замечательн	-11.8589
▁Стюарт	-11.8589
▁Электро	-11.8589
▁дальнейши	-11.8589
▁дорогостоящ	-11.8589
▁инсульт	-11.8589
▁коннектом	-11.8589
▁престарелы	-11.8589
▁специализиру	-11.8589
▁спортсмен	-11.8589
▁ухудша	-11.8589
▁факультет	-11.8589
▁федерально	-11.8589
▁1995	-11.8589
▁Sky	-11.8589
▁анонимно	-11.8589
▁отталкива	-11.8589
▁шедевр	-11.8589
▁снабжа	-11.8589
▁удовлетворя	-11.8589
▁верёвк	-11.8589
▁приемлем	-11.8589
▁далёки	-11.8589
▁криминал	-11.8589
▁уважать	-11.8589
▁тяжест	-11.8589
▁помнят	-11.8589
▁каркас	-11.8589
▁наушник	-11.8589
▁бригад	-11.8589
▁застройк	-11.8589
▁Дисне	-11.859
▁аудио	-11.859
▁посадил	-11.8592
▁Задач	-11.8593
▁дорожны	-11.8595
▁слияни	-11.8595
Ч	-11.8632
исследователя	-11.8647
сосудист	-11.8672
сторонне	-11.8773
▁сентябр	-11.878
▁террор	-11.8782
▁устойчив	-11.8798
▁осужден	-11.8845
▁CRISPR	-11.8845
▁Зимбабв	-11.8845
▁Компания	-11.8845
▁Моцарт	-11.8845
▁верблюд	-11.8845
▁губернатор	-11.8845
▁египтян	-11.8845
▁комисси	-11.8845
▁космонавт	-11.8845
▁маммографи	-11.8845
▁неокортекс	-11.8845
▁пообещал	-11.8845
▁преоблада	-11.8845
▁проголосова	-11.8845
▁шахмат	-11.8845
▁экспоненциально	-11.8845
▁Эверест	-11.8845
▁защищённ	-11.8845
▁филантроп	-11.8845
▁вакуум	-11.8845
▁помешан	-11.8845
▁штамм	-11.8845
▁застрял	-11.8845
▁вылечить	-11.8845
▁корпус	-11.8845
▁откроет	-11.8846
▁столкнё	-11.8846
▁устранен	-11.8847
▁проекци	-11.8847
▁француз	-11.8851
▁деревянны	-11.8855
▁размещен	-11.8857
▁увидит	-11.8867
▁сточны	-11.8881
▁сердц	-11.8883
▁плоскост	-11.8889
▁расшири	-11.8889
▁подбира	-11.891
кричать	-11.8917
▁восприяти	-11.8927
▁достаточн	-11.8948
▁исключи	-11.8971
▁наблюдател	-11.8995
▁диагност	-11.9038
▁благодарност	-11.9067
▁воздейству	-11.9072
антроп	-11.9107
▁Граждан	-11.9108
▁Иерусалим	-11.9108
▁Копенгаген	-11.9108
▁Мухаммед	-11.9108
▁Пенсильвани	-11.9108
▁Совершенн	-11.9108
▁Фейсбук	-11.9108
▁воплоща	-11.9108
▁координаци	-11.9108
▁неподалёку	-11.9108
▁развлечений	-11.9108
▁расшифровк	-11.9108
▁робототехник	-11.9108
▁соединяют	-11.9108
▁сэндвич	-11.9108
▁телекоммуникаци	-11.9108
▁фальшив	-11.9108
▁электромагнит	-11.9108
▁имплантирова	-11.9108
▁произошедше	-11.9108
▁Чувств	-11.9108
▁зерновы	-11.9108
▁вредоносн	-11.9108
▁швед	-11.9109
сплеск	-11.9109
▁экстремальны	-11.9109
▁космолог	-11.9109
▁ангел	-11.9109
▁Подобно	-11.9109
▁торжеств	-11.9109
▁матриц	-11.9109
ound	-11.9109
генераци	-11.911
▁соперник	-11.911
▁возросл	-11.9111
▁седьмо	-11.9111
▁инфекционны	-11.9111
▁Числ	-11.9111
▁прогрессивн	-11.9115
▁смешанн	-11.9115
▁тряс	-11.9117
▁онколог	-11.9119
промышленн	-11.9124
поминают	-11.9132
следования	-11.9139
▁парочк	-11.9142
▁принадлежащ	-11.9147
квалифицированны	-11.9147
▁Великобритани	-11.9166
▁выступающи	-11.92
▁ревност	-11.9236
этажн	-11.9252
▁присутствую	-11.928
ожидая	-11.9323
▁нуждающи	-11.9343
▁подушк	-11.9346
▁заповед	-11.9354
▁1994	-11.9379
▁Естественно	-11.9379
▁Журнал	-11.9379
▁альтруизм	-11.9379
▁блокчейн	-11.9379
▁кладбищ	-11.9379
▁лауреат	-11.9379
▁обусловлен	-11.9379
▁организовыва	-11.9379
▁репортаж	-11.9379
▁сероводород	-11.9379
▁телевизионн	-11.9379
▁усердно	-11.9379
▁функционирует	-11.9379
▁экспресс	-11.9379
загрузить	-11.9379
▁Происходи	-11.9379
▁заседани	-11.9379
▁Множеств	-11.9379
▁притворя	-11.9379
▁невежеств	-11.9379
▁опозна	-11.9379
▁недовери	-11.9379
▁пришельц	-11.9379
▁соотноси	-11.9379
▁ерунд	-11.9379
▁добровольно	-11.9379
▁Голуб	-11.9379
▁сомнительн	-11.9379
▁сканиру	-11.9379
▁приближени	-11.938
▁умственно	-11.938
▁письменност	-11.9381
▁Мексиканск	-11.9382
▁производил	-11.9382
▁истощен	-11.9382
▁колонк	-11.9382
▁влажно	-11.9384
▁Аляск	-11.9387
▁извлечен	-11.9388
▁переключател	-11.9393
▁законодательн	-11.9399
▁инвестиционн	-11.9422
▁анализирова	-11.9463
индивидуальность	-11.9531
Паул	-11.9655
орреспондент	-11.9656
разборчиво	-11.9656
▁1997	-11.9656
▁National	-11.9656
▁Публика	-11.9656
▁аккаунт	-11.9656
▁алфавит	-11.9656
▁бухгалтер	-11.9656
▁гамбургер	-11.9656
▁иммиграци	-11.9656
▁интерьер	-11.9656
▁министерств	-11.9656
▁мировоззрени	-11.9656
▁неприемлем	-11.9656
▁основополагающ	-11.9656
▁подтолкну	-11.9656
▁примечательн	-11.9656
▁промежуточн	-11.9656
#	-12.1853
Я	-12.3153
Ц	-12.9111
Ю	-13.6412
Й	-13.828
%	-13.8281
!	-13.8282
♫	-13.8283
–	-13.8284
)	-13.8285
»	-13.8286
?	-13.8287
—	-13.8288
:	-13.8289
&	-13.829
q	-13.829
