<unk>	0
<s>	0
</s>	0
▁,	-2.94772
▁.	-3.24668
e	-3.6186
a	-3.84716
▁	-3.94698
u	-3.99244
▁a	-4.10686
i	-4.22012
y	-4.29428
ť	-4.30999
t	-4.35247
▁sa	-4.40421
▁je	-4.49545
▁na	-4.50756
▁v	-4.51927
▁to	-4.61682
ch	-4.73922
▁že	-4.89252
;	-4.98127
▁&	-5.00473
om	-5.02748
quo	-5.03367
▁som	-5.0342
m	-5.11663
▁A	-5.12749
o	-5.20092
to	-5.2088
▁ako	-5.23294
▁z	-5.2581
í	-5.28769
te	-5.32681
▁s	-5.37506
▁o	-5.38729
ov	-5.43986
á	-5.44006
▁sme	-5.49207
▁si	-5.49333
ej	-5.5004
ú	-5.52002
ou	-5.55197
▁by	-5.55202
li	-5.6004
▁do	-5.65145
▁čo	-5.67635
é	-5.70934
ho	-5.71432
▁?	-5.75834
l	-5.76898
mi	-5.77454
▁:	-5.89794
▁pre	-5.91111
me	-5.91475
▁sú	-5.95173
by	-5.96887
▁tak	-5.9804
▁)	-5.99425
(	-5.99449
▁k	-6.03614
▁po	-6.07941
▁ktoré	-6.08604
ý	-6.13255
▁keď	-6.16451
▁za	-6.1737
▁ale	-6.21861
▁ich	-6.27152
▁nie	-6.28523
▁To	-6.29494
▁V	-6.33707
▁tie	-6.33878
s	-6.34598
z	-6.35465
ž	-6.36181
▁bol	-6.36361
j	-6.38268
r	-6.38767
▁od	-6.39599
š	-6.40045
▁veľmi	-6.45984
▁Ale	-6.46061
ých	-6.47925
▁aj	-6.48409
ého	-6.49273
ám	-6.49818
▁ste	-6.51709
▁Je	-6.51895
ne	-6.52458
la	-6.5358
▁—	-6.5522
▁ktorý	-6.58145
▁Takž	-6.58361
▁alebo	-6.59982
ci	-6.60126
v	-6.62377
▁tom	-6.62576
▁len	-6.63184
p	-6.63466
k	-6.6373
▁tu	-6.68751
né	-6.69873
ami	-6.70608
▁♫	-6.72875
▁ak	-6.73025
n	-6.73486
▁ľudí	-6.76382
▁rok	-6.77043
▁mi	-6.79428
ok	-6.80042
▁vo	-6.81138
d	-6.82456
▁pri	-6.83396
▁ne	-6.84591
▁viac	-6.86893
och	-6.89778
ný	-6.90564
▁toto	-6.91848
▁niečo	-6.92393
▁tým	-6.92619
▁môže	-6.9292
▁už	-6.93384
ia	-6.93737
▁ma	-6.94762
▁ho	-6.9586
▁Na	-6.96887
▁svoj	-6.9763
▁tam	-6.99497
ná	-6.99805
„	-6.99919
lo	-7.00219
ol	-7.01476
▁S	-7.0277
č	-7.029
▁-	-7.03572
jú	-7.03993
▁toho	-7.04327
▁bolo	-7.05753
-	-7.06256
že	-7.07184
▁vy	-7.07215
sť	-7.07542
▁ktorá	-7.08402
▁Smie	-7.08404
▁ľudia	-7.08979
▁nás	-7.09104
▁potom	-7.09295
▁tých	-7.11064
nie	-7.11093
▁pretož	-7.11391
▁pred	-7.12734
▁život	-7.1477
▁rokov	-7.16651
▁má	-7.17559
▁“	-7.17578
▁čas	-7.18549
▁boli	-7.201
▁kde	-7.21038
▁povedal	-7.21871
▁nám	-7.22339
b	-7.22348
▁tento	-7.24865
▁spôsob	-7.24942
▁ja	-7.25133
▁ktor	-7.25823
▁naš	-7.25919
▁T	-7.26193
osti	-7.28052
c	-7.28161
▁či	-7.28571
▁tej	-7.29714
▁veci	-7.30029
▁Ak	-7.30645
h	-7.3089
▁Po	-7.31169
ka	-7.33952
▁moj	-7.34423
▁Keď	-7.354
.	-7.35413
ni	-7.35861
▁teraz	-7.36381
uje	-7.37564
▁zo	-7.3766
ách	-7.38245
ní	-7.38592
▁ni	-7.39006
▁vás	-7.40844
▁Tak	-7.41087
▁so	-7.41144
ky	-7.4156
en	-7.43109
ca	-7.43593
▁mohl	-7.44267
▁–	-7.44562
▁druh	-7.46922
▁ju	-7.47759
▁ten	-7.48759
▁jedn	-7.49525
▁všetko	-7.49652
▁bude	-7.49716
ovať	-7.49867
▁mal	-7.50053
▁Čo	-7.50585
▁Ako	-7.5138
▁máme	-7.51941
st	-7.52658
g	-7.52969
▁Potlesk	-7.53974
▁problém	-7.54501
▁mali	-7.55183
ým	-7.55372
▁ktorú	-7.56817
▁veľa	-7.57001
▁svete	-7.57632
▁môj	-7.57908
▁Bol	-7.57985
ešte	-7.58009
▁naozaj	-7.58261
na	-7.5831
▁Ďakujem	-7.60538
osť	-7.6058
▁až	-7.61227
f	-7.61249
ny	-7.61757
le	-7.61758
▁jeden	-7.6197
▁im	-7.62114
no	-7.62259
▁K	-7.62886
▁svet	-7.6308
mu	-7.63776
nú	-7.64245
▁začal	-7.64773
▁Nie	-7.66815
ku	-7.67847
▁majú	-7.67919
▁vec	-7.68766
▁h	-7.68873
▁tomu	-7.69109
ri	-7.70167
ra	-7.7018
▁všetky	-7.70949
oval	-7.71101
▁bez	-7.71759
▁poveda	-7.7204
▁Ne	-7.72227
ujú	-7.73018
nia	-7.7355
▁medzi	-7.73795
▁práv	-7.73998
ce	-7.74079
či	-7.74281
▁môžeme	-7.75109
▁cel	-7.75259
▁naj	-7.75775
▁príbeh	-7.76526
▁každý	-7.76557
▁mňa	-7.76677
▁my	-7.76731
▁O	-7.78325
ním	-7.78445
ím	-7.78821
teda	-7.79129
▁stále	-7.79192
al	-7.7983
va	-7.80099
▁troch	-7.80171
vek	-7.8023
▁vidie	-7.8093
▁smiech	-7.81186
▁mať	-7.81255
▁P	-7.81922
▁prác	-7.81992
▁naše	-7.82158
lebo	-7.82427
▁Z	-7.82628
eň	-7.8266
▁možno	-7.8267
il	-7.82718
▁úplne	-7.83961
▁môž	-7.84443
▁D	-7.84463
re	-7.84976
▁však	-7.85023
er	-7.85065
koľ	-7.85071
▁myslím	-7.85082
▁vlastne	-7.85179
▁ani	-7.85512
▁preč	-7.86042
▁roz	-7.86596
vi	-7.86676
▁nič	-7.86847
▁pod	-7.87313
▁robi	-7.88119
▁asi	-7.88511
▁M	-7.88821
▁iba	-7.89109
ali	-7.89119
di	-7.8925
ové	-7.89583
▁nad	-7.90401
▁skutočnosti	-7.9138
nej	-7.92055
▁tá	-7.92605
▁náš	-7.93054
▁in	-7.93133
enie	-7.93723
príklad	-7.93973
▁deti	-7.94049
▁dnes	-7.9405
▁svoje	-7.94778
▁urobi	-7.95873
▁všet	-7.95913
▁také	-7.9593
▁pár	-7.96168
▁Preto	-7.96358
▁vod	-7.96364
▁B	-7.968
▁túto	-7.96822
▁prvý	-7.99623
or	-8.02064
krát	-8.02245
si	-8.02521
in	-8.02626
▁on	-8.02845
▁každ	-8.02924
▁okolo	-8.03003
▁nebol	-8.03826
▁nikd	-8.03964
▁No	-8.04022
▁ide	-8.04307
▁počas	-8.04803
▁než	-8.04901
▁chcem	-8.05111
ro	-8.05146
▁Tu	-8.05365
mer	-8.05864
▁naši	-8.06267
▁tohto	-8.06862
▁deň	-8.07088
ili	-8.07465
ve	-8.07785
▁H	-8.07859
▁C	-8.08108
▁dva	-8.08176
▁tri	-8.08668
ba	-8.08777
▁života	-8.09426
▁Za	-8.09811
▁p	-8.09947
znamená	-8.10372
▁...	-8.10982
ými	-8.11715
▁ktorých	-8.11785
▁Ja	-8.12156
▁cez	-8.12194
▁Myslím	-8.12475
▁preto	-8.1297
ru	-8.13659
▁videl	-8.13832
▁budú	-8.14175
str	-8.14868
eraz	-8.15412
kedy	-8.15683
▁chcel	-8.15897
▁všetký	-8.15953
▁budem	-8.16255
▁musím	-8.16853
▁systém	-8.177
kov	-8.18429
on	-8.18439
▁skutočne	-8.18458
ový	-8.18689
ín	-8.19109
▁musí	-8.19466
▁20	-8.19957
▁F	-8.20018
▁väčšin	-8.20314
▁Pre	-8.2048
vidíte	-8.20795
▁Sú	-8.21086
▁zmen	-8.21087
▁iný	-8.21158
▁veľk	-8.21439
▁chce	-8.21475
▁seba	-8.21689
▁mu	-8.21782
nu	-8.22638
▁jedna	-8.23002
▁prípad	-8.23019
▁G	-8.23444
sta	-8.23558
de	-8.23716
▁vecí	-8.23786
▁iné	-8.23918
▁sveta	-8.24998
x	-8.2533
▁vždy	-8.2566
▁10	-8.25812
▁informáci	-8.25875
ar	-8.2601
▁pomoc	-8.26365
▁dve	-8.26584
▁máte	-8.26731
▁dosta	-8.26997
▁takto	-8.27419
an	-8.27806
▁E	-8.27827
us	-8.28012
▁ob	-8.28303
▁Mám	-8.28479
▁kto	-8.28583
▁ďalší	-8.28667
▁percent	-8.28808
▁Vy	-8.28933
▁príklad	-8.29047
▁Môže	-8.29102
ec	-8.29445
▁muž	-8.29536
▁cest	-8.30123
da	-8.30132
▁kedy	-8.30446
▁Preč	-8.30727
▁vesmír	-8.30978
▁hovorí	-8.31544
ň	-8.31708
▁mesiac	-8.32119
nd	-8.32584
▁Do	-8.32716
ko	-8.32808
%	-8.32866
▁nové	-8.32957
▁takž	-8.34097
▁dobre	-8.34357
▁U	-8.34767
▁d	-8.34858
ujeme	-8.35026
šiel	-8.35129
▁dokon	-8.35446
▁pocit	-8.35672
▁vaš	-8.35838
▁tú	-8.36449
ha	-8.37059
▁človek	-8.37464
ovej	-8.37507
▁mám	-8.37827
ľ	-8.37864
▁Tie	-8.38099
▁váš	-8.38287
ových	-8.38355
bo	-8.38397
▁mo	-8.3844
▁dostal	-8.38598
▁stal	-8.38638
▁ktorej	-8.39007
▁podľa	-8.39203
▁celý	-8.39322
veľa	-8.39809
▁používa	-8.39839
▁potlesk	-8.40113
▁technológi	-8.4026
▁000	-8.40384
▁stran	-8.40389
ovanie	-8.40529
▁Pri	-8.4109
▁dôležité	-8.42258
▁kým	-8.42278
viete	-8.42521
ovi	-8.42778
▁jedno	-8.43372
▁200	-8.43383
ému	-8.43383
▁niekoľko	-8.43666
▁samozrejm	-8.43774
▁ďal	-8.44066
▁lepšie	-8.44886
pr	-8.449
▁menej	-8.45276
▁moje	-8.45453
▁spolu	-8.45633
▁Tento	-8.45833
ené	-8.45961
▁niekto	-8.46031
▁celk	-8.46102
▁robí	-8.46485
▁výskum	-8.46595
▁Ma	-8.467
pi	-8.46916
▁knih	-8.47062
núť	-8.4733
▁projekt	-8.47366
dr	-8.49109
▁veľký	-8.49284
▁miesto	-8.49293
▁vidím	-8.49675
el	-8.49676
jte	-8.4982
íme	-8.49855
ejšie	-8.5003
▁dolárov	-8.50155
▁mnoho	-8.50495
▁mala	-8.50578
▁proti	-8.50922
▁množstvo	-8.51614
▁pohľad	-8.51854
vo	-8.52057
▁nápad	-8.52077
▁podstate	-8.5212
▁vý	-8.52593
ený	-8.52621
▁vojn	-8.53032
▁Potom	-8.53334
▁rozdiel	-8.5346
▁vie	-8.53571
▁ľuď	-8.53988
▁urobil	-8.54198
▁vô	-8.54402
▁moh	-8.54407
íte	-8.54658
▁Od	-8.54721
ja	-8.5514
ši	-8.55315
▁presne	-8.55326
▁aký	-8.55392
▁tí	-8.55554
▁aké	-8.5577
▁nemal	-8.55833
▁no	-8.55956
▁I	-8.56176
bec	-8.56196
▁dôvod	-8.56283
ck	-8.56322
▁da	-8.56522
▁zmeni	-8.56765
▁rôzny	-8.56814
▁jednoducho	-8.57064
▁skupin	-8.57191
ká	-8.57219
ed	-8.5733
▁späť	-8.57347
▁časť	-8.57353
iek	-8.57888
▁vytvori	-8.57924
▁nez	-8.58046
nom	-8.58287
ajú	-8.58288
ad	-8.58609
stalo	-8.58685
▁zvuk	-8.58725
▁nepo	-8.58778
▁deje	-8.58984
táto	-8.59133
▁pekn	-8.59266
▁Tá	-8.59648
ter	-8.59781
▁nový	-8.59804
ár	-8.6043
rad	-8.60642
▁myšlienk	-8.61133
ick	-8.61133
chod	-8.61142
▁vieme	-8.61159
ší	-8.61164
▁musel	-8.61261
▁spravi	-8.61459
▁planét	-8.61895
▁dobré	-8.62088
▁dal	-8.62221
▁prv	-8.62394
▁pol	-8.62431
▁sebe	-8.62573
▁často	-8.62591
▁potrebujem	-8.62646
▁mozgu	-8.62819
▁hlav	-8.62844
ob	-8.6308
▁veľké	-8.63232
▁3	-8.637
▁stav	-8.63767
▁milión	-8.63799
▁spoločnosti	-8.6396
▁malé	-8.63972
▁hodnot	-8.6398
▁rýchlo	-8.64009
cov	-8.64069
ení	-8.64435
▁Všetk	-8.64868
▁príliš	-8.64977
▁hlas	-8.65426
▁vlastn	-8.65492
▁dá	-8.65659
▁moji	-8.66035
ila	-8.6621
▁základ	-8.66258
▁rozpráva	-8.66295
pa	-8.66521
▁nej	-8.6681
▁predtý	-8.66868
miesto	-8.66892
▁raz	-8.67124
ným	-8.677
▁možné	-8.6784
vá	-8.6789
▁mier	-8.67891
ver	-8.67904
▁kon	-8.68088
▁Povedal	-8.68124
▁krajin	-8.68185
▁zistil	-8.68196
▁detí	-8.68486
▁keby	-8.68583
▁ktorom	-8.68736
ský	-8.68756
▁nov	-8.68922
ňa	-8.69255
▁ukázal	-8.69673
rov	-8.69906
▁r	-8.70005
▁malý	-8.7013
▁ktorým	-8.70462
▁vyzerá	-8.70642
ová	-8.70668
▁film	-8.70811
▁W	-8.70844
▁oblasti	-8.71295
▁použi	-8.71491
vôl	-8.7189
▁žen	-8.71956
▁robím	-8.72113
▁komunit	-8.72137
raz	-8.72376
ak	-8.72457
▁Možno	-8.7248
▁stane	-8.72523
▁môžem	-8.72581
▁domov	-8.72854
▁R	-8.73184
▁nástroj	-8.73225
▁hovoriť	-8.73229
ur	-8.73349
▁dieťa	-8.73365
▁žiadne	-8.73367
▁taký	-8.73421
▁ku	-8.73502
w	-8.73511
▁časti	-8.73529
udia	-8.73561
▁model	-8.7362
▁sp	-8.73708
▁50	-8.73798
žiť	-8.73822
▁jazyk	-8.74149
▁30	-8.74276
▁získa	-8.74839
▁rovnako	-8.74904
▁Pred	-8.75068
▁materiál	-8.75112
▁sta	-8.75444
▁peniaz	-8.75494
ujem	-8.75696
▁Nuž	-8.75879
▁dvo	-8.76103
▁vďaka	-8.76261
2	-8.76355
▁mn	-8.76398
ng	-8.76431
8	-8.76636
ry	-8.7665
▁Pozri	-8.76678
▁de	-8.76728
▁nejak	-8.76761
▁posledný	-8.76864
za	-8.76964
▁prístup	-8.77041
koniec	-8.77042
▁ba	-8.77101
klad	-8.77159
▁Viet	-8.77513
▁tisíc	-8.77849
▁proces	-8.77915
be	-8.78154
▁TED	-8.78207
▁miliard	-8.78207
▁nájs	-8.78208
▁Dobr	-8.7821
▁Chcem	-8.78263
▁predstavi	-8.78363
ah	-8.78516
▁minút	-8.78606
vr	-8.78817
▁svoji	-8.7885
▁hodin	-8.78894
▁5	-8.79097
ber	-8.79171
▁ved	-8.79287
▁niektoré	-8.79292
▁krajiny	-8.79332
sti	-8.79502
▁g	-8.79582
▁možnosť	-8.79647
A	-8.79776
▁oceán	-8.79792
ejší	-8.79867
▁prvé	-8.79947
▁hra	-8.80148
▁robia	-8.80323
▁nik	-8.8034
▁vedel	-8.80685
▁Som	-8.80716
▁miliónov	-8.8077
▁experiment	-8.80996
sk	-8.81017
▁súčasn	-8.81439
nk	-8.81781
▁bunk	-8.8182
▁chorob	-8.82242
čí	-8.82447
es	-8.82572
▁bod	-8.82624
▁predstav	-8.82628
▁všetk	-8.82893
▁dáva	-8.83119
▁myslí	-8.83193
▁dobrý	-8.83331
zí	-8.83531
▁existuje	-8.83865
▁vtedy	-8.84038
▁moment	-8.84278
▁re	-8.84443
ón	-8.84495
▁svetlo	-8.84708
▁cen	-8.85236
▁4	-8.85521
▁akým	-8.8591
nosti	-8.85969
ď	-8.8625
▁kultúr	-8.86294
ník	-8.86468
is	-8.86779
▁Len	-8.86962
čk	-8.87007
del	-8.87183
4	-8.87453
▁vytvára	-8.87508
▁žiadn	-8.87602
▁obraz	-8.87699
▁celé	-8.87769
▁L	-8.87978
▁isté	-8.88634
bi	-8.88796
▁form	-8.89185
▁zákon	-8.89422
▁neskôr	-8.89462
▁smer	-8.89507
▁Sam	-8.89657
vý	-8.89801
▁nielen	-8.9
5	-8.90055
nosť	-8.90084
S	-8.90332
ke	-8.9048
▁nejaké	-8.90497
▁otázka	-8.90663
▁spoločnosť	-8.90814
▁rad	-8.90879
▁100	-8.90905
▁prišiel	-8.90938
vé	-8.90958
ík	-8.90966
▁štyri	-8.91045
▁USA	-8.91196
▁musi	-8.9132
▁robot	-8.9133
▁Moj	-8.91409
júc	-8.91411
▁program	-8.91558
▁nemá	-8.91593
▁údaj	-8.91647
▁úloh	-8.91647
▁dostane	-8.9196
▁internet	-8.92095
▁Má	-8.92142
▁dokáže	-8.92324
dol	-8.92346
▁počítač	-8.92406
▁noh	-8.9242
▁znov	-8.92498
3	-8.92529
▁rád	-8.92606
▁2	-8.92654
vie	-8.92724
7	-8.92865
ená	-8.931
áno	-8.93183
▁myslel	-8.93233
▁On	-8.93404
▁New	-8.93512
▁J	-8.93766
C	-8.94027
▁školy	-8.94159
▁ist	-8.94402
nes	-8.94662
▁hudb	-8.94841
▁súčasť	-8.94843
▁štát	-8.94916
▁ťažké	-8.95052
▁vedieť	-8.95097
ča	-8.95115
enia	-8.95261
▁mnohý	-8.95454
áva	-8.95484
▁úžasné	-8.95734
▁obchod	-8.95837
júci	-8.9659
bu	-8.96621
▁rodin	-8.96681
▁zdroj	-8.96767
▁hore	-8.97381
ó	-8.97399
sa	-8.97522
stup	-8.9754
▁schopn	-8.97565
▁päť	-8.98055
ô	-8.98058
▁fakt	-8.98104
▁organizáci	-8.98143
ran	-8.98302
▁robil	-8.98324
ria	-8.98366
ál	-8.98394
kom	-8.98405
▁Každý	-8.98428
▁miesta	-8.98543
▁mimo	-8.98707
nik	-8.98768
▁naučil	-8.98843
▁uvedomil	-8.99038
áci	-8.99051
man	-8.99118
▁koľko	-8.99169
▁začína	-8.99186
▁Veľ	-8.99246
▁boj	-8.99416
▁seb	-8.99433
▁jednoduché	-8.99466
▁neho	-8.99515
▁cieľ	-8.9957
▁chc	-8.99584
▁odpoveď	-8.99592
▁situáci	-8.99593
▁Mo	-8.99925
▁ďalšie	-9.00004
▁prírod	-9.00257
▁zača	-9.00259
stvo	-9.00291
▁pracova	-9.00296
▁otázku	-9.0032
▁vzťah	-9.00504
▁Viem	-9.0071
anie	-9.00993
zog	-9.01067
P	-9.01112
▁star	-9.01141
álne	-9.01515
ské	-9.01526
▁budúcnosti	-9.0156
▁rôzne	-9.01844
▁Chcel	-9.02315
0	-9.02381
▁pohyb	-9.0239
▁f	-9.02536
teľ	-9.02752
▁čím	-9.02768
bud	-9.02911
M	-9.03079
▁zaujímavé	-9.03106
▁znovu	-9.03109
▁mysli	-9.03259
▁farb	-9.03336
ľa	-9.03371
▁hovorím	-9.03483
▁N	-9.03596
▁In	-9.03757
▁Môžem	-9.03836
▁let	-9.03928
▁správ	-9.0396
▁vlád	-9.04054
▁inak	-9.04132
D	-9.04135
ív	-9.04158
▁vek	-9.04172
▁Dne	-9.04231
▁Musím	-9.04254
▁skôr	-9.04414
▁rakovin	-9.04581
▁40	-9.04611
▁nevy	-9.04681
▁neza	-9.04683
▁priamo	-9.04858
▁dole	-9.04915
▁dňa	-9.05133
▁šťasti	-9.05262
nejší	-9.05284
▁Niektor	-9.05636
▁ľudsk	-9.05665
op	-9.0569
ing	-9.05926
▁cíti	-9.05946
▁ukáza	-9.05963
čka	-9.06122
iež	-9.06325
▁jedlo	-9.06407
sky	-9.06473
tie	-9.06514
6	-9.06755
▁priestor	-9.06881
▁video	-9.07002
poň	-9.07091
▁osob	-9.07238
▁zaujíma	-9.07475
▁typ	-9.07534
▁správne	-9.07586
▁budete	-9.07606
▁počul	-9.07622
▁Zem	-9.07628
▁funguje	-9.07698
ovaný	-9.07772
▁istý	-9.0807
os	-9.08159
ví	-9.08232
▁1	-9.08263
▁sem	-9.08303
priek	-9.08338
vor	-9.0841
▁6	-9.08657
▁15	-9.08674
▁miest	-9.08706
▁teóri	-9.08759
vali	-9.08823
ilo	-9.09058
▁ľudské	-9.09106
▁Š	-9.09245
▁Mal	-9.0943
▁stránk	-9.0945
9	-9.09487
▁hviezd	-9.09831
▁využi	-9.09832
T	-9.09852
▁trh	-9.09855
▁roky	-9.09879
▁študent	-9.0988
▁tými	-9.10111
▁miliárd	-9.10372
▁peňa	-9.10376
▁tvar	-9.10383
nou	-9.10462
▁výrob	-9.10658
tok	-9.10733
▁rozhod	-9.10864
▁pravdepodobne	-9.11033
▁pozrieť	-9.11052
▁telo	-9.11077
ga	-9.11402
▁nazýva	-9.11419
▁začiatk	-9.1144
chádza	-9.1159
čn	-9.11592
▁tvár	-9.11667
rod	-9.11679
▁My	-9.11682
▁ňom	-9.11854
▁prís	-9.12176
neď	-9.12403
skej	-9.12415
▁zmenil	-9.12846
▁dom	-9.12943
▁baktéri	-9.13119
žien	-9.13134
▁men	-9.13196
▁pra	-9.13238
▁prišli	-9.13292
pad	-9.13302
▁nemôže	-9.13391
▁pochopi	-9.13505
▁krok	-9.13521
▁stroj	-9.13616
▁vaše	-9.13739
▁Predstav	-9.13794
ované	-9.13823
1	-9.13823
árov	-9.13853
▁nejaký	-9.14683
▁Amerik	-9.14806
šie	-9.14826
cie	-9.14838
▁správa	-9.14855
▁Všet	-9.14985
tor	-9.15049
▁sám	-9.15052
▁rast	-9.15136
▁pravda	-9.15144
▁úspech	-9.15373
▁vnútr	-9.1552
du	-9.15572
▁energie	-9.15932
▁realit	-9.15947
ieť	-9.16008
ant	-9.1604
▁potrebuje	-9.16121
▁Ob	-9.16146
▁les	-9.16188
▁viem	-9.16278
▁Vo	-9.16426
▁slovo	-9.16489
▁matematik	-9.16519
▁povrch	-9.16522
▁slov	-9.16656
▁Už	-9.16864
čný	-9.16927
viac	-9.17409
▁nieko	-9.17409
▁každé	-9.17415
▁zas	-9.17424
▁chvíľ	-9.17465
▁Ba	-9.17643
kiaľ	-9.17672
▁potreb	-9.17782
▁test	-9.17871
▁pl	-9.18079
▁vzduch	-9.18263
▁polovic	-9.18265
▁čist	-9.1828
▁rastlin	-9.18361
▁zmysel	-9.18425
▁všetkým	-9.18596
však	-9.18691
▁dôležit	-9.18847
▁hlavne	-9.19195
treba	-9.19264
▁dar	-9.19472
son	-9.19546
▁jedl	-9.19546
▁všade	-9.19552
ovaní	-9.19642
niu	-9.19698
▁žena	-9.1985
nsk	-9.20015
▁hor	-9.20075
▁pozrel	-9.20114
nic	-9.20179
▁la	-9.20296
ork	-9.20306
▁určite	-9.20397
▁papier	-9.20637
▁tím	-9.20687
▁dr	-9.20804
▁schopnosť	-9.20846
▁myšlienka	-9.21237
▁miestnosti	-9.21289
vol	-9.21297
▁liek	-9.21305
pí	-9.21467
▁ktorého	-9.21469
▁Afrik	-9.21575
od	-9.21577
dá	-9.21693
▁moc	-9.21783
▁vníma	-9.21809
▁históri	-9.21846
▁otázky	-9.21921
▁as	-9.22015
▁fotk	-9.22065
▁Čín	-9.22187
▁pro	-9.22214
▁siet	-9.22317
▁pozrie	-9.2241
▁zlé	-9.22831
čo	-9.22869
kaz	-9.22901
▁hovoria	-9.22943
▁budúcnosť	-9.23072
nov	-9.2325
zi	-9.23291
▁nes	-9.23599
ala	-9.23922
▁map	-9.24013
▁žiad	-9.24039
▁priateľ	-9.2416
ovia	-9.24232
▁18	-9.24326
▁niektor	-9.24381
bl	-9.24898
ujúce	-9.24929
▁vplyv	-9.24932
▁štúdi	-9.24977
▁obrovské	-9.25055
▁pracoval	-9.25278
▁toľko	-9.25367
dín	-9.25504
▁ľad	-9.25563
áln	-9.25677
for	-9.25677
▁vytvorili	-9.25758
▁správy	-9.25996
▁vzor	-9.26045
▁konci	-9.26053
▁príde	-9.26165
▁nev	-9.2621
▁uči	-9.26211
▁CA	-9.26244
▁Sme	-9.26539
▁tvor	-9.26684
▁Väčšin	-9.26831
▁pýta	-9.26919
▁obráz	-9.27
▁zdravi	-9.27045
▁c	-9.27153
com	-9.27176
▁plán	-9.27388
ením	-9.27551
ozrejme	-9.27865
rokoch	-9.27873
▁nauči	-9.27924
▁objav	-9.28022
▁stovk	-9.28172
mnoho	-9.28188
▁12	-9.28212
▁jedným	-9.28246
▁chyb	-9.28275
▁prednášk	-9.28379
ska	-9.28473
▁dokázal	-9.28502
id	-9.28545
▁Vidí	-9.28605
▁nim	-9.28651
▁volá	-9.28703
▁ukazuje	-9.28767
dne	-9.28801
▁dobr	-9.28936
ičk	-9.29007
▁obrovský	-9.29127
▁posledn	-9.29251
▁prišl	-9.29277
▁kam	-9.29488
▁zálež	-9.2952
▁19	-9.29616
▁rovnak	-9.29678
▁Afrike	-9.29714
rk	-9.30003
▁pi	-9.301
▁najlepšie	-9.30123
▁Boli	-9.30247
▁slová	-9.30349
▁prej	-9.30674
▁napísal	-9.30697
▁Ide	-9.30724
▁Potrebujem	-9.3081
ácia	-9.31298
len	-9.31336
▁neviem	-9.3143
▁Le	-9.31446
▁vráti	-9.31472
ovým	-9.3152
▁radi	-9.31585
▁využíva	-9.31595
▁vlastné	-9.31605
▁tém	-9.31635
gen	-9.31643
▁deť	-9.3187
▁strach	-9.31891
▁fotografi	-9.31915
▁zisti	-9.31957
▁nebude	-9.31975
▁odpoved	-9.32024
▁Ra	-9.32035
do	-9.32181
▁premýšľa	-9.32223
▁60	-9.32522
▁energi	-9.32618
▁produkt	-9.32753
kou	-9.32875
▁tr	-9.32901
▁dosiahnu	-9.32921
▁hovoril	-9.32935
apos	-9.33139
ovania	-9.33144
▁prostredi	-9.3335
E	-9.33352
▁Ná	-9.33358
▁počet	-9.33435
▁číslo	-9.33448
▁planéty	-9.33498
päť	-9.33543
▁odpad	-9.33641
cu	-9.33786
▁Ch	-9.33844
▁Či	-9.34354
▁žije	-9.34436
júce	-9.34487
▁meno	-9.34575
den	-9.3466
cí	-9.34898
▁pacient	-9.34928
▁dlho	-9.3494
00	-9.34951
▁strom	-9.35028
▁sil	-9.35122
iach	-9.35401
▁vznik	-9.35448
▁včel	-9.35511
▁vlastný	-9.35522
▁otec	-9.35542
▁št	-9.35556
▁výsledky	-9.3575
▁7	-9.35788
ický	-9.3592
▁rozhodl	-9.36013
▁skúma	-9.36125
rat	-9.36157
▁vytvoril	-9.36164
▁Môj	-9.36203
▁málo	-9.36452
▁von	-9.36487
▁80	-9.36667
▁úžasn	-9.36866
▁šesť	-9.36908
▁priebeh	-9.36909
▁Začal	-9.36917
▁Hud	-9.36994
▁taká	-9.37053
▁vysok	-9.37076
▁8	-9.37105
▁cestu	-9.37148
▁Ha	-9.37161
▁stred	-9.37254
vod	-9.37521
▁zraz	-9.37571
▁generáci	-9.37616
▁nemám	-9.37743
▁tela	-9.37802
▁povie	-9.37952
telia	-9.38141
▁objavil	-9.38148
as	-9.38149
▁Mali	-9.3816
▁ďalši	-9.38206
B	-9.38575
▁nemaj	-9.38709
kopy	-9.38818
▁ďaleko	-9.39058
▁strat	-9.39309
isto	-9.39391
▁vyp	-9.39563
▁najlepší	-9.3966
▁doktor	-9.39776
▁zatiaľ	-9.39777
G	-9.39784
▁Jeden	-9.39941
átor	-9.40123
▁chudob	-9.40225
ina	-9.40279
šla	-9.40405
▁začne	-9.40454
▁Indi	-9.40466
▁žil	-9.40534
nejšie	-9.40537
▁ňu	-9.40608
▁chodi	-9.40625
▁pomôcť	-9.40648
▁verím	-9.40662
▁malo	-9.40808
▁živ	-9.40861
fi	-9.41227
▁telefón	-9.4124
▁nevedel	-9.4124
▁inováci	-9.41244
▁De	-9.41252
▁zvierat	-9.41272
alo	-9.41407
zdá	-9.41486
▁skoro	-9.41621
ické	-9.4163
▁čom	-9.41653
▁najväčší	-9.41669
▁systému	-9.4167
▁objekt	-9.41979
álny	-9.42335
dy	-9.42472
▁lekár	-9.42535
▁navrh	-9.4254
▁poviem	-9.42616
wa	-9.42747
▁9	-9.42767
▁štruktúr	-9.4286
mä	-9.43089
osťou	-9.4309
▁dát	-9.43174
▁Kto	-9.43344
▁číta	-9.43422
▁približn	-9.43478
▁šanc	-9.43479
▁pomal	-9.43488
▁bi	-9.43528
▁metrov	-9.43614
▁sami	-9.43616
▁vrátil	-9.43688
▁ľuďm	-9.4378
▁podobné	-9.44067
pusti	-9.4407
ológ	-9.44229
▁pokrok	-9.44238
▁super	-9.44243
▁chlapík	-9.44254
▁ekonomik	-9.44396
▁tried	-9.44426
mp	-9.44506
hľad	-9.44571
▁škole	-9.44625
▁firm	-9.44693
▁Spojený	-9.44765
▁nádej	-9.45
▁ostrov	-9.45008
▁ochran	-9.4501
▁tvoj	-9.45012
▁iným	-9.45025
▁pomáha	-9.45076
jšia	-9.45111
▁hoci	-9.4521
O	-9.45316
▁nepre	-9.45374
▁dáta	-9.45394
▁ohľad	-9.4547
lep	-9.45569
▁spravil	-9.45668
▁dôkaz	-9.45769
▁vyrieši	-9.45769
▁liečb	-9.45769
▁mesto	-9.45774
▁problémov	-9.45859
▁spravili	-9.45885
▁snažil	-9.462
▁storočia	-9.46259
▁svetov	-9.46275
ujúc	-9.46491
▁názor	-9.46555
▁univerzit	-9.46557
▁div	-9.46643
▁žiadny	-9.46763
▁mama	-9.46804
▁nachádza	-9.4683
▁druhý	-9.46833
R	-9.47015
▁druhov	-9.47298
▁politik	-9.47325
▁červen	-9.47434
▁nájde	-9.47637
▁br	-9.47757
▁mlad	-9.47822
▁stáva	-9.48024
▁Zemi	-9.4807
▁vyrába	-9.48113
▁prúd	-9.48113
▁Prv	-9.48194
▁ti	-9.48218
▁predsa	-9.48282
▁vide	-9.48319
▁obsah	-9.48378
▁svojim	-9.48605
iem	-9.48606
ujúci	-9.48696
▁vzal	-9.48743
▁syn	-9.48785
▁správanie	-9.48787
▁potenciál	-9.48906
▁ukážem	-9.48922
▁pán	-9.48952
▁ráno	-9.49097
▁obrovsk	-9.49112
iera	-9.4918
▁Musí	-9.49423
▁pozera	-9.49541
val	-9.49585
▁rodiny	-9.49624
ácie	-9.49735
▁ľudský	-9.49761
▁vrchol	-9.49771
▁Ten	-9.49774
▁verejn	-9.49891
▁Boh	-9.49931
▁sieť	-9.49979
▁mobil	-9.50122
▁ty	-9.50393
▁Mar	-9.50519
níci	-9.50655
▁biel	-9.50679
▁25	-9.50835
▁mení	-9.5087
▁Str	-9.50897
▁dvoj	-9.50925
▁konc	-9.51028
iny	-9.51056
▁Nikd	-9.51151
▁poču	-9.51152
▁riešeni	-9.51218
▁stojí	-9.51352
▁ruky	-9.51371
▁dvom	-9.51405
▁krajiná	-9.51409
▁Ro	-9.5147
iev	-9.51475
▁prí	-9.51837
znač	-9.51939
▁úžasný	-9.51992
▁oči	-9.52006
▁vážne	-9.52042
▁používajú	-9.52087
▁signál	-9.52145
▁smrti	-9.52145
▁hmyz	-9.52145
▁dám	-9.52155
▁mieste	-9.52314
▁pokračova	-9.52553
▁prichádza	-9.52571
▁graf	-9.52575
▁prav	-9.5264
▁mestá	-9.52973
▁pozornosť	-9.52985
▁dôsledk	-9.52987
teľné	-9.53058
▁pravdu	-9.53276
▁Naj	-9.53315
▁šťastn	-9.53444
▁os	-9.53452
▁samo	-9.53456
▁takých	-9.53503
▁hr	-9.53687
▁chlap	-9.53714
▁väčší	-9.53742
▁plast	-9.53757
▁večer	-9.53831
▁OK	-9.53842
▁list	-9.54083
▁snažím	-9.54191
▁jedin	-9.54234
▁výzv	-9.54248
nite	-9.54275
▁rovnaké	-9.54307
▁žijú	-9.54593
späť	-9.54615
▁všeobecn	-9.54645
▁kol	-9.54704
▁vedia	-9.54729
▁postup	-9.54835
▁znie	-9.54842
gi	-9.55
▁zdieľa	-9.5511
▁práca	-9.55169
L	-9.55268
▁možnosti	-9.55315
▁vedomi	-9.55339
▁kontrol	-9.55384
▁mysle	-9.55465
▁týždeň	-9.55493
▁pokus	-9.55497
▁vývoj	-9.55505
▁čísla	-9.55517
▁zvieratá	-9.55592
▁aká	-9.55612
▁oh	-9.55732
▁druhé	-9.55848
▁matk	-9.55886
th	-9.55902
▁90	-9.55903
ras	-9.55913
▁dokážem	-9.56116
▁očakáva	-9.56295
▁Naš	-9.56319
iaľ	-9.56344
▁Vlastn	-9.56348
▁vyvinul	-9.56348
▁technik	-9.56358
▁rámc	-9.56385
zia	-9.56475
poj	-9.56575
▁týka	-9.56718
▁skutočn	-9.56874
íc	-9.5695
▁niektorý	-9.56997
▁skvelé	-9.57024
▁bank	-9.57157
▁pozor	-9.57169
▁HIV	-9.5721
▁prístroj	-9.57211
▁existujú	-9.57299
▁poznám	-9.57327
▁doslov	-9.57394
▁pln	-9.57394
▁veľkosti	-9.57477
▁Re	-9.57556
▁dopad	-9.5756
▁čiern	-9.57574
▁pozriem	-9.57762
▁centr	-9.57823
▁dcér	-9.58079
▁prejav	-9.58092
▁poriadk	-9.58093
▁Práv	-9.58099
ge	-9.58191
▁dlh	-9.58256
line	-9.58343
vať	-9.58374
▁Existuje	-9.58381
▁mužov	-9.58395
▁sledova	-9.5843
dni	-9.58615
vin	-9.58636
▁cesta	-9.58849
opár	-9.58923
▁oblasť	-9.58957
▁spotreb	-9.59097
dní	-9.59149
▁myslia	-9.59208
▁pochádza	-9.59209
ostí	-9.59395
▁išl	-9.59519
▁Si	-9.59534
▁Pod	-9.59555
▁úrovni	-9.59719
▁70	-9.59733
▁reakci	-9.59841
▁záber	-9.59846
▁Počas	-9.59908
skú	-9.6013
▁vys	-9.60245
▁neustále	-9.60461
nuti	-9.60463
▁niekoľký	-9.6052
▁učiteľ	-9.60581
▁umožňuje	-9.60734
▁meste	-9.60736
▁Jo	-9.60745
▁noci	-9.60772
jem	-9.60789
▁detsk	-9.60791
▁nepri	-9.60821
▁podpor	-9.6086
▁uvidíte	-9.60934
▁Nik	-9.60948
▁postav	-9.61001
šia	-9.61137
ák	-9.6125
▁dizajn	-9.61312
tri	-9.61427
sku	-9.61436
▁ňo	-9.61617
▁revolúci	-9.61635
▁minulosti	-9.61698
čas	-9.61712
▁ona	-9.61782
▁spýtal	-9.61796
▁spája	-9.61865
▁Jedna	-9.61954
▁199	-9.6204
▁nech	-9.62213
▁skupina	-9.62222
▁vyh	-9.62278
▁La	-9.6242
▁efekt	-9.62543
NA	-9.62569
vajú	-9.62795
art	-9.62839
zna	-9.62848
▁Ok	-9.6299
der	-9.63053
▁rovnaký	-9.63062
▁podobne	-9.6308
iel	-9.63105
les	-9.63188
▁krátk	-9.63261
kra	-9.63389
▁fyzik	-9.63449
▁Prvý	-9.63463
▁výšk	-9.63475
▁16	-9.63482
▁podaril	-9.63525
▁stá	-9.6359
▁11	-9.63605
▁doma	-9.63787
ložil	-9.6403
▁jediný	-9.64039
▁hlad	-9.64096
▁správn	-9.64307
▁páči	-9.64389
▁ľudskej	-9.64409
▁súcit	-9.64501
▁otvoren	-9.64513
▁krát	-9.64528
▁najpr	-9.64558
▁učeni	-9.64574
ás	-9.64583
▁voda	-9.64656
▁premen	-9.64722
▁Každ	-9.64766
izmus	-9.64776
kol	-9.64872
▁vyzeral	-9.64886
dajú	-9.64984
▁riadi	-9.65207
K	-9.65226
▁kor	-9.6523
▁vzdelani	-9.65322
▁zamera	-9.65416
▁prostredia	-9.65469
▁nemôžem	-9.65487
▁počúva	-9.657
▁technológia	-9.65749
▁skúsenosti	-9.65885
▁zelen	-9.66098
▁piati	-9.6612
▁nap	-9.66142
▁Chris	-9.66268
▁mesta	-9.6629
▁dver	-9.6646
▁kop	-9.66482
teľn	-9.66652
ard	-9.66853
▁ostatné	-9.66871
▁dobrá	-9.67002
▁skutočné	-9.67032
▁akú	-9.67036
▁zábav	-9.67082
▁pracujem	-9.67091
▁molekul	-9.67197
▁schopnosti	-9.67203
▁kús	-9.67236
▁fot	-9.67239
lan	-9.67252
▁starý	-9.67488
▁ľahko	-9.67497
▁väčšie	-9.67519
ňuje	-9.67543
▁cítil	-9.67776
išiel	-9.6781
▁rodiči	-9.6794
▁pacientov	-9.68014
▁rozhovor	-9.6818
▁záver	-9.68186
▁chor	-9.68223
▁slobod	-9.68356
▁krají	-9.68379
▁moráln	-9.68392
▁par	-9.68573
▁dospel	-9.68721
ment	-9.68736
stáva	-9.68747
▁lepší	-9.68752
tia	-9.68839
▁ryb	-9.68885
▁budov	-9.68929
▁význam	-9.68981
▁spoločné	-9.69027
▁osoba	-9.69092
prostred	-9.69104
▁koniec	-9.69134
▁finančn	-9.6915
▁komunikáci	-9.6915
▁zásad	-9.69151
▁náklad	-9.69155
▁príjm	-9.6917
▁vták	-9.69206
▁niekd	-9.69277
▁mno	-9.69306
▁zle	-9.69411
ss	-9.69456
jme	-9.69514
▁Ti	-9.69522
eď	-9.69554
▁predstavuje	-9.69568
▁rada	-9.69715
vzájom	-9.69883
▁reč	-9.69934
▁umeni	-9.70031
▁pláva	-9.70047
▁ostatný	-9.70111
▁Naozaj	-9.70122
▁konflikt	-9.70131
▁Jedn	-9.70227
▁kúsk	-9.70231
▁úrov	-9.70232
▁riešenia	-9.70261
▁Ke	-9.70369
▁Európ	-9.70406
čer	-9.7044
ster	-9.7048
gr	-9.70495
ľavo	-9.70527
▁kúpi	-9.70533
▁urobím	-9.70786
▁jasné	-9.70923
▁web	-9.71121
ročné	-9.71123
▁zomrel	-9.71124
▁kruh	-9.71126
▁Stál	-9.71126
▁14	-9.71148
sil	-9.71198
▁skutočný	-9.71201
▁oddelen	-9.71225
▁Hej	-9.71265
▁nena	-9.71278
▁Dr	-9.71344
▁nami	-9.71504
per	-9.71512
▁siln	-9.71557
▁minul	-9.71692
▁počítačov	-9.71697
ček	-9.71714
ig	-9.71766
▁postavi	-9.7199
▁Veľk	-9.72008
hor	-9.72042
▁zem	-9.72097
▁sociálne	-9.72118
▁vytvorí	-9.72121
▁pôd	-9.72121
▁kvalit	-9.72133
čku	-9.72151
▁riek	-9.72199
▁značk	-9.72206
bor	-9.72234
▁hrozn	-9.7234
men	-9.7249
▁bohat	-9.72541
▁zemi	-9.72546
▁rýchlosť	-9.72592
▁dostanem	-9.72637
▁štvrt	-9.72759
▁prechádza	-9.72783
▁spoji	-9.72799
▁ktorou	-9.72829
▁fungova	-9.72985
▁výsledk	-9.73032
▁životné	-9.73077
▁Neviem	-9.73134
▁príbehu	-9.73166
▁aktivit	-9.73237
▁tele	-9.73395
▁kož	-9.73403
▁zlom	-9.73497
▁jednoduchý	-9.73527
▁nevie	-9.73528
I	-9.73534
dľa	-9.73608
▁Mohl	-9.73762
▁mladý	-9.73937
▁mas	-9.74034
▁povedz	-9.74151
▁pravidlá	-9.74153
▁zoznam	-9.74153
▁osem	-9.74174
▁Dokon	-9.74185
▁Al	-9.74351
▁prepojen	-9.74357
▁necha	-9.74358
▁svetla	-9.7436
▁potrebné	-9.74371
▁vzdelávani	-9.74403
čiek	-9.7449
rsk	-9.74493
ýb	-9.74532
teľný	-9.74561
▁zvyš	-9.74588
▁voľn	-9.7465
▁stop	-9.74835
▁Ste	-9.74997
▁galaxi	-9.75182
▁návrh	-9.75182
▁buniek	-9.75182
▁pomyslel	-9.75183
ročný	-9.75338
▁stredn	-9.75362
pis	-9.75583
čné	-9.75588
▁získal	-9.75635
▁sek	-9.75716
▁snaží	-9.75744
▁organizm	-9.75812
stúp	-9.7586
▁Sp	-9.75945
dalo	-9.76042
▁zmení	-9.76076
▁nejako	-9.76135
91	-9.76161
▁symbol	-9.76222
▁inštitúci	-9.76224
▁storočí	-9.76224
▁koncept	-9.76224
▁kríz	-9.76224
▁slnečn	-9.76224
▁gén	-9.76265
eľ	-9.7627
▁výber	-9.76281
ždy	-9.76318
▁prst	-9.76336
▁vyzera	-9.76336
▁proste	-9.76488
▁podob	-9.76575
▁dôvodov	-9.76627
▁plat	-9.76653
hliad	-9.76807
▁veľkosť	-9.76824
▁výhod	-9.77013
zadu	-9.77165
▁princíp	-9.77277
▁emóci	-9.77277
▁kontext	-9.77277
▁hľadisk	-9.77277
▁sedem	-9.77277
▁kvet	-9.77305
▁dúfam	-9.7732
▁dnešn	-9.77435
▁počt	-9.77471
kým	-9.77592
▁Zo	-9.77633
▁efektívn	-9.77663
▁dobe	-9.77816
▁prvá	-9.77843
▁nemusí	-9.7799
▁noc	-9.78208
▁Nebol	-9.78361
▁priemer	-9.78461
▁vyrobi	-9.78482
▁pracuje	-9.78508
▁Č	-9.78536
▁Ďalši	-9.78572
▁stan	-9.78586
▁ťažko	-9.78701
▁zah	-9.78725
stí	-9.78812
▁Vted	-9.78941
nete	-9.79201
▁takú	-9.79207
ps	-9.79256
ple	-9.79285
plat	-9.7935
▁ta	-9.79369
▁elektrin	-9.79416
▁ďakujem	-9.79416
▁prostredí	-9.79447
▁rozvoj	-9.79469
alizova	-9.79515
▁zaujímav	-9.79518
▁vecia	-9.79522
▁takým	-9.79532
▁up	-9.79616
▁vonk	-9.7963
▁obrázky	-9.79733
▁auto	-9.79807
▁násili	-9.79978
▁zobra	-9.79986
▁mam	-9.79989
▁kamarát	-9.80044
▁teplot	-9.8015
▁diel	-9.80261
▁Br	-9.80321
▁tváre	-9.80331
▁Co	-9.80343
▁podnik	-9.80376
▁vysoko	-9.80437
▁praktick	-9.80504
▁obet	-9.8051
▁uhlík	-9.80518
▁sex	-9.80557
▁modr	-9.80578
▁jednoduch	-9.80582
▁určit	-9.80815
▁San	-9.80869
▁vybra	-9.80898
▁národ	-9.80927
▁zmysle	-9.8107
▁stret	-9.81109
▁domác	-9.8119
násob	-9.81339
res	-9.81407
▁orgán	-9.81602
▁Dovoľ	-9.81602
▁spojeni	-9.81602
▁buď	-9.81602
▁smrť	-9.81603
▁denne	-9.81623
▁kilometrov	-9.81665
▁inžinier	-9.81703
▁jednom	-9.8171
▁zachráni	-9.81765
▁Poď	-9.81775
▁rýchlejši	-9.81781
▁lov	-9.81819
▁hmot	-9.81839
N	-9.81897
▁mozg	-9.82003
▁rovn	-9.82047
▁jazd	-9.82053
▁vaši	-9.82053
beh	-9.821
▁modern	-9.82216
▁úpln	-9.82294
▁presvedčen	-9.82474
▁zviera	-9.82537
▁Ho	-9.82547
▁pozná	-9.82636
lín	-9.82713
okrem	-9.82719
▁vrstv	-9.82732
▁mozgov	-9.82743
darí	-9.8312
▁reáln	-9.83179
▁ťa	-9.83403
sko	-9.83535
níkov	-9.83576
sh	-9.83621
▁globálne	-9.83622
▁stál	-9.83654
▁zap	-9.83689
▁použil	-9.83716
pov	-9.8376
▁myseľ	-9.83836
▁13	-9.83853
▁operáci	-9.83918
▁názv	-9.83925
▁motor	-9.83929
▁schopný	-9.83945
▁vidí	-9.83986
▁úst	-9.84054
▁ročne	-9.84116
rmo	-9.84281
▁služb	-9.84342
▁nemohl	-9.84385
▁laboratóriu	-9.84443
▁novin	-9.84486
▁minulý	-9.84608
▁školu	-9.84642
▁úspešn	-9.84667
kami	-9.84868
▁rozhodnutia	-9.84966
▁evolúci	-9.84973
▁pevn	-9.84976
▁Ri	-9.85002
lov	-9.85052
▁blízko	-9.8522
▁opak	-9.85235
▁silu	-9.85259
▁Tí	-9.85367
▁vedie	-9.85803
ren	-9.85924
ieš	-9.85925
▁zlý	-9.8597
▁nebudem	-9.85995
▁Leb	-9.86051
ložiť	-9.86086
bral	-9.861
▁prezident	-9.86122
▁prieskum	-9.86122
▁pozitívn	-9.86122
93;	-9.86122
▁sekund	-9.86123
▁výkon	-9.86123
▁Ešte	-9.86126
▁výsledok	-9.86132
▁obrázk	-9.86159
▁plyn	-9.86192
▁zdravotn	-9.86425
▁hľada	-9.86463
▁pozorova	-9.86543
dal	-9.86663
pol	-9.86813
▁slab	-9.86817
▁získava	-9.87019
▁sused	-9.8705
môcť	-9.87055
ovaním	-9.87115
▁pozerá	-9.87118
robi	-9.87129
▁miestach	-9.87144
▁Afganistan	-9.87285
▁angličtin	-9.87285
▁detail	-9.87285
▁tradičn	-9.87285
▁nesp	-9.87309
▁obrazovk	-9.87312
▁dôležitý	-9.8735
▁snažia	-9.8755
▁výraz	-9.87983
▁väčši	-9.88079
▁zodpovedn	-9.88091
▁udržateľn	-9.88126
▁miestn	-9.88168
▁Zá	-9.88267
▁zosta	-9.88315
▁kreatívn	-9.88461
▁pozíci	-9.88463
▁tlak	-9.88471
neme	-9.88531
▁konečne	-9.88559
▁rop	-9.88563
▁náhod	-9.8876
▁metr	-9.88779
▁nosi	-9.88784
▁Bude	-9.88828
▁vedci	-9.88877
▁pop	-9.88919
▁presvedči	-9.88919
ä	-9.88966
▁predáva	-9.89026
▁neod	-9.89084
▁neexistuje	-9.89237
▁krv	-9.89243
▁starostliv	-9.8945
oh	-9.89584
▁Li	-9.8962
▁inteligenci	-9.89652
▁metód	-9.89652
▁loď	-9.89657
▁predmet	-9.89745
váž	-9.89855
▁stratil	-9.89882
raj	-9.89924
▁kontakt	-9.89992
▁našim	-9.90009
▁lietadl	-9.90011
▁odhad	-9.90191
▁Žen	-9.90251
▁odpovedal	-9.90255
▁podobný	-9.90293
▁spomienk	-9.90406
▁stretl	-9.90484
▁potrav	-9.90554
▁populáci	-9.9057
▁dokáž	-9.90573
▁rodič	-9.90724
▁uvažova	-9.90771
mysl	-9.90806
▁krajina	-9.90812
predu	-9.90814
▁známy	-9.9083
tvom	-9.90833
▁zážitk	-9.90841
▁Vďaka	-9.90857
▁interakci	-9.90857
▁posiela	-9.90857
▁pripraven	-9.90859
▁Rád	-9.90862
▁závisl	-9.90862
▁nedávno	-9.9098
▁porovnaní	-9.91018
▁znak	-9.91106
▁vrch	-9.91136
skom	-9.91246
▁možnost	-9.9128
skôr	-9.91339
W	-9.9136
▁skvelý	-9.91378
cej	-9.91418
▁vyzerajú	-9.91473
her	-9.9151
rak	-9.91591
▁žijem	-9.91604
ská	-9.91619
tické	-9.91642
okon	-9.91705
▁sto	-9.91735
▁Lo	-9.91756
▁svojím	-9.91776
▁míľ	-9.92076
▁časopis	-9.92077
▁lieči	-9.92078
▁tábor	-9.92123
▁brat	-9.92146
▁vedom	-9.92229
dávajú	-9.92309
ročn	-9.92316
▁vier	-9.92322
▁dol	-9.92347
▁vedeck	-9.92446
▁ľahké	-9.92491
▁fa	-9.92536
ity	-9.92543
V	-9.92544
kop	-9.92595
graf	-9.92696
▁vysvetli	-9.92772
lač	-9.92847
▁sama	-9.92864
▁presta	-9.93014
▁potreboval	-9.93068
▁Môž	-9.9309
▁priateľov	-9.93117
▁americk	-9.93124
▁vytvárajú	-9.9315
▁Zd	-9.93177
▁rozprával	-9.93213
▁určitý	-9.93242
▁dievča	-9.93251
▁sen	-9.93274
▁naraz	-9.93296
▁Googl	-9.93311
▁armád	-9.93311
▁vírus	-9.93311
▁chvíl	-9.93317
▁tvoriv	-9.93348
▁podstat	-9.93516
▁ovláda	-9.93577
▁populácie	-9.93605
▁Ko	-9.93607
▁Sta	-9.93815
▁ruku	-9.93832
óm	-9.93879
▁hry	-9.93895
▁rozum	-9.94063
▁Gr	-9.94081
▁posledné	-9.94252
▁vln	-9.94322
▁Nech	-9.94346
fer	-9.94348
▁zdrojov	-9.94421
▁študentov	-9.94448
▁sociálny	-9.94467
▁vybral	-9.94547
▁slúži	-9.94562
▁chápa	-9.94562
▁kníh	-9.94563
▁hlboko	-9.94565
▁neznám	-9.94577
▁dedin	-9.94578
▁doby	-9.94631
▁začiat	-9.94697
▁zvláštn	-9.94863
níc	-9.94905
▁pan	-9.94944
▁vláda	-9.94956
▁dostatočne	-9.95006
▁per	-9.95032
▁systémy	-9.95051
▁prešl	-9.95115
▁prečíta	-9.95144
▁dokonal	-9.95231
▁stol	-9.95322
▁neurón	-9.95385
ns	-9.95485
van	-9.95487
▁používam	-9.95531
bk	-9.95594
kup	-9.95607
tým	-9.95634
vádza	-9.95642
▁nízk	-9.95693
▁hranic	-9.95713
▁zostal	-9.9574
▁otázk	-9.95741
nutí	-9.95813
▁atmosfér	-9.95826
▁záznam	-9.95827
▁záujm	-9.95827
▁prostredníc	-9.95829
▁17	-9.95859
▁druhá	-9.9587
▁zvyk	-9.95873
▁roh	-9.95896
▁Nemal	-9.95925
▁koho	-9.95973
stal	-9.95997
▁uz	-9.96005
▁vzájomn	-9.96147
▁problému	-9.96153
▁vyše	-9.96203
skoro	-9.9632
▁nemožné	-9.96326
▁chlapc	-9.96395
▁skutočnosť	-9.9645
kro	-9.96476
▁bežn	-9.96673
▁strávil	-9.96688
pravo	-9.96924
▁udrža	-9.96987
▁spýta	-9.97078
▁hlúp	-9.97109
▁nezávisl	-9.97109
▁zločin	-9.97109
▁zvyčajn	-9.97109
▁záhrad	-9.97109
▁genetick	-9.97109
▁Británi	-9.9711
▁zomrie	-9.9711
▁duš	-9.9717
ejším	-9.97194
▁pomern	-9.97219
hlás	-9.97239
▁čoho	-9.97278
▁viedl	-9.97312
▁postavil	-9.9744
▁šíri	-9.97555
50	-9.97596
bil	-9.97644
▁trávi	-9.97657
▁zamestnanc	-9.97678
▁dolár	-9.97684
▁lev	-9.9777
▁zlat	-9.97775
▁Ted	-9.97827
han	-9.97945
▁užíva	-9.97963
▁podeli	-9.9797
lád	-9.97987
▁tisíck	-9.98085
väz	-9.9826
▁vedľa	-9.98319
▁nemôž	-9.98324
▁trošk	-9.98407
▁skúsenosť	-9.98407
▁príčin	-9.98409
▁spieva	-9.98412
▁John	-9.98414
▁mnoh	-9.9845
▁útok	-9.98456
▁kus	-9.98483
▁Roz	-9.98509
▁nedo	-9.98519
▁potrebuj	-9.98549
▁účel	-9.98664
▁dier	-9.9872
▁odkaz	-9.98771
▁Ken	-9.98802
▁pôjde	-9.98826
▁Tým	-9.98836
▁krásne	-9.98853
▁pozrite	-9.98854
▁pomohl	-9.98989
vaná	-9.98997
▁umel	-9.99014
▁nasledujúci	-9.99016
▁príjem	-9.9908
▁krás	-9.99094
▁nechcel	-9.991
▁rozp	-9.99112
▁neuveriteľne	-9.99285
▁Bu	-9.99398
▁novým	-9.994
▁ulici	-9.995
▁malá	-9.99593
▁takt	-9.99704
▁bližšie	-9.99723
▁prosím	-9.99723
▁zbiera	-9.99724
▁odpor	-9.99725
▁Ukázal	-9.99734
▁spoločne	-9.99735
▁podobn	-9.99751
▁sestr	-9.99794
stov	-9.99837
▁verzi	-9.99851
▁týždňov	-9.99928
▁hovorili	-10.0003
▁medicín	-10.0012
▁použit	-10.006
▁biológi	-10.0061
▁slova	-10.0069
▁prichádzajú	-10.007
▁základný	-10.0075
▁základné	-10.0089
▁štúdiu	-10.01
▁aktívn	-10.0101
▁sk	-10.0105
▁zvedav	-10.0106
▁porozpráva	-10.0106
▁tmav	-10.0106
▁dráh	-10.0106
▁samotn	-10.0107
▁24	-10.011
ow	-10.0117
▁manžel	-10.0119
▁súd	-10.0127
▁pravdepodobnosť	-10.0127
ňujú	-10.013
▁najdôležitejši	-10.0134
▁Kde	-10.0137
▁pas	-10.0145
náša	-10.0146
tický	-10.015
▁mnohí	-10.0157
▁bež	-10.017
▁menši	-10.0171
▁dovoli	-10.0192
▁množstv	-10.0193
▁čiar	-10.0193
▁ľav	-10.0201
▁skvel	-10.0212
▁prinies	-10.0218
▁pies	-10.0222
▁ďalš	-10.0227
▁prida	-10.0229
▁predstavu	-10.0229
▁dia	-10.0232
▁kariér	-10.0241
▁okamžit	-10.0241
▁príležitosť	-10.0241
▁zásob	-10.0241
▁Musel	-10.0241
▁vrátan	-10.0244
▁izb	-10.0249
dla	-10.0263
▁Vaš	-10.0266
▁ulic	-10.0267
▁ex	-10.027
▁médi	-10.0279
▁500	-10.0281
ári	-10.0293
▁písa	-10.0297
▁vnímani	-10.0313
čím	-10.0315
▁ned	-10.0321
vtedy	-10.0322
▁objavi	-10.0325
▁správny	-10.0326
pen	-10.0343
pája	-10.0345
▁pravd	-10.0345
hra	-10.0348
▁milova	-10.0353
sol	-10.0359
nutý	-10.0364
▁chráni	-10.0378
▁Rob	-10.0378
▁stres	-10.0379
▁narodil	-10.038
mb	-10.0385
▁Druh	-10.0386
▁nazývam	-10.0389
pos	-10.0399
▁bezpečnost	-10.04
teľov	-10.04
▁ploch	-10.0403
kor	-10.0413
▁Vidím	-10.0414
▁Pr	-10.0417
▁med	-10.0424
▁východ	-10.0426
daj	-10.0436
var	-10.0436
gar	-10.0439
▁jediná	-10.0444
▁Asi	-10.0446
▁absolútne	-10.0448
▁300	-10.0463
▁Mala	-10.0466
▁poskyt	-10.0473
▁Ani	-10.0473
padá	-10.0495
▁obyvateľ	-10.0503
▁most	-10.0507
▁Londýn	-10.0517
▁Skutočn	-10.0517
▁identit	-10.0517
▁dokument	-10.0517
▁drog	-10.0517
▁záchran	-10.0517
▁totiž	-10.0517
▁bublin	-10.0519
▁hrdin	-10.0529
▁súhlas	-10.0542
▁zväčš	-10.0545
▁Aký	-10.0547
▁jediné	-10.0559
▁ruk	-10.0564
▁štyro	-10.0572
▁znám	-10.0582
▁poď	-10.0592
gram	-10.0593
▁niekom	-10.0593
ler	-10.0609
▁Budem	-10.0617
sten	-10.0618
▁cykl	-10.0618
opak	-10.0623
▁Ved	-10.0623
▁začnem	-10.0643
mocn	-10.0649
dnu	-10.065
▁budova	-10.0654
▁kráča	-10.0657
▁mikrób	-10.0657
▁pokúša	-10.0657
▁zariadenie	-10.0657
▁riešení	-10.0658
▁spoluprác	-10.0658
▁čakal	-10.0658
▁text	-10.0658
▁Južn	-10.0658
▁úprimn	-10.0659
▁spolupracova	-10.0659
▁idú	-10.066
dli	-10.0664
▁prijíma	-10.0665
▁nos	-10.0666
▁Bo	-10.0667
▁autá	-10.0676
▁dôver	-10.0678
▁Pro	-10.0693
ór	-10.0694
▁politick	-10.0696
▁poslal	-10.0697
▁ran	-10.0709
▁Presne	-10.0711
▁Dá	-10.0721
▁zabi	-10.0734
▁vychádza	-10.0749
▁farmár	-10.0755
▁mera	-10.0756
▁extrémne	-10.0761
▁tvrdi	-10.0767
▁dosiahl	-10.0769
dlo	-10.0771
lod	-10.0789
▁prič	-10.0797
▁každodenn	-10.08
▁softvér	-10.08
▁Zistil	-10.08
▁poruch	-10.0802
▁horúc	-10.0803
▁snah	-10.0803
log	-10.0812
▁zmena	-10.0813
▁dlhý	-10.0825
▁vode	-10.0831
▁prežil	-10.0844
▁nadšen	-10.0849
▁ostatn	-10.0856
ologick	-10.086
▁hlavný	-10.0861
zie	-10.0861
▁Tam	-10.0874
▁vraví	-10.0877
▁vzork	-10.0878
ieb	-10.0879
▁mojím	-10.088
▁otáz	-10.0894
F	-10.0897
šťasti	-10.0898
▁klam	-10.0898
▁pochopil	-10.09
▁potravin	-10.0917
izmu	-10.0928
ske	-10.0932
▁Nov	-10.0942
▁aplikáci	-10.0945
▁obzvláš	-10.0945
▁fungujú	-10.0945
▁Video	-10.0945
▁Muž	-10.0948
▁iná	-10.0951
▁túžb	-10.0951
▁sedel	-10.0951
▁postoj	-10.0952
▁súťaž	-10.0957
▁zvýši	-10.0967
▁Jedno	-10.0979
▁digitáln	-10.0985
▁zmenilo	-10.0998
▁povedia	-10.1012
▁ekonomick	-10.1029
▁pozeral	-10.1033
▁zobral	-10.1035
▁vlastnosti	-10.1036
▁srdca	-10.1041
▁ľud	-10.1046
voči	-10.1049
▁So	-10.1052
▁závis	-10.1053
▁zložit	-10.1061
▁lieta	-10.1067
▁skr	-10.1073
Ž	-10.1084
▁hrá	-10.1087
▁úmrt	-10.1091
▁fantastick	-10.1092
▁komunikova	-10.1092
▁osud	-10.1094
▁Najpr	-10.1097
▁veľkým	-10.1107
▁vyda	-10.1117
▁spoj	-10.1125
▁sila	-10.1126
čnú	-10.1135
▁Ber	-10.114
▁odlišné	-10.1144
▁cit	-10.1149
▁zabud	-10.1154
▁fyzick	-10.1155
▁Nepo	-10.1156
▁učí	-10.1158
tych	-10.1159
▁srdce	-10.1165
▁celá	-10.1169
▁silný	-10.1172
diel	-10.1175
▁bio	-10.1175
▁dieťať	-10.1185
▁delfín	-10.1188
▁základn	-10.1191
▁umožnil	-10.1193
íce	-10.1196
hlas	-10.121
▁dostáva	-10.1211
▁Rad	-10.122
▁neo	-10.1227
plne	-10.1228
▁pal	-10.1234
▁stará	-10.1235
▁dan	-10.1238
▁pás	-10.1239
▁ostatným	-10.1241
▁Einstein	-10.1242
▁vykonáva	-10.1242
▁preskúma	-10.1242
▁teleskop	-10.1242
▁Koľk	-10.1242
▁Severn	-10.1242
hne	-10.1242
▁záujem	-10.1243
▁rozhodnuti	-10.1244
▁príd	-10.1248
▁sociáln	-10.1253
▁dob	-10.1255
teraz	-10.1259
▁blízk	-10.1261
▁dala	-10.1265
▁nedá	-10.1268
▁častic	-10.1291
púšťa	-10.1299
▁kontrolu	-10.1309
pod	-10.1318
vala	-10.132
rd	-10.133
▁vytvoreni	-10.1334
▁práva	-10.1342
▁Det	-10.1342
▁nechcem	-10.1363
▁chýba	-10.1366
brať	-10.1369
▁tlači	-10.1375
▁vyvíja	-10.1389
▁Facebook	-10.1393
▁Pamätá	-10.1393
▁vyžaduje	-10.1393
▁prežiti	-10.1393
▁súkromn	-10.1393
▁tkaniv	-10.1394
▁schopné	-10.1399
▁otca	-10.1402
voj	-10.1404
▁určité	-10.1412
▁začn	-10.142
▁riziko	-10.1422
▁šk	-10.1429
▁nahra	-10.1433
▁súbor	-10.1434
▁plný	-10.1441
▁spoločensk	-10.1442
▁ľuďoch	-10.1446
▁Spojené	-10.1447
▁zeme	-10.1448
▁doprav	-10.1449
▁nemôžeme	-10.1454
▁normálne	-10.1455
rot	-10.1457
▁zastavi	-10.1468
▁platí	-10.1472
▁zrak	-10.1475
▁založen	-10.1481
ôb	-10.1482
▁čeli	-10.15
▁Európe	-10.1504
▁zhod	-10.1511
▁pôvodn	-10.153
H	-10.1535
▁Ver	-10.1544
▁stráca	-10.1547
▁pľúc	-10.1547
▁stratégi	-10.1547
▁anglick	-10.1547
▁pól	-10.1547
▁štýl	-10.1547
▁Ukážem	-10.1547
▁biologick	-10.1548
▁zauja	-10.155
▁198	-10.1551
▁JA	-10.1552
▁lode	-10.1555
▁prebieha	-10.1568
▁pozri	-10.1569
▁jednotk	-10.157
▁rozhodnú	-10.1573
▁umenia	-10.1577
ľuje	-10.1587
▁odkiaľ	-10.1592
▁Hovorím	-10.1601
▁rovno	-10.161
ckej	-10.1616
▁nebud	-10.1622
▁bojova	-10.1628
dob	-10.1631
▁odlišný	-10.1635
pustil	-10.164
▁naším	-10.1644
razil	-10.1649
▁vezme	-10.1652
▁kraj	-10.1656
div	-10.166
▁posla	-10.1663
▁rozmýšľať	-10.1666
J	-10.1666
▁prostriedk	-10.1669
▁slep	-10.1669
ľah	-10.1686
▁ovplyvni	-10.1693
▁Dúfam	-10.1703
▁infraštruktúr	-10.1703
▁širok	-10.1703
▁okamih	-10.1703
▁sústav	-10.1704
▁mentáln	-10.1705
▁presn	-10.1708
▁komplexn	-10.1708
▁peľ	-10.1709
▁zobrazen	-10.1709
▁dýcha	-10.171
▁bá	-10.1711
▁priam	-10.1711
hn	-10.1712
▁odlišn	-10.1718
▁zada	-10.1721
loh	-10.1721
▁oprav	-10.1722
▁Verím	-10.1722
▁morsk	-10.1722
▁kancelári	-10.1724
▁matka	-10.173
▁rodina	-10.1739
▁rozmer	-10.174
▁spôsobuje	-10.1754
▁všim	-10.1765
hráva	-10.1777
istá	-10.179
▁mravc	-10.1797
▁rade	-10.1799
▁predpoklad	-10.1823
▁zvláštne	-10.1825
vyše	-10.1827
rez	-10.1833
▁pracujú	-10.1838
▁400	-10.186
▁Twitter	-10.1862
▁hacker	-10.1862
▁vzrušujúc	-10.1862
▁období	-10.1862
viaza	-10.1866
▁múdr	-10.1866
▁Bill	-10.1866
▁trom	-10.1867
▁ciele	-10.1869
slov	-10.1871
ron	-10.1871
▁ponúka	-10.1872
▁bytosti	-10.1872
▁2000	-10.1875
▁mor	-10.1883
▁staré	-10.1884
rik	-10.1907
▁vnútorn	-10.1912
▁šťastný	-10.1915
▁Oh	-10.1933
▁voláme	-10.1933
▁právo	-10.1937
▁postihnut	-10.1944
▁Aké	-10.1947
▁nechal	-10.1952
▁zahr	-10.1953
žil	-10.1957
▁častí	-10.1957
▁kultúrn	-10.1964
tiek	-10.1974
▁procesu	-10.1982
▁Ďal	-10.1986
▁správani	-10.1987
▁projektu	-10.1999
▁nádhern	-10.2007
▁Žiadn	-10.2013
▁Stal	-10.2014
▁Moje	-10.2016
▁diskusi	-10.2023
▁oslav	-10.2023
▁prales	-10.2025
▁žlt	-10.2026
▁južn	-10.2035
▁stúpa	-10.2036
▁Mil	-10.2043
▁veda	-10.2044
▁hranice	-10.2044
▁fungoval	-10.2047
▁meni	-10.2048
▁partner	-10.2065
▁ver	-10.2069
ff	-10.2077
▁vysoké	-10.2085
písal	-10.2088
▁ľadov	-10.2093
▁menia	-10.2093
▁tvoria	-10.2098
▁ukáž	-10.2104
stick	-10.2121
skoč	-10.2124
▁dievčatá	-10.2132
▁sever	-10.2133
▁reči	-10.2138
▁mikro	-10.2143
▁mr	-10.2148
▁medzinárodn	-10.2152
▁počíta	-10.2166
▁hrd	-10.2169
▁mnohým	-10.2176
▁sten	-10.2179
10	-10.2184
▁Vyzerá	-10.2187
▁demokraci	-10.2187
▁funkci	-10.2187
▁zariadenia	-10.2187
▁škôl	-10.2187
▁záhad	-10.2187
▁fľaš	-10.2187
▁relatívn	-10.2187
▁Irak	-10.2191
▁prirodzen	-10.2212
▁nul	-10.2217
▁podmienk	-10.2229
▁20.	-10.2236
▁naň	-10.2241
▁vyšl	-10.2241
▁člen	-10.2249
▁odmen	-10.2253
tvára	-10.2258
▁postupne	-10.2266
kal	-10.2269
▁neob	-10.227
▁ťah	-10.2272
▁vlak	-10.2272
prieč	-10.2272
▁plati	-10.2283
▁obľúben	-10.2285
▁dizajnér	-10.2303
▁cítim	-10.2316
▁vedomí	-10.2324
▁skončil	-10.233
▁západn	-10.2341
▁štáty	-10.2347
▁Problém	-10.2354
▁aspekt	-10.2354
▁motiváci	-10.2354
▁občiansk	-10.2354
▁prázdn	-10.2354
▁rozsah	-10.2354
▁mestsk	-10.2354
▁vysiela	-10.2354
▁ochotn	-10.2354
▁štatistik	-10.2355
▁Videl	-10.2355
▁zmien	-10.2357
kla	-10.2359
▁radosť	-10.2361
▁dňo	-10.2361
▁sedí	-10.2363
▁prizna	-10.2367
rást	-10.2368
▁The	-10.2372
▁autor	-10.2373
▁porovna	-10.2375
▁nájdem	-10.2389
▁americký	-10.2391
▁zaujímavý	-10.2393
▁čin	-10.2394
vanie	-10.2407
▁strávi	-10.2409
▁podporova	-10.2411
▁predo	-10.2411
▁tepl	-10.2414
▁vizuáln	-10.2415
▁globáln	-10.2415
▁väčš	-10.2417
▁najväčši	-10.2421
▁budovy	-10.2424
▁študova	-10.2433
▁náročn	-10.2445
▁Nemôže	-10.2446
cké	-10.2452
tívne	-10.2456
▁niečom	-10.2463
▁prítomn	-10.248
trh	-10.2482
▁ekonomiky	-10.2488
proti	-10.2502
▁mora	-10.2517
▁skúsi	-10.2523
▁biznis	-10.2523
▁perspektív	-10.2523
▁pôsobi	-10.2523
▁týždn	-10.2523
▁porozumie	-10.2523
▁pripomína	-10.2523
▁televízi	-10.2523
▁scén	-10.2523
▁Nechcem	-10.2524
▁diaľk	-10.2524
▁sexuáln	-10.2524
▁reklam	-10.2524
▁stretnuti	-10.2524
▁milujem	-10.2526
▁klím	-10.2526
▁obmedz	-10.2527
svieti	-10.2529
▁duch	-10.2532
▁nádherné	-10.2534
▁trval	-10.2535
▁viacerý	-10.2541
▁akci	-10.2543
▁vede	-10.2546
▁poháňa	-10.2546
▁priateli	-10.2549
▁následne	-10.2554
▁zistí	-10.2556
▁dievčat	-10.2571
▁cie	-10.2583
▁oblastia	-10.2587
ner	-10.2604
▁dokáza	-10.2615
▁dizajnu	-10.2616
▁zjavn	-10.2617
▁tvorí	-10.2624
▁zaobera	-10.2636
▁Nemôžem	-10.2637
▁učiteľov	-10.2639
▁tanc	-10.264
▁spoločn	-10.2645
▁desaťročia	-10.2646
ill	-10.265
▁zníži	-10.2655
▁Pl	-10.2656
háňa	-10.2676
▁Myslel	-10.2696
▁pochopeni	-10.2696
▁profesor	-10.2696
▁rozšíren	-10.2696
▁ohromn	-10.2696
▁kolóni	-10.2696
▁emisi	-10.2696
▁okolnost	-10.2696
▁Nič	-10.2697
▁citliv	-10.2697
▁nekonečn	-10.2697
▁zážit	-10.2698
▁hub	-10.2703
▁pripojen	-10.2704
star	-10.2717
▁stránka	-10.272
▁hudobn	-10.2722
▁inde	-10.2723
▁veria	-10.2724
▁rez	-10.2726
▁snaži	-10.2741
▁hladin	-10.2754
mail	-10.2754
▁slon	-10.2759
▁auta	-10.2765
▁akej	-10.2779
▁srdc	-10.2779
▁priestoru	-10.2793
▁rozmýšľa	-10.2794
▁nazval	-10.28
▁teb	-10.2801
▁podnikateľ	-10.2807
▁nechce	-10.2812
▁rozumie	-10.2829
▁zostáva	-10.283
▁náhodn	-10.2833
▁spoločenské	-10.2847
zuje	-10.2867
ďal	-10.2869
▁nefunguj	-10.2871
▁celosvetov	-10.2871
▁mikroskop	-10.2871
▁nárast	-10.2871
▁háda	-10.2873
par	-10.2876
▁mojim	-10.2877
▁séri	-10.2877
▁menší	-10.2878
▁hnuti	-10.2881
▁stanic	-10.2884
▁nemocnic	-10.2885
▁rodičov	-10.2899
▁dovoľ	-10.2905
▁fotograf	-10.2908
▁zažil	-10.2912
▁rieši	-10.2913
▁začínajú	-10.2922
▁Chce	-10.2923
▁robotov	-10.2925
▁ponor	-10.2947
▁Dám	-10.296
▁trva	-10.2968
▁ľadovc	-10.2977
▁tich	-10.2981
▁piat	-10.2987
▁Volá	-10.2988
▁zim	-10.299
▁normáln	-10.2991
▁použiti	-10.3001
▁spoločenský	-10.3017
▁opýta	-10.3019
▁tlač	-10.3021
▁zmysl	-10.3035
▁nemocnici	-10.3036
▁vyššie	-10.3041
▁neroz	-10.305
▁Kaliforni	-10.305
▁Rozpráva	-10.305
▁spravodliv	-10.305
▁britsk	-10.305
▁odtiaľ	-10.305
▁kód	-10.305
▁Ďalší	-10.3052
▁veriť	-10.3053
▁zachova	-10.3058
▁plastov	-10.3061
▁nemu	-10.3063
▁postaven	-10.3063
▁štáto	-10.3063
▁spo	-10.3063
▁faktor	-10.3065
nedávn	-10.3066
▁pýtal	-10.3068
▁učitel	-10.3068
▁pôvod	-10.3069
▁vzťahu	-10.3077
▁prija	-10.3078
▁uvidím	-10.3079
▁verejné	-10.3085
▁Kon	-10.3089
ráz	-10.3092
▁nazvan	-10.3093
▁Dan	-10.3101
▁bezpečn	-10.3107
▁vzda	-10.3107
▁zvan	-10.3116
óz	-10.3119
berie	-10.3135
▁možný	-10.3138
▁rastúc	-10.3138
▁šok	-10.3143
▁nemoh	-10.3143
▁pozna	-10.3155
▁zrejme	-10.3158
▁čierne	-10.3159
▁rod	-10.3162
▁Sk	-10.3168
▁Američan	-10.3182
krýva	-10.3185
▁testov	-10.3189
▁znamena	-10.3191
▁Mars	-10.3195
▁kmeňov	-10.3195
▁desiatk	-10.3205
▁nedokáž	-10.3216
▁technick	-10.3227
▁Antarktíd	-10.3232
▁dovolenk	-10.3232
▁kognitívn	-10.3232
▁najvyšš	-10.3232
▁samostatn	-10.3232
▁Zatiaľ	-10.3232
▁posúva	-10.3232
▁vykona	-10.3232
▁pokoj	-10.3232
▁architektúr	-10.3232
▁pochyb	-10.3233
▁obloh	-10.3235
▁poškoden	-10.3235
▁kľúč	-10.3235
▁starší	-10.3239
▁pestova	-10.3243
▁zabíja	-10.3244
▁bolesť	-10.3245
▁Niečo	-10.3247
rúk	-10.3247
▁zlyhani	-10.3254
▁Cel	-10.3256
▁známe	-10.3259
ajn	-10.3265
▁okoli	-10.3266
▁skrýva	-10.3279
▁ekonomický	-10.3281
▁tvrd	-10.3284
▁juh	-10.3286
náhle	-10.3288
▁znepokoj	-10.3308
▁Nemám	-10.3313
▁slávn	-10.3313
▁verí	-10.3325
všetkým	-10.3331
▁posun	-10.3379
▁silné	-10.3385
▁mäs	-10.3405
▁samotný	-10.3407
▁vynález	-10.3417
▁historick	-10.3417
▁spektr	-10.3417
▁OSN	-10.3417
▁prsník	-10.3417
▁zarába	-10.3417
▁látk	-10.3417
▁lokáln	-10.3417
▁priemysl	-10.3417
▁prenos	-10.3418
▁nezálež	-10.3418
▁políci	-10.3418
▁nová	-10.3419
▁očami	-10.3419
▁hust	-10.342
▁trest	-10.342
▁ohrozen	-10.342
▁čomu	-10.3422
trvá	-10.3423
▁hrozb	-10.3423
▁použitím	-10.3424
▁Svet	-10.3424
▁vhodn	-10.3426
stva	-10.3426
▁diery	-10.3426
hodil	-10.3427
▁vyhral	-10.3429
▁dosah	-10.3433
vždy	-10.3434
▁obyčajn	-10.3441
▁miestny	-10.3447
hla	-10.3449
▁tretin	-10.3452
▁rozšíri	-10.346
▁Američanov	-10.3467
▁strachu	-10.3469
▁pamät	-10.3485
▁dlhodob	-10.35
▁aktiv	-10.3514
▁predpoveda	-10.3516
▁plné	-10.3529
▁Tri	-10.3532
din	-10.3534
▁Používa	-10.3542
▁prináša	-10.3544
▁pokúsi	-10.3545
vládne	-10.3547
▁vzorc	-10.3551
mysel	-10.3553
▁štruktúry	-10.3572
▁chyt	-10.3576
▁hotov	-10.3577
▁stač	-10.3581
▁obr	-10.3584
▁pomôže	-10.3588
stúpil	-10.3599
▁analýz	-10.3605
▁existenci	-10.3605
▁investíci	-10.3605
▁konferenci	-10.3605
▁blázniv	-10.3606
▁patri	-10.3606
▁dlhšie	-10.3608
▁telá	-10.3608
▁horšie	-10.3609
▁empati	-10.3609
▁úrad	-10.361
▁tretie	-10.3611
tvy	-10.3611
▁opic	-10.3612
▁plav	-10.3614
▁obnov	-10.3614
▁člán	-10.3614
▁dôležitejši	-10.3615
▁atď	-10.3615
▁vedúc	-10.3621
▁hrub	-10.3625
▁vedecký	-10.363
▁ľudstv	-10.3631
▁nemyslím	-10.3638
▁otoč	-10.3643
▁konkrétne	-10.3651
▁vážn	-10.3658
▁napln	-10.3661
▁Car	-10.3662
▁najmen	-10.3662
▁venova	-10.3665
▁opýtal	-10.3667
▁Vedel	-10.3669
▁krvi	-10.3674
Tu	-10.3677
▁samé	-10.3677
▁myšlien	-10.368
▁skla	-10.3695
▁veľryb	-10.3709
▁150	-10.3709
▁vysoký	-10.3717
▁park	-10.374
▁spoločnost	-10.3743
▁občan	-10.3752
▁kart	-10.3754
▁kmeň	-10.3756
▁lacn	-10.3756
▁isto	-10.3759
▁štátn	-10.3767
▁jadrov	-10.3787
▁prost	-10.3791
▁štúdia	-10.3792
▁prispôsobi	-10.3798
▁zbraň	-10.3798
▁investova	-10.3798
▁tradíci	-10.3798
▁expert	-10.3798
▁ilúzi	-10.3798
▁úvah	-10.3798
▁prekona	-10.3798
▁zabezpeči	-10.3799
▁Váš	-10.3802
▁detstv	-10.3802
▁ruka	-10.3811
▁idem	-10.3814
▁stara	-10.3815
tiahl	-10.3818
▁vetr	-10.3822
ves	-10.383
▁nedostatk	-10.3832
▁sklon	-10.3837
▁otvoril	-10.384
▁mačk	-10.3844
▁Dostal	-10.3846
▁otvára	-10.3853
▁dobro	-10.3854
▁chut	-10.3855
▁bolesti	-10.3856
▁had	-10.3862
▁učia	-10.3871
▁dav	-10.3884
▁uhl	-10.3884
▁vlas	-10.3887
▁0	-10.3901
rub	-10.3903
▁strán	-10.3909
▁Hovorí	-10.3925
▁syna	-10.3947
▁špeciálne	-10.3951
▁národn	-10.3955
▁psychológ	-10.3958
▁globálny	-10.396
▁voľb	-10.3962
▁spravím	-10.3976
▁hlavné	-10.3982
▁Rozhod	-10.3983
▁priemern	-10.3989
pracova	-10.3991
▁neviditeľn	-10.3994
▁ekosystém	-10.3994
▁inteligentn	-10.3994
▁kapitál	-10.3994
▁kontinent	-10.3994
▁zdravotníctv	-10.3994
▁zhrub	-10.3994
▁proteín	-10.3994
▁udržiava	-10.3994
▁určen	-10.3994
▁Poviem	-10.3994
▁pohlavi	-10.3994
▁vidia	-10.3995
nešťasti	-10.3995
▁knižnic	-10.3995
▁naživ	-10.3996
▁okolí	-10.3997
▁rovnic	-10.3999
▁vedcov	-10.4003
▁kontrolova	-10.4005
▁odišl	-10.4009
▁jedinečn	-10.4032
▁neuveriteľné	-10.4033
▁mieru	-10.4033
▁lepši	-10.4034
▁nehod	-10.4035
▁Často	-10.4038
▁energia	-10.4038
jíma	-10.4049
▁zdvih	-10.4049
▁Moh	-10.4051
ľov	-10.4057
▁kúpil	-10.4062
▁Jedin	-10.4063
▁existova	-10.4073
land	-10.4076
▁skúš	-10.408
▁ukážk	-10.409
▁očividn	-10.4094
▁jednotliv	-10.4104
▁osobne	-10.4111
boha	-10.4116
▁systémov	-10.4117
▁odraz	-10.4119
▁Vytvoril	-10.412
▁druhým	-10.4122
▁Existuj	-10.4124
▁trik	-10.4125
▁vyk	-10.4128
▁udalosti	-10.4129
▁Indie	-10.4135
▁tráv	-10.4138
▁nastal	-10.4139
▁učil	-10.4142
▁vyz	-10.4144
ávať	-10.416
bieha	-10.4168
raf	-10.4179
▁školá	-10.4181
▁vyrobil	-10.4184
▁článk	-10.4185
▁býva	-10.4188
▁Izrael	-10.4194
▁Austráli	-10.4194
▁Otázk	-10.4194
▁Pravdepodobn	-10.4194
▁definíci	-10.4194
▁pokračuje	-10.4194
▁alternatív	-10.4194
▁šiesti	-10.4194
▁troj	-10.4194
▁rozhodnutí	-10.4195
▁úmrtnosť	-10.4196
▁sneh	-10.4196
▁tresk	-10.4196
▁brán	-10.4203
▁Milujem	-10.4205
▁chudobný	-10.4205
▁Cha	-10.4209
▁jasne	-10.4211
rac	-10.4216
▁bla	-10.4217
▁Go	-10.422
▁posadnut	-10.4226
dlá	-10.423
▁nádor	-10.4238
▁Dal	-10.4241
▁niekoľkým	-10.4242
▁magnetick	-10.4252
▁spojené	-10.4254
▁obdobi	-10.4255
▁okraj	-10.4257
▁váh	-10.426
▁pracovn	-10.4261
▁Volám	-10.4268
▁prirodzené	-10.4269
▁zdravý	-10.4286
▁slovník	-10.4294
▁hračk	-10.4304
▁hru	-10.4309
▁podmienka	-10.4315
▁lásky	-10.432
▁jasn	-10.4322
▁Prišl	-10.4328
▁rás	-10.4344
▁nesprávn	-10.4354
▁fotka	-10.4366
▁počujem	-10.4369
časti	-10.437
▁štvor	-10.4381
chádzajú	-10.4385
hodné	-10.4389
▁kráľ	-10.4391
▁MR	-10.4396
▁Brazíli	-10.4398
▁Internet	-10.4398
▁chirurg	-10.4398
▁fenomén	-10.4398
▁matematick	-10.4398
▁neskutočn	-10.4398
▁patrí	-10.4398
▁sladk	-10.4398
▁radikáln	-10.4398
▁čaká	-10.4398
▁šport	-10.4398
▁zbavi	-10.4398
▁debat	-10.4398
▁terén	-10.4399
▁povah	-10.44
▁Kedy	-10.4401
▁prasa	-10.4404
▁podvádza	-10.4404
▁nepotrebuj	-10.4404
ráža	-10.4405
▁stretáva	-10.4409
▁priemyseln	-10.4409
▁pozornost	-10.4411
každý	-10.4412
▁ukonč	-10.4415
▁dozvedel	-10.4422
▁predpoklada	-10.4426
▁skonči	-10.4427
▁pozerám	-10.4427
▁drev	-10.443
▁očí	-10.4432
▁špeciáln	-10.4443
▁tret	-10.4443
▁znamenal	-10.4444
▁čias	-10.4446
hroz	-10.4446
▁oper	-10.4465
▁pád	-10.4467
▁formu	-10.4474
hral	-10.448
▁riaden	-10.448
▁rastie	-10.449
▁zda	-10.4495
enti	-10.4497
▁rozdielne	-10.4498
▁Že	-10.4513
▁filmov	-10.4513
▁nesmierne	-10.4525
▁krásny	-10.4528
▁filozofi	-10.453
▁komplikovan	-10.4533
vediem	-10.4538
▁všiml	-10.4542
tiahnu	-10.4564
▁dlhé	-10.4564
▁jav	-10.4568
▁plod	-10.4579
▁požiada	-10.4582
▁následk	-10.4583
▁dostupn	-10.4594
▁obchodu	-10.4594
▁dúfa	-10.4598
▁vzdeláva	-10.4599
cent	-10.4601
▁ruko	-10.4605
▁odhali	-10.4606
▁korupci	-10.4606
▁produkci	-10.4606
▁prototyp	-10.4606
▁rozvíja	-10.4606
▁týždňa	-10.4606
▁vyjadri	-10.4606
▁vzácn	-10.4606
▁odstráni	-10.4606
chránen	-10.4606
▁vylepš	-10.4606
▁ukazujú	-10.4607
▁kurz	-10.4607
▁rozhodne	-10.4607
▁blok	-10.4607
▁hlbšie	-10.4607
▁vtip	-10.4608
▁takzvan	-10.4608
▁škál	-10.4609
▁197	-10.4611
▁díva	-10.4612
▁odbor	-10.462
▁hovor	-10.4622
▁Iba	-10.4629
▁hanb	-10.463
▁vízi	-10.4632
▁prekvap	-10.4637
▁Naše	-10.465
▁vyroben	-10.465
▁dohod	-10.4652
▁preklad	-10.4653
sadil	-10.4662
ers	-10.4664
▁autizmu	-10.4667
▁spraví	-10.4676
▁napísa	-10.4676
▁vezmem	-10.4676
▁jadr	-10.4676
▁istot	-10.4683
▁vojensk	-10.4692
▁Urobil	-10.4707
▁krátky	-10.4723
▁topánk	-10.4724
▁náročné	-10.4724
▁predstavivos	-10.4729
▁kolegov	-10.4732
▁pravdepodobn	-10.4739
stávajú	-10.4746
▁sledoval	-10.4762
▁osobný	-10.4766
▁Maj	-10.4776
▁desať	-10.4792
▁rozvojový	-10.4796
▁zapoji	-10.4803
▁bub	-10.4817
▁Povedz	-10.4819
▁David	-10.4819
▁chemikáli	-10.4819
▁emocionáln	-10.4819
▁kategóri	-10.4819
▁kombináci	-10.4819
▁pokryt	-10.4819
▁aplikova	-10.4819
▁krivk	-10.4819
▁črev	-10.4819
▁zvýšen	-10.4819
▁blog	-10.4819
▁potáp	-10.4819
▁vreck	-10.4819
▁činnosť	-10.4821
▁bomb	-10.4822
ľúb	-10.4822
▁Pozrel	-10.4823
▁nízko	-10.4825
▁nevedia	-10.4826
sourc	-10.4827
▁skladb	-10.4835
▁bar	-10.4835
▁prednáš	-10.4843
▁Jednoducho	-10.4846
▁prispieva	-10.4848
▁desiat	-10.485
▁siedm	-10.4861
▁prenáša	-10.4864
▁tvrdí	-10.4864
▁35	-10.4865
▁hľadani	-10.4871
▁prirodzene	-10.4887
ros	-10.4889
▁Man	-10.4889
▁chudobn	-10.4892
▁Daj	-10.4897
pil	-10.4904
▁protest	-10.4912
▁mori	-10.4929
▁technologick	-10.4931
trvalo	-10.4941
MS	-10.4945
▁zodpoved	-10.4946
▁pani	-10.4958
▁zamysli	-10.4961
▁médiá	-10.4975
▁zlepši	-10.498
▁káv	-10.4981
znajú	-10.4984
▁riešiť	-10.4985
▁študoval	-10.4991
rovať	-10.4995
▁napravo	-10.5003
▁oblast	-10.5003
leží	-10.5004
sek	-10.5007
árne	-10.5009
▁zlyha	-10.5009
▁Uč	-10.5011
▁množstva	-10.5011
stavil	-10.5011
qu	-10.5012
▁reálne	-10.5017
▁slnko	-10.503
▁hlb	-10.5034
▁epidémi	-10.5036
▁evolučn	-10.5036
▁informačn	-10.5036
▁oxytocín	-10.5036
▁umožňujú	-10.5036
▁živočích	-10.5036
▁Určit	-10.5036
▁reštauráci	-10.5036
▁Rovnak	-10.5036
▁sľub	-10.5036
▁úzko	-10.5037
▁strech	-10.5037
nderson	-10.5037
▁Minul	-10.5038
tiahne	-10.5039
▁opačn	-10.504
▁India	-10.5042
▁poriadn	-10.5044
▁nádherný	-10.5045
mieša	-10.5048
▁prestal	-10.5058
▁snímk	-10.5059
hromad	-10.5063
▁riaditeľ	-10.5064
▁niečí	-10.5068
▁pracujúc	-10.507
kli	-10.5083
▁zodpovednosť	-10.5086
▁zdrav	-10.5087
▁stávajú	-10.5088
▁urobíte	-10.5089
podob	-10.5092
▁zelenin	-10.5093
rne	-10.51
ráv	-10.51
▁drža	-10.5106
▁kap	-10.5112
▁veril	-10.5114
▁Per	-10.5125
▁obľúbený	-10.5128
▁obýva	-10.5133
▁Slnk	-10.5145
▁elektrický	-10.5152
▁mladí	-10.5159
▁lásk	-10.5161
▁rozprávam	-10.5167
▁reťaz	-10.5167
▁dielo	-10.5172
nuté	-10.518
▁nevideli	-10.518
pracuj	-10.5188
▁využívajú	-10.5196
▁spôsobil	-10.5199
▁predaj	-10.52
končí	-10.5204
▁vzi	-10.5204
▁zastav	-10.5208
▁vyrobené	-10.5212
▁západ	-10.5217
▁chodil	-10.5224
▁predstavujú	-10.5227
▁prežíva	-10.5246
▁Egypt	-10.5259
▁Washington	-10.5259
▁batéri	-10.5259
▁deväť	-10.5259
▁dramatick	-10.5259
▁halucináci	-10.5259
▁hypotéz	-10.5259
▁konverzáci	-10.5259
▁perfektn	-10.5259
▁Život	-10.5259
▁rovnováh	-10.5259
▁svedk	-10.5259
▁Times	-10.5259
▁fáz	-10.5259
▁zavolal	-10.5259
▁sústredi	-10.526
▁nasledova	-10.526
▁misi	-10.5266
▁psy	-10.5267
▁HD	-10.5272
skutk	-10.5273
▁niko	-10.5287
▁zmera	-10.5287
▁konkrétn	-10.5291
▁skončí	-10.5304
▁sprav	-10.5306
▁nesprávne	-10.5308
sun	-10.5323
padnú	-10.5328
▁sond	-10.5329
▁došl	-10.533
▁farm	-10.5331
▁urobí	-10.5331
▁Také	-10.5335
▁severn	-10.534
▁zaplati	-10.5343
▁vydáva	-10.5346
▁nepríjemn	-10.5347
▁skúsenost	-10.5349
▁výrobk	-10.5366
▁22	-10.5368
ried	-10.5369
▁bohatý	-10.537
▁zver	-10.5373
▁zvyšuje	-10.5377
▁písmo	-10.5384
▁hodn	-10.5385
▁najväčšie	-10.5395
▁volal	-10.5396
▁vizuálne	-10.5403
▁hľadám	-10.5409
▁koleg	-10.5411
▁štandard	-10.5421
▁digitálne	-10.5424
▁využiti	-10.5429
▁vlastnosť	-10.5446
▁rep	-10.5447
rick	-10.5448
▁býval	-10.5454
▁Japonsk	-10.5463
berá	-10.5466
▁civilizáci	-10.5486
▁symptóm	-10.5486
▁umiestni	-10.5486
▁vakcín	-10.5486
▁Dôvod	-10.5486
▁patent	-10.5486
▁Znamen	-10.5486
▁Mimo	-10.5486
▁priblíži	-10.5486
▁liečen	-10.5486
▁kanál	-10.5487
▁satelit	-10.5488
▁drží	-10.5488
▁fúz	-10.5489
▁šat	-10.5492
▁pomenova	-10.5492
pal	-10.5505
▁dostupné	-10.5506
▁bezpečnosť	-10.5509
▁častejši	-10.5513
▁uvedomi	-10.5519
▁budúci	-10.552
▁vyberie	-10.5521
tisíc	-10.5523
▁dosiahne	-10.5528
▁chodí	-10.5532
▁žiari	-10.5537
▁pochádzajú	-10.5542
tich	-10.5543
▁publik	-10.5544
▁vysvetleni	-10.5551
▁obo	-10.5553
▁skup	-10.5556
▁umeleck	-10.556
▁najlepším	-10.5561
▁nevidel	-10.5567
▁Robím	-10.5576
▁príležitosti	-10.5578
▁spustil	-10.558
▁45	-10.5588
▁nevyhnutn	-10.5602
▁kolektívn	-10.5603
▁zub	-10.5623
▁vesmírn	-10.5632
▁užitočné	-10.5641
▁stromov	-10.5659
▁otvori	-10.567
▁jediným	-10.5674
▁vstup	-10.5681
▁vznikl	-10.5687
▁považuj	-10.5704
▁Druhý	-10.5706
▁vzdialen	-10.5707
▁trans	-10.571
▁Scott	-10.5718
▁katastrof	-10.5718
▁neobyčajn	-10.5718
▁prezentáci	-10.5718
▁spomenul	-10.5718
▁pokles	-10.5719
▁nepozná	-10.5719
▁čínsk	-10.5719
▁viditeľn	-10.5719
▁Počul	-10.5719
▁predchádzajúc	-10.5719
▁desiv	-10.5719
▁drobn	-10.572
▁najväčšo	-10.572
▁kritick	-10.5721
▁urči	-10.573
▁disk	-10.5731
▁hľadá	-10.5732
bun	-10.5735
▁projektov	-10.574
▁myslenie	-10.5741
klon	-10.5746
▁klik	-10.5763
▁bok	-10.5764
ďalek	-10.5771
▁nachádzajú	-10.5773
▁zložité	-10.5785
ňoval	-10.5789
▁Nedávn	-10.579
▁vedecké	-10.579
▁navštívil	-10.579
lík	-10.5799
▁neurónov	-10.58
▁odborník	-10.5812
▁obrázkov	-10.5819
iace	-10.5835
▁zisk	-10.5835
▁krásn	-10.584
▁novinár	-10.584
▁hráč	-10.5846
organizova	-10.5872
▁prinúti	-10.5879
▁vedomosti	-10.5886
▁Dva	-10.5894
▁vari	-10.5907
▁Star	-10.5908
▁Potrebuj	-10.5931
▁obsahuj	-10.5939
▁nepr	-10.5949
▁poznal	-10.5951
▁AIDS	-10.5957
▁Mexik	-10.5957
▁inšpiráci	-10.5957
▁literatúr	-10.5957
▁metafor	-10.5957
▁protéz	-10.5957
▁zariadení	-10.5957
▁zázrak	-10.5957
▁autobus	-10.5957
▁chrbt	-10.5957
▁senzor	-10.5957
▁vynikajúc	-10.5957
▁Nemusí	-10.5957
▁Pravd	-10.5957
▁Vezmi	-10.5957
▁vravel	-10.5957
▁ťažši	-10.5957
▁trend	-10.5957
▁neurobil	-10.5957
▁Skús	-10.5957
▁vypoču	-10.5957
▁Spolu	-10.5957
▁stavebn	-10.5957
žasn	-10.5958
▁tempo	-10.5958
▁činnosti	-10.5959
▁núti	-10.5959
▁smutn	-10.596
▁zmier	-10.5962
▁Bez	-10.5963
▁poradi	-10.5964
▁vzdialenosti	-10.5964
▁momentálne	-10.5964
▁CO	-10.5966
▁pekné	-10.5975
▁nejde	-10.5977
▁Okre	-10.5986
▁publiku	-10.5988
▁boh	-10.5988
▁africk	-10.5994
líc	-10.6002
▁požiadal	-10.6003
▁Čí	-10.6009
▁kamen	-10.6011
▁oblečeni	-10.6016
▁podporu	-10.6021
▁extrém	-10.6023
▁such	-10.6025
▁láska	-10.6031
▁chlad	-10.6037
pôsobí	-10.6038
▁osobnost	-10.6044
▁open	-10.6047
vedie	-10.6049
rén	-10.6056
▁najväčším	-10.6058
▁ukazova	-10.6062
▁vyj	-10.6094
▁pamätám	-10.6124
▁nejakým	-10.6127
▁Han	-10.6128
▁vytvoren	-10.6136
▁beh	-10.6137
▁narazil	-10.6143
▁Mnoh	-10.6144
▁píše	-10.6152
▁nedostat	-10.6157
▁kameň	-10.6161
▁strašne	-10.6164
▁škola	-10.617
▁priemysel	-10.6187
počíta	-10.6188
▁nebezpečn	-10.6191
▁pomáhajú	-10.6194
▁uhli	-10.6195
▁architekt	-10.62
▁futbal	-10.62
▁kandidát	-10.62
▁európsk	-10.62
▁financi	-10.62
▁marketing	-10.62
▁porovnáva	-10.62
▁psychologick	-10.62
▁otáča	-10.62
▁zaznamena	-10.62
▁Nazýva	-10.62
▁bilión	-10.62
▁lídr	-10.62
▁zrkadl	-10.62
▁ponúknu	-10.62
▁elektronick	-10.6201
▁smrteľn	-10.6201
▁duševn	-10.6201
▁potkan	-10.6201
▁fascinujúc	-10.6201
▁Dieťa	-10.6201
▁pes	-10.6201
▁Medzi	-10.6201
▁Paul	-10.6202
▁čaj	-10.6202
▁pripravený	-10.6204
▁pohnú	-10.6205
▁univerzáln	-10.6207
▁23	-10.6208
▁tajn	-10.6212
▁prax	-10.6212
▁zachyti	-10.6212
▁založené	-10.6212
▁nebezpečné	-10.6212
blíž	-10.6214
okol	-10.6214
▁ples	-10.6219
▁popri	-10.6219
▁rýchle	-10.6224
▁rozprávani	-10.6227
ačné	-10.6235
▁neskor	-10.6237
▁počuje	-10.6242
▁spomína	-10.6244
▁pódiu	-10.6245
▁rastú	-10.6253
▁posunú	-10.6255
▁osobné	-10.6265
▁šialen	-10.6268
▁srdci	-10.6282
▁užitočn	-10.6282
▁čítal	-10.6284
▁trhov	-10.6286
ával	-10.6287
▁bežné	-10.6302
▁vyšší	-10.6305
▁prípadov	-10.6314
▁kar	-10.6333
▁Iný	-10.6347
▁vybera	-10.6347
▁sval	-10.6355
▁pamäta	-10.636
▁hotel	-10.6365
▁Mas	-10.6365
▁mýli	-10.6371
▁navštívi	-10.6374
▁voľby	-10.6374
▁obdobia	-10.6374
▁žijúci	-10.6378
▁zvukov	-10.6386
kot	-10.6402
▁Čas	-10.6408
▁rozhodovani	-10.6409
▁denn	-10.6412
nad	-10.6412
▁tovar	-10.6413
▁hromad	-10.6421
▁financova	-10.6425
bur	-10.6428
▁usporiada	-10.6437
▁Anglick	-10.645
▁Aplauz	-10.645
▁Nigéri	-10.645
▁detektor	-10.645
▁entropi	-10.645
▁ovplyvňuje	-10.645
▁Afričan	-10.645
▁Začína	-10.645
▁ekologick	-10.645
▁vybudovať	-10.645
▁reagova	-10.645
▁necíti	-10.645
▁Hlavn	-10.645
▁Zaujíma	-10.6451
▁útes	-10.6451
▁zničen	-10.6451
▁nepriateľ	-10.6451
▁šetr	-10.6451
▁zručn	-10.6451
▁prekážk	-10.6452
▁čerstv	-10.6452
▁uvedomí	-10.6452
▁výlet	-10.6452
▁zamyslí	-10.6453
▁väzeni	-10.6453
▁breh	-10.6453
▁súvislosti	-10.6454
mesačn	-10.6456
▁pohár	-10.6456
rúti	-10.6457
▁omyl	-10.6458
▁ponuk	-10.6458
▁šoférova	-10.6459
▁duchovn	-10.6462
▁Bože	-10.6467
▁zapojen	-10.6468
▁Znov	-10.6469
▁rozličný	-10.6469
▁spracova	-10.6485
▁akého	-10.6485
▁písmen	-10.6494
▁Veľký	-10.6495
▁temn	-10.6498
▁For	-10.6498
▁deli	-10.6505
rilo	-10.6506
▁obáv	-10.651
▁účastník	-10.6512
denie	-10.652
▁priniesl	-10.6523
▁zón	-10.6525
▁dostávam	-10.6526
▁poklad	-10.6549
strednej	-10.6551
▁najlepši	-10.6554
ovacie	-10.657
fil	-10.6575
▁terorist	-10.6578
▁pripravi	-10.6601
▁prvk	-10.6614
▁vpred	-10.6622
žijeme	-10.6636
áčik	-10.6641
▁stretnú	-10.6653
▁laboratória	-10.6667
▁istej	-10.667
▁ekonómov	-10.6678
▁váži	-10.6679
▁stretne	-10.6683
▁istým	-10.6686
▁priemerný	-10.6689
▁rozličn	-10.6696
▁spoločenst	-10.6701
▁Mesiac	-10.6707
▁kondóm	-10.6707
▁konektóm	-10.6707
▁návštev	-10.6707
▁rôznorod	-10.6707
▁stimul	-10.6707
▁Červen	-10.6707
▁intenzívn	-10.6707
▁terapi	-10.6707
▁filtr	-10.6707
▁populárn	-10.6707
▁zaoberá	-10.6707
▁nepočul	-10.6707
▁vonkajš	-10.6707
▁záliv	-10.6707
▁január	-10.6707
▁uisti	-10.6707
▁rozpína	-10.6707
▁Pozná	-10.6707
▁solárn	-10.6708
▁kyslík	-10.6708
▁nô	-10.6708
▁stô	-10.6711
▁pozval	-10.6712
▁občas	-10.6714
▁zopakova	-10.6715
▁presu	-10.6716
▁škol	-10.6718
▁Steve	-10.6719
väčš	-10.6723
▁písal	-10.6724
anec	-10.6724
▁vravia	-10.6725
▁bodk	-10.6727
▁spájajú	-10.6729
▁Kong	-10.6731
▁zje	-10.6734
▁múdrosť	-10.6739
▁manželk	-10.6747
▁prirodzený	-10.6749
▁občanov	-10.6771
pustí	-10.6773
11	-10.6777
▁Ahoj	-10.6788
▁Posledný	-10.6791
▁jedinc	-10.6793
▁El	-10.6796
šľa	-10.6798
▁10-	-10.6804
▁kôr	-10.6806
rád	-10.6809
pláva	-10.6812
▁reťazc	-10.6814
▁parku	-10.6817
▁jednotlivc	-10.6829
▁pozoruhodn	-10.683
▁počka	-10.683
▁Slnko	-10.6841
▁jazykov	-10.6848
▁špecifick	-10.6852
stáv	-10.686
▁hrajú	-10.6862
▁oko	-10.6866
▁konkrétny	-10.6869
▁Zober	-10.6872
▁kolega	-10.69
▁účin	-10.6908
vnútra	-10.6912
niesl	-10.6919
▁slobodn	-10.6921
▁lásku	-10.6927
▁vrátim	-10.6934
hlásil	-10.694
▁fyzické	-10.6957
▁bicykl	-10.6967
,000	-10.697
▁Charles	-10.697
▁argument	-10.697
▁depresi	-10.697
▁farebn	-10.697
▁izolovan	-10.697
▁kompletn	-10.697
▁nepáči	-10.697
▁predsudk	-10.697
▁zaslúži	-10.697
▁Korán	-10.697
▁Odpoveď	-10.697
▁nepovedal	-10.697
▁znázornen	-10.697
▁Pracoval	-10.697
▁udalosť	-10.697
▁vyhľadáva	-10.697
▁tendenci	-10.697
▁obráti	-10.697
▁platform	-10.697
▁líši	-10.697
▁ôsm	-10.697
▁rozvinut	-10.697
▁čiastočn	-10.697
▁kuchyn	-10.697
▁najstarš	-10.6971
▁jazer	-10.6971
▁hýba	-10.6971
▁automatick	-10.6971
▁nijak	-10.6971
▁komunikuj	-10.6971
▁postel	-10.6973
▁196	-10.6974
▁zelené	-10.6974
▁sektor	-10.6974
▁oblak	-10.6975
▁logick	-10.6975
▁trápi	-10.6978
▁nižš	-10.6979
▁slnk	-10.6979
▁videá	-10.6983
▁pravdiv	-10.6983
▁Nad	-10.6984
▁výmen	-10.6986
▁čelí	-10.6988
▁dych	-10.699
▁konečn	-10.6992
▁koš	-10.6997
▁Francisc	-10.7004
▁vymyslel	-10.701
▁mimoriadne	-10.7011
port	-10.7015
▁starostlivosť	-10.7015
▁výstav	-10.7018
▁zamestna	-10.7023
▁dopravn	-10.7025
▁založil	-10.7034
▁Pra	-10.704
▁čel	-10.7048
▁túži	-10.7053
▁zlepšeni	-10.7055
▁ruká	-10.7072
▁dospelý	-10.7088
padajú	-10.7092
▁opísa	-10.7105
▁pokúsil	-10.7113
▁továrn	-10.7114
alizáci	-10.7122
▁anti	-10.7123
▁ľudským	-10.7137
▁nasad	-10.7143
▁učen	-10.7154
▁kábl	-10.7158
▁hľadal	-10.7191
▁charakter	-10.7206
▁červ	-10.721
▁75	-10.7223
▁štyr	-10.7225
▁Alzheimer	-10.724
▁Saturn	-10.724
▁kampaň	-10.724
▁plagát	-10.724
▁protobunk	-10.724
▁vysvetľuje	-10.724
▁najobľúbenejš	-10.724
▁uvidel	-10.724
▁kríž	-10.724
▁genóm	-10.724
▁chystá	-10.724
▁spánk	-10.724
▁Ukazuje	-10.724
▁Kanad	-10.724
▁starovek	-10.724
▁zbran	-10.7241
▁štedr	-10.7241
▁chalan	-10.7241
▁tanečn	-10.7241
▁astronóm	-10.7241
▁chémi	-10.7241
▁Nejak	-10.7241
▁uvedomova	-10.7243
▁hned	-10.7246
▁27	-10.7249
▁krav	-10.725
stupujú	-10.7252
▁2005	-10.7254
množ	-10.7254
▁podvod	-10.7256
▁považujem	-10.7258
▁surov	-10.7269
▁zjed	-10.727
▁Hoci	-10.7275
▁objaví	-10.7293
▁výborn	-10.7294
▁vyrastal	-10.73
▁najbližší	-10.73
▁modré	-10.7305
▁lekársk	-10.7311
počúva	-10.7318
▁strie	-10.732
▁prelom	-10.733
▁napadl	-10.7334
▁žijúc	-10.7337
▁prírodný	-10.7342
▁nud	-10.7348
▁Mc	-10.7356
žka	-10.7362
▁výrazne	-10.7368
▁mobilný	-10.7379
▁naučí	-10.739
▁rádio	-10.739
▁vychádzajú	-10.7402
vied	-10.7402
▁publikovan	-10.7405
▁vydal	-10.7407
▁pridal	-10.7417
definova	-10.7432
▁Col	-10.7441
kázal	-10.7446
▁pomoh	-10.7457
▁prehr	-10.747
▁ťažk	-10.7474
myslenia	-10.7474
▁zvyšk	-10.7482
▁pozerajú	-10.7483
▁vlastným	-10.7486
žiar	-10.7488
▁zadn	-10.7496
ling	-10.7506
▁náz	-10.7506
ľud	-10.7509
tráp	-10.7516
▁algoritm	-10.7518
▁chrbát	-10.7518
▁kreativit	-10.7518
▁medveď	-10.7518
▁origami	-10.7518
▁tréning	-10.7518
▁zbierk	-10.7518
▁povedom	-10.7518
▁územi	-10.7518
▁Prosím	-10.7518
▁klasick	-10.7518
funkčn	-10.7518
▁chaos	-10.7518
▁výskyt	-10.7518
▁širš	-10.7518
▁Naučil	-10.7519
▁Nebude	-10.7519
▁Martin	-10.7519
▁odvah	-10.7519
▁vzhľad	-10.7519
▁Začni	-10.7519
▁dávk	-10.7521
▁hustot	-10.7521
▁Cíti	-10.7522
▁link	-10.7525
▁nahradi	-10.7526
▁maľb	-10.7529
▁koz	-10.7532
▁uzna	-10.7542
▁stoja	-10.7544
▁Viac	-10.7558
▁potrebova	-10.7559
▁samotné	-10.7575
hier	-10.7583
ňajú	-10.7584
bezpeč	-10.7592
▁otco	-10.7596
▁verejný	-10.7597
▁chladn	-10.7598
▁pohl	-10.76
zdrav	-10.7614
▁nazv	-10.7624
pus	-10.7625
ation	-10.7632
▁založený	-10.7635
kladal	-10.7647
▁rozumn	-10.7655
▁narodenin	-10.7658
▁nevyhnutné	-10.7659
▁spoločný	-10.7665
▁skal	-10.7675
▁škod	-10.7675
▁Myslí	-10.7685
▁pracovné	-10.769
▁známk	-10.769
▁hľadajú	-10.7696
▁chov	-10.7705
ujúcim	-10.7711
▁spojení	-10.7715
▁Dve	-10.7722
▁PM	-10.7728
▁poskytuje	-10.774
▁zahraničn	-10.7743
pisova	-10.7746
pustím	-10.7749
ker	-10.7751
▁použije	-10.7759
▁vyšši	-10.776
▁tekut	-10.7765
▁stavb	-10.7766
▁zdraví	-10.7775
▁Michael	-10.7804
▁Thomas	-10.7804
▁ochráni	-10.7804
▁pobreži	-10.7804
▁podvedom	-10.7804
▁porozumeni	-10.7804
▁náhrad	-10.7804
▁spätn	-10.7804
▁výnimk	-10.7804
▁zachytáva	-10.7804
▁recept	-10.7804
▁lekci	-10.7804
▁zásah	-10.7804
▁kvantov	-10.7804
▁komerčn	-10.7804
▁umiera	-10.7804
▁nervov	-10.7804
▁intelektuáln	-10.7804
▁čudn	-10.7804
▁väzení	-10.7804
▁ružov	-10.7804
▁Nemyslí	-10.7805
▁poskytnú	-10.7805
▁ikon	-10.7805
▁pozd	-10.7805
▁pomyslí	-10.7807
▁Buď	-10.7807
▁šum	-10.7809
▁21.	-10.781
▁obav	-10.7812
▁Túto	-10.7814
▁pohod	-10.7828
ážky	-10.7831
▁takejto	-10.7832
▁bás	-10.7836
▁sníva	-10.7841
▁vedľajš	-10.7841
▁optick	-10.7842
▁cm	-10.7847
▁ekonomické	-10.7851
▁Správ	-10.7854
▁umelcov	-10.7857
▁spočíta	-10.7863
▁nechám	-10.7869
▁stiahnu	-10.7869
▁prechádzal	-10.787
▁Mnoho	-10.787
▁prítomnosť	-10.7879
▁tesne	-10.7881
stred	-10.7884
▁živý	-10.7888
▁položil	-10.7895
▁samičk	-10.7898
▁klimatick	-10.7899
▁hlavn	-10.7901
▁umelc	-10.7915
▁dochádza	-10.7917
▁nájd	-10.7918
▁nadáci	-10.7924
dávno	-10.7938
▁predpoved	-10.7942
▁výzvou	-10.7943
alistick	-10.7951
▁Celý	-10.7962
▁služ	-10.7966
▁značn	-10.7968
▁ponork	-10.7977
▁objavova	-10.7979
▁existoval	-10.798
▁strojov	-10.7983
▁prenik	-10.7983
▁pozorovani	-10.8
▁politické	-10.8002
▁skreslen	-10.8004
▁tretí	-10.8006
▁komun	-10.8019
▁rozpočt	-10.8021
▁1000	-10.8026
▁rozšíril	-10.8029
▁komu	-10.8031
▁spokojn	-10.8035
▁usp	-10.804
▁mechanizmu	-10.8042
▁pridá	-10.8051
▁vymysl	-10.8051
▁zvýšil	-10.8054
písané	-10.8055
▁prepojené	-10.8063
▁klinick	-10.8068
ovací	-10.8072
▁zložitý	-10.8077
▁americké	-10.8078
▁Svetov	-10.8088
▁Cítil	-10.8094
▁chrípk	-10.8098
▁frekvenci	-10.8098
▁nasledovn	-10.8098
▁neuvedom	-10.8098
▁racionáln	-10.8098
▁sponzor	-10.8098
▁syndróm	-10.8098
▁uspokoj	-10.8098
▁špičk	-10.8098
▁Irán	-10.8098
▁zraniteľn	-10.8098
▁tapír	-10.8098
▁spisovateľ	-10.8098
▁studen	-10.8098
▁hluk	-10.8098
▁vďačn	-10.8098
▁príprav	-10.8098
▁drahé	-10.8098
▁pravideln	-10.8098
▁zložk	-10.8099
▁Národn	-10.8099
▁zomiera	-10.8099
▁krabic	-10.81
▁profesionáln	-10.8101
▁vyjde	-10.8102
▁99	-10.8103
▁divadl	-10.8103
▁trpí	-10.8103
▁nemeck	-10.8104
▁limit	-10.8105
▁líni	-10.8111
▁spodn	-10.8112
▁rýchlosti	-10.8118
▁otvorí	-10.8124
▁cieľov	-10.8125
▁pomôž	-10.8126
poľnohospodárstv	-10.813
▁predátor	-10.8132
▁transparentn	-10.8137
org	-10.8144
▁dial	-10.8145
▁slušn	-10.8149
ponúk	-10.815
▁malári	-10.8155
▁použijem	-10.8164
▁pohybuje	-10.8165
▁prekvapení	-10.8176
▁zostane	-10.8177
matic	-10.8178
▁pošl	-10.8181
▁pohybujú	-10.8181
▁živé	-10.8189
▁Jasn	-10.819
▁tancova	-10.8195
▁otvor	-10.8199
▁zamestnan	-10.8206
▁používateľ	-10.8212
▁pýtajú	-10.8219
▁elektrické	-10.8225
▁fir	-10.8228
▁prijal	-10.823
▁dával	-10.8239
tier	-10.8249
bezpečí	-10.826
▁fl	-10.8263
▁vetv	-10.8271
▁sláv	-10.8272
▁sum	-10.8284
▁strašn	-10.8287
▁Urob	-10.8293
▁významn	-10.83
▁jednotlivý	-10.8322
▁premýšľal	-10.8335
▁zachránil	-10.8356
▁dozved	-10.8371
▁držal	-10.8389
▁nachádzam	-10.8389
▁večn	-10.8392
▁ban	-10.8399
▁Neexistuj	-10.8401
▁Pakistan	-10.8401
▁Taliban	-10.8401
▁asteroid	-10.8401
▁dimenzi	-10.8401
▁dispozíci	-10.8401
▁pozadí	-10.8401
▁spolieha	-10.8401
▁termín	-10.8401
▁Príbeh	-10.8401
▁Hovoril	-10.8401
▁zápas	-10.8401
▁kópi	-10.8401
▁obezit	-10.8401
▁smiešn	-10.8401
▁Objav	-10.8401
▁závažn	-10.8401
▁optimistick	-10.8401
▁tzv	-10.8401
▁Super	-10.8401
▁kamery	-10.8402
▁účt	-10.8402
▁včiel	-10.8402
▁chladničk	-10.8402
▁míňa	-10.8403
▁hlboké	-10.8403
▁hocikto	-10.8403
▁klinik	-10.8404
▁posiln	-10.8405
▁osnov	-10.8405
▁otcovi	-10.8405
▁Jim	-10.8407
▁dvor	-10.8407
▁prekvapiv	-10.8409
▁koles	-10.841
▁zoberie	-10.8413
▁spev	-10.8414
▁Francúzsk	-10.8418
▁koral	-10.842
▁umení	-10.8421
▁opatrn	-10.8421
▁chuť	-10.8423
▁rešpekt	-10.8424
čení	-10.8426
▁mäso	-10.8427
▁oboj	-10.8428
▁blíži	-10.8433
▁hnev	-10.8435
▁piesn	-10.8435
▁obed	-10.8441
nder	-10.8448
▁Neza	-10.8453
▁priviedl	-10.8455
▁privie	-10.8456
▁skús	-10.8459
▁obyvateľstv	-10.8459
▁sken	-10.846
▁šli	-10.8462
▁Chc	-10.8464
▁aktivist	-10.8467
potreb	-10.8482
pýta	-10.8489
▁nedáva	-10.8491
▁rýchly	-10.8495
▁dizajnérsk	-10.8498
uhol	-10.8505
▁štvrtin	-10.8515
▁600	-10.8519
voľn	-10.8524
▁ticho	-10.8527
žiada	-10.8532
▁podstatné	-10.8534
tag	-10.8542
▁vravím	-10.8546
▁ekonómi	-10.8549
▁Idem	-10.8561
▁vašim	-10.8568
▁okno	-10.8573
▁prekvapeni	-10.8576
ľujú	-10.8576
BC	-10.8578
▁obvykl	-10.8591
▁navrhova	-10.8602
▁dostatočn	-10.8612
▁etick	-10.8618
▁magnet	-10.8622
▁považova	-10.8628
▁budúc	-10.8628
▁Spravil	-10.8632
dným	-10.8641
▁merani	-10.8646
▁hran	-10.8647
istický	-10.8658
▁65	-10.8665
▁zajtra	-10.8667
▁označen	-10.8678
pot	-10.8689
▁počúvam	-10.8694
máha	-10.8695
▁Niekto	-10.8699
▁obsahujú	-10.8699
▁ozaj	-10.8713
▁Darwin	-10.8713
▁demokratick	-10.8713
▁dinosaur	-10.8713
▁individuáln	-10.8713
▁intuíci	-10.8713
▁leopard	-10.8713
▁neexistoval	-10.8713
▁náchyln	-10.8713
▁prevádzk	-10.8713
▁výživ	-10.8713
▁kapacit	-10.8713
▁čakať	-10.8713
▁kapitol	-10.8713
▁nevidím	-10.8713
▁pulz	-10.8713
▁stráž	-10.8713
▁čokolád	-10.8713
▁odovzda	-10.8713
▁opeľova	-10.8713
▁vysporiada	-10.8713
▁cukor	-10.8713
▁Nemeck	-10.8714
▁Street	-10.8714
▁Brian	-10.8714
▁raket	-10.8714
▁trpia	-10.8714
▁minimálne	-10.8714
▁uvedomuje	-10.8715
▁21	-10.8715
▁jaskyn	-10.8715
▁tajomstvo	-10.8715
▁narodení	-10.8716
▁citát	-10.8716
▁vytváram	-10.8717
▁Ghan	-10.8721
▁teplo	-10.8722
▁svetlá	-10.8723
▁email	-10.8723
▁vypočíta	-10.8726
▁elektrick	-10.8731
▁Snažím	-10.8741
▁pracovný	-10.8746
▁právnik	-10.8747
▁Štát	-10.8752
▁typick	-10.8759
edieť	-10.8762
▁výnimočné	-10.8766
koval	-10.8768
▁rozhodova	-10.877
▁odoln	-10.8771
▁opakovan	-10.8771
▁Boj	-10.8777
▁vytvorené	-10.8778
▁kúp	-10.8804
▁obklop	-10.8805
kladám	-10.8816
▁Ed	-10.8819
▁biológ	-10.8823
▁Kam	-10.8826
▁štvorcový	-10.8831
▁kľúčové	-10.8832
lon	-10.8848
▁Išl	-10.8862
▁pokračoval	-10.8875
▁svetový	-10.8875
▁nasledujúc	-10.8886
▁vedec	-10.8891
▁skúšk	-10.8895
▁týkajúc	-10.8896
▁tvrdo	-10.8898
▁prečítal	-10.8901
▁autom	-10.8909
▁pamätá	-10.891
▁plánovani	-10.8911
▁výskumník	-10.8912
▁vybav	-10.8914
▁Švédsko	-10.8929
▁minulosť	-10.8941
▁bolestiv	-10.8943
▁Bea	-10.8943
▁pretek	-10.8962
▁najbližš	-10.8965
▁prestane	-10.8967
▁školský	-10.8978
▁významné	-10.8983
▁nadšený	-10.8989
▁Ben	-10.8992
▁sleduje	-10.9013
▁zabil	-10.9017
▁vstúpi	-10.9017
posled	-10.9018
ňovani	-10.9022
poriad	-10.9031
▁vysvetlil	-10.9035
▁súhlasil	-10.9036
▁Titan	-10.9036
produkuje	-10.9036
▁LED	-10.9036
▁databáz	-10.9036
▁dažďov	-10.9036
▁gravitáci	-10.9036
▁mamografi	-10.9036
▁nešťastn	-10.9036
▁pôrod	-10.9036
▁sendvič	-10.9036
▁sofistikovan	-10.9036
▁sprievod	-10.9036
▁tínedžer	-10.9036
▁zázračn	-10.9036
▁žiarliv	-10.9036
▁Nevedel	-10.9036
▁najchudobnejš	-10.9036
▁pamäť	-10.9036
▁Skvel	-10.9036
▁balón	-10.9036
▁telefon	-10.9036
▁vyrovna	-10.9036
▁reduk	-10.9036
▁inštinkt	-10.9036
▁nemusel	-10.9036
▁potešeni	-10.9036
▁spomali	-10.9036
▁odhalen	-10.9036
▁zisteni	-10.9036
tiahol	-10.9037
▁klient	-10.9037
▁jednoznačn	-10.9037
▁náboženstvá	-10.9038
▁posklada	-10.9038
▁javisk	-10.9038
▁zmizl	-10.9039
▁Vytvára	-10.9042
▁modli	-10.9042
▁plát	-10.9043
▁poézi	-10.9044
▁point	-10.9044
▁včera	-10.9045
▁klesl	-10.9048
▁obvod	-10.9048
testovať	-10.9048
▁Americk	-10.9052
izm	-10.9054
▁Hor	-10.9054
▁svetiel	-10.9055
▁daň	-10.9062
▁rozložen	-10.9063
▁požiar	-10.9063
▁unik	-10.9064
▁neuveriteľný	-10.9064
▁nedokážem	-10.9064
▁spracovani	-10.907
▁chemické	-10.9084
▁posunul	-10.9088
▁Los	-10.9092
▁dodáva	-10.9093
▁Spôsob	-10.9098
▁učíme	-10.91
píšem	-10.9101
▁štatistick	-10.9102
▁povolen	-10.911
▁zmes	-10.911
▁jednotlivcov	-10.9113
▁prírodné	-10.9129
▁inšpirova	-10.9137
▁umožni	-10.9144
▁prenies	-10.9147
▁Zamysli	-10.9148
▁delfínov	-10.9154
▁najlepš	-10.9154
▁právny	-10.9155
▁opustil	-10.9166
▁búrk	-10.9174
▁podelil	-10.9174
budúce	-10.9179
▁najhorší	-10.9179
▁zničil	-10.918
ložím	-10.9182
▁účink	-10.9194
viedl	-10.9197
▁rozhodujúc	-10.92
▁teror	-10.9202
▁milujú	-10.9202
▁rastl	-10.9217
▁miloval	-10.9223
▁vyhnú	-10.9229
▁Nemá	-10.923
▁nemožn	-10.9238
▁ucho	-10.9242
okolo	-10.9248
▁chlapcov	-10.9249
▁starši	-10.9256
▁kľúčový	-10.9261
▁kút	-10.929
▁rizik	-10.9296
▁hrud	-10.9304
▁zistím	-10.9309
hrab	-10.9316
▁obja	-10.9334
ejšo	-10.9335
najmenš	-10.9341
▁kľúčov	-10.9347
bíja	-10.9348
▁dôsled	-10.9363
▁Budú	-10.9367
▁cukr	-10.9368
▁subjekt	-10.9369
▁George	-10.9369
▁agentúr	-10.9369
▁chápem	-10.9369
▁karikatúr	-10.9369
▁nebezpečenstv	-10.9369
▁nábožensk	-10.9369
▁portrét	-10.9369
▁parazit	-10.9369
▁spočíva	-10.9369
▁tablet	-10.9369
▁vajíčk	-10.9369
▁tučniak	-10.9369
▁kvapk	-10.9369
▁šéf	-10.9369
▁prínos	-10.9369
▁zneužíva	-10.9369
▁osamel	-10.9369
▁nestret	-10.9369
▁nakazený	-10.937
▁zdravotníck	-10.937
▁spomenie	-10.937
hovára	-10.937
▁donúti	-10.937
▁zaobchádza	-10.9371
▁nedostan	-10.9371
▁osvoj	-10.9371
▁rozozna	-10.9372
▁najhoršie	-10.9372
▁jednoduchšie	-10.9373
▁magick	-10.9373
▁vystav	-10.9373
▁obdiv	-10.9374
▁podnet	-10.9375
▁nutn	-10.9378
▁rozdelen	-10.9378
▁Pán	-10.938
▁36	-10.9381
▁Žijem	-10.9382
▁baví	-10.9385
▁Napísal	-10.9389
▁Dáva	-10.9392
▁drsn	-10.9396
▁autorit	-10.9397
▁zaviedl	-10.9399
▁Japonsko	-10.9403
▁vzdialenosť	-10.9405
▁skrz	-10.941
▁lodi	-10.9413
▁vozid	-10.9414
▁SE	-10.9414
▁väzb	-10.9416
20	-10.9419
▁umelecké	-10.9419
▁spor	-10.9421
▁obeť	-10.9428
▁teši	-10.943
▁vnem	-10.9432
▁podnikani	-10.9435
▁koň	-10.9436
▁uskutočni	-10.9439
▁Uvedomil	-10.9443
▁popis	-10.9459
▁úspešný	-10.9461
▁zapamäta	-10.9462
▁plánova	-10.9462
▁obal	-10.9468
▁Švédsk	-10.9481
▁Sprav	-10.9484
▁chemický	-10.9484
▁komplikované	-10.9488
▁schém	-10.949
▁chytr	-10.9491
▁starost	-10.9496
▁vytlači	-10.9496
▁centráln	-10.9498
▁počúval	-10.95
▁šír	-10.9521
▁predkov	-10.9521
▁vytvorený	-10.9536
ovanej	-10.9537
▁lepším	-10.9538
▁začínam	-10.9557
▁rozprávajú	-10.9567
▁rozumiem	-10.9569
▁rozmýšľam	-10.9573
▁vež	-10.9577
▁laboratóri	-10.9581
▁úžasným	-10.9587
tion	-10.9599
▁myši	-10.96
▁členov	-10.9601
▁Posledn	-10.9601
▁spozna	-10.9624
▁zlato	-10.9649
▁nepodar	-10.9663
▁chytil	-10.9663
▁lietadlo	-10.9671
▁ľudstvo	-10.9703
▁stojím	-10.9705
▁titul	-10.9711
▁zastavil	-10.9711
▁otvorený	-10.9712
▁cicavc	-10.9714
▁Predpoklad	-10.9714
▁Projekt	-10.9714
▁diagnóz	-10.9714
▁environmentáln	-10.9714
▁ignorova	-10.9714
▁ihrisk	-10.9714
▁licenci	-10.9714
▁motivova	-10.9714
▁odfoti	-10.9714
▁ovplyvňujú	-10.9714
▁schránk	-10.9714
▁vyzdvih	-10.9714
▁určuje	-10.9714
▁uväznen	-10.9714
▁Funguj	-10.9714
▁svetluš	-10.9714
▁zvládnu	-10.9714
▁záležitosť	-10.9714
▁režim	-10.9714
▁natáča	-10.9714
▁riskova	-10.9714
▁hocijak	-10.9714
▁šikovn	-10.9714
▁nahrávk	-10.9714
▁úsili	-10.9714
▁skratk	-10.9714
▁súkromi	-10.9714
▁zaplav	-10.9714
▁Pýta	-10.9715
▁tuleň	-10.9716
▁román	-10.9717
▁samček	-10.9717
▁obmedzenia	-10.9717
▁najnovš	-10.9717
▁matersk	-10.9717
▁farie	-10.9718
▁náboženstvo	-10.9718
▁stoličk	-10.9718
▁domácnosti	-10.9719
▁nestač	-10.9719
▁odvážn	-10.9719
▁bruch	-10.9722
▁Angel	-10.9722
▁rovnakým	-10.9723
▁SMS	-10.9729
▁plus	-10.9731
▁neuveriteľn	-10.9732
▁miestnosť	-10.9738
▁Nielen	-10.9741
ľava	-10.9748
▁hľadaní	-10.9752
▁zákazníkov	-10.976
▁hrdý	-10.976
▁súvis	-10.9761
▁medved	-10.9762
▁venoval	-10.9774
▁pozoroval	-10.9775
▁mechanizm	-10.978
▁pokor	-10.9781
▁vydrž	-10.9783
▁atóm	-10.9783
▁krab	-10.9783
▁chýb	-10.9784
▁slam	-10.9791
▁vypad	-10.9796
▁pravid	-10.9803
▁šíreni	-10.9804
▁nerobi	-10.9811
▁prinútil	-10.9829
▁zložen	-10.9829
▁Her	-10.9838
▁uši	-10.9845
▁20-	-10.9854
škod	-10.9866
▁nočn	-10.9867
myslite	-10.9868
▁spoznal	-10.9869
▁špecifické	-10.9872
▁Lin	-10.9877
farb	-10.9878
▁smeruje	-10.9895
tvorili	-10.9901
slab	-10.9904
povediac	-10.9906
▁príležitost	-10.9927
čiat	-10.9953
ťahuje	-10.9971
▁možn	-10.9977
▁vyber	-10.998
▁vzdelávaní	-10.9994
▁pokúsim	-10.9995
trias	-10.9999
▁úče	-11.0003
▁jasný	-11.0003
con	-11.0012
▁neuro	-11.0015
▁195	-11.002
▁Tre	-11.0039
ráta	-11.0064
▁náboženst	-11.0065
▁Everest	-11.0071
▁Leonard	-11.0071
▁Publik	-11.0071
▁analóg	-11.0071
▁energetick	-11.0071
▁investor	-11.0071
▁región	-11.0071
▁umiestnen	-11.0071
▁blahobyt	-11.0071
▁horizont	-11.0071
▁komunikačn	-11.0071
▁ohromujúc	-11.0071
▁produkujú	-11.0071
▁zmluv	-11.0071
▁špinav	-11.0071
▁Gréck	-11.0071
▁divočin	-11.0071
▁neuroved	-11.0071
▁spomenúť	-11.0071
▁Richard	-11.0071
▁nezaujíma	-11.0071
▁parkovisk	-11.0071
▁víťaz	-11.0071
▁talent	-11.0071
▁reform	-11.0071
▁líst	-11.0071
▁rybolov	-11.0071
▁odohráva	-11.0072
▁objektívn	-11.0072
▁tehotn	-11.0072
▁Robert	-11.0072
▁Fakt	-11.0073
▁sluch	-11.0073
▁mediáln	-11.0073
▁septembr	-11.0073
▁primárn	-11.0073
▁Troch	-11.0073
▁vyvinut	-11.0073
▁Zobral	-11.0073
▁učebnic	-11.0074
▁fráz	-11.0074
▁dejin	-11.0074
▁vyrástl	-11.0075
▁pohreb	-11.0075
▁požiča	-11.0077
▁nepoužíva	-11.0079
▁vymeni	-11.0079
▁Robot	-11.008
▁dovolí	-11.0081
▁núten	-11.0081
▁poznatk	-11.0084
▁prelet	-11.0085
▁Obam	-11.0088
▁najdôležitejší	-11.0093
▁zvoli	-11.0095
▁vypúšťa	-11.0095
▁sledujem	-11.0097
▁ihl	-11.0097
▁rozvojové	-11.0101
▁držia	-11.0103
▁volajú	-11.0103
▁polárn	-11.0107
▁dostupný	-11.0108
▁dievčatko	-11.0109
▁krut	-11.011
TI	-11.0117
▁prinesie	-11.0123
▁premenil	-11.0127
▁Kar	-11.0135
BI	-11.0142
▁daný	-11.0163
▁klinický	-11.0163
zrel	-11.0167
▁podstatn	-11.0168
kurát	-11.0174
▁bojuje	-11.0177
▁inšpiroval	-11.0182
právn	-11.0191
▁nemusím	-11.0192
12	-11.0198
▁chvíľk	-11.0206
leteli	-11.0219
▁pravý	-11.0249
▁továr	-11.0253
▁správaní	-11.0301
visí	-11.0311
▁spôsobilo	-11.0312
▁láskav	-11.0317
▁vzdialený	-11.033
▁Rok	-11.0347
▁stratí	-11.0348
▁stupňov	-11.0349
▁zdravé	-11.0351
▁nádorov	-11.036
IS	-11.0364
▁fyzický	-11.037
▁zažíva	-11.0372
▁pohybova	-11.0377
▁udial	-11.0378
▁presťahoval	-11.0393
▁norm	-11.0416
▁uvažuj	-11.0425
▁tabu	-11.0425
▁dobrovoľn	-11.0435
▁akceptova	-11.0442
▁bambus	-11.0442
▁expedíci	-11.0442
▁otepľovani	-11.0442
▁pobreží	-11.0442
▁ultrazvuk	-11.0442
▁ušetri	-11.0442
▁znečisteni	-11.0442
▁alkohol	-11.0442
▁marshmallow	-11.0442
▁oficiáln	-11.0442
▁policajt	-11.0442
▁príťažliv	-11.0442
▁zdvojnásob	-11.0442
dynamik	-11.0442
▁Pomyslel	-11.0442
▁Spoločn	-11.0442
▁Výborn	-11.0442
▁fajči	-11.0442
▁falošn	-11.0442
▁neziskov	-11.0442
▁podieľa	-11.0442
upokoj	-11.0442
▁svät	-11.0442
▁umrel	-11.0442
▁charit	-11.0442
▁symetri	-11.0442
▁ochoreni	-11.0442
▁prístav	-11.0442
▁odľahl	-11.0442
▁fond	-11.0442
▁Gates	-11.0442
pracováva	-11.0442
▁čiapk	-11.0442
▁nádob	-11.0442
▁kampan	-11.0442
▁tanier	-11.0442
▁železn	-11.0443
▁bábk	-11.0443
▁kock	-11.0444
▁dobrovoľník	-11.0445
▁Zelen	-11.0446
▁Podobn	-11.0446
▁Pracujem	-11.0447
▁libi	-11.0448
▁letisk	-11.0449
▁ego	-11.045
▁zváži	-11.0453
▁panel	-11.0453
▁28	-11.0455
▁udrž	-11.0459
▁očakávania	-11.0465
pisuje	-11.0471
▁odráža	-11.0473
▁tvorb	-11.0493
▁priveľ	-11.0494
▁plaka	-11.0495
▁zábavné	-11.0495
▁Výsledk	-11.0507
▁Matt	-11.0511
▁vyvoláva	-11.0512
▁pozvan	-11.0521
▁platen	-11.0524
▁spojen	-11.0525
▁zlepšil	-11.054
▁vyhodi	-11.0547
▁cudzí	-11.0569
▁skúmani	-11.0569
▁považovan	-11.0579
▁storoči	-11.0581
▁ľahk	-11.0589
▁ohň	-11.059
▁výnimočn	-11.0591
▁politický	-11.0599
▁bytosť	-11.0606
▁nechc	-11.0615
▁voľbá	-11.0619
▁odborn	-11.0619
▁techn	-11.0625
▁absolútn	-11.0628
U	-11.063
stroj	-11.0633
▁učiteľk	-11.0642
▁vôľ	-11.0643
▁nehovorí	-11.0647
▁hovoriac	-11.0654
▁vysvetl	-11.0669
▁efektívnejši	-11.0685
▁Bob	-11.0692
▁32	-11.0693
▁cudz	-11.0696
▁vnútorné	-11.0705
▁nudn	-11.071
▁vraca	-11.0729
hid	-11.0729
▁bežný	-11.0739
▁uskutočnil	-11.0747
▁ukrad	-11.075
▁výborný	-11.0751
▁ničím	-11.0753
▁elektrárn	-11.0754
▁atómov	-11.0757
▁strav	-11.0762
▁podporuje	-11.0779
▁Zraz	-11.0788
▁vyrast	-11.0806
▁pozem	-11.0807
analyzova	-11.0812
▁cestova	-11.082
▁zákaz	-11.0826
▁bláz	-11.0826
▁Harvard	-11.0826
▁Odpovedal	-11.0826
▁Oxford	-11.0826
▁Univerzit	-11.0826
▁fotoaparát	-11.0826
▁hamburger	-11.0826
▁ilegáln	-11.0826
▁kritéri	-11.0826
▁mikrofón	-11.0826
▁návrat	-11.0826
▁prispôsoben	-11.0826
▁prvočíslo	-11.0826
▁systematick	-11.0826
▁trpezliv	-11.0826
▁umožní	-11.0826
▁vyplýva	-11.0826
▁znázorňuj	-11.0826
▁šťastí	-11.0826
▁Dievča	-11.0826
▁dvadsiat	-11.0826
▁krehk	-11.0826
▁labák	-11.0826
▁netušil	-11.0826
▁pyramíd	-11.0826
▁zjednoduš	-11.0826
▁žalúd	-11.0826
iribat	-11.0826
▁element	-11.0826
▁geometri	-11.0826
▁sekvenc	-11.0826
▁vylieči	-11.0826
▁najúžasnejš	-11.0826
▁predstiera	-11.0826
▁sezón	-11.0826
▁etnick	-11.0826
▁zameriava	-11.0826
▁čakajú	-11.0826
▁Joshu	-11.0826
▁zlepšova	-11.0826
▁Zvuk	-11.0826
▁nárok	-11.0826
▁Osob	-11.0826
▁Vraví	-11.0826
▁Vyrastal	-11.0826
▁NAS	-11.0826
▁Trval	-11.0826
▁nálad	-11.0826
▁pasívn	-11.0826
▁trpel	-11.0827
▁zamyslel	-11.0827
▁zápal	-11.0827
▁klesá	-11.0827
▁kozmick	-11.0827
▁podlah	-11.0827
▁koncert	-11.0827
▁prestávk	-11.0828
▁lopt	-11.0828
▁zamilova	-11.0829
▁Abed	-11.0829
▁paličk	-11.0829
▁pláž	-11.083
▁demo	-11.083
▁vlákna	-11.083
▁pracovník	-11.0832
▁vetern	-11.0834
▁telesn	-11.0836
▁riziká	-11.0836
▁zobrazova	-11.0836
▁meria	-11.0836
▁osobnosť	-11.0837
▁sústreden	-11.0837
▁ozajstn	-11.0838
▁pouč	-11.0839
vidno	-11.0841
▁dažd	-11.0843
▁úrovn	-11.0845
▁traj	-11.0847
▁the	-11.0854
▁piesk	-11.0857
▁sídl	-11.0859
▁vznikajú	-11.086
▁rozbeh	-11.0863
▁vyvola	-11.0867
▁predpokladám	-11.0868
▁ryž	-11.0878
vedení	-11.0879
▁dávn	-11.0887
burg	-11.0887
▁ženské	-11.0894
▁poloh	-11.0895
láka	-11.0905
▁orchestr	-11.0907
▁vzdialené	-11.0909
▁technický	-11.0912
pálil	-11.0915
▁olej	-11.0924
▁psa	-11.0925
▁Okol	-11.0926
medzi	-11.0926
▁rozpoč	-11.0928
▁stupň	-11.0929
▁uložen	-11.0934
▁verejnosť	-11.0955
▁organizovan	-11.0965
▁filozof	-11.0969
▁podporujú	-11.0975
▁majetk	-11.0991
▁výnimočný	-11.1001
▁syr	-11.1006
▁nehovorím	-11.1009
▁nedostal	-11.1016
▁chemick	-11.1031
▁strašné	-11.1033
▁pozoruhodné	-11.1035
dlho	-11.1061
▁vystaven	-11.1069
▁pohr	-11.1073
▁tvrdeni	-11.1074
▁odhod	-11.1079
▁predpis	-11.1103
▁jednoduchým	-11.1108
▁straten	-11.1111
ôň	-11.1117
▁organick	-11.1119
▁vidieck	-11.1122
▁manželstv	-11.1124
▁pridáva	-11.1135
▁Zmen	-11.1143
▁nerobil	-11.1154
▁spomínal	-11.1155
▁jedinečný	-11.1159
▁Správn	-11.1168
▁obyčajný	-11.1173
deľ	-11.118
▁ozv	-11.1184
▁Div	-11.119
▁písani	-11.1194
▁radost	-11.1198
udsk	-11.1199
▁bohatstvo	-11.1206
▁veľr	-11.121
▁Celko	-11.1214
▁molek	-11.1223
▁bábät	-11.1224
▁rozsiahl	-11.1224
▁Myšlienk	-11.1226
▁Namíbi	-11.1226
▁akademick	-11.1226
▁dedičstv	-11.1226
▁identifikova	-11.1226
▁konštrukci	-11.1226
▁monzún	-11.1226
▁produkova	-11.1226
▁uskutočnen	-11.1226
▁zabráni	-11.1226
▁zdanliv	-11.1226
▁čmárani	-11.1226
▁demonštr	-11.1226
▁komentár	-11.1226
▁manažér	-11.1226
▁simuláci	-11.1226
▁zmýšľa	-11.1226
▁úspor	-11.1226
▁Počúva	-11.1226
▁odsúden	-11.1226
▁Momentáln	-11.1226
▁rozprávk	-11.1226
▁rekord	-11.1226
▁nerozumie	-11.1226
▁žiarovk	-11.1226
▁reprezentuj	-11.1226
▁vyjadren	-11.1226
▁sfér	-11.1226
▁arabsk	-11.1226
▁púšt	-11.1226
▁zmyslupln	-11.1226
▁multi	-11.1226
▁pokožk	-11.1226
▁prezentova	-11.1226
▁výučb	-11.1226
▁choď	-11.1226
▁Smith	-11.1226
▁Zvyk	-11.1226
▁Rýchlo	-11.1227
▁príslušn	-11.1227
▁Narodil	-11.1227
▁znižova	-11.1227
▁Spýtal	-11.1227
▁nákup	-11.1227
▁všíma	-11.1227
▁zbadal	-11.1227
▁Hlas	-11.1227
▁lúč	-11.1227
▁zachyten	-11.1227
▁básn	-11.1227
▁pilot	-11.1227
▁Knih	-11.1228
▁nastaven	-11.1228
▁stretnutí	-11.1228
▁negatívny	-11.1228
▁necháp	-11.1228
▁smút	-11.1229
▁poplatk	-11.123
▁nejasn	-11.1231
▁kamera	-11.1231
▁prepoji	-11.1232
▁maličké	-11.1233
▁hudobník	-11.1234
▁zámer	-11.1235
▁Nation	-11.1239
▁tušeni	-11.1241
▁hrob	-11.1242
▁Modr	-11.1244
▁hrot	-11.1245
▁čes	-11.1245
▁slz	-11.125
▁TV	-11.125
▁vedeni	-11.1261
▁privádza	-11.1261
▁Mest	-11.1265
▁skromn	-11.1267
▁žab	-11.1272
▁vládnu	-11.1289
▁vrh	-11.1295
otva	-11.1305
vedú	-11.1308
▁meradl	-11.131
▁Tel	-11.1311
▁klá	-11.132
▁lyž	-11.1335
▁She	-11.1336
▁pošt	-11.1338
▁využije	-11.1355
▁potravinový	-11.1358
▁neexistuj	-11.1369
▁šialené	-11.1371
▁pojm	-11.1376
všimnete	-11.1378
▁inšpirovan	-11.1388
▁mrav	-11.1395
heh	-11.1406
▁znel	-11.1414
▁dôchodk	-11.1419
▁typické	-11.1428
▁rodí	-11.1431
▁cestoval	-11.1443
▁bezpečné	-11.1448
tvrd	-11.1452
▁bojujú	-11.1463
hnal	-11.148
▁250	-11.1493
▁nerobím	-11.1499
▁štart	-11.1502
▁tabuľk	-11.1504
lieva	-11.1511
▁Prost	-11.1512
▁zúčastn	-11.1513
▁statick	-11.1514
▁ťaži	-11.1519
▁Robil	-11.1524
▁urob	-11.1528
▁účinn	-11.1539
▁ťažký	-11.1546
▁skúmal	-11.1548
▁pripoji	-11.1564
▁múdrost	-11.1579
▁novink	-11.1594
▁klimatické	-11.1596
▁spred	-11.1616
▁pozn	-11.1631
▁rozloži	-11.1631
▁monitor	-11.1635
▁nákaz	-11.1642
▁Amazon	-11.1643
▁Dôležit	-11.1643
▁MIT	-11.1643
▁Vrátil	-11.1643
▁ekvivalent	-11.1643
▁hardvér	-11.1643
▁klavír	-11.1643
▁klobúk	-11.1643
▁nedosiah	-11.1643
▁policajn	-11.1643
▁samovražd	-11.1643
▁samovražedn	-11.1643
▁supravodič	-11.1643
▁transformáci	-11.1643
▁utečenc	-11.1643
▁utrpeni	-11.1643
▁škared	-11.1643
▁Strávil	-11.1643
▁japonsk	-11.1643
▁metán	-11.1643
▁nenájde	-11.1643
▁nesúhlas	-11.1643
▁kostým	-11.1643
▁generál	-11.1643
▁kvalifik	-11.1643
▁predvída	-11.1643
▁znižuje	-11.1643
▁medzer	-11.1643
▁chvost	-11.1643
▁klesajú	-11.1643
▁nevedom	-11.1643
▁uhličit	-11.1643
▁front	-11.1643
▁presúva	-11.1643
▁pät	-11.1643
▁Chlap	-11.1643
▁Usha	-11.1643
▁priorit	-11.1643
▁vlajk	-11.1643
▁medúz	-11.1644
▁poschod	-11.1644
▁zbytočn	-11.1644
▁záväz	-11.1644
▁obliek	-11.1644
▁ozbrojen	-11.1644
▁požiadavk	-11.1644
▁elektronik	-11.1644
▁rytm	-11.1644
▁prvotn	-11.1645
▁cukrovk	-11.1645
▁ebol	-11.1645
▁odhalil	-11.1645
▁1960	-11.1645
▁obnoviteľn	-11.1645
▁postara	-11.1646
▁ovoci	-11.1646
▁zlá	-11.1648
▁hmotnosť	-11.1649
▁milé	-11.1652
▁194	-11.1652
▁lamp	-11.1653
▁vyvíjajú	-11.1654
▁mladší	-11.1654
▁priláka	-11.1655
▁centov	-11.1656
▁darcov	-11.1656
▁rozpor	-11.1656
▁Rusk	-11.1658
▁pokročil	-11.1659
▁Volal	-11.1661
▁výstup	-11.1662
počiatk	-11.1663
▁poct	-11.1667
▁Svoj	-11.1668
▁kameru	-11.1668
▁Žiad	-11.1671
inžinierstv	-11.1672
▁rozmýšľal	-11.1676
▁pásk	-11.1677
▁skoči	-11.1687
▁šťastnejší	-11.1687
▁Min	-11.1693
▁Snažil	-11.1703
▁diagnostik	-11.1703
▁skok	-11.1708
▁divok	-11.1711
kraji	-11.1714
OS	-11.1724
▁Západ	-11.1728
▁upravi	-11.1731
▁rodičovstv	-11.1731
▁medzinárodný	-11.1733
▁zahranič	-11.1733
▁vodič	-11.1739
▁pitn	-11.1751
▁dosiah	-11.1752
▁znížil	-11.1761
▁štandardn	-11.1764
vrhnuté	-11.177
▁východn	-11.1772
▁rástl	-11.1773
▁Počuj	-11.1781
▁zvyknú	-11.1782
▁organické	-11.1803
▁peš	-11.1803
▁vybaveni	-11.1806
▁súvisia	-11.1806
▁podáva	-11.1817
▁120	-11.182
▁uroben	-11.1821
▁autist	-11.1856
▁pamätaj	-11.1869
▁hojn	-11.1881
▁uved	-11.1894
▁poznámk	-11.1898
▁vyskyt	-11.1899
celk	-11.1912
sahuje	-11.192
▁mód	-11.1941
▁medicínsk	-11.1945
▁obklopen	-11.1951
▁štvorc	-11.1959
▁porovnani	-11.1963
▁používani	-11.1964
▁zdravotný	-11.1965
▁klimatický	-11.1982
▁vyšš	-11.1985
▁národné	-11.1995
▁diagnostikova	-11.2001
▁africký	-11.2009
▁sledovani	-11.2017
▁Stač	-11.202
▁objavuje	-11.2023
▁považoval	-11.2038
▁koľk	-11.2055
dával	-11.2061
▁rozmanit	-11.2062
▁cvičeni	-11.2078
▁diplom	-11.2078
▁impulz	-11.2078
▁injekci	-11.2078
▁izoláci	-11.2078
▁klasifik	-11.2078
▁recyklova	-11.2078
▁republik	-11.2078
▁transplantáci	-11.2078
▁trojuholník	-11.2078
▁žralok	-11.2078
▁Centr	-11.2078
▁Rozmýšľa	-11.2078
▁diód	-11.2078
▁okruh	-11.2078
▁spontánn	-11.2078
▁tragick	-11.2078
▁webstránk	-11.2078
▁zamýšľa	-11.2078
▁Všimni	-11.2078
▁seriál	-11.2078
▁Zéland	-11.2078
▁neschopn	-11.2078
▁odporúča	-11.2078
▁podrobn	-11.2078
▁zverejni	-11.2078
▁pozostáva	-11.2078
▁zachytí	-11.2078
▁dotýka	-11.2078
▁sledujú	-11.2078
▁morálk	-11.2078
▁skryté	-11.2078
rážd	-11.2078
▁Choď	-11.2078
▁bohužia	-11.2078
▁vyhýba	-11.2078
▁pristál	-11.2078
▁náhľad	-11.2079
▁uveri	-11.2079
▁hlboký	-11.2079
▁stabiln	-11.2079
▁úsek	-11.2079
▁extra	-11.208
▁prekvapujúce	-11.208
▁animáci	-11.208
▁Vietnam	-11.208
▁úmysl	-11.2081
▁žiareni	-11.2081
▁negatívne	-11.2081
▁vášniv	-11.2081
▁múr	-11.2082
▁Kevin	-11.2082
▁vyvinú	-11.2082
▁maličký	-11.2084
▁minim	-11.2084
▁zasiahl	-11.2084
ntgen	-11.2084
▁rovin	-11.2085
▁Adam	-11.2085
▁palivo	-11.2085
▁nesmie	-11.2087
▁príchod	-11.2088
▁zaznamenáva	-11.2088
▁nemusi	-11.2089
▁Gore	-11.2089
▁výhľad	-11.209
▁uvádza	-11.209
▁Pane	-11.2091
▁tkan	-11.2091
▁nedeľ	-11.2094
▁neďalek	-11.2099
kryl	-11.21
▁Plat	-11.2102
▁čítani	-11.2106
▁štít	-11.211
▁beriem	-11.2119
▁priateľk	-11.212
▁King	-11.2121
▁potravinové	-11.2132
▁Vzal	-11.2132
▁výchov	-11.2138
▁neplat	-11.2142
▁sedia	-11.2196
▁písm	-11.22
▁priateľstv	-11.2214
▁Med	-11.2217
▁moderný	-11.2226
▁radiáci	-11.223
▁šošovk	-11.2233
▁kamero	-11.2241
▁Zmenil	-11.2246
▁zrejm	-11.2259
▁kamarátk	-11.2266
▁zdieľani	-11.228
hliadnu	-11.2288
istické	-11.2304
▁školsk	-11.2322
▁geo	-11.2335
toľko	-11.2337
metrov	-11.2344
▁spojený	-11.2357
▁politic	-11.2365
▁popred	-11.2367
▁nekon	-11.2376
▁významný	-11.2377
▁klin	-11.2381
▁rozlíš	-11.2406
▁rýchl	-11.2413
▁zvyknut	-11.2433
▁nevšim	-11.244
▁neuvidí	-11.2443
▁dovoľuje	-11.2445
▁položi	-11.2446
▁skúsil	-11.245
akúsi	-11.2457
▁dnešný	-11.2463
▁zákazník	-11.2474
▁násled	-11.2502
▁zachytil	-11.251
▁komplexný	-11.2517
konštruova	-11.2528
▁Frank	-11.2532
▁Cambridg	-11.2532
▁Paríž	-11.2532
▁Taliansk	-11.2532
▁Teszler	-11.2532
▁abstraktn	-11.2532
▁diaľnic	-11.2532
▁dobrodružstv	-11.2532
▁francúzsk	-11.2532
▁hodváb	-11.2532
▁interaktívn	-11.2532
▁korporáci	-11.2532
▁najjednoduchš	-11.2532
▁nefungoval	-11.2532
▁neúspech	-11.2532
▁pavúk	-11.2532
▁prekrásn	-11.2532
▁prevenci	-11.2532
▁pripomenul	-11.2532
▁prospech	-11.2532
▁relevantn	-11.2532
▁strašideln	-11.2532
▁týždenn	-11.2532
▁zhluk	-11.2532
▁Nobelov	-11.2532
▁kresťan	-11.2532
▁vydavateľ	-11.2532
▁Boston	-11.2532
▁rozpozna	-11.2532
▁vyrobí	-11.2532
▁reaguje	-11.2532
▁zabúda	-11.2532
▁práčk	-11.2532
▁vychováva	-11.2532
▁vybudoval	-11.2532
▁umýva	-11.2532
▁sklenen	-11.2532
▁uchováva	-11.2532
▁zneuži	-11.2532
▁oxid	-11.2532
▁štvrť	-11.2532
▁Získa	-11.2532
▁Začnem	-11.2532
▁dekád	-11.2532
▁nalieha	-11.2533
▁obidv	-11.2533
▁premiér	-11.2533
▁hyper	-11.2533
▁strýk	-11.2533
▁znalost	-11.2533
▁Nájde	-11.2533
▁pizz	-11.2533
▁lebk	-11.2533
▁väzň	-11.2533
▁nedokázal	-11.2533
▁klávesnic	-11.2533
▁toxín	-11.2533
▁rebel	-11.2533
▁oživ	-11.2533
▁skrytý	-11.2533
▁nahnevan	-11.2533
▁disp	-11.2533
▁Rozdiel	-11.2534
▁poďakova	-11.2534
▁výprav	-11.2534
▁skór	-11.2534
▁natočil	-11.2534
▁vzdelávací	-11.2534
▁oceľ	-11.2535
▁James	-11.2535
▁Nechcel	-11.2535
▁vozík	-11.2536
▁srand	-11.2536
ifikova	-11.2536
▁Lester	-11.2537
▁titulk	-11.2537
▁130	-11.2538
▁nerovnosti	-11.2538
▁leteck	-11.2538
▁Musi	-11.2538
▁dokončil	-11.2542
▁oddeli	-11.2542
▁semienka	-11.2545
▁pokut	-11.2546
▁pravidlo	-11.255
▁teší	-11.2552
▁tras	-11.2561
▁tón	-11.2561
▁dopln	-11.2572
▁Opä	-11.2579
PA	-11.2579
▁obran	-11.2581
▁produktívn	-11.2581
▁rôzn	-11.2593
pád	-11.2603
stvu	-11.2603
▁zišl	-11.2606
▁voľný	-11.2617
▁psychológov	-11.2618
▁pripojil	-11.2621
pomeň	-11.2639
▁Mier	-11.2659
▁výhr	-11.2668
▁nerobí	-11.2692
▁zaoberajúc	-11.2694
▁Nemohl	-11.2697
▁vyskytuj	-11.2724
▁zvláda	-11.2727
▁nezastav	-11.2748
▁rozdelil	-11.2761
tvorené	-11.2782
▁kopc	-11.2787
▁obleč	-11.2792
▁umelec	-11.2794
▁najhorš	-11.2795
▁dlhodobé	-11.2797
▁položí	-11.2799
▁objavujú	-11.281
dôver	-11.2812
kultúr	-11.2812
árske	-11.2818
▁sebeck	-11.2819
▁poľnohospodár	-11.2863
▁náhl	-11.2865
rezal	-11.2875
▁všimnú	-11.29
▁modrý	-11.2911
behnú	-11.2917
▁výstavb	-11.2921
▁hudobný	-11.2928
▁Západn	-11.2928
stoj	-11.2932
▁prispie	-11.2942
▁zasiah	-11.2953
iacim	-11.2963
tesn	-11.2967
▁mozgový	-11.2983
optim	-11.3006
▁nasledoval	-11.3006
▁Atlant	-11.3006
reproduk	-11.3008
▁profesi	-11.3008
osfér	-11.3008
▁krimináln	-11.3008
▁zozbiera	-11.3008
▁Amazóni	-11.3008
▁Arktíd	-11.3008
▁Ministerstv	-11.3008
▁Potreboval	-11.3008
▁Rwand	-11.3008
▁Thajsk	-11.3008
▁bonus	-11.3008
▁chobotnic	-11.3008
▁dodržiava	-11.3008
▁elektrón	-11.3008
▁melódi	-11.3008
▁mimozemšťan	-11.3008
▁riskantn	-11.3008
▁uplynul	-11.3008
▁vertikáln	-11.3008
▁vyjednáva	-11.3008
▁vyprodukova	-11.3008
▁vysvetľova	-11.3008
▁úsudk	-11.3008
▁behavioráln	-11.3008
▁betón	-11.3008
▁desaťročí	-11.3008
▁merítk	-11.3008
▁nukleárn	-11.3008
▁originál	-11.3008
▁Chápe	-11.3008
▁Najlepši	-11.3008
▁Pomoc	-11.3008
▁bariér	-11.3008
▁garáž	-11.3008
▁Štyri	-11.3008
▁konzervatívn	-11.3008
▁umrie	-11.3008
▁zápach	-11.3008
▁nálepk	-11.3008
▁Učiteľ	-11.3009
▁kostol	-11.3009
▁rozširova	-11.3009
▁hormón	-11.3009
▁bozk	-11.3009
▁vyšetrova	-11.3009
▁spolupracuje	-11.3009
▁pochopí	-11.3009
▁antén	-11.3009
▁pocíti	-11.3009
▁výnos	-11.3009
▁Zákon	-11.3009
▁Navrh	-11.3009
▁Nejde	-11.3009
▁nestane	-11.3009
▁prekoná	-11.3009
▁hýbe	-11.3009
▁šup	-11.3009
▁zastávk	-11.301
▁neboj	-11.301
▁strun	-11.3011
▁show	-11.3011
▁pirát	-11.3012
▁fajn	-11.3012
▁naznačuje	-11.3012
▁spodk	-11.3013
▁ťažb	-11.3013
onick	-11.3014
tronóm	-11.3014
▁dotyk	-11.3015
▁obmedzené	-11.3016
▁psov	-11.3017
▁spoločenstvo	-11.3019
▁rezerváci	-11.3019
▁Appl	-11.302
▁horn	-11.302
▁26	-11.3021
strelil	-11.3022
▁pohodln	-11.3023
zvlád	-11.3023
▁Homo	-11.3025
▁Nick	-11.3027
▁minc	-11.3029
▁okná	-11.3029
▁vybudovan	-11.3031
▁šed	-11.3032
▁vystúpil	-11.3035
▁usporiadani	-11.3035
▁chud	-11.3041
▁vareni	-11.3044
▁smsk	-11.3058
▁ovplyvnen	-11.3062
▁nerovnosť	-11.3065
▁Cher	-11.3074
▁podmien	-11.3084
▁komár	-11.3085
▁skontrolova	-11.3091
▁odborníc	-11.3131
▁popísa	-11.3136
▁robotick	-11.3147
▁organ	-11.3149
▁vyhrá	-11.3157
▁Použi	-11.3168
▁závislosť	-11.3177
▁káb	-11.3186
▁tabuľ	-11.3198
▁prinášajú	-11.3209
východnej	-11.3214
▁podpísa	-11.3233
▁kmeňový	-11.3238
▁rozdeli	-11.3264
▁zaveden	-11.3269
▁postihnutý	-11.3269
hadzova	-11.3283
▁napísan	-11.3285
ukazoval	-11.329
▁majet	-11.3302
ťažká	-11.3303
▁Použil	-11.3316
▁presnosť	-11.332
▁poznani	-11.3326
▁predstaviteľ	-11.3327
▁poskytujú	-11.3338
pádn	-11.3369
jazd	-11.339
▁Uvedom	-11.3399
▁5000	-11.34
▁zaklada	-11.3404
EH	-11.3422
poznáva	-11.3424
▁konani	-11.343
▁morský	-11.3432
▁zvykl	-11.3435
▁západný	-11.3445
▁existujúc	-11.3455
▁vyvolal	-11.3459
prekl	-11.3462
▁porazi	-11.3469
▁nedokonč	-11.3484
nesiem	-11.3491
▁týždňo	-11.3495
ojaci	-11.3506
▁elektro	-11.3507
▁školské	-11.3508
▁Arduino	-11.3508
▁Cassini	-11.3508
▁Nehovorím	-11.3508
▁Premýšľa	-11.3508
▁dopamín	-11.3508
▁dynamick	-11.3508
▁iPhone	-11.3508
▁infarkt	-11.3508
▁infekci	-11.3508
▁integrova	-11.3508
▁kompromis	-11.3508
▁koncentráci	-11.3508
▁krídla	-11.3508
▁múzeu	-11.3508
▁nervózn	-11.3508
▁paradox	-11.3508
▁stvorenia	-11.3508
▁nevezme	-11.3508
▁reagujú	-11.3508
▁televízn	-11.3508
▁vyriešen	-11.3508
▁Bibli	-11.3508
▁Približ	-11.3508
▁inovatívn	-11.3508
▁Človek	-11.3508
▁nečakan	-11.3508
▁editor	-11.3509
▁golf	-11.3509
▁planet	-11.3509
▁uvidi	-11.3509
▁ľahšie	-11.3509
▁kolaps	-11.3509
▁Black	-11.3509
▁potvrdzuj	-11.3509
▁veľkolep	-11.3509
▁Movemb	-11.3509
▁Malediv	-11.3509
▁deviat	-11.3509
▁litrov	-11.3509
▁zberač	-11.3509
▁laser	-11.3509
▁poprosi	-11.3509
▁zápch	-11.3509
▁ľúto	-11.3509
▁Lesterland	-11.3509
▁logik	-11.3509
▁rozhrani	-11.3509
▁mikrobiáln	-11.3509
▁Priemern	-11.3509
▁Včel	-11.3509
▁pečen	-11.3509
láča	-11.3509
▁diét	-11.3509
▁zaútoč	-11.3509
▁nepríd	-11.351
▁tlačiarn	-11.351
▁úct	-11.351
▁čitateľ	-11.351
▁útoči	-11.351
▁slum	-11.3511
▁lalok	-11.3511
▁premiet	-11.3511
▁fér	-11.3512
▁spotrebiteľ	-11.3512
▁rozpoznáva	-11.3512
▁sestričk	-11.3513
▁Čísl	-11.3514
▁chodník	-11.3515
▁pekl	-11.3515
▁vonkajšie	-11.3517
▁berú	-11.3519
▁nižšie	-11.3519
▁vkus	-11.3519
▁gest	-11.3524
▁plač	-11.3524
▁pohľadnic	-11.3527
▁bezpeči	-11.3527
▁Bank	-11.3528
▁budovani	-11.3529
sadzova	-11.353
▁bitk	-11.3538
vládajú	-11.3545
▁zapojil	-11.355
▁turist	-11.3554
▁Treti	-11.3555
▁operačn	-11.3557
▁spojil	-11.3558
▁tekutin	-11.3579
IE	-11.3585
▁kupova	-11.3592
iger	-11.3596
▁islamsk	-11.3604
▁celkovo	-11.3616
platil	-11.3626
lley	-11.3627
▁ženský	-11.3629
▁odober	-11.3663
▁sadnú	-11.3663
▁zúčastnil	-11.3668
▁definovan	-11.3668
▁vzrast	-11.3697
▁otočil	-11.3698
▁zriedkav	-11.3703
▁interpretova	-11.3716
▁Otvor	-11.373
fúk	-11.3741
kôr	-11.3758
ovité	-11.3769
▁narodeni	-11.378
▁kresli	-11.3783
kúkoľ	-11.3795
▁zniči	-11.3804
▁vytvárani	-11.3807
▁vojen	-11.3819
▁pochopiteľn	-11.383
▁prijateľn	-11.3832
▁Brit	-11.3836
očkova	-11.3839
Z	-11.384
lekt	-11.3842
▁preprav	-11.386
▁testovan	-11.3865
▁zdvihnú	-11.3886
▁kaviarn	-11.3887
▁zapnut	-11.389
▁toľk	-11.3908
▁posad	-11.3919
▁necháva	-11.3923
▁Snaž	-11.393
▁uloži	-11.3972
▁nerovn	-11.3995
tlačil	-11.4015
▁semien	-11.4021
▁detský	-11.4031
▁učebn	-11.4031
▁mláďa	-11.4032
prospešn	-11.4035
▁Bangladéš	-11.4035
▁Encelad	-11.4035
▁Hollywood	-11.4035
▁Philip	-11.4035
▁Prepáč	-11.4035
▁Výskum	-11.4035
▁absurdn	-11.4035
▁chemoterapi	-11.4035
▁chrobák	-11.4035
▁dôjd	-11.4035
▁explózi	-11.4035
▁gombík	-11.4035
▁ingredienci	-11.4035
▁karikaturist	-11.4035
▁kukuric	-11.4035
▁lokalit	-11.4035
▁maximáln	-11.4035
▁nepravdepodobn	-11.4035
▁nezabudnem	-11.4035
▁okuliar	-11.4035
▁pesticíd	-11.4035
▁predpoveď	-11.4035
▁pôžičk	-11.4035
▁reguláci	-11.4035
▁rezonanci	-11.4035
▁rituál	-11.4035
▁romantick	-11.4035
▁sprevádza	-11.4035
▁stereotyp	-11.4035
▁supermarket	-11.4035
▁trojrozmern	-11.4035
▁výdavk	-11.4035
▁zahvizdnuti	-11.4035
▁zoznámi	-11.4035
▁záblesk	-11.4035
▁záplav	-11.4035
▁šimpanz	-11.4035
▁altruist	-11.4035
▁bakteriáln	-11.4035
▁havári	-11.4035
▁odvetvi	-11.4035
▁sebavedom	-11.4035
▁usmieva	-11.4035
▁vyžadova	-11.4035
▁hniezd	-11.4035
▁jedovat	-11.4035
▁najzaujímavejš	-11.4035
▁nohavic	-11.4035
▁práš	-11.4035
▁tisícroči	-11.4035
▁vyčerpa	-11.4035
▁Brown	-11.4035
▁konzumuj	-11.4035
▁močiar	-11.4035
▁odvetil	-11.4035
▁príšer	-11.4035
▁zmizne	-11.4035
▁kortex	-11.4035
▁subjektívn	-11.4035
▁väznic	-11.4035
▁prevažn	-11.4035
▁podnebi	-11.4035
▁album	-11.4035
▁nezmenil	-11.4035
▁Poslal	-11.4035
▁ohýba	-11.4035
▁Koniec	-11.4035
▁odmietnu	-11.4035
▁status	-11.4035
▁kráľovstv	-11.4035
▁Dostane	-11.4035
▁zmäten	-11.4036
▁prehnan	-11.4036
▁jablko	-11.4036
▁vynecha	-11.4036
▁kamoš	-11.4036
▁vybuch	-11.4036
▁Exp	-11.4036
▁lezc	-11.4036
▁priepas	-11.4036
▁obežn	-11.4037
▁škodliv	-11.4037
▁fosílny	-11.4038
▁každoročn	-11.4038
▁uteka	-11.4038
▁Tretí	-11.404
▁Dokázal	-11.404
kryje	-11.4041
▁interpretáci	-11.4041
▁rýchlejší	-11.4042
▁fyzikálne	-11.4042
▁rúr	-11.4043
▁monitorova	-11.4044
▁háčik	-11.4045
▁Will	-11.4045
▁sprch	-11.4045
▁publikoval	-11.4047
▁Evan	-11.4048
▁Dill	-11.4048
▁obmedzený	-11.4048
▁Vybral	-11.4048
▁tuniak	-11.405
▁objem	-11.4051
▁kráľovn	-11.4052
▁hocičo	-11.4054
▁nevinn	-11.4058
▁pozemk	-11.4061
síl	-11.4062
▁srdcové	-11.4065
▁dôstojn	-11.4067
▁dočasn	-11.408
▁Cest	-11.4081
končení	-11.4084
južnej	-11.4122
▁susedstv	-11.4146
▁hlin	-11.4147
▁prijati	-11.4151
▁varova	-11.4151
▁zjav	-11.4155
hrnul	-11.4155
▁postavičk	-11.416
▁skleníkový	-11.4182
▁vyučovani	-11.4192
IP	-11.4199
študuj	-11.4206
▁ovládani	-11.4219
▁zadrža	-11.4235
▁dovolil	-11.4244
30	-11.4254
▁presnejši	-11.4255
▁pomysli	-11.4267
žívajú	-11.4281
▁získani	-11.4317
▁dôchod	-11.4326
dokončen	-11.4327
▁dosiahnuti	-11.4329
15	-11.434
▁želani	-11.4369
blízk	-11.4396
danej	-11.4411
▁úžas	-11.442
bývajú	-11.4439
jedno	-11.4442
▁schopnost	-11.4447
▁pozorujem	-11.4457
▁Vytvor	-11.4494
▁vlák	-11.4514
▁zodpovedal	-11.4522
▁dôstojnos	-11.4556
opred	-11.4558
opatr	-11.4563
▁čís	-11.4566
hádza	-11.4583
▁strel	-11.4588
▁2,5	-11.459
▁Chicag	-11.459
▁Fénixov	-11.459
▁Krátk	-11.459
▁Spomína	-11.459
▁Tanzáni	-11.459
▁astronaut	-11.459
▁baseball	-11.459
▁bezdrôtov	-11.459
▁biodiverzit	-11.459
▁decembr	-11.459
▁dômyseln	-11.459
▁elegantn	-11.459
▁fantázi	-11.459
▁frustrovan	-11.459
▁genocíd	-11.459
▁harappsk	-11.459
▁hurikán	-11.459
▁kriminalit	-11.459
▁októbr	-11.459
▁procedúr	-11.459
▁príspevk	-11.459
▁seriózn	-11.459
▁tehotenstv	-11.459
▁vegetarián	-11.459
▁vyskúšal	-11.459
▁zúfalstv	-11.459
▁Švajčiarsk	-11.459
▁šalát	-11.459
▁špekul	-11.459
▁Hovoria	-11.459
▁atraktívn	-11.459
▁dodávk	-11.459
▁geografick	-11.459
▁hospodárn	-11.459
▁pátra	-11.459
▁referen	-11.459
▁slizovit	-11.459
▁spoľahliv	-11.459
▁vzostup	-11.459
▁zamestnáva	-11.459
▁údržb	-11.459
▁High	-11.459
▁humor	-11.459
▁napäti	-11.459
▁striekačk	-11.459
▁súčiast	-11.459
▁vyšetreni	-11.459
▁zlyhá	-11.459
▁Holandsk	-11.459
▁pesničk	-11.459
▁pochopení	-11.459
▁unaven	-11.459
▁Mexick	-11.459
▁dážď	-11.459
▁hrôz	-11.459
▁Polovic	-11.459
▁majiteľ	-11.459
▁synapsi	-11.459
▁Ježiš	-11.459
▁scenár	-11.459
▁vypestova	-11.459
▁Count	-11.459
▁mlyn	-11.459
▁Susan	-11.459
▁najčastejš	-11.459
▁Pokús	-11.459
▁čarovn	-11.459
▁Havaj	-11.459
▁cudzinc	-11.4591
▁pohlavn	-11.4591
▁Vezme	-11.4591
▁dôveryhodn	-11.4591
▁severovýchodn	-11.4591
▁nerozumel	-11.4591
▁investuj	-11.4591
▁výbuch	-11.4591
▁vystúpeni	-11.4591
▁prevrat	-11.4591
▁Dylan	-11.4591
▁uznáva	-11.4591
▁Pozor	-11.4591
▁pretrváva	-11.4591
▁výťah	-11.4591
▁neurobí	-11.4591
▁pump	-11.4591
▁vracia	-11.4591
▁kamión	-11.4591
▁Páči	-11.4591
▁gang	-11.4591
sudok	-11.4591
▁hypo	-11.4591
▁ocitnú	-11.4591
▁vyzýva	-11.4591
hydro	-11.4591
▁kostn	-11.4592
▁rozmnožova	-11.4592
▁výrok	-11.4592
▁okres	-11.4592
▁Požiadal	-11.4592
▁žiak	-11.4592
▁poňati	-11.4592
▁úprav	-11.4592
▁Peter	-11.4593
▁Bell	-11.4593
▁Lásk	-11.4593
▁strieľa	-11.4593
▁vražd	-11.4594
▁strih	-11.4594
▁ramen	-11.4595
▁palub	-11.4595
▁pestr	-11.4595
▁kostr	-11.4596
▁dobrovoľníc	-11.4596
▁ďalekohľad	-11.4597
▁uviedl	-11.4598
▁rias	-11.4599
▁index	-11.4599
pravili	-11.4599
▁Ivan	-11.46
▁únik	-11.4601
▁zavolá	-11.4604
▁žetón	-11.4604
▁vizualizáci	-11.4604
▁rozmanitosť	-11.4611
▁Petr	-11.4612
▁zanieten	-11.4614
prezen	-11.4615
▁uvažujem	-11.4616
▁Číta	-11.4622
▁videohr	-11.4627
▁uvažovani	-11.4631
ght	-11.4642
▁naivn	-11.4643
▁financovani	-11.4647
▁robotik	-11.4657
matik	-11.4662
▁vlákno	-11.4664
▁vznikn	-11.4668
pleti	-11.4674
rastie	-11.4684
▁preukáza	-11.4685
▁zohna	-11.4705
▁prostried	-11.4716
▁plodin	-11.4734
hôd	-11.4756
▁spozná	-11.4758
▁módn	-11.4769
DG	-11.4782
▁Uvidí	-11.4793
▁dokazuj	-11.4802
▁námest	-11.4804
▁spomien	-11.4805
▁Britsk	-11.4818
▁koláč	-11.4822
čítal	-11.4823
▁neočakáva	-11.484
▁cestovani	-11.4841
sťahoval	-11.4843
čividne	-11.4881
tvorený	-11.4886
▁samc	-11.4891
ysvetlím	-11.4915
percentn	-11.4931
maľoval	-11.5007
▁pozr	-11.5008
▁meniac	-11.5018
▁jún	-11.5073
šade	-11.5087
▁námorn	-11.5125
▁ovplyvn	-11.5152
▁Žij	-11.5158
kročil	-11.5159
▁Spojen	-11.5165
▁nenávis	-11.5171
▁Pracuj	-11.5173
▁inšpiruj	-11.5177
eographic	-11.5179
mbiciózn	-11.5179
▁Bassem	-11.5179
▁DVD	-11.5179
▁Florid	-11.5179
▁Higgsov	-11.5179
▁Jupiter	-11.5179
▁Mahmúd	-11.5179
▁Technológi	-11.5179
▁absolvova	-11.5179
▁anonymn	-11.5179
▁chôdz	-11.5179
▁detekci	-11.5179
▁diskrimin	-11.5179
▁fanúšik	-11.5179
▁inštitút	-11.5179
▁kontajner	-11.5179
▁kontroverzn	-11.5179
▁kúzel	-11.5179
▁membrán	-11.5179
▁nahrádza	-11.5179
▁najbohatší	-11.5179
▁nevyrieši	-11.5179
▁nevyzerá	-11.5179
▁návnad	-11.5179
▁osamote	-11.5179
▁oslobodi	-11.5179
▁oznámil	-11.5179
▁paradajk	-11.5179
▁podozriv	-11.5179
▁tlieska	-11.5179
▁vystrašen	-11.5179
▁zdokumentova	-11.5179
▁zdôrazni	-11.5179
▁zhromaždi	-11.5179
▁akceptuj	-11.5179
▁ambasád	-11.5179
▁kritik	-11.5179
▁nerozpráva	-11.5179
▁praktik	-11.5179
▁vlastníctvo	-11.5179
▁zlúčen	-11.5179
▁švajčiarsk	-11.5179
▁krátkodob	-11.5179
▁minerál	-11.5179
▁poukazuje	-11.5179
▁domnienk	-11.5179
▁Pozerá	-11.5179
▁sprostredkova	-11.5179
▁vlhk	-11.5179
▁zrýchlen	-11.5179
▁Kepler	-11.5179
▁ochorie	-11.5179
▁zmiznú	-11.5179
▁Grónsk	-11.5179
▁účasť	-11.5179
▁William	-11.5179
▁Sleduj	-11.5179
▁Žid	-11.5179
▁umelkyň	-11.5179
▁príznak	-11.5179
▁drôt	-11.5179
▁napodobni	-11.5179
▁úpadk	-11.5179
▁náznak	-11.5179
▁Wall	-11.5179
▁zvonk	-11.5179
▁Zavolal	-11.5179
▁slečn	-11.5179
▁odohral	-11.5179
▁modul	-11.5179
▁obézn	-11.5179
▁paliva	-11.5179
▁dilem	-11.5179
▁polievk	-11.5179
▁kačic	-11.5179
▁znameni	-11.5179
▁uvoľni	-11.5179
▁Grace	-11.5179
▁dopyt	-11.5179
▁odhodlani	-11.5179
▁vznáša	-11.5179
▁vymieňa	-11.5179
▁zahanb	-11.518
▁zamrzn	-11.518
▁odchýl	-11.518
▁uvedomeni	-11.518
▁exotick	-11.518
▁premieňa	-11.518
▁Kongres	-11.518
▁veliteľ	-11.518
▁napadne	-11.5181
▁bábätká	-11.5182
▁mláďatá	-11.5182
▁Albert	-11.5182
▁zisťova	-11.5183
▁Iste	-11.5183
▁nedovol	-11.5184
▁zdravší	-11.5184
▁kladie	-11.5185
▁príkaz	-11.5186
▁odobra	-11.5191
▁molekulárn	-11.5196
▁vojsk	-11.5198
▁klip	-11.5198
▁pokazi	-11.5201
▁treťo	-11.5207
▁tuct	-11.5209
schvál	-11.5213
▁Tesl	-11.5223
▁Jenn	-11.5238
▁zabitý	-11.5261
▁uverejnil	-11.5261
▁zabije	-11.5265
▁aktivovan	-11.5279
níctvo	-11.5287
▁bohatstv	-11.529
▁nakresli	-11.5308
formujú	-11.5315
▁puto	-11.5333
korene	-11.5356
▁skladá	-11.5369
▁nastan	-11.5387
▁vtáč	-11.5395
▁podnikateľsk	-11.5408
žiaci	-11.5428
▁klamstv	-11.5489
▁masívne	-11.5493
plánoval	-11.5499
▁púšť	-11.5521
▁jedál	-11.5524
▁ekonóm	-11.557
stavím	-11.5668
▁prikáza	-11.5672
▁nevyuži	-11.5674
▁podstúpi	-11.5701
▁poskytl	-11.573
nezvyčajn	-11.5792
eportér	-11.5802
▁Univers	-11.5804
▁Flickr	-11.5804
▁Kolumbi	-11.5804
▁Manhattan	-11.5804
▁Medzinárodn	-11.5804
▁Množstvo	-11.5804
▁Vyskúša	-11.5804
▁Vyzeral	-11.5804
▁adaptáci	-11.5804
▁anatómi	-11.5804
▁asfalt	-11.5804
▁charakteristik	-11.5804
▁exponenciáln	-11.5804
▁fajčeni	-11.5804
▁február	-11.5804
▁fluktuáci	-11.5804
▁gravitačn	-11.5804
▁križovatk	-11.5804
▁multivesmír	-11.5804
▁nelegáln	-11.5804
▁nepôjd	-11.5804
▁pripravuje	-11.5804
▁prosperit	-11.5804
▁prudk	-11.5804
▁reflex	-11.5804
▁regulova	-11.5804
▁taliansk	-11.5804
▁urýchľovač	-11.5804
▁vymýšľa	-11.5804
▁vynalieza	-11.5804
▁vyrozpráva	-11.5804
▁zrýchľuje	-11.5804
▁Španielsk	-11.5804
▁židovsk	-11.5804
▁živočíšne	-11.5804
ysokoškolsk	-11.5804
▁Dizajn	-11.5804
▁Latinsk	-11.5804
▁Neandertálc	-11.5804
▁bezdomovc	-11.5804
▁brazílsk	-11.5804
▁demografick	-11.5804
▁federáln	-11.5804
▁iPad	-11.5804
▁kozmológ	-11.5804
▁nenásiln	-11.5804
▁nesmrteľn	-11.5804
▁obsiahnu	-11.5804
▁okrúhl	-11.5804
▁problematick	-11.5804
▁víkend	-11.5804
▁Miesto	-11.5804
▁Násled	-11.5804
▁gramotn	-11.5804
▁mamogram	-11.5804
▁zapríči	-11.5804
▁maternic	-11.5804
▁nečakal	-11.5804
▁peňaženk	-11.5804
▁pozmeni	-11.5804
▁zhnusen	-11.5804
▁oranžov	-11.5804
▁vyspel	-11.5804
▁Solly	-11.5804
▁napredova	-11.5804
▁brutáln	-11.5804
▁prieduch	-11.5804
▁Pravidl	-11.5804
▁odhalí	-11.5804
▁ohromen	-11.5804
▁imunit	-11.5804
▁Skúma	-11.5804
▁vzrástl	-11.5804
▁Vráť	-11.5804
▁sedadl	-11.5804
▁blesk	-11.5804
▁knižk	-11.5804
▁prekvapujúco	-11.5804
▁ironick	-11.5804
▁škvrn	-11.5804
▁vyliez	-11.5804
▁životopis	-11.5804
▁okien	-11.5804
▁svadb	-11.5804
▁robení	-11.5804
▁South	-11.5804
▁Cieľ	-11.5804
slúcha	-11.5804
▁stručn	-11.5804
▁obličk	-11.5804
▁kolízi	-11.5804
▁otrok	-11.5804
▁obálk	-11.5804
▁roztrha	-11.5804
well	-11.5805
▁aktuáln	-11.5805
▁nezmení	-11.5805
▁terorizmus	-11.5805
▁Green	-11.5805
▁vráť	-11.5805
▁tajomstvá	-11.5805
▁burz	-11.5805
▁pruh	-11.5805
▁opatreni	-11.5805
▁sobot	-11.5806
▁vesel	-11.5806
▁hliník	-11.5806
▁čísel	-11.5807
▁oblek	-11.5807
▁tašk	-11.5807
▁Bush	-11.5807
▁Beck	-11.5807
▁ležia	-11.5809
▁zraneni	-11.5809
▁fór	-11.581
▁ukry	-11.581
▁denník	-11.581
▁rádiové	-11.581
▁bicyk	-11.581
▁označil	-11.5811
▁kyber	-11.5811
▁palic	-11.5812
▁Niekoľk	-11.5812
▁Web	-11.5812
▁stredisk	-11.5814
▁nezvyčajné	-11.5815
▁kresb	-11.5817
▁zabezpečen	-11.5818
členen	-11.5819
▁Nepotrebujem	-11.5822
▁trénoval	-11.5822
▁predmest	-11.5824
▁posteľ	-11.5824
▁krvav	-11.583
▁roztoč	-11.583
▁nepamät	-11.5835
▁najdlhš	-11.584
▁variáci	-11.5845
▁Apoll	-11.5845
▁nízkym	-11.5854
▁maličkos	-11.5856
▁rádiový	-11.5858
štin	-11.5862
▁zasiahnu	-11.5871
zobrazuje	-11.5907
▁Rozhodl	-11.5919
▁zvyšova	-11.592
▁oblečení	-11.5937
mýlil	-11.5958
▁krč	-11.5973
▁dôverova	-11.5974
hodinov	-11.6031
▁lepš	-11.6039
▁Používaj	-11.6053
trón	-11.612
▁prežije	-11.6146
▁myln	-11.6148
▁neočakávan	-11.6177
▁opusten	-11.6184
▁položen	-11.6209
plň	-11.6253
ložený	-11.6258
kontakt	-11.6277
▁štatist	-11.6327
▁autizm	-11.6347
▁rán	-11.6353
▁nemyslí	-11.6355
▁obyvate	-11.6416
onečne	-11.6455
pravujú	-11.646
▁kláves	-11.647
▁World	-11.647
▁Fibonacci	-11.647
▁Mliečn	-11.647
▁Sledoval	-11.647
▁Texas	-11.647
▁Zvyš	-11.647
▁automobil	-11.647
▁beznádejn	-11.647
▁brigád	-11.647
▁definuje	-11.647
▁eliminova	-11.647
▁foťák	-11.647
▁hoväd	-11.647
▁improvizova	-11.647
▁najmladš	-11.647
▁najrýchlejši	-11.647
▁najťažši	-11.647
▁neokortex	-11.647
▁pomôck	-11.647
▁posvätn	-11.647
▁rozozná	-11.647
▁symfóni	-11.647
▁všadeprítomn	-11.647
▁znásilnen	-11.647
▁špecializovan	-11.647
▁Porozpráva	-11.647
▁Počítač	-11.647
▁Ugand	-11.647
▁helikoptér	-11.647
▁intenzit	-11.647
▁naprogramova	-11.647
▁odstránen	-11.647
▁oslávi	-11.647
▁povolania	-11.647
▁písomn	-11.647
▁schôdz	-11.647
▁súrodenc	-11.647
▁tridsiat	-11.647
▁upozorni	-11.647
▁úboh	-11.647
▁Kanner	-11.647
▁atrament	-11.647
▁plytvani	-11.647
▁príbuzný	-11.647
▁vylúčen	-11.647
▁vynájden	-11.647
▁Karolín	-11.647
▁efektivit	-11.647
▁krádež	-11.647
▁strategick	-11.647
▁Archie	-11.647
▁povinnosť	-11.647
▁skladačk	-11.647
▁hluchý	-11.647
▁ustric	-11.647
▁výroči	-11.647
▁bavln	-11.647
▁ekológ	-11.647
▁placeb	-11.647
▁zrýchli	-11.647
▁skládk	-11.647
▁zaostren	-11.647
▁tropick	-11.647
▁personál	-11.647
▁prevzal	-11.647
▁Invest	-11.647
▁študujem	-11.647
▁Eric	-11.6471
▁stlačen	-11.6471
▁nasmerova	-11.6471
▁Fox	-11.6471
▁skrink	-11.6471
▁zruši	-11.6471
▁mliek	-11.6471
▁ochlad	-11.6471
▁pravidlami	-11.6471
▁priehľadn	-11.6471
▁zostroji	-11.6471
▁strop	-11.6471
▁zabáva	-11.6471
▁stláča	-11.6471
▁tajomn	-11.6471
▁larv	-11.6471
▁riskuj	-11.6471
▁krík	-11.6472
▁sľúbil	-11.6472
▁vystih	-11.6472
▁zdesen	-11.6472
▁návod	-11.6472
▁primitívn	-11.6472
zbroj	-11.6472
▁Rozvoj	-11.6472
▁reportér	-11.6472
▁osvieten	-11.6472
▁apríl	-11.6473
▁profil	-11.6473
▁spadne	-11.6473
▁Bežn	-11.6473
▁neistot	-11.6474
▁toalet	-11.6474
▁neveril	-11.6474
▁chlp	-11.6474
▁Stretl	-11.6475
▁spevák	-11.6475
▁zabav	-11.6476
▁ríš	-11.6476
▁juhozápad	-11.6477
▁padák	-11.6479
zverejnen	-11.648
▁šek	-11.6481
▁schválen	-11.6482
▁brzd	-11.6486
▁Doug	-11.6486
▁násilí	-11.6489
▁Kóre	-11.6491
▁chleb	-11.6496
▁Nepre	-11.6497
glad	-11.6498
▁grafik	-11.6503
▁míl	-11.6513
▁budujú	-11.652
▁marc	-11.6537
trieb	-11.654
▁prednies	-11.656
zlúči	-11.6575
▁trénovan	-11.6582
▁súprav	-11.6596
▁poľnohospodársk	-11.6602
▁Nerob	-11.6604
▁ukradnut	-11.6607
▁dozvie	-11.6628
▁stlači	-11.666
▁chodb	-11.6685
▁hodnoteni	-11.6692
▁napravi	-11.6732
▁udržuj	-11.6758
▁zapísa	-11.6844
nepokojuje	-11.6881
▁búr	-11.6882
rušené	-11.6927
▁Nemoh	-11.6928
▁Prešl	-11.6953
písaný	-11.6982
▁Nechaj	-11.7001
▁spusten	-11.7005
pozera	-11.7024
▁rešpektova	-11.713
▁Zastav	-11.7152
▁postih	-11.7165
RI	-11.7169
▁výsad	-11.7173
▁majstr	-11.7184
▁konzerv	-11.7185
konzumáci	-11.7185
▁Anonymous	-11.7185
▁Bhután	-11.7185
▁Kambodž	-11.7185
▁Kopernik	-11.7185
▁komponent	-11.7185
▁mládež	-11.7185
▁ospravedln	-11.7185
▁popremýšľa	-11.7185
▁povzbudi	-11.7185
▁prvočísla	-11.7185
▁štadión	-11.7185
vzbudzuje	-11.7185
▁Akadémi	-11.7185
▁Aristotel	-11.7185
▁Entropi	-11.7185
▁Himaláj	-11.7185
▁Nezálež	-11.7185
▁Vesmír	-11.7185
▁Vysiela	-11.7185
▁Watson	-11.7185
▁absolvent	-11.7185
▁bezvýznamn	-11.7185
▁deforestáci	-11.7185
▁disciplín	-11.7185
▁dvíha	-11.7185
▁elektród	-11.7185
▁enormn	-11.7185
▁enzým	-11.7185
▁frustráci	-11.7185
▁harmóni	-11.7185
▁hierarchi	-11.7185
▁homosexuál	-11.7185
▁inštitucionáln	-11.7185
▁inštrukci	-11.7185
▁končatin	-11.7185
▁kreditn	-11.7185
▁laptop	-11.7185
▁lotéri	-11.7185
▁ministerk	-11.7185
▁neobmedzen	-11.7185
▁nepatrí	-11.7185
▁neurologick	-11.7185
▁nevšíma	-11.7185
▁nezamestnan	-11.7185
▁orientáci	-11.7185
▁pracovisk	-11.7185
▁rehabilitáci	-11.7185
▁televízor	-11.7185
▁utečenec	-11.7185
▁uvoľňuj	-11.7185
▁uzavrie	-11.7185
▁vitamín	-11.7185
▁vnúčatá	-11.7185
▁vplýva	-11.7185
▁zaregistrova	-11.7185
▁úsmev	-11.7185
▁časopriestor	-11.7185
▁ďaľší	-11.7185
▁Šanghaj	-11.7185
▁štipendi	-11.7185
▁Kennedy	-11.7185
▁Naghm	-11.7185
▁náboj	-11.7185
▁tréner	-11.7185
▁uterák	-11.7185
▁zbožňuj	-11.7185
▁neurológ	-11.7185
▁odhaľuje	-11.7185
▁Dosiah	-11.7185
▁bazén	-11.7185
▁gitar	-11.7185
▁Henry	-11.7185
▁Príklad	-11.7185
▁unikátn	-11.7185
▁záťaž	-11.7185
▁mexick	-11.7185
▁Vyvinul	-11.7185
▁dodávateľsk	-11.7185
▁stvorení	-11.7185
▁netuší	-11.7185
▁pohlaví	-11.7185
▁domorod	-11.7185
▁nabáda	-11.7185
▁vyjasn	-11.7185
▁nestojí	-11.7185
▁nepokoj	-11.7185
▁ovládnu	-11.7185
▁šváb	-11.7185
▁pozadi	-11.7185
▁kopírova	-11.7185
▁ministr	-11.7185
▁diskutova	-11.7185
▁určova	-11.7185
▁udivujúc	-11.7185
▁upravova	-11.7185
▁Päť	-11.7185
▁Saudsk	-11.7185
▁výtvor	-11.7185
▁potláča	-11.7185
▁server	-11.7185
▁Chýba	-11.7185
▁živobyt	-11.7185
▁architektonick	-11.7185
▁Vznik	-11.7185
▁Jerry	-11.7185
▁potvrdil	-11.7185
▁zjednoten	-11.7185
.000	-11.7185
▁prepuk	-11.7185
▁slučk	-11.7185
▁dotknú	-11.7185
▁Mysli	-11.7185
esign	-11.7186
▁predošl	-11.7186
▁nápis	-11.7186
▁Východ	-11.7186
▁zápis	-11.7186
▁presunul	-11.7186
▁inšpirujúc	-11.7186
▁domnieva	-11.7187
▁uličk	-11.7187
▁Patri	-11.7187
▁vyslovi	-11.7187
▁Príd	-11.7187
▁ponecha	-11.7187
▁vyhynut	-11.7187
▁trápeni	-11.7188
▁označuje	-11.7188
▁džem	-11.7188
▁iskr	-11.7189
▁neškodn	-11.7189
▁ocenen	-11.719
▁nechutn	-11.719
▁vyvážen	-11.7191
▁trysk	-11.7192
erect	-11.7192
▁Bosn	-11.7194
▁predčasn	-11.7196
▁stuh	-11.7196
▁poradc	-11.7196
▁vdačn	-11.7199
▁pokazen	-11.7199
▁zmenšil	-11.7199
▁Lego	-11.72
▁zväzk	-11.7201
▁orientovan	-11.7201
pravený	-11.7202
▁vyhlásen	-11.7203
▁styk	-11.7209
cifern	-11.7211
▁Gold	-11.7217
▁stih	-11.7221
▁Vedc	-11.7226
centimetrov	-11.7226
▁vzišl	-11.7228
▁zmiešan	-11.7241
▁zaplaten	-11.7245
▁vlastnost	-11.7245
▁charakteristick	-11.726
▁školstv	-11.7262
držal	-11.7267
▁osvetleni	-11.7284
▁upraven	-11.7297
študoval	-11.7364
▁vedomost	-11.7365
▁zjaveni	-11.737
▁lacnejši	-11.738
▁nevhodn	-11.7387
▁vypnut	-11.7387
▁rozlíšeni	-11.7389
▁primát	-11.7402
vracajú	-11.7408
▁udalost	-11.7425
▁vzdáva	-11.7449
mikrobi	-11.7469
plaz	-11.7472
▁topán	-11.7522
▁zahrnut	-11.7534
▁Dlh	-11.7633
▁preveden	-11.7661
riadené	-11.7698
▁partnerstv	-11.7751
hovoril	-11.7775
▁nevráti	-11.7796
▁islam	-11.7806
▁vyvolá	-11.7809
▁kreslen	-11.7821
▁Jednoduch	-11.7855
plakal	-11.7861
▁Francúz	-11.7909
pravde	-11.7909
vrátil	-11.7922
svedčen	-11.7926
profesionál	-11.7946
▁zvláš	-11.7946
▁knižn	-11.7949
▁intelekt	-11.7953
2.0	-11.7954
šemohúc	-11.7954
▁izraelsk	-11.7954
dimenzionáln	-11.7954
▁Andrew	-11.7954
▁Blízko	-11.7954
▁Indonézi	-11.7954
▁Očakáva	-11.7954
▁Pacifik	-11.7954
▁Pokračoval	-11.7954
▁Pôvodn	-11.7954
▁Singapúr	-11.7954
▁Stanford	-11.7954
▁antropológ	-11.7954
▁arabčin	-11.7954
▁deväťdesiat	-11.7954
▁diverzit	-11.7954
▁dominantn	-11.7954
▁duglask	-11.7954
▁fascinoval	-11.7954
▁iPod	-11.7954
▁ignoruje	-11.7954
▁informovan	-11.7954
▁iniciatív	-11.7954
▁inštaláci	-11.7954
▁iróni	-11.7954
▁kapitán	-11.7954
▁kyselin	-11.7954
▁mechanik	-11.7954
▁múzea	-11.7954
▁navštevova	-11.7954
▁nepredvídateľn	-11.7954
▁nespočetn	-11.7954
▁nákres	-11.7954
▁prechádzk	-11.7954
▁prísľub	-11.7954
▁pästn	-11.7954
▁recykláci	-11.7954
▁smartfón	-11.7954
▁spochybn	-11.7954
▁stáročia	-11.7954
▁tragédi	-11.7954
▁tweet	-11.7954
▁uľahči	-11.7954
▁veterán	-11.7954
▁vráskavc	-11.7954
▁znásilnil	-11.7954
▁ďaľši	-11.7954
▁Študent	-11.7954
▁Rakúsk	-11.7954
▁Vianoc	-11.7954
▁dôkladn	-11.7954
▁kolaboratívn	-11.7954
▁kvapaln	-11.7954
▁najhlbš	-11.7954
▁najznámejší	-11.7954
▁najzákladnejš	-11.7954
▁nenávidi	-11.7954
▁nevýhod	-11.7954
▁odstraňova	-11.7954
▁opatrovateľ	-11.7954
▁opätovn	-11.7954
▁reflekt	-11.7954
▁rozširuje	-11.7954
▁vyžadujú	-11.7954
▁zaneprázdnen	-11.7954
▁Štvrt	-11.7954
▁Arábi	-11.7954
▁dôraz	-11.7954
▁krevet	-11.7954
▁obťažova	-11.7954
▁produktivit	-11.7954
▁America	-11.7954
▁Vravel	-11.7954
▁ambíci	-11.7954
▁napodobňova	-11.7954
▁naštartova	-11.7954
▁nehýb	-11.7954
▁vyliečen	-11.7954
▁čakani	-11.7954
▁Acumen	-11.7954
▁podnietil	-11.7954
▁klietk	-11.7954
▁vyčisti	-11.7954
▁úzky	-11.7954
▁Píše	-11.7954
▁Rozumie	-11.7954
▁anjel	-11.7954
▁diamant	-11.7954
▁Krajin	-11.7954
▁estetick	-11.7954
▁privíta	-11.7954
▁Sahar	-11.7954
▁nepriazn	-11.7954
▁Cochran	-11.7954
▁nevidiac	-11.7954
▁vytlačen	-11.7954
▁inovátor	-11.7954
field	-11.7954
▁Simon	-11.7954
▁mrkv	-11.7954
▁odtieň	-11.7954
▁ochorení	-11.7954
▁úžit	-11.7954
▁hroziv	-11.7954
▁poruši	-11.7954
▁Skupin	-11.7954
▁podzem	-11.7954
▁Whit	-11.7954
▁prekliat	-11.7954
▁klub	-11.7954
▁vynašl	-11.7954
▁akvári	-11.7954
▁kymatik	-11.7954
▁načúva	-11.7954
▁reprodukci	-11.7954
pláca	-11.7955
▁črt	-11.7955
▁Opýtal	-11.7955
▁hlučn	-11.7955
▁Vážn	-11.7955
▁vodcovstv	-11.7955
▁Zambi	-11.7955
▁Film	-11.7955
▁žreb	-11.7955
▁prorok	-11.7955
▁Titanic	-11.7955
vzdor	-11.7955
kombinuj	-11.7955
▁splni	-11.7955
▁otrasn	-11.7956
▁Mlad	-11.7956
▁rozdeľuj	-11.7957
▁syntetick	-11.7957
▁extern	-11.7957
šikan	-11.7957
▁Gayl	-11.7958
▁kysl	-11.7958
▁Atlantik	-11.7959
▁zhoršuj	-11.7959
▁Počkaj	-11.796
▁Nazval	-11.7962
▁rybársk	-11.7963
▁podnikaní	-11.7964
▁Vidie	-11.7965
▁tričko	-11.7967
▁ateist	-11.7972
▁nadmern	-11.7983
▁tehl	-11.8005
▁napadnut	-11.8011
▁herc	-11.8015
▁kládl	-11.8049
▁dotkl	-11.8063
pozit	-11.808
▁rusk	-11.8096
spokojný	-11.8123
nechávajú	-11.8165
▁kaviar	-11.8176
▁desaťroči	-11.8186
▁namaľova	-11.8187
speje	-11.8216
▁napojen	-11.8234
▁vážen	-11.8243
západnej	-11.8273
kreslené	-11.8348
▁chodidl	-11.8363
▁potlači	-11.8413
▁priťahuj	-11.8441
▁pôjd	-11.8513
▁zlepšen	-11.8515
▁vyučova	-11.8542
hmot	-11.8593
▁uvidí	-11.8593
pomohl	-11.8603
zrieť	-11.8616
▁vošl	-11.863
▁vytrval	-11.865
trénova	-11.8651
▁nahrá	-11.8672
▁kilometr	-11.8737
▁traum	-11.8759
▁Nepotrebuj	-11.8763
▁rezerv	-11.8768
▁rekl	-11.8783
nasledujú	-11.8784
▁Ukáž	-11.8785
asväti	-11.8787
▁Bonnet	-11.8787
▁Libanon	-11.8787
▁Nedokáž	-11.8787
▁interagujú	-11.8787
▁kritizova	-11.8787
▁luxus	-11.8787
▁moslimsk	-11.8787
▁paraleln	-11.8787
▁uprednostňuj	-11.8787
▁zhromažďova	-11.8787
rekvenčn	-11.8787
usovlasý	-11.8787
▁Arthur	-11.8787
▁Clinton	-11.8787
▁Critic	-11.8787
▁Delfín	-11.8787
▁Dospel	-11.8787
▁Egypťan	-11.8787
▁Fotograf	-11.8787
▁Inštitút	-11.8787
▁Khmér	-11.8787
▁Konkrétn	-11.8787
▁Lewis	-11.8787
▁Luther	-11.8787
▁Mohamed	-11.8787
▁Obyčajn	-11.8787
▁Pamätaj	-11.8787
▁Peking	-11.8787
▁Stephen	-11.8787
▁Warren	-11.8787
▁autobiografi	-11.8787
▁benzín	-11.8787
▁celebrit	-11.8787
▁deficit	-11.8787
▁dialóg	-11.8787
▁distribúci	-11.8787
▁fascinovan	-11.8787
▁flexibiln	-11.8787
▁ftalát	-11.8787
▁fyziologick	-11.8787
▁gramatik	-11.8787
▁gréck	-11.8787
▁infračerven	-11.8787
▁inkubátor	-11.8787
▁kalóri	-11.8787
▁katedrál	-11.8787
▁klimatizáci	-11.8787
▁konkurenci	-11.8787
▁kvantitatívn	-11.8787
▁legálne	-11.8787
▁manažment	-11.8787
▁mikrovln	-11.8787
▁mimozemsk	-11.8787
▁monarch	-11.8787
▁najvýznamnejš	-11.8787
▁nehmatateľn	-11.8787
▁neinvazívn	-11.8787
▁nemocničn	-11.8787
▁nenávidel	-11.8787
▁nepremýšľa	-11.8787
▁palestínsk	-11.8787
▁patogén	-11.8787
▁planktón	-11.8787
▁porozmýšľa	-11.8787
▁presviedča	-11.8787
▁priekopníck	-11.8787
▁prízvuk	-11.8787
▁pôsobeni	-11.8787
▁revolučn	-11.8787
▁vibráci	-11.8787
▁vysvetľujú	-11.8787
▁vznešen	-11.8787
▁zemetrasení	-11.8787
▁zodvih	-11.8787
▁zástanc	-11.8787
▁území	-11.8787
▁Bronx	-11.8787
▁Pacient	-11.8787
▁hektáro	-11.8787
▁idiot	-11.8787
▁legend	-11.8787
▁nadnárodn	-11.8787
▁napomáha	-11.8787
▁obecenstv	-11.8787
▁zlepšuje	-11.8787
▁šesťdesiat	-11.8787
pozbiera	-11.8787
▁Matematik	-11.8787
▁Melind	-11.8787
▁Seattl	-11.8787
▁august	-11.8787
▁nabúra	-11.8787
▁nedotknut	-11.8787
▁plášť	-11.8787
▁prasiat	-11.8787
▁rozobera	-11.8787
▁uplatni	-11.8787
▁zberateľ	-11.8787
▁Cooper	-11.8787
▁antibiotiká	-11.8787
▁postreh	-11.8787
▁prepáč	-11.8787
▁zarobí	-11.8787
▁Prírod	-11.8787
▁najkrajši	-11.8787
▁LOLcat	-11.8787
▁roztomil	-11.8787
▁najnižš	-11.8787
▁záchvat	-11.8787
▁Písal	-11.8787
▁babičk	-11.8787
▁úmyselne	-11.8787
▁blika	-11.8787
▁zástupc	-11.8787
▁Jazyk	-11.8787
▁Pohyb	-11.8787
▁chronick	-11.8787
▁Venuš	-11.8787
▁nesnaž	-11.8787
eustále	-11.8787
▁Kúpil	-11.8787
▁Tisíc	-11.8787
▁ročník	-11.8787
▁nemyslel	-11.8787
▁potešení	-11.8787
▁kriča	-11.8787
▁popasova	-11.8787
▁priťahova	-11.8788
▁spomalen	-11.8788
▁zabalen	-11.8788
▁zbadá	-11.8788
▁pult	-11.8788
▁Stratil	-11.8788
▁Rebecc	-11.8788
▁holandsk	-11.8788
▁pondel	-11.8788
▁odpovie	-11.8788
▁zastaran	-11.8788
▁špecialist	-11.8788
▁Číňan	-11.8788
▁Nasledujúc	-11.8788
▁optimáln	-11.8788
▁modifik	-11.8788
▁nedostatočn	-11.8788
▁spolupracovník	-11.8789
▁bled	-11.8789
▁špecial	-11.8789
▁železo	-11.8789
▁polovičn	-11.879
▁bojovník	-11.879
Káid	-11.879
▁rozvinú	-11.879
▁zosiln	-11.879
▁Základn	-11.8791
▁elitn	-11.8791
▁pestujem	-11.8791
▁etik	-11.8791
▁brneni	-11.8792
▁tepn	-11.8793
▁chopi	-11.8793
▁zobrazujú	-11.8794
▁vysloven	-11.8794
▁putuj	-11.8795
▁súvislos	-11.8796
▁zakorenen	-11.8799
▁Indián	-11.8805
▁mzd	-11.8805
▁usiluj	-11.8807
škrt	-11.8809
traumatick	-11.8816
▁podivn	-11.8817
ysvit	-11.8817
▁Barb	-11.8817
▁zreteľn	-11.8827
lonovin	-11.8847
▁preplnen	-11.8862
▁pomýli	-11.8862
▁nenašl	-11.8877
montova	-11.8886
pravidla	-11.8912
▁zajtrajš	-11.8914
▁vybuduj	-11.8972
kreslil	-11.9016
▁neustál	-11.9056
▁navrhuj	-11.9071
▁zakonč	-11.9096
▁sťahova	-11.9249
▁zmenšuj	-11.9268
označené	-11.931
▁zabudovan	-11.9317
objavený	-11.9334
▁zriedka	-11.9345
vedený	-11.9362
▁Priprav	-11.94
▁skleník	-11.9442
▁uverejn	-11.9568
▁predstaveni	-11.9609
▁vizualiz	-11.9673
▁tajomst	-11.9688
▁ekonom	-11.9689
▁fosíl	-11.9691
▁dospie	-11.9694
▁fascinuj	-11.9695
▁LOL	-11.9696
▁antibiot	-11.9696
▁Mexičan	-11.9696
▁Sputnik	-11.9696
▁archeológ	-11.9696
▁egyptsk	-11.9696
▁hybrid	-11.9696
▁podpätk	-11.9696
▁privilégi	-11.9696
▁propagand	-11.9696
▁reprezentova	-11.9696
▁transformova	-11.9696
▁transplantát	-11.9696
▁výcvik	-11.9696
▁zdôrazňuj	-11.9696
▁zemetraseni	-11.9696
▁ľúbostn	-11.9696
neštasti	-11.9696
▁Berkeley	-11.9696
▁Brooklyn	-11.9696
▁Carnegie	-11.9696
▁Honduras	-11.9696
▁Microsoft	-11.9696
▁Vivian	-11.9696
▁Woody	-11.9696
▁Zbožňujem	-11.9696
▁adaptova	-11.9696
▁biotechnológi	-11.9696
▁ceremóni	-11.9696
▁feminizmu	-11.9696
▁hnojiv	-11.9696
▁ilustráci	-11.9696
▁improvizáci	-11.9696
▁kohútik	-11.9696
▁kombinova	-11.9696
▁koncentrova	-11.9696
▁koordináci	-11.9696
▁nehybn	-11.9696
▁neobvyklé	-11.9696
▁nepatrn	-11.9696
▁nepravideln	-11.9696
▁odpúta	-11.9696
▁ojedinel	-11.9696
▁otroctv	-11.9696
▁parlament	-11.9696
▁participáci	-11.9696
▁pavučin	-11.9696
▁petíci	-11.9696
▁posudzova	-11.9696
▁premiestni	-11.9696
▁pripevnen	-11.9696
▁producent	-11.9696
▁rebríčk	-11.9696
▁rozmiestnen	-11.9696
▁skombinova	-11.9696
▁stredoškolsk	-11.9696
▁vegetáci	-11.9696
▁virtuálny	-11.9696
▁zachraňuje	-11.9696
▁zapamätá	-11.9696
▁znásilň	-11.9696
▁Štokholm	-11.9696
▁Miestn	-11.9696
▁Navštív	-11.9696
▁Rastlin	-11.9696
▁Virgin	-11.9696
▁balíčk	-11.9696
▁klebet	-11.9696
▁kongres	-11.9696
▁kričia	-11.9696
▁pokušeni	-11.9696
▁požehnan	-11.9696
▁prispel	-11.9696
▁registr	-11.9696
▁silikón	-11.9696
▁subsaharsk	-11.9696
▁vychutna	-11.9696
▁vylúči	-11.9696
▁zakriv	-11.9696
▁Pochopil	-11.9696
▁kontinu	-11.9696
▁podujati	-11.9696
▁stabilit	-11.9696
▁tróp	-11.9696
▁urbaniz	-11.9696
▁žalob	-11.9696
▁provinci	-11.9696
▁slimák	-11.9696
▁urýchli	-11.9696
▁vodopád	-11.9696
▁zahynul	-11.9696
▁videoklip	-11.9696
▁Nórsk	-11.9696
▁sudcov	-11.9696
zavreté	-11.9696
▁koreláci	-11.9696
▁rozvrh	-11.9696
▁Sylvi	-11.9696
▁rozvinul	-11.9696
▁stráven	-11.9696
▁šperk	-11.9696
▁bedrov	-11.9696
▁pekár	-11.9696
▁hovorieval	-11.9696
▁božsk	-11.9696
▁nanometrov	-11.9696
▁odozv	-11.9696
▁vydesen	-11.9696
▁Toľko	-11.9696
▁Milión	-11.9696
▁precízn	-11.9696
▁prirovna	-11.9696
▁Krás	-11.9696
▁popálen	-11.9696
▁šálk	-11.9696
▁určujú	-11.9696
▁chaotick	-11.9696
▁rytier	-11.9696
▁vyviera	-11.9696
▁migráci	-11.9696
▁Rodič	-11.9696
▁chystal	-11.9696
▁Elektri	-11.9697
▁vyučuje	-11.9697
▁rozdelím	-11.9697
▁obráten	-11.9697
▁Franklin	-11.9697
▁poobed	-11.9697
▁bádani	-11.9697
▁prehrávač	-11.9697
▁upratova	-11.9697
▁stlačí	-11.9697
▁čln	-11.9697
▁trstin	-11.9697
▁hnačk	-11.9697
▁vypoved	-11.9697
▁zisťujem	-11.9697
▁antropo	-11.9697
generuje	-11.9697
▁spomenut	-11.9697
▁Skončím	-11.9698
▁Dostávam	-11.9698
▁baterk	-11.9698
▁nenapadl	-11.9698
▁zasahova	-11.9698
▁vyťaži	-11.9699
▁osobitn	-11.9699
▁dospievani	-11.9699
▁Čiern	-11.97
▁Stredn	-11.97
▁nákazliv	-11.9701
▁odlišuj	-11.9702
▁Vojn	-11.9704
▁prepusten	-11.9705
▁úrovňo	-11.9705
▁manuál	-11.9721
▁Využíva	-11.9725
▁rozdáva	-11.9732
▁dokazova	-11.9734
▁Fyzic	-11.9736
ulárn	-11.9767
príjemné	-11.9794
▁Afric	-11.9858
▁elektrár	-11.9874
▁akustic	-11.9881
▁rozmedz	-11.9881
▁programovani	-11.9888
Hous	-11.9909
▁vypusten	-11.9967
ediac	-11.9981
▁priletel	-12.0008
▁nesmiern	-12.0072
dovšetk	-12.0106
▁zabudnut	-12.0144
▁šokovan	-12.0234
▁mučen	-12.0238
▁Zloži	-12.0247
▁neprežij	-12.0276
užívateľov	-12.0302
▁šošov	-12.0337
spôsobujú	-12.0477
dizajn	-12.0501
▁pódi	-12.0508
▁osvetl	-12.0556
▁šofér	-12.0659
▁negatív	-12.0683
primne	-12.0687
septemb	-12.0691
▁Palestín	-12.0696
▁povzbudzova	-12.0696
kryštál	-12.0696
▁Arizon	-12.0696
▁Beethoven	-12.0696
▁Beverl	-12.0696
▁Boltzmann	-12.0696
▁Bombaj	-12.0696
▁Gowanus	-12.0696
▁Guatemal	-12.0696
▁Hľadám	-12.0696
▁Morgan	-12.0696
▁Mozambik	-12.0696
▁Muhammad	-12.0696
▁Najvyšš	-12.0696
▁Nepáči	-12.0696
▁Neuveriteľn	-12.0696
▁Porovnaj	-12.0696
▁Project	-12.0696
▁Russell	-12.0696
▁Shakespear	-12.0696
▁Venezuel	-12.0696
▁basketbal	-12.0696
▁beatbox	-12.0696
▁brokolic	-12.0696
▁civilist	-12.0696
▁desatin	-12.0696
▁estetik	-12.0696
▁feministk	-12.0696
▁globalizáci	-12.0696
▁humanoid	-12.0696
▁implantova	-12.0696
▁kníhkupectv	-12.0696
▁kompozíci	-12.0696
▁kontamináci	-12.0696
▁kvapalin	-12.0696
▁manipuláci	-12.0696
▁medonosn	-12.0696
▁mravenisk	-12.0696
▁nainštalova	-12.0696
▁nepozerá	-12.0696
▁nespomenul	-12.0696
▁notebook	-12.0696
▁ochraňova	-12.0696
▁orgazmu	-12.0696
▁ovplyvňova	-12.0696
▁penicilín	-12.0696
▁poslúži	-12.0696
▁prehodnoti	-12.0696
▁problematik	-12.0696
▁prosperova	-12.0696
▁prostitúci	-12.0696
▁pôvabn	-12.0696
▁respektív	-12.0696
▁rozlúšti	-12.0696
▁rozpoveda	-12.0696
▁spracúva	-12.0696
▁sprístupni	-12.0696
▁trajektóri	-12.0696
▁vzrušeni	-12.0696
▁zavlaž	-12.0696
▁zmrzlin	-12.0696
▁zredukova	-12.0696
▁ľahostajn	-12.0696
▁štrukturáln	-12.0696
▁švédsk	-12.0696
▁DAR	-12.0696
▁Freud	-12.0696
▁Pôjd	-12.0696
▁bizarné	-12.0696
▁botanick	-12.0696
▁chaluh	-12.0696
▁chamtiv	-12.0696
▁histork	-12.0696
▁hospodársk	-12.0696
▁injekčn	-12.0696
▁introvert	-12.0696
▁kontrast	-12.0696
▁latinsk	-12.0696
▁najšťastnejš	-12.0696
▁nepretržit	-12.0696
▁ospravedlň	-12.0696
▁paradigm	-12.0696
▁plechovk	-12.0696
▁poznamenal	-12.0696
▁požičiava	-12.0696
▁päťdesiat	-12.0696
▁tepeln	-12.0696
▁traumatologick	-12.0696
▁volebné	-12.0696
▁vygenerova	-12.0696
▁zrozumiteľn	-12.0696
▁živočíšny	-12.0696
▁Dúfal	-12.0696
▁Island	-12.0696
▁kabát	-12.0696
▁mäkk	-12.0696
▁nadmorsk	-12.0696
▁odlíši	-12.0696
▁osýpk	-12.0696
▁podmorský	-12.0696
▁trubic	-12.0696
▁zachraňova	-12.0696
▁zvelič	-12.0696
▁čudova	-12.0696
▁hreben	-12.0696
▁motýľ	-12.0696
▁nepochyb	-12.0696
▁priekopník	-12.0696
▁demenci	-12.0696
▁fikci	-12.0696
▁prežití	-12.0696
▁svadobn	-12.0696
▁škatul	-12.0696
▁Podpor	-12.0696
▁kybernetick	-12.0696
▁neskúsi	-12.0696
▁predpojat	-12.0696
▁príhovor	-12.0696
▁udiera	-12.0696
▁bádateľ	-12.0696
▁kúzlo	-12.0696
▁narába	-12.0696
▁znižujú	-12.0696
▁archív	-12.0696
▁znalosť	-12.0696
▁indický	-12.0696
▁Proces	-12.0696
▁Teóri	-12.0696
▁prezentuje	-12.0696
▁výčitk	-12.0696
▁cirkv	-12.0696
riznávam	-12.0696
atolíck	-12.0696
▁zhrnú	-12.0696
▁kuchyň	-12.0696
▁Palestínčan	-12.0696
▁bielkovin	-12.0696
▁lepidl	-12.0696
▁zvisl	-12.0697
▁bábik	-12.0697
▁fialov	-12.0697
▁mizern	-12.0697
▁vianočn	-12.0697
▁neprijateľn	-12.0697
▁pesimist	-12.0697
▁Budh	-12.0697
▁zúriv	-12.0697
▁Obrovsk	-12.0697
▁Všiml	-12.0697
▁aplikuj	-12.0697
▁Považuj	-12.0697
▁terajš	-12.0697
▁potešil	-12.0698
▁Poľsk	-12.0698
▁zaťažen	-12.0698
▁majstrovsk	-12.0698
▁milimetr	-12.0701
▁zabezpečuj	-12.0703
▁sympati	-12.0704
▁Vyhrá	-12.0705
▁studn	-12.0709
▁potvrden	-12.0718
▁nepoužije	-12.0721
▁mohutn	-12.0726
strann	-12.0729
rozdeľova	-12.0735
▁socializ	-12.0755
▁Obsahuj	-12.0756
▁pochovan	-12.0812
▁neporušen	-12.0857
▁poukáza	-12.0863
▁stravovani	-12.0872
▁presťahova	-12.0884
Global	-12.1095
hryz	-12.1099
▁šialenstv	-12.1102
▁chladiac	-12.1114
požič	-12.1223
▁kolektív	-12.123
hodnotení	-12.1346
odpovedajú	-12.144
▁naplánova	-12.1507
▁orchest	-12.1571
slušn	-12.161
▁presvedč	-12.1646
▁centimet	-12.1742
▁univerz	-12.1757
ozajstné	-12.1801
▁Nasleduj	-12.1806
▁Bezpečn	-12.1807
▁Hubblov	-12.1807
▁Jacque	-12.1807
▁Okuliar	-12.1807
▁absorbova	-12.1807
▁afgánsk	-12.1807
▁fenomenáln	-12.1807
▁nezákonn	-12.1807
▁novoroden	-12.1807
▁odstrašujúc	-12.1807
▁ohodnoti	-12.1807
▁približova	-12.1807
▁príbuzné	-12.1807
▁starodávn	-12.1807
▁ušetrí	-12.1807
▁zdvíha	-12.1807
▁špirál	-12.1807
elektromagnetick	-12.1807
rtugalsk	-12.1807
▁Architekt	-12.1807
▁Chystám	-12.1807
▁Etiópi	-12.1807
▁Fantastick	-12.1807
▁Filipín	-12.1807
▁Georgetown	-12.1807
▁Hawking	-12.1807
▁Kalifornsk	-12.1807
▁Kansas	-12.1807
▁Kostarik	-12.1807
▁McDonald	-12.1807
▁Mountain	-12.1807
▁Nadžmuddín	-12.1807
▁Najdôležitejš	-12.1807
▁Najlepší	-12.1807
▁Nekonečn	-12.1807
▁Newcastl	-12.1807
▁Singapur	-12.1807
▁Slobod	-12.1807
▁Virgíni	-12.1807
▁Walmart	-12.1807
▁Zhromaž	-12.1807
▁antidepresív	-12.1807
▁astronomick	-12.1807
▁austrálsk	-12.1807
▁bioluminiscenci	-12.1807
▁definitívn	-12.1807
▁dirigent	-12.1807
▁dlhoplutv	-12.1807
▁drávidsk	-12.1807
▁dvojčatá	-12.1807
▁džirg	-12.1807
▁džungl	-12.1807
▁epizód	-12.1807
▁evidentn	-12.1807
▁expanz	-12.1807
▁francúzštin	-12.1807
▁fyziológi	-12.1807
▁galéri	-12.1807
▁generátor	-12.1807
▁hadrónov	-12.1807
▁hemisfér	-12.1807
▁hospodárstv	-12.1807
▁hriankovač	-12.1807
▁intuitívne	-12.1807
▁jogurt	-12.1807
▁kalendár	-12.1807
▁kalmár	-12.1807
▁kolagén	-12.1807
▁kontaminovan	-12.1807
▁korektn	-12.1807
▁krokodíl	-12.1807
▁krúžk	-12.1807
▁nepohodln	-12.1807
▁neuspel	-12.1807
▁oslobodí	-12.1807
▁ošetrova	-12.1807
▁pilulk	-12.1807
▁podivuhodn	-12.1807
▁prezývk	-12.1807
▁prispôsobova	-12.1807
▁progresívn	-12.1807
▁pôžit	-12.1807
▁raňajk	-12.1807
▁reportáž	-12.1807
▁roztrúsen	-12.1807
▁skeptici	-12.1807
▁spravodajstv	-12.1807
▁teoretick	-12.1807
▁ultrafialov	-12.1807
▁vietnamsk	-12.1807
▁vyškolen	-12.1807
▁vzlietn	-12.1807
▁všelijak	-12.1807
▁zabraňuj	-12.1807
▁zoskupeni	-12.1807
▁úchvatn	-12.1807
▁úkryt	-12.1807
▁Čarodejník	-12.1807
▁Štúdi	-12.1807
▁šablón	-12.1807
▁škandál	-12.1807
▁španielsk	-12.1807
▁Žiarliv	-12.1807
▁žurnalist	-12.1807
▁Islam	-12.1807
▁Mojžiš	-12.1807
▁Prekvapi	-12.1807
▁Zjavn	-12.1807
▁akadémi	-12.1807
▁interval	-12.1807
▁kompas	-12.1807
▁kyborg	-12.1807
▁najnebezpečnejš	-12.1807
▁obkľúčen	-12.1807
▁pečeň	-12.1807
▁pohotovost	-12.1807
▁poskytovateľ	-12.1807
▁skladateľ	-12.1807
▁stabiliz	-12.1807
▁vyjadrujú	-12.1807
▁vylučova	-12.1807
▁workshop	-12.1807
▁Charlie	-12.1807
▁Dôver	-12.1807
▁Porozmýšľaj	-12.1807
▁nábytk	-12.1807
▁podozren	-12.1807
▁Pomôž	-12.1807
▁Slúži	-12.1807
▁hypoték	-12.1807
▁odhaľova	-12.1807
▁ponaučen	-12.1807
▁zničujúc	-12.1807
▁Brunel	-12.1807
▁Pokračuj	-12.1807
▁kabín	-12.1807
▁podceňova	-12.1807
▁súkromí	-12.1807
▁špag	-12.1807
eboxet	-12.1807
▁bezohľadn	-12.1807
▁Slnečn	-12.1807
▁nástrah	-12.1807
▁Vymyslel	-12.1807
▁povolaní	-12.1807
▁nález	-12.1807
▁náruč	-12.1807
q	-12.2869
♪	-13.8782
!	-13.8783
–	-13.8784
Ď	-13.8785
“	-13.8786
♫	-13.8787
—	-13.8788
)	-13.8789
:	-13.879
?	-13.8791
&	-13.8792
Č	-13.8793
,	-13.8793
Š	-13.8793
