<unk>	0
<s>	0
</s>	0
▁,	-2.9015
▁.	-3.19258
a	-3.36325
i	-3.37516
o	-3.43068
e	-3.66518
▁je	-3.89963
t	-4.19665
▁in	-4.25192
▁	-4.29499
▁v	-4.39189
▁da	-4.40314
;	-4.52797
▁&	-4.53811
▁se	-4.57795
quo	-4.59438
u	-4.72437
▁na	-4.77235
jo	-4.87801
ih	-4.90676
▁ki	-4.9967
▁za	-5.01928
▁so	-5.04319
▁sem	-5.05984
▁to	-5.18138
ti	-5.29138
▁ne	-5.34492
▁bi	-5.39151
▁z	-5.48766
ega	-5.52832
mo	-5.55204
▁lahko	-5.55684
ov	-5.58095
te	-5.58103
▁bil	-5.60185
m	-5.60507
▁s	-5.61573
em	-5.63324
h	-5.65443
▁kot	-5.65839
▁To	-5.6666
▁?	-5.67542
▁In	-5.72579
▁ni	-5.82575
▁:	-5.85596
▁pa	-5.87163
▁smo	-5.98924
l	-5.99047
▁ko	-6.01172
▁po	-6.04593
en	-6.05155
▁o	-6.05288
jih	-6.05381
▁iz	-6.0825
▁od	-6.09357
▁tem	-6.10275
▁tako	-6.1126
(	-6.1169
▁)	-6.1169
š	-6.14386
r	-6.16495
v	-6.18379
▁ali	-6.2257
▁kar	-6.23903
li	-6.24154
▁do	-6.25486
▁si	-6.26402
▁vse	-6.28873
▁če	-6.29376
▁še	-6.34268
▁V	-6.36675
▁bo	-6.39882
▁A	-6.40034
▁ga	-6.40236
▁pri	-6.40641
▁tudi	-6.41303
om	-6.41401
▁nekaj	-6.4247
▁—	-6.48773
▁mi	-6.51187
j	-6.52292
▁te	-6.53054
la	-6.53377
▁kako	-6.53385
je	-6.55137
no	-6.56807
da	-6.57661
ni	-6.5938
▁zel	-6.6125
ek	-6.64047
▁ta	-6.64109
▁ljud	-6.6559
▁Ko	-6.65877
▁kaj	-6.66124
▁nis	-6.67798
▁let	-6.68172
ne	-6.68241
▁več	-6.68341
▁bom	-6.71526
▁me	-6.72555
s	-6.73558
▁vam	-6.73613
▁jo	-6.73746
kaj	-6.73859
rej	-6.78419
mpak	-6.78743
▁a	-6.79537
▁tega	-6.7977
▁ker	-6.81988
▁samo	-6.82711
na	-6.83057
▁svoj	-6.83381
▁veliko	-6.84771
▁ima	-6.84955
▁med	-6.85214
▁Če	-6.85271
č	-6.85769
-	-6.8825
▁čas	-6.91424
▁pred	-6.95698
▁S	-6.96029
ev	-6.97321
le	-6.98283
▁Ne	-6.99538
▁nas	-7.0095
▁imel	-7.03098
▁tu	-7.03114
▁bolj	-7.03205
▁naj	-7.04072
▁Za	-7.04863
▁nam	-7.06335
im	-7.07028
▁moj	-7.07702
▁naš	-7.09014
▁stvari	-7.10389
▁le	-7.10514
▁Na	-7.10769
▁način	-7.12232
▁-	-7.13468
ja	-7.13793
▁prav	-7.13824
ah	-7.15084
▁že	-7.16013
ko	-7.16062
.	-7.17877
lo	-7.18087
nes	-7.19262
koli	-7.19482
▁otrok	-7.20515
n	-7.23428
▁bodo	-7.24789
▁ste	-7.25622
▁življenj	-7.26877
▁primer	-7.27354
▁ljudje	-7.28751
▁Tako	-7.29883
daj	-7.30015
▁del	-7.30077
aj	-7.30136
▁vedno	-7.3029
k	-7.30674
▁ob	-7.30893
nje	-7.31513
▁vidi	-7.33952
p	-7.34863
▁svet	-7.35473
▁Z	-7.35671
▁vas	-7.37599
▁Smeh	-7.37801
▁Po	-7.38272
imi	-7.38374
▁k	-7.39041
▁imam	-7.39315
▁Kaj	-7.41394
▁zato	-7.41568
▁vsak	-7.42371
▁mora	-7.42427
▁svoje	-7.42961
d	-7.43572
▁svetu	-7.44371
mi	-7.44529
▁pot	-7.45745
▁moram	-7.45797
▁res	-7.4599
radi	-7.46036
el	-7.47991
ka	-7.48305
▁teh	-7.49651
▁videl	-7.50203
▁Aplavz	-7.50275
er	-7.50338
▁kjer	-7.51042
ra	-7.5125
ga	-7.54585
▁mest	-7.54942
▁vsi	-7.55437
▁gre	-7.55937
g	-7.56837
▁jim	-7.57136
z	-7.57235
▁en	-7.57797
▁začel	-7.58126
▁sta	-7.5916
▁Hvala	-7.59761
▁zgodb	-7.60765
▁dve	-7.6142
▁O	-7.61523
▁biti	-7.61822
▁stvar	-7.61874
ec	-7.63428
▁tist	-7.64226
▁saj	-7.65089
▁Ta	-7.65565
▁smeh	-7.65814
ost	-7.65993
ami	-7.66174
▁skup	-7.66303
▁Ni	-7.66651
▁ti	-7.67132
▁leta	-7.68288
▁mor	-7.68677
▁Tu	-7.68772
▁naredil	-7.69581
nih	-7.69771
▁dan	-7.70129
b	-7.72005
▁Da	-7.72123
▁dela	-7.7256
prej	-7.72703
▁bili	-7.72718
▁Lah	-7.72785
▁...	-7.73632
▁najbolj	-7.74319
va	-7.74577
▁Zato	-7.76956
▁brez	-7.77322
▁tri	-7.78002
▁jaz	-7.78758
▁njegov	-7.79362
▁P	-7.79681
prav	-7.80446
▁mu	-7.80812
▁drug	-7.82044
▁celo	-7.824
▁sam	-7.82464
▁nov	-7.82904
nja	-7.82947
▁bost	-7.83219
▁Bil	-7.83419
▁Naj	-7.83543
med	-7.84922
▁tak	-7.85061
▁Prav	-7.8513
▁naše	-7.85532
▁življenje	-7.85734
▁pomeni	-7.85988
▁eno	-7.8711
al	-7.87177
▁mislim	-7.87332
▁prvi	-7.8796
▁postal	-7.89146
ci	-7.89689
▁nek	-7.89989
▁vrst	-7.9041
▁obstaja	-7.90558
▁njihov	-7.91046
▁ena	-7.9176
▁knjig	-7.91995
▁Kako	-7.92008
▁ter	-7.9217
▁tam	-7.92243
oma	-7.94165
▁sva	-7.94719
▁!	-7.94758
▁raz	-7.95469
▁skoz	-7.95892
▁pod	-7.96164
re	-7.96787
an	-7.96843
be	-7.97109
▁dobro	-7.97525
▁pre	-7.97629
▁problem	-7.98178
▁zdaj	-7.99592
▁moje	-8.00135
▁Je	-8.00611
nega	-8.01614
▁zgodil	-8.02046
▁pravi	-8.02222
ju	-8.02987
▁malo	-8.03103
▁vem	-8.03586
▁strani	-8.0377
il	-8.03775
st	-8.04086
▁otroci	-8.04805
ve	-8.05247
▁dobil	-8.05739
▁leti	-8.06362
krat	-8.07361
veda	-8.07686
▁M	-8.08298
▁Pri	-8.08595
▁sistem	-8.10221
▁T	-8.10582
▁pride	-8.10759
▁želi	-8.11375
▁B	-8.12418
▁spremenil	-8.12421
▁milijon	-8.12487
▁pet	-8.12515
▁celic	-8.12571
▁prišl	-8.13216
ž	-8.13281
▁njih	-8.13508
či	-8.13656
▁govoril	-8.13801
apos	-8.13837
▁No	-8.14503
▁dva	-8.14749
▁vaš	-8.15073
▁drugi	-8.15384
▁popoln	-8.15889
▁dobi	-8.16514
y	-8.16982
▁nazaj	-8.17285
▁idej	-8.17399
▁Se	-8.17713
šel	-8.17816
▁velik	-8.18208
▁moral	-8.18674
▁prostor	-8.18731
▁vsem	-8.19225
▁rok	-8.19307
▁dovolj	-8.20088
▁šl	-8.206
▁Moj	-8.20915
▁K	-8.21081
zaprav	-8.21545
▁H	-8.21689
bi	-8.21798
▁leto	-8.21997
▁konc	-8.22215
ski	-8.22448
in	-8.22573
▁želel	-8.2307
▁Od	-8.23151
▁jezik	-8.23418
▁odgovor	-8.23556
▁reke	-8.23719
▁težk	-8.2381
▁Mislim	-8.23921
▁Kar	-8.24045
▁različn	-8.24429
▁otroke	-8.2503
čas	-8.25188
▁pomoč	-8.25298
▁aplavz	-8.25316
▁človek	-8.25316
▁moč	-8.25346
▁njen	-8.25648
ke	-8.26181
di	-8.2662
nik	-8.26631
▁neverjetn	-8.26666
▁družin	-8.27538
▁Ali	-8.27779
uje	-8.27904
▁pomembno	-8.28218
▁splo	-8.28424
▁stran	-8.28876
▁Nis	-8.28969
▁ženske	-8.29067
▁zadnj	-8.29189
▁njim	-8.29199
▁manj	-8.29238
tem	-8.29332
f	-8.29413
▁večin	-8.29453
čen	-8.29909
osti	-8.30226
▁žensk	-8.30418
▁misli	-8.30562
▁odstotk	-8.31145
▁okoli	-8.31622
▁kdo	-8.3164
▁možgan	-8.3203
▁mogoče	-8.32475
▁more	-8.3249
▁G	-8.33004
ma	-8.33109
▁dejansk	-8.33225
▁štiri	-8.33234
▁drugih	-8.3326
▁Vse	-8.3335
▁druge	-8.33617
▁Vs	-8.33878
pr	-8.33902
▁projekt	-8.34052
▁razlog	-8.3407
▁Še	-8.35701
▁nič	-8.35743
▁pol	-8.35983
za	-8.36016
▁ime	-8.36073
▁želim	-8.36122
▁skoraj	-8.36633
▁proti	-8.36871
▁deluje	-8.37
sk	-8.37088
▁gled	-8.37132
▁vendar	-8.3743
.000	-8.38838
c	-8.38847
▁povedal	-8.39393
▁hran	-8.3953
▁ji	-8.39534
▁mesec	-8.40082
▁naredi	-8.40512
▁vest	-8.40683
▁nima	-8.41183
▁vidim	-8.41642
▁uporablja	-8.42026
▁predstavlja	-8.42192
▁nad	-8.42267
ce	-8.42603
▁virus	-8.42717
▁naredit	-8.42776
▁postane	-8.42793
sti	-8.42815
▁glas	-8.43415
▁Ker	-8.43701
ske	-8.43811
od	-8.43886
po	-8.44264
▁precej	-8.44541
ca	-8.45387
▁tehnologij	-8.46325
če	-8.46608
▁začne	-8.46716
▁200	-8.47071
lja	-8.47172
▁prihodnost	-8.47369
▁potrebuje	-8.4792
▁Pred	-8.47921
br	-8.47976
▁svetlob	-8.483
hče	-8.48908
▁živi	-8.49052
▁pogosto	-8.49235
jev	-8.49795
pa	-8.49896
▁počne	-8.5003
▁razvoj	-8.5023
▁približn	-8.50231
▁Vsak	-8.5027
▁vprašanje	-8.5073
reč	-8.50899
▁Te	-8.50986
▁resnično	-8.51173
▁podatk	-8.51312
▁reče	-8.51359
▁film	-8.51534
▁pomaga	-8.51719
▁delo	-8.52126
nekdo	-8.52647
▁tisti	-8.52819
▁zgodi	-8.5289
▁spoznal	-8.53027
▁šol	-8.5315
▁pogled	-8.53174
▁Gre	-8.53281
▁rekl	-8.53351
▁resnici	-8.53454
ji	-8.53546
▁trenutk	-8.53865
▁možgani	-8.54006
▁tole	-8.54038
▁služb	-8.54211
▁slik	-8.54357
▁on	-8.54421
▁20	-8.54946
▁model	-8.55235
bo	-8.55472
▁vedel	-8.55556
▁zdi	-8.56046
▁drugim	-8.56155
▁Potem	-8.5637
▁kdaj	-8.56485
▁vprašal	-8.56675
▁skupin	-8.56786
▁govori	-8.57052
res	-8.57632
0	-8.57632
▁držav	-8.57719
ba	-8.58119
ki	-8.58237
▁videt	-8.58381
▁W	-8.58417
▁New	-8.58421
ru	-8.58501
▁kateri	-8.58617
▁moški	-8.58719
▁podatkov	-8.58781
▁svojim	-8.58794
nem	-8.58811
▁moji	-8.5882
▁morali	-8.58901
▁Ja	-8.59101
▁U	-8.59193
▁naši	-8.59479
▁države	-8.59882
▁morem	-8.60186
▁p	-8.60211
▁Ljud	-8.60496
▁lep	-8.60606
▁Pa	-8.6066
▁občut	-8.60712
pi	-8.61015
▁oblik	-8.61171
▁vodi	-8.61464
▁govor	-8.61517
nost	-8.61543
▁ZDA	-8.61582
▁posebe	-8.61583
▁ur	-8.6163
▁D	-8.62331
▁bakterij	-8.62615
▁Mor	-8.62848
▁takrat	-8.62913
▁10	-8.62926
▁dogaja	-8.6313
treba	-8.63208
eden	-8.63509
ži	-8.63903
▁stoletj	-8.63996
▁izjemn	-8.64139
▁star	-8.64756
▁Imam	-8.64774
▁cilj	-8.64921
▁namest	-8.6503
jem	-8.65125
▁dobr	-8.65165
▁kraj	-8.65569
▁hitro	-8.65735
▁pravzapra	-8.65785
▁Ti	-8.65869
▁kje	-8.66364
▁katerih	-8.66435
ku	-8.66469
▁rekla	-8.66619
anje	-8.66786
▁dolarje	-8.66897
▁Poglej	-8.67202
▁enako	-8.67217
▁hval	-8.67245
▁ustvaril	-8.67272
▁deklet	-8.67287
▁milijard	-8.67292
▁naučil	-8.67395
▁spremeni	-8.67536
boj	-8.67891
ili	-8.68045
▁hotel	-8.68365
▁poveda	-8.68391
nju	-8.68959
ska	-8.69221
do	-8.69645
▁trenut	-8.69928
▁rad	-8.6996
▁Rad	-8.70122
▁mlad	-8.70233
▁vprašanj	-8.7045
▁Kitajsk	-8.70731
▁bolezni	-8.70732
▁pokazal	-8.70732
▁spet	-8.7076
njem	-8.70942
▁ravno	-8.7131
▁C	-8.71895
▁TED	-8.71936
▁kasneje	-8.71944
▁Pre	-8.71993
▁kultur	-8.72072
▁okrog	-8.72181
▁slišal	-8.7239
▁besed	-8.72416
▁katerim	-8.72447
▁ugotovil	-8.72562
▁čudovit	-8.72787
▁Le	-8.72807
▁Do	-8.73028
zi	-8.73108
▁dni	-8.73325
▁država	-8.73446
▁toliko	-8.7347
▁koliko	-8.73645
91	-8.73775
▁30	-8.73899
sko	-8.73918
se	-8.73972
D	-8.7399
▁novo	-8.74016
▁katero	-8.74391
▁informacij	-8.74418
▁Ob	-8.74474
▁določen	-8.75013
jte	-8.75737
▁Ves	-8.76032
▁preko	-8.76197
▁mislil	-8.76433
ali	-8.76658
kler	-8.76904
▁tedn	-8.76932
▁naprav	-8.77012
▁ostal	-8.77336
mu	-8.77852
▁delal	-8.77888
▁preveč	-8.78218
▁domov	-8.78629
▁50	-8.79027
▁težav	-8.79047
▁prej	-8.79357
▁internet	-8.79487
8	-8.79589
▁katerem	-8.7989
▁močn	-8.79913
▁slab	-8.79945
▁sreč	-8.80098
▁čez	-8.80118
▁uči	-8.80152
sta	-8.80178
ljen	-8.8028
▁zgodovin	-8.80282
ij	-8.80297
▁zdravil	-8.80615
▁E	-8.80778
del	-8.8084
▁sami	-8.81448
▁naredim	-8.81472
▁povem	-8.81496
kov	-8.8154
▁odločil	-8.81731
▁drugačn	-8.81732
93;	-8.82136
▁smrt	-8.82177
▁morsk	-8.82199
nec	-8.82213
▁pomagal	-8.82545
▁vsako	-8.82936
1	-8.83
▁katere	-8.83015
cev	-8.83427
▁noben	-8.83639
▁bistv	-8.83648
▁zame	-8.83969
▁Veliko	-8.84314
kar	-8.84456
▁računalnik	-8.84857
▁energij	-8.85204
▁enostavn	-8.85341
▁pomembn	-8.85382
▁majhn	-8.85408
▁hoče	-8.85438
▁obraz	-8.85609
▁Iz	-8.85825
▁ogromn	-8.85924
▁Mi	-8.86052
vsem	-8.86101
▁velikost	-8.86109
▁verjetno	-8.86183
▁rezultat	-8.86246
▁planet	-8.86263
▁katerega	-8.86303
▁vsaj	-8.86391
ter	-8.86762
5	-8.8693
▁število	-8.87485
čno	-8.87548
▁material	-8.87622
▁odnos	-8.87662
▁točk	-8.87956
▁oči	-8.88218
▁fant	-8.88252
leč	-8.88533
▁področj	-8.88655
▁3	-8.88813
▁velika	-8.89084
▁minut	-8.89116
▁Jaz	-8.89171
▁ženska	-8.89201
▁ustvarja	-8.89358
▁končn	-8.8955
ila	-8.89693
▁meni	-8.89725
▁denar	-8.90004
▁poti	-8.90077
2	-8.90181
▁cel	-8.90207
▁Tud	-8.9036
▁dne	-8.90373
▁raziskav	-8.90532
▁predmet	-8.90537
▁hiš	-8.90987
▁šest	-8.91451
▁pomen	-8.91456
ber	-8.91771
▁ves	-8.91806
▁mošk	-8.9185
▁mar	-8.91907
▁nog	-8.91947
▁Vendar	-8.92003
cer	-8.92103
K	-8.92113
▁nekater	-8.92359
▁slika	-8.92389
▁potrebujem	-8.92655
▁možnosti	-8.92901
▁15	-8.92984
▁nove	-8.93053
▁100	-8.93177
ič	-8.93318
▁vode	-8.93426
▁dejal	-8.93497
▁Ena	-8.93499
▁reč	-8.93502
▁mojem	-8.93503
▁odkril	-8.93544
7	-8.93584
▁denarja	-8.93938
▁Zel	-8.94105
ch	-8.94184
w	-8.9429
▁um	-8.94435
▁Nat	-8.94607
▁cepiv	-8.95011
▁razumet	-8.95286
▁barv	-8.95473
▁zgodba	-8.95499
▁sebi	-8.95523
▁sprememb	-8.95617
zu	-8.96236
▁cest	-8.96562
▁Rek	-8.96578
▁živel	-8.96617
▁zakon	-8.96624
▁razumel	-8.96661
4	-8.96661
▁potrebn	-8.96671
▁imate	-8.96924
tev	-8.97299
▁Imel	-8.97542
▁mož	-8.97629
rž	-8.97734
▁pogovor	-8.97883
▁rib	-8.98089
▁umetnost	-8.98257
3	-8.98285
▁sto	-8.98499
▁tiste	-8.98652
▁preprosto	-8.98958
▁I	-8.991
de	-8.99217
ovati	-8.99299
več	-8.99638
robe	-8.99721
▁vrat	-8.99866
▁oče	-8.9991
▁spletn	-8.99935
▁poskus	-9.00075
si	-9.00219
▁program	-9.00381
koč	-9.00387
▁njihove	-9.00559
▁takšn	-9.00682
jen	-9.00699
▁vlada	-9.00793
▁zanimiv	-9.00846
▁podobn	-9.00877
▁doma	-9.0093
▁b	-9.01127
▁uporabil	-9.01283
▁Afrik	-9.01312
▁študent	-9.01312
treh	-9.01453
▁vodo	-9.01468
▁tip	-9.01938
▁ideja	-9.02328
log	-9.02524
▁mene	-9.02581
▁nekak	-9.0291
▁globaln	-9.02951
▁povezav	-9.02951
▁preprost	-9.03014
čni	-9.03067
gr	-9.03098
▁krog	-9.03104
▁svoji	-9.03251
ža	-9.03275
▁mnogo	-9.03418
▁Sem	-9.03476
▁znan	-9.0353
▁njem	-9.03566
▁izgleda	-9.03638
emu	-9.03706
▁vir	-9.03715
bu	-9.03724
▁skupnosti	-9.03767
▁sliko	-9.0423
▁zapor	-9.04542
▁Res	-9.04611
▁vesolje	-9.04661
▁vrednost	-9.04889
▁zadnji	-9.05344
▁telo	-9.05722
▁kakšn	-9.06145
▁molekul	-9.06313
▁vzel	-9.06344
▁ustvari	-9.06409
▁enak	-9.06462
9	-9.0659
▁vlad	-9.06595
▁deset	-9.06689
▁lastn	-9.06887
▁znanost	-9.06891
▁podob	-9.06978
▁ocean	-9.07189
▁podjetj	-9.0746
▁spremembe	-9.07477
▁telefon	-9.075
lje	-9.07668
▁f	-9.07692
ork	-9.07784
▁pravim	-9.07935
▁12	-9.08022
▁kaže	-9.08041
▁rada	-9.08054
▁uspel	-9.08141
▁ponovn	-9.08146
▁povezan	-9.082
▁Vem	-9.08202
▁Nekaj	-9.09062
ica	-9.09347
id	-9.09353
▁So	-9.0955
▁avto	-9.09576
▁druga	-9.09669
▁hkrat	-9.09805
▁teden	-9.09923
nim	-9.09984
▁živali	-9.10037
▁Samo	-9.10486
▁red	-9.10502
▁storit	-9.10917
▁spreminja	-9.10978
▁strah	-9.11203
▁take	-9.11554
▁položaj	-9.11577
▁izziv	-9.11581
že	-9.11606
▁19	-9.11685
▁zavest	-9.11841
▁18	-9.11902
▁našem	-9.12352
▁dnev	-9.12354
▁možnost	-9.12375
▁Med	-9.12401
▁čisto	-9.12464
rkoli	-9.12527
▁šel	-9.12738
▁povs	-9.12786
▁Vidi	-9.12814
▁igr	-9.1291
▁mam	-9.1301
▁radi	-9.13334
▁tradicionaln	-9.13395
▁študij	-9.13395
▁fizičn	-9.13396
▁posameznik	-9.13413
▁Večin	-9.13453
C	-9.13865
▁odrasl	-9.13876
ček	-9.1393
nosti	-9.13962
▁zgradb	-9.14054
▁gor	-9.14074
▁nevron	-9.14136
▁drži	-9.14148
▁enem	-9.14257
▁noč	-9.14359
▁prijatelj	-9.14593
▁pač	-9.14664
▁načrt	-9.14759
iral	-9.14909
▁svojem	-9.15167
▁drugače	-9.15203
▁razvil	-9.15271
▁upam	-9.15288
▁kljub	-9.15298
▁rečem	-9.15402
▁vrnil	-9.15507
▁F	-9.15832
česar	-9.15882
▁enkrat	-9.16031
▁številk	-9.16559
▁boljši	-9.16939
▁teles	-9.17049
▁Obstaja	-9.17134
▁preživel	-9.17134
▁proces	-9.17135
▁luč	-9.17136
▁delu	-9.17207
▁zvezd	-9.1747
▁ju	-9.17554
▁česar	-9.17768
zem	-9.17861
▁prvo	-9.1795
▁zanima	-9.18073
▁Prvi	-9.183
ljiv	-9.18721
▁pres	-9.19007
▁avtomobil	-9.1909
▁narejen	-9.19094
▁očitn	-9.1915
▁zdrav	-9.19245
▁volj	-9.1925
▁Ima	-9.19346
ng	-9.19573
▁re	-9.19608
▁majhne	-9.1979
▁Velik	-9.19829
▁oseb	-9.19863
▁boj	-9.1989
▁točno	-9.19908
▁hočem	-9.20191
▁našl	-9.202
eno	-9.2049
▁namen	-9.2131
▁nadzor	-9.21432
▁šolo	-9.21507
▁umrl	-9.21735
▁g	-9.21753
val	-9.21881
▁kr	-9.21968
▁meri	-9.22359
▁starši	-9.22583
▁mrež	-9.22913
▁poglej	-9.23019
unaj	-9.23053
or	-9.23054
▁lepo	-9.23175
▁član	-9.23203
▁Me	-9.23245
koga	-9.23271
▁oseba	-9.23405
▁posebn	-9.23545
▁pravil	-9.23812
▁zelen	-9.23859
▁src	-9.23885
▁nekateri	-9.24036
▁imenuje	-9.24319
lepša	-9.2437
▁verjame	-9.24504
iran	-9.24734
▁naslednji	-9.24744
▁žensko	-9.24801
▁tvoj	-9.24837
▁pes	-9.24841
▁besede	-9.24978
▁zaupanj	-9.25059
▁201	-9.25088
▁Koliko	-9.25108
▁kadar	-9.25126
▁tež	-9.25282
▁Bi	-9.2531
▁delam	-9.25447
▁4	-9.25669
▁opazil	-9.26504
▁vpliv	-9.26631
▁prepričan	-9.2682
▁očet	-9.26876
▁fotografij	-9.26917
▁super	-9.27008
▁bli	-9.27064
S	-9.27087
▁začet	-9.2712
▁generacij	-9.27142
▁omogoča	-9.27142
▁zemljevid	-9.27142
▁sekund	-9.27142
▁devet	-9.27143
▁imenovan	-9.27143
▁Začel	-9.27151
▁CA	-9.27158
▁počel	-9.27168
šča	-9.27185
▁HIV	-9.27187
▁izkušnj	-9.27232
▁Takrat	-9.27304
▁političn	-9.27357
▁mama	-9.27755
▁običajn	-9.27771
▁postavil	-9.28103
▁pozna	-9.282
kr	-9.28203
▁podatki	-9.28393
▁stroj	-9.28444
▁rešil	-9.28799
▁vede	-9.28848
▁organizacij	-9.28979
▁okolj	-9.29186
▁Tam	-9.29191
sa	-9.29285
▁zrak	-9.29301
▁stotin	-9.29303
▁živim	-9.29337
▁zgodnj	-9.29419
▁tr	-9.2946
▁mnenj	-9.29538
▁par	-9.29545
redu	-9.29581
go	-9.29639
▁deloval	-9.2969
▁edin	-9.29734
▁hitrost	-9.29788
alu	-9.30024
▁celotn	-9.30025
▁mislit	-9.30317
▁Nikol	-9.30818
▁poskušal	-9.30819
sto	-9.30993
▁glavn	-9.30995
▁L	-9.31027
▁oz	-9.31057
▁pove	-9.31191
▁sporočil	-9.31199
▁odziv	-9.31249
▁zagotov	-9.31295
▁vsakem	-9.313
▁poln	-9.31317
▁pos	-9.31371
▁površin	-9.31444
▁Nekater	-9.31444
▁politik	-9.31445
▁kilometr	-9.31471
▁upanj	-9.31615
▁imen	-9.31902
▁tek	-9.31981
▁vaše	-9.32287
▁vpliva	-9.32423
▁prv	-9.32474
▁govorit	-9.32698
▁sp	-9.32814
on	-9.32883
▁os	-9.32897
▁možgansk	-9.32914
▁edini	-9.33187
▁vlog	-9.33188
▁Prv	-9.33416
▁družini	-9.33421
▁mogl	-9.33439
▁splet	-9.33443
A	-9.33466
leg	-9.33497
▁bolnišnic	-9.33666
▁čudn	-9.33666
▁socialn	-9.33668
▁Namest	-9.33683
su	-9.33789
▁pozornost	-9.33831
▁2	-9.33871
tri	-9.3394
▁sledi	-9.33993
▁On	-9.34263
▁verjamem	-9.34274
▁počnem	-9.34315
▁vsa	-9.34324
▁uporabo	-9.34335
▁zdel	-9.34404
▁dostop	-9.34587
▁Nek	-9.34944
tja	-9.34985
▁60	-9.34992
▁državi	-9.35103
▁Druga	-9.35211
▁naslednj	-9.354
njo	-9.35712
▁otrokom	-9.35736
▁neke	-9.35763
▁dekle	-9.35769
▁prijatelji	-9.35865
▁revn	-9.35909
▁matematik	-9.35938
▁dejanj	-9.3594
▁40	-9.35941
▁posnel	-9.35943
▁Leta	-9.36041
▁Ma	-9.36091
▁Raz	-9.36139
▁smer	-9.36158
nic	-9.36197
▁človeški	-9.36223
nd	-9.36468
▁odgovornost	-9.36561
▁števil	-9.36594
co	-9.36975
▁razum	-9.37055
▁tale	-9.37113
▁poslal	-9.37292
▁5	-9.37436
▁naravn	-9.37494
ljub	-9.37515
▁kvadrat	-9.37716
▁najboljši	-9.37851
▁de	-9.37914
▁jasno	-9.37992
loži	-9.38045
▁družben	-9.3817
▁Evrop	-9.38264
▁oblek	-9.38277
▁sedem	-9.38294
▁sliši	-9.38295
▁Nov	-9.38325
▁razlik	-9.3855
▁km	-9.38592
▁90	-9.38779
▁vrsta	-9.38845
▁zanimivo	-9.38947
niki	-9.38956
▁drugem	-9.39045
▁družbe	-9.39197
▁dolgo	-9.39232
ed	-9.39293
▁dejstvo	-9.39353
▁boljše	-9.39424
▁njegove	-9.39587
▁odprt	-9.39625
▁nosi	-9.39709
▁rešit	-9.39734
▁zahteva	-9.39897
▁žival	-9.40119
▁Re	-9.40175
▁tisoč	-9.4061
▁obdobj	-9.40645
▁potreboval	-9.40649
čil	-9.40652
▁dr	-9.40664
▁stres	-9.40672
▁bolečin	-9.40683
▁nemogoč	-9.40706
▁mimo	-9.40761
▁drugo	-9.40869
▁korak	-9.4091
▁družba	-9.40972
▁storili	-9.41078
vali	-9.41086
besedn	-9.41128
▁razumem	-9.41215
vno	-9.4126
▁prost	-9.41517
▁skrbi	-9.41537
ste	-9.41672
M	-9.41715
▁Hočem	-9.41795
▁nalog	-9.41917
▁ja	-9.42
▁priložnost	-9.42033
▁Bo	-9.4214
lec	-9.42207
ak	-9.42472
6	-9.425
letn	-9.42614
▁op	-9.42806
▁novic	-9.4291
▁velike	-9.4297
▁dokaz	-9.42977
žen	-9.43024
▁demokracij	-9.43084
▁ulic	-9.43094
▁tisoče	-9.43241
▁živet	-9.43364
ck	-9.43401
▁isto	-9.43489
▁pripravljen	-9.43557
▁srečal	-9.43574
▁posnet	-9.43862
▁napisal	-9.43994
▁skupina	-9.44035
▁ure	-9.44065
▁glasov	-9.44185
▁vedela	-9.44301
▁sporočilo	-9.44319
▁prek	-9.44376
▁mal	-9.44485
▁boljš	-9.44534
▁zaščit	-9.44713
▁pravic	-9.44718
▁okolje	-9.45278
▁mater	-9.45279
▁učitelj	-9.45292
▁prihaja	-9.45566
▁časopis	-9.45584
▁polovic	-9.45587
▁gradi	-9.45724
▁mnog	-9.45892
▁volitv	-9.45918
▁gen	-9.46005
▁skrb	-9.46042
šeč	-9.46106
▁znanstvenik	-9.4614
▁Drugi	-9.46152
▁De	-9.46173
▁pisal	-9.46217
▁Nič	-9.46237
▁grem	-9.4636
▁žalost	-9.46455
▁vaši	-9.46495
▁gleda	-9.46536
▁Ch	-9.4663
▁jutr	-9.46782
▁dobim	-9.46907
▁religije	-9.4717
▁dvem	-9.47233
▁glasb	-9.47267
▁bral	-9.47271
čim	-9.47482
▁pristop	-9.47534
▁večer	-9.47741
▁stari	-9.47976
▁tretj	-9.47988
▁mog	-9.48041
▁sobi	-9.48064
▁Združen	-9.48148
▁otrošk	-9.48148
▁ekip	-9.48152
▁metod	-9.48161
▁plastik	-9.48169
tor	-9.48251
▁rast	-9.48294
▁osebn	-9.48315
▁pro	-9.48325
▁kos	-9.4834
▁man	-9.48355
▁bel	-9.48536
zd	-9.48594
▁igra	-9.48644
ceni	-9.48673
▁razmišljat	-9.4878
ton	-9.48789
▁delom	-9.48827
▁širi	-9.48871
▁nauči	-9.48887
▁modern	-9.4895
misel	-9.49033
▁dobri	-9.49362
▁En	-9.49393
▁igral	-9.49664
▁sme	-9.49675
▁postavi	-9.49849
▁razred	-9.49852
▁postaja	-9.49864
▁družinsk	-9.49966
▁ravni	-9.49995
▁vrh	-9.49998
nov	-9.5019
navadi	-9.502
▁delovn	-9.50429
▁dolg	-9.50469
▁obal	-9.50516
▁visok	-9.50623
ogoče	-9.50717
▁revolucij	-9.5078
▁procent	-9.5078
▁tovarn	-9.5078
▁13	-9.50787
▁grip	-9.50788
kom	-9.50801
▁gospod	-9.50806
▁narav	-9.50895
▁ostane	-9.50923
▁smisl	-9.50935
T	-9.51024
▁znanstven	-9.51119
▁nor	-9.51218
▁osem	-9.51242
▁Co	-9.51272
▁n	-9.51435
▁ven	-9.51503
▁premika	-9.51697
▁lokaln	-9.51968
▁6	-9.52321
▁črn	-9.52335
▁He	-9.5234
▁družb	-9.52351
▁poznamo	-9.52601
▁potovanj	-9.52631
▁globoko	-9.52652
▁N	-9.52726
▁kup	-9.52796
▁nami	-9.52888
▁šele	-9.52899
▁račun	-9.5317
▁kod	-9.53231
▁fizik	-9.53434
▁nasilj	-9.53474
▁Njegov	-9.53482
▁vizualn	-9.53482
▁miljard	-9.53483
▁signal	-9.53483
otraj	-9.53487
▁narod	-9.53496
ge	-9.53502
▁velja	-9.53592
▁vedo	-9.53647
▁14	-9.53881
▁resnic	-9.53922
▁najboljš	-9.54021
▁hrani	-9.54036
▁stik	-9.54114
▁Jo	-9.54204
rja	-9.5421
nsko	-9.54515
▁dobre	-9.54615
▁sanj	-9.54705
▁predstavljal	-9.54741
▁telesu	-9.54785
ico	-9.54792
zadnje	-9.54855
▁vesolj	-9.54855
▁zanj	-9.54868
▁lastnost	-9.54894
▁dokument	-9.54906
▁pogledat	-9.54934
▁vzame	-9.54955
▁čim	-9.55022
ljivo	-9.55145
▁prev	-9.55175
▁Seve	-9.5537
▁pokažem	-9.55535
▁doseg	-9.55585
▁predstav	-9.55656
▁najin	-9.55902
enkrat	-9.55933
eval	-9.55983
▁ljubezni	-9.5626
▁človeštv	-9.5626
▁napak	-9.56299
▁predavanj	-9.56304
▁trenutn	-9.5632
▁metrov	-9.56388
▁poleg	-9.56594
▁d	-9.5672
00	-9.56727
▁starejši	-9.56831
▁teorij	-9.56978
▁slabo	-9.56984
▁govorim	-9.57042
▁pogledam	-9.5705
▁Moram	-9.57105
▁izbir	-9.57212
▁energijo	-9.57316
B	-9.57551
▁avt	-9.57559
▁spremenit	-9.57595
▁kitajsk	-9.57602
▁ustavil	-9.57645
▁vesel	-9.57711
▁govorimo	-9.57849
▁obliko	-9.57955
▁poznal	-9.58033
▁ist	-9.58184
▁takoj	-9.58206
šen	-9.5829
ičn	-9.58481
nil	-9.58552
všeč	-9.58612
▁modr	-9.58655
▁vzorc	-9.58861
▁oskrb	-9.59117
▁primerjav	-9.59122
▁zvok	-9.59123
▁napačn	-9.59124
▁česa	-9.5913
▁najpomembnejš	-9.59184
▁podjetnik	-9.59186
▁uporabnik	-9.59198
▁svetovn	-9.59217
▁količin	-9.59245
den	-9.59304
▁resničn	-9.59311
▁bogat	-9.59389
▁čustven	-9.59445
česa	-9.59547
grad	-9.59636
▁visoko	-9.59798
▁sposobnosti	-9.598
▁vso	-9.5983
▁tistem	-9.59848
,	-9.59855
▁pogledal	-9.59895
▁Zemlji	-9.60128
▁c	-9.60162
▁zabav	-9.60199
▁osnov	-9.60257
▁Ri	-9.60268
▁osnovn	-9.60355
▁zadev	-9.60383
▁čudovito	-9.60471
▁roko	-9.60506
▁območj	-9.60534
▁konča	-9.60694
▁strank	-9.60709
▁učinkovit	-9.60963
▁šolsk	-9.61011
ren	-9.61014
nice	-9.61188
▁največji	-9.6135
▁podobno	-9.61496
▁desetletj	-9.61518
▁medicin	-9.61578
▁opravil	-9.61723
▁di	-9.61744
▁razmišlja	-9.61779
▁gledal	-9.61812
raz	-9.61869
▁bog	-9.61969
▁spomin	-9.61972
▁naslov	-9.61983
▁digitaln	-9.62059
▁entropij	-9.62059
▁bolezen	-9.62059
▁situacij	-9.62059
▁trgovin	-9.62059
▁napad	-9.62124
▁kamer	-9.62133
▁Izka	-9.62186
▁ok	-9.62254
▁vašem	-9.62333
vanja	-9.62378
▁kupil	-9.62381
▁človešk	-9.62391
▁uspeh	-9.62409
kal	-9.62417
▁zdravje	-9.62465
čne	-9.62482
▁brat	-9.62492
▁zn	-9.62535
▁orodj	-9.62596
▁delil	-9.62878
▁nimam	-9.6291
dar	-9.63004
▁iskal	-9.63019
▁vrhu	-9.63081
▁Mo	-9.63143
▁varn	-9.63144
▁pametn	-9.63204
▁pomislit	-9.63214
▁starost	-9.6331
▁rodil	-9.63338
▁srednj	-9.63486
▁pustil	-9.63497
ovanje	-9.63553
▁uspe	-9.63838
▁počuti	-9.63919
▁Al	-9.63973
▁pomembne	-9.64032
alni	-9.64235
ks	-9.64248
▁dol	-9.64327
▁Pro	-9.64453
▁vodil	-9.6466
znova	-9.6474
▁postaj	-9.64745
▁Ro	-9.64774
▁začnem	-9.64784
▁Si	-9.64822
ice	-9.64848
▁isti	-9.64962
▁univerz	-9.65015
▁Verjetno	-9.65089
▁angleščin	-9.65089
▁električn	-9.65089
▁iskren	-9.65089
▁kakršn	-9.65089
▁Njihov	-9.6509
▁izven	-9.65107
▁vsebin	-9.65118
▁domišljij	-9.6513
▁kak	-9.65229
▁drugačen	-9.65258
▁doseže	-9.65361
▁7	-9.65385
▁zid	-9.65595
▁storil	-9.65648
▁16	-9.65658
▁našim	-9.6567
▁trg	-9.65687
▁nesreč	-9.65824
▁Predstavljaj	-9.65902
▁nje	-9.66016
▁vid	-9.66133
▁prijateljev	-9.66328
▁odličn	-9.66433
golj	-9.66444
itev	-9.66512
▁cent	-9.66596
▁njeg	-9.66694
gen	-9.66774
▁gibanje	-9.66816
▁veselj	-9.66915
▁Li	-9.6695
▁miz	-9.67167
▁sledil	-9.67171
▁Š	-9.67257
▁Naš	-9.67315
▁stara	-9.67616
▁ženskam	-9.67628
▁največj	-9.67654
▁nevarn	-9.6774
▁izgubil	-9.67787
▁pojavil	-9.67844
▁starejš	-9.67886
▁bitj	-9.67892
▁kam	-9.67999
fi	-9.68032
▁javn	-9.68167
▁zase	-9.68181
▁strokovnjak	-9.68214
▁umrljivost	-9.68214
▁kvantn	-9.68214
▁naloga	-9.68241
▁sestr	-9.68286
▁zdravnik	-9.68336
▁dn	-9.68427
▁kriz	-9.68446
nica	-9.68507
▁str	-9.68752
▁sreča	-9.68771
▁počutil	-9.68817
▁končal	-9.68875
lom	-9.68877
▁znak	-9.69079
▁kon	-9.69162
▁Moral	-9.69226
▁uporabn	-9.69253
▁199	-9.69263
▁ustvarit	-9.6931
edno	-9.69369
▁Želim	-9.6942
▁srečn	-9.69583
▁voda	-9.69593
▁vzor	-9.69701
▁70	-9.69845
tve	-9.69905
▁večino	-9.69953
▁skupnost	-9.70085
▁izgledal	-9.70097
vil	-9.70248
▁glavo	-9.70335
▁posnetk	-9.70423
▁mnogi	-9.70577
▁20.	-9.70618
▁njihovi	-9.70656
▁sposobnost	-9.70702
raje	-9.70726
▁Zemlj	-9.7098
ujemo	-9.71045
▁vidik	-9.71072
▁pas	-9.71151
▁eni	-9.71175
▁Amerik	-9.71225
▁krat	-9.7129
▁nekom	-9.71359
▁dvajset	-9.7144
▁Biblij	-9.7144
▁finančn	-9.7144
▁struktur	-9.7144
▁John	-9.71442
▁kvad	-9.71442
▁zmag	-9.71451
▁stavb	-9.71454
▁Indij	-9.71483
▁splošn	-9.71485
▁zasebn	-9.71492
▁izraz	-9.71702
lci	-9.71736
▁tehnologija	-9.71744
▁razmišljal	-9.71779
▁posledic	-9.7182
nj	-9.71977
▁začetku	-9.72059
▁poskusil	-9.72071
▁zaveda	-9.72372
▁ozir	-9.72372
▁prosim	-9.72422
▁deli	-9.72545
▁nekakšn	-9.72744
▁Ok	-9.72829
▁Dobro	-9.72846
stan	-9.7288
zo	-9.72943
▁80	-9.72985
▁rešitv	-9.73147
P	-9.73182
▁kitajski	-9.73183
▁zadel	-9.73206
▁večji	-9.7322
▁ostali	-9.73256
▁stal	-9.73302
letnik	-9.7346
▁vojne	-9.73499
pal	-9.73991
▁priti	-9.74004
▁uspešn	-9.74134
lin	-9.74155
▁dosegl	-9.74261
▁Živ	-9.74318
▁hodi	-9.74445
▁roman	-9.74773
▁izobraževanj	-9.74773
▁populacij	-9.74773
▁revščin	-9.74773
▁okvir	-9.74773
▁zaposlen	-9.74773
▁Chris	-9.74773
▁gotovo	-9.74775
▁Titan	-9.74778
▁Povedal	-9.74781
▁sprejel	-9.74782
▁17	-9.74783
▁povzroči	-9.74793
▁odprl	-9.7481
▁amerišk	-9.74833
▁seznam	-9.74835
▁reci	-9.74842
▁prikazuje	-9.74871
▁čemer	-9.74875
▁ključn	-9.74955
▁podobe	-9.75083
▁izvaja	-9.75085
▁dvom	-9.75221
▁ust	-9.75231
▁koleg	-9.75287
O	-9.75288
▁stanj	-9.75807
▁številn	-9.75858
▁sredin	-9.75873
▁uporabimo	-9.75875
vod	-9.75881
▁naslednje	-9.76098
▁žen	-9.76185
▁letom	-9.76248
▁prosil	-9.76315
▁majh	-9.76369
▁kakš	-9.76522
▁Del	-9.76553
▁ugotovit	-9.76614
▁Tem	-9.76883
kri	-9.76907
▁porabi	-9.76933
ze	-9.76961
stvo	-9.77105
▁pomemb	-9.77166
▁najde	-9.77339
časno	-9.77348
rite	-9.77374
▁stori	-9.77557
▁spomnim	-9.77621
▁palic	-9.77679
▁organ	-9.77686
▁prepričanj	-9.77785
▁prikaz	-9.77871
▁izkušnja	-9.78074
▁oprem	-9.78218
▁laboratorij	-9.78221
▁David	-9.78222
▁omejen	-9.78222
▁podrobnosti	-9.78238
▁prva	-9.78286
▁Kdo	-9.78314
▁most	-9.7833
▁izdelav	-9.78486
▁sokol	-9.78524
▁vrt	-9.78555
▁prepozna	-9.78555
▁sram	-9.78697
▁nizk	-9.78704
▁stopnj	-9.78757
▁čuti	-9.78763
▁medicinsk	-9.7879
▁uporabljam	-9.78825
▁Ste	-9.78899
▁Mar	-9.78958
▁živ	-9.78999
▁nastal	-9.79156
▁Dan	-9.79251
▁pričakoval	-9.79277
▁test	-9.79424
▁miru	-9.79657
▁pomislil	-9.79934
▁omogočil	-9.80184
der	-9.80615
▁daje	-9.80934
nimi	-9.81131
▁sedel	-9.81141
▁človeško	-9.81174
▁čaka	-9.81186
▁luknj	-9.81636
▁uro	-9.81747
▁element	-9.81793
▁ljubezen	-9.81793
▁neprestan	-9.81793
▁rdeč	-9.81793
▁muzej	-9.81794
▁današnj	-9.81795
▁prejšnj	-9.81798
▁Zadnj	-9.81801
▁temperatur	-9.81807
▁sooča	-9.81815
▁skrit	-9.81827
cu	-9.8184
ščin	-9.81849
▁psa	-9.81872
ard	-9.81874
▁karier	-9.8188
▁zasluži	-9.81891
▁elektronsk	-9.81915
▁celot	-9.81963
▁Ameriki	-9.82031
▁zapleten	-9.82067
▁njun	-9.82084
▁delce	-9.8224
jmo	-9.82241
enj	-9.82298
▁osebno	-9.82321
alno	-9.8234
▁poseg	-9.82414
▁Ed	-9.82546
▁neko	-9.82582
▁izdelk	-9.82684
▁prazn	-9.82714
izira	-9.82762
ing	-9.82808
▁nagrad	-9.8287
▁obnašanj	-9.82872
▁spol	-9.83069
▁sreče	-9.83206
▁zamisli	-9.83325
ved	-9.83371
▁strast	-9.83585
▁natančno	-9.83591
▁ustvarim	-9.83774
▁izboljša	-9.83797
▁bitje	-9.83845
▁fotografijo	-9.83897
ključno	-9.83913
▁Celo	-9.83932
▁domač	-9.83992
evanje	-9.84044
▁kriv	-9.84049
▁gledat	-9.84108
▁pripravljeni	-9.84197
▁300	-9.8424
▁smel	-9.84295
ns	-9.84296
▁čem	-9.84405
▁La	-9.84511
▁gr	-9.84513
▁opravlja	-9.84534
▁magnetn	-9.84597
▁počas	-9.84614
▁sredi	-9.84724
▁arhitektur	-9.84756
▁nosil	-9.84874
▁veliki	-9.84903
▁Tr	-9.84923
▁trud	-9.84952
ijsk	-9.8501
▁Oh	-9.85092
▁no	-9.85244
stal	-9.85267
▁proizvaja	-9.85419
zor	-9.85459
▁hud	-9.85494
▁galaksij	-9.85496
▁površj	-9.85496
▁praktičn	-9.85496
▁tehnološk	-9.85496
▁gumb	-9.85496
▁zaslon	-9.85497
▁koncept	-9.85497
▁pokazat	-9.85499
▁zgradil	-9.855
▁komunikacij	-9.855
▁25	-9.85501
▁Noben	-9.85508
▁sprejet	-9.85514
▁lun	-9.85527
▁zdravstven	-9.85598
▁9	-9.85731
▁nasilje	-9.858
▁J	-9.85819
▁opravi	-9.85847
▁opazoval	-9.85921
▁omenil	-9.85996
▁višin	-9.86059
▁izjem	-9.86133
▁Sam	-9.86184
▁občutk	-9.86262
▁prebral	-9.86281
▁sin	-9.86323
▁pokaže	-9.86476
▁mej	-9.86487
▁omrežj	-9.86527
lic	-9.86529
▁vesolja	-9.86529
▁moške	-9.86543
▁polno	-9.8669
lej	-9.86952
▁dogodk	-9.86987
▁Že	-9.87037
▁odgovoril	-9.87039
▁razliko	-9.87039
▁priložnosti	-9.87124
▁stoji	-9.87174
▁ocen	-9.87174
telj	-9.87209
▁bl	-9.87373
com	-9.87394
▁Rekla	-9.87415
▁Eno	-9.87579
▁fotografija	-9.8762
▁video	-9.87651
▁izredn	-9.8766
▁zabavn	-9.8767
▁zazna	-9.87739
pelj	-9.87765
▁nujno	-9.87788
▁sestavlja	-9.87847
▁človeške	-9.87893
▁beseda	-9.87952
▁zna	-9.87967
▁vozi	-9.87973
gred	-9.87997
▁morj	-9.88071
▁mediji	-9.88102
▁hitr	-9.88333
rku	-9.88392
▁počet	-9.8842
▁podpor	-9.8866
▁gred	-9.88747
seči	-9.88808
▁uporabi	-9.88852
pel	-9.88964
▁sprašuje	-9.89067
▁hodil	-9.89261
▁sodobn	-9.89265
vala	-9.89301
▁Facebook	-9.89342
▁anglešk	-9.89342
▁doživel	-9.89342
▁izobrazb	-9.89342
▁mednarodn	-9.89342
▁okužen	-9.89343
▁poslušal	-9.89343
▁čudež	-9.89343
▁revij	-9.89343
▁nudi	-9.89345
▁poslovn	-9.89355
▁voliln	-9.89362
▁motnj	-9.89364
▁podlag	-9.89382
▁desn	-9.89423
▁ekonomsk	-9.89427
▁kul	-9.89485
▁menim	-9.89515
000	-9.89606
▁učenje	-9.89672
▁tekoč	-9.89723
▁las	-9.89845
▁Govoril	-9.90064
▁osebe	-9.90146
koliko	-9.90157
▁Ra	-9.90181
▁rek	-9.90182
▁podjetje	-9.90217
▁trem	-9.90224
▁vprašat	-9.9029
▁razmišljam	-9.90352
▁ukvarja	-9.90373
nija	-9.90606
▁najdem	-9.90699
▁Vprašal	-9.90787
▁storimo	-9.90801
E	-9.90897
▁uporabe	-9.90975
▁preteklosti	-9.91005
▁najljubš	-9.91154
▁novica	-9.91165
▁hitrej	-9.91236
▁učil	-9.91341
▁oblikovanj	-9.91385
▁razlaga	-9.91412
▁gledam	-9.91466
▁zadeva	-9.91614
▁odločite	-9.91681
▁pamet	-9.91688
▁Tak	-9.91748
jutra	-9.91803
▁kratk	-9.9202
reči	-9.92117
▁Videl	-9.92171
▁poskuša	-9.92265
▁posebno	-9.92321
▁zunanj	-9.92796
▁pacient	-9.9294
▁pozorn	-9.93054
▁postavlja	-9.93096
▁delavc	-9.93192
▁prostora	-9.93218
▁majhno	-9.93232
▁desni	-9.93269
▁vozil	-9.93289
▁simbol	-9.93327
▁prehran	-9.9334
▁DNK	-9.93342
▁London	-9.93342
▁deklic	-9.93342
▁konflikt	-9.93342
▁povprečn	-9.93342
▁Upam	-9.93344
▁pripovedoval	-9.93345
▁Želel	-9.93345
▁izbral	-9.93347
▁omejit	-9.93353
▁kombinacij	-9.93358
▁22	-9.93368
čka	-9.93371
▁baz	-9.93395
▁mrežnic	-9.93581
▁poklical	-9.93585
▁polj	-9.93592
▁prodaja	-9.93687
▁leden	-9.93785
kogar	-9.93813
▁neznan	-9.94037
▁ra	-9.94086
▁prve	-9.94088
▁Spoznal	-9.941
▁poročil	-9.94163
▁prizna	-9.94434
▁uporabit	-9.94519
▁raste	-9.94571
veste	-9.94769
nu	-9.94843
▁dom	-9.94891
▁Sko	-9.94921
▁pu	-9.94928
▁mes	-9.94972
▁sab	-9.95021
▁rak	-9.95163
▁spozna	-9.95203
▁najboljše	-9.95233
▁religij	-9.95251
▁besedam	-9.95644
▁zvez	-9.95658
▁dnevn	-9.95817
▁delit	-9.9583
▁levi	-9.95889
son	-9.96051
▁sobo	-9.96257
▁traja	-9.96278
▁misel	-9.96279
▁potreb	-9.96286
▁Gan	-9.96324
▁razvija	-9.96522
▁Star	-9.96539
▁Ka	-9.96671
dva	-9.96819
▁potencial	-9.96891
▁vodj	-9.97061
▁pošilja	-9.97095
ški	-9.97129
▁San	-9.97313
▁odkritj	-9.97337
njej	-9.97378
▁javno	-9.97388
▁svobod	-9.97431
▁zapis	-9.97488
▁arhitekt	-9.97498
▁duš	-9.97504
▁aktivn	-9.97504
▁afrišk	-9.97509
▁iluzij	-9.97509
▁konferenc	-9.97509
▁osupljiv	-9.97509
▁predsednik	-9.97509
▁presenetljiv	-9.97509
▁pisarn	-9.97509
▁feministk	-9.97509
▁Brez	-9.9751
▁Najbolj	-9.9751
▁verjel	-9.9751
▁Hotel	-9.97511
▁nahaja	-9.97513
▁okus	-9.97515
▁zbral	-9.97518
▁plu	-9.97518
▁sosesk	-9.97526
▁zmer	-9.97532
▁malce	-9.97548
▁kampanj	-9.97561
▁sončn	-9.97562
▁umetnik	-9.97566
stavljen	-9.97584
▁slav	-9.97626
▁prinesl	-9.97634
stva	-9.97679
▁priča	-9.97693
▁pošt	-9.97745
▁trend	-9.97755
▁ljubosumj	-9.97835
▁pričakovanj	-9.97848
▁preb	-9.97871
▁združi	-9.97915
▁sredstv	-9.98048
▁upravlja	-9.98055
▁medijsk	-9.98227
▁žrtv	-9.98379
▁nenad	-9.98385
▁Kje	-9.9839
▁družbo	-9.98426
ss	-9.98429
▁avtizm	-9.98448
▁duh	-9.98515
▁vlak	-9.9853
▁pono	-9.98624
▁tistim	-9.98697
▁napred	-9.98774
▁celem	-9.98947
▁pripoved	-9.99043
▁nadaljeval	-9.99056
▁Daj	-9.99096
▁porab	-9.99159
▁odloči	-9.9916
▁led	-9.99196
jša	-9.99246
gel	-9.99411
▁poved	-9.99505
▁medij	-9.99717
▁postop	-9.99745
rjem	-9.99784
skem	-9.99831
▁lev	-9.99842
I	-9.99934
▁verjet	-10.0002
▁8	-10.0004
▁Več	-10.0006
▁srce	-10.0009
ver	-10.0009
▁staln	-10.0026
▁Kam	-10.0044
▁zmanjša	-10.0051
zalo	-10.0058
▁same	-10.0069
▁sočutj	-10.0072
kel	-10.0074
▁pomenil	-10.0079
▁učim	-10.0085
▁pojavi	-10.0088
▁želj	-10.009
▁standard	-10.0095
▁temelji	-10.0113
▁ustanov	-10.0123
▁raka	-10.0128
▁televizij	-10.013
▁skrivnost	-10.014
▁Googl	-10.0145
troci	-10.0161
▁Tri	-10.0171
▁mati	-10.0171
▁lok	-10.0181
▁Svet	-10.0185
▁ekonomij	-10.0186
▁povzroča	-10.0186
▁prebivalstva	-10.0186
▁Ugotovil	-10.0186
▁Južn	-10.0186
▁vsebuje	-10.0186
▁verig	-10.0186
▁odločitve	-10.0186
▁itd	-10.0187
▁razložit	-10.0187
▁gradnj	-10.0188
▁ptic	-10.0189
▁izkazal	-10.0189
▁ostaja	-10.019
▁potoval	-10.0191
▁znanj	-10.0191
▁nečem	-10.0194
irati	-10.0195
▁načel	-10.0199
▁slu	-10.0202
▁Spe	-10.0213
▁obiskal	-10.0214
▁glavi	-10.0216
▁izboljšal	-10.0216
▁dojenčk	-10.0222
nski	-10.0229
▁podjet	-10.023
▁stopinj	-10.0232
▁kav	-10.0249
▁organsk	-10.0252
▁Pove	-10.0283
▁povabil	-10.0286
▁per	-10.0288
▁pritisk	-10.0292
▁strahovi	-10.0297
▁vanj	-10.0308
▁napravi	-10.0312
raš	-10.0316
▁opazovanj	-10.0319
ravnost	-10.0322
▁vrsti	-10.0325
▁državn	-10.0337
lne	-10.035
mur	-10.0357
▁osm	-10.0362
sel	-10.0373
▁učenc	-10.0386
▁kuha	-10.0391
▁poskušam	-10.0414
▁zaznava	-10.0425
iram	-10.0432
▁uporabljal	-10.0453
▁dejstv	-10.0456
▁predstavljat	-10.0466
ške	-10.049
▁možno	-10.0491
R	-10.0496
▁poveča	-10.0502
▁iste	-10.0512
▁št	-10.0515
▁teorija	-10.0523
▁dobe	-10.0524
▁trik	-10.0545
▁razmerj	-10.0545
▁Skup	-10.055
▁reši	-10.0552
▁kakor	-10.0554
▁številka	-10.0557
▁pogum	-10.0561
▁R	-10.0563
▁mnenje	-10.0583
▁čutil	-10.0586
▁kulturn	-10.0598
▁robot	-10.0602
▁ovir	-10.0608
▁izbira	-10.0611
▁oglas	-10.0614
▁vroč	-10.0622
▁ravna	-10.0624
▁mobiln	-10.0633
▁papir	-10.0633
▁črt	-10.064
▁Američan	-10.064
▁Afganistan	-10.064
▁identitet	-10.064
▁različic	-10.064
▁Goljat	-10.064
▁priljubljen	-10.064
▁nevidn	-10.064
▁šport	-10.064
▁kemičn	-10.064
▁širok	-10.0641
▁Kenij	-10.0641
▁greben	-10.0641
▁pošlje	-10.0642
▁interes	-10.0643
▁prenaša	-10.0643
▁pričel	-10.0644
▁spomni	-10.0646
▁ceno	-10.0646
▁grozljiv	-10.0648
▁razumevanje	-10.0662
cem	-10.0664
▁Oče	-10.0669
▁srčn	-10.0674
▁razprav	-10.0675
▁delovanj	-10.0685
▁občinstvo	-10.0691
▁smem	-10.0697
▁navad	-10.0698
▁slovarj	-10.0705
▁šola	-10.0705
▁umre	-10.0707
▁reševanj	-10.0714
▁oblast	-10.0715
▁javnost	-10.0718
▁išče	-10.072
▁neskončn	-10.0729
▁mas	-10.0736
▁škod	-10.0779
▁globok	-10.0783
▁naučit	-10.0799
▁najlepš	-10.081
▁prepreči	-10.0814
▁bodi	-10.0814
▁razlika	-10.0817
▁Ime	-10.082
▁zdravi	-10.0836
▁sistema	-10.0842
▁ujema	-10.0845
ional	-10.085
▁moškim	-10.0873
▁najljubši	-10.0896
▁kakšne	-10.0896
vzdol	-10.0898
▁nočem	-10.0902
▁Bodi	-10.0904
▁kratko	-10.0921
▁zaključ	-10.0924
▁tla	-10.0955
▁Tim	-10.0958
▁plačal	-10.0971
▁užival	-10.0972
▁delavce	-10.0976
▁koleno	-10.0994
ični	-10.1
▁milijarde	-10.1001
▁zdravljenje	-10.1005
▁sprožil	-10.1016
▁bori	-10.1016
▁lastno	-10.1017
▁izgubi	-10.103
▁dejavnosti	-10.1034
▁iščem	-10.1034
▁slovar	-10.1049
▁odgovorn	-10.105
▁umetn	-10.105
▁industrij	-10.1054
▁ples	-10.1075
ric	-10.1076
▁poklic	-10.1079
▁preživi	-10.1084
▁škatl	-10.1085
▁razmišljanje	-10.11
▁čustv	-10.11
▁Pet	-10.1106
koraj	-10.1109
▁motor	-10.111
renutn	-10.1115
▁Stvar	-10.1116
▁atmosfer	-10.1116
▁diagnoz	-10.1116
▁matematičn	-10.1116
▁nasprotj	-10.1116
▁navzgor	-10.1116
▁ogljik	-10.1116
▁pomanjkanj	-10.1116
▁rojstv	-10.1116
▁usmerjen	-10.1116
▁babic	-10.1116
▁kilogram	-10.1116
▁dreves	-10.1117
▁pripravil	-10.1117
▁bank	-10.1117
▁približa	-10.1117
▁Končn	-10.1117
▁sovražnik	-10.1118
▁Svoj	-10.1118
▁ladj	-10.1118
▁Severn	-10.1119
▁korupcij	-10.112
▁raziskovalci	-10.112
▁Menim	-10.1121
▁198	-10.1121
▁grest	-10.1122
▁dvigne	-10.1123
▁Zame	-10.1139
▁septembr	-10.1141
▁potres	-10.1147
▁varnost	-10.1147
▁vtis	-10.115
ang	-10.115
▁Glasb	-10.1151
▁močnejš	-10.1152
stvu	-10.1153
▁obe	-10.1155
▁zadnje	-10.1162
▁pojm	-10.1166
▁tvoje	-10.1172
▁vojna	-10.1179
▁ona	-10.1181
▁opazi	-10.119
▁delci	-10.119
▁Dejal	-10.1191
▁ujet	-10.1195
▁mali	-10.1207
▁starše	-10.1213
▁Bog	-10.1226
▁znanje	-10.1239
▁vsakdanj	-10.1249
časom	-10.1251
▁1	-10.1257
▁Ju	-10.1258
▁največ	-10.1262
▁pogovarjal	-10.1268
podaj	-10.127
▁spremenim	-10.1283
▁veš	-10.1292
▁zahodn	-10.1294
▁glav	-10.1299
and	-10.13
▁Naši	-10.1314
▁najb	-10.1325
▁čutim	-10.1326
tro	-10.1333
▁Moje	-10.1342
▁Potrebujem	-10.1353
▁postopk	-10.1354
▁gore	-10.1365
▁predstavljaj	-10.1369
▁sprejema	-10.1369
▁predel	-10.1373
gla	-10.1374
▁žena	-10.1374
▁slabe	-10.1384
odil	-10.1385
▁zemlj	-10.1387
▁začetk	-10.1394
tudi	-10.1398
▁žep	-10.1403
▁Pomisli	-10.1408
▁letnik	-10.1414
▁boril	-10.1443
▁novinarj	-10.1447
▁naprava	-10.1451
▁lažj	-10.1455
stavil	-10.1459
ujem	-10.1472
▁ostale	-10.1497
▁postavite	-10.151
ster	-10.1517
▁kamn	-10.1528
▁obisk	-10.1532
▁plat	-10.1546
▁groz	-10.1561
▁lov	-10.1565
▁trdi	-10.157
▁dosežem	-10.1571
▁sprememba	-10.1572
▁vzorce	-10.1576
▁var	-10.1577
▁ogled	-10.1579
▁Šel	-10.158
▁večje	-10.1585
▁grozn	-10.1587
▁bližnj	-10.1594
▁napoved	-10.1595
▁posta	-10.1598
▁divj	-10.16
▁plošč	-10.1602
▁drugačne	-10.1609
▁žal	-10.1612
▁posamezn	-10.1612
▁Pos	-10.1612
▁povzročil	-10.1613
▁komunicira	-10.1616
▁Japonsk	-10.1616
▁Kitajc	-10.1616
▁Pokazal	-10.1616
▁elektrik	-10.1616
▁kontekst	-10.1616
▁literatur	-10.1616
▁operacij	-10.1616
▁orožj	-10.1616
▁poimenoval	-10.1616
▁privošči	-10.1616
▁vznemirjen	-10.1616
▁zločin	-10.1616
▁dragocen	-10.1616
▁prihran	-10.1616
▁prenos	-10.1617
▁kovin	-10.1617
▁kap	-10.1617
▁ročn	-10.1617
▁oddaljen	-10.1617
▁vojak	-10.1617
▁postelj	-10.1618
▁Vzemi	-10.1618
▁drag	-10.1619
▁Str	-10.1622
▁Prosi	-10.1623
ističn	-10.1625
▁ene	-10.1632
▁izum	-10.1635
bel	-10.1639
▁kratkim	-10.1641
▁predlog	-10.1647
▁zraven	-10.1649
▁ujel	-10.1657
▁Zdi	-10.1663
▁Drug	-10.1665
▁noro	-10.1669
▁delovanje	-10.1669
▁mer	-10.1673
▁tehnik	-10.1675
▁kož	-10.1676
ry	-10.1676
▁prinese	-10.1681
▁kost	-10.1683
▁prejel	-10.1688
lani	-10.1691
▁mr	-10.1696
▁pogumn	-10.1704
▁učink	-10.1705
mor	-10.1706
▁izdeloval	-10.1723
▁sproži	-10.1724
▁razstav	-10.1745
▁Naredil	-10.1753
▁zbira	-10.1789
vesti	-10.1789
▁spoln	-10.1799
dim	-10.1805
▁bar	-10.1824
▁objavil	-10.1829
▁tveganj	-10.1831
▁pomembni	-10.1832
▁glasu	-10.1832
▁sodelovanje	-10.1839
▁ponavlja	-10.1844
gled	-10.1845
▁up	-10.1862
▁Zahodn	-10.1874
▁glasovanj	-10.1895
▁vrednot	-10.1914
▁Misli	-10.1918
▁krasn	-10.1932
izm	-10.1946
les	-10.1949
▁prometn	-10.1953
▁korist	-10.1958
▁odkrit	-10.1963
▁sedm	-10.1979
▁prst	-10.1992
▁naravno	-10.1998
mej	-10.2004
▁500	-10.2023
▁izračun	-10.2032
▁raziskovanje	-10.2035
▁dvo	-10.2041
▁vzgoj	-10.2048
▁sosed	-10.2053
▁nobene	-10.2085
▁pravo	-10.2085
▁računalnišk	-10.21
▁pregled	-10.2104
▁plava	-10.2106
▁oblikovanje	-10.2106
▁policij	-10.2108
▁učin	-10.2113
▁mikro	-10.2114
▁stanovanj	-10.2124
▁izbruh	-10.2141
▁navdih	-10.2141
▁SMS	-10.2143
▁Saturn	-10.2143
▁izkušen	-10.2143
▁naključj	-10.2143
▁prebivalce	-10.2143
▁restavracij	-10.2143
▁Švedsk	-10.2143
▁agencij	-10.2143
▁normaln	-10.2143
▁Otrok	-10.2143
▁upošteva	-10.2143
▁umetnišk	-10.2143
▁povezal	-10.2143
▁najstnik	-10.2143
▁tehničn	-10.2143
▁darilo	-10.2143
▁enačb	-10.2144
▁mačk	-10.2144
▁oznak	-10.2144
▁krožnik	-10.2144
▁prehod	-10.2145
▁Kater	-10.2146
▁poveže	-10.2146
▁Nimam	-10.2147
▁21.	-10.2147
najst	-10.2149
▁imun	-10.215
▁razvit	-10.215
▁Postal	-10.2154
▁notranjost	-10.2155
▁oklep	-10.2155
▁Bud	-10.2157
▁veter	-10.2158
▁otok	-10.2159
▁prinaša	-10.2159
▁mikrob	-10.217
▁koles	-10.2171
her	-10.2171
▁Dve	-10.2174
▁pik	-10.218
▁opisal	-10.2181
▁vizij	-10.2182
▁moža	-10.2182
▁časovn	-10.2199
land	-10.2211
▁list	-10.2212
▁aktivnost	-10.2214
▁razširi	-10.2231
▁izgovor	-10.2233
▁Vod	-10.2234
▁bistvo	-10.2248
▁zlat	-10.2257
▁sporazumevanj	-10.2272
▁dosti	-10.2278
▁Mislil	-10.2288
vanje	-10.229
▁vojni	-10.2293
▁zamenja	-10.2295
▁prijazn	-10.2299
▁odvisn	-10.2303
▁poteka	-10.2306
▁prihajajo	-10.2312
▁koz	-10.2317
dec	-10.2324
vrst	-10.2343
▁pozabil	-10.2348
▁imenu	-10.2351
▁seks	-10.2351
▁Kakšn	-10.2358
▁uniči	-10.2362
▁Pomislil	-10.2368
▁oblika	-10.2375
cije	-10.2379
ejše	-10.2386
▁pusti	-10.2393
▁Cel	-10.2406
▁opazuje	-10.2434
▁zanimal	-10.2435
▁razmišljanj	-10.2442
▁vredn	-10.2458
▁odloča	-10.246
▁možn	-10.2464
▁večj	-10.2464
▁spomnit	-10.2468
▁dostopn	-10.2468
▁vide	-10.2475
▁dogod	-10.2477
▁snov	-10.2511
▁dotika	-10.2527
▁hčer	-10.2544
deset	-10.2549
▁takšne	-10.255
zna	-10.2558
▁točka	-10.2566
piše	-10.2568
▁vzhodn	-10.2568
▁povezani	-10.2569
kakor	-10.2572
▁žrt	-10.2583
▁sodelovanj	-10.2618
▁prednost	-10.2624
▁občinstv	-10.2637
▁Tist	-10.2652
▁narave	-10.2657
▁filozof	-10.2665
▁izjav	-10.2687
▁vojn	-10.2691
▁obstoj	-10.2694
▁Kalifornij	-10.2698
▁dotaknil	-10.2698
▁funkcij	-10.2698
▁kriminal	-10.2698
▁premakne	-10.2698
▁šimpanz	-10.2698
▁otroštv	-10.2698
▁skrajn	-10.2698
▁avtobus	-10.2698
▁sijalk	-10.2698
▁dolžnost	-10.2698
▁kazni	-10.2698
▁dialog	-10.2698
▁tekmovanj	-10.2698
▁zelenjav	-10.2699
▁ubil	-10.2699
▁edinstven	-10.2699
▁podjetništv	-10.2699
▁prispel	-10.2699
▁ločen	-10.2699
▁premic	-10.2699
▁tečaj	-10.2699
▁izgubljen	-10.27
▁Razlog	-10.2701
▁23	-10.2702
▁superprevodnik	-10.2703
▁vnuk	-10.2703
▁pozitivn	-10.2703
▁mrtv	-10.2705
▁jezer	-10.2705
▁mešan	-10.2707
▁Prišl	-10.2708
▁obseden	-10.2712
▁dolar	-10.2718
▁prvotn	-10.2719
▁nasiln	-10.2721
▁skrbel	-10.2731
▁noče	-10.2737
▁delov	-10.2737
▁analizira	-10.2742
liko	-10.2743
▁tok	-10.2745
▁poučevanj	-10.2746
▁verjetnost	-10.275
▁Mam	-10.2756
acijo	-10.2757
▁opic	-10.2763
▁odlično	-10.2766
▁Fi	-10.2767
▁vzgaja	-10.2768
▁deni	-10.2771
▁robu	-10.2775
▁zmore	-10.2781
▁nevarnost	-10.2784
▁pis	-10.2785
▁modrost	-10.2792
▁stranišč	-10.2794
▁nastop	-10.2794
naša	-10.2805
▁spopad	-10.2808
▁oblikoval	-10.2808
▁manjši	-10.2812
▁večkrat	-10.2815
▁razmer	-10.2817
▁obrnil	-10.2818
▁kjerkoli	-10.2827
šču	-10.283
▁streh	-10.2833
▁sonc	-10.2851
▁sočutje	-10.2854
▁njegovem	-10.2858
▁Vide	-10.2871
▁oblikuje	-10.2877
▁izvedel	-10.2881
▁voditelj	-10.289
▁Sp	-10.2904
▁Dr	-10.2904
▁pojav	-10.2905
zija	-10.2908
▁ključ	-10.2911
▁natančn	-10.292
▁ustavi	-10.2939
▁javne	-10.2949
▁menil	-10.2953
▁samem	-10.296
▁javni	-10.2961
▁sodelova	-10.2971
▁okno	-10.2982
N	-10.2988
▁določene	-10.2989
▁spominja	-10.2994
▁Vidim	-10.2999
▁predstavil	-10.3
▁kri	-10.3004
ljubil	-10.3029
▁nebo	-10.303
▁filma	-10.3034
▁premaga	-10.3036
▁srečanj	-10.304
▁spomnil	-10.304
▁medije	-10.306
▁snovi	-10.3067
▁ostalim	-10.3075
▁znanstveni	-10.308
vis	-10.3081
tvo	-10.3085
▁smisel	-10.3085
▁dele	-10.3115
▁last	-10.3138
▁vedenje	-10.3156
▁višj	-10.3159
amp	-10.3166
▁ohranja	-10.3172
▁ljubi	-10.3173
▁orodje	-10.3178
▁pozabit	-10.3192
▁vol	-10.3197
▁Deja	-10.3217
▁posledica	-10.3217
▁predvideva	-10.3226
▁And	-10.3233
▁skuša	-10.3234
▁analiz	-10.3241
▁zgib	-10.3242
▁inženir	-10.325
▁pogoj	-10.3254
brati	-10.3255
▁graf	-10.3256
▁Lun	-10.3259
▁nizko	-10.326
▁Smo	-10.3271
▁pretekl	-10.3279
▁24	-10.3279
▁utr	-10.328
noj	-10.3282
▁sklad	-10.3286
▁Francisc	-10.3287
▁LED	-10.3287
▁Neverjetn	-10.3287
▁PDF	-10.3287
▁asteroid	-10.3287
▁družabn	-10.3287
▁humanitarn	-10.3287
▁medsebojn	-10.3287
▁metafor	-10.3287
▁obsežn	-10.3287
▁strategij	-10.3287
▁Chuck	-10.3287
▁ščiti	-10.3287
▁oblačil	-10.3287
▁Zanimiv	-10.3287
▁prevzel	-10.3287
▁risa	-10.3287
▁vzrok	-10.3287
▁biološk	-10.3287
▁Street	-10.3287
▁protiteles	-10.3287
▁Resničn	-10.3287
▁dvoran	-10.3287
▁Težk	-10.3287
▁objavljen	-10.3287
▁Tretj	-10.3287
▁skorj	-10.3287
▁začenja	-10.3287
▁dodatn	-10.3287
▁organizm	-10.3287
▁prijetn	-10.3287
▁sorodnik	-10.3288
▁zračn	-10.3289
▁plač	-10.3289
▁iskat	-10.3289
▁radijsk	-10.329
▁lokacij	-10.329
▁absolutn	-10.3291
▁izvira	-10.3291
klop	-10.3291
G	-10.3291
▁linij	-10.3292
▁veščin	-10.3292
▁izginil	-10.3292
▁barva	-10.3293
▁tarč	-10.3294
▁razširjen	-10.3296
▁nanj	-10.3298
▁mir	-10.33
▁algoritm	-10.33
▁prepoznal	-10.3304
▁njihovim	-10.3306
▁psihologij	-10.3306
▁izbere	-10.3307
▁zaprt	-10.3308
▁tekočin	-10.3311
▁Edin	-10.3313
▁vetr	-10.3314
▁uživa	-10.3316
▁oddaja	-10.3317
▁Žensk	-10.3317
lahk	-10.3319
▁Bar	-10.3319
▁biologij	-10.3329
▁brezplačn	-10.3331
▁pismo	-10.3331
▁njene	-10.3331
▁odziva	-10.3341
▁Naslednj	-10.3342
▁gost	-10.3344
▁učinkovito	-10.3345
▁11	-10.3351
▁kock	-10.3352
▁naft	-10.3355
▁prihodnj	-10.3357
▁pesmi	-10.3363
▁peljal	-10.337
▁pošten	-10.3372
zen	-10.3379
▁nenavadn	-10.3379
▁polic	-10.3383
▁spraševal	-10.3389
▁določi	-10.3389
▁Vedel	-10.339
▁nadaljuje	-10.3393
▁posel	-10.3418
▁čarovnij	-10.342
▁težava	-10.342
▁hč	-10.3424
▁ogrom	-10.3428
▁ognj	-10.344
▁gledali	-10.3441
▁namenom	-10.3441
▁udar	-10.345
spe	-10.3454
▁enake	-10.3458
ništv	-10.3468
▁svetovne	-10.3494
nji	-10.3495
▁potovanje	-10.3496
▁ameriški	-10.3504
▁Nam	-10.3515
▁temelj	-10.3552
▁učen	-10.358
▁opis	-10.3588
rad	-10.3599
▁narašča	-10.3604
▁zavedam	-10.3611
rok	-10.3629
▁trpljenje	-10.3641
▁omar	-10.3641
nci	-10.3658
▁osredotočil	-10.3662
▁služi	-10.3675
▁stopil	-10.3677
▁zanje	-10.3684
▁zgradba	-10.3684
▁spre	-10.3699
▁stare	-10.3703
▁ura	-10.3704
▁letal	-10.3705
▁velikim	-10.3717
▁nadzorova	-10.3718
▁izvede	-10.372
iger	-10.3727
odstotn	-10.3761
▁življenjski	-10.3765
▁mem	-10.3771
V	-10.3771
▁občutljiv	-10.3795
▁lokalni	-10.3796
▁dali	-10.3799
▁povečal	-10.3804
▁prepriča	-10.3817
dite	-10.382
▁čudovite	-10.3821
misl	-10.3823
▁poznat	-10.383
▁vstopi	-10.3833
oški	-10.3835
▁politične	-10.3846
▁oko	-10.3869
▁protest	-10.3873
ld	-10.3876
▁zapleteno	-10.3887
▁četrt	-10.3896
▁hudo	-10.3911
▁topl	-10.3911
▁produkt	-10.3911
▁ukrep	-10.3912
▁funt	-10.3912
▁obvlada	-10.3912
▁parkirišč	-10.3912
▁ustvarjen	-10.3912
▁alternativ	-10.3912
▁usmeri	-10.3912
▁razmislit	-10.3912
▁čoln	-10.3912
▁grožnj	-10.3912
▁Solly	-10.3912
▁katera	-10.3912
▁gozd	-10.3912
▁ozadj	-10.3912
▁Proust	-10.3912
▁gospodarsk	-10.3912
▁mišljenj	-10.3912
▁jamsk	-10.3912
▁lakot	-10.3912
▁modn	-10.3912
▁izhod	-10.3912
▁pripelje	-10.3913
▁kontrol	-10.3913
▁Times	-10.3913
▁avtističn	-10.3914
▁vrnit	-10.3914
▁mojim	-10.3914
▁komaj	-10.3915
▁oblak	-10.3915
▁kemij	-10.3915
▁27	-10.3916
▁klik	-10.3918
▁400	-10.3919
▁obseg	-10.3919
▁marsi	-10.392
▁prelom	-10.392
▁učenja	-10.392
▁celičn	-10.3923
▁10.000	-10.3925
▁univerzaln	-10.3927
▁piv	-10.3927
▁ponovi	-10.393
▁naročil	-10.3931
▁zlorab	-10.3932
▁sestav	-10.3932
▁nižj	-10.3934
▁mlade	-10.3939
▁Obam	-10.3942
▁pristal	-10.3944
▁dodal	-10.395
▁obup	-10.3951
▁delav	-10.3951
▁plast	-10.3961
▁Tule	-10.3963
izacij	-10.3963
▁Wei	-10.3967
▁Mars	-10.3971
▁nastane	-10.3981
▁Spomnim	-10.3981
▁kamor	-10.3983
▁lik	-10.3997
▁spektr	-10.3999
▁pravilno	-10.4004
zan	-10.4008
▁ugotovi	-10.4009
▁gora	-10.4011
▁ustvarjanj	-10.402
▁glavni	-10.4024
▁Jud	-10.4025
▁dolin	-10.4033
rin	-10.4039
▁avti	-10.4045
▁koristi	-10.4049
▁igrač	-10.4049
▁lotil	-10.4062
▁trajn	-10.4076
▁avtiz	-10.4084
▁Vaš	-10.4085
▁psi	-10.409
▁kolen	-10.4107
▁Naučil	-10.4109
▁tren	-10.4113
▁prvem	-10.4125
cija	-10.4125
▁svetovni	-10.4127
▁1.	-10.4128
▁prodaj	-10.4129
▁Manj	-10.4134
▁vprašam	-10.4141
▁origami	-10.4143
▁preselil	-10.4148
ger	-10.4151
▁izvor	-10.4153
▁bistven	-10.4154
▁odrašča	-10.4158
▁vprašaj	-10.416
▁plača	-10.4161
raven	-10.4165
▁dovolil	-10.4173
▁spoznanj	-10.4175
▁koraln	-10.4197
▁odpira	-10.4202
▁omogoči	-10.4203
▁vrti	-10.4206
▁75	-10.4209
▁Lu	-10.4211
▁državljani	-10.4214
▁prijateljic	-10.4219
▁trdn	-10.4225
▁čist	-10.4249
qu	-10.4259
▁vključit	-10.427
▁koga	-10.4276
▁tuj	-10.4289
▁zdravj	-10.4289
▁srednji	-10.4297
▁območje	-10.4307
▁cenzur	-10.4308
▁profesor	-10.4309
▁redk	-10.4319
▁trajnostn	-10.4334
▁pra	-10.4364
▁poznam	-10.4365
▁delim	-10.4366
▁redko	-10.4367
▁potuje	-10.4372
▁kmet	-10.4378
▁Fr	-10.4382
▁sodeloval	-10.4385
▁napravil	-10.4386
▁morje	-10.4398
,5	-10.44
▁fotograf	-10.4408
▁spoštova	-10.4421
▁raziskoval	-10.4426
▁nevroni	-10.4439
W	-10.444
▁vredni	-10.4442
▁pla	-10.4451
▁posl	-10.4457
▁rob	-10.446
▁čakal	-10.4464
rim	-10.4466
▁razširil	-10.4467
▁ponudi	-10.4498
▁osamljen	-10.4505
▁Naslednji	-10.4515
▁samostojn	-10.4534
▁eksperiment	-10.4538
▁atom	-10.4554
sled	-10.4554
▁Odgovor	-10.4556
▁skriva	-10.4567
▁slišim	-10.4569
▁nasprotn	-10.4571
▁strahov	-10.4576
▁ustvarjanje	-10.4578
▁LHC	-10.4578
▁Univerz	-10.4578
▁depresij	-10.4578
▁institucij	-10.4578
▁kuhinj	-10.4578
▁neposredn	-10.4578
▁odpadk	-10.4578
▁ogrožen	-10.4578
▁psihološk	-10.4578
▁puščic	-10.4578
▁ravnovesj	-10.4578
▁ultrazvok	-10.4578
▁uničujoč	-10.4578
▁kandidat	-10.4578
▁Nemčij	-10.4578
▁definicij	-10.4578
▁obravnava	-10.4578
▁črv	-10.4578
▁umazan	-10.4578
▁investicij	-10.4578
▁obvez	-10.4579
▁prebivalstvo	-10.4579
▁zgradim	-10.4579
▁junak	-10.4579
▁propad	-10.4579
▁klinik	-10.4579
▁zgradit	-10.4579
▁množic	-10.4579
▁vojsk	-10.4579
▁196	-10.4579
▁Spominja	-10.458
▁zgleda	-10.4581
▁izhaja	-10.4581
▁TV	-10.4582
▁pridig	-10.4582
▁nosečnost	-10.4583
▁širš	-10.4584
▁pomisli	-10.4584
▁inovacij	-10.4584
▁škodljiv	-10.4584
▁razumejo	-10.4584
▁pastir	-10.4586
▁združil	-10.4586
ogosto	-10.4587
▁knjižnic	-10.459
itvi	-10.4596
▁učilnic	-10.4597
▁stanovanje	-10.4603
▁lastne	-10.4606
▁maj	-10.4608
▁zapornik	-10.4609
▁izumil	-10.4609
▁Sonc	-10.4613
▁skrivnosti	-10.4614
▁filozofij	-10.4618
▁Br	-10.4623
▁pisanj	-10.4626
▁Oči	-10.4637
▁najbližj	-10.4641
▁Verjamem	-10.4644
▁naletel	-10.4663
▁George	-10.4663
▁pomislim	-10.4664
▁resno	-10.4689
▁prevede	-10.4692
▁različnim	-10.4697
▁dokončal	-10.4703
▁pomagat	-10.4704
▁nenavadno	-10.4706
▁potnik	-10.4711
▁obnaša	-10.4712
▁počutim	-10.4712
nce	-10.4715
▁vesoljsk	-10.472
▁nadomesti	-10.4725
▁Kong	-10.473
▁naučim	-10.4738
▁zdravljenj	-10.4739
▁resničnost	-10.4745
▁virov	-10.4745
▁teče	-10.4746
▁stol	-10.4746
tarejši	-10.4748
▁iskanje	-10.477
▁prodajal	-10.4777
▁hladn	-10.4783
▁raziskovanj	-10.4789
▁izgub	-10.4793
▁Nekd	-10.4795
▁polet	-10.4812
▁zob	-10.4828
▁nauk	-10.4831
▁45	-10.4834
čan	-10.484
▁Tal	-10.4851
▁vera	-10.4854
▁kras	-10.4861
▁krv	-10.4862
▁odpre	-10.4863
▁gibanja	-10.4866
▁pil	-10.4872
▁bakterijsk	-10.4873
▁predvaja	-10.4879
▁opazit	-10.4894
▁sile	-10.4911
▁spodbuja	-10.4928
▁prihod	-10.4929
▁vpraša	-10.4938
▁pogost	-10.4938
▁klic	-10.4941
▁prijatelje	-10.4942
▁zadovoljn	-10.4945
▁skušal	-10.4947
▁navdušen	-10.495
▁rabi	-10.4953
ljivost	-10.496
▁letalo	-10.4966
▁moti	-10.4979
▁spremlja	-10.498
▁Medt	-10.4983
urn	-10.4986
▁dovoli	-10.5011
letel	-10.5015
▁Sta	-10.5023
▁65	-10.5044
▁celotne	-10.506
▁og	-10.5068
jemo	-10.507
▁Vpraša	-10.5074
▁ubija	-10.5078
▁sever	-10.5078
▁potrebe	-10.5082
▁uspešno	-10.5085
▁iskanj	-10.5091
▁pade	-10.5094
zno	-10.5107
▁rez	-10.511
▁konic	-10.5111
▁predal	-10.5127
▁194	-10.5128
▁potr	-10.5143
▁Zemlje	-10.5144
▁vino	-10.5158
▁temeljn	-10.5165
▁posla	-10.5192
▁lekcij	-10.5213
▁trak	-10.5221
▁želja	-10.5221
▁religija	-10.523
▁staršev	-10.5241
▁zahval	-10.5248
▁kril	-10.5249
▁Stasi	-10.5262
▁Leonard	-10.5262
štir	-10.5265
▁najmanj	-10.527
▁ljubim	-10.5277
ško	-10.5281
▁hip	-10.5289
▁nevihte	-10.529
▁femini	-10.5292
▁Higgsov	-10.5292
▁globlj	-10.5292
▁nacionaln	-10.5292
▁najmočnejš	-10.5292
▁Everest	-10.5293
▁Panteon	-10.5293
▁Slišal	-10.5293
▁Zgodb	-10.5293
▁kemikalij	-10.5293
▁portret	-10.5293
▁proračun	-10.5293
▁ustrezn	-10.5293
▁zgrajen	-10.5293
▁James	-10.5293
▁izstrel	-10.5293
▁Imenuje	-10.5293
▁preneha	-10.5293
▁Izrael	-10.5293
▁ponuja	-10.5293
▁scenarij	-10.5293
▁Možgan	-10.5293
▁rahlo	-10.5293
▁ministrstv	-10.5293
▁terapij	-10.5293
▁teleskop	-10.5293
▁tkiv	-10.5293
▁jajc	-10.5293
▁kritičn	-10.5293
▁slepi	-10.5293
▁preostal	-10.5293
▁debat	-10.5293
▁kanal	-10.5293
▁polarn	-10.5293
▁protez	-10.5293
▁sprejme	-10.5293
▁okostj	-10.5293
▁jedr	-10.5293
▁tiskalnik	-10.5293
▁anket	-10.5294
▁talent	-10.5294
▁svež	-10.5294
▁majcen	-10.5294
▁1960	-10.5295
▁vzeti	-10.5296
▁kazal	-10.5296
▁197	-10.5296
▁Bron	-10.5296
▁poziv	-10.5296
▁Britanij	-10.5297
okrog	-10.5297
▁kisik	-10.5298
▁odstot	-10.5298
▁zbere	-10.53
▁ljubk	-10.53
▁Reci	-10.5305
▁pripeljal	-10.5305
▁maternic	-10.5307
▁Oddel	-10.5308
▁tipičn	-10.5309
▁akcij	-10.5309
▁odpeljal	-10.5309
▁šal	-10.5311
▁fantastičn	-10.5315
▁padl	-10.5319
▁Odgovoril	-10.5322
▁samomor	-10.5323
▁kopn	-10.5331
▁Wall	-10.534
▁hit	-10.5344
▁leži	-10.5345
▁nežn	-10.5348
▁podpira	-10.5349
▁dramatičn	-10.5356
▁nakup	-10.5357
▁znamk	-10.5357
▁državljansk	-10.5358
▁bližini	-10.5361
▁jasn	-10.5363
▁klical	-10.5363
▁zadovolj	-10.5363
▁pacientov	-10.5367
▁hoj	-10.5368
▁razlikuje	-10.5371
▁vzgoji	-10.5371
▁zmenk	-10.5375
▁vredno	-10.538
▁navadn	-10.5383
▁bere	-10.5389
▁zasebnost	-10.5391
▁zidov	-10.5392
▁diha	-10.5393
▁Prvo	-10.5396
▁dodam	-10.5396
▁serij	-10.5409
čke	-10.541
kcij	-10.5412
▁glasben	-10.542
▁pridobit	-10.5421
▁sodeluje	-10.5429
▁hranil	-10.543
▁zaščiten	-10.5431
▁valov	-10.5433
▁Najb	-10.5435
▁originaln	-10.5438
▁poskusim	-10.5451
▁skal	-10.5457
▁okoljsk	-10.5458
▁letel	-10.5459
▁Dobil	-10.5462
▁magnet	-10.5471
▁rodi	-10.5482
▁vodje	-10.5484
▁sestavljen	-10.5484
▁prosi	-10.5485
▁kmetij	-10.5488
▁besedil	-10.5491
▁Mnogi	-10.5513
▁sond	-10.5541
▁zahteval	-10.5545
▁izdela	-10.5547
▁jedl	-10.5552
▁ravnanj	-10.5562
pisal	-10.5575
▁odkriti	-10.5576
▁osredotoči	-10.5587
▁mlajši	-10.5588
▁nujn	-10.5593
▁Ru	-10.5596
nske	-10.5614
▁državljan	-10.5615
▁viden	-10.5626
pop	-10.5632
▁novem	-10.5638
▁Naše	-10.5641
stran	-10.5658
▁vin	-10.5666
▁manjka	-10.5682
rju	-10.5687
▁centr	-10.5689
▁laž	-10.57
čenje	-10.5704
▁pridruži	-10.5715
▁trajal	-10.5728
▁El	-10.5728
▁izdelal	-10.5733
tiče	-10.5735
▁Dobr	-10.5741
▁dogajal	-10.5744
▁spi	-10.5754
▁vodiln	-10.5758
▁privlačn	-10.5767
▁preveri	-10.5773
rodij	-10.5774
▁origamij	-10.5782
▁povprečje	-10.5785
obenem	-10.579
▁Sto	-10.5797
▁prijavi	-10.5805
▁Želi	-10.5807
▁manjšin	-10.5811
▁napisan	-10.5816
▁načrtovanj	-10.5831
▁družbene	-10.5834
▁ameriške	-10.5834
▁ostr	-10.5843
▁meril	-10.5847
sposob	-10.5861
▁dež	-10.5865
▁Min	-10.5877
▁naključno	-10.5885
▁čevlje	-10.5885
▁sporazumeva	-10.5889
▁dolge	-10.5916
▁preživetje	-10.5927
▁vlaga	-10.5943
▁klet	-10.5951
▁sredst	-10.5969
▁pretepa	-10.5978
▁branje	-10.601
▁Uporab	-10.6016
kril	-10.602
▁živo	-10.6021
▁razumevanj	-10.6028
▁žog	-10.6034
▁realn	-10.6039
vse	-10.6049
▁Doda	-10.6053
▁značiln	-10.6058
▁krogl	-10.6058
▁diplom	-10.6061
▁gib	-10.6061
▁Florid	-10.6062
▁Pomembn	-10.6062
▁Prepričan	-10.6062
▁antibiotik	-10.6062
▁deklišk	-10.6062
▁geometrij	-10.6062
▁hormon	-10.6062
▁iPhon	-10.6062
▁inteligenc	-10.6062
▁izobrazi	-10.6062
▁simptom	-10.6062
▁Auror	-10.6062
▁Enostavn	-10.6062
▁prilagodi	-10.6062
▁ušes	-10.6062
▁Maitrej	-10.6062
▁posname	-10.6062
▁zbirk	-10.6062
▁Knjig	-10.6062
▁tradicij	-10.6062
▁okuži	-10.6062
▁poslušat	-10.6062
▁statističn	-10.6062
▁povezuje	-10.6062
▁opaža	-10.6062
▁ubiti	-10.6062
▁Sierr	-10.6062
▁preživlja	-10.6062
▁zbudi	-10.6062
▁nagnjen	-10.6062
▁steklenic	-10.6062
▁stopi	-10.6062
▁popoldne	-10.6062
▁spretnost	-10.6062
▁nenehn	-10.6062
▁Ebol	-10.6062
▁dvignil	-10.6063
▁Pojdi	-10.6063
▁zveni	-10.6063
▁debel	-10.6063
▁sledeč	-10.6064
▁Ravno	-10.6064
▁mlin	-10.6064
▁nedavn	-10.6064
▁imenoval	-10.6064
▁Tesl	-10.6065
▁značilnosti	-10.6065
▁soočit	-10.6066
form	-10.6067
▁okoliščin	-10.6067
▁razpo	-10.6068
▁njihovem	-10.607
▁žic	-10.6071
▁Jemn	-10.6071
▁obrok	-10.6071
▁podrobn	-10.6072
▁izdeluje	-10.6077
▁financira	-10.6077
▁Reče	-10.6078
▁primat	-10.608
▁starš	-10.608
▁vrača	-10.6084
▁spustil	-10.6085
▁lastnik	-10.6085
▁znal	-10.6091
gram	-10.6093
▁nihanj	-10.6093
▁vožnj	-10.6095
▁pustit	-10.6096
▁predlagal	-10.6099
▁tiska	-10.6102
▁smrtnost	-10.6102
▁disk	-10.6105
▁Začni	-10.6106
▁tretjin	-10.6113
▁stolp	-10.6115
▁pelje	-10.6116
▁meč	-10.6116
▁izmeri	-10.6117
▁očetov	-10.612
▁svil	-10.6122
▁zbiranje	-10.6124
▁prenese	-10.6124
▁kosil	-10.6127
▁izdel	-10.6133
▁krajev	-10.6135
▁učinkovitost	-10.6148
▁park	-10.615
▁težje	-10.6154
▁kompleksn	-10.6154
▁sodelavc	-10.6157
▁volit	-10.6157
▁robotsk	-10.616
▁odšl	-10.6161
▁Odločil	-10.6175
▁Leon	-10.6179
▁prisotn	-10.6199
▁dohodk	-10.6202
▁kmetijstvo	-10.6203
▁največje	-10.6203
laž	-10.6218
▁boln	-10.6218
▁ponižanj	-10.6221
▁svobode	-10.6222
▁kamen	-10.6228
▁sinov	-10.6231
▁idejam	-10.6236
▁Vzhodn	-10.6245
reže	-10.6247
▁plan	-10.6255
▁povej	-10.626
▁višje	-10.6269
▁igralc	-10.6279
ung	-10.6286
▁strinjat	-10.6311
▁vrne	-10.6315
▁tehta	-10.6326
▁zmeden	-10.6335
▁obrat	-10.637
▁polž	-10.6373
▁napisa	-10.6374
▁dotik	-10.638
▁Tisti	-10.6381
▁organizacija	-10.6386
▁zaključk	-10.639
▁neverjet	-10.6394
▁plavanje	-10.6395
▁opazova	-10.6395
SA	-10.6397
▁zgodovinsk	-10.6398
▁Oz	-10.6398
▁premagal	-10.6403
▁trpljenj	-10.6408
▁naroč	-10.6409
▁namig	-10.6413
▁plaval	-10.6436
▁imenujem	-10.6436
▁osnova	-10.6438
▁spravil	-10.6441
▁zapustil	-10.6452
▁pripravlja	-10.6453
▁pridružil	-10.6453
▁napredk	-10.6454
▁prednik	-10.6462
▁ponos	-10.647
▁silo	-10.6486
▁zapusti	-10.6488
▁grd	-10.6489
▁svetov	-10.6493
▁prispeva	-10.6494
▁ponosn	-10.6496
▁pojasni	-10.6496
▁zemlje	-10.6498
▁1,	-10.6499
▁čut	-10.6505
▁ponudil	-10.6512
▁stop	-10.6512
▁odvisno	-10.6516
plet	-10.6517
▁spravi	-10.6524
ejši	-10.6528
▁Ustvari	-10.653
▁preteklost	-10.6547
▁oblikovan	-10.6547
▁statistika	-10.6562
▁sporoči	-10.6565
reden	-10.6566
▁upad	-10.6581
▁izboljšanj	-10.6592
▁enakost	-10.6627
▁ustvarjal	-10.6635
▁škodo	-10.664
▁vrnem	-10.6644
darjen	-10.6656
▁pričakuje	-10.6669
▁duhovn	-10.6694
org	-10.67
prašanje	-10.6706
▁pozabi	-10.6706
▁fotografira	-10.6707
▁vedenj	-10.6715
▁pritiska	-10.6738
▁visoke	-10.6744
druž	-10.6746
J	-10.6755
svoji	-10.6756
kjer	-10.676
▁ded	-10.6791
▁les	-10.6793
▁sposobn	-10.6819
▁Gled	-10.6822
▁izpust	-10.6832
▁ukvarjam	-10.6846
▁evolucij	-10.6846
▁goji	-10.6854
▁ustavit	-10.6864
▁strošk	-10.6867
▁zasnov	-10.6879
▁odporn	-10.688
▁poslu	-10.6884
▁recept	-10.6895
▁energetsk	-10.6895
▁nepričakovan	-10.6895
▁vsakodnevn	-10.6895
▁Appl	-10.6895
▁Bakterij	-10.6895
▁aplikacij	-10.6895
▁beljakovin	-10.6895
▁fakultet	-10.6895
▁gravitacij	-10.6895
▁infrastruktur	-10.6895
▁kliničn	-10.6895
▁najhujš	-10.6895
▁naravoslovj	-10.6895
▁natisnil	-10.6895
▁pištol	-10.6895
▁pogodb	-10.6895
▁poškodb	-10.6895
▁presenetil	-10.6895
▁razburljiv	-10.6895
▁ritual	-10.6895
▁tetovaž	-10.6895
▁tovornjak	-10.6895
▁usmerja	-10.6895
▁Zgodil	-10.6895
▁kognitivn	-10.6895
▁najslabš	-10.6895
▁punčk	-10.6895
▁združuje	-10.6895
▁Preprost	-10.6895
▁podvig	-10.6895
▁potroši	-10.6895
▁tvori	-10.6895
▁dolgoročn	-10.6895
▁Robert	-10.6895
▁razvije	-10.6895
ford	-10.6895
▁izkaže	-10.6895
▁ubije	-10.6895
▁plosk	-10.6895
▁Bolj	-10.6895
▁Težav	-10.6895
▁zbolel	-10.6895
▁radikaln	-10.6895
▁premirj	-10.6895
▁mrzl	-10.6895
▁rešuje	-10.6895
▁sfer	-10.6895
▁Umetn	-10.6895
▁domneva	-10.6896
▁premer	-10.6896
▁kazen	-10.6896
▁zapravlja	-10.6896
▁neštet	-10.6896
▁Denar	-10.6896
▁kritik	-10.6896
▁Odličn	-10.6896
▁Bill	-10.6896
▁drog	-10.6896
▁prekrš	-10.6896
▁dvignit	-10.6897
▁plastičn	-10.6897
▁šestdeset	-10.6897
▁policist	-10.6897
▁stališč	-10.6897
▁obdela	-10.6897
▁izvedl	-10.6898
▁napet	-10.6898
▁Kadar	-10.6899
▁Svetovn	-10.6899
▁petdeset	-10.69
▁Njen	-10.6901
▁nosečnic	-10.6901
▁prebere	-10.6902
▁Zdravnik	-10.6903
▁dotakne	-10.6903
▁stekl	-10.6904
▁120	-10.6905
▁označuje	-10.6907
▁blog	-10.6907
▁uradnik	-10.6907
▁goriv	-10.6909
▁Ostal	-10.6909
▁torbic	-10.691
▁tvit	-10.691
čajn	-10.691
▁odtis	-10.6911
ejstvo	-10.6912
▁dežel	-10.6913
▁metr	-10.6916
▁zahod	-10.6918
▁zmožnost	-10.6923
nke	-10.6925
▁realnost	-10.6929
▁živčn	-10.6929
▁Leonardo	-10.6931
stavim	-10.6931
▁gibanj	-10.6931
▁torb	-10.6932
▁gladk	-10.6933
▁zatira	-10.6934
▁mladič	-10.6935
▁piše	-10.6936
▁ogledal	-10.6938
▁gostot	-10.6938
▁peril	-10.6942
▁sklep	-10.6943
▁okolic	-10.6943
▁prične	-10.6947
▁kosilo	-10.6947
ujoč	-10.6958
▁proizvodnj	-10.6966
▁zarodk	-10.6967
▁sposobni	-10.6971
▁Delal	-10.6972
▁štirimi	-10.6974
▁navz	-10.6975
▁materin	-10.6979
▁velikansk	-10.698
▁pošiljal	-10.698
▁sloj	-10.698
▁pisat	-10.6983
▁kolo	-10.6985
▁Kra	-10.6992
nus	-10.6994
▁Es	-10.6996
▁pretep	-10.6996
▁lekcija	-10.6999
▁učiteljic	-10.7
▁policijsk	-10.7003
▁pop	-10.7006
▁zapisal	-10.7011
▁staršem	-10.7016
▁slabše	-10.7018
▁nosit	-10.7021
▁trudil	-10.7027
▁dogovor	-10.703
▁napiše	-10.7033
ps	-10.7035
▁Vesel	-10.7043
lago	-10.7048
▁niz	-10.7048
kriva	-10.7054
▁85	-10.7055
▁napredn	-10.7057
▁35	-10.7057
ujoče	-10.7072
ntu	-10.7085
▁čakajo	-10.7089
▁dobrim	-10.7105
▁Rekl	-10.7107
▁uspeva	-10.7111
▁vzhod	-10.7116
▁pričakujem	-10.7126
biral	-10.713
▁pojasnil	-10.715
▁fantk	-10.7155
▁milj	-10.7162
▁Mark	-10.7171
▁praviln	-10.7173
▁spolom	-10.7179
▁skrbn	-10.7189
▁Pomaga	-10.7193
erson	-10.72
▁stane	-10.7205
▁povprečj	-10.7205
▁manjše	-10.7208
▁užitn	-10.7209
▁poskusit	-10.7214
▁prihodk	-10.7214
▁zasto	-10.7216
grabil	-10.722
▁Teh	-10.7238
▁nadaljeva	-10.724
nine	-10.7247
▁negativn	-10.7251
▁150	-10.726
▁Pok	-10.7262
▁Pod	-10.7262
▁tank	-10.7285
pin	-10.7285
kako	-10.7288
▁ideal	-10.729
▁vašim	-10.7295
▁mladim	-10.7297
▁vzamem	-10.7309
▁partnerj	-10.732
▁kakovost	-10.7324
▁spregleda	-10.7325
edite	-10.7339
▁upravljanj	-10.7341
▁Zahod	-10.7344
▁življenjsk	-10.7344
▁gospodarstvo	-10.7349
▁opomn	-10.735
huje	-10.7351
▁organiziran	-10.7359
▁zmanjšanj	-10.736
▁pralni	-10.7363
▁Hoče	-10.7364
▁voditelji	-10.7366
▁jezikov	-10.7374
▁Sal	-10.7377
▁premik	-10.7383
▁steno	-10.7383
▁reform	-10.7392
▁sodelovali	-10.74
▁vstop	-10.7405
▁kopira	-10.7406
▁uničil	-10.7429
▁Twitter	-10.7438
▁delež	-10.7445
chu	-10.7453
▁zdravim	-10.7459
▁Nas	-10.7462
▁Vsem	-10.7493
▁smeš	-10.7498
▁presenečen	-10.7503
ljenje	-10.7509
▁strinja	-10.7513
▁odras	-10.7516
▁Nauči	-10.7521
▁gledanj	-10.7523
doma	-10.7526
sonč	-10.7534
▁razvijal	-10.7568
▁objavi	-10.7599
▁praks	-10.7602
komur	-10.7605
▁raziskovaln	-10.7607
▁petim	-10.7609
anta	-10.7622
▁postavim	-10.7629
▁pogovarjat	-10.7649
metrsk	-10.7651
▁naselj	-10.7651
▁Kongo	-10.7663
F	-10.7665
▁mehaniz	-10.768
▁dokazov	-10.7683
▁velikan	-10.7687
▁zmorem	-10.7691
▁vlakn	-10.7697
▁območ	-10.7734
▁sila	-10.7747
▁vodstv	-10.7768
▁zavez	-10.7768
▁potrdi	-10.7769
▁pisatelj	-10.7771
▁bolnik	-10.7773
▁najpomembnej	-10.7782
▁vdih	-10.7785
▁preizkus	-10.7785
▁črk	-10.7794
▁upor	-10.7799
tisnit	-10.7801
roblem	-10.7803
▁Dolg	-10.7803
▁21	-10.7803
▁Jersey	-10.7804
▁alkohol	-10.7804
▁AIDS	-10.7804
▁City	-10.7804
▁FBI	-10.7804
▁Internet	-10.7804
▁Mohamed	-10.7804
▁Občinstv	-10.7804
▁Peking	-10.7804
▁Popoln	-10.7804
▁Richard	-10.7804
▁civilizacij	-10.7804
▁izkorišča	-10.7804
▁izogiba	-10.7804
▁izčrp	-10.7804
▁jabolk	-10.7804
▁ključavnic	-10.7804
▁kodirnik	-10.7804
▁magij	-10.7804
▁neprijetn	-10.7804
▁oborožen	-10.7804
▁okrožj	-10.7804
▁osredotočen	-10.7804
▁popularn	-10.7804
▁poželenj	-10.7804
▁predsednišk	-10.7804
▁preprečuje	-10.7804
▁reciklaž	-10.7804
▁reportaž	-10.7804
▁risb	-10.7804
▁samoumevn	-10.7804
▁strašljiv	-10.7804
▁uravnotežen	-10.7804
▁učbenik	-10.7804
▁virtualn	-10.7804
▁vklenjen	-10.7804
▁vzpon	-10.7804
▁Čas	-10.7804
▁čarobn	-10.7804
▁Anglij	-10.7804
▁Apoll	-10.7804
▁brezdomc	-10.7804
▁detajl	-10.7804
▁klimatsk	-10.7804
▁odvetnik	-10.7804
▁posojil	-10.7804
▁lobanj	-10.7804
▁mehanik	-10.7804
▁omenjen	-10.7804
▁skromn	-10.7804
▁sočutn	-10.7804
▁Jezus	-10.7804
▁poišče	-10.7804
▁preplav	-10.7804
▁rumen	-10.7804
▁povezovanj	-10.7804
▁reakcij	-10.7804
▁kombij	-10.7804
▁orbit	-10.7804
▁Kevin	-10.7804
▁aretira	-10.7804
▁genetsk	-10.7804
▁tisočletj	-10.7804
▁princip	-10.7804
▁ekran	-10.7804
▁strašn	-10.7804
▁vojašk	-10.7804
▁status	-10.7804
▁general	-10.7804
▁prelep	-10.7804
▁intenzivn	-10.7804
▁zaupam	-10.7804
▁razložil	-10.7805
▁ateist	-10.7805
▁združen	-10.7805
▁košar	-10.7805
▁pritisne	-10.7805
▁Zamisli	-10.7805
▁tabor	-10.7805
▁sodišč	-10.7805
▁koščk	-10.7805
▁delfin	-10.7805
▁psov	-10.7805
▁zope	-10.7805
▁porod	-10.7805
▁verzij	-10.7805
▁abstraktn	-10.7805
▁letališč	-10.7806
▁pismenk	-10.7806
▁izmenjav	-10.7806
▁Los	-10.7806
▁Vzel	-10.7806
▁agent	-10.7806
▁odsev	-10.7807
▁Mlad	-10.7807
▁važn	-10.7807
▁dodov	-10.7807
▁99	-10.7807
▁Odkril	-10.7808
▁fraz	-10.7808
▁skorajšnj	-10.7808
▁neviht	-10.7808
▁homo	-10.7809
▁sledit	-10.7809
▁Zakon	-10.7811
▁razgled	-10.7811
▁Vinci	-10.7811
▁daljš	-10.7812
▁trideset	-10.7812
▁čaj	-10.7812
▁glej	-10.7812
▁segrevanj	-10.7812
▁padc	-10.7812
▁namenjen	-10.7813
▁plin	-10.7813
▁nasvet	-10.7813
▁faz	-10.7814
▁poznej	-10.7814
▁Vesolj	-10.7815
▁dojema	-10.7815
▁The	-10.7818
▁kur	-10.7818
▁primerjal	-10.7818
▁žarnic	-10.7819
▁anti	-10.7819
▁označil	-10.7821
▁vremensk	-10.7822
▁vključuje	-10.7822
▁Življenj	-10.7823
strup	-10.7823
▁inženirstv	-10.7823
▁novim	-10.7824
▁krav	-10.7828
▁kamp	-10.7829
▁zaliv	-10.7835
▁naslovnic	-10.7836
▁shem	-10.7837
▁breg	-10.7837
ign	-10.7837
▁starševstv	-10.7837
▁označen	-10.7838
▁krut	-10.7839
▁kreativnost	-10.7839
▁dovoljenje	-10.784
▁odide	-10.7841
▁napot	-10.7842
Bay	-10.7843
▁pripovedovanj	-10.7843
▁Kiv	-10.7846
▁kategorij	-10.7854
▁prid	-10.7855
▁smehlja	-10.7855
▁organiziranost	-10.7856
▁kreativn	-10.7858
▁eksperimentira	-10.7861
▁znaš	-10.7861
▁raznolikost	-10.7862
▁skrbnik	-10.7862
▁izdal	-10.7863
▁zaključil	-10.7865
▁prikazal	-10.7873
▁jedrsk	-10.7876
▁Glas	-10.7878
▁zahtev	-10.7884
▁videz	-10.7884
▁spregovori	-10.7888
ly	-10.7897
▁izogni	-10.7899
▁mogoč	-10.7901
▁podpirajo	-10.7907
▁trd	-10.7917
▁preučeval	-10.7918
▁fin	-10.7924
▁nosim	-10.7939
▁novinar	-10.7942
▁koren	-10.7951
▁zavedal	-10.7952
▁neha	-10.7953
▁podpis	-10.7957
▁dobiva	-10.7958
▁urad	-10.7959
▁trav	-10.7967
▁prs	-10.7969
▁dokazal	-10.7971
▁gradben	-10.7981
▁jemalc	-10.7986
▁kolektivn	-10.7999
▁hrbt	-10.8008
▁kupit	-10.8011
▁jekl	-10.8024
▁sodni	-10.8025
▁takim	-10.803
▁šef	-10.8045
▁poroča	-10.8048
▁nekaterim	-10.8055
rag	-10.8074
▁posvetil	-10.8087
▁sad	-10.8091
▁hčerk	-10.8098
▁razočaran	-10.81
▁začetn	-10.8102
▁človeškem	-10.8102
▁telefonsk	-10.8103
▁enakovredn	-10.8119
▁mirn	-10.8121
ron	-10.8125
▁skupno	-10.8141
▁Pridi	-10.8148
▁promet	-10.8148
▁trdo	-10.8153
▁posnema	-10.8157
▁nekem	-10.8159
ravna	-10.8161
▁priznam	-10.8163
▁občutil	-10.8173
▁Enako	-10.8178
▁Twitterj	-10.8185
▁profesorj	-10.8188
▁neodvisn	-10.8193
▁prepir	-10.8193
▁vodenj	-10.8211
▁trajnost	-10.8224
▁direktorj	-10.8233
▁zalog	-10.8236
▁Mon	-10.8241
▁ozk	-10.8256
▁prešte	-10.8258
▁opazujem	-10.827
▁smiseln	-10.8271
▁dokumentira	-10.8273
▁skupinsk	-10.8273
asneje	-10.8273
redno	-10.8291
▁vmes	-10.8304
▁pogostej	-10.8307
▁zasluž	-10.8313
▁poročal	-10.8316
▁sliša	-10.8328
▁zadr	-10.8347
▁izkusi	-10.8365
▁stojim	-10.8367
▁nivo	-10.8369
vrnil	-10.8378
▁uničen	-10.838
▁smešn	-10.8383
▁moralno	-10.8414
grabi	-10.8428
50	-10.847
▁žalostn	-10.8471
▁plačat	-10.8483
▁vrg	-10.8505
▁Poskusi	-10.8522
▁obratn	-10.8522
▁predstavi	-10.8526
tanko	-10.8535
▁zamenjal	-10.8546
▁olajša	-10.8554
kup	-10.8556
▁sporoča	-10.8567
▁bran	-10.8578
▁zapomni	-10.8583
▁ukvarjal	-10.8592
▁ugotovim	-10.8594
▁odkriva	-10.8603
▁žar	-10.8603
▁2.	-10.8613
▁pit	-10.862
▁sled	-10.8636
▁jas	-10.8658
rski	-10.8662
L	-10.8664
povs	-10.8668
▁zarod	-10.8669
peljal	-10.8679
▁obtož	-10.8689
proti	-10.8692
▁trdil	-10.8692
▁11.	-10.8697
▁berem	-10.8709
ziran	-10.8716
bližje	-10.8723
▁poljub	-10.8723
pec	-10.874
▁očes	-10.8751
▁raznolik	-10.8764
▁psiholog	-10.877
▁obkrož	-10.8773
▁kapital	-10.8777
▁osvobodi	-10.8789
▁Zdrav	-10.8795
▁Avstralij	-10.8804
▁Boltzmann	-10.8804
▁Brazilij	-10.8804
▁DVD	-10.8804
▁Enkelad	-10.8804
▁Harvard	-10.8804
▁Mount	-10.8804
▁Nacionaln	-10.8804
▁Poskuša	-10.8804
▁Pozdravljen	-10.8804
▁Spremeni	-10.8804
▁Srednj	-10.8804
▁argument	-10.8804
▁demokratičn	-10.8804
▁ekonomist	-10.8804
▁epidemij	-10.8804
▁francosk	-10.8804
▁hiperboličn	-10.8804
▁horoskop	-10.8804
▁hrustan	-10.8804
▁interaktivn	-10.8804
▁izključi	-10.8804
▁izražanj	-10.8804
▁najbogatejš	-10.8804
▁neizogibn	-10.8804
▁nepopoln	-10.8804
▁nepredstavljiv	-10.8804
▁opozori	-10.8804
▁preoblikova	-10.8804
▁priporoč	-10.8804
▁relativno	-10.8804
▁resonanc	-10.8804
▁stratešk	-10.8804
▁ugiba	-10.8804
▁vznemirljiv	-10.8804
▁vzporedn	-10.8804
▁zmanjk	-10.8804
▁župan	-10.8804
▁Scott	-10.8804
▁Zelandij	-10.8804
▁kvalitet	-10.8804
▁najvišj	-10.8804
▁poglavj	-10.8804
▁dopust	-10.8804
▁pijač	-10.8804
▁tržišč	-10.8804
▁poslušam	-10.8804
▁Partij	-10.8804
▁samozavest	-10.8804
▁Razmisli	-10.8804
▁avtocest	-10.8804
▁maltešk	-10.8804
▁ujame	-10.8804
▁usod	-10.8804
▁ubog	-10.8804
▁odvija	-10.8804
▁približuje	-10.8804
▁perspektiv	-10.8804
▁Brook	-10.8804
▁brezžičn	-10.8804
▁logičn	-10.8804
▁spravlja	-10.8804
▁zvečer	-10.8804
▁kabin	-10.8804
▁Vrnil	-10.8804
▁hlač	-10.8804
▁oblečen	-10.8804
▁zaposlit	-10.8804
▁beton	-10.8805
▁lebdi	-10.8805
▁pokvarjen	-10.8805
▁predhodn	-10.8805
▁Idej	-10.8805
▁odzval	-10.8805
▁Fibonaccijev	-10.8805
▁Katar	-10.8805
strokovn	-10.8805
▁podzemn	-10.8805
▁oživi	-10.8805
▁heroj	-10.8805
▁objavlja	-10.8805
▁nadzira	-10.8805
▁razdalj	-10.8805
▁izbor	-10.8806
▁uporabljen	-10.8806
▁šteje	-10.8806
▁giblje	-10.8806
▁ravnotežj	-10.8806
▁Pisa	-10.8806
▁kaos	-10.8806
▁rjav	-10.8806
množi	-10.8806
▁Gore	-10.8806
▁duševn	-10.8806
▁dejavnik	-10.8806
▁Približ	-10.8807
▁kondom	-10.8807
▁aktivira	-10.8807
▁voznik	-10.8807
▁spada	-10.8808
▁novost	-10.8808
▁Slab	-10.8808
▁plov	-10.8809
▁Pomen	-10.881
▁ikon	-10.881
▁zadost	-10.881
▁petnajst	-10.881
▁rastlin	-10.8814
▁kovinski	-10.8814
▁trpi	-10.8815
▁Mary	-10.8815
▁bivš	-10.8815
▁ležišč	-10.8816
▁bliža	-10.8818
▁mladostnik	-10.8819
▁prač	-10.8821
▁major	-10.8823
▁Gate	-10.8824
▁potop	-10.8824
▁lansk	-10.8824
▁parkira	-10.8824
▁radovednost	-10.8825
▁majic	-10.8833
▁Jim	-10.8833
▁80-	-10.8838
▁skok	-10.884
▁žogic	-10.8841
▁krater	-10.8842
▁minist	-10.8842
▁žil	-10.8844
▁suš	-10.8845
▁porok	-10.8848
▁januarj	-10.8848
▁drev	-10.8849
▁poskušaj	-10.8849
▁dečk	-10.8849
lyn	-10.8852
▁hodit	-10.8853
▁izjavil	-10.8856
▁svetleč	-10.8858
volj	-10.8858
▁jesen	-10.886
pisuje	-10.8862
▁Uporabil	-10.8864
embra	-10.8864
▁raket	-10.8865
▁tiho	-10.8866
▁včeraj	-10.8867
▁slon	-10.8875
▁izgine	-10.8878
▁sprašujem	-10.8878
▁učinkov	-10.888
riše	-10.888
▁stisk	-10.8888
▁ud	-10.8911
reba	-10.8914
▁Alec	-10.8914
▁osta	-10.8916
▁boleč	-10.8925
▁genom	-10.8926
▁sestavljanj	-10.8927
▁držal	-10.893
▁mehurčk	-10.8933
▁zanaša	-10.8935
klene	-10.8937
▁not	-10.8946
▁zavedat	-10.8946
▁zlom	-10.8957
▁oddelk	-10.8957
▁potencialn	-10.8959
▁zagledal	-10.896
▁podat	-10.8965
▁punca	-10.8968
▁nanaša	-10.8969
▁kad	-10.8975
▁smete	-10.898
▁mladin	-10.8985
nek	-10.8986
▁Talk	-10.8986
▁pojasnim	-10.8994
▁severni	-10.9
verjetne	-10.9017
ografij	-10.9017
▁presega	-10.9029
▁Mik	-10.9034
dajalci	-10.9045
▁zagotovil	-10.9058
▁stil	-10.9081
▁Pozn	-10.9082
▁sestavil	-10.9095
▁prog	-10.9098
▁nogometn	-10.9103
▁fantov	-10.9107
▁osnovnih	-10.9109
▁ustvarjam	-10.9125
gle	-10.9157
▁fotografiral	-10.9161
▁zapre	-10.9163
▁vlaganj	-10.9193
▁ohranjanj	-10.9218
▁statistik	-10.9223
▁Gen	-10.9235
▁odločanj	-10.9259
▁branj	-10.9259
▁prepričal	-10.9262
▁nehal	-10.9275
▁teb	-10.928
krajša	-10.9323
▁zahtevn	-10.9324
▁blago	-10.9357
▁Tony	-10.9364
▁Govorim	-10.9369
▁predstavit	-10.937
▁uporab	-10.9374
▁znašl	-10.9384
▁vonj	-10.9401
▁očesn	-10.9402
▁izvajal	-10.9412
▁dajal	-10.9447
▁Kakš	-10.9464
▁razlag	-10.9475
ill	-10.9486
▁gol	-10.9486
▁prebra	-10.9493
▁preseli	-10.9507
▁poletj	-10.9522
piral	-10.9552
ff	-10.9564
▁prihajal	-10.9565
▁posveti	-10.9575
▁potegne	-10.9577
▁izboljšat	-10.9614
▁Prek	-10.9614
▁preverja	-10.9635
▁Naredi	-10.9642
ključen	-10.9642
▁zgor	-10.9673
▁reagira	-10.9678
▁Dobi	-10.968
▁pridobim	-10.9687
▁voz	-10.9701
▁vaje	-10.9708
▁mogočn	-10.9714
▁miselni	-10.9725
▁zagotavlja	-10.9734
nejši	-10.9748
▁Števil	-10.9754
plača	-10.9773
▁spekt	-10.9773
H	-10.9777
▁označ	-10.9778
gniti	-10.9788
▁rokam	-10.9789
▁ohranit	-10.9804
▁dvig	-10.9813
▁člank	-10.9817
▁proizvod	-10.982
▁spust	-10.9832
▁premikanj	-10.9834
▁kozar	-10.9854
▁praz	-10.9856
▁5.	-10.9859
pozicij	-10.9861
▁zmožn	-10.9878
▁blazin	-10.9885
▁želez	-10.9895
▁katastrof	-10.99
▁Člove	-10.9904
pozitiv	-10.9905
▁ljubljen	-10.9906
▁šibk	-10.9907
▁skrivn	-10.9908
arc	-10.9914
▁Afričan	-10.9915
▁Amerišk	-10.9915
▁fleksibiln	-10.9915
▁geološk	-10.9915
▁klasičn	-10.9915
▁najrevnejš	-10.9915
▁sekularn	-10.9915
▁vztraja	-10.9915
▁Čudovit	-10.9915
▁čokolad	-10.9915
▁Antarktik	-10.9915
▁Inštitut	-10.9915
▁Matematik	-10.9915
▁Nigerij	-10.9915
▁Projekt	-10.9915
▁Stacey	-10.9915
▁William	-10.9915
▁astronavt	-10.9915
▁efekt	-10.9915
▁fotoaparat	-10.9915
▁glagol	-10.9915
▁kakršen	-10.9915
▁lestvic	-10.9915
▁milisekund	-10.9915
▁neprofitn	-10.9915
▁notranji	-10.9915
▁piramid	-10.9915
▁pokrajin	-10.9915
▁prevzame	-10.9915
▁proizvede	-10.9915
▁racionaln	-10.9915
▁simulacij	-10.9915
▁skrinjic	-10.9915
▁udeležb	-10.9915
▁ukazovaln	-10.9915
▁velikodušn	-10.9915
▁veličastn	-10.9915
▁zapolni	-10.9915
▁Čist	-10.9915
▁Bush	-10.9915
▁Ustvarj	-10.9915
▁ducat	-10.9915
▁najnovejš	-10.9915
▁obišče	-10.9915
▁podnebn	-10.9915
▁prostetičn	-10.9915
▁recikliran	-10.9915
▁Pogledal	-10.9915
▁hrib	-10.9915
▁obrnjen	-10.9915
▁prašič	-10.9915
▁tablet	-10.9915
▁Štiri	-10.9915
▁curk	-10.9915
▁intuicij	-10.9915
▁potisnem	-10.9915
▁Ministrstv	-10.9915
▁mehansk	-10.9915
▁vpogled	-10.9915
▁predvidi	-10.9915
▁spodnj	-10.9915
▁kopalnic	-10.9915
▁ukaz	-10.9915
▁pokaži	-10.9915
▁Dekle	-10.9915
▁faks	-10.9915
▁sprosti	-10.9915
▁kaset	-10.9915
▁molekularn	-10.9915
▁Lorn	-10.9916
▁breme	-10.9916
▁investira	-10.9916
▁prevelik	-10.9916
pomlad	-10.9916
▁cvet	-10.9916
▁dolžin	-10.9916
▁doživlja	-10.9916
▁rož	-10.9916
▁strupen	-10.9916
▁pogon	-10.9916
▁budističn	-10.9916
▁optičn	-10.9916
▁južne	-10.9916
▁Irak	-10.9916
▁ločit	-10.9916
▁Sarajev	-10.9916
▁pretvarja	-10.9917
▁MRI	-10.9917
▁osemdeset	-10.9917
▁snemal	-10.9917
▁prodal	-10.9917
▁paznik	-10.9917
▁sedemdeset	-10.9917
▁odpravil	-10.9917
▁volišč	-10.9917
▁splav	-10.9918
▁Podob	-10.9918
▁golf	-10.9918
▁dvojn	-10.9918
▁doktorat	-10.9919
▁Poklical	-10.9919
▁zamud	-10.9919
▁izmisli	-10.9919
▁esej	-10.992
▁kimatik	-10.992
▁pojavlja	-10.992
▁počaka	-10.992
▁Tajsk	-10.992
▁rezervat	-10.9921
▁tovrstn	-10.9922
▁nakaz	-10.9924
▁prosojnic	-10.9924
▁glin	-10.9924
▁delavnic	-10.9924
▁spodbudil	-10.9924
▁Človešk	-10.9927
▁Francij	-10.9927
▁ranljivost	-10.9928
▁zadene	-10.9928
▁tvegan	-10.9928
▁map	-10.9932
▁motoričn	-10.9933
▁Splo	-10.9933
▁uslužbenc	-10.9933
atika	-10.9936
▁počutj	-10.9937
▁papirja	-10.9938
▁proizvajalc	-10.9939
▁Lepo	-10.994
▁spor	-10.994
▁Mur	-10.9941
▁oddal	-10.9946
▁vzemi	-10.9946
▁razumljiv	-10.9947
▁dolgočasn	-10.9947
▁drzn	-10.9947
tleh	-10.9948
▁lig	-10.9949
▁dopolnil	-10.995
voz	-10.9951
▁najmanjš	-10.9951
▁dodate	-10.9953
▁obtožen	-10.9955
▁varnostn	-10.9957
▁pisateljic	-10.9958
▁pripomočk	-10.9959
▁oddel	-10.996
▁pse	-10.996
▁dovoljuje	-10.9961
▁ran	-10.9962
▁udaril	-10.9962
▁bolnikov	-10.9966
▁prizor	-10.997
▁grafit	-10.9972
▁središč	-10.9973
▁Dva	-10.9973
▁glasovnic	-10.9974
▁svetoval	-10.9975
▁stroškov	-10.9976
▁pomembnejš	-10.9979
▁kozarc	-10.998
▁cerkv	-10.998
▁postavljen	-10.9985
▁zaplet	-10.9985
▁obožujem	-10.9988
▁NA	-10.9997
▁vzgojen	-10.9999
▁dvigal	-10.9999
▁zavrnil	-10.9999
▁100-	-11.0001
▁upal	-11.0003
▁pridobivanj	-11.0008
▁očara	-11.0011
▁preučevanj	-11.0011
▁10-	-11.0031
▁nadzoruje	-11.0033
▁Živim	-11.0051
▁poči	-11.006
▁industrijsk	-11.0068
▁zunanjem	-11.0074
▁ustanovil	-11.0083
pisan	-11.0088
▁36	-11.0091
▁gledan	-11.0097
▁skočil	-11.0099
▁izpostavil	-11.01
▁presoj	-11.0101
▁olje	-11.0114
▁dejavnost	-11.0121
▁Azij	-11.0137
▁megl	-11.0137
NT	-11.0137
▁Postavi	-11.0138
▁dajanj	-11.0144
▁načrtuje	-11.0151
▁predstavitv	-11.0153
dje	-11.0164
▁kvačkanj	-11.0167
▁Las	-11.0176
▁zaščitit	-11.0195
▁Igral	-11.0204
▁ustavim	-11.0218
arij	-11.0221
▁Začne	-11.0238
▁Jac	-11.0249
▁spoštovanje	-11.0252
▁uresničil	-11.0255
▁Govori	-11.0268
▁področ	-11.0272
▁borit	-11.0275
▁odločim	-11.031
▁Mimo	-11.0311
▁Opazil	-11.0322
▁bralc	-11.0331
▁ugodn	-11.0333
▁služil	-11.0366
▁slepot	-11.0386
▁izid	-11.0406
▁Šl	-11.0411
▁uničenj	-11.0412
▁občasn	-11.0417
▁bitk	-11.0423
govori	-11.0426
rsko	-11.0426
▁preprostim	-11.043
▁odpret	-11.043
▁pitn	-11.0451
▁nekakš	-11.0452
zbol	-11.0458
▁Pravim	-11.0481
▁Cassini	-11.0482
▁Zn	-11.0486
▁trdit	-11.0516
javil	-11.0523
▁gospodarstv	-11.0533
▁obrnem	-11.0562
▁okn	-11.0568
mail	-11.0573
▁uredit	-11.0581
▁kuhanj	-11.0583
amen	-11.0589
▁vezi	-11.0595
▁sledim	-11.0595
▁koral	-11.0626
▁Pride	-11.0633
▁priznava	-11.0645
▁sladkor	-11.0647
▁ustvarjaln	-11.0665
nka	-11.0667
▁vstopil	-11.0671
▁celotnem	-11.0685
▁pogovarjaj	-11.0688
škem	-11.0693
▁vlagatelj	-11.0694
▁prijaz	-11.0696
▁popravi	-11.0701
▁užit	-11.0704
▁posod	-11.0708
56	-11.0708
▁enostav	-11.071
▁Opazi	-11.0724
stven	-11.0741
kloni	-11.0748
lasti	-11.0751
▁izkoristi	-11.0755
▁rod	-11.0761
▁mladost	-11.0761
▁odlič	-11.0764
vodni	-11.077
▁drž	-11.0772
▁Našl	-11.0774
▁najel	-11.0784
▁odkrijem	-11.0799
▁tisk	-11.0812
▁Zanima	-11.0821
ologija	-11.0837
▁omenja	-11.0842
▁preživet	-11.0844
▁nos	-11.0847
mest	-11.0869
▁Rus	-11.0875
▁vplival	-11.0902
▁poroči	-11.0903
▁slabost	-11.0903
▁vsakd	-11.091
▁občudova	-11.0928
▁določa	-11.094
vest	-11.0944
▁ugotavlja	-11.0949
▁majhnim	-11.0952
▁določil	-11.0956
▁reševa	-11.0959
▁sestavit	-11.0961
▁storim	-11.0979
▁mnogim	-11.0982
▁vreme	-11.0982
▁uresničit	-11.0989
▁skoči	-11.0992
▁okvar	-11.1015
držal	-11.1021
▁predvide	-11.1026
U	-11.1027
▁omeni	-11.1033
▁ured	-11.1035
gnil	-11.1036
korak	-11.1038
▁čust	-11.1059
torij	-11.1061
▁lon	-11.1076
▁piščan	-11.1084
▁Prej	-11.1092
▁plavanj	-11.1103
klep	-11.1112
▁pogovarja	-11.112
▁umor	-11.1121
▁znam	-11.1126
prva	-11.1132
▁pohval	-11.1141
▁gosp	-11.1153
▁programira	-11.1153
▁prisil	-11.1156
▁Kanner	-11.1163
▁usnj	-11.1165
▁Držav	-11.1165
▁Potrebn	-11.1165
▁nedokončan	-11.1165
▁specifičn	-11.1165
elektrarn	-11.1165
telektualn	-11.1165
▁Angeles	-11.1165
▁Arhitekt	-11.1165
▁Connor	-11.1165
▁Gvinej	-11.1165
▁Holmes	-11.1165
▁Michael	-11.1165
▁Organizacij	-11.1165
▁Poslušaj	-11.1165
▁Prakash	-11.1165
▁Presenet	-11.1165
▁Samanth	-11.1165
▁Singapur	-11.1165
▁Somalij	-11.1165
▁Tyler	-11.1165
▁Washington	-11.1165
▁analogij	-11.1165
▁dimenzij	-11.1165
▁dinamik	-11.1165
▁dinozavr	-11.1165
▁dostojanstv	-11.1165
▁dražb	-11.1165
▁ekološk	-11.1165
▁globin	-11.1165
▁inštrument	-11.1165
▁katedral	-11.1165
▁korporacij	-11.1165
▁lebdenj	-11.1165
▁narisal	-11.1165
▁nevrološk	-11.1165
▁obešalnik	-11.1165
▁poglobi	-11.1165
▁ponared	-11.1165
▁poskrbi	-11.1165
▁povpraševanj	-11.1165
▁predvidljiv	-11.1165
▁premišljeva	-11.1165
▁pretvornik	-11.1165
▁rekvizit	-11.1165
▁rojstn	-11.1165
▁sedanjost	-11.1165
▁spleza	-11.1165
▁stražarj	-11.1165
▁vzbujajoč	-11.1165
▁žvižgač	-11.1165
▁Besed	-11.1165
▁Italij	-11.1165
▁brisa	-11.1165
▁kartografira	-11.1165
▁koledarj	-11.1165
▁ljudožerc	-11.1165
▁napolni	-11.1165
▁ničvredn	-11.1165
▁posledičn	-11.1165
▁puščav	-11.1165
▁vegetarijan	-11.1165
▁Čarovnik	-11.1165
▁doživi	-11.1165
▁razmislil	-11.1165
▁zasliš	-11.1165
▁hladilnik	-11.1165
▁južno	-11.1165
▁obrača	-11.1165
▁senzorj	-11.1165
▁upočasn	-11.1165
▁Prihaja	-11.1165
▁pehot	-11.1165
▁Mandel	-11.1165
▁mentor	-11.1165
▁podjetnišk	-11.1165
▁prostovoljc	-11.1165
▁spušča	-11.1165
▁subtiln	-11.1165
▁zavzet	-11.1165
▁zlobn	-11.1165
▁Milijon	-11.1165
▁skenira	-11.1165
▁bančn	-11.1165
▁mojstrovin	-11.1165
▁najtežj	-11.1165
▁notranje	-11.1165
▁patogen	-11.1165
▁Občut	-11.1165
▁klub	-11.1165
▁šunk	-11.1165
▁invalidn	-11.1165
▁rojen	-11.1165
▁Mehik	-11.1165
▁Frank	-11.1165
▁Uspel	-11.1165
▁poslušaj	-11.1165
▁nahrani	-11.1165
▁prikaže	-11.1165
▁Long	-11.1165
▁obleganj	-11.1165
▁širjenj	-11.1165
▁lasersk	-11.1166
▁potegnil	-11.1166
▁tekstil	-11.1166
▁pijan	-11.1166
taplja	-11.1166
▁kliče	-11.1166
▁poganja	-11.1166
▁usede	-11.1166
▁aktivist	-11.1166
▁Hans	-11.1166
▁Kanad	-11.1166
▁južni	-11.1166
▁ocenjuje	-11.1166
▁logik	-11.1166
▁rožnat	-11.1166
▁znajde	-11.1166
▁tolažb	-11.1166
▁bloka	-11.1166
▁miljardink	-11.1166
▁Sedem	-11.1166
▁neresnic	-11.1166
▁atlet	-11.1166
▁ustavlja	-11.1166
▁porast	-11.1166
▁april	-11.1166
▁merjenj	-11.1166
▁prisluhnil	-11.1167
▁Sodeluj	-11.1167
▁potrošnik	-11.1167
▁vogal	-11.1167
▁prevladujoč	-11.1167
▁dvori	-11.1167
▁napredoval	-11.1167
▁navodil	-11.1167
▁zlomljen	-11.1167
▁Jemen	-11.1167
▁Kannerjev	-11.1168
▁meščan	-11.1168
▁strip	-11.1168
▁Zahval	-11.1168
▁kruh	-11.1168
▁Vojn	-11.1168
prejemnik	-11.1168
▁kokoš	-11.1168
▁zaupal	-11.1168
▁Komaj	-11.1168
▁Kenem	-11.1169
▁trpel	-11.1169
▁položil	-11.1169
▁izstop	-11.1169
▁1970	-11.1169
življ	-11.1169
▁strop	-11.117
▁testiran	-11.117
▁testiral	-11.117
▁gob	-11.117
▁zlorablja	-11.117
▁igrišč	-11.117
▁bogastv	-11.1171
▁razkril	-11.1172
▁29	-11.1173
▁Stroj	-11.1173
▁silnic	-11.1173
▁Prizna	-11.1173
▁Znan	-11.1174
▁domiseln	-11.1174
▁peg	-11.1175
▁šibkejš	-11.1175
▁sestank	-11.1175
ajoče	-11.1175
▁dojk	-11.1177
▁zahvaljuj	-11.1177
▁bistr	-11.1177
▁misij	-11.1177
▁33	-11.1178
▁pojdi	-11.1178
▁tišin	-11.1178
▁Hawking	-11.1179
▁zavedl	-11.1179
▁učni	-11.1179
▁ukraden	-11.1181
▁Ritem	-11.1181
▁Napravi	-11.1182
▁veze	-11.1185
▁odpornost	-11.1188
▁bali	-11.1191
▁zasnovan	-11.1192
▁očisti	-11.1192
▁manjša	-11.1194
▁funkcionaln	-11.1195
▁Zagotov	-11.1195
▁sestavin	-11.1196
▁zaporn	-11.12
▁osredotoča	-11.1201
▁prisilil	-11.1206
▁ustvarjalnost	-11.1208
▁dlan	-11.1208
▁zlomil	-11.121
▁razkritje	-11.1212
▁vrže	-11.1217
▁Lani	-11.1221
▁vodstven	-11.1221
▁Ugand	-11.1222
▁dosle	-11.1224
▁zadet	-11.1225
▁kupol	-11.1228
▁odpoved	-11.1229
▁primerjat	-11.1233
▁vrv	-11.1234
▁srečnejš	-11.1234
▁uporabnost	-11.1234
▁prepoznavanj	-11.1239
▁Razmišljal	-11.1239
bliž	-11.1239
▁nož	-11.124
▁zavih	-11.124
▁partnersk	-11.1241
▁opravičuj	-11.1241
▁Bral	-11.1241
▁avtorj	-11.1243
skop	-11.1245
▁AB	-11.1248
▁sanjal	-11.125
▁samostojnost	-11.1252
▁preživim	-11.1254
▁prag	-11.1259
recej	-11.1259
▁pomembnost	-11.1262
▁hodim	-11.1263
▁kaplj	-11.1264
očju	-11.1266
▁obtožb	-11.1268
▁atomsk	-11.1269
▁studi	-11.1269
▁vključil	-11.1272
▁Mal	-11.1278
▁izdelovanj	-11.128
▁prstom	-11.1282
▁novembr	-11.1286
▁Googlov	-11.1289
▁negotov	-11.1312
▁zdravnic	-11.1312
▁naivn	-11.1329
▁oglaševanj	-11.1343
staviti	-11.1343
▁širil	-11.1347
▁dobičk	-11.1347
▁povezanost	-11.1349
▁cik	-11.1352
čin	-11.1356
▁Kim	-11.1356
▁stranski	-11.1359
▁odnese	-11.136
▁milijardam	-11.1379
▁podporn	-11.138
▁vleče	-11.1385
nadom	-11.1386
▁neznansk	-11.1397
▁poškodovan	-11.1408
andr	-11.1414
▁Sav	-11.1423
▁opusti	-11.1426
▁pouk	-11.1436
▁delčk	-11.1443
▁pišem	-11.1444
▁desetlet	-11.1445
▁zgornj	-11.1448
▁predpis	-11.1463
▁odkrivanj	-11.1464
▁Čutil	-11.147
▁manjšim	-11.1474
volil	-11.1498
▁omenjam	-11.1499
▁opravljal	-11.1513
▁premaknil	-11.1519
▁udeleženc	-11.1521
▁Zanimal	-11.1525
▁Poskusil	-11.1534
▁plavaj	-11.1537
▁pristn	-11.1567
▁pridobil	-11.1609
▁srečuje	-11.162
▁letenj	-11.1625
▁vključim	-11.1631
ezij	-11.1663
▁programsk	-11.1671
▁privlač	-11.1676
▁pravičn	-11.1683
▁pojem	-11.1685
▁severne	-11.1689
▁košče	-11.1719
▁sladkorn	-11.1727
▁plačan	-11.173
▁poklicn	-11.1733
▁strojn	-11.1737
▁Načrt	-11.1749
▁izkusil	-11.175
▁34	-11.1763
▁partner	-11.1767
▁vadi	-11.1781
stransk	-11.1794
▁uspeš	-11.18
▁navdušenj	-11.1813
▁prispeval	-11.1813
▁praln	-11.1829
▁Tonyj	-11.1829
▁sprejemanj	-11.1837
▁krivd	-11.1862
▁podal	-11.1879
▁spominjal	-11.1881
▁pripravljal	-11.1884
▁dokončan	-11.1898
▁direktor	-11.1909
▁zastav	-11.1914
▁idealn	-11.1932
dnevi	-11.1956
varnejš	-11.1975
60	-11.1976
▁porabil	-11.1976
port	-11.198
▁vidne	-11.1999
▁mlajš	-11.2007
▁pridobi	-11.2028
▁pričakova	-11.2029
his	-11.204
▁zbiral	-11.206
▁Povs	-11.2063
▁obstajal	-11.2081
▁poslan	-11.2085
▁požar	-11.2128
▁krvn	-11.2145
disi	-11.217
▁sedež	-11.2174
▁motivira	-11.2175
▁raziskovalce	-11.2175
▁Dovol	-11.2178
▁organizacijam	-11.2197
▁zgod	-11.2204
▁napis	-11.2215
▁Igra	-11.2229
▁zgiban	-11.2242
▁nesrečn	-11.2243
praš	-11.2249
▁2.0	-11.2284
▁priznal	-11.2285
41	-11.229
▁nevro	-11.2296
▁loti	-11.2299
▁moril	-11.2303
▁tajn	-11.2303
▁sodelujem	-11.2317
govarjal	-11.2323
▁Izgleda	-11.2333
arji	-11.234
▁pozn	-11.2351
▁slikal	-11.2357
▁izpostavi	-11.2358
štva	-11.2367
lacij	-11.238
▁Odloči	-11.238
▁rabim	-11.2382
▁mehurč	-11.2408
▁pogaja	-11.2413
▁Car	-11.2425
▁uporabim	-11.2426
▁izkoristim	-11.2427
barvan	-11.243
▁kontakt	-11.2444
šolsk	-11.2455
prodaj	-11.2456
▁Mac	-11.2499
▁cerk	-11.2512
menil	-11.2514
▁denarj	-11.2521
tologi	-11.2528
▁elektron	-11.2536
▁prenesem	-11.2546
▁hvaležn	-11.2554
▁konj	-11.2561
▁sporazum	-11.2564
▁umakn	-11.2573
▁Franc	-11.2579
▁mojstr	-11.2582
▁Wal	-11.2587
ublika	-11.2592
▁prisluh	-11.2592
▁konzerv	-11.2594
indvajset	-11.2594
▁Berkeley	-11.2594
▁Einstein	-11.2594
▁GPS	-11.2594
▁Religij	-11.2594
▁Rezultat	-11.2594
▁Shakespear	-11.2594
▁Stanford	-11.2594
▁Stephen	-11.2594
▁TEMPT	-11.2594
▁amputiran	-11.2594
▁arabsk	-11.2594
▁avgust	-11.2594
▁depresivn	-11.2594
▁direktn	-11.2594
▁dosežk	-11.2594
▁figur	-11.2594
▁goljufa	-11.2594
▁hrenovk	-11.2594
▁ignorira	-11.2594
▁integritet	-11.2594
▁intervjuval	-11.2594
▁italijansk	-11.2594
▁knjižne	-11.2594
▁komponent	-11.2594
▁konkretn	-11.2594
▁nanometrov	-11.2594
▁napihljiv	-11.2594
▁nasprotova	-11.2594
▁neizmern	-11.2594
▁neuspeh	-11.2594
▁nevroznanost	-11.2594
▁nezaposlen	-11.2594
▁oboževal	-11.2594
▁okužb	-11.2594
▁opredeli	-11.2594
▁ozaveščen	-11.2594
▁parlament	-11.2594
▁participacij	-11.2594
▁penicilin	-11.2594
▁ponarejeval	-11.2594
▁premajh	-11.2594
▁pridobljen	-11.2594
▁prilagojen	-11.2594
▁prispevk	-11.2594
▁privilegiran	-11.2594
▁slehern	-11.2594
▁slušalk	-11.2594
▁snežink	-11.2594
▁sovražil	-11.2594
▁sovražim	-11.2594
▁sovražit	-11.2594
▁trebuh	-11.2594
▁vzpenja	-11.2594
▁vzpodbud	-11.2594
▁založnik	-11.2594
▁zrcalni	-11.2594
▁človečnost	-11.2594
▁Študent	-11.2594
▁Lifesaver	-11.2594
▁Omogoč	-11.2594
▁Raziskav	-11.2594
▁brskal	-11.2594
▁empatij	-11.2594
▁identificira	-11.2594
▁komentar	-11.2594
▁osrečuje	-11.2594
▁pokliče	-11.2594
▁pospešuje	-11.2594
▁preobrazb	-11.2594
▁pretvori	-11.2594
▁rekord	-11.2594
▁spoprije	-11.2594
▁transparent	-11.2594
▁vzbudi	-11.2594
▁Ljubi	-11.2594
▁Rdeč	-11.2594
▁Virus	-11.2594
▁antrop	-11.2594
▁diagnosticira	-11.2594
▁enakomern	-11.2594
▁izraelsk	-11.2594
▁potisnil	-11.2594
▁povrne	-11.2594
▁preiskav	-11.2594
▁udobn	-11.2594
▁Ključ	-11.2594
▁hrup	-11.2594
▁nadlegovanj	-11.2594
▁odpust	-11.2594
▁poimenuje	-11.2594
▁ponazori	-11.2594
▁sumljiv	-11.2594
▁tablic	-11.2594
▁zavzel	-11.2594
▁Majhn	-11.2594
▁doumel	-11.2594
▁kavbojk	-11.2594
▁profil	-11.2594
▁briga	-11.2594
▁nadaljn	-11.2594
▁prostovoljn	-11.2594
▁društv	-11.2594
▁zatočišč	-11.2594
▁kavarn	-11.2594
▁zvenel	-11.2594
▁Cilj	-11.2594
▁poslušanj	-11.2594
▁mladenič	-11.2594
▁regij	-11.2594
▁zrasl	-11.2594
▁hujš	-11.2594
▁izvedljiv	-11.2594
▁izvoljen	-11.2594
▁pletenje	-11.2594
▁nepraviln	-11.2594
▁zavarova	-11.2594
▁odstranim	-11.2594
▁zraste	-11.2594
▁bombaž	-11.2594
▁jakost	-11.2594
▁kabl	-11.2594
▁okrevanj	-11.2594
▁posveča	-11.2594
▁Jemenčan	-11.2594
▁Prejšnj	-11.2594
▁planetarn	-11.2594
▁prepad	-11.2594
▁prevzet	-11.2594
▁pretiran	-11.2594
▁cenjen	-11.2594
▁kroži	-11.2594
▁Učitelj	-11.2594
▁zaporedj	-11.2594
▁odhaja	-11.2594
▁izgradnj	-11.2595
▁pripada	-11.2595
▁nepomembn	-11.2595
▁vohun	-11.2595
▁pripravim	-11.2595
EG	-11.2595
▁vpleten	-11.2595
▁vadb	-11.2595
▁trening	-11.2595
▁znebi	-11.2596
▁nastaja	-11.2596
▁čiga	-11.2596
▁Rodil	-11.2596
▁podprl	-11.2596
▁Nočem	-11.2596
▁Gospod	-11.2596
▁snemanj	-11.2596
▁krhk	-11.2596
▁Nedavn	-11.2596
▁posvetim	-11.2596
▁krvav	-11.2597
▁razpad	-11.2597
▁privedl	-11.2597
▁zanesljiv	-11.2597
▁zmagoval	-11.2597
▁nebes	-11.2597
acient	-11.2597
OT	-11.2597
▁onesnaženj	-11.2598
▁zadovoljstvo	-11.2598
▁vezj	-11.2598
▁prikolic	-11.2599
▁obletnic	-11.2599
▁očal	-11.2599
▁surovin	-11.2599
▁premog	-11.2599
▁kodiran	-11.26
▁Postane	-11.26
▁božič	-11.26
▁Odras	-11.26
▁Začet	-11.26
soglas	-11.26
▁elektronik	-11.26
▁nekdanj	-11.2601
▁govorjenj	-11.2601
▁razkriva	-11.2601
▁rešen	-11.2601
▁ocenjen	-11.2601
▁vmesnik	-11.2601
▁Jason	-11.2601
▁terorist	-11.2602
▁zboli	-11.2602
▁znamenj	-11.2602
▁preizkuš	-11.2602
▁zagon	-11.2603
▁sprehodi	-11.2603
▁razsežnost	-11.2603
▁250	-11.2604
▁52	-11.2604
▁napreduje	-11.2604
▁vztrajnost	-11.2605
▁58	-11.2605
▁oktobr	-11.2605
▁zanič	-11.2605
▁Ray	-11.2606
▁obstoječ	-11.2606
▁komet	-11.2607
▁občudujem	-11.2608
renca	-11.2609
▁glasbenik	-11.2609
▁nasprotnik	-11.2609
▁32	-11.261
▁soočil	-11.2611
▁prečka	-11.2611
▁čip	-11.2612
▁namern	-11.2613
▁bež	-11.2614
▁prejema	-11.2614
▁Poznam	-11.2615
▁noht	-11.2616
▁Home	-11.2619
▁pristane	-11.262
▁prejme	-11.262
culu	-11.2622
▁nihal	-11.2625
▁veže	-11.2625
▁državljanstv	-11.2626
▁Britansk	-11.2628
▁govorc	-11.2628
▁neumnost	-11.2629
▁čelad	-11.263
▁poezij	-11.263
klenil	-11.263
▁priletel	-11.2632
▁Rusij	-11.2632
▁navdihnil	-11.2632
▁storitve	-11.2633
▁cena	-11.2633
▁hvaležnost	-11.2633
▁prstan	-11.2636
▁dvoje	-11.2639
andal	-11.264
▁Vlad	-11.264
▁plačil	-11.2643
▁umetnin	-11.2644
žnje	-11.2646
▁zaprl	-11.2646
▁70-	-11.2646
cy	-11.2647
▁podpisal	-11.2648
▁Vas	-11.2651
▁kompleksnost	-11.2652
▁predelan	-11.2657
▁cenim	-11.2657
▁toplot	-11.2659
▁Stasij	-11.2661
▁Leto	-11.2661
▁izlet	-11.2663
▁pazit	-11.2663
▁filmski	-11.2663
▁zarodkov	-11.2669
▁nočn	-11.267
▁matičn	-11.2675
▁jug	-11.2677
▁Voli	-11.2677
▁Starš	-11.2679
▁svilen	-11.2681
▁skrivnostn	-11.2683
dvom	-11.2683
▁zmaj	-11.2687
▁krajše	-11.2687
RP	-11.2687
▁skrivaj	-11.2687
▁uradn	-11.2689
▁vložil	-11.2693
▁pogojem	-11.2696
▁vzpostavil	-11.2696
▁Medij	-11.2704
▁tragičn	-11.2705
▁10.	-11.2708
▁Razli	-11.2708
▁pošljem	-11.2709
▁ogledam	-11.2714
▁prijaznost	-11.2723
▁minil	-11.2724
▁lovit	-11.2728
▁strel	-11.273
▁Počas	-11.2733
▁pobegnil	-11.2735
▁starševsk	-11.2736
▁Kri	-11.2737
▁maram	-11.2738
▁kontaktira	-11.2745
fizi	-11.2752
zrez	-11.2754
▁šk	-11.2771
▁pritegnil	-11.2781
▁čakam	-11.2783
▁Carl	-11.2784
▁mehanizm	-11.2797
▁težavam	-11.2798
▁nameraval	-11.2827
▁dojet	-11.2827
▁igric	-11.283
▁pripravljenost	-11.2836
▁potok	-11.2838
▁potrebam	-11.2839
▁ironij	-11.2847
vedel	-11.2857
▁metan	-11.2857
▁občudovanj	-11.2874
▁varovanj	-11.288
▁novinark	-11.2891
tok	-11.2892
▁poiskal	-11.2894
▁arhitekturn	-11.2905
▁upira	-11.2907
▁igranj	-11.2908
▁pogovoril	-11.2915
ID	-11.2927
▁zagotavljanj	-11.2927
▁kvadratni	-11.296
▁preganja	-11.296
▁Ogle	-11.2972
▁uživam	-11.2982
▁palicam	-11.2989
▁odreza	-11.2992
▁žark	-11.2993
▁končan	-11.2993
▁predvajal	-11.3004
▁vstavi	-11.3014
▁pogovarjam	-11.3022
▁odkrije	-11.3034
križ	-11.3054
▁koristno	-11.3062
▁dolarji	-11.3084
▁Uči	-11.3085
Rev	-11.3086
▁volivce	-11.3091
▁spoznava	-11.3094
▁presenečenj	-11.3099
▁Slik	-11.3119
▁spreminjanj	-11.3119
▁sedmim	-11.3132
▁tiskanj	-11.3166
▁Vzamem	-11.3171
▁preveril	-11.3179
▁upravljal	-11.3182
▁energijsk	-11.3189
▁popravil	-11.319
▁upadl	-11.3216
▁dodeli	-11.3248
▁privede	-11.3251
▁prestop	-11.3251
▁preživetj	-11.3252
▁izkoristil	-11.3267
▁organizira	-11.327
▁detektorj	-11.3274
▁Ustvaril	-11.3274
▁spremljal	-11.3275
ciran	-11.3289
▁drugačnim	-11.3307
▁naključn	-11.3327
▁obrne	-11.334
▁obrazc	-11.3359
lagam	-11.3371
▁ras	-11.3374
rabljen	-11.3405
▁traj	-11.3414
▁strastn	-11.3416
nki	-11.342
▁prež	-11.3432
▁nivoj	-11.3439
▁preštej	-11.3452
čujem	-11.347
▁počasnej	-11.3478
IS	-11.3479
▁skušam	-11.3496
▁ponudit	-11.3504
▁strinjam	-11.3519
▁tvega	-11.3519
▁Tho	-11.3547
▁raziskova	-11.3561
▁telesn	-11.3567
▁opaz	-11.3569
zon	-11.3571
▁odraščanje	-11.3598
▁preprečil	-11.3612
▁izvorne	-11.3613
▁Pomagaj	-11.3666
povedujem	-11.3673
▁igram	-11.3719
▁moder	-11.3721
▁običaj	-11.3736
▁Mnog	-11.3741
rand	-11.3754
krog	-11.3756
▁spraševa	-11.3761
▁potekal	-11.3782
▁Predstavlja	-11.3795
▁udeležen	-11.3795
kratk	-11.3796
▁družinam	-11.3797
▁premakni	-11.3798
▁kupuje	-11.3832
▁zmede	-11.3834
▁neham	-11.3836
▁širin	-11.3838
▁Začnem	-11.3839
▁Čuti	-11.386
▁resnič	-11.3863
▁zmanjšal	-11.3875
▁obrni	-11.3894
berg	-11.3896
▁živil	-11.3898
▁vidni	-11.3902
ščite	-11.3929
▁sestavljal	-11.3931
48	-11.3947
▁nadaljujem	-11.395
▁dohod	-11.3951
▁600	-11.3963
▁uresniči	-11.399
▁lastnim	-11.4012
▁oglaševa	-11.4023
▁Hval	-11.4043
meril	-11.4054
▁kipar	-11.4055
beležil	-11.4087
▁Spomni	-11.4097
▁zmen	-11.4102
▁priseljen	-11.4131
SI	-11.4144
▁dejst	-11.4154
ljud	-11.4165
▁filtr	-11.4182
▁prevod	-11.4182
500	-11.4196
slab	-11.42
▁Naredim	-11.4214
▁notranjo	-11.4221
▁radovedn	-11.4224
rezal	-11.4232
vita	-11.4233
puščen	-11.4236
▁sladk	-11.4241
▁stabiln	-11.4242
▁pljuč	-11.4254
▁pobira	-11.4256
▁sovražn	-11.4256
▁krožn	-11.4256
▁prevlad	-11.4257
▁ohrani	-11.426
▁eksplozi	-11.426
▁fosiln	-11.426
▁najgloblj	-11.426
▁navduši	-11.426
▁prefinjen	-11.426
▁prekrasn	-11.426
▁profesionaln	-11.426
▁spremenjen	-11.426
▁vzpodbuja	-11.426
▁Član	-11.426
eleposlaništv	-11.4261
▁Armstrong	-11.4261
▁Asperger	-11.4261
▁Bangladeš	-11.4261
▁Caltech	-11.4261
▁Darwin	-11.4261
▁Filistej	-11.4261
▁Geographic	-11.4261
▁Hasbr	-11.4261
▁Islam	-11.4261
▁Lestrad	-11.4261
▁Meggendorfer	-11.4261
▁Muzej	-11.4261
▁Ruby	-11.4261
▁Sebastian	-11.4261
▁Snowden	-11.4261
▁Stevenson	-11.4261
▁Swann	-11.4261
▁Trinidad	-11.4261
▁agresivn	-11.4261
▁akademik	-11.4261
▁akromegalij	-11.4261
▁angažiran	-11.4261
▁arhiv	-11.4261
▁arterij	-11.4261
▁blaginj	-11.4261
▁bleščeč	-11.4261
▁blokira	-11.4261
▁briljantn	-11.4261
▁britansk	-11.4261
▁disident	-11.4261
▁dizajn	-11.4261
▁ekosistem	-11.4261
▁ekspedicij	-11.4261
▁globalizacij	-11.4261
▁gradbišč	-11.4261
▁hidrant	-11.4261
▁hlajenj	-11.4261
▁intervjuj	-11.4261
▁inštitut	-11.4261
▁islam	-11.4261
▁iznajdljiv	-11.4261
▁kalorij	-11.4261
▁kombinira	-11.4261
▁konkurenc	-11.4261
▁malenkost	-11.4261
▁marketing	-11.4261
▁mikroorganizm	-11.4261
▁navdušujoč	-11.4261
▁neinvaziv	-11.4261
▁nepremičnin	-11.4261
▁neuspešn	-11.4261
▁newyoršk	-11.4261
▁obveščen	-11.4261
▁ogroža	-11.4261
▁osvetlit	-11.4261
▁ovaduh	-11.4261
▁personalizacij	-11.4261
▁podvojil	-11.4261
▁poglobljen	-11.4261
▁pozabljen	-11.4261
▁prebivalci	-11.4261
▁predpostavk	-11.4261
▁prepolov	-11.4261
▁prepustil	-11.4261
▁pretresen	-11.4261
▁primanjk	-11.4261
▁priskrbi	-11.4261
▁privilegij	-11.4261
▁prizadet	-11.4261
▁prizadeva	-11.4261
▁referenc	-11.4261
▁skulptur	-11.4261
▁sloves	-11.4261
▁sovraštv	-11.4261
▁spomenik	-11.4261
▁tekstur	-11.4261
▁teoretičn	-11.4261
▁transport	-11.4261
▁tridimenzionaln	-11.4261
▁ultrazvočn	-11.4261
▁usedl	-11.4261
▁vsesplošn	-11.4261
▁zavrtel	-11.4261
lizabet	-11.4261
▁Island	-11.4261
▁Kepler	-11.4261
▁Povpreč	-11.4261
▁avtomatsk	-11.4261
▁diskretn	-11.4261
▁doktrin	-11.4261
▁ftalat	-11.4261
▁hodnik	-11.4261
▁kmetovalc	-11.4261
▁kriterije	-11.4261
▁krščansk	-11.4261
▁nenasilj	-11.4261
▁nezgod	-11.4261
▁obsoja	-11.4261
▁potrudil	-11.4261
▁pravljic	-11.4261
▁provinc	-11.4261
▁razdeljen	-11.4261
▁razkroj	-11.4261
▁razmislek	-11.4261
▁smatra	-11.4261
▁Obiskal	-11.4261
▁Polovic	-11.4261
▁Pripravljen	-11.4261
▁civiln	-11.4261
▁galerij	-11.4261
▁nevladn	-11.4261
▁odvrže	-11.4261
▁zavetišč	-11.4261
▁avdio	-11.4261
▁izoliran	-11.4261
▁majčken	-11.4261
▁motivacij	-11.4261
▁osvetlje	-11.4261
▁Financ	-11.4261
▁Henry	-11.4261
▁Robin	-11.4261
▁dediščin	-11.4261
▁opustoš	-11.4261
▁podoživlja	-11.4261
▁povratn	-11.4261
▁zakonitosti	-11.4261
▁Izumil	-11.4261
▁Nobelov	-11.4261
▁neželen	-11.4261
▁primarn	-11.4261
▁srajc	-11.4261
▁vrzel	-11.4261
▁zaklad	-11.4261
▁Shake	-11.4261
▁kolekcij	-11.4261
▁posvečen	-11.4261
▁premislit	-11.4261
▁čred	-11.4261
▁gostitelj	-11.4261
▁jutrišnj	-11.4261
▁zgošč	-11.4261
▁kiborg	-11.4261
▁ugane	-11.4261
▁Jezik	-11.4261
▁shrani	-11.4261
▁zaužije	-11.4261
▁Šefel	-11.4261
▁izhlap	-11.4261
▁preprek	-11.4261
▁zavrže	-11.4261
▁nerodn	-11.4261
siljuje	-11.4261
▁obolenj	-11.4261
▁zagnal	-11.4261
▁obroč	-11.4261
▁Ponud	-11.4261
▁ugrablj	-11.4261
▁zavrti	-11.4261
▁štetje	-11.4261
▁režim	-11.4261
▁Boston	-11.4261
▁zdravnišk	-11.4261
▁domislil	-11.4261
▁fisc	-11.4261
▁skuha	-11.4261
▁člen	-11.4261
▁Tehnologi	-11.4261
▁Risen	-11.4261
▁Švic	-11.4261
▁počitnic	-11.4261
▁izbrisal	-11.4261
▁odstranil	-11.4261
▁poročn	-11.4261
▁ostarel	-11.4261
▁riž	-11.4261
▁troši	-11.4261
▁škamp	-11.4261
▁odplav	-11.4261
▁skladišč	-11.4261
▁Uporabljam	-11.4261
▁farm	-11.4261
▁kraljestv	-11.4261
▁množičn	-11.4261
▁izpod	-11.4261
▁gradnik	-11.4261
▁Sirij	-11.4261
▁Glav	-11.4261
▁Posnet	-11.4261
▁tolikšn	-11.4261
▁prizorišč	-11.4261
▁princes	-11.4261
▁najlažj	-11.4261
▁platform	-11.4261
well	-11.4262
▁trgovsk	-11.4262
▁ločil	-11.4262
▁krože	-11.4262
▁malarij	-11.4262
▁ulov	-11.4262
▁najstnic	-11.4262
▁prezira	-11.4262
▁opomin	-11.4262
▁pobud	-11.4262
▁obnovljive	-11.4262
▁encim	-11.4262
▁1,6	-11.4262
▁prošnj	-11.4262
▁litr	-11.4263
▁Skrb	-11.4263
▁povečuje	-11.4263
▁doktor	-11.4263
▁pomika	-11.4263
▁Spol	-11.4264
▁taksije	-11.4264
▁Takšn	-11.4264
▁šok	-11.4264
▁prodan	-11.4264
▁strada	-11.4265
▁3,5	-11.4265
▁izumrl	-11.4265
▁načrtoval	-11.4265
znanil	-11.4265
▁96	-11.4265
▁preklet	-11.4266
▁grafičn	-11.4266
▁senc	-11.4266
▁drobn	-11.4266
▁zniž	-11.4266
▁Bank	-11.4266
▁vljudn	-11.4266
▁maha	-11.4266
▁brad	-11.4267
▁Razvil	-11.4267
▁optimističn	-11.4267
▁zaznavn	-11.4267
▁Hran	-11.4267
▁možakar	-11.4267
▁mišic	-11.4267
▁97	-11.4268
▁simboličn	-11.4268
▁muslimansk	-11.4268
▁živeč	-11.4268
prevodnik	-11.4268
▁98	-11.4269
▁opremljen	-11.4269
▁kuharsk	-11.4269
▁predelav	-11.4269
▁govedin	-11.4269
▁72	-11.4269
▁64	-11.427
▁presled	-11.427
▁urednik	-11.4271
▁diagnostičn	-11.4271
▁peš	-11.4271
▁okras	-11.4271
▁koncert	-11.4271
▁strežnik	-11.4272
▁strelja	-11.4272
▁paket	-11.4272
▁Grk	-11.4272
▁Vibr	-11.4273
▁Masa	-11.4273
▁Pes	-11.4273
▁meditira	-11.4274
▁sub	-11.4275
▁kuka	-11.4276
▁tržnic	-11.4276
▁želv	-11.4276
▁King	-11.4277
▁strog	-11.4277
▁centraln	-11.4277
▁zakrit	-11.4277
▁Fotografij	-11.4277
▁bogatejš	-11.4277
▁pisav	-11.4278
▁stremi	-11.4278
▁stabilnost	-11.4279
▁predstavnik	-11.4279
▁Kub	-11.428
▁poslanstv	-11.428
▁meduz	-11.4281
lagali	-11.4281
▁povoj	-11.4281
▁partnerstv	-11.4282
▁speč	-11.4283
▁kraljic	-11.4283
▁prilega	-11.4283
▁visel	-11.4283
▁spodbudit	-11.4284
▁partnerjev	-11.4285
▁izpuščen	-11.4285
▁spremembam	-11.4286
▁Znanost	-11.4287
▁stavk	-11.4287
▁skic	-11.4287
▁donator	-11.4287
▁ribič	-11.4289
▁molit	-11.4289
▁kapljic	-11.429
▁korenin	-11.429
▁zavit	-11.4291
▁policaj	-11.4292
▁vdr	-11.4292
▁naložil	-11.4292
▁definira	-11.4293
▁24-	-11.4294
▁predaval	-11.4294
▁vklopi	-11.4295
▁voditeljev	-11.4296
▁nemšk	-11.4296
▁uprav	-11.4297
▁prijel	-11.4301
▁umaknil	-11.4303
▁ledenik	-11.4304
▁vrtn	-11.4304
vibrira	-11.4307
▁Sedel	-11.4307
▁Nosi	-11.4308
▁govornik	-11.4309
▁primerjam	-11.4309
▁napovedal	-11.4311
▁mehk	-11.4312
▁pustim	-11.4312
▁obkrožen	-11.4314
▁nemočn	-11.4317
▁pokvaril	-11.4318
otovo	-11.4319
▁pametnejš	-11.4323
▁razpon	-11.4323
▁vzornik	-11.4329
▁pomočnik	-11.4331
▁dosegljivo	-11.4331
▁potez	-11.4334
▁Miami	-11.4336
▁vročin	-11.4337
▁versk	-11.4337
ipičn	-11.4338
▁potrdilo	-11.4339
▁zavezal	-11.4343
hladil	-11.4344
▁prisotnost	-11.4344
▁lepotn	-11.4344
▁odigra	-11.4345
▁gojim	-11.4348
rinil	-11.435
▁šiv	-11.4353
▁varstv	-11.4354
▁Lansk	-11.4355
▁označit	-11.4356
LA	-11.4357
▁pobarva	-11.4361
smejal	-11.4361
▁oglasil	-11.4363
▁Mož	-11.4367
▁mojstrstv	-11.437
▁Gledat	-11.4371
▁zabaval	-11.438
▁škatlic	-11.438
▁bilijon	-11.438
▁dojel	-11.4381
▁tožil	-11.4385
▁zahvalil	-11.439
▁izpustil	-11.4394
▁Doma	-11.4397
▁vodik	-11.4402
▁turist	-11.4402
▁pregledal	-11.4405
▁računalniškim	-11.4405
▁ljubosumni	-11.4407
▁Cam	-11.4408
▁nikakršn	-11.441
▁nabit	-11.4414
▁Počutil	-11.4415
ijanski	-11.4425
▁Skupin	-11.4426
klicev	-11.4432
▁izmenj	-11.4433
▁komercialn	-11.4434
▁ohranil	-11.4434
▁razočaral	-11.4436
▁osrednj	-11.4437
▁letalsk	-11.4438
▁segre	-11.4439
▁odraslost	-11.4439
▁meritv	-11.4448
▁Pus	-11.445
▁živalsk	-11.4451
▁osamljenost	-11.4455
▁Javn	-11.4461
▁Bob	-11.4462
▁zdravstv	-11.4464
▁računanj	-11.447
▁diet	-11.447
▁denarnic	-11.4476
▁odgovarja	-11.448
▁očetovsk	-11.4488
▁televizijsk	-11.4489
▁Bistv	-11.4491
▁prestavi	-11.4491
▁natančnost	-11.4492
▁cepljenj	-11.4493
▁plezanj	-11.4497
▁priskrbel	-11.4534
▁črnil	-11.4548
▁kopič	-11.4564
▁kletk	-11.4574
▁sosednj	-11.4574
▁doseganj	-11.4574
▁rep	-11.4575
▁Izgledal	-11.4577
nogami	-11.4586
▁tujc	-11.4589
▁vodne	-11.4591
▁premikal	-11.4594
▁sektorj	-11.4599
▁Predava	-11.4635
▁standardn	-11.464
▁vlož	-11.4641
▁predvidevanj	-11.4642
▁programiranj	-11.4662
ogaja	-11.4673
▁poročanj	-11.4674
▁jemal	-11.4683
▁olajšal	-11.4708
▁sprehajal	-11.473
▁prostat	-11.4733
HE	-11.4743
▁posnemanj	-11.4744
42	-11.4745
ZN	-11.4749
▁pojedl	-11.4752
pisoval	-11.476
▁nadomestn	-11.4771
▁kupujem	-11.4775
▁davk	-11.4783
▁oddat	-11.4796
▁avatarj	-11.4817
▁odrezan	-11.4817
▁dedk	-11.483
▁zgibanj	-11.4831
zemlj	-11.4839
▁zapomnil	-11.4841
▁požarn	-11.4844
▁takš	-11.4852
▁Pojavi	-11.4876
▁gensk	-11.4889
kacij	-11.4906
pisovanje	-11.4938
raslo	-11.4956
▁posnemal	-11.4966
▁Večj	-11.4982
▁četrtin	-11.4993
▁stolet	-11.5008
▁občutij	-11.5013
▁zahtevam	-11.5036
▁strinjal	-11.5069
▁preučujem	-11.5083
▁raziskuje	-11.5084
▁jemlje	-11.5094
▁osnovan	-11.5094
▁odprtim	-11.5096
▁zaslužil	-11.5114
▁eks	-11.5122
▁deležni	-11.5142
▁vmesn	-11.5179
▁razvijanj	-11.5179
▁Žen	-11.5188
▁oceansk	-11.5191
▁tlak	-11.5201
▁spodbujal	-11.5214
▁izdelan	-11.5238
▁95	-11.5245
stopil	-11.5255
▁obnašal	-11.5259
▁Cassinij	-11.5273
pur	-11.5275
▁Sol	-11.5333
▁naročj	-11.5334
▁raziskujem	-11.5339
▁jemljem	-11.534
▁preučuje	-11.534
▁odprem	-11.5349
▁detektor	-11.5355
dolž	-11.5376
▁zamislit	-11.5396
▁negativ	-11.5408
ristnost	-11.5416
▁motil	-11.5431
▁bakterijam	-11.5492
▁vrstic	-11.5541
▁nenavad	-11.5543
iskalnik	-11.5577
▁voliv	-11.559
▁hišn	-11.56
▁avatar	-11.5621
▁nogomet	-11.566
svoje	-11.5674
stavljanje	-11.5696
▁sprehaja	-11.5716
▁vsakdan	-11.5741
AG	-11.5755
▁Vzhod	-11.577
▁prebira	-11.5773
▁povabi	-11.5775
▁rab	-11.5776
▁prisot	-11.5793
▁kvačkan	-11.5809
▁800	-11.5817
▁sred	-11.582
▁ponižan	-11.5832
▁ohranj	-11.5836
▁lokal	-11.5848
▁druži	-11.5849
▁objav	-11.5857
vajal	-11.5858
▁Spozna	-11.586
▁poiska	-11.586
▁sektor	-11.5863
▁poškodova	-11.587
▁prepozn	-11.5871
▁700	-11.5873
▁180	-11.5877
▁oblikovalc	-11.5894
▁namerava	-11.5933
▁tolik	-11.5939
▁zagleda	-11.5952
torji	-11.5952
rednost	-11.5975
vlečem	-11.5979
▁pleza	-11.5979
▁Georg	-11.5993
▁vzgajam	-11.5996
▁prilagaja	-11.6004
▁rasl	-11.6009
▁glasovn	-11.6028
▁paraliz	-11.6032
deloval	-11.6039
▁Deset	-11.6051
▁Vede	-11.6062
▁poučeva	-11.608
klical	-11.6089
▁Super	-11.6094
▁izmen	-11.6097
▁dojenč	-11.6101
NA	-11.6117
ameriški	-11.612
primer	-11.612
srčn	-11.6127
hitro	-11.6128
čeraj	-11.6131
slikal	-11.6136
rof	-11.6143
motenj	-11.6145
glavi	-11.6148
kamor	-11.6155
ličina	-11.6166
ritis	-11.6173
▁razkrit	-11.6187
▁obsed	-11.6216
▁neumn	-11.6218
▁financ	-11.6219
▁zmogljiv	-11.6222
lagat	-11.6231
▁ranljiv	-11.624
▁razporedi	-11.6243
astično	-11.6243
bsolutn	-11.6244
▁kralj	-11.6244
takne	-11.6245
▁tržn	-11.6246
▁rezerv	-11.6249
sprehod	-11.6249
▁hrepen	-11.6251
▁razsvetlj	-11.6252
▁sorodn	-11.6255
▁pridobiva	-11.6257
▁biolog	-11.6258
▁ekstr	-11.6258
▁noseč	-11.6259
▁zaskrblj	-11.626
▁fokus	-11.626
▁Čar	-11.626
▁imperi	-11.626
▁MIT	-11.626
▁ingverjev	-11.626
▁najuspešnejš	-11.626
▁nerazumljiv	-11.626
▁pediatri	-11.626
▁podiplomsk	-11.626
▁ugasni	-11.626
▁špansk	-11.626
evklidsk	-11.626
kompetentn	-11.626
ordinacij	-11.626
pektakularn	-11.626
refrontaln	-11.626
vključujoč	-11.626
▁ATLAS	-11.626
▁Alžirij	-11.626
▁Arabsk	-11.626
▁Argentin	-11.626
▁Beatric	-11.626
▁Dongguan	-11.626
▁Družb	-11.626
▁Dylan	-11.626
▁Feynman	-11.626
▁Lothar	-11.626
▁Manhattn	-11.626
▁Montreal	-11.626
▁Nizozemsk	-11.626
▁Podjetnik	-11.626
▁Poslušal	-11.626
▁Potreboval	-11.626
▁Predsednik	-11.626
▁Ripley	-11.626
▁Virgini	-11.626
▁agnostik	-11.626
▁anatomij	-11.626
▁arabščin	-11.626
▁avtoportret	-11.626
▁balkon	-11.626
▁blagoslov	-11.626
▁brazgotin	-11.626
▁davkoplačeval	-11.626
▁degeneracij	-11.626
▁diktatur	-11.626
▁dinamičn	-11.626
▁eksplodira	-11.626
▁ekvivalent	-11.626
▁estetsk	-11.626
▁evropsk	-11.626
▁farmacevtsk	-11.626
▁fascinantn	-11.626
▁fiziologij	-11.626
▁fluktuacij	-11.626
▁forum	-11.626
▁francoščin	-11.626
▁frustracij	-11.626
▁frustrira	-11.626
▁fundacij	-11.626
▁hemisfer	-11.626
▁impulz	-11.626
▁instinkt	-11.626
▁interakcij	-11.626
▁izmišljen	-11.626
▁izobraževalni	-11.626
▁iztrebk	-11.626
▁jabolčn	-11.626
▁kladiv	-11.626
▁klasik	-11.626
▁kompromis	-11.626
▁kontinent	-11.626
▁kristjan	-11.626
▁kromosom	-11.626
▁legitimnost	-11.626
▁londonski	-11.626
▁ločuje	-11.626
▁manipul	-11.626
▁modroplavut	-11.626
▁najdražj	-11.626
▁najmlajš	-11.626
▁najstnišk	-11.626
▁nalezljive	-11.626
▁nedotaknjen	-11.626
▁neobveščen	-11.626
▁neprecenljiv	-11.626
▁nesprejemljiv	-11.626
▁nespremenjen	-11.626
▁neuporabn	-11.626
▁neučinkovit	-11.626
▁nečakinj	-11.626
▁obsodb	-11.626
▁organizator	-11.626
▁ospredj	-11.626
▁paradižnik	-11.626
▁percepcij	-11.626
▁piflar	-11.626
▁pokroviteljsk	-11.626
▁ponudb	-11.626
▁pospeševa	-11.626
▁posploš	-11.626
▁poudarja	-11.626
▁predavatelj	-11.626
▁prehramben	-11.626
▁prepovedal	-11.626
▁prepustit	-11.626
▁preusmeri	-11.626
▁prešuštnik	-11.626
▁pritožb	-11.626
▁profesionalc	-11.626
▁prozodij	-11.626
▁razburjen	-11.626
▁rekonstrukcij	-11.626
▁religiozn	-11.626
▁samoregulativn	-11.626
▁spoštljiv	-11.626
▁spoštuje	-11.626
▁spremenljiv	-11.626
▁stereotip	-11.626
▁stisnjen	-11.626
▁sumničav	-11.626
▁televizor	-11.626
▁telovadb	-11.626
▁temnopolt	-11.626
▁tjulnji	-11.626
▁tragedij	-11.626
▁univerzitetn	-11.626
▁upodabljanj	-11.626
▁uvršča	-11.626
▁večopraviln	-11.626
▁vzdržuje	-11.626
▁vzvišen	-11.626
▁zamišlja	-11.626
▁zastrašujoč	-11.626
▁zdolgočasen	-11.626
▁školjk	-11.626
▁španščin	-11.626
▁štipendij	-11.626
▁Blanc	-11.6261
▁Hammett	-11.6261
▁Kupil	-11.6261
▁Najvišj	-11.6261
▁Ogromn	-11.6261
▁Opazuj	-11.6261
▁Palestin	-11.6261
▁Povabil	-11.6261
▁Zasluži	-11.6261
▁aktual	-11.6261
▁ambicioz	-11.6261
▁analogn	-11.6261
▁aretacij	-11.6261
▁avtomatizira	-11.6261
▁brutal	-11.6261
▁celuloz	-11.6261
▁infekcij	-11.6261
▁izboljšuje	-11.6261
▁kljuk	-11.6261
▁lokostrel	-11.6261
▁mimoidoč	-11.6261
▁naložb	-11.6261
▁neprijaz	-11.6261
▁poizkus	-11.6261
▁poklekn	-11.6261
▁ponarejen	-11.6261
▁posrednik	-11.6261
▁poustvari	-11.6261
▁poveljnik	-11.6261
▁prestižn	-11.6261
▁prižgal	-11.6261
▁propagand	-11.6261
▁samodejn	-11.6261
▁sorazmer	-11.6261
▁urgentn	-11.6261
▁vikend	-11.6261
▁zavrnit	-11.6261
izplačil	-11.6261
▁brezdomk	-11.6261
▁hipotez	-11.6261
▁nogavic	-11.6261
▁otipljiv	-11.6261
▁prototip	-11.6261
▁reciklirat	-11.6261
▁Žalost	-11.6261
▁žlez	-11.6261
▁japonsk	-11.6261
▁komisij	-11.6261
▁križišč	-11.6261
▁obiskovalc	-11.6261
▁pognal	-11.6261
▁sodelujoči	-11.6261
▁trikotnik	-11.6261
dprtokodn	-11.6261
▁identič	-11.6261
▁prehlad	-11.6261
▁Današnj	-11.6261
▁avtonomn	-11.6261
▁heker	-11.6261
▁nevtrin	-11.6261
▁podmornic	-11.6261
▁socializ	-11.6261
▁Seattl	-11.6261
▁razmislim	-11.6261
▁Posledic	-11.6261
▁cigaret	-11.6261
▁kimatičn	-11.6261
▁ribolov	-11.6261
▁samomorilsk	-11.6261
▁Justin	-11.6261
▁peščic	-11.6261
▁Baham	-11.6261
▁Išče	-11.6261
▁Skrivn	-11.6261
▁blagostanj	-11.6261
▁razburi	-11.6261
▁lisic	-11.6261
▁neomejen	-11.6261
▁parkirn	-11.6261
▁zaposlil	-11.6261
▁dražj	-11.6261
▁stadion	-11.6261
tegnjen	-11.6261
▁Najpomembnej	-11.6261
▁Spock	-11.6261
▁domnevn	-11.6261
▁Asang	-11.6261
▁bizarn	-11.6261
ftalm	-11.6261
▁formul	-11.6261
▁ljubeč	-11.6261
▁zavzema	-11.6261
▁posuši	-11.6261
▁zgub	-11.6261
▁pripeti	-11.6261
▁Dvig	-11.6261
▁gojenj	-11.6261
▁ločeva	-11.6261
▁razdelil	-11.6261
▁format	-11.6261
▁odmerk	-11.6261
▁Primerjaj	-11.6261
▁Play	-11.6261
▁prozorn	-11.6261
▁ptičj	-11.6261
▁naporn	-11.6261
▁razvijajoče	-11.6261
▁Podatk	-11.6261
▁razdelim	-11.6261
▁zapeljiv	-11.6261
šepeta	-11.6261
▁tekmec	-11.6261
▁minimaln	-11.6261
▁premier	-11.6261
▁Oblikoval	-11.6261
▁Latinsk	-11.6261
▁nasmeh	-11.6261
▁Iran	-11.6261
▁prioritet	-11.6261
▁šivank	-11.6261
▁dokaže	-11.6261
▁termičn	-11.6261
▁sprednj	-11.6261
▁uvede	-11.6261
▁elektromagnetn	-11.6261
▁pretež	-11.6261
▁izogne	-11.6261
ucker	-11.6261
▁gonil	-11.6261
▁indijsk	-11.6261
▁slepe	-11.6261
▁odločen	-11.6261
▁bronast	-11.6261
▁podaril	-11.6261
▁centraliziran	-11.6261
▁dolgotrajn	-11.6261
▁receptorj	-11.6261
▁Fant	-11.6261
▁injekcij	-11.6261
▁premosti	-11.6261
▁smrd	-11.6261
matur	-11.6261
▁samorog	-11.6261
▁navdihnjen	-11.6261
▁citira	-11.6261
▁razložim	-11.6262
▁pokrov	-11.6262
▁prehitel	-11.6262
▁pridelav	-11.6262
▁prehranjuje	-11.6262
▁Izjemn	-11.6262
▁naglas	-11.6262
▁Krasn	-11.6262
▁kislin	-11.6262
▁knjigarn	-11.6262
▁ramen	-11.6262
▁dragulj	-11.6262
way	-11.6262
▁Ruand	-11.6262
▁zanemar	-11.6262
▁izsledk	-11.6262
▁ponavljajoč	-11.6262
▁prevedl	-11.6262
▁razdr	-11.6263
▁silikon	-11.6263
▁Glen	-11.6263
▁zmotil	-11.6263
▁žrtvoval	-11.6263
▁Poslal	-11.6263
▁ljubitelj	-11.6263
▁portal	-11.6263
▁centimetr	-11.6263
▁Rimsk	-11.6263
cento	-11.6263
▁neprimern	-11.6263
▁prebija	-11.6263
▁leksikografi	-11.6263
▁vlekl	-11.6263
gment	-11.6263
▁predmestj	-11.6263
▁nadstropj	-11.6263
▁vernik	-11.6263
▁donacij	-11.6264
▁Vasari	-11.6264
▁zakonodaj	-11.6264
▁Napad	-11.6264
▁takojšnj	-11.6264
▁zastavlja	-11.6264
▁prevladuje	-11.6264
▁tiskovn	-11.6264
▁pospravi	-11.6264
▁1,4	-11.6264
▁Vener	-11.6264
▁CL	-11.6264
▁pomiri	-11.6264
▁osvojil	-11.6264
▁ognjišč	-11.6265
▁ribišk	-11.6265
▁garaž	-11.6265
▁bron	-11.6265
▁86	-11.6265
▁vabil	-11.6265
▁čarovnišk	-11.6265
▁odhod	-11.6265
▁premal	-11.6266
▁Sledi	-11.6266
▁kupoval	-11.6266
▁črtic	-11.6266
▁praznoval	-11.6266
▁Bosn	-11.6266
▁izpelja	-11.6266
▁izginja	-11.6266
▁skrije	-11.6266
▁ugled	-11.6266
▁tumorj	-11.6266
▁pretok	-11.6267
▁konjski	-11.6267
▁izbruhnil	-11.6267
▁avtoric	-11.6267
▁statičn	-11.6267
▁obril	-11.6267
▁Gill	-11.6268
▁Centraln	-11.6268
▁izgublja	-11.6268
▁Pripeljal	-11.6268
▁naklonjenost	-11.6268
▁Pustim	-11.6268
▁praska	-11.6268
▁dobrodeln	-11.6268
▁olivn	-11.6269
▁razsvetljenj	-11.6269
▁Tobag	-11.6269
▁vodnik	-11.627
▁Predstavil	-11.6271
▁izsek	-11.6272
▁hudič	-11.6272
▁Rojen	-11.6273
plazil	-11.6273
▁zmogl	-11.6273
▁pobere	-11.6273
▁avtist	-11.6273
▁varuje	-11.6274
▁rastoč	-11.6274
▁znižal	-11.6275
eznam	-11.6275
lish	-11.6277
▁28	-11.6277
▁produktivnost	-11.6277
▁Opravi	-11.6278
▁žab	-11.6278
▁odvečn	-11.6279
▁kanč	-11.628
▁Adam	-11.628
▁upre	-11.628
ghu	-11.628
▁upornik	-11.628
▁hiper	-11.6281
zajtrk	-11.6281
▁Gledal	-11.6282
▁prevoz	-11.6285
view	-11.6286
zrešil	-11.6288
▁rentgensk	-11.6288
▁plit	-11.6289
▁miljon	-11.6291
▁daljinsk	-11.6291
▁Steve	-11.6292
▁prestan	-11.6292
▁odpelje	-11.6293
▁podpornik	-11.6294
▁navigacijsk	-11.6295
▁zamah	-11.6295
▁Celotn	-11.6295
▁peticij	-11.6296
▁etik	-11.6297
▁mobilnik	-11.6297
▁Sara	-11.6298
▁zmogljivost	-11.6299
▁sekir	-11.6299
▁obdaja	-11.63
▁scen	-11.63
▁izrek	-11.63
▁utrip	-11.6301
▁fizikaln	-11.6302
▁sodobnik	-11.6304
▁preizkusil	-11.6306
▁Različn	-11.6306
▁železnic	-11.6306
▁Oblik	-11.6307
▁miselnost	-11.6308
▁ganjen	-11.6311
pravičnost	-11.6311
▁pohvalil	-11.6312
▁komp	-11.6314
▁varnostnik	-11.6316
▁razvesel	-11.6316
▁pojed	-11.6316
▁ograj	-11.6316
▁gledališk	-11.6317
▁blazinic	-11.6317
▁ploščin	-11.6323
letnic	-11.6326
▁prebije	-11.633
▁Delam	-11.6332
▁kopij	-11.6334
▁božj	-11.6337
▁razredči	-11.6338
▁podvodn	-11.634
▁divjin	-11.6343
▁vnos	-11.6347
▁napredovanj	-11.6352
▁spustit	-11.6357
▁stric	-11.6358
zhaja	-11.6359
▁dodan	-11.6359
▁troj	-11.6364
▁zmešan	-11.6365
▁mantr	-11.6367
▁obiskat	-11.6384
▁evolucijsk	-11.6386
▁obreza	-11.6386
▁umoril	-11.6389
▁mineva	-11.6392
▁piščanc	-11.6398
▁upokojenc	-11.6408
▁izdan	-11.6413
▁jokat	-11.6414
▁plaž	-11.6416
▁obiskuje	-11.6417
▁con	-11.6419
▁kartic	-11.6421
▁Resnic	-11.6432
▁Led	-11.6452
▁posad	-11.6457
▁zaustavi	-11.6457
▁plesal	-11.6459
▁navidezn	-11.646
▁izračunal	-11.6461
▁luknjic	-11.6461
▁slišan	-11.6461
▁zapira	-11.6467
▁zabelež	-11.6477
raliziran	-11.6494
▁lovil	-11.6501
▁ponarejanje	-11.6503
čudenje	-11.6503
▁fotografsk	-11.6511
▁Skupn	-11.6516
▁spraševanje	-11.6517
▁izračunat	-11.6523
▁izšl	-11.6527
▁Park	-11.6527
▁pogajanj	-11.6531
▁vremen	-11.6533
▁voditeljic	-11.6542
▁dvomil	-11.6542
▁Povejt	-11.6545
▁Kulturn	-11.6552
▁prevaja	-11.6564
▁Številk	-11.6572
▁darovalc	-11.6572
▁mamin	-11.6578
▁odvisnost	-11.6609
▁enkratn	-11.6621
▁Andre	-11.6625
▁počiva	-11.6629
potrjen	-11.6633
grozeč	-11.6635
▁določanj	-11.6647
▁vinsk	-11.6683
▁bolan	-11.669
▁zank	-11.6722
▁odvrn	-11.6736
▁čevlj	-11.6774
▁Zop	-11.6774
▁vladanj	-11.6786
▁delavk	-11.6791
▁zajel	-11.6792
▁postavitv	-11.6801
▁nadaljevanj	-11.6828
▁Izved	-11.6832
▁črnsk	-11.6867
▁oviram	-11.6887
tegnem	-11.6893
▁pomarančn	-11.6896
▁motiviran	-11.6897
▁početj	-11.6905
▁opazovalc	-11.6908
rešitelj	-11.6911
▁dokonča	-11.6924
lepše	-11.6941
predvajalnik	-11.6978
▁odklon	-11.7042
▁dihanj	-11.7051
▁izvajalc	-11.7089
▁dajalce	-11.7197
▁cenzurira	-11.7233
▁prodajalc	-11.7254
kričal	-11.729
formiran	-11.7296
▁povečan	-11.738
▁naraščanj	-11.7395
▁zavrača	-11.7423
▁nadomest	-11.7469
▁spregledan	-11.7472
▁Potrebuje	-11.7484
dežev	-11.7493
▁kakovostn	-11.7495
roničn	-11.7508
▁kriča	-11.7598
barak	-11.7669
edoval	-11.7681
▁slepo	-11.7708
▁Vzame	-11.7774
▁sneg	-11.7796
▁neznanc	-11.7851
▁mišk	-11.7853
ečerja	-11.7947
primerljiv	-11.798
▁pomaranč	-11.8
▁preganjan	-11.8116
odstot	-11.8162
končno	-11.8196
▁kolektiv	-11.82
biografij	-11.8208
▁original	-11.8221
▁opus	-11.823
▁spopa	-11.8241
▁šir	-11.8252
▁svobodn	-11.8261
▁zagovarja	-11.8301
▁skle	-11.8303
▁sodne	-11.8312
▁načrtovan	-11.8314
sebno	-11.8316
▁varovan	-11.8321
▁daroval	-11.8376
išina	-11.8418
▁sodelav	-11.8431
▁obrab	-11.8439
▁pritegni	-11.8457
▁ponareja	-11.8459
pregovoril	-11.8585
▁obožuje	-11.8586
▁Razmišlja	-11.8605
spoštovanje	-11.8615
pripoved	-11.862
tisoče	-11.8622
oblast	-11.8623
▁luk	-11.8629
velj	-11.8641
▁glad	-11.8643
▁Ugan	-11.8647
očutje	-11.867
▁Britan	-11.8683
▁ravn	-11.8685
▁Zambij	-11.8692
minutn	-11.8701
▁ukrad	-11.8728
▁kilomet	-11.873
▁Fotograf	-11.8735
▁produktivn	-11.8739
▁prosojn	-11.874
▁objekt	-11.8743
▁dejavn	-11.8747
▁izkaz	-11.8748
▁surov	-11.8751
▁onesnaž	-11.8752
aznuje	-11.8755
▁superprevodn	-11.8756
▁odločno	-11.8757
▁potrošn	-11.8758
ontrol	-11.8759
jubosumj	-11.876
RI	-11.876
▁Langley	-11.876
▁brazilsk	-11.876
▁psihiatr	-11.876
▁drobiž	-11.876
▁kalifornijsk	-11.876
▁leksikografsk	-11.876
▁menedžer	-11.876
▁paradoks	-11.876
▁upokoji	-11.876
▁vizionar	-11.876
abrador	-11.876
ajpogostejš	-11.876
orazredn	-11.876
postrežb	-11.876
povabljen	-11.876
zainteresiran	-11.876
▁0,0	-11.876
▁Arktik	-11.876
▁Arktičn	-11.876
▁Bagdad	-11.876
▁Batman	-11.876
▁Boulder	-11.876
▁Bridge	-11.876
▁Brown	-11.876
▁Charlie	-11.876
▁Darius	-11.876
▁Dickens	-11.876
▁Dictionary	-11.876
▁Disney	-11.876
▁Edward	-11.876
▁Enceladus	-11.876
▁Evklid	-11.876
▁FOIL	-11.876
▁Forbes	-11.876
▁Inženirj	-11.876
▁Jefferson	-11.876
▁Kansas	-11.876
▁Kennedy	-11.876
▁Livingston	-11.876
▁Matthew	-11.876
▁McDonald	-11.876
▁Michigan	-11.876
▁Nadaljeval	-11.876
▁Navduš	-11.876
▁Oborožen	-11.876
▁Paisley	-11.876
▁Pensilvanij	-11.876
▁Povzroč	-11.876
▁Pošlji	-11.876
▁Prestraš	-11.876
▁Raziskoval	-11.876
▁Spraševal	-11.876
▁Sprememb	-11.876
▁Sputnik	-11.876
▁Teksas	-11.876
▁Telefon	-11.876
▁Učinkovito	-11.876
▁Vietnam	-11.876
▁Vzgoj	-11.876
▁Zaključi	-11.876
▁absurdn	-11.876
▁adaptacij	-11.876
▁akademsk	-11.876
▁akvarij	-11.876
▁algebr	-11.876
▁ambicij	-11.876
▁antropologij	-11.876
▁artikl	-11.876
▁begunc	-11.876
▁bibličn	-11.876
▁brezpogojn	-11.876
▁ekvator	-11.876
▁emisij	-11.876
▁epruvet	-11.876
▁erectus	-11.876
▁fenomen	-11.876
▁fibroid	-11.876
▁frekvenc	-11.876
▁heteroseksual	-11.876
▁interpretira	-11.876
▁introvertiran	-11.876
▁intuitivn	-11.876
▁inštitucij	-11.876
▁izobraževalne	-11.876
▁izpolnit	-11.876
▁kitolovk	-11.876
▁komentiral	-11.876
▁koncentrira	-11.876
▁korenčkov	-11.876
▁kumulativn	-11.876
▁mavric	-11.876
▁mehaničn	-11.876
▁mnogovesolj	-11.876
▁modul	-11.876
▁navdušuje	-11.876
▁nepošten	-11.876
▁neprekinjen	-11.876
▁neusmiljen	-11.876
▁neutrudn	-11.876
▁obveščevaln	-11.876
▁obvladova	-11.876
▁odvračal	-11.876
▁ogrozil	-11.876
▁opolnomoče	-11.876
▁opozarja	-11.876
▁osvetljav	-11.876
▁otročičk	-11.876
▁ozračj	-11.876
▁palačink	-11.876
▁personaliziran	-11.876
▁pesticid	-11.876
▁plemensk	-11.876
▁poizkuša	-11.876
▁pokojnin	-11.876
▁ponudnik	-11.876
▁poročeval	-11.876
▁povračil	-11.876
▁povzamem	-11.876
▁pravokotnik	-11.876
▁preizpraš	-11.876
▁prepovedan	-11.876
▁prepričljiv	-11.876
▁prestrašen	-11.876
▁pretresljiv	-11.876
▁prevarant	-11.876
▁proizvedl	-11.876
▁projicira	-11.876
▁protetičn	-11.876
▁razglasi	-11.876
▁razmnožuje	-11.876
▁razvozla	-11.876
▁registrsk	-11.876
▁rudnik	-11.876
▁sadovnjak	-11.876
▁safari	-11.876
▁selektivn	-11.876
▁shranjen	-11.876
▁shranjevanj	-11.876
▁sindrom	-11.876
▁sladoled	-11.876
▁služabnik	-11.876
▁sramežljiv	-11.876
▁stisnil	-11.876
▁supermarket	-11.876
▁tartuf	-11.876
▁termodinamik	-11.876
▁trebušn	-11.876
▁treščil	-11.876
▁unikatn	-11.876
▁uničevanj	-11.876
▁uslug	-11.876
▁utemeljen	-11.876
▁večceličn	-11.876
▁vključeval	-11.876
▁vrtnarjenj	-11.876
▁vsemogočn	-11.876
▁vseprisotn	-11.876
▁vzvratn	-11.876
▁zgrožen	-11.876
▁zmanjšuje	-11.876
▁zmešnjav	-11.876
▁Čudn	-11.876
▁čarodej	-11.876
▁živčevj	-11.876
▁žuželk	-11.876
brizga	-11.8761
▁Freud	-11.8761
▁Grčij	-11.8761
▁Osnovn	-11.8761
▁Plačal	-11.8761
▁Predvideva	-11.8761
▁Prihrani	-11.8761
▁Sprehodi	-11.8761
▁UNICEF	-11.8761
▁diskusij	-11.8761
▁dobrodošl	-11.8761
▁dopušča	-11.8761
▁hibrid	-11.8761
▁iPod	-11.8761
▁mobilizira	-11.8761
▁monoton	-11.8761
▁nasprotuje	-11.8761
▁neenakost	-11.8761
▁obramb	-11.8761
▁obsojen	-11.8761
▁odvratno	-11.8761
▁olimpijski	-11.8761
▁podeželj	-11.8761
▁posredova	-11.8761
▁prepričeva	-11.8761
▁raznovrstn	-11.8761
▁razodetj	-11.8761
▁razpršen	-11.8761
▁tamkajšnj	-11.8761
▁tkanin	-11.8761
▁uničuje	-11.8761
▁uskladi	-11.8761
▁vretenc	-11.8761
▁Španij	-11.8761
kompliciran	-11.8761
▁Avgu	-11.8761
▁Dosegl	-11.8761
▁arogan	-11.8761
▁iPad	-11.8761
▁izvirn	-11.8761
▁moment	-11.8761
▁nameščen	-11.8761
▁ocenjevanje	-11.8761
▁odpadn	-11.8761
▁ohlaja	-11.8761
▁oporeka	-11.8761
▁preiskoval	-11.8761
▁propeler	-11.8761
▁shujša	-11.8761
▁tipkovnic	-11.8761
▁uvrstil	-11.8761
▁zapušča	-11.8761
▁zastarel	-11.8761
linearn	-11.8761
▁Generaln	-11.8761
▁aparat	-11.8761
▁kolidž	-11.8761
▁natisnem	-11.8761
▁povzel	-11.8761
▁priklad	-11.8761
▁tesnob	-11.8761
▁utopi	-11.8761
▁zvestob	-11.8761
▁železnišk	-11.8761
srkava	-11.8761
▁Narisa	-11.8761
▁Pogum	-11.8761
▁Umrl	-11.8761
▁Uživa	-11.8761
▁atletskost	-11.8761
▁banaln	-11.8761
▁kozmolog	-11.8761
▁misijonar	-11.8761
▁neviden	-11.8761
▁pečic	-11.8761
▁pritrdi	-11.8761
▁sprejemljiv	-11.8761
▁srednješolsk	-11.8761
▁vgrajen	-11.8761
▁licenc	-11.8761
▁najnižj	-11.8761
▁namišljen	-11.8761
▁znamenit	-11.8761
▁Cros	-11.8761
▁Visok	-11.8761
▁akterj	-11.8761
▁kmečk	-11.8761
▁pakiranj	-11.8761
▁povzet	-11.8761
▁Osup	-11.8761
▁nalepk	-11.8761
▁natečaj	-11.8761
▁pogub	-11.8761
▁premislim	-11.8761
▁steriln	-11.8761
▁uravnoteži	-11.8761
lajlam	-11.8761
▁Platon	-11.8761
▁Izziv	-11.8761
▁alarm	-11.8761
▁poslužuje	-11.8761
anhattan	-11.8761
▁jagod	-11.8761
▁krogotok	-11.8761
▁nesmrtnost	-11.8761
▁odobril	-11.8761
▁pregib	-11.8761
▁prizadel	-11.8761
▁South	-11.8761
▁obogate	-11.8761
▁satelit	-11.8761
▁ustreli	-11.8761
▁Prihodn	-11.8761
▁poimenovan	-11.8761
▁prehaja	-11.8761
▁soprog	-11.8761
▁Podjetj	-11.8761
▁ledvic	-11.8761
▁komplim	-11.8761
▁raztopi	-11.8761
▁vmeša	-11.8761
endvič	-11.8761
▁latinsk	-11.8761
▁storjen	-11.8761
▁Medicin	-11.8761
▁razjezi	-11.8761
▁črpalk	-11.8761
▁nikotin	-11.8761
▁pižam	-11.8761
▁ponižno	-11.8761
▁ugani	-11.8761
▁Grou	-11.8761
▁Pariz	-11.8761
▁imitira	-11.8761
▁Sliši	-11.8761
▁sovpad	-11.8761
▁kongresn	-11.8761
▁uvid	-11.8761
▁Natančn	-11.8761
▁izzove	-11.8761
▁kviz	-11.8761
▁odraža	-11.8761
▁opravljen	-11.8761
▁jajč	-11.8761
▁puščal	-11.8761
▁druženj	-11.8761
▁sijajn	-11.8761
▁Ruslan	-11.8761
▁oprosti	-11.8761
▁transspoln	-11.8761
▁kaznovan	-11.8761
▁nejasn	-11.8761
▁prehranjevanj	-11.8761
▁dojame	-11.8761
▁zaposlova	-11.8761
▁dobavn	-11.8761
▁izbrisat	-11.8761
▁neujemaln	-11.8761
▁reprodukcij	-11.8761
▁kampus	-11.8761
▁Odvisn	-11.8761
▁granat	-11.8761
▁uvedl	-11.8761
▁Znebi	-11.8761
▁Comp	-11.8761
▁podpret	-11.8761
▁neomajn	-11.8761
▁Khan	-11.8761
▁podcenj	-11.8761
▁meditacij	-11.8761
▁Srečal	-11.8761
▁Vreme	-11.8761
▁Karmap	-11.8761
▁spalnic	-11.8761
▁staromod	-11.8761
▁Samuel	-11.8761
scar	-11.8761
▁mikroskop	-11.8761
▁prebode	-11.8761
▁uličn	-11.8761
▁Strinja	-11.8761
▁mleko	-11.8761
▁poučuje	-11.8761
▁kampanij	-11.8762
▁Havaj	-11.8762
▁kopalk	-11.8762
▁kvar	-11.8762
▁žerjav	-11.8762
▁Idah	-11.8762
▁Vozil	-11.8762
▁Njun	-11.8762
▁molk	-11.8762
▁prepogn	-11.8762
▁Četrt	-11.8762
▁Iskal	-11.8762
▁prekinite	-11.8762
under	-11.8762
▁senator	-11.8762
▁pošast	-11.8762
▁vojskovanj	-11.8762
▁smejim	-11.8762
▁izvedb	-11.8762
▁izzval	-11.8762
▁sintez	-11.8762
▁zbegan	-11.8762
▁izbran	-11.8762
▁Primer	-11.8762
▁čop	-11.8762
▁administracij	-11.8762
▁šokiran	-11.8762
▁spoji	-11.8762
▁nadgradi	-11.8762
▁zamuja	-11.8762
▁šokantn	-11.8762
▁fantazij	-11.8762
▁pobral	-11.8763
▁Dobrodoš	-11.8763
▁klobuk	-11.8763
▁server	-11.8763
▁sprejmi	-11.8763
▁uporabnišk	-11.8763
▁mislec	-11.8763
▁romantičn	-11.8763
▁make	-11.8763
▁ganljiv	-11.8763
▁brezbož	-11.8763
▁plakat	-11.8763
▁urban	-11.8763
▁Posnel	-11.8763
▁zakopa	-11.8763
▁vokaln	-11.8763
▁UNA	-11.8763
▁privatn	-11.8763
▁varoval	-11.8763
▁nedržavn	-11.8764
▁zemljišč	-11.8764
▁ekstremn	-11.8764
▁Atlantik	-11.8764
▁republik	-11.8764
▁medvrstn	-11.8764
ISA	-11.8764
▁Zaupa	-11.8764
▁žaljiv	-11.8764
▁ležal	-11.8764
▁imenitn	-11.8764
▁nedolžn	-11.8764
▁glu	-11.8764
▁psom	-11.8764
▁odločnost	-11.8764
▁napadalc	-11.8764
▁živahn	-11.8764
▁sočasnost	-11.8764
▁antičn	-11.8764
▁Globaln	-11.8765
▁daljn	-11.8765
▁pristank	-11.8765
▁mističn	-11.8765
▁Vsebin	-11.8765
▁prožn	-11.8765
ternat	-11.8765
▁diplomiral	-11.8765
▁Conor	-11.8765
▁usnjač	-11.8765
▁klob	-11.8765
▁kristal	-11.8765
▁diarej	-11.8765
▁sužen	-11.8766
garet	-11.8766
▁komplet	-11.8766
▁podaljš	-11.8766
▁kapitalist	-11.8766
▁Ohran	-11.8766
▁River	-11.8766
▁jemensk	-11.8766
▁užal	-11.8766
▁Narejen	-11.8766
združevanj	-11.8767
▁nevtraln	-11.8767
burger	-11.8767
▁Dojel	-11.8767
▁Delav	-11.8768
▁Mass	-11.8768
▁svetilk	-11.8769
ques	-11.8769
▁termin	-11.8769
▁Elektron	-11.8769
▁dokumentar	-11.8769
▁počasnejše	-11.877
▁pljučnic	-11.877
▁replik	-11.877
▁zbor	-11.8771
▁Hud	-11.8771
▁hrepenenj	-11.8772
▁murv	-11.8773
▁dilem	-11.8773
antno	-11.8773
▁klim	-11.8774
▁Ateiz	-11.8774
▁taljenj	-11.8774
▁smili	-11.8775
▁priroč	-11.8775
▁grob	-11.8776
▁Srečn	-11.8776
▁govoreče	-11.8777
▁nastank	-11.8777
▁genomik	-11.8777
▁bum	-11.8777
▁Zven	-11.8777
▁bratran	-11.8778
▁upravič	-11.8778
▁objektiv	-11.8778
▁Brun	-11.8779
ikroblogerj	-11.8779
▁Stavi	-11.878
▁izkopa	-11.878
▁kolonij	-11.878
▁svetlost	-11.878
▁strun	-11.878
▁celostn	-11.8781
▁vsebova	-11.8782
▁korejsk	-11.8782
▁izpostavlja	-11.8782
▁raztegn	-11.8783
▁Primat	-11.8783
▁preide	-11.8783
▁friz	-11.8785
▁bur	-11.8787
▁ostank	-11.8787
▁trup	-11.8789
▁navedl	-11.8789
▁nabor	-11.879
▁plim	-11.879
▁Obrn	-11.8791
▁datum	-11.8794
▁podrl	-11.8795
▁Emm	-11.8795
unizij	-11.8796
▁katastrofaln	-11.8796
▁Luth	-11.8797
▁osvoboditv	-11.8801
▁link	-11.8802
▁pozdravil	-11.8802
▁Plava	-11.8803
▁rasiz	-11.8803
▁pridelan	-11.8804
▁Gledam	-11.8804
▁fundamentalist	-11.8804
▁pritegne	-11.8806
▁preuči	-11.8807
▁urednic	-11.8812
▁odvze	-11.8815
▁gostejš	-11.8816
▁direktoric	-11.8817
▁ideolog	-11.8819
▁znatn	-11.8819
▁Gaz	-11.8822
toplejš	-11.8823
▁prešl	-11.8827
▁kapitaliz	-11.8828
▁Zambijce	-11.883
▁Poišči	-11.8833
▁revnejš	-11.8834
kotalil	-11.8837
▁obdan	-11.8837
▁daljinc	-11.884
▁fluorescentn	-11.8848
▁gej	-11.8853
▁vključi	-11.8855
▁gršk	-11.8861
▁svetovanj	-11.8862
▁intimn	-11.8863
▁hranilstv	-11.8863
▁izdelova	-11.8865
▁pušk	-11.8865
▁popelje	-11.8868
inženiring	-11.8874
▁zmanjševanj	-11.889
tegna	-11.8898
▁znesk	-11.8898
▁osvaja	-11.8901
▁bližnjic	-11.8904
▁pajk	-11.8919
▁protestira	-11.8938
▁vpil	-11.8944
▁leseni	-11.8945
▁popisa	-11.8946
▁rezanj	-11.8948
▁vlečn	-11.8961
priseljenc	-11.8967
▁grenk	-11.8968
▁nedelj	-11.8972
rostovolj	-11.8972
oyd	-11.8976
ustav	-11.8978
▁ježk	-11.8982
sobno	-11.9006
črtovanje	-11.9014
▁Nemc	-11.9016
Dust	-11.9037
▁zažel	-11.9041
▁prilagajanj	-11.91
robno	-11.9109
▁traktor	-11.9147
Mann	-11.9177
▁sebičn	-11.9219
▁slikanj	-11.9228
▁ugotavljanj	-11.924
▁potenc	-11.9326
▁zasvoj	-11.9369
PT	-11.9381
▁petic	-11.939
dosegljiv	-11.9394
▁sporočanj	-11.9431
▁preverjanj	-11.9472
▁zvezn	-11.9545
▁predlaga	-11.9612
▁ubijanj	-11.963
▁ironi	-11.969
tvarja	-11.9746
lagatelji	-11.9849
dovoljstv	-11.9899
glasnik	-12.0032
PO	-12.0109
pomnim	-12.0467
redni	-12.0503
nosila	-12.0525
▁Pravic	-12.0534
▁neodvis	-12.0625
zahodni	-12.0713
glasovanje	-12.0731
▁ponavljanj	-12.0766
▁ugod	-12.0805
stavitve	-12.0831
▁hlad	-12.0834
▁enakovred	-12.09
gotovi	-12.0968
stavite	-12.0995
▁omrež	-12.11
▁Atlant	-12.1149
▁čarovni	-12.1257
▁hrb	-12.1291
▁preučeva	-12.133
▁kompleks	-12.151
▁priskrbe	-12.1522
▁punc	-12.1577
▁aktiv	-12.1585
▁Kultur	-12.1594
▁cepljen	-12.1605
▁kmetijstv	-12.1615
▁začud	-12.1677
▁Verjame	-12.1727
▁bližin	-12.1737
▁prepis	-12.1745
▁pobegni	-12.1746
▁Počuti	-12.1766
▁izgin	-12.1778
navljajo	-12.1778
čaran	-12.1781
smrtn	-12.1784
▁pošlj	-12.1791
pomnit	-12.1859
gotavljam	-12.1866
▁septemb	-12.1902
strstvo	-12.1904
▁zmeša	-12.1911
▁odpove	-12.1912
▁daljin	-12.1935
▁pripomoč	-12.1947
držav	-12.1952
pomemb	-12.1952
q	-12.2002
▁algorit	-12.2004
▁spodbud	-12.2012
▁knjižni	-12.2028
▁navigacij	-12.2033
▁razširj	-12.2033
▁fundamentali	-12.2033
▁pozdrav	-12.2036
▁defin	-12.2037
▁domišlj	-12.2041
▁tehnolog	-12.2049
mrežj	-12.2066
▁vztrajn	-12.2066
trahovi	-12.2068
rupcij	-12.2069
bmočje	-12.207
ranž	-12.2071
▁diagnosti	-12.2071
emperatura	-12.2078
▁spodkop	-12.2079
▁optimist	-12.208
▁Centr	-12.2081
▁Elektr	-12.2082
kvačka	-12.2082
▁funkcion	-12.2084
nevtral	-12.2085
▁Spomin	-12.2086
ravnotež	-12.2087
nadstrop	-12.2089
▁budist	-12.2091
rebivalstvo	-12.2092
opoldne	-12.2092
krivljene	-12.2093
izbris	-12.2093
koplje	-12.2093
spektiv	-12.2093
▁gasilsk	-12.2094
▁južnomorsk	-12.2094
mbasad	-12.2094
▁astrološk	-12.2094
▁bencinsk	-12.2094
▁brilijantn	-12.2094
▁istospoln	-12.2094
▁najrazličnejš	-12.2094
▁napolnjen	-12.2094
▁obubožan	-12.2094
▁proslavlja	-12.2094
▁zemeljsk	-12.2094
egenerativn	-12.2094
izbežn	-12.2094
kvalifikacij	-12.2094
onvencionaln	-12.2094
polnjuje	-12.2094
rakotvorn	-12.2094
stabilizira	-12.2094
uresničljiv	-12.2094
▁Abraham	-12.2094
▁Afriške	-12.2094
▁Akademij	-12.2094
▁Algorit	-12.2094
▁America	-12.2094
▁Arizon	-12.2094
▁Aspirin	-12.2094
▁Bamiyan	-12.2094
▁CNN	-12.2094
▁Canalett	-12.2094
▁Charles	-12.2094
▁Clinton	-12.2094
▁Connecticut	-12.2094
▁Declan	-12.2094
▁Dokazal	-12.2094
▁Družabn	-12.2094
▁Fidejev	-12.2094
▁Filadelfij	-12.2094
▁Fundacij	-12.2094
▁Gilbert	-12.2094
▁Gravitacij	-12.2094
▁Grenlandij	-12.2094
▁Grozljiv	-12.2094
▁Harry	-12.2094
▁Himalaj	-12.2094
▁Hipokratov	-12.2094
▁Howard	-12.2094
▁Huygens	-12.2094
▁Iskren	-12.2094
▁Izobraz	-12.2094
▁Joseph	-12.2094
▁Kolumbij	-12.2094
▁Kristjan	-12.2094
▁Latinoameričan	-12.2094
▁Madagaskarj	-12.2094
▁Mahabub	-12.2094
▁Mallory	-12.2094
▁Manchestr	-12.2094
▁Matematičn	-12.2094
▁Mauritius	-12.2094
▁McDo	-12.2094
▁Michelangelo	-12.2094
▁Najrevnejš	-12.2094
▁Norvešk	-12.2094
▁Odraščal	-12.2094
▁Pacifik	-12.2094
▁Peterborough	-12.2094
▁Pierpont	-12.2094
▁Podsaharsk	-12.2094
▁Preučeval	-12.2094
▁Preživel	-12.2094
▁Prikazoval	-12.2094
▁Princeton	-12.2094
▁Prizadeva	-12.2094
▁Profesor	-12.2094
▁Razburljivo	-12.2094
▁SafeMart	-12.2094
▁Sibirij	-12.2094
▁Spreminj	-12.2094
▁Sunith	-12.2094
▁Tajvan	-12.2094
▁Tanzanij	-12.2094
▁Ukvarja	-12.2094
▁Upočasni	-12.2094
▁Vztraja	-12.2094
▁absorbira	-12.2094
▁američan	-12.2094
▁analitičn	-12.2094
▁arheološk	-12.2094
▁arhetip	-12.2094
▁astronom	-12.2094
▁baseball	-12.2094
▁blagajn	-12.2094
▁bolnišničn	-12.2094
▁brezbrižn	-12.2094
▁brezglutensk	-12.2094
▁dioksid	-12.2094
▁distribucij	-12.2094
▁dovzetn	-12.2094
▁fotoreceptorj	-12.2094
▁frontaln	-12.2094
▁geografsk	-12.2094
▁geologij	-12.2094
▁gepard	-12.2094
▁glodavc	-12.2094
▁gospodinjstv	-12.2094
▁habitat	-12.2094
▁hierarhičn	-12.2094
▁holesterol	-12.2094
▁horizont	-12.2094
▁hrabr	-12.2094
▁humanistik	-12.2094
▁impresi	-12.2094
▁improvizira	-12.2094
▁inteligentni	-12.2094
▁izenačeval	-12.2094
▁iznajdb	-12.2094
▁izoblikoval	-12.2094
▁izpolnil	-12.2094
▁izposodil	-12.2094
▁kadrovsk	-12.2094
▁kanadsk	-12.2094
▁katalizira	-12.2094
▁kirurg	-12.2094
▁kiruršk	-12.2094
▁klišej	-12.2094
▁kljun	-12.2094
▁kolesarjenj	-12.2094
▁koncentracij	-12.2094
▁konfiguracij	-12.2094
▁konstrukcij	-12.2094
▁kontroverzn	-12.2094
▁konzumira	-12.2094
▁kremplj	-12.2094
▁limbičn	-12.2094
▁literarn	-12.2094
▁logotip	-12.2094
▁marketinš	-12.2094
▁maščob	-12.2094
▁mentalitet	-12.2094
▁militantn	-12.2094
▁mobilizacij	-12.2094
▁nagibanj	-12.2094
▁najpametnejš	-12.2094
▁najsodobnejš	-12.2094
▁najsrečnejš	-12.2094
▁natisnjen	-12.2094
▁nebotičnik	-12.2094
▁neoborožen	-12.2094
▁neposlovarjen	-12.2094
▁nepovezan	-12.2094
▁nespoštljiv	-12.2094
▁nestrpn	-12.2094
▁neudobn	-12.2094
▁nezaželen	-12.2094
▁nezdružljiv	-12.2094
▁neškodljiv	-12.2094
▁novodobni	-12.2094
▁obdrži	-12.2094
▁obrobn	-12.2094
▁obžaluje	-12.2094
▁odvzame	-12.2094
▁onemogočil	-12.2094
▁osupnil	-12.2094
▁osveščen	-12.2094
▁ozdravi	-12.2094
▁pacifišk	-12.2094
▁pločevink	-12.2094
▁pločnik	-12.2094
▁podhladit	-12.2094
▁podhranjen	-12.2094
▁podsaharsk	-12.2094
▁pojasnjeva	-12.2094
▁poligraf	-12.2094
▁pomakni	-12.2094
▁pomanjkljivost	-12.2094
▁ponazarja	-12.2094
▁portugalsk	-12.2094
▁poskrbel	-12.2094
▁posttravmatski	-12.2094
▁potrpežljiv	-12.2094
▁pravosodn	-12.2094
▁predporodn	-12.2094
▁predsednic	-12.2094
▁premišljujem	-12.2094
▁preprečeva	-12.2094
▁prepušča	-12.2094
▁preuredi	-12.2094
▁prikoličarsk	-12.2094
▁prislonil	-12.2094
▁prisluškuje	-12.2094
▁prislužil	-12.2094
▁privržence	-12.2094
▁prodorn	-12.2094
▁producent	-12.2094
▁proučeval	-12.2094
▁prtljažnik	-12.2094
▁publikacija	-12.2094
▁pustolovščin	-12.2094
▁razburka	-12.2094
▁razdvojeno	-12.2094
▁razgovor	-12.2094
▁recesij	-12.2094
▁revizij	-12.2094
▁režiser	-12.2094
▁samopostrežn	-12.2094
▁samozadostn	-12.2094
▁severnokorejsk	-12.2094
▁sinhronizira	-12.2094
▁skušnjav	-12.2094
▁slinavk	-12.2094
▁spoprime	-12.2094
▁sposodi	-12.2094
▁stigmatizira	-12.2094
▁stimulacij	-12.2094
▁svinčen	-12.2094
▁tekmovalnost	-12.2094
▁travmatičn	-12.2094
▁trkalnik	-12.2094
▁tuberkuloz	-12.2094
▁ubesedi	-12.2094
▁udejstvovanj	-12.2094
▁udeležuje	-12.2094
▁ugasne	-12.2094
▁ugriz	-12.2094
▁ukinil	-12.2094
▁upodobil	-12.2094
▁usposablj	-12.2094
▁utemeljit	-12.2094
▁uveljavil	-12.2094
▁uveljavlj	-12.2094
▁videoposnetk	-12.2094
▁vključevanj	-12.2094
▁vzbujal	-12.2094
▁vzglavnik	-12.2094
▁vzklik	-12.2094
▁zagovorni	-12.2094
▁zagrizen	-12.2094
▁zakoreninjen	-12.2094
▁zapakiran	-12.2094
▁zaslug	-12.2094
▁zdrobi	-12.2094
▁zgreši	-12.2094
▁zreducira	-12.2094
▁Čutar	-12.2094
▁čudašk	-12.2094
▁Šanghaj	-12.2094
▁Šimpanz	-12.2094
▁šablon	-12.2094
▁škropil	-12.2094
▁špekulacij	-12.2094
▁žiraf	-12.2094
▁Cepiv	-12.2094
▁Družin	-12.2094
▁ISAF	-12.2094
▁Kentucky	-12.2094
▁Krščans	-12.2094
▁Melcher	-12.2094
▁Melvill	-12.2094
▁Obkrož	-12.2094
▁Sezamov	-12.2094
▁Spodbuja	-12.2094
▁Strašljiv	-12.2094
▁Tungusk	-12.2094
▁Wichit	-12.2094
▁ilustrira	-12.2094
▁iskric	-12.2094
▁izprijen	-12.2094
▁iztočnic	-12.2094
▁iztrebi	-12.2094
▁jedilnic	-12.2094
▁kitajščin	-12.2094
▁liberaln	-12.2094
▁luksuz	-12.2094
▁maksim	-12.2094
▁miniatur	-12.2094
▁nevzdrž	-12.2094
▁obremenj	-12.2094
▁odstranjeva	-12.2094
▁okoljevarstv	-12.2094
▁pandemij	-12.2094
▁porodnišnic	-12.2094
▁postprodukcij	-12.2094
▁povzdign	-12.2094
▁povzpe	-12.2094
▁preobrazi	-12.2094
▁preverljiv	-12.2094
▁projekcij	-12.2094
▁razkraja	-12.2094
▁samovozeč	-12.2094
▁spužv	-12.2094
▁sterilizira	-12.2094
▁tigrast	-12.2094
▁transformira	-12.2094
▁trapast	-12.2094
▁vlačug	-12.2094
▁zagrenjen	-12.2094
Izpusti	-12.2094
vičarske	-12.2094
▁Gapminderj	-12.2094
▁Komisij	-12.2094
▁Nasprot	-12.2094
▁Pakistan	-12.2094
▁Sprejmem	-12.2094
▁Zimbabve	-12.2094
▁eksotičn	-12.2094
▁karakterj	-12.2094
▁kolesarsk	-12.2094
▁metabol	-12.2094
▁mravlj	-12.2094
▁patentira	-12.2094
▁patriarhij	-12.2094
▁perfekt	-12.2094
▁podnebj	-12.2094
▁pospešen	-12.2094
▁povpraša	-12.2094
▁prevrača	-12.2094
▁pritrjen	-12.2094
▁revolucionar	-12.2094
▁rojevanj	-12.2094
▁smetnjak	-12.2094
▁sproža	-12.2094
▁starodavn	-12.2094
▁telegraf	-12.2094
▁uteleš	-12.2094
▁vibracij	-12.2094
▁zameglil	-12.2094
▁zasledovan	-12.2094
spodobno	-12.2094
▁Chicag	-12.2094
▁Otrošk	-12.2094
▁Republik	-12.2094
▁Sprašujem	-12.2094
▁gnezd	-12.2094
▁izžareva	-12.2094
▁odstranjen	-12.2094
▁okrnjen	-12.2094
▁pomilovanj	-12.2094
▁prezgod	-12.2094
▁prizadene	-12.2094
▁promovira	-12.2094
▁razkošje	-12.2094
▁rekrutira	-12.2094
▁zamegljen	-12.2094
▁Ford	-12.2094
▁Lokaln	-12.2094
▁anonimn	-12.2094
▁božansk	-12.2094
▁bruha	-12.2094
▁budni	-12.2094
▁genocid	-12.2094
▁kaotičn	-12.2094
▁komuniz	-12.2094
▁naravoslovn	-12.2094
▁ošpic	-12.2094
▁piškot	-12.2094
▁pretirava	-12.2094
▁razsipa	-12.2094
▁samostojen	-12.2094
▁slabovidn	-12.2094
▁sličic	-12.2094
▁srčkan	-12.2094
▁stušira	-12.2094
▁ukrivi	-12.2094
▁upokojitvi	-12.2094
▁visokogorj	-12.2094
▁zdrži	-12.2094
▁Japonc	-12.2094
▁gejevsk	-12.2094
▁neobičaj	-12.2094
▁odročn	-12.2094
▁pomeša	-12.2094
▁prednizon	-12.2094
▁premislek	-12.2094
▁taliban	-12.2094
▁avenij	-12.2094
▁distanc	-12.2094
▁feminističn	-12.2094
▁nagrajen	-12.2094
▁prirojen	-12.2094
▁psihičn	-12.2094
▁razdražen	-12.2094
▁Čarovnij	-12.2094
▁Izdelal	-12.2094
▁Odkritj	-12.2094
▁mentaln	-12.2094
▁vodnjak	-12.2094
lamidij	-12.2094
pljuval	-12.2094
strankarsk	-12.2094
▁Jerry	-12.2094
▁Oprosti	-12.2094
▁bedak	-12.2094
▁integrira	-12.2094
▁ozkogled	-12.2094
▁vijoličn	-12.2094
▁zrelost	-12.2094
▁Black	-12.2094
▁helij	-12.2094
▁obsodil	-12.2094
▁telepat	-12.2094
▁zoperstavi	-12.2094
▁Garden	-12.2094
▁afro	-12.2094
▁informiral	-12.2094
▁oglaša	-12.2094
▁panamsk	-12.2094
▁pripomog	-12.2094
▁stopnišč	-12.2094
▁toleranc	-12.2094
▁zažgal	-12.2094
klesan	-12.2094
milimetrsk	-12.2094
▁Izvor	-12.2094
▁fokusiranj	-12.2094
▁kanjon	-12.2094
▁nadnaravn	-12.2094
▁varčevanj	-12.2094
▁Liberij	-12.2094
▁Tisoč	-12.2094
▁investitorj	-12.2094
▁katoliš	-12.2094
▁prerival	-12.2094
▁obsevanje	-12.2094
▁ugank	-12.2094
▁življensk	-12.2094
▁Akron	-12.2094
▁lebdel	-12.2094
▁pionir	-12.2094
tagnira	-12.2094
▁Postop	-12.2094
▁Ustanov	-12.2094
▁nakopič	-12.2094
▁povečeval	-12.2094
▁zavpil	-12.2094
▁značaj	-12.2094
▁Fizik	-12.2094
▁fantomski	-12.2094
▁animacij	-12.2094
▁dvojčk	-12.2094
▁odobrava	-12.2094
▁otopel	-12.2094
▁znitka	-12.2094
vertiran	-12.2094
▁Izvaja	-12.2094
▁pokrijem	-12.2094
▁uvedb	-12.2094
▁zapostavljen	-12.2094
▁izumitelj	-12.2094
▁nadgradnj	-12.2094
▁loteva	-12.2094
▁Malteške	-12.2094
▁Oskarj	-12.2094
▁Ostaja	-12.2094
▁Cruz	-12.2094
leluja	-12.2094
▁sedlasti	-12.2094
▁Nelson	-12.2094
▁tekmuje	-12.2094
▁Agencij	-12.2094
▁ovčar	-12.2094
▁zedini	-12.2094
▁zvezdnišk	-12.2094
▁Vživi	-12.2094
▁premleva	-12.2094
▁Običajn	-12.2094
▁prodira	-12.2094
▁črpa	-12.2094
▁odtuji	-12.2094
▁Plastik	-12.2094
▁Stopil	-12.2094
▁pečin	-12.2094
▁Kafk	-12.2094
▁Modern	-12.2094
▁migeta	-12.2094
▁promocij	-12.2094
▁Ellen	-12.2094
▁izumrtj	-12.2094
▁vsebnost	-12.2094
▁Slovar	-12.2094
▁indeks	-12.2094
▁odpravlja	-12.2094
▁jadr	-12.2094
▁prostetik	-12.2094
▁Pokaži	-12.2094
▁propan	-12.2094
▁samotarsk	-12.2094
▁vsakršn	-12.2094
▁pičli	-12.2094
▁odsotn	-12.2094
▁plod	-12.2094
▁poplav	-12.2094
▁spravljen	-12.2094
▁gasilc	-12.2094
ormalizira	-12.2094
preprostejš	-12.2094
▁Dieg	-12.2094
▁potapljač	-12.2094
ktobr	-12.2094
▁karibsk	-12.2094
▁sestoji	-12.2094
▁osrečil	-12.2094
▁vkrca	-12.2094
▁snežne	-12.2094
▁inštruktorj	-12.2094
▁iznašl	-12.2095
olidarnost	-12.2095
▁produkcijsk	-12.2095
▁Zahodnjak	-12.2095
▁hijen	-12.2095
▁sužnj	-12.2095
▁problematičn	-12.2095
▁Storil	-12.2095
▁zaskrbljenost	-12.2095
▁gostiln	-12.2095
andlerj	-12.2095
▁Gell	-12.2095
▁inovatorj	-12.2095
▁vagin	-12.2095
▁kosmič	-12.2095
▁sesalc	-12.2095
▁Označ	-12.2095
▁parazit	-12.2095
abloid	-12.2095
▁vhodn	-12.2095
▁rakovic	-12.2095
zvršni	-12.2095
▁skakal	-12.2095
▁izkrivljen	-12.2095
▁tetovira	-12.2095
▁dodatk	-12.2095
▁čestita	-12.2095
▁testenin	-12.2095
▁datotek	-12.2095
▁modeliranj	-12.2095
▁sonikacij	-12.2096
▁utihn	-12.2096
▁elitn	-12.2096
▁Kvad	-12.2096
▁Čečenij	-12.2096
▁omemb	-12.2096
▁dlak	-12.2096
▁razgradljiv	-12.2096
▁vagon	-12.2096
▁taborišč	-12.2096
▁solarn	-12.2096
▁prikrajšan	-12.2096
▁carsk	-12.2096
▁ožilj	-12.2096
▁preostane	-12.2096
▁poplačan	-12.2096
▁pozval	-12.2096
paraci	-12.2097
▁Film	-12.2097
▁Odpor	-12.2097
zaznamovan	-12.2097
▁Modr	-12.2097
▁potlači	-12.2097
▁Ferr	-12.2097
▁Posvet	-12.2097
▁obzorj	-12.2097
▁paranoj	-12.2097
Z	-12.6958
Š	-13.6964
!	-13.7127
Ž	-13.7128
Č	-13.7129
—	-13.713
)	-13.7131
:	-13.7132
?	-13.7133
&	-13.7134
