<unk>	0
<s>	0
</s>	0
▁,	-3.16184
s	-3.19803
▁.	-3.21179
▁de	-3.3416
▁que	-3.64154
▁la	-3.9005
▁en	-4.0456
▁y	-4.17177
▁	-4.21289
▁a	-4.22498
▁el	-4.30336
;	-4.56067
▁&	-4.56304
▁es	-4.57463
quot	-4.6103
▁un	-4.6351
n	-4.66829
▁una	-4.85046
▁los	-4.8749
o	-4.98701
▁no	-5.01734
mos	-5.08104
▁se	-5.08303
▁Y	-5.10598
▁lo	-5.145
▁para	-5.19725
▁con	-5.20633
es	-5.31798
▁las	-5.34133
▁por	-5.36321
▁del	-5.41948
r	-5.42269
a	-5.49675
▁más	-5.56004
▁?	-5.62113
¿	-5.64
▁como	-5.67617
mente	-5.69866
▁:	-5.77271
ción	-5.84086
ó	-5.87208
▁su	-5.87566
▁al	-5.87968
do	-5.91253
▁mi	-5.97687
▁me	-6.02194
▁si	-6.04049
▁esto	-6.06509
▁o	-6.07376
▁)	-6.08392
(	-6.0849
▁puede	-6.13076
▁esta	-6.16143
▁Pero	-6.19554
▁muy	-6.23608
▁este	-6.24236
▁eso	-6.25627
▁son	-6.27837
▁pero	-6.33395
ndo	-6.34956
▁está	-6.34997
▁A	-6.35581
▁No	-6.37845
▁La	-6.42731
▁hacer	-6.44527
e	-6.44759
▁todo	-6.47297
▁cuando	-6.491
da	-6.5023
▁Así	-6.5053
▁años	-6.50729
▁ser	-6.51136
▁era	-6.51425
▁hay	-6.55453
ón	-6.55584
é	-6.55646
y	-6.56772
▁uno	-6.57081
▁Es	-6.57319
▁algo	-6.57587
▁mundo	-6.57809
▁porque	-6.59972
▁qué	-6.60432
▁El	-6.63197
▁—	-6.63919
▁En	-6.65296
.	-6.66057
▁sobre	-6.66091
▁mucho	-6.67045
▁fue	-6.6788
▁Por	-6.70789
▁cosas	-6.7239
▁sus	-6.7258
l	-6.73279
▁ver	-6.73958
▁ha	-6.74831
▁gente	-6.75162
▁Risa	-6.79441
▁tiene	-6.79624
▁personas	-6.80582
▁nos	-6.8141
▁vez	-6.81552
ron	-6.8449
▁le	-6.86574
▁todos	-6.88311
▁nuestro	-6.92529
▁así	-6.93814
▁aquí	-6.94601
▁vida	-6.94605
▁tiempo	-6.98513
▁están	-6.9872
▁estaba	-7.01
▁cómo	-7.01438
▁hecho	-7.01512
▁también	-7.02349
▁ese	-7.0273
▁...	-7.03295
▁nuestra	-7.03679
▁hace	-7.03842
▁forma	-7.04337
▁De	-7.07215
la	-7.07775
▁Si	-7.08308
on	-7.09148
te	-7.09283
se	-7.11323
▁dos	-7.11981
lo	-7.12172
ba	-7.12302
▁tenemos	-7.13439
▁Esto	-7.14508
▁ahora	-7.14877
▁esa	-7.15174
▁yo	-7.15498
me	-7.16385
▁cada	-7.16674
▁les	-7.17092
▁bien	-7.18251
▁había	-7.18361
▁realmente	-7.19041
▁solo	-7.19206
▁Esta	-7.19253
▁donde	-7.19782
▁♫	-7.19808
▁estos	-7.20718
▁Lo	-7.21118
▁Se	-7.2115
en	-7.21432
▁pode	-7.23572
▁sin	-7.23898
de	-7.2423
▁parte	-7.24745
▁estas	-7.25001
t	-7.25004
-	-7.2547
▁tan	-7.26082
▁gran	-7.26086
ciones	-7.29539
▁tienen	-7.29709
dos	-7.29888
▁va	-7.29967
▁manera	-7.31436
ar	-7.31753
▁Aplausos	-7.32219
▁re	-7.3353
▁poco	-7.33627
▁mismo	-7.33719
▁han	-7.33858
▁e	-7.34599
to	-7.36792
▁Ahor	-7.36911
▁entre	-7.3703
▁decir	-7.38081
ta	-7.38696
▁día	-7.39975
▁tipo	-7.40015
an	-7.40759
▁Los	-7.4119
▁sólo	-7.41281
c	-7.41363
▁lugar	-7.42548
z	-7.43374
í	-7.4349
▁realidad	-7.43721
▁historia	-7.43755
▁he	-7.44641
▁tener	-7.46011
▁idea	-7.46274
▁desde	-7.46504
▁estamos	-7.4653
le	-7.4656
▁mucha	-7.46742
▁ya	-7.47424
▁otra	-7.47678
que	-7.47915
▁;	-7.48136
▁mejor	-7.48353
▁nosotros	-7.48437
▁trabajo	-7.48883
▁tu	-7.49008
▁Me	-7.49093
▁ellos	-7.49611
g	-7.49721
▁te	-7.50965
▁tenía	-7.51127
▁luego	-7.51486
▁creo	-7.52564
▁hasta	-7.53257
▁sistema	-7.5375
▁otro	-7.53914
▁alguna	-7.54247
▁millones	-7.54598
os	-7.56322
idad	-7.56481
á	-7.56927
▁menos	-7.57245
▁podría	-7.59091
ca	-7.59609
ra	-7.59619
▁entonces	-7.59847
▁in	-7.59877
ía	-7.60246
▁Entonces	-7.60375
▁momento	-7.60738
▁Mi	-7.62091
das	-7.62282
▁tecnología	-7.62643
▁año	-7.63009
▁dijo	-7.64126
rse	-7.64357
▁Este	-7.64893
▁importante	-7.65838
▁después	-7.66097
nte	-7.67014
▁Qué	-7.67124
▁hoy	-7.67647
▁%	-7.68042
▁problema	-7.69342
▁todas	-7.69476
▁ejemplo	-7.69849
▁Bueno	-7.69864
▁sea	-7.70657
ro	-7.71051
▁él	-7.71816
▁antes	-7.73886
ma	-7.75357
co	-7.76036
ti	-7.76156
p	-7.76643
▁nuevo	-7.76685
▁ve	-7.76775
▁veces	-7.7698
▁sí	-7.77682
di	-7.78479
▁alguno	-7.78571
endo	-7.79216
▁nada	-7.79267
▁nueva	-7.79407
er	-7.79516
d	-7.79541
▁otros	-7.80299
▁hemo	-7.80327
▁agua	-7.80351
▁niños	-7.80356
▁di	-7.80391
nos	-7.81298
▁O	-7.81893
▁Hay	-7.82069
i	-7.82131
re	-7.82157
▁pregunta	-7.82181
u	-7.82228
▁T	-7.82239
▁primera	-7.82542
▁tres	-7.82988
▁hacia	-7.82993
as	-7.83001
▁ir	-7.83304
▁cuenta	-7.83484
▁tanto	-7.83802
eron	-7.83841
▁ni	-7.83873
go	-7.84532
m	-7.85285
▁medio	-7.85357
▁pensar	-7.85534
▁Cuand	-7.85895
▁cualquier	-7.86591
ban	-7.86901
▁casa	-7.87233
▁saben	-7.87268
▁debe	-7.87277
▁poder	-7.87832
remos	-7.88064
na	-7.88125
▁ella	-7.88134
▁estado	-7.88594
▁quiero	-7.88757
▁mí	-7.88812
▁estar	-7.90703
▁sino	-7.91132
▁Gracias	-7.91781
▁final	-7.91838
ce	-7.91914
▁necesita	-7.92003
▁nunca	-7.92343
ría	-7.92777
▁allí	-7.92904
▁Eso	-7.93055
▁mis	-7.93127
▁toda	-7.93263
▁sido	-7.93517
▁d	-7.9359
▁otras	-7.94035
▁siempre	-7.94841
▁C	-7.95178
les	-7.95232
▁!	-7.9565
▁cerebro	-7.95766
▁información	-7.95931
▁haciendo	-7.96291
emos	-7.96391
▁E	-7.96475
li	-7.9669
▁cosa	-7.96853
mo	-7.97619
ga	-7.97779
▁dice	-7.99
▁alguien	-7.99194
▁persona	-7.99678
▁tal	-7.99776
▁hacerlo	-7.99967
▁hablar	-8.00058
▁ven	-8.01147
▁datos	-8.012
▁trata	-8.01578
urante	-8.01609
¡	-8.02805
▁verdad	-8.03056
▁Una	-8.03284
▁10	-8.03333
▁grandes	-8.03952
▁esas	-8.04386
▁dije	-8.04658
▁punto	-8.04734
▁20	-8.04855
▁podía	-8.05756
▁acerca	-8.05854
▁ahí	-8.06425
ado	-8.06598
b	-8.0692
▁mujeres	-8.07201
▁encontrar	-8.07396
amos	-8.07492
▁pro	-8.07495
al	-8.07654
▁Las	-8.08239
▁mayor	-8.08792
ri	-8.09166
▁inclus	-8.09231
▁grupo	-8.0924
entras	-8.09649
▁diferentes	-8.09922
▁crear	-8.10003
▁Un	-8.11114
▁llama	-8.11273
▁L	-8.1264
▁primer	-8.12773
▁misma	-8.13439
▁ustedes	-8.13619
▁voy	-8.13658
quí	-8.1366
▁Com	-8.13748
▁usar	-8.13992
▁Todo	-8.14255
▁casi	-8.14284
▁Al	-8.14485
▁aún	-8.14774
▁da	-8.14851
▁Yo	-8.14993
za	-8.15222
án	-8.15318
▁especie	-8.15904
▁último	-8.16118
mi	-8.16165
▁contra	-8.16293
▁teng	-8.16336
▁B	-8.16396
▁cambio	-8.16521
▁Cre	-8.16683
▁país	-8.16766
▁significa	-8.17242
▁energía	-8.17698
bo	-8.18093
▁Cómo	-8.18423
▁fuera	-8.19278
▁Para	-8.19758
▁bueno	-8.19855
rá	-8.20123
▁hacen	-8.20716
▁cierto	-8.21305
▁vi	-8.2138
▁Puede	-8.21612
▁buena	-8.21776
▁parece	-8.21918
▁cambiar	-8.22114
▁dinero	-8.22134
▁libro	-8.22438
▁cuerpo	-8.22514
las	-8.22977
▁posible	-8.23199
▁alrededor	-8.23621
▁futuro	-8.23657
▁bastante	-8.2366
▁grande	-8.23748
▁debería	-8.2381
ia	-8.24014
▁par	-8.24199
ci	-8.24312
▁espacio	-8.24352
▁puedo	-8.24506
▁travé	-8.24816
▁haber	-8.25011
▁mayoría	-8.25188
▁3	-8.25402
▁difícil	-8.25408
▁gracias	-8.25516
▁diferente	-8.25578
▁planeta	-8.25991
ones	-8.26022
▁dentro	-8.26961
▁problemas	-8.27067
▁pasado	-8.27162
▁primero	-8.27267
h	-8.27288
ne	-8.27552
▁-	-8.27609
dor	-8.28025
▁van	-8.28077
vi	-8.28373
▁modo	-8.28702
f	-8.29048
▁vamos	-8.29252
▁supuesto	-8.29452
je	-8.29778
▁I	-8.29815
▁diseño	-8.29881
▁Con	-8.30347
▁pasa	-8.30625
▁Uds	-8.30853
▁D	-8.30878
rán	-8.30886
▁Bien	-8.30994
▁tomar	-8.31012
tra	-8.31384
▁hombre	-8.31459
▁raz	-8.31608
va	-8.31705
▁países	-8.32142
▁sentido	-8.32302
cia	-8.32617
po	-8.32645
▁quizá	-8.33492
▁nivel	-8.33752
▁lado	-8.34257
▁caso	-8.34408
▁ciudad	-8.34442
frica	-8.34592
▁pa	-8.35035
▁luz	-8.35202
▁sería	-8.35403
▁mal	-8.35458
▁ayuda	-8.35541
▁mil	-8.3569
tu	-8.35794
▁Le	-8.36463
ten	-8.36968
▁pequeño	-8.37156
▁bajo	-8.37362
▁toma	-8.37486
era	-8.37533
▁madre	-8.37555
▁cual	-8.3821
▁proceso	-8.38352
▁ca	-8.38778
▁comunidad	-8.38902
▁auto	-8.39214
▁dólares	-8.40015
▁2	-8.40035
res	-8.4011
pa	-8.40478
in	-8.40623
▁N	-8.40714
▁increíble	-8.40975
▁programa	-8.41045
pi	-8.41057
▁real	-8.41848
▁Tene	-8.41973
▁enfermedad	-8.41974
▁EE	-8.42061
▁hizo	-8.42159
▁He	-8.4221
▁interesante	-8.42719
dores	-8.4287
▁días	-8.4292
▁simple	-8.42948
▁proyecto	-8.43298
▁F	-8.43677
▁P	-8.43799
▁llegar	-8.44021
▁soy	-8.44027
▁sé	-8.44233
▁ciento	-8.44308
▁respuesta	-8.44762
▁modelo	-8.45064
▁línea	-8.45255
▁probable	-8.45259
▁dón	-8.45296
▁S	-8.45738
▁quiere	-8.4575
▁ciencia	-8.45872
apos	-8.46101
▁co	-8.4621
▁simplemente	-8.46752
▁dar	-8.46802
▁entender	-8.46827
pe	-8.46975
k	-8.47061
▁humanos	-8.48044
▁cerca	-8.4809
▁salud	-8.48141
▁sabemos	-8.4816
ntes	-8.48348
▁sociedad	-8.48844
ter	-8.49393
▁cuatro	-8.49638
ja	-8.49888
qui	-8.49948
▁llamado	-8.50008
ada	-8.501
▁funciona	-8.50266
▁número	-8.50879
▁escuela	-8.51089
▁Quier	-8.51091
▁imagen	-8.51142
▁vemos	-8.51243
▁visto	-8.51449
ismo	-8.51555
cu	-8.51657
ando	-8.5176
▁Sí	-8.51914
▁empresa	-8.5228
▁somos	-8.52477
▁trabajar	-8.52496
is	-8.52824
tro	-8.5303
▁fácil	-8.5308
ente	-8.5315
▁Ho	-8.53287
▁células	-8.53544
▁Son	-8.53601
▁dura	-8.53734
▁crea	-8.53842
ble	-8.53959
ve	-8.53993
▁4	-8.54502
▁hacemos	-8.54731
▁pequeña	-8.54957
▁muestra	-8.55144
▁meses	-8.55253
▁30	-8.55439
▁algún	-8.55583
▁clase	-8.55902
▁quería	-8.55929
▁propia	-8.56221
▁importa	-8.56351
man	-8.56434
▁suficiente	-8.56647
▁Tiene	-8.57183
▁total	-8.57185
▁saber	-8.57422
▁5	-8.57434
▁humano	-8.57734
vo	-8.58241
▁construir	-8.58372
▁experiencia	-8.58403
rnos	-8.58508
▁propio	-8.58807
▁computadora	-8.5918
▁noche	-8.59196
▁siguiente	-8.5926
▁camino	-8.59368
▁Ha	-8.59432
los	-8.59441
▁50	-8.59474
▁largo	-8.59481
▁familia	-8.59506
▁niño	-8.59566
▁ideas	-8.59618
▁gobierno	-8.60235
▁ma	-8.60977
▁todavía	-8.61352
▁pre	-8.61547
UU	-8.62446
▁principio	-8.62472
▁Era	-8.62542
or	-8.62893
▁mercado	-8.62932
▁hombres	-8.63182
▁lugares	-8.63225
ir	-8.63386
▁viene	-8.6339
tar	-8.63535
fi	-8.63707
▁arte	-8.63759
rios	-8.6413
▁equipo	-8.64185
ambién	-8.64292
▁mano	-8.64443
tas	-8.64471
▁Ma	-8.64596
▁cantidad	-8.64725
▁Mucha	-8.64767
▁lleva	-8.64838
▁Fue	-8.65097
▁movimiento	-8.6511
▁100	-8.65395
x	-8.6546
▁Re	-8.65613
▁diferencia	-8.65693
ido	-8.65781
A	-8.6644
▁segundo	-8.66548
miento	-8.66551
▁fin	-8.66583
▁guerra	-8.66633
ú	-8.66673
▁será	-8.66821
▁nadie	-8.66869
▁material	-8.66977
nd	-8.67127
▁mostrar	-8.67128
▁foto	-8.67159
▁embarg	-8.67225
▁ti	-8.67262
▁igual	-8.67808
▁llamada	-8.68375
▁Su	-8.6858
▁escala	-8.68677
▁empezar	-8.68853
▁nombre	-8.68928
ste	-8.68956
▁R	-8.68977
lu	-8.69054
nto	-8.69072
▁animales	-8.69143
▁mar	-8.69151
▁gusta	-8.69154
tiva	-8.69269
▁público	-8.69384
▁Uno	-8.69398
▁tierra	-8.69505
▁Tierra	-8.69627
▁efecto	-8.69627
mp	-8.69646
▁rápido	-8.6987
▁fui	-8.69928
▁quién	-8.69992
▁Sabe	-8.70008
▁social	-8.70227
gi	-8.70393
▁hijos	-8.70467
▁general	-8.70582
▁causa	-8.71098
▁especial	-8.71363
ina	-8.7142
▁centro	-8.71509
▁palabras	-8.71676
▁usa	-8.71795
▁mujer	-8.71963
▁alta	-8.72339
us	-8.72492
▁particular	-8.72588
sta	-8.72855
lla	-8.72964
ré	-8.73053
▁fuerza	-8.73091
▁siglo	-8.73091
▁iba	-8.73253
▁sabía	-8.7332
▁pasar	-8.73444
C	-8.73821
▁gustaría	-8.73892
rlo	-8.74436
▁Está	-8.74747
▁Sin	-8.74848
ton	-8.74858
tivo	-8.75126
▁TED	-8.75253
ria	-8.75347
▁llega	-8.75358
2	-8.75386
▁Ca	-8.75409
▁Pode	-8.75571
▁economía	-8.75769
▁Esa	-8.7623
▁cinco	-8.76678
▁Di	-8.76793
▁Les	-8.76929
▁comida	-8.76949
▁herramienta	-8.77201
ren	-8.7731
▁objeto	-8.77727
▁poner	-8.77913
rme	-8.78219
▁tratar	-8.78224
▁red	-8.78386
▁música	-8.78521
▁amigos	-8.78568
▁Va	-8.7889
con	-8.7891
▁Internet	-8.79054
▁India	-8.79459
▁quien	-8.7963
▁ayudar	-8.79746
ero	-8.79884
▁desarrollo	-8.80103
▁allá	-8.80131
▁ello	-8.80319
▁M	-8.80378
▁juego	-8.80652
▁capacidad	-8.807
▁habla	-8.80759
▁valor	-8.80899
▁claro	-8.81034
▁atención	-8.81222
▁capa	-8.81342
▁hice	-8.81355
▁pueda	-8.81369
▁paso	-8.81513
0	-8.81649
ida	-8.81677
▁15	-8.8229
▁única	-8.82314
▁llevar	-8.8233
▁aprender	-8.82391
ru	-8.82788
▁completamente	-8.82998
▁horas	-8.83235
bra	-8.83306
ista	-8.83367
rio	-8.8349
▁derecho	-8.83564
▁padre	-8.83671
▁última	-8.83703
▁medida	-8.83801
▁imágenes	-8.83843
▁permite	-8.84125
▁sitio	-8.84132
▁humana	-8.84246
▁Ya	-8.84508
rían	-8.84648
.000	-8.8491
▁sonido	-8.84919
▁p	-8.84953
▁principal	-8.84971
▁Ve	-8.85071
ver	-8.85114
ían	-8.85292
▁rápida	-8.85397
▁política	-8.85432
▁partes	-8.85437
▁trabaja	-8.85614
▁control	-8.85615
▁pod	-8.85631
jo	-8.85818
▁naturaleza	-8.85829
▁educación	-8.86031
▁sucedi	-8.86123
ge	-8.86256
▁ellas	-8.8628
▁quieren	-8.86372
I	-8.86386
▁Estados	-8.86393
▁normal	-8.86706
tó	-8.86872
▁sucede	-8.8689
ncia	-8.86904
▁Hace	-8.87029
▁usan	-8.87077
▁hablando	-8.8709
▁J	-8.87115
▁haya	-8.87125
▁mejores	-8.87236
▁Dios	-8.87353
▁Unidos	-8.87551
▁cáncer	-8.87701
▁mile	-8.87797
▁Te	-8.8804
▁minutos	-8.88254
S	-8.88405
▁aire	-8.88441
zo	-8.885
ll	-8.88518
▁1	-8.88547
▁Nueva	-8.88579
▁oportunidad	-8.88668
ho	-8.88687
▁cultura	-8.88812
▁negocio	-8.88873
00	-8.89036
▁compañía	-8.89168
▁demasiado	-8.89168
▁muerte	-8.89168
▁resulta	-8.89277
▁único	-8.89316
▁alto	-8.89446
▁exactamente	-8.89636
▁video	-8.89828
▁sola	-8.89958
4	-8.90041
▁tema	-8.90046
91	-8.90186
▁K	-8.90276
▁base	-8.90504
cha	-8.9065
▁per	-8.90652
▁vivir	-8.90708
▁aunque	-8.90792
▁global	-8.90871
hi	-8.909
▁acuerdo	-8.90958
té	-8.9105
▁ojos	-8.91064
▁cabeza	-8.91111
▁viaje	-8.91147
ita	-8.91204
iendo	-8.91285
ing	-8.91348
▁mo	-8.91417
ch	-8.91508
ur	-8.91575
M	-8.91579
▁sol	-8.9189
ck	-8.92147
▁intenta	-8.92211
▁médico	-8.9233
▁pequeños	-8.92404
▁existe	-8.9256
▁decía	-8.92617
▁robot	-8.92628
▁cuál	-8.92628
uego	-8.92848
▁dejar	-8.92989
▁sala	-8.93039
▁papel	-8.93088
v	-8.93095
▁común	-8.93554
el	-8.93615
▁seguro	-8.93623
▁océano	-8.93704
▁frente	-8.93704
du	-8.93773
▁estudio	-8.9387
bi	-8.93966
▁padres	-8.94049
▁natural	-8.94133
▁historias	-8.94237
▁ciudades	-8.94299
▁vidas	-8.94381
▁volver	-8.94967
▁cara	-8.95033
▁edad	-8.95075
93;	-8.95106
▁cambia	-8.9517
▁seguir	-8.95194
▁sabe	-8.95299
▁siendo	-8.95312
▁vista	-8.95619
▁tamaño	-8.95735
▁uso	-8.95823
▁mirar	-8.9602
▁Pa	-8.96048
▁pensé	-8.9609
▁atrás	-8.9621
ión	-8.96232
▁pensamo	-8.9644
▁palabra	-8.96578
▁tarde	-8.96689
▁200	-8.96706
▁hora	-8.96745
▁pienso	-8.96847
▁campo	-8.9686
car	-8.96938
▁hicimos	-8.97006
▁Mo	-8.97008
▁mitad	-8.97038
▁empeza	-8.97052
▁40	-8.97315
▁noticia	-8.97327
▁investigación	-8.97384
▁dicen	-8.97411
▁enorme	-8.97419
▁China	-8.975
▁personal	-8.97621
▁Ba	-8.97698
▁formas	-8.97806
▁éxito	-8.97809
▁tuvi	-8.98045
▁Ro	-8.98311
9	-8.98385
▁semana	-8.9877
sión	-8.98874
▁mensaje	-8.98944
gu	-8.99488
▁mañana	-8.99762
▁compartir	-8.99858
▁relación	-8.99928
▁representa	-9.00102
▁estudiantes	-9.00125
ng	-9.0027
▁seguridad	-9.00515
▁espera	-9.00516
▁preguntas	-9.00531
▁York	-9.00546
▁podrían	-9.0066
▁población	-9.00753
▁servicio	-9.00753
▁U	-9.00841
▁tenido	-9.01253
▁justo	-9.01253
▁sentir	-9.01276
w	-9.0158
▁ex	-9.01649
▁menud	-9.01926
▁buen	-9.02026
▁película	-9.02029
th	-9.02071
▁crecimiento	-9.0226
ran	-9.02341
▁abajo	-9.02766
▁jóvenes	-9.02934
▁término	-9.02934
▁superficie	-9.03444
▁resultado	-9.03576
▁arriba	-9.03615
▁básicamente	-9.03915
▁cierta	-9.03957
gen	-9.04016
5	-9.04053
▁baja	-9.04125
▁preocupa	-9.04148
▁tratando	-9.04458
▁seis	-9.04575
▁mira	-9.04596
▁fuerte	-9.04711
▁darle	-9.04714
▁laboratorio	-9.04818
▁Teng	-9.04916
▁miedo	-9.05007
8	-9.05104
▁pobre	-9.05238
▁edificio	-9.05238
ni	-9.05242
▁resto	-9.05354
▁amor	-9.05458
▁6	-9.05639
▁Que	-9.05731
▁juntos	-9.05866
dora	-9.06067
▁imp	-9.06459
▁teléfono	-9.06561
▁comportamiento	-9.06564
▁000	-9.06738
▁Ella	-9.07101
▁universo	-9.07267
▁tras	-9.07321
▁Ese	-9.07418
▁esperanza	-9.07445
▁máquina	-9.07618
▁charla	-9.07622
it	-9.07627
be	-9.07663
▁siquiera	-9.07826
▁mente	-9.07837
▁mismos	-9.07843
▁Vi	-9.08015
ados	-9.08057
istas	-9.0822
▁sociales	-9.08529
▁varia	-9.08752
▁estructura	-9.08912
▁científicos	-9.0899
▁pudiera	-9.09051
▁arma	-9.0907
▁cree	-9.0918
▁mundial	-9.09276
▁encanta	-9.09541
tor	-9.09669
dad	-9.09995
▁c	-9.10028
▁regla	-9.10145
iza	-9.1019
P	-9.10324
lar	-9.10369
▁física	-9.10691
tábamos	-9.1084
▁ambiente	-9.10875
▁contar	-9.10875
▁dio	-9.11031
▁libre	-9.11247
ete	-9.1155
ros	-9.1159
si	-9.11617
tuve	-9.11626
demás	-9.118
▁llev	-9.11865
▁aquello	-9.12132
▁60	-9.12171
▁negro	-9.12355
▁riesgo	-9.12358
▁favor	-9.12489
▁decidi	-9.12529
che	-9.12787
▁busca	-9.1283
▁G	-9.12959
▁estrella	-9.13103
▁trabajan	-9.13173
▁coraz	-9.13258
▁ba	-9.13381
▁salir	-9.13423
ábamos	-9.13486
▁empieza	-9.13855
▁ADN	-9.13857
▁lograr	-9.13878
▁demás	-9.13909
▁estadounidense	-9.14335
▁chico	-9.14466
▁mantener	-9.14618
▁pieza	-9.14831
un	-9.14946
▁puedan	-9.14975
▁joven	-9.14999
cen	-9.15052
▁llam	-9.15222
D	-9.15635
den	-9.15681
▁hicier	-9.15763
▁mas	-9.15791
▁visi	-9.15898
▁deja	-9.16003
▁18	-9.16104
cer	-9.16261
tuvo	-9.17073
▁Podría	-9.17519
▁pensando	-9.17531
▁imaginar	-9.17562
▁segunda	-9.18109
▁empec	-9.18707
▁produc	-9.18866
▁resolver	-9.18918
aba	-9.18944
▁CA	-9.18962
tico	-9.1903
▁izquierda	-9.19301
▁diciendo	-9.19321
▁aspecto	-9.19503
▁8	-9.19699
▁código	-9.19701
▁falta	-9.19702
3	-9.19757
il	-9.19931
▁genera	-9.20023
▁tra	-9.20139
▁obtener	-9.20155
7	-9.20171
▁Soy	-9.20189
▁ninguna	-9.20305
▁hubiera	-9.20305
1	-9.2042
▁recursos	-9.20603
▁pas	-9.20691
▁media	-9.21046
ie	-9.21064
▁digo	-9.21084
▁pequeñas	-9.21311
ante	-9.21383
▁mapa	-9.21564
▁conocimiento	-9.21938
▁plan	-9.21951
▁hijo	-9.22162
▁habría	-9.22236
▁viendo	-9.22258
▁pi	-9.22343
▁12	-9.22358
T	-9.22403
▁piensa	-9.22434
▁solución	-9.2255
▁práctica	-9.22756
gan	-9.22808
fe	-9.22813
bilidad	-9.22858
▁Europa	-9.22963
▁profesor	-9.22963
▁bebé	-9.23171
▁com	-9.23452
▁digital	-9.23499
▁color	-9.23558
▁pueblo	-9.23587
▁pacientes	-9.23666
▁conseguir	-9.23761
▁dado	-9.23946
▁voz	-9.24007
rlos	-9.24022
et	-9.24172
▁respecto	-9.24215
▁escucha	-9.24257
▁vuelta	-9.24425
▁teoría	-9.24637
▁semanas	-9.24665
▁Estaba	-9.24809
um	-9.2481
▁página	-9.24846
▁actividad	-9.24847
cion	-9.24917
▁situación	-9.25058
▁Tenía	-9.25274
▁vivo	-9.25537
▁obra	-9.25637
▁entra	-9.25825
▁dispositivo	-9.26122
ven	-9.26219
ha	-9.26246
▁vuelve	-9.26349
▁actual	-9.26373
▁In	-9.26678
6	-9.26688
▁fondo	-9.26833
▁ocurre	-9.26839
▁pensamiento	-9.26983
tica	-9.27031
▁W	-9.27046
▁fe	-9.271
▁derecha	-9.27199
▁manos	-9.2726
G	-9.27313
fa	-9.27368
▁próximo	-9.27413
▁eres	-9.27414
▁nuevos	-9.27497
ic	-9.27599
▁encontramos	-9.27649
▁piensan	-9.27752
▁marca	-9.27797
▁medicina	-9.2785
▁ocurri	-9.27934
ig	-9.27935
▁Músic	-9.28065
▁lenguaje	-9.28077
▁pasando	-9.28436
▁lucha	-9.28499
▁potencial	-9.28756
▁prueba	-9.28802
ac	-9.29019
▁industria	-9.29024
▁sal	-9.2904
▁metros	-9.29153
▁ningún	-9.29162
▁7	-9.29162
▁mostrarles	-9.29232
▁leer	-9.29274
▁fuente	-9.29347
▁Nos	-9.29403
ces	-9.29423
L	-9.29461
▁escuchar	-9.29537
▁Li	-9.29606
▁cuanto	-9.29612
▁H	-9.29622
▁impacto	-9.29826
▁resultados	-9.29934
tura	-9.29986
▁siento	-9.30287
▁Da	-9.30364
▁desafío	-9.30494
▁cu	-9.30517
▁debido	-9.3061
▁quienes	-9.30653
▁alimento	-9.30718
ña	-9.30893
adas	-9.3096
▁necesitan	-9.3117
▁g	-9.31176
▁pe	-9.31409
▁amigo	-9.31421
cul	-9.31466
cho	-9.31594
▁lista	-9.3165
▁sorprendente	-9.31881
▁observa	-9.32063
▁dicho	-9.32113
▁pesar	-9.32232
▁verde	-9.32356
▁vivi	-9.32595
▁comenzar	-9.32626
▁serie	-9.32738
▁buscar	-9.32812
tado	-9.32986
▁sigue	-9.3307
▁esté	-9.33155
io	-9.33202
▁suerte	-9.33213
▁Mar	-9.33219
ya	-9.33272
ica	-9.33294
▁generación	-9.33311
spués	-9.33351
▁acceso	-9.33442
▁área	-9.33495
▁genial	-9.33903
imos	-9.3448
▁Necesita	-9.34484
▁80	-9.34561
▁tú	-9.34649
▁web	-9.34833
▁cuánto	-9.34852
▁Ello	-9.35247
▁lejos	-9.35307
ríamos	-9.35446
▁completo	-9.35535
▁perspectiva	-9.35535
▁11	-9.35652
▁objetivo	-9.35671
▁paciente	-9.35691
▁inter	-9.35766
▁mover	-9.35801
▁Voy	-9.35865
▁producto	-9.36106
▁Po	-9.36277
▁terminar	-9.36359
ula	-9.36457
▁Co	-9.36547
R	-9.36691
▁Solo	-9.36749
til	-9.36829
ad	-9.36837
ul	-9.36901
▁escribir	-9.37096
▁velocidad	-9.37194
▁importantes	-9.37245
gar	-9.37516
▁fundamental	-9.37652
▁Están	-9.37669
▁Sólo	-9.37673
▁pantalla	-9.37701
▁feliz	-9.37995
▁malo	-9.38025
pero	-9.38079
▁cuestión	-9.38154
▁suelo	-9.38164
▁capital	-9.38167
▁aprendi	-9.38257
▁evolución	-9.38406
▁car	-9.38439
▁verdadera	-9.38488
▁fa	-9.38571
▁Oh	-9.38622
▁comenz	-9.38772
▁deseo	-9.38826
ándose	-9.38847
cio	-9.38932
▁descubri	-9.39027
▁Hemo	-9.39029
▁petróleo	-9.39124
he	-9.39188
éste	-9.39247
▁capac	-9.39443
▁desea	-9.39478
E	-9.39531
▁interior	-9.39612
▁solar	-9.39712
▁u	-9.39723
encia	-9.39812
▁económico	-9.39857
▁hospital	-9.39858
▁25	-9.39882
▁termina	-9.39939
▁innovación	-9.39974
▁Sa	-9.3999
im	-9.40189
▁diga	-9.40202
▁fotos	-9.40289
▁sub	-9.40582
▁entrar	-9.40699
▁utiliza	-9.4104
▁materia	-9.41054
▁comprar	-9.41139
▁cre	-9.41251
gue	-9.41267
ger	-9.41425
▁montón	-9.41591
▁Cuál	-9.41591
N	-9.41616
▁maravilloso	-9.4184
▁caja	-9.41899
▁producir	-9.41929
ino	-9.41981
▁9	-9.42039
▁habita	-9.42077
▁concepto	-9.42098
▁cámara	-9.42265
pr	-9.42266
▁nacional	-9.42404
▁pu	-9.4243
▁extraño	-9.42598
nde	-9.42614
llo	-9.42671
▁blanco	-9.42847
▁compra	-9.42985
▁productos	-9.43172
▁literal	-9.4323
▁Na	-9.43289
▁puerta	-9.43353
razones	-9.43439
▁produce	-9.43555
▁ingreso	-9.43608
▁partir	-9.43622
tre	-9.43623
▁fu	-9.43662
tri	-9.43743
▁clave	-9.43865
O	-9.43865
▁junto	-9.43951
j	-9.43992
▁Des	-9.44048
▁convertir	-9.44074
▁escribi	-9.44135
▁li	-9.44153
▁animal	-9.44271
cía	-9.44296
▁tendría	-9.44549
▁reto	-9.4457
▁Había	-9.44632
▁relaciones	-9.44633
▁ley	-9.44655
▁correcto	-9.44724
▁cuidado	-9.44834
▁casos	-9.4489
▁abierto	-9.4489
▁chica	-9.44909
▁nota	-9.44917
▁logra	-9.44948
▁patr	-9.45025
▁Gran	-9.45071
▁teníamos	-9.45094
▁universidad	-9.45148
▁pie	-9.45188
izar	-9.45221
▁trans	-9.45327
rra	-9.45338
▁90	-9.45415
▁vino	-9.45582
▁lleg	-9.4563
▁libertad	-9.45667
▁moral	-9.4578
▁costa	-9.45872
▁distinta	-9.45928
▁peor	-9.45973
▁masa	-9.46002
eta	-9.46083
▁combina	-9.46189
▁oído	-9.46198
▁Be	-9.46385
▁calle	-9.46482
▁opera	-9.46638
▁Tal	-9.46787
▁zona	-9.47103
eran	-9.47119
▁plantas	-9.4733
▁década	-9.47379
▁70	-9.47393
▁azul	-9.47535
▁calidad	-9.47546
▁pública	-9.4777
▁local	-9.4787
▁experimento	-9.48016
▁Google	-9.48036
for	-9.48161
unca	-9.48527
▁hacía	-9.4855
▁mejorar	-9.48753
▁tipos	-9.48839
▁etc	-9.48853
migo	-9.48867
▁presente	-9.4896
mediante	-9.49129
▁explica	-9.49312
▁recuerdo	-9.49376
▁sensa	-9.49436
▁gana	-9.49442
▁hielo	-9.49646
▁op	-9.49722
▁puntos	-9.49756
▁enfrenta	-9.49821
▁distancia	-9.49917
▁viejo	-9.49918
▁afecta	-9.50141
pu	-9.50168
mbos	-9.5023
▁Ga	-9.50399
▁ésta	-9.50458
▁Alguno	-9.50462
▁virus	-9.50464
▁cambios	-9.50589
▁haga	-9.50616
▁época	-9.50735
▁humanidad	-9.50735
▁carrera	-9.50735
▁adelante	-9.50766
▁intentar	-9.50792
▁dan	-9.50885
▁carga	-9.50896
▁Ni	-9.50929
▁sali	-9.50937
▁sur	-9.50974
mar	-9.51005
▁decisiones	-9.5101
▁Bu	-9.51482
▁directa	-9.51559
▁tratamiento	-9.51636
▁móvil	-9.51835
▁encuentra	-9.52287
uel	-9.52376
▁larga	-9.52432
▁pone	-9.52525
ber	-9.52562
▁dolor	-9.52634
fica	-9.52709
H	-9.52879
▁suma	-9.52931
▁Primer	-9.52948
▁violencia	-9.52948
▁rep	-9.53006
▁Do	-9.53024
▁dirección	-9.53228
▁neurona	-9.53324
wa	-9.534
▁consecuencia	-9.53509
▁pensaba	-9.53521
B	-9.5382
▁defini	-9.53835
▁t	-9.53925
▁camina	-9.53932
▁cor	-9.54022
ió	-9.54041
▁democracia	-9.54073
▁considera	-9.54145
▁áreas	-9.54291
▁diseñador	-9.5431
▁sale	-9.54322
▁compasión	-9.54362
▁usamos	-9.54412
▁hub	-9.54464
▁molécula	-9.5464
▁ju	-9.54752
▁creen	-9.54759
ana	-9.5481
gún	-9.54843
mu	-9.54971
enta	-9.55179
▁vive	-9.55191
▁detrás	-9.55212
▁confianza	-9.55312
▁costo	-9.55382
▁diría	-9.55427
▁ante	-9.5543
▁desarrollar	-9.5545
▁contexto	-9.55498
▁muerto	-9.55498
▁recordar	-9.55748
▁amenaza	-9.55785
▁empezó	-9.55785
▁técnica	-9.56073
▁creer	-9.56279
▁organismo	-9.56362
▁hija	-9.56363
▁acción	-9.56599
▁tasa	-9.56683
▁comunicación	-9.56791
fer	-9.56828
▁líderes	-9.56893
▁correcta	-9.56946
ol	-9.5698
amente	-9.57129
▁necesario	-9.57234
▁piel	-9.57276
ito	-9.57284
▁199	-9.5751
▁promedio	-9.57527
▁millón	-9.57528
▁montaña	-9.57531
cos	-9.57722
▁disponible	-9.5782
▁afuera	-9.5782
▁comer	-9.58071
▁aparece	-9.58105
▁explicar	-9.58212
min	-9.58269
ud	-9.58288
▁mental	-9.58368
▁adapta	-9.5841
▁inteligente	-9.58452
▁tam	-9.58615
izado	-9.58646
▁crisis	-9.58708
▁m	-9.58854
▁planta	-9.58855
via	-9.58875
▁gas	-9.5895
bles	-9.58984
▁16	-9.59021
▁descubrir	-9.59118
▁Cu	-9.59129
▁árboles	-9.59138
▁rec	-9.59342
▁bu	-9.59381
▁repent	-9.59451
▁continua	-9.59521
▁tendrá	-9.59642
▁morir	-9.59657
▁Real	-9.59699
bu	-9.59723
▁mu	-9.5978
▁absoluta	-9.59897
▁tradicional	-9.59967
▁encontré	-9.60005
ñ	-9.60102
ieron	-9.60125
▁Toda	-9.60161
▁perro	-9.60194
▁cielo	-9.60199
▁paga	-9.60216
▁brillante	-9.60244
▁jugar	-9.60483
▁Inclus	-9.60499
▁convierte	-9.605
▁duda	-9.60539
om	-9.60676
▁puesto	-9.60773
▁anterior	-9.60801
▁célula	-9.60955
poco	-9.60983
▁anti	-9.61099
▁sentado	-9.61117
lin	-9.61197
▁emp	-9.61274
▁volvi	-9.6137
▁conjunto	-9.61408
▁genes	-9.6142
▁escenario	-9.6145
▁verlo	-9.61466
▁brazo	-9.61713
▁queda	-9.61852
▁estudios	-9.6186
▁acaba	-9.61941
▁interesa	-9.61946
▁conocido	-9.61955
▁ganar	-9.62014
▁asunto	-9.62019
▁esencial	-9.62089
▁San	-9.62161
▁creado	-9.62166
tal	-9.62361
▁arquitectura	-9.62378
▁solía	-9.6242
▁sacar	-9.62499
tan	-9.62516
▁risa	-9.62636
▁to	-9.62825
▁mirando	-9.62827
▁aplica	-9.62914
▁Quizá	-9.62942
▁carbono	-9.62942
▁redes	-9.63212
▁bi	-9.63237
▁hermano	-9.63251
ue	-9.63317
dica	-9.63462
bido	-9.63535
▁imposible	-9.63562
▁enfoque	-9.63562
▁segura	-9.63563
▁esposa	-9.63564
▁números	-9.6375
▁sueño	-9.63829
▁artículo	-9.63873
▁inteligencia	-9.63873
▁Mu	-9.63878
▁señal	-9.63958
ide	-9.63995
▁ra	-9.64124
ín	-9.64165
▁Nuestro	-9.64186
▁oficina	-9.64186
ático	-9.64187
at	-9.64215
▁orden	-9.64236
▁conocer	-9.64247
▁siente	-9.64309
▁central	-9.64314
▁edificios	-9.64366
▁compara	-9.6447
ke	-9.64489
▁radio	-9.64504
cción	-9.64723
▁depende	-9.64754
▁John	-9.64814
▁can	-9.64867
▁visual	-9.64919
mer	-9.64931
▁viven	-9.64973
ki	-9.65045
▁comun	-9.65087
▁mesa	-9.65215
▁revoluci	-9.65236
▁To	-9.65245
siones	-9.65341
▁Tra	-9.65417
▁Pro	-9.65522
▁Marte	-9.65578
▁colabora	-9.65698
▁estilo	-9.65783
▁b	-9.65927
▁pobres	-9.65947
▁audiencia	-9.66032
▁presenta	-9.66056
▁New	-9.6609
K	-9.66178
▁diseñar	-9.66266
▁alimenta	-9.66273
▁precio	-9.66322
▁14	-9.66345
▁h	-9.66415
▁niña	-9.66522
pen	-9.66699
▁policía	-9.66725
▁piense	-9.66731
▁reducir	-9.66883
ras	-9.66909
▁miembro	-9.67043
▁soluciones	-9.67043
▁tejido	-9.67048
▁entorno	-9.67062
▁conciencia	-9.67212
▁climático	-9.67366
▁construcción	-9.67399
▁decirles	-9.67419
▁científico	-9.67481
▁estudiar	-9.67554
▁plazo	-9.67689
▁permiti	-9.678
▁serio	-9.68102
▁pena	-9.68171
ño	-9.68217
able	-9.68227
mento	-9.68256
▁buscando	-9.68329
▁Alguna	-9.6834
▁esfuerzo	-9.6834
▁maestro	-9.6834
▁ataque	-9.68348
▁motor	-9.68369
▁evitar	-9.68455
ut	-9.68666
▁requiere	-9.68666
▁Más	-9.68672
▁patrones	-9.687
▁obtiene	-9.68994
tina	-9.69063
▁Muy	-9.69143
▁económica	-9.69323
▁superior	-9.69323
▁máquinas	-9.69331
▁cambiado	-9.69333
▁fun	-9.69333
▁activa	-9.69387
▁organización	-9.69486
▁quiera	-9.69636
▁Han	-9.69638
▁utilizar	-9.69643
▁quisiera	-9.69653
▁texto	-9.69653
ji	-9.69662
sis	-9.6977
▁tenga	-9.69861
▁Pe	-9.69977
▁escuelas	-9.70158
▁tercer	-9.70212
▁fi	-9.70232
▁hermoso	-9.70317
nta	-9.7034
▁mayores	-9.70504
▁caminar	-9.70545
▁V	-9.70578
▁buenos	-9.70599
fu	-9.70617
▁próxima	-9.7065
▁terrible	-9.7065
▁parecía	-9.7065
▁Quién	-9.7065
▁debajo	-9.70657
▁sabes	-9.7074
sangre	-9.70785
bre	-9.70859
puesta	-9.70883
▁secuencia	-9.70985
ona	-9.71016
tera	-9.71018
▁familias	-9.71062
▁pens	-9.71082
▁existen	-9.71104
am	-9.71171
▁cuales	-9.71202
▁evidencia	-9.7132
▁corta	-9.71421
▁salvar	-9.71469
▁meta	-9.71474
▁proyectos	-9.71593
▁tarea	-9.716
▁imagina	-9.7162
▁comercial	-9.71634
rt	-9.71736
▁pagar	-9.71897
▁bio	-9.7199
▁encima	-9.71999
▁pan	-9.72029
▁Ven	-9.72117
▁tengan	-9.72251
▁biología	-9.72344
▁menor	-9.72345
▁coche	-9.72351
hago	-9.72427
▁cal	-9.72471
▁usted	-9.72515
ler	-9.72574
▁tendencia	-9.72676
▁interés	-9.72682
▁Car	-9.72704
▁maravillosa	-9.73015
▁abeja	-9.73016
▁Otra	-9.73182
▁árbol	-9.73201
▁conferencia	-9.73232
▁inglés	-9.73358
▁funcionar	-9.73375
▁comprender	-9.73384
▁surgi	-9.73388
▁mío	-9.73507
ka	-9.7358
tamos	-9.73592
▁búsqueda	-9.73701
▁distinto	-9.73701
▁km	-9.73703
▁hagan	-9.73712
▁ejemplos	-9.73813
▁So	-9.73843
▁hogar	-9.7389
▁mala	-9.73976
▁canción	-9.74015
▁cuarto	-9.74046
▁Mucho	-9.74056
▁perfecta	-9.74058
com	-9.74062
▁felicidad	-9.74088
▁pidi	-9.74132
▁cambi	-9.7432
▁Chris	-9.74392
▁electricidad	-9.74392
▁software	-9.74392
▁necesaria	-9.74392
▁pierna	-9.74392
▁profundo	-9.74392
▁Video	-9.74393
▁sexo	-9.74406
▁posibilidad	-9.74587
▁secreto	-9.7474
▁tienda	-9.7474
▁rojo	-9.74741
▁consciente	-9.74753
▁maneras	-9.75122
▁informa	-9.75146
▁cero	-9.75153
▁evento	-9.75437
▁cadena	-9.75438
▁frecuencia	-9.75788
▁galaxia	-9.75788
▁verdadero	-9.75876
ment	-9.75919
▁enviar	-9.76
▁factor	-9.76009
▁esperar	-9.76083
per	-9.76085
▁pintura	-9.76141
ard	-9.76358
▁enseña	-9.76415
der	-9.76483
▁viento	-9.76495
▁completa	-9.76513
▁rico	-9.76841
▁original	-9.76848
▁responsabilidad	-9.76848
▁sexual	-9.76848
ion	-9.76849
▁decidí	-9.76851
▁habrá	-9.76869
em	-9.77098
▁transforma	-9.77123
▁vio	-9.7723
▁condiciones	-9.77234
▁aumento	-9.77341
▁ingeniero	-9.77561
▁supone	-9.77563
▁17	-9.77586
▁veía	-9.77625
▁contrario	-9.77658
rte	-9.77699
▁recibi	-9.77722
▁similar	-9.77779
▁desarrollado	-9.77855
▁método	-9.7792
▁combustible	-9.77923
▁Norte	-9.781
ima	-9.78233
▁proteger	-9.78241
▁comienzo	-9.78279
▁hermosa	-9.7828
▁comp	-9.78494
▁aprendizaje	-9.7864
▁estrategia	-9.7864
▁peso	-9.78717
éramos	-9.78743
▁pues	-9.78824
▁bosque	-9.78888
▁droga	-9.79003
▁ocho	-9.7903
▁13	-9.79064
▁saca	-9.79177
dura	-9.79203
▁venir	-9.79261
▁científica	-9.79366
▁doble	-9.79392
▁Sol	-9.79401
▁Pued	-9.79407
▁podrá	-9.79409
F	-9.79623
iv	-9.79637
▁lider	-9.79824
▁debía	-9.79871
▁haría	-9.79877
tiendo	-9.79976
ctor	-9.80043
▁tocar	-9.80105
aron	-9.80303
▁fotografía	-9.8043
▁probar	-9.80559
▁vaya	-9.80631
ord	-9.80803
▁belleza	-9.80834
▁genoma	-9.80834
▁indica	-9.8087
▁décadas	-9.81009
▁controlar	-9.81052
▁Ah	-9.81126
▁accidente	-9.81205
▁memoria	-9.81205
▁revela	-9.81208
▁vale	-9.81423
▁mata	-9.81447
▁segundos	-9.81474
▁funcione	-9.81521
▁super	-9.81569
▁ensayo	-9.81577
▁elegir	-9.81634
▁contarle	-9.81787
▁norte	-9.81932
▁desarrolla	-9.81938
▁temperatura	-9.8195
▁profesional	-9.8195
▁contenido	-9.8195
▁barco	-9.82029
op	-9.82075
▁institucion	-9.82114
▁pl	-9.82117
cri	-9.82217
grafía	-9.8232
▁gobiernos	-9.8232
▁propósito	-9.82324
▁Cor	-9.82363
▁aproximada	-9.82367
▁perder	-9.82416
▁abri	-9.82498
▁Ja	-9.8263
▁colegas	-9.82816
▁llamar	-9.82948
▁mezcla	-9.83077
▁río	-9.83078
▁comenza	-9.83097
ed	-9.83104
▁avión	-9.83105
▁come	-9.83115
▁calles	-9.83353
▁agujero	-9.83456
▁cerebral	-9.83456
▁exterior	-9.83456
▁amplia	-9.83496
▁tomó	-9.83581
▁toca	-9.83599
ún	-9.83786
▁extremo	-9.83786
▁Per	-9.83823
▁comienza	-9.84038
▁crecer	-9.84054
▁responder	-9.84169
▁leye	-9.84196
▁conversación	-9.84219
▁perdido	-9.84223
▁descubrimiento	-9.84245
▁crece	-9.84447
▁explora	-9.84519
▁sentimiento	-9.84557
día	-9.84644
▁piso	-9.84682
▁Ru	-9.84689
▁autos	-9.84689
tido	-9.84717
▁acepta	-9.84722
▁convirtió	-9.84986
▁financia	-9.84986
▁decisión	-9.84988
▁extraña	-9.84994
▁prepara	-9.85004
▁revista	-9.85046
▁Jo	-9.85053
▁opciones	-9.85085
▁libera	-9.85125
▁físico	-9.8513
▁oportunidades	-9.85138
▁Pi	-9.85161
▁cita	-9.85194
éis	-9.8521
▁barrio	-9.85509
▁familiar	-9.85691
▁conexi	-9.85701
▁políticos	-9.85737
▁órgano	-9.85759
▁matemáticas	-9.85818
▁Wi	-9.85885
ner	-9.85891
▁director	-9.85991
▁antiguo	-9.86149
▁frase	-9.86151
▁gigante	-9.86184
▁ingeniería	-9.86298
▁hu	-9.86391
▁Nuestra	-9.86539
▁fenómeno	-9.86539
ice	-9.86547
▁Mire	-9.86584
▁profunda	-9.86595
▁24	-9.86599
▁volar	-9.86602
▁sab	-9.86832
cre	-9.86864
▁región	-9.86932
▁implica	-9.86932
▁micro	-9.86936
▁llena	-9.87037
▁versión	-9.87074
▁individuos	-9.87139
▁kilómetros	-9.87168
▁pérdida	-9.87325
▁curso	-9.87325
▁Pu	-9.87327
▁habilidades	-9.87419
▁preguntar	-9.87575
▁reconocer	-9.8758
ex	-9.8772
cional	-9.87768
▁encontrado	-9.87772
ine	-9.87842
arse	-9.87855
▁ritmo	-9.87924
▁conectar	-9.87964
▁encontr	-9.88108
▁usuario	-9.88117
▁verano	-9.88134
▁Imaginen	-9.88155
▁tercera	-9.8825
ico	-9.88368
mé	-9.88446
▁gasta	-9.88473
▁medi	-9.88508
▁absoluto	-9.88516
▁atmósfera	-9.88516
▁Siempr	-9.88516
▁espacial	-9.88516
▁empleo	-9.88516
▁integra	-9.88522
▁conoce	-9.88534
ática	-9.88545
▁Clar	-9.8863
justicia	-9.88661
dó	-9.88716
▁medir	-9.88735
cé	-9.88835
▁observar	-9.88876
obviamente	-9.88893
▁período	-9.88916
▁hueso	-9.88922
▁comenc	-9.88947
▁Cad	-9.88984
▁funcionan	-9.89282
▁estudiante	-9.89283
▁muri	-9.89291
▁divertido	-9.89317
ación	-9.89337
ología	-9.89392
▁sentía	-9.89517
mina	-9.89654
,000	-9.89682
▁peces	-9.8974
▁habilidad	-9.89854
▁bloque	-9.89864
▁acto	-9.89865
gre	-9.89929
▁coloca	-9.90075
▁puente	-9.90158
▁motiva	-9.90171
▁Sé	-9.90329
▁señales	-9.9037
▁averiguar	-9.90441
▁mejora	-9.90459
▁Mundial	-9.90532
▁Pienso	-9.90532
▁virtual	-9.90532
▁grado	-9.90549
▁isla	-9.90599
xi	-9.90747
tré	-9.90763
ales	-9.90768
ráfico	-9.9093
▁Universidad	-9.9094
▁VIH	-9.9094
▁popular	-9.9094
▁costos	-9.90945
▁nube	-9.90947
▁gráfico	-9.9095
ví	-9.90971
▁juegos	-9.91007
▁bacterias	-9.91026
▁Quería	-9.91134
▁Fui	-9.9121
▁políticas	-9.91249
▁rodea	-9.91306
▁presta	-9.91329
▁medicamento	-9.9135
▁silencio	-9.9135
▁Nadie	-9.9135
▁asegurar	-9.91374
▁ventana	-9.9138
lógico	-9.91751
▁celular	-9.91761
▁infraestructura	-9.91761
▁Existe	-9.91762
▁muere	-9.91767
▁contacto	-9.91946
▁pared	-9.92118
▁mismas	-9.92224
bol	-9.92296
▁fija	-9.92312
▁posición	-9.92332
▁progreso	-9.92365
▁error	-9.92505
▁500	-9.92534
▁fábrica	-9.92589
▁ciudadanos	-9.92591
▁organizaciones	-9.92637
▁complejo	-9.92646
▁artista	-9.92654
qué	-9.92738
▁reales	-9.92838
▁pruebas	-9.92854
▁minuto	-9.93096
▁perdi	-9.93174
tando	-9.93219
tada	-9.93237
▁cama	-9.93333
▁inteligentes	-9.93363
▁apoyo	-9.93425
▁cable	-9.93443
▁explorar	-9.93464
▁marcha	-9.93473
▁valore	-9.9355
▁investigador	-9.93557
▁gu	-9.93624
▁ocupa	-9.93688
▁reac	-9.93807
▁plástico	-9.93845
▁estén	-9.93915
▁asi	-9.93979
▁hecha	-9.9401
▁toman	-9.94048
▁distribu	-9.94077
▁necesidad	-9.94189
▁pol	-9.94218
▁Lond	-9.9425
▁hermana	-9.94267
▁química	-9.94267
▁sencilla	-9.94267
▁africano	-9.94316
▁escrito	-9.94482
▁hará	-9.9452
par	-9.94571
▁opini	-9.94668
▁clima	-9.9469
▁apenas	-9.94692
▁elección	-9.94725
▁daño	-9.94732
▁cocina	-9.94769
▁visita	-9.94804
▁presión	-9.94827
hu	-9.94847
▁cultural	-9.94866
▁chino	-9.94964
▁antigua	-9.95116
▁recibe	-9.95116
▁criatura	-9.95123
▁llegado	-9.95414
▁ido	-9.9544
▁enseñar	-9.95513
▁acelera	-9.95544
▁empezando	-9.95592
ible	-9.95614
▁conocemos	-9.95782
lan	-9.95799
▁instala	-9.95909
▁felic	-9.95923
▁aprendí	-9.95972
aña	-9.96012
▁reciente	-9.96122
▁películas	-9.96127
ld	-9.96149
▁Tom	-9.96152
▁Ri	-9.9632
▁nuclear	-9.96334
ablemente	-9.96345
▁recuerda	-9.96403
▁sector	-9.96439
▁vol	-9.96441
fre	-9.96518
▁complicado	-9.96519
▁componente	-9.96521
ización	-9.96821
▁paisaje	-9.96836
▁ruido	-9.96837
▁vecino	-9.96838
▁Ud	-9.96896
▁corto	-9.96935
▁envia	-9.96983
▁realiza	-9.97039
tru	-9.97062
tin	-9.97082
▁Dr	-9.97209
▁escena	-9.97229
▁idioma	-9.97271
▁demanda	-9.97325
ólogo	-9.97331
ez	-9.97493
▁útil	-9.97644
▁inc	-9.97689
▁interpreta	-9.97708
▁eficiente	-9.97708
▁Usted	-9.97708
▁insecto	-9.97709
▁mortal	-9.97714
▁poderoso	-9.97717
cina	-9.97721
cta	-9.9776
▁extra	-9.97834
▁hormiga	-9.97841
▁interesado	-9.97888
▁diseñado	-9.97894
▁conecta	-9.98093
▁Ju	-9.98109
▁dieron	-9.98123
logía	-9.98141
▁círculo	-9.98146
▁presidente	-9.98148
▁boca	-9.98158
▁loco	-9.98213
▁pudo	-9.98218
▁claramente	-9.98377
▁fl	-9.9838
chi	-9.98463
▁corre	-9.98472
▁silla	-9.98521
▁California	-9.98587
▁complejidad	-9.98587
▁riqueza	-9.98587
▁USD	-9.98587
▁probabilidad	-9.98594
▁banco	-9.98604
▁temas	-9.98814
▁300	-9.98917
van	-9.99008
▁mecanismo	-9.9903
▁curva	-9.9903
▁respuestas	-9.99116
▁básica	-9.99138
▁pocas	-9.99197
ador	-9.9924
▁falla	-9.99335
▁entiende	-9.99474
▁responsable	-9.99474
▁copia	-9.9948
▁luce	-9.99488
▁realizar	-9.99491
▁The	-9.9955
▁pregunté	-9.99609
ow	-9.99622
▁conocen	-9.99638
▁Otro	-9.99649
▁necesitaba	-9.99665
misión	-9.99696
▁recientemente	-9.99822
▁centra	-9.99843
▁vuelo	-9.9992
▁simula	-9.99922
▁carne	-9.99976
▁elementos	-10.0002
▁terror	-10.0017
▁locales	-10.0034
▁identidad	-10.0037
▁transporte	-10.0037
▁etapa	-10.0037
▁militar	-10.0037
vis	-10.0043
▁emocionante	-10.0045
▁delante	-10.0066
ster	-10.0075
▁campaña	-10.0082
▁aumenta	-10.0083
▁interesantes	-10.0089
▁separa	-10.0091
▁precisa	-10.0092
▁genética	-10.0094
▁Pues	-10.0094
▁bar	-10.0094
uda	-10.0094
land	-10.0099
▁mueve	-10.0106
▁usado	-10.0108
▁cirugía	-10.0127
▁característica	-10.0127
can	-10.013
▁pude	-10.0142
▁abrir	-10.0159
▁niñas	-10.0163
dy	-10.0168
izada	-10.0172
▁América	-10.0173
▁pareja	-10.0173
▁específica	-10.0173
▁cuesta	-10.0173
▁Ex	-10.0185
▁posibilidades	-10.0193
▁tira	-10.0193
▁Algo	-10.0199
▁matar	-10.0207
▁diapositiva	-10.0218
▁extraordinario	-10.0218
▁ciclo	-10.0218
▁político	-10.0221
▁legal	-10.0221
▁televisi	-10.0225
▁obliga	-10.0226
▁creando	-10.0234
▁alcanzar	-10.0234
▁asocia	-10.0251
▁beneficios	-10.0257
▁víctima	-10.0264
▁rostro	-10.0264
▁provoca	-10.0265
▁perfecto	-10.0265
ándolo	-10.0273
▁verá	-10.0278
prendido	-10.0292
cal	-10.0296
▁duro	-10.0297
dio	-10.0304
▁fila	-10.0304
▁jamás	-10.031
▁breve	-10.031
▁ama	-10.0324
jó	-10.0327
▁percep	-10.0328
▁poderosa	-10.0329
▁peligro	-10.0348
▁diversidad	-10.0357
▁pies	-10.0366
▁techo	-10.0368
▁colores	-10.0375
▁escuchado	-10.0386
▁abierta	-10.0403
▁religión	-10.0403
▁piedra	-10.0404
▁Parece	-10.0404
▁traje	-10.041
rig	-10.0418
▁vía	-10.0422
▁estuviera	-10.0425
fund	-10.0435
torio	-10.0437
▁recibir	-10.0438
▁flujo	-10.045
▁luna	-10.045
▁anál	-10.045
▁Nosotr	-10.0452
▁Ka	-10.0453
▁correo	-10.046
cciones	-10.0472
▁dirigi	-10.0474
▁pregunt	-10.0478
▁unidad	-10.0486
▁electrónico	-10.0497
▁regresar	-10.0499
zar	-10.0511
▁experimentos	-10.0517
▁industrial	-10.0526
▁ignora	-10.0529
▁imaginación	-10.0537
▁individual	-10.0541
▁lengua	-10.0541
▁internacional	-10.0541
▁estadística	-10.0544
▁plataforma	-10.0544
▁efectiva	-10.0544
▁dando	-10.055
,	-10.0553
▁favorito	-10.0556
▁Jap	-10.0559
ctiv	-10.0562
▁miran	-10.0566
▁zonas	-10.0569
▁artificial	-10.0591
▁coopera	-10.0591
dia	-10.0596
▁aleja	-10.06
cial	-10.06
▁partícula	-10.0639
▁diario	-10.064
▁detener	-10.0641
▁juga	-10.0658
▁vieron	-10.0665
V	-10.068
▁llaman	-10.068
▁controla	-10.0686
▁oscura	-10.0687
▁asombroso	-10.0688
▁mamá	-10.0688
cie	-10.0697
▁publica	-10.0702
toria	-10.0704
▁difíciles	-10.0706
▁reuni	-10.0709
▁basa	-10.071
▁emocional	-10.0718
bel	-10.0722
▁precios	-10.0727
▁parecer	-10.0729
▁limita	-10.0731
▁administra	-10.0735
▁alternativa	-10.0735
▁extraordinaria	-10.0735
▁rueda	-10.0735
▁borde	-10.0735
▁construido	-10.0735
▁autor	-10.0735
▁tren	-10.0742
▁Prob	-10.075
▁Resulta	-10.0751
▁actualmente	-10.0763
▁parque	-10.077
▁traer	-10.0776
dero	-10.0783
▁David	-10.0783
▁puso	-10.0789
▁suena	-10.079
▁altura	-10.0796
▁letra	-10.0796
▁acab	-10.08
▁segui	-10.0814
ega	-10.0818
rea	-10.0819
▁dispara	-10.0829
▁Piensen	-10.0832
▁carretera	-10.0832
▁occidental	-10.0834
▁viva	-10.0845
mbi	-10.0866
▁Tu	-10.0869
isis	-10.0872
▁Guerra	-10.088
▁independiente	-10.088
▁café	-10.088
▁premio	-10.0881
▁avance	-10.0881
▁vivía	-10.0882
▁golpea	-10.0889
au	-10.0899
▁similares	-10.09
itud	-10.0907
▁quis	-10.0913
▁pega	-10.0925
▁horrible	-10.0929
▁impulsa	-10.0929
▁aparato	-10.093
▁2000	-10.0933
▁corriente	-10.0934
tía	-10.0944
▁significado	-10.0945
▁acu	-10.0949
▁conectado	-10.096
▁sufri	-10.0978
▁expresi	-10.0979
▁parecido	-10.0979
▁arena	-10.0982
▁cabo	-10.0995
ura	-10.101
▁experiencias	-10.1013
▁Ge	-10.1019
▁estará	-10.1023
▁Afganistán	-10.1028
▁lleno	-10.1028
▁consumo	-10.1028
▁TV	-10.1032
▁grados	-10.1034
▁fascinante	-10.1035
▁Rein	-10.1038
▁tuviera	-10.104
hí	-10.1042
ería	-10.1049
▁compr	-10.1067
▁propiedad	-10.1078
▁fantástico	-10.1078
▁punta	-10.1079
▁for	-10.109
▁entrevista	-10.1101
ecciones	-10.1102
▁nuev	-10.1105
má	-10.1109
▁Hu	-10.1113
▁billon	-10.1114
puse	-10.1115
▁St	-10.1127
▁cálculo	-10.1128
▁inferior	-10.1128
▁invisible	-10.1128
▁juguete	-10.1128
▁matemático	-10.1128
▁pierde	-10.1128
▁Somo	-10.1134
▁intento	-10.1155
▁Man	-10.1155
▁crean	-10.1165
▁actuar	-10.1171
▁abuela	-10.1178
▁oficial	-10.1178
▁clínica	-10.1178
▁ropa	-10.1179
▁médica	-10.1179
▁Algui	-10.1181
▁transformar	-10.1183
▁senti	-10.1184
▁Ne	-10.1186
▁gen	-10.1193
▁encuentran	-10.1198
iz	-10.1205
▁estructuras	-10.1216
▁golpe	-10.122
▁Facebook	-10.1229
▁arquitecto	-10.1229
▁mantiene	-10.1229
▁jefe	-10.1229
▁vean	-10.1229
▁aldea	-10.1232
▁Sal	-10.1239
▁trabajadores	-10.1239
▁Pensa	-10.125
▁participar	-10.1251
▁moderno	-10.1255
▁sobrevivir	-10.1263
▁calor	-10.1279
▁bomba	-10.1279
▁abuelo	-10.128
▁agricultura	-10.128
▁terreno	-10.128
▁basura	-10.128
itos	-10.129
▁oír	-10.1297
▁construye	-10.13
▁post	-10.1301
▁pos	-10.1301
▁conserva	-10.1306
▁enseñ	-10.1306
▁gan	-10.1307
▁emocione	-10.1314
▁lluvia	-10.1331
▁continente	-10.1331
▁diferencias	-10.1333
▁peligroso	-10.1335
▁viaja	-10.1338
▁permitir	-10.1338
▁ref	-10.1341
▁errores	-10.1341
▁llegan	-10.1342
ramos	-10.1345
▁fuego	-10.1354
▁basado	-10.1358
▁aquella	-10.1374
▁trabajado	-10.1374
ctores	-10.1376
rle	-10.1382
▁etiqueta	-10.1382
▁límites	-10.1383
▁subir	-10.1401
▁conflicto	-10.1401
▁pensado	-10.1402
mba	-10.1407
▁graba	-10.1411
▁aprende	-10.1413
▁eléctrica	-10.1434
▁coches	-10.1437
sistencia	-10.1446
▁sepa	-10.145
illas	-10.1463
pasión	-10.1474
▁vieja	-10.1485
▁museo	-10.1485
▁proporciona	-10.1486
▁sienten	-10.1487
▁Hi	-10.1494
▁estuve	-10.152
▁creía	-10.1527
▁artistas	-10.1529
▁negra	-10.1537
▁oxígeno	-10.1537
▁conozc	-10.1538
▁Cuánto	-10.1541
bur	-10.1553
▁estuvo	-10.1556
▁Fa	-10.1559
▁dibujo	-10.1564
▁Hola	-10.1566
▁cura	-10.1571
wi	-10.1577
▁juntas	-10.158
cua	-10.1583
▁198	-10.1589
▁famoso	-10.1591
▁activo	-10.1592
▁continuar	-10.1598
▁Chi	-10.1602
▁hablarle	-10.1604
▁Sur	-10.1613
unque	-10.1617
▁enormes	-10.1617
▁existencia	-10.1622
ist	-10.1628
▁experimenta	-10.1632
▁periódico	-10.1642
▁resultó	-10.1642
▁Ki	-10.1643
▁lenta	-10.1661
if	-10.1688
fo	-10.1688
▁espíritu	-10.1695
▁tarjeta	-10.1695
▁musical	-10.1695
▁invita	-10.1705
▁predic	-10.1711
ff	-10.1716
▁aquel	-10.1717
teniendo	-10.1728
ah	-10.1736
▁lanza	-10.1741
▁frío	-10.1748
▁sencillo	-10.1748
we	-10.175
▁UU	-10.1752
mor	-10.1755
est	-10.1758
mó	-10.1759
taba	-10.176
▁pudiéra	-10.1762
▁moderna	-10.1765
lmente	-10.1765
▁raro	-10.1769
▁convertido	-10.1777
rak	-10.1789
▁plano	-10.1793
▁ojo	-10.1801
▁roja	-10.1802
▁ventaja	-10.1804
▁emb	-10.1807
mbre	-10.1818
▁generar	-10.1845
▁barato	-10.1856
▁malaria	-10.186
▁cola	-10.1864
ier	-10.1868
▁cuándo	-10.1875
dera	-10.1884
grama	-10.1889
▁salva	-10.1901
▁conocí	-10.1906
▁influencia	-10.191
▁gato	-10.1911
▁ofrece	-10.1913
▁debate	-10.1918
▁aplicar	-10.1925
cept	-10.193
▁competi	-10.1941
id	-10.1942
▁infantil	-10.1964
▁necesidades	-10.1974
▁vender	-10.198
▁Toma	-10.1995
▁siguen	-10.1996
▁Fe	-10.2006
▁cambian	-10.2012
▁entera	-10.2016
▁esquina	-10.2019
versión	-10.2024
tir	-10.2028
▁cercano	-10.2029
U	-10.203
▁incluyendo	-10.2033
bro	-10.2034
▁vola	-10.204
ética	-10.2041
▁Cha	-10.2067
ustralia	-10.2074
▁discusi	-10.2074
▁comparti	-10.208
▁tumor	-10.208
▁acciones	-10.2084
▁mor	-10.2086
▁400	-10.2093
▁químicos	-10.2095
vol	-10.2097
▁concentra	-10.21
anda	-10.2102
▁Col	-10.2104
▁levanta	-10.211
▁llevan	-10.211
ándole	-10.2112
▁estaría	-10.2119
▁emplea	-10.2122
▁adultos	-10.2127
▁secundaria	-10.2129
▁Básica	-10.2129
▁cultivo	-10.2129
▁plantea	-10.2131
▁hablo	-10.2133
▁Bi	-10.2143
▁pata	-10.2148
▁Tuv	-10.2166
▁cria	-10.2174
▁computador	-10.2178
▁increíbles	-10.2178
▁anima	-10.2182
▁financiero	-10.2184
éxico	-10.2184
▁universal	-10.2184
▁dispuesto	-10.2185
▁Washin	-10.2185
▁repeti	-10.2185
▁decidir	-10.2191
▁hambre	-10.2197
▁Sus	-10.2198
▁expertos	-10.2199
▁pez	-10.2201
▁detectar	-10.2211
▁relaciona	-10.2215
movi	-10.2218
▁entrada	-10.2225
▁franc	-10.224
▁competencia	-10.224
▁ejército	-10.224
▁específico	-10.224
▁lección	-10.2241
▁CO	-10.2248
▁diseña	-10.225
▁saludable	-10.2252
▁naturales	-10.2252
▁funda	-10.2261
▁construyendo	-10.2275
lia	-10.2279
▁Ti	-10.2279
▁cae	-10.2279
▁multi	-10.2283
50	-10.2284
▁estudia	-10.2294
▁compromiso	-10.2296
▁alma	-10.2311
▁150	-10.2321
ciente	-10.2331
▁estima	-10.234
▁emisi	-10.2342
▁descubierto	-10.2353
▁Simple	-10.2353
▁caliente	-10.2353
▁comprensi	-10.2354
▁tendre	-10.2357
▁partido	-10.2357
tividad	-10.2361
▁estándar	-10.2361
▁clientes	-10.237
▁sentí	-10.2382
tá	-10.2387
▁mosca	-10.2398
▁recupera	-10.2406
▁responde	-10.2407
▁riesgos	-10.2409
▁batalla	-10.241
▁sorprendi	-10.241
▁basada	-10.2411
▁roca	-10.2411
▁audi	-10.2418
▁Ta	-10.242
▁Bill	-10.242
▁regresa	-10.2426
▁limpia	-10.2426
▁Hast	-10.2434
▁moda	-10.244
▁ponen	-10.2442
gado	-10.2443
▁35	-10.2446
▁autis	-10.245
port	-10.2458
▁matemática	-10.2458
▁tanta	-10.246
▁blanca	-10.2467
azgo	-10.2469
ip	-10.2497
▁evoluciona	-10.2501
▁esencia	-10.2502
▁necesito	-10.2505
▁campos	-10.2511
▁trabaj	-10.2514
▁profundamente	-10.2516
▁creativo	-10.2524
▁satélite	-10.2524
▁dividi	-10.2524
▁momentos	-10.2533
▁Vo	-10.2539
▁vea	-10.2549
▁norma	-10.2551
gui	-10.2555
▁Asia	-10.2571
▁comunicar	-10.2572
▁oscuro	-10.2582
▁reserva	-10.2582
▁origen	-10.2582
▁impresionante	-10.2583
▁viola	-10.2585
▁ocurriendo	-10.2593
▁registro	-10.2594
▁ci	-10.2598
▁Asi	-10.2605
icos	-10.2609
▁tomado	-10.2609
▁doctor	-10.2609
▁estuvi	-10.2612
▁corte	-10.2612
▁pedir	-10.2614
nica	-10.2614
▁Dó	-10.2621
▁sorpresa	-10.264
▁vacío	-10.264
▁vuelto	-10.264
▁modifica	-10.264
▁aventura	-10.264
▁tercio	-10.2641
▁ideal	-10.2642
▁pesca	-10.2652
val	-10.266
▁refier	-10.2671
▁identifica	-10.2677
tt	-10.2699
▁diji	-10.2706
▁fo	-10.2706
▁empleados	-10.2707
▁ecua	-10.2708
▁Unido	-10.2716
▁organiza	-10.2716
▁constante	-10.2724
▁terrorista	-10.2724
ly	-10.2732
▁viajar	-10.2746
aria	-10.2749
▁bicicleta	-10.2758
▁rendimiento	-10.2758
▁impuesto	-10.2758
▁destino	-10.2758
▁aun	-10.2759
embre	-10.276
▁diez	-10.2763
▁llegu	-10.2764
cida	-10.2774
▁experimentar	-10.2783
▁eleva	-10.2791
▁consumidor	-10.2794
pal	-10.2798
▁tantas	-10.2808
cular	-10.2814
▁músculo	-10.2817
▁desierto	-10.2817
▁interacción	-10.2817
▁OK	-10.2824
▁banda	-10.2825
áramo	-10.2832
▁be	-10.2849
▁aumentar	-10.2851
▁comunica	-10.2854
▁fueran	-10.2854
▁analizar	-10.2875
▁Twitter	-10.2876
▁básico	-10.2876
▁profundidad	-10.2876
▁blog	-10.2878
▁extremada	-10.2886
▁hablan	-10.29
▁cuánta	-10.2902
dón	-10.2905
ratón	-10.2906
▁hacían	-10.2908
▁personaje	-10.2909
culo	-10.2917
▁vinie	-10.2925
odavía	-10.2931
ene	-10.2931
▁ofrecer	-10.2932
▁discurso	-10.2936
▁pedazo	-10.2936
ent	-10.2936
▁Volv	-10.2937
▁importar	-10.2942
▁amar	-10.2942
▁líder	-10.2946
▁hablaba	-10.2947
▁decimos	-10.2954
▁radical	-10.2963
rica	-10.2966
▁regres	-10.2968
▁viviend	-10.297
▁us	-10.2982
▁tratado	-10.2984
▁malas	-10.2986
▁Debería	-10.2991
▁Déjen	-10.2996
▁ballena	-10.2996
▁variedad	-10.2996
▁carbón	-10.2996
▁kilo	-10.2997
▁proba	-10.3006
dado	-10.3019
▁alimentar	-10.3021
edad	-10.3048
▁cuadrado	-10.3049
stitu	-10.3053
▁Brasil	-10.3057
▁cifra	-10.3057
▁madera	-10.3059
▁suceder	-10.3063
▁sueños	-10.3066
▁entero	-10.3071
osas	-10.3071
▁Aleman	-10.3075
tima	-10.3076
ley	-10.3087
▁familiares	-10.3089
▁conducir	-10.3093
▁Go	-10.3097
▁desapareci	-10.31
▁hablado	-10.3101
▁trataba	-10.3107
▁oro	-10.3109
ell	-10.3113
▁detalles	-10.3116
▁argumento	-10.3118
▁ilumina	-10.3118
▁inmediato	-10.3118
▁privado	-10.3118
▁relativa	-10.3125
▁manejar	-10.3126
▁Time	-10.3126
▁creencia	-10.313
▁vota	-10.3143
▁magi	-10.3149
caso	-10.3155
▁Par	-10.3157
▁comenzamos	-10.3165
▁registra	-10.3176
▁inicio	-10.3179
▁contiene	-10.3179
▁pudimos	-10.3179
▁ésto	-10.318
▁truco	-10.318
▁tomé	-10.3181
▁Hombre	-10.3182
▁referencia	-10.3184
fra	-10.3191
▁metal	-10.3197
▁Dos	-10.3207
cel	-10.3208
posición	-10.3208
▁pase	-10.3211
▁describir	-10.3212
▁creativa	-10.3219
▁inf	-10.3224
▁Tú	-10.3226
poniendo	-10.3233
illo	-10.3237
▁innova	-10.324
▁encuentro	-10.3241
▁predecir	-10.3241
▁símbolo	-10.3241
▁microbio	-10.3242
▁amiga	-10.3242
▁espacios	-10.3243
▁intent	-10.3252
▁Mira	-10.3263
illa	-10.327
▁consumi	-10.3272
▁funcion	-10.3287
▁continúa	-10.3303
▁proviene	-10.3303
▁refugiados	-10.3303
▁acumula	-10.3303
▁batería	-10.3303
▁globo	-10.3303
▁guarda	-10.3303
▁sostenible	-10.3304
▁botella	-10.3304
▁radia	-10.3305
▁periodista	-10.3309
▁cámaras	-10.3322
▁gira	-10.3324
▁mono	-10.3335
inos	-10.3348
▁Pre	-10.3352
▁quedan	-10.3355
▁dona	-10.3357
▁actua	-10.3365
▁denomina	-10.3366
▁trastorno	-10.3366
▁matrimonio	-10.3366
▁Final	-10.3368
▁restaurante	-10.3376
▁construy	-10.3376
▁21	-10.3384
SA	-10.3389
▁onda	-10.3395
▁tri	-10.3397
table	-10.3408
▁acá	-10.3412
ua	-10.3413
tán	-10.3414
▁SIDA	-10.3429
▁burbuja	-10.3429
▁circuito	-10.3429
▁computación	-10.3429
▁encuesta	-10.3429
▁desastre	-10.3429
▁prensa	-10.3429
▁imaginen	-10.3436
▁col	-10.3446
▁anda	-10.3455
▁coral	-10.3459
▁vacuna	-10.3461
▁constantemente	-10.3465
dí	-10.3468
▁identificar	-10.3472
▁inicial	-10.3477
ko	-10.3482
▁triste	-10.3491
▁cuadro	-10.3492
▁metáfora	-10.3492
▁ninguno	-10.3492
▁vídeo	-10.3492
▁Nacional	-10.3493
▁caballo	-10.3497
▁quita	-10.3505
▁decena	-10.351
▁monta	-10.3512
▁esclav	-10.3517
▁Ke	-10.353
▁Pensé	-10.3534
▁granja	-10.3537
▁45	-10.3547
▁involucra	-10.3549
ense	-10.355
strucción	-10.3551
vin	-10.3551
▁Universo	-10.3556
▁cárcel	-10.3556
▁juicio	-10.3556
▁género	-10.3556
▁tiende	-10.3556
▁pelo	-10.3564
▁demostrar	-10.3584
▁llevado	-10.3584
▁Habla	-10.3597
▁analiza	-10.3601
▁Gi	-10.3606
▁venta	-10.3607
▁sienta	-10.3611
▁amba	-10.3612
▁ecosistema	-10.362
▁recompensa	-10.362
▁recuerde	-10.362
▁escolar	-10.362
▁equilibrio	-10.362
▁sensor	-10.362
▁asusta	-10.362
▁clic	-10.3621
▁hiciera	-10.3621
▁pusimo	-10.3622
▁definitiva	-10.3624
inmediatamente	-10.3628
▁quitar	-10.3628
▁vaca	-10.3629
▁pasé	-10.3635
▁pasan	-10.3639
▁formar	-10.3646
cra	-10.3678
▁dinosaurio	-10.3684
▁placer	-10.3684
▁intelectual	-10.3684
▁bolsa	-10.3684
agra	-10.3689
▁favorita	-10.3689
▁creativ	-10.3692
▁Medio	-10.3692
▁humanas	-10.3693
▁recuperar	-10.3697
▁canal	-10.3702
▁oso	-10.3706
▁manda	-10.3712
▁abre	-10.3719
ab	-10.3719
▁innovador	-10.3719
▁Sh	-10.3738
ey	-10.3745
▁maneja	-10.3745
▁clara	-10.3747
▁estimula	-10.3749
▁crítico	-10.3749
▁espectro	-10.3749
▁consejo	-10.3749
▁grit	-10.375
pri	-10.3753
▁disco	-10.3757
arlo	-10.3759
tric	-10.378
▁fuese	-10.3786
gia	-10.3792
▁esperaba	-10.3797
▁educa	-10.3802
▁existi	-10.3808
▁pista	-10.3814
▁Richard	-10.3814
▁desplaza	-10.3814
▁economista	-10.3814
▁fracaso	-10.3815
▁explosi	-10.3815
▁asiento	-10.3818
▁Dig	-10.3821
▁pelea	-10.3822
▁apoya	-10.3834
▁demostra	-10.3836
▁nación	-10.384
▁seguros	-10.3849
▁Jam	-10.3862
▁relacionado	-10.3863
▁eje	-10.3865
▁bacteria	-10.3866
▁califica	-10.3869
▁tradi	-10.3874
ónica	-10.3876
▁197	-10.388
▁creciendo	-10.388
▁autoridad	-10.3888
▁cima	-10.3888
▁respondi	-10.3895
▁flor	-10.3905
▁Du	-10.3921
cop	-10.3931
▁depresión	-10.3939
ap	-10.3942
▁seria	-10.3944
▁dimensiones	-10.3947
▁alcance	-10.3947
▁Steve	-10.3947
▁mito	-10.3952
▁civil	-10.3962
▁Paul	-10.3974
cido	-10.399
cado	-10.3993
ándo	-10.3994
W	-10.4
▁corrupción	-10.4013
▁documento	-10.4013
▁incrementa	-10.4013
▁árabe	-10.4013
▁emprendedor	-10.4013
▁refleja	-10.4013
▁cuyo	-10.4014
▁colectiva	-10.4014
▁papá	-10.4015
▁protección	-10.4015
▁pila	-10.4015
▁baño	-10.4016
▁descubrí	-10.4024
▁roba	-10.4033
▁Usa	-10.404
▁You	-10.4057
▁colonia	-10.4071
▁dinámica	-10.408
▁héroe	-10.408
▁bla	-10.4081
▁rayos	-10.4085
▁Dijo	-10.4088
imen	-10.4088
▁cargo	-10.4092
▁ganado	-10.4095
ib	-10.4096
▁ponemos	-10.4096
▁diré	-10.4103
by	-10.4115
▁transformación	-10.4136
éndose	-10.4136
▁vehículo	-10.4144
▁epidemia	-10.4148
▁hubiese	-10.4148
▁lógica	-10.4148
▁positiva	-10.4148
▁prototipo	-10.4148
▁presencia	-10.4148
▁firma	-10.4148
▁Estado	-10.4151
▁presentar	-10.4152
▁reproduc	-10.4153
▁practica	-10.4154
▁carta	-10.4162
▁Irán	-10.4168
▁Empeza	-10.4189
▁decirle	-10.4195
▁pasaba	-10.4196
▁elimina	-10.4198
▁vendi	-10.4205
▁Sue	-10.4209
▁invertir	-10.4214
▁luchar	-10.4215
▁Ed	-10.4216
▁voluntad	-10.4216
▁logr	-10.4217
▁comercio	-10.4218
▁Mal	-10.422
▁salvo	-10.4222
org	-10.4223
▁señor	-10.4225
▁infecta	-10.4242
fil	-10.4243
mm	-10.4243
▁Mc	-10.4247
▁Esper	-10.4268
▁diagnóstico	-10.4284
▁presupuesto	-10.4284
▁trozo	-10.4285
▁abordar	-10.4287
▁detalle	-10.4287
▁apunta	-10.429
jar	-10.4293
▁reunión	-10.4305
▁objetivos	-10.4314
ram	-10.4316
▁planea	-10.4319
▁regula	-10.4335
▁conocida	-10.4335
ngeles	-10.4345
▁domina	-10.4345
▁utilizan	-10.4353
▁teatro	-10.4354
bí	-10.4356
▁ganancia	-10.4357
icidad	-10.4357
▁cien	-10.4359
▁volviendo	-10.4364
▁Hub	-10.4365
vió	-10.4367
uc	-10.4372
rie	-10.4374
▁sirve	-10.4378
▁querido	-10.4383
▁gustan	-10.4392
▁correr	-10.4402
▁logrado	-10.4403
▁consegui	-10.4406
▁Bar	-10.4413
dra	-10.4422
▁psico	-10.4423
▁adecuada	-10.4423
▁beneficia	-10.4423
▁obvio	-10.4423
▁positivo	-10.4423
▁existía	-10.4423
▁tribu	-10.4423
▁vehículos	-10.4426
▁aplicaciones	-10.4438
▁rara	-10.4447
▁mirada	-10.4448
▁metro	-10.4452
▁ocurrido	-10.4453
▁superar	-10.4455
▁videos	-10.4462
▁poli	-10.4471
▁ayud	-10.4481
▁geo	-10.4486
▁caer	-10.4492
▁fármaco	-10.4493
▁conclusi	-10.4493
▁cuento	-10.4493
▁ejercicio	-10.4493
▁vital	-10.4501
▁oh	-10.4505
▁paredes	-10.4507
▁interese	-10.4509
▁tome	-10.4514
▁alcanza	-10.4517
▁entrega	-10.4518
▁inven	-10.4519
▁Fu	-10.4527
▁habl	-10.4532
▁junta	-10.4534
menes	-10.4537
▁determina	-10.4542
▁Franci	-10.4544
▁envía	-10.4546
▁cruza	-10.456
▁raza	-10.4562
▁genético	-10.4563
▁síntoma	-10.4563
▁Oriente	-10.4563
▁enemigo	-10.4564
▁conexiones	-10.4568
▁masiva	-10.457
▁conversacion	-10.457
▁avione	-10.4571
▁temor	-10.4572
▁directo	-10.4592
ánico	-10.4593
▁Empec	-10.4595
fí	-10.4597
▁físicos	-10.4607
▁fronteras	-10.4611
versa	-10.4613
▁Nada	-10.4621
▁nervio	-10.463
▁George	-10.4634
▁Occidente	-10.4634
▁categoría	-10.4634
▁eléctrico	-10.4634
▁negocia	-10.4634
▁temprana	-10.4634
▁propiedades	-10.4634
cle	-10.4637
▁libra	-10.4638
▁trae	-10.4639
▁conocía	-10.464
▁19	-10.4659
▁exp	-10.4681
bil	-10.4684
▁rol	-10.4692
ónico	-10.4694
▁lento	-10.4696
nder	-10.4697
lina	-10.4697
▁aceptar	-10.47
bio	-10.4704
▁Recuerdo	-10.4705
▁crítica	-10.4705
▁curiosidad	-10.4705
▁hongo	-10.4705
▁situacion	-10.4706
▁sujeto	-10.4706
▁civilización	-10.4706
▁llegue	-10.4711
iente	-10.4719
▁EEUU	-10.4719
▁surge	-10.4729
▁colocar	-10.4739
▁equivocado	-10.4757
ett	-10.4761
▁culpa	-10.4769
▁chi	-10.4771
▁cuestiona	-10.4777
▁jardín	-10.4777
▁actitud	-10.4777
▁internet	-10.4777
▁dulce	-10.4778
▁desigualdad	-10.4778
▁biológica	-10.4778
▁quedar	-10.4782
▁sosten	-10.4785
▁Dije	-10.4792
▁logro	-10.4795
dependencia	-10.4796
▁avanza	-10.4806
vel	-10.4809
▁incluye	-10.4825
ándola	-10.4846
▁toneladas	-10.4847
▁ilustra	-10.485
▁título	-10.485
▁oculta	-10.4851
▁voce	-10.4853
▁ordenador	-10.4853
bla	-10.4855
mpatía	-10.4856
▁olor	-10.4863
▁form	-10.487
▁trato	-10.4873
▁personalidad	-10.4874
▁precis	-10.4886
▁Dan	-10.4886
▁Gu	-10.4893
▁fragmento	-10.4899
10	-10.4921
▁expectativa	-10.4923
▁goberna	-10.4923
▁mamífero	-10.4923
▁muchísimo	-10.4923
▁núcleo	-10.4923
▁oscuridad	-10.4923
▁terapia	-10.4923
▁déjen	-10.4923
▁recibí	-10.4923
▁fiesta	-10.4923
▁éstas	-10.4925
▁chip	-10.4928
▁anciano	-10.4928
▁cine	-10.493
▁molesta	-10.4935
▁coste	-10.4936
▁oye	-10.4939
cimiento	-10.4941
▁fibra	-10.4941
▁sube	-10.4941
▁enfrentar	-10.4944
▁notable	-10.4945
▁comen	-10.4949
llí	-10.4953
▁cena	-10.4954
▁cerrar	-10.496
▁decirlo	-10.4969
▁cay	-10.497
▁volví	-10.4971
▁v	-10.4974
▁salida	-10.498
▁tubo	-10.4981
▁Har	-10.4989
▁captura	-10.499
▁Quiere	-10.4991
▁declara	-10.4991
▁calcula	-10.4991
sha	-10.4992
▁emociona	-10.4994
▁compañeros	-10.4994
▁Gra	-10.4996
▁escuch	-10.4996
▁fósil	-10.4996
▁frustra	-10.4996
▁mosquito	-10.4996
▁porcentaje	-10.4996
▁Nigeria	-10.4996
▁honor	-10.4996
▁protesta	-10.4996
▁inclui	-10.4997
▁baile	-10.4998
J	-10.4998
up	-10.5
▁equivalente	-10.5
▁99	-10.5
▁proteínas	-10.5003
▁fotografías	-10.5007
▁doy	-10.5018
▁colaps	-10.5022
▁considerar	-10.5029
▁individuo	-10.5031
▁listo	-10.5031
amp	-10.5034
▁75	-10.5052
▁fase	-10.5057
▁caza	-10.5061
▁presentación	-10.5064
▁Israel	-10.507
▁desgracia	-10.507
▁elefante	-10.507
▁MIT	-10.507
▁poquit	-10.5071
▁circula	-10.5071
▁construimos	-10.5071
▁cinta	-10.5072
▁grave	-10.5073
▁vende	-10.5082
▁san	-10.5083
▁terminado	-10.5084
▁azar	-10.5085
▁pelota	-10.5092
▁pregunto	-10.5096
▁gráfica	-10.51
▁present	-10.5101
▁planifica	-10.5102
▁22	-10.5113
▁soldados	-10.513
▁piloto	-10.5145
▁adentro	-10.5145
▁Francisco	-10.5145
▁consigue	-10.5146
▁podi	-10.5147
▁gay	-10.5148
▁Ok	-10.5148
bit	-10.5149
▁nervioso	-10.5149
▁Bret	-10.5155
▁eliminar	-10.5165
▁interna	-10.5166
▁pedi	-10.5168
▁cantidades	-10.5169
▁Canad	-10.517
▁prosper	-10.5177
IB	-10.5183
▁instrumento	-10.5186
▁recorda	-10.5187
▁contribu	-10.5193
▁Wa	-10.5202
▁unir	-10.5207
▁agradable	-10.522
▁gripe	-10.522
▁privada	-10.522
▁sabiduría	-10.522
▁privaci	-10.522
▁comentario	-10.5221
▁alumno	-10.5221
▁gravedad	-10.5221
ológica	-10.5223
▁interven	-10.5223
▁zapatos	-10.5225
▁diaria	-10.5226
▁congela	-10.5227
recién	-10.5234
▁daña	-10.5239
▁humor	-10.5242
▁except	-10.5263
▁aves	-10.5267
iano	-10.5272
laza	-10.5274
▁dé	-10.5282
▁participa	-10.5294
▁conflictos	-10.5294
▁cirujano	-10.5296
▁poema	-10.5296
▁informe	-10.5296
▁átomo	-10.5296
▁talento	-10.5296
▁selva	-10.5297
▁Anders	-10.5297
▁torno	-10.5297
▁asombrosa	-10.5298
▁esfera	-10.5299
▁2008	-10.5302
▁vibra	-10.5311
▁cuán	-10.5314
▁recolecta	-10.5319
▁Wal	-10.5319
▁mama	-10.5328
▁barra	-10.5333
▁Pasa	-10.5334
▁urbano	-10.5347
▁comparte	-10.5359
▁conoci	-10.536
▁Van	-10.5361
▁prima	-10.5362
▁misterio	-10.5365
ju	-10.5365
▁reconoci	-10.5371
▁biblioteca	-10.5372
▁columna	-10.5372
▁cuestione	-10.5372
▁hábitat	-10.5372
▁escritura	-10.5372
▁bienestar	-10.5373
▁agente	-10.5376
▁halla	-10.5377
▁visualiza	-10.5378
▁dieta	-10.5385
▁excep	-10.5392
▁merece	-10.5393
▁inspirado	-10.5397
▁For	-10.5403
▁subi	-10.5406
▁Ante	-10.5417
▁conductor	-10.5421
▁nu	-10.5423
iéndo	-10.5427
▁Quere	-10.5435
amiento	-10.5443
▁discapacidad	-10.5449
▁volumen	-10.5449
▁prisión	-10.5449
▁recicla	-10.5449
▁conforme	-10.5449
▁regalo	-10.5449
▁dobla	-10.545
▁compuesto	-10.545
▁loca	-10.5452
▁Or	-10.5455
▁macho	-10.5456
▁estable	-10.5456
▁orienta	-10.5459
▁anuncio	-10.5484
berg	-10.5485
por	-10.5502
vir	-10.5515
▁nave	-10.5516
▁dejan	-10.5521
▁propaga	-10.5527
▁inevitable	-10.5527
▁centavo	-10.5527
▁mecánica	-10.5527
▁obstáculo	-10.5527
▁terrestre	-10.5527
▁caballero	-10.5527
▁emoción	-10.5527
▁espalda	-10.5527
▁entrenamiento	-10.5528
▁dientes	-10.5528
▁Del	-10.553
safortunada	-10.553
▁hojas	-10.5533
ult	-10.5535
▁tareas	-10.554
▁reconoce	-10.5554
han	-10.5556
▁daré	-10.5558
,5	-10.5562
▁elemento	-10.5587
▁sugiere	-10.5605
▁telescopio	-10.5605
▁hotel	-10.5605
▁escalera	-10.5605
▁narrativa	-10.5606
▁NAS	-10.5608
▁suele	-10.5613
▁significativa	-10.5623
▁juega	-10.5635
▁litera	-10.5645
▁navega	-10.5647
▁apare	-10.565
▁lidiar	-10.5652
▁preparado	-10.5659
▁asistencia	-10.5673
▁archivo	-10.5684
▁huevo	-10.5684
▁brinda	-10.5684
▁adopta	-10.5686
▁salvaje	-10.5687
▁acero	-10.569
▁pasaría	-10.569
gel	-10.569
▁cerdo	-10.5691
ual	-10.5695
▁cultiva	-10.57
jan	-10.5701
▁complicada	-10.5706
▁millas	-10.572
▁daba	-10.5721
▁guía	-10.5725
▁caro	-10.573
▁asegura	-10.5735
cita	-10.5736
▁hab	-10.5741
▁potencia	-10.5751
▁neuro	-10.5761
▁Einstein	-10.5763
▁técnico	-10.5763
▁figura	-10.5763
▁calentamiento	-10.5763
▁Sudá	-10.5763
▁retira	-10.5764
▁educativo	-10.5765
▁ponerlo	-10.5771
▁bosques	-10.5788
▁Habl	-10.5789
▁bajar	-10.5796
▁pico	-10.5815
▁Ad	-10.5834
▁pusier	-10.5839
fortunada	-10.584
▁Inglaterra	-10.5843
▁Permítan	-10.5843
▁invierno	-10.5843
▁optimista	-10.5843
▁pertenece	-10.5843
▁terminó	-10.5843
▁hembra	-10.5843
▁barrera	-10.5843
▁sensible	-10.5843
▁duplica	-10.5843
▁débil	-10.5843
▁escribí	-10.5844
▁crimen	-10.5844
▁fabrica	-10.5848
▁igualdad	-10.5851
▁primo	-10.5857
▁Tuvi	-10.5858
udiencia	-10.586
▁exposi	-10.5868
▁seguido	-10.5869
bert	-10.5871
▁escritor	-10.5876
▁abogado	-10.5878
▁cercana	-10.5881
▁inversi	-10.5886
bie	-10.5891
▁celebra	-10.5901
ándome	-10.5914
▁agrega	-10.5923
▁investiga	-10.5923
▁amplio	-10.5924
▁resolución	-10.5924
▁supervivencia	-10.5924
▁cueva	-10.5924
▁patente	-10.5924
▁docena	-10.5926
▁corteza	-10.5928
▁nació	-10.5928
▁dificultad	-10.5929
▁motivo	-10.5932
▁venga	-10.5938
▁promet	-10.5942
▁realizado	-10.595
▁Ben	-10.5954
▁rota	-10.5959
▁cumplir	-10.5969
▁consiste	-10.5973
▁extraer	-10.5974
ificación	-10.5978
▁relacionada	-10.5982
▁observamos	-10.5987
▁Hici	-10.5991
▁sorprende	-10.5992
▁socio	-10.6002
▁límite	-10.6003
▁impulso	-10.6005
▁múltiple	-10.6005
▁playa	-10.6005
▁potente	-10.6005
▁falso	-10.6005
▁plato	-10.6005
▁contraseña	-10.6005
▁gratis	-10.6006
▁enfermera	-10.6006
▁araña	-10.6007
▁alegría	-10.6009
▁individuales	-10.601
▁panel	-10.6011
▁cri	-10.6012
ker	-10.6014
▁Can	-10.6018
▁querer	-10.6022
▁caída	-10.6032
▁urbana	-10.6041
▁existente	-10.6043
▁vacunas	-10.6044
▁rey	-10.605
imi	-10.6051
▁percibi	-10.6052
dul	-10.6063
▁entendi	-10.6067
tic	-10.6073
▁circunstancia	-10.6087
▁incorpora	-10.6087
▁permiso	-10.6087
▁infancia	-10.6087
▁tranquil	-10.6087
▁trampa	-10.6087
▁vidrio	-10.6087
▁torre	-10.6089
▁pasada	-10.6093
▁fundamentales	-10.6094
▁nega	-10.6094
▁hip	-10.6108
▁reunir	-10.6108
enza	-10.611
▁supongo	-10.6111
bati	-10.6112
tion	-10.6115
▁suministro	-10.6115
▁23	-10.6123
▁lograrlo	-10.6133
▁ejecuta	-10.6135
ep	-10.614
▁Debemos	-10.6147
▁ataca	-10.6148
▁institu	-10.615
▁avanzar	-10.6155
▁expresar	-10.6169
▁manzana	-10.617
▁sombra	-10.617
▁tecnológica	-10.617
▁incentivo	-10.617
▁codifica	-10.617
▁ilusi	-10.617
▁reloj	-10.617
▁espejo	-10.617
▁racional	-10.6171
▁Sr	-10.6172
▁ocurrir	-10.6173
▁entendemos	-10.6177
▁tap	-10.6181
▁inspira	-10.6196
▁mostrado	-10.621
▁inst	-10.6214
▁globaliza	-10.6218
landi	-10.6222
ill	-10.6223
▁canta	-10.6235
▁personajes	-10.6242
▁odia	-10.6243
▁extendi	-10.6253
▁dormir	-10.6253
óxido	-10.6253
▁agencia	-10.6254
▁ruta	-10.6255
▁confiar	-10.6255
▁cuya	-10.6257
▁1000	-10.6262
▁porqué	-10.6263
▁mueven	-10.6264
▁Che	-10.6267
oeste	-10.6276
line	-10.6285
▁aula	-10.6288
▁hogares	-10.6291
▁explota	-10.6298
cil	-10.6298
▁ter	-10.6299
▁determinar	-10.6302
▁desaparece	-10.6304
▁agarr	-10.6308
▁separado	-10.6309
▁personaliza	-10.6316
rico	-10.6322
▁apasiona	-10.6323
▁haré	-10.6335
▁financiera	-10.6337
▁impacta	-10.6337
▁reacciona	-10.6337
▁Congres	-10.6337
▁descarga	-10.6338
▁nacimiento	-10.6338
▁entendimiento	-10.6339
▁vuelva	-10.6342
▁vistazo	-10.6345
▁beneficio	-10.635
▁Tan	-10.6352
▁lanzar	-10.6356
▁muchacho	-10.6359
▁visible	-10.6368
▁respira	-10.6375
▁cuidar	-10.6381
▁marco	-10.6388
▁adolescentes	-10.6396
▁flores	-10.6401
▁inventa	-10.6419
▁crédito	-10.6422
▁ilegal	-10.6422
▁maravilla	-10.6422
▁criminal	-10.6422
▁escultura	-10.6422
▁periodo	-10.6422
▁rechaza	-10.6422
▁Rusia	-10.6422
▁biológico	-10.6423
▁Sha	-10.6427
▁vaso	-10.6428
▁emergente	-10.6437
▁siguie	-10.644
▁preguntamos	-10.6442
▁olvidar	-10.6446
ile	-10.6452
▁deporte	-10.6453
▁instrumentos	-10.6461
▁nacion	-10.647
▁representan	-10.6473
plicación	-10.6475
puesto	-10.648
perando	-10.6494
▁aproba	-10.6499
▁pescado	-10.65
▁Debe	-10.6501
▁ayude	-10.6506
▁campamento	-10.6507
▁licencia	-10.6507
▁religiosa	-10.6507
▁Cualquier	-10.6507
▁milagro	-10.6507
▁Kenia	-10.6507
▁nieve	-10.6507
▁conduce	-10.6508
▁interactuar	-10.6521
venido	-10.6524
▁arreglar	-10.6526
▁significativo	-10.6526
▁Ab	-10.6528
▁cami	-10.653
▁enferma	-10.6538
▁Casi	-10.654
▁marino	-10.6542
▁muro	-10.6542
▁camione	-10.6548
▁conservador	-10.6549
▁listos	-10.6554
zi	-10.6561
▁complejos	-10.6582
▁aprovechar	-10.6586
▁molecular	-10.6593
▁Harvard	-10.6593
▁eficiencia	-10.6593
▁preserva	-10.6593
▁voluntario	-10.6593
▁reduce	-10.6594
▁vertical	-10.6594
▁famosa	-10.6595
▁internacionales	-10.6599
▁obes	-10.66
▁ping	-10.6608
cá	-10.6609
▁sana	-10.6611
▁gasto	-10.6612
ferencia	-10.6615
▁ciber	-10.6615
▁Bos	-10.6617
▁infla	-10.6621
▁camp	-10.6627
▁ambiental	-10.663
▁abandona	-10.6636
▁crecí	-10.6638
▁dibujar	-10.6639
▁almacena	-10.6642
▁acompaña	-10.6644
▁estatu	-10.6646
▁disminu	-10.6647
▁levantar	-10.6653
▁mía	-10.668
▁índice	-10.668
▁brecha	-10.668
▁moneda	-10.668
▁aguja	-10.6681
▁electrónica	-10.6681
▁receptor	-10.6681
▁meter	-10.6681
▁194	-10.6682
▁investigar	-10.6683
▁arroja	-10.6683
▁ayer	-10.6684
▁firme	-10.6685
▁pedí	-10.6688
▁muda	-10.6692
▁trabajaba	-10.6695
ai	-10.6696
▁funcionamiento	-10.6696
▁frontera	-10.6708
▁enfoca	-10.671
▁salto	-10.6711
var	-10.672
▁Entre	-10.6726
▁documenta	-10.6728
▁servir	-10.6733
▁impresi	-10.674
ció	-10.6743
▁tomada	-10.6746
▁afirma	-10.6749
▁fascina	-10.6756
indi	-10.6761
▁méd	-10.6765
▁frecuente	-10.6768
▁azúcar	-10.6768
▁bolsillo	-10.6768
▁dueño	-10.6768
▁evidente	-10.6768
▁fantástica	-10.6768
▁mencionar	-10.6768
▁expansi	-10.6769
▁suave	-10.6769
▁iniciativa	-10.677
▁desarroll	-10.6774
▁regreso	-10.678
▁nucleares	-10.6782
▁limitado	-10.6789
lección	-10.6792
Tube	-10.6801
▁expresa	-10.6802
aturaleza	-10.6803
▁usarlo	-10.6806
yendo	-10.6808
ari	-10.6811
▁rica	-10.6813
▁Tam	-10.6814
▁semillas	-10.6818
▁dirá	-10.6826
ístico	-10.6826
▁apoyar	-10.6831
▁aprenden	-10.6841
▁llamaba	-10.6842
▁ingrediente	-10.6857
▁permanente	-10.6857
▁selecciona	-10.6857
▁fotografi	-10.6857
▁Charles	-10.6857
▁ciego	-10.6857
▁ficción	-10.6858
▁enamor	-10.6859
▁señora	-10.6859
▁receta	-10.686
▁transmitir	-10.6865
▁encaja	-10.6868
▁aporta	-10.6878
irse	-10.6886
▁preocupado	-10.6886
▁especializa	-10.6893
anza	-10.6903
tz	-10.6922
▁venía	-10.6928
▁acerc	-10.6933
▁azules	-10.6936
▁Amazon	-10.6946
▁GPS	-10.6946
▁reforma	-10.6946
▁cartel	-10.6947
▁romper	-10.6947
▁permita	-10.6947
▁Dice	-10.6966
▁condena	-10.6976
▁inspiración	-10.698
▁demostrado	-10.6991
▁condi	-10.7014
▁lente	-10.7026
▁enfermo	-10.7034
▁rata	-10.7036
▁típica	-10.7036
▁Darwin	-10.7036
▁Frank	-10.7036
▁manifesta	-10.7036
▁máximo	-10.7036
▁simetría	-10.7036
▁vulnerable	-10.7036
▁exponencial	-10.7036
▁exitoso	-10.7036
▁Obama	-10.7036
▁ingresa	-10.7036
▁qu	-10.7037
▁biólogo	-10.7037
▁cartas	-10.7048
ística	-10.7051
▁chimpancés	-10.7054
rry	-10.7073
icia	-10.7075
cito	-10.7076
▁mini	-10.7106
▁arregl	-10.7107
▁corpora	-10.7109
▁monos	-10.7125
▁196	-10.7127
▁iPhone	-10.7127
▁músico	-10.7127
▁paradigma	-10.7127
▁convencional	-10.7127
▁Sabía	-10.7127
▁dirige	-10.7127
gué	-10.7137
▁Instituto	-10.7143
▁disfruta	-10.7147
▁danza	-10.7147
▁regular	-10.7151
▁algoritmos	-10.7152
▁sabor	-10.7154
pareció	-10.7157
ani	-10.716
▁tengamos	-10.716
▁agregar	-10.7162
▁menciona	-10.7166
▁dólar	-10.7169
▁Aplauso	-10.7177
▁involucrado	-10.718
▁Supong	-10.7181
▁avanzada	-10.7195
▁observando	-10.7201
▁Vivi	-10.7214
▁Egipto	-10.7219
▁apartamento	-10.7219
▁arriesga	-10.7219
▁intercambio	-10.7219
▁respeto	-10.7219
▁tecnológico	-10.7219
▁huella	-10.7219
▁concreto	-10.7219
▁molde	-10.7219
▁cristal	-10.7219
▁intención	-10.7219
▁sustancia	-10.7219
▁gris	-10.7219
▁reconocimiento	-10.7221
▁sufrimiento	-10.7222
▁participación	-10.7254
▁disciplina	-10.7256
▁preciso	-10.7264
ney	-10.7266
▁compleja	-10.7271
eña	-10.7278
▁converti	-10.7285
▁top	-10.7293
▁llevaba	-10.7305
graf	-10.7307
▁nutri	-10.731
▁efectivo	-10.7311
▁implementa	-10.7311
▁Centro	-10.7311
▁exitosa	-10.7311
▁lectura	-10.7311
▁clínico	-10.7311
▁prohibi	-10.7311
▁Mujer	-10.7311
▁mutua	-10.7311
▁consigui	-10.7312
gru	-10.7312
▁bella	-10.7315
ight	-10.7321
▁mostrando	-10.7323
▁preguntaba	-10.7323
▁marina	-10.7324
▁apaga	-10.7339
▁inventar	-10.7339
▁liberar	-10.7366
▁productiv	-10.7367
▁poca	-10.737
▁contig	-10.7378
▁visitar	-10.7381
▁simpl	-10.7381
▁salta	-10.7389
▁murie	-10.7395
▁nace	-10.7405
▁Chicago	-10.7405
▁Michael	-10.7405
▁ONU	-10.7405
▁temporal	-10.7405
▁transparencia	-10.7405
▁adecuado	-10.7405
▁transición	-10.7405
▁posee	-10.7406
▁tonto	-10.7412
▁27	-10.7415
▁verla	-10.7423
▁contribuye	-10.7436
▁Segundo	-10.7465
▁ética	-10.7471
▁llevarlo	-10.7475
diendo	-10.7486
ecto	-10.7493
▁poesía	-10.7499
▁regiones	-10.7499
▁filtra	-10.7499
▁relevante	-10.7501
▁frac	-10.7503
▁ahorra	-10.7518
▁volv	-10.7523
ux	-10.7531
▁rosa	-10.7548
▁mostró	-10.7557
▁cliente	-10.7566
▁imita	-10.7572
▁ahorrar	-10.7575
▁inicia	-10.7584
▁convencer	-10.7592
▁verg	-10.7594
▁ahorro	-10.7594
▁histórico	-10.7594
▁líquido	-10.7594
▁permítan	-10.7594
▁rodilla	-10.7594
▁exhibi	-10.7594
▁tridimensional	-10.7594
▁valiente	-10.7595
▁activista	-10.7595
▁amarillo	-10.7595
▁suceda	-10.7595
▁creciente	-10.7596
▁anual	-10.7596
▁polvo	-10.7598
▁pudier	-10.7605
▁aburrido	-10.7612
▁vivienda	-10.7626
▁complejas	-10.7636
▁olvid	-10.7639
ctu	-10.7642
▁carro	-10.7642
▁mina	-10.7653
jada	-10.7655
lga	-10.7655
▁civiles	-10.7667
▁interno	-10.7674
pto	-10.7674
▁británico	-10.769
▁cubierta	-10.769
▁extranjero	-10.769
▁temprano	-10.769
▁universitario	-10.769
▁videojuego	-10.769
▁aterrador	-10.769
▁laboral	-10.769
▁reconstruir	-10.769
▁Funda	-10.7691
clasifica	-10.7694
▁dependien	-10.7697
▁pájaros	-10.7705
▁marido	-10.7705
▁reemplazar	-10.7706
▁Trata	-10.7712
▁vivido	-10.7714
▁Cal	-10.7715
▁grasa	-10.7719
▁rob	-10.772
▁estudiando	-10.7723
▁compart	-10.773
▁Vale	-10.7736
▁agota	-10.7742
▁Tend	-10.7743
▁apareció	-10.775
▁transporta	-10.7751
pongo	-10.7754
▁sano	-10.7764
▁edi	-10.7765
íba	-10.7773
▁Trabaj	-10.7786
▁espectacular	-10.7787
▁espiritual	-10.7787
▁golf	-10.7787
▁mágico	-10.7787
▁privilegio	-10.7787
▁admira	-10.7787
▁conducta	-10.7788
▁Web	-10.7788
▁Thom	-10.7789
▁negativo	-10.7789
▁orgulloso	-10.779
▁solucionar	-10.7792
▁deriva	-10.7792
▁bote	-10.7793
▁colec	-10.7794
▁propuesta	-10.7797
▁600	-10.7803
dico	-10.7818
▁seguía	-10.7824
▁habló	-10.7827
▁Cuán	-10.7839
▁mundiales	-10.7863
pá	-10.7883
▁ancestro	-10.7886
▁aplauso	-10.7886
▁describe	-10.7886
▁hidrógeno	-10.7886
▁informática	-10.7886
▁asigna	-10.7886
▁masivo	-10.7886
▁deshacer	-10.7886
▁ponga	-10.7886
▁define	-10.7887
▁densidad	-10.7889
▁obvia	-10.7891
▁ancho	-10.7892
▁bola	-10.7899
▁rama	-10.7903
▁contaminación	-10.7911
▁generos	-10.7913
pp	-10.7917
▁destaca	-10.7921
▁cuida	-10.7935
▁elegido	-10.7937
▁electro	-10.794
▁vería	-10.7941
▁hable	-10.7956
▁sentar	-10.796
▁desespera	-10.7961
raje	-10.7964
nzó	-10.7979
▁desconocido	-10.7985
▁fruta	-10.7985
▁hipótesis	-10.7985
▁típico	-10.7985
▁órbita	-10.7985
▁apertura	-10.7985
▁resume	-10.7985
▁Corea	-10.7987
▁diversa	-10.799
▁ofreci	-10.7992
▁escritorio	-10.7998
▁Bang	-10.8
▁Será	-10.8011
▁pollo	-10.8023
▁refiere	-10.8035
▁visuales	-10.8043
▁manipula	-10.8045
▁alegr	-10.8046
▁ubica	-10.8056
iento	-10.8058
▁equivoca	-10.8072
▁proteína	-10.8076
▁hoja	-10.8076
▁Pacífico	-10.8085
▁adquiri	-10.8085
▁crucial	-10.8085
▁iglesia	-10.8085
▁inusual	-10.8085
▁murciélago	-10.8085
▁ritual	-10.8085
▁robótica	-10.8085
▁valioso	-10.8085
▁orgánico	-10.8085
ensambla	-10.8085
▁elabora	-10.8085
▁borra	-10.8085
▁hombro	-10.8085
▁modela	-10.8085
▁restric	-10.8085
▁rasgo	-10.8085
▁establecer	-10.8086
▁bello	-10.8087
▁piano	-10.8087
▁encendi	-10.8088
▁Ley	-10.809
▁intencion	-10.8091
▁funcional	-10.8098
▁fabricar	-10.8102
▁instrucci	-10.8103
▁corporal	-10.8104
▁tabla	-10.8114
▁comienzan	-10.8132
▁obten	-10.8137
▁despert	-10.8139
▁llora	-10.814
▁sigui	-10.8155
▁interfa	-10.8164
▁vigilan	-10.8171
▁tend	-10.8182
▁Pakist	-10.8186
▁alcalde	-10.8186
▁lujo	-10.8186
▁botón	-10.8186
▁emergencia	-10.8186
▁Trabaja	-10.8187
▁fecha	-10.8192
▁cuerdas	-10.8204
▁Cree	-10.8213
rece	-10.8213
▁salario	-10.8222
▁guia	-10.8223
▁publicar	-10.8227
▁mentira	-10.8231
▁extrema	-10.8234
▁tele	-10.8242
▁darnos	-10.8259
▁ola	-10.8284
▁retra	-10.8284
▁poblacion	-10.8288
▁procedimiento	-10.8288
▁septi	-10.8288
▁mínimo	-10.8288
▁Niño	-10.829
▁delfin	-10.8292
▁necesit	-10.8296
▁calcular	-10.8296
▁existir	-10.8298
▁extinción	-10.8307
ñi	-10.8315
▁compartido	-10.8324
nico	-10.8328
▁impresion	-10.8329
▁anuncia	-10.8338
▁cortar	-10.8338
▁nacido	-10.8341
▁val	-10.8346
▁imagin	-10.8353
▁cultivar	-10.8369
▁adop	-10.837
▁generacion	-10.8371
▁ocasion	-10.8373
▁mencion	-10.8374
▁65	-10.8378
▁peores	-10.8383
▁Obviamente	-10.8391
▁coordina	-10.8391
▁parezca	-10.8391
▁testigo	-10.8391
▁perfora	-10.8391
▁instante	-10.8392
▁gota	-10.8398
▁resistente	-10.8399
▁usarla	-10.8411
▁amable	-10.8417
▁obtuv	-10.8417
▁marcar	-10.8419
▁publicado	-10.842
▁consig	-10.8422
▁use	-10.8422
▁supe	-10.8433
▁Tres	-10.8445
11	-10.8448
iéramos	-10.8449
▁gradu	-10.8462
▁introduc	-10.8477
▁acabar	-10.8477
▁tí	-10.8483
▁departamento	-10.8495
▁microscopio	-10.8495
▁presiona	-10.8495
▁diagrama	-10.8495
▁respeta	-10.8495
▁bandera	-10.8495
▁granjero	-10.8495
▁extensi	-10.8496
▁avanzado	-10.8499
▁liberal	-10.8501
▁sostener	-10.8503
▁agricultores	-10.851
ciencia	-10.8513
mont	-10.8554
▁Jim	-10.8567
▁filma	-10.8573
igo	-10.858
▁Juli	-10.858
▁Mont	-10.8594
vier	-10.8598
▁comporta	-10.8599
▁antibiótico	-10.86
▁cotidiana	-10.86
▁precedente	-10.86
▁autopista	-10.86
▁construí	-10.86
▁produj	-10.86
▁esposo	-10.8601
▁diseñada	-10.8607
▁2007	-10.8607
▁disfrutar	-10.8612
▁cobra	-10.8617
▁Kan	-10.8627
▁organizar	-10.8629
iana	-10.863
▁Muse	-10.8631
▁bri	-10.8633
▁Sp	-10.8636
▁Polo	-10.8637
▁comparar	-10.8647
▁recoger	-10.865
▁Inter	-10.865
▁leche	-10.866
▁cualidad	-10.8663
gráfica	-10.8664
▁escribe	-10.8669
▁pica	-10.8672
▁mante	-10.8692
rtico	-10.8693
▁publicidad	-10.8706
▁Street	-10.8706
▁aeropuerto	-10.8706
▁cosecha	-10.8706
▁prevenir	-10.8706
▁ministro	-10.8707
▁broma	-10.8707
▁procede	-10.8707
▁patio	-10.8707
▁vestido	-10.8707
▁fría	-10.8707
▁arrest	-10.8708
▁Valle	-10.8709
▁pecho	-10.8711
▁acceder	-10.8713
▁capturar	-10.8716
▁Imp	-10.8728
▁disminuye	-10.8744
▁narra	-10.8754
▁Vean	-10.8755
▁repit	-10.8759
▁americano	-10.8766
▁ocurren	-10.8777
▁Encontra	-10.8784
▁crey	-10.8791
▁tío	-10.88
▁cromosoma	-10.8814
▁demuestra	-10.8814
▁flexible	-10.8814
▁tormenta	-10.8814
▁transparente	-10.8814
▁vínculo	-10.8814
▁eficaz	-10.8814
▁America	-10.8814
▁falsa	-10.8814
▁alucina	-10.8814
▁locura	-10.8815
▁voto	-10.8815
ear	-10.8818
▁saliendo	-10.8837
▁levant	-10.884
▁expandi	-10.8846
▁Segund	-10.8853
eza	-10.8863
uri	-10.8863
▁dirigir	-10.8869
▁convencido	-10.887
▁cómic	-10.8877
▁Rob	-10.8883
▁cumpli	-10.8887
▁Big	-10.889
▁corrien	-10.8912
▁traduc	-10.8919
▁religion	-10.8923
▁actúa	-10.8923
▁colegio	-10.8923
▁extender	-10.8923
▁invernadero	-10.8923
▁orquesta	-10.8923
▁religioso	-10.8923
▁residuo	-10.8923
▁ángulo	-10.8923
▁atrapado	-10.8923
▁multitud	-10.8923
▁portátil	-10.8923
▁aparentemente	-10.8923
dignidad	-10.8923
▁placa	-10.8923
▁admitir	-10.8924
▁dejado	-10.8925
▁tarda	-10.8926
▁futura	-10.8927
▁250	-10.8931
▁36	-10.8936
▁evalua	-10.8941
▁Espera	-10.8948
▁absorbe	-10.895
▁replica	-10.8951
▁sobrevivi	-10.8957
▁fabricación	-10.8962
posiciones	-10.8971
▁envejece	-10.8971
▁Jes	-10.8978
▁añadir	-10.8987
▁Pens	-10.8987
chu	-10.8992
▁bloquea	-10.8993
▁hacerla	-10.9006
▁gastar	-10.9016
pta	-10.9027
▁eventual	-10.9033
▁accesible	-10.9033
▁aceite	-10.9033
▁defensa	-10.9033
▁excelente	-10.9033
▁intercambia	-10.9033
▁láser	-10.9033
▁judío	-10.9033
▁manual	-10.9033
▁obsta	-10.9033
▁gusto	-10.9033
▁colectivo	-10.9034
▁Oye	-10.9034
▁sentada	-10.9035
▁adolescente	-10.9066
▁revis	-10.9075
▁conectada	-10.9102
▁girar	-10.9109
▁muestr	-10.9119
▁preparar	-10.9128
▁clar	-10.9138
▁reproducir	-10.9139
▁reflexi	-10.9142
▁tono	-10.9142
▁diálogo	-10.9144
▁espectáculo	-10.9144
▁fotógrafo	-10.9144
▁garantiz	-10.9144
▁sanguíneo	-10.9144
▁súper	-10.9144
▁cohete	-10.9144
▁anticipa	-10.9144
francamente	-10.9144
▁sucesiva	-10.9144
▁novela	-10.9147
▁gustaba	-10.915
▁cerrado	-10.9153
▁útiles	-10.916
▁32	-10.9161
▁altera	-10.9162
▁Tex	-10.9169
▁pinta	-10.917
▁baj	-10.9172
▁dibuja	-10.9177
▁arco	-10.9178
▁contamina	-10.9181
lip	-10.9182
▁hacerle	-10.9185
▁cantar	-10.9191
▁honesto	-10.9198
▁inventado	-10.9199
▁animación	-10.9202
▁detecta	-10.9203
bot	-10.9204
▁evita	-10.9218
▁participante	-10.9219
▁limpiar	-10.9223
▁Llega	-10.9233
▁acusa	-10.9236
▁invit	-10.9243
renta	-10.925
▁ONG	-10.9256
▁arrecife	-10.9256
▁europeo	-10.9256
▁filosofía	-10.9256
▁hierba	-10.9256
▁promesa	-10.9256
▁apropiada	-10.9256
▁razonable	-10.9257
▁vincula	-10.9257
▁signo	-10.926
▁polio	-10.9265
▁creí	-10.927
▁Gre	-10.9278
tección	-10.9284
▁inversion	-10.9289
▁jugadores	-10.9296
▁experimentado	-10.9297
▁desaparecer	-10.93
▁observ	-10.9302
▁automóvil	-10.9319
▁usada	-10.9325
▁dama	-10.9332
▁querría	-10.9338
▁Sch	-10.9354
▁dará	-10.9361
vía	-10.9365
▁satisfac	-10.9365
▁Stanford	-10.937
▁agrícola	-10.937
▁esqueleto	-10.937
▁corresponde	-10.937
▁ascenso	-10.937
▁fút	-10.937
▁desechos	-10.937
▁paquete	-10.937
▁entró	-10.937
▁incapa	-10.937
▁barata	-10.937
▁empresarial	-10.937
▁nieto	-10.937
▁nano	-10.937
▁dejé	-10.9372
▁consider	-10.9372
▁encontraba	-10.9374
▁producido	-10.938
▁multiplica	-10.9396
▁actualidad	-10.9398
▁asociado	-10.9404
▁elegi	-10.9409
▁fall	-10.941
▁usaba	-10.9422
▁test	-10.9426
▁pretend	-10.9427
▁fisi	-10.943
▁infec	-10.9442
nario	-10.9451
rég	-10.9456
▁afect	-10.9469
▁permanecer	-10.9469
▁gesti	-10.9483
▁histórica	-10.9485
▁izquierdo	-10.9485
▁telefónica	-10.9485
▁Apple	-10.9485
▁longitud	-10.9485
▁destruir	-10.9485
▁preferi	-10.9485
▁convertí	-10.9485
▁elegante	-10.9485
▁trayectoria	-10.9485
riendo	-10.9488
▁investigaciones	-10.9494
▁Vaya	-10.9496
▁roto	-10.9498
▁arrastra	-10.9504
ish	-10.9506
▁Norma	-10.9509
▁matri	-10.9515
▁pura	-10.9516
tasi	-10.9524
▁hom	-10.9525
▁trabajadora	-10.953
▁odio	-10.9557
▁Sería	-10.9575
▁juntar	-10.958
▁estr	-10.9581
▁migra	-10.9581
▁pedido	-10.9595
▁aterriza	-10.9598
▁aprovecha	-10.9601
▁almuerzo	-10.9601
▁diccionario	-10.9601
▁hábito	-10.9601
▁legisla	-10.9601
▁nariz	-10.9601
▁raíces	-10.9601
▁fluye	-10.9601
▁hacker	-10.9601
▁inunda	-10.9601
▁reputaci	-10.9601
▁engaña	-10.9602
▁rango	-10.9602
▁raíz	-10.9602
▁inclina	-10.9602
▁profesi	-10.9603
▁reducción	-10.9607
▁recurr	-10.9611
▁peligrosa	-10.9611
▁viviente	-10.9611
▁inclusiv	-10.9617
ware	-10.9621
▁cubrir	-10.9622
▁valle	-10.9632
íf	-10.9638
▁quit	-10.9645
▁despertar	-10.9661
▁recurso	-10.9662
▁Tome	-10.9665
▁proyecta	-10.9672
▁proporci	-10.9673
▁regenera	-10.9687
mita	-10.9709
▁permitido	-10.971
▁prefiere	-10.9717
▁Significa	-10.9719
▁atractivo	-10.9719
▁improvisa	-10.9719
▁micrófono	-10.9719
▁territorio	-10.9719
▁demonio	-10.9719
▁ocurra	-10.9719
▁escapar	-10.972
▁Señor	-10.972
▁emiti	-10.9721
▁mostré	-10.9721
▁reuniones	-10.9725
▁trasero	-10.9729
▁retrato	-10.9731
▁pide	-10.9731
▁palo	-10.9742
▁Flor	-10.9744
▁cuanta	-10.9747
▁Gal	-10.9749
▁opuesto	-10.9752
▁aspira	-10.9782
▁construc	-10.9786
▁tomo	-10.979
▁discutir	-10.9802
▁dosis	-10.9825
▁tuvieran	-10.9832
▁glaciar	-10.9838
▁Quisiera	-10.9838
▁capítulo	-10.9838
▁interactúa	-10.9838
▁tragedia	-10.9838
▁tremenda	-10.9838
▁entienda	-10.9838
▁cuarta	-10.9838
▁federal	-10.9838
▁enseñanza	-10.9838
eimer	-10.9839
▁ciega	-10.9839
▁direccione	-10.9839
▁procesamiento	-10.9839
bús	-10.9839
▁interaccion	-10.984
▁dedicar	-10.9842
▁trajo	-10.9846
▁habitantes	-10.9848
▁leve	-10.9849
▁dí	-10.9856
▁psicólogo	-10.9856
▁Fin	-10.987
▁ganador	-10.9876
▁corri	-10.9877
▁of	-10.9881
▁equivocada	-10.9886
▁obtene	-10.9888
▁escuché	-10.9895
▁hablaré	-10.9896
▁reina	-10.9902
▁químico	-10.991
▁funcionaba	-10.9912
▁sabrá	-10.9916
▁empuja	-10.9919
▁recorrer	-10.9919
▁contest	-10.9923
igan	-10.9931
▁Monte	-10.9938
▁determinado	-10.9949
▁crecid	-10.9952
▁rompe	-10.9957
▁erradica	-10.9958
▁posterior	-10.9958
▁publicó	-10.9958
▁externa	-10.9958
▁expedi	-10.9958
▁curioso	-10.9958
▁gesto	-10.9958
▁secreta	-10.9959
▁transmiti	-10.9959
▁leído	-10.9959
▁Ghan	-10.9961
▁justa	-10.9967
▁cambie	-10.9967
▁estableci	-10.9972
▁indio	-10.9975
▁Ere	-10.9979
▁dur	-11
▁extrem	-11.0018
▁enseñarle	-11.002
▁cuadra	-11.0021
▁formato	-11.005
▁leyendo	-11.005
presión	-11.0054
▁sobr	-11.0057
▁Imagin	-11.0068
▁entusiasm	-11.0071
▁inspir	-11.0072
▁giro	-11.0073
▁gratuita	-11.008
▁demasiada	-11.008
▁diabetes	-11.008
▁recauda	-11.008
▁estrecha	-11.008
▁curiosa	-11.008
▁nombra	-11.008
▁choque	-11.0081
▁ratones	-11.0081
▁fracasa	-11.0081
▁Robert	-11.0082
▁contradic	-11.0083
▁comunicaciones	-11.0094
▁Debo	-11.0103
▁respirar	-11.0105
ecta	-11.0107
▁10.000	-11.0108
▁afro	-11.011
▁ocupado	-11.0113
▁cría	-11.0115
▁transform	-11.0119
ash	-11.0123
▁adoptar	-11.0124
▁proyec	-11.0124
▁adicionales	-11.0124
▁reino	-11.0132
BG	-11.0154
▁desafi	-11.0158
Fi	-11.0159
▁asumir	-11.0166
▁colega	-11.0166
▁convenci	-11.0174
▁reaccione	-11.0175
nec	-11.0181
▁elevado	-11.019
▁repara	-11.0193
tín	-11.02
▁Wikipedia	-11.0204
▁asteroide	-11.0204
▁dimensión	-11.0204
▁entretenimiento	-11.0204
▁magnitud	-11.0204
▁musulmanes	-11.0204
▁resonancia	-11.0204
▁arroz	-11.0204
▁billete	-11.0204
▁instancia	-11.0204
▁Alzh	-11.0204
▁cuello	-11.0204
▁vuela	-11.0204
▁implanta	-11.0204
▁encender	-11.0204
▁Banco	-11.0204
▁Estudi	-11.0204
▁Hollywood	-11.0204
▁lucr	-11.0206
▁nutriente	-11.0206
▁2006	-11.0211
tún	-11.0212
▁litro	-11.0214
▁ligeramente	-11.0214
▁Martin	-11.0216
▁26	-11.0217
▁cruzar	-11.0222
▁instalaciones	-11.0223
▁reparar	-11.0223
▁abandonar	-11.0225
drone	-11.0227
DA	-11.0228
ket	-11.0232
rump	-11.0242
tismo	-11.0244
▁dejarlo	-11.0257
▁planes	-11.026
MA	-11.0261
▁film	-11.0265
▁evolucionado	-11.0273
▁cubr	-11.0273
▁eco	-11.0287
▁flota	-11.029
▁comete	-11.0291
▁experto	-11.0295
▁cancion	-11.0296
▁algoritmo	-11.03
▁comprende	-11.0301
▁estudiado	-11.0303
▁entusiasmado	-11.0316
▁aborda	-11.0323
▁escrib	-11.0325
▁Ningun	-11.0329
▁chocolate	-11.0329
▁cubierto	-11.0329
▁embarazada	-11.0329
▁magnético	-11.0329
▁práctico	-11.0329
▁vecindario	-11.0329
▁pulmon	-11.0329
▁examen	-11.0329
▁Italia	-11.0329
▁remonta	-11.0329
▁construida	-11.0329
▁Termin	-11.0331
▁transmisión	-11.0331
▁negativa	-11.0331
▁Tri	-11.0332
▁polar	-11.0335
▁hiper	-11.0335
▁divisi	-11.0336
▁cubo	-11.0345
▁utilizado	-11.0352
▁legado	-11.0353
▁Coca	-11.0356
grado	-11.036
tieron	-11.0362
▁saltar	-11.0373
▁95	-11.0373
▁considerado	-11.0393
▁pesado	-11.042
▁bailar	-11.0421
▁empresario	-11.0429
▁Ku	-11.0439
▁atraer	-11.0439
▁olvida	-11.0444
▁Microsoft	-11.0455
▁argumenta	-11.0455
▁cardíaca	-11.0455
▁caricatura	-11.0455
▁carácter	-11.0455
▁configura	-11.0455
▁cristian	-11.0455
▁dominio	-11.0455
▁informático	-11.0455
▁jardine	-11.0455
▁resuelto	-11.0455
▁supermercado	-11.0455
▁terremoto	-11.0455
▁tropical	-11.0455
▁parásito	-11.0455
▁General	-11.0455
▁apropiado	-11.0455
▁maestra	-11.0455
▁analogía	-11.0455
▁palma	-11.0455
▁Río	-11.0456
▁prioridad	-11.0456
▁usual	-11.0456
▁Sobre	-11.0457
▁agenda	-11.0458
▁postura	-11.0459
▁explic	-11.0465
▁quedé	-11.0465
▁capacita	-11.0466
▁afectado	-11.0471
▁taller	-11.0471
▁Sam	-11.0492
▁protege	-11.0494
▁reducido	-11.0505
▁rato	-11.0512
15	-11.0516
▁bebi	-11.0527
▁record	-11.053
▁naci	-11.0538
▁productor	-11.0541
▁comparado	-11.0548
▁significaba	-11.0556
▁ponerse	-11.0564
▁salga	-11.0571
▁pró	-11.0573
▁curar	-11.0578
▁Departamento	-11.0583
▁Navidad	-11.0583
▁incómodo	-11.0583
▁naranja	-11.0583
▁ámbito	-11.0583
▁bonito	-11.0583
▁balance	-11.0583
▁defender	-11.0583
▁remoto	-11.0583
▁devolver	-11.0583
▁equipa	-11.0584
▁apariencia	-11.0584
▁cognitiva	-11.0584
▁193	-11.0585
▁facial	-11.0586
▁traslad	-11.0588
▁Super	-11.0592
▁1.000	-11.0596
propi	-11.0605
▁Cri	-11.0605
aíz	-11.0608
▁confia	-11.0612
▁intersec	-11.0618
▁Tim	-11.0634
▁She	-11.0637
▁cubre	-11.0638
stata	-11.065
▁adivin	-11.0653
▁permitirá	-11.0658
▁rural	-11.0663
▁PM	-11.0677
▁lineal	-11.0679
▁monitor	-11.0679
▁lindo	-11.0685
▁pájaro	-11.0694
▁procesa	-11.0696
▁pel	-11.0701
▁cuerda	-11.0708
▁tanque	-11.0709
▁Actual	-11.0713
▁bonita	-11.0713
▁desempeño	-11.0713
▁encuentre	-11.0713
▁estacionamiento	-11.0713
▁filósofo	-11.0713
▁hormona	-11.0713
▁incremento	-11.0713
▁secundario	-11.0713
▁sólido	-11.0713
▁Oxf	-11.0713
▁hígado	-11.0713
▁degrada	-11.0713
▁abuso	-11.0713
▁remota	-11.0713
▁consume	-11.0714
▁cabello	-11.0714
▁contento	-11.0714
▁cuántica	-11.0715
▁editor	-11.0715
▁primaria	-11.0716
▁anillo	-11.0717
▁Comenc	-11.0718
▁Comenza	-11.0718
▁Tur	-11.072
▁confiable	-11.0722
▁dedicado	-11.0725
▁reduci	-11.0728
▁automáticamente	-11.0728
▁traza	-11.0729
▁culpable	-11.073
▁fri	-11.073
▁agresi	-11.0734
▁sofisticado	-11.0736
▁recorrido	-11.0737
▁pesa	-11.0741
ernes	-11.0741
▁pintar	-11.0744
▁aparte	-11.0752
▁beber	-11.0764
▁detector	-11.0778
▁añadi	-11.0786
monos	-11.0789
▁navegar	-11.0793
▁paseo	-11.08
▁mud	-11.0802
▁Gol	-11.0804
▁definir	-11.0809
ducción	-11.0809
creció	-11.0813
▁Haga	-11.0827
▁salía	-11.0827
▁jue	-11.083
▁estatal	-11.0834
▁controlado	-11.0837
▁respond	-11.0839
▁depredador	-11.0845
▁club	-11.0845
▁limpio	-11.0845
▁Cuanto	-11.0845
▁gusano	-11.0845
▁Verdad	-11.0845
▁resumi	-11.0845
▁entrena	-11.0845
▁consulta	-11.0845
lito	-11.0846
▁convirtier	-11.0846
▁celda	-11.0847
▁familiarizado	-11.0847
▁inventó	-11.0847
▁Podía	-11.0848
▁nací	-11.0848
▁suicida	-11.085
ibera	-11.0852
orrecto	-11.0852
▁roda	-11.0853
spect	-11.0853
▁asesina	-11.0858
▁Hait	-11.0859
para	-11.086
ubi	-11.0871
▁Compar	-11.0872
idi	-11.0874
▁quint	-11.0882
▁diseñ	-11.0889
▁paraliza	-11.0905
▁encontrarán	-11.0906
▁calent	-11.091
▁donante	-11.0927
▁variación	-11.0928
▁encant	-11.0931
▁colga	-11.0943
▁Roma	-11.0944
▁calma	-11.0955
▁molest	-11.0959
▁ecolog	-11.096
▁aproxima	-11.0963
cruz	-11.0965
▁violenta	-11.0978
▁William	-11.0978
▁World	-11.0978
▁cerveza	-11.0978
▁inesperado	-11.0978
▁soporte	-11.0978
▁terminé	-11.0978
▁filtro	-11.0978
▁sonrisa	-11.0978
▁sagrado	-11.0978
▁captar	-11.0978
▁ruso	-11.0979
▁taza	-11.098
▁casualidad	-11.098
▁invasi	-11.0982
▁encarga	-11.0986
▁colina	-11.0986
▁Bur	-11.099
▁permanece	-11.0996
▁Mark	-11.1001
▁cm	-11.1009
▁actualiza	-11.1015
▁asegur	-11.1017
▁Cuánta	-11.103
▁productivo	-11.1037
▁0,	-11.104
▁vacacion	-11.1055
▁estudi	-11.1067
▁compone	-11.1079
▁Kar	-11.1085
scrito	-11.1091
▁restaura	-11.1092
▁organizado	-11.1094
▁brilla	-11.1095
▁ampliar	-11.1099
▁cosm	-11.1107
▁Manhattan	-11.1113
▁académico	-11.1113
▁cardíaco	-11.1113
▁desperdicio	-11.1113
▁exagera	-11.1113
▁gracioso	-11.1113
▁guardia	-11.1113
▁lápi	-11.1113
▁primavera	-11.1113
▁sensorial	-11.1113
ville	-11.1114
▁detiene	-11.1114
▁Guau	-11.1114
▁élite	-11.1115
▁asesor	-11.1115
▁esquema	-11.1115
▁Bush	-11.1115
ook	-11.1117
▁bailarin	-11.1118
ibia	-11.1118
▁aprecia	-11.1119
▁desorden	-11.1122
▁reactor	-11.1125
▁ayudarle	-11.1127
▁Isla	-11.1136
▁correla	-11.114
▁ajusta	-11.1141
▁canale	-11.1142
▁entendía	-11.1151
▁echar	-11.1162
▁especialista	-11.1174
▁electrodo	-11.1179
▁desarrollando	-11.1182
▁Arte	-11.1186
▁fué	-11.1203
ómica	-11.1218
▁cuer	-11.122
▁reemplaza	-11.1228
vatio	-11.1249
▁frágil	-11.125
▁Recuerde	-11.125
▁abundancia	-11.125
▁clásico	-11.125
▁concierto	-11.125
▁concluir	-11.125
▁energética	-11.125
▁envejecimiento	-11.125
▁inútil	-11.125
▁magnética	-11.125
▁refugio	-11.125
▁Ciencia	-11.125
▁escáner	-11.125
▁mágica	-11.125
▁soborn	-11.125
▁Sistema	-11.125
▁junio	-11.125
▁laptop	-11.125
▁victoria	-11.1251
▁adulta	-11.1251
▁alarma	-11.1252
▁contribuir	-11.1254
▁compañero	-11.1254
▁adulto	-11.1255
▁infinita	-11.1255
▁impresora	-11.1256
▁sustentable	-11.1258
▁dijera	-11.1259
▁MS	-11.1265
▁28	-11.1275
▁transcur	-11.1277
▁Bra	-11.1287
▁Unida	-11.1287
▁Mah	-11.1297
▁respiración	-11.1302
▁rurales	-11.1304
▁dist	-11.1308
▁describi	-11.1316
rek	-11.1317
▁salí	-11.1319
▁adicional	-11.1339
▁expandir	-11.1347
▁enseñado	-11.1374
▁zapat	-11.1381
▁pedirle	-11.1381
▁Segur	-11.1388
▁Muchísim	-11.1389
▁Número	-11.1389
▁atravesar	-11.1389
▁biodiversidad	-11.1389
▁candidato	-11.1389
▁helicóptero	-11.1389
▁intuición	-11.1389
▁optimismo	-11.1389
▁préstamo	-11.1389
▁teclado	-11.1389
frontal	-11.1389
▁cruel	-11.1389
▁fomenta	-11.1389
▁oferta	-11.1389
▁milenio	-11.1389
▁túnel	-11.139
▁africana	-11.139
▁genio	-11.1392
▁bala	-11.1392
▁perfil	-11.1392
▁diverso	-11.1393
▁subyacente	-11.1394
▁120	-11.1395
▁haciéndolo	-11.1397
▁recta	-11.1398
▁choca	-11.1399
▁supera	-11.1401
▁enlace	-11.1404
▁arteria	-11.1412
▁Media	-11.1419
▁dicha	-11.1428
▁inyecta	-11.1431
▁trate	-11.1442
BI	-11.1443
▁pago	-11.1454
▁700	-11.1467
uatro	-11.1489
▁mostra	-11.1496
▁sirv	-11.1501
▁entregar	-11.1508
▁acostumbrado	-11.1515
▁cometa	-11.152
Y	-11.1524
▁Escuela	-11.153
▁Recuerda	-11.153
▁divertida	-11.153
▁embarazo	-11.153
▁energético	-11.153
▁español	-11.153
▁inocente	-11.153
▁orgánica	-11.153
▁prejuicio	-11.153
▁conseguí	-11.153
▁rescate	-11.153
▁secuestr	-11.153
▁potable	-11.153
▁defecto	-11.153
▁atrapar	-11.153
▁exporta	-11.153
▁llave	-11.153
▁195	-11.1531
▁carril	-11.1531
▁partida	-11.1532
▁reporte	-11.1533
▁metano	-11.1534
▁chiste	-11.1534
▁paloma	-11.1535
▁renovable	-11.1536
▁33	-11.1549
ificado	-11.1551
▁corazones	-11.1562
▁dispar	-11.1565
▁olvidado	-11.1577
▁mantuv	-11.1584
▁cerr	-11.1584
▁Lleva	-11.1586
▁puro	-11.1588
▁fabricante	-11.1588
▁Gar	-11.1589
apur	-11.159
▁ejecu	-11.1592
▁Bob	-11.1606
▁tirar	-11.1608
▁promo	-11.161
▁interesada	-11.163
▁tej	-11.1646
gro	-11.1657
ku	-11.1657
▁pop	-11.1662
Q	-11.167
▁inalámbrica	-11.1673
▁juventud	-11.1673
▁retroalimenta	-11.1673
▁diablo	-11.1673
▁sugerir	-11.1673
▁fiscal	-11.1673
▁poeta	-11.1673
▁asesino	-11.1674
▁miraba	-11.1674
▁reflexiona	-11.1675
▁aleman	-11.1676
psia	-11.1679
▁rodeado	-11.1688
▁recogi	-11.1694
revé	-11.1694
▁numero	-11.1701
▁Ever	-11.1709
▁explotar	-11.171
▁alquil	-11.1716
▁Casa	-11.1721
▁muev	-11.1725
▁localiza	-11.1737
▁gal	-11.1751
▁pasará	-11.1751
▁Solía	-11.1752
▁ambientales	-11.1756
▁entenderlo	-11.1765
▁cocinar	-11.1766
▁llenar	-11.1779
DE	-11.1782
▁obtuvi	-11.1803
▁encarcela	-11.1818
▁gubernamental	-11.1818
▁Etiop	-11.1818
▁Proyecto	-11.1818
▁automático	-11.1818
▁computacional	-11.1818
▁escarabajo	-11.1818
▁extiende	-11.1818
▁panorama	-11.1818
▁voluntaria	-11.1818
▁grandioso	-11.1818
▁constituye	-11.1818
▁muerta	-11.1818
▁excava	-11.1818
▁moviendo	-11.1818
▁toleran	-11.1818
▁engaño	-11.1818
▁bombarde	-11.1819
▁plaza	-11.1821
▁recort	-11.1822
▁agradecer	-11.1822
▁doctorado	-11.1833
▁tumba	-11.1834
▁King	-11.1835
▁apart	-11.1843
ganda	-11.1843
▁mentalidad	-11.1844
bola	-11.1851
▁desesperada	-11.1853
▁soldado	-11.1854
bby	-11.1854
▁alinea	-11.1856
▁imagino	-11.1858
▁preocupe	-11.1859
▁ignoran	-11.1863
arís	-11.1868
▁vegetal	-11.1876
▁descrip	-11.1877
▁automóviles	-11.1882
▁Wat	-11.1887
▁Necesit	-11.189
▁elige	-11.189
▁atrev	-11.1906
▁variable	-11.1911
▁Just	-11.1932
▁institucional	-11.1935
burg	-11.1938
▁volvía	-11.1942
éndolo	-11.1947
struct	-11.1947
▁viaj	-11.1952
▁manej	-11.1955
BC	-11.1963
ft	-11.1963
▁Central	-11.1965
▁Higgs	-11.1965
▁Smith	-11.1965
▁ansiedad	-11.1965
▁desagradable	-11.1965
▁facilita	-11.1965
▁griego	-11.1965
▁pirámide	-11.1965
▁prótesis	-11.1965
▁violento	-11.1965
▁pasajero	-11.1965
▁recluta	-11.1965
▁trauma	-11.1965
▁ponía	-11.1965
▁entidad	-11.197
▁Eric	-11.1974
▁opiniones	-11.1974
▁gradual	-11.1978
▁sentarse	-11.1978
▁800	-11.1979
▁escase	-11.198
▁Ford	-11.1982
▁india	-11.1984
▁echa	-11.1984
▁observe	-11.1985
visiones	-11.1985
▁acababa	-11.2001
qu	-11.2002
▁presentarle	-11.2003
▁busqu	-11.2003
ik	-11.2006
▁presa	-11.2007
▁contraste	-11.2007
▁Poco	-11.2015
▁Red	-11.2016
▁fluido	-11.2018
▁191	-11.2018
bru	-11.2019
▁tenta	-11.2025
▁Golf	-11.2029
▁Cap	-11.204
▁Qui	-11.2059
▁Gene	-11.2065
trato	-11.2067
▁conduci	-11.207
▁Wall	-11.2073
▁compartida	-11.2074
ciden	-11.208
▁cata	-11.2087
▁evaluar	-11.2089
▁Cambia	-11.2096
▁coleccion	-11.2101
▁examina	-11.2109
▁Atlántico	-11.2114
▁Cambridge	-11.2114
▁afortunado	-11.2114
▁antepasado	-11.2114
▁cápita	-11.2114
▁democrática	-11.2114
▁estupendo	-11.2114
▁horror	-11.2114
▁instinto	-11.2114
▁intensidad	-11.2114
▁Persona	-11.2114
▁neurociencia	-11.2114
▁galería	-11.2114
▁pozo	-11.2115
▁pausa	-11.2115
▁somet	-11.2115
▁saque	-11.2115
▁ultra	-11.2116
▁1960	-11.2116
▁lanzamiento	-11.2119
▁Cinc	-11.2119
▁amarilla	-11.2123
▁Españ	-11.2123
▁tinta	-11.2125
▁conduj	-11.2129
▁creador	-11.2144
▁colaborador	-11.2145
▁agita	-11.2149
plan	-11.2149
▁baila	-11.215
▁discuti	-11.2159
▁peti	-11.2168
▁iniciar	-11.2172
▁diagnostic	-11.2173
▁85	-11.2174
▁destruy	-11.2177
▁explicarle	-11.2186
▁continuo	-11.2192
▁concentración	-11.2194
▁Día	-11.2209
▁educar	-11.222
▁juez	-11.2229
▁creada	-11.2232
▁recibido	-11.2234
mite	-11.2237
▁limitada	-11.2243
▁extin	-11.2251
▁Brown	-11.2266
▁Ciudad	-11.2266
▁Imagínense	-11.2266
▁Observe	-11.2266
▁magnífico	-11.2266
▁uniforme	-11.2266
▁sospecho	-11.2266
▁ecológica	-11.2266
▁rastrea	-11.2266
▁dilema	-11.2266
▁rompi	-11.2266
▁medusa	-11.2266
▁oculto	-11.2266
▁Luna	-11.2266
▁disposición	-11.2266
▁resisti	-11.2266
▁supiera	-11.2267
▁cintur	-11.2267
▁clip	-11.2267
▁poliniza	-11.2267
▁despega	-11.2268
▁Revolu	-11.2268
▁colisi	-11.2269
▁casco	-11.2272
▁asesinato	-11.2273
▁expone	-11.2274
▁Peter	-11.2275
▁decide	-11.2275
▁primate	-11.2283
▁nacer	-11.229
volución	-11.2291
▁II	-11.2292
▁moviliza	-11.2299
▁salido	-11.2302
▁contrato	-11.2308
▁ubicación	-11.231
▁propus	-11.2313
▁fuga	-11.2316
▁cuidadosa	-11.232
▁dejen	-11.233
▁letal	-11.2333
▁espere	-11.2342
▁importaba	-11.2366
▁genéticamente	-11.238
▁Deja	-11.2386
▁procesar	-11.2387
▁transmite	-11.2388
cantaría	-11.2389
▁disparo	-11.2391
▁continu	-11.2391
▁sustenta	-11.2413
hard	-11.2413
▁sistemática	-11.2419
▁Biblia	-11.2419
▁Saturn	-11.2419
▁centímetro	-11.2419
▁inconsciente	-11.2419
▁interactivo	-11.2419
▁origami	-11.2419
▁óptica	-11.2419
▁brutal	-11.2419
▁intensa	-11.2419
▁criterio	-11.2419
▁serpiente	-11.2419
▁combate	-11.242
▁combatir	-11.242
▁cumpleañ	-11.242
▁mueble	-11.242
▁respald	-11.242
▁ácido	-11.242
▁lejano	-11.242
américa	-11.242
▁tensión	-11.242
▁inmune	-11.2423
▁emite	-11.2428
▁alivi	-11.2429
▁2001	-11.2429
▁2003	-11.2429
▁inspirar	-11.2431
▁Plan	-11.2445
▁suyo	-11.2447
▁liga	-11.2449
▁preguntarle	-11.2453
▁proveer	-11.2454
▁basta	-11.2459
▁octu	-11.2459
▁Encontr	-11.2467
ugh	-11.2469
▁pondr	-11.2478
▁daría	-11.2486
▁experimental	-11.2498
▁radicalmente	-11.2507
▁Lleg	-11.2507
▁marcador	-11.2519
▁necesite	-11.2549
▁interactua	-11.255
▁revisar	-11.2551
▁adelant	-11.2558
lización	-11.2558
▁progresa	-11.2566
▁apreciar	-11.2569
▁cráneo	-11.2576
▁inmensa	-11.2576
▁solicita	-11.2576
▁trasplante	-11.2576
▁Cierto	-11.2576
▁feminista	-11.2576
▁singular	-11.2576
▁destreza	-11.2576
▁exceso	-11.2576
▁escoger	-11.2576
▁plena	-11.2576
▁dispuesta	-11.2576
▁torna	-11.2577
▁critica	-11.2578
▁celebrar	-11.258
▁paralelo	-11.258
▁ascend	-11.2581
▁seguimiento	-11.2581
▁Jack	-11.2581
▁vapor	-11.2591
▁predicciones	-11.2596
▁entusiasma	-11.2602
grav	-11.2608
azón	-11.2608
▁llamé	-11.2611
▁peque	-11.2614
▁imitar	-11.2614
▁soña	-11.2625
▁dispersa	-11.2629
▁señalar	-11.263
▁atacar	-11.2636
viv	-11.264
▁tocando	-11.2651
▁mediado	-11.2671
▁honesta	-11.2672
▁atrae	-11.2675
▁mayo	-11.268
▁densa	-11.2687
▁caracter	-11.2687
▁entrenar	-11.2694
▁movili	-11.2703
▁aumentado	-11.2717
▁pantal	-11.272
▁quedaba	-11.2724
▁encantador	-11.2726
▁orgullo	-11.2727
▁democrático	-11.2734
▁evolutiva	-11.2734
▁horizonte	-11.2734
▁instantánea	-11.2734
▁interconecta	-11.2734
▁muñeca	-11.2734
▁sostiene	-11.2734
▁certifica	-11.2734
▁parecida	-11.2734
▁pudiese	-11.2734
▁puntua	-11.2734
▁artística	-11.2734
▁asistente	-11.2734
▁comunitario	-11.2734
▁aislado	-11.2734
▁toalla	-11.2734
▁agrupa	-11.2735
▁brote	-11.2735
▁frena	-11.2735
▁sufren	-11.2735
▁derrota	-11.2736
rabia	-11.2736
▁herida	-11.2736
▁distante	-11.2736
▁promover	-11.2736
▁Gates	-11.2737
▁Islam	-11.2739
▁supervis	-11.2741
▁excepcional	-11.2743
▁perdida	-11.2744
defini	-11.2746
▁monton	-11.2747
▁exista	-11.2749
▁separada	-11.2755
▁dominante	-11.2756
▁descifrar	-11.2757
▁Acaba	-11.2761
▁antena	-11.2764
▁marea	-11.2767
▁nula	-11.2768
▁llegaba	-11.2774
lisi	-11.2777
ñez	-11.2781
▁invento	-11.2783
▁Mag	-11.2789
▁papa	-11.2794
▁comprometido	-11.2796
▁comprendi	-11.2806
▁Hic	-11.2811
▁Verá	-11.2812
▁recoge	-11.2823
▁integrado	-11.2823
▁bé	-11.2824
▁grabación	-11.2824
▁involucrar	-11.2826
gica	-11.2836
▁barb	-11.2854
▁apagar	-11.2861
▁determinada	-11.2863
▁jugador	-11.2878
RB	-11.2892
▁egoísta	-11.2896
▁estómago	-11.2896
▁fósforo	-11.2896
▁incertidumbre	-11.2896
▁inmenso	-11.2896
▁interruptor	-11.2896
▁tóxico	-11.2896
▁imprimir	-11.2896
▁pulso	-11.2896
▁Piensa	-11.2896
▁peaton	-11.2896
▁resalta	-11.2896
▁doloroso	-11.2896
▁escanea	-11.2896
▁descendi	-11.2896
versiones	-11.2897
▁apret	-11.2898
▁Salud	-11.2904
▁Island	-11.2907
▁indicador	-11.2909
tendemos	-11.2911
▁agradec	-11.2913
ciento	-11.2926
▁realista	-11.2927
▁retina	-11.2929
▁conect	-11.2943
▁incendio	-11.2947
▁almacenar	-11.2968
▁llorar	-11.2971
▁proveedor	-11.2986
▁mandar	-11.3001
▁explorador	-11.3004
▁realiz	-11.302
▁inventor	-11.3027
▁Hall	-11.3028
▁tibur	-11.3037
▁Escrib	-11.3038
▁ingenio	-11.3055
▁Occidental	-11.306
▁certeza	-11.306
▁desplega	-11.306
▁episodio	-11.306
▁femenina	-11.306
▁femenino	-11.306
▁hectárea	-11.306
▁humilla	-11.306
▁justifica	-11.306
▁residente	-11.306
▁puñado	-11.306
▁cruce	-11.306
▁ideología	-11.306
▁termine	-11.306
▁oveja	-11.306
▁Tercer	-11.306
▁rutina	-11.306
▁compensa	-11.306
▁Brun	-11.306
▁tropa	-11.306
▁escrita	-11.306
▁reúne	-11.3061
▁infinito	-11.3062
▁sobrevive	-11.3062
▁eficac	-11.3068
sky	-11.307
▁operacion	-11.3076
▁revisa	-11.3084
▁Joe	-11.3085
▁introducir	-11.3088
▁invertido	-11.3094
xito	-11.3096
▁lanzado	-11.3097
▁exá	-11.3112
uega	-11.3115
quiera	-11.3116
ES	-11.3117
verso	-11.3125
▁aumentando	-11.3127
▁Bol	-11.3133
▁vegeta	-11.316
▁seguí	-11.3166
▁progres	-11.3179
▁busc	-11.3184
ball	-11.3186
▁señala	-11.3195
ulli	-11.3199
▁evolucion	-11.3204
▁difundir	-11.322
▁retroced	-11.3222
▁Presidente	-11.3226
▁astrónomo	-11.3226
▁censura	-11.3226
▁genocidio	-11.3226
▁lámpara	-11.3226
▁reflejo	-11.3226
VII	-11.3226
▁distrito	-11.3226
▁mecánico	-11.3226
▁pulgar	-11.3226
▁valiosa	-11.3226
▁jubila	-11.3226
▁oreja	-11.3226
nternacional	-11.3228
▁riñ	-11.3228
▁fractura	-11.3228
▁derrame	-11.3228
▁expuesto	-11.3229
▁tenia	-11.3229
▁viral	-11.3231
▁Donde	-11.3232
▁Life	-11.3234
▁operativo	-11.3236
▁previa	-11.3237
▁Nac	-11.3238
▁Busca	-11.3238
▁obtendr	-11.324
▁acostumbra	-11.3245
▁guste	-11.3245
▁simplifica	-11.3254
▁provee	-11.3266
▁Gri	-11.327
▁escribía	-11.3276
ógrafo	-11.3277
▁Silic	-11.3279
▁entrenado	-11.328
▁transportar	-11.3289
isbol	-11.329
▁ahog	-11.3293
▁perdí	-11.3297
▁callej	-11.3299
▁alcanzado	-11.3306
▁Pasé	-11.3309
▁sesgo	-11.3311
▁corredor	-11.3339
▁soñar	-11.3342
▁urban	-11.3347
oraciones	-11.3365
▁bamb	-11.3367
▁convertirlo	-11.3383
▁obsesion	-11.3385
▁Scott	-11.3396
▁ceremonia	-11.3396
▁egipcio	-11.3396
▁fantasía	-11.3396
▁medioambiental	-11.3396
▁perturba	-11.3396
▁sostenibilidad	-11.3396
▁submarino	-11.3396
▁temporada	-11.3396
▁tránsito	-11.3396
▁exacto	-11.3396
▁sintetiza	-11.3396
▁suponía	-11.3396
▁forestal	-11.3396
▁show	-11.3396
▁Consejo	-11.3396
▁puerto	-11.3396
▁templo	-11.3396
▁diciéndo	-11.3396
▁abarca	-11.3396
▁herido	-11.3398
▁pasillo	-11.3399
▁1980	-11.3401
▁examinar	-11.3401
▁recrea	-11.3404
▁tonta	-11.3405
▁distinguir	-11.3405
▁Gore	-11.3407
▁veneno	-11.3419
▁inmigrante	-11.3425
▁tiburon	-11.3425
▁graduado	-11.3434
▁rana	-11.3443
▁reír	-11.3447
▁Tai	-11.3459
TI	-11.348
▁entendido	-11.3481
▁entrenador	-11.3481
▁vendedor	-11.3487
▁viera	-11.3494
▁aleatoria	-11.3508
lateral	-11.3511
pido	-11.3535
bed	-11.354
▁contrata	-11.3543
▁cuan	-11.3551
▁mineral	-11.3558
▁Virgin	-11.3568
▁aficionado	-11.3568
▁desemple	-11.3568
▁evolutivo	-11.3568
▁eólica	-11.3568
▁pulmón	-11.3568
▁ridículo	-11.3568
▁suicidio	-11.3568
▁Jeff	-11.3568
▁convirtiendo	-11.3568
▁Madre	-11.3568
▁decepcion	-11.3568
▁longev	-11.3568
▁ocasión	-11.3568
▁Funciona	-11.3568
▁Consider	-11.3568
▁imperio	-11.3568
▁relato	-11.3568
▁pastel	-11.3569
▁celos	-11.357
▁diarre	-11.3571
▁hilo	-11.3572
▁desecha	-11.3572
▁soportar	-11.3574
▁entropía	-11.3574
▁estética	-11.3576
▁trabaje	-11.3577
▁china	-11.3579
▁Suena	-11.3582
▁pastor	-11.3583
▁diera	-11.3583
▁traducir	-11.3585
▁espinal	-11.3594
sentimiento	-11.3595
▁PC	-11.3599
toño	-11.3599
fal	-11.36
▁Luc	-11.3607
▁cro	-11.3615
▁Bell	-11.3616
uch	-11.3619
▁percibe	-11.3625
▁aleatori	-11.3629
▁documental	-11.3648
▁cabe	-11.365
▁dicie	-11.3651
▁enseñaron	-11.3661
tracción	-11.3667
curri	-11.3683
▁Sient	-11.3694
▁extrae	-11.3699
▁inyec	-11.37
▁ajustar	-11.3708
20	-11.3713
▁lleve	-11.3721
▁oriental	-11.3722
▁centrar	-11.3724
migración	-11.3728
uj	-11.3733
▁invitado	-11.3742
bólica	-11.3744
▁National	-11.3744
▁arruina	-11.3744
▁estímulo	-11.3744
▁estúpido	-11.3744
▁facultad	-11.3744
▁fantasma	-11.3744
▁habitual	-11.3744
▁horizontal	-11.3744
▁silvestre	-11.3744
▁órden	-11.3744
▁descubre	-11.3744
▁Escucha	-11.3744
▁pluma	-11.3744
ércol	-11.3744
▁gustó	-11.3744
▁inversor	-11.3744
▁falleci	-11.3744
▁amaba	-11.3744
seguida	-11.3745
▁volcán	-11.3746
▁perdón	-11.3748
▁educativa	-11.3748
▁especula	-11.3748
▁satisfacer	-11.375
▁parcial	-11.3754
▁inversa	-11.3756
erry	-11.3759
▁the	-11.3761
▁caloría	-11.3762
finanza	-11.3764
▁Costa	-11.3765
idez	-11.3769
▁29	-11.3769
▁aliado	-11.3776
▁toque	-11.3781
uge	-11.3785
▁celebr	-11.3789
▁Yorker	-11.3789
▁monitorea	-11.379
▁empujar	-11.3802
▁Star	-11.3805
▁manipular	-11.3814
▁asisti	-11.3826
▁estructural	-11.3827
▁sangr	-11.385
▁Henr	-11.3881
▁contratar	-11.3892
▁asesinado	-11.3896
▁volador	-11.3912
▁capit	-11.3918
▁2012	-11.3922
▁aplaud	-11.3922
▁desconocida	-11.3922
▁despierta	-11.3922
▁extraterrestre	-11.3922
▁farmacéutica	-11.3922
▁ladrillo	-11.3922
▁magnífica	-11.3922
▁triángulo	-11.3922
▁umbral	-11.3922
▁pistola	-11.3922
▁solitario	-11.3922
▁empiece	-11.3922
▁tronco	-11.3922
▁traído	-11.3922
▁veterano	-11.3922
▁pantano	-11.3922
▁corregir	-11.3923
▁cautiv	-11.3923
▁ánimo	-11.3923
▁Qa	-11.3923
▁Ray	-11.3923
▁gama	-11.3924
▁1950	-11.3925
▁Carolin	-11.3926
▁disminuir	-11.3927
▁cazadores	-11.3928
▁Junto	-11.3929
▁humo	-11.3932
▁infecciones	-11.3934
well	-11.3935
▁febr	-11.3938
árselo	-11.394
▁foco	-11.3949
▁orador	-11.3951
▁estira	-11.3962
▁ponerle	-11.3966
▁pregunte	-11.3989
▁192	-11.3991
▁Arm	-11.4001
▁composi	-11.4001
▁tuit	-11.4005
▁extrac	-11.4012
▁narrador	-11.4021
RS	-11.4025
▁armario	-11.4028
▁Long	-11.4041
▁foca	-11.4055
▁Intenta	-11.4057
▁gener	-11.4077
▁relativ	-11.41
dimensional	-11.4104
▁abundante	-11.4104
▁alcohol	-11.4104
▁autónomo	-11.4104
▁bombero	-11.4104
▁castigo	-11.4104
▁fabuloso	-11.4104
▁geometría	-11.4104
▁hierro	-11.4104
▁intestino	-11.4104
▁israelí	-11.4104
▁monstruo	-11.4104
▁optimiza	-11.4104
▁pendiente	-11.4104
▁predecible	-11.4104
▁prisionero	-11.4104
▁sombrero	-11.4104
▁tsunami	-11.4104
▁diamante	-11.4104
▁pionero	-11.4104
▁bahía	-11.4104
▁articula	-11.4104
▁orbita	-11.4104
▁tortura	-11.4104
▁ausencia	-11.4104
▁externo	-11.4104
▁Moore	-11.4104
▁bordo	-11.4104
▁Regres	-11.4105
▁rinc	-11.4105
▁mancha	-11.4105
▁atender	-11.4105
▁horno	-11.4106
▁Mejor	-11.4106
▁abrumador	-11.4107
ómetro	-11.4107
▁abstracto	-11.4109
▁hundi	-11.4109
▁concebi	-11.411
▁Nick	-11.4113
▁delgada	-11.4118
▁ocurrirá	-11.4118
▁Matt	-11.4123
▁racis	-11.4128
▁flotando	-11.413
▁trascend	-11.4192
▁establecido	-11.4214
▁confirma	-11.4217
▁comedia	-11.4218
▁ced	-11.4221
▁disfrut	-11.4229
▁Pat	-11.4244
▁chimpancé	-11.4251
▁Jer	-11.4257
BM	-11.4258
▁equivale	-11.428
llones	-11.4281
▁asombro	-11.4282
mania	-11.4286
▁dramática	-11.4289
▁LED	-11.4289
▁Público	-11.4289
▁auténtico	-11.4289
▁cafetería	-11.4289
▁errónea	-11.4289
▁influye	-11.4289
▁lágrima	-11.4289
▁maquinaria	-11.4289
▁membrana	-11.4289
▁peculiar	-11.4289
▁píldora	-11.4289
▁yihad	-11.4289
▁hostil	-11.4289
▁textura	-11.4289
▁Organiza	-11.4289
▁invierte	-11.4289
▁antrop	-11.4289
▁descansa	-11.4289
▁natal	-11.429
▁bendi	-11.429
▁perfeccion	-11.429
▁cognitivo	-11.429
▁aérea	-11.429
▁discre	-11.429
▁protegida	-11.429
síntesis	-11.429
▁taxi	-11.4291
▁preferencia	-11.4293
▁Viene	-11.4295
▁55	-11.4295
▁alberga	-11.4298
▁incluy	-11.4302
▁Berl	-11.4312
▁SE	-11.4324
▁sutile	-11.4324
conexi	-11.4329
▁altruis	-11.4346
▁sincroniza	-11.4351
▁abandon	-11.4352
▁contaminante	-11.4366
▁integr	-11.437
▁cost	-11.4371
▁muestre	-11.4372
80	-11.4415
▁enfocar	-11.4415
▁neuronal	-11.4425
▁cumple	-11.4478
▁facilidad	-11.4478
▁inesperada	-11.4478
▁psicológica	-11.4478
trógeno	-11.4478
▁amistad	-11.4478
▁astronauta	-11.4478
▁ceguera	-11.4478
▁convincente	-11.4478
▁crímen	-11.4478
▁cuchillo	-11.4478
▁diminuta	-11.4478
▁discrimina	-11.4478
▁fórmula	-11.4478
▁hélice	-11.4478
▁iPod	-11.4478
▁muchísima	-11.4478
▁zumbido	-11.4478
▁colmena	-11.4478
▁fiebre	-11.4478
▁Derecho	-11.4478
▁Sky	-11.4478
▁expande	-11.4478
▁Leonard	-11.4478
▁iraní	-11.4478
▁interroga	-11.4478
▁mascota	-11.4478
▁vocal	-11.4478
▁Brian	-11.4478
▁rastro	-11.4479
▁enzima	-11.4479
▁conectiv	-11.4479
▁garra	-11.448
▁bonobo	-11.448
▁Parkin	-11.448
icultura	-11.448
▁servidor	-11.4483
▁máscara	-11.4484
▁impone	-11.4487
▁prostitu	-11.4488
gosto	-11.4488
▁difus	-11.4492
▁doce	-11.4493
▁comercializa	-11.4494
▁apila	-11.4498
▁llamarlo	-11.45
▁decora	-11.4502
spacio	-11.4502
▁sofisticada	-11.4503
▁cabra	-11.451
▁programador	-11.4512
▁enferm	-11.4526
▁adivinar	-11.4567
▁sucederá	-11.4573
▁grabado	-11.4592
▁contestar	-11.4599
▁preocupante	-11.46
iego	-11.4618
Cola	-11.4635
▁CD	-11.4649
▁medita	-11.4658
▁cadáver	-11.467
▁acontecimiento	-11.467
▁atraviesa	-11.467
▁clásica	-11.467
▁concurso	-11.467
▁costumbre	-11.467
▁empeora	-11.467
▁homosexual	-11.467
▁milímetro	-11.467
▁mosquitero	-11.467
▁objetiva	-11.467
▁récord	-11.467
▁secuoya	-11.467
▁síndrome	-11.467
▁tremendo	-11.467
▁vanguardi	-11.467
▁flecha	-11.467
▁excusa	-11.467
▁sucedía	-11.467
▁trivial	-11.467
▁Premio	-11.467
▁subestima	-11.467
▁afrontar	-11.467
▁enfria	-11.4671
▁comodidad	-11.4671
géne	-11.4671
▁concreta	-11.4672
▁Tony	-11.4672
▁penetra	-11.4672
▁paradoja	-11.4673
▁oración	-11.4674
▁senté	-11.4678
▁severa	-11.4681
▁trigo	-11.4683
▁Jane	-11.4688
▁margen	-11.469
▁Expl	-11.469
▁complica	-11.4691
▁beca	-11.4695
▁Green	-11.4704
▁llevaría	-11.4709
▁consistente	-11.4713
tiempo	-11.4717
material	-11.4717
▁asumi	-11.4735
▁Empece	-11.4777
▁comprobar	-11.4778
▁contact	-11.4783
▁considerable	-11.4802
▁Nata	-11.4809
pondría	-11.4851
▁rayo	-11.4852
▁diploma	-11.4866
▁Empieza	-11.4866
▁defensor	-11.4866
▁dinámico	-11.4866
▁humilde	-11.4866
▁limpie	-11.4866
▁reconozc	-11.4866
▁sospecha	-11.4866
▁gasolina	-11.4866
▁rehabilita	-11.4866
▁artístico	-11.4866
▁especific	-11.4866
▁inodoro	-11.4866
▁castiga	-11.4866
▁enciende	-11.4866
▁convierta	-11.4867
lítica	-11.4867
▁otorga	-11.4868
▁190	-11.4869
▁gestiona	-11.4869
▁País	-11.4869
▁Whit	-11.487
▁esparci	-11.487
attle	-11.4874
▁neutral	-11.4877
▁derrit	-11.4885
bruma	-11.4888
▁estanca	-11.4912
bric	-11.4918
13	-11.4924
▁desafiar	-11.4941
▁aument	-11.4946
▁fundador	-11.496
▁prepar	-11.4962
▁mentor	-11.4964
▁entendí	-11.5011
▁emerge	-11.5029
▁Mari	-11.5042
▁inmun	-11.5062
▁glamur	-11.5064
DI	-11.5065
▁Antártida	-11.5066
▁Aprende	-11.5066
▁Nelson	-11.5066
▁cobertura	-11.5066
▁desayuno	-11.5066
▁diámetro	-11.5066
▁hemisferio	-11.5066
▁idéntico	-11.5066
▁insulina	-11.5066
▁manifiest	-11.5066
▁perseguir	-11.5066
▁sacrifica	-11.5066
▁suburbio	-11.5066
▁viruela	-11.5066
▁Blanca	-11.5066
▁idiota	-11.5066
▁robótico	-11.5066
▁billón	-11.5066
▁cabina	-11.5066
▁propuls	-11.5066
métrico	-11.5066
▁email	-11.5066
▁confronta	-11.5066
▁provincia	-11.5066
▁Groen	-11.5066
▁eterna	-11.5066
▁ingenu	-11.5066
▁honra	-11.5066
▁mínima	-11.5066
▁gerente	-11.5067
▁drama	-11.5067
▁coincidencia	-11.5067
▁relaja	-11.5067
▁sopa	-11.5067
▁expliqu	-11.5068
▁reporta	-11.5069
▁consultor	-11.5069
▁helado	-11.5069
▁sugirie	-11.5071
▁Clint	-11.5071
▁Camin	-11.5073
▁Reciente	-11.5073
▁camisa	-11.5073
▁comprometer	-11.5075
▁humeda	-11.5078
▁alerta	-11.5079
▁Conoce	-11.5079
▁cuente	-11.5086
▁considere	-11.5089
14	-11.509
▁Hill	-11.5094
▁Franc	-11.5127
trató	-11.5128
▁Inf	-11.513
▁canto	-11.5152
▁volverá	-11.5155
▁recolec	-11.5166
▁mentir	-11.5181
▁injust	-11.5196
▁ambig	-11.5197
▁Hom	-11.5205
▁Park	-11.5226
ntropía	-11.5264
▁equilibr	-11.5269
▁sándwich	-11.527
▁Aprendí	-11.527
▁Investiga	-11.527
▁bombilla	-11.527
▁cangrejo	-11.527
▁dormitorio	-11.527
▁espectador	-11.527
▁fortuna	-11.527
▁monumento	-11.527
▁precipita	-11.527
▁presidencia	-11.527
▁primitiva	-11.527
▁sensibilidad	-11.527
▁tortuga	-11.527
▁tuberculosis	-11.527
▁válvula	-11.527
▁rediseñ	-11.527
Global	-11.527
▁hueco	-11.527
▁deportivo	-11.5271
▁desprend	-11.5271
▁divide	-11.5271
ísimo	-11.5271
▁traves	-11.5271
▁rock	-11.5271
▁protegido	-11.5272
▁ejecutivo	-11.5273
▁Adam	-11.5273
▁movía	-11.5273
▁obtenido	-11.5274
▁racial	-11.5274
▁gracia	-11.5274
▁admit	-11.5278
▁pariente	-11.5278
▁Justi	-11.5279
▁lamentable	-11.5279
▁obsesionado	-11.5283
▁sabia	-11.5285
▁tradicion	-11.5286
▁64	-11.5287
▁2002	-11.5291
▁subiendo	-11.5293
▁expres	-11.5294
▁SP	-11.5295
▁37	-11.5297
▁apasionante	-11.5304
▁West	-11.5327
EC	-11.533
incol	-11.5343
▁pesada	-11.5356
▁cañ	-11.5374
▁Bre	-11.5416
▁coloc	-11.5416
▁absor	-11.5426
▁agud	-11.5427
▁Sara	-11.5446
▁impreso	-11.547
patógeno	-11.5479
▁Humanidad	-11.5479
▁conlleva	-11.5479
▁desperdicia	-11.5479
▁diminuto	-11.5479
▁doméstica	-11.5479
▁duerme	-11.5479
▁humildad	-11.5479
▁indígena	-11.5479
▁intensivo	-11.5479
▁mamografía	-11.5479
▁pliegue	-11.5479
▁pronóstico	-11.5479
▁recomenda	-11.5479
▁residual	-11.5479
▁tatuaje	-11.5479
▁tripula	-11.5479
▁virtud	-11.5479
▁vosotros	-11.5479
▁bienvenida	-11.5479
▁conceptual	-11.5479
▁perpetu	-11.5479
▁Turquía	-11.5479
▁sugerencia	-11.5479
▁ícono	-11.5479
▁minoría	-11.5479
▁melodía	-11.5479
▁intriga	-11.5479
▁Disney	-11.5479
▁segmento	-11.5479
▁protector	-11.5479
▁ecológico	-11.548
▁cheque	-11.548
▁arcill	-11.548
▁vendrá	-11.548
▁1970	-11.5483
▁misterioso	-11.5488
▁utiliz	-11.549
▁Alex	-11.5493
▁instituto	-11.5495
▁boda	-11.55
▁espada	-11.5502
▁Sentí	-11.5504
ísmo	-11.5505
▁aburrida	-11.5508
▁postal	-11.5511
▁Cambi	-11.5512
▁bota	-11.5522
▁esperaría	-11.5523
subjetiv	-11.5526
▁mostraba	-11.553
▁linea	-11.5549
▁fragment	-11.5549
mbul	-11.5552
▁desee	-11.5569
▁amante	-11.5593
▁Parte	-11.5595
émoslo	-11.5598
▁experiment	-11.5599
ER	-11.5603
▁diagnosticar	-11.5607
drena	-11.5639
▁comprendí	-11.5678
▁Sant	-11.5681
▁neu	-11.5689
▁drástica	-11.5691
▁transistor	-11.5691
▁Bangladesh	-11.5691
▁Gandhi	-11.5691
▁alfombra	-11.5691
▁asequible	-11.5691
▁contemporáneo	-11.5691
▁controversia	-11.5691
▁dopamina	-11.5691
▁déficit	-11.5691
▁escéptico	-11.5691
▁hiciste	-11.5691
▁urgente	-11.5691
▁desconcert	-11.5691
▁ocurría	-11.5691
▁fresco	-11.5691
▁City	-11.5691
▁Historia	-11.5691
▁altitud	-11.5692
▁cierra	-11.5692
▁derriba	-11.5692
▁distorsi	-11.5692
▁pirata	-11.5692
▁enojado	-11.5692
▁civilizacion	-11.5692
▁armonía	-11.5692
▁Descubri	-11.5693
▁conquista	-11.5693
▁invadi	-11.5693
▁exclusiva	-11.5693
▁kg	-11.5693
▁ejerce	-11.5693
▁2020	-11.5696
▁orilla	-11.5696
▁descarta	-11.5696
▁atributo	-11.5698
▁96	-11.57
▁cerrada	-11.5709
▁renunciar	-11.571
▁escuchen	-11.5714
▁gratifica	-11.5715
▁polariza	-11.5721
▁resolvi	-11.5745
produc	-11.5757
▁turno	-11.5758
▁72	-11.5789
▁enfrent	-11.5799
▁enfrente	-11.5821
▁gras	-11.5854
OS	-11.5895
▁haciéndo	-11.59
▁atribu	-11.5902
▁CRISPR	-11.5909
▁Europea	-11.5909
▁Gobierno	-11.5909
▁Indonesi	-11.5909
▁Océano	-11.5909
▁acústica	-11.5909
▁catástrofe	-11.5909
▁europea	-11.5909
▁japonés	-11.5909
▁permitía	-11.5909
▁protocélula	-11.5909
▁proveniente	-11.5909
▁rompecabezas	-11.5909
▁simultánea	-11.5909
▁utilidad	-11.5909
▁2030	-11.5909
▁recopila	-11.5909
▁hallazgo	-11.5909
▁deforesta	-11.5909
▁aplasta	-11.5909
▁Crecí	-11.5909
▁Kenne	-11.5909
▁contagio	-11.5909
▁ósea	-11.5909
▁Tanzan	-11.5909
▁Humano	-11.5909
▁saldrá	-11.5909
▁sentencia	-11.5909
▁suelta	-11.5911
▁tablero	-11.5911
▁Brit	-11.5911
▁Titán	-11.5911
▁ético	-11.5911
▁Second	-11.5912
▁Alexand	-11.5913
▁retroceder	-11.5915
▁tabl	-11.5915
▁fertili	-11.5915
▁exigi	-11.5915
▁traga	-11.5916
▁impide	-11.5917
imán	-11.5918
▁Conform	-11.592
lvani	-11.5921
▁Quien	-11.5922
▁barro	-11.5933
▁larva	-11.5933
▁acera	-11.5933
▁funcionario	-11.5935
▁modern	-11.5948
▁merc	-11.5953
▁caracteriza	-11.5975
scripciones	-11.5988
▁compromet	-11.6
NT	-11.6023
▁devastador	-11.6045
▁Llev	-11.6046
ersey	-11.6059
RA	-11.607
▁votante	-11.6098
▁inmediata	-11.6105
eficacia	-11.6121
BA	-11.6128
▁anatom	-11.6131
▁aterroriz	-11.6131
▁autónoma	-11.6131
▁cilindro	-11.6131
▁contempla	-11.6131
▁demócrata	-11.6131
▁desempeña	-11.6131
▁esquizofrenia	-11.6131
▁estigma	-11.6131
▁fenomenal	-11.6131
▁fortaleza	-11.6131
▁inmortal	-11.6131
▁italiano	-11.6131
▁mezquita	-11.6131
▁pacífica	-11.6131
▁pandemia	-11.6131
▁propietario	-11.6131
▁sanitaria	-11.6131
▁televisor	-11.6131
▁banquero	-11.6131
▁cariño	-11.6131
▁intermedia	-11.6131
▁irracional	-11.6131
▁premisa	-11.6131
▁pulgada	-11.6131
▁cascada	-11.6131
▁fertilizante	-11.6131
▁incidente	-11.6131
▁liviano	-11.6131
▁falsifica	-11.6131
▁Bronx	-11.6131
▁alemán	-11.6131
▁cineasta	-11.6131
▁forzada	-11.6131
▁tangible	-11.6131
▁Pregunt	-11.6131
▁embarca	-11.6131
▁crudo	-11.6131
▁Philip	-11.6131
▁veinte	-11.6131
▁Herman	-11.6131
▁extingui	-11.6132
▁acomod	-11.6132
▁marrón	-11.6132
▁conejo	-11.6132
▁detenido	-11.6133
▁Conocí	-11.6133
▁congesti	-11.6133
▁acento	-11.6133
▁Bah	-11.6134
▁icono	-11.6134
▁cuántico	-11.6134
▁aparecier	-11.6136
▁carece	-11.6138
▁reuní	-11.6138
▁tuyo	-11.6139
▁Seguridad	-11.6139
▁tigre	-11.6141
▁tristeza	-11.6141
sacó	-11.6143
▁Jenn	-11.6144
▁bici	-11.6151
▁46	-11.6152
▁gaf	-11.6174
▁refrigera	-11.6187
▁Intent	-11.6195
cubri	-11.62
▁cantante	-11.6205
▁180	-11.6209
▁pene	-11.6214
SB	-11.6223
▁levante	-11.6231
ifique	-11.6241
,3	-11.6341
▁soluciona	-11.6347
▁Audi	-11.6355
atrimonio	-11.6358
▁hindú	-11.6358
ciclopedia	-11.6358
terráneo	-11.6358
▁Desarrollo	-11.6358
▁absurdo	-11.6358
▁adolescencia	-11.6358
▁automatiza	-11.6358
▁británica	-11.6358
▁cotidiano	-11.6358
▁desventaja	-11.6358
▁domingo	-11.6358
▁extranjera	-11.6358
▁improbable	-11.6358
▁indigna	-11.6358
▁judicial	-11.6358
▁máxima	-11.6358
▁primitivo	-11.6358
▁primordial	-11.6358
▁republicano	-11.6358
▁toxina	-11.6358
▁arrogan	-11.6358
▁requisito	-11.6358
▁sólida	-11.6358
▁conveniente	-11.6358
▁camello	-11.6358
▁Conozc	-11.6358
▁holand	-11.6358
▁termino	-11.6359
▁lavadora	-11.6359
▁mutila	-11.6359
▁apari	-11.6359
▁delfín	-11.636
▁complement	-11.636
▁bolso	-11.6362
▁gritando	-11.6366
▁sujeta	-11.6369
▁cadera	-11.6369
▁misteriosa	-11.637
▁luch	-11.637
julio	-11.6372
▁cobre	-11.6374
▁MG	-11.6375
▁abstracta	-11.6381
▁tuviese	-11.6387
▁intimidad	-11.639
▁junt	-11.6407
▁rap	-11.6427
▁colorea	-11.6445
poniéndo	-11.6451
▁Kev	-11.6452
▁lidia	-11.6457
▁comproba	-11.6462
▁mirándo	-11.6488
firmación	-11.6498
▁resolv	-11.6515
versus	-11.652
▁Viv	-11.6535
▁renunci	-11.6571
▁renova	-11.6581
duzca	-11.6588
▁Andrew	-11.6591
▁Brooklyn	-11.6591
▁Laboratorio	-11.6591
▁SMS	-11.6591
▁Shakespeare	-11.6591
▁Shangh	-11.6591
▁Soviética	-11.6591
▁Square	-11.6591
▁amanecer	-11.6591
▁ambicioso	-11.6591
▁arbusto	-11.6591
▁biotecnología	-11.6591
▁créan	-11.6591
▁cucaracha	-11.6591
▁demográfico	-11.6591
▁despierto	-11.6591
▁escondida	-11.6591
▁evapora	-11.6591
▁inaugura	-11.6591
▁interactiva	-11.6591
▁luciérnaga	-11.6591
▁mantenimiento	-11.6591
▁marginal	-11.6591
▁metabolismo	-11.6591
▁pesadilla	-11.6591
▁residencia	-11.6591
▁sacudi	-11.6591
▁satelital	-11.6591
▁sótano	-11.6591
▁ARN	-11.6591
▁aislada	-11.6591
▁moviéndose	-11.6591
▁ópera	-11.6591
▁bromea	-11.6591
▁consenso	-11.6591
▁deposita	-11.6591
▁desnudo	-11.6591
▁Charli	-11.6591
▁acorda	-11.6591
▁joya	-11.6591
▁cartón	-11.6591
▁esperma	-11.6591
▁hurac	-11.6591
▁previo	-11.6592
▁elegí	-11.6592
▁perdemos	-11.6592
▁plaga	-11.6592
▁insisti	-11.6592
▁dirigí	-11.6593
▁estuviese	-11.6595
▁aparca	-11.6597
▁sabio	-11.6598
▁desliza	-11.6599
▁Acc	-11.6599
▁Albert	-11.6601
▁distribuido	-11.6603
▁procesador	-11.6671
▁Vive	-11.6675
▁operador	-11.6699
ustria	-11.6699
MI	-11.6702
traté	-11.6728
▁miseri	-11.6734
▁dibuj	-11.6747
▁Iraq	-11.6758
▁exacta	-11.6795
▁deprim	-11.6799
▁lectore	-11.6801
▁involucr	-11.6816
▁Cierta	-11.6829
▁vulnerabilidad	-11.6829
▁Júpiter	-11.6829
▁Oriental	-11.6829
▁académica	-11.6829
▁aluminio	-11.6829
▁anfitri	-11.6829
▁electoral	-11.6829
▁humanitaria	-11.6829
▁idéntica	-11.6829
▁intuitivo	-11.6829
▁manufactura	-11.6829
▁protocolo	-11.6829
▁recipiente	-11.6829
▁semejante	-11.6829
▁superficial	-11.6829
▁temblor	-11.6829
▁urgencia	-11.6829
▁Igual	-11.6829
▁Utiliza	-11.6829
▁sanitario	-11.6829
▁tacto	-11.6829
▁fusiona	-11.6829
▁levadura	-11.6829
▁pizza	-11.6829
▁cereal	-11.6829
▁sintética	-11.6829
▁descanso	-11.6829
▁espiral	-11.6829
▁Black	-11.6829
▁prevención	-11.6829
▁pastilla	-11.6829
▁Decidi	-11.6829
▁nocturno	-11.6829
▁garaje	-11.6829
▁prolong	-11.6829
▁gallina	-11.6829
▁derreti	-11.6829
▁huele	-11.6829
▁rentable	-11.683
▁destello	-11.683
▁caído	-11.683
▁congrega	-11.683
▁rebota	-11.6832
▁sobreviviente	-11.6833
▁mapea	-11.6835
▁narc	-11.6836
▁difundi	-11.684
▁comentar	-11.6841
▁dolorosa	-11.6859
rizon	-11.6859
▁flotante	-11.6873
▁interface	-11.689
▁retorno	-11.6898
mostró	-11.6923
▁devasta	-11.6931
▁comprend	-11.6961
▁neutr	-11.698
▁preocup	-11.6984
▁bebe	-11.6987
▁Rand	-11.6992
ivamente	-11.7024
▁inverti	-11.703
▁arrastr	-11.7032
▁espina	-11.7038
▁recuper	-11.704
▁Stephen	-11.7073
▁Vietnam	-11.7073
▁aislamiento	-11.7073
▁alienígena	-11.7073
▁alimenticia	-11.7073
▁aprenda	-11.7073
▁auténtica	-11.7073
▁compasivo	-11.7073
▁dificil	-11.7073
▁espontánea	-11.7073
▁estereotip	-11.7073
▁estúpida	-11.7073
▁fabulosa	-11.7073
▁hamburguesa	-11.7073
▁híbrido	-11.7073
▁increible	-11.7073
▁incómoda	-11.7073
▁jerarquía	-11.7073
▁multinacional	-11.7073
▁parámetro	-11.7073
▁pronuncia	-11.7073
▁resuelve	-11.7073
▁sofá	-11.7073
▁trágico	-11.7073
▁Construi	-11.7073
▁Especial	-11.7073
▁razonamiento	-11.7073
▁intenso	-11.7073
▁Etapa	-11.7073
▁acuerda	-11.7073
▁Decidí	-11.7073
▁crezca	-11.7073
▁clona	-11.7073
▁retiro	-11.7073
▁cemento	-11.7073
▁obrero	-11.7073
▁propaganda	-11.7073
▁reclama	-11.7073
▁sexto	-11.7074
▁incluí	-11.7074
▁Damas	-11.7075
nomía	-11.7075
▁autonomía	-11.7075
▁fundamento	-11.7076
▁lotería	-11.7076
▁Nike	-11.7079
▁fatal	-11.7081
▁fricci	-11.7081
▁oprim	-11.7087
▁sequía	-11.7091
▁Brad	-11.7094
▁persiste	-11.7104
▁expresion	-11.7141
spiración	-11.7143
apsi	-11.7156
▁competidor	-11.718
▁particip	-11.7207
▁pint	-11.7208
Bay	-11.7239
▁Result	-11.7239
▁refrigerador	-11.7261
cogida	-11.7287
▁abstrac	-11.7292
▁acced	-11.7307
▁bioluminiscen	-11.7323
▁insuficien	-11.7323
▁DVD	-11.7323
▁acondicionado	-11.7323
▁artefacto	-11.7323
▁climática	-11.7323
▁fluctua	-11.7323
▁intuitiva	-11.7323
▁jeringa	-11.7323
▁microbiana	-11.7323
▁módulo	-11.7323
▁pesticida	-11.7323
▁disculpa	-11.7323
▁gemelo	-11.7323
▁introduj	-11.7323
▁permaneci	-11.7323
▁Craig	-11.7323
▁festival	-11.7323
▁Atlant	-11.7323
▁Mandela	-11.7323
▁Arthu	-11.7323
▁pirate	-11.7323
▁contenedor	-11.7323
▁farmac	-11.7323
▁Snow	-11.7323
▁conectoma	-11.7323
▁complace	-11.7323
▁redonda	-11.7324
▁Sahar	-11.7324
▁sobrepasa	-11.7324
▁nativo	-11.7324
▁kit	-11.7324
▁cól	-11.7324
▁binario	-11.7324
▁psicológico	-11.7325
▁Benjam	-11.7325
▁auditorio	-11.7325
▁geografía	-11.7325
▁padece	-11.7325
▁reconstruc	-11.7325
▁sordo	-11.7325
▁Control	-11.7325
▁agradecido	-11.7326
▁caracol	-11.7326
▁már	-11.7326
▁freno	-11.7327
▁aterrizaje	-11.7328
▁abusa	-11.7329
▁convencerlos	-11.7329
▁1900	-11.733
▁munici	-11.7331
▁sentó	-11.7333
▁Auto	-11.7333
▁confía	-11.7336
▁recep	-11.7345
▁sabid	-11.7348
▁acost	-11.735
fideli	-11.735
▁frag	-11.7353
▁bono	-11.736
idge	-11.7378
▁ocasional	-11.7382
▁recorre	-11.7405
▁kilómetro	-11.7424
▁camaró	-11.7473
▁Natural	-11.7473
abul	-11.7477
inició	-11.7483
▁aboga	-11.7492
▁Salv	-11.751
alai	-11.7533
▁honest	-11.7556
,7	-11.7563
▁neandertal	-11.7579
▁telecomunica	-11.7579
▁accidental	-11.7579
▁regional	-11.7579
▁Academi	-11.7579
▁Increíble	-11.7579
▁adversidad	-11.7579
▁aniversario	-11.7579
▁computar	-11.7579
▁elemental	-11.7579
▁flexibilidad	-11.7579
▁guerrero	-11.7579
▁intrínseca	-11.7579
▁leopardo	-11.7579
▁sábado	-11.7579
▁triunfa	-11.7579
▁vocabulario	-11.7579
▁divertir	-11.7579
▁dígito	-11.7579
▁publicita	-11.7579
▁vitamina	-11.7579
▁distinción	-11.7579
▁vientre	-11.7579
▁hiciéra	-11.7579
▁mutaciones	-11.7579
▁Sucede	-11.7579
▁ajuste	-11.7579
▁enjambre	-11.7579
▁ironía	-11.758
▁silbido	-11.758
▁tabú	-11.758
▁Fuerza	-11.758
▁Sierra	-11.758
▁invirtie	-11.758
▁audaz	-11.758
fobia	-11.758
▁Ciro	-11.758
▁Norden	-11.758
▁Emma	-11.7581
▁mantenga	-11.7581
▁paraíso	-11.7581
▁sexy	-11.7581
▁boom	-11.7582
▁empiez	-11.7582
▁produzca	-11.7583
▁exige	-11.7583
▁Secret	-11.7584
▁consciencia	-11.7585
▁ingeniosa	-11.7586
▁enganch	-11.7587
▁excitante	-11.7593
monía	-11.7602
▁declar	-11.7603
▁ángel	-11.7614
▁esquia	-11.762
▁Escribi	-11.7622
▁vigil	-11.7625
struyendo	-11.7677
clav	-11.7679
▁distribuye	-11.7684
seguridad	-11.7693
▁semilla	-11.7694
▁import	-11.7719
▁suministr	-11.7751
▁recorri	-11.7794
▁prest	-11.7802
evada	-11.7813
▁distingu	-11.7828
▁excita	-11.7833
▁inherente	-11.7842
▁Geographic	-11.7842
▁angustia	-11.7842
▁antecedente	-11.7842
▁atractiva	-11.7842
▁calendario	-11.7842
▁desacuerdo	-11.7842
▁diplomático	-11.7842
▁electromagnétic	-11.7842
▁guitarra	-11.7842
▁hambruna	-11.7842
▁infierno	-11.7842
▁influir	-11.7842
▁maestría	-11.7842
▁píxel	-11.7842
▁sacrificio	-11.7842
▁subsahariana	-11.7842
▁ultrasonido	-11.7842
▁ultravioleta	-11.7842
▁asentamiento	-11.7842
▁micelio	-11.7842
▁denuncia	-11.7842
▁frasco	-11.7842
▁parlamento	-11.7842
▁Informa	-11.7842
▁amputa	-11.7842
▁caverna	-11.7842
▁galleta	-11.7842
▁suponga	-11.7842
▁repentinamente	-11.7842
▁teórico	-11.7842
clive	-11.7843
▁Wolf	-11.7843
▁rapidez	-11.7843
▁camiseta	-11.7843
▁nigerian	-11.7843
▁recesión	-11.7843
▁sopla	-11.7843
▁herencia	-11.7843
▁torpe	-11.7843
▁Habrá	-11.7843
▁tambor	-11.7843
▁prometedor	-11.7843
▁vendría	-11.7844
▁evoca	-11.7844
▁Acab	-11.7844
▁fractal	-11.7845
▁traductor	-11.7846
▁aroma	-11.7847
▁visor	-11.7847
▁pintor	-11.7847
▁forzar	-11.7849
▁Ponga	-11.7851
▁olfat	-11.7853
▁anunci	-11.786
▁anota	-11.7871
▁apunt	-11.7874
▁inspec	-11.7884
gér	-11.79
▁corona	-11.7901
americano	-11.7962
▁alej	-11.8008
▁pudié	-11.8042
▁centr	-11.8047
▁nosotr	-11.8055
▁rind	-11.8057
q	-11.8059
▁periodis	-11.8088
construi	-11.811
▁coincide	-11.8111
▁Columbi	-11.8113
▁Industrial	-11.8113
▁ajedre	-11.8113
▁auricular	-11.8113
▁cálido	-11.8113
▁impactó	-11.8113
▁inflexi	-11.8113
▁intermedio	-11.8113
▁líquida	-11.8113
▁mariposa	-11.8113
▁oceánica	-11.8113
▁palestino	-11.8113
▁remodela	-11.8113
▁reutiliza	-11.8113
▁Jordan	-11.8113
▁impedir	-11.8113
▁extensa	-11.8113
▁resilien	-11.8113
▁resorte	-11.8113
▁Kenya	-11.8113
▁bondad	-11.8113
▁bronce	-11.8113
▁descenso	-11.8113
▁derrumb	-11.8113
▁Mayor	-11.8113
▁Depende	-11.8113
▁Literal	-11.8113
▁aéreo	-11.8113
▁muscular	-11.8113
▁anoche	-11.8113
▁ligero	-11.8113
▁novedad	-11.8113
▁maqueta	-11.8113
▁jaula	-11.8113
▁plata	-11.8113
▁esforza	-11.8113
▁Yemen	-11.8113
▁lejana	-11.8113
▁geográfica	-11.8113
▁recomiend	-11.8114
▁Arist	-11.8115
▁sincero	-11.8115
▁predij	-11.8115
▁ríe	-11.8115
elect	-11.8116
▁drag	-11.8116
▁reparti	-11.8118
▁octav	-11.8119
▁verbal	-11.8139
▁posesi	-11.8142
▁jab	-11.8149
▁comprometi	-11.8157
▁trep	-11.8174
▁pasiva	-11.8202
▁digitaliza	-11.8229
normal	-11.8241
lrededor	-11.8243
▁demora	-11.8252
3.000	-11.8282
▁sincron	-11.8299
angular	-11.8316
ordenada	-11.8319
▁circun	-11.839
▁Ministerio	-11.839
▁Parlamento	-11.839
▁alfabetiza	-11.839
▁baloncesto	-11.839
▁cigarrillo	-11.839
▁dramático	-11.839
▁libélula	-11.839
▁neurocientífic	-11.839
▁omnipresente	-11.839
▁quimioterapia	-11.839
▁álbum	-11.839
▁Parecía	-11.8391
▁factura	-11.8391
▁infecciosa	-11.8391
▁lienzo	-11.8391
▁Narrador	-11.8391
▁destruido	-11.8391
▁propenso	-11.8391
▁íntimo	-11.8391
▁íntima	-11.8391
▁cuenca	-11.8391
▁Defini	-11.8391
▁gluco	-11.8391
▁indicio	-11.8391
▁recibo	-11.8391
▁Irland	-11.8391
▁Muestra	-11.8391
▁deliberada	-11.8391
▁favela	-11.8391
▁confuso	-11.8391
▁vagina	-11.8391
▁Diseña	-11.8391
▁piscina	-11.8391
▁mosaico	-11.8391
▁digno	-11.8391
▁tomografía	-11.8392
▁deprimido	-11.8393
▁rumb	-11.8393
openha	-11.8393
▁referi	-11.8393
▁orgullosa	-11.8395
▁prefier	-11.8395
aternidad	-11.8398
pugna	-11.8399
▁opone	-11.8402
▁Chuc	-11.8404
▁boton	-11.8411
▁Viaj	-11.8412
▁percib	-11.8427
▁cocin	-11.8454
recolector	-11.8455
▁gramo	-11.8456
▁desert	-11.8482
▁cabal	-11.8485
estadounidense	-11.8527
precio	-11.8588
ritmo	-11.8628
▁intimida	-11.8637
▁vuelv	-11.8642
▁automática	-11.8642
▁reinven	-11.8674
▁Prince	-11.8676
▁Administra	-11.8676
▁adicto	-11.8676
▁alternativo	-11.8676
▁arquitectónica	-11.8676
▁césped	-11.8676
▁desacelera	-11.8676
▁disturbio	-11.8676
▁hidro	-11.8676
▁mandíbula	-11.8676
▁pedacito	-11.8676
▁precipicio	-11.8676
▁puzzle	-11.8676
▁romántico	-11.8676
▁testimonio	-11.8676
▁vuestro	-11.8676
▁calienta	-11.8676
▁descompone	-11.8676
▁disfraz	-11.8676
▁chorro	-11.8676
▁redujo	-11.8676
▁calamar	-11.8676
▁Beij	-11.8676
jazz	-11.8676
▁comerciante	-11.8676
▁mutación	-11.8676
▁editorial	-11.8676
▁forzado	-11.8676
▁atómica	-11.8676
▁Kong	-11.8676
▁multa	-11.8677
▁Apolo	-11.8677
▁pulsa	-11.8677
▁Blue	-11.8677
▁Opera	-11.8677
▁priori	-11.8677
▁migratoria	-11.8677
▁incorrecto	-11.8677
▁destinado	-11.8677
▁tribal	-11.8678
▁compositor	-11.8678
hhh	-11.8679
▁reinventar	-11.8679
▁ambición	-11.8679
▁vestir	-11.8679
▁Hawai	-11.8683
Bot	-11.8692
pagó	-11.8699
▁desarm	-11.8744
▁Qu	-11.8766
oots	-11.8777
▁Intel	-11.8808
colm	-11.881
▁Suiz	-11.8832
ddin	-11.885
▁audac	-11.8869
▁genómic	-11.8872
▁Indus	-11.8889
▁abrí	-11.8898
▁reconcilia	-11.8899
▁agreg	-11.8911
▁nanotecn	-11.897
▁irregular	-11.897
▁similitud	-11.897
mobiliario	-11.897
▁Jefferson	-11.897
▁Sylvi	-11.897
▁adquisi	-11.897
▁anticuerpo	-11.897
▁cocodrilo	-11.897
▁conmovedor	-11.897
▁delicioso	-11.897
▁desintegr	-11.897
▁esquelético	-11.897
▁excelencia	-11.897
▁gratuito	-11.897
▁intacto	-11.897
▁manuscrito	-11.897
▁maximizar	-11.897
▁pareciera	-11.897
▁privilegia	-11.897
▁revuel	-11.897
▁satisfecho	-11.897
▁táctica	-11.897
▁visceral	-11.897
▁afgano	-11.897
▁amplifica	-11.897
▁Argentin	-11.897
▁Daniel	-11.897
▁sintético	-11.897
▁crecieron	-11.897
▁detallada	-11.897
▁automotri	-11.897
▁bigote	-11.897
▁prisiones	-11.897
▁Piéns	-11.897
▁detallado	-11.897
▁fanático	-11.897
▁volúmen	-11.897
▁sustituto	-11.897
▁Nathan	-11.897
▁inestable	-11.897
▁pasivo	-11.897
▁Asocia	-11.8971
▁Fried	-11.8971
▁erup	-11.8971
▁Negro	-11.8971
▁estricta	-11.8972
▁cartograf	-11.8973
▁cuota	-11.8973
▁sincera	-11.8973
▁Doug	-11.8973
▁inmersi	-11.8975
▁etano	-11.8975
▁Allen	-11.898
▁clava	-11.8985
▁Babb	-11.8986
▁nerd	-11.8998
▁confusi	-11.9018
▁ofend	-11.903
▁Empez	-11.909
partid	-11.9109
morfo	-11.9144
caídas	-11.9172
▁proteg	-11.9214
scubrí	-11.9224
▁revolucione	-11.9244
▁giga	-11.9256
▁perfec	-11.9256
▁exclusi	-11.9271
▁trayecto	-11.9272
▁ancestral	-11.9273
usulmán	-11.9273
▁Galápagos	-11.9273
▁Iglesia	-11.9273
▁República	-11.9273
▁advertencia	-11.9273
▁arrepentimiento	-11.9273
▁canadiense	-11.9273
▁cerámica	-11.9273
▁décima	-11.9273
▁garabato	-11.9273
▁humanitario	-11.9273
▁iPad	-11.9273
▁metodología	-11.9273
▁minimizar	-11.9273
▁musulmana	-11.9273
▁retrospectiva	-11.9273
▁romántica	-11.9273
▁universitaria	-11.9273
▁étnico	-11.9273
▁Civil	-11.9273
▁aeronave	-11.9273
▁democratiza	-11.9273
▁gamma	-11.9273
amboya	-11.9273
▁fresca	-11.9273
▁mamut	-11.9273
▁rechazo	-11.9273
▁telefon	-11.9273
▁tontería	-11.9273
▁dispone	-11.9273
▁1.2	-11.9273
▁encripta	-11.9273
▁Record	-11.9273
▁Louis	-11.9273
▁utilic	-11.9273
▁Wood	-11.9273
▁consolid	-11.9274
▁adentrar	-11.9274
▁rival	-11.9274
▁requerir	-11.9274
▁descenden	-11.9274
▁higi	-11.9274
▁choza	-11.9274
▁autoritari	-11.9275
▁francesa	-11.9275
▁atajo	-11.9275
▁suizo	-11.9276
▁astronom	-11.9276
▁tribunal	-11.9276
▁asume	-11.9277
▁abismo	-11.9278
▁perdur	-11.9398
▁estabiliz	-11.9417
conducido	-11.9495
▁alcanz	-11.955
▁grat	-11.955
nergía	-11.958
▁hábil	-11.9586
▁Biblioteca	-11.9586
▁Himalaya	-11.9586
▁Joseph	-11.9586
▁bancaria	-11.9586
▁caricaturista	-11.9586
▁comience	-11.9586
▁compañera	-11.9586
▁cívica	-11.9586
▁cósmico	-11.9586
▁cúpula	-11.9586
▁excremento	-11.9586
▁heroína	-11.9586
▁islámico	-11.9586
▁maniobra	-11.9586
▁ridícula	-11.9586
▁trágica	-11.9586
▁térmica	-11.9586
▁Medicina	-11.9586
▁emergi	-11.9586
▁empodera	-11.9586
▁escaneo	-11.9586
▁gruesa	-11.9586
▁estadístico	-11.9586
▁cementerio	-11.9586
▁cepill	-11.9586
▁materna	-11.9586
▁confundido	-11.9586
▁obedec	-11.9586
▁carrito	-11.9586
▁predisposici	-11.9586
▁alianza	-11.9586
▁Jean	-11.9586
▁Archi	-11.9586
▁norteamericano	-11.9587
▁silencia	-11.9587
▁autobus	-11.9587
▁ejerci	-11.9588
▁asfalt	-11.9588
▁cepa	-11.9588
▁contenía	-11.9593
▁psiqu	-11.9596
▁torta	-11.9596
▁camarone	-11.9599
▁elija	-11.9599
▁Josh	-11.9602
▁concep	-11.9607
▁esculp	-11.9654
▁2.0	-11.9656
▁condiciona	-11.9694
▁represent	-11.9695
▁explor	-11.9741
▁entrevist	-11.9766
▁fluid	-11.9797
ltimo	-11.985
▁oblig	-11.9858
▁clí	-11.9908
nglés	-11.9908
▁Massachus	-11.9908
▁táctil	-11.9908
▁Aprendi	-11.9908
▁Genial	-11.9908
▁Guardia	-11.9908
▁Luther	-11.9908
▁Servicio	-11.9908
▁Somalia	-11.9908
▁Suprema	-11.9908
▁TEDTalk	-11.9908
▁cachorro	-11.9908
▁comunitaria	-11.9908
▁convirtiéndo	-11.9908
▁cráter	-11.9908
▁cuadrícula	-11.9908
▁cápsula	-11.9908
▁descubierta	-11.9908
▁divulga	-11.9908
▁intangible	-11.9908
▁métrica	-11.9908
▁orfanato	-11.9908
▁psiquiatra	-11.9908
▁rectángulo	-11.9908
▁romance	-11.9908
▁cuantifica	-11.9908
▁deteriora	-11.9908
▁mochila	-11.9908
▁novedoso	-11.9908
▁desafía	-11.9908
▁lesbiana	-11.9908
▁transferir	-11.9908
▁crónica	-11.9908
▁pizarra	-11.9908
▁escombro	-11.9908
▁inmerso	-11.9908
▁coreano	-11.9908
▁acorde	-11.9909
▁mantenido	-11.9909
▁corbata	-11.9909
▁conjetura	-11.9909
▁baraja	-11.9909
▁chispa	-11.9909
▁ducha	-11.9909
▁miserable	-11.9909
▁simios	-11.9909
▁macro	-11.9909
▁alambre	-11.991
▁apostar	-11.9911
▁Invent	-11.9911
▁bolet	-11.9911
▁rendir	-11.9912
▁encarna	-11.9912
▁arrasa	-11.9914
▁descuid	-11.9914
gham	-11.9932
▁Siguie	-11.9937
urbanización	-11.9968
▁explot	-11.9983
▁traducid	-12.0006
▁hubié	-12.0021
ambia	-12.0092
pondrá	-12.0145
▁despreci	-12.0171
▁resiste	-12.0192
▁casual	-12.0237
llywood	-12.0241
▁CEO	-12.0242
▁Defensa	-12.0242
▁Edward	-12.0242
▁Máquina	-12.0242
▁ambulancia	-12.0242
▁arroyo	-12.0242
▁cartílago	-12.0242
▁catalizador	-12.0242
▁devuelve	-12.0242
▁discapacitado	-12.0242
▁disponibili	-12.0242
▁fortalece	-12.0242
▁franja	-12.0242
▁inalámbrico	-12.0242
▁obsesión	-12.0242
▁pertenencia	-12.0242
▁preescolar	-12.0242
▁promueve	-12.0242
▁púrpura	-12.0242
▁solicitud	-12.0242
▁sumergible	-12.0242
▁suspendida	-12.0242
▁triunfo	-12.0242
▁carpinter	-12.0242
▁menstrua	-12.0242
▁socava	-12.0242
▁Olvid	-12.0242
▁Recibi	-12.0242
▁revertir	-12.0242
traumático	-12.0242
▁decapita	-12.0242
▁martillo	-12.0242
▁enterrado	-12.0242
▁hinca	-12.0242
▁tubería	-12.0242
▁maligno	-12.0242
▁incrust	-12.0242
▁ardua	-12.0242
▁convergen	-12.0242
▁molino	-12.0242
▁hackea	-12.0242
▁duele	-12.0242
▁Cruz	-12.0243
▁divaga	-12.0243
ospital	-12.0243
▁contener	-12.0243
▁almorza	-12.0243
▁aislar	-12.0243
▁irriga	-12.0244
▁grafic	-12.0245
▁glamurosa	-12.0246
▁confunde	-12.0255
enici	-12.0286
▁investig	-12.0319
voluciona	-12.0417
▁emocion	-12.0432
estructura	-12.0437
▁dispers	-12.0469
▁disec	-12.0473
▁agricultor	-12.0536
organizado	-12.0564
▁Británica	-12.0587
▁Dinamarca	-12.0587
▁Excelente	-12.0587
▁Filade	-12.0587
▁Isabel	-12.0587
▁Láctea	-12.0587
▁Olimpi	-12.0587
▁Pittsburg	-12.0587
▁adhesiva	-12.0587
▁adquiere	-12.0587
▁analfabet	-12.0587
▁biocombustible	-12.0587
▁comestible	-12.0587
▁entusiasta	-12.0587
▁erróneo	-12.0587
▁estratégica	-12.0587
▁glándula	-12.0587
▁lámina	-12.0587
▁magnet	-12.0587
▁mercancía	-12.0587
▁milisegundo	-12.0587
▁orificio	-12.0587
▁perjudicial	-12.0587
▁robusto	-12.0587
▁tecnólogo	-12.0587
▁aclarar	-12.0587
▁disputa	-12.0587
▁imperfec	-12.0587
▁interminable	-12.0587
▁repertorio	-12.0587
▁textil	-12.0587
▁Espacial	-12.0587
▁grieta	-12.0587
▁plancton	-12.0587
▁quieto	-12.0587
▁revolucionario	-12.0587
▁equidad	-12.0587
▁almacén	-12.0587
▁codicia	-12.0587
▁pulpo	-12.0587
▁Berkel	-12.0587
▁encerrado	-12.0587
▁regazo	-12.0587
▁consistía	-12.0587
▁Bosnia	-12.0587
▁enriqueci	-12.0587
▁arqueólog	-12.0587
▁digna	-12.0587
▁grandiosa	-12.0587
▁Georgi	-12.0587
▁debilita	-12.0587
▁Cerca	-12.0587
▁susurra	-12.0587
▁Levante	-12.0587
▁asimila	-12.0587
▁coloniza	-12.0587
▁gordo	-12.0587
▁redefinir	-12.0588
▁sobrecarga	-12.0588
▁rusa	-12.0588
▁mantenía	-12.0589
▁durmie	-12.0589
▁1.5	-12.0589
▁floreci	-12.0596
▁Muert	-12.0604
▁paracaid	-12.0608
▁Palm	-12.0618
▁Produc	-12.0627
▁propong	-12.0637
▁ocup	-12.0664
enture	-12.0666
tecni	-12.0698
▁Escoc	-12.0798
▁aburri	-12.0827
▁hormig	-12.0834
▁soporta	-12.0933
xactamente	-12.0937
▁predominante	-12.0944
▁Carnegie	-12.0944
▁Ministro	-12.0944
▁Olímpico	-12.0944
▁Requiere	-12.0944
▁Sociedad	-12.0944
▁Titanic	-12.0944
▁acantilado	-12.0944
▁alfabeto	-12.0944
▁anécdota	-12.0944
▁atmosférica	-12.0944
▁autenticidad	-12.0944
▁bombea	-12.0944
▁coincidi	-12.0944
▁concluy	-12.0944
▁corrupto	-12.0944
▁desconectado	-12.0944
▁disrup	-12.0944
▁gravitacional	-12.0944
▁impredecible	-12.0944
▁incorrecta	-12.0944
▁insignificante	-12.0944
▁marítimo	-12.0944
▁parpadea	-12.0944
▁pigmenta	-12.0944
▁princesa	-12.0944
▁protagonista	-12.0944
▁rascacielos	-12.0944
▁rígido	-12.0944
▁sacerdote	-12.0944
▁subterránea	-12.0944
▁superconductor	-12.0944
▁óptico	-12.0944
▁Kepler	-12.0944
▁Palestina	-12.0944
▁Alpha	-12.0944
▁Comienza	-12.0944
▁partitura	-12.0944
▁defiende	-12.0944
▁dolares	-12.0944
▁arruga	-12.0944
▁trasplanta	-12.0944
▁Cooper	-12.0944
▁empaque	-12.0944
▁envenena	-12.0944
▁disipa	-12.0944
▁pabell	-12.0944
▁sustento	-12.0945
▁confundir	-12.0945
niebla	-12.0946
▁patenta	-12.0946
▁empaca	-12.095
▁patear	-12.0953
▁Plat	-12.0957
néct	-12.0965
▁oxid	-12.0967
popó	-12.0995
▁Entend	-12.1006
xting	-12.1033
talló	-12.1069
brisa	-12.1095
disciplina	-12.1164
▁huye	-12.1256
▁relevan	-12.1306
▁Absoluta	-12.1314
▁huésped	-12.1314
▁posiciona	-12.1314
exactitud	-12.1314
▁Ushahidi	-12.1314
▁avergonzado	-12.1314
▁cívico	-12.1314
▁envuelto	-12.1314
▁estratégico	-12.1314
▁estupenda	-12.1314
▁garantía	-12.1314
▁gobierna	-12.1314
▁griega	-12.1314
▁húmedo	-12.1314
▁ilimitado	-12.1314
▁inaceptable	-12.1314
▁inimaginable	-12.1314
▁irrelevante	-12.1314
▁japoneses	-12.1314
▁lástim	-12.1314
▁medianoche	-12.1314
▁medioambiente	-12.1314
▁remolque	-12.1314
▁remordimiento	-12.1314
▁tóxica	-12.1314
▁uranio	-12.1314
▁zanahoria	-12.1314
▁Médico	-12.1314
▁cuaderno	-12.1314
▁habilita	-12.1314
▁hipoteca	-12.1314
▁maquilla	-12.1314
▁repercusi	-12.1314
▁asemeja	-12.1314
▁modular	-12.1314
▁provecho	-12.1314
▁excesiva	-12.1314
▁sumergir	-12.1314
▁triple	-12.1314
▁circundante	-12.1314
▁despegue	-12.1314
▁disgust	-12.1314
▁fachada	-12.1314
▁mensual	-12.1314
▁Escuche	-12.1314
▁enchufa	-12.1314
▁exótico	-12.1314
▁budista	-12.1314
▁calefac	-12.1314
▁sortea	-12.1314
▁arduo	-12.1314
▁Estuvi	-12.1314
▁cierre	-12.1314
▁Ayuda	-12.1314
eopard	-12.1314
▁bruto	-12.1314
▁Reporter	-12.1314
▁oscila	-12.1315
▁dentista	-12.1315
▁Oreg	-12.1315
▁borda	-12.1315
▁solidari	-12.1315
▁defendi	-12.1316
▁ramifica	-12.1316
▁genital	-12.1317
▁acarici	-12.1317
▁satur	-12.1323
▁Dejé	-12.1323
▁triplica	-12.1333
▁Bruc	-12.1334
▁averigua	-12.1399
▁grab	-12.1419
▁contraband	-12.1421
ósfera	-12.1447
Tech	-12.1509
ingeniería	-12.1549
▁reorganiza	-12.1558
▁ligera	-12.1665
▁Sorprendente	-12.1699
▁Escuché	-12.1699
▁Tecnología	-12.1699
▁apicultor	-12.1699
▁atropell	-12.1699
▁brasileño	-12.1699
▁catedral	-12.1699
▁cicatrice	-12.1699
▁compañia	-12.1699
▁descentraliza	-12.1699
▁doctrina	-12.1699
▁incompleta	-12.1699
▁insostenible	-12.1699
▁juvenil	-12.1699
▁lealtad	-12.1699
▁lóbulo	-12.1699
▁obsoleto	-12.1699
▁orangut	-12.1699
▁poblado	-12.1699
▁prevalece	-12.1699
▁príncipe	-12.1699
▁psiquiátrico	-12.1699
▁revolucionaria	-12.1699
▁turbina	-12.1699
▁témpano	-12.1699
▁biomasa	-12.1699
▁cancerosa	-12.1699
▁desciende	-12.1699
▁persuadir	-12.1699
▁Consegui	-12.1699
▁empuje	-12.1699
▁revivir	-12.1699
▁resulte	-12.1699
▁disemina	-12.1699
▁visionario	-12.1699
▁suprimi	-12.1699
▁descender	-12.1699
▁buitre	-12.1699
▁rompí	-12.1699
▁taliban	-12.1699
▁Moham	-12.1699
▁Déja	-12.1699
▁estrecho	-12.1699
▁salpica	-12.1699
▁astuto	-12.1699
▁linaje	-12.1699
▁mutante	-12.1699
▁cancela	-12.1699
▁contratista	-12.1699
▁divino	-12.1699
▁respland	-12.1699
▁ingeri	-12.1702
▁temía	-12.1702
▁perdedor	-12.1704
▁bucea	-12.1705
▁alentador	-12.1705
▁Fred	-12.1719
▁aprovech	-12.1732
▁emigra	-12.1769
ucky	-12.1769
numer	-12.1853
▁proporcione	-12.1876
estabiliza	-12.1929
continuidad	-12.2003
▁Institut	-12.2031
▁provoc	-12.2094
hidrato	-12.2099
▁Alejandr	-12.2099
▁anomalía	-12.2099
▁ansioso	-12.2099
▁aritmética	-12.2099
▁biosfera	-12.2099
▁caluroso	-12.2099
▁compatible	-12.2099
▁contemporánea	-12.2099
▁cóctel	-12.2099
▁cúmulo	-12.2099
▁decisivo	-12.2099
▁explícita	-12.2099
▁folleto	-12.2099
▁homínido	-12.2099
▁mayúscula	-12.2099
▁neumático	-12.2099
▁ruptura	-12.2099
▁ventilación	-12.2099
▁vuestra	-12.2099
▁BMW	-12.2099
▁biodegrada	-12.2099
▁fluir	-12.2099
▁hincha	-12.2099
▁solemne	-12.2099
▁destruida	-12.2099
▁flauta	-12.2099
glades	-12.2099
▁conjunta	-12.2099
▁gloria	-12.2099
▁irradia	-12.2099
▁propensa	-12.2099
▁teatral	-12.2099
▁Sebasti	-12.2099
▁palacio	-12.2099
▁espesor	-12.2099
field	-12.2099
▁Perfect	-12.2099
▁recinto	-12.2099
▁glamuroso	-12.2099
▁Azul	-12.2099
▁intervalo	-12.2099
▁legitim	-12.2099
▁deambula	-12.2099
▁sonríe	-12.2099
▁ancla	-12.2099
▁anónimo	-12.2099
▁exhaust	-12.2099
▁séptim	-12.2099
▁funeral	-12.21
▁comprimid	-12.21
▁igualitari	-12.21
▁memoriza	-12.2101
▁Lamentable	-12.2101
▁Seguí	-12.2103
▁Nichol	-12.2103
▁Obtuv	-12.2106
▁dirij	-12.2106
▁erect	-12.211
isionador	-12.2114
▁autoestim	-12.2117
▁subvenci	-12.2123
▁aprob	-12.2136
▁aplic	-12.2148
▁aspiracion	-12.216
▁desgast	-12.2166
▁corrí	-12.2167
▁norueg	-12.222
▁transmit	-12.2235
lapso	-12.2239
conflicto	-12.2366
confianza	-12.2366
▁fibr	-12.2433
!	-13.5351
%	-13.5352
♫	-13.5353
—	-13.5354
)	-13.5355
:	-13.5356
?	-13.5357
&	-13.5358
