<unk>	0
<s>	0
</s>	0
▁,	-3.28919
t	-3.33222
▁.	-3.34802
▁të	-3.58401
▁e	-3.67176
e	-3.81385
n	-3.96848
▁te	-4.07832
a	-4.22801
▁	-4.23911
▁dhe	-4.30847
ë	-4.31436
;	-4.4661
▁në	-4.47672
▁&	-4.49096
▁i	-4.51795
▁ne	-4.56528
▁me	-4.58414
▁një	-4.7645
▁që	-4.77793
quo	-4.7925
i	-4.90905
▁për	-4.95788
▁se	-4.96041
s	-5.10196
▁qe	-5.10796
▁është	-5.11382
ve	-5.20749
në	-5.22029
▁nje	-5.24078
▁do	-5.27951
▁nuk	-5.28352
▁nga	-5.31064
▁Dhe	-5.35123
▁më	-5.36363
▁mund	-5.38863
▁per	-5.48463
▁si	-5.53666
▁ka	-5.54147
▁eshte	-5.59915
▁u	-5.65484
m	-5.67545
in	-5.75926
▁?	-5.78606
sh	-5.7883
▁ta	-5.81205
▁po	-5.82612
▁duke	-5.85737
▁shumë	-5.86472
▁jan	-5.87121
apos	-5.89799
▁ju	-5.93671
uar	-5.9534
im	-5.97396
▁ishte	-6.03686
it	-6.0791
▁—	-6.09109
kjo	-6.0928
ja	-6.10531
-	-6.12142
j	-6.14155
te	-6.15579
▁)	-6.1681
(	-6.16964
jo	-6.19574
ne	-6.19876
▁duhe	-6.23449
▁kur	-6.23739
▁A	-6.25301
▁këtë	-6.25631
▁por	-6.29491
▁K	-6.31016
▁shume	-6.32323
se	-6.33792
▁t	-6.34036
▁:	-6.35455
▁Ne	-6.37185
▁Por	-6.37631
u	-6.39896
je	-6.40792
▁ata	-6.46251
r	-6.48802
▁ajo	-6.50147
▁tyre	-6.50643
▁kemi	-6.52723
▁Pra	-6.56278
▁pa	-6.63098
▁ku	-6.66533
▁edhe	-6.67561
▁Në	-6.68345
me	-6.69508
▁ti	-6.70356
o	-6.71025
ur	-6.71381
▁rreth	-6.73268
▁jo	-6.73918
▁kete	-6.74175
▁E	-6.74237
▁seps	-6.75373
▁së	-6.76588
▁ato	-6.7696
ni	-6.77672
▁na	-6.78569
▁atë	-6.79794
▁sa	-6.80688
▁disa	-6.80705
▁Un	-6.81549
ra	-6.85236
▁cila	-6.8753
▁prej	-6.87601
▁ose	-6.9086
▁kam	-6.91032
isht	-6.91058
▁dy	-6.91278
▁ai	-6.9367
▁une	-6.93931
▁pak	-6.95427
▁apo	-6.97801
k	-6.97986
▁gjithë	-6.98172
▁mirë	-6.98285
▁këto	-6.99922
▁tek	-7.03524
më	-7.03822
▁para	-7.04017
të	-7.07653
▁a	-7.07824
▁pas	-7.09547
.	-7.11781
▁nëse	-7.13067
▁vetëm	-7.13375
▁mbi	-7.13459
▁s	-7.14265
▁jemi	-7.15516
on	-7.16218
▁parë	-7.18019
▁♫	-7.18225
▁kë	-7.19726
▁gjitha	-7.19746
▁ate	-7.19788
▁ky	-7.2036
▁tani	-7.20457
▁S	-7.21908
▁tij	-7.22299
▁jam	-7.22797
▁qeshura	-7.22811
▁kisht	-7.23257
▁Nuk	-7.23901
shme	-7.24597
▁mendoj	-7.25241
▁di	-7.2573
p	-7.28735
▁dua	-7.2888
y	-7.29638
▁Të	-7.31023
▁Tani	-7.31131
sa	-7.31513
▁tjetër	-7.32336
ri	-7.3327
▁gjë	-7.33889
▁Duartrokitje	-7.33932
▁fakt	-7.34339
▁ishin	-7.34513
▁saj	-7.3479
l	-7.34983
c	-7.36091
▁tha	-7.36093
▁Po	-7.38805
▁re	-7.39363
▁njerëzit	-7.4
es	-7.40092
▁vetem	-7.40473
▁ke	-7.42663
va	-7.42766
mi	-7.43506
f	-7.44418
▁gjithe	-7.45087
▁këtu	-7.45565
▁çfarë	-7.45577
▁thot	-7.46064
▁them	-7.4655
▁bërë	-7.46567
së	-7.47006
▁jetë	-7.47243
▁Ata	-7.48652
▁aq	-7.48706
▁vend	-7.49279
▁Ju	-7.49471
ar	-7.51831
g	-7.53345
imi	-7.53438
ës	-7.53481
b	-7.5387
nd	-7.5431
▁kan	-7.54489
▁kohë	-7.5458
▁keto	-7.54585
▁mënyrë	-7.54692
▁cili	-7.54862
▁bëj	-7.55266
eve	-7.55302
▁mua	-7.55406
▁mes	-7.55463
shëm	-7.55524
▁Me	-7.55934
▁pare	-7.56066
▁Te	-7.56675
▁tona	-7.56715
▁deri	-7.56999
▁sikur	-7.57379
▁çdo	-7.57926
▁sot	-7.58387
▁gjëra	-7.58558
▁nese	-7.58796
▁Ka	-7.59297
h	-7.59875
▁Kur	-7.60074
▁pse	-7.60084
li	-7.6021
▁Ai	-7.60413
▁Ky	-7.60435
▁tjera	-7.60674
▁shihni	-7.60685
▁Esht	-7.61314
▁mire	-7.62688
▁I	-7.62939
z	-7.63516
ojmë	-7.63704
▁B	-7.64092
▁time	-7.64223
▁njerez	-7.64862
▁Do	-7.66236
▁Për	-7.66915
or	-7.67619
▁madhe	-7.67795
▁mi	-7.67996
em	-7.68318
▁Si	-7.68518
▁njerëz	-7.69562
▁diçka	-7.69842
▁gjithashtu	-7.70204
keni	-7.70262
▁kishi	-7.70292
▁ndodh	-7.70464
▁mos	-7.70806
▁Kështu	-7.70912
ëm	-7.71211
oni	-7.71404
er	-7.7199
▁madh	-7.7264
▁gje	-7.73067
ka	-7.73098
▁tim	-7.73506
▁-	-7.73534
▁tregoj	-7.73536
▁pra	-7.73775
sha	-7.7378
▁vërtetë	-7.7396
nte	-7.74122
▁cdo	-7.75187
ojnë	-7.75252
imit	-7.75609
▁pjesë	-7.75831
▁Ësht	-7.75886
▁fundit	-7.75938
po	-7.76064
▁tuaj	-7.76571
▁ndryshme	-7.7684
▁gjatë	-7.76887
▁ide	-7.77506
▁dicka	-7.77985
imin	-7.78047
▁tonë	-7.7954
▁tjeter	-7.79631
▁tre	-7.80845
▁kështu	-7.81128
▁ri	-7.81304
▁bën	-7.81643
▁herë	-7.82323
▁Një	-7.8246
shem	-7.83339
▁dini	-7.84103
▁im	-7.84357
▁thjesht	-7.84563
▁kohe	-7.84756
ore	-7.84784
le	-7.85225
▁fund	-7.85317
▁pasta	-7.85788
▁U	-7.86399
▁bere	-7.86541
▁menyre	-7.86741
esh	-7.8726
▁ja	-7.87451
▁bote	-7.87453
▁ndaj	-7.87623
re	-7.87827
▁brenda	-7.88111
ova	-7.88339
▁ditë	-7.88866
▁jete	-7.89681
do	-7.91877
▁ime	-7.92217
▁le	-7.92771
▁cfare	-7.93347
▁aty	-7.93576
ll	-7.94235
▁flas	-7.94887
to	-7.95641
▁vjet	-7.96132
▁pyetje	-7.96201
q	-7.96524
▁ndosht	-7.96817
oi	-7.9693
▁veten	-7.97016
▁lloj	-7.98186
▁shoh	-7.98259
▁vendos	-7.98918
▁G	-7.9893
▁kisha	-7.99369
▁ashtu	-7.99371
▁je	-7.99425
▁Keshtu	-7.99891
▁teknologji	-7.99913
▁shembull	-8.007
▁Kët	-8.01264
▁histori	-8.02374
tij	-8.02378
v	-8.02613
saj	-8.02657
▁pjese	-8.03074
▁as	-8.03521
d	-8.03555
tyre	-8.03937
▁rregull	-8.04159
▁jen	-8.04229
▁10	-8.04541
▁bëjmë	-8.04719
▁lidhje	-8.05467
▁dite	-8.06061
oj	-8.06227
ro	-8.06929
’	-8.07107
ç	-8.07737
▁kaq	-8.08875
uese	-8.09112
▁Më	-8.09596
si	-8.10172
▁Mund	-8.10263
▁Faleminderit	-8.1052
ohet	-8.10526
▁Ja	-8.10667
ke	-8.10693
▁ç	-8.10813
▁F	-8.10974
▁vertete	-8.11414
▁ketu	-8.12148
▁duket	-8.13076
epse	-8.13645
▁drejt	-8.13695
▁P	-8.14795
ues	-8.16558
▁c	-8.16585
▁vende	-8.16615
jen	-8.16841
▁mendoni	-8.17204
▁dhëna	-8.18361
ojne	-8.18578
▁arsye	-8.19661
la	-8.20062
▁njerëzve	-8.2007
jeni	-8.2015
▁20	-8.2019
al	-8.21495
▁botë	-8.21622
▁pasur	-8.21754
▁atje	-8.22439
isha	-8.23206
▁bej	-8.23677
▁fuqi	-8.23931
uan	-8.23994
jes	-8.2419
▁Le	-8.24542
▁vje	-8.25722
▁Jo	-8.26362
▁tone	-8.2656
▁vërtet	-8.26593
emi	-8.26801
▁asaj	-8.26883
▁keq	-8.26995
sht	-8.27139
▁nder	-8.27198
gj	-8.27295
▁kompani	-8.27347
zi	-8.2838
▁qenë	-8.28992
▁tu	-8.29314
▁shohi	-8.29546
ohen	-8.30298
ojme	-8.30329
lo	-8.30552
▁gjera	-8.30724
▁bejme	-8.31062
▁fëmijë	-8.31155
▁vite	-8.31871
▁ndodhi	-8.31934
mes	-8.32034
▁reja	-8.32117
▁njerezi	-8.32446
▁here	-8.32594
▁vit	-8.32883
▁keshtu	-8.33215
▁shkoj	-8.33406
▁Sa	-8.33416
▁vogël	-8.33537
uam	-8.33856
▁kaluar	-8.34134
ku	-8.35118
▁vetë	-8.356
▁problem	-8.35706
het	-8.35868
▁merr	-8.35915
ut	-8.36145
▁shtëpi	-8.36262
▁gjithmon	-8.36332
▁krijuar	-8.36357
▁njeri	-8.37274
▁gjendje	-8.37474
▁pun	-8.37821
▁mira	-8.38114
qe	-8.38175
onte	-8.38416
▁besoj	-8.38813
▁fjalë	-8.39421
▁tregon	-8.39606
▁C	-8.39652
di	-8.39835
▁mjaft	-8.39867
▁atyre	-8.39994
▁ende	-8.40091
▁D	-8.4031
▁gjate	-8.40417
▁Per	-8.40716
▁ndryshe	-8.40951
▁përqind	-8.41034
ër	-8.41171
pi	-8.41176
▁grua	-8.41609
▁cka	-8.42019
▁3	-8.42308
ng	-8.42492
▁k	-8.42703
▁kush	-8.42967
▁qeliza	-8.43234
▁shikoni	-8.43341
imet	-8.43458
▁cilë	-8.43595
▁de	-8.44235
osh	-8.44295
▁bëni	-8.4468
ale	-8.44736
▁larg	-8.449
rë	-8.45539
aj	-8.45653
▁ma	-8.46415
▁bashku	-8.4664
▁punë	-8.47038
▁Nje	-8.47325
jet	-8.48189
▁vogla	-8.48366
▁ben	-8.48446
▁shpejt	-8.48871
▁mend	-8.49052
x	-8.49104
▁rëndësishme	-8.49461
▁familje	-8.49938
za	-8.5004
▁pasi	-8.50243
▁probleme	-8.50681
▁shkak	-8.50707
▁vete	-8.51384
▁botën	-8.51693
▁bëhe	-8.51863
▁ndonjë	-8.51919
▁shpesh	-8.51976
▁vendi	-8.52217
ci	-8.52267
▁Isht	-8.52272
▁jap	-8.52648
▁marrë	-8.5309
▁Ma	-8.53702
▁zgjedhje	-8.53763
▁pune	-8.53782
ësh	-8.53855
▁nëpër	-8.54118
▁atëher	-8.54118
▁mbaj	-8.54261
▁lidhur	-8.54597
▁mendje	-8.55015
▁kët	-8.55117
▁vajza	-8.55226
os	-8.55413
▁jetën	-8.55422
ce	-8.55479
▁quajtur	-8.55677
▁kesaj	-8.55745
dh	-8.55982
▁mia	-8.56286
▁trurit	-8.56385
▁milion	-8.56917
lla	-8.56936
ze	-8.56988
▁Pse	-8.57198
▁akom	-8.57325
▁thon	-8.57412
▁sjell	-8.57496
rr	-8.57635
da	-8.5765
▁Pa	-8.5802
▁vitin	-8.58064
▁dikush	-8.58366
▁shoqëri	-8.5852
shta	-8.59112
w	-8.59136
▁cilin	-8.59179
,000	-8.59571
▁gjej	-8.5981
▁energji	-8.60102
▁rrugë	-8.60129
th	-8.60422
rit	-8.60547
▁moment	-8.60653
shin	-8.60777
ik	-8.61072
▁gjërat	-8.61133
▁muaj	-8.61133
▁cilet	-8.617
▁shkon	-8.61724
▁quhe	-8.62143
▁ndër	-8.62164
▁Sh	-8.62323
▁nevojë	-8.62435
▁bukur	-8.62583
▁punoj	-8.63342
▁video	-8.63489
▁bejne	-8.63961
▁Nese	-8.64017
▁Dua	-8.64087
▁Mendoj	-8.64091
de	-8.64632
▁mundësi	-8.65173
▁jashtë	-8.65212
▁sistemi	-8.65366
▁marrim	-8.655
sisht	-8.65807
▁cilën	-8.6585
ga	-8.65927
▁shumic	-8.66765
▁jep	-8.6703
▁vogel	-8.67185
▁kuptoj	-8.67312
▁Kam	-8.67819
▁vështirë	-8.67945
▁filloj	-8.68143
ren	-8.68198
▁mënyra	-8.68206
▁vitet	-8.68302
▁siguri	-8.6854
▁Dis	-8.6857
▁çka	-8.69167
▁mëdha	-8.69221
dis	-8.69495
ësi	-8.69662
▁juaj	-8.69667
un	-8.70055
▁sigurisht	-8.70091
▁sigurt	-8.7064
per	-8.7066
▁ca	-8.70792
▁përsëri	-8.71014
▁femra	-8.71023
▁Duhe	-8.71113
▁menduar	-8.71153
▁njëri	-8.71267
▁bë	-8.71354
▁hap	-8.71496
▁folur	-8.71675
pa	-8.72011
ter	-8.72042
▁jetës	-8.72393
▁fill	-8.72605
▁qeveri	-8.7267
▁botës	-8.73027
▁be	-8.73164
onin	-8.73184
▁fillim	-8.73377
▁Duke	-8.73507
▁lir	-8.73639
▁vet	-8.73825
▁fotografi	-8.7388
▁mendojm	-8.73909
▁tjere	-8.74507
▁përdorim	-8.74628
ist	-8.74672
▁50	-8.75187
▁Ket	-8.75218
▁grup	-8.75246
▁lumtur	-8.75341
ike	-8.75465
▁minuta	-8.75534
▁pyet	-8.75734
▁lartë	-8.75968
▁TED	-8.76035
▁gati	-8.76049
uesi	-8.76059
▁perqind	-8.76063
▁ra	-8.76404
▁pari	-8.76588
mjet	-8.76665
risht	-8.76958
▁N	-8.77049
▁kish	-8.7712
▁katër	-8.77254
▁sy	-8.77673
▁Jam	-8.77895
ha	-8.77955
▁ha	-8.77984
▁15	-8.78344
go	-8.78449
▁viteve	-8.78568
▁shtepi	-8.78604
▁ndryshoj	-8.7869
▁rritur	-8.78973
▁makina	-8.79144
▁interesante	-8.79266
▁përdorur	-8.79296
ca	-8.79746
▁marrin	-8.7997
▁foto	-8.80236
pr	-8.80604
ndaj	-8.80926
▁pikë	-8.80927
▁sëmundje	-8.81193
▁Na	-8.81213
▁100	-8.81546
A	-8.81698
▁social	-8.81857
▁ndryshimi	-8.8234
▁asnjë	-8.82354
▁jashte	-8.82482
▁njeriu	-8.8278
▁5	-8.82822
nin	-8.82994
fi	-8.83126
um	-8.83149
▁bër	-8.83287
ueshme	-8.83288
▁grat	-8.83331
▁tepër	-8.83499
▁30	-8.83546
▁rast	-8.83706
▁jeten	-8.83974
▁gra	-8.84039
▁orë	-8.84079
ori	-8.84095
▁marre	-8.8421
▁desh	-8.84458
▁mundur	-8.84535
▁f	-8.84776
▁doja	-8.8537
▁Bashkuara	-8.85429
rat	-8.85659
kë	-8.85942
▁person	-8.86078
▁pothuaj	-8.86315
itet	-8.8632
▁njejte	-8.86339
▁p	-8.8644
▁publik	-8.86799
▁anë	-8.87471
▁projekt	-8.87831
▁4	-8.87937
▁Z	-8.88078
▁tillë	-8.881
▁neper	-8.88112
▁funksionon	-8.88118
▁lehtë	-8.88289
▁duhur	-8.8862
iste	-8.8864
▁vertet	-8.89013
▁dollarë	-8.89108
jmë	-8.89202
▁cilen	-8.89212
▁fillon	-8.89213
▁mrekullueshme	-8.89248
▁Ndo	-8.89361
▁Mirë	-8.89576
▁rritje	-8.89663
▁femije	-8.89664
▁fillov	-8.90274
oja	-8.90286
▁fjale	-8.90385
▁treguar	-8.90564
▁hapur	-8.90674
▁problemi	-8.90824
▁ardhmen	-8.90904
▁tri	-8.91052
▁sistem	-8.91136
pe	-8.91439
▁ty	-8.91536
▁mësuar	-8.91772
▁New	-8.91815
▁ekonomi	-8.91971
res	-8.92031
▁dimë	-8.92077
▁lejoni	-8.92192
▁gjerat	-8.92248
us	-8.92308
▁kurrë	-8.92517
▁punuar	-8.92628
▁zgjidhje	-8.92681
▁krejt	-8.92782
▁...	-8.92805
jnë	-8.9288
▁jetes	-8.9311
▁punon	-8.93186
▁Ti	-8.93201
▁fëmijët	-8.93346
▁vdekje	-8.93575
▁Ish	-8.93755
▁vendosur	-8.93849
vi	-8.93943
▁merrni	-8.94257
rin	-8.94326
▁thash	-8.94504
2	-8.94582
▁Çfarë	-8.94628
▁thosh	-8.94632
▁von	-8.94657
▁Shtete	-8.95251
▁përpar	-8.95386
ko	-8.95655
▁ndodhur	-8.95673
▁përdor	-8.957
▁njoh	-8.95846
▁nxjerr	-8.95874
▁Edhe	-8.96134
▁bëjë	-8.96366
▁rrit	-8.96624
▁Past	-8.97077
▁T	-8.97107
▁faktikisht	-8.97139
▁vij	-8.97151
▁gjetur	-8.97247
▁lloje	-8.97346
▁shp	-8.97446
▁kohës	-8.97503
4	-8.97566
▁punës	-8.97675
▁yn	-8.97734
▁libra	-8.97776
eni	-8.98135
▁rendesishm	-8.98198
▁fillo	-8.98203
▁marr	-8.98274
▁to	-8.9833
▁shkollë	-8.9842
▁ketë	-8.98423
he	-8.98459
▁dashur	-8.98482
▁pjes	-8.98755
▁g	-8.9883
▁ndonje	-8.98889
▁afër	-8.99073
▁fare	-8.99102
shim	-8.99879
▁mad	-9.00359
▁shkuar	-9.00368
▁ndonjëher	-9.00394
▁gabim	-9.00394
▁pesë	-9.00773
▁ndryshuar	-9.01112
▁shtete	-9.01158
▁tanë	-9.01305
▁menyra	-9.01493
▁bota	-9.0171
▁perseri	-9.01732
▁arritur	-9.01751
▁V	-9.01874
M	-9.01957
ol	-9.01997
el	-9.02042
▁thjeshtë	-9.02104
▁O	-9.02169
B	-9.02206
ch	-9.02342
▁Nga	-9.02368
▁njëjtë	-9.02372
▁dha	-9.02735
▁ko	-9.02745
▁fillua	-9.02797
▁shum	-9.02946
0	-9.03183
▁shikoj	-9.032
që	-9.03322
▁mbas	-9.03475
▁Re	-9.04146
▁kuptuar	-9.04207
hen	-9.04267
▁mundesi	-9.04272
▁rr	-9.04356
▁ndryshim	-9.04406
S	-9.04581
▁burra	-9.0467
▁M	-9.04727
▁tjerë	-9.05033
▁model	-9.05126
▁forma	-9.05134
▁kuptoni	-9.05516
▁fakti	-9.05559
▁numër	-9.05751
▁kuptim	-9.05955
▁faqe	-9.06111
▁dytë	-9.06168
▁rëndësi	-9.06195
▁40	-9.06436
▁ndryshime	-9.06784
▁mu	-9.06954
▁tërë	-9.07452
▁shekulli	-9.07974
onim	-9.08035
▁pro	-9.08101
form	-9.08204
▁sapo	-9.08275
▁mijë	-9.08318
▁aftësi	-9.08492
ura	-9.08531
▁bëri	-9.08698
gji	-9.09212
▁afer	-9.09343
▁sukses	-9.09376
▁lart	-9.09413
▁dime	-9.0955
▁thoni	-9.09918
esi	-9.09937
ak	-9.09938
▁personi	-9.09955
▁asgjë	-9.09995
▁raste	-9.10133
▁njerëzore	-9.10224
▁doni	-9.10225
▁dore	-9.10303
▁kujdes	-9.10577
▁njohur	-9.1069
▁faleminderit	-9.10716
▁shkruaj	-9.10725
▁ekonomike	-9.11162
▁mendon	-9.11213
ojë	-9.11366
▁nevoje	-9.11469
▁kaloj	-9.11525
▁tjerët	-9.11615
▁gjeni	-9.11675
▁tru	-9.11754
▁la	-9.11911
tare	-9.12261
▁del	-9.12713
▁zgjidh	-9.12831
▁quaj	-9.12883
▁japi	-9.12893
▁kuptojm	-9.1296
▁pergjigje	-9.1324
▁sesi	-9.13289
sin	-9.13346
iz	-9.13666
▁vetes	-9.13731
▁poshtë	-9.13827
▁lejon	-9.13845
▁bie	-9.13966
▁jetoj	-9.14312
▁sime	-9.14447
1	-9.14448
▁jush	-9.14619
▁pika	-9.14813
▁program	-9.15206
▁drejtë	-9.1551
▁qyteti	-9.15663
▁javë	-9.15945
ket	-9.16543
▁kryesore	-9.16547
▁shkolle	-9.1672
▁Sot	-9.16745
▁përgjigje	-9.16791
▁personal	-9.16842
▁formë	-9.16865
▁kundër	-9.16868
▁pi	-9.16958
▁quajm	-9.17096
▁bar	-9.17399
▁Se	-9.17408
▁femijet	-9.17593
▁ulur	-9.1775
▁kudo	-9.17941
kohe	-9.1797
5	-9.18284
▁2	-9.18363
▁perpara	-9.18635
ork	-9.18674
▁makine	-9.18771
▁proces	-9.18922
▁humbur	-9.1914
▁pike	-9.1917
▁duart	-9.19217
▁Ku	-9.1927
▁dëshiroj	-9.19684
▁Cfare	-9.19848
▁behe	-9.19867
▁qindra	-9.19898
▁vi	-9.1996
hej	-9.20119
ton	-9.20137
sia	-9.20311
▁veshtire	-9.20441
▁6	-9.2047
▁tuaja	-9.20519
▁ana	-9.20613
▁dhomë	-9.20648
▁ADN	-9.20648
▁koha	-9.20667
▁zona	-9.20671
▁qartë	-9.20714
man	-9.20806
▁jeta	-9.20881
▁rendesi	-9.20924
▁dashuri	-9.20925
▁kompjuter	-9.20981
▁vazhdon	-9.21026
▁shkallë	-9.21134
ck	-9.21173
▁lidh	-9.21275
▁prek	-9.21964
▁krye	-9.22007
▁1	-9.22153
▁W	-9.22248
▁kurre	-9.22264
▁gjithcka	-9.22269
tik	-9.22301
rës	-9.22544
▁informacioni	-9.22552
▁sasi	-9.22563
00	-9.22686
oje	-9.22934
▁vendosi	-9.23265
▁pre	-9.2332
gu	-9.23397
▁then	-9.23568
ez	-9.238
▁Di	-9.2383
▁Njerëz	-9.23914
▁12	-9.2393
▁vetvete	-9.2398
are	-9.2399
▁kuti	-9.24124
▁bashkë	-9.24145
fa	-9.24565
▁mirp	-9.24621
▁mo	-9.2468
▁shko	-9.24701
ese	-9.24854
▁zbuluar	-9.24892
▁mban	-9.24936
▁ndihmoj	-9.25159
91	-9.25453
▁pëlqen	-9.25498
▁burime	-9.25613
▁përdori	-9.25949
▁ndje	-9.26187
▁bu	-9.26276
fjala	-9.26441
▁trupi	-9.26668
▁test	-9.26758
▁ardhura	-9.26928
dit	-9.27008
ing	-9.27012
▁vazhdoj	-9.27042
▁ndryshon	-9.27074
▁Mir	-9.27136
▁perdorim	-9.27162
tike	-9.27176
▁rruge	-9.27185
▁bazuar	-9.27296
për	-9.27332
▁br	-9.27397
il	-9.27413
8	-9.27533
▁besimi	-9.27546
▁o	-9.27586
▁gjet	-9.27599
▁politike	-9.27618
▁jesh	-9.2763
▁beje	-9.27639
▁dhënë	-9.28106
▁imazhe	-9.28215
▁dëgjuar	-9.2828
▁sipas	-9.28281
bu	-9.28356
ëse	-9.2839
erdhi	-9.28397
▁edukimi	-9.28401
▁Para	-9.28459
lli	-9.28481
izmi	-9.28675
.000	-9.28688
D	-9.28888
▁hedh	-9.29
▁Google	-9.29021
▁numri	-9.29021
▁Qeshje	-9.29021
▁shkolla	-9.29041
ok	-9.29363
▁R	-9.29627
▁jem	-9.29679
om	-9.29706
▁Mo	-9.29851
▁ekziston	-9.29898
kuar	-9.29936
▁dorë	-9.29987
▁mori	-9.30214
▁Shum	-9.30357
▁fat	-9.30375
▁18	-9.30667
▁fundi	-9.30815
▁teper	-9.31193
6	-9.31549
▁sjellje	-9.31558
▁cfarë	-9.31676
▁Sigur	-9.31693
▁shikojm	-9.31796
▁zhvilluar	-9.31937
▁pyes	-9.31944
▁funksion	-9.32058
▁rezultate	-9.32293
ruar	-9.32389
▁diku	-9.32559
▁ndodhe	-9.32584
shmëri	-9.32792
lle	-9.32933
E	-9.32946
▁rinj	-9.32972
ksi	-9.33003
▁rrezik	-9.33146
▁djal	-9.3319
▁He	-9.33201
bo	-9.33282
▁grupe	-9.33348
▁vetme	-9.3335
rën	-9.33445
▁plot	-9.33828
▁gjuhë	-9.33933
▁teori	-9.33959
▁ceshtje	-9.34025
▁shkoni	-9.34238
▁vajze	-9.34409
▁kokë	-9.34425
▁momenti	-9.34531
▁qytet	-9.34533
▁moral	-9.34617
imeve	-9.34798
▁he	-9.34851
rik	-9.34909
▁filluam	-9.34994
vo	-9.35067
▁da	-9.35085
▁perdor	-9.35104
▁Zoti	-9.35155
tilla	-9.35177
▁200	-9.35307
▁thellë	-9.35408
▁juve	-9.35485
▁ardhur	-9.35819
▁persona	-9.35908
min	-9.35971
▁bi	-9.36044
▁kanceri	-9.36239
▁jashtëzakon	-9.36264
▁shkruar	-9.36283
▁reale	-9.36516
▁trurin	-9.36526
hur	-9.36781
▁lufte	-9.36885
▁mendov	-9.37239
▁mendoja	-9.37283
▁studentë	-9.37373
7	-9.37402
▁eksperiment	-9.37586
▁planet	-9.37631
▁medha	-9.37793
▁lëviz	-9.37886
▁tashme	-9.37897
ba	-9.37946
kon	-9.37999
▁dal	-9.38022
▁film	-9.38154
▁lëvizje	-9.38185
▁ndërtoj	-9.3832
▁globale	-9.38452
▁Os	-9.38472
ron	-9.38793
son	-9.38855
rave	-9.38872
3	-9.38875
▁aktiv	-9.38884
93;	-9.39121
▁vlera	-9.39121
▁gjithçka	-9.39124
▁truri	-9.39205
▁fillojm	-9.39345
▁ore	-9.39611
▁zë	-9.39642
▁v	-9.39661
▁kunder	-9.39941
▁ber	-9.40007
▁dija	-9.40076
▁shi	-9.40091
▁shoqeri	-9.40145
▁rrjedh	-9.40222
ria	-9.40599
▁zhvillim	-9.40707
▁thashe	-9.40721
▁ba	-9.40839
▁Mos	-9.40896
jë	-9.4106
▁njejta	-9.41081
▁rritet	-9.41231
▁krijon	-9.41242
▁qoftë	-9.41298
▁lë	-9.41374
▁leviz	-9.41541
▁secili	-9.41653
▁pamje	-9.41691
dhe	-9.41732
▁kontroll	-9.41893
▁publike	-9.41928
▁kater	-9.41963
▁luftë	-9.42063
▁libri	-9.42063
▁SHBA	-9.42063
▁drite	-9.42069
▁disi	-9.42086
▁dhena	-9.42142
▁perdorur	-9.42234
▁ane	-9.4227
alisht	-9.42284
ho	-9.42344
▁jetuar	-9.42427
P	-9.426
▁zgjuar	-9.42694
▁rrjet	-9.427
lin	-9.42772
▁rri	-9.42846
▁jave	-9.42933
▁shkova	-9.43155
▁19	-9.43192
▁Ro	-9.43642
▁Epo	-9.43699
▁luaj	-9.43757
gjen	-9.43917
op	-9.44053
▁asgje	-9.44076
▁gjithnj	-9.44314
▁prapa	-9.4436
ry	-9.44369
izuar	-9.4441
▁mar	-9.44519
▁pacientë	-9.44673
▁syt	-9.447
O	-9.44723
ej	-9.44737
▁krijojmë	-9.44795
▁vone	-9.44823
▁jone	-9.44832
▁gjen	-9.44847
▁dollar	-9.44883
▁specie	-9.45097
▁fe	-9.45304
C	-9.45442
ber	-9.45465
▁La	-9.45564
▁emri	-9.45672
▁keqe	-9.45689
▁60	-9.45835
▁liri	-9.45844
▁informacion	-9.45991
ki	-9.46035
▁lehte	-9.46125
▁aktualisht	-9.46165
▁punën	-9.46187
▁askush	-9.46209
▁Oh	-9.46247
▁thën	-9.46251
ishim	-9.46319
▁nis	-9.46327
▁çështje	-9.46729
▁bashk	-9.46834
▁gjashtë	-9.46885
▁fit	-9.47005
▁pelqen	-9.47166
mba	-9.47254
▁krijues	-9.47314
▁nders	-9.47319
▁tjetrin	-9.47399
▁vjetër	-9.4748
▁ujë	-9.47926
▁arti	-9.48139
ment	-9.48398
rk	-9.485
rimi	-9.48516
▁trupit	-9.48583
▁degj	-9.48607
▁ndjek	-9.48839
R	-9.48887
▁mësues	-9.48934
▁shteti	-9.48998
▁jetojn	-9.49187
▁beni	-9.49354
▁fol	-9.49444
▁jetojm	-9.49488
▁bëhen	-9.49614
▁ateher	-9.49811
I	-9.49886
▁25	-9.49934
▁Al	-9.50161
▁8	-9.50183
▁kap	-9.50286
▁Afrikë	-9.50358
▁80	-9.5037
▁vitit	-9.504
▁ngjashme	-9.50439
▁9	-9.50493
kush	-9.50582
fer	-9.50635
▁makinë	-9.5082
▁arsyej	-9.50889
▁metra	-9.5089
ndej	-9.50922
G	-9.51075
▁heq	-9.51389
▁shembuj	-9.51445
▁sheh	-9.51446
▁tashmë	-9.51456
▁njëjta	-9.51459
▁ujit	-9.51545
▁projekti	-9.51617
▁ndërtuar	-9.5164
▁Ta	-9.51973
▁zbulo	-9.51996
▁gjuhe	-9.52027
▁Pas	-9.52029
▁caktuar	-9.52045
▁vesh	-9.52239
soj	-9.52358
▁viti	-9.52419
▁klasë	-9.52544
▁Shiko	-9.52559
▁dhun	-9.52562
zon	-9.52622
▁biznesi	-9.52696
▁ndonjeher	-9.52835
▁kr	-9.5292
▁ngjit	-9.52932
▁H	-9.52994
▁miliona	-9.53046
▁beri	-9.53125
▁industri	-9.53244
▁kthehem	-9.5325
▁mësoj	-9.53281
▁li	-9.53329
▁kohes	-9.53548
▁djem	-9.5362
▁përgjigj	-9.53627
▁Amerikë	-9.53654
▁dhimbje	-9.53663
▁mjedisi	-9.5371
▁kompjuteri	-9.53734
▁moshe	-9.53735
▁poshte	-9.53742
▁d	-9.53751
▁De	-9.53797
▁largohe	-9.53847
ler	-9.5392
▁Kush	-9.54182
▁shtet	-9.54206
land	-9.54217
▁Së	-9.54325
▁krijoj	-9.54394
▁Gra	-9.54451
▁asnje	-9.54518
▁informacione	-9.54534
tari	-9.5458
▁hapësirë	-9.54778
▁kulturë	-9.5478
▁Dy	-9.54859
▁forme	-9.54923
▁ul	-9.54984
id	-9.55217
▁njohuri	-9.55261
▁shfaq	-9.555
▁ndal	-9.5557
▁Mi	-9.55606
▁praktik	-9.5562
▁11	-9.55627
jne	-9.55665
sit	-9.55694
▁vlerë	-9.55703
▁ndihmon	-9.55721
▁shpreh	-9.55789
▁modele	-9.55804
▁shikon	-9.55874
▁7	-9.55915
▁njerzit	-9.55981
▁tere	-9.55985
mend	-9.56054
ator	-9.56066
▁fizik	-9.56229
▁vot	-9.56252
▁thjeshte	-9.56324
▁Vetë	-9.5636
▁besim	-9.56363
▁vënë	-9.56424
▁ndjesi	-9.5651
deris	-9.5655
▁rezultat	-9.56604
▁planeti	-9.56616
ic	-9.56629
▁gjith	-9.56651
▁humbje	-9.56665
▁materiale	-9.56881
▁media	-9.56968
T	-9.56989
▁bëja	-9.57067
kur	-9.57117
zuar	-9.57122
▁ndertuar	-9.5722
▁gjasa	-9.57228
▁kthyer	-9.57334
▁mesuar	-9.57391
▁zeri	-9.57503
▁politika	-9.57615
jme	-9.57621
▁flet	-9.5767
▁gjende	-9.57723
▁dikë	-9.57779
hu	-9.57961
▁kthehe	-9.58022
▁trego	-9.58191
▁muzike	-9.58227
▁qfar	-9.58231
▁14	-9.58246
▁njejtë	-9.58249
▁vjeç	-9.58264
▁gabuar	-9.58272
▁zakonisht	-9.58298
▁patur	-9.58317
▁babai	-9.58319
▁kërkoj	-9.58351
▁uji	-9.58657
▁m	-9.58711
▁post	-9.58927
▁gjejm	-9.58928
▁natë	-9.59055
▁vendime	-9.59301
▁dhënave	-9.59312
▁struktura	-9.59408
▁natyrisht	-9.59431
▁premt	-9.59433
▁dikujt	-9.59451
▁Gjë	-9.59456
▁burg	-9.5948
▁fuqishm	-9.59504
▁mendojnë	-9.59583
▁imagjinoni	-9.59589
▁jeton	-9.59597
lit	-9.59625
▁vëmendje	-9.59652
▁mjek	-9.59657
9	-9.59715
▁shpejtë	-9.59783
▁tmerr	-9.59864
▁Je	-9.59881
▁fillimi	-9.59937
▁70	-9.59947
▁nivel	-9.60594
▁blu	-9.60594
▁lutem	-9.60603
▁Apo	-9.60625
▁ndihmuar	-9.60662
një	-9.60788
▁bësh	-9.6083
▁dëgjoj	-9.60837
▁produkte	-9.60947
▁njëra	-9.6096
eshin	-9.61066
sore	-9.61097
▁vjec	-9.61104
cion	-9.61283
▁miliard	-9.61381
▁dyshim	-9.61417
▁tokë	-9.61458
▁larte	-9.61496
▁kurse	-9.61611
▁dali	-9.61725
▁numra	-9.61799
▁dritë	-9.61804
▁grave	-9.61807
▁Që	-9.61808
▁normale	-9.61987
▁treg	-9.62064
▁push	-9.62126
▁dëshiron	-9.62233
zim	-9.62573
▁prodhimi	-9.62797
▁shpresoj	-9.62817
her	-9.6302
▁djali	-9.63115
▁interesuar	-9.63214
▁ideja	-9.63253
▁prapë	-9.63284
▁mije	-9.63438
▁krijimi	-9.63799
▁realiteti	-9.63927
▁kuptov	-9.64115
▁drejtim	-9.64242
▁pamundur	-9.64277
▁mjete	-9.64279
▁ngjyra	-9.64418
dy	-9.6447
▁kryesor	-9.64537
▁efekt	-9.64537
▁lindur	-9.64539
▁përfshirë	-9.64604
nevojshme	-9.64726
tjetrin	-9.64742
▁ushqim	-9.64841
▁drita	-9.64951
▁pacienti	-9.65141
▁copë	-9.65503
▁kosto	-9.65505
▁ndermjet	-9.65566
▁veçantë	-9.65595
▁prova	-9.65611
▁mbajtur	-9.65638
▁lind	-9.65642
▁nevojite	-9.65643
ad	-9.65933
sor	-9.66073
▁berë	-9.66097
esisht	-9.6616
▁levizje	-9.6619
▁përball	-9.66204
▁elektrike	-9.6632
▁bo	-9.66413
▁filmi	-9.6656
▁rastin	-9.66686
▁Qe	-9.66761
▁qëndron	-9.66859
▁tille	-9.66963
llë	-9.67034
▁marrëdhënie	-9.67045
▁realitet	-9.67216
▁kesh	-9.67412
▁vin	-9.67463
▁Ha	-9.67679
▁tregu	-9.67731
lloj	-9.67803
▁toke	-9.6795
▁90	-9.67966
▁Afrika	-9.6805
▁hapesire	-9.6805
▁moshë	-9.68075
▁kancer	-9.68087
▁procesi	-9.6819
▁fëmije	-9.6824
▁interneti	-9.68437
▁makineri	-9.68519
▁perdore	-9.68559
▁Shume	-9.68712
▁tradicionale	-9.68771
▁energjis	-9.68821
llo	-9.69185
▁moderne	-9.69186
▁fam	-9.69324
▁papritur	-9.69349
▁komplet	-9.6935
▁libër	-9.69353
▁kafe	-9.69466
▁shën	-9.69518
▁ndjej	-9.69602
▁thelb	-9.69692
ise	-9.69748
▁gjaku	-9.6982
▁lexoj	-9.69867
▁zëri	-9.69916
▁vë	-9.7
▁mesatar	-9.70302
len	-9.70384
▁kuptua	-9.70466
▁zot	-9.70476
▁zhvillimi	-9.70554
ret	-9.70626
▁kthye	-9.70639
▁doktor	-9.70688
ah	-9.70695
▁zakonshme	-9.70723
▁vitesh	-9.70765
▁shiko	-9.70806
▁etj	-9.70888
▁gjene	-9.70891
rja	-9.70946
▁mendo	-9.70958
▁ditur	-9.70959
▁13	-9.70982
sova	-9.71087
▁mora	-9.71165
▁mundemi	-9.71436
▁fortë	-9.71499
▁sonë	-9.71582
tre	-9.71735
▁shtyp	-9.71774
▁koncept	-9.71903
▁parasysh	-9.71998
▁Çdo	-9.71998
▁ngjarje	-9.71999
▁paisje	-9.71999
▁fushë	-9.72004
▁thua	-9.72144
kund	-9.7221
▁shkakton	-9.72261
▁dis	-9.72443
▁sotme	-9.72462
▁demokraci	-9.72631
▁raport	-9.7278
▁qeni	-9.72819
▁J	-9.72878
▁Bo	-9.72898
▁studim	-9.73052
▁lokal	-9.73088
▁këmbë	-9.73121
▁telefon	-9.73159
▁lajme	-9.73227
K	-9.73253
▁komunitete	-9.73268
▁Video	-9.7335
▁përpjekje	-9.7335
▁mbrapa	-9.7335
▁lexuar	-9.73351
mit	-9.73399
▁var	-9.73413
▁vazhdimisht	-9.73414
▁meshkuj	-9.73441
▁modeli	-9.7352
od	-9.73683
▁jepni	-9.73696
▁kuptimi	-9.73699
▁prap	-9.73748
▁arrit	-9.73765
▁flutur	-9.7387
▁Bu	-9.73895
▁ardh	-9.73926
▁vare	-9.74043
▁fusha	-9.74077
ngu	-9.74148
und	-9.74166
▁dyte	-9.74182
lar	-9.74243
▁internet	-9.74327
▁krijua	-9.74344
▁Pro	-9.74543
▁mbush	-9.74563
▁merre	-9.746
▁objekte	-9.74643
▁dekada	-9.74719
▁sfida	-9.74719
▁kafshë	-9.7472
▁Fillo	-9.74726
▁varfër	-9.74733
▁kembe	-9.74774
▁letra	-9.74787
▁kënd	-9.74816
▁kërkon	-9.74934
▁ze	-9.74947
▁aftesi	-9.74998
▁drejta	-9.75085
▁vetmi	-9.75094
▁ardhshm	-9.75173
▁fizike	-9.752
iteti	-9.75224
▁flasin	-9.75298
▁frikë	-9.75352
▁kon	-9.7537
njëherë	-9.75432
ir	-9.75593
▁ujin	-9.7564
▁q	-9.75698
herë	-9.75788
▁amerikane	-9.75856
▁vetm	-9.75924
N	-9.75949
▁ban	-9.75971
▁qasje	-9.7611
▁mat	-9.76126
▁celular	-9.76126
▁shkurtër	-9.76136
▁serioz	-9.7614
▁provuar	-9.76152
▁gjysmë	-9.76166
▁vazhd	-9.76186
▁pemë	-9.76207
▁rëndësishëm	-9.76215
▁art	-9.76401
▁mesazh	-9.76531
▁sisteme	-9.76613
▁dollare	-9.76648
▁16	-9.77169
▁shkalle	-9.77197
▁mbyll	-9.77316
▁hyj	-9.77544
▁ulët	-9.77579
▁studime	-9.77587
▁qarte	-9.77606
so	-9.77844
▁vini	-9.77981
qu	-9.7802
▁ngadal	-9.7809
▁student	-9.78093
▁ble	-9.78207
▁material	-9.78245
▁ndodhë	-9.78262
izimi	-9.78367
▁besoni	-9.78431
▁lumturi	-9.78471
▁projekte	-9.78583
▁neurone	-9.78599
▁ushtri	-9.78836
ob	-9.78938
▁the	-9.78944
▁gjelbër	-9.78945
▁partner	-9.78946
▁tju	-9.7896
▁17	-9.78961
▁Nda	-9.79009
▁ndërs	-9.79071
▁mësojmë	-9.79098
▁vendosni	-9.79149
▁hi	-9.79162
▁rriten	-9.79186
▁gjenetik	-9.79462
▁Ve	-9.7958
▁vjetë	-9.79667
▁ngrit	-9.79691
▁spital	-9.79717
▁kor	-9.79816
▁Ho	-9.79967
ësisht	-9.80183
ger	-9.80206
▁fl	-9.80376
▁pajisje	-9.80395
▁numer	-9.80395
ster	-9.80538
▁Ca	-9.8055
▁pese	-9.80551
▁pasuri	-9.80561
▁miliardë	-9.80569
▁sulm	-9.8076
▁ekonomik	-9.80845
▁L	-9.80861
▁studente	-9.81009
nline	-9.81011
▁kalon	-9.81079
▁karboni	-9.81173
▁hyr	-9.81202
▁pasoja	-9.81299
▁përdore	-9.81489
▁plotë	-9.81557
▁fal	-9.81624
▁ndihem	-9.81688
▁muzikor	-9.81865
▁nqs	-9.81872
▁luajtur	-9.81873
▁bazë	-9.81887
▁vdekur	-9.81914
▁pyetj	-9.8196
ërisht	-9.82005
▁shenja	-9.82012
▁Mad	-9.8217
fekt	-9.82253
▁teknologjisë	-9.82273
▁hip	-9.82388
▁provoj	-9.82451
▁invest	-9.82519
▁milionë	-9.82646
▁emocione	-9.82667
▁aktiviteti	-9.8277
▁tmerrshm	-9.82779
▁qëllimi	-9.82852
▁bind	-9.8292
yr	-9.83011
ohemi	-9.83049
▁dyja	-9.83076
▁mësim	-9.8312
▁arrin	-9.83247
▁kuqe	-9.83292
▁milje	-9.83359
▁zemër	-9.8336
▁Gjithashtu	-9.8336
▁strukturë	-9.83364
▁shtatë	-9.83365
▁drejte	-9.8342
▁njejti	-9.83447
▁Deri	-9.83453
▁frike	-9.83467
hy	-9.83499
rez	-9.835
▁menyren	-9.8357
▁programe	-9.83611
▁gar	-9.83719
▁organe	-9.83742
▁mbledhur	-9.83774
▁qenie	-9.84052
▁Dr	-9.84195
▁thelle	-9.84262
▁ndodhte	-9.8431
uri	-9.84366
▁tretë	-9.84388
▁Mire	-9.84573
▁përdorimi	-9.84624
▁ngre	-9.84729
▁dinë	-9.84861
▁Facebook	-9.84873
▁matematike	-9.84873
▁mënyre	-9.84873
▁përbashkët	-9.84877
▁huaj	-9.84924
▁katror	-9.84976
▁lufto	-9.8519
▁sistemit	-9.85294
▁ardhmes	-9.85332
▁botëror	-9.85336
▁semundje	-9.85382
▁fute	-9.85392
▁përfundo	-9.85411
▁kujtohet	-9.85544
▁vetëdij	-9.85639
▁deti	-9.85665
▁shendet	-9.85687
▁hu	-9.85709
▁tënde	-9.85751
▁faj	-9.85825
▁lu	-9.85853
▁Indi	-9.8591
▁shtr	-9.85997
du	-9.86003
▁fa	-9.86065
▁vendim	-9.86135
riz	-9.86199
▁prodhoj	-9.86215
thënë	-9.86255
▁meshkujt	-9.8631
dhje	-9.86343
der	-9.86355
▁ndihmë	-9.86411
▁forca	-9.86419
▁Atëher	-9.8643
▁komplikuar	-9.86434
▁njihni	-9.86488
▁tende	-9.86537
▁plak	-9.86539
▁laborator	-9.8661
▁shfaqe	-9.86726
▁rrotull	-9.86767
▁arrij	-9.86786
▁sipërfaqe	-9.86795
▁shkojm	-9.86902
▁flisni	-9.86923
▁rritjen	-9.87197
ueshëm	-9.87229
▁Mes	-9.87326
▁ndrysho	-9.87363
▁fije	-9.87365
▁San	-9.87581
▁shpjegoj	-9.87735
▁forte	-9.87779
▁shkurt	-9.879
▁pe	-9.87904
▁Ra	-9.87928
▁zgjedh	-9.87969
▁kafshe	-9.87975
▁zemrë	-9.87979
▁forcë	-9.88018
▁Shumic	-9.88021
▁sekonda	-9.88024
▁soll	-9.88025
▁ecur	-9.88036
▁fshat	-9.88141
co	-9.88363
▁burim	-9.8846
ion	-9.88594
▁përse	-9.88881
▁ushqimit	-9.88886
▁ska	-9.8909
▁prindëri	-9.89122
▁punes	-9.89136
▁zbulua	-9.89285
▁kene	-9.89314
▁zi	-9.8932
▁gj	-9.89326
▁lindje	-9.89441
▁historia	-9.89497
▁detyra	-9.89561
▁zhvendos	-9.89561
▁kthev	-9.89561
▁Faliminderit	-9.89568
▁Qeshe	-9.89575
▁ajri	-9.89607
▁parim	-9.89609
▁zgjat	-9.89613
▁lojtar	-9.89615
▁prodhuar	-9.89619
▁kultura	-9.89632
▁dëgjoni	-9.89709
▁verë	-9.8982
▁gabime	-9.89847
▁bukura	-9.89989
▁publiku	-9.90022
▁Lu	-9.90047
▁interes	-9.90201
▁gjy	-9.90339
▁shpejtësi	-9.90385
pak	-9.90542
▁fest	-9.90613
yer	-9.90647
▁niveli	-9.9065
▁dëshironi	-9.908
▁rrjete	-9.9095
▁dokument	-9.90961
▁fus	-9.90976
▁praktike	-9.91096
▁India	-9.91097
kto	-9.91147
▁web	-9.91174
▁Afganistan	-9.91174
▁eksperience	-9.91174
▁fytyrë	-9.91174
▁vlen	-9.91188
▁shkruan	-9.91227
▁njëjti	-9.91342
▁bene	-9.91467
▁emocion	-9.91492
▁momente	-9.91522
▁arrijm	-9.91535
ud	-9.9159
▁objektiv	-9.91711
▁loje	-9.91766
▁keta	-9.9186
▁dyfish	-9.91912
▁motiv	-9.92082
▁behen	-9.92185
▁besh	-9.92188
▁direkt	-9.92189
▁Mar	-9.92263
▁Gjat	-9.92302
▁kod	-9.92372
▁zakon	-9.926
▁shkencë	-9.92608
ëshme	-9.92653
njehere	-9.92696
hem	-9.92743
▁shkenca	-9.92813
▁dhome	-9.92813
▁shëndet	-9.92814
▁organizata	-9.92815
▁vajzë	-9.92823
▁zero	-9.92853
▁paktën	-9.92862
▁ardhmj	-9.92879
▁not	-9.9292
▁larta	-9.92935
▁kamera	-9.93011
▁Ri	-9.93199
▁krijo	-9.93211
▁Kinë	-9.9331
▁shkua	-9.9339
▁mendua	-9.93398
▁Kish	-9.9347
▁Vete	-9.93657
▁grafik	-9.93837
▁zjarr	-9.93919
▁mundet	-9.93923
▁gjerave	-9.94068
▁artist	-9.94107
▁punen	-9.9414
▁pranoj	-9.94292
▁qëndroj	-9.94326
▁tregime	-9.94431
▁HIV	-9.9448
▁helm	-9.94483
▁ndryshëm	-9.94501
▁fik	-9.94557
▁lesh	-9.94579
▁organiz	-9.94603
▁duhen	-9.94656
▁veshur	-9.94707
▁vec	-9.94716
far	-9.94846
lek	-9.9487
▁kem	-9.94953
▁përfundim	-9.95111
itetit	-9.95162
uz	-9.95203
▁ndikim	-9.95268
▁koloni	-9.95397
▁rrug	-9.95443
▁përjet	-9.95462
▁mendimi	-9.95474
▁imazh	-9.9554
▁lloji	-9.95622
▁global	-9.9565
▁fort	-9.95721
▁her	-9.95921
▁tip	-9.95935
▁tregim	-9.95967
Q	-9.95979
las	-9.96031
▁Amerikane	-9.96063
▁Megjithat	-9.96175
▁zyrtar	-9.96175
▁ekstrem	-9.96175
▁ndertesa	-9.96176
▁Universiteti	-9.96177
▁qendër	-9.96187
▁baza	-9.96212
▁kërkuar	-9.96234
▁mbetur	-9.96239
▁njera	-9.96259
▁akt	-9.96384
▁grupi	-9.96435
▁masë	-9.96501
▁mbushur	-9.96593
▁grumbull	-9.96603
▁shkencëtarë	-9.96605
▁lagje	-9.96629
kohë	-9.96637
▁The	-9.96656
▁përreth	-9.96828
▁shëndeti	-9.96858
▁uje	-9.96876
▁mahnit	-9.96887
▁dem	-9.97047
cën	-9.9735
by	-9.97381
▁qytete	-9.97416
▁eksplor	-9.9748
▁mbete	-9.97485
▁krijojnë	-9.97538
▁pastr	-9.9755
▁teknik	-9.97695
▁shkence	-9.97759
▁shprehje	-9.97834
▁nëna	-9.97869
▁shfrytëz	-9.97899
▁seksual	-9.97901
▁John	-9.97904
▁zonë	-9.97955
▁kontrolli	-9.9799
▁vu	-9.98006
▁nate	-9.98256
▁qeveris	-9.98352
▁kupton	-9.98368
▁shk	-9.98397
▁gjat	-9.98471
▁plan	-9.98474
▁prodhon	-9.98549
▁llogarit	-9.9859
▁studimi	-9.9883
acioni	-9.98869
gjatë	-9.98893
▁krahasim	-9.98934
▁Su	-9.9902
▁gjak	-9.99037
▁duk	-9.99055
osur	-9.99066
▁Tokë	-9.99145
▁Li	-9.99184
▁plotës	-9.99203
▁natyral	-9.99203
dha	-9.99232
▁programi	-9.99302
▁ligji	-9.99324
▁park	-9.99384
▁biznese	-9.99539
▁eks	-9.99559
gram	-9.9958
▁varfëri	-9.99636
▁veç	-9.99644
▁jashtezakon	-9.99653
▁shkëlqyer	-9.99653
▁fytyre	-9.99654
▁majtë	-9.99655
▁kundrejt	-9.99655
▁thoja	-9.99656
▁Njerez	-9.9968
▁24	-9.99683
acion	-9.99715
rësisht	-9.99721
▁komplekse	-9.99763
▁mbani	-9.99823
▁origjinal	-9.99962
tej	-9.99974
▁kalimi	-9.9998
▁kushton	-9.99984
gra	-10
▁tua	-10.0005
▁ilaçe	-10.0025
▁qytetin	-10.0027
▁miq	-10.0051
▁dalë	-10.0055
▁secilin	-10.0062
shtu	-10.0062
▁pozitive	-10.0065
▁shty	-10.0069
▁paqe	-10.0086
▁telefoni	-10.0092
▁Co	-10.0096
▁nivelin	-10.0101
▁mur	-10.0108
▁vizit	-10.0115
▁përdorni	-10.0121
oz	-10.0124
itetin	-10.0124
▁kop	-10.0127
▁dëshirë	-10.0128
ow	-10.0128
▁Thjesht	-10.0144
▁fenomen	-10.0144
▁shmang	-10.0144
▁situatë	-10.0144
▁vëzhg	-10.0144
▁ëndërr	-10.0144
▁krenar	-10.0144
▁Cila	-10.0144
▁21	-10.0146
▁baze	-10.0148
▁kryesisht	-10.0148
▁kombi	-10.015
▁zone	-10.0152
▁humb	-10.0154
▁rrjeti	-10.0165
▁kerkua	-10.0167
▁vdesin	-10.0167
▁gjdo	-10.017
▁bised	-10.0176
▁Zot	-10.018
▁dëshir	-10.0185
▁ngja	-10.0185
shtë	-10.0195
▁kujt	-10.0199
▁mbledh	-10.0211
▁vjeter	-10.0212
▁ekonomis	-10.0222
▁ekipi	-10.0229
mam	-10.023
▁financiare	-10.0237
▁qëllim	-10.0244
▁shoqërore	-10.025
▁lajm	-10.0254
▁përmend	-10.0259
mas	-10.0259
▁sekret	-10.0263
▁lejoj	-10.0275
▁universi	-10.0312
▁oper	-10.0319
▁qellim	-10.0323
▁strategji	-10.0326
▁çmendur	-10.0326
▁fytyra	-10.0326
▁debat	-10.0326
▁thuhe	-10.0326
▁idenë	-10.0327
▁saktësisht	-10.0328
▁rris	-10.033
▁qendron	-10.0333
▁koke	-10.0335
erisht	-10.034
▁mace	-10.0344
▁199	-10.0345
▁jashtme	-10.0345
▁skenë	-10.0353
▁argument	-10.037
▁al	-10.037
▁gjasht	-10.0376
▁duar	-10.0384
▁statistika	-10.0385
▁mjet	-10.0408
▁shokë	-10.0431
▁pergjigj	-10.0432
fik	-10.0433
▁tregimi	-10.0438
▁përfundoj	-10.0445
▁besojm	-10.0476
▁eci	-10.0495
▁sërish	-10.0496
▁kthehen	-10.0496
▁shumt	-10.0503
▁kalo	-10.0504
▁mrekulluesh	-10.0508
▁vizion	-10.0511
▁plastike	-10.0511
▁zemre	-10.0512
▁faktor	-10.0512
▁brendshme	-10.0516
ard	-10.0518
sioni	-10.0529
▁sallë	-10.053
▁500	-10.0534
▁shkel	-10.054
reth	-10.0545
ashtu	-10.0552
▁mundësinë	-10.0558
▁mesatare	-10.0563
▁rreziku	-10.0566
▁pyesni	-10.0582
▁Lo	-10.0584
▁mësuesi	-10.0587
▁ndan	-10.0591
▁imagjin	-10.0594
▁dritare	-10.0594
▁Mu	-10.0608
▁kerkoj	-10.0608
▁nxit	-10.0611
▁peshe	-10.062
▁rrë	-10.0622
▁robot	-10.0635
▁fetare	-10.0649
▁Hi	-10.065
▁arrijn	-10.0653
▁depresioni	-10.0659
▁kritike	-10.0671
▁interesant	-10.0673
▁tend	-10.0675
▁lider	-10.0678
▁financ	-10.0679
ly	-10.0683
▁uri	-10.0686
▁dëm	-10.0687
▁Twitter	-10.07
▁Pyetj	-10.07
▁barabart	-10.07
▁klasa	-10.07
▁Nju	-10.07
▁klase	-10.07
▁ngrihe	-10.07
▁kulture	-10.07
▁vdiq	-10.07
▁shkro	-10.0709
▁natyrë	-10.0713
ence	-10.0716
▁prekur	-10.0741
▁tingulli	-10.0746
▁motor	-10.0748
▁patent	-10.0751
▁gjallë	-10.0752
shmeri	-10.077
▁efektiv	-10.0778
▁qind	-10.0778
▁rregulla	-10.0785
▁mesazhe	-10.0786
▁paraqit	-10.0792
▁fi	-10.0793
▁identiteti	-10.0797
▁gaz	-10.0817
▁sipër	-10.0821
▁trupa	-10.0822
▁ofr	-10.0823
▁dyqan	-10.0824
▁rezultati	-10.0836
▁rol	-10.0844
▁respekt	-10.0848
▁përpiqem	-10.0851
▁aftë	-10.0863
▁bllok	-10.0865
▁hartë	-10.0867
▁shihe	-10.0879
▁popullsis	-10.0883
▁Afrike	-10.0892
▁Chris	-10.0892
▁Muzike	-10.0892
▁kontakt	-10.0892
▁kombëtar	-10.0892
▁friksh	-10.0894
▁pabesueshme	-10.0896
▁djathtë	-10.0898
▁supoz	-10.0908
▁shkojn	-10.0914
▁menjëherë	-10.0928
▁qytetet	-10.0932
▁Shko	-10.0936
▁pij	-10.0943
▁politikë	-10.0961
▁super	-10.0966
▁zhvillohe	-10.0971
▁hyn	-10.0983
llon	-10.0984
▁unik	-10.0985
▁dil	-10.1008
▁ndryshojm	-10.1012
▁realiz	-10.1017
bra	-10.1029
▁objekt	-10.103
viz	-10.1035
▁shumicë	-10.1071
▁veçan	-10.1073
▁ndez	-10.1076
▁drejtuar	-10.1077
▁studi	-10.1078
▁internetit	-10.1085
ub	-10.1087
▁Amerike	-10.1088
▁kohor	-10.1088
▁çast	-10.1089
▁vras	-10.1089
▁shans	-10.1089
▁historine	-10.1089
▁qendroj	-10.1092
▁çuditshm	-10.1096
ueshem	-10.1097
▁yje	-10.1098
▁Kaliforni	-10.1101
▁Jugu	-10.1102
▁universitet	-10.1105
▁mbyllur	-10.1116
▁Sta	-10.1117
▁prano	-10.1117
▁ngjitur	-10.1121
▁element	-10.1122
▁zgjedhur	-10.1129
▁kujtoj	-10.1132
▁takoj	-10.1134
▁mendime	-10.1135
▁emocional	-10.1137
rra	-10.1138
▁total	-10.1138
▁llogari	-10.1141
▁kontrolloj	-10.1143
▁dizajni	-10.115
▁madhësi	-10.1152
▁zhduke	-10.1154
▁presim	-10.1155
▁proteina	-10.1161
▁masa	-10.1165
▁mbështet	-10.1174
▁detaje	-10.1184
▁politik	-10.1194
▁lidhe	-10.1195
▁pasion	-10.1197
▁themel	-10.12
▁vjetra	-10.1203
▁shpik	-10.1206
▁lojë	-10.1211
▁kerkon	-10.1215
ologji	-10.1217
▁real	-10.1222
▁vleres	-10.1224
▁mbroj	-10.1228
▁pë	-10.1229
▁ab	-10.1246
▁revolucioni	-10.1249
vit	-10.1251
▁gen	-10.1266
▁thuaj	-10.1267
▁fsheh	-10.1269
nder	-10.1269
▁dhimb	-10.1277
▁Irani	-10.1281
▁ligj	-10.1282
▁Muzikë	-10.1288
▁alternativ	-10.1288
▁dhembshuri	-10.1288
▁kolegë	-10.1288
▁kategori	-10.1288
▁zemra	-10.1288
▁shëndetësor	-10.1288
▁kufizuar	-10.1289
▁dakor	-10.129
▁shër	-10.1293
▁prinder	-10.1298
50	-10.13
cen	-10.13
▁mbuluar	-10.1305
▁bejm	-10.1312
▁njerëzor	-10.1321
▁term	-10.1324
▁vere	-10.1324
▁vecante	-10.1329
▁gjerë	-10.133
▁emër	-10.1335
▁kontrolluar	-10.1341
F	-10.1345
▁kyç	-10.1347
▁mas	-10.1353
▁mendor	-10.1359
▁Pete	-10.1361
▁pir	-10.1363
▁provo	-10.1367
▁saq	-10.1411
▁ligje	-10.1414
diq	-10.1424
▁Har	-10.1425
▁vërteta	-10.1429
▁individ	-10.1438
▁zh	-10.1444
▁prape	-10.1449
▁vecant	-10.1451
▁varfer	-10.1456
▁Ndër	-10.1459
risë	-10.1462
▁kompleks	-10.1469
▁Jane	-10.1478
▁jug	-10.148
▁mjedis	-10.1482
▁sidomo	-10.1492
▁radhë	-10.1492
▁mungon	-10.1492
▁planete	-10.1498
▁gatsh	-10.1504
▁masiv	-10.1507
▁Pun	-10.1514
▁trajtimi	-10.1514
▁transmet	-10.1515
▁sher	-10.1517
▁rend	-10.1531
esit	-10.1535
thi	-10.1536
▁ritmi	-10.1547
▁kufij	-10.1555
▁industrial	-10.1568
▁ndaluar	-10.1569
▁ndihen	-10.157
▁jote	-10.1576
▁bashkuar	-10.1581
▁hart	-10.1583
▁gazetar	-10.1584
▁dizajn	-10.159
▁shërbime	-10.1598
skush	-10.16
▁Kisha	-10.161
▁ndalon	-10.1613
▁pu	-10.1625
▁nevoja	-10.1626
▁bor	-10.1628
▁fshi	-10.1638
▁Pasi	-10.1642
▁bukuri	-10.1647
▁sigurtë	-10.1655
▁shpejtesi	-10.1659
▁fut	-10.1667
oma	-10.1672
▁biznes	-10.1685
▁vizual	-10.1686
▁shij	-10.1687
▁dërgoj	-10.1687
▁sekond	-10.1695
▁Falemnderit	-10.17
▁instrument	-10.17
▁lufta	-10.17
▁pabarazi	-10.17
▁panjohur	-10.17
▁pafund	-10.17
▁radio	-10.1701
▁habit	-10.1701
▁qendror	-10.1703
▁terapi	-10.1703
▁quan	-10.1705
▁dukshme	-10.1709
▁ndjenja	-10.1717
▁Mendoni	-10.1717
▁tjetri	-10.1718
▁takov	-10.1725
▁shihj	-10.1726
▁miqt	-10.1728
▁fu	-10.1733
▁300	-10.1748
▁vene	-10.1754
olog	-10.1761
▁molekula	-10.1769
▁preferuar	-10.177
▁kimik	-10.1783
▁ndi	-10.1788
▁son	-10.1788
▁email	-10.1794
▁rasti	-10.1799
▁kol	-10.18
▁gri	-10.1808
pro	-10.1812
▁nivele	-10.1819
▁dixhitale	-10.1819
▁lash	-10.182
lluar	-10.1828
▁muzikë	-10.185
▁fil	-10.1859
dër	-10.1864
▁shqetes	-10.1866
sine	-10.1872
▁par	-10.1874
▁normal	-10.1877
▁gju	-10.1879
ord	-10.1883
▁populli	-10.1889
▁kreativ	-10.19
▁thell	-10.191
▁mikro	-10.1911
▁aksident	-10.1913
▁inteligjent	-10.1913
▁pyll	-10.1913
▁njësi	-10.1914
▁gishta	-10.1914
▁mbart	-10.1914
▁Vendos	-10.1914
▁shtate	-10.1915
▁armë	-10.1916
▁Lester	-10.1917
▁ekran	-10.1921
▁vjecare	-10.193
▁plotes	-10.1932
▁Natyr	-10.1932
▁ulet	-10.1942
▁donin	-10.1945
▁pendim	-10.1956
▁qa	-10.1959
▁nepër	-10.1962
▁mik	-10.1971
▁vazhdim	-10.198
azh	-10.1982
▁bomba	-10.1984
▁njerëzish	-10.199
▁djemt	-10.2003
▁bosh	-10.2011
▁turp	-10.2014
▁trete	-10.2018
▁gjalle	-10.2024
▁muzika	-10.2041
▁ndarje	-10.2044
▁pres	-10.2045
▁burri	-10.2047
▁Tek	-10.2047
▁krijojm	-10.2056
▁Tre	-10.2059
▁inxhinier	-10.206
▁fjalimi	-10.2062
▁tetë	-10.2072
▁pozicion	-10.2075
▁magji	-10.2076
▁suksesi	-10.2078
▁specifike	-10.2084
▁Pri	-10.2104
▁fëmij	-10.2108
▁pashë	-10.2116
▁ardhme	-10.2118
ed	-10.2126
▁Faktikisht	-10.2131
▁Higgs	-10.2131
▁eksperienca	-10.2131
▁balanc	-10.2131
▁evolucioni	-10.2131
▁ekspert	-10.2131
▁mëdhenj	-10.2131
▁shishe	-10.2133
▁hershme	-10.214
rus	-10.2145
roni	-10.2167
▁ngjyrë	-10.2176
▁gjer	-10.2179
▁funksionoj	-10.2194
▁ekspoz	-10.2195
▁shet	-10.2197
▁inde	-10.2199
▁kujton	-10.2199
▁ekzistojn	-10.22
▁imazhi	-10.2201
▁dr	-10.2207
▁patë	-10.221
▁prani	-10.2211
▁rrugës	-10.2215
▁bardhë	-10.2216
▁zeza	-10.2221
▁amerikanë	-10.2226
▁munden	-10.2235
▁qelizave	-10.2242
llu	-10.225
▁kthehesh	-10.2267
amp	-10.2272
▁No	-10.2282
▁gjumi	-10.2283
▁shpenzoj	-10.2284
▁themelor	-10.2286
▁vrap	-10.2287
fish	-10.2312
▁vjeçare	-10.2329
▁holl	-10.233
▁intereson	-10.2336
rine	-10.2336
perfshire	-10.2339
▁ruaj	-10.2342
▁kundërt	-10.2346
▁Alzheimer	-10.2353
▁anglisht	-10.2353
▁prisni	-10.2353
▁profesor	-10.2353
▁Arsye	-10.2353
▁Problem	-10.2353
▁arkitektura	-10.2355
▁kërc	-10.2357
▁ndesh	-10.236
▁ushtar	-10.2363
▁dobish	-10.2366
▁futur	-10.2369
▁Ok	-10.2369
▁shprese	-10.2369
▁shikuar	-10.2374
ou	-10.2376
▁operacion	-10.2378
▁fushe	-10.238
▁bindur	-10.2389
▁karakteristika	-10.2392
▁thirrje	-10.2401
▁ngjyre	-10.2404
kujt	-10.2418
▁shpejte	-10.2421
▁rajon	-10.2423
▁anije	-10.2429
▁vish	-10.2431
▁reklama	-10.2436
▁treta	-10.2438
▁shpresa	-10.2451
▁hapi	-10.2453
▁seksi	-10.2465
mbi	-10.2467
▁nderto	-10.2474
▁tjetr	-10.2478
▁vrar	-10.2481
▁pes	-10.2498
etik	-10.2501
▁nevoj	-10.2501
▁tërheq	-10.2503
▁fjali	-10.2505
▁gjenetike	-10.2508
▁shtetit	-10.2509
bashku	-10.2532
▁gëz	-10.2537
▁historis	-10.2538
▁natyra	-10.2542
▁mba	-10.2545
▁mesues	-10.2547
▁udhët	-10.2548
▁veta	-10.2565
▁ishe	-10.2568
▁subjekt	-10.2569
▁ball	-10.257
▁pushteti	-10.2571
▁ora	-10.2572
▁pata	-10.2575
▁shpërnda	-10.2576
▁mbeshtet	-10.258
▁jetëgjatësi	-10.258
▁satelit	-10.258
▁duartrokitje	-10.258
▁ndihme	-10.258
▁rroba	-10.2581
▁letër	-10.2581
▁ndjenjë	-10.2583
▁zbulojm	-10.2592
▁rrezikshme	-10.2598
▁kënaqësi	-10.2601
▁dhene	-10.2604
▁To	-10.2605
▁shen	-10.2607
▁afrohe	-10.2611
▁mosha	-10.2613
▁ndjekur	-10.2615
▁perdori	-10.2615
ël	-10.2617
▁fjalim	-10.2618
ësisë	-10.2636
sisë	-10.2643
▁njerëzimi	-10.2644
▁ndahe	-10.2644
▁munges	-10.2655
▁kthej	-10.2657
▁ati	-10.2666
▁ngroh	-10.2667
▁sakt	-10.2683
▁ofroj	-10.2683
itur	-10.2683
▁lidhen	-10.2684
zh	-10.2689
▁Interneti	-10.269
▁shpjegon	-10.2691
L	-10.2692
▁ekip	-10.2704
▁komunitetit	-10.2715
▁terma	-10.2716
▁kërkimi	-10.2717
▁gjys	-10.2721
▁Jet	-10.2727
▁benin	-10.2738
▁dje	-10.2746
▁mbr	-10.2758
▁Mendo	-10.2758
▁biseda	-10.2767
▁tjerëve	-10.2769
▁ki	-10.2779
▁njerezore	-10.2791
▁kredi	-10.2793
▁tregov	-10.2797
▁redukt	-10.2797
▁adoleshent	-10.2813
▁kolektiv	-10.2813
▁situata	-10.2813
▁vullnetar	-10.2813
▁refuz	-10.2813
▁Shpresoj	-10.2813
▁përvojë	-10.2813
▁Japoni	-10.2813
▁deshiroj	-10.2813
▁krizë	-10.2813
▁avion	-10.2813
▁anonim	-10.2813
▁krahas	-10.2814
▁veshtir	-10.2815
▁aktivitete	-10.2816
▁pavarësisht	-10.2817
▁komunikimi	-10.2826
▁planifik	-10.2829
▁nda	-10.2834
▁erdh	-10.2837
▁Ide	-10.2839
▁kërkime	-10.2843
▁fotograf	-10.2844
▁gjetë	-10.285
▁cilës	-10.2852
▁lexo	-10.2853
▁trup	-10.2863
▁dinim	-10.2869
▁shok	-10.2872
▁plote	-10.2876
▁bashke	-10.2879
▁llojet	-10.2885
▁fantastike	-10.2896
▁seri	-10.2899
▁frymez	-10.2917
pel	-10.2921
▁quajt	-10.2924
▁femij	-10.2932
▁biologji	-10.2948
▁jepe	-10.2952
▁burimi	-10.2953
▁teknologjik	-10.2962
▁perpiqe	-10.2963
▁flis	-10.2968
▁gu	-10.2977
▁private	-10.298
▁harta	-10.2981
▁sill	-10.2983
▁edukim	-10.2985
▁efekti	-10.299
▁menduari	-10.3005
▁shpresë	-10.3016
▁rregullat	-10.3016
▁laboratori	-10.302
▁udhëheq	-10.3022
▁barazi	-10.3027
ric	-10.3029
▁përhap	-10.3035
bur	-10.305
▁intervist	-10.3051
▁merimanga	-10.3051
▁shpenzime	-10.3051
▁vegjël	-10.3051
▁klinik	-10.3051
▁pikëpamj	-10.3051
▁bazohe	-10.3051
▁shfaqje	-10.3051
▁artikull	-10.3052
▁2008	-10.3053
▁rezistenc	-10.3054
▁rresht	-10.3055
▁ndarë	-10.3057
▁kuptosh	-10.3066
▁ndare	-10.3067
▁pashe	-10.3072
▁peshk	-10.3076
▁krahasuar	-10.3077
mbe	-10.3083
huni	-10.3085
▁institucione	-10.3093
here	-10.3102
ula	-10.3114
▁dhunë	-10.312
rime	-10.3127
▁Jem	-10.3134
▁Ber	-10.3139
▁permend	-10.3141
▁ushqime	-10.3144
▁fabrik	-10.3145
▁Europë	-10.3146
▁këngë	-10.3147
▁toka	-10.3147
▁dilni	-10.3147
▁kushte	-10.3151
▁sinjal	-10.3154
▁familjare	-10.3155
▁Rr	-10.3155
▁dhjet	-10.3161
▁jetoni	-10.3163
▁Go	-10.3177
▁qytetarë	-10.3178
▁filma	-10.318
▁mendim	-10.3187
▁aspekt	-10.3191
▁meqë	-10.3196
▁komuniteti	-10.3207
▁shkëmb	-10.3216
uk	-10.3218
▁udhetim	-10.3218
▁kufi	-10.3224
▁përbë	-10.3228
▁veshje	-10.3232
▁shoku	-10.325
▁Tu	-10.3255
▁krijoni	-10.3265
▁mija	-10.3275
▁deklar	-10.3295
▁milingona	-10.3295
▁viktima	-10.3295
▁siguruar	-10.3295
▁hapësira	-10.3295
▁gjigand	-10.3295
▁goxha	-10.3295
ësit	-10.3295
▁gjysma	-10.3295
▁ndikon	-10.3296
▁Rreth	-10.3296
▁pronar	-10.3297
▁shumice	-10.3297
xhi	-10.3297
▁mbijetoj	-10.3299
▁majë	-10.3302
rore	-10.3308
▁pacient	-10.3311
▁provojm	-10.3314
▁zogj	-10.3322
▁Hap	-10.3322
▁qesharake	-10.3326
▁letre	-10.3334
▁gjysme	-10.334
▁teknika	-10.3343
▁ambient	-10.3347
▁kundert	-10.3349
▁ndërtimi	-10.3351
▁secil	-10.3357
▁natyror	-10.3357
▁kërkim	-10.3364
▁mase	-10.3375
kull	-10.3377
▁efekte	-10.3382
▁vjecar	-10.3393
stër	-10.3404
▁përshk	-10.3405
▁luan	-10.3409
▁bler	-10.3414
▁dale	-10.3414
▁çfar	-10.3415
▁eksperimente	-10.3419
▁komunitet	-10.3432
▁shkop	-10.3435
▁paguaj	-10.3452
▁paciente	-10.3452
▁zbat	-10.3453
▁pate	-10.3457
▁Pi	-10.3468
▁ho	-10.3475
▁Irak	-10.3483
▁dallimi	-10.3485
▁beson	-10.3486
▁Gjith	-10.3487
▁miu	-10.349
▁periudhe	-10.349
▁miri	-10.3492
▁Pjes	-10.3498
▁udhëtim	-10.3499
▁kryer	-10.3503
▁dallo	-10.3503
▁Vi	-10.351
▁vdes	-10.3513
▁mij	-10.3529
▁vije	-10.353
▁special	-10.3531
▁hapa	-10.3539
▁ndryshoni	-10.354
▁tatuazh	-10.3545
▁rezerv	-10.3545
▁listë	-10.3545
▁shtresa	-10.3545
▁mobil	-10.3545
▁lësh	-10.3546
▁Bill	-10.3547
▁Anglisht	-10.3548
▁mbeturina	-10.3549
▁motra	-10.3552
▁farë	-10.3552
▁qytetar	-10.3552
▁400	-10.3553
▁dallime	-10.3557
▁fokusuar	-10.3563
▁perball	-10.3564
▁gjitheve	-10.3566
▁leter	-10.3568
▁peme	-10.3571
▁ngritur	-10.3577
▁modern	-10.3578
▁lar	-10.3588
▁anëtar	-10.3591
▁thyer	-10.3591
▁Ni	-10.3594
▁tub	-10.36
▁kujdesi	-10.3601
▁aftësitë	-10.3606
▁natyrës	-10.3609
▁kopje	-10.361
▁pyetur	-10.3614
▁prindër	-10.3617
▁mëndafshi	-10.3617
▁gur	-10.3618
▁mrekulli	-10.3626
▁fuqishëm	-10.3628
▁tumor	-10.3629
▁procesin	-10.3632
▁hulumt	-10.3632
▁karakter	-10.3633
ësuar	-10.3635
,	-10.3654
▁magjik	-10.3654
▁zbuloj	-10.3658
▁filloni	-10.3665
▁gene	-10.3669
▁pranojm	-10.3671
▁zhvilloj	-10.3672
para	-10.3677
▁kushtet	-10.3677
▁frikës	-10.3683
▁Britani	-10.3685
▁trisht	-10.3696
▁vija	-10.3702
ker	-10.3728
▁kapi	-10.373
ohesh	-10.3748
▁humbi	-10.3752
▁siper	-10.3753
▁dike	-10.3755
▁konflikt	-10.3766
▁ofron	-10.3767
▁mjaftuesh	-10.3773
▁dëshirojm	-10.3773
▁fshati	-10.3775
▁zhurm	-10.3778
▁avokat	-10.3801
▁inkuraj	-10.3801
▁situate	-10.3801
▁monitor	-10.3801
▁Cfarë	-10.3801
▁klimë	-10.3801
▁gjenerata	-10.3801
▁zgjodh	-10.3801
▁vepra	-10.3801
▁shef	-10.3802
▁gjykim	-10.3803
▁krejtësisht	-10.3803
▁deshire	-10.3804
▁ndjer	-10.3806
▁luftuar	-10.3806
▁vecan	-10.3807
▁75	-10.3807
▁algoritme	-10.3809
stin	-10.3812
▁vrim	-10.3814
▁dërg	-10.3816
▁mjekësor	-10.3818
▁moshuarit	-10.3819
▁mir	-10.3819
▁gjyshe	-10.382
▁autizmi	-10.3822
ografi	-10.3823
▁ndertimi	-10.3832
▁kulturor	-10.3838
▁identifik	-10.3842
▁jasht	-10.3849
▁Merr	-10.385
dhun	-10.3853
▁mbrapsht	-10.3856
▁pushim	-10.3857
▁kalua	-10.3877
▁pengesa	-10.3881
▁She	-10.3887
▁zjarri	-10.3888
mike	-10.3898
▁pesh	-10.391
H	-10.3913
▁zbulim	-10.3914
V	-10.3915
▁ushqimi	-10.3919
caktuar	-10.3919
kuptim	-10.3931
▁bisedë	-10.3932
▁furniz	-10.3937
ative	-10.3938
▁gjuh	-10.394
▁dyti	-10.3946
▁dhash	-10.3958
▁pension	-10.3962
▁zgjidhni	-10.3968
▁reag	-10.3969
▁shto	-10.3972
▁top	-10.3975
▁filozofi	-10.3978
▁godit	-10.3981
▁shkri	-10.4013
ham	-10.4022
▁perfundim	-10.4035
▁diskutim	-10.4036
▁guxim	-10.4037
▁gjenden	-10.4043
hme	-10.4047
▁aplikacion	-10.4064
▁demonstr	-10.4064
▁falemnderit	-10.4064
▁perpjekje	-10.4064
▁printer	-10.4064
▁rreziqe	-10.4064
▁dinamik	-10.4064
▁mekanik	-10.4064
▁qelizë	-10.4064
▁detyro	-10.4064
▁provë	-10.4064
▁mbyt	-10.4065
▁lekure	-10.4065
▁Adam	-10.4065
▁rehat	-10.4065
▁Haiti	-10.4066
▁strukture	-10.4066
▁qendra	-10.4067
▁lende	-10.4069
▁shpeto	-10.407
▁cent	-10.4076
▁komp	-10.4093
duk	-10.4093
▁vre	-10.4106
▁Siç	-10.4113
orët	-10.4119
shka	-10.4125
▁përfshin	-10.4135
▁vajt	-10.414
▁paster	-10.4141
▁pertej	-10.4141
bër	-10.4147
▁potencial	-10.4166
▁ndihmo	-10.4172
▁muzikant	-10.4174
ult	-10.4179
▁pasqyr	-10.4197
▁zgj	-10.4198
▁deshiron	-10.4205
▁përshtat	-10.4205
▁saktë	-10.4208
oheshi	-10.4213
▁shkencore	-10.4215
▁tipi	-10.4221
▁shkat	-10.4222
▁indi	-10.4226
▁Pat	-10.423
▁besojnë	-10.4234
ritm	-10.4235
▁pergjat	-10.4239
ley	-10.4241
▁Cit	-10.4258
▁Tok	-10.4261
▁rendësishm	-10.427
▁thirr	-10.4276
▁Mua	-10.4279
▁Hu	-10.4296
rip	-10.431
▁Car	-10.4313
tive	-10.4313
▁absolutish	-10.4316
▁madhesi	-10.4318
pres	-10.4322
▁shfaqen	-10.4331
▁ushqimin	-10.4332
▁muri	-10.4334
▁zëvendës	-10.4334
▁optimist	-10.4334
▁rradhë	-10.4334
▁rradhe	-10.4335
▁pavaresi	-10.4335
▁majte	-10.4335
▁shaka	-10.4336
▁mbrojtur	-10.4336
▁tualet	-10.4336
▁perfekte	-10.4336
▁shenjt	-10.4336
▁evoluar	-10.4338
▁ndjehe	-10.434
▁tutje	-10.434
▁Art	-10.4344
▁brez	-10.4348
▁vënd	-10.4349
▁Kiri	-10.4353
▁verbër	-10.4364
▁Burr	-10.437
▁përdorë	-10.4372
▁And	-10.4376
▁Quhe	-10.4388
▁kufiri	-10.4389
▁dikur	-10.4399
▁distanc	-10.4407
▁pergjithsh	-10.4411
▁kineze	-10.4414
▁seks	-10.4421
▁dalloj	-10.4423
▁lënd	-10.4424
▁Imagjinon	-10.4427
▁vazhdojm	-10.443
▁qyteteve	-10.4442
▁enderr	-10.4453
▁universal	-10.4458
▁tregje	-10.446
▁ndodhen	-10.4463
▁diferenca	-10.4465
▁konsider	-10.4466
▁dërgon	-10.4466
▁shoqe	-10.4466
▁Tra	-10.4466
▁rëndë	-10.4474
▁ndikimi	-10.4482
▁gazeta	-10.4489
drejt	-10.4491
▁Lindje	-10.4493
▁rënd	-10.4493
▁vjeçar	-10.4504
▁shohë	-10.4508
▁shkall	-10.4511
▁përdoren	-10.4515
▁kalojm	-10.4527
▁individuale	-10.4529
▁drejtues	-10.4531
▁siguroj	-10.4544
▁perfundo	-10.4546
▁mbledhje	-10.4551
▁befas	-10.4552
▁interesa	-10.4572
▁gjere	-10.458
▁forta	-10.458
▁nota	-10.4581
▁kërko	-10.4591
▁lule	-10.4597
kisht	-10.4598
▁kanal	-10.46
▁arkitekt	-10.4608
▁Norden	-10.4612
▁bashkepun	-10.4612
▁braktis	-10.4612
▁eksperiencë	-10.4612
▁merimangë	-10.4612
▁privilegj	-10.4612
▁siperfaqe	-10.4612
▁vegjel	-10.4612
▁kozmik	-10.4612
▁parashikim	-10.4612
▁relativ	-10.4612
▁transformoj	-10.4612
▁krijimtari	-10.4613
▁zemer	-10.4613
▁përvoja	-10.4613
▁paguar	-10.4613
▁198	-10.4614
▁kontra	-10.4615
▁shofer	-10.462
▁tabel	-10.4621
▁gjysh	-10.4622
▁gjuhës	-10.4625
▁dhënash	-10.4636
▁vuan	-10.4641
▁Cdo	-10.4642
▁Kina	-10.4642
▁buton	-10.4643
▁matur	-10.4645
▁racional	-10.4648
▁lejo	-10.4654
▁kritik	-10.4655
▁popullsi	-10.4664
▁specifik	-10.4672
▁baktere	-10.4675
▁Iraku	-10.4682
▁humbe	-10.4693
▁perdorimi	-10.4697
▁vur	-10.47
▁përmbajtje	-10.4704
dhen	-10.4707
▁përgjegjësi	-10.4711
▁gjurm	-10.4735
▁veprim	-10.4741
▁deg	-10.4743
▁akulli	-10.4749
▁pakte	-10.4751
▁kompjuterike	-10.4751
pas	-10.4753
▁morë	-10.4754
▁krijohe	-10.4754
▁ver	-10.4758
▁Publiku	-10.476
▁fshehur	-10.4765
▁mure	-10.4771
▁flisj	-10.4802
▁punojm	-10.4803
inat	-10.481
ende	-10.4815
▁perdorni	-10.482
▁erdhe	-10.4824
▁reflekt	-10.4824
▁shih	-10.4835
▁afte	-10.484
▁elemente	-10.4848
▁parandal	-10.4857
▁mëngjes	-10.4872
▁vizatim	-10.4878
▁bin	-10.4887
ble	-10.4892
▁opinion	-10.4898
▁xhep	-10.4898
▁simbol	-10.4898
▁cmendur	-10.4898
▁dhoma	-10.4898
▁tinguj	-10.4898
▁shkrimtar	-10.4898
▁pyje	-10.4898
▁sekuenc	-10.4898
▁rreze	-10.4898
▁metoda	-10.4898
ini	-10.49
▁kenaqesi	-10.49
▁studio	-10.49
▁ngel	-10.4901
▁Ateher	-10.4901
▁shtuar	-10.4903
▁gjysëm	-10.4904
▁vërej	-10.4904
▁ndaloj	-10.4907
▁shitje	-10.4908
▁lejuar	-10.491
▁zhvillimit	-10.4912
▁telefonat	-10.4914
▁shtepia	-10.4917
▁besuar	-10.4918
▁absolut	-10.4919
▁Pre	-10.4921
▁xhami	-10.4929
▁hoq	-10.4936
▁fito	-10.4941
▁hequr	-10.4943
▁fise	-10.4943
▁shkaktuar	-10.4944
▁familja	-10.4951
▁dru	-10.4959
▁zbulimi	-10.4959
▁privatësi	-10.4963
▁Gjej	-10.4964
▁miliarda	-10.4964
▁dëgjo	-10.4968
▁ndërto	-10.4973
▁Nder	-10.4973
les	-10.4974
tave	-10.4977
▁rrugen	-10.4979
▁der	-10.4985
▁inform	-10.4986
▁mal	-10.4992
▁vrapoj	-10.4998
▁lejojn	-10.5009
▁gjithëve	-10.5033
▁llogaritje	-10.5044
▁ngushtë	-10.5045
nyra	-10.5052
▁vlere	-10.5057
ohem	-10.5071
▁përmirës	-10.5079
▁Cha	-10.5079
▁artit	-10.5082
▁ngritje	-10.5101
▁shtoj	-10.5107
▁studioj	-10.5121
▁arriti	-10.5129
com	-10.5137
▁tjetrë	-10.5142
▁gji	-10.5147
▁tjetrit	-10.5148
▁krah	-10.5157
kend	-10.5159
▁frymë	-10.5159
▁mësoni	-10.5162
oze	-10.5167
qendro	-10.5173
▁perse	-10.5174
kal	-10.5175
ld	-10.5179
▁merzit	-10.5179
▁funksionojn	-10.5179
▁individë	-10.518
▁ekrani	-10.5182
▁mbul	-10.5189
▁aktor	-10.519
▁shimpanze	-10.5192
▁Washington	-10.5192
▁afrikan	-10.5192
▁apartament	-10.5192
▁brengos	-10.5192
▁matematikë	-10.5192
▁vegla	-10.5192
▁zyre	-10.5192
▁Kombe	-10.5192
▁harruar	-10.5192
▁kuzhin	-10.5192
▁protest	-10.5192
▁ndërtesa	-10.5192
▁bakterie	-10.5193
▁aparat	-10.5193
▁ruajtur	-10.5193
▁arkitekture	-10.5193
▁liste	-10.5193
▁punëtorë	-10.5193
▁gjirit	-10.5194
▁fonde	-10.5195
▁prit	-10.5197
▁palë	-10.5199
▁shtes	-10.5199
▁mahnitshme	-10.5205
▁CA	-10.5205
▁vetja	-10.521
▁Diku	-10.5211
▁ishit	-10.5225
▁bëhesh	-10.5235
▁bio	-10.5236
▁lexoni	-10.5237
▁mësimi	-10.5242
▁etiket	-10.5247
▁dielli	-10.5263
▁brend	-10.5265
▁dhunës	-10.5268
▁qaj	-10.5275
▁sport	-10.528
▁negative	-10.5285
▁interesi	-10.5291
▁kushtoj	-10.5291
▁miku	-10.5299
▁ndertojm	-10.5316
▁rro	-10.5318
▁investime	-10.5322
▁kape	-10.5326
▁shendeti	-10.5333
▁rrisi	-10.5343
pozicion	-10.5346
▁veprime	-10.5363
▁150	-10.5367
▁23	-10.5374
▁fabrika	-10.5375
▁mundohem	-10.5377
▁ngadalë	-10.54
▁behesh	-10.5408
▁rën	-10.5409
▁ndale	-10.541
▁lajmet	-10.5413
▁Gjermani	-10.542
▁shpejti	-10.5424
▁dituri	-10.5442
▁22	-10.5453
▁shpernda	-10.5463
▁përgjigjen	-10.5471
▁hidhe	-10.5475
▁ndihe	-10.5486
▁more	-10.5487
▁kenaq	-10.5493
▁ekzistenc	-10.5495
▁majmun	-10.5495
▁sfidë	-10.5495
▁Franc	-10.5495
▁ritual	-10.5495
▁këshill	-10.5495
▁Robert	-10.5495
▁suaj	-10.5495
▁gjenomi	-10.5496
▁OK	-10.5497
▁kenge	-10.5497
▁kthen	-10.5497
▁keshill	-10.5498
▁drejtoj	-10.5501
▁km	-10.5503
▁zb	-10.5505
rma	-10.5507
▁stacion	-10.5508
▁makinave	-10.5512
ph	-10.5514
▁skene	-10.5515
▁Justine	-10.5517
▁vëmë	-10.5518
▁druri	-10.5519
▁mjaftueshme	-10.5524
▁karrige	-10.5531
▁Kinez	-10.5535
▁Tash	-10.5541
▁shpirti	-10.5545
qind	-10.5546
▁shfaqur	-10.5548
▁prodhim	-10.5551
▁dallim	-10.5553
▁anen	-10.5564
▁organizuar	-10.5581
▁mediat	-10.5581
▁psikologjik	-10.5583
▁takime	-10.56
▁perpiqem	-10.5608
▁burrë	-10.5617
▁vra	-10.5621
▁drejtësi	-10.5631
▁yt	-10.5632
▁krahu	-10.5633
▁sinqer	-10.5645
▁kishe	-10.5645
▁bashkohen	-10.5648
▁piker	-10.5657
▁diferenc	-10.5659
U	-10.5661
▁pamë	-10.5663
ofi	-10.5667
tjeter	-10.5671
▁paraqes	-10.5673
▁cudit	-10.5677
▁mesuesi	-10.568
▁imagjinoj	-10.5682
▁anti	-10.5691
▁kërcën	-10.5692
▁con	-10.5697
▁bashkëvepr	-10.5711
▁muajsh	-10.5717
▁stres	-10.572
▁Gu	-10.5724
▁For	-10.5725
▁vaj	-10.5729
▁historike	-10.5735
▁Asnjë	-10.5765
pjekur	-10.5765
▁syri	-10.5765
▁gjenet	-10.5766
▁robotë	-10.5774
▁individual	-10.5776
▁përgj	-10.5783
▁krimi	-10.5784
ativ	-10.5787
▁amerikan	-10.5787
▁aktual	-10.5798
▁erdhë	-10.5799
▁kontrib	-10.5803
▁komunikoj	-10.5807
▁Histori	-10.5808
▁inteligjencë	-10.5808
▁kilometra	-10.5808
▁kontinent	-10.5808
▁matematika	-10.5808
▁miljard	-10.5808
▁nënkupton	-10.5808
▁përgjithësi	-10.5808
▁zyra	-10.5808
▁nervor	-10.5808
▁vemendje	-10.5808
▁sikunder	-10.5808
▁ndric	-10.5808
▁plastika	-10.5808
▁shpalos	-10.5808
▁skelet	-10.5808
▁shpella	-10.5808
▁negoci	-10.5808
▁diskutoj	-10.5808
▁Cili	-10.5808
▁Nqs	-10.5808
▁ndërkombëtar	-10.5808
▁zonja	-10.5809
▁shtrihe	-10.581
▁konflikte	-10.581
▁tregohe	-10.581
▁shitur	-10.581
▁197	-10.581
▁zgjas	-10.5811
▁194	-10.5812
▁asnjeher	-10.5812
▁tokës	-10.5814
▁Krij	-10.5814
▁poezi	-10.5816
▁Tha	-10.5817
▁vazhdueshme	-10.5819
▁Bota	-10.582
▁hiq	-10.5827
▁ndjehem	-10.5828
▁koka	-10.5829
▁kompjuterat	-10.5831
▁neuron	-10.5831
▁kaluarën	-10.5833
bes	-10.5844
▁mbetje	-10.5846
▁ndjen	-10.5846
erson	-10.5858
▁mesazhi	-10.5895
▁minj	-10.5898
▁kapur	-10.5907
▁lojës	-10.5909
▁sektori	-10.591
▁shtyr	-10.5912
▁tund	-10.5921
up	-10.5933
▁filtr	-10.5935
▁periudhë	-10.5938
▁neuroneve	-10.5939
▁zëra	-10.5943
▁pik	-10.5945
▁aspekti	-10.5946
▁deshironi	-10.596
▁version	-10.5964
▁shkaktojn	-10.5973
▁mama	-10.5974
▁prer	-10.5976
▁vuajtje	-10.5978
▁Toke	-10.5982
brenda	-10.5994
▁Izraelit	-10.6
▁sens	-10.6006
▁dërgua	-10.6008
▁dhemb	-10.6015
▁mashkull	-10.6017
▁arritje	-10.6018
▁njohi	-10.602
▁logjik	-10.6024
▁Bra	-10.6029
▁preferuara	-10.6032
▁sjelli	-10.6035
▁zvogël	-10.6037
▁thelbi	-10.6042
▁rruges	-10.6042
▁pasoj	-10.6043
▁siguro	-10.6044
▁sherbime	-10.6045
▁Nders	-10.6049
▁shpres	-10.6067
▁mengjes	-10.6075
▁përfundimi	-10.6099
▁prish	-10.6109
▁secilë	-10.6113
▁universiteti	-10.6118
uzeqeshje	-10.6118
▁fole	-10.6123
▁Dëshiroj	-10.613
▁Harvard	-10.613
▁Qytet	-10.613
▁bashkëpunoj	-10.613
▁megjithat	-10.613
▁tradita	-10.613
▁esencial	-10.613
▁Përgjigj	-10.613
▁piktura	-10.613
▁prisj	-10.613
▁predik	-10.613
▁ilace	-10.613
▁papritmas	-10.6131
▁human	-10.6131
▁kolegj	-10.6131
▁qarqe	-10.6131
▁Asgj	-10.6131
▁pervec	-10.6136
▁force	-10.6136
▁minutë	-10.6137
▁borxh	-10.6138
▁optimizmi	-10.614
▁arme	-10.6141
▁mundesh	-10.6142
▁hodh	-10.6143
rsi	-10.6144
▁hund	-10.6144
▁pritur	-10.6144
▁detyruar	-10.6145
▁fatkeqësi	-10.6148
▁bile	-10.6152
izoj	-10.6154
▁privat	-10.6155
▁reform	-10.6159
▁veprojn	-10.6161
▁shpikur	-10.6163
▁zoti	-10.6169
▁dëmtim	-10.6171
▁konflikti	-10.6173
▁qark	-10.6174
▁kursime	-10.6176
▁parashiko	-10.6191
▁qarku	-10.6206
▁maje	-10.6208
marrje	-10.6209
▁diellit	-10.6211
▁600	-10.6212
▁morr	-10.6214
ff	-10.6219
zimit	-10.622
▁dijeni	-10.6227
▁fetar	-10.6234
▁japë	-10.6241
▁lindi	-10.6261
▁ndihmoni	-10.6275
▁Britanik	-10.6278
▁zgjedhim	-10.6298
▁fermer	-10.6299
▁krahë	-10.63
▁mëso	-10.6302
▁shpikje	-10.6309
vjeçar	-10.6316
▁ndërtoni	-10.6321
▁ulesh	-10.6324
▁njerezor	-10.6329
▁dhjetë	-10.6333
▁Bashkuar	-10.6334
▁potenciali	-10.6336
▁ngjan	-10.6336
▁nena	-10.635
▁ilaç	-10.6351
▁këmbët	-10.6353
▁banka	-10.6353
▁natën	-10.6357
▁paqes	-10.6366
▁99	-10.6378
▁lëndë	-10.6379
pur	-10.6382
▁20-	-10.6382
▁harro	-10.6403
▁Aty	-10.6405
pati	-10.642
▁shumta	-10.6422
▁mbledhi	-10.6422
▁perfit	-10.6427
▁Keni	-10.6436
▁frikes	-10.6439
▁çmim	-10.644
▁punoni	-10.6441
▁roboti	-10.6445
zgjidhur	-10.6448
▁vetvet	-10.6452
▁norma	-10.6452
▁popull	-10.6453
▁Stanford	-10.6463
▁infeksion	-10.6463
▁konkret	-10.6463
▁prototip	-10.6463
▁rezulton	-10.6463
▁surpriz	-10.6463
▁armiq	-10.6464
▁perfaqes	-10.6464
▁Gjithmon	-10.6464
▁prezent	-10.6464
▁cift	-10.6464
▁plag	-10.6464
▁kriza	-10.6464
▁diagram	-10.6464
▁shëmtuar	-10.6464
▁klik	-10.6464
▁Dakor	-10.6465
▁ndertese	-10.6465
▁medhenj	-10.6465
▁provim	-10.6465
▁rënie	-10.6467
▁27	-10.6467
▁fazë	-10.6468
▁përveç	-10.6469
▁përmban	-10.6474
▁vlerësim	-10.6482
tjetri	-10.6483
▁pastër	-10.6485
▁sup	-10.6485
▁zhurmë	-10.6495
▁vlerësoj	-10.6499
▁derë	-10.6507
▁grimca	-10.6507
▁mbajm	-10.6514
▁provoni	-10.6521
▁ndërro	-10.6532
▁pëlqejn	-10.6534
▁veshtiresi	-10.6549
▁mb	-10.6556
▁valë	-10.6563
▁auto	-10.6566
▁shpirt	-10.6576
▁risi	-10.6578
▁sekrete	-10.6581
▁elektrik	-10.6584
▁tjetre	-10.6587
▁goditje	-10.6592
▁adres	-10.6594
▁nisi	-10.6601
▁shkrimi	-10.6602
▁degjoni	-10.662
▁plakjen	-10.6631
▁bime	-10.6633
▁drejtohe	-10.6638
▁sinqert	-10.6642
▁plani	-10.6642
▁Sic	-10.6648
▁klient	-10.6649
▁përdoruesi	-10.6649
▁nxeh	-10.666
▁kapaciteti	-10.6666
▁rëndësishm	-10.6667
▁maja	-10.6668
▁burr	-10.6671
▁arsim	-10.6676
▁materiali	-10.6685
▁kontrollon	-10.6685
▁grupit	-10.6687
▁përson	-10.669
▁kthejm	-10.6693
▁oksitocinë	-10.6696
▁luani	-10.6696
▁komun	-10.6702
▁dita	-10.6714
▁for	-10.672
koma	-10.6723
▁Koh	-10.6727
▁fej	-10.6732
29	-10.6734
▁Lond	-10.6739
▁thye	-10.6747
▁institucion	-10.6747
▁Jork	-10.6756
▁përgjithshm	-10.6756
▁kthimi	-10.6771
▁garë	-10.6774
▁dërgo	-10.6774
dimensional	-10.6777
▁verb	-10.678
▁gjëje	-10.6784
▁ambienti	-10.6788
▁efikas	-10.6792
▁takon	-10.6792
▁afat	-10.6798
▁takua	-10.6799
▁Angli	-10.6804
ouTube	-10.6808
▁buxhet	-10.6808
▁diagnostik	-10.6808
▁influenc	-10.6808
▁manipul	-10.6808
▁mbikqyr	-10.6808
▁radikal	-10.6808
▁shpenzuar	-10.6808
▁trondit	-10.6808
▁bashkevepr	-10.6808
▁mblodh	-10.6808
▁Botëror	-10.6808
▁Europian	-10.6808
▁Fusha	-10.6808
▁zbraz	-10.6808
▁vepron	-10.6808
▁copa	-10.6809
▁ndërtesë	-10.6809
▁gradë	-10.6809
▁shtresë	-10.6809
▁rrënjë	-10.681
▁ndikuar	-10.681
▁gjithkush	-10.6811
▁koment	-10.6813
▁ështe	-10.6813
▁Besoj	-10.6814
▁emocionuese	-10.6815
qëndrueshme	-10.6815
▁afrua	-10.6816
▁jeshil	-10.6816
▁trajtim	-10.6818
▁ndërmjet	-10.6821
▁nxënës	-10.6824
▁mode	-10.6824
▁Bell	-10.6825
▁famshme	-10.6828
▁trajtuar	-10.6828
▁martohe	-10.6829
▁takim	-10.6833
▁qofte	-10.6837
▁lojra	-10.684
▁kombinim	-10.6842
▁këqija	-10.6843
▁Sha	-10.6843
▁lodh	-10.6849
▁kombe	-10.6851
▁regjistruar	-10.6853
▁lëvizur	-10.6854
▁gatshme	-10.6854
▁ushqyer	-10.6869
▁çmimi	-10.6879
▁Arti	-10.688
▁qellimi	-10.6884
▁historik	-10.689
qendrim	-10.6899
kup	-10.6901
▁pergjegjesi	-10.6906
▁komunitetin	-10.6909
▁udhetimi	-10.6918
▁qender	-10.692
▁vrasës	-10.6931
▁ngr	-10.6944
▁polici	-10.6947
▁Evropë	-10.695
▁krahe	-10.6956
▁sigurimi	-10.6973
▁emra	-10.6976
▁fillestare	-10.6976
▁rendi	-10.6977
▁male	-10.6978
▁vijë	-10.6978
▁mbështetje	-10.698
▁paket	-10.6984
▁digjitale	-10.6989
▁fala	-10.6993
shtatshme	-10.6995
▁ndjeki	-10.7006
▁burgu	-10.7006
▁Mark	-10.7008
▁inovacion	-10.702
▁rrem	-10.7025
▁percept	-10.7027
▁degjoj	-10.7034
▁Wi	-10.7037
▁titull	-10.7056
▁procese	-10.7063
▁leje	-10.7076
▁Amerikan	-10.7081
▁polic	-10.7082
▁stresit	-10.71
▁liber	-10.7101
▁mor	-10.7108
▁varesi	-10.7122
kushtuar	-10.7123
▁vendosem	-10.7143
▁hulumtues	-10.7148
▁besime	-10.7159
▁tregua	-10.716
▁ekosistem	-10.7165
▁karburant	-10.7165
▁krijesa	-10.7165
▁matematikor	-10.7165
▁pelqejn	-10.7165
▁perbashket	-10.7165
▁spekt	-10.7165
▁ambjent	-10.7165
▁aplikim	-10.7165
▁figura	-10.7165
▁korporata	-10.7165
▁pavarur	-10.7165
▁ushqehe	-10.7165
▁volum	-10.7165
▁Brenda	-10.7165
▁rindërt	-10.7165
▁Street	-10.7165
▁bilion	-10.7165
▁vozit	-10.7166
▁hapsirë	-10.7166
▁frika	-10.7166
▁heshtje	-10.7166
▁agjensi	-10.7166
▁ndërvepr	-10.7166
▁rrenje	-10.7166
▁komand	-10.7166
▁shpif	-10.7166
▁qelize	-10.7166
▁leksion	-10.7166
▁defin	-10.7166
▁zhyt	-10.7166
▁pajtohe	-10.7167
▁Paris	-10.7167
▁formuar	-10.7168
▁rrethana	-10.7168
▁Qendr	-10.7168
▁terren	-10.7169
▁shpjegim	-10.7169
▁lëkur	-10.717
▁autori	-10.7172
▁talent	-10.7172
▁qenuri	-10.7173
▁haker	-10.7174
▁puth	-10.7177
▁trash	-10.7178
▁ngul	-10.7179
▁Sikur	-10.7181
▁bashkëpunimi	-10.7181
▁flak	-10.7181
▁kreativiteti	-10.7187
▁diplomat	-10.7191
▁mëson	-10.7192
▁djathte	-10.7192
▁Pak	-10.7193
▁65	-10.7199
▁Secili	-10.7207
▁dergo	-10.7208
▁funksional	-10.7209
▁skanim	-10.7211
▁salle	-10.7218
▁Ben	-10.7218
▁ecni	-10.722
▁humbasi	-10.7225
▁cfaredo	-10.7226
▁zgjidhi	-10.7243
▁artistik	-10.7249
▁marrur	-10.7251
▁bashkohe	-10.7254
▁dukur	-10.7258
▁ndjenje	-10.7261
▁udhëtimi	-10.7264
▁ushtarake	-10.7271
▁individe	-10.7275
▁pershkr	-10.7276
▁banor	-10.7277
▁presi	-10.7278
▁organ	-10.7288
▁mali	-10.7289
▁roli	-10.7292
▁Izrael	-10.7312
▁45	-10.7313
▁Gjate	-10.7313
▁njihe	-10.7321
▁behem	-10.7321
▁Madhe	-10.7333
▁boteror	-10.7335
▁gjend	-10.7343
▁vrasje	-10.7346
▁elektronike	-10.7347
shmja	-10.7353
▁35	-10.7353
heni	-10.736
▁shiq	-10.7369
▁menjëher	-10.7373
▁kaloni	-10.7373
▁vështirësi	-10.7377
vjecar	-10.7388
▁fokus	-10.7394
▁mish	-10.7402
▁Azi	-10.7402
▁dështimi	-10.7414
▁mërzit	-10.7434
▁lini	-10.7439
▁analizo	-10.7453
▁ditës	-10.7454
▁moshuar	-10.7454
▁perballe	-10.7457
aktiv	-10.7471
▁qëllime	-10.7477
▁përfit	-10.7499
▁Amerika	-10.7501
▁kerko	-10.7507
▁adhur	-10.7511
▁prind	-10.7514
ftohtë	-10.7515
▁shu	-10.7516
▁korr	-10.7518
▁konkur	-10.7527
▁rere	-10.7528
tika	-10.7529
▁oksigjeni	-10.7529
000	-10.7532
red	-10.7532
▁Tasmani	-10.7536
▁2010	-10.7536
▁Apple	-10.7536
▁Nobel	-10.7536
▁Vajza	-10.7536
▁avancuar	-10.7536
▁merimange	-10.7536
▁temperaturë	-10.7536
▁Greqi	-10.7536
▁Teknologji	-10.7536
▁detyrë	-10.7536
▁fqinj	-10.7536
▁zvogel	-10.7536
▁dekade	-10.7536
▁Qfar	-10.7536
▁krevat	-10.7536
▁magjeps	-10.7536
▁Sidoqoft	-10.7536
▁kufizime	-10.7536
▁shpellë	-10.7536
▁shekuj	-10.7536
▁rural	-10.7536
▁lista	-10.7536
▁formul	-10.7536
▁thith	-10.7536
▁regjion	-10.7537
▁nxenes	-10.7537
▁arab	-10.7537
▁shteg	-10.7537
▁zor	-10.7537
▁ajër	-10.7538
▁Jugor	-10.7539
▁shtrir	-10.754
▁Jemeni	-10.754
▁alga	-10.754
▁shkemb	-10.7541
▁Web	-10.7543
▁Zonj	-10.7543
▁vella	-10.7543
▁mbaruar	-10.7546
▁vetura	-10.7547
▁dobi	-10.7548
▁mister	-10.7549
▁golfit	-10.7553
▁normalisht	-10.7554
përfunduar	-10.7558
▁sillen	-10.756
▁Ah	-10.7561
▁demokratik	-10.7567
▁Perëndimi	-10.7574
▁besuesh	-10.7583
dyshim	-10.7584
▁njerzve	-10.7584
▁perpjekur	-10.7586
▁vihe	-10.7587
▁varur	-10.7594
▁kuptohe	-10.7597
▁mundohen	-10.7597
▁tregti	-10.7611
▁qiell	-10.762
▁infermiere	-10.7632
▁konsiderohe	-10.7633
▁Viti	-10.7635
▁rrallë	-10.764
▁Del	-10.7644
▁hidh	-10.7647
▁metro	-10.7651
▁Mil	-10.7652
▁përbërës	-10.7652
▁Asnje	-10.7652
▁burgosur	-10.7659
▁fitues	-10.7659
▁dështim	-10.7659
▁qendruar	-10.7669
▁zbulime	-10.7672
▁shesh	-10.7675
▁ciles	-10.7679
▁kujtime	-10.768
bar	-10.7682
▁mjeti	-10.7692
▁trajton	-10.7703
▁prerje	-10.771
▁arritë	-10.7713
▁takoni	-10.7715
▁sulme	-10.7721
▁cek	-10.7729
▁Arabe	-10.7733
▁sado	-10.7735
▁kimi	-10.7738
▁aktivitet	-10.7745
▁përjeton	-10.7749
▁akull	-10.7749
cial	-10.7757
▁dhenave	-10.7761
▁kuq	-10.7765
▁stimul	-10.7765
▁apliko	-10.7776
▁mjekë	-10.7783
▁ulen	-10.7785
▁profesion	-10.7795
▁vuaj	-10.7802
▁prite	-10.7812
▁eksperimenti	-10.7827
▁fati	-10.7827
▁fle	-10.7831
▁shpjego	-10.7833
▁qielli	-10.7834
▁sheqer	-10.7838
▁ari	-10.7839
▁insuline	-10.7841
▁gjum	-10.7843
▁pale	-10.7844
▁fitoj	-10.7846
▁papar	-10.785
▁cil	-10.7854
▁arri	-10.7857
cja	-10.786
org	-10.7881
▁paraqite	-10.7882
stro	-10.7895
▁hani	-10.7906
▁cel	-10.7913
▁urrej	-10.7917
▁lajmi	-10.7918
▁avantazh	-10.792
▁drejtpërdrejt	-10.792
▁globi	-10.792
▁ilustr	-10.792
▁izoluar	-10.792
▁prezantim	-10.792
▁standart	-10.792
▁televizion	-10.792
▁televiziv	-10.792
▁udheheq	-10.792
▁adapt	-10.792
▁mashtroj	-10.792
▁mbijetesë	-10.792
▁propozim	-10.792
▁hapesira	-10.792
▁kirurg	-10.792
▁çift	-10.792
▁Boston	-10.7921
▁Shpesh	-10.7921
▁miljon	-10.7921
▁informata	-10.7921
▁Smith	-10.7921
▁shkollor	-10.7921
▁dendur	-10.7921
▁multi	-10.7921
▁përgjithmonë	-10.7921
▁popullatë	-10.7921
▁dobët	-10.7921
▁Gana	-10.7921
▁ekuacion	-10.7921
▁referohe	-10.7921
▁kujtesë	-10.7921
▁shtëpis	-10.7922
▁Wall	-10.7922
▁fiton	-10.7922
▁deshira	-10.7922
▁linja	-10.7924
▁2007	-10.7924
▁mbijetuar	-10.7928
▁dramatik	-10.7929
▁padukshme	-10.793
▁zakonshem	-10.793
▁shkurter	-10.7933
▁mblidhen	-10.7935
▁veteran	-10.7936
▁skena	-10.7936
▁plus	-10.7945
▁ndezur	-10.7945
▁gjetje	-10.7953
▁ndalo	-10.7954
cës	-10.7957
▁ngrën	-10.7957
▁urban	-10.7958
▁suksesshme	-10.796
▁kënaq	-10.7962
▁Dan	-10.7964
▁tema	-10.7969
▁skic	-10.7969
▁dështuar	-10.797
▁falenderoj	-10.7976
▁mbuloj	-10.798
▁varferi	-10.7992
▁progresi	-10.7997
▁dergoj	-10.7998
limi	-10.7999
▁depresion	-10.8004
▁gumëzhimë	-10.8012
▁perfundoj	-10.8013
▁kamion	-10.8016
▁rendësi	-10.8017
▁sensor	-10.804
▁mëshir	-10.8042
▁Prov	-10.8044
▁kodi	-10.805
▁varg	-10.8051
▁zezë	-10.8052
aliteti	-10.8056
▁aksione	-10.8056
▁fto	-10.8057
▁punetore	-10.8063
▁mundëso	-10.807
▁perceptimi	-10.8072
▁mbaro	-10.8076
▁bardhe	-10.8076
▁rrisni	-10.8078
▁ndjeni	-10.8083
▁virtuale	-10.8084
▁sugjeroj	-10.8086
▁produkt	-10.8092
▁shkencor	-10.8094
bal	-10.8095
▁pozitiv	-10.8095
▁tradicional	-10.8096
gel	-10.8101
gatitur	-10.8102
▁nxitje	-10.8105
▁mësua	-10.8105
▁arsimimi	-10.8108
▁elefant	-10.8115
▁menyrë	-10.8118
▁trajtoj	-10.812
▁paku	-10.812
▁pasqyrë	-10.8121
▁Luft	-10.8126
▁butë	-10.8126
▁gojë	-10.813
▁Amerikanë	-10.8133
▁menyr	-10.8134
▁ndrysh	-10.8141
▁Femije	-10.8141
▁bisede	-10.8145
▁makinës	-10.8149
▁univers	-10.815
▁drejton	-10.8161
▁konsum	-10.8164
▁paraqitje	-10.8167
▁akullnaj	-10.8171
▁reklam	-10.8172
▁protein	-10.8173
shembull	-10.8174
▁derg	-10.8182
▁gjinis	-10.8187
▁1000	-10.8188
▁nxehtë	-10.821
▁krahun	-10.8213
▁vale	-10.8215
▁kapitali	-10.8216
▁shoqër	-10.8225
▁ske	-10.823
▁skuadr	-10.8237
▁mendohe	-10.8239
kënaqur	-10.824
▁natyre	-10.8265
▁aeroplan	-10.8282
▁kurdo	-10.8282
▁autiz	-10.8288
▁mbron	-10.8307
▁Shkenc	-10.8308
▁shoq	-10.8319
▁Fëmijë	-10.832
▁Gjykat	-10.832
▁aeroport	-10.832
▁audience	-10.832
▁konstant	-10.832
▁lidershipi	-10.832
▁modifik	-10.832
▁ndihma	-10.832
▁shndërro	-10.832
▁sofistikuar	-10.832
▁komponent	-10.832
▁ndëshk	-10.832
▁ankth	-10.832
▁mposht	-10.832
▁akses	-10.8321
▁kabllo	-10.8321
▁Grua	-10.8321
▁metodë	-10.8321
▁ngjis	-10.8321
▁impakt	-10.8321
▁femer	-10.8321
▁kapitalizmi	-10.8321
▁errët	-10.8322
▁nafte	-10.8322
▁vëreni	-10.8322
▁TV	-10.8323
▁mikroskop	-10.8323
▁Bru	-10.8325
jithçka	-10.8326
▁dysheme	-10.8326
▁mbarë	-10.8326
▁ajer	-10.8326
▁faza	-10.8326
▁trajnuar	-10.8327
▁standard	-10.8327
▁obeziteti	-10.8327
▁transport	-10.833
▁mbrojtje	-10.8333
▁famshem	-10.8333
▁mundesin	-10.8333
▁afatgjat	-10.8335
▁përballë	-10.8338
▁Times	-10.8338
fis	-10.8344
rhequr	-10.8345
▁akademik	-10.8345
gimi	-10.8353
▁Ndodh	-10.8355
▁dimension	-10.8357
▁elektriciteti	-10.8357
▁krahasojm	-10.8362
▁ushqimor	-10.8371
▁titan	-10.8371
▁largët	-10.8374
▁kuriozitet	-10.8375
▁diellor	-10.8377
▁shprehur	-10.8382
▁shqetësohe	-10.8385
▁përfshihe	-10.8386
▁koleksion	-10.8389
▁ngrene	-10.8391
▁hedhur	-10.8393
▁shtyn	-10.8404
▁Her	-10.8404
▁Ted	-10.8411
▁rikthehe	-10.8413
▁fitojn	-10.8416
▁marsh	-10.8435
▁fryme	-10.8441
lor	-10.8441
▁praktika	-10.8446
▁ski	-10.8458
▁porosi	-10.8459
▁nxirr	-10.8462
▁shoke	-10.8463
lak	-10.8466
▁dije	-10.847
▁burgje	-10.8475
▁luftojm	-10.8475
▁harroj	-10.8482
▁gjini	-10.8483
▁vijne	-10.8488
▁Mor	-10.8494
▁rrjeta	-10.8496
▁kursejn	-10.8499
▁shoqëror	-10.8501
▁anësor	-10.8504
▁Kenia	-10.8504
▁plakje	-10.8504
▁ndikojn	-10.8508
roma	-10.8515
▁djeg	-10.8515
▁hulumtimi	-10.8519
12	-10.8522
▁fry	-10.8522
▁ftoh	-10.8524
▁prezantoj	-10.8527
▁ngusht	-10.8527
▁Lin	-10.8531
▁tipike	-10.8544
▁blejn	-10.8549
kor	-10.855
marrjes	-10.8554
▁drejtimi	-10.8562
▁zgjidhj	-10.8568
▁cilësi	-10.8576
11	-10.8586
▁psh	-10.8586
qendruar	-10.8589
▁cilesi	-10.8589
▁gjithësi	-10.8591
rregull	-10.8591
▁produkti	-10.8593
▁diplom	-10.8593
▁ama	-10.8593
▁rrjedhoj	-10.8598
▁hormon	-10.8599
▁burgosuri	-10.8602
▁ekzistoj	-10.8605
▁ujëra	-10.8624
bil	-10.8626
▁mishi	-10.8626
▁cope	-10.8641
▁shekull	-10.8662
▁matje	-10.8676
▁shpenzon	-10.8678
▁bli	-10.868
▁djath	-10.8687
▁domosdo	-10.8691
▁peshë	-10.8691
▁arsimi	-10.8698
▁rastesi	-10.8706
▁Kore	-10.8708
▁vër	-10.8711
▁ndiq	-10.8719
mbl	-10.872
▁perhap	-10.872
▁shkru	-10.8721
▁veprimi	-10.8727
▁mjeku	-10.8733
▁harxh	-10.8734
▁glukoz	-10.8734
▁Amazon	-10.8737
▁MIT	-10.8737
▁Oklahom	-10.8737
▁Revolucioni	-10.8737
▁epidemi	-10.8737
▁ndërlikuar	-10.8737
▁përfaqëso	-10.8737
▁sipërmarrës	-10.8737
▁tavolinë	-10.8737
▁zvogl	-10.8737
▁analiza	-10.8737
▁blog	-10.8737
▁horizont	-10.8737
▁siklet	-10.8737
▁krimba	-10.8737
▁mbjell	-10.8737
▁piksel	-10.8737
▁gjykatë	-10.8737
▁Ndje	-10.8737
▁martesa	-10.8737
▁variacion	-10.8737
▁ndoq	-10.8737
▁shpjeguar	-10.8737
▁gjeneratë	-10.8737
▁mbrëmje	-10.8737
▁grop	-10.8737
▁princip	-10.8737
▁opsion	-10.8738
▁krize	-10.8738
▁gërm	-10.8738
▁tejkalo	-10.8738
▁frymëzuar	-10.8738
▁banane	-10.8738
▁punonjës	-10.8739
▁shenjë	-10.8739
▁vetëvete	-10.874
▁shanc	-10.874
▁harxho	-10.8741
▁ngrini	-10.8741
▁shpall	-10.8741
▁gjuaj	-10.8742
▁mrekullush	-10.8743
▁Kili	-10.8743
▁mbet	-10.8747
▁formohe	-10.8747
▁firm	-10.8748
▁djalosh	-10.8748
▁tunel	-10.8748
▁vlefshme	-10.8748
▁perëndi	-10.8752
▁cep	-10.8755
▁shoqeror	-10.8755
▁jetesë	-10.8757
▁2000	-10.8759
▁pushtet	-10.876
▁zhdukur	-10.8765
▁kontekst	-10.8767
▁0.	-10.8769
▁veri	-10.8778
▁Marr	-10.8778
▁qëndruar	-10.8785
▁liderë	-10.8789
▁natyres	-10.8795
▁moshuarve	-10.8801
▁vështira	-10.8813
▁liberal	-10.8816
▁vetmuar	-10.8819
▁këmb	-10.8839
▁kalori	-10.8841
▁shq	-10.8843
▁hije	-10.8847
▁dolë	-10.8856
▁natyr	-10.8859
▁tregtar	-10.886
▁muzikës	-10.8862
▁diabeti	-10.8864
▁merrem	-10.8871
▁Lind	-10.8874
▁pyesi	-10.8875
▁zgjohe	-10.8879
razi	-10.888
▁Los	-10.8885
▁emer	-10.8887
▁zera	-10.8898
▁kërkojm	-10.8899
▁Indis	-10.89
▁prodhojm	-10.8904
▁automatik	-10.892
▁dixhital	-10.8926
▁përpiqesh	-10.8928
▁klientë	-10.8934
▁fjalime	-10.8944
▁Arab	-10.8946
▁financiar	-10.8947
▁digjital	-10.8947
▁morra	-10.8951
▁robote	-10.8954
▁Internet	-10.8963
▁sinjale	-10.8985
▁humba	-10.8985
▁blerë	-10.899
▁kërkoni	-10.901
▁njerz	-10.9022
▁dioksidi	-10.9023
▁tipik	-10.9025
ologjis	-10.904
20	-10.9041
▁disk	-10.9058
lg	-10.9066
▁larguar	-10.907
▁nja	-10.9079
▁serish	-10.908
▁qendrueshme	-10.9105
▁magnet	-10.9115
▁përgatit	-10.9117
▁ideal	-10.9118
▁imagjinojm	-10.9123
▁xham	-10.9125
▁cuditshm	-10.9126
▁pëlqe	-10.9126
▁imagjinat	-10.9128
▁lindor	-10.9131
▁shpëto	-10.9136
▁baba	-10.9141
▁çudi	-10.915
izëm	-10.9153
▁psikolog	-10.9164
▁Egjipt	-10.9172
▁Aristoteli	-10.9172
▁improviz	-10.9172
▁karrierë	-10.9172
▁këndvështrim	-10.9172
▁neurogjeneze	-10.9172
▁plehra	-10.9172
▁shkenctar	-10.9172
▁sondazh	-10.9172
▁tragjedi	-10.9172
▁veqan	-10.9172
▁zevendes	-10.9172
▁Truri	-10.9172
▁nenkupton	-10.9172
▁paqart	-10.9172
▁vezhg	-10.9172
▁Numri	-10.9172
▁agjenci	-10.9172
▁gjelber	-10.9172
▁kaltër	-10.9172
▁madhështor	-10.9172
▁animacion	-10.9172
▁autobus	-10.9172
▁transformim	-10.9172
▁pagesa	-10.9172
▁shtrëng	-10.9172
▁njëanshmëri	-10.9172
▁Rrug	-10.9172
▁Suedi	-10.9172
▁kronik	-10.9172
▁nyje	-10.9172
▁Kongres	-10.9173
▁shpërndarje	-10.9173
▁kult	-10.9173
▁epokë	-10.9173
▁garazh	-10.9173
▁elektroda	-10.9173
▁mutacion	-10.9173
▁thelbësor	-10.9173
▁shkollim	-10.9174
▁Nick	-10.9174
▁shpëtim	-10.9174
▁Shtator	-10.9175
▁Djal	-10.9175
▁alarm	-10.9175
▁Katër	-10.9175
▁Kupt	-10.9175
▁terrorist	-10.9175
▁Janar	-10.9175
▁linjë	-10.9175
▁mahnitëse	-10.9175
▁çlir	-10.9175
▁Shkr	-10.9176
▁Soll	-10.9176
▁erret	-10.9176
▁martuar	-10.9176
▁mjer	-10.9177
▁gishti	-10.918
▁krip	-10.9181
▁dëgjova	-10.9181
▁plumb	-10.9183
▁merresh	-10.9184
▁SH	-10.9184
▁kulmin	-10.9186
▁ishull	-10.9186
▁Steve	-10.9186
▁lob	-10.9191
▁parashikuar	-10.9194
▁perëndimor	-10.9196
▁minute	-10.9197
▁vizato	-10.9202
▁qejf	-10.9204
▁diete	-10.9204
▁bebe	-10.9206
▁Paul	-10.9207
▁pranuar	-10.9218
▁artiste	-10.9219
▁trafiku	-10.922
▁mbeten	-10.9221
▁bllokuar	-10.9233
icion	-10.924
▁qëndro	-10.9247
▁rastësish	-10.9249
▁çon	-10.9251
▁ndiqni	-10.9254
▁veshi	-10.9256
▁of	-10.9257
▁revolucion	-10.9258
▁virusi	-10.9263
▁Kine	-10.9268
▁ndërtua	-10.9271
dhënie	-10.9271
▁vjeq	-10.9274
▁lëm	-10.9277
▁befasues	-10.928
▁zhduk	-10.9283
▁zhvillua	-10.9305
▁Bud	-10.931
▁preferoj	-10.9311
▁biologjike	-10.9314
▁Aq	-10.9315
▁Jona	-10.9318
▁pushime	-10.9321
▁dyqane	-10.9329
▁ambientin	-10.9337
berg	-10.934
▁grafi	-10.9363
▁adhuroj	-10.9369
▁dihe	-10.9369
▁derdh	-10.9375
▁theks	-10.9377
▁arrini	-10.9391
▁shtrenjt	-10.9393
▁krime	-10.9396
▁elektronik	-10.9399
▁shtrenjtë	-10.94
▁atlete	-10.9401
▁hyrje	-10.9402
▁fshehura	-10.9411
▁lëng	-10.9411
▁kuptojne	-10.9413
▁trajt	-10.9416
ueshmëri	-10.9417
▁mundohe	-10.943
▁mbahe	-10.9442
▁veshë	-10.9445
▁mungese	-10.9478
▁statistik	-10.9478
perdor	-10.9481
▁kapital	-10.9491
▁organi	-10.9496
▁ndihesh	-10.9496
▁Op	-10.9502
▁mesuari	-10.9509
sjell	-10.9509
▁bomb	-10.9509
▁rrotullohe	-10.952
▁zhvill	-10.9521
▁transfer	-10.9525
▁virus	-10.9534
▁bashkon	-10.9535
▁periudh	-10.9539
▁parashikoj	-10.9541
▁angazh	-10.9559
▁barr	-10.957
▁taksa	-10.9571
▁ngrohje	-10.9576
▁përshtate	-10.9589
▁shkaku	-10.959
▁pah	-10.9591
ikim	-10.9602
▁pikturoj	-10.9603
▁shtyj	-10.9617
▁rezist	-10.9617
▁prodhues	-10.9618
▁standarde	-10.9619
▁fokusohe	-10.9624
▁tok	-10.9625
▁fond	-10.9625
▁Ver	-10.9625
▁rekomand	-10.9626
▁Instituti	-10.9626
▁Pakistan	-10.9626
▁Projekti	-10.9626
▁abstrakt	-10.9626
▁baballare	-10.9626
▁hipokampus	-10.9626
▁kardiak	-10.9626
▁menaxho	-10.9626
▁performancë	-10.9626
▁promov	-10.9626
▁shqetësuar	-10.9626
▁studjo	-10.9626
▁zinxhir	-10.9626
▁dridhje	-10.9626
▁flokë	-10.9627
▁përkrah	-10.9627
▁perplas	-10.9627
▁shpëtuar	-10.9627
▁menqur	-10.9627
▁Kevin	-10.9627
▁bateri	-10.9627
▁pllak	-10.9627
▁mekanizma	-10.9627
▁sidoqoft	-10.9627
▁humanitar	-10.9627
▁qafe	-10.9627
▁vlerësuar	-10.9627
▁sferë	-10.9627
▁zhvesh	-10.9628
▁1950	-10.9628
▁dhuro	-10.963
▁Super	-10.9631
▁skaner	-10.9632
▁hekur	-10.9632
▁djathta	-10.9633
▁shpresojm	-10.9634
.5	-10.9634
▁MA	-10.9637
▁palos	-10.9637
▁mësimdhëni	-10.9638
▁përpiqen	-10.9641
▁pjat	-10.9642
▁kercen	-10.965
▁goditur	-10.9662
▁ftohte	-10.9662
▁kampi	-10.9664
▁pjesërisht	-10.9671
▁Perendimor	-10.9672
▁sporti	-10.9675
▁hidhni	-10.9687
▁fibr	-10.969
▁nisur	-10.9698
▁ëndrra	-10.9701
▁mengjesi	-10.9706
▁sëmurë	-10.9709
▁hiqni	-10.9714
▁dëshmi	-10.9716
▁çuditë	-10.972
▁bujar	-10.9727
▁gjyq	-10.9728
▁shkëmbim	-10.9728
▁meqen	-10.9732
▁kujdestar	-10.9741
▁jeto	-10.9746
cip	-10.9751
▁zgjedhi	-10.9752
▁shoqëris	-10.9753
▁dorës	-10.9762
▁shtrat	-10.9766
▁Perëndimor	-10.9766
▁dashuroj	-10.9766
des	-10.9776
luzion	-10.9777
▁Njëri	-10.9779
▁kerkimi	-10.9782
▁meritoj	-10.9786
▁civile	-10.9786
▁dorëz	-10.9789
▁nenes	-10.979
▁shtypi	-10.9798
▁stam	-10.9799
▁akullnaja	-10.9801
▁val	-10.9812
▁inovacioni	-10.9816
▁reagimi	-10.9821
▁ndalojm	-10.9825
▁terheq	-10.9857
▁cmimi	-10.9859
katër	-10.9863
organizma	-10.9866
▁kerkojn	-10.9877
▁presioni	-10.9878
atori	-10.9879
▁tension	-10.9888
▁siguris	-10.9904
▁hyni	-10.991
▁gjurmë	-10.9912
▁Europe	-10.9913
▁mbaron	-10.9925
▁arrest	-10.9925
▁udhëheqës	-10.9927
▁oqeane	-10.9931
▁përmbledh	-10.995
▁sugjer	-10.9951
▁paraqe	-10.9952
▁algorit	-10.9955
▁komb	-10.996
▁injorance	-10.9962
▁ripar	-10.9969
▁ndryshua	-10.9969
▁distancë	-10.9976
▁psikologji	-10.9976
▁Euro	-10.9979
▁mjafton	-10.998
▁perpar	-10.9982
▁penges	-10.9984
▁Bashk	-10.9986
▁RS	-10.9987
▁mak	-10.9997
shire	-10.9997
▁zgjedhj	-11.0011
▁ndjehesh	-11.0019
car	-11.0022
▁dështoj	-11.0024
logjike	-11.003
▁Pavar	-11.0036
▁Brazili	-11.0037
▁kurioz	-11.0043
▁David	-11.0046
▁këng	-11.0058
▁foshnje	-11.0069
▁djegi	-11.0074
▁kerkime	-11.008
▁tregues	-11.009
▁stil	-11.0091
umëzhim	-11.0101
▁Ekonomi	-11.0103
▁Francisco	-11.0103
▁George	-11.0103
▁Goliathi	-11.0103
▁NASA	-11.0103
▁astronaut	-11.0103
▁atmosfere	-11.0103
▁audiencë	-11.0103
▁diagnostifik	-11.0103
▁ekzistuar	-11.0103
▁fosil	-11.0103
▁genjeshtra	-11.0103
▁gjimnaz	-11.0103
▁intelektual	-11.0103
▁inteligjence	-11.0103
▁karriere	-11.0103
▁këpucë	-11.0103
▁perspektivë	-11.0103
▁prirje	-11.0103
▁shpërthim	-11.0103
▁ACE	-11.0103
▁Frank	-11.0103
▁ceremoni	-11.0103
▁menaxher	-11.0103
▁pikturë	-11.0103
▁referenc	-11.0103
▁religjio	-11.0103
antrop	-11.0103
▁trotuar	-11.0103
▁detyrim	-11.0103
▁vehte	-11.0103
▁vock	-11.0103
▁Itali	-11.0103
▁Sistemi	-11.0103
▁shkaterro	-11.0103
▁konsul	-11.0103
▁frut	-11.0103
▁idiot	-11.0103
▁hapsire	-11.0103
▁justifik	-11.0103
▁perfshin	-11.0103
▁Mbas	-11.0103
▁endrra	-11.0103
▁prire	-11.0103
▁mbreti	-11.0103
▁Shteti	-11.0103
▁njëkohësish	-11.0104
▁Mbaj	-11.0104
▁organizate	-11.0104
▁1960	-11.0104
▁imagjinatë	-11.0105
▁impon	-11.0106
▁Thom	-11.0106
▁Veriore	-11.0106
▁tipare	-11.0107
▁kontribut	-11.0108
▁arma	-11.0108
▁peshq	-11.0109
▁nxehte	-11.011
▁faze	-11.011
▁gjinor	-11.011
▁objekti	-11.0111
▁Kujt	-11.0111
▁oksigjen	-11.0112
▁veze	-11.0113
▁shkatërruar	-11.0114
▁fshehta	-11.0116
▁grade	-11.0119
▁leng	-11.0124
▁verdh	-11.0126
▁ideologji	-11.0131
▁kalov	-11.0132
▁diplomuar	-11.0134
▁oh	-11.0137
▁parti	-11.0141
▁dizajner	-11.0143
▁Shir	-11.0144
▁falni	-11.0145
▁detyre	-11.0146
jetuar	-11.0146
▁Mc	-11.0148
▁ushtrime	-11.015
▁oqeani	-11.0152
▁angleze	-11.0154
▁sigurohem	-11.0154
▁diskutimi	-11.0155
▁kupto	-11.0155
inale	-11.0159
▁Vend	-11.0159
▁ftuar	-11.0165
▁magnetik	-11.0166
kënd	-11.0192
▁personaliteti	-11.0192
▁Bashkimi	-11.0194
▁shikim	-11.0194
▁hulumtime	-11.021
▁shifra	-11.0211
▁sillni	-11.0212
▁Pen	-11.0214
durim	-11.0215
▁Gjerman	-11.0223
▁hapen	-11.023
▁diç	-11.0234
▁klasike	-11.0235
▁marim	-11.0245
▁lidhem	-11.025
▁rralla	-11.025
▁autor	-11.0256
▁verior	-11.0269
▁krijojn	-11.0276
▁sjellur	-11.0284
▁stimulim	-11.0299
▁kapacitet	-11.0304
▁Toni	-11.0319
▁ndjeshme	-11.0319
▁rrall	-11.0319
▁spitali	-11.0332
▁stresi	-11.0333
shkrimi	-11.0341
▁Luftë	-11.0342
▁god	-11.0348
▁fitime	-11.0352
▁Emr	-11.0356
▁teksti	-11.0375
hab	-11.0375
▁Faz	-11.0378
▁Tom	-11.0409
▁korrupsioni	-11.0412
▁lexues	-11.0415
▁vështrim	-11.0424
▁ekuilib	-11.0431
▁Imagjino	-11.0431
▁aksion	-11.0431
▁shqyrt	-11.0438
▁lumturis	-11.0443
shëndet	-11.045
▁qënie	-11.0453
▁kerkim	-11.0458
gal	-11.0465
▁menjeher	-11.0469
▁folje	-11.0485
besimi	-11.0488
▁guri	-11.049
▁Fer	-11.0492
vill	-11.0504
▁shof	-11.0509
▁shikimi	-11.051
▁votimi	-11.051
▁misioni	-11.0513
▁Du	-11.0536
zën	-11.0551
FO	-11.0551
SA	-11.0558
▁kompjuterik	-11.0575
▁kercenim	-11.0576
▁zez	-11.0581
▁vlefsh	-11.0589
▁reagon	-11.0591
▁transporti	-11.0591
▁evolu	-11.0597
Ë	-11.0602
▁Obama	-11.0603
▁President	-11.0603
▁argëtim	-11.0603
▁avull	-11.0603
▁bashkangjit	-11.0603
▁bejzboll	-11.0603
▁duhan	-11.0603
▁ekzamin	-11.0603
▁fantaz	-11.0603
▁francez	-11.0603
▁impuls	-11.0603
▁karikatura	-11.0603
▁kërkesa	-11.0603
▁mbikëqyr	-11.0603
▁perfshij	-11.0603
▁shkaterrimi	-11.0603
▁tingëllon	-11.0603
▁Joshua	-11.0603
▁analizë	-11.0603
▁njoft	-11.0603
▁shpërthe	-11.0603
▁Komun	-11.0603
▁dreqi	-11.0603
▁perspektiva	-11.0603
▁besnik	-11.0603
▁miniera	-11.0603
▁vertikal	-11.0603
▁Saudit	-11.0603
▁shëndosh	-11.0603
▁Makina	-11.0603
▁dridhe	-11.0603
▁kocka	-11.0603
▁Dielli	-11.0603
▁restaurant	-11.0603
▁martesë	-11.0603
▁muskuj	-11.0603
▁portrete	-11.0603
▁Dëgjo	-11.0603
▁gjymtyr	-11.0603
▁qarkullim	-11.0603
▁kuantik	-11.0603
▁brënd	-11.0603
▁sindrom	-11.0603
▁cilindri	-11.0604
▁perditshme	-11.0604
▁dënim	-11.0604
▁pilot	-11.0604
▁lezetsh	-11.0604
▁dobet	-11.0604
▁specializuar	-11.0604
▁Bank	-11.0604
▁globalizimi	-11.0604
▁injoro	-11.0605
▁përmasa	-11.0606
▁gjerman	-11.0606
▁botuar	-11.0607
▁raft	-11.0607
▁godas	-11.0607
▁shtrese	-11.0608
▁disponueshme	-11.0608
▁pamja	-11.0609
▁Dick	-11.061
▁paraliz	-11.0611
▁trupore	-11.0612
▁kontrollojm	-11.0612
▁muze	-11.0615
▁regjistrim	-11.0618
▁stili	-11.0618
▁identik	-11.0619
▁shpie	-11.062
▁paguani	-11.0621
cco	-11.0625
▁II	-11.0626
▁ndjejm	-11.0627
▁rrota	-11.0628
▁përhapur	-11.0638
▁kini	-11.0641
▁bast	-11.0641
▁mbështetur	-11.0645
▁mbaroj	-11.0646
▁seksion	-11.0647
marres	-11.0652
▁dukje	-11.0655
▁zgjerohe	-11.0656
▁bimë	-11.066
▁Davidi	-11.0663
▁regjistro	-11.0665
▁shpëtoj	-11.0669
▁përfytyroni	-11.0672
▁grumbulluar	-11.0682
▁përfshir	-11.0685
▁Kanada	-11.0686
▁përplasje	-11.0688
▁përmirësoj	-11.0703
▁raporti	-11.0719
komunik	-11.0728
▁fitoni	-11.0744
▁përgjegjës	-11.0753
▁profesional	-11.0753
▁demo	-11.0762
▁vrapues	-11.0766
▁titulli	-11.0767
▁nxehtësi	-11.0769
▁kampion	-11.0771
▁hormone	-11.0772
▁mashkullor	-11.0782
ling	-11.0788
▁gjyshi	-11.0793
▁shenje	-11.0796
▁gjenero	-11.0797
▁bindje	-11.0802
▁hapni	-11.0807
▁kuptuarit	-11.0811
▁shtojm	-11.0831
▁projektuar	-11.0838
▁degjua	-11.084
hpirtëror	-11.0866
▁kuad	-11.0871
▁Fazë	-11.0875
▁njih	-11.0876
▁fshihe	-11.0876
cal	-11.0908
▁rrituri	-11.0917
▁qymyri	-11.0919
▁përdorues	-11.0933
▁Tashm	-11.0948
▁molekular	-11.0954
▁vdek	-11.0955
istike	-11.0959
plin	-11.0963
▁përqindje	-11.0988
▁pozicioni	-11.0989
▁Jen	-11.101
▁foluri	-11.1021
▁buzëqesh	-11.1034
▁ndihmojm	-11.1042
▁shkatërrimi	-11.1048
▁dëgjua	-11.1049
▁120	-11.1065
AL	-11.1066
▁Fal	-11.107
▁trafik	-11.107
▁fatkeq	-11.1089
▁mekaniz	-11.1098
▁statusi	-11.1099
▁War	-11.1124
▁Fillimish	-11.1129
▁Kompani	-11.1129
▁Richard	-11.1129
▁artificial	-11.1129
▁asteroid	-11.1129
▁atmosferë	-11.1129
▁britanik	-11.1129
▁dhuratë	-11.1129
▁drogë	-11.1129
▁futbolli	-11.1129
▁iPhone	-11.1129
▁interpretimi	-11.1129
▁kërkesë	-11.1129
▁mpreh	-11.1129
▁nervoz	-11.1129
▁platformë	-11.1129
▁prirur	-11.1129
▁përshtypj	-11.1129
▁shkretëtir	-11.1129
▁studjuar	-11.1129
▁tavoline	-11.1129
▁temperatura	-11.1129
▁traditë	-11.1129
▁transplant	-11.1129
ridge	-11.1129
▁GDP	-11.1129
▁censur	-11.1129
▁Dhjet	-11.1129
▁pretendoj	-11.1129
▁fetusi	-11.1129
▁korrupt	-11.1129
▁konkurrenc	-11.1129
▁Ngri	-11.1129
▁Zakon	-11.1129
▁proçes	-11.1129
▁betejë	-11.1129
▁llamp	-11.1129
▁kriminel	-11.1129
▁bazik	-11.1129
▁mall	-11.1129
▁komunikuar	-11.1129
▁fiksuar	-11.1129
▁bombard	-11.113
▁vuajtur	-11.113
▁tendencë	-11.113
▁qelq	-11.113
▁mikrobe	-11.113
▁shkronja	-11.113
▁pastrehe	-11.113
▁regjimi	-11.113
▁ShBA	-11.113
▁Qeveri	-11.1131
▁përshkruar	-11.1131
▁Romo	-11.1131
▁beteje	-11.1132
▁1980	-11.1132
▁rroga	-11.1132
▁ruan	-11.1133
▁2009	-11.1133
▁2005	-11.1135
▁2004	-11.1137
▁organike	-11.1137
▁renditje	-11.1138
minuar	-11.1142
▁përsëritur	-11.1142
▁Ivan	-11.1143
▁veçanta	-11.1144
▁ndara	-11.1155
▁përditë	-11.1155
▁pikturo	-11.1156
▁radhe	-11.1158
▁meriton	-11.1159
▁ulta	-11.116
▁ndiej	-11.1161
▁ministri	-11.1161
▁perandori	-11.1164
▁përfitime	-11.1165
▁therr	-11.1167
▁Bëj	-11.117
▁Person	-11.1182
▁kuptueshme	-11.1182
▁bletë	-11.1183
▁vazhduesh	-11.1183
▁mashtrimi	-11.1185
▁Marsi	-11.1186
▁sanduici	-11.1189
▁femëror	-11.1192
▁vrapuar	-11.1193
▁taksave	-11.1195
▁Sch	-11.1196
▁Wat	-11.1199
▁dizajnuar	-11.1201
▁fushatë	-11.1201
▁financuar	-11.1204
▁vendosen	-11.1205
▁administrat	-11.1207
▁heroi	-11.121
▁hir	-11.122
▁kinezë	-11.1226
▁departamenti	-11.123
▁zbre	-11.1231
▁pluhur	-11.1247
▁sëmundj	-11.125
▁lojëra	-11.1255
▁fushate	-11.127
▁sende	-11.127
▁pritje	-11.1278
▁lag	-11.129
▁përzier	-11.13
▁Lindor	-11.1315
▁kujdesem	-11.1324
▁fes	-11.1333
▁fizikish	-11.1335
▁pensioni	-11.1339
▁ceshtj	-11.1355
▁ylli	-11.1378
▁familjar	-11.1379
▁detar	-11.1379
▁Meri	-11.1385
amb	-11.1393
▁tremb	-11.1395
▁urë	-11.1399
▁prezanto	-11.1403
▁shiu	-11.1415
▁Col	-11.1417
▁fillestar	-11.1417
▁ferme	-11.1418
▁demokracis	-11.142
▁mahnites	-11.1423
▁konsideroj	-11.1429
▁befasi	-11.1432
▁paduksh	-11.1437
▁ekzaktes	-11.1471
▁trajnim	-11.1484
▁Perëndim	-11.1489
plot	-11.149
regjistr	-11.1492
▁Madh	-11.1494
▁Mur	-11.1496
▁pastrimi	-11.1502
▁33	-11.1504
▁përmirësohe	-11.1513
fuqi	-11.1533
J	-11.1538
▁mblidh	-11.1544
▁tingull	-11.1546
▁motori	-11.1558
▁mbulon	-11.1558
▁ndertoj	-11.1578
▁ngrir	-11.1591
▁Gar	-11.1593
▁kundërsht	-11.1593
▁fluturimi	-11.1597
▁Qu	-11.1601
▁nesër	-11.1613
▁digje	-11.1625
▁golf	-11.1659
▁kujtoni	-11.1664
▁simptom	-11.1672
▁Babiloni	-11.1685
▁Gjysh	-11.1685
▁Mbretëri	-11.1685
▁Michael	-11.1685
▁Muzika	-11.1685
▁Organizata	-11.1685
▁Singapor	-11.1685
▁divorc	-11.1685
▁dëgjimi	-11.1685
▁episod	-11.1685
▁gjilpërë	-11.1685
▁harmoni	-11.1685
▁llaptop	-11.1685
▁mushkëri	-11.1685
▁muskul	-11.1685
▁nuhat	-11.1685
▁pazakont	-11.1685
▁pjesëmarrës	-11.1685
▁preferenca	-11.1685
▁strehim	-11.1685
▁vullneti	-11.1685
▁zvarrit	-11.1685
▁MRI	-11.1685
▁ballafaqohe	-11.1685
▁biomaterial	-11.1685
▁blloqe	-11.1685
▁lulëz	-11.1685
▁përcaktoj	-11.1685
▁tradite	-11.1685
▁ultratinguj	-11.1685
▁vepruar	-11.1685
▁vetëvrasje	-11.1685
▁infektuar	-11.1685
▁vaksin	-11.1685
▁limituar	-11.1685
▁delikat	-11.1685
▁thërr	-11.1685
▁ushqej	-11.1685
▁variant	-11.1685
▁Montan	-11.1685
▁paaftë	-11.1685
▁sfido	-11.1685
▁nxis	-11.1685
▁rekord	-11.1685
▁mbretër	-11.1685
▁mençur	-11.1685
▁klip	-11.1685
▁Boteror	-11.1685
▁ndenj	-11.1685
▁kursyer	-11.1685
▁puls	-11.1685
▁zotëron	-11.1685
▁perzier	-11.1685
▁gjenerate	-11.1685
▁Angel	-11.1685
shesin	-11.1685
▁melodi	-11.1685
▁vdekshmëri	-11.1685
▁islami	-11.1686
▁shtator	-11.1686
▁përsosur	-11.1686
▁mirëqenie	-11.1687
▁epoke	-11.1687
▁trasheg	-11.1688
▁Martin	-11.1689
▁pyt	-11.1689
▁qarta	-11.1689
▁pashmangshme	-11.169
CR	-11.169
▁2006	-11.169
▁Malt	-11.169
▁Bukur	-11.1691
▁pazar	-11.1692
▁veçanti	-11.1692
▁MS	-11.1695
kryq	-11.1696
▁synimi	-11.1696
▁Pika	-11.1696
▁tekste	-11.1698
▁ndërlidhur	-11.1698
▁fajtor	-11.1699
▁vazhdoi	-11.1699
▁iluzioni	-11.17
▁guximshme	-11.17
▁germ	-11.1702
▁profesionist	-11.1702
▁Alex	-11.1703
▁Ndryshimi	-11.1705
▁printo	-11.1708
▁prodhohe	-11.1709
▁efikasiteti	-11.1712
▁angazhuar	-11.1718
▁koncepti	-11.1723
▁zbeh	-11.1742
▁gatua	-11.1749
▁fluturon	-11.175
▁Dytë	-11.1752
▁blini	-11.1766
▁lumi	-11.1768
▁rinjtë	-11.1768
daf	-11.1769
▁ndërpre	-11.1772
▁përfshijn	-11.1772
▁banjo	-11.1775
▁vuajn	-11.1786
▁kujdesur	-11.1787
▁saktesish	-11.1791
▁raportuar	-11.1797
▁dhën	-11.1799
▁Veri	-11.1802
▁ngrohtë	-11.1804
▁flite	-11.1805
▁biri	-11.1819
▁eksploroj	-11.1823
▁Var	-11.1849
stabil	-11.1852
▁konsumi	-11.186
▁inxhinieri	-11.187
▁vështr	-11.1876
▁hidrogjeni	-11.1888
▁trajnimi	-11.1889
▁pengon	-11.1889
▁dizenjimi	-11.189
▁krijim	-11.1895
▁ekzakt	-11.1902
▁Ngaq	-11.1903
▁shtohe	-11.1905
▁sigurohe	-11.192
▁përballem	-11.1928
▁çështj	-11.1929
▁pakëndsh	-11.194
▁Femij	-11.1945
▁antik	-11.195
▁Tur	-11.1968
▁elefanti	-11.1979
▁versioni	-11.1982
▁interesohe	-11.1991
▁transmetimi	-11.2004
mail	-11.2016
▁bardh	-11.203
▁cmim	-11.2053
▁Lib	-11.2053
▁funksiono	-11.2054
▁përfundi	-11.2058
▁shkarko	-11.2061
▁takimi	-11.2063
▁Londr	-11.208
▁mamuthi	-11.2081
▁vjedh	-11.2094
▁qetesi	-11.2101
▁rajoni	-11.2103
▁treti	-11.2104
▁humori	-11.2105
▁moti	-11.2116
ndryshe	-11.2127
▁argumentoj	-11.2129
▁Palestin	-11.2138
▁qeshur	-11.2145
▁harrojm	-11.2166
tjetrë	-11.2169
▁lesho	-11.217
▁shqetëso	-11.2177
▁afro	-11.2194
▁nganjëher	-11.2205
▁operacioni	-11.2208
▁turpi	-11.2223
▁shikua	-11.2224
▁beso	-11.2225
▁vizatoj	-11.2233
▁favor	-11.2234
dobishëm	-11.2236
gjithëse	-11.2244
▁pabesuesh	-11.2261
▁hebre	-11.2267
▁trans	-11.2271
trokitje	-11.2272
▁dëshpër	-11.2273
▁Fondacioni	-11.2273
▁Indonezi	-11.2273
▁Industria	-11.2273
▁Keshilli	-11.2273
▁Leonardo	-11.2273
▁Olimpik	-11.2273
▁Përfundim	-11.2273
▁ajsberg	-11.2273
▁ambicioz	-11.2273
▁analizuar	-11.2273
▁biçikleta	-11.2273
▁dekadë	-11.2273
▁droge	-11.2273
▁genjejne	-11.2273
▁gjilpëra	-11.2273
▁intuitiv	-11.2273
▁kepuce	-11.2273
▁kibernetik	-11.2273
▁klub	-11.2273
▁pasigurt	-11.2273
▁procedure	-11.2273
▁përkryer	-11.2273
▁revistë	-11.2273
▁riprodhim	-11.2273
▁riprodho	-11.2273
▁simfoni	-11.2273
▁substanc	-11.2273
▁Australi	-11.2273
▁Tunizi	-11.2273
▁dizenjo	-11.2273
▁entuziaz	-11.2273
▁errësirë	-11.2273
▁marrëveshje	-11.2273
▁ndërgjegj	-11.2273
▁shflet	-11.2273
▁Trajtimi	-11.2273
▁figure	-11.2273
▁konsumatorë	-11.2273
▁korrekt	-11.2273
▁neurologjik	-11.2273
▁nocion	-11.2273
▁Pergjigj	-11.2273
▁paraprak	-11.2273
▁rrefim	-11.2273
▁Mesatar	-11.2273
▁tortur	-11.2273
▁cështje	-11.2273
▁paligjsh	-11.2273
▁Delhi	-11.2273
▁agresiv	-11.2273
▁prespektiv	-11.2273
▁Zbul	-11.2273
▁përjashtim	-11.2273
▁përkthim	-11.2273
▁ushqen	-11.2273
▁shkaqe	-11.2273
▁ashpër	-11.2273
▁besueshmëri	-11.2273
▁Arch	-11.2273
▁traum	-11.2273
▁qira	-11.2273
▁kendshme	-11.2273
▁rrudh	-11.2273
▁Gaza	-11.2274
▁Rusi	-11.2274
▁Gold	-11.2274
▁anatomi	-11.2274
▁hasur	-11.2274
▁nipër	-11.2274
▁edukuar	-11.2274
▁kombinuar	-11.2275
▁acid	-11.2275
▁hotel	-11.2275
▁goj	-11.2275
▁zotërinj	-11.2275
▁gazete	-11.2275
▁punëtore	-11.2275
▁ultra	-11.2276
▁rezistent	-11.2276
▁imagjino	-11.2276
▁agjent	-11.2276
▁ndoku	-11.2277
▁perpoq	-11.2278
▁kujtese	-11.2279
▁85	-11.2279
▁kompjuterave	-11.2279
▁personazh	-11.228
▁takohen	-11.228
▁shiqoni	-11.228
▁dëshmitar	-11.2281
▁modest	-11.2281
▁hark	-11.2285
▁patologji	-11.2286
ional	-11.2291
▁perkul	-11.2294
▁barna	-11.2295
▁buzeqesh	-11.2295
pranueshme	-11.2295
▁armiku	-11.2298
▁mirëqen	-11.2301
▁fjet	-11.2302
▁kompleksiteti	-11.2302
▁Iran	-11.2303
dhënës	-11.2303
▁frymëzo	-11.2311
▁shemb	-11.2311
▁ndërroj	-11.2315
▁reagime	-11.2315
▁foshnj	-11.2315
▁dieta	-11.2323
▁naiv	-11.2326
▁mëngjesit	-11.2327
▁aeroplani	-11.233
▁prishur	-11.2331
▁Shih	-11.2334
▁shperndare	-11.2336
hkencetare	-11.2342
▁autoritet	-11.2345
▁birr	-11.2347
▁Brazil	-11.2355
▁lëvizi	-11.2355
▁zhvillo	-11.236
▁dergua	-11.2372
▁rritesh	-11.2378
▁buzëqeshje	-11.2381
shohesh	-11.2381
▁vleresime	-11.2384
page	-11.2391
▁shkaktoj	-11.2398
▁aplikojm	-11.2401
fytyroni	-11.2401
▁sheqeri	-11.2402
▁supozime	-11.2412
▁studiues	-11.2414
▁Carl	-11.2416
▁gjuri	-11.2418
▁politikane	-11.2429
▁ulem	-11.2446
▁injoranc	-11.245
▁fokusohem	-11.2465
▁peng	-11.2483
▁shkark	-11.249
▁sherbimi	-11.249
▁luajm	-11.2492
CC	-11.2497
▁lot	-11.2509
▁pasioni	-11.2513
ntor	-11.2517
▁neuroshkenc	-11.2523
▁paraardhësi	-11.2548
▁udhëheqësi	-11.2569
▁kujtojm	-11.2574
▁identitet	-11.2576
▁baraz	-11.2585
anca	-11.2588
▁kujdesen	-11.259
▁shkrir	-11.2596
▁udhetoj	-11.2631
▁femijeri	-11.2633
▁250	-11.2634
▁kujtua	-11.2637
▁Evrop	-11.2642
▁presion	-11.2656
▁automatikish	-11.266
▁fantastik	-11.2672
dogjë	-11.2691
▁tumori	-11.2698
▁dham	-11.2713
▁pergjegjes	-11.272
▁presidenti	-11.2736
▁realizoj	-11.2743
qoftë	-11.2751
▁rikthe	-11.2754
▁mamaj	-11.2755
▁pluhuri	-11.2759
kundër	-11.2765
▁prekje	-11.2773
▁çuditsh	-11.2775
▁vrapon	-11.2785
▁policis	-11.2808
▁veprojm	-11.2819
▁mesua	-11.2829
▁vdis	-11.2829
▁mashtrim	-11.2831
▁ndihmua	-11.2861
rdhër	-11.2862
▁ekzekut	-11.2893
▁biolog	-11.2896
▁Audienc	-11.2898
▁Global	-11.2898
▁Israel	-11.2898
▁LED	-11.2898
▁Mozarti	-11.2898
▁Parkinson	-11.2898
▁Skifter	-11.2898
▁ashtuquajtur	-11.2898
▁audienca	-11.2898
▁bashkëkohor	-11.2898
▁biciklete	-11.2898
▁depozit	-11.2898
▁ekzistues	-11.2898
▁galaksi	-11.2898
▁homoseksual	-11.2898
▁imunitar	-11.2898
▁interaktiv	-11.2898
▁intuita	-11.2898
▁kostum	-11.2898
▁menaxhimi	-11.2898
▁mirënjohës	-11.2898
▁nderkombetar	-11.2898
▁neglizh	-11.2898
▁permiresuar	-11.2898
▁portokalli	-11.2898
▁përkufizim	-11.2898
▁përshkruaj	-11.2898
▁përshpejt	-11.2898
▁refugjat	-11.2898
▁ripërtëri	-11.2898
▁shfrytez	-11.2898
▁shigjeta	-11.2898
▁shperblim	-11.2898
▁spjeg	-11.2898
▁stuhi	-11.2898
▁telekomand	-11.2898
▁temperature	-11.2898
▁transparent	-11.2898
▁Babai	-11.2898
▁bashkëshort	-11.2898
▁karrocë	-11.2898
▁kolege	-11.2898
▁performanca	-11.2898
▁rivendos	-11.2898
▁japonez	-11.2898
▁miliongona	-11.2898
▁primar	-11.2898
▁rigjener	-11.2898
▁Grup	-11.2898
▁mbërth	-11.2898
▁gjoksi	-11.2898
▁plastikë	-11.2898
▁prezenc	-11.2898
▁binjake	-11.2898
▁gjigant	-11.2898
▁trilion	-11.2898
▁aktivizohe	-11.2898
▁zgjeruar	-11.2898
▁kërkues	-11.2898
▁reaksion	-11.2898
▁vallez	-11.2898
▁ishuj	-11.2898
▁përpunim	-11.2898
▁çelik	-11.2898
▁detekt	-11.2898
▁perspektive	-11.2898
▁darke	-11.2898
▁përkushtimi	-11.2898
▁shpetuar	-11.2898
▁profil	-11.2898
▁nacional	-11.2898
▁cikli	-11.2898
▁Shkurt	-11.2898
▁Mbi	-11.2898
▁përkthyer	-11.2898
▁përditshme	-11.2898
▁ndervepr	-11.2898
▁analogji	-11.2898
▁verifik	-11.2899
▁Drejt	-11.2899
qelizor	-11.2899
▁rrëfim	-11.2899
▁parazite	-11.2899
▁ngarkuar	-11.2899
▁statik	-11.2899
▁përpuno	-11.2899
▁Fakt	-11.29
▁limite	-11.29
▁mungoj	-11.29
▁përqindëshi	-11.29
▁Berlin	-11.2901
▁uritur	-11.2902
▁paralel	-11.2902
▁njëfarë	-11.2903
▁Premt	-11.2903
▁edukativ	-11.2905
▁nerva	-11.2906
▁gjithses	-11.2908
▁aspir	-11.2908
▁Fjal	-11.2908
▁produktiviteti	-11.2908
▁shpërndarë	-11.2909
▁deshtuar	-11.2909
▁kandidat	-11.291
▁fatmir	-11.2912
▁transformuar	-11.2913
▁Thu	-11.2918
▁përafërsi	-11.2919
▁IN	-11.2921
▁besueshme	-11.2921
▁krijova	-11.2922
▁emigr	-11.2923
jetër	-11.2926
▁Qell	-11.2926
▁ruajtje	-11.2928
▁Arri	-11.2931
▁udhëtoj	-11.2932
▁ueb	-11.2932
▁mjekësi	-11.2932
▁lartësi	-11.2938
▁perfunduar	-11.294
▁largua	-11.2942
▁26	-11.2947
▁përfundimtar	-11.2949
▁lejojm	-11.2965
▁metale	-11.2967
▁fushata	-11.2968
▁domosdoshme	-11.2969
▁çati	-11.2978
hidr	-11.2981
▁financues	-11.2981
▁sensin	-11.2983
BA	-11.2989
▁ecje	-11.2992
perendim	-11.2993
▁ftoj	-11.2997
▁nesërme	-11.2999
▁Tri	-11.3012
▁elite	-11.3017
▁mision	-11.3029
▁kujtuar	-11.306
▁Kongo	-11.3061
▁dashuris	-11.3062
▁oqean	-11.3064
lex	-11.3065
▁Mac	-11.3067
▁Europ	-11.3068
57	-11.3075
▁kryetar	-11.3078
▁anetar	-11.3081
▁sugjeron	-11.3083
Sh	-11.3091
▁mbështesi	-11.3101
rzitshme	-11.3104
▁peshon	-11.3113
▁ndalua	-11.3121
▁Sand	-11.3124
▁propozoj	-11.3125
▁ditor	-11.3129
▁zhdukje	-11.3129
▁humbni	-11.3131
▁ndërtim	-11.3144
▁kërcënimi	-11.3145
▁krijuesi	-11.3149
varësisht	-11.3158
▁luftoni	-11.3171
▁qar	-11.3188
▁kualiteti	-11.319
▁Jim	-11.3195
▁zgjuarsi	-11.3201
▁lejohe	-11.3202
▁furnizimi	-11.3213
▁përmirësimi	-11.322
▁atlet	-11.3223
▁vetëdijës	-11.323
▁konsideruesh	-11.3242
▁boje	-11.3243
▁denim	-11.3255
▁Dal	-11.3256
▁ndikoj	-11.3258
▁qetësi	-11.3262
▁faq	-11.3269
▁theksoj	-11.3271
▁Bor	-11.3284
▁lër	-11.3296
▁shërbimi	-11.3313
▁karakteri	-11.3322
ulur	-11.3327
▁mësohe	-11.3328
▁produktiv	-11.3347
▁studiojm	-11.335
▁supozoj	-11.3354
▁Spe	-11.3355
▁Ndonjëher	-11.3373
▁ligjor	-11.3382
▁përpiqe	-11.3384
30	-11.3385
▁shtrati	-11.3388
▁gab	-11.3393
bejne	-11.341
kthye	-11.3415
▁shifr	-11.3417
▁pushimi	-11.343
▁progres	-11.3432
▁1,	-11.3437
▁origjina	-11.3445
▁përplas	-11.3451
▁përfshi	-11.3462
▁fitojm	-11.3474
▁ricikl	-11.3474
▁shkencëtar	-11.3483
BC	-11.3497
▁urbaniz	-11.3498
▁elektricitet	-11.3503
▁Ndrysh	-11.3503
▁konteksti	-11.3516
lodhur	-11.3519
▁nxor	-11.3523
▁ngjaj	-11.3533
igje	-11.3533
▁bashkëpunim	-11.3535
struktur	-11.3554
aliminderit	-11.3561
▁Universit	-11.3564
▁ëmbël	-11.3564
▁Brown	-11.3564
▁Charles	-11.3564
▁Fibonaçi	-11.3564
▁Kosove	-11.3564
▁Pothuaj	-11.3564
▁Ruanda	-11.3564
▁Rwand	-11.3564
▁Tumorit	-11.3564
▁Vazhdo	-11.3564
▁Vërtet	-11.3564
▁Weibo	-11.3564
▁Wikipedia	-11.3564
▁atmosferik	-11.3564
▁dhurata	-11.3564
▁evidenc	-11.3564
▁frigorifer	-11.3564
▁frustr	-11.3564
▁furgon	-11.3564
▁inspiruar	-11.3564
▁kontradikt	-11.3564
▁marreveshje	-11.3564
▁molekulë	-11.3564
▁ndergjegje	-11.3564
▁origjine	-11.3564
▁paralajmër	-11.3564
▁plutokratë	-11.3564
▁receptor	-11.3564
▁reporter	-11.3564
▁rrumbullak	-11.3564
▁sfidues	-11.3564
▁shkelqyer	-11.3564
▁shqetësues	-11.3564
▁tavolina	-11.3564
▁televizor	-11.3564
▁tërhoq	-11.3564
▁ushqyes	-11.3564
▁vendndodhj	-11.3564
▁viktimë	-11.3564
▁GPS	-11.3564
▁Kenya	-11.3564
▁aplikua	-11.3564
▁inxhinjer	-11.3564
▁lokacion	-11.3564
▁mashtruar	-11.3564
▁ndriço	-11.3564
▁perkufiz	-11.3564
▁terrorizmi	-11.3564
▁federal	-11.3564
▁rikuper	-11.3564
▁lumenj	-11.3564
▁tranzicioni	-11.3564
▁zyrë	-11.3564
▁Pekin	-11.3564
▁diplomaci	-11.3564
▁feminist	-11.3564
▁iPad	-11.3564
▁lehta	-11.3565
▁luftim	-11.3565
▁sqaro	-11.3565
▁izolim	-11.3565
▁gënje	-11.3565
vaskular	-11.3565
▁Evropian	-11.3565
▁pashpres	-11.3565
▁neutral	-11.3565
▁ofend	-11.3565
▁ruhe	-11.3565
▁trazira	-11.3565
▁mencur	-11.3565
▁xhiro	-11.3565
▁autist	-11.3565
▁Blu	-11.3565
▁lyp	-11.3565
▁Model	-11.3565
▁hënë	-11.3565
▁shkopinj	-11.3565
▁zanor	-11.3565
▁organizatë	-11.3565
▁mbesa	-11.3565
▁yndyr	-11.3565
▁beteja	-11.3565
▁Gates	-11.3566
▁Liberi	-11.3566
▁Mesazh	-11.3566
▁veprimtari	-11.3566
▁arkitekturë	-11.3566
▁empati	-11.3567
▁zgjerim	-11.3567
▁Mjek	-11.3567
▁përpoq	-11.3567
▁ekstra	-11.3567
Prince	-11.3568
▁klime	-11.3568
▁server	-11.3568
▁metabolizmi	-11.3569
keput	-11.3569
▁ajror	-11.3569
▁plas	-11.3569
▁196	-11.357
▁Sahar	-11.357
▁mollë	-11.357
▁Tesla	-11.3571
▁Gjene	-11.3571
▁Shkolla	-11.3572
▁joshës	-11.3572
modul	-11.3573
qëndruesh	-11.3573
▁ironik	-11.3574
▁rikujt	-11.3578
▁artikuj	-11.3578
▁shirit	-11.358
▁përkul	-11.3584
▁roje	-11.3587
▁detajuar	-11.359
▁elimin	-11.3591
▁Lidhj	-11.3592
▁perhapur	-11.3594
▁ftes	-11.3594
▁asete	-11.3597
▁gjuan	-11.3601
▁urdhër	-11.3604
▁vjedhur	-11.3604
▁theksuar	-11.3605
60	-11.3607
▁final	-11.3607
▁tulla	-11.3608
▁vendimi	-11.3611
▁zogu	-11.3614
▁infrastrukturë	-11.3615
▁notoj	-11.3617
içka	-11.3617
▁anten	-11.362
▁krediti	-11.3623
▁ferr	-11.3625
▁mont	-11.3626
▁gjitar	-11.3629
▁burimor	-11.3629
eks	-11.3629
▁verej	-11.363
▁përshtatur	-11.3638
▁Gjuh	-11.365
▁vdisni	-11.3652
95	-11.3657
njte	-11.3657
▁Baz	-11.366
▁hero	-11.3664
▁Tregim	-11.3676
▁dështo	-11.3677
▁mallra	-11.368
▁Ndërkoh	-11.3681
▁eksperimental	-11.3684
▁Jorku	-11.3692
▁regjistrohe	-11.3692
▁përgjithsh	-11.3692
▁angazhimi	-11.37
▁Cla	-11.3703
▁beton	-11.371
▁Lajm	-11.371
▁mblidhni	-11.3711
▁përfitoj	-11.372
▁Van	-11.373
▁arrihe	-11.3731
▁president	-11.374
▁barku	-11.3752
▁algoritmi	-11.3755
▁Kalo	-11.3761
▁bisht	-11.3763
▁bleni	-11.3767
▁bashkëveprimi	-11.3777
▁shkrihe	-11.3784
▁lig	-11.3788
▁oksitocin	-11.379
▁dhënësi	-11.3791
cast	-11.3791
▁testimi	-11.3793
▁ekuilibri	-11.38
▁2.0	-11.3813
▁paguajn	-11.3821
▁ndërtohe	-11.3827
▁ndertua	-11.3834
▁36	-11.3839
▁vendas	-11.3849
IA	-11.3851
▁Bej	-11.3863
▁degjojm	-11.3873
▁Chi	-11.3897
▁fatal	-11.3899
▁detaj	-11.3902
▁ndysh	-11.3916
▁minu	-11.3936
▁hollimi	-11.3942
▁lehtësi	-11.3965
qeshje	-11.3972
▁virtual	-11.3977
informuar	-11.3993
▁sugjerim	-11.3994
▁funksionimi	-11.4018
▁fluturojn	-11.4028
▁negativ	-11.4052
▁sektor	-11.4054
28	-11.4058
▁Liz	-11.4071
▁pend	-11.4094
▁përzie	-11.4105
▁pjesëmarrje	-11.4107
▁gumëzhim	-11.411
ërsëri	-11.4117
▁Wil	-11.4125
▁dëshm	-11.4128
funksion	-11.413
gjithmon	-11.4132
secili	-11.4134
▁laik	-11.4152
▁kërkov	-11.4156
▁brut	-11.4162
▁financimi	-11.4163
▁orbit	-11.4183
▁shëndetësi	-11.4206
▁gjendj	-11.4207
▁optimiz	-11.4257
▁elektro	-11.4262
▁udhez	-11.4265
▁kandid	-11.4265
▁mëlçi	-11.4272
▁analog	-11.4278
▁Neandertal	-11.4279
▁Perandori	-11.4279
▁marketing	-11.4279
▁mbërrit	-11.4279
▁virtyt	-11.4279
▁FBI	-11.4279
▁Kombëtar	-11.4279
▁Mbreter	-11.4279
▁Ministri	-11.4279
▁Norvegji	-11.4279
▁OJQ	-11.4279
▁Pershendetje	-11.4279
▁Rezultat	-11.4279
▁Rregulli	-11.4279
▁admiro	-11.4279
▁baballarë	-11.4279
▁bicikleta	-11.4279
▁biçikletë	-11.4279
▁domethënie	-11.4279
▁droguar	-11.4279
▁dëgjuesi	-11.4279
▁europian	-11.4279
▁iniciativ	-11.4279
▁intensitet	-11.4279
▁izraelit	-11.4279
▁mushkeri	-11.4279
▁neandertalë	-11.4279
▁pajisur	-11.4279
▁pergjithesi	-11.4279
▁probabilitet	-11.4279
▁revista	-11.4279
▁ringjall	-11.4279
▁shkretetire	-11.4279
▁shqetësim	-11.4279
▁degrad	-11.4279
▁lodra	-11.4279
▁primitiv	-11.4279
▁përqafoj	-11.4279
▁romantik	-11.4279
▁krimbi	-11.4279
▁novel	-11.4279
▁hendek	-11.4279
▁kalimtar	-11.4279
▁permiresoj	-11.4279
▁dialog	-11.4279
▁kryqëz	-11.4279
▁malaria	-11.4279
▁Krejt	-11.4279
▁kolegu	-11.4279
▁heshtur	-11.4279
▁receta	-11.4279
▁Pikërish	-11.4279
▁minimal	-11.4279
▁darkë	-11.4279
▁keqkupto	-11.4279
▁rëndomt	-11.4279
▁Valley	-11.4279
▁Spanj	-11.4279
▁shtreng	-11.4279
invaziv	-11.4279
▁grek	-11.4279
▁Njeriu	-11.4279
▁shkaterrua	-11.4279
▁kapitull	-11.4279
▁simul	-11.428
▁kafsha	-11.428
▁pista	-11.428
▁kompoz	-11.428
▁fermë	-11.428
▁depërt	-11.428
▁bosoni	-11.428
▁Kërko	-11.428
▁kuptimplot	-11.428
▁Mban	-11.428
▁mono	-11.428
▁Big	-11.428
▁naftë	-11.4281
▁leximi	-11.4281
▁perberes	-11.4281
▁varfr	-11.4281
▁Qëllim	-11.4281
▁Tjetr	-11.4281
▁pervoje	-11.4282
▁vris	-11.4282
▁dëmtuar	-11.4282
▁keqija	-11.4283
▁thelbesor	-11.4283
▁citoj	-11.4283
▁padëshiruar	-11.4284
▁gjeneruar	-11.4284
▁vetdij	-11.4285
▁shkruajtur	-11.4285
▁190	-11.4286
▁MT	-11.4287
▁ndjeshmëri	-11.4287
▁molle	-11.4288
▁Përdor	-11.4289
▁vëlla	-11.429
▁fatura	-11.4291
▁diskutuar	-11.4292
▁vlerëson	-11.4292
▁mireqen	-11.4293
▁parashikues	-11.4294
▁pica	-11.4296
▁sms	-11.4296
▁Park	-11.4297
▁master	-11.4299
▁terrori	-11.4299
▁përparësi	-11.4303
▁mbare	-11.4304
▁Ndih	-11.4304
▁udhëzime	-11.4306
▁dietë	-11.4311
▁operativ	-11.4313
▁litar	-11.4313
▁përveq	-11.4314
▁Fol	-11.4317
▁balt	-11.4317
▁infrastrukture	-11.4318
▁ëshë	-11.4322
▁djegur	-11.4322
▁mekanizmi	-11.4322
▁konsideroni	-11.4338
▁instaluar	-11.4339
▁data	-11.4349
▁fotografoj	-11.4356
LA	-11.4357
▁konsiderojm	-11.4365
▁nxirrni	-11.4368
▁dorëzohe	-11.4374
▁demografik	-11.4374
▁biologjik	-11.4386
▁shku	-11.439
▁ndien	-11.441
Bay	-11.4411
gand	-11.4417
▁peshku	-11.4418
▁përfytyr	-11.4418
▁rrjedhje	-11.4427
ështj	-11.4432
▁copez	-11.4449
▁gjall	-11.445
▁fara	-11.4455
▁Henr	-11.4457
▁fitore	-11.4462
▁njerzor	-11.4463
▁drejtesi	-11.4483
▁dosje	-11.4484
▁fikur	-11.4517
▁rrëzo	-11.4535
▁telefonoj	-11.4535
▁përballen	-11.4548
▁kamere	-11.4551
▁përgjim	-11.4558
▁diell	-11.4571
▁vetjak	-11.4578
erge	-11.4579
▁fitimi	-11.4579
▁gazra	-11.4599
▁udheto	-11.46
▁pranoni	-11.461
▁shpenzo	-11.4616
▁Deb	-11.4637
▁gjatesi	-11.4654
aktivizuar	-11.4658
▁kinez	-11.468
▁deshtoj	-11.47
▁shiqojm	-11.4716
▁dhembje	-11.4719
▁vleresoj	-11.4728
▁ndarj	-11.4729
▁Marc	-11.4739
▁lartesi	-11.4743
▁përballoj	-11.4752
▁civil	-11.4778
▁CO	-11.4791
▁perballem	-11.4802
▁Treg	-11.4804
▁rrugor	-11.4808
ation	-11.4813
▁përbërë	-11.4821
▁mesimi	-11.4843
▁Etiopi	-11.485
W	-11.4882
OM	-11.489
amerikan	-11.49
▁koleksioni	-11.4914
▁përfiton	-11.4946
▁shiqoj	-11.4962
▁angazhohe	-11.4963
▁Gju	-11.4964
▁sherbim	-11.4974
▁tërhiq	-11.4983
▁fitua	-11.5006
▁printoj	-11.5016
▁komunikim	-11.502
▁kërkua	-11.5023
shpjeg	-11.5026
▁princ	-11.5048
▁mbizotër	-11.5048
ingjinjer	-11.5048
▁Anglez	-11.5048
▁Charlie	-11.5048
▁Grenlandë	-11.5048
▁Jeruzalem	-11.5048
▁Kompjuteri	-11.5048
▁LHC	-11.5048
▁Microsoft	-11.5048
▁Mrekull	-11.5048
▁Odiseu	-11.5048
▁William	-11.5048
▁adoleshenc	-11.5048
▁arësyje	-11.5048
▁demostrim	-11.5048
▁diversiteti	-11.5048
▁eksponencial	-11.5048
▁hierarki	-11.5048
▁implant	-11.5048
▁interpretoj	-11.5048
▁kalkul	-11.5048
▁kualifikuar	-11.5048
▁laptop	-11.5048
▁marramendës	-11.5048
▁mashtroni	-11.5048
▁nderhyrje	-11.5048
▁neurokirurg	-11.5048
▁pantallona	-11.5048
▁pikpamj	-11.5048
▁pistolet	-11.5048
▁printuar	-11.5048
▁qofshi	-11.5048
▁sakrifik	-11.5048
▁shkëput	-11.5048
▁stadium	-11.5048
▁tingëlloj	-11.5048
▁tradhëti	-11.5048
▁vellezer	-11.5048
▁kalendar	-11.5048
▁kerkesa	-11.5048
▁kompromis	-11.5048
▁konfront	-11.5048
▁ndreq	-11.5048
▁oficer	-11.5048
▁prioritet	-11.5048
▁procedura	-11.5048
▁rryma	-11.5048
▁rrëfej	-11.5048
▁trasform	-11.5048
▁udhëhiq	-11.5048
▁Bregu	-11.5048
▁Islam	-11.5048
▁SMS	-11.5048
▁adopt	-11.5048
▁fjalor	-11.5048
▁psikiatr	-11.5048
▁restorante	-11.5048
▁vallëz	-11.5048
▁dhuruar	-11.5048
▁iranian	-11.5048
▁konvert	-11.5048
▁permiresim	-11.5048
▁shërbej	-11.5048
▁vozis	-11.5048
▁pikture	-11.5048
▁Muzeu	-11.5048
▁arterie	-11.5048
▁ditëlindj	-11.5048
▁ndotje	-11.5048
sbolli	-11.5048
▁Studim	-11.5048
▁Shoh	-11.5048
▁Egjiptian	-11.5048
▁preciz	-11.5048
▁misterioz	-11.5048
mbëdhjet	-11.5048
▁gjeografik	-11.5048
▁sapun	-11.5048
▁tituj	-11.5048
▁hapësire	-11.5048
▁maraton	-11.5048
▁Aziatik	-11.5048
▁Steph	-11.5048
▁lope	-11.5049
▁risku	-11.5049
▁Pacienti	-11.5049
▁Femra	-11.5049
▁fleksibil	-11.5049
▁pozitë	-11.5049
▁indiane	-11.5049
▁kerci	-11.5049
▁kopjimi	-11.5049
▁Prindë	-11.5049
▁popullate	-11.5049
▁qiri	-11.505
▁izolo	-11.505
▁flamuri	-11.505
▁shtir	-11.505
▁fustan	-11.505
▁termeti	-11.505
▁rrahj	-11.505
▁Shenjt	-11.5053
▁1990	-11.5053
▁viral	-11.5053
▁brendësi	-11.5053
▁rikthye	-11.5053
▁sistematik	-11.5053
▁përmbajn	-11.5054
▁shport	-11.5055
▁Pesë	-11.5055
▁personalizuar	-11.5057
▁mjekesi	-11.5058
▁1900	-11.5058
▁karta	-11.5058
▁dobesi	-11.5059
▁mjekësisë	-11.5059
▁veshkë	-11.5061
▁spes	-11.5062
▁ngjason	-11.5063
▁ngordhur	-11.5065
▁simptomat	-11.5065
▁injorua	-11.5066
▁Demokratik	-11.5066
▁Kurani	-11.5067
▁Kolo	-11.5067
▁askund	-11.5068
abel	-11.5071
▁UN	-11.5071
▁veproj	-11.5071
▁telefonike	-11.5073
▁Krye	-11.5073
▁shqis	-11.5079
▁shitës	-11.5082
▁bleva	-11.5083
▁veshka	-11.5084
▁kryejn	-11.5086
▁Jason	-11.5086
▁freno	-11.5091
▁wi	-11.5091
▁babi	-11.5092
▁Kris	-11.5096
▁shndërruar	-11.5102
▁kozmo	-11.5103
▁këndoj	-11.5117
▁asnjeri	-11.5125
përfill	-11.5129
▁Ende	-11.5131
▁përcjell	-11.5142
▁informati	-11.5146
▁dokumentar	-11.5154
▁riciklimi	-11.5154
80	-11.5162
ugh	-11.5165
▁shofi	-11.5175
▁aplikohe	-11.5178
▁Prill	-11.5181
▁besohe	-11.519
gust	-11.5211
▁skuad	-11.5214
▁kundërshtim	-11.5223
▁djalli	-11.5244
▁rob	-11.5263
▁nxe	-11.5285
enture	-11.5294
▁vjedhje	-11.5308
▁shoqeris	-11.5314
▁luftetar	-11.5324
▁bankar	-11.5342
▁shijon	-11.5358
▁zbrit	-11.5371
▁shkatërroj	-11.5391
▁realizohe	-11.5393
▁parandalimi	-11.5405
down	-11.5416
ID	-11.542
▁fryr	-11.5429
▁ngjitës	-11.5445
▁Ford	-11.5471
trick	-11.5506
zgjedhj	-11.552
▁kualitet	-11.5528
▁mrekull	-11.5545
adresuar	-11.5553
qeveritar	-11.5562
▁vështir	-11.5569
▁bashkimi	-11.5572
▁mundeso	-11.5573
▁kujdesesh	-11.5603
▁automat	-11.562
▁klasik	-11.5669
▁tërheqës	-11.5695
▁identifikojm	-11.5728
ushqyer	-11.5733
▁njerezimi	-11.5735
▁karakteristik	-11.5741
▁shërbim	-11.5759
▁zmadho	-11.5762
sipër	-11.5768
▁Secil	-11.5784
▁saktesi	-11.5792
▁kujtohe	-11.5798
spekti	-11.583
▁bisedoj	-11.5837
▁konserv	-11.5841
▁provua	-11.5856
▁pamund	-11.5864
▁obez	-11.5868
▁qendruesh	-11.5868
▁ventil	-11.5868
▁psik	-11.5878
▁spec	-11.5879
okollat	-11.5881
▁Fatkeqësi	-11.5881
Organiz	-11.5881
▁jetegjatesi	-11.5881
▁mbështjell	-11.5881
▁nënvlerës	-11.5881
▁përqëndrohe	-11.5881
▁stereotip	-11.5881
zervativ	-11.5881
▁AIDS	-11.5881
▁CEO	-11.5881
▁Cochrane	-11.5881
▁Fotografi	-11.5881
▁Fuqi	-11.5881
▁SIDA	-11.5881
▁Ushahidi	-11.5881
▁Zgjidhj	-11.5881
▁absorb	-11.5881
▁autostradë	-11.5881
▁bashkeshort	-11.5881
▁bërthamor	-11.5881
▁definitiv	-11.5881
▁dhurate	-11.5881
▁dhëmbshuri	-11.5881
▁drejtperdrejt	-11.5881
▁erresire	-11.5881
▁flluska	-11.5881
▁gradualisht	-11.5881
▁grusht	-11.5881
▁hipoteza	-11.5881
▁inferior	-11.5881
▁institut	-11.5881
▁karikaturist	-11.5881
▁koncert	-11.5881
▁konference	-11.5881
▁konferencë	-11.5881
▁konstruksion	-11.5881
▁majtas	-11.5881
▁maksimal	-11.5881
▁maksimum	-11.5881
▁marredhenie	-11.5881
▁mashtrues	-11.5881
▁matematicien	-11.5881
▁metaforë	-11.5881
▁oborri	-11.5881
▁pikturuar	-11.5881
▁përcakton	-11.5881
▁rikrij	-11.5881
▁shpatulla	-11.5881
▁shpërblim	-11.5881
▁skizofren	-11.5881
▁skulptur	-11.5881
▁softuer	-11.5881
▁software	-11.5881
▁spirale	-11.5881
▁supermarket	-11.5881
▁survejimi	-11.5881
▁valixhe	-11.5881
▁zmadhuar	-11.5881
▁ARN	-11.5881
▁Mjaft	-11.5881
▁Trup	-11.5881
▁analize	-11.5881
▁kryeminist	-11.5881
▁pergjegjsh	-11.5881
▁përgjithësh	-11.5881
▁kondomë	-11.5881
▁korridor	-11.5881
▁pambuk	-11.5881
▁kasolle	-11.5881
▁ngazëll	-11.5881
▁emergjenc	-11.5881
▁jashteqitje	-11.5881
▁Fillua	-11.5881
▁periferi	-11.5881
▁stomak	-11.5881
▁Scott	-11.5881
▁graviteti	-11.5881
▁argjil	-11.5881
▁kirurgjik	-11.5881
▁Mandel	-11.5881
▁benefite	-11.5881
▁tradht	-11.5881
▁njolla	-11.5881
▁komedi	-11.5881
▁gjykate	-11.5881
▁kerkues	-11.5881
▁mjeshtër	-11.5881
▁Franceze	-11.5881
▁steril	-11.5881
▁bjer	-11.5882
▁domethen	-11.5882
▁automjete	-11.5882
▁Latine	-11.5882
▁lagësht	-11.5882
▁memorje	-11.5882
▁membran	-11.5882
▁manual	-11.5882
▁pikepamj	-11.5882
▁Palos	-11.5882
▁ngjyrosur	-11.5882
▁mikrofon	-11.5882
▁kolona	-11.5882
▁spekul	-11.5882
▁piano	-11.5882
▁shtatezen	-11.5882
▁civilizimi	-11.5882
▁kompozitor	-11.5882
▁kristal	-11.5882
▁Përveç	-11.5882
▁Meksik	-11.5882
▁skema	-11.5882
▁semure	-11.5883
▁brigje	-11.5883
▁fryma	-11.5883
▁pritshmeri	-11.5883
▁parajsë	-11.5883
▁Doktor	-11.5883
▁cdonjer	-11.5883
▁Plu	-11.5883
▁Gjera	-11.5884
▁ferma	-11.5884
▁regjime	-11.5884
▁perendimor	-11.5885
▁mizor	-11.5885
▁ardhëshme	-11.5885
▁bariu	-11.5885
▁pasdite	-11.5886
▁Mësimi	-11.5887
▁alfa	-11.5887
▁mbrojtës	-11.5889
▁Kiva	-11.589
▁gote	-11.5891
▁konsumatori	-11.5892
▁varkë	-11.5892
▁pajtim	-11.5892
▁loj	-11.5893
▁karier	-11.5893
eshente	-11.5893
▁Hous	-11.5894
▁gripi	-11.5894
▁Erdh	-11.5895
▁401	-11.5895
▁shkund	-11.5895
▁dënua	-11.5897
▁bollsh	-11.5897
▁Jepi	-11.5898
▁thik	-11.5899
▁shokuese	-11.5899
▁ndërrimi	-11.59
▁komunikojm	-11.5902
▁armatos	-11.5902
▁shpine	-11.5904
▁banke	-11.5905
▁CD	-11.5905
▁lutje	-11.5907
▁saktësi	-11.5913
▁ndërlidhje	-11.5917
▁zbavitës	-11.592
▁Besim	-11.592
▁renie	-11.5923
▁subjektiv	-11.5924
qysh	-11.5924
▁Mario	-11.5925
▁mëndje	-11.5925
▁ngaterr	-11.5926
▁flini	-11.593
▁zmadhojm	-11.5933
▁nxorr	-11.5934
▁frymëmarrje	-11.5938
▁reflekton	-11.5938
▁ftua	-11.5939
▁vizatimor	-11.594
▁Hans	-11.594
▁kamerë	-11.5941
▁Bëhe	-11.5943
▁nxehtesi	-11.5945
hip	-11.5949
▁joshje	-11.595
▁preferoni	-11.5954
▁deshtimi	-11.5954
▁Libra	-11.5957
▁indeks	-11.5972
qark	-11.5989
right	-11.6008
▁fiziologjik	-11.6009
▁perfitime	-11.6011
▁shkatërrim	-11.6013
▁moraliteti	-11.602
▁qendrueshmeri	-11.6028
▁perjetoj	-11.603
▁Asnjëher	-11.6055
▁miratimi	-11.6069
Palestinez	-11.6077
▁fisi	-11.6078
hasim	-11.6082
profe	-11.6094
ifikimi	-11.6103
▁sulmon	-11.6114
▁pranimi	-11.6115
▁humor	-11.6127
▁trajtohe	-11.6167
▁korrupsion	-11.6214
▁qymyr	-11.6229
▁godis	-11.623
▁dëgjohe	-11.6275
viole	-11.6278
▁miqësi	-11.6285
▁shtim	-11.6332
▁cudi	-11.6343
▁lihe	-11.637
▁yll	-11.6371
▁anashkal	-11.6372
▁konsumon	-11.638
ullin	-11.6384
▁prefer	-11.6406
▁Trego	-11.6417
▁gjethe	-11.6429
▁pastron	-11.6464
▁permbush	-11.648
▁ushtarak	-11.6529
▁realizimi	-11.6541
▁përsonal	-11.6553
▁departament	-11.6614
▁zog	-11.6618
▁sëmur	-11.6635
llogari	-11.6638
▁Kanad	-11.664
▁ëndrr	-11.664
▁magjishm	-11.6649
fuqishëm	-11.6653
▁administr	-11.6655
▁mirëmbaj	-11.666
▁regjistrua	-11.6676
▁femër	-11.6681
shteteror	-11.6686
▁varësi	-11.6694
▁Val	-11.6706
▁clir	-11.6706
▁përfundua	-11.6735
▁udhëz	-11.6756
▁paguan	-11.6757
▁lejua	-11.6763
▁East	-11.6769
SC	-11.6774
▁klasi	-11.6778
▁priv	-11.6788
okraci	-11.679
▁tranzi	-11.679
▁Duartrokt	-11.679
▁Krishtlindje	-11.679
▁Vdekj	-11.679
▁bujqësi	-11.679
▁përkujdes	-11.679
▁rizbul	-11.679
tmosfera	-11.679
▁Diplomati	-11.679
▁FDA	-11.679
▁Falemderit	-11.679
▁Gjysma	-11.679
▁Kolumbi	-11.679
▁Rezulto	-11.679
▁Shembull	-11.679
▁Snowden	-11.679
▁World	-11.679
▁ashensor	-11.679
▁bankier	-11.679
▁evolucionar	-11.679
▁farmaceutike	-11.679
▁flluskë	-11.679
▁fragment	-11.679
▁fresket	-11.679
▁genjeshtar	-11.679
▁intervenim	-11.679
▁komercial	-11.679
▁kondicion	-11.679
▁metodologji	-11.679
▁mushkonja	-11.679
▁ndërrmarrës	-11.679
▁palestinez	-11.679
▁paprekur	-11.679
▁pershtypje	-11.679
▁platforma	-11.679
▁propagand	-11.679
▁qumësht	-11.679
▁qëndrueshmëri	-11.679
▁reciprok	-11.679
▁rekrut	-11.679
▁replik	-11.679
▁rrezatimi	-11.679
▁sfond	-11.679
▁stimuj	-11.679
▁tempulli	-11.679
▁toleranc	-11.679
▁demoraliz	-11.679
▁droga	-11.679
▁integrim	-11.679
▁integro	-11.679
▁katalog	-11.679
▁legjitim	-11.679
▁percaktoj	-11.679
▁perqafo	-11.679
▁tweet	-11.679
▁Teheran	-11.679
▁diktator	-11.679
▁flaute	-11.679
▁luftra	-11.679
vizuel	-11.679
▁Rezero	-11.679
▁aprov	-11.679
▁kanalizime	-11.679
▁shnderro	-11.679
▁trajnoj	-11.679
▁Austri	-11.679
▁Lëviz	-11.679
▁abuzimi	-11.679
▁gdhend	-11.679
▁Gjithsesi	-11.679
▁dendesi	-11.679
▁iPod	-11.679
▁Shtëpi	-11.679
▁little	-11.679
▁ngec	-11.679
▁rrymë	-11.679
▁doktrin	-11.679
▁mëparshm	-11.679
▁thumb	-11.679
▁materie	-11.679
▁Lugin	-11.679
▁vrull	-11.679
▁rebel	-11.6791
▁Bibl	-11.6791
▁popullata	-11.6791
▁Sarah	-11.6791
▁aktivizon	-11.6791
▁gallon	-11.6791
▁gezuar	-11.6791
▁keqardhj	-11.6791
▁perjashtim	-11.6791
▁Rrjeti	-11.6791
▁gjueti	-11.6791
▁korrigj	-11.6791
▁qoshe	-11.6791
▁revol	-11.6791
▁kartel	-11.6791
▁lazer	-11.6791
▁shtatezan	-11.6791
▁solar	-11.6791
▁Sky	-11.6791
▁Conor	-11.6791
▁tambur	-11.6791
▁shoqerohe	-11.6791
▁Fild	-11.6791
▁patjetër	-11.6791
▁Life	-11.6791
▁shpirteror	-11.6791
▁buzë	-11.6791
▁linear	-11.6791
artikul	-11.6792
▁lyer	-11.6792
▁sfera	-11.6792
▁Gati	-11.6792
▁ekologjik	-11.6792
▁Rebe	-11.6792
Planet	-11.6792
▁kenduar	-11.6793
▁perafersi	-11.6793
▁2.5	-11.6793
▁zgjith	-11.6793
▁revolucionare	-11.6793
jashtuar	-11.6793
▁Gjasht	-11.6793
▁metode	-11.6793
▁Perdor	-11.6794
▁Drita	-11.6794
▁modë	-11.6794
▁Cmimi	-11.6794
▁investitor	-11.6794
▁muzeum	-11.6795
▁zotëroj	-11.6795
▁elastik	-11.6795
▁gezim	-11.6795
▁glukozën	-11.6796
▁akuzua	-11.6797
▁Trans	-11.6797
▁Bile	-11.6798
▁turist	-11.6798
▁cere	-11.6799
▁turma	-11.6799
▁themeluesi	-11.6799
▁aleat	-11.6799
▁mëlçisë	-11.6799
▁vecori	-11.6799
▁operacjon	-11.68
▁flam	-11.6801
analitik	-11.6801
▁urren	-11.6802
▁rose	-11.6802
▁problematik	-11.6802
▁Long	-11.6803
▁Kinezce	-11.6803
▁zotëri	-11.6805
▁Mësues	-11.6805
▁pick	-11.6807
▁urrye	-11.6807
▁hyjnor	-11.6808
▁Flas	-11.6808
▁fatkeqesi	-11.6809
▁vështroni	-11.6811
▁bukë	-11.6812
▁klimatik	-11.6812
▁linje	-11.6818
▁qendrov	-11.682
▁Libri	-11.6822
▁Djalli	-11.6832
▁heronj	-11.6833
▁kriminal	-11.6833
▁rimendo	-11.6834
▁rërë	-11.6835
▁qendre	-11.6836
▁dhimbj	-11.6837
▁luten	-11.6838
▁egoist	-11.684
▁autoritar	-11.6843
▁egziston	-11.6847
Bits	-11.6847
▁agr	-11.6851
▁fundjav	-11.6851
▁Hidh	-11.6854
▁jetra	-11.6858
▁guximtar	-11.6861
▁kombetar	-11.6872
▁përftoj	-11.6874
▁pendohem	-11.689
▁kthim	-11.6896
▁perfundimtar	-11.6897
▁ngjall	-11.6897
▁investojm	-11.6907
38	-11.691
▁etnik	-11.692
▁përmbush	-11.6933
jithcka	-11.6992
▁shqetesohem	-11.7003
▁transferohe	-11.7003
▁mbrohe	-11.7009
▁vendimtar	-11.7011
▁djell	-11.7024
▁automatiz	-11.7033
▁testime	-11.7036
▁lundr	-11.7071
▁filozof	-11.7104
▁transmetohe	-11.7121
mbrem	-11.7134
▁malor	-11.7137
▁përgjegj	-11.7137
▁parandaloj	-11.7144
▁koshi	-11.7165
▁lexohe	-11.7208
▁ambiental	-11.7257
apritmas	-11.7267
mbledhur	-11.7278
▁Paprit	-11.7323
TM	-11.7382
▁tentoj	-11.7396
▁përmbajtj	-11.7454
▁punetor	-11.7456
▁diabet	-11.7484
▁infermier	-11.7528
▁Kong	-11.7534
▁interesoj	-11.7539
▁zgjero	-11.7624
▁hollësi	-11.7632
▁fiziologji	-11.7638
Amerikan	-11.7642
kulturor	-11.7643
▁demografi	-11.7659
▁percjell	-11.767
▁vazhdua	-11.7684
▁pushoj	-11.7695
▁demokrati	-11.7704
▁Ekzisto	-11.7716
▁perfundua	-11.7722
▁gjas	-11.7732
▁Perëndi	-11.7734
▁Homo	-11.7735
▁zbavit	-11.7744
▁agim	-11.7749
shkel	-11.7751
skopi	-11.7774
ulej	-11.7775
▁shkaktua	-11.7782
▁you	-11.7784
mjesht	-11.7784
▁Demokraci	-11.779
▁apasionuar	-11.779
▁armepushim	-11.779
▁gjenocid	-11.779
Edinburg	-11.779
▁Akademi	-11.779
▁Andrew	-11.779
▁Fantastik	-11.779
▁Florid	-11.779
▁Honduras	-11.779
▁Interesant	-11.779
▁Jezusi	-11.779
▁Kanceri	-11.779
▁Mbrojtje	-11.779
▁Qeliza	-11.779
▁astronom	-11.779
▁aventura	-11.779
▁bioteknologji	-11.779
▁eficient	-11.779
▁filxhan	-11.779
▁freskët	-11.779
▁garantuar	-11.779
▁genjyeri	-11.779
▁inkubator	-11.779
▁karroca	-11.779
▁kartolina	-11.779
▁kryeqyteti	-11.779
▁marshmallou	-11.779
▁mbresëlënës	-11.779
▁mbrothësi	-11.779
▁metafora	-11.779
▁metaforik	-11.779
▁molekule	-11.779
▁ndritur	-11.779
▁nenkuptoj	-11.779
▁observ	-11.779
▁optimal	-11.779
▁origjinë	-11.779
▁orkestrë	-11.779
▁paragjykimi	-11.779
▁perfshihe	-11.779
▁platforme	-11.779
▁prostitut	-11.779
▁reputacion	-11.779
▁shiringë	-11.779
▁shpyllëzimi	-11.779
▁stafete	-11.779
▁stafin	-11.779
▁tingellon	-11.779
▁vegjetarian	-11.779
▁vrojt	-11.779
▁zbulues	-11.779
▁zymt	-11.779
▁1.2	-11.779
▁Politika	-11.779
▁Texas	-11.779
▁argëto	-11.779
▁bashkëqytetar	-11.779
▁figurë	-11.779
▁fisnore	-11.779
▁intelegjenc	-11.779
▁klimaterik	-11.779
▁klishe	-11.779
▁këmbëngul	-11.779
▁medikament	-11.779
▁minimum	-11.779
▁musliman	-11.779
▁nofull	-11.779
▁pabarabart	-11.779
▁paqësore	-11.779
▁proporcion	-11.779
▁sinkroniz	-11.779
▁vendbanim	-11.779
▁Black	-11.779
▁High	-11.779
▁fetuse	-11.779
▁gangster	-11.779
▁prezantua	-11.779
▁skllav	-11.779
▁turbull	-11.779
▁xhinse	-11.779
▁rezonanc	-11.779
▁rrëmuj	-11.779
▁faliment	-11.779
▁kornizë	-11.779
▁pershkruaj	-11.779
▁qift	-11.779
▁Nigeri	-11.779
▁peticion	-11.779
▁cokollata	-11.779
▁malarie	-11.779
▁argëtues	-11.779
▁permbyt	-11.779
▁konsumatore	-11.779
▁rrafsh	-11.779
▁vetedijsh	-11.779
▁bamirës	-11.779
kapercye	-11.779
▁devij	-11.7791
▁Shtatë	-11.7791
▁homo	-11.7791
▁Logjik	-11.7791
▁paraziti	-11.7791
▁ilegal	-11.7791
▁ndrroj	-11.7791
▁flusk	-11.7791
▁kabine	-11.7791
▁konkurrues	-11.7791
▁beqar	-11.7791
▁website	-11.7791
▁crregullim	-11.7791
▁Kultur	-11.7791
▁fuzion	-11.7791
▁luhat	-11.7791
▁paniku	-11.7791
▁qëndrimi	-11.7791
▁kockë	-11.7791
▁Bardh	-11.7791
▁centimetr	-11.7791
▁nevojtore	-11.7791
▁Siberi	-11.7791
▁grur	-11.7791
▁paguhe	-11.7791
▁Ruse	-11.7791
▁propozua	-11.7791
▁Sekretare	-11.7791
▁vakt	-11.7792
▁Hmm	-11.7792
▁Margar	-11.7792
▁martese	-11.7792
▁tejkalua	-11.7792
▁gjykojm	-11.7792
▁konfuzion	-11.7792
▁ndërhyn	-11.7792
▁panele	-11.7792
▁performues	-11.7792
▁deshperim	-11.7792
▁Russ	-11.7792
▁Somal	-11.7793
▁kontribuoj	-11.7793
▁përputhe	-11.7793
▁laps	-11.7793
▁Media	-11.7793
ometri	-11.7793
▁kapaku	-11.7793
▁Pauling	-11.7793
▁humanizmi	-11.7793
▁gjuajtje	-11.7794
▁referim	-11.7794
▁terheqese	-11.7794
▁njekohesish	-11.7794
▁diarre	-11.7794
▁optik	-11.7794
▁OKB	-11.7795
▁rrëzuar	-11.7795
▁stop	-11.7795
▁mjekesor	-11.7796
▁meparsh	-11.7796
▁boshtin	-11.7796
▁bimor	-11.7797
▁forum	-11.7797
▁lëkund	-11.7797
▁profeti	-11.7797
▁mujor	-11.7798
▁Khan	-11.7798
▁celesi	-11.7798
▁Heath	-11.7798
▁brendesi	-11.7799
▁gjuajtes	-11.7799
▁shënjest	-11.7801
▁Zemr	-11.7803
▁kulm	-11.7805
▁unaz	-11.7809
▁stol	-11.7809
▁prist	-11.781
▁dimri	-11.781
▁mbesi	-11.781
▁Krishti	-11.7812
▁kartë	-11.7813
▁pushtues	-11.7813
▁shpinë	-11.7814
▁Uji	-11.7817
▁cyb	-11.7817
▁udhezues	-11.7819
▁qështje	-11.7827
▁qendrë	-11.7836
▁deshtime	-11.7851
PT	-11.7853
▁vendosmëri	-11.7874
▁shkëmbej	-11.7898
▁pronësi	-11.791
▁orbital	-11.7928
▁përfshijm	-11.7934
▁vizitoj	-11.7965
▁pranua	-11.7967
▁realizua	-11.797
▁lokaliz	-11.7995
▁analizojm	-11.8024
▁brutal	-11.8057
▁zvogëlohe	-11.8094
▁perballoj	-11.8187
▁synoj	-11.8205
▁padrejtësi	-11.821
ndividualiteti	-11.8219
▁ngjyr	-11.8256
▁shkatërro	-11.8259
▁anashkaloj	-11.8274
▁ofrohe	-11.8337
ecte	-11.8357
▁loo	-11.8371
▁ngarko	-11.8376
tokësor	-11.8437
zbritur	-11.8453
▁vuajtj	-11.8471
Wo	-11.851
▁semundj	-11.8519
▁ketill	-11.8564
NT	-11.8616
dhurues	-11.8628
▁pengoj	-11.8661
▁përfytyroj	-11.8664
▁grimc	-11.8752
▁infrastruktu	-11.8754
Z	-11.8755
lindur	-11.8756
racional	-11.8781
▁anij	-11.8793
kontrollues	-11.8801
▁shndërrua	-11.8823
▁nënshtr	-11.8825
▁prodhua	-11.886
▁klima	-11.8874
▁ngordh	-11.8876
▁kris	-11.8882
▁fleksib	-11.89
▁gox	-11.8901
▁Walmart	-11.8901
▁Zhvillim	-11.8901
▁basketboll	-11.8901
▁incident	-11.8901
▁inspiro	-11.8901
▁magazin	-11.8901
▁shimpaze	-11.8901
▁trajektore	-11.8901
sufici	-11.8901
▁Departamenti	-11.8901
▁Depresioni	-11.8901
▁Edward	-11.8901
▁Familja	-11.8901
▁Francisko	-11.8901
▁Holland	-11.8901
▁Kosovare	-11.8901
▁Manhatan	-11.8901
▁Manhattan	-11.8901
▁Nairobi	-11.8901
▁Profesor	-11.8901
▁Sarajevo	-11.8901
▁Toyota	-11.8901
▁Zvicër	-11.8901
▁akromegali	-11.8901
▁anasjellta	-11.8901
▁argetim	-11.8901
▁aritmetik	-11.8901
▁avancim	-11.8901
▁bregdetar	-11.8901
▁budallenj	-11.8901
▁bujqësor	-11.8901
▁cunami	-11.8901
▁deficit	-11.8901
▁detergjent	-11.8901
▁ekuivalent	-11.8901
▁elasticitet	-11.8901
▁entuziast	-11.8901
▁infarkt	-11.8901
▁instinkt	-11.8901
▁intensiv	-11.8901
▁intuitë	-11.8901
▁katastrofa	-11.8901
▁katedrale	-11.8901
▁kemoterapi	-11.8901
▁kolapsi	-11.8901
▁konfigur	-11.8901
▁korrespondo	-11.8901
▁laburator	-11.8901
▁legjislacion	-11.8901
▁literatur	-11.8901
▁luginë	-11.8901
▁mbizoter	-11.8901
▁mbërrin	-11.8901
▁menaxhuar	-11.8901
▁mirënjohj	-11.8901
▁narkotike	-11.8901
▁ngazellye	-11.8901
▁njollos	-11.8901
▁nxierr	-11.8901
▁pantollona	-11.8901
▁parlament	-11.8901
▁pasagjer	-11.8901
▁peisazh	-11.8901
▁perfeksion	-11.8901
▁performance	-11.8901
▁platëform	-11.8901
▁përthyerje	-11.8901
▁qumesht	-11.8901
▁rejnxhër	-11.8901
▁ripërdorim	-11.8901
▁rraskapit	-11.8901
▁shpërthye	-11.8901
▁solide	-11.8901
▁spontan	-11.8901
▁suedez	-11.8901
▁terhiqe	-11.8901
▁traktat	-11.8901
▁tropikal	-11.8901
▁tryezë	-11.8901
▁vizatuar	-11.8901
▁zmadhim	-11.8901
▁zonjush	-11.8901
▁Gayla	-11.8901
▁Merimang	-11.8901
▁Studio	-11.8901
▁gramatik	-11.8901
▁karkalec	-11.8901
▁kerkese	-11.8901
▁manaxh	-11.8901
▁mberrit	-11.8901
▁mospërputhje	-11.8901
▁pankrea	-11.8901
▁permiresohe	-11.8901
▁tragjik	-11.8901
▁trajner	-11.8901
▁valvul	-11.8901
▁çelësi	-11.8901
▁kercej	-11.8901
▁marrveshje	-11.8901
▁nënujor	-11.8901
▁eventual	-11.8902
▁korteksi	-11.8902
▁ndotur	-11.8902
▁instalo	-11.8902
▁pasiguri	-11.8902
▁udhetuar	-11.8902
▁uniforme	-11.8902
▁fraza	-11.8902
▁njollë	-11.8902
▁superstar	-11.8902
▁injekto	-11.8902
▁medalje	-11.8902
▁zarf	-11.8902
▁Malala	-11.8902
▁guack	-11.8902
▁Green	-11.8902
▁Edukimi	-11.8902
▁bollek	-11.8902
▁Daniel	-11.8902
▁opcion	-11.8902
▁qershor	-11.8902
▁shperbe	-11.8902
▁pilul	-11.8902
▁Cloni	-11.8902
▁bisnes	-11.8902
▁pesimist	-11.8902
▁akuzo	-11.8902
▁ngjesh	-11.8902
▁drekë	-11.8902
▁intimitet	-11.8902
▁mutant	-11.8902
▁diskuton	-11.8902
▁Qëndro	-11.8902
▁dreke	-11.8902
▁raketa	-11.8902
▁kandili	-11.8902
produksion	-11.8902
▁peshkatar	-11.8902
▁përftuar	-11.8902
▁grabit	-11.8902
▁kafkë	-11.8902
wens	-11.8902
▁muzg	-11.8902
▁kompens	-11.8902
▁kalter	-11.8902
▁dredh	-11.8902
▁minimiz	-11.8902
▁rindert	-11.8902
▁psikopatë	-11.8903
▁ilaci	-11.8903
▁transformues	-11.8903
▁kolonë	-11.8903
▁ngulitur	-11.8903
▁Shkall	-11.8903
▁fasho	-11.8903
▁ndyr	-11.8903
▁1930	-11.8903
▁Ardhj	-11.8903
▁Forma	-11.8904
▁radar	-11.8904
▁Iraniane	-11.8904
▁1,5	-11.8904
▁tortë	-11.8904
▁ulliri	-11.8904
▁profit	-11.8904
▁shisni	-11.8904
▁gazmor	-11.8905
▁thesar	-11.8905
▁shqip	-11.8906
▁sintez	-11.8906
▁dune	-11.8907
▁Grek	-11.8907
▁gamë	-11.8908
▁tirani	-11.8909
▁Koleg	-11.8909
▁ekzekutiv	-11.8909
outube	-11.891
orporat	-11.8912
▁urrejtje	-11.8912
▁komunikon	-11.8913
▁sintetik	-11.8914
▁dush	-11.8915
▁ngacmo	-11.8918
▁penal	-11.8921
▁kopjoj	-11.8924
▁Rritj	-11.8924
▁përjetojm	-11.8924
▁keqinj	-11.8925
bakterial	-11.8926
▁Imag	-11.8929
▁minist	-11.8929
▁tkurr	-11.8931
potent	-11.8939
▁Ndryshime	-11.8963
▁shikues	-11.8965
mbushur	-11.8968
▁favoriz	-11.8977
▁zgjerojm	-11.8994
▁zmadhohe	-11.8994
▁perqindeshi	-11.8997
▁shkaktohe	-11.9003
▁gerr	-11.9023
▁kryejm	-11.9056
▁ngatërro	-11.9058
▁shkatërrohe	-11.9071
▁Ushtr	-11.9073
▁krahasohe	-11.9151
cul	-11.9158
▁fëmi	-11.916
▁frymemarrj	-11.9256
▁mamuth	-11.9283
▁dioksid	-11.9307
acjoni	-11.9314
▁arrestua	-11.9342
▁mundësojn	-11.9345
▁zbatohe	-11.9361
▁lëshohe	-11.9363
▁direk	-11.9365
▁kerkov	-11.942
▁Miss	-11.9463
▁karbon	-11.9468
mbledhës	-11.9516
▁nxir	-11.9551
▁ribashk	-11.9611
hkencëtarë	-11.9614
▁padrejtë	-11.9647
▁propozo	-11.9698
organizuar	-11.9707
▁mbështes	-11.9745
▁konsumojn	-11.9755
▁konklu	-11.9757
▁lundroj	-11.9773
▁arsy	-11.9879
qëndruar	-12.0003
ight	-12.0004
lidhur	-12.0004
▁sanduic	-12.0005
grup	-12.0005
▁Perendim	-12.0023
▁akumul	-12.0028
▁detyrua	-12.009
▁armik	-12.0102
▁besua	-12.0116
▁drama	-12.0122
▁investig	-12.0131
▁disponuesh	-12.0138
bsolutish	-12.0141
ktualisht	-12.0141
votime	-12.0143
dërkombëtar	-12.0149
▁konfuz	-12.0149
▁Sekret	-12.015
▁restaur	-12.0151
▁Brohori	-12.0151
▁shpërngul	-12.0151
▁Detroit	-12.0151
▁Netflix	-12.0151
▁Vietnam	-12.0151
▁ekzagjer	-12.0151
▁funksjon	-12.0151
▁mardhenie	-12.0151
▁mikroblog	-12.0151
▁permbajtje	-12.0151
fitimprurës	-12.0151
neurotransmetues	-12.0151
producent	-12.0151
▁Abraham	-12.0151
▁America	-12.0151
▁Antarktik	-12.0151
▁Cikago	-12.0151
▁Deshira	-12.0151
▁Instrumentistë	-12.0151
▁Jefferson	-12.0151
▁Kembrixh	-12.0151
▁Ngjyra	-12.0151
▁Okinawa	-12.0151
▁Olimpiad	-12.0151
▁Oxford	-12.0151
▁Philip	-12.0151
▁Republikë	-12.0151
▁Skandinavë	-12.0151
▁Tweet	-12.0151
▁Zgjedhj	-12.0151
▁anomali	-12.0151
▁bretkosa	-12.0151
▁bugjeti	-12.0151
▁bujqesor	-12.0151
▁bërthamë	-12.0151
▁cigare	-12.0151
▁fizicist	-12.0151
▁fraksion	-12.0151
▁grerez	-12.0151
▁grumbuj	-12.0151
▁hipotezë	-12.0151
▁inkorpor	-12.0151
▁inspirues	-12.0151
▁instalim	-12.0151
▁institucjon	-12.0151
▁internacional	-12.0151
▁introvert	-12.0151
▁katastrofe	-12.0151
▁katastrofik	-12.0151
▁kompleksiviteti	-12.0151
▁kompliment	-12.0151
▁konfirmo	-12.0151
▁kongres	-12.0151
▁kultivon	-12.0151
▁mikrosekonda	-12.0151
▁milingone	-12.0151
▁monument	-12.0151
▁ngisni	-12.0151
▁obsesionuar	-12.0151
▁pakompletuar	-12.0151
▁papërpunuar	-12.0151
▁pasardhës	-12.0151
▁patriarkal	-12.0151
▁percakton	-12.0151
▁pershpejt	-12.0151
▁pezull	-12.0151
▁pëlhur	-12.0151
▁përshkruani	-12.0151
▁recikluar	-12.0151
▁sherbyer	-12.0151
▁sovran	-12.0151
▁spektakolar	-12.0151
▁statuj	-12.0151
▁stetoskop	-12.0151
▁territori	-12.0151
▁testosteron	-12.0151
▁transaksion	-12.0151
▁transparence	-12.0151
▁vaginë	-12.0151
▁ylber	-12.0151
▁çelësa	-12.0151
▁1.3	-12.0151
▁Anxhel	-12.0151
▁Marduku	-12.0151
▁Psikolog	-12.0151
▁Venusi	-12.0151
▁admirim	-12.0151
▁admirues	-12.0151
▁bodrum	-12.0151
▁databaz	-12.0151
▁dedikuar	-12.0151
▁dekret	-12.0151
▁festival	-12.0151
▁fundamental	-12.0151
▁gradient	-12.0151
▁hipotek	-12.0151
▁instruksion	-12.0151
▁kromozon	-12.0151
▁licenc	-12.0151
▁mësimnxëni	-12.0151
▁plazh	-12.0151
▁sforc	-12.0151
▁sindikat	-12.0151
▁vegël	-12.0151
▁BMI	-12.0151
▁arkiv	-12.0151
▁shpenzimi	-12.0151
▁shperthe	-12.0151
▁tastier	-12.0151
▁Karolin	-12.0152
▁Radio	-12.0152
▁farmer	-12.0152
▁korniza	-12.0152
▁nënkuptoj	-12.0152
▁përmbys	-12.0152
▁fuksion	-12.0152
▁kontabiliteti	-12.0152
▁papunë	-12.0152
▁pergatite	-12.0152
▁Hajde	-12.0152
▁Spanjoll	-12.0152
▁Supoz	-12.0152
▁elegant	-12.0152
▁profeci	-12.0152
▁reviste	-12.0152
▁Deshiro	-12.0152
▁pritëshmeri	-12.0152
▁tromb	-12.0152
▁ndëgjua	-12.0152
▁ndijues	-12.0152
▁Tridhjet	-12.0152
▁ndizni	-12.0152
▁akuza	-12.0152
▁shnderrua	-12.0152
gmatik	-12.0152
▁inovativ	-12.0152
▁sfide	-12.0152
▁gjtih	-12.0152
▁Korrik	-12.0152
▁kollaj	-12.0152
▁galeri	-12.0152
▁rozë	-12.0152
▁çantë	-12.0152
iussan	-12.0152
▁shtetror	-12.0152
▁Rabin	-12.0152
▁animuar	-12.0152
▁Robin	-12.0152
▁pagesë	-12.0152
▁tifoz	-12.0152
▁tendenca	-12.0152
▁triumf	-12.0152
▁North	-12.0152
▁Djemt	-12.0152
▁smund	-12.0152
▁çerek	-12.0152
▁Island	-12.0152
▁merakos	-12.0152
▁lepuri	-12.0152
▁pavars	-12.0152
▁Pestë	-12.0152
▁stabiliteti	-12.0152
▁Bised	-12.0152
▁garanto	-12.0152
▁shkallezohe	-12.0152
▁zbardh	-12.0152
▁endrre	-12.0152
▁pagese	-12.0152
▁hard	-12.0152
▁kocke	-12.0152
▁zbris	-12.0152
▁magjistar	-12.0153
▁çarje	-12.0153
▁Gjers	-12.0153
▁Jazz	-12.0153
▁kriter	-12.0153
▁posedoj	-12.0153
▁vitamin	-12.0153
▁kopshti	-12.0153
▁furrë	-12.0153
▁citat	-12.0153
▁humbisni	-12.0153
▁vask	-12.0153
▁logo	-12.0153
▁telashe	-12.0153
,200	-12.0153
▁infl	-12.0153
▁ngjet	-12.0154
▁gjeneral	-12.0155
▁bërtas	-12.0155
▁nevoite	-12.0155
▁fallc	-12.0155
▁dyshoj	-12.0156
▁kroniz	-12.0156
▁tymra	-12.0157
▁arkeolog	-12.0157
▁mentalitet	-12.0157
▁azil	-12.0158
▁vlerësohe	-12.0158
▁polariz	-12.0159
▁jurist	-12.0159
▁konji	-12.016
▁rreh	-12.016
▁mërgim	-12.0161
▁bibl	-12.0161
▁hengr	-12.0162
▁veshtro	-12.0163
▁hebrenj	-12.0164
▁Saul	-12.0164
▁Gjende	-12.0165
▁edukat	-12.0167
rvis	-12.0168
▁ventillim	-12.0172
▁bekim	-12.0173
▁Degjo	-12.0174
▁antar	-12.0179
▁inatos	-12.0183
▁mjeshtr	-12.0185
▁qmim	-12.019
▁Dallim	-12.0201
▁specializim	-12.0222
▁status	-12.0226
▁performoj	-12.0236
▁betohe	-12.0244
▁Ekzistojn	-12.0246
javor	-12.0253
reflektim	-12.0406
▁insulin	-12.0426
▁gjinde	-12.0558
▁lirohe	-12.0564
▁prodho	-12.0598
▁Nganjëher	-12.0606
▁Publik	-12.0811
zgjedhur	-12.0826
afshim	-12.0893
▁paraardhës	-12.0915
▁kursejm	-12.0957
▁Justi	-12.097
▁shtrohe	-12.0982
▁sportiv	-12.0987
▁hidrogjen	-12.1054
esimtarë	-12.106
▁pregatit	-12.1081
▁ekspozohe	-12.1139
▁mëndafsh	-12.1149
▁bakter	-12.1209
▁vëmendj	-12.1263
rbimi	-12.1298
▁falender	-12.1367
▁dështua	-12.1388
zgjidh	-12.1427
▁këqij	-12.1431
kuptueshme	-12.1431
pyetje	-12.1434
▁plu	-12.1459
▁diskutua	-12.1554
▁reagojn	-12.1557
▁pashmangsh	-12.1566
▁celul	-12.1575
▁automobil	-12.1576
ytyra	-12.1579
përputh	-12.1579
▁instruk	-12.158
▁CERN	-12.158
▁MOOC	-12.158
▁evulu	-12.158
▁jashtzakonsh	-12.158
▁kondens	-12.158
aroxetin	-12.158
fitimprures	-12.158
▁Android	-12.158
▁Bruksel	-12.158
▁Duartokitje	-12.158
▁Filipine	-12.158
▁Fransisko	-12.158
▁Gallup	-12.158
▁Hannah	-12.158
▁Hulumtim	-12.158
▁Jersey	-12.158
▁Kepler	-12.158
▁Kontrol	-12.158
▁Mbreti	-12.158
▁Muhamedi	-12.158
▁Musliman	-12.158
▁NATO	-12.158
▁Orkut	-12.158
▁Popcorn	-12.158
▁Sardenj	-12.158
▁Shoqat	-12.158
▁Taliban	-12.158
▁Temperatura	-12.158
▁arratise	-12.158
▁autostrada	-12.158
▁bloqe	-12.158
▁bulkth	-12.158
▁certifik	-12.158
▁cikël	-12.158
▁diagnoze	-12.158
▁dëborë	-12.158
▁ekuipazh	-12.158
▁evropian	-12.158
▁helikopter	-12.158
▁interpretues	-12.158
▁kardiovaskular	-12.158
▁karriera	-12.158
▁kartolinë	-12.158
▁katalizator	-12.158
▁keqkuptuar	-12.158
▁kompiuter	-12.158
▁konfiden	-12.158
▁kthesë	-12.158
▁marifet	-12.158
▁mberrij	-12.158
▁mbeshtes	-12.158
▁metafore	-12.158
▁minerale	-12.158
▁mirenjohes	-12.158
▁mosmarrëveshj	-12.158
▁nenshtrohe	-12.158
▁ngushëll	-12.158
▁paimagjinueshm	-12.158
▁parzmore	-12.158
▁presidenciale	-12.158
▁puplor	-12.158
▁përcaktohe	-12.158
▁përfaqësues	-12.158
▁përmbytje	-12.158
▁qumshti	-12.158
▁rreklam	-12.158
▁rutine	-12.158
▁shkaterrues	-12.158
▁shkëlqim	-12.158
▁sinapse	-12.158
▁skeptik	-12.158
▁socjal	-12.158
▁spikatur	-12.158
▁tingëllim	-12.158
▁vdekjeprurës	-12.158
▁vëllezër	-12.158
▁xhaxha	-12.158
▁1.7	-12.158
▁DVD	-12.158
▁HTTP	-12.158
▁IPhon	-12.158
▁Japonez	-12.158
▁Material	-12.158
▁Nikola	-12.158
▁Platoni	-12.158
▁Qershor	-12.158
▁alkohol	-12.158
▁antitrup	-12.158
▁bilanc	-12.158
▁diapozitiv	-12.158
▁fotokatalizator	-12.158
▁gërvish	-12.158
▁interval	-12.158
▁marmelat	-12.158
▁oportunitet	-12.158
▁paralajmer	-12.158
▁popuj	-12.158
▁prosperitet	-12.158
▁protokoll	-12.158
▁rezolucion	-12.158
▁rigoroz	-12.158
▁shprëndarj	-12.158
▁spiritual	-12.158
▁spërkat	-12.158
▁tolerant	-12.158
▁trasmet	-12.158
▁trekëndësh	-12.158
▁varrosur	-12.158
▁vezull	-12.158
▁1.6	-12.158
▁Jordan	-12.158
▁Munges	-12.158
▁Roboti	-12.158
▁auditor	-12.158
▁gjarpër	-12.158
▁kapërcej	-12.158
▁paradigm	-12.158
▁printimi	-12.158
▁shkripëz	-12.158
▁Afgan	-12.158
▁Katolik	-12.158
▁abuzues	-12.158
▁kembengul	-12.158
▁thashetheme	-12.158
▁Beijer	-12.158
▁Kibera	-12.158
▁abuzuar	-12.158
▁akronim	-12.158
▁atribu	-12.158
▁hapësinor	-12.158
▁kinema	-12.158
▁rruaz	-12.158
▁vërdall	-12.158
ROV	-12.158
▁Spital	-12.158
▁domethënës	-12.158
▁komod	-12.158
▁permirs	-12.158
▁prostat	-12.158
▁verdall	-12.158
▁Hawk	-12.158
▁Ushqim	-12.158
▁madhështi	-12.158
▁biokimi	-12.158
▁gjeometrik	-12.158
▁Bosnje	-12.158
▁Tamil	-12.158
▁aviacion	-12.158
▁liqene	-12.158
▁Gabim	-12.158
▁sigures	-12.158
▁kualifikim	-12.158
▁duzin	-12.158
▁kollona	-12.158
▁Fox	-12.158
▁perkthe	-12.158
▁korporate	-12.158
▁Rasti	-12.158
▁uragan	-12.158
▁shendosh	-12.158
▁diamant	-12.158
▁nuancë	-12.158
▁Hindu	-12.158
▁parametra	-12.158
▁normë	-12.158
▁pyej	-12.158
▁esenca	-12.158
▁kundërshtarë	-12.158
▁Kthehe	-12.158
▁hapsinor	-12.158
▁sygjer	-12.158
▁sondë	-12.158
▁urgjent	-12.158
▁2,5	-12.158
▁perbehe	-12.158
▁higjene	-12.158
▁turperimi	-12.158
▁rendomt	-12.1581
▁Zhurm	-12.1581
▁mburoj	-12.1581
▁mijëvjeçari	-12.1581
▁tekonologji	-12.1581
▁Saturn	-12.1581
▁incizim	-12.1581
▁krater	-12.1581
▁Poloni	-12.1581
▁fyti	-12.1581
▁rabin	-12.1581
▁shahu	-12.1581
hkelqyesh	-12.1581
▁zbark	-12.1581
▁sundimi	-12.1581
▁metalik	-12.1581
▁ëmbëlsir	-12.1581
▁vetedije	-12.1581
▁dental	-12.1581
▁mbys	-12.1582
▁Heroin	-12.1582
▁konsist	-12.1582
▁Intel	-12.1582
statin	-12.1582
▁bronz	-12.1582
▁pjell	-12.1582
▁tregëti	-12.1582
▁hakmarr	-12.1585
▁eksitues	-12.1585
▁çdonjër	-12.1585
▁duroj	-12.1586
▁rival	-12.1586
▁konceptual	-12.1586
▁redak	-12.1586
▁mohoj	-12.1586
▁dominues	-12.1587
▁taktik	-12.1587
▁kufizoj	-12.1588
▁pakapsh	-12.1597
▁prapanic	-12.1598
▁pikëllim	-12.1599
▁gezo	-12.1601
eleskop	-12.1602
▁Zgjo	-12.1602
▁urtësi	-12.1606
▁dominojn	-12.1613
onkluzioni	-12.1621
mbajtur	-12.1655
▁shoqerues	-12.1663
struktiv	-12.1679
▁reduktojm	-12.1681
▁vizualizim	-12.1684
▁nënshtrohe	-12.1685
rhiqni	-12.1706
▁lulezo	-12.1712
▁Humb	-12.1715
▁pajtua	-12.1736
▁vetebesim	-12.1829
ngrirje	-12.185
▁diplomohe	-12.1904
▁riparojm	-12.2019
pëlqyer	-12.2042
▁Gjdo	-12.2143
▁Mision	-12.2351
▁grumbullohe	-12.2539
ndryshueshm	-12.2646
▁perzgjedh	-12.266
▁sipërfaq	-12.2809
▁marrëdhëni	-12.2869
▁qesharak	-12.3021
▁intrig	-12.3028
gjithese	-12.3057
produktiv	-12.3096
qofte	-12.3098
ngadalë	-12.3099
njerëz	-12.3101
▁perandor	-12.313
▁konstrukt	-12.3132
▁akademi	-12.3137
▁ndërlidh	-12.3141
▁nanomet	-12.3157
▁nxën	-12.3167
▁mbarua	-12.3208
▁luftua	-12.3209
▁komplik	-12.3221
uksesi	-12.3239
▁përbashk	-12.3242
cjellur	-12.3243
ompjuterat	-12.3244
azhdimisht	-12.3246
▁Chandler	-12.3247
▁Mblodh	-12.3247
▁buburrec	-12.3247
▁dizenjues	-12.3247
▁frekuent	-12.3247
▁kundërpërgjigj	-12.3247
▁shprendarë	-12.3247
▁zhgënjye	-12.3247
▁çekiç	-12.3247
dinosaur	-12.3247
iodiversiteti	-12.3247
▁Akullnaja	-12.3247
▁Argjentin	-12.3247
▁Arkitektur	-12.3247
▁Barbara	-12.3247
▁Beethoven	-12.3247
▁Brooklyn	-12.3247
▁Buffet	-12.3247
▁Buzëqeshj	-12.3247
▁Columbia	-12.3247
▁Danimark	-12.3247
▁Dashuri	-12.3247
▁Diferenc	-12.3247
▁Direct	-12.3247
▁Gandhi	-12.3247
▁IGF	-12.3247
▁Indeksi	-12.3247
▁Kamboxhia	-12.3247
▁Karlifoni	-12.3247
▁Makineri	-12.3247
▁Mirëmëngjes	-12.3247
▁Moisiu	-12.3247
▁Oqeani	-12.3247
▁Origjina	-12.3247
▁PostSecret	-12.3247
▁Projekte	-12.3247
▁Republike	-12.3247
▁Rreziku	-12.3247
▁Ruandë	-12.3247
▁SOLE	-12.3247
▁Sebastian	-12.3247
▁Shekspiri	-12.3247
▁Shoqëri	-12.3247
▁Shëndetësi	-12.3247
▁Starbuck	-12.3247
▁Tanzani	-12.3247
▁Zimbabwe	-12.3247
▁Zuckerberg	-12.3247
▁ambicie	-12.3247
▁apsolut	-12.3247
▁argetues	-12.3247
▁ballafaqua	-12.3247
▁bashkëpunues	-12.3247
▁bibliotek	-12.3247
▁boshllëqe	-12.3247
▁diagnoza	-12.3247
▁divergjencë	-12.3247
▁drejtkëndësh	-12.3247
▁fakultet	-12.3247
▁fatlume	-12.3247
▁gaforre	-12.3247
▁gelltit	-12.3247
▁gishtërinj	-12.3247
▁google	-12.3247
▁gërrye	-12.3247
▁implementuar	-12.3247
▁ingjinier	-12.3247
▁injektuar	-12.3247
▁inspirim	-12.3247
▁kendveshtrim	-12.3247
▁kohëzgjatj	-12.3247
▁kolonoskopi	-12.3247
▁marijuan	-12.3247
▁marrdhenie	-12.3247
Ç	-13.6074
♫	-13.6075
:	-13.6076
)	-13.6077
—	-13.6078
?	-13.6079
&	-13.608
