<unk>	0
<s>	0
</s>	0
▁.	-3.31225
▁,	-3.31492
a	-3.49829
▁	-3.5828
e	-3.76239
▁da	-3.97556
o	-4.00059
u	-4.03918
i	-4.07898
▁je	-4.13096
t	-4.24419
▁i	-4.2965
▁u	-4.45793
;	-4.60441
▁&	-4.64329
quo	-4.6913
▁se	-4.84424
▁na	-4.95924
▁su	-5.23043
m	-5.23622
mo	-5.29545
li	-5.35448
а	-5.36519
▁sam	-5.37993
▁za	-5.39312
te	-5.39898
▁to	-5.45262
е	-5.463
о	-5.50805
ma	-5.51712
▁od	-5.54145
om	-5.54667
ti	-5.57707
▁ne	-5.60325
у	-5.66414
▁да	-5.66519
▁sa	-5.68536
▁?	-5.75645
▁što	-5.77347
▁је	-5.78169
▁koji	-5.83207
и	-5.83326
ih	-5.88333
la	-5.88924
h	-5.90281
▁:	-5.90818
ju	-5.93605
▁и	-5.9496
▁I	-5.95504
▁smo	-6.02031
▁у	-6.02502
▁o	-6.06057
im	-6.06072
š	-6.07326
g	-6.09393
▁bi	-6.11219
(	-6.14347
▁)	-6.14372
▁koj	-6.25174
▁kao	-6.26101
▁iz	-6.27991
▁-	-6.28589
s	-6.39192
▁koje	-6.40114
j	-6.4116
▁се	-6.41675
og	-6.43532
▁kako	-6.44767
▁do	-6.4587
▁će	-6.46118
▁на	-6.46621
▁po	-6.47415
ima	-6.50203
▁mi	-6.50486
▁To	-6.51583
oj	-6.53361
k	-6.53578
ne	-6.54408
ni	-6.57982
▁ali	-6.5896
na	-6.59626
▁ljudi	-6.59837
r	-6.61386
▁ili	-6.62202
lo	-6.62892
▁nije	-6.63222
▁U	-6.63633
▁A	-6.64976
▁pre	-6.65236
▁s	-6.65791
le	-6.66126
▁ovo	-6.66635
▁sve	-6.67292
▁Da	-6.67458
ли	-6.67582
▁Ali	-6.69449
те	-6.6976
▁vam	-6.69951
мо	-6.70613
▁samo	-6.70859
м	-6.72294
an	-6.7242
▁за	-6.72473
p	-6.74048
▁kada	-6.75435
-	-6.77178
ти	-6.81761
▁су	-6.82406
n	-6.82506
▁ima	-6.83276
ka	-6.83806
▁a	-6.84087
▁šta	-6.87677
▁može	-6.87828
ra	-6.90977
no	-6.91545
▁bilo	-6.92007
ла	-6.93169
▁tako	-6.93347
▁stvari	-6.94999
▁više	-6.95042
nje	-6.96529
▁Ovo	-6.97199
▁moj	-6.97501
▁не	-6.98656
▁li	-6.99296
што	-7.0234
ći	-7.04163
▁ako	-7.04481
▁сам	-7.04498
▁jer	-7.05248
ма	-7.06073
▁godina	-7.06548
▁bio	-7.07302
d	-7.0732
▁ja	-7.07626
▁то	-7.09855
▁од	-7.1176
▁Sme	-7.1235
▁Ne	-7.13789
▁ga	-7.15121
▁me	-7.1545
▁ih	-7.15517
va	-7.15639
da	-7.1664
▁S	-7.16867
▁са	-7.17243
▁nešto	-7.17729
.	-7.18111
▁način	-7.18668
z	-7.18767
▁Na	-7.19041
▁svoj	-7.19077
nja	-7.19111
ci	-7.19396
▁veo	-7.20355
nu	-7.20381
▁mogu	-7.23613
▁mnogo	-7.24988
ом	-7.27864
▁nas	-7.28531
je	-7.30587
će	-7.3211
▁već	-7.33053
▁по	-7.33349
▁nam	-7.3432
на	-7.34401
▁ste	-7.34781
▁nis	-7.34938
▁gde	-7.35792
▁svi	-7.36157
их	-7.36561
▁би	-7.36712
ga	-7.36841
ш	-7.3699
ло	-7.38227
▁bila	-7.39512
т	-7.39849
ју	-7.40146
de	-7.41063
г	-7.41418
▁ono	-7.41633
▁који	-7.4264
▁Tako	-7.42668
с	-7.42977
р	-7.43109
l	-7.44568
▁biti	-7.44656
▁tome	-7.45622
▁vas	-7.45627
ja	-7.45836
još	-7.46273
▁toga	-7.46909
▁ove	-7.47166
vi	-7.47442
▁naš	-7.47832
х	-7.48026
ни	-7.4808
▁te	-7.48216
v	-7.48456
em	-7.49206
ра	-7.49235
▁из	-7.5007
▁radi	-7.50143
kle	-7.50211
▁Za	-7.51331
▁Pa	-7.51818
▁Aplauz	-7.5286
▁tu	-7.53058
▁ovde	-7.53125
▁pa	-7.53973
ku	-7.55094
▁bih	-7.55348
ve	-7.55592
▁jedan	-7.56354
▁ko	-7.57105
▁možete	-7.5722
▁о	-7.57288
▁onda	-7.58093
▁oni	-7.5811
ri	-7.58772
▁И	-7.5922
▁sada	-7.59268
не	-7.60662
▁njihov	-7.61284
▁naše	-7.61983
▁смо	-7.62221
▁zapravo	-7.63478
п	-7.64215
▁mora	-7.6444
▁bismo	-7.64947
▁oko	-7.65276
re	-7.65614
но	-7.65649
di	-7.6642
če	-7.66569
sti	-7.67176
д	-7.67735
▁on	-7.67788
▁Ako	-7.67934
▁godine	-7.68395
▁kad	-7.68672
▁nego	-7.69258
▁до	-7.69266
ј	-7.69318
▁Kad	-7.69712
nas	-7.7006
▁pro	-7.7045
ле	-7.70712
ва	-7.7083
apos	-7.7113
▁zaist	-7.71194
▁ovaj	-7.73016
▁možda	-7.73349
▁postoji	-7.73472
ću	-7.74318
▁treba	-7.74433
či	-7.75157
▁drug	-7.7524
▁pri	-7.7538
zi	-7.76248
▁vreme	-7.77383
čak	-7.7796
▁dana	-7.78549
lu	-7.78639
им	-7.7893
▁као	-7.79013
▁zbog	-7.79395
sa	-7.79859
ог	-7.79862
se	-7.80061
▁taj	-7.80904
kroz	-7.81356
▁put	-7.82971
b	-7.82974
▁imamo	-7.83166
đe	-7.84063
▁stvar	-7.84187
▁dok	-7.84264
з	-7.84649
▁svet	-7.8466
▁tri	-7.85178
▁život	-7.85814
ski	-7.86192
▁bili	-7.86287
▁pod	-7.86523
к	-7.87073
bi	-7.87401
▁problem	-7.87901
л	-7.88033
▁пре	-7.88483
za	-7.88633
▁bude	-7.88672
▁malo	-7.88813
▁Hvala	-7.89036
po	-7.89567
pa	-7.89717
ка	-7.89884
в	-7.90671
▁svoje	-7.90826
ost	-7.91156
▁mislim	-7.91204
ве	-7.91215
ko	-7.91556
▁bez	-7.91882
▁imaju	-7.91949
та	-7.91974
▁а	-7.92146
▁primer	-7.92526
▁nema	-7.9265
▁mogl	-7.9294
▁tim	-7.93134
▁različit	-7.93221
▁koristi	-7.93362
н	-7.93585
да	-7.93662
▁Po	-7.94657
▁ovom	-7.95258
▁svetu	-7.95399
▁ka	-7.95975
▁То	-7.96294
ži	-7.96534
ije	-7.9697
c	-7.97308
▁velik	-7.97375
▁Šta	-7.97537
ke	-7.97659
▁А	-7.97794
▁Ja	-7.97855
ro	-7.98026
▁neki	-7.98213
▁sistem	-7.98505
▁dva	-7.98917
▁које	-7.99127
▁njegov	-7.99316
▁takođe	-7.99654
▁deo	-8.00351
▁ta	-8.00381
▁B	-8.00383
▁kod	-8.00525
▁znači	-8.01003
jući	-8.0129
▁reka	-8.0142
▁kraj	-8.01468
▁stran	-8.01688
или	-8.0213
▁možem	-8.02317
▁On	-8.02437
▁Može	-8.02663
f	-8.02823
▁ni	-8.03228
ca	-8.03347
▁želim	-8.03879
nih	-8.03946
▁dobro	-8.03963
▁mu	-8.04379
ви	-8.04723
▁poput	-8.04831
▁njih	-8.05003
▁ће	-8.05025
ри	-8.05226
vo	-8.05521
▁priča	-8.05856
▁vi	-8.06652
▁ona	-8.06827
▁nekolik	-8.06948
▁ми	-8.07254
sta	-8.07336
ak	-8.08212
▁uvek	-8.08582
▁ovog	-8.08819
osti	-8.08948
▁koliko	-8.09563
du	-8.09697
st	-8.09717
lja	-8.09744
nim	-8.09747
▁K	-8.09804
tim	-8.10038
▁ljude	-8.1023
▁људи	-8.10351
▁У	-8.10869
ој	-8.10956
ste	-8.11114
▁ću	-8.11195
▁ova	-8.12115
има	-8.12185
▁dešava	-8.12798
▁zna	-8.13167
▁Kako	-8.1319
ravno	-8.13375
ну	-8.13672
▁O	-8.13877
▁vidite	-8.14259
▁zato	-8.14402
▁E	-8.14957
▁vidim	-8.1537
▁ljudsk	-8.15535
▁nisam	-8.15563
▁sveta	-8.16179
ди	-8.17081
▁Mi	-8.1716
▁dve	-8.17299
že	-8.17342
▁toliko	-8.17393
▁im	-8.17449
▁P	-8.17498
ljiv	-8.17571
„	-8.17576
▁G	-8.1762
be	-8.17703
ци	-8.18027
▁Да	-8.18321
▁broj	-8.18442
▁milion	-8.18524
▁с	-8.18873
▁tamo	-8.20501
▁rade	-8.21573
▁M	-8.22507
ova	-8.2279
▁Mislim	-8.22879
▁jedna	-8.23114
▁izmeđ	-8.23891
si	-8.2397
▁biste	-8.24243
▁drugi	-8.2439
▁само	-8.24643
▁ovu	-8.24856
▁mene	-8.25173
▁как	-8.25244
ce	-8.25476
▁10	-8.26277
ru	-8.26591
ovi	-8.26743
ја	-8.26747
nog	-8.27356
▁Pre	-8.27612
č	-8.27637
▁ovih	-8.27697
▁zašt	-8.27783
де	-8.27811
је	-8.28281
▁dalje	-8.28363
ver	-8.28396
ks	-8.28432
▁nikad	-8.28531
bo	-8.28542
▁preko	-8.28794
▁radim	-8.28966
▁има	-8.29132
▁uz	-8.29164
ку	-8.29194
▁izgleda	-8.29424
▁prvi	-8.29493
▁ljudima	-8.29503
ре	-8.3001
▁све	-8.30132
▁jedn	-8.30191
▁pitanje	-8.30475
во	-8.30728
▁vrlo	-8.31061
▁али	-8.31308
▁mest	-8.31622
vr	-8.32465
▁neko	-8.32509
ska	-8.32934
▁Sa	-8.32958
▁vremena	-8.33008
▁baš	-8.3313
▁potpuno	-8.3325
▁neke	-8.33377
▁one	-8.33695
▁naj	-8.33821
▁може	-8.34109
▁napravi	-8.34145
▁ово	-8.34179
▁није	-8.34421
iji	-8.34438
▁D	-8.34439
▁života	-8.34947
nik	-8.34962
▁ко	-8.35012
ove	-8.35058
▁F	-8.35799
▁про	-8.3583
▁grad	-8.35965
га	-8.36325
▁čini	-8.36361
▁govori	-8.36712
ča	-8.37229
▁Али	-8.38154
▁trebal	-8.3822
nju	-8.38305
ан	-8.38511
ba	-8.38532
▁kaže	-8.38672
▁ob	-8.3871
▁si	-8.38871
pr	-8.39226
▁njen	-8.39945
▁neće	-8.39981
ž	-8.40062
▁ovim	-8.40137
nom	-8.40163
▁када	-8.4022
▁puta	-8.40893
▁vaš	-8.41009
ако	-8.4103
ske	-8.41372
ста	-8.41479
ze	-8.41899
▁Sada	-8.41983
▁Ima	-8.42474
vanje	-8.42707
▁žele	-8.43176
▁Moj	-8.43324
ања	-8.43388
▁Ova	-8.43438
1	-8.43466
▁znat	-8.43718
mer	-8.43828
▁вам	-8.439
ко	-8.44703
▁moramo	-8.45106
ћи	-8.452
al	-8.45249
ljen	-8.45621
▁ponov	-8.45704
че	-8.45955
or	-8.46206
▁imal	-8.46222
ке	-8.46393
▁kažem	-8.46462
▁žena	-8.47016
▁idej	-8.47129
▁šir	-8.47207
▁koriste	-8.47293
▁većin	-8.47415
▁jednog	-8.47652
▁k	-8.47696
koliko	-8.48016
lju	-8.48186
се	-8.48318
ф	-8.48575
ђе	-8.48596
▁шта	-8.49692
▁rad	-8.49693
ža	-8.49832
ki	-8.49884
kom	-8.50146
pak	-8.50467
njem	-8.50518
▁Oni	-8.50694
▁isto	-8.50998
▁20	-8.51683
pe	-8.51848
ме	-8.52293
sko	-8.52518
▁pred	-8.5256
do	-8.52749
▁Ово	-8.52866
▁pet	-8.52941
▁H	-8.53225
▁ствари	-8.53722
men	-8.53959
ija	-8.5405
▁odgovor	-8.54064
tokom	-8.54066
tor	-8.54084
▁jednom	-8.5444
чи	-8.54486
▁čovek	-8.54495
▁počel	-8.54742
▁при	-8.54843
ica	-8.5498
▁sebe	-8.54988
van	-8.5502
▁ме	-8.55377
▁znamo	-8.55385
▁veliki	-8.55405
▁више	-8.55459
▁videti	-8.55503
▁Od	-8.55711
▁Do	-8.55959
▁Ma	-8.56081
бе	-8.56085
▁stvarno	-8.56103
▁Ono	-8.56265
▁poče	-8.56297
▁slika	-8.56336
▁nakon	-8.56432
▁uradi	-8.56562
ама	-8.56711
su	-8.56717
▁Sve	-8.56739
▁Nis	-8.56942
▁svojim	-8.57132
▁de	-8.57271
ila	-8.57307
▁kom	-8.5732
nd	-8.57426
kon	-8.57458
▁vaše	-8.57735
ање	-8.57981
ст	-8.57989
▁ništa	-8.58559
▁njim	-8.5863
▁zemlj	-8.58733
▁manje	-8.58917
en	-8.59019
лу	-8.59107
▁imate	-8.59156
која	-8.59257
▁moga	-8.59453
▁proces	-8.59664
▁vrsta	-8.60191
šta	-8.60565
▁svaki	-8.60969
ća	-8.61125
сти	-8.61171
▁bolje	-8.61596
▁posa	-8.6178
▁тако	-8.62001
▁razlog	-8.6228
▁19	-8.62629
▁star	-8.62675
▁op	-8.62735
ба	-8.62797
▁nivo	-8.63083
▁С	-8.631
▁Kao	-8.63225
0	-8.63636
▁raz	-8.63731
▁nov	-8.63862
▁Б	-8.63923
▁ли	-8.64423
▁ideja	-8.64606
▁postoje	-8.6497
▁ti	-8.65091
▁Zašt	-8.65107
▁ја	-8.65191
▁много	-8.65263
in	-8.65704
▁dolara	-8.65817
bu	-8.65823
▁žene	-8.65931
▁кој	-8.65997
▁...	-8.66039
же	-8.66073
▁društven	-8.66105
жи	-8.66542
▁budućnost	-8.66574
▁kuć	-8.66582
ро	-8.66583
▁prema	-8.66694
▁ćelij	-8.66957
▁Не	-8.67007
tra	-8.67084
ov	-8.67107
mesto	-8.67149
▁re	-8.6717
▁znam	-8.67255
cija	-8.67268
▁мој	-8.67439
▁skoro	-8.67579
▁На	-8.67598
ako	-8.67672
ду	-8.67713
▁те	-8.67901
▁tih	-8.68222
▁video	-8.68411
▁Zato	-8.68431
ar	-8.68464
▁rekla	-8.6855
▁свет	-8.68559
▁prilično	-8.68816
nost	-8.69394
▁начин	-8.69483
по	-8.6958
▁био	-8.69588
па	-8.69764
▁reći	-8.6986
▁gleda	-8.69976
▁нис	-8.70013
▁redu	-8.70018
▁к	-8.70221
▁žive	-8.70351
▁promeni	-8.70589
▁За	-8.70783
▁вео	-8.70926
▁grup	-8.7094
▁prostor	-8.7105
▁reči	-8.71373
▁pomoć	-8.71467
▁protiv	-8.71531
▁3	-8.7161
љ	-8.719
▁година	-8.71926
▁izbor	-8.72014
▁Nije	-8.72058
▁tom	-8.72109
▁Svi	-8.72143
sku	-8.72854
▁kr	-8.72878
jte	-8.72986
▁pravi	-8.73122
ran	-8.73272
▁f	-8.73638
▁zajedn	-8.73644
▁vode	-8.73664
▁verovatno	-8.73699
▁razvoj	-8.73819
▁mog	-8.74131
▁drugim	-8.74138
▁teško	-8.74261
▁па	-8.74335
ira	-8.74594
▁Možda	-8.74638
▁razume	-8.74731
kr	-8.74816
▁jedno	-8.75
ош	-8.75026
зи	-8.75065
ter	-8.75128
▁V	-8.75626
▁mesto	-8.75679
▁dovoljno	-8.75985
▁tr	-8.75993
▁sad	-8.76551
stan	-8.77374
▁budu	-8.77404
▁če	-8.77655
▁isti	-8.77791
▁vodi	-8.77802
▁nauči	-8.77928
▁z	-8.78183
više	-8.78407
on	-8.78737
▁ide	-8.7881
▁мора	-8.78822
це	-8.79276
лико	-8.79306
▁četiri	-8.79413
lje	-8.79483
3	-8.79652
▁tog	-8.79758
fi	-8.79809
▁нас	-8.8034
▁sebi	-8.80463
▁rezultat	-8.80466
▁puno	-8.80581
▁promen	-8.80789
▁kultur	-8.80979
▁često	-8.81017
▁nad	-8.81073
▁30	-8.81137
▁porodic	-8.81155
▁јер	-8.81279
▁kasnije	-8.8136
▁га	-8.81371
▁novi	-8.816
▁нам	-8.81904
▁smisl	-8.81983
▁istorij	-8.8205
stra	-8.82199
▁par	-8.82231
▁mozak	-8.82247
▁svog	-8.82249
▁model	-8.82296
▁pokret	-8.82553
▁pi	-8.82743
▁prvo	-8.82757
šao	-8.82883
2	-8.82987
би	-8.83088
▁Pro	-8.83256
▁pristup	-8.83325
dr	-8.83349
cije	-8.83467
red	-8.83515
▁Ov	-8.83584
ру	-8.8365
▁upravo	-8.838
▁god	-8.83826
er	-8.83843
▁Evo	-8.83955
▁Među	-8.84061
jem	-8.84181
▁svim	-8.84228
▁automobil	-8.84244
ем	-8.84267
▁50	-8.84622
▁Jer	-8.84685
ren	-8.84712
ља	-8.84825
ин	-8.85288
vanja	-8.85314
▁pe	-8.85569
ак	-8.85607
pravo	-8.85688
▁trenutk	-8.85908
кле	-8.85925
▁pitanja	-8.85986
▁odnos	-8.8605
vod	-8.86158
▁priče	-8.86294
đa	-8.86397
▁dec	-8.86504
▁posta	-8.86753
▁dosta	-8.86855
▁nalazi	-8.87227
▁stvori	-8.87243
▁dece	-8.87351
ч	-8.87605
▁ogromn	-8.8782
▁reč	-8.87894
▁Te	-8.87956
ор	-8.87988
▁бис	-8.88216
▁priču	-8.88297
▁poznat	-8.88369
ц	-8.88427
▁određen	-8.88575
ца	-8.88604
▁Š	-8.8873
▁Re	-8.88794
▁internet	-8.88923
▁TED	-8.88935
са	-8.88937
▁По	-8.89039
б	-8.89048
lj	-8.89132
▁сви	-8.89168
▁Iz	-8.8957
▁zove	-8.89955
▁moguće	-8.90354
▁procenat	-8.90449
ж	-8.90466
▁jednostavno	-8.90475
▁неко	-8.90535
▁сте	-8.90718
▁jako	-8.90847
ice	-8.90872
▁svak	-8.91404
▁hran	-8.91431
▁smeh	-8.91517
▁могу	-8.91547
▁Vidi	-8.91627
▁tada	-8.91715
▁među	-8.9173
▁škol	-8.91796
nji	-8.91994
▁Vi	-8.92268
▁Samo	-8.92279
▁cel	-8.92512
čni	-8.92678
▁takv	-8.92885
6	-8.92931
▁govor	-8.92978
▁videli	-8.93146
▁ba	-8.93245
▁већ	-8.93418
▁globaln	-8.9346
▁postal	-8.93543
▁slik	-8.93697
▁mali	-8.93774
▁De	-8.93836
▁bolesti	-8.93843
▁dolazi	-8.94061
S	-8.94104
joj	-8.94429
▁Bio	-8.94485
▁C	-8.94595
ovima	-8.94802
▁100	-8.94883
nici	-8.94987
▁pokuša	-8.95004
ним	-8.95012
▁Postoji	-8.95076
▁osoba	-8.95166
nika	-8.95167
▁budem	-8.9525
▁pl	-8.95269
▁sopstven	-8.9528
▁mozga	-8.95485
▁svom	-8.95694
бо	-8.95759
тра	-8.9592
▁ikad	-8.95936
▁došl	-8.9594
4	-8.96026
▁program	-8.96055
▁Ko	-8.96186
uje	-8.96189
▁ovak	-8.96312
▁свој	-8.96459
niji	-8.96676
▁naša	-8.96696
▁izazov	-8.96724
▁film	-8.97083
▁misli	-8.97155
▁Ve	-8.97171
▁važno	-8.97248
▁materijal	-8.97301
▁oblik	-8.97315
▁бил	-8.97409
▁našim	-8.97427
▁mnog	-8.97463
5	-8.97555
▁оно	-8.97581
▁ка	-8.9764
▁pu	-8.97823
▁čitav	-8.97907
▁kog	-8.97942
dž	-8.97973
▁oči	-8.98038
čan	-8.98045
▁Bilo	-8.98082
pre	-8.98107
▁4	-8.98117
7	-8.98176
▁kome	-8.9824
▁Želim	-8.98581
▁можете	-8.98634
skog	-8.98974
▁zar	-8.99091
▁sme	-8.99152
▁dan	-8.99156
▁dete	-8.99222
ова	-8.99366
8	-8.99472
us	-8.99473
D	-8.99475
čemu	-8.99536
▁Ona	-8.99694
стр	-8.99725
A	-8.99974
▁под	-9.00016
nosti	-9.00089
▁svakog	-9.00105
▁pitanj	-9.00262
▁nove	-9.00338
▁stvara	-9.0051
▁sob	-9.00521
▁isp	-9.00547
▁vrati	-9.00806
ен	-9.00828
▁ovakv	-9.00886
▁ј	-9.00981
mp	-9.01109
ча	-9.01136
▁potreb	-9.01392
▁vezi	-9.01446
▁Он	-9.01816
▁гд	-9.01981
▁tačk	-9.01985
ata	-9.0201
▁tačno	-9.02114
▁posle	-9.02182
▁istraživanj	-9.02345
▁di	-9.0235
▁brzo	-9.02396
▁била	-9.0245
9	-9.02462
▁mrež	-9.02488
▁pravo	-9.02805
▁potrebno	-9.02911
▁želite	-9.03063
ac	-9.03187
ном	-9.03304
▁onog	-9.03329
ту	-9.03379
▁5	-9.03427
▁glas	-9.03602
vu	-9.03891
▁Imam	-9.04049
nije	-9.04117
▁planet	-9.04142
cima	-9.04176
▁posmatra	-9.04186
đu	-9.04291
▁njeg	-9.043
M	-9.04414
▁rat	-9.0445
▁15	-9.04466
▁javn	-9.04514
ng	-9.04521
▁пут	-9.04668
▁об	-9.04819
▁2	-9.04888
▁000	-9.04964
▁prava	-9.05011
▁životu	-9.05137
▁dobi	-9.05148
▁crn	-9.05171
▁Dž	-9.05288
▁informacij	-9.053
▁mnogi	-9.05405
▁ф	-9.05547
▁igra	-9.05694
bl	-9.05696
▁п	-9.05703
▁zakon	-9.05754
ć	-9.05759
▁Ta	-9.05798
▁uči	-9.05832
▁bol	-9.0601
▁mlad	-9.06147
▁Sad	-9.0618
▁uopšte	-9.06306
▁jezik	-9.06547
▁Mora	-9.06633
ns	-9.06792
kri	-9.06893
▁SAD	-9.06994
то	-9.0704
ет	-9.07166
▁posla	-9.07189
▁niko	-9.07292
▁Naš	-9.07581
vali	-9.07653
▁vidi	-9.07722
ам	-9.07793
▁nekog	-9.08026
ovoj	-9.08103
▁pogleda	-9.08162
▁menja	-9.08231
▁verujem	-9.08259
ки	-9.08557
▁друг	-9.08587
▁ras	-9.08591
иста	-9.08618
▁imam	-9.08641
них	-9.08791
▁uradimo	-9.09036
▁vek	-9.09091
▁Znat	-9.09124
tri	-9.09291
▁kaž	-9.09295
▁Mo	-9.09331
▁osećaj	-9.09494
▁slučaju	-9.09495
▁gen	-9.09496
▁T	-9.09949
čen	-9.09951
zna	-9.10311
▁ту	-9.1034
▁де	-9.10363
I	-9.10394
▁Ljudi	-9.10746
▁jedne	-9.10797
▁živi	-9.10963
▁otvoren	-9.11015
nova	-9.11019
▁desi	-9.1132
▁ради	-9.11545
▁obzir	-9.11572
▁projekat	-9.11707
▁mogla	-9.11784
ista	-9.11793
▁Tu	-9.11828
▁vod	-9.11837
▁ове	-9.11849
dan	-9.1188
▁političk	-9.11951
▁cilj	-9.11961
čin	-9.12283
▁тога	-9.12497
▁neverovatno	-9.12525
▁držav	-9.12572
▁kompanij	-9.12808
▁mesec	-9.12823
▁kakv	-9.12931
век	-9.1296
▁овде	-9.13165
▁Ка	-9.13241
▁knjig	-9.1331
ови	-9.13767
ше	-9.13788
▁kompjuter	-9.13857
▁potrebn	-9.13938
lan	-9.13967
▁К	-9.14062
▁ovi	-9.14111
▁око	-9.14309
▁вас	-9.14405
▁vrst	-9.1442
ите	-9.14709
▁tehnologij	-9.14733
тим	-9.14901
▁prirod	-9.14975
▁telefon	-9.14977
▁uspe	-9.15051
▁него	-9.15123
▁томе	-9.15164
▁desilo	-9.15511
ар	-9.15529
▁struktur	-9.15643
▁sveg	-9.15688
▁види	-9.15964
▁dr	-9.16082
▁dobr	-9.16128
ven	-9.16143
iše	-9.16151
▁pacijent	-9.16399
▁podatak	-9.16402
▁Тако	-9.16408
▁šest	-9.16656
▁dokaz	-9.16674
▁vrste	-9.16768
▁čita	-9.1677
▁loše	-9.1682
▁наш	-9.1698
vaju	-9.16982
▁moći	-9.17011
▁deca	-9.17035
man	-9.17043
čk	-9.1722
ičk	-9.1729
▁No	-9.17417
▁sistema	-9.17477
▁lako	-9.17599
▁онда	-9.17698
▁stotin	-9.17945
ком	-9.17971
▁tehnologija	-9.17986
▁Jo	-9.18064
▁sluša	-9.18349
ava	-9.18394
▁volim	-9.18526
▁kući	-9.1865
▁strah	-9.18717
▁sredin	-9.18746
▁svetsk	-9.18853
▁dobar	-9.18926
▁dizajn	-9.18968
▁znaju	-9.19325
▁informacija	-9.19331
▁pažnj	-9.19487
▁meseci	-9.19587
▁eksperiment	-9.19708
▁radio	-9.19728
▁ствар	-9.19802
▁Le	-9.19813
lji	-9.19909
он	-9.19955
▁ličn	-9.20023
▁počinje	-9.20094
▁pored	-9.20151
вање	-9.20197
▁gr	-9.20351
▁ре	-9.20401
▁Ro	-9.20484
▁Pri	-9.20615
▁prirodn	-9.20623
чу	-9.20702
▁robot	-9.20796
имо	-9.21218
▁predstavlja	-9.21261
▁pokušava	-9.2135
▁tela	-9.21369
ски	-9.21383
▁pita	-9.21412
ити	-9.21448
▁neverovatn	-9.21648
▁сада	-9.21787
▁podatk	-9.21858
▁Indij	-9.21882
ења	-9.21923
▁Ka	-9.22153
ču	-9.22156
▁vole	-9.22192
min	-9.2234
▁razmišlja	-9.22382
kla	-9.22424
▁ču	-9.22457
▁problema	-9.22513
▁smatra	-9.22843
▁povezan	-9.22883
ред	-9.22943
▁drugačije	-9.2318
▁prosto	-9.23207
▁40	-9.23733
▁постоји	-9.23742
▁један	-9.23826
▁они	-9.23927
▁дана	-9.23974
▁mogućnosti	-9.2408
▁moć	-9.24081
▁skup	-9.2411
▁pra	-9.24218
▁mom	-9.24287
▁ponekad	-9.24287
▁važn	-9.24298
▁odluk	-9.24332
си	-9.2437
novac	-9.24419
▁površin	-9.24561
▁18	-9.24574
▁glav	-9.24607
zu	-9.24609
ног	-9.24643
▁otkri	-9.24717
il	-9.24903
▁N	-9.25145
▁američk	-9.25174
▁nekim	-9.25392
▁suštin	-9.25408
▁neka	-9.25441
jemo	-9.25577
bra	-9.25707
▁zemlji	-9.25715
sto	-9.25815
▁sta	-9.25918
▁sin	-9.2617
▁ot	-9.26171
▁Hajde	-9.26221
▁rizik	-9.26221
▁postaje	-9.26263
▁br	-9.26306
▁unutar	-9.26501
▁Jedan	-9.26509
▁primen	-9.26534
▁dela	-9.26582
▁године	-9.26602
▁раз	-9.26673
роз	-9.26682
00	-9.26718
▁zvuk	-9.26741
▁Па	-9.26882
▁наше	-9.26985
▁ranije	-9.27103
▁tehnologije	-9.27179
▁kojim	-9.27207
▁sledeće	-9.27235
cu	-9.27375
▁veze	-9.27409
бр	-9.27493
▁govore	-9.27524
▁uticaj	-9.27627
▁зна	-9.2777
▁energij	-9.27834
▁postavi	-9.27898
▁posto	-9.27902
пу	-9.28112
▁Br	-9.28192
за	-9.28321
▁ruku	-9.28347
ско	-9.28452
tar	-9.28499
▁prave	-9.28536
▁uradili	-9.28571
sk	-9.28613
▁zatvor	-9.29007
▁ostal	-9.29043
jen	-9.29155
▁drugo	-9.29157
▁Ob	-9.29234
stu	-9.29462
▁lokaln	-9.29626
▁količin	-9.29626
▁ru	-9.29642
▁osnovn	-9.29687
сте	-9.29791
▁Reka	-9.29791
▁minuta	-9.29928
кон	-9.29935
▁прича	-9.30038
skom	-9.30231
▁тај	-9.30271
▁Nema	-9.30295
▁meni	-9.30325
▁lep	-9.30653
spod	-9.30697
▁Znam	-9.30707
ске	-9.30869
▁nosi	-9.30948
P	-9.30966
▁niz	-9.3102
▁naučn	-9.31051
▁telo	-9.31184
▁hrane	-9.31321
▁dug	-9.31337
▁lekov	-9.31345
vez	-9.31349
▁&#93;	-9.31373
ilo	-9.31373
ост	-9.316
▁&#9	-9.31667
el	-9.31721
▁prošl	-9.3183
▁sliku	-9.31912
▁pola	-9.31958
▁Njujork	-9.31962
gla	-9.32042
▁svako	-9.32113
▁vlada	-9.32165
▁novca	-9.32324
▁vide	-9.32411
▁projekt	-9.32608
▁кад	-9.32611
▁Moramo	-9.32621
▁Сме	-9.32655
▁shvat	-9.32734
T	-9.32747
▁1	-9.32806
ове	-9.32902
tivn	-9.32949
▁bar	-9.3296
љен	-9.3308
,	-9.33102
▁nekak	-9.33185
ов	-9.33249
▁naši	-9.33295
▁stavi	-9.33348
▁hvala	-9.33456
▁daleko	-9.33475
▁auto	-9.33792
▁живот	-9.33833
prilike	-9.3395
▁Čak	-9.34087
kra	-9.34091
nos	-9.34149
▁пред	-9.34324
мен	-9.34336
put	-9.34351
▁funkcioniše	-9.34353
ава	-9.34501
▁зб	-9.34533
▁lev	-9.3455
▁grupa	-9.34552
▁ran	-9.34579
skim	-9.34582
▁prijatelj	-9.34704
▁super	-9.34766
▁з	-9.34799
san	-9.35088
▁želi	-9.3512
▁Č	-9.35234
▁hiljad	-9.35279
▁energije	-9.35346
▁Ili	-9.35391
▁нај	-9.35449
▁pomisli	-9.35471
▁та	-9.35517
▁sva	-9.35524
▁велик	-9.35614
ости	-9.35671
▁cen	-9.35773
▁oseća	-9.35807
▁organ	-9.3583
▁Evrop	-9.35878
▁trenutno	-9.35899
▁čeka	-9.36092
▁bolji	-9.3613
▁му	-9.36535
▁milijardi	-9.36539
▁visok	-9.36566
nk	-9.36568
▁prihvat	-9.36664
▁životinj	-9.36718
▁им	-9.36719
▁traži	-9.36804
var	-9.36883
▁Z	-9.37012
ovan	-9.37124
▁plan	-9.37219
▁Кад	-9.37287
žen	-9.37287
▁izvor	-9.37313
▁Radi	-9.37323
▁П	-9.37403
▁пример	-9.37444
▁iskustvo	-9.37457
nija	-9.37461
▁govorim	-9.37485
право	-9.37545
му	-9.37572
▁R	-9.3759
▁уз	-9.37631
noj	-9.3768
ер	-9.37692
ber	-9.37702
čno	-9.37719
▁sazna	-9.3772
жа	-9.37802
▁једн	-9.37904
iran	-9.38132
▁snag	-9.38182
fer	-9.38252
B	-9.38483
▁odluči	-9.38523
▁Prvo	-9.38537
▁Ак	-9.38538
▁Amerik	-9.38573
lom	-9.38633
ав	-9.38643
ron	-9.38812
ира	-9.38845
▁uradit	-9.38872
▁upozna	-9.38916
▁poslednj	-9.38963
▁teorij	-9.39021
▁О	-9.39083
ošću	-9.39097
▁pokazuje	-9.39316
▁promena	-9.39378
▁in	-9.39412
▁istraživanje	-9.39439
pla	-9.39481
.000	-9.39605
▁користи	-9.39634
▁ljubav	-9.39634
▁naročito	-9.39634
opet	-9.39748
đi	-9.39757
▁lek	-9.39818
▁desn	-9.39826
▁prati	-9.39827
▁6	-9.39984
▁evo	-9.40012
▁mal	-9.40055
▁Dok	-9.40311
rija	-9.40441
бу	-9.40449
ing	-9.40675
tak	-9.40717
▁tip	-9.40721
▁male	-9.40781
▁loš	-9.4083
▁ćelija	-9.40834
▁najveć	-9.40864
▁њихов	-9.40993
▁pričam	-9.40998
ује	-9.41057
▁sjajn	-9.41145
▁време	-9.41147
▁najbolje	-9.41199
▁ви	-9.41225
žu	-9.41513
ciju	-9.41611
gen	-9.41661
▁dugo	-9.41981
▁бих	-9.41996
▁ce	-9.42022
▁posebno	-9.42205
▁nastavi	-9.42231
vin	-9.42233
rob	-9.42283
▁vid	-9.4232
▁sličn	-9.42354
овај	-9.42465
▁tek	-9.42553
▁učini	-9.4267
▁zajedničk	-9.42902
▁рад	-9.42971
▁potom	-9.4299
▁doda	-9.43087
▁linij	-9.4311
▁plav	-9.43148
den	-9.43212
ван	-9.43284
son	-9.4344
вр	-9.43495
▁iskustv	-9.43508
▁проблем	-9.43537
▁Mnogo	-9.43539
▁пр	-9.43789
pad	-9.43805
ије	-9.43837
▁Sto	-9.43923
▁кр	-9.4407
▁moram	-9.441
▁razgovor	-9.44203
▁можда	-9.44203
ps	-9.44315
▁novo	-9.4435
▁dobil	-9.44532
▁okruženj	-9.44608
ција	-9.44919
▁200	-9.44968
▁си	-9.45011
▁стран	-9.45123
▁Os	-9.45127
▁60	-9.45186
ији	-9.45208
gde	-9.45209
▁decenij	-9.4521
▁životinja	-9.45548
žn	-9.4556
▁mas	-9.45741
▁Neki	-9.45809
▁godinu	-9.45889
▁jednostavn	-9.45904
▁Bila	-9.45987
▁poslov	-9.46033
▁post	-9.46131
K	-9.46177
мер	-9.4618
▁pogled	-9.46254
▁brzin	-9.46298
▁sp	-9.4637
▁razmišljam	-9.46484
stvo	-9.46585
▁bu	-9.4668
▁док	-9.46727
▁pos	-9.46804
▁uzima	-9.46812
▁dobije	-9.46826
▁svakom	-9.4688
▁najbolji	-9.4689
▁гледа	-9.46935
▁crven	-9.46938
▁slobod	-9.46963
чак	-9.4702
▁Jedna	-9.4705
▁srednj	-9.47074
▁proizvod	-9.47159
▁shvatil	-9.47255
nica	-9.4728
▁nedelje	-9.4733
▁izuzetno	-9.47367
▁12	-9.47472
▁hiljada	-9.47582
▁sekund	-9.476
▁Zemlj	-9.47627
шта	-9.47641
▁koristim	-9.47658
redi	-9.47675
нас	-9.47814
KA	-9.47872
▁8	-9.47911
чн	-9.47935
▁primeti	-9.47945
▁inovacij	-9.47975
▁čist	-9.4811
▁Ha	-9.48238
▁period	-9.48292
▁oblasti	-9.48411
▁ру	-9.48531
▁delu	-9.48577
ujemo	-9.48598
▁pokažem	-9.48715
▁vesti	-9.48746
▁Д	-9.48878
▁Je	-9.4891
▁školu	-9.48977
▁М	-9.49042
▁крај	-9.49254
▁omogućava	-9.49341
▁pun	-9.49484
▁prepozna	-9.49509
▁треба	-9.49596
ina	-9.49632
▁okean	-9.497
▁kompanija	-9.49856
▁osta	-9.49894
јући	-9.50012
▁trenutak	-9.50046
▁La	-9.50154
▁beb	-9.5016
ton	-9.50287
▁otkril	-9.50381
▁Velik	-9.50414
šem	-9.50424
▁van	-9.50435
voj	-9.50463
jete	-9.50538
▁он	-9.50611
▁zahteva	-9.50619
▁drugog	-9.5062
▁Pogledaj	-9.50665
▁gore	-9.50809
aca	-9.50838
▁kar	-9.50848
▁ruke	-9.50873
▁дешава	-9.51101
▁uspeh	-9.51143
ила	-9.51184
▁дец	-9.5126
▁zdrav	-9.51275
ауз	-9.51301
▁činjenic	-9.51301
vala	-9.51336
▁7	-9.51401
▁uglavno	-9.51472
ска	-9.51623
▁delo	-9.51631
gre	-9.51783
▁radili	-9.51796
▁devojk	-9.51832
N	-9.51894
▁vazduh	-9.52193
▁нема	-9.52222
ник	-9.52388
▁неки	-9.5251
▁80	-9.5252
▁zaštit	-9.52569
▁vremen	-9.5262
▁velika	-9.5263
▁obično	-9.52639
▁Мислим	-9.52832
stvari	-9.52839
▁мало	-9.53065
▁biće	-9.53111
▁Ti	-9.53121
čki	-9.53184
▁svemir	-9.53407
stoj	-9.53506
▁L	-9.53547
бри	-9.53591
▁pogledat	-9.53668
▁korak	-9.537
▁zgrad	-9.53932
ičar	-9.53971
▁uređaj	-9.54018
▁princip	-9.54018
▁done	-9.54018
▁misle	-9.54022
▁konačno	-9.54041
кс	-9.54095
nta	-9.54108
ље	-9.54201
NK	-9.54382
▁načina	-9.54433
▁имају	-9.54443
▁odgovori	-9.54478
▁čine	-9.54506
E	-9.54589
▁mar	-9.54691
▁своје	-9.54784
▁Х	-9.5485
▁udar	-9.54895
▁upotreb	-9.5504
▁Хвала	-9.55129
▁оп	-9.55245
▁putu	-9.55284
▁slučaj	-9.55293
O	-9.55297
▁divn	-9.55324
▁мислим	-9.55466
lici	-9.55474
љу	-9.55556
šten	-9.55585
▁она	-9.5562
▁prv	-9.55665
▁св	-9.55686
ск	-9.56047
▁били	-9.5609
▁borb	-9.56253
▁stalno	-9.56256
▁uspešn	-9.56286
▁река	-9.56309
▁Zna	-9.56442
▁druga	-9.56498
▁sigurno	-9.56694
љив	-9.56742
▁ос	-9.56778
▁alat	-9.56792
G	-9.56892
▁snimak	-9.57048
▁pop	-9.57112
▁noći	-9.57136
▁zajednica	-9.5722
▁neku	-9.57261
▁otvori	-9.57316
▁kutij	-9.57398
▁времен	-9.5741
▁ključn	-9.57511
▁три	-9.57561
▁zamislite	-9.57682
▁politik	-9.57772
▁organizacij	-9.57787
▁želel	-9.57793
▁sreć	-9.57807
▁изгледа	-9.58154
▁istin	-9.58247
▁dobra	-9.58436
емо	-9.58455
▁Zamislit	-9.58531
▁sedam	-9.58586
▁revolucij	-9.58924
▁predmet	-9.58927
▁pesm	-9.58942
▁ispred	-9.58952
▁Kolik	-9.58954
▁fa	-9.59
▁šum	-9.59025
▁vrednosti	-9.59092
▁ime	-9.59162
mislite	-9.59192
стан	-9.59273
▁veći	-9.59288
▁siromašn	-9.59312
grad	-9.59336
▁odrasl	-9.59352
▁znali	-9.59376
▁fotografij	-9.59385
▁majk	-9.59386
▁сп	-9.59581
▁napravim	-9.59658
sc	-9.5969
▁систем	-9.59702
▁Li	-9.59706
▁могл	-9.59806
▁najviše	-9.59848
▁ulic	-9.59992
▁део	-9.60115
tre	-9.60135
▁list	-9.60203
ističk	-9.60296
▁industrij	-9.60359
▁mogućnost	-9.60411
▁šans	-9.60486
▁zabav	-9.60512
▁Апл	-9.60576
▁град	-9.60589
▁исто	-9.60717
telj	-9.6075
▁нов	-9.60821
▁Muzik	-9.60878
▁zelen	-9.60879
▁papir	-9.6088
▁pametn	-9.60892
▁poslu	-9.6093
▁osobe	-9.60953
▁sto	-9.60961
▁napravil	-9.61017
per	-9.61062
pal	-9.61063
▁država	-9.61098
▁bolnic	-9.61146
су	-9.61161
гра	-9.61218
▁направи	-9.61273
▁bori	-9.61279
▁meri	-9.61322
▁zajednice	-9.61472
вали	-9.61497
▁svetlost	-9.6153
▁тр	-9.61549
ђа	-9.61593
▁Ove	-9.61643
vesti	-9.61817
bac	-9.61831
otac	-9.61832
▁razumem	-9.61832
rekli	-9.61986
bri	-9.62084
▁predstav	-9.62117
▁25	-9.62135
▁Kr	-9.6219
▁živimo	-9.62238
▁zanimljiv	-9.62352
▁pokaza	-9.62553
▁iste	-9.62559
▁poslednji	-9.62652
▁Mogu	-9.62724
ење	-9.62788
▁две	-9.62877
нд	-9.62899
▁први	-9.62915
▁jasno	-9.62924
ност	-9.63002
▁digitaln	-9.63002
▁muzik	-9.63034
▁Bo	-9.63117
▁lud	-9.63151
▁добро	-9.63275
▁napravljen	-9.63286
▁shvatio	-9.63315
ете	-9.6356
▁bes	-9.6358
▁Postoje	-9.63679
▁др	-9.63833
ште	-9.63863
кр	-9.6389
▁stop	-9.63916
▁vredn	-9.63989
jsk	-9.64
lin	-9.64059
▁pol	-9.64271
ster	-9.64308
▁tešk	-9.64461
▁univerzum	-9.64492
▁očigledno	-9.64493
alno	-9.64499
nes	-9.64531
▁spor	-9.64568
▁ekonomsk	-9.64735
▁želj	-9.64837
▁stanju	-9.64844
▁Ја	-9.64901
▁izraz	-9.64934
уди	-9.64975
vljen	-9.64989
▁bavi	-9.65201
▁Afrik	-9.65305
▁aplauz	-9.65314
▁два	-9.65323
▁razvi	-9.65341
▁мисли	-9.65353
▁brž	-9.65401
▁obrazovanje	-9.65419
▁jedni	-9.6549
▁događaj	-9.65539
▁por	-9.65681
▁Uz	-9.65717
▁nazad	-9.65732
▁krv	-9.65759
▁doktor	-9.65854
▁nama	-9.65856
▁završi	-9.65902
зна	-9.65933
▁bliz	-9.65981
▁drugačiji	-9.66069
▁rođen	-9.6624
▁Prvi	-9.66305
▁желим	-9.66364
kakav	-9.66371
▁pomoći	-9.66381
чк	-9.66486
▁nekom	-9.66946
▁Africi	-9.66977
▁proda	-9.67
▁смех	-9.67001
▁rast	-9.6701
izam	-9.67122
▁upravlja	-9.67248
▁желе	-9.67401
▁porodica	-9.67444
ras	-9.67486
▁Ко	-9.67525
▁Di	-9.67633
ичн	-9.6779
▁bukvalno	-9.67819
▁pomalo	-9.67833
bil	-9.6791
▁откри	-9.6793
▁тамо	-9.68012
шао	-9.6809
vel	-9.68128
▁ни	-9.68221
▁tkiv	-9.68246
▁lice	-9.68311
▁nekad	-9.68347
dov	-9.68362
▁naredn	-9.68456
▁Ми	-9.68465
▁заправ	-9.68521
uvek	-9.68596
▁rada	-9.68665
▁pravu	-9.68688
ције	-9.68763
▁Ri	-9.68774
▁roditelji	-9.68822
▁погледа	-9.68979
▁kupi	-9.69025
▁reši	-9.69076
▁без	-9.6913
ија	-9.692
▁reci	-9.69322
C	-9.69368
▁map	-9.69386
ologij	-9.69541
nter	-9.69568
jn	-9.69643
▁centr	-9.69657
lozi	-9.69741
▁interes	-9.69848
▁Bi	-9.69872
▁vraća	-9.69956
▁школ	-9.69957
▁smanji	-9.69957
▁moment	-9.69973
▁slučajev	-9.70003
вер	-9.70057
▁drugom	-9.70138
▁пар	-9.70264
▁90	-9.70291
▁70	-9.70437
▁mišljenj	-9.70478
▁smatram	-9.70528
▁delova	-9.7056
mor	-9.706
nem	-9.70737
▁grešk	-9.70824
▁smrti	-9.70828
▁odmah	-9.70897
▁napred	-9.71207
▁Ra	-9.7124
šću	-9.71281
▁Може	-9.71284
▁poveća	-9.71366
▁muškarci	-9.71448
R	-9.71618
▁mozgu	-9.71699
▁kojih	-9.71709
vremen	-9.71791
glas	-9.71862
тивн	-9.71908
zacij	-9.71952
цу	-9.72036
▁овог	-9.72149
▁14	-9.7216
▁razgovara	-9.72169
išu	-9.72192
▁milijarde	-9.72291
▁inženjer	-9.72374
din	-9.72433
▁majka	-9.72505
▁ум	-9.72546
▁uradim	-9.72554
▁osnovu	-9.7256
▁kvalitet	-9.72582
▁resurs	-9.72582
▁ћу	-9.72582
▁шир	-9.72645
▁kup	-9.72733
▁daje	-9.72789
▁društv	-9.72832
▁sledeći	-9.72843
ris	-9.72905
▁struj	-9.72975
▁igr	-9.73021
▁metar	-9.73024
▁овом	-9.73079
▁društvo	-9.73139
▁medicinsk	-9.73178
▁dom	-9.73291
▁mnogim	-9.7343
из	-9.73442
лог	-9.73466
▁institucij	-9.73473
▁signal	-9.73473
▁Zbog	-9.73473
▁одговор	-9.73473
▁pretvori	-9.73474
▁zemljama	-9.73513
▁procen	-9.73523
▁Što	-9.73535
ično	-9.73608
▁колик	-9.73682
▁nagrad	-9.73819
▁ruka	-9.73935
▁oseti	-9.74398
▁ком	-9.74428
▁proučava	-9.74442
▁преко	-9.74508
▁mestima	-9.74619
▁raka	-9.74619
alni	-9.74638
▁bolest	-9.74895
ner	-9.75026
▁Naj	-9.75111
▁izum	-9.75124
▁prva	-9.75153
ђ	-9.75162
vati	-9.75179
▁Pr	-9.75235
▁sposobnost	-9.75241
▁uključi	-9.75279
▁omiljen	-9.7528
▁тим	-9.75326
▁Tr	-9.75344
▁Од	-9.75374
▁rešenj	-9.75406
▁situacij	-9.75511
▁ова	-9.75549
▁radn	-9.75557
ostav	-9.75577
▁čuli	-9.75627
čke	-9.75639
▁žen	-9.75666
dija	-9.75686
▁molekul	-9.75734
▁Znači	-9.75788
▁До	-9.75846
kin	-9.75992
nov	-9.76001
▁Има	-9.76064
▁имам	-9.76157
▁pošto	-9.76181
рен	-9.76212
▁Al	-9.76313
vši	-9.76341
čim	-9.76388
▁jedini	-9.76432
▁početku	-9.76471
▁dizajnira	-9.76496
▁hoda	-9.76574
vuda	-9.76597
▁tren	-9.76616
▁grada	-9.76637
▁virus	-9.76669
▁istu	-9.76677
▁slep	-9.76882
▁kož	-9.76997
gleda	-9.77026
▁reakcij	-9.77118
▁normaln	-9.7718
▁zdravstven	-9.77203
zme	-9.7723
▁rešenje	-9.7724
▁živote	-9.77259
▁dobri	-9.77369
▁form	-9.77476
▁jedinstven	-9.77583
▁dođe	-9.77632
rani	-9.77648
nice	-9.77676
▁deset	-9.77862
▁probleme	-9.77865
▁počnem	-9.7796
▁raste	-9.77971
▁poziv	-9.77985
▁razliku	-9.78096
svim	-9.78143
▁9	-9.78149
▁fizičk	-9.78211
▁račun	-9.78279
▁doba	-9.78319
▁Ok	-9.78373
gor	-9.78494
▁dostupn	-9.7852
▁људ	-9.78537
lica	-9.78654
▁sjajno	-9.78661
▁rekl	-9.78665
▁naučnici	-9.78693
▁Dobro	-9.78756
▁slično	-9.78818
▁rasp	-9.78824
▁poslednje	-9.7883
ment	-9.78888
▁perspektiv	-9.78991
▁poverenj	-9.78995
▁mreža	-9.79006
▁roditelj	-9.79034
▁namer	-9.79051
међу	-9.79131
▁rak	-9.79131
▁delov	-9.79146
▁света	-9.79154
▁čud	-9.79248
▁nova	-9.79264
▁prona	-9.79284
▁medicin	-9.79304
lija	-9.79464
▁Americi	-9.79465
▁gomil	-9.79467
▁mobiln	-9.79467
▁потпуно	-9.79469
▁pogledamo	-9.79489
ности	-9.79531
▁uzme	-9.79554
▁prijatelji	-9.79554
▁Drugi	-9.79651
god	-9.79688
del	-9.79757
vlja	-9.79793
▁sledeć	-9.79845
▁mod	-9.79896
▁от	-9.79922
▁osam	-9.79956
nski	-9.79959
▁значи	-9.79974
đuje	-9.79988
ološk	-9.80016
▁буде	-9.8007
▁rata	-9.8008
▁src	-9.80087
osim	-9.80154
▁uslov	-9.80243
lac	-9.80256
der	-9.80538
▁раде	-9.80579
▁knjiga	-9.80616
▁manj	-9.80662
▁odlučil	-9.80664
ран	-9.80692
▁Taj	-9.80789
▁korisn	-9.80846
▁napisa	-9.80929
nar	-9.80941
▁morali	-9.81011
▁planete	-9.81056
L	-9.8106
▁kriz	-9.81135
▁podel	-9.8124
▁student	-9.81276
▁hajde	-9.81384
prkos	-9.81384
▁stoji	-9.81419
▁osnova	-9.8142
▁razlik	-9.81483
fa	-9.81629
▁idu	-9.81652
▁једна	-9.81662
▁prostorij	-9.81704
▁Raz	-9.81743
▁sastav	-9.81781
▁Dr	-9.81783
глед	-9.81835
▁područj	-9.81869
▁океан	-9.8187
zemalja	-9.8187
▁Зна	-9.81873
▁ову	-9.81886
▁naučil	-9.81987
▁mam	-9.82024
так	-9.82048
▁pogrešno	-9.82094
▁demokratij	-9.82108
▁utiče	-9.82166
▁brod	-9.82285
▁tradicionaln	-9.82357
▁tvoj	-9.82417
▁živ	-9.82505
▁kontrol	-9.82531
▁veličine	-9.82657
том	-9.82688
led	-9.82704
▁mladi	-9.82775
▁Niko	-9.82802
▁kreće	-9.82852
▁str	-9.82855
▁postane	-9.829
▁Bu	-9.82938
▁prst	-9.82978
▁granic	-9.83007
▁kriv	-9.83043
▁Ма	-9.83317
▁Nikad	-9.83342
▁ekran	-9.83345
ujem	-9.83348
jednom	-9.83383
▁Са	-9.83401
▁његов	-9.83528
▁уради	-9.83532
▁Ovi	-9.83548
icu	-9.83554
vaj	-9.83599
▁Džon	-9.83694
ство	-9.83734
▁nadam	-9.83755
▁различит	-9.83835
▁nikakv	-9.83835
▁izgubi	-9.83852
рт	-9.83885
▁čim	-9.83977
▁ponašanje	-9.84152
▁rup	-9.84292
▁Država	-9.84297
▁mislio	-9.84305
▁Gr	-9.8432
▁Video	-9.84335
зато	-9.84455
њем	-9.8447
▁мног	-9.84505
▁proizvodnj	-9.84563
▁Ho	-9.84599
▁veruje	-9.8462
▁Op	-9.84638
▁Jedn	-9.84717
▁svaka	-9.84717
▁složen	-9.84761
▁Treba	-9.84768
▁glavn	-9.84801
▁prove	-9.84831
▁okvir	-9.84836
▁talas	-9.84853
▁krug	-9.8487
što	-9.84943
ници	-9.84945
▁sati	-9.85114
▁strani	-9.85128
▁pada	-9.85139
▁matematik	-9.8522
▁nj	-9.85282
▁ljudski	-9.85288
▁mentaln	-9.85339
▁pokazal	-9.85367
▁dvo	-9.85434
елим	-9.8546
▁objasni	-9.85606
▁neophodn	-9.85679
▁scen	-9.85762
rin	-9.85795
▁važ	-9.85797
▁voli	-9.85804
▁komunikacij	-9.8584
▁gledam	-9.85873
▁dogodil	-9.85892
sno	-9.85908
▁bla	-9.8607
▁говори	-9.86084
▁Zar	-9.86116
▁One	-9.86241
▁medij	-9.86288
ника	-9.86321
godišnj	-9.86321
fr	-9.86332
▁Де	-9.86335
▁hoće	-9.86349
▁vlade	-9.86515
▁neurona	-9.8654
▁вод	-9.86682
▁obe	-9.86716
rad	-9.8674
▁људск	-9.86847
▁polovin	-9.8686
▁17	-9.86881
▁16	-9.86882
ек	-9.86905
▁naučnik	-9.86916
▁dodir	-9.86942
tiče	-9.87002
▁Prv	-9.87047
▁primera	-9.87271
▁publik	-9.87371
▁каже	-9.87374
▁narod	-9.8744
▁pomera	-9.87509
▁kola	-9.87561
▁Пре	-9.87638
▁vratim	-9.87676
▁њих	-9.87767
▁spas	-9.87814
▁vozil	-9.87839
▁HIV	-9.87886
▁технологиј	-9.87886
▁modern	-9.87889
ири	-9.88017
▁11	-9.88096
iranje	-9.88213
▁niti	-9.88223
▁vrh	-9.88239
▁svetlo	-9.88261
▁Pod	-9.88309
ент	-9.88317
▁boje	-9.88387
▁prijatelja	-9.88416
▁mnom	-9.8847
▁В	-9.88495
▁rek	-9.88587
▁činjenica	-9.88658
▁let	-9.88713
▁планет	-9.88779
▁ogrom	-9.88843
▁nacionaln	-9.88925
▁evolucij	-9.88925
▁Druga	-9.88927
vno	-9.88937
жу	-9.88953
▁večer	-9.88963
▁fokusira	-9.89151
▁bitn	-9.89174
▁svu	-9.89182
ина	-9.89273
▁zarad	-9.89273
зу	-9.89293
▁veza	-9.89346
▁даље	-9.89408
▁стварно	-9.89448
▁englesk	-9.89449
ових	-9.89485
▁bitno	-9.89512
▁Ž	-9.89532
▁pravim	-9.89536
▁sredstv	-9.89552
▁поста	-9.89639
▁жели	-9.89707
▁planin	-9.89785
dite	-9.89796
iraju	-9.89855
▁čuva	-9.89879
stva	-9.89888
▁uzbuđen	-9.89975
▁милион	-9.89975
▁postavlja	-9.89979
▁operacij	-9.89984
▁poprav	-9.89998
до	-9.90106
▁требал	-9.9012
▁stan	-9.90167
▁живота	-9.90276
▁osećam	-9.90334
▁nog	-9.90342
▁škola	-9.90344
▁Žele	-9.90385
▁Zemlji	-9.90461
▁usta	-9.90491
življava	-9.90497
▁Isto	-9.90577
znad	-9.9058
▁odličn	-9.9062
▁moraln	-9.90679
raž	-9.90916
рж	-9.90954
▁očekiva	-9.91015
▁kilometar	-9.91036
▁pročita	-9.91036
▁veštin	-9.91045
▁stigl	-9.91083
▁hte	-9.91218
▁moguć	-9.91351
struk	-9.91371
▁Lo	-9.91382
▁potpunost	-9.9145
▁proizvodi	-9.91571
▁avion	-9.91572
▁htel	-9.91593
▁овим	-9.91593
bran	-9.9172
▁sede	-9.91723
▁savršen	-9.91748
▁kamen	-9.91757
▁jedino	-9.91807
▁dole	-9.91832
▁preda	-9.91838
bel	-9.91907
ovali	-9.91919
▁sata	-9.91964
rp	-9.92004
▁led	-9.92005
▁osob	-9.92015
▁moćn	-9.9204
▁iskorist	-9.92049
▁softver	-9.92108
žalost	-9.9211
▁Mnogi	-9.92115
▁lepo	-9.9227
▁ista	-9.92279
▁rib	-9.92286
▁kratk	-9.92723
▁dobija	-9.92773
▁zaustavi	-9.92973
▁nauka	-9.93051
▁životn	-9.93117
▁komplikovan	-9.93192
▁metod	-9.93198
▁Pita	-9.93202
▁pokušavam	-9.93204
▁studij	-9.93423
▁zid	-9.93426
▁širi	-9.93461
▁onom	-9.93482
▁kap	-9.93601
▁najveći	-9.93638
▁park	-9.93641
▁rep	-9.93647
▁društva	-9.9367
▁priliku	-9.93678
мене	-9.93709
▁Govor	-9.93755
▁snimk	-9.93764
▁pokušaj	-9.93765
▁vrata	-9.93806
▁пута	-9.93843
▁пита	-9.93878
▁žensk	-9.93896
▁иде	-9.93929
▁gotovo	-9.9393
▁osobin	-9.93949
nac	-9.94012
▁kreativn	-9.9402
dno	-9.9409
▁Ве	-9.94114
ovati	-9.94128
▁zvuči	-9.94246
▁промен	-9.94268
▁drugu	-9.94308
▁porast	-9.94345
▁godišnje	-9.94362
▁materij	-9.94415
stati	-9.94418
čka	-9.94513
nci	-9.94515
▁nju	-9.9452
▁Vol	-9.94593
▁bića	-9.94594
▁Ni	-9.94723
tno	-9.94738
kol	-9.9475
▁sreće	-9.94844
▁осећа	-9.94849
dva	-9.94904
▁istina	-9.95048
вају	-9.95085
▁Većin	-9.95144
▁pravila	-9.95184
▁laboratorij	-9.95195
▁Ова	-9.95243
▁kul	-9.95287
▁arhitektur	-9.95396
▁genetsk	-9.95398
▁per	-9.9542
▁poboljša	-9.95428
▁видети	-9.95476
рад	-9.95484
▁opasn	-9.95497
▁dizajner	-9.9558
▁In	-9.95611
ijom	-9.95637
тор	-9.95681
▁tamn	-9.95685
▁прав	-9.95688
▁mala	-9.95796
▁slobodn	-9.95868
▁električn	-9.95955
▁inteligencij	-9.95955
▁interakcij	-9.95955
▁socijaln	-9.95955
▁religij	-9.95955
јте	-9.96214
▁užasn	-9.96416
▁Међу	-9.96517
▁dolaze	-9.96519
▁devet	-9.96523
ličan	-9.96539
▁13	-9.96547
ге	-9.96554
▁uče	-9.96565
▁Koj	-9.96622
▁lekar	-9.96659
Р	-9.96669
▁meta	-9.96762
▁posledic	-9.96865
▁bira	-9.96881
▁razn	-9.96913
▁цел	-9.96915
▁ostvari	-9.96961
▁свак	-9.96968
▁boja	-9.96988
ker	-9.97054
▁koncept	-9.97082
▁пријатељ	-9.97082
▁ptic	-9.97091
▁bogat	-9.97096
▁istovremen	-9.97108
▁Sk	-9.97143
▁ok	-9.97215
▁zanimljivo	-9.97246
▁dodatn	-9.9735
вља	-9.97399
▁prelep	-9.97416
▁pris	-9.97419
▁pravil	-9.97426
ovao	-9.9744
rsk	-9.97543
bar	-9.97582
▁duboko	-9.97609
▁identitet	-9.9765
▁protein	-9.97658
▁odgovara	-9.97665
▁emocij	-9.97694
▁ispriča	-9.97699
▁mir	-9.97727
▁дуг	-9.97746
▁zemlju	-9.97793
ler	-9.97841
▁istraživač	-9.97875
▁trag	-9.97884
▁promeniti	-9.97942
▁ekonomij	-9.97967
▁okolin	-9.97996
▁Ви	-9.98024
▁Nov	-9.98083
▁prizna	-9.98209
▁galaksij	-9.98221
▁производ	-9.98221
▁последњ	-9.98222
▁klimatsk	-9.98222
▁Drugo	-9.98223
vni	-9.98229
▁najmanj	-9.98284
▁nečeg	-9.98286
▁земљ	-9.98303
▁stav	-9.98324
▁razlika	-9.98377
▁vezan	-9.98519
vori	-9.98684
▁populacije	-9.98754
▁naziva	-9.9879
▁firm	-9.98797
▁otišao	-9.988
▁umetnik	-9.98801
▁nalaze	-9.98806
▁centar	-9.98814
▁lečenj	-9.98837
▁игра	-9.98877
▁odgovornost	-9.98917
▁doša	-9.98964
▁Mal	-9.98974
sil	-9.9902
▁bezbedn	-9.99096
▁mikrob	-9.99124
izovan	-9.9914
▁red	-9.99254
▁pojav	-9.99308
▁seks	-9.99375
▁otpad	-9.99429
▁деце	-9.99444
▁slab	-9.99488
▁zanima	-9.99545
H	-9.99562
▁zvezda	-9.99605
▁поче	-9.99622
▁obal	-9.99719
▁volj	-9.99834
▁fotografija	-9.99875
▁прави	-9.99892
▁sadrž	-9.99909
пер	-9.99917
▁postojal	-9.99936
▁postaju	-9.99946
▁kontekst	-9.99956
▁urban	-9.99956
▁motor	-10.0002
▁trud	-10.0008
▁napor	-10.0009
ине	-10.001
▁prikaz	-10.0017
▁govorimo	-10.0018
▁слик	-10.0028
▁ostavi	-10.003
▁stvaraju	-10.003
▁ponašanj	-10.0034
ег	-10.0035
није	-10.0042
▁pojavi	-10.0051
▁organizacija	-10.0052
▁врати	-10.0054
▁Pokuša	-10.0054
▁uključujući	-10.0057
▁štet	-10.0058
▁napredak	-10.0059
▁zovem	-10.0064
▁Како	-10.0064
▁Bili	-10.0068
▁mislili	-10.007
▁privatn	-10.007
▁kor	-10.0073
▁Kris	-10.0082
vol	-10.0095
ују	-10.0117
▁uspeli	-10.0119
вој	-10.0119
▁test	-10.0127
▁košta	-10.0134
V	-10.0134
ovanje	-10.014
▁spava	-10.014
▁врст	-10.0141
stava	-10.0143
bija	-10.016
▁verzij	-10.0173
▁urad	-10.0177
▁видим	-10.0177
▁prolazi	-10.019
▁raditi	-10.0191
▁podaci	-10.0192
ple	-10.0202
▁Poče	-10.0207
▁razvija	-10.0211
▁prima	-10.0218
▁dovel	-10.0221
▁direktno	-10.0221
▁čas	-10.0226
▁majmun	-10.0232
▁pokazuju	-10.0232
▁мање	-10.0233
▁Мој	-10.0234
▁internetu	-10.0235
▁populacij	-10.0236
▁delovi	-10.0238
▁imen	-10.0241
▁lic	-10.0257
▁sna	-10.0262
misli	-10.0268
▁slav	-10.027
▁ćerk	-10.0271
▁nada	-10.0286
gram	-10.029
▁finansijsk	-10.0291
▁Južn	-10.0292
▁radnik	-10.0293
▁tekst	-10.0303
ijaln	-10.0306
лов	-10.0311
▁Lu	-10.0314
▁partner	-10.0324
алн	-10.0345
▁Та	-10.0348
bro	-10.0351
▁prve	-10.0352
▁неће	-10.0352
▁zadatak	-10.0352
нг	-10.0353
▁videl	-10.0358
spi	-10.036
rez	-10.0366
▁dozvol	-10.0376
▁godinama	-10.038
▁Kin	-10.0388
▁postoja	-10.0403
уп	-10.0404
▁fakultet	-10.0412
▁pomaže	-10.0413
▁pčel	-10.0413
▁početak	-10.0416
▁pretvara	-10.0424
▁Već	-10.0425
▁sajt	-10.0431
▁промени	-10.0437
čar	-10.044
▁posebn	-10.0447
▁zvezd	-10.0449
▁udaljen	-10.0458
▁број	-10.0471
▁strategij	-10.0473
▁uzbudljiv	-10.0473
▁Sledeć	-10.0473
▁mrtv	-10.0473
▁priprem	-10.0474
лан	-10.0474
▁mašt	-10.0477
▁genom	-10.0478
тар	-10.0484
▁nemoguće	-10.0488
▁prirode	-10.0493
▁баш	-10.05
▁дете	-10.0506
неке	-10.0518
▁međusobno	-10.0528
▁sunc	-10.053
▁biologij	-10.0534
▁uslug	-10.0535
▁pronašl	-10.0535
▁trans	-10.0535
▁OK	-10.054
▁najbolj	-10.0547
▁pogledaj	-10.0549
▁Ju	-10.055
▁никад	-10.0554
▁idem	-10.0554
▁глас	-10.0559
▁свако	-10.0559
ijim	-10.056
gar	-10.0567
▁Svak	-10.057
▁идеј	-10.0572
▁врста	-10.0576
ујем	-10.0584
ranja	-10.0588
▁voda	-10.0592
▁mašina	-10.0599
▁понов	-10.06
▁akcij	-10.061
▁nađe	-10.0615
пак	-10.0631
▁detalj	-10.0633
▁lov	-10.0637
▁dobiti	-10.0644
▁gledaju	-10.0655
čic	-10.0656
▁glavi	-10.0657
▁prihod	-10.0659
▁seksualn	-10.0659
▁место	-10.0659
▁nauke	-10.0686
ску	-10.0692
F	-10.0696
▁spoj	-10.0698
acion	-10.0705
▁kancelarij	-10.0721
▁međunarodn	-10.0721
▁боље	-10.0721
▁saradnj	-10.0722
▁šal	-10.0722
▁rod	-10.0723
▁код	-10.0731
▁noć	-10.0734
пре	-10.0739
▁onim	-10.0742
▁Tada	-10.0744
▁izvan	-10.0746
▁formira	-10.0752
▁brojev	-10.0757
ziv	-10.0766
čne	-10.0769
▁оне	-10.0774
▁zavisi	-10.0775
▁razmislit	-10.0776
▁dogodi	-10.0778
▁nesreć	-10.0784
▁vežb	-10.0784
▁долара	-10.0784
▁umetnost	-10.0786
▁nastavlja	-10.0786
▁nedelja	-10.0796
лек	-10.0801
▁primi	-10.0801
▁laboratoriji	-10.0807
ljava	-10.0809
▁održava	-10.0817
▁осећај	-10.0847
▁unazad	-10.0847
▁snažn	-10.0848
▁видео	-10.0859
▁имали	-10.0862
пл	-10.087
▁zdravlje	-10.087
▁veku	-10.0886
▁poruk	-10.0893
▁Stvar	-10.0904
▁информациј	-10.0911
▁funkcij	-10.0911
▁ostrv	-10.0911
for	-10.0913
▁нови	-10.0917
▁dečak	-10.0932
▁savet	-10.0935
tanje	-10.0935
▁жене	-10.0939
▁bog	-10.0946
▁napad	-10.0957
▁drog	-10.0959
▁Dozvoli	-10.0975
▁element	-10.0975
star	-10.0976
▁друштвен	-10.0979
▁Про	-10.0981
▁пол	-10.0991
▁питање	-10.0995
▁putovanj	-10.1005
▁питањ	-10.1007
▁stariji	-10.1009
▁faz	-10.1011
▁kaf	-10.1011
vija	-10.1013
нији	-10.102
▁lepot	-10.1023
▁visoko	-10.1024
▁proizvode	-10.1027
▁brat	-10.1034
▁Kar	-10.1034
▁umetnosti	-10.1038
▁svrh	-10.104
par	-10.1051
▁Све	-10.1055
▁veličin	-10.1065
▁održiv	-10.1076
stru	-10.1081
▁podelim	-10.1083
▁vaša	-10.1087
▁nezavisn	-10.1104
▁prethodn	-10.1104
▁настав	-10.1108
nače	-10.1118
▁pitam	-10.1119
▁čuje	-10.1124
▁pad	-10.1125
tiču	-10.1126
dna	-10.113
▁жена	-10.1133
▁mor	-10.1138
▁lak	-10.1138
▁San	-10.1146
▁мом	-10.1148
▁Mogl	-10.1155
▁идеја	-10.1168
чан	-10.1169
▁dimenzij	-10.117
▁profesor	-10.117
▁univerzitet	-10.117
рија	-10.117
▁zasnovan	-10.117
▁umetničk	-10.117
▁bicikl	-10.1171
▁brine	-10.1173
▁ograničen	-10.1174
▁uvid	-10.1174
▁ples	-10.1181
▁pokušavaju	-10.1182
▁slov	-10.1182
▁uzrok	-10.1183
▁izgradi	-10.1183
čna	-10.1186
▁događa	-10.12
▁nalik	-10.1207
irali	-10.1213
fon	-10.122
vuk	-10.1223
▁stvoril	-10.1228
▁сад	-10.1233
▁nedavno	-10.1236
▁čij	-10.1238
кључ	-10.1239
▁stavlja	-10.1241
кли	-10.1241
▁sadržaj	-10.1244
▁mašine	-10.1255
▁deluje	-10.1276
▁Potrebn	-10.1283
▁tajn	-10.1298
▁čestic	-10.1302
▁potencijal	-10.1303
▁stvarnosti	-10.1304
▁24	-10.1306
▁vremensk	-10.1339
▁заједниц	-10.1345
▁putovanje	-10.1348
▁lekcij	-10.1351
▁основ	-10.1354
▁ваш	-10.1356
тан	-10.1361
▁рас	-10.1364
▁izađ	-10.1366
▁uobičajen	-10.1368
▁čovečanstv	-10.1368
▁goriv	-10.1369
▁jak	-10.1376
▁Trebal	-10.1377
▁naprav	-10.1382
▁izabra	-10.1385
▁filmov	-10.1387
▁nazivam	-10.1391
▁prič	-10.1393
▁Pol	-10.1401
ls	-10.1406
▁Rekla	-10.1415
ђу	-10.1417
▁razmišljanj	-10.1421
пис	-10.1428
▁svest	-10.1431
▁скоро	-10.1436
▁karijer	-10.1436
000	-10.1438
▁proba	-10.1443
▁vatr	-10.1446
skoro	-10.1449
bili	-10.1451
рећи	-10.1452
zor	-10.1454
▁tumor	-10.1456
▁Pos	-10.1457
ген	-10.1457
▁Str	-10.1467
▁стар	-10.1474
▁ulogu	-10.1479
▁500	-10.1479
▁policij	-10.1483
▁značajn	-10.1496
▁ispit	-10.1499
▁zapita	-10.1501
▁дизајн	-10.1503
▁енергиј	-10.1503
▁suočava	-10.1503
▁kinesk	-10.1503
▁muzej	-10.1504
▁исп	-10.1507
▁При	-10.151
▁размишља	-10.1519
▁shvatit	-10.1519
▁кажем	-10.1522
▁нека	-10.1523
▁vozi	-10.1525
▁mikro	-10.1527
▁оста	-10.153
цију	-10.1531
▁Džo	-10.1531
▁Ču	-10.1536
▁покушава	-10.1537
misao	-10.1541
▁nazva	-10.1547
▁aktivnosti	-10.1551
▁početk	-10.1558
▁običn	-10.1559
▁zahval	-10.1563
▁pruža	-10.1564
ица	-10.1566
▁ograničenj	-10.1567
org	-10.157
▁prodavnic	-10.1571
okolo	-10.1572
▁omogući	-10.1574
▁Priča	-10.1577
▁stanje	-10.1581
▁videće	-10.1587
▁zainteresovan	-10.1588
▁koleg	-10.161
▁muškaraca	-10.1613
нова	-10.1614
▁imenu	-10.1623
▁vrednost	-10.1624
▁zajednic	-10.1624
▁detet	-10.1627
▁Brazil	-10.164
▁uhvati	-10.164
▁однос	-10.1642
▁obliku	-10.1642
▁glavni	-10.1644
▁zatvoren	-10.1651
com	-10.1653
▁nose	-10.166
▁znak	-10.1661
▁сто	-10.1665
▁Volim	-10.1675
▁duže	-10.1678
▁muškarc	-10.1679
▁menjaju	-10.1699
▁elektro	-10.1699
пут	-10.1705
▁vlad	-10.1708
▁vizueln	-10.1709
▁pravljenj	-10.1709
▁precizn	-10.1709
▁dovodi	-10.1711
▁помоћ	-10.1712
▁stvarnost	-10.1713
▁peva	-10.1719
▁vrhu	-10.1723
▁Bez	-10.1726
▁приличн	-10.1729
▁isprav	-10.1731
▁jezika	-10.1731
▁srećn	-10.1734
▁zaborav	-10.174
▁biološk	-10.1741
▁разуме	-10.1748
dar	-10.1765
▁Pomisli	-10.1766
▁Из	-10.1768
▁fantastičn	-10.1768
чар	-10.1771
▁следећ	-10.1778
▁dokument	-10.1778
▁разлог	-10.178
▁једном	-10.1782
▁схвати	-10.1782
▁Nadam	-10.1785
▁retk	-10.179
▁klas	-10.1794
▁pozitivn	-10.1798
▁Če	-10.18
▁duž	-10.1802
▁sumnj	-10.1803
▁štampa	-10.1804
▁para	-10.1806
▁znanj	-10.1824
▁treć	-10.1828
▁bank	-10.1833
▁пи	-10.1833
ional	-10.1847
▁proširi	-10.1848
▁филм	-10.1848
▁jutr	-10.1848
▁veruju	-10.1849
▁vođe	-10.1849
▁stol	-10.1859
писа	-10.1863
јем	-10.1869
▁anti	-10.1872
▁Ar	-10.1878
▁napusti	-10.1878
kova	-10.1879
šće	-10.1897
▁знам	-10.1907
▁voz	-10.1912
▁Ponekad	-10.1918
▁pretpostavk	-10.1918
▁kretanj	-10.192
крив	-10.1922
▁otp	-10.1929
▁osnovi	-10.1936
▁sviđa	-10.1942
▁заједн	-10.1943
равно	-10.1949
ruš	-10.195
▁kolega	-10.195
zer	-10.1951
ман	-10.1961
▁čujem	-10.1973
▁мреж	-10.1989
▁знамо	-10.199
▁Svaki	-10.1994
▁morala	-10.1994
▁прич	-10.1999
▁kojeg	-10.2001
▁učinit	-10.2017
▁viš	-10.2023
▁учи	-10.2028
▁300	-10.203
▁pomogne	-10.2033
▁ha	-10.2034
▁devojčica	-10.2036
▁ponaša	-10.204
stalo	-10.2042
▁zajednici	-10.2045
▁hladn	-10.2045
▁Vr	-10.2049
▁snov	-10.205
▁znanje	-10.205
▁prenos	-10.2057
▁pamet	-10.2059
▁simbol	-10.2061
▁tehnik	-10.2062
▁donosi	-10.2063
▁učinil	-10.2069
▁чини	-10.2074
▁пет	-10.208
▁bolj	-10.208
▁uživa	-10.2081
▁прво	-10.2083
▁став	-10.2085
цима	-10.2088
▁posledica	-10.2089
▁otkriva	-10.2092
▁misij	-10.2093
▁značaj	-10.2093
▁bezbednost	-10.2095
▁izgledaju	-10.2107
▁deli	-10.2114
▁оба	-10.2114
▁novinar	-10.2117
▁čudno	-10.2121
▁prosečn	-10.2125
▁pronađ	-10.2132
▁objekt	-10.2133
▁Fejsbuk	-10.2133
▁intervju	-10.2133
▁obezbed	-10.2133
▁pruži	-10.2133
▁plemen	-10.2133
▁Прв	-10.2134
▁kontroliše	-10.2135
▁сла	-10.2141
▁jedina	-10.2149
▁umre	-10.2151
▁zgrada	-10.2153
▁vizij	-10.2164
▁razumevanje	-10.2186
▁jedinic	-10.2188
▁stranic	-10.2196
▁lete	-10.2202
▁biznis	-10.2205
▁користе	-10.2205
▁Severn	-10.2205
▁plaća	-10.2205
▁direktor	-10.2206
▁nedelj	-10.221
rije	-10.2213
▁telu	-10.2214
▁речи	-10.222
▁klim	-10.2221
▁гу	-10.2227
▁testira	-10.2228
▁vakcin	-10.2234
▁већин	-10.2241
▁pretnj	-10.2243
▁nauk	-10.225
▁dnevno	-10.226
▁svakak	-10.2261
▁suprotno	-10.2271
▁razne	-10.2275
▁случај	-10.2275
зор	-10.2276
▁efekat	-10.2278
▁komunicira	-10.2278
▁вероватно	-10.2278
▁њен	-10.2278
▁хран	-10.2279
▁sprove	-10.2279
▁ништа	-10.228
▁ugljenik	-10.228
▁oprem	-10.2281
▁opisa	-10.2281
fin	-10.2285
▁ozbiljno	-10.2286
▁stanic	-10.2292
ovo	-10.2294
▁drugačij	-10.2297
▁једно	-10.2298
▁buduć	-10.23
spostavlja	-10.23
▁stvaranj	-10.2307
siguran	-10.2317
▁sreću	-10.2327
▁Men	-10.2344
▁počne	-10.2347
▁poremećaj	-10.2352
▁solarn	-10.2352
▁Godin	-10.2352
▁pravc	-10.2352
▁научи	-10.2352
▁програм	-10.2352
▁novim	-10.2353
▁vozač	-10.2355
▁prozor	-10.2357
▁promenil	-10.2358
▁Sta	-10.2362
▁rastu	-10.2363
▁glad	-10.2365
▁san	-10.2371
▁једног	-10.2372
▁zaštiti	-10.2379
▁prednost	-10.2388
▁pomogl	-10.2388
▁vezu	-10.2389
▁pas	-10.2391
izma	-10.2394
▁виде	-10.2397
▁ključ	-10.2402
,5	-10.2403
nce	-10.2405
▁opšt	-10.2411
▁воде	-10.2415
▁nejednakost	-10.2426
▁ispitivanj	-10.2427
▁glup	-10.2428
▁napolj	-10.2433
▁nađem	-10.2437
▁osobu	-10.2438
▁ciljev	-10.2443
lažu	-10.2453
▁traže	-10.2454
▁други	-10.2456
▁desetin	-10.2457
▁generacija	-10.2477
нс	-10.249
▁aktivn	-10.249
▁uradila	-10.25
▁sklon	-10.25
▁kriminal	-10.25
▁unapred	-10.25
▁senzor	-10.25
▁ujutr	-10.2502
▁takav	-10.2503
▁smrt	-10.2507
▁sećanj	-10.2515
▁saosećanj	-10.2516
▁širok	-10.2519
▁поса	-10.2527
▁mašin	-10.2531
вен	-10.2532
▁postojanj	-10.2535
▁situacija	-10.2537
води	-10.2544
▁Sjedinjen	-10.2558
▁srce	-10.2559
▁odnosi	-10.256
▁међу	-10.2562
▁služb	-10.2576
▁Јер	-10.2576
▁породиц	-10.2576
▁podseća	-10.2576
▁nasilje	-10.2577
▁Gugl	-10.2577
▁аплау	-10.2577
▁постоје	-10.2577
▁najb	-10.2595
▁ocen	-10.2604
▁ekonomski	-10.2606
▁gradovima	-10.2607
▁после	-10.261
▁слика	-10.2619
▁okup	-10.2619
▁игр	-10.2626
▁sre	-10.2627
▁Svako	-10.2633
▁bak	-10.2637
▁Kon	-10.2637
▁London	-10.2651
▁pažljiv	-10.2651
▁porekl	-10.2652
▁Izgleda	-10.2657
▁teže	-10.2669
▁fizik	-10.2669
▁standard	-10.2669
građen	-10.2674
▁говор	-10.2679
▁komad	-10.268
▁zdravlj	-10.2695
▁današnj	-10.2708
▁pisa	-10.271
▁šuma	-10.2711
▁unutrašnj	-10.2715
▁kiš	-10.2718
▁efekt	-10.2727
▁atmosfer	-10.2728
▁tehnološk	-10.2728
▁podršk	-10.2728
▁Koristi	-10.2728
▁muž	-10.2732
▁hemijsk	-10.2736
▁polu	-10.2737
sija	-10.2737
▁vred	-10.2741
▁наравно	-10.2745
својим	-10.2759
▁pobedi	-10.2766
val	-10.2767
▁rasta	-10.2781
▁hrani	-10.2782
▁poruka	-10.2788
▁rez	-10.2801
▁unutra	-10.2804
▁doprinos	-10.2805
▁veštačk	-10.2805
▁pojedinačn	-10.2805
▁pripada	-10.2805
▁pozicij	-10.2805
▁Mars	-10.2807
▁кућ	-10.281
▁spremni	-10.2811
ално	-10.2813
▁уче	-10.2818
▁Те	-10.2822
▁radil	-10.2825
▁navik	-10.2826
▁ostalo	-10.2826
▁staz	-10.2832
▁napada	-10.2835
▁muzika	-10.2851
▁prošlosti	-10.2859
▁сре	-10.2859
▁putev	-10.2865
▁успе	-10.287
▁Овд	-10.2876
вести	-10.2878
▁показа	-10.2882
▁интернет	-10.2882
▁влад	-10.2882
▁izgradnj	-10.2883
▁duh	-10.2888
▁чет	-10.2893
▁efikasn	-10.291
vde	-10.2913
ređe	-10.2913
kor	-10.2932
▁učenj	-10.2934
lažem	-10.2939
▁analizira	-10.2945
▁знат	-10.2949
▁медиј	-10.2949
▁građan	-10.2949
▁prost	-10.2956
▁nepoznat	-10.296
▁muzičk	-10.296
▁искуств	-10.296
▁bomb	-10.2961
▁brz	-10.2961
▁verova	-10.2963
▁ulog	-10.2964
▁najgor	-10.2965
▁ceni	-10.2971
▁prostoru	-10.2972
bal	-10.2981
▁zvan	-10.2982
▁план	-10.2985
▁ozbiljn	-10.299
▁kapital	-10.2996
▁Ovak	-10.301
▁Gan	-10.3015
ger	-10.302
▁malim	-10.3022
ijski	-10.3022
har	-10.3026
▁član	-10.3035
▁Univerzitet	-10.3039
▁pacijenata	-10.3039
▁slajd	-10.3039
▁brinu	-10.304
▁drži	-10.3042
▁pluć	-10.3042
▁snimi	-10.3046
▁kos	-10.3046
▁соб	-10.3049
▁predavanj	-10.3057
▁upotrebi	-10.3058
▁prelaz	-10.3064
▁išl	-10.3066
▁jednako	-10.3067
ljenje	-10.3069
▁kreativnost	-10.3071
▁studenti	-10.3074
▁apsolutno	-10.3078
▁milijard	-10.3079
▁snima	-10.3081
▁tržište	-10.3083
rac	-10.3084
бац	-10.3094
▁zva	-10.3094
stići	-10.3097
▁značenj	-10.3109
▁objav	-10.3117
▁Kalifornij	-10.3118
▁Odgovor	-10.3118
▁faktor	-10.3118
▁promenu	-10.3121
vek	-10.3121
iramo	-10.3122
▁ниво	-10.3124
▁пра	-10.3126
▁sposobn	-10.3128
▁kanal	-10.3129
▁bele	-10.3131
ној	-10.314
glu	-10.3141
▁Gd	-10.3154
▁ствара	-10.3155
▁studija	-10.3165
▁osećanja	-10.3179
▁poset	-10.3182
sak	-10.3183
▁piše	-10.3187
▁deci	-10.3189
▁laž	-10.319
▁гр	-10.3196
▁računar	-10.3196
▁Mar	-10.32
▁nasilja	-10.32
▁Није	-10.32
▁буду	-10.32
▁Uzmi	-10.32
▁велики	-10.3203
▁dele	-10.3208
▁strast	-10.3218
▁plati	-10.3218
▁svetla	-10.322
form	-10.3222
▁Nemačk	-10.3223
▁živim	-10.3227
▁svakodnevno	-10.3233
zira	-10.3233
▁značajno	-10.3238
▁budi	-10.3239
▁nul	-10.3243
▁Сада	-10.3247
▁лош	-10.3255
▁мај	-10.3263
▁Jes	-10.3266
▁2000	-10.3269
▁мог	-10.3269
▁kontakt	-10.3279
▁krevet	-10.3279
▁uzgaja	-10.3279
▁Oseća	-10.3279
▁matičn	-10.3279
▁visin	-10.3281
▁Misli	-10.3281
▁тих	-10.3287
▁150	-10.3293
▁analiz	-10.3295
▁ubrz	-10.3296
▁Posta	-10.331
▁Bog	-10.3319
▁реч	-10.3332
▁brak	-10.3335
▁рат	-10.3337
▁odrasta	-10.3337
▁biljke	-10.3338
cioni	-10.334
▁baci	-10.3344
▁pokaž	-10.3349
▁Kine	-10.3353
▁povrat	-10.3353
▁себи	-10.3353
▁zapis	-10.3359
▁nevidljiv	-10.336
▁будућност	-10.336
▁тренутк	-10.336
▁neobičn	-10.336
▁највећ	-10.3361
▁Japan	-10.3362
▁nastav	-10.3363
▁Verujem	-10.3363
▁industrijsk	-10.3365
▁trgovin	-10.3367
▁pojm	-10.3369
▁kompjutersk	-10.3375
▁granica	-10.3378
▁ekonomija	-10.3388
▁особ	-10.3389
reg	-10.3394
▁realn	-10.34
▁uzmem	-10.3401
▁obr	-10.3415
▁fizički	-10.3418
▁sigurn	-10.3426
▁tačn	-10.343
▁odem	-10.3431
▁gubi	-10.3436
▁osećaju	-10.3442
▁crta	-10.3442
▁čvrst	-10.3442
▁kreću	-10.3443
nošenj	-10.3443
▁Vaš	-10.3448
тно	-10.3449
▁protest	-10.3456
▁Сви	-10.3461
▁чест	-10.3464
▁kreira	-10.347
rativ	-10.348
▁ubija	-10.348
▁pitaju	-10.3481
▁uključen	-10.3482
▁Uprav	-10.3483
▁krenu	-10.35
▁kosti	-10.3508
▁njom	-10.351
▁nastal	-10.351
▁pričaju	-10.3512
▁srećni	-10.3524
▁књиг	-10.3525
▁хиљад	-10.3525
▁њим	-10.3525
▁jednostavan	-10.3525
▁restoran	-10.3525
▁šifr	-10.3525
▁затвор	-10.3525
▁preprek	-10.3526
▁Sunc	-10.3528
▁protekl	-10.3528
▁toalet	-10.3528
▁znala	-10.3528
▁реду	-10.3534
ице	-10.3534
▁težin	-10.3534
▁налази	-10.355
▁umr	-10.3553
▁devojčic	-10.3553
▁наша	-10.3556
▁prolaz	-10.3556
▁сваки	-10.3562
▁građansk	-10.3569
rečeno	-10.3571
▁мога	-10.3575
▁obrazovanja	-10.3588
▁naziv	-10.3606
▁Problem	-10.3608
▁Verovatno	-10.3608
▁poljoprivred	-10.3608
▁tinejdžer	-10.3608
▁spreči	-10.3608
▁prisutn	-10.3609
▁godini	-10.3609
▁bakterije	-10.361
▁порук	-10.361
▁savršeno	-10.3612
▁Zove	-10.3615
▁Prošl	-10.3616
▁Treć	-10.362
▁mač	-10.3624
▁исти	-10.3627
▁nastavnik	-10.3629
▁Ст	-10.3635
▁Razl	-10.3647
▁тест	-10.3648
пусти	-10.365
▁predstavljaju	-10.3654
▁prestan	-10.366
▁Oke	-10.3668
зив	-10.3669
▁J	-10.3671
▁završe	-10.3678
▁stvarn	-10.3682
▁Britanij	-10.3692
▁porodičn	-10.3692
▁ishran	-10.3692
▁fabrik	-10.3692
▁mišić	-10.3692
▁počinju	-10.3693
▁južn	-10.3695
▁зове	-10.3695
▁ekonomije	-10.3702
▁trak	-10.3703
▁javnost	-10.3708
▁живе	-10.371
▁pogrešn	-10.3718
▁najvećih	-10.3724
nic	-10.3731
▁мали	-10.3731
▁pojedinc	-10.3733
▁jeftin	-10.374
▁svakodnevn	-10.3741
▁леп	-10.3746
▁потребно	-10.375
▁груп	-10.3756
Н	-10.376
▁једноставно	-10.3761
kuje	-10.3775
▁odgovarajuć	-10.3775
zmu	-10.3775
▁detinjstv	-10.3777
▁mozgov	-10.3777
▁nuklearn	-10.3777
▁političar	-10.3777
▁predsednik	-10.3777
▁vožnj	-10.3777
▁izaziva	-10.3777
▁oblak	-10.3781
▁посматра	-10.3785
▁provodi	-10.3794
▁malarij	-10.3794
▁Kaž	-10.3796
▁бу	-10.381
▁Dobi	-10.381
▁teren	-10.3815
▁bogatstv	-10.3818
▁Hoć	-10.3822
▁причу	-10.3826
▁sigurni	-10.3827
▁razmišljanje	-10.3833
▁разлик	-10.3836
▁opcij	-10.3848
▁šalje	-10.3852
▁Nju	-10.3852
вор	-10.3857
▁objašnjava	-10.3862
▁tehničk	-10.3862
▁besplatn	-10.3862
▁članov	-10.3863
▁molim	-10.3864
▁lakše	-10.3865
хват	-10.3867
▁35	-10.3869
▁Više	-10.387
pija	-10.3871
▁razvil	-10.3876
nicima	-10.3877
сан	-10.3878
▁poslovn	-10.3885
▁biljk	-10.3889
land	-10.3891
▁razumeti	-10.3895
njava	-10.3911
▁tržišta	-10.3915
▁радим	-10.3918
▁Posle	-10.3928
▁Мо	-10.3929
▁pital	-10.3929
▁svesni	-10.393
pitali	-10.3931
▁zamen	-10.3932
▁celog	-10.3935
▁realnost	-10.3946
▁Iran	-10.3946
▁Мож	-10.3947
▁ekosistem	-10.3949
▁temperatur	-10.3949
▁očekuje	-10.3949
▁izvanredn	-10.3949
▁bliž	-10.3949
▁sektor	-10.3949
▁šeta	-10.395
▁познат	-10.395
▁недељ	-10.395
▁glum	-10.3954
▁делов	-10.3955
▁sav	-10.3955
▁uveća	-10.3956
▁procenta	-10.3958
▁Par	-10.3974
▁vašim	-10.3978
▁serij	-10.3992
▁400	-10.3995
▁kontrolu	-10.4
iram	-10.4002
▁drža	-10.4011
▁nečemu	-10.4014
▁Kod	-10.4018
чин	-10.4023
▁ivic	-10.4026
▁volel	-10.4027
▁Njegov	-10.4036
▁obavlja	-10.4036
▁Poslednj	-10.4036
▁brend	-10.4036
▁poređenj	-10.4036
▁средин	-10.4036
▁ostavlja	-10.4037
▁Jedin	-10.4038
▁минут	-10.4038
▁rečenic	-10.4038
▁kampanj	-10.4043
▁naslov	-10.4043
▁briga	-10.4047
▁tera	-10.4047
▁razmer	-10.4049
▁obrad	-10.4061
lazak	-10.4074
▁Ре	-10.4075
▁толик	-10.4105
▁pitate	-10.4105
▁širenj	-10.411
▁istog	-10.4111
▁свим	-10.4117
▁контрол	-10.4123
▁izveštaj	-10.4123
▁милијард	-10.4123
▁dozvoljava	-10.4124
▁plaši	-10.4125
▁domaći	-10.4126
▁teb	-10.4127
▁ауто	-10.4128
▁pećin	-10.4128
▁uzeti	-10.4138
▁kamp	-10.4138
▁izbeglic	-10.4143
▁sila	-10.4147
▁lider	-10.4148
▁momak	-10.4148
▁potič	-10.415
▁моћ	-10.4153
▁тог	-10.4155
ciji	-10.4156
дне	-10.4159
демо	-10.416
tički	-10.4161
rka	-10.4173
▁zadrž	-10.4194
▁Pokazać	-10.4201
имате	-10.4204
▁isključi	-10.4212
▁животињ	-10.4212
▁материјал	-10.4212
▁heroj	-10.4212
▁uništava	-10.4212
▁Gleda	-10.4212
▁TV	-10.4214
▁troškov	-10.4215
▁kompleksn	-10.4216
▁Види	-10.4217
▁korisnik	-10.422
▁Počel	-10.422
▁gradove	-10.4232
▁према	-10.4232
▁такв	-10.4233
▁gradova	-10.4234
pov	-10.4237
▁učinim	-10.4238
▁ribe	-10.4245
▁видел	-10.4249
▁тешко	-10.4249
▁здрав	-10.4251
▁najvažnije	-10.4255
▁dis	-10.4258
▁pobed	-10.4259
vale	-10.4267
▁poruke	-10.4273
▁Kan	-10.4274
▁fenomen	-10.4281
▁Оно	-10.4283
▁suštinsk	-10.4296
▁uništi	-10.4301
▁satelit	-10.4303
▁razvijen	-10.4305
▁Los	-10.4306
▁zaposlen	-10.4306
▁45	-10.4307
▁krene	-10.4307
▁učenje	-10.4309
▁облик	-10.4309
▁stvaranje	-10.4311
▁podržava	-10.4311
▁otišl	-10.4311
▁svira	-10.4311
ves	-10.4311
▁meša	-10.4326
zuj	-10.4335
▁zahtev	-10.4336
▁дан	-10.4338
nata	-10.4345
рам	-10.4348
▁konflikt	-10.4353
kacij	-10.4359
▁vratil	-10.4367
▁povećava	-10.437
▁zamislit	-10.4373
▁četvrt	-10.4374
▁projektu	-10.4375
▁zapadn	-10.4389
▁odeć	-10.439
▁zabrinut	-10.4391
▁časopis	-10.4391
▁довољно	-10.4391
▁компјутер	-10.4391
▁pošalj	-10.4392
▁otkrića	-10.4397
▁osvet	-10.4397
прилик	-10.4398
▁generacije	-10.4398
▁istom	-10.4398
▁другим	-10.4409
▁bož	-10.4411
▁bave	-10.4417
vršen	-10.4417
▁gol	-10.4425
ovog	-10.4427
▁morsk	-10.4437
▁čudn	-10.4447
ravn	-10.4449
rop	-10.4452
▁Kini	-10.4468
▁duš	-10.4471
више	-10.4473
▁svesn	-10.4479
▁podrazumeva	-10.4482
▁publici	-10.4482
▁sakuplja	-10.4482
▁pozadin	-10.4482
▁рекла	-10.4482
▁процес	-10.4482
▁strašn	-10.4483
▁odlazi	-10.4484
радимо	-10.4484
▁ubedi	-10.4484
▁učitelj	-10.4486
▁imovin	-10.4487
▁Potom	-10.4489
▁sused	-10.449
▁odsto	-10.4492
▁troši	-10.4493
▁razumevanj	-10.4494
▁povr	-10.4495
▁sposobnosti	-10.4498
▁trećin	-10.4504
▁Moram	-10.4505
▁prilika	-10.4505
▁poseduje	-10.4506
viđen	-10.4516
▁leta	-10.4527
▁otkrije	-10.4532
миш	-10.4539
čić	-10.4547
▁praktično	-10.4554
бор	-10.4563
▁vrt	-10.4567
▁ponudi	-10.4571
▁касније	-10.4574
▁добија	-10.4574
▁млад	-10.4575
▁Мног	-10.4576
▁oruđ	-10.4577
▁terapij	-10.4577
ствари	-10.4579
▁правил	-10.4581
kratko	-10.4585
▁zahvaljuju	-10.4587
▁uzel	-10.4589
▁невероватно	-10.459
▁Skor	-10.4597
▁Само	-10.4597
▁naselj	-10.4599
▁zub	-10.4612
▁natera	-10.4615
▁prenosi	-10.4629
▁novin	-10.4629
▁Зат	-10.4629
▁treće	-10.463
▁Tri	-10.463
траж	-10.4631
▁zadovolj	-10.4636
▁Ispostav	-10.4639
▁podacima	-10.464
▁Azij	-10.4642
ograf	-10.4659
▁aktivira	-10.4666
▁tradicij	-10.4666
▁kontrolisa	-10.4668
А	-10.4669
▁води	-10.4675
▁sećam	-10.4678
▁prazn	-10.4681
▁kralj	-10.4682
▁pogreš	-10.469
▁interesantno	-10.4696
рије	-10.4704
▁nazvan	-10.4715
▁itd	-10.4727
ck	-10.4732
ском	-10.4738
▁otkrijem	-10.4739
▁naft	-10.4748
▁mislila	-10.4757
▁rasprav	-10.4757
▁epidemij	-10.476
▁inspirisa	-10.476
▁tretman	-10.476
▁ispostavil	-10.476
▁okrenu	-10.476
▁blisk	-10.476
▁сопствен	-10.4763
▁teži	-10.4764
▁Река	-10.4764
▁stres	-10.4765
▁јавн	-10.4769
▁obrat	-10.4776
▁ubaci	-10.4778
▁pokrenu	-10.4779
▁Sjedinjeni	-10.4781
▁umu	-10.4782
зад	-10.4783
▁stepen	-10.4785
činjen	-10.4789
▁aktivnost	-10.4796
▁najvažnij	-10.4808
kav	-10.4808
места	-10.4826
рк	-10.4832
▁Bar	-10.4836
▁siromaštv	-10.4845
▁pozva	-10.4846
▁tež	-10.485
▁Njihov	-10.4854
▁kliničk	-10.4854
▁platform	-10.4854
▁televizij	-10.4854
▁створи	-10.4854
▁Pred	-10.4855
спе	-10.4855
▁Bil	-10.4855
▁prosek	-10.4856
▁čula	-10.4858
kar	-10.486
▁vojsk	-10.4861
лика	-10.4862
▁вези	-10.4863
▁Oh	-10.4872
izuje	-10.4874
▁ukus	-10.4886
▁других	-10.4888
▁topl	-10.4892
▁sir	-10.4893
▁истраживањ	-10.4896
▁promenilo	-10.4902
▁nestal	-10.4904
▁prilik	-10.4905
▁reše	-10.4905
▁korišćenje	-10.4907
▁žic	-10.4909
▁ličnost	-10.4914
▁спр	-10.4915
▁odbija	-10.4917
▁bub	-10.4917
▁polje	-10.492
▁мења	-10.4924
renje	-10.4925
▁iznenađujuć	-10.4949
▁zamišlja	-10.4949
▁родитељ	-10.495
▁napretk	-10.495
▁kv	-10.4952
олошк	-10.4954
▁скуп	-10.4954
▁важно	-10.4954
▁neuro	-10.4962
чки	-10.4965
▁neuron	-10.4965
▁specifičn	-10.4966
▁centraln	-10.4973
▁ponavlja	-10.4991
▁odvija	-10.5009
▁21.	-10.5014
▁pregled	-10.5017
▁svemirsk	-10.5017
▁историј	-10.5019
▁жен	-10.502
ишу	-10.5023
▁izlazi	-10.5025
▁opasnost	-10.5031
▁ispričam	-10.5038
▁Del	-10.5041
▁podrž	-10.5042
▁гор	-10.5045
▁pridruži	-10.5046
▁transport	-10.5046
▁oslobodi	-10.5046
▁skriven	-10.5046
▁stanovnik	-10.5046
▁balon	-10.5048
▁sačuva	-10.5048
▁smešn	-10.5053
▁razmen	-10.5059
▁Svetsk	-10.5065
▁Tim	-10.5065
▁простор	-10.5066
тур	-10.5066
▁Mek	-10.5068
čenje	-10.5071
▁današnje	-10.5077
▁oper	-10.5081
▁atom	-10.5098
▁сме	-10.511
▁istorijsk	-10.5114
sen	-10.5118
▁kazn	-10.512
ključuje	-10.5121
▁Ver	-10.5133
нија	-10.5137
▁Australij	-10.5143
▁šablon	-10.5143
▁приступ	-10.5143
▁резултат	-10.5143
▁одлучи	-10.5143
▁држав	-10.5143
▁region	-10.5145
▁počn	-10.5146
▁pritisk	-10.5151
▁pisanj	-10.5153
▁kolen	-10.5155
▁nijedn	-10.516
▁gran	-10.5171
ularn	-10.5174
▁metr	-10.5179
▁обе	-10.5179
▁For	-10.5181
▁нове	-10.5192
▁коме	-10.5215
▁več	-10.5215
sposob	-10.522
▁obavez	-10.5221
▁psi	-10.5221
▁otvara	-10.5227
njak	-10.523
▁oružje	-10.5233
▁lik	-10.5235
▁alternativ	-10.5241
▁kapacitet	-10.5241
▁simptom	-10.5241
▁prilagod	-10.5241
▁nacrt	-10.5241
▁momenat	-10.5241
▁75	-10.5244
▁autobus	-10.5245
▁Zvu	-10.5271
▁Об	-10.5277
▁том	-10.5297
▁shvatam	-10.5299
▁građani	-10.531
▁важн	-10.5322
▁neverovat	-10.5322
овој	-10.5329
▁Avganistan	-10.534
▁konferencij	-10.534
▁занимљив	-10.534
▁Sigur	-10.534
▁воле	-10.5341
▁priušt	-10.5341
▁tražim	-10.5341
rok	-10.5348
▁praks	-10.535
▁živel	-10.5357
▁zaraz	-10.5367
▁Постоји	-10.5373
rol	-10.538
▁mušk	-10.5381
▁jednak	-10.5383
▁bavim	-10.5396
▁postan	-10.5401
▁pism	-10.5402
▁oblast	-10.5406
▁лак	-10.5406
▁jasn	-10.5413
ским	-10.5421
▁22	-10.5425
▁koren	-10.5434
сно	-10.5438
▁Trenutn	-10.544
▁zaključi	-10.544
▁nasumičn	-10.544
▁Ту	-10.544
▁učionic	-10.5443
▁finansira	-10.5444
▁siromaštva	-10.5449
▁Stvarno	-10.5452
▁остал	-10.5457
▁ваше	-10.5462
▁dnevn	-10.5465
▁Sećam	-10.5473
▁stil	-10.5474
▁baca	-10.548
▁čiji	-10.5486
▁урадимо	-10.5492
▁бој	-10.5503
▁најбољ	-10.5506
suprot	-10.5508
▁žut	-10.5514
▁presta	-10.5514
▁završil	-10.552
▁ког	-10.5524
▁zameni	-10.5527
▁dobijate	-10.553
▁Napravi	-10.5531
▁год	-10.5535
▁Džordž	-10.5541
▁Vašington	-10.5541
▁aplikacij	-10.5541
▁infrastruktur	-10.5541
▁висок	-10.5541
▁образовањ	-10.5541
▁ekološk	-10.5541
▁заштит	-10.5541
▁temelj	-10.5541
▁hoću	-10.5541
▁Индиј	-10.5541
▁ekip	-10.5541
▁mišev	-10.5542
▁Vrati	-10.5543
▁razmislim	-10.556
▁огромн	-10.5561
▁srž	-10.5561
▁pravd	-10.5564
U	-10.5572
К	-10.5573
▁iskreno	-10.5578
▁tvrdi	-10.5589
▁pliva	-10.559
▁disk	-10.5592
▁pojavljuj	-10.5598
▁глав	-10.5599
▁природ	-10.5602
▁Бил	-10.5605
▁posmatram	-10.5618
▁savremen	-10.5621
licama	-10.5632
▁iznenada	-10.5643
▁oporav	-10.5643
▁pomažu	-10.5643
▁Čini	-10.5644
▁Hej	-10.5646
▁shvatimo	-10.5647
▁посто	-10.5649
▁пес	-10.5656
▁ploč	-10.5657
▁sudar	-10.5662
▁otkriće	-10.5667
jiva	-10.5668
▁saobraćaj	-10.5679
▁državn	-10.5684
kaziva	-10.5693
▁objašnjenj	-10.5695
alna	-10.5696
▁letelic	-10.5698
▁proizve	-10.5701
▁autor	-10.5708
▁dobijaju	-10.5719
▁patnj	-10.5722
▁prate	-10.5722
▁zon	-10.5722
▁završim	-10.5723
▁delić	-10.5724
▁diplom	-10.5726
▁ostaje	-10.5736
jač	-10.5738
▁dobijam	-10.5745
шћу	-10.5746
▁afričk	-10.5746
▁aspekt	-10.5746
▁depresij	-10.5746
▁kombinacij	-10.5746
▁заврши	-10.5746
▁разговор	-10.5746
▁Izrael	-10.5746
▁lokacij	-10.5746
▁stepeni	-10.5747
▁99	-10.5749
▁шест	-10.5752
▁pomeri	-10.5753
▁sukob	-10.5754
▁свом	-10.5765
▁obnov	-10.5768
▁izgled	-10.5773
▁razmišljaju	-10.5773
▁Ха	-10.5775
▁Ber	-10.5775
gradili	-10.5779
▁tabl	-10.5782
zija	-10.5785
▁vlasti	-10.5788
▁ispr	-10.5792
▁pomognem	-10.5797
ајн	-10.5802
▁boju	-10.5803
▁preživel	-10.5812
бли	-10.5813
▁instrument	-10.5819
▁пове	-10.5823
▁relativno	-10.5827
▁svakoj	-10.5829
▁smr	-10.583
▁ostane	-10.5845
▁katastrof	-10.585
▁pokreće	-10.585
▁могућност	-10.585
▁BDP	-10.585
▁posvećen	-10.585
▁глобалн	-10.585
▁arapsk	-10.585
▁služi	-10.585
▁зград	-10.585
▁добиј	-10.5852
▁рекли	-10.5852
▁Kakv	-10.5852
▁bakterija	-10.5853
▁Ništa	-10.5854
▁Molim	-10.5856
▁zvuč	-10.5859
▁Ва	-10.5863
▁dvoje	-10.5865
▁животу	-10.5867
▁zov	-10.5875
▁zavis	-10.5878
▁popularn	-10.5881
▁лет	-10.5886
дан	-10.5893
▁Smatram	-10.5898
▁prikazuje	-10.5899
▁pismo	-10.5899
▁suoči	-10.5907
▁razmišljat	-10.591
▁особа	-10.5921
▁dođ	-10.5921
ogodišnja	-10.5924
▁pronađem	-10.5928
▁započel	-10.5938
▁otišli	-10.5945
▁korišćenj	-10.5949
▁polja	-10.595
▁hrabr	-10.5951
▁Ujedinjen	-10.5955
▁definicij	-10.5955
▁kiseonik	-10.5955
▁човек	-10.5955
▁pritisak	-10.5955
▁teroriz	-10.5955
▁suprug	-10.5955
▁igraju	-10.5956
▁usled	-10.5956
▁посла	-10.5957
▁покуша	-10.5958
čuju	-10.5961
▁мал	-10.5962
▁dnu	-10.5962
ređi	-10.5962
▁Meri	-10.5968
▁proveri	-10.5972
▁zidov	-10.5981
▁napravite	-10.5985
▁тражи	-10.5989
▁Baš	-10.5997
▁univerzaln	-10.6
▁objasnim	-10.6004
▁lopt	-10.6005
▁zdravstv	-10.601
▁odbran	-10.6037
▁izgubil	-10.6058
▁Био	-10.606
▁Zdrav	-10.6062
▁izložb	-10.6062
▁predvide	-10.6062
▁stigne	-10.6062
▁kvantn	-10.6062
▁zločin	-10.6063
▁donose	-10.6063
▁ranjiv	-10.6063
▁rešava	-10.6064
▁Imaju	-10.6067
▁odabra	-10.6071
▁Kong	-10.6072
▁drže	-10.6074
▁vetr	-10.6076
▁ruk	-10.6079
▁Irak	-10.6089
▁koral	-10.6097
▁Она	-10.6102
▁Razmisli	-10.6115
▁уби	-10.6131
▁putanj	-10.6132
▁izlaz	-10.6134
izacija	-10.6136
▁радио	-10.6139
▁planira	-10.6144
▁igračk	-10.6154
▁troš	-10.6157
▁gospod	-10.6157
▁kril	-10.6162
▁rešavanj	-10.6167
▁слуша	-10.6168
▁neprijatelj	-10.6169
▁teleskop	-10.6169
▁šimpanz	-10.6169
▁2010	-10.6169
▁Internet	-10.6169
▁obožava	-10.6169
▁уметност	-10.6169
▁emisij	-10.6169
▁human	-10.617
▁Свак	-10.6171
▁prenese	-10.6172
▁testiranj	-10.6173
▁objekat	-10.6179
▁прошл	-10.6181
▁sloj	-10.6182
kopa	-10.6182
▁Star	-10.6183
▁посебно	-10.6185
mišljen	-10.6189
ства	-10.6192
▁обр	-10.62
▁1000	-10.6213
▁цен	-10.6215
▁деси	-10.6223
▁sigurnost	-10.6226
▁vojn	-10.6227
▁Tolik	-10.6229
▁umrl	-10.6233
▁dozvolit	-10.6235
▁Otiš	-10.6238
▁Било	-10.6238
pomognu	-10.6245
▁severn	-10.6247
▁studen	-10.6255
▁неког	-10.626
▁korist	-10.6268
▁obraz	-10.6271
▁орган	-10.6277
funkcionišu	-10.6278
▁Anđeles	-10.6278
▁kategorij	-10.6278
▁okolnosti	-10.6278
▁spekta	-10.6278
trča	-10.6278
▁osmisli	-10.6279
▁masovn	-10.6279
▁Uradi	-10.628
▁Виде	-10.6283
▁dubok	-10.6286
▁iskoristim	-10.629
▁važnije	-10.6295
▁пуно	-10.6296
▁циљ	-10.6301
рон	-10.633
▁aut	-10.6337
▁нико	-10.6342
▁razum	-10.6346
▁interesantn	-10.6353
▁nosim	-10.6359
▁fotograf	-10.6382
▁kuva	-10.6388
▁kolektivn	-10.6388
▁potroši	-10.6388
▁експеримент	-10.6388
▁култур	-10.6388
▁oštećen	-10.6388
▁брзо	-10.6388
▁Meksik	-10.6388
▁sajber	-10.6388
▁general	-10.6388
▁Or	-10.639
▁predivn	-10.639
▁traje	-10.6391
▁Вол	-10.6391
▁2008	-10.6392
▁leži	-10.6393
▁Bel	-10.6393
угл	-10.6394
▁prijav	-10.6394
▁drag	-10.6395
▁постави	-10.6395
▁језик	-10.6396
▁ekstremn	-10.6396
▁izašl	-10.6398
▁месец	-10.6401
▁тада	-10.6402
▁jednačin	-10.6403
▁кра	-10.6408
▁написа	-10.6413
про	-10.6415
▁momci	-10.6416
▁чуд	-10.6416
▁parče	-10.6417
▁Har	-10.6419
▁zadovoljstv	-10.6425
▁vrat	-10.6433
▁sile	-10.6438
▁zamislim	-10.6442
▁poveza	-10.6444
▁nervn	-10.646
▁verovatnoć	-10.6462
▁vodom	-10.6469
▁ulazi	-10.6477
▁Kenij	-10.6488
▁Neke	-10.6491
vlači	-10.6496
▁konzerv	-10.6499
▁gledišt	-10.6499
▁kilogram	-10.6499
▁osetljiv	-10.6499
▁pejzaž	-10.6499
▁компаниј	-10.6499
▁budžet	-10.6499
▁komentar	-10.6499
▁citat	-10.6499
▁музик	-10.6499
▁решењ	-10.6499
▁mlađ	-10.65
▁civilizacij	-10.6501
▁Pitanj	-10.6501
ални	-10.6503
▁potpun	-10.6508
▁skuplja	-10.6512
▁leči	-10.6512
▁mediji	-10.6516
▁20.	-10.6517
земље	-10.6525
▁Rad	-10.6526
▁pojavil	-10.6529
▁Čest	-10.6531
ата	-10.6537
▁pomislil	-10.6538
ница	-10.6548
▁osv	-10.6552
0.000	-10.6553
▁десил	-10.6562
▁prodaju	-10.6569
▁vest	-10.6575
▁predviđanj	-10.659
▁polju	-10.66
▁GPS	-10.6611
▁разговара	-10.6611
▁kamion	-10.6611
▁sjajan	-10.6611
▁cvet	-10.6611
▁emotivn	-10.6611
▁stručnjak	-10.6611
▁tretira	-10.6612
▁magij	-10.6612
▁управ	-10.6612
▁vrši	-10.6613
▁против	-10.6613
▁šok	-10.6617
▁vidljiv	-10.6621
▁добил	-10.6623
▁izjav	-10.6625
▁slučajno	-10.6625
▁drvo	-10.6627
▁javlja	-10.6632
▁generacij	-10.6638
▁merenj	-10.6656
▁zapad	-10.6663
stički	-10.6679
▁овак	-10.6679
▁osigura	-10.6693
▁kud	-10.6696
▁upita	-10.6706
▁zastrašujuć	-10.6725
▁пројект	-10.6725
▁zapamti	-10.6725
▁машин	-10.6725
▁Shvati	-10.6725
▁ukupn	-10.6725
▁drvet	-10.6725
▁kontra	-10.6725
▁vođa	-10.6725
▁prevoz	-10.6727
▁stvorenj	-10.6731
▁gej	-10.6732
▁kock	-10.6733
▁oružj	-10.6733
▁boji	-10.6739
▁započe	-10.6744
▁dobijem	-10.6746
есто	-10.6747
тера	-10.6748
▁smrtnost	-10.6751
▁poent	-10.6756
▁ćelijama	-10.6769
vajući	-10.6774
ирају	-10.6775
ирање	-10.6782
ров	-10.6784
▁говорим	-10.6793
▁rečnik	-10.6799
▁povezanost	-10.6804
▁liči	-10.6812
rž	-10.6817
▁jug	-10.6819
▁Ни	-10.6821
▁sitn	-10.6823
ški	-10.6826
▁gust	-10.6826
ологиј	-10.6829
▁potencijaln	-10.6837
▁популациј	-10.684
▁kognitivn	-10.684
▁Konačno	-10.684
▁poklon	-10.684
▁umiru	-10.684
▁terorist	-10.684
ard	-10.684
▁spaja	-10.6841
▁zvaničn	-10.6847
▁matematičk	-10.6848
▁каж	-10.6848
▁Kanad	-10.6852
▁prob	-10.6853
▁verovanj	-10.6853
▁Наш	-10.6854
▁Rekl	-10.6861
▁крв	-10.6863
▁održa	-10.6865
▁negativn	-10.6866
▁Мора	-10.6883
▁воз	-10.6884
▁доста	-10.6884
jak	-10.6891
▁umov	-10.6896
▁radikaln	-10.6902
▁krajev	-10.6907
▁krov	-10.6913
ијск	-10.6917
▁stavit	-10.6919
▁izgledal	-10.6919
▁ženk	-10.6928
▁живи	-10.6931
▁Jednom	-10.6932
šav	-10.6932
▁Imal	-10.6933
▁iskren	-10.6933
▁Ра	-10.6934
▁tržišt	-10.6936
▁izuzetn	-10.6954
▁komponent	-10.6956
▁neuspeh	-10.6956
▁olakša	-10.6956
▁složi	-10.6956
▁dolin	-10.6959
▁objavljen	-10.6959
чење	-10.6964
▁23	-10.6964
čel	-10.6966
▁Bož	-10.6976
gnut	-10.6982
▁domov	-10.6985
дија	-10.6993
▁brać	-10.6997
▁prežive	-10.6999
нски	-10.7001
▁zaustav	-10.7005
▁sagradi	-10.7005
▁мале	-10.7011
atle	-10.702
▁cev	-10.7025
▁skal	-10.7031
▁novog	-10.705
▁zaslužuj	-10.7051
▁dožive	-10.7062
▁glasov	-10.7066
▁blok	-10.7066
▁pomislite	-10.707
▁dvadeset	-10.7074
▁virtueln	-10.7074
▁САД	-10.7074
▁izložen	-10.7074
▁povezuje	-10.7074
▁izazva	-10.7074
▁zadatk	-10.7074
▁haker	-10.7075
▁ostatak	-10.7077
ekcij	-10.7077
▁подаци	-10.7079
▁foto	-10.7085
▁govoril	-10.7088
▁imun	-10.7097
▁kvadrat	-10.7099
▁programira	-10.71
▁temu	-10.7105
▁сваког	-10.7105
▁trk	-10.7107
▁Džej	-10.7111
▁miris	-10.712
▁очи	-10.7131
veden	-10.7138
▁раст	-10.7141
▁Нема	-10.7141
▁prođe	-10.7153
фер	-10.7156
▁smer	-10.7158
▁Kor	-10.7161
▁Pet	-10.7169
jev	-10.7186
▁схват	-10.719
▁potrošač	-10.7193
▁potrošnj	-10.7193
▁телефон	-10.7193
▁љубав	-10.7193
▁почиње	-10.7193
▁Čovek	-10.7193
▁Darvin	-10.7193
▁obraća	-10.7193
▁okrug	-10.7193
▁obrazovn	-10.7193
▁žrtve	-10.7198
▁Земљи	-10.7199
▁umetnic	-10.72
▁син	-10.7201
▁имати	-10.7203
▁sred	-10.7207
▁годин	-10.7217
▁uspeva	-10.7224
▁spremn	-10.7225
▁ustanov	-10.7226
▁leđ	-10.7235
▁dosadn	-10.7242
stignu	-10.7254
▁pokazat	-10.726
▁zavisnost	-10.726
▁Тр	-10.7264
▁прове	-10.7264
bol	-10.7266
▁igrač	-10.7278
С	-10.7282
▁boj	-10.7285
▁omogućil	-10.7308
▁farm	-10.7309
produktivn	-10.7311
▁aktivist	-10.7313
▁ciklus	-10.7313
▁dijagnoz	-10.7313
▁knjizi	-10.7313
▁смрт	-10.7313
▁испод	-10.7313
▁ispunjen	-10.7313
▁organsk	-10.7314
▁očuvanj	-10.7314
▁metafor	-10.7314
▁lažn	-10.7315
▁izbaci	-10.7316
▁grafikon	-10.7317
▁nastup	-10.7317
▁teret	-10.7318
▁pojača	-10.7319
▁gubitk	-10.7321
▁Pošto	-10.7322
гова	-10.7327
▁istočn	-10.7329
dir	-10.7329
▁тачк	-10.7331
▁Biće	-10.7334
▁postojeć	-10.7341
▁obave	-10.7343
▁сличн	-10.7348
▁група	-10.7354
▁blizin	-10.7358
▁tipičn	-10.7362
▁shvatanj	-10.7365
▁чита	-10.7367
▁друштв	-10.7376
▁prošlost	-10.7378
▁чем	-10.738
▁Drugim	-10.7388
▁osećanj	-10.7391
▁tvrd	-10.7392
vir	-10.7393
▁motiv	-10.7399
šili	-10.74
lajn	-10.7401
▁prevar	-10.7402
▁доне	-10.7418
▁Dec	-10.7425
▁потреб	-10.7427
▁Земљ	-10.7429
▁подат	-10.7431
▁научн	-10.7434
▁Nacionaln	-10.7435
▁francusk	-10.7435
▁infekcij	-10.7435
▁medved	-10.7435
▁preduzetnik	-10.7435
▁završava	-10.7435
▁Један	-10.7435
▁грађан	-10.7435
▁Odluči	-10.7435
▁intelektualn	-10.7435
▁ukloni	-10.7435
▁fizičar	-10.7436
▁odvojen	-10.7436
▁sestre	-10.7436
▁podseti	-10.7437
▁одлук	-10.744
▁klik	-10.7447
▁gledat	-10.7449
lend	-10.745
▁prikup	-10.7452
▁izučava	-10.7452
▁staklen	-10.7456
▁Кин	-10.7475
▁poštovanj	-10.7479
▁Nemoj	-10.749
▁prikazan	-10.7493
▁učenik	-10.7498
▁Per	-10.7503
▁malen	-10.7504
▁бес	-10.7504
▁говоре	-10.7505
ivač	-10.7508
jedno	-10.7509
▁stopal	-10.751
▁Cen	-10.7512
▁trav	-10.753
▁оног	-10.7549
▁Ras	-10.7555
▁advokat	-10.7559
▁celokupn	-10.7559
▁korupcij	-10.7559
▁opsednut	-10.7559
▁zapanjujuć	-10.7559
▁одређен	-10.7559
▁recept	-10.7559
▁statistik	-10.7559
▁sakupi	-10.7559
▁smanjenj	-10.7559
▁skladišt	-10.7559
▁bore	-10.756
▁pobeg	-10.7561
▁En	-10.7563
▁grip	-10.7566
▁izmeni	-10.7567
▁ostatk	-10.7574
▁ideal	-10.7577
▁алат	-10.7581
▁Раз	-10.7586
▁мап	-10.7598
▁Isp	-10.7602
▁nastavnici	-10.7603
▁nestaj	-10.7607
▁sfer	-10.7612
▁реалн	-10.7613
▁овакв	-10.7616
▁razlikuj	-10.7619
▁norm	-10.7669
▁trenutn	-10.7676
▁školsk	-10.7677
▁neprijatn	-10.7684
▁pretpostavi	-10.7684
▁пацијент	-10.7684
▁kuhinj	-10.7684
▁pokrene	-10.7684
▁automatsk	-10.7684
▁dupl	-10.7686
▁Glas	-10.7686
▁pomenu	-10.7686
▁krajnje	-10.7689
▁ded	-10.7689
▁Amerikanci	-10.769
▁забав	-10.7694
▁razred	-10.7711
▁поред	-10.7715
▁čip	-10.7717
▁сва	-10.7719
▁замислит	-10.7721
▁Ов	-10.7724
▁потребн	-10.7732
▁beli	-10.7734
▁nauče	-10.7751
сија	-10.7755
изациј	-10.7758
▁Kol	-10.776
▁моћи	-10.7771
ђење	-10.778
▁dovede	-10.7789
▁svojstv	-10.7792
20	-10.7808
▁другачиј	-10.781
▁Amazon	-10.781
▁hirurg	-10.781
▁mehaničk	-10.781
▁neočekivan	-10.781
▁количин	-10.781
▁уопште	-10.781
▁rezerv	-10.781
▁дубок	-10.781
▁упозна	-10.781
▁izgovor	-10.781
▁долази	-10.781
▁мозг	-10.7811
▁свемир	-10.7811
▁модел	-10.7811
▁pustinj	-10.7811
▁liberal	-10.7811
▁stabiln	-10.7811
▁drevn	-10.7811
▁Žene	-10.7811
▁memorij	-10.7813
▁завис	-10.7815
▁прати	-10.7817
žur	-10.7818
▁мас	-10.7833
▁radnici	-10.7842
▁верујем	-10.7848
▁donel	-10.7872
▁представља	-10.7872
▁закон	-10.7877
▁leden	-10.7878
▁њег	-10.789
stvu	-10.7901
stor	-10.7915
▁див	-10.7923
▁актив	-10.7938
▁hemikalij	-10.7939
▁karakter	-10.7939
▁Englesk	-10.7939
▁Posmatra	-10.7939
▁delfin	-10.7939
▁Sluša	-10.7939
▁Марс	-10.7939
▁prisustv	-10.7939
▁kitov	-10.7939
▁individualn	-10.7941
▁Zapadn	-10.7941
▁izaber	-10.7941
▁sastank	-10.7945
▁делу	-10.7952
раније	-10.7953
▁belo	-10.7959
▁preuzm	-10.7959
▁luk	-10.7961
▁ulaz	-10.7962
▁iskr	-10.7965
▁profesionaln	-10.7969
▁radnj	-10.7971
▁filozof	-10.7973
▁Došl	-10.7975
▁krenul	-10.798
već	-10.799
▁21	-10.7994
▁proizvede	-10.7995
▁poseb	-10.8
▁proto	-10.8011
▁prodava	-10.8032
▁месеци	-10.8053
▁ujed	-10.8059
▁žrt	-10.8059
▁кући	-10.8061
▁Francusk	-10.8068
▁britansk	-10.8068
▁pouzdan	-10.8068
▁sprečava	-10.8068
▁коначно	-10.8068
▁слобод	-10.8068
▁болест	-10.8068
▁predloži	-10.8068
▁takozvan	-10.8069
▁razmatra	-10.8069
▁уместо	-10.8069
▁hitn	-10.807
▁režim	-10.807
▁fond	-10.8071
▁kartic	-10.8073
▁2009	-10.8073
▁27	-10.8076
▁вредности	-10.8077
▁članak	-10.8077
▁Неки	-10.808
▁реци	-10.8084
▁Ро	-10.8087
▁врл	-10.8096
▁студент	-10.8105
▁istražujem	-10.812
▁Bal	-10.8127
▁zaboravit	-10.814
след	-10.815
▁nerv	-10.8154
veren	-10.8154
▁Prove	-10.8155
▁11.	-10.8157
▁ugljen	-10.8178
▁predstavim	-10.818
▁ponos	-10.8189
▁likov	-10.819
▁crtež	-10.82
▁Ajnštajn	-10.82
▁astronom	-10.82
▁empatij	-10.82
▁septembr	-10.82
▁могуће	-10.82
▁пажњ	-10.82
▁показује	-10.82
▁помисли	-10.82
▁тренутак	-10.82
▁doprine	-10.82
▁lansira	-10.82
▁prljav	-10.82
▁slatk	-10.82
▁šef	-10.82
▁prijateljic	-10.8201
▁misterij	-10.8201
▁kamere	-10.8201
▁назива	-10.8202
▁autizm	-10.8209
▁Život	-10.821
▁почел	-10.8213
raf	-10.8214
▁Idej	-10.8218
▁fascinantn	-10.8221
▁сазна	-10.8225
▁otpor	-10.8226
▁nabav	-10.8228
▁pišem	-10.823
▁logi	-10.8235
▁luta	-10.8241
▁poslovanj	-10.8243
▁tečnost	-10.825
▁slaže	-10.825
boga	-10.8253
▁час	-10.8268
▁тек	-10.8272
▁protok	-10.8275
rus	-10.8295
▁праве	-10.8305
зак	-10.8305
▁tad	-10.8307
▁pravn	-10.8323
▁održi	-10.8329
▁интер	-10.8332
▁отворен	-10.8333
▁Očigledn	-10.8333
▁ishod	-10.8333
▁povezivanj	-10.8333
▁šećer	-10.8333
▁сматра	-10.8333
presivn	-10.8333
▁susret	-10.8333
▁središt	-10.8334
▁добар	-10.8334
▁sisar	-10.8335
▁gura	-10.8335
▁izvesn	-10.8337
▁postavljen	-10.834
▁slojev	-10.834
▁избор	-10.8343
▁плат	-10.8343
▁Stavi	-10.8344
▁obavi	-10.8352
godišnji	-10.8362
▁izgrađen	-10.8367
ишем	-10.8367
▁19.	-10.8403
▁Mark	-10.8404
▁istraživačk	-10.8415
▁obuk	-10.8417
▁prevod	-10.8431
▁pokrenul	-10.8441
troje	-10.845
▁izgubljen	-10.8468
▁mehanizam	-10.8468
▁usamljen	-10.8468
▁звезд	-10.8468
▁религиј	-10.8468
▁oslanja	-10.8468
▁Publi	-10.8468
▁položaj	-10.8468
▁покрет	-10.8468
▁ugovor	-10.8469
▁percepcij	-10.8469
▁ubeđen	-10.8469
▁лекар	-10.8469
▁kritik	-10.8469
▁spoljašnj	-10.8469
▁započn	-10.847
▁sekvenc	-10.8471
▁dugme	-10.8474
▁Počinj	-10.8481
▁Ponov	-10.8484
sis	-10.8486
▁odeljenj	-10.849
▁dojk	-10.8492
▁pretpostavljam	-10.8494
▁prešl	-10.8503
posle	-10.8505
▁upravljanj	-10.8519
▁veš	-10.8526
▁umreti	-10.8546
▁privatnost	-10.8568
▁kes	-10.8568
тиче	-10.8568
▁бра	-10.8571
▁Pogleda	-10.8573
▁iznenađen	-10.8593
▁civil	-10.8603
▁konkretn	-10.8605
▁Činjenic	-10.8605
▁величин	-10.8605
▁пројекат	-10.8605
▁смисл	-10.8605
▁Crven	-10.8605
▁утицај	-10.8605
▁preuzima	-10.8605
▁hotel	-10.8606
▁prototip	-10.8606
▁Sreć	-10.8606
▁portret	-10.8606
▁posveti	-10.8606
▁izvadi	-10.8608
▁богат	-10.861
▁poezij	-10.861
▁податак	-10.8611
▁stiga	-10.8612
▁kurs	-10.8612
▁dizajniran	-10.8616
▁извор	-10.8618
▁Ос	-10.8621
▁постаје	-10.8622
▁dužin	-10.8638
▁istraživa	-10.8646
▁otporn	-10.8651
▁gradsk	-10.8657
▁mirn	-10.8678
▁беб	-10.8701
▁nemoj	-10.8732
▁Имам	-10.8735
▁El	-10.8742
▁algoritm	-10.8744
▁ekonomist	-10.8744
▁iznenadi	-10.8744
▁komercijaln	-10.8744
▁kontinent	-10.8744
▁лабораториј	-10.8744
▁2011	-10.8744
▁izbegava	-10.8744
▁učestvuje	-10.8744
▁investicij	-10.8744
▁dugoročn	-10.8744
▁prvobitn	-10.8744
▁dubin	-10.8744
▁urađen	-10.8744
▁Džejms	-10.8745
▁patent	-10.8745
▁tišin	-10.8745
▁bolesn	-10.8747
▁otrov	-10.8748
▁Čita	-10.8749
▁65	-10.875
▁očaj	-10.8751
▁farmer	-10.8752
▁vojnik	-10.8752
▁stid	-10.8754
▁blokira	-10.8755
▁biljak	-10.8757
▁Videl	-10.8758
▁ево	-10.876
▁tuž	-10.8766
▁značajan	-10.8769
▁труд	-10.8769
držav	-10.877
▁udaljenost	-10.8782
▁plaž	-10.8794
▁природн	-10.8801
▁leg	-10.8809
нск	-10.881
aktivn	-10.882
▁prošlog	-10.8824
▁Živ	-10.8825
▁organizovan	-10.884
▁Ken	-10.8862
пос	-10.8869
▁okružen	-10.8872
▁gradovi	-10.8877
опет	-10.8881
▁ekspert	-10.8885
▁funkcionaln	-10.8885
▁gravitacij	-10.8885
▁izračuna	-10.8885
▁kandidat	-10.8885
▁preduzeć	-10.8885
▁Švedsk	-10.8885
▁opisuje	-10.8885
▁radoznal	-10.8885
▁varijacij	-10.8885
▁pamćenj	-10.8885
▁srčan	-10.8885
▁mračn	-10.8885
▁члан	-10.8885
▁predlog	-10.8886
▁другачије	-10.8886
▁usput	-10.8886
▁чека	-10.8886
▁potrag	-10.8887
▁poštu	-10.8891
zdrav	-10.8894
▁MR	-10.8894
▁veroval	-10.8895
▁ћелиј	-10.8898
▁pojedinac	-10.8898
▁držim	-10.89
▁organizm	-10.89
ansk	-10.8902
▁Sen	-10.8906
▁most	-10.8927
▁osećal	-10.8928
▁stoje	-10.8937
▁krat	-10.8944
▁центр	-10.8949
▁фотографиј	-10.8966
▁Med	-10.8968
▁uspel	-10.897
▁земља	-10.8974
▁радили	-10.8975
▁живим	-10.8975
▁поп	-10.8998
▁okruž	-10.9011
▁brig	-10.9015
▁nazivaju	-10.9018
▁originaln	-10.9021
▁nekakv	-10.9024
▁Globaln	-10.9028
▁Razmišlja	-10.9028
▁argument	-10.9028
▁gojazn	-10.9028
▁nedostaje	-10.9028
▁енглеск	-10.9028
▁тренутно	-10.9028
▁Афри	-10.9028
▁углав	-10.9028
▁ikakv	-10.9028
▁mudrost	-10.9028
▁напред	-10.9028
▁izolovan	-10.9028
▁uništen	-10.9029
▁hrabrost	-10.9034
▁uzork	-10.9036
▁ogledal	-10.9037
▁oluj	-10.905
▁проценат	-10.9054
▁Istin	-10.9065
▁rešim	-10.9073
▁Jednog	-10.9076
▁povežem	-10.9079
▁наук	-10.9109
реј	-10.9113
▁мор	-10.9124
duše	-10.915
▁ekstrem	-10.9162
▁zvučn	-10.9171
▁bibliotek	-10.9173
▁interfejs	-10.9173
▁karakteristik	-10.9173
▁četvoro	-10.9173
▁површин	-10.9173
▁погреш	-10.9173
▁ситуациј	-10.9173
▁ritual	-10.9173
▁građevin	-10.9173
▁najčešć	-10.9173
▁predvidi	-10.9173
▁zlat	-10.9173
▁učestvova	-10.9173
▁komplet	-10.9173
▁организациј	-10.9173
▁džep	-10.9173
▁isproba	-10.9174
▁roman	-10.9174
▁zlo	-10.9174
▁iluzij	-10.9174
▁почетк	-10.9174
▁fondacij	-10.9175
▁haos	-10.9176
▁Vreme	-10.9178
▁sneg	-10.9179
▁opada	-10.9181
▁ovakav	-10.9184
ružan	-10.9184
▁добит	-10.9186
▁будем	-10.9188
▁gospodin	-10.919
▁stog	-10.9191
▁viđa	-10.9199
▁икад	-10.921
иран	-10.9211
ничк	-10.9213
▁pomog	-10.9225
▁Budi	-10.9226
▁otkrivanj	-10.9237
▁složenost	-10.9249
бл	-10.9261
▁знају	-10.9274
▁невероватн	-10.9275
▁Raj	-10.9315
▁ostalim	-10.9317
▁hr	-10.932
▁definisa	-10.932
▁срећн	-10.932
▁Neverovatn	-10.932
▁antibiotik	-10.932
▁prezentacij	-10.932
▁девојчиц	-10.932
▁spoljn	-10.932
▁rođak	-10.932
▁reaguje	-10.932
▁ajkul	-10.932
▁drveće	-10.932
▁дневн	-10.932
▁dospe	-10.932
▁stimul	-10.932
▁štiti	-10.9321
▁imejl	-10.9321
▁produž	-10.9322
▁usred	-10.9322
▁uistin	-10.9322
▁појав	-10.9326
▁uverenj	-10.9327
▁Stiv	-10.9327
▁Njen	-10.9327
▁Nekad	-10.933
▁36	-10.9333
▁Tomas	-10.9334
▁Adam	-10.9338
▁elektronsk	-10.9341
▁postanem	-10.9352
▁postavil	-10.9356
▁Lin	-10.9362
▁minut	-10.9363
▁porez	-10.9372
▁друштво	-10.9381
▁povratn	-10.94
▁ugled	-10.9401
▁Ed	-10.941
▁Морам	-10.9424
▁takmičenj	-10.9447
▁hemij	-10.9454
▁неким	-10.9454
▁Dejvid	-10.9469
▁algoritam	-10.9469
▁inteligentn	-10.9469
▁predrasud	-10.9469
▁Хајде	-10.9469
▁дозвол	-10.9469
▁пластик	-10.9469
▁greben	-10.9469
▁mikroskop	-10.9469
▁мисле	-10.9469
▁inovativn	-10.9469
▁molekularn	-10.947
▁obrnut	-10.947
▁multi	-10.9471
▁eksplozij	-10.9472
▁preživljavanj	-10.9472
▁стотин	-10.9472
▁preuze	-10.9472
▁stomak	-10.9472
▁nadzor	-10.9473
▁чине	-10.9473
▁hip	-10.9475
▁догађај	-10.9477
▁Grad	-10.9494
▁poznaje	-10.9496
▁повезан	-10.9497
▁scenari	-10.9506
▁zalih	-10.9507
▁nečij	-10.952
▁uslovim	-10.9526
радите	-10.9529
▁истин	-10.9535
▁raket	-10.9544
▁gledanj	-10.9545
▁momk	-10.9554
▁Prosto	-10.9562
nder	-10.9571
▁nisk	-10.9596
▁морск	-10.9607
▁светск	-10.9609
▁negu	-10.9611
▁Francisk	-10.9621
▁angažova	-10.9621
▁poprilično	-10.9621
▁Други	-10.9621
▁графи	-10.9621
▁изгуби	-10.9621
▁функционише	-10.9621
▁plastičn	-10.9621
▁политичк	-10.9621
▁Tviter	-10.9621
▁Američk	-10.9621
▁nužno	-10.9621
▁ravnotež	-10.9621
▁probudi	-10.9621
▁мишљењ	-10.9622
▁столиц	-10.9622
▁utisak	-10.9622
▁sprat	-10.9622
▁Нисам	-10.9622
▁gubitak	-10.9622
▁važnost	-10.9624
▁stavil	-10.9625
▁običaj	-10.9626
▁Поче	-10.9638
▁личн	-10.9638
ruci	-10.964
▁мени	-10.9641
lepi	-10.9641
▁tunel	-10.9646
▁stolic	-10.9647
▁brojk	-10.9651
времен	-10.9657
▁једноставн	-10.9671
▁razvijaju	-10.9682
▁rodn	-10.9696
▁smrtn	-10.9696
centr	-10.9703
▁Vam	-10.9718
▁ubijen	-10.9726
▁izvede	-10.9733
▁upored	-10.9746
▁мушкарци	-10.9747
▁krav	-10.9755
▁Dva	-10.9764
▁представ	-10.9774
▁Anderson	-10.9775
▁konstantn	-10.9775
▁Треба	-10.9775
▁Ričard	-10.9775
▁Otkril	-10.9775
▁magičn	-10.9775
▁заједничк	-10.9775
▁vlak	-10.9775
▁Uspe	-10.9775
▁januar	-10.9775
▁uklapa	-10.9775
▁ulaganj	-10.9775
▁flaš	-10.9775
▁дечј	-10.9775
▁највише	-10.9776
▁stvore	-10.9776
▁dečij	-10.9777
▁клас	-10.9777
▁dopada	-10.9777
▁Martin	-10.9777
▁uloži	-10.9778
▁Pariz	-10.9778
▁sprav	-10.9781
▁некак	-10.9781
pram	-10.9789
▁lagan	-10.9791
▁opstan	-10.9791
▁oblici	-10.9792
gledali	-10.9794
рођен	-10.9796
▁osećat	-10.9796
▁istinit	-10.9814
▁bud	-10.9819
▁дела	-10.9841
▁daljin	-10.9844
▁korišćen	-10.9853
▁napredn	-10.9869
▁štampač	-10.9879
▁povež	-10.988
▁rođenj	-10.9894
сигурно	-10.9899
dioksid	-10.9931
▁Antarktik	-10.9931
▁crkv	-10.9931
▁Google	-10.9931
▁primećuje	-10.9931
▁изазов	-10.9931
▁sudbin	-10.9931
▁тачно	-10.9931
▁црн	-10.9931
▁status	-10.9931
хвала	-10.9931
▁indijsk	-10.9932
▁divlje	-10.9932
▁kontrolišu	-10.9933
▁staništ	-10.9933
▁hiper	-10.9933
▁послов	-10.9934
▁пролаз	-10.9934
▁острв	-10.9934
▁важ	-10.9935
▁krivic	-10.9941
▁roku	-10.9942
▁Držav	-10.9942
▁ponud	-10.9953
▁prepoznavanj	-10.9959
▁smisao	-10.9962
▁От	-10.9971
▁Ти	-10.9991
▁улиц	-10.9992
▁Zajedn	-10.9995
▁Den	-11
▁snimanj	-11.0013
▁gornj	-11.0016
▁stanj	-11.0029
▁бел	-11.0033
ćelij	-11.0053
▁реп	-11.0055
новац	-11.0057
▁poznajem	-11.0063
▁tvrdnj	-11.0071
▁дис	-11.0076
▁postav	-11.0081
▁Higsov	-11.009
▁mnoštv	-11.009
▁približi	-11.009
▁specijaln	-11.009
▁атмосфер	-11.009
▁avantur	-11.009
▁muzičar	-11.009
▁инсект	-11.009
▁pogorša	-11.009
▁Sjajn	-11.009
▁podučava	-11.009
▁diskusij	-11.009
▁agencij	-11.009
▁корисн	-11.009
▁бави	-11.0091
вроп	-11.0091
▁globalizacij	-11.0091
▁почне	-11.0092
▁reform	-11.0094
▁prekid	-11.0094
▁hormon	-11.0094
▁Vlad	-11.0099
▁neznanj	-11.0102
ђује	-11.0104
▁pružaju	-11.0107
▁врху	-11.0111
▁spreman	-11.0112
▁delim	-11.012
▁šar	-11.0148
▁voć	-11.0148
▁Živim	-11.0161
▁tipov	-11.0165
▁saznanj	-11.0174
▁nastavim	-11.0175
ntin	-11.0179
▁funkcionisal	-11.0181
▁jednakost	-11.0182
▁kolic	-11.0197
▁Нај	-11.0202
▁konj	-11.0203
▁objavil	-11.0204
▁Met	-11.0229
▁razgovaram	-11.024
▁kompleks	-11.0244
▁podjednako	-11.0251
▁prioritet	-11.0251
▁skulptur	-11.0251
▁smanjuje	-11.0251
▁Авганистан	-11.0251
▁звук	-11.0251
▁креативн	-11.0251
▁сјајн	-11.0251
▁Nigerij	-11.0251
▁Harvard	-11.0251
▁dijagram	-11.0251
▁студиј	-11.0251
▁aparat	-11.0251
▁uzorak	-11.0251
ifikovan	-11.0251
▁Rusij	-11.0251
▁grozn	-11.0251
▁волим	-11.0251
▁Super	-11.0251
▁genetičk	-11.0252
▁ropstv	-11.0252
▁pogon	-11.0252
▁fraz	-11.0252
▁postigl	-11.0253
▁nastaje	-11.0253
▁kopira	-11.0256
▁Sirij	-11.0258
zgred	-11.0259
▁iznosi	-11.0262
▁Postavi	-11.0262
▁gost	-11.0263
▁postiž	-11.0265
▁звуч	-11.0268
▁stabl	-11.0269
▁očev	-11.027
▁физичк	-11.0279
▁fun	-11.0282
▁бак	-11.0285
uživo	-11.0286
▁урадили	-11.0292
▁šak	-11.0298
ređuju	-11.0311
▁deljenj	-11.0335
▁ubije	-11.0336
▁sadašnj	-11.0341
▁Сад	-11.0343
▁posmatranj	-11.0352
▁повећа	-11.036
▁dođem	-11.036
▁sadašnjost	-11.0362
▁prilaz	-11.0375
▁јако	-11.0375
једном	-11.0401
▁pauz	-11.0406
▁Ben	-11.041
▁2012	-11.0415
▁Potpun	-11.0415
▁asteroid	-11.0415
▁inspiracij	-11.0415
▁priključi	-11.0415
▁ugrožen	-11.0415
▁период	-11.0415
▁покажем	-11.0415
▁структур	-11.0415
▁чињениц	-11.0415
▁Pakistan	-11.0415
▁sićušn	-11.0415
▁usmeren	-11.0415
▁везе	-11.0415
▁detektor	-11.0415
▁псих	-11.0415
▁fotografisa	-11.0415
▁komarc	-11.0416
▁приказ	-11.0416
▁okonča	-11.0416
▁praćenj	-11.0417
▁blog	-11.0419
▁pokriva	-11.042
▁podeljen	-11.0422
▁мајка	-11.0423
▁traum	-11.0423
▁prizor	-11.0426
тон	-11.0428
▁близ	-11.0429
alizovan	-11.045
▁парализ	-11.0456
▁brodov	-11.0457
▁starije	-11.0458
▁organizova	-11.0472
▁postavljaju	-11.0476
izujem	-11.0479
▁поглед	-11.0482
▁нашим	-11.0492
▁зид	-11.0493
▁интерес	-11.0499
▁Ок	-11.0503
▁Šir	-11.0522
▁Америк	-11.0528
▁upoznal	-11.0554
▁radost	-11.0558
▁ponosn	-11.0558
двоје	-11.0563
▁stvoren	-11.0573
stran	-11.0575
годишње	-11.0582
▁dijalog	-11.0582
▁intuicij	-11.0582
▁investitor	-11.0582
▁korporacij	-11.0582
▁menadžer	-11.0582
▁најважниј	-11.0582
▁озбиљн	-11.0582
▁страх	-11.0582
▁identičn	-11.0582
▁суштин	-11.0582
▁светлост	-11.0584
▁mrav	-11.0584
▁debat	-11.0584
▁samostaln	-11.0585
▁strastven	-11.0585
▁organizam	-11.0585
▁odigra	-11.0588
▁otkriven	-11.059
▁корал	-11.0591
▁uočit	-11.0596
▁hod	-11.0614
▁Dobr	-11.0626
▁znakov	-11.0642
▁prevazi	-11.0645
▁стоп	-11.0649
М	-11.065
plov	-11.0654
▁bilion	-11.066
pasti	-11.0661
▁užas	-11.0663
ografsk	-11.0674
▁ubrzan	-11.069
▁Док	-11.0699
▁glasač	-11.0703
▁glasanj	-11.0708
▁smeć	-11.0715
▁potpis	-11.0721
▁mladić	-11.0728
▁Majk	-11.073
▁250	-11.0732
▁kolonij	-11.0735
▁Džen	-11.0736
redstava	-11.0743
▁NASA	-11.0751
▁energetsk	-11.0751
▁zloupotreb	-11.0751
▁Твитер	-11.0751
▁reaktor	-11.0751
▁одговара	-11.0751
▁секунд	-11.0751
▁investira	-11.0751
▁korteks	-11.0751
▁drveća	-11.0751
▁Teško	-11.0751
▁kritičn	-11.0751
▁добра	-11.0751
▁obučen	-11.0751
▁prijatn	-11.0752
▁Kroz	-11.0752
▁sklad	-11.0752
▁пронађ	-11.0752
▁ostvare	-11.0752
▁profil	-11.0753
▁nazval	-11.0755
▁границ	-11.0756
▁proleć	-11.0758
љење	-11.0761
▁nevolj	-11.0762
▁Običn	-11.0763
▁hor	-11.0766
овори	-11.0769
▁napreduje	-11.0771
▁životinjsk	-11.0777
▁toplot	-11.0782
▁другог	-11.0782
▁razbi	-11.0783
▁predviđa	-11.0783
▁Gor	-11.0796
▁plač	-11.0797
▁pisac	-11.0798
▁600	-11.0815
▁новц	-11.0823
▁suprotn	-11.0825
▁Vod	-11.0833
▁siv	-11.0849
▁učenici	-11.0857
▁tužn	-11.086
▁musliman	-11.0862
▁Постој	-11.0865
▁десн	-11.0895
▁razumn	-11.0905
▁češć	-11.0914
▁spolja	-11.0923
▁približava	-11.0923
▁vlasnik	-11.0923
▁ХИВ	-11.0923
▁направљен	-11.0923
националн	-11.0923
▁fudbal	-11.0923
▁okreće	-11.0923
▁Музи	-11.0923
▁Zanimljiv	-11.0923
▁zadužen	-11.0924
▁raspodel	-11.0924
▁termin	-11.0924
▁umire	-11.0924
▁obojen	-11.0924
▁dečj	-11.0924
▁Tajms	-11.0925
▁optuž	-11.0925
▁шум	-11.0926
▁makar	-11.0927
▁путовањ	-11.0927
▁развој	-11.0927
▁utical	-11.0928
▁predstavljen	-11.0933
▁свесн	-11.0934
▁линиј	-11.0934
▁nudi	-11.0935
▁juče	-11.0946
▁spis	-11.0958
▁Alchajmerov	-11.096
▁oslobađa	-11.0974
▁Амери	-11.0979
вршен	-11.0985
▁nasiln	-11.0985
И	-11.0999
▁дво	-11.1
▁kupuje	-11.1006
▁дивн	-11.1007
▁вид	-11.1008
▁прод	-11.101
▁Kir	-11.1023
▁Bol	-11.1029
▁nedeljno	-11.1049
▁јасн	-11.1063
▁zamisl	-11.108
▁sirov	-11.1084
▁црта	-11.1099
▁privilegij	-11.1099
▁исприча	-11.1099
▁сексуалн	-11.1099
▁figur	-11.1099
▁интересантн	-11.1099
▁очигледно	-11.1099
▁crev	-11.1099
▁Primeti	-11.1099
▁podigne	-11.1099
▁snimljen	-11.1099
▁talent	-11.1099
▁месту	-11.1099
▁potvrd	-11.1099
▁шанс	-11.1099
▁obolel	-11.1099
▁теориј	-11.1102
▁sijalic	-11.1103
▁Ради	-11.1104
▁ružn	-11.1108
▁žrtva	-11.1109
metar	-11.111
▁узме	-11.1114
▁smetnj	-11.1123
▁pobun	-11.114
▁trči	-11.1145
отац	-11.1152
▁časov	-11.1154
▁medijsk	-11.1166
▁formul	-11.1169
▁род	-11.117
▁jeftinij	-11.1178
▁sprem	-11.1199
▁nesigurn	-11.1213
▁obrazovanj	-11.1227
▁физи	-11.1247
▁основн	-11.125
▁Her	-11.1251
▁poboljšanj	-11.1267
▁Ugl	-11.1272
▁вредн	-11.1276
▁безбедн	-11.1277
▁definitivno	-11.1277
▁disciplin	-11.1277
▁dostojanstv	-11.1277
▁fascinira	-11.1277
▁fundamentaln	-11.1277
▁racionaln	-11.1277
▁reaguju	-11.1277
▁zglob	-11.1277
▁Једна	-11.1277
▁окружењ	-11.1277
▁универзум	-11.1277
▁Mesec	-11.1277
▁podzemn	-11.1277
▁razmotri	-11.1278
▁osuđen	-11.1278
▁orbit	-11.1278
▁zaposli	-11.1278
▁норм	-11.1278
▁klub	-11.1278
▁jezgr	-11.1278
▁beton	-11.1278
▁efektivn	-11.1278
▁majic	-11.1278
▁spusti	-11.1278
▁profit	-11.1279
▁najverovatnije	-11.1279
▁parking	-11.128
▁prebaci	-11.1281
▁klasičn	-11.1282
▁raspravlja	-11.1283
▁Pun	-11.1284
▁ispuni	-11.1284
▁Рекл	-11.1285
▁метар	-11.1288
▁obrazac	-11.1292
▁programiranj	-11.1292
▁gasov	-11.1293
▁tvit	-11.1294
▁MS	-11.1302
▁191	-11.1304
▁bitan	-11.1305
▁pisal	-11.1313
▁сигурн	-11.1314
▁Želel	-11.1319
▁spasil	-11.1326
▁stub	-11.1336
▁најбољи	-11.134
▁мно	-11.1357
▁otpornost	-11.1387
▁mapira	-11.1408
▁posed	-11.1416
raznim	-11.1429
▁proučavanj	-11.1431
▁nemačk	-11.1444
ујорк	-11.1459
▁mehanizm	-11.1459
▁postignem	-11.1459
▁razdvaja	-11.1459
▁директ	-11.1459
▁мушкарац	-11.1459
▁Robert	-11.1459
▁претпостав	-11.1459
▁mutacij	-11.146
▁transplantacij	-11.146
▁delimično	-11.146
▁Žena	-11.1461
▁jabuk	-11.1462
▁Džer	-11.1463
▁dozvoljen	-11.1463
▁zlatn	-11.1464
▁pozov	-11.1465
▁komand	-11.1465
▁stajal	-11.1465
▁odaber	-11.1467
▁напад	-11.1467
▁pustit	-11.1468
▁regij	-11.1469
▁Тај	-11.1473
▁ebol	-11.1478
▁starenj	-11.1485
▁kuk	-11.1488
▁пун	-11.1492
▁magnet	-11.1507
▁obrazovan	-11.1511
▁nož	-11.1513
▁ubic	-11.1516
▁lanc	-11.1529
▁psihologij	-11.1533
▁policijsk	-11.1545
Д	-11.1557
▁osnov	-11.1559
▁gotov	-11.158
посл	-11.1588
vođenje	-11.1588
▁odgovorn	-11.1591
Т	-11.1592
▁standardn	-11.16
▁Kal	-11.1628
▁uključuju	-11.1636
▁bitk	-11.1637
▁Kup	-11.1637
▁raj	-11.1641
▁neposred	-11.1644
▁Sunčev	-11.1644
▁dramatičn	-11.1644
▁nedostatak	-11.1644
▁procedur	-11.1644
▁proračun	-11.1644
▁reciklira	-11.1644
▁zlostavlja	-11.1644
▁мобилн	-11.1644
▁penzion	-11.1644
▁sarađuju	-11.1644
▁studira	-11.1644
▁pištolj	-11.1644
▁pronalazi	-11.1644
▁izbegn	-11.1644
▁удаљен	-11.1644
▁отишл	-11.1645
▁reagova	-11.1645
▁вечер	-11.1645
▁опасн	-11.1645
▁pogodit	-11.1645
▁sramot	-11.1645
▁napuni	-11.1645
▁sprovodi	-11.1645
▁anket	-11.1645
▁trajn	-11.1646
▁nejasn	-11.1647
▁сцен	-11.1648
burg	-11.1649
▁95	-11.165
▁укључи	-11.165
▁pustim	-11.1652
▁pronalaženj	-11.1656
▁трен	-11.1667
avnom	-11.1672
▁posud	-11.1674
▁puca	-11.1674
▁igric	-11.1676
▁testov	-11.168
▁svež	-11.1681
vetar	-11.1683
▁Нис	-11.1683
▁лед	-11.1695
▁Don	-11.1707
▁muškarac	-11.1716
▁120	-11.1725
▁32	-11.1727
▁спор	-11.1727
okej	-11.173
▁dolar	-11.1738
kultur	-11.1741
▁saosećaj	-11.1742
▁доказ	-11.1755
▁elit	-11.1763
▁saobraćajn	-11.1767
▁prihvatil	-11.1778
▁meso	-11.1786
▁propis	-11.1813
▁čitanj	-11.182
▁унут	-11.1827
▁рачун	-11.1831
▁америчк	-11.1833
▁1950	-11.1833
▁evropsk	-11.1833
▁halucinacij	-11.1833
▁interaktivn	-11.1833
▁oksitocin	-11.1833
▁rezolucij	-11.1833
▁smrtonosn	-11.1833
▁spomenu	-11.1833
▁transformacij	-11.1833
▁Погледај	-11.1833
▁devojak	-11.1833
▁ruraln	-11.1833
▁сателит	-11.1833
▁pogađa	-11.1833
▁japansk	-11.1833
▁neutral	-11.1833
▁obrasc	-11.1833
▁обично	-11.1834
▁купи	-11.1834
▁izvuče	-11.1834
▁kreta	-11.1834
▁zaražen	-11.1834
▁риба	-11.1834
▁izleči	-11.1835
▁рачунар	-11.1836
зује	-11.1836
▁demokratsk	-11.1837
▁iznutr	-11.1839
▁pristupačn	-11.184
▁остави	-11.1843
▁изузетно	-11.185
▁једини	-11.1851
▁grub	-11.1851
▁kopn	-11.1855
▁PM	-11.1856
▁теж	-11.1858
▁Titan	-11.1873
тично	-11.1888
▁sedim	-11.1896
▁rešit	-11.1899
▁demokrat	-11.1927
▁prevaziđ	-11.1953
▁juri	-11.1959
▁zastav	-11.1969
▁magnetn	-11.1975
▁prihvatanj	-11.1976
▁nemoguć	-11.1978
▁огром	-11.1988
▁повезаност	-11.1991
▁obećanj	-11.1996
▁мар	-11.2023
▁испит	-11.2023
▁emocionaln	-11.2025
▁impuls	-11.2025
▁privlačn	-11.2025
▁čokolad	-11.2025
▁генерациј	-11.2025
▁омогућава	-11.2025
▁употреб	-11.2025
▁učestvuju	-11.2025
▁ресурс	-11.2025
▁sklop	-11.2025
▁eksplodira	-11.2025
▁stručnjaci	-11.2025
▁враћа	-11.2025
▁mrzi	-11.2025
▁oduzima	-11.2026
▁izvrši	-11.2026
▁skelet	-11.2026
▁dostignuć	-11.2026
▁микро	-11.2026
▁grudi	-11.2026
▁osvoji	-11.2026
▁mikrofon	-11.2027
▁Nedavn	-11.2027
▁celin	-11.2028
▁komšij	-11.2029
▁sastoji	-11.2029
▁Мек	-11.2029
▁naočar	-11.203
uzvrat	-11.2031
▁Korej	-11.2034
▁носи	-11.2039
▁постане	-11.2045
▁evoluira	-11.2045
▁zaliv	-11.2045
▁kasno	-11.2046
nogama	-11.2049
▁trgov	-11.2049
▁trener	-11.205
▁osmo	-11.2056
naln	-11.2056
▁vrhunsk	-11.2057
▁играч	-11.2065
▁пад	-11.2078
▁kasni	-11.2084
истичк	-11.2091
provod	-11.2094
▁Велик	-11.21
odlučn	-11.2101
▁detaljn	-11.2104
▁чиј	-11.2111
▁lav	-11.2121
▁градов	-11.2164
▁fizi	-11.2166
▁najviš	-11.2176
▁веза	-11.2184
▁дошл	-11.2193
▁мост	-11.22
▁dozvolil	-11.2216
▁početn	-11.2217
▁индустриј	-11.2221
▁Jutjub	-11.2222
▁najlepš	-11.2222
▁oduševljen	-11.2222
▁uspori	-11.2222
▁zaključak	-11.2222
▁долазе	-11.2222
▁искрен	-11.2222
▁trodimenzionaln	-11.2222
▁ilegaln	-11.2222
▁odvratn	-11.2222
▁usvoji	-11.2222
▁anonimn	-11.2222
▁skromn	-11.2222
▁autoritet	-11.2222
▁отвори	-11.2222
▁povezuju	-11.2222
▁Frenk	-11.2222
▁rekord	-11.2222
▁кутиј	-11.2222
▁ужасн	-11.2222
▁Naučil	-11.2222
▁parazit	-11.2222
▁Pravi	-11.2222
▁mentor	-11.2223
▁oboljenj	-11.2223
▁предмет	-11.2224
▁корак	-11.2224
▁запад	-11.2225
▁послу	-11.2225
▁nervoz	-11.2226
▁CO	-11.2229
▁2005	-11.2229
▁izvodi	-11.2229
▁2006	-11.2229
▁očekival	-11.2229
▁28	-11.2233
▁oštr	-11.2233
▁zabavlja	-11.2237
▁najtež	-11.2238
▁iznenađenje	-11.2239
▁судар	-11.2242
стер	-11.2256
▁proša	-11.2256
▁oblikuje	-11.2259
▁tvor	-11.226
▁navodi	-11.2273
▁direktn	-11.2283
глас	-11.2287
▁Džef	-11.2298
▁starost	-11.2306
▁logik	-11.2325
▁noćn	-11.233
▁spušta	-11.2333
▁logo	-11.2355
▁pronaš	-11.2355
▁ribar	-11.2364
изам	-11.2367
▁redovn	-11.2369
лично	-11.2376
▁napušta	-11.2385
▁Reč	-11.2389
▁dinami	-11.2401
▁CRISPR	-11.2422
▁definiše	-11.2422
▁doživljaj	-11.2422
▁marketing	-11.2422
▁neizbežn	-11.2422
▁институциј	-11.2422
▁искористи	-11.2422
▁najsiromašnij	-11.2422
▁oslobođen	-11.2422
▁preporuč	-11.2422
▁снимак	-11.2422
▁Nobelov	-11.2422
▁dvorišt	-11.2422
▁погод	-11.2422
▁гомил	-11.2422
▁екран	-11.2422
▁privred	-11.2422
▁komarac	-11.2422
▁окуп	-11.2422
▁objektivn	-11.2422
▁masivn	-11.2422
▁седам	-11.2422
▁kupovin	-11.2422
▁zbunjen	-11.2423
▁obeća	-11.2423
▁vruć	-11.2424
▁novinama	-11.2425
▁skinu	-11.2429
▁provode	-11.243
▁posetio	-11.243
▁podigl	-11.243
▁ватр	-11.2447
▁popodne	-11.2451
▁unutrašnjost	-11.2456
▁planiranj	-11.2459
▁bogatij	-11.246
▁četvrtin	-11.2461
▁čaj	-11.2505
▁provel	-11.2509
▁побољша	-11.2516
▁zamr	-11.252
▁kulturn	-11.2542
▁одличн	-11.2556
▁Svakak	-11.2556
J	-11.2558
▁једнак	-11.2572
▁stepenic	-11.2575
▁uzrokova	-11.2577
▁venča	-11.2592
▁Hol	-11.261
▁Igra	-11.2612
▁napisal	-11.2614
▁uprav	-11.2614
▁tragov	-11.2616
▁finansiranj	-11.2618
▁рак	-11.2622
▁očigledn	-11.2625
▁Tehnologija	-11.2626
▁glečer	-11.2626
▁implikacij	-11.2626
▁inicijativ	-11.2626
▁izdvoji	-11.2626
▁opravda	-11.2626
▁simulacij	-11.2626
▁skorašnj	-11.2626
▁uplašen	-11.2626
▁veličanstven	-11.2626
▁zaključk	-11.2626
▁Čarls	-11.2626
▁Замисли	-11.2626
▁borav	-11.2626
▁podstiče	-11.2626
▁selekcij	-11.2626
▁добио	-11.2626
▁dečaci	-11.2626
▁Boston	-11.2626
▁zbun	-11.2626
▁Nalazi	-11.2626
▁поверењ	-11.2626
▁Исто	-11.2626
▁Већин	-11.2627
▁Traži	-11.2627
▁uzrast	-11.2627
▁pacov	-11.2628
▁ničeg	-11.2628
▁ušted	-11.2628
▁golub	-11.2629
▁ramen	-11.263
▁šolj	-11.2633
▁privlači	-11.2634
▁dobrobit	-11.2635
добре	-11.2641
ovoljno	-11.2643
▁Želi	-11.2658
▁sećat	-11.2659
▁praznin	-11.2664
▁способност	-11.2671
▁svetov	-11.2682
▁suočen	-11.2686
▁usev	-11.2714
▁manjin	-11.2715
▁zvon	-11.2717
▁održivost	-11.2733
▁читав	-11.2742
▁slučajnost	-11.2749
▁redov	-11.2761
▁eksperimen	-11.2763
Б	-11.2765
▁dosad	-11.2765
učnici	-11.2765
Ž	-11.2772
▁луд	-11.2781
▁pretpostavlja	-11.2794
očito	-11.2829
▁Saturn	-11.2834
▁elemenat	-11.2834
▁institut	-11.2834
▁intervencij	-11.2834
▁laptop	-11.2834
▁usporava	-11.2834
▁Због	-11.2834
▁комуникациј	-11.2834
▁фосфор	-11.2834
▁1960	-11.2834
▁intenzivn	-11.2834
▁dogovor	-11.2834
▁rizičn	-11.2834
▁Upozna	-11.2834
▁услов	-11.2834
▁Koriste	-11.2834
▁podizanj	-11.2834
▁štede	-11.2834
▁zaštićen	-11.2834
▁uspon	-11.2834
▁hvata	-11.2834
▁okrene	-11.2834
▁bubreg	-11.2835
▁Erik	-11.2835
▁ilustr	-11.2835
▁Priličn	-11.2836
▁sruši	-11.2837
▁кајањ	-11.2837
▁sportist	-11.2838
▁veb	-11.284
kombinuj	-11.2841
▁plaka	-11.2843
▁nasleđ	-11.2847
▁uzrokuje	-11.2848
▁propust	-11.2853
▁ubrzava	-11.2864
▁Majkl	-11.2866
▁obećava	-11.2873
▁diplomira	-11.2874
▁везан	-11.2875
▁svesnost	-11.2883
▁bankar	-11.2893
▁raznovrsnost	-11.2915
▁desil	-11.2916
▁paraliz	-11.2923
▁parov	-11.2939
▁Idem	-11.294
▁Volel	-11.295
▁fokus	-11.2954
▁dobij	-11.2957
pisuju	-11.297
▁strel	-11.3007
▁Auto	-11.3008
rtav	-11.3025
▁horizont	-11.3033
▁вредност	-11.3035
▁прошлост	-11.304
▁жив	-11.3041
▁1970	-11.3047
▁MIT	-11.3047
▁aerodrom	-11.3047
▁festival	-11.3047
▁frustrira	-11.3047
▁ohrabri	-11.3047
▁volonter	-11.3047
▁оквир	-11.3047
▁подручј	-11.3047
▁сиромашн	-11.3047
▁факултет	-11.3047
▁bežičn	-11.3047
▁identifikuj	-11.3047
▁izveštava	-11.3047
▁sunčev	-11.3047
▁области	-11.3047
▁pristrasnost	-11.3047
▁pokupi	-11.3047
▁pogodil	-11.3047
▁opseg	-11.3047
▁mužjak	-11.3048
▁isplati	-11.3048
▁колег	-11.3048
▁poželi	-11.3048
▁slonov	-11.3048
▁preteran	-11.3049
▁пренос	-11.305
▁svodi	-11.305
▁kuca	-11.3052
▁реши	-11.3052
▁осам	-11.3054
▁ideologij	-11.3055
▁2004	-11.3055
▁Stiven	-11.3055
▁platn	-11.3057
▁odradi	-11.3062
▁svetlosn	-11.3065
▁Mislil	-11.3071
▁gustin	-11.308
▁Blisko	-11.3085
▁удар	-11.3097
▁zadržava	-11.3098
▁pokretač	-11.3112
▁održavanj	-11.3118
▁Колик	-11.3124
▁значај	-11.3149
▁boc	-11.3177
▁dijet	-11.3178
▁posetil	-11.3194
▁налаз	-11.3198
▁замисл	-11.3199
izgled	-11.3207
arstv	-11.3224
▁crv	-11.3246
▁povrć	-11.3252
какав	-11.3262
▁dinosaurus	-11.3264
▁menstruacij	-11.3264
▁nedostatk	-11.3264
▁preduzetnici	-11.3264
▁psihološk	-11.3264
▁razotkri	-11.3264
▁sofisticiran	-11.3264
▁stanovništva	-11.3264
▁transparentnost	-11.3264
▁uspostavi	-11.3264
▁компликован	-11.3264
▁пољопривред	-11.3264
▁црвен	-11.3264
▁SMS	-11.3264
▁болниц	-11.3264
▁utvrdi	-11.3264
▁plastik	-11.3264
▁savlada	-11.3264
▁тржишт	-11.3264
▁najstarij	-11.3264
▁zasniva	-11.3264
▁šetnj	-11.3264
▁cenzur	-11.3265
▁trajal	-11.3265
▁greša	-11.3265
▁raspored	-11.3265
▁Smit	-11.3265
▁Kuran	-11.3265
▁baterij	-11.3265
▁Braun	-11.3265
▁обзир	-11.3265
гранич	-11.3266
▁galerij	-11.3266
▁Najveć	-11.3266
▁odgaja	-11.3266
▁доктор	-11.3268
▁stiže	-11.3268
▁sezon	-11.327
▁дечак	-11.3272
▁skenira	-11.3275
▁telima	-11.3276
▁Нов	-11.3277
▁preostal	-11.3278
▁постал	-11.3294
▁децениј	-11.3296
▁zvukov	-11.3301
▁vekov	-11.3318
▁ostavil	-11.3332
▁pojedin	-11.3357
laženje	-11.3368
▁krvn	-11.3404
▁izuzet	-11.3411
▁genij	-11.3418
ејл	-11.3433
američk	-11.3436
▁развија	-11.3485
▁subjekt	-11.3486
▁Сједињен	-11.3486
▁1980	-11.3486
▁Jevrej	-11.3486
▁apstraktn	-11.3486
▁dijabetes	-11.3486
▁frižider	-11.3486
▁osmeh	-11.3486
▁označava	-11.3486
▁razmnožava	-11.3486
▁udvostruči	-11.3486
▁vođstv	-11.3486
▁аутомобил	-11.3486
▁догоди	-11.3486
▁доступн	-11.3486
▁потенцијал	-11.3486
▁температур	-11.3486
▁2007.	-11.3486
▁klijent	-11.3486
▁unapređen	-11.3486
▁ајкул	-11.3486
▁Pretpostavljam	-11.3486
▁Добро	-11.3486
▁приход	-11.3486
▁еколошк	-11.3486
▁Ruand	-11.3486
▁poglavlj	-11.3486
▁Završi	-11.3486
▁kćerk	-11.3486
▁Biblij	-11.3486
▁Najbolj	-11.3486
▁pretvore	-11.3486
▁carstv	-11.3486
▁telesn	-11.3486
▁Могу	-11.3486
▁učesnik	-11.3486
▁Atlant	-11.3487
▁истраживач	-11.3487
▁Gospod	-11.3487
▁папир	-11.3487
▁zatraži	-11.3487
▁zbir	-11.3487
▁активности	-11.3487
врата	-11.3488
▁почетак	-11.3488
▁mrak	-11.349
▁Rođen	-11.349
▁Crn	-11.3497
▁homo	-11.3501
▁robov	-11.3514
▁naišl	-11.3537
▁stavov	-11.3553
▁медицинск	-11.3554
▁фотограф	-11.356
▁главн	-11.3583
RNK	-11.3589
▁putoval	-11.3593
priča	-11.3599
▁biolog	-11.3617
П	-11.3671
puste	-11.3678
▁dovoljn	-11.3705
▁2050	-11.3714
▁Ljudsk	-11.3714
▁bonobo	-11.3714
▁demonstracij	-11.3714
▁vertikaln	-11.3714
▁štreber	-11.3714
▁економск	-11.3714
▁коришћењ	-11.3714
▁fleksibiln	-11.3714
▁pozorišt	-11.3714
▁usmerava	-11.3714
▁dopusti	-11.3714
▁ukazuje	-11.3714
▁цвет	-11.3714
▁opažanj	-11.3714
▁adres	-11.3714
▁balans	-11.3714
▁mržnj	-11.3714
pterećen	-11.3714
▁sočiv	-11.3714
▁pesnik	-11.3714
▁последиц	-11.3714
▁Italij	-11.3714
▁uviđa	-11.3714
▁zemljište	-11.3715
▁новинар	-11.3715
▁снаг	-11.3716
▁исту	-11.3716
▁urođen	-11.3716
▁испред	-11.3717
▁primenjuje	-11.3717
▁izuzetak	-11.372
▁efikasnij	-11.3721
▁sedišt	-11.3722
▁Sličn	-11.3728
▁hram	-11.373
▁zatvorenik	-11.3733
▁далеко	-11.3734
▁dinamičn	-11.3737
▁пише	-11.3742
▁otvaranj	-11.3745
▁strav	-11.3753
▁улаз	-11.3766
izoval	-11.3767
▁kolon	-11.3767
▁мотив	-11.3768
▁uporedit	-11.3769
▁čvorov	-11.3814
▁Kraj	-11.3814
▁После	-11.3831
▁значајн	-11.3836
▁Karl	-11.3839
▁истражи	-11.3842
▁ubijanj	-11.3845
▁поставља	-11.3865
▁Seća	-11.3872
▁filozofij	-11.3884
▁kvadratn	-11.3896
▁držal	-11.3902
▁diše	-11.392
осим	-11.3936
▁eksplo	-11.3942
▁Aleksand	-11.3946
▁Menhetn	-11.3946
▁anksioznost	-11.3946
▁arhiv	-11.3946
▁hromozom	-11.3946
▁komšiluk	-11.3946
▁obuhvata	-11.3946
▁piramid	-11.3946
▁predgrađ	-11.3946
▁spektra	-11.3946
▁ваздух	-11.3946
▁километар	-11.3946
▁luksuz	-11.3946
▁kolekcij	-11.3946
▁razočara	-11.3946
hapšen	-11.3946
▁servis	-11.3946
▁местима	-11.3946
▁Pronašl	-11.3946
▁spozna	-11.3946
▁lobanj	-11.3946
▁najnovij	-11.3946
▁tropsk	-11.3946
▁степен	-11.3946
▁povrede	-11.3947
▁požele	-11.3947
▁Крис	-11.3947
▁onoliko	-11.3947
▁cifr	-11.3947
▁nahrani	-11.3947
▁uputstv	-11.3948
▁поврат	-11.3948
▁potres	-11.3948
▁одсто	-11.3949
ritam	-11.3949
▁strip	-11.3951
▁skorij	-11.3952
▁presud	-11.3953
▁korisnici	-11.3955
▁народ	-11.3955
▁usmeri	-11.3957
▁Kralj	-11.3958
▁žurk	-11.3961
▁pogodn	-11.3963
▁odvoji	-11.3966
стављају	-11.3977
▁zmaj	-11.3985
▁muslimansk	-11.403
▁Slik	-11.404
▁etičk	-11.4041
ократ	-11.4051
срећу	-11.4056
▁vrše	-11.4068
▁Smatra	-11.4076
▁amb	-11.4119
▁lavov	-11.4132
▁zdravij	-11.4146
В	-11.4147
▁spašava	-11.4149
▁evoluiral	-11.416
▁dizajnersk	-11.4162
▁препозна	-11.4184
▁професионал	-11.4184
▁Egipt	-11.4184
▁Ubrz	-11.4184
▁beskonačn	-11.4184
▁beskrajn	-11.4184
▁dijagnostik	-11.4184
▁ekvivalent	-11.4184
▁intuitiv	-11.4184
▁kompromis	-11.4184
▁misteriozn	-11.4184
▁najmoćnij	-11.4184
▁odlučuje	-11.4184
▁raspoloženj	-11.4184
▁vlasništv	-11.4184
▁zadivljujuć	-11.4184
▁демократиј	-11.4184
▁понекад	-11.4184
▁среће	-11.4184
▁higijen	-11.4184
▁локалн	-11.4184
▁2013	-11.4184
▁geografsk	-11.4184
▁одрасл	-11.4184
▁Brajan	-11.4184
▁supstanc	-11.4184
▁transakcij	-11.4184
▁veteran	-11.4184
▁susreć	-11.4184
▁zvuci	-11.4184
▁haljin	-11.4184
▁детаљ	-11.4184
▁pljačk	-11.4184
▁четврт	-11.4185
▁брод	-11.4185
▁animacij	-11.4185
▁nadgledanj	-11.4185
▁Никад	-11.4185
▁povredi	-11.4185
▁tapir	-11.4185
▁udalji	-11.4185
▁čudesn	-11.4186
▁данашњ	-11.4186
▁PMS	-11.4186
▁zauzet	-11.4187
▁produktivnost	-11.4189
▁primarn	-11.4189
▁срц	-11.4189
▁paukov	-11.4189
▁сајт	-11.4191
▁uvred	-11.4191
▁pišu	-11.4192
▁pokazatelj	-11.4192
▁paket	-11.4196
▁otvor	-11.4207
▁rastuć	-11.4209
▁супротн	-11.4222
▁Grej	-11.4224
▁učešć	-11.4235
▁kolik	-11.4251
▁лево	-11.4279
▁везу	-11.4282
▁Moguć	-11.4283
▁loptic	-11.4318
▁Tačn	-11.4329
ацион	-11.435
▁кратк	-11.437
▁bed	-11.437
▁nateral	-11.44
efikasnost	-11.4414
▁socio	-11.4427
▁Помисли	-11.4428
▁размисл	-11.4428
▁1990	-11.4428
▁LED	-11.4428
▁centimetar	-11.4428
▁finansija	-11.4428
▁gnezd	-11.4428
▁konstrukcij	-11.4428
▁podsticaj	-11.4428
▁pogođen	-11.4428
▁približno	-11.4428
▁Једно	-11.4428
▁објасни	-11.4428
▁финансијск	-11.4428
▁hipotez	-11.4428
▁дигиталн	-11.4428
▁пећин	-11.4428
▁претходн	-11.4428
▁nesvesn	-11.4428
▁верзиј	-11.4428
▁Palestin	-11.4428
▁potražnj	-11.4428
▁žestok	-11.4428
▁dopamin	-11.4428
▁дубин	-11.4428
▁укључују	-11.4428
позитивн	-11.4428
▁nezgod	-11.4428
▁koledž	-11.4428
▁Vilijam	-11.4428
▁sastojak	-11.4428
▁prašin	-11.4428
▁saradnik	-11.4429
▁kisel	-11.4429
▁иновациј	-11.443
▁odlaze	-11.4431
▁ritm	-11.4435
▁Srednj	-11.444
▁продај	-11.4444
▁pijac	-11.4447
▁prikazuju	-11.4464
▁Staln	-11.4465
▁legaln	-11.4466
▁praktičn	-11.4481
▁đak	-11.4489
▁skok	-11.4501
▁dobijanj	-11.4508
osnivač	-11.4532
▁покушај	-11.4547
веден	-11.4567
▁istražuje	-11.4579
▁разумем	-11.4586
▁traženj	-11.4587
▁postavljanj	-11.4596
▁Pik	-11.4602
▁kopij	-11.4609
▁процен	-11.4635
▁изузет	-11.4656
вуче	-11.4657
▁global	-11.4669
▁grafik	-11.4671
ству	-11.4677
▁Пита	-11.4678
▁Olimpijad	-11.4678
▁filter	-11.4678
▁geometrij	-11.4678
▁paraleln	-11.4678
▁razdvoji	-11.4678
▁регион	-11.4678
▁стигне	-11.4678
▁Norvešk	-11.4678
▁alkohol	-11.4678
▁cveće	-11.4678
▁nevladin	-11.4678
▁uklopi	-11.4678
▁менталн	-11.4678
▁принцип	-11.4678
▁Iznenad	-11.4678
▁pohađa	-11.4678
▁pritisne	-11.4678
▁nenasiln	-11.4678
▁motivisan	-11.4678
▁Sistem	-11.4678
▁postrojenj	-11.4678
▁zračenj	-11.4678
▁prevelik	-11.4678
▁proširen	-11.4678
▁Nastavi	-11.4678
▁Filip	-11.4678
▁zarobljen	-11.4678
▁matric	-11.4678
▁поређењ	-11.4678
▁oklop	-11.4678
▁preživi	-11.4678
▁plaćen	-11.4678
▁odvažn	-11.4679
▁политик	-11.4679
▁Piter	-11.4679
▁povuče	-11.4679
▁vrhunac	-11.468
▁bled	-11.4681
▁motivacij	-11.4681
▁podesi	-11.4681
▁pilul	-11.4682
▁ubistv	-11.4688
▁учинит	-11.4688
▁presek	-11.4689
▁Gebi	-11.4691
▁пева	-11.4692
▁северн	-11.4692
жалос	-11.4697
▁protez	-11.4698
штв	-11.4701
▁очекива	-11.4707
▁prepun	-11.4708
▁Tesl	-11.4708
▁rodil	-11.4733
sigurno	-11.4741
▁mašinsk	-11.4742
▁stvaraoc	-11.4746
▁zadnje	-11.475
▁страниц	-11.475
određen	-11.4761
▁0,	-11.4768
▁десетин	-11.4768
▁silova	-11.4768
▁клим	-11.4768
▁slušanj	-11.477
▁вест	-11.479
изован	-11.4794
▁partnerstv	-11.4795
▁ozbilj	-11.4811
▁вољ	-11.4822
▁Ostal	-11.4822
znatno	-11.4849
javljuje	-11.4866
▁profesional	-11.4873
▁frekvencij	-11.4935
▁kilometr	-11.4935
▁akademsk	-11.4935
▁analogij	-11.4935
▁astronaut	-11.4935
▁blagoslov	-11.4935
▁koncert	-11.4935
▁narandžast	-11.4935
▁preokret	-11.4935
▁proizvođač	-11.4935
▁samopouzdanj	-11.4935
▁sendvič	-11.4935
▁uznemirava	-11.4935
▁uznemiren	-11.4935
▁анализ	-11.4935
▁подршк	-11.4935
▁јединствен	-11.4935
▁2014	-11.4935
▁mušterij	-11.4935
▁napušten	-11.4935
▁Hauard	-11.4935
▁mrze	-11.4935
▁mejlov	-11.4935
▁бактериј	-11.4935
▁proslav	-11.4935
▁zauzima	-11.4935
▁zarađuje	-11.4935
▁skener	-11.4935
▁tanjir	-11.4935
▁imitira	-11.4935
▁Prirod	-11.4935
▁nekolicin	-11.4935
▁dominira	-11.4936
▁zatvara	-11.4936
▁pasivn	-11.4936
▁изгради	-11.4936
хваљуј	-11.4936
▁duhovn	-11.4936
▁kosmos	-11.4936
▁zagrevanj	-11.4937
▁privukl	-11.4937
▁снимк	-11.4937
▁Abed	-11.4938
▁zrak	-11.4938
▁provedem	-11.4938
▁naslika	-11.4938
▁успешн	-11.4939
▁Učini	-11.4939
▁lanac	-11.4941
▁донос	-11.4942
▁sahran	-11.4942
▁klon	-11.4942
▁narko	-11.4946
▁gluv	-11.4948
▁укус	-11.4951
▁назва	-11.4957
▁наредн	-11.4961
▁doživel	-11.4961
▁krivičn	-11.4978
▁proseč	-11.4982
▁tečn	-11.4987
▁Мисли	-11.4997
▁interesovanj	-11.5
▁funkcionisa	-11.502
▁novinarstv	-11.5024
▁napredoval	-11.5025
grafija	-11.5028
▁građ	-11.5059
▁тешк	-11.5094
▁десет	-11.5107
▁telefonsk	-11.5109
▁trikov	-11.5138
▁врх	-11.5164
zemaljsk	-11.5198
▁Rezultat	-11.5198
▁elektran	-11.5198
▁gravitacion	-11.5198
▁identifikova	-11.5198
▁insulin	-11.5198
▁integrisan	-11.5198
▁invaliditet	-11.5198
▁izvođač	-11.5198
▁književnost	-11.5198
▁ljubomor	-11.5198
▁paradoks	-11.5198
▁profesij	-11.5198
▁smišlja	-11.5198
▁tendencij	-11.5198
▁teritorij	-11.5198
▁буквалн	-11.5198
▁непознат	-11.5198
▁риболов	-11.5198
▁сарадњ	-11.5198
▁снажн	-11.5198
▁фантастич	-11.5198
▁шимпанз	-11.5198
▁cipele	-11.5198
▁nepravd	-11.5198
▁vibrira	-11.5198
▁зелен	-11.5198
▁брзин	-11.5198
▁ризик	-11.5198
▁olovk	-11.5198
▁кредит	-11.5198
▁izlaganj	-11.5198
▁trajanj	-11.5198
▁стално	-11.5198
▁iskusil	-11.5198
▁средств	-11.5198
▁одмах	-11.5198
▁učesnici	-11.5198
▁речениц	-11.5198
▁zadnji	-11.5198
▁Ствар	-11.5198
▁метод	-11.5198
▁melodij	-11.5198
▁pobeđuj	-11.5199
▁Glavn	-11.5199
▁umeša	-11.5199
▁Butan	-11.5199
▁penis	-11.52
▁greši	-11.52
▁podiže	-11.52
▁stručn	-11.5201
▁најмањ	-11.5202
▁sastojk	-11.5203
▁pojas	-11.5204
▁učestal	-11.5209
▁postajal	-11.5211
▁околин	-11.5215
▁poraz	-11.5223
▁pokazać	-11.5235
▁доживљава	-11.5241
▁pozval	-11.5248
▁допр	-11.5248
▁бог	-11.5259
▁primanj	-11.5259
▁etik	-11.5261
кратко	-11.5262
▁hlad	-11.5268
▁računarsk	-11.5284
▁чист	-11.5291
▁Epl	-11.5357
▁raznovrsn	-11.5363
▁izvođenj	-11.5365
▁složenij	-11.5365
▁prestal	-11.5435
▁састав	-11.5447
▁konačn	-11.5454
▁креира	-11.5465
▁supermarket	-11.5468
▁Institut	-11.5468
▁kriterijum	-11.5468
▁magazin	-11.5468
▁rasprostranjen	-11.5468
▁raširi	-11.5468
▁rukopis	-11.5468
▁sponzor	-11.5468
▁Друга	-11.5468
▁Користи	-11.5468
▁заснован	-11.5468
▁омиљен	-11.5468
▁притисак	-11.5468
▁садржај	-11.5468
▁izgovara	-11.5468
▁čoveč	-11.5468
▁изненад	-11.5468
▁oktobr	-11.5468
▁registr	-11.5468
▁smanjuju	-11.5468
▁топлот	-11.5468
▁Kongres	-11.5468
▁задрж	-11.5468
▁klavir	-11.5468
▁određuje	-11.5468
▁банк	-11.5468
▁prašum	-11.5468
▁sintetičk	-11.5468
▁laser	-11.5468
▁јужн	-11.5468
▁matematičar	-11.5468
▁oprosti	-11.5468
▁отпад	-11.5468
▁uniform	-11.5469
▁блог	-11.5469
▁твој	-11.5469
▁valut	-11.5469
▁proverava	-11.547
▁Pobed	-11.547
▁odsustv	-11.5471
▁poseduju	-11.5471
▁Ključ	-11.5472
▁podvodn	-11.5473
▁nišan	-11.5475
▁oznak	-11.5477
▁понашање	-11.5478
▁ужива	-11.5478
▁komadić	-11.548
▁oblaci	-11.548
▁izrek	-11.5499
▁partij	-11.5514
▁Postal	-11.5527
▁računanj	-11.5528
▁tragičn	-11.5533
▁Istočn	-11.5546
▁otkaz	-11.5585
▁lišć	-11.5609
▁psiholog	-11.5633
▁delovanj	-11.5641
▁popular	-11.5665
▁upis	-11.5666
▁snabdevanj	-11.5679
▁izbegl	-11.5684
▁догађа	-11.573
▁instinkt	-11.5745
▁pojednostav	-11.5746
▁2015	-11.5746
▁angažuj	-11.5746
▁džinovsk	-11.5746
▁opipljiv	-11.5746
▁poduhvat	-11.5746
▁prosperitet	-11.5746
▁psihijatr	-11.5746
▁religiozn	-11.5746
▁rezonanc	-11.5746
▁sporazum	-11.5746
▁transformisa	-11.5746
▁upozorenj	-11.5746
▁vebsajt	-11.5746
▁zagonetk	-11.5746
▁Осећа	-11.5746
▁вакцин	-11.5746
▁међусобн	-11.5746
▁смањи	-11.5746
▁хоће	-11.5746
▁trideset	-11.5746
▁хладн	-11.5746
▁nestabiln	-11.5746
▁prekriven	-11.5746
▁земаљ	-11.5746
▁kosmičk	-11.5746
▁obnavlja	-11.5746
▁premijer	-11.5746
▁tkanin	-11.5746
▁Iskren	-11.5746
▁žudnj	-11.5746
▁никакв	-11.5746
▁konzervativn	-11.5746
▁развије	-11.5746
▁помаже	-11.5746
▁osmišljen	-11.5746
▁ispunjava	-11.5746
споставља	-11.5746
▁ispoljava	-11.5746
▁označi	-11.5746
▁Endru	-11.5746
▁реакциј	-11.5746
▁membran	-11.5746
▁baziran	-11.5746
▁odobren	-11.5746
▁верују	-11.5746
▁hleb	-11.5746
▁kablov	-11.5747
▁tragedij	-11.5747
▁припрем	-11.5747
▁bioskop	-11.5747
▁uporn	-11.5747
▁optimiza	-11.5747
▁svedok	-11.5748
▁klinc	-11.5748
▁akcion	-11.5749
▁научник	-11.5749
Š	-11.5753
▁preduzm	-11.5753
Z	-11.5754
▁zmij	-11.5755
▁баз	-11.5769
▁Pokaza	-11.578
puštaju	-11.5816
▁vinsk	-11.5833
đ	-11.5878
▁roditeljstv	-11.5902
▁napustil	-11.5906
▁prijateljstv	-11.5924
▁obič	-11.5944
▁задовољ	-11.5945
▁верује	-11.5946
▁писм	-11.5992
▁општ	-11.5994
▁машт	-11.6
▁сопств	-11.6023
▁Bangladeš	-11.6031
▁Bruklin	-11.6031
▁Filadelfij	-11.6031
▁Istraživanj	-11.6031
▁Singapur	-11.6031
▁arhitektonsk	-11.6031
▁helikopter	-11.6031
▁instalacij	-11.6031
▁konzumira	-11.6031
▁neograničen	-11.6031
▁ograničava	-11.6031
▁pozajmi	-11.6031
▁redosled	-11.6031
▁stereotip	-11.6031
▁takmiči	-11.6031
▁ubrizga	-11.6031
▁архитект	-11.6031
▁вештин	-11.6031
▁готов	-11.6031
▁гребен	-11.6031
▁здравствен	-11.6031
▁климатск	-11.6031
▁креће	-11.6031
▁социјалн	-11.6031
▁Peking	-11.6031
▁Teksas	-11.6031
▁embrion	-11.6031
▁glagol	-11.6031
▁policajc	-11.6031
▁dragocen	-11.6031
▁studio	-11.6031
▁vikend	-11.6031
▁obučava	-11.6032
▁Videće	-11.6032
▁sindrom	-11.6032
▁Odrasta	-11.6032
▁invalid	-11.6032
▁Četiri	-11.6032
▁робот	-11.6032
▁poklapa	-11.6032
▁авион	-11.6032
▁Albert	-11.6032
▁očajničk	-11.6032
▁вирус	-11.6032
▁udobn	-11.6032
одржив	-11.6032
▁линк	-11.6032
▁neželjen	-11.6032
▁Dolazi	-11.6032
▁Izvini	-11.6032
▁železnic	-11.6032
▁izolacij	-11.6032
▁Važn	-11.6032
▁bavljenj	-11.6032
▁vrhunc	-11.6032
▁Мајк	-11.6032
▁Kasnij	-11.6032
▁namenjen	-11.6032
▁oslon	-11.6033
skraćen	-11.6033
▁uzgoj	-11.6033
▁постојал	-11.6033
▁skloništ	-11.6033
▁Прав	-11.6034
▁израз	-11.6036
▁citira	-11.6036
▁позва	-11.6037
▁Cilj	-11.6037
▁menjanj	-11.6037
▁David	-11.6038
▁požar	-11.6039
▁Отиш	-11.604
▁kabin	-11.6041
▁случајев	-11.6043
▁polarn	-11.6045
▁pustil	-11.6045
▁varira	-11.6052
▁poplav	-11.6053
▁наград	-11.6056
▁međusobn	-11.6062
▁prilagođavanj	-11.6103
▁Nijedn	-11.6113
▁magl	-11.6149
▁узел	-11.6184
▁проучава	-11.6193
▁vlast	-11.6206
▁efikas	-11.6226
▁dopušta	-11.6229
▁стариј	-11.6229
blaž	-11.6238
dimenzionaln	-11.6326
▁ignorisa	-11.6326
▁појединачн	-11.6326
▁Bendžamin	-11.6326
▁Kraljevstv	-11.6326
▁Napisa	-11.6326
▁Parkinsonov	-11.6326
▁doslovno	-11.6326
▁evolutivn	-11.6326
▁geografij	-11.6326
▁hemoterapij	-11.6326
▁inficira	-11.6326
▁konkurencij	-11.6326
▁paradigm	-11.6326
▁pedeset	-11.6326
▁potroše	-11.6326
▁sarađiva	-11.6326
▁specijalizovan	-11.6326
▁vazdušn	-11.6326
▁štednj	-11.6326
▁Понекад	-11.6326
▁виртуелн	-11.6326
▁диплом	-11.6326
▁инфраструктур	-11.6326
▁кампањ	-11.6326
▁микроскоп	-11.6326
▁немогућ	-11.6326
▁омогући	-11.6326
▁gužv	-11.6326
▁istražuju	-11.6326
▁udruži	-11.6326
▁zarađuju	-11.6326
▁Izgubi	-11.6326
▁Džastin	-11.6326
▁prosvet	-11.6326
▁хемиј	-11.6326
▁podešava	-11.6326
▁учитељ	-11.6326
▁služe	-11.6326
▁жрт	-11.6326
ографиј	-11.6326
▁pozornic	-11.6326
▁kružn	-11.6326
▁potrud	-11.6326
▁preselil	-11.6326
▁kondom	-11.6326
▁minimaln	-11.6326
▁fuzij	-11.6326
▁стигл	-11.6327
▁ретк	-11.6329
▁pojede	-11.6329
▁dugačk	-11.633
▁odustaj	-11.633
▁пораст	-11.6331
вши	-11.6332
▁лист	-11.6333
▁vojnici	-11.6337
▁leptir	-11.6339
▁donacij	-11.634
▁plesač	-11.634
▁Nazva	-11.6341
једина	-11.6344
▁egz	-11.6353
▁Napravil	-11.6355
▁kapitalizm	-11.6361
▁Njutn	-11.6364
▁Apol	-11.6366
▁fenomenaln	-11.6392
▁размишљање	-11.6528
▁kuvanj	-11.6533
▁osiguranj	-11.6554
▁просториј	-11.6565
▁radikal	-11.6576
razumljiv	-11.6577
▁izučavanj	-11.6586
▁optimist	-11.6624
▁изазива	-11.6629
▁rukovodi	-11.6629
▁Detroit	-11.6629
▁Dizajn	-11.6629
▁Kolumbij	-11.6629
▁Kompanij	-11.6629
▁ceremonij	-11.6629
▁diskriminacij	-11.6629
▁distribucij	-11.6629
▁hardver	-11.6629
▁hijerarhij	-11.6629
▁nezamisliv	-11.6629
▁osnaži	-11.6629
▁poteškoć	-11.6629
▁raširen	-11.6629
▁saopšti	-11.6629
▁vanzemaljc	-11.6629
▁vulkan	-11.6629
▁zabeleži	-11.6629
▁визуелн	-11.6629
▁заборави	-11.6629
▁квалитет	-11.6629
▁модерн	-11.6629
▁партнер	-11.6629
▁припада	-11.6629
▁услуг	-11.6629
▁Gejts	-11.6629
▁netaknut	-11.6629
▁odštampa	-11.6629
▁spontan	-11.6629
▁сложен	-11.6629
▁kongres	-11.6629
▁album	-11.6629
▁postupk	-11.6629
▁prefinjen	-11.6629
▁sarađujem	-11.6629
▁блок	-11.6629
▁obrađuje	-11.6629
▁usredsred	-11.6629
▁informati	-11.6629
▁Postojal	-11.6629
▁одлази	-11.6629
▁mehanik	-11.6629
▁pomeša	-11.6629
▁novčanic	-11.6629
▁Без	-11.6629
▁prikupljanj	-11.6629
▁doživi	-11.6629
▁okupljanj	-11.6629
▁zastarel	-11.6629
▁bitkoin	-11.6629
▁плаћа	-11.6629
▁podlož	-11.663
▁половин	-11.663
▁barijer	-11.663
▁mesečn	-11.663
▁висин	-11.663
▁decembr	-11.6631
▁просек	-11.6632
▁Projek	-11.6632
ерсон	-11.6633
▁сними	-11.6634
▁hidro	-11.6635
▁pakovanj	-11.6637
▁нечег	-11.6638
▁прелаз	-11.664
▁канал	-11.6641
▁комад	-11.6654
▁леков	-11.6663
▁pominj	-11.6665
▁umiranj	-11.6666
▁priznanj	-11.6691
▁појм	-11.6698
▁uličn	-11.6761
suviš	-11.6853
▁zainteresova	-11.6864
bjekat	-11.6913
▁формира	-11.6937
▁mehur	-11.6938
▁Pretpostav	-11.6941
▁дозвољава	-11.6941
▁Fondacij	-11.6941
▁Jupiter	-11.6941
▁Leonard	-11.6941
▁ambiciozn	-11.6941
▁anatomij	-11.6941
▁bespilotn	-11.6941
▁dobrotvorn	-11.6941
▁ljubazn	-11.6941
▁majstor	-11.6941
▁milenijum	-11.6941
▁osamdeset	-11.6941
▁paradajz	-11.6941
▁pogotov	-11.6941
▁preokrenu	-11.6941
▁pripovedanj	-11.6941
▁sedamdeset	-11.6941
▁suptiln	-11.6941
▁tastatur	-11.6941
▁Британиј	-11.6941
▁Последњ	-11.6941
▁Потребн	-11.6941
▁економиј	-11.6941
▁канцелариј	-11.6941
▁квадрат	-11.6941
▁контекст	-11.6941
▁поседуј	-11.6941
▁сиромаштв	-11.6941
▁узбуђен	-11.6941
▁jevrejsk	-11.6941
▁Čikag	-11.6941
▁neurološk	-11.6941
▁patogen	-11.6941
▁zagušen	-11.6941
▁brutaln	-11.6941
▁feministkinj	-11.6941
▁najmlađ	-11.6941
▁očekuju	-11.6941
▁špansk	-11.6941
▁okrutn	-11.6941
▁Zeland	-11.6941
▁приватн	-11.6941
▁Liberij	-11.6941
▁vagin	-11.6941
▁Покуша	-11.6941
▁ефект	-11.6941
▁operativn	-11.6941
▁магиј	-11.6941
▁molitv	-11.6941
▁gube	-11.6941
▁donator	-11.6942
▁kupatil	-11.6942
▁шок	-11.6942
▁прихвати	-11.6942
▁девет	-11.6942
▁zaljubi	-11.6943
▁opišem	-11.6943
▁izmerit	-11.6943
▁tržni	-11.6945
▁snimci	-11.6946
▁Takv	-11.6947
ондон	-11.6947
▁напољ	-11.6947
▁sperm	-11.6947
▁Pozva	-11.6948
▁majc	-11.695
▁сунц	-11.6951
▁anten	-11.6954
▁блиск	-11.6956
▁зараз	-11.6958
uzročn	-11.6962
▁ispušta	-11.6973
zbrisa	-11.6979
kupljen	-11.6981
▁струј	-11.6981
▁spašavanj	-11.6987
▁belc	-11.6996
▁мушкарц	-11.6997
▁krađ	-11.7029
▁izražava	-11.7055
▁осигура	-11.7061
▁sebičn	-11.7081
▁kapitaliza	-11.7106
▁несрећ	-11.7113
▁ponavljanj	-11.7123
▁sudij	-11.7124
▁težnj	-11.7136
▁versk	-11.7144
▁pomeranj	-11.7189
▁разумевањ	-11.7196
propasti	-11.7202
▁комуницира	-11.7226
bakterij	-11.7247
▁понаша	-11.7252
сигуран	-11.7259
▁потпун	-11.7261
▁Северн	-11.7264
годишњи	-11.7264
▁Društven	-11.7264
▁Etiopij	-11.7264
▁NSA	-11.7264
▁agresivn	-11.7264
▁bejzbol	-11.7264
▁besmislen	-11.7264
▁elegantn	-11.7264
▁februar	-11.7264
▁hemisfer	-11.7264
▁ignoriše	-11.7264
▁iznenađuje	-11.7264
▁najznačajnij	-11.7264
▁neprekidn	-11.7264
▁novorođen	-11.7264
▁obezbeđuje	-11.7264
▁pingvin	-11.7264
▁specijalist	-11.7264
▁suprotstavi	-11.7264
▁sveprisutn	-11.7264
▁благо	-11.7264
▁господ	-11.7264
▁елемент	-11.7264
▁пажљиво	-11.7264
▁покрену	-11.7264
▁претвори	-11.7264
▁ALS	-11.7264
▁pregovara	-11.7264
▁pukotin	-11.7264
▁генерал	-11.7264
▁ефикас	-11.7264
▁термин	-11.7264
▁ovlada	-11.7264
▁prepusti	-11.7264
▁rođaci	-11.7264
▁penzij	-11.7264
▁slomljen	-11.7264
▁sugeriše	-11.7264
ранцуск	-11.7264
▁grafit	-11.7264
▁јефтин	-11.7264
▁odražava	-11.7264
▁humor	-11.7264
▁узрок	-11.7264
▁vibracij	-11.7264
▁Ugand	-11.7264
▁izobilj	-11.7264
▁postignuć	-11.7264
▁Јапан	-11.7265
▁zgodn	-11.7265
▁Сећа	-11.7265
▁najniž	-11.7268
▁optimističn	-11.727
▁биљк	-11.727
▁метал	-11.7278
▁битн	-11.729
▁mastil	-11.731
▁brkov	-11.7316
▁komedij	-11.7329
▁suđenj	-11.7334
▁Potreb	-11.7355
дошли	-11.7381
enstveno	-11.7407
▁totaln	-11.7452
▁čvor	-11.7455
▁Divn	-11.7465
▁razmisl	-11.7466
oraln	-11.7482
▁digital	-11.7486
▁društ	-11.7532
▁pretraživ	-11.7596
▁Ljubav	-11.7597
▁Ministarstv	-11.7597
▁Stenford	-11.7597
▁Tanzanij	-11.7597
▁autističn	-11.7597
▁briljantn	-11.7597
▁dugotrajn	-11.7597
▁fantastik	-11.7597
▁imigracij	-11.7597
▁kraljevstv	-11.7597
▁omogućuje	-11.7597
▁preduzetništv	-11.7597
▁pripovedač	-11.7597
▁simulira	-11.7597
▁transformiše	-11.7597
▁trotoar	-11.7597
▁šešir	-11.7597
▁гравитациј	-11.7597
▁инжењер	-11.7597
▁исхран	-11.7597
▁револуциј	-11.7597
▁самоубиств	-11.7597
▁стандард	-11.7597
▁узбудљив	-11.7597
▁фактор	-11.7597
▁džamij	-11.7597
▁entitet	-11.7597
▁ribolov	-11.7597
▁sasluša	-11.7597
▁spomenik	-11.7597
▁Četvrt	-11.7597
▁обезбеди	-11.7597
▁округ	-11.7597
▁поклон	-11.7597
▁Slobod	-11.7597
▁stratešk	-11.7597
▁недавн	-11.7597
▁пошаљ	-11.7597
▁zapažanj	-11.7597
▁интеракциј	-11.7597
▁повред	-11.7597
▁monitor	-11.7597
▁najbitnij	-11.7597
▁piletin	-11.7597
▁изабра	-11.7597
▁тврд	-11.7597
▁Ostavi	-11.7597
▁izdavač	-11.7597
▁prikladn	-11.7597
▁uslika	-11.7597
▁ujedinjen	-11.7597
▁čarobn	-11.7597
▁rezervoar	-11.7597
▁Španij	-11.7597
linearn	-11.7598
▁ponizn	-11.7598
▁плес	-11.7598
пркос	-11.7599
▁ilustracij	-11.76
▁mehurić	-11.76
▁košnic	-11.76
▁kanalizacij	-11.7601
▁problematičn	-11.7602
▁sigurnosn	-11.7608
▁banan	-11.7611
▁izvukl	-11.7616
▁kugl	-11.7622
odnevn	-11.7638
▁fantastič	-11.7646
▁довел	-11.7647
▁jagnj	-11.7697
▁задовољств	-11.7699
▁eksperimentaln	-11.7755
▁apsolutn	-11.777
verovatnije	-11.7795
strasn	-11.7814
истич	-11.7817
▁pozitiv	-11.7841
▁skeniranj	-11.7925
▁nedostaja	-11.7942
ritAm	-11.7942
▁Apsolutno	-11.7942
▁Bukval	-11.7942
▁adaptacij	-11.7942
▁brazilsk	-11.7942
▁doživotn	-11.7942
▁grafičk	-11.7942
▁inflacij	-11.7942
▁obezbeđenj	-11.7942
▁performans	-11.7942
▁policajac	-11.7942
▁prouzrokova	-11.7942
▁ubedljiv	-11.7942
▁Švajcarsk	-11.7942
▁špijun	-11.7942
▁Дозволи	-11.7942
▁Друго	-11.7942
▁Месец	-11.7942
▁Направи	-11.7942
▁анатомиј	-11.7942
▁епидемиј	-11.7942
▁конференциј	-11.7942
▁расправ	-11.7942
▁софтвер	-11.7942
▁Florid	-11.7942
▁JUK	-11.7942
▁ambasad	-11.7942
▁izraelsk	-11.7942
▁ćošk	-11.7942
▁инспириса	-11.7942
▁неједнак	-11.7942
▁уређај	-11.7942
▁povređen	-11.7942
▁ТВ	-11.7942
▁nalepnic	-11.7942
▁кондом	-11.7942
▁parlament	-11.7942
▁zarađiva	-11.7942
▁genocid	-11.7942
▁nasmeja	-11.7942
▁Započe	-11.7942
▁enzim	-11.7942
▁margin	-11.7942
▁metaboliz	-11.7942
▁krupn	-11.7942
▁otkad	-11.7942
▁pretraživač	-11.7943
▁kristal	-11.7943
▁mleko	-11.7943
▁mlaz	-11.7944
▁krvotok	-11.7945
▁odabir	-11.7947
▁птиц	-11.7948
▁dlak	-11.7949
▁бројев	-11.7957
▁учинил	-11.7959
▁Predstav	-11.796
▁zapošljavanj	-11.7964
▁публик	-11.7967
▁čizm	-11.797
▁kreativ	-11.7973
▁funkcionisanj	-11.798
▁борб	-11.7987
▁adolescencij	-11.7988
троје	-11.7989
▁umiral	-11.8071
успели	-11.8086
▁inženjerstv	-11.8108
▁празн	-11.8126
▁изврш	-11.8174
▁oslobađanj	-11.8195
▁adolescen	-11.8251
▁једностав	-11.8252
▁1998	-11.8299
▁1999	-11.8299
▁Centraln	-11.8299
▁Egipćan	-11.8299
▁blokčejn	-11.8299
▁konvencionaln	-11.8299
▁korporativn	-11.8299
▁lestvic	-11.8299
▁literatur	-11.8299
▁nekretnin	-11.8299
▁pokvaren	-11.8299
▁razdvojen	-11.8299
▁udžbenik	-11.8299
▁vlasnici	-11.8299
▁zamrznut	-11.8299
▁đubre	-11.8299
▁апликациј	-11.8299
▁извештај	-11.8299
▁молекул	-11.8299
▁операциј	-11.8299
▁посвећен	-11.8299
▁соларн	-11.8299
▁треће	-11.8299
▁Latinsk	-11.8299
▁finansije	-11.8299
▁hroničn	-11.8299
▁odstupanj	-11.8299
▁pirinča	-11.8299
▁замишља	-11.8299
▁asisten	-11.8299
▁garantuje	-11.8299
▁порекл	-11.8299
▁хаос	-11.8299
▁kombinovan	-11.8299
▁прочита	-11.8299
▁najneverovatnij	-11.8299
▁prevazilazi	-11.8299
▁košark	-11.8299
▁Наташ	-11.8299
▁stanovišt	-11.8299
▁допринос	-11.8299
▁музичк	-11.8299
▁zapremin	-11.8299
▁rizici	-11.8299
▁izvršn	-11.8299
▁bizarn	-11.8299
▁subjektivn	-11.8299
▁pritvor	-11.8299
▁девојк	-11.8299
▁uplaši	-11.83
▁prevencij	-11.83
▁dejstv	-11.83
▁Henri	-11.8301
▁талас	-11.8302
▁објект	-11.8302
▁додир	-11.8303
▁Надам	-11.8304
▁притиск	-11.8306
▁blizanc	-11.8307
▁intimn	-11.8308
▁davaoc	-11.8308
▁skriva	-11.8311
▁насиљ	-11.8318
▁невероват	-11.8351
▁акциј	-11.8353
▁matemati	-11.8358
▁disanj	-11.8361
▁venčanj	-11.8362
▁nasledn	-11.838
О	-11.8384
▁прављењ	-11.8414
▁biografij	-11.8416
▁nalaženj	-11.8468
▁uključe	-11.8489
▁letenj	-11.849
▁školovanj	-11.857
poznavanje	-11.8583
▁1984	-11.8669
▁FBI	-11.8669
▁Majkrosoft	-11.8669
▁Shvata	-11.8669
▁TEDTalk	-11.8669
▁Zaboravi	-11.8669
▁autentičn	-11.8669
▁bambus	-11.8669
▁beskorisn	-11.8669
▁beskućnik	-11.8669
▁egipatsk	-11.8669
▁ekspedicij	-11.8669
▁humanitarn	-11.8669
▁insistira	-11.8669
▁integracij	-11.8669
▁intenzitet	-11.8669
▁italijansk	-11.8669
▁kičmen	-11.8669
▁kukuruz	-11.8669
▁menadžment	-11.8669
▁močvar	-11.8669
▁najuzbudljivij	-11.8669
▁nepraviln	-11.8669
▁neprofitn	-11.8669
▁prouzrokuj	-11.8669
▁televizor	-11.8669
▁uznemirujuć	-11.8669
▁varijant	-11.8669
▁štriklira	-11.8669
▁Публик	-11.8669
▁нарочито	-11.8669
▁очекује	-11.8669
▁подморниц	-11.8669
▁почињу	-11.8669
▁уметничк	-11.8669
▁целокупн	-11.8669
▁човечанств	-11.8669
▁Prijatelj	-11.8669
▁besmrtn	-11.8669
▁imigran	-11.8669
▁iskušenj	-11.8669
▁oponaša	-11.8669
▁pečurk	-11.8669
▁regeneriš	-11.8669
▁relevantn	-11.8669
▁ružičast	-11.8669
▁simfonij	-11.8669
▁znatiželj	-11.8669
▁osvrnem	-11.8669
▁Šangaj	-11.8669
▁Изгледа	-11.8669
▁фирм	-11.8669
▁преживе	-11.8669
▁уметник	-11.8669
стигну	-11.8669
▁ponuđen	-11.8669
▁utakmic	-11.8669
▁čišćenj	-11.8669
▁остриг	-11.8669
▁odustanem	-11.8669
kotrlja	-11.8669
▁Sijetl	-11.867
▁izmenjen	-11.867
▁talenat	-11.867
▁Zelen	-11.867
▁склад	-11.867
памтит	-11.867
арлс	-11.867
▁кинеск	-11.867
▁Devojk	-11.867
▁prigrl	-11.867
▁privuče	-11.867
▁Mašin	-11.867
▁čamc	-11.867
▁ambicij	-11.8671
▁dostigl	-11.8671
▁trudnoć	-11.8671
▁kalorij	-11.8671
▁april	-11.8672
мисао	-11.8673
▁plodn	-11.8673
▁bakterijsk	-11.8674
▁zapovest	-11.8675
▁горив	-11.8678
▁полициј	-11.868
▁posedovanj	-11.8692
▁boginj	-11.8699
▁odrastanj	-11.8783
▁ниједн	-11.8849
▁osniva	-11.8892
▁претвара	-11.891
▁izražavanj	-11.8916
▁pomisl	-11.8928
▁silovanj	-11.8935
▁negativ	-11.8968
▁казн	-11.8997
▁izgradil	-11.9025
▁dvanaest	-11.9051
▁Arhitekt	-11.9054
▁Jerusalim	-11.9054
▁Kembridž	-11.9054
▁NVO	-11.9054
▁Napravljen	-11.9054
▁Oksford	-11.9054
▁Zimbabve	-11.9054
▁administracij	-11.9054
▁dominantn	-11.9054
▁eksponencijaln	-11.9054
▁interpretacij	-11.9054
▁isključen	-11.9054
▁mađioničar	-11.9054
▁nagoveštava	-11.9054
▁obaveštajn	-11.9054
▁otkucaj	-11.9054
▁pantalon	-11.9054
▁prihvaćen	-11.9054
▁rehabilitacij	-11.9054
▁stanovništvo	-11.9054
▁udruženj	-11.9054
▁vizualizacij	-11.9054
▁zabeležen	-11.9054
▁švajcarsk	-11.9054
▁Коначн	-11.9054
▁искључи	-11.9054
▁колапс	-11.9054
▁обожава	-11.9054
▁објашњава	-11.9054
▁осетљив	-11.9054
▁председник	-11.9054
▁функциј	-11.9054
▁Britansk	-11.9054
▁Silicijumsk	-11.9054
▁altruist	-11.9054
▁distribuira	-11.9054
▁eliminiš	-11.9054
▁konkurent	-11.9054
▁mršav	-11.9054
▁najpoznatij	-11.9054
▁nezaposlen	-11.9054
▁slagalic	-11.9054
▁одабра	-11.9054
▁окрену	-11.9054
▁ослободи	-11.9054
▁потрошач	-11.9054
▁Taliban	-11.9054
▁porođaj	-11.9054
▁preplavljen	-11.9054
▁tržišn	-11.9054
▁etničk	-11.9054
▁искуси	-11.9054
▁samoubistv	-11.9054
▁zaglavljen	-11.9054
▁bezbroj	-11.9054
▁pokriven	-11.9054
▁Proučava	-11.9054
▁stadion	-11.9054
▁глуп	-11.9054
▁Viktor	-11.9054
▁Одговор	-11.9054
▁domaćinstv	-11.9054
▁estetsk	-11.9054
▁optimizm	-11.9054
▁neformaln	-11.9054
▁pionir	-11.9054
▁глум	-11.9054
▁košulj	-11.9054
▁појављуј	-11.9054
▁kancer	-11.9054
▁genetik	-11.9054
▁sagoreva	-11.9055
▁tenzij	-11.9055
▁Buduć	-11.9055
▁zablud	-11.9055
▁глад	-11.9055
▁Haitij	-11.9055
▁uvedem	-11.9055
▁научници	-11.9055
▁заинтересован	-11.9055
▁спремн	-11.9055
▁коцк	-11.9055
▁поправ	-11.9055
▁шаљ	-11.9056
▁kornjač	-11.9056
▁добробит	-11.9056
▁опрем	-11.9057
▁mirovn	-11.9057
▁гол	-11.9057
▁rangira	-11.9058
▁bušen	-11.9059
бринут	-11.906
▁знање	-11.9107
▁primenjiv	-11.9132
planetarn	-11.9134
▁poveruj	-11.915
▁neophod	-11.9179
▁исправн	-11.9235
▁izmišlj	-11.9299
▁студен	-11.9341
▁kreiranj	-11.9368
▁direkt	-11.9396
▁честиц	-11.9404
▁umetn	-11.942
▁zatvaranj	-11.9453
▁1975	-11.9454
▁1989	-11.9454
▁Indonezij	-11.9454
▁Vijetnam	-11.9454
▁analogn	-11.9454
▁fotoaparat	-11.9454
▁gospođ	-11.9454
▁inspirativn	-11.9454
▁leopard	-11.9454
▁nagoveštaj	-11.9454
▁najjednostavnij	-11.9454
▁nepotrebn	-11.9454
▁pozabav	-11.9454
▁prilagođen	-11.9454
▁stipendij	-11.9454
▁ultrazvuk	-11.9454
▁upečatljiv	-11.9454
▁šizofrenij	-11.9454
▁žlezd	-11.9454
▁Јужн	-11.9454
▁ефекат	-11.9454
▁испостави	-11.9454
▁испроба	-11.9454
▁кисеоник	-11.9454
▁магнет	-11.9454
▁показују	-11.9454
▁саобраћај	-11.9454
filtrira	-11.9454
▁EDI	-11.9454
▁elektromagnet	-11.9454
▁emituje	-11.9454
▁istrebljen	-11.9454
▁iznenadn	-11.9454
▁konstruisa	-11.9454
▁obeležen	-11.9454
▁usredsređen	-11.9454
▁подржава	-11.9454
▁хотел	-11.9454
▁Zapamti	-11.9454
▁altruiz	-11.9454
▁kritičar	-11.9454
▁propoved	-11.9454
▁skrenu	-11.9454
▁емисиј	-11.9454
▁Namibij	-11.9454
▁урбан	-11.9454
▁lešev	-11.9454
▁вежб	-11.9454
▁čudovišt	-11.9454
▁zapadnjačk	-11.9454
▁Muzej	-11.9454
▁hakovanj	-11.9454
▁pomaganj	-11.9455
▁загађењ	-11.9455
▁pomagal	-11.9455
▁позициј	-11.9455
▁bazen	-11.9456
▁rotira	-11.9456
▁mrlj	-11.9456
▁radijacij	-11.9457
▁udahn	-11.9457
▁твит	-11.9457
▁autonomn	-11.9457
▁фарм	-11.9458
naestogodišnjak	-11.9459
▁пчел	-11.946
▁Odličn	-11.9461
▁prikazivanj	-11.9462
▁Afrikanc	-11.9463
▁зрн	-11.9463
▁zasluž	-11.9532
▁snabdeva	-11.9551
▁saoseća	-11.9566
▁dodavanj	-11.9713
▁суочава	-11.9856
▁одржава	-11.9869
▁унутрашњ	-11.9871
▁Mikelanđel	-11.9871
▁Razgovara	-11.9871
▁Republik	-11.9871
▁Uključi	-11.9871
▁Univerzum	-11.9871
▁Virdžinij	-11.9871
▁Zahvalju	-11.9871
▁avgust	-11.9871
▁blesav	-11.9871
▁epizod	-11.9871
▁inspiriše	-11.9871
▁ljubičast	-11.9871
▁obeležava	-11.9871
▁ohrabruje	-11.9871
▁osmišljava	-11.9871
▁palestinsk	-11.9871
▁psihopat	-11.9871
▁raspolaganj	-11.9871
▁reputacij	-11.9871
▁stratosfer	-11.9871
▁svakodnevic	-11.9871
▁zemljotres	-11.9871
▁zvižduk	-11.9871
▁šampion	-11.9871
▁Американац	-11.9871
▁Калифорниј	-11.9871
▁Следећ	-11.9871
▁документ	-11.9871
▁заштићен	-11.9871
▁измисли	-11.9871
▁килограм	-11.9871
▁концепт	-11.9871
▁пирамид	-11.9871
▁професор	-11.9871
▁реагуј	-11.9871
▁релативно	-11.9871
▁симбол	-11.9871
▁фетус	-11.9871
▁филозоф	-11.9871
▁filantrop	-11.9871
▁hemičar	-11.9871
▁nedostaju	-11.9871
▁sluzav	-11.9871
▁uzajamn	-11.9871
▁đubriv	-11.9871
▁кревет	-11.9871
▁срчан	-11.9871
▁Uopšte	-11.9871
▁cipela	-11.9871
▁kustos	-11.9871
▁најгор	-11.9871
▁Posebn	-11.9871
▁dosledn	-11.9871
▁ветеран	-11.9871
▁еволуциј	-11.9871
▁stanovnici	-11.9871
▁практичн	-11.9871
▁трећин	-11.9871
▁Suzan	-11.9871
▁додатн	-11.9871
▁укључен	-11.9871
ISA	-11.9871
▁купуј	-11.9871
▁каријер	-11.9871
▁масовн	-11.9871
▁Zvezd	-11.9871
узимају	-11.9871
▁техник	-11.9871
▁изашл	-11.9871
▁imperij	-11.9872
▁rutinsk	-11.9872
▁гасов	-11.9875
▁tadašnj	-11.9886
▁uživanj	-11.9891
▁gađenj	-11.9892
▁horizontaln	-11.9898
▁razvijanj	-11.9927
▁takmiče	-11.9935
▁relativ	-11.9966
Amerikanc	-11.9996
konfliktn	-12.0043
▁predstavljanj	-12.0201
▁pretvaranj	-12.0221
▁посебн	-12.0243
огодишња	-12.0256
▁zapošljava	-12.0278
▁petnaest	-12.0304
▁transplant	-12.0304
▁Klinton	-12.0305
▁Mocart	-12.0305
▁Vikipedij	-12.0305
▁brilijantn	-12.0305
▁drukčij	-12.0305
▁informacion	-12.0305
▁informisan	-12.0305
▁inkluzivn	-12.0305
▁inostranstv	-12.0305
▁internacionaln	-12.0305
▁kompozicij	-12.0305
▁koncentracij	-12.0305
▁kontroverz	-12.0305
▁naglašava	-12.0305
▁nanočestic	-12.0305
▁neprihvatljiv	-12.0305
▁plutokrat	-12.0305
▁preobražaj	-12.0305
▁propagand	-12.0305
▁razdaljin	-12.0305
▁selektivn	-12.0305
▁simetrij	-12.0305
▁stadijum	-12.0305
▁uhvaćen	-12.0305
▁usvojen	-12.0305
▁Дејвид	-12.0305
Х	-12.1982
#	-12.4031
У	-12.7646
Č	-13.4097
%	-13.4366
“	-13.4367
Ј	-13.4368
”	-13.4369
!	-13.437
♫	-13.4371
З	-13.4372
—	-13.4373
ћ	-13.4374
)	-13.4375
њ	-13.4376
:	-13.4377
?	-13.4378
q	-13.4379
&	-13.438
