<unk>	0
<s>	0
</s>	0
▁.	-3.15633
▁,	-3.38386
t	-3.49779
▁	-3.74987
▁att	-3.91834
▁är	-4.10528
s	-4.10575
▁och	-4.12912
a	-4.21572
▁det	-4.27817
▁som	-4.34699
▁en	-4.35055
▁i	-4.44023
er	-4.44849
en	-4.52818
;	-4.55616
▁&	-4.57804
quo	-4.61381
▁för	-4.64268
▁vi	-4.66406
▁på	-4.67418
r	-4.69631
▁av	-4.73869
▁jag	-4.75215
▁de	-4.89658
▁inte	-5.01057
▁den	-5.0432
e	-5.08774
▁med	-5.09547
▁till	-5.10211
▁var	-5.11055
▁om	-5.12645
▁Det	-5.12747
▁har	-5.13811
▁så	-5.26723
▁Och	-5.28441
▁ett	-5.30359
n	-5.31991
de	-5.35716
▁kan	-5.39288
▁här	-5.40156
▁Jag	-5.47025
▁?	-5.55629
▁du	-5.67808
d	-5.71584
na	-5.85759
▁Vi	-5.88173
et	-5.888
▁Så	-5.93487
-	-5.97589
▁Men	-6.01983
▁oss	-6.03301
▁mig	-6.04606
▁)	-6.05506
(	-6.05538
▁:	-6.05571
▁från	-6.06876
▁man	-6.07643
▁kommer	-6.08245
eller	-6.09266
re	-6.09605
▁där	-6.10077
▁vad	-6.11728
ar	-6.1247
▁när	-6.12725
▁sig	-6.1595
▁han	-6.19978
▁skull	-6.23145
▁ut	-6.25732
▁hur	-6.27125
▁detta	-6.28044
▁men	-6.28193
▁bara	-6.33307
▁alla	-6.33365
▁göra	-6.35149
▁dem	-6.37
▁De	-6.37029
▁finns	-6.37316
▁mycket	-6.37853
▁-	-6.42534
ra	-6.43793
▁vara	-6.45032
▁ni	-6.45318
▁—	-6.48272
▁upp	-6.51065
▁än	-6.54029
▁år	-6.54932
▁min	-6.56158
▁in	-6.57682
hade	-6.59382
▁dessa	-6.59449
▁gör	-6.59493
▁ha	-6.59647
▁se	-6.59886
▁mer	-6.60199
▁människor	-6.6048
▁andra	-6.61099
för	-6.62594
▁vill	-6.65863
▁något	-6.68164
▁över	-6.68528
▁börja	-6.68899
▁nu	-6.70515
▁Den	-6.70636
▁ser	-6.75599
▁hon	-6.78037
▁vet	-6.82067
▁ska	-6.83209
▁I	-6.84129
måste	-6.84278
▁Skratt	-6.86984
▁sätt	-6.87746
▁få	-6.90316
▁väldig	-6.90653
▁två	-6.90767
▁genom	-6.9144
▁också	-6.91551
erna	-6.91598
▁er	-6.9205
▁allt	-6.92724
k	-6.93919
▁våra	-6.94065
▁faktiskt	-6.94963
▁många	-6.95317
▁under	-6.95712
▁saker	-6.96945
▁bli	-6.97586
nde	-6.98757
▁tror	-6.99237
▁vår	-6.99995
ande	-7.00034
▁För	-7.00945
▁b	-7.01029
ta	-7.0134
▁kunde	-7.03932
y	-7.04452
▁världen	-7.04557
▁ta	-7.05654
an	-7.0612
▁dig	-7.06217
▁någon	-7.07756
▁denna	-7.12743
▁behöv	-7.12943
▁sa	-7.13115
▁Om	-7.13269
▁sedan	-7.13682
or	-7.14296
▁efter	-7.14808
je	-7.15028
▁någ	-7.17145
g	-7.17815
▁då	-7.18122
ras	-7.18364
▁kanske	-7.19779
▁lite	-7.21234
▁Han	-7.21491
▁sin	-7.22392
om	-7.22404
▁första	-7.22919
are	-7.23013
▁får	-7.24716
▁Va	-7.249
▁gjorde	-7.25083
▁En	-7.25647
▁bra	-7.26286
▁helt	-7.26793
▁mitt	-7.27601
▁liv	-7.27709
▁Applåder	-7.29077
▁säg	-7.29082
l	-7.29108
▁vid	-7.29305
o	-7.2981
▁S	-7.30248
▁mot	-7.30365
▁hela	-7.30671
▁utan	-7.3232
▁När	-7.34054
▁del	-7.34086
lev	-7.34138
▁samma	-7.34946
▁barn	-7.35315
▁kunna	-7.35824
▁din	-7.36893
▁förstå	-7.38154
▁verklig	-7.38697
▁kom	-7.38776
▁Tack	-7.39471
i	-7.39854
▁sina	-7.41398
▁fick	-7.41722
▁blir	-7.42134
m	-7.43056
▁folk	-7.44573
in	-7.45319
▁eftersom	-7.45668
▁går	-7.47362
▁g	-7.49785
▁Du	-7.50733
p	-7.50918
▁tre	-7.51384
h	-7.52489
▁tänk	-7.52742
▁själv	-7.52772
▁procent	-7.53282
▁gå	-7.53561
▁olika	-7.54668
▁säga	-7.54812
▁tar	-7.54922
▁Var	-7.55678
ade	-7.57124
▁tid	-7.57449
▁stor	-7.57524
▁fråga	-7.6099
▁exempel	-7.6169
▁använda	-7.62007
arna	-7.62912
j	-7.64039
▁dag	-7.64244
▁fler	-7.64329
ning	-7.6504
vis	-7.66034
ä	-7.6662
▁bort	-7.66688
▁vilke	-7.66738
▁ner	-7.67465
▁tillbaka	-7.67985
▁fram	-7.68372
▁...	-7.68878
▁även	-7.69543
▁Hur	-7.69635
.	-7.6971
▁ingen	-7.69835
▁mina	-7.71732
▁ge	-7.71808
▁skapa	-7.72005
v	-7.72096
het	-7.72272
▁vårt	-7.72325
▁tog	-7.7244
▁A	-7.72704
▁henne	-7.73155
▁känn	-7.73426
▁mellan	-7.73459
la	-7.73758
▁riktig	-7.73986
▁problem	-7.74266
▁rätt	-7.74318
ldrig	-7.74334
▁annan	-7.74694
▁sitt	-7.757
f	-7.75811
▁Ni	-7.76346
da	-7.76924
▁runt	-7.77466
▁bättre	-7.78449
▁K	-7.78578
al	-7.78905
▁låt	-7.82155
it	-7.8218
▁såg	-7.82597
▁händer	-7.82855
▁titta	-7.8312
▁a	-7.83133
▁igen	-7.83151
▁B	-7.83267
ligen	-7.83923
▁gick	-7.84169
sk	-7.85133
▁Nu	-7.86049
▁stora	-7.86075
▁Man	-7.87311
▁kvinnor	-7.88171
▁själva	-7.88326
▁mest	-7.88825
▁komma	-7.89817
▁försök	-7.89842
▁inom	-7.90327
▁tiden	-7.90335
▁idag	-7.90394
▁fort	-7.91149
▁o	-7.91605
▁ungefär	-7.92129
▁Här	-7.92142
▁nya	-7.92146
▁varit	-7.92185
▁visa	-7.92942
ma	-7.93987
▁gång	-7.94017
▁fantastisk	-7.94674
▁grund	-7.9472
on	-7.94748
▁åt	-7.94823
▁hos	-7.95988
u	-7.96414
▁väg	-7.96479
▁betyd	-7.96679
▁annat	-7.9685
▁använd	-7.97429
▁mat	-7.97902
ad	-7.98438
▁visar	-7.98877
▁sak	-7.99766
▁Ja	-8.00402
el	-8.00822
▁ville	-8.01083
▁Hon	-8.02278
är	-8.02312
anska	-8.02576
▁be	-8.04897
▁gjort	-8.05139
▁ny	-8.06131
▁borde	-8.0622
▁bäst	-8.06295
▁berätta	-8.06696
▁små	-8.07202
▁precis	-8.07491
▁ger	-8.07765
å	-8.0787
ö	-8.08263
▁hjälp	-8.08358
▁sen	-8.08405
▁fanns	-8.09278
▁fyra	-8.09799
▁20	-8.10159
▁lär	-8.10552
farande	-8.10742
▁data	-8.10919
▁sex	-8.11855
▁enda	-8.11856
▁USA	-8.12499
▁hjärnan	-8.13312
▁p	-8.13792
▁tycker	-8.14122
▁handlar	-8.14433
som	-8.1444
▁enkelt	-8.1467
▁just	-8.15043
▁land	-8.15205
ing	-8.15224
▁ur	-8.15258
ligt	-8.15317
▁dom	-8.16045
▁vatten	-8.16083
▁bild	-8.16652
▁Låt	-8.16703
▁använde	-8.17262
▁mind	-8.17693
▁mänsklig	-8.18075
▁fall	-8.18555
▁ofta	-8.18638
▁lika	-8.18731
▁innan	-8.18791
▁tänka	-8.19248
▁jorden	-8.19405
▁stör	-8.19589
▁På	-8.19709
▁10	-8.19913
nu	-8.20198
▁hitta	-8.20497
▁fem	-8.20557
▁tala	-8.21257
▁M	-8.21526
▁sådan	-8.2155
▁hög	-8.21636
▁dess	-8.21783
vit	-8.2225
▁jobb	-8.22619
ri	-8.23541
▁Min	-8.23781
▁tittar	-8.24127
▁flest	-8.242
ställe	-8.24417
▁sett	-8.24686
▁längre	-8.24776
▁förändra	-8.24778
▁allti	-8.25101
▁lära	-8.25398
bland	-8.2568
▁ord	-8.2645
▁val	-8.26895
ssa	-8.27092
▁nästan	-8.27171
▁E	-8.27612
▁gånger	-8.27746
▁värld	-8.27873
▁slut	-8.28085
▁håll	-8.28249
ifrån	-8.28623
ska	-8.29028
▁prata	-8.29031
▁T	-8.29065
id	-8.30049
▁pengar	-8.30758
▁fel	-8.31088
▁ju	-8.31135
▁plats	-8.31364
▁inget	-8.31388
▁tillsamman	-8.31402
liga	-8.31749
▁liten	-8.32226
▁miljarder	-8.32266
▁Som	-8.32528
▁all	-8.32806
talet	-8.32916
iska	-8.33957
▁P	-8.3439
ch	-8.3491
b	-8.35338
▁länder	-8.35436
▁hand	-8.35586
▁ihop	-8.35587
▁lång	-8.3579
▁par	-8.36199
▁vilja	-8.36252
▁redan	-8.36338
▁fungerar	-8.36483
▁Till	-8.36811
▁nog	-8.37118
▁ändra	-8.37592
▁historia	-8.37868
▁öka	-8.3797
▁hem	-8.37978
ig	-8.38015
▁person	-8.38481
▁livet	-8.39006
▁varandra	-8.3913
kring	-8.39344
▁Där	-8.39465
lar	-8.39601
ion	-8.39656
ut	-8.39689
▁lever	-8.39894
▁ditt	-8.39928
▁företag	-8.40237
▁senast	-8.40855
▁k	-8.40934
▁någonting	-8.41142
så	-8.41158
▁form	-8.41212
tänkte	-8.41613
ll	-8.41879
ur	-8.41942
▁L	-8.42665
▁typ	-8.42804
▁viktigt	-8.4372
ste	-8.43764
▁kallar	-8.43943
des	-8.44033
▁Att	-8.44105
ck	-8.44814
▁information	-8.44869
▁per	-8.44907
▁C	-8.45689
▁personer	-8.45928
▁djur	-8.46076
▁tro	-8.46207
▁energi	-8.46452
▁egen	-8.46487
▁Ett	-8.46514
ns	-8.46675
us	-8.46787
▁senare	-8.46885
▁000	-8.47492
▁största	-8.47597
▁Efter	-8.47855
▁otrolig	-8.47855
ka	-8.48019
▁bygga	-8.48189
▁dollar	-8.48314
stod	-8.48492
um	-8.48641
▁arbeta	-8.49873
▁Alla	-8.50016
▁någonsin	-8.50077
▁väl	-8.50706
▁båd	-8.51258
▁skapar	-8.51387
▁gav	-8.51403
▁vilken	-8.51605
▁möjligt	-8.51797
▁menar	-8.51834
miljoner	-8.52218
li	-8.52281
▁tidiga	-8.52345
▁sidan	-8.52559
▁står	-8.5283
▁global	-8.53105
▁F	-8.5325
▁verkar	-8.53758
▁delar	-8.53839
▁vilka	-8.53886
▁enorm	-8.53936
isk	-8.54274
▁män	-8.54325
▁svart	-8.54448
ik	-8.54631
▁system	-8.55177
▁jobba	-8.55502
is	-8.55936
gång	-8.56399
▁älskar	-8.56752
va	-8.57852
▁veta	-8.57872
▁helst	-8.57885
▁dagen	-8.57976
▁visste	-8.57998
▁stort	-8.58004
▁först	-8.58353
▁arbete	-8.58412
▁namn	-8.58656
▁kallas	-8.58729
▁lätt	-8.5921
iga	-8.59479
▁vem	-8.59891
z	-8.59971
▁visade	-8.60183
▁kort	-8.60437
▁Elle	-8.60528
▁idéer	-8.60896
mp	-8.61546
▁egentlig	-8.61675
▁svårt	-8.61789
▁nästa	-8.62325
▁skillnad	-8.62358
▁hände	-8.62573
▁Ne	-8.62613
▁hjälpa	-8.62653
▁skratt	-8.62742
▁O	-8.62777
▁leva	-8.62843
▁frågor	-8.63398
▁nå	-8.63749
▁antal	-8.6438
▁känna	-8.64427
▁Dess	-8.64497
▁speciell	-8.64528
▁h	-8.64624
▁snabbt	-8.6498
▁försöka	-8.6505
▁utveckla	-8.65415
▁Med	-8.65434
▁mål	-8.65577
op	-8.6571
▁vidare	-8.65716
egna	-8.65756
▁säker	-8.66141
▁vänner	-8.66276
▁bilden	-8.66315
▁viss	-8.66322
lig	-8.66707
▁100	-8.66761
▁medan	-8.66924
▁året	-8.66966
▁påverka	-8.67228
▁bilder	-8.67417
▁200	-8.6759
▁samman	-8.67621
▁G	-8.67751
▁hoppa	-8.67756
▁åren	-8.67805
dag	-8.68061
▁hålla	-8.68548
▁rör	-8.69115
apos	-8.69483
▁långt	-8.69682
▁30	-8.69733
än	-8.69951
▁annorlunda	-8.70307
▁dålig	-8.70497
▁kände	-8.70951
▁idé	-8.70998
▁frågan	-8.71329
le	-8.7186
▁sista	-8.72098
▁roll	-8.72423
▁framtiden	-8.7251
▁ändå	-8.72622
▁månader	-8.72684
▁gången	-8.72694
▁fast	-8.72802
▁Afrika	-8.73091
▁finna	-8.73134
▁dagar	-8.73437
▁ihåg	-8.74037
▁problemet	-8.74088
▁an	-8.74326
tal	-8.74382
▁Kina	-8.74515
ni	-8.74769
ie	-8.74786
▁f	-8.74884
▁tillräcklig	-8.74991
ga	-8.75039
ningen	-8.75148
sökte	-8.75206
▁dra	-8.75243
▁talar	-8.75398
▁innebär	-8.75475
man	-8.75771
▁Indien	-8.76083
iv	-8.76256
▁ned	-8.76287
▁hel	-8.76511
▁dela	-8.76567
▁Allt	-8.76718
ering	-8.76765
▁R	-8.76889
▁utbildning	-8.77071
pp	-8.77118
▁intressant	-8.77391
▁Okej	-8.77419
▁New	-8.7742
▁TED	-8.7742
▁inga	-8.77767
▁tack	-8.77878
▁behövde	-8.77939
▁50	-8.77949
▁ja	-8.78066
▁språk	-8.78302
gen	-8.79023
▁nytt	-8.79276
ningar	-8.79707
▁ljus	-8.79801
▁kvar	-8.79894
▁trodde	-8.79909
▁hör	-8.79956
▁lämna	-8.80044
▁huvud	-8.80125
▁sade	-8.80184
▁gammal	-8.80411
ko	-8.81366
▁D	-8.81393
var	-8.81911
▁sättet	-8.81947
▁H	-8.81987
ic	-8.82239
S	-8.82309
▁ligger	-8.82458
▁kvinna	-8.82531
▁svar	-8.82611
▁röst	-8.8297
▁Tänk	-8.82975
▁gilla	-8.82986
▁lärare	-8.84045
▁spelar	-8.84166
länge	-8.84354
▁låg	-8.84546
▁vän	-8.84551
▁fåt	-8.84616
▁gäller	-8.84681
▁pratar	-8.85095
▁massa	-8.85143
▁ljud	-8.85198
▁far	-8.85696
▁igenom	-8.85973
ol	-8.86034
▁Under	-8.86143
x	-8.8632
▁bor	-8.86421
▁V	-8.86565
▁öppna	-8.86575
▁ekonomisk	-8.86798
▁sociala	-8.86805
ation	-8.87028
▁minuter	-8.87156
▁snar	-8.87312
▁timmar	-8.87499
▁15	-8.87751
▁vänta	-8.87766
▁landet	-8.87858
▁lik	-8.87915
itet	-8.88008
▁inför	-8.88069
▁rädda	-8.88228
orna	-8.88283
▁beslut	-8.88321
▁lilla	-8.88423
be	-8.88519
▁särskil	-8.88554
▁Inte	-8.88571
else	-8.88663
▁W	-8.88825
▁skrev	-8.8886
▁historien	-8.8899
▁tag	-8.89059
akt	-8.89114
ver	-8.8918
▁steg	-8.89418
▁Kan	-8.89681
▁teknik	-8.89691
di	-8.90169
▁heter	-8.90379
ge	-8.90442
▁politisk	-8.90526
▁framför	-8.90978
▁universum	-8.91088
▁förklara	-8.91095
▁kräv	-8.91271
▁material	-8.91319
▁bestäm	-8.91663
▁hjärna	-8.9169
sta	-8.91746
8	-8.92572
▁sätta	-8.92845
▁musik	-8.92959
▁viktiga	-8.93094
2	-8.9318
▁slags	-8.93815
▁miljon	-8.94251
ör	-8.94336
▁3	-8.94349
▁film	-8.94979
tid	-8.95305
ru	-8.95349
▁projekt	-8.95564
▁exakt	-8.95705
▁kol	-8.9572
▁kring	-8.95724
5	-8.95796
▁döda	-8.95926
ry	-8.96026
▁kultur	-8.9618
▁vecka	-8.96292
▁CA	-8.9631
ork	-8.96347
▁dit	-8.96359
▁kropp	-8.96361
samma	-8.96477
ell	-8.9661
ja	-8.97002
▁direkt	-8.97055
▁sju	-8.97273
▁U	-8.97359
▁spela	-8.97378
▁tio	-8.97471
▁bakom	-8.9752
av	-8.97746
os	-8.9802
▁platser	-8.98261
lo	-8.98327
c	-8.98433
B	-8.98777
▁arbetar	-8.98832
▁producera	-8.98862
ia	-8.99181
ger	-8.99211
ul	-8.99299
▁insåg	-8.99304
▁utanför	-8.994
▁bland	-8.99495
▁bil	-8.99641
▁gaml	-8.99725
▁skicka	-8.99745
ce	-8.99756
isera	-8.99858
▁stanna	-8.99974
▁framtid	-9.00112
▁celler	-9.00286
bart	-9.003
6	-9.00649
▁cancer	-9.0093
▁Jo	-9.01102
▁haft	-9.0117
▁DNA	-9.01268
ven	-9.01298
mi	-9.01335
▁grupp	-9.01357
utom	-9.0165
▁dö	-9.01686
fall	-9.0172
im	-9.01725
▁verktyg	-9.02
▁sk	-9.02001
▁åter	-9.02239
▁klart	-9.02261
▁skapade	-9.02367
ken	-9.02427
▁hår	-9.02542
sto	-9.02569
▁regler	-9.02783
▁syn	-9.02914
▁hända	-9.03082
▁beteende	-9.0315
lu	-9.03302
▁anledning	-9.03488
▁unga	-9.03603
▁träd	-9.03642
▁risk	-9.03755
▁familj	-9.0376
år	-9.03946
▁1	-9.0416
▁upptäckte	-9.04467
▁fortsätt	-9.04832
▁ben	-9.04912
▁fundera	-9.04968
går	-9.05086
▁sjukdom	-9.05099
▁faktum	-9.05615
▁Då	-9.05654
▁delen	-9.05847
▁design	-9.05967
kor	-9.06044
liknande	-9.06059
▁höll	-9.06153
▁tagit	-9.0632
▁leta	-9.06517
▁konst	-9.06738
▁forskare	-9.0677
▁färg	-9.06869
▁kommit	-9.06929
▁naturen	-9.06966
il	-9.07009
▁endast	-9.07118
▁skall	-9.07158
edan	-9.07173
▁möjlig	-9.07402
▁social	-9.07435
ist	-9.07633
▁ka	-9.07646
▁sluta	-9.07726
ow	-9.07755
▁tillgång	-9.07888
kar	-9.07894
▁lösa	-9.079
▁rum	-9.0806
▁väx	-9.08062
anske	-9.08118
▁möjlighet	-9.08129
▁underbar	-9.08311
▁värde	-9.08339
ill	-9.08379
▁halv	-9.08456
allt	-9.08475
▁goda	-9.08534
▁emot	-9.08711
▁världens	-9.08912
åt	-9.08989
▁natt	-9.08993
skap	-9.09041
▁skolan	-9.09193
nings	-9.09235
▁låta	-9.09338
▁skriva	-9.09455
▁tvung	-9.09606
▁slute	-9.09692
▁perspektiv	-9.09888
▁viktig	-9.09952
▁tredje	-9.1025
▁höra	-9.10258
▁lägg	-9.10265
▁Ma	-9.10678
ly	-9.10686
ke	-9.10736
del	-9.10878
▁tillväxt	-9.10932
D	-9.11069
▁följ	-9.11126
A	-9.11204
▁kunskap	-9.11364
▁ålder	-9.11819
▁vär	-9.11933
land	-9.11974
G	-9.12127
▁Ta	-9.12186
ick	-9.12382
▁st	-9.12387
slag	-9.12424
▁slå	-9.12499
w	-9.12597
bi	-9.12649
▁kör	-9.1267
rar	-9.12671
▁skada	-9.12878
91	-9.13237
▁resultat	-9.133
▁skriv	-9.13351
▁styr	-9.13356
▁mönster	-9.13398
▁sp	-9.13455
▁la	-9.13455
▁2	-9.13479
ingen	-9.13506
▁läsa	-9.13542
▁lokal	-9.13636
▁hus	-9.13661
▁plötslig	-9.13755
▁mängd	-9.14278
▁fysisk	-9.14464
▁följa	-9.14466
▁Al	-9.14513
▁trots	-9.14564
▁föräldrar	-9.14568
▁områden	-9.1466
▁full	-9.14949
▁samhälle	-9.1513
▁mamma	-9.15181
▁samtidigt	-9.15186
▁plan	-9.15385
▁förändring	-9.15433
rna	-9.1562
▁Har	-9.15651
▁enkla	-9.1567
▁ute	-9.15899
▁fortsätta	-9.1611
▁nära	-9.16137
▁miljö	-9.16683
▁klara	-9.16766
▁ung	-9.1683
ism	-9.17305
▁spendera	-9.17353
▁stå	-9.17467
ed	-9.17636
▁lösning	-9.1764
▁åtta	-9.17951
▁förut	-9.18048
▁resa	-9.18072
▁Faktum	-9.18088
lin	-9.18119
▁naturligt	-9.1814
3	-9.18272
ba	-9.18283
▁lyssna	-9.18325
att	-9.18328
▁bok	-9.18365
▁25	-9.18454
▁lägga	-9.18622
▁fann	-9.18666
▁experiment	-9.18699
sorts	-9.1884
▁bero	-9.19029
▁nivå	-9.19122
go	-9.19221
▁personlig	-9.19298
▁sjukdomar	-9.19666
▁hän	-9.1971
▁å	-9.19731
igt	-9.2002
▁gener	-9.2009
erade	-9.201
▁behov	-9.20124
ton	-9.20168
▁förmod	-9.20181
▁våld	-9.20291
▁punkt	-9.20326
▁nej	-9.20327
▁god	-9.20368
▁hantera	-9.20407
▁40	-9.20798
si	-9.20969
▁kroppen	-9.20971
▁driv	-9.21056
▁extrem	-9.21084
4	-9.21086
▁tydlig	-9.21087
▁idén	-9.21248
▁testa	-9.21278
▁fisk	-9.21281
▁fri	-9.21673
full	-9.21689
▁tur	-9.21781
▁sakerna	-9.21945
▁planet	-9.21966
gått	-9.22182
ök	-9.222
▁amerikansk	-9.22397
▁veckor	-9.22617
▁tillåt	-9.2262
▁ögonblick	-9.22632
▁förbättra	-9.22674
son	-9.22756
▁studera	-9.22904
len	-9.22985
▁vattnet	-9.23003
▁ögon	-9.23072
▁svåra	-9.23127
▁sker	-9.2333
brukade	-9.23355
▁sagt	-9.23411
▁satte	-9.23445
med	-9.23639
▁Ingen	-9.23706
93;	-9.24173
▁ledare	-9.24292
▁kallade	-9.24313
▁jämför	-9.24325
▁fokusera	-9.24327
▁stad	-9.24378
▁era	-9.24447
▁upplev	-9.24467
upp	-9.24492
▁bad	-9.24547
▁viktigast	-9.24765
▁Mång	-9.24977
▁lärt	-9.24998
▁hemma	-9.25048
lag	-9.25063
pe	-9.25126
▁personen	-9.25181
▁video	-9.25262
▁Först	-9.25541
▁teknologi	-9.2557
▁inse	-9.25616
▁samhällen	-9.25818
▁Se	-9.25839
▁stark	-9.25904
▁skydda	-9.25983
1	-9.26295
▁bry	-9.26398
▁hittade	-9.26497
▁bevis	-9.26519
me	-9.26526
▁hälsa	-9.26555
▁behandla	-9.26813
rätt	-9.27141
bo	-9.27153
▁Sen	-9.27158
▁känsla	-9.27309
▁människorna	-9.276
▁kalla	-9.27618
▁inne	-9.27696
tro	-9.28067
C	-9.28158
▁meter	-9.28203
▁forskning	-9.28209
▁bör	-9.28221
▁hört	-9.28235
iskt	-9.28659
▁Europa	-9.28994
▁komplex	-9.29022
▁minne	-9.2909
▁12	-9.29193
▁mor	-9.29196
men	-9.29312
▁ställe	-9.29639
▁5	-9.29794
▁dog	-9.29826
9	-9.29859
▁stund	-9.29885
T	-9.2994
sant	-9.29949
▁vetenskaplig	-9.30101
▁normal	-9.30117
▁hundratal	-9.3026
▁Mo	-9.30293
sh	-9.30516
▁fattiga	-9.30641
▁inuti	-9.30654
▁ingenting	-9.30704
▁barnen	-9.30797
▁vetenskap	-9.30837
▁framgång	-9.30995
▁tanke	-9.31007
▁lista	-9.31058
▁vanliga	-9.31101
bb	-9.31158
enda	-9.31373
▁räkna	-9.31454
▁ekonomi	-9.3146
▁Be	-9.3149
▁blå	-9.31675
▁rumme	-9.31786
▁reda	-9.3188
▁morgon	-9.31895
gg	-9.32024
▁sida	-9.32198
▁kämpa	-9.32342
ex	-9.32534
▁dator	-9.32554
▁vanligt	-9.32653
▁planeten	-9.32699
▁bygger	-9.32708
▁samhället	-9.32906
▁uppenbar	-9.33071
▁träffa	-9.33195
▁Vem	-9.33202
▁lag	-9.33298
bar	-9.33395
▁samla	-9.334
▁Re	-9.33508
▁pratade	-9.33722
▁tusental	-9.33771
ci	-9.33869
od	-9.33949
▁äter	-9.34062
▁leder	-9.34231
▁alls	-9.34293
met	-9.347
▁generation	-9.34827
one	-9.34873
▁In	-9.34893
▁vacker	-9.34928
▁Folk	-9.34928
▁chans	-9.34929
▁bit	-9.34994
▁tal	-9.35024
form	-9.35074
▁kr	-9.35103
▁Ro	-9.35227
▁koppla	-9.35289
▁kontrollera	-9.35317
▁utveckling	-9.35423
▁art	-9.35578
heten	-9.35593
▁J	-9.35604
▁kl	-9.35617
▁internet	-9.35807
▁människan	-9.3594
ling	-9.36055
▁satt	-9.36113
▁fungera	-9.36157
▁storlek	-9.36199
ats	-9.3637
▁utforska	-9.3639
val	-9.36406
ler	-9.36481
▁bo	-9.36633
▁resten	-9.36665
▁bred	-9.36732
▁marken	-9.36868
▁föreställa	-9.36956
7	-9.36959
▁Ka	-9.36969
K	-9.36986
▁ege	-9.37124
äck	-9.37368
▁hundra	-9.37435
▁Någ	-9.3754
▁befolkning	-9.37613
rän	-9.37679
ug	-9.37768
▁enkel	-9.37955
▁vänster	-9.37966
bild	-9.38077
▁välja	-9.38319
▁gemensam	-9.38488
▁åkte	-9.38548
▁lycka	-9.38729
▁må	-9.38738
▁Gud	-9.38776
▁mark	-9.39329
ster	-9.39374
▁äldre	-9.39392
▁berättade	-9.39408
ord	-9.39646
▁passa	-9.39648
fo	-9.39672
▁minn	-9.39885
▁c	-9.40003
▁saken	-9.4026
▁hit	-9.40332
▁informationen	-9.40373
▁förvänta	-9.40454
▁kärlek	-9.40498
▁biologisk	-9.4066
ho	-9.40671
am	-9.40786
▁ytterlig	-9.41236
▁okej	-9.41236
▁berättar	-9.41474
do	-9.41478
▁grundlägg	-9.42187
▁äta	-9.42196
▁känslor	-9.42488
▁intresserad	-9.42651
▁minska	-9.42688
▁makt	-9.42716
▁hålle	-9.42832
▁flickor	-9.43004
▁alternativ	-9.43114
▁människa	-9.43117
▁18	-9.43141
▁kontakt	-9.43377
▁hittar	-9.43419
stående	-9.43596
▁An	-9.43733
▁böcker	-9.4379
▁Google	-9.44066
▁favorit	-9.44066
▁vackra	-9.44066
▁genetisk	-9.44069
▁tyckte	-9.4407
▁Mars	-9.44244
över	-9.44331
▁växa	-9.44459
▁dör	-9.44475
sätt	-9.44562
▁Dom	-9.44616
▁systemet	-9.44795
▁minst	-9.44867
▁plast	-9.45029
▁innehåll	-9.45036
▁tillfälle	-9.45171
und	-9.4535
▁flyg	-9.45358
▁allting	-9.45425
▁flytta	-9.4555
kan	-9.45564
▁kontroll	-9.45589
▁råd	-9.45656
▁köpa	-9.45711
ang	-9.45721
▁hörde	-9.46026
let	-9.46041
ung	-9.46143
▁nätverk	-9.46202
▁spel	-9.46418
▁mäta	-9.46429
▁Le	-9.46519
▁process	-9.46556
▁typer	-9.46718
▁växte	-9.46863
▁Mitt	-9.47026
▁bakterier	-9.47165
▁historier	-9.47172
bl	-9.4723
▁staden	-9.47378
▁stoppa	-9.47396
W	-9.47583
▁ansvar	-9.47855
väl	-9.47968
▁offentlig	-9.47969
▁Musik	-9.47969
▁absolut	-9.4798
0	-9.48053
verket	-9.48104
▁demokrati	-9.48283
▁resurser	-9.4835
ju	-9.48389
▁karta	-9.48419
▁nio	-9.48567
▁ske	-9.48743
ng	-9.48775
min	-9.48787
▁tillstånd	-9.48844
▁ställa	-9.48849
ku	-9.48904
▁erfarenhet	-9.48969
▁botten	-9.4897
▁total	-9.48985
▁icke	-9.49012
▁N	-9.49059
tals	-9.49126
▁uttryck	-9.4917
▁läs	-9.4918
▁kolla	-9.49204
▁behandling	-9.49395
▁kraft	-9.49405
▁robot	-9.49417
▁städer	-9.49419
▁rika	-9.49534
mm	-9.49585
▁blod	-9.4959
▁mitten	-9.49882
▁röra	-9.49892
▁sorter	-9.50237
fi	-9.50399
▁betala	-9.5044
▁hell	-9.50443
▁upptäckt	-9.50597
▁djup	-9.5061
▁hål	-9.50617
▁område	-9.50627
ator	-9.50709
▁natur	-9.50865
▁snabb	-9.50905
▁digital	-9.50922
▁pappa	-9.51025
▁avsluta	-9.51032
gi	-9.51143
▁mobil	-9.51238
pa	-9.51282
▁Ca	-9.51318
lighet	-9.51369
▁projektet	-9.51521
▁möjligheten	-9.51663
▁organ	-9.5202
yn	-9.52044
vi	-9.52126
▁levande	-9.52286
▁utrymme	-9.52391
▁bokstavlig	-9.52416
bor	-9.52506
▁orsaka	-9.52513
plan	-9.52537
löst	-9.52605
ala	-9.52918
▁sol	-9.52923
mål	-9.53042
vet	-9.53175
▁mät	-9.53266
▁Bo	-9.53288
till	-9.53538
▁välj	-9.53592
▁gift	-9.53619
▁startade	-9.53625
▁klass	-9.53689
▁mannen	-9.53788
▁studenter	-9.53837
I	-9.53893
▁St	-9.54203
▁matematik	-9.54316
▁hopp	-9.54341
▁objekt	-9.54353
▁TV	-9.54409
▁hjärnor	-9.54411
▁havet	-9.54642
▁leda	-9.5486
▁sprid	-9.54874
R	-9.54984
▁filmen	-9.55037
P	-9.5509
▁orsak	-9.55203
▁OK	-9.5521
▁slog	-9.55229
▁kroppar	-9.55267
led	-9.55321
▁stöt	-9.55372
ment	-9.55654
▁gjord	-9.55664
rum	-9.56109
▁smarta	-9.56125
▁Nå	-9.56208
▁mening	-9.5623
▁existera	-9.56265
▁Titta	-9.56267
▁tillgänglig	-9.5627
▁cell	-9.56278
▁sekund	-9.56293
▁sl	-9.56361
håll	-9.56445
po	-9.56512
▁beroende	-9.566
lös	-9.56675
▁labb	-9.56698
M	-9.57106
och	-9.57212
▁ordet	-9.57368
taget	-9.57428
▁höger	-9.57515
▁ton	-9.57578
▁ansikte	-9.57586
▁närmar	-9.57786
ris	-9.57889
▁Vilk	-9.57938
årig	-9.58169
▁rörelse	-9.58177
▁jord	-9.58214
▁19	-9.58241
L	-9.58294
▁John	-9.58444
▁funnit	-9.5845
▁spännande	-9.5845
åka	-9.58595
co	-9.59039
▁patienter	-9.5906
▁pro	-9.59115
▁Vilke	-9.59129
▁processen	-9.59162
bara	-9.59206
▁krig	-9.59331
▁virus	-9.59402
▁stöd	-9.59451
▁upplevelse	-9.59474
▁fo	-9.59479
▁of	-9.59532
▁fängelse	-9.59561
▁talade	-9.59581
öm	-9.59655
▁skol	-9.59682
gar	-9.59731
▁odla	-9.6001
dy	-9.60131
▁verklighet	-9.60219
▁svara	-9.60274
▁folket	-9.60341
ighet	-9.60398
▁starta	-9.60532
▁grupper	-9.6056
▁autism	-9.60684
▁tillbringa	-9.60684
▁Internet	-9.60685
gående	-9.60823
system	-9.60853
▁berättelser	-9.60992
▁sten	-9.61002
ock	-9.61152
▁and	-9.61321
▁fortsatt	-9.61367
dan	-9.61455
▁datorer	-9.61473
▁ensam	-9.6161
▁fattigdom	-9.61613
▁gott	-9.61825
▁främst	-9.61851
▁flyga	-9.62007
▁studie	-9.62106
▁medicin	-9.62205
▁bio	-9.62371
▁behöva	-9.62418
▁lek	-9.62452
▁klimat	-9.62547
mat	-9.62636
eri	-9.62653
▁gen	-9.62735
▁byt	-9.62769
▁ro	-9.62896
▁Vår	-9.62955
▁komplicerad	-9.6297
ister	-9.63299
▁glad	-9.63584
▁fr	-9.63585
00	-9.63681
ella	-9.63715
mer	-9.63826
▁mil	-9.63827
▁nyheter	-9.63861
▁La	-9.64018
E	-9.64096
▁fantasi	-9.64133
den	-9.64314
▁lyckas	-9.64329
▁Bara	-9.64332
liv	-9.64344
▁hjärta	-9.64403
▁princip	-9.64445
▁son	-9.64454
▁4	-9.64465
dda	-9.64756
▁död	-9.64783
▁16	-9.64809
▁ljuset	-9.64828
ön	-9.64833
▁tusen	-9.64836
▁m	-9.64846
▁aning	-9.64856
mo	-9.64921
▁nylig	-9.64991
▁ring	-9.65148
spel	-9.65226
punkt	-9.65251
▁tekniken	-9.65285
▁fascinera	-9.6531
▁representera	-9.6531
▁mångfald	-9.65312
▁varelser	-9.65326
▁designa	-9.65407
▁led	-9.65415
▁telefon	-9.65627
▁älskade	-9.65703
vann	-9.65937
kom	-9.65956
ätt	-9.6601
▁7	-9.6602
ring	-9.66242
▁HIV	-9.665
▁Storbritannien	-9.665
▁bilar	-9.6658
▁oavs	-9.66612
▁Kom	-9.66747
▁drog	-9.66796
▁bränsle	-9.66921
▁perfekt	-9.66942
▁berättelse	-9.67142
▁bilen	-9.6745
▁Dr	-9.6746
mod	-9.67468
▁70	-9.67632
▁Ha	-9.67681
▁Människor	-9.67705
▁framsteg	-9.67705
▁sorten	-9.67705
▁befinn	-9.67705
un	-9.67748
▁inkomst	-9.67795
▁förstör	-9.67832
▁Tro	-9.6789
▁80	-9.67892
tan	-9.67903
▁intressanta	-9.67911
väg	-9.68008
vore	-9.6801
▁förståelse	-9.68107
▁byggde	-9.68228
▁tillverka	-9.6859
▁te	-9.68708
ip	-9.68744
▁sök	-9.68904
N	-9.68931
▁högt	-9.68935
▁60	-9.69004
▁uppe	-9.69012
▁framåt	-9.69016
▁uppmärksamhet	-9.69017
ställ	-9.69044
▁insekter	-9.69063
▁massor	-9.69084
log	-9.69166
par	-9.69204
▁foto	-9.69217
▁basera	-9.69429
▁kosta	-9.69469
ki	-9.69501
▁fånga	-9.69508
hi	-9.69509
cka	-9.69511
▁engelska	-9.69535
▁scen	-9.69765
▁miljön	-9.69865
van	-9.7
▁innovation	-9.70159
▁internationell	-9.70159
▁tankar	-9.70162
▁Sp	-9.70181
▁vuxna	-9.70202
ff	-9.7038
▁dotter	-9.70414
▁häng	-9.70432
industrin	-9.70444
▁fru	-9.70639
▁verk	-9.70765
teknik	-9.70876
▁Ba	-9.71087
▁sprida	-9.71148
▁smärta	-9.71203
▁rak	-9.71309
▁iväg	-9.71345
▁kreativ	-9.71395
▁hälft	-9.7141
▁använt	-9.71413
▁Japan	-9.71441
▁struktur	-9.71503
▁utvecklade	-9.71535
▁luft	-9.71579
▁tvinga	-9.71604
levde	-9.71611
▁sy	-9.71736
▁vikt	-9.71787
▁funktion	-9.71807
▁lösningar	-9.72032
▁möjligheter	-9.72074
▁cirk	-9.7212
▁Co	-9.72136
▁kostnad	-9.72173
▁stig	-9.72325
▁my	-9.72389
▁neuroner	-9.72479
▁förbi	-9.72532
▁koldioxid	-9.72617
▁acceptera	-9.72675
▁omvandla	-9.72675
▁unik	-9.72675
▁någonstans	-9.72733
ny	-9.72766
▁råka	-9.72934
▁skala	-9.73064
▁oroa	-9.73098
▁länderna	-9.73138
▁dröm	-9.73163
▁produkt	-9.73178
▁bestå	-9.73469
▁fl	-9.73599
ld	-9.7365
og	-9.73668
▁rädd	-9.73669
▁fullt	-9.73722
▁års	-9.73921
▁di	-9.73954
▁fullständig	-9.73957
▁förvandla	-9.73957
▁anpassa	-9.73958
▁Genom	-9.73959
▁brukar	-9.73961
▁verkligheten	-9.74014
▁vision	-9.74022
▁vanlig	-9.74079
▁miljard	-9.74134
ier	-9.74276
▁test	-9.743
▁samtal	-9.74376
▁motor	-9.74433
olog	-9.74481
▁visat	-9.7462
▁Vet	-9.74668
lem	-9.74811
▁området	-9.75063
värr	-9.75118
aste	-9.75224
▁Vid	-9.75229
▁Pa	-9.75242
▁Afghanistan	-9.75255
▁positiv	-9.75255
▁engagera	-9.75256
vid	-9.7526
▁läkare	-9.75533
▁bak	-9.75712
▁byggnader	-9.75839
▁spara	-9.75902
▁boken	-9.75919
kon	-9.76001
up	-9.76003
▁födde	-9.76043
ång	-9.76215
▁betydelse	-9.76244
▁egenskaper	-9.76286
▁lyckade	-9.76378
▁11	-9.76388
▁Na	-9.76547
▁Amerika	-9.76563
▁identifiera	-9.76571
▁uppskatta	-9.76571
▁Nästa	-9.76572
▁Två	-9.76573
▁potential	-9.76685
▁nätet	-9.76751
▁skäl	-9.76802
▁modell	-9.76904
io	-9.77099
▁aktiv	-9.77168
▁by	-9.772
▁tryck	-9.7727
▁rymden	-9.77326
▁verkliga	-9.77355
▁tv	-9.77387
▁mängder	-9.77449
▁fot	-9.77469
▁utmaning	-9.77475
▁skapat	-9.77555
▁hållbar	-9.77704
istisk	-9.77738
ber	-9.77747
▁Ok	-9.77841
▁bilderna	-9.77982
▁the	-9.78045
▁6	-9.78188
▁Di	-9.78308
ull	-9.7833
▁mänskligheten	-9.78342
gel	-9.7864
▁Bra	-9.78717
▁gett	-9.7873
träd	-9.78739
▁tidigt	-9.79021
▁luften	-9.79073
é	-9.79246
▁siffror	-9.79256
▁lägre	-9.79256
▁dock	-9.79266
▁kamp	-9.79294
.000	-9.79411
celler	-9.79438
▁utmana	-9.79497
▁Ho	-9.79512
bel	-9.79561
dom	-9.79716
▁räck	-9.7982
▁utvecklings	-9.79936
äst	-9.80059
▁Av	-9.8028
▁San	-9.80288
▁berg	-9.80363
▁spelade	-9.80587
▁karriär	-9.80626
▁super	-9.80626
▁köra	-9.80761
kraft	-9.80794
▁metod	-9.80795
vin	-9.80796
est	-9.80801
ationen	-9.80934
▁ovan	-9.80944
▁produkter	-9.80947
pol	-9.81012
▁gränser	-9.81045
▁fyll	-9.81158
▁snabbar	-9.81167
▁bär	-9.813
▁placera	-9.81333
▁röda	-9.81405
▁flicka	-9.8143
▁sanningen	-9.81505
rike	-9.81595
ve	-9.81813
▁Sa	-9.81865
▁kon	-9.81965
▁sekunder	-9.81977
▁militär	-9.82015
▁önska	-9.82022
nivå	-9.82169
▁Ju	-9.82224
▁ma	-9.82289
▁bi	-9.82307
▁media	-9.82371
▁vinna	-9.82516
▁toppen	-9.82664
▁köp	-9.82783
▁föreställ	-9.82829
▁kul	-9.82918
hand	-9.83018
▁Hel	-9.83094
▁modern	-9.8318
▁definiera	-9.83423
▁partner	-9.83424
▁funka	-9.83424
▁gatan	-9.83513
▁misstag	-9.8352
▁överleva	-9.83522
ac	-9.8356
▁hot	-9.83764
svaret	-9.83831
▁patient	-9.83906
▁religion	-9.83925
produktion	-9.83966
▁nummer	-9.83973
▁kött	-9.84026
▁inre	-9.84138
▁regeringen	-9.84218
▁tanken	-9.84258
▁program	-9.84431
eställ	-9.84437
nes	-9.84518
▁forma	-9.84555
▁situation	-9.84559
▁smak	-9.84595
kal	-9.84695
rade	-9.84781
▁No	-9.84791
▁gratis	-9.84852
▁säkra	-9.84852
▁kilometer	-9.84852
▁text	-9.84856
▁lagar	-9.85002
▁befolkningen	-9.85166
▁hastighet	-9.85287
▁märke	-9.85297
▁bin	-9.85323
på	-9.85326
plats	-9.85385
▁låda	-9.85392
▁serie	-9.85609
▁fungerade	-9.85634
▁slag	-9.8579
verk	-9.85877
▁hemsk	-9.85925
▁förändringar	-9.86015
▁Tre	-9.86113
▁ända	-9.86181
▁konsekvenser	-9.8625
▁identitet	-9.86301
▁läkemedel	-9.86301
▁nyckel	-9.86303
▁sånt	-9.86314
▁17	-9.86321
▁Ra	-9.86337
▁sjukhus	-9.86339
▁insikt	-9.8639
▁kvinnan	-9.86426
▁individer	-9.86487
▁sidor	-9.86637
▁uppfattning	-9.86709
▁slutar	-9.86774
uk	-9.87008
▁längs	-9.87127
heter	-9.87217
ktion	-9.87375
▁undersöka	-9.87526
rus	-9.87574
▁investera	-9.87772
▁fakta	-9.87772
▁debatt	-9.87773
▁hud	-9.87784
▁drömmar	-9.87801
▁sköt	-9.8782
▁solen	-9.87837
▁prov	-9.8784
▁brott	-9.87996
lek	-9.88076
▁förmåga	-9.88084
itu	-9.88145
▁öppen	-9.88191
odde	-9.88199
▁killen	-9.88241
ab	-9.88366
▁kraftfull	-9.88412
wa	-9.88461
▁rädsla	-9.88605
▁Sk	-9.88656
▁24	-9.88685
världen	-9.88721
kulle	-9.88826
▁period	-9.88869
▁stjärnor	-9.88985
▁minnen	-9.8914
ank	-9.89175
▁Facebook	-9.89264
▁samarbeta	-9.89264
▁timme	-9.89265
▁konstnär	-9.89271
▁papper	-9.89278
▁skaffa	-9.89283
▁2000	-9.8933
▁maskiner	-9.89332
▁omöjligt	-9.89369
▁kommunikation	-9.89428
▁byggt	-9.8944
▁diagnos	-9.89501
▁läste	-9.89562
▁rolig	-9.89638
▁upptäcka	-9.89664
▁titt	-9.89668
▁ställde	-9.89778
▁specifik	-9.89795
▁moln	-9.89952
▁ämne	-9.90082
äng	-9.90165
▁He	-9.90353
▁naturliga	-9.90498
▁dags	-9.905
▁vände	-9.90514
▁älska	-9.90516
▁hund	-9.90524
▁dyk	-9.90578
▁falle	-9.90603
▁jätte	-9.90606
▁utvecklat	-9.90606
▁kvinnlig	-9.90779
▁utnyttja	-9.90779
▁jihad	-9.90779
▁reagera	-9.90779
▁avslöja	-9.9078
▁kärnvapen	-9.9078
▁redo	-9.90788
▁ber	-9.9079
▁uppstå	-9.90793
▁ladda	-9.90795
▁kreativitet	-9.90796
tiska	-9.90806
▁överlev	-9.90851
▁pris	-9.90959
▁medkänsla	-9.90998
bu	-9.91151
▁lycklig	-9.91161
gift	-9.9125
bok	-9.91274
▁team	-9.91292
▁rik	-9.91297
ativ	-9.91308
ium	-9.91309
▁brist	-9.9134
▁vägg	-9.91364
▁bestämme	-9.91391
kultur	-9.91507
▁mörk	-9.91527
▁förändrade	-9.91544
▁organisation	-9.91607
▁uppmuntra	-9.91638
▁grön	-9.91658
▁övertyga	-9.91735
låt	-9.91789
▁rätta	-9.919
▁Me	-9.9192
▁dörr	-9.92002
▁delta	-9.92099
läck	-9.92119
▁sn	-9.92122
▁skolor	-9.92127
▁Sh	-9.92247
▁kontor	-9.92334
▁Just	-9.92369
▁kollegor	-9.92426
▁el	-9.92442
▁undvika	-9.92658
▁bevisa	-9.92703
▁fysik	-9.9275
▁moderna	-9.92913
▁ögonen	-9.92949
▁slutlig	-9.93044
▁skogen	-9.93059
▁handling	-9.93091
vo	-9.93124
by	-9.93209
jo	-9.93239
▁mental	-9.93316
▁utmaningar	-9.93427
▁patienten	-9.93513
▁14	-9.93775
▁bar	-9.93802
ca	-9.93807
▁fenomen	-9.9388
▁Kalifornien	-9.9388
▁definition	-9.9388
▁flygplan	-9.93892
▁Hej	-9.93929
▁fatta	-9.93941
▁Tja	-9.9395
▁släpp	-9.93962
▁självet	-9.9404
▁vävnad	-9.94204
▁medborgare	-9.94373
▁aktivera	-9.9444
▁kärnkraft	-9.94569
▁publiken	-9.94607
stad	-9.94787
▁ex	-9.94885
▁kommande	-9.95021
▁jordbruk	-9.95168
sty	-9.95177
▁300	-9.95315
▁ren	-9.95331
▁lät	-9.95403
▁rad	-9.95414
▁ant	-9.95463
▁åtminst	-9.95467
▁praktisk	-9.95467
▁Jorden	-9.95468
▁kommunicera	-9.95468
▁återigen	-9.95474
▁passera	-9.95478
▁visuell	-9.95483
▁säng	-9.9551
▁maskin	-9.95523
▁8	-9.95551
▁Ny	-9.95605
▁märklig	-9.95628
▁arm	-9.95674
▁hamna	-9.95859
ker	-9.95983
▁avfall	-9.96115
fe	-9.96262
▁sam	-9.96309
pan	-9.9632
▁band	-9.96441
▁känslan	-9.96447
▁lyckliga	-9.96676
▁starka	-9.96776
▁Mu	-9.96809
▁klarar	-9.96838
▁arbets	-9.9689
▁antar	-9.96964
▁misslycka	-9.96988
▁experter	-9.96998
he	-9.97002
▁aktivitet	-9.97006
▁symptom	-9.9708
▁århundrade	-9.97081
▁interagera	-9.97081
▁ok	-9.97082
▁sm	-9.97156
▁mesta	-9.97159
▁tredjedel	-9.97161
▁förhållande	-9.97268
▁lade	-9.97285
▁smart	-9.97296
lösa	-9.97309
▁lämnade	-9.97321
▁Fin	-9.97333
far	-9.97451
▁frihet	-9.97467
▁Våra	-9.97549
▁sinne	-9.97561
▁förmågan	-9.97624
dagen	-9.97691
▁detaljer	-9.97713
▁riktning	-9.9772
länderna	-9.97729
▁kvinnorna	-9.97872
bygg	-9.97949
O	-9.97967
▁eld	-9.98099
▁arter	-9.98105
▁delade	-9.98323
▁Sverige	-9.9872
▁mus	-9.98765
▁agera	-9.98775
▁utför	-9.98801
▁tappa	-9.98841
isering	-9.98841
ph	-9.9896
sam	-9.9897
▁undra	-9.98971
▁studier	-9.99166
▁Ty	-9.99196
rande	-9.99254
oh	-9.99261
resten	-9.9932
ödra	-9.99372
ok	-9.99465
▁känd	-9.99478
▁ledde	-9.99518
lik	-9.99619
▁cellerna	-9.99693
▁hjärtat	-9.99715
▁djupa	-9.99734
skola	-9.99842
▁kille	-9.99858
nnan	-9.99927
språk	-10.0003
eln	-10.0005
ou	-10.0006
▁universitet	-10.0009
▁skola	-10.0032
▁Probleme	-10.0039
▁bakgrund	-10.0039
▁slumpmässig	-10.0039
▁elever	-10.0044
▁rita	-10.0045
▁händelse	-10.0046
▁Komme	-10.0052
▁högsta	-10.0059
bolag	-10.0059
▁ställen	-10.0067
▁The	-10.0068
nnars	-10.007
▁sist	-10.007
▁fö	-10.0079
▁skickade	-10.0086
arbetare	-10.0087
▁500	-10.0088
▁vetenskapen	-10.0092
ine	-10.0098
sättning	-10.01
▁Do	-10.0102
▁90	-10.0111
▁längst	-10.0114
ingar	-10.012
▁hett	-10.0131
▁familjer	-10.0136
V	-10.0137
▁haven	-10.0141
▁klä	-10.0144
▁pre	-10.0165
▁fjärde	-10.0206
▁stress	-10.0208
▁Einstein	-10.0208
▁Publik	-10.0208
▁presentera	-10.0208
▁psykisk	-10.0208
▁ständig	-10.0208
▁belöning	-10.0208
▁mobiltelefon	-10.0208
▁extra	-10.0209
▁grej	-10.0218
görande	-10.0238
▁v	-10.0256
▁bete	-10.0265
▁sv	-10.0273
▁Mar	-10.0277
▁finn	-10.0277
▁organisationer	-10.0277
▁barnet	-10.0295
▁platsen	-10.03
▁ljudet	-10.0305
gas	-10.0305
▁hamnar	-10.0312
nter	-10.0319
▁målet	-10.0328
▁sanning	-10.0333
▁täck	-10.0335
▁Barn	-10.0336
gick	-10.0344
▁uppnå	-10.0345
▁utgör	-10.0349
▁träffade	-10.0352
▁djupt	-10.0371
ley	-10.0377
▁empati	-10.0381
▁glädje	-10.0381
▁teknisk	-10.0381
▁metall	-10.0381
▁återvänd	-10.0381
▁198	-10.0382
här	-10.0383
lande	-10.0383
▁tystnad	-10.0384
▁likna	-10.0391
▁traditionell	-10.0399
mor	-10.0399
▁syre	-10.0414
▁ställ	-10.0416
▁illa	-10.0417
▁undersökning	-10.0439
▁bröd	-10.0452
▁följde	-10.0453
bord	-10.0464
problem	-10.047
▁vapen	-10.0476
alitet	-10.048
▁spår	-10.0482
▁livs	-10.0482
▁stolt	-10.0484
▁dans	-10.0503
▁ytan	-10.0504
ep	-10.0511
▁planeter	-10.0516
▁höjd	-10.0517
▁anse	-10.0527
▁upptäck	-10.0539
▁former	-10.0541
▁medvet	-10.0544
uell	-10.0544
▁fin	-10.0551
▁privat	-10.0555
äkta	-10.0556
▁London	-10.0556
▁hävda	-10.0556
▁korrekt	-10.0556
▁elektricitet	-10.0556
▁oerhör	-10.0556
▁säkerhet	-10.0562
▁flytande	-10.0562
hu	-10.0564
▁hindra	-10.0566
▁sov	-10.0567
▁skillnader	-10.0569
▁nåt	-10.0578
fin	-10.0582
▁rapportera	-10.0583
grupp	-10.0585
▁blind	-10.0618
▁självklart	-10.0619
▁väst	-10.0627
▁nation	-10.0629
▁atmosfären	-10.0632
slut	-10.0649
ix	-10.0649
▁resultate	-10.0651
▁nödvändigt	-10.0651
▁planera	-10.0654
ppa	-10.066
▁lagt	-10.0663
▁maskinen	-10.0679
▁Frå	-10.068
▁kropps	-10.0695
▁ovanlig	-10.0699
▁bank	-10.0714
▁medicinsk	-10.0716
▁kväll	-10.0718
pass	-10.0726
▁smält	-10.0735
▁plocka	-10.0735
▁öga	-10.0735
▁samarbete	-10.0735
▁kilo	-10.0735
ningarna	-10.0737
▁inblandad	-10.0739
bil	-10.0745
allra	-10.0761
▁dött	-10.0761
▁tunn	-10.0766
▁påminn	-10.0767
hör	-10.077
▁kamera	-10.0774
▁bomb	-10.0786
▁allvarlig	-10.0797
mö	-10.0806
mu	-10.0815
▁chef	-10.0837
rör	-10.085
projekt	-10.0866
▁konstig	-10.0874
skriv	-10.0878
ox	-10.088
▁Ge	-10.0885
▁hjärt	-10.0906
▁diskutera	-10.0916
▁sönder	-10.0916
▁ballong	-10.0916
▁vakna	-10.0916
▁yrke	-10.0917
▁modeller	-10.0921
▁Hu	-10.0923
lock	-10.0925
▁hjälpte	-10.093
▁träna	-10.0939
▁kvalitet	-10.0941
▁hemlighet	-10.0944
cell	-10.0948
▁förlorade	-10.0969
▁relation	-10.0973
▁skor	-10.0989
▁kung	-10.0995
▁berättelsen	-10.0999
▁tyst	-10.1002
▁förändrat	-10.1007
▁bakterie	-10.1008
▁sälj	-10.1012
▁blanda	-10.1017
▁stäng	-10.1023
▁lyssnar	-10.1042
▁robotar	-10.1043
▁ekonomin	-10.1047
fisk	-10.1049
▁balans	-10.1052
▁bära	-10.1057
▁situationen	-10.1057
▁erkänna	-10.1066
svarade	-10.1067
lade	-10.1073
stans	-10.1074
▁van	-10.1078
▁ökning	-10.1087
▁släppa	-10.1091
▁sträck	-10.1096
▁13	-10.1098
▁trolig	-10.1101
▁mikro	-10.1101
▁kombinera	-10.1102
▁noll	-10.1102
▁Frank	-10.1102
▁fixa	-10.1102
▁rättigheter	-10.1102
▁försiktig	-10.1104
▁nytta	-10.111
▁antag	-10.1111
▁uppfann	-10.1111
▁fördel	-10.1115
▁restaurang	-10.1117
▁räknar	-10.112
▁trädgård	-10.1129
▁galen	-10.1134
▁köpt	-10.1135
▁Su	-10.1141
▁galn	-10.1166
▁stat	-10.118
▁klipp	-10.1189
▁bas	-10.1201
▁begränsa	-10.1203
▁ändrade	-10.1207
▁kampanj	-10.1213
▁Bri	-10.1218
▁svår	-10.1231
▁Bu	-10.1237
▁vare	-10.1238
▁försvar	-10.1241
efter	-10.1243
zon	-10.1254
▁demokratisk	-10.1263
▁stjärna	-10.127
▁dam	-10.1271
▁hjärn	-10.1273
▁glas	-10.1274
▁mun	-10.128
▁doktor	-10.1285
▁Ti	-10.1287
▁minskar	-10.1289
▁fossil	-10.129
▁kirurg	-10.129
▁tumör	-10.129
▁tendera	-10.1291
▁Mat	-10.1291
▁föremål	-10.1291
▁åker	-10.1292
▁reaktion	-10.1293
ationer	-10.1294
▁sjuk	-10.1297
▁omgivning	-10.13
göra	-10.1301
fatt	-10.1306
▁tids	-10.1311
▁moralisk	-10.1317
▁användbar	-10.1335
les	-10.1335
▁meddelande	-10.1336
band	-10.1339
▁enskild	-10.1344
▁kön	-10.1347
▁tecken	-10.1357
▁ty	-10.1359
▁uppleva	-10.1362
▁författare	-10.1371
elsen	-10.1377
hus	-10.138
▁växter	-10.1388
verkade	-10.1394
▁förlorar	-10.1394
▁huvude	-10.1399
skriften	-10.1401
▁regering	-10.1406
▁förlora	-10.1407
▁al	-10.1409
iserade	-10.1409
varande	-10.1414
▁koncept	-10.1424
▁häftig	-10.1425
▁miss	-10.1426
▁frukt	-10.1426
▁utbilda	-10.1435
▁möter	-10.1437
▁rymd	-10.1439
▁uppdrag	-10.1449
org	-10.1461
▁varm	-10.1476
▁själ	-10.1482
▁silke	-10.1483
▁Universit	-10.1483
▁England	-10.1483
▁mormor	-10.1484
▁plantera	-10.1485
▁sexuell	-10.1486
▁resan	-10.1496
▁styra	-10.1502
▁vända	-10.1503
▁Stor	-10.1504
▁månen	-10.1511
äger	-10.1516
åring	-10.1531
▁månad	-10.1542
▁metafor	-10.1546
linjen	-10.1549
ama	-10.1561
skrift	-10.1564
▁politik	-10.1577
▁ont	-10.1583
▁applåder	-10.1584
▁passion	-10.1586
bud	-10.1586
▁särskild	-10.1592
▁skär	-10.1598
▁glöm	-10.1613
lider	-10.1614
rop	-10.1615
han	-10.1619
▁Ut	-10.1622
stig	-10.1624
▁flö	-10.1628
▁beskriva	-10.1629
▁kriget	-10.1632
tio	-10.1635
företag	-10.1645
▁allmän	-10.1645
▁9	-10.1649
▁relationer	-10.1653
▁uppgift	-10.1656
▁samlade	-10.167
▁långsam	-10.1671
▁maten	-10.1674
komst	-10.1675
qu	-10.1676
väckande	-10.1678
▁omedelbar	-10.1679
▁ägna	-10.1679
▁stabil	-10.1679
▁givet	-10.1679
▁stamceller	-10.1679
▁allihop	-10.1679
▁överraska	-10.1679
▁mötte	-10.168
▁färdig	-10.1681
▁intresse	-10.1682
▁kasta	-10.1687
▁199	-10.1688
ong	-10.1692
▁Bi	-10.1698
▁kraften	-10.1698
▁dödade	-10.1725
▁por	-10.1748
▁politiker	-10.1749
▁beskriv	-10.1759
▁lager	-10.1761
▁version	-10.1763
▁gröna	-10.1769
▁Fl	-10.1773
▁inspirera	-10.1776
▁strukturer	-10.1787
▁Chris	-10.1792
vida	-10.1818
▁troligt	-10.1826
gå	-10.1842
▁möte	-10.1842
person	-10.1848
eck	-10.1858
lott	-10.1864
djur	-10.1869
▁slump	-10.1878
▁relativ	-10.1879
▁sammanhang	-10.1879
▁skräp	-10.1879
mekanism	-10.1879
▁tillämpa	-10.1879
▁dramatisk	-10.1879
▁trevlig	-10.1879
▁mikrober	-10.1879
▁konstant	-10.188
▁oberoende	-10.188
▁Andra	-10.1882
▁släng	-10.1885
▁risker	-10.1885
▁Utan	-10.1891
▁vetenskapsmän	-10.1894
off	-10.1901
▁världs	-10.1903
▁anställ	-10.1907
▁nationell	-10.1908
forskning	-10.1908
▁teori	-10.1916
▁hälso	-10.1918
fri	-10.193
▁Medan	-10.1932
▁förbered	-10.1939
▁fabrik	-10.1951
▁Or	-10.1967
▁typisk	-10.1974
▁skämt	-10.1984
▁Visst	-10.1985
▁havs	-10.1992
▁pojkar	-10.1999
▁amerikaner	-10.2007
▁term	-10.2017
▁möta	-10.2025
▁handen	-10.203
▁poäng	-10.2039
▁ca	-10.2044
▁Ri	-10.2046
brott	-10.2047
▁regeringar	-10.205
▁effektiva	-10.2051
handlade	-10.2059
▁ställer	-10.2061
▁hittat	-10.2076
▁strid	-10.2083
▁elefant	-10.2083
▁intelligens	-10.2083
▁dubbel	-10.2083
▁falsk	-10.2083
▁Ga	-10.2083
▁alldele	-10.2084
▁samlar	-10.2086
▁FN	-10.2086
▁rent	-10.2088
ograf	-10.2092
▁skönhet	-10.2093
▁skrivit	-10.2095
▁Video	-10.2096
▁himlen	-10.2115
▁näring	-10.2121
▁växt	-10.2128
▁behålla	-10.2137
▁nivåer	-10.2147
män	-10.2153
▁flod	-10.2157
▁bevara	-10.2168
bre	-10.2177
▁kod	-10.218
▁polis	-10.2181
▁tät	-10.2181
▁kemisk	-10.2181
▁marknad	-10.2182
▁höga	-10.221
kter	-10.2215
▁gruppen	-10.2241
▁valde	-10.2248
ssystem	-10.2258
▁knapp	-10.2261
▁utföra	-10.2267
ställning	-10.2269
▁bidra	-10.227
▁källa	-10.2282
▁tjäna	-10.2285
▁elektrisk	-10.2291
▁antibiotika	-10.2291
▁familjen	-10.2291
▁syfte	-10.2297
▁Gör	-10.2298
▁likadan	-10.2299
▁rött	-10.2303
▁All	-10.2306
▁stads	-10.2307
NP	-10.231
mmer	-10.232
▁halvt	-10.2322
▁nyheterna	-10.2345
▁vita	-10.2346
▁dansa	-10.2354
▁skjut	-10.2356
gör	-10.2356
▁Pi	-10.2356
▁arg	-10.2361
▁läge	-10.2384
▁trafik	-10.2391
▁regn	-10.2394
▁strategi	-10.2401
test	-10.2412
▁oro	-10.2417
part	-10.2424
▁klar	-10.2428
▁student	-10.2447
▁verkligt	-10.2453
▁vård	-10.2455
▁ansiktet	-10.2459
▁minut	-10.2462
▁visst	-10.2464
▁Lu	-10.2464
▁utmaningen	-10.2465
▁Guds	-10.2469
skal	-10.2474
▁företaget	-10.248
klass	-10.2484
har	-10.2485
▁erbjud	-10.2489
,000	-10.2504
▁kognitiv	-10.2504
▁känslomässig	-10.2504
▁skuld	-10.2504
▁Mellanöstern	-10.2504
▁Slut	-10.2505
▁inkludera	-10.2505
▁känt	-10.2505
▁norr	-10.2506
▁stick	-10.2508
▁Fråga	-10.2509
▁sky	-10.251
▁Alzheimers	-10.2513
▁fär	-10.2517
▁Po	-10.2519
km	-10.2521
▁händelser	-10.2524
▁standard	-10.2533
▁afrikansk	-10.2533
▁beteenden	-10.2541
▁öde	-10.2554
age	-10.2563
▁framgångsrik	-10.257
▁bryt	-10.2573
▁måla	-10.2573
▁lön	-10.2574
▁21	-10.2574
▁generera	-10.2579
klimatförändring	-10.2582
▁Ser	-10.2583
▁farliga	-10.2592
▁kulturell	-10.2596
▁graf	-10.2599
▁försvinn	-10.2631
▁biologi	-10.2648
▁effekt	-10.2665
▁yta	-10.268
▁Mi	-10.2683
▁bestämma	-10.2691
▁isen	-10.2691
vetenskap	-10.2707
andas	-10.2715
▁reste	-10.272
▁Precis	-10.2721
▁Washington	-10.2721
▁definitiv	-10.2721
▁samhälls	-10.2721
▁begär	-10.2721
▁virtuell	-10.2721
▁Asien	-10.2721
▁upprepa	-10.2722
▁arabiska	-10.2722
iker	-10.2722
▁brev	-10.2725
▁Fem	-10.2727
▁mi	-10.274
▁Ed	-10.2746
▁besvara	-10.2775
▁tillhör	-10.2786
▁stäm	-10.2791
▁radio	-10.2794
▁Gi	-10.2795
oo	-10.2797
▁motsvara	-10.2802
▁runtom	-10.2811
▁Si	-10.2814
gram	-10.2821
▁nät	-10.2831
▁medel	-10.2832
▁kemi	-10.2844
▁förlorat	-10.2851
▁publicera	-10.2857
▁skogar	-10.2863
▁gas	-10.2865
▁Li	-10.2868
▁lagra	-10.2879
anser	-10.29
▁Hans	-10.2915
▁400	-10.2915
amma	-10.2918
▁gråt	-10.2932
▁sikt	-10.2936
▁ursprung	-10.2937
▁Ska	-10.2941
▁sub	-10.2943
▁bekväm	-10.2943
▁ignorera	-10.2943
▁radikal	-10.2943
▁tråkig	-10.2943
▁skilje	-10.2943
▁ledarskap	-10.2943
▁svamp	-10.2944
▁samband	-10.2944
▁landskap	-10.2953
▁tung	-10.296
▁såklart	-10.296
▁drag	-10.2966
▁reklam	-10.2973
▁Svar	-10.2975
▁karaktär	-10.2979
vel	-10.2979
▁sälja	-10.2984
▁gud	-10.2996
▁åstadkomma	-10.3
▁for	-10.3001
▁Väl	-10.3003
▁metoder	-10.3007
fl	-10.3007
▁tekniker	-10.3033
undrar	-10.3037
ismen	-10.3045
▁knappt	-10.3048
vikt	-10.3057
▁genomsnitt	-10.3059
▁yng	-10.306
▁position	-10.3061
▁fuska	-10.3079
▁kvällen	-10.3082
▁sanna	-10.3088
kort	-10.3094
▁pojke	-10.3097
▁fält	-10.3102
▁Vårt	-10.3113
▁forska	-10.3144
larna	-10.3156
▁ansvarig	-10.3158
kontroll	-10.3165
▁sjukvård	-10.317
▁anonym	-10.3171
▁historisk	-10.3171
▁nöjd	-10.3171
dräkt	-10.3171
▁president	-10.3171
▁depression	-10.3171
▁fiende	-10.3171
▁klättra	-10.3171
▁Steve	-10.3171
examen	-10.3172
▁Titan	-10.3172
▁skog	-10.3173
▁olja	-10.3173
▁gräns	-10.3174
▁trygg	-10.3174
▁lyckats	-10.3184
▁gator	-10.3187
▁knä	-10.319
▁effektivt	-10.3197
▁fan	-10.3199
råd	-10.3214
▁grad	-10.3215
▁upplevelser	-10.3215
▁glada	-10.3217
▁analysera	-10.3221
fil	-10.3225
▁förhållanden	-10.3231
▁täckt	-10.325
▁slås	-10.326
stö	-10.3268
▁byggnad	-10.3276
kade	-10.3282
sammans	-10.3282
▁tradition	-10.3283
▁For	-10.3284
▁polisen	-10.3292
tog	-10.3298
per	-10.33
▁affärs	-10.3308
▁molekyl	-10.331
värd	-10.3327
▁hämta	-10.3341
▁droger	-10.3345
▁lita	-10.3356
▁fokus	-10.3357
▁Vill	-10.3367
▁Iran	-10.3378
▁fotografi	-10.3378
vänd	-10.3386
▁bryta	-10.3388
▁budskap	-10.3396
▁topp	-10.3398
▁föda	-10.3398
▁vägar	-10.34
mark	-10.3401
helst	-10.3401
konferens	-10.3403
▁NASA	-10.3403
▁gigantisk	-10.3403
▁negativ	-10.3403
▁observera	-10.3403
▁artikel	-10.3403
▁tåg	-10.3403
▁gissa	-10.3403
post	-10.3404
butik	-10.3404
▁årtionden	-10.3404
▁Irak	-10.3405
▁yttr	-10.3405
▁dyr	-10.3406
systemet	-10.3408
▁världskrige	-10.341
▁tjänar	-10.341
▁avlägsna	-10.3413
▁Lo	-10.3424
▁sannolikhet	-10.3426
▁mått	-10.3427
▁jätteb	-10.343
maskin	-10.343
pro	-10.3432
▁båt	-10.3438
▁El	-10.3439
▁programmera	-10.3441
gu	-10.3441
▁katt	-10.3445
▁instrument	-10.3452
ey	-10.3458
ham	-10.3466
▁prova	-10.3478
▁verka	-10.3481
▁epidemi	-10.3488
värde	-10.3496
▁ting	-10.3511
▁fred	-10.3519
▁målning	-10.3519
▁statistik	-10.353
▁rygg	-10.3532
▁ungdomar	-10.3543
▁snälla	-10.3544
blick	-10.3555
inne	-10.356
pil	-10.3568
▁bror	-10.3581
▁marknads	-10.3593
▁öst	-10.3594
▁respekt	-10.3603
sidan	-10.3604
effekt	-10.3631
▁publik	-10.3632
▁specifika	-10.3635
drag	-10.3636
▁Pakistan	-10.3641
▁batteri	-10.3641
▁förtjäna	-10.3641
▁komplicerat	-10.3641
▁online	-10.3641
▁civilisation	-10.3641
▁simma	-10.3641
▁självmord	-10.3641
▁okänd	-10.3641
▁axel	-10.3642
▁entropi	-10.3642
▁katastrof	-10.3652
hal	-10.3652
▁misslyckande	-10.3656
▁ändrat	-10.3657
sikt	-10.366
▁personal	-10.3675
▁Cha	-10.3676
▁Samma	-10.368
▁attackera	-10.3684
åringar	-10.369
emi	-10.3694
▁generationer	-10.3698
▁rep	-10.37
▁billig	-10.3706
▁bota	-10.372
▁figur	-10.3727
▁huset	-10.3745
gud	-10.3753
▁Gå	-10.3761
▁Applåd	-10.3768
▁berömd	-10.3771
arbete	-10.3779
▁Kon	-10.3779
▁missa	-10.3804
▁äga	-10.3807
▁rut	-10.381
▁utsatt	-10.3811
▁miljontal	-10.3836
▁va	-10.3845
▁killar	-10.3855
örer	-10.3856
▁påstå	-10.3866
▁mediciner	-10.3885
▁Twitter	-10.3885
▁Tyskland	-10.3885
▁betrakta	-10.3885
▁kontinent	-10.3885
▁förhindra	-10.3885
▁förstärk	-10.3885
▁motsats	-10.3886
▁stämmer	-10.3886
▁slutänd	-10.3886
▁uppmärksamma	-10.3887
▁dyra	-10.3889
▁Upp	-10.3892
▁obe	-10.3904
Times	-10.3907
▁Sex	-10.391
▁diskussion	-10.3912
mä	-10.3921
▁fördelar	-10.3926
kul	-10.3929
▁fiskar	-10.393
▁webben	-10.3931
▁industri	-10.3933
▁variera	-10.3937
fång	-10.3938
▁tjänst	-10.3942
▁mo	-10.3948
▁utvecklingen	-10.3948
▁analys	-10.3967
▁app	-10.3977
▁Din	-10.3977
▁publicerade	-10.3981
cy	-10.3981
▁informations	-10.3984
lk	-10.399
▁spra	-10.3996
▁filmer	-10.3998
▁Pro	-10.4011
▁arbetet	-10.4023
▁styrka	-10.403
▁dödlig	-10.4032
▁näm	-10.4034
▁gåva	-10.4035
ståndet	-10.4039
▁perfekta	-10.4043
▁Inge	-10.4048
▁parti	-10.4049
▁gärn	-10.4055
▁körde	-10.408
▁familje	-10.4081
▁orden	-10.4081
▁rörelser	-10.4096
▁märker	-10.4113
▁tom	-10.4118
▁datan	-10.4122
nsin	-10.4124
kning	-10.4124
▁ansikten	-10.4134
cent	-10.4134
▁islam	-10.4135
▁teknologier	-10.4135
▁George	-10.4135
▁föreslå	-10.4135
▁förflytta	-10.4135
▁infrastruktur	-10.4135
▁livslängd	-10.4135
▁omständigheter	-10.4135
▁realtid	-10.4135
▁lidande	-10.4135
▁Kenya	-10.4135
▁meningsfull	-10.4135
▁kryp	-10.4135
▁förväntningar	-10.4135
▁lansera	-10.4135
▁åsikt	-10.4136
▁sjunk	-10.4137
▁foton	-10.4137
▁barnbarn	-10.414
▁kräva	-10.4142
▁livstid	-10.4143
wi	-10.4154
material	-10.4155
▁tänder	-10.4156
H	-10.4157
▁Pe	-10.4159
▁gy	-10.4163
▁närvarande	-10.4164
▁sakta	-10.4169
ndra	-10.4174
▁infektion	-10.4176
▁kända	-10.4179
▁arkitektur	-10.4181
▁träffar	-10.4181
▁kameror	-10.4182
▁kinesiska	-10.4183
uff	-10.4192
ycket	-10.4195
opi	-10.4199
▁laget	-10.4225
▁sjö	-10.4227
▁övertygad	-10.4231
press	-10.4233
▁erbjuda	-10.4235
▁datorn	-10.4243
strålning	-10.4246
▁byggnaden	-10.4256
▁regel	-10.4262
▁atmosfär	-10.4282
▁leka	-10.4284
▁relatera	-10.4296
▁konflikt	-10.4303
biolog	-10.431
områden	-10.4313
▁pan	-10.4319
▁ägg	-10.4322
▁samt	-10.4324
▁magisk	-10.4327
▁Los	-10.4328
▁friska	-10.4329
värsta	-10.4336
▁satellit	-10.4337
▁korta	-10.435
▁trä	-10.4354
ärm	-10.4371
▁berör	-10.4379
▁ordning	-10.4381
pin	-10.4385
▁Richard	-10.4392
▁Saturnus	-10.4392
▁alkohol	-10.4392
▁budget	-10.4392
▁kollektiv	-10.4392
▁omfamna	-10.4392
▁orättvis	-10.4392
▁populär	-10.4392
▁religiös	-10.4392
▁övertygelse	-10.4392
▁diagram	-10.4392
▁flugor	-10.4392
▁snurra	-10.4392
▁uppfinna	-10.4392
▁exemple	-10.4392
▁integrera	-10.4392
▁David	-10.4392
▁golv	-10.4392
▁ursäkt	-10.4392
▁klocka	-10.4392
▁Stasi	-10.4393
▁begränsningar	-10.4393
▁syster	-10.4394
▁släppte	-10.4395
▁2009	-10.4397
▁modellen	-10.44
▁sann	-10.4404
▁ekosystem	-10.4404
fyll	-10.4404
▁fly	-10.4405
▁fylla	-10.4413
▁dyka	-10.443
▁Che	-10.4441
lor	-10.4451
▁vandra	-10.4453
▁0	-10.4455
▁överför	-10.4456
▁sinnen	-10.447
▁studenterna	-10.4479
▁Ko	-10.4485
▁synlig	-10.4502
när	-10.4513
▁soldater	-10.4514
▁kärn	-10.4521
▁marknaden	-10.4532
ennes	-10.4533
▁poängen	-10.4533
förtid	-10.454
▁lektion	-10.4543
ällan	-10.4548
▁möjliggör	-10.4555
▁dinosaurier	-10.4557
▁drabba	-10.4562
▁bitar	-10.4572
▁försvinna	-10.4587
ökning	-10.4596
▁hemlig	-10.4599
▁pl	-10.4605
ib	-10.4605
▁teckna	-10.4606
▁35	-10.4612
bruk	-10.4613
▁driva	-10.4619
▁Sam	-10.462
▁evolution	-10.4621
▁undan	-10.4631
▁plu	-10.4646
▁koppling	-10.4651
▁bröst	-10.4655
kategori	-10.4655
▁Kvinnor	-10.4655
▁barnadödlighet	-10.4655
▁bekämpa	-10.4655
▁beräkna	-10.4655
▁ekologisk	-10.4655
▁kombination	-10.4655
▁rationell	-10.4655
▁tjock	-10.4655
▁osynlig	-10.4655
▁sänk	-10.4655
▁nervceller	-10.4655
▁symbol	-10.4656
▁svag	-10.4656
porträtt	-10.4658
▁fäst	-10.4658
▁offer	-10.4659
▁Herre	-10.4659
▁komplexitet	-10.4659
▁genomföra	-10.4662
▁fira	-10.4664
▁närmast	-10.4666
iff	-10.4666
▁Bill	-10.4674
▁grå	-10.4674
▁undervisa	-10.4675
▁dikt	-10.4684
▁lugn	-10.4689
struktur	-10.469
miljö	-10.469
▁plattform	-10.4691
▁föredrag	-10.4692
▁anti	-10.4693
▁Fa	-10.471
▁rök	-10.4713
▁skam	-10.4722
10	-10.4723
▁kapacitet	-10.473
▁faktorer	-10.4746
▁kraftig	-10.4748
▁takt	-10.4749
mot	-10.4755
▁designer	-10.4755
▁förvånan	-10.4757
pati	-10.4765
▁döds	-10.4776
▁stol	-10.4778
▁tidning	-10.4784
där	-10.4791
▁aktiva	-10.4791
ben	-10.4798
▁kurs	-10.4817
lösning	-10.4818
▁sjukdomen	-10.4842
▁lärande	-10.4844
▁säm	-10.4853
▁effekter	-10.4856
▁säkerhets	-10.4858
▁trycka	-10.4865
mässig	-10.4866
▁grader	-10.4886
bund	-10.4894
▁mag	-10.4894
skri	-10.4894
▁samling	-10.4896
▁leverera	-10.4897
▁drömm	-10.4913
▁Darwin	-10.4925
▁Koranen	-10.4925
▁beskrev	-10.4925
▁frivillig	-10.4925
▁hylla	-10.4925
▁konsument	-10.4925
▁matematisk	-10.4925
▁oändlig	-10.4925
▁universell	-10.4925
▁grönsak	-10.4925
▁ljug	-10.4925
▁fordon	-10.4925
▁Norden	-10.4925
▁motivation	-10.4925
▁passiv	-10.4925
▁intellekt	-10.4925
▁värderingar	-10.4925
▁Fram	-10.4925
▁75	-10.4925
▁möss	-10.4926
▁återskapa	-10.4926
▁inträffa	-10.4926
▁dold	-10.4926
▁kust	-10.4926
▁armé	-10.4926
▁Anders	-10.4926
▁massiv	-10.4926
▁variation	-10.4927
häl	-10.4927
▁effektiv	-10.4937
▁kliv	-10.4938
▁finans	-10.4945
▁Am	-10.4951
F	-10.4953
▁hoppade	-10.4962
▁uppfatta	-10.4965
blad	-10.4969
▁undervisning	-10.4969
▁operation	-10.4975
▁öppnade	-10.4978
▁märkte	-10.498
▁mod	-10.498
▁faktor	-10.4983
▁fria	-10.4983
gran	-10.4985
formade	-10.4995
▁centrum	-10.4996
▁sitta	-10.4999
▁gräv	-10.5005
▁andel	-10.5013
▁orolig	-10.5016
bilder	-10.5019
▁grann	-10.5057
▁medveten	-10.5076
▁fruktansvärd	-10.5079
▁likt	-10.5092
▁högra	-10.5098
syn	-10.5098
▁högst	-10.5102
▁fart	-10.5115
▁stycke	-10.512
▁forsknings	-10.5133
▁skrämma	-10.5144
20	-10.5145
Ex	-10.516
▁molekyler	-10.5163
▁magnet	-10.5166
▁signaler	-10.5168
▁Dan	-10.5169
▁argument	-10.5171
▁ond	-10.5187
ingenjör	-10.5191
▁studerat	-10.5191
gångar	-10.5199
drift	-10.52
▁Go	-10.52
▁arkitekt	-10.5201
,5	-10.5202
▁tjugo	-10.5203
▁volym	-10.5203
▁element	-10.5203
▁bjud	-10.5203
▁bekant	-10.5203
▁felaktig	-10.5204
▁99	-10.5204
▁uppskattning	-10.5206
▁Väst	-10.5206
▁skrik	-10.5206
▁salt	-10.5209
▁krav	-10.5212
samt	-10.5223
▁hata	-10.5235
▁grödor	-10.5241
▁herr	-10.5244
▁hårda	-10.5244
▁hörne	-10.5246
▁allmänna	-10.5246
▁galax	-10.5248
driv	-10.5248
▁skratta	-10.5251
▁lov	-10.5251
▁bygg	-10.5251
▁enheter	-10.5252
höll	-10.5254
▁nutid	-10.5267
▁guld	-10.5267
▁vettig	-10.5273
uck	-10.5274
▁kapital	-10.5276
kropp	-10.5279
bra	-10.5283
▁fas	-10.5288
▁bakterierna	-10.5291
▁medvetenhet	-10.5291
▁sjuka	-10.5293
▁Ah	-10.5294
▁anledningar	-10.5295
▁besökt	-10.5302
▁hjärtsjukdom	-10.5305
▁experimentet	-10.5317
▁egenskap	-10.5318
▁anta	-10.532
sive	-10.5323
ämmande	-10.5328
▁våldsam	-10.5328
▁upplevelsen	-10.5331
rumme	-10.5331
▁omöjlig	-10.5331
▁tonår	-10.5332
▁flyt	-10.534
ntern	-10.5344
räd	-10.5349
▁handla	-10.5359
▁farligt	-10.5361
▁ringa	-10.5362
bus	-10.5364
organ	-10.5371
▁värd	-10.5375
▁utom	-10.5384
▁jämföra	-10.5388
▁vänst	-10.5398
▁revolutionen	-10.5403
▁skaka	-10.5418
▁påminna	-10.544
▁platt	-10.5445
▁institutioner	-10.5456
▁multi	-10.547
▁förstöra	-10.547
▁vind	-10.5478
jäm	-10.5479
▁Bur	-10.5481
mästare	-10.5488
▁Angeles	-10.5489
▁konversation	-10.5489
▁lögn	-10.5489
▁slöseri	-10.5489
▁blodkärl	-10.5489
▁oundviklig	-10.5489
▁presentation	-10.5489
▁pröva	-10.5489
▁trauma	-10.5489
▁konstruera	-10.5489
▁upphov	-10.5489
▁Indus	-10.5489
▁baby	-10.5489
▁klinisk	-10.5489
▁AIDS	-10.5489
▁strand	-10.549
▁förmedla	-10.5491
▁rena	-10.5492
▁human	-10.5495
skylt	-10.5495
▁ojämlikhet	-10.5496
▁Hör	-10.5496
▁fett	-10.5497
▁motstånd	-10.5498
▁fiske	-10.5502
▁150	-10.5502
▁djuren	-10.5509
▁uppsättning	-10.5515
▁rättvis	-10.5527
▁illusion	-10.5527
▁rättvisa	-10.553
fann	-10.553
▁banan	-10.5531
liggande	-10.5534
▁naturlig	-10.5542
skydd	-10.5542
löser	-10.5544
▁Gu	-10.5545
▁Pete	-10.5546
▁utmärkt	-10.5547
nledning	-10.5548
färd	-10.555
krisen	-10.555
▁ordna	-10.5551
▁80-	-10.5551
▁uppgifter	-10.5551
bank	-10.5552
▁kläder	-10.5553
lopp	-10.5556
konst	-10.5558
▁45	-10.5564
▁skärmen	-10.5565
mask	-10.557
▁städerna	-10.5578
under	-10.5579
▁cirkel	-10.558
▁mode	-10.5585
▁stil	-10.5587
▁förekomm	-10.5589
testet	-10.5589
berg	-10.5592
▁noggrann	-10.5598
prov	-10.5604
nät	-10.5608
stadie	-10.5619
▁tillbak	-10.5628
▁inspirerade	-10.5636
▁hav	-10.5638
torn	-10.5653
▁kall	-10.5656
▁65	-10.5658
▁språket	-10.5666
▁flyttade	-10.5666
▁kä	-10.5667
▁so	-10.5677
▁bränn	-10.5693
▁medier	-10.5703
gon	-10.5709
ljud	-10.5713
▁allvarliga	-10.5714
▁nämna	-10.5732
▁rikta	-10.5743
gal	-10.5749
▁skogs	-10.5752
▁fundamental	-10.5753
▁Tu	-10.5754
ifiera	-10.577
▁misstänk	-10.5772
▁besök	-10.5775
järn	-10.5778
▁kommun	-10.5783
▁Egypten	-10.5783
▁påbörja	-10.5783
▁spindel	-10.5783
▁söder	-10.5783
▁trött	-10.5783
▁parasit	-10.5783
▁ordentligt	-10.5783
▁korruption	-10.5783
▁öron	-10.5783
partiklar	-10.5783
▁förlust	-10.5784
▁olje	-10.5784
▁ersätta	-10.5784
▁väck	-10.5785
▁förflut	-10.5785
▁rotera	-10.5785
▁synner	-10.5785
▁hotell	-10.5785
▁anslut	-10.5786
▁visdom	-10.5787
▁anställda	-10.579
▁efterfråga	-10.5791
▁Wal	-10.5791
papp	-10.5791
▁nyfikenhet	-10.5794
▁sålde	-10.5794
▁maj	-10.5795
▁tidpunkt	-10.5796
fattande	-10.5797
▁fågel	-10.5807
▁Con	-10.5811
▁Mer	-10.5814
block	-10.5818
▁bidrag	-10.5818
ölj	-10.582
▁påverkan	-10.5839
nivån	-10.584
▁kris	-10.584
fråga	-10.584
▁sekvens	-10.5841
▁professor	-10.5845
tagande	-10.5846
▁häpnad	-10.5847
▁magi	-10.5848
▁194	-10.5849
▁bord	-10.585
▁sommaren	-10.5858
▁saknar	-10.5871
fritt	-10.5871
▁centrala	-10.5878
▁tycka	-10.5888
jord	-10.5888
jan	-10.5893
▁männen	-10.5893
▁tvärs	-10.5898
▁stam	-10.5903
▁Ob	-10.5905
digt	-10.5905
▁områdena	-10.5906
▁galaxer	-10.5917
▁effekten	-10.5936
▁skador	-10.594
kro	-10.5946
▁tysta	-10.595
▁halva	-10.5955
▁kraftfulla	-10.5957
▁affärer	-10.5965
▁vägra	-10.5976
▁värme	-10.5982
▁23	-10.5984
▁teknologin	-10.5984
▁sorg	-10.5986
▁Wi	-10.599
▁filosofi	-10.5996
▁peka	-10.5997
▁vindkraft	-10.6006
▁förbli	-10.6008
kil	-10.6011
området	-10.602
▁klassrum	-10.6032
▁strategier	-10.6049
▁22	-10.6053
▁vag	-10.6062
▁vild	-10.6073
öst	-10.6075
▁åldra	-10.6076
▁gale	-10.6083
▁inklu	-10.6085
terigen	-10.6085
▁National	-10.6086
▁betyg	-10.6086
▁diabetes	-10.6086
▁inbjud	-10.6086
▁incitament	-10.6086
▁kyckling	-10.6086
▁optimistisk	-10.6086
▁rovdjur	-10.6086
▁attityd	-10.6086
▁fönster	-10.6086
▁kopiera	-10.6086
▁ritual	-10.6086
▁marknadsföring	-10.6086
▁intensiv	-10.6086
▁kritisk	-10.6086
▁lastbil	-10.6086
▁övervaka	-10.6086
▁västvärlden	-10.6087
▁evolutionär	-10.609
▁häst	-10.609
▁röster	-10.6091
▁koncentrera	-10.6098
▁kök	-10.6109
▁förfäder	-10.6121
▁smärtsam	-10.6132
vakt	-10.6149
▁nämnde	-10.615
läng	-10.6153
▁förhoppnings	-10.6157
tjänst	-10.6158
▁tillverkning	-10.6158
▁flyktingar	-10.6159
marknad	-10.6165
▁närheten	-10.6168
▁vinst	-10.6172
länder	-10.618
▁pekar	-10.6181
▁stilla	-10.6182
▁lagen	-10.6185
▁enklare	-10.6187
fattar	-10.6191
▁grä	-10.6191
▁hallucinationer	-10.6194
▁daglig	-10.6196
▁Någon	-10.6197
▁protein	-10.6201
▁glömma	-10.6206
▁cykel	-10.6208
▁gula	-10.6209
▁revolution	-10.621
▁utsläpp	-10.6211
▁tysk	-10.6214
▁roliga	-10.6217
given	-10.6219
▁fyllde	-10.622
omma	-10.6222
spelare	-10.6228
▁affär	-10.623
▁våg	-10.6241
▁Land	-10.6245
▁Gra	-10.6248
▁materialet	-10.6252
▁magen	-10.6253
▁villig	-10.6256
▁händerna	-10.6275
▁fångar	-10.6279
▁krigs	-10.6282
▁region	-10.6289
▁Tom	-10.6292
▁krist	-10.6293
▁studerade	-10.6295
lyser	-10.6295
▁beundra	-10.6301
▁national	-10.6315
▁Någo	-10.6325
ryl	-10.6335
▁lopp	-10.634
▁dricka	-10.6352
▁lugna	-10.6358
lika	-10.6365
koll	-10.637
▁förtryck	-10.637
▁kolleg	-10.6376
▁medvetandet	-10.6388
▁förklarade	-10.6394
myndighet	-10.6395
population	-10.6396
▁mjuk	-10.6398
▁konsumera	-10.6398
▁Charles	-10.6398
▁kaffe	-10.6398
▁besatt	-10.6399
▁lukt	-10.6399
▁livsmedels	-10.6399
▁svält	-10.6399
▁citat	-10.6399
▁uppfinning	-10.6399
syndrom	-10.6399
▁197	-10.64
▁Paris	-10.64
▁objektiv	-10.6403
benäg	-10.6403
▁post	-10.6404
▁ursprunglig	-10.6409
▁fötter	-10.6409
▁nyheten	-10.6411
▁ideal	-10.6422
▁Mark	-10.6423
burg	-10.6424
▁medvetande	-10.6426
▁trycker	-10.6432
▁mönstre	-10.6433
▁toalett	-10.6433
▁undantag	-10.6433
arter	-10.6435
▁journalist	-10.6437
▁förklaring	-10.6441
▁nån	-10.6448
▁makten	-10.6453
användning	-10.6455
▁personlighet	-10.646
▁främlingar	-10.6465
▁snö	-10.6467
▁kallad	-10.6471
väx	-10.6476
period	-10.6482
resultat	-10.6482
▁cent	-10.6499
rax	-10.6503
▁förundra	-10.6506
▁relevant	-10.6516
▁bl	-10.6516
▁Ry	-10.6517
▁träning	-10.652
▁locka	-10.6526
▁lura	-10.6534
▁rader	-10.6557
▁ram	-10.6558
läger	-10.6564
bror	-10.6571
▁organismer	-10.6574
▁länka	-10.6586
▁tänkande	-10.6589
data	-10.6602
nader	-10.6602
hål	-10.6603
konto	-10.6604
film	-10.6604
▁märkt	-10.6607
▁rest	-10.6612
▁situationer	-10.6613
▁förvånad	-10.6619
▁framgångsrika	-10.6621
ägg	-10.6629
▁nerv	-10.6647
▁främling	-10.6653
▁spridning	-10.6669
▁förväntade	-10.6676
▁individ	-10.6678
bur	-10.6678
▁prover	-10.6689
▁vilda	-10.6704
▁linje	-10.6706
▁skräck	-10.6717
▁elektro	-10.6717
▁nyhets	-10.6721
invånare	-10.6721
▁Parkinson	-10.6721
▁Stanford	-10.6721
▁absorbera	-10.6721
▁automatisk	-10.6721
▁funktionshind	-10.6721
▁olycklig	-10.6721
▁varumärke	-10.6721
▁välmående	-10.6721
▁återhämta	-10.6721
▁januari	-10.6721
▁biljon	-10.6721
▁straff	-10.6721
▁brittisk	-10.6721
▁skyldig	-10.6721
klubb	-10.6721
▁krossa	-10.6721
▁isolera	-10.6721
▁kvant	-10.6721
▁domstol	-10.6721
▁kommersiell	-10.6721
▁individuell	-10.6721
▁äventyr	-10.6721
▁tillverkar	-10.6722
▁färdigheter	-10.6722
▁begrepp	-10.6722
▁farfar	-10.6724
seende	-10.6725
▁logisk	-10.6725
alla	-10.6725
▁bönder	-10.6725
▁Tra	-10.6726
▁dumma	-10.6728
▁öva	-10.6728
▁fest	-10.6731
▁Kongo	-10.6732
▁barndom	-10.6737
▁Rut	-10.6737
strå	-10.674
▁inställning	-10.6745
läge	-10.6746
▁prototyp	-10.6749
▁underhåll	-10.675
▁stödja	-10.6752
oc	-10.6758
ljus	-10.676
lob	-10.6773
▁besöka	-10.6773
vatten	-10.6778
gräns	-10.6781
flöde	-10.6783
▁ej	-10.6785
▁pressa	-10.6786
▁njutning	-10.6787
▁sjukhuset	-10.6788
taket	-10.6794
▁påverkade	-10.6795
makt	-10.6797
program	-10.6801
▁skrämm	-10.6801
▁sträva	-10.6803
▁expert	-10.6804
▁teorin	-10.681
▁grejer	-10.6811
▁kulturer	-10.6815
böcker	-10.6815
▁satelliter	-10.6818
▁syns	-10.6826
▁konflikter	-10.6834
▁nämn	-10.6841
▁spa	-10.6848
▁byggd	-10.685
▁förslag	-10.6857
▁to	-10.6862
▁rädslan	-10.6866
▁ropa	-10.6876
▁uttrycka	-10.6879
mare	-10.6881
nting	-10.6883
▁mörka	-10.6888
▁energin	-10.6892
▁organism	-10.6896
älj	-10.6898
▁intressen	-10.6919
▁gras	-10.6921
▁ful	-10.6926
▁Liv	-10.6927
▁reser	-10.6927
ledare	-10.6931
▁nyfik	-10.6943
bro	-10.6954
tryck	-10.6958
▁röd	-10.6958
▁öppe	-10.6959
▁detalj	-10.6959
▁Pol	-10.6962
▁fastna	-10.6971
▁sakna	-10.6988
▁föreställning	-10.6992
▁cool	-10.7016
▁lova	-10.7017
▁proteiner	-10.7023
▁stopp	-10.7031
▁handlingar	-10.7031
▁Kyros	-10.7054
▁förmågor	-10.7054
▁förutsäga	-10.7054
▁gemenskap	-10.7054
▁hjältar	-10.7054
▁inspiration	-10.7054
▁professionell	-10.7054
▁västerländsk	-10.7054
▁ansåg	-10.7054
▁bröt	-10.7054
▁hunger	-10.7054
▁gruv	-10.7054
▁spänning	-10.7054
▁mycel	-10.7054
▁Central	-10.7054
▁livsstil	-10.7054
▁motivera	-10.7055
▁spred	-10.7055
▁skild	-10.7055
▁mystisk	-10.7055
▁akut	-10.7055
▁rulla	-10.7056
▁olycka	-10.7056
▁status	-10.7058
▁antog	-10.7058
▁miljöer	-10.7059
▁brun	-10.7059
▁inverka	-10.7062
▁urval	-10.7066
▁öken	-10.7066
▁1900-	-10.7069
▁grannar	-10.7077
▁Mary	-10.7078
▁God	-10.7082
bri	-10.7088
barn	-10.7095
park	-10.7096
▁muskel	-10.71
▁rev	-10.7101
▁Jame	-10.7125
delning	-10.7129
▁konsumtion	-10.7133
▁tävling	-10.7133
ester	-10.7135
▁utrustning	-10.7141
▁Fo	-10.7142
chi	-10.7146
du	-10.7148
▁muslimsk	-10.7151
▁pu	-10.7158
utbildning	-10.7162
▁konstruktion	-10.7166
död	-10.7171
▁forskningen	-10.7179
prestera	-10.7194
▁signal	-10.7204
▁atomer	-10.7205
▁svär	-10.7218
▁tjänster	-10.7221
▁kärna	-10.7228
lim	-10.7235
▁huvudsaklig	-10.7244
värdera	-10.7246
scen	-10.7262
▁termer	-10.7265
vek	-10.7274
▁Hi	-10.7281
▁avgöra	-10.7283
▁introducera	-10.7292
▁intervju	-10.7295
▁ekonom	-10.7297
▁skjuta	-10.7298
emot	-10.7312
haj	-10.7316
▁fina	-10.7329
▁symboler	-10.7332
▁special	-10.7338
städer	-10.7344
▁våga	-10.7347
▁organisera	-10.7347
▁insekt	-10.7362
▁attack	-10.7368
▁temperatur	-10.7374
▁hundar	-10.7385
bjöd	-10.7386
▁sjunga	-10.7391
▁undersök	-10.7396
dokument	-10.7397
sjukdomar	-10.7399
▁svampar	-10.7399
▁överväldiga	-10.7399
▁Australien	-10.7399
▁Michael	-10.7399
▁bubbla	-10.7399
▁dopamin	-10.7399
▁expandera	-10.7399
▁illustrera	-10.7399
▁kvadrat	-10.7399
▁reducera	-10.7399
▁uppvärmning	-10.7399
▁förbjud	-10.7399
▁otrohet	-10.7399
▁registrera	-10.7399
▁semester	-10.7399
▁siffra	-10.7399
▁bibeln	-10.7399
▁Faktisk	-10.7399
▁Francisco	-10.7399
▁bombsikte	-10.7399
▁mjukvara	-10.7399
▁Eric	-10.74
▁Park	-10.74
▁Kanada	-10.74
▁regim	-10.74
▁produktivitet	-10.74
klinik	-10.74
process	-10.7401
nörd	-10.7402
▁globalisering	-10.7403
▁prestation	-10.7405
▁torka	-10.7405
▁fördomar	-10.7405
▁buss	-10.7406
▁vänskap	-10.7407
▁avstånd	-10.7408
tänd	-10.7412
räv	-10.7415
▁uppmana	-10.7417
▁Bang	-10.7418
▁utseende	-10.7418
▁gymnasiet	-10.742
▁solsystemet	-10.7422
▁bön	-10.7423
▁spring	-10.7431
▁söka	-10.7441
▁infektera	-10.7449
▁industriell	-10.7449
▁personerna	-10.7452
▁jämförelse	-10.7455
▁eleverna	-10.7468
▁make	-10.7473
▁Ing	-10.7481
▁lyfta	-10.7482
▁Green	-10.7487
▁mask	-10.7498
▁biten	-10.7501
▁född	-10.7506
▁astronom	-10.7508
jälvklart	-10.7508
adels	-10.7511
affär	-10.7515
design	-10.7518
lysande	-10.7521
▁villkor	-10.7527
▁hemska	-10.7537
▁koka	-10.7539
▁förutse	-10.7544
▁lärdom	-10.7546
▁stänga	-10.755
▁fruktansvär	-10.7555
▁blås	-10.7556
▁genomsnittlig	-10.7558
▁geni	-10.759
bul	-10.7593
▁betalade	-10.7597
mal	-10.7599
▁staten	-10.7602
▁odlar	-10.7614
▁start	-10.762
▁människo	-10.7629
körd	-10.7631
▁krävde	-10.7632
▁billiga	-10.7654
▁muslim	-10.7654
▁orsaker	-10.7655
▁strävan	-10.7665
▁skydd	-10.7672
▁Bell	-10.7678
▁kopp	-10.7683
▁tillfällen	-10.7705
▁krafter	-10.7706
grupper	-10.7708
▁grym	-10.7719
▁Au	-10.7723
▁sjön	-10.7726
▁protes	-10.7732
▁principer	-10.7743
▁döden	-10.7744
grav	-10.7747
röntgen	-10.7756
▁Grekland	-10.7756
▁advokat	-10.7756
▁bekräfta	-10.7756
▁dynamisk	-10.7756
▁extraordinär	-10.7756
▁försäkra	-10.7756
▁konkret	-10.7756
▁löfte	-10.7756
▁mekanisk	-10.7756
▁olyckor	-10.7756
▁oskyldig	-10.7756
▁skilja	-10.7756
▁Haiti	-10.7756
▁europeisk	-10.7756
▁observation	-10.7756
▁tragisk	-10.7756
▁tvivel	-10.7756
▁Harvard	-10.7756
▁Virgin	-10.7756
▁överraskning	-10.7756
▁Gates	-10.7756
▁värdefulla	-10.7756
▁Street	-10.7756
▁webbplats	-10.7756
▁kopia	-10.7757
▁elektronisk	-10.7757
paket	-10.7757
▁hänsyn	-10.7758
▁korsa	-10.7758
▁populationen	-10.7759
▁hemmet	-10.7766
▁tuff	-10.7766
▁ingenjörer	-10.7767
givare	-10.7769
▁talang	-10.7775
▁uppfyll	-10.7777
▁döm	-10.7778
▁överflöd	-10.778
▁armar	-10.7781
▁brand	-10.7782
▁handled	-10.7783
▁dimension	-10.7784
▁indisk	-10.7787
baserad	-10.7787
▁mass	-10.7791
▁vetenskapsman	-10.7797
▁tillät	-10.7798
emellan	-10.7801
▁flugan	-10.7805
▁solcell	-10.7806
▁drick	-10.7809
▁90-	-10.7812
▁lägenhet	-10.7814
▁flygande	-10.7823
▁vätska	-10.7823
undrade	-10.7833
▁smal	-10.7837
▁ungar	-10.7842
▁kondomer	-10.7843
▁bind	-10.7843
▁Bro	-10.7855
▁tillgångar	-10.7864
▁spelet	-10.7871
▁kameran	-10.7876
▁vinden	-10.7876
fy	-10.7877
cancer	-10.7885
▁regionen	-10.7885
kanten	-10.7892
▁jul	-10.7899
▁Säg	-10.7902
▁flickan	-10.791
▁utrota	-10.7924
▁universitetet	-10.7925
delade	-10.7928
▁Sil	-10.7931
▁modiga	-10.795
▁sport	-10.795
▁förändringen	-10.7952
▁decennier	-10.7968
hög	-10.7978
▁religioner	-10.7994
▁psykolog	-10.7995
▁vaccin	-10.8003
forskare	-10.8016
▁förbättring	-10.8042
▁kö	-10.8042
▁Sta	-10.8044
col	-10.8054
▁resultaten	-10.807
30	-10.8077
▁mänsklighet	-10.8079
▁kastar	-10.8082
▁springa	-10.8095
▁förvåna	-10.81
▁munn	-10.8113
▁beräkningar	-10.8122
▁Natur	-10.8124
▁gravid	-10.8125
bubblor	-10.8126
ouTube	-10.8126
▁Bhutan	-10.8126
▁engagemang	-10.8126
▁explodera	-10.8126
▁injicera	-10.8126
▁läder	-10.8126
▁teleskop	-10.8126
▁äldst	-10.8126
▁Atlant	-10.8126
▁asteroid	-10.8126
▁komplett	-10.8126
▁High	-10.8126
▁Israel	-10.8126
▁mikroskop	-10.8126
▁Jemen	-10.8127
▁föreslog	-10.8127
▁Flicka	-10.8127
▁Gaza	-10.8127
▁förutsättningar	-10.8127
▁Person	-10.8127
▁seriös	-10.8127
▁rimlig	-10.8127
▁tolka	-10.8127
▁förneka	-10.8127
▁dominera	-10.8127
▁1960	-10.8127
museum	-10.8127
▁marin	-10.8127
sträng	-10.8128
▁fredag	-10.8128
▁insats	-10.8128
▁nådde	-10.8128
▁trans	-10.8129
▁agent	-10.8129
▁krock	-10.813
▁bakåt	-10.813
terapi	-10.813
▁förmån	-10.813
▁nord	-10.8131
hugg	-10.8135
lampor	-10.8135
▁Dag	-10.8138
▁boll	-10.8144
▁motsatt	-10.8148
▁brus	-10.8152
▁kemikalier	-10.8152
▁odling	-10.8155
▁Mag	-10.8156
▁stan	-10.8158
▁utsidan	-10.8158
▁överväg	-10.8165
▁Cit	-10.8172
minister	-10.8185
▁märka	-10.8191
▁klassrumme	-10.8197
systrar	-10.8201
▁hundratusen	-10.8201
▁separat	-10.8202
▁faktisk	-10.8204
▁Big	-10.8204
▁undersökte	-10.8204
▁60-	-10.8206
▁gul	-10.8208
litar	-10.8216
▁domare	-10.8217
▁demokratier	-10.8232
förändringarna	-10.8238
▁brydd	-10.8244
▁oljan	-10.8256
▁dinosaurie	-10.8267
krets	-10.827
jobb	-10.8274
rand	-10.8283
▁krets	-10.8285
▁evolutionen	-10.8286
error	-10.8286
vård	-10.8308
▁psykologisk	-10.8313
krig	-10.8316
motor	-10.8322
▁ström	-10.8322
▁recept	-10.8325
▁sensorer	-10.8327
▁politiken	-10.8342
▁skapande	-10.8347
▁möt	-10.8363
▁196	-10.8369
50	-10.8372
▁känslo	-10.8379
löshet	-10.8397
▁600	-10.8408
▁ifrågasätta	-10.8413
▁vägled	-10.8422
▁mörda	-10.8423
▁kyl	-10.8428
lingar	-10.843
▁följd	-10.8452
kedja	-10.8456
klädd	-10.8459
▁smitta	-10.8485
▁experimentera	-10.8492
▁evig	-10.8496
▁psyko	-10.8497
▁laga	-10.8505
gränsen	-10.8506
▁föredra	-10.8508
kostnad	-10.851
▁släkt	-10.8511
▁MIT	-10.8511
▁Manhattan	-10.8511
▁World	-10.8511
▁autonom	-10.8511
▁blomstra	-10.8511
▁garantera	-10.8511
▁kylskåp	-10.8511
▁omloppsbana	-10.8511
▁poesi	-10.8511
▁primat	-10.8511
▁uppfostra	-10.8511
▁anklaga	-10.8511
▁hinder	-10.8511
▁mejl	-10.8511
▁Håll	-10.8511
▁höft	-10.8511
▁matlagning	-10.8511
Global	-10.8511
▁middag	-10.8511
▁sömn	-10.8511
▁mutation	-10.8511
▁tvätta	-10.8511
▁runda	-10.8511
vention	-10.8512
▁utomhus	-10.8512
▁låtsas	-10.8512
▁variant	-10.8512
▁sväng	-10.8512
▁puls	-10.8512
▁längd	-10.8512
▁arbetskraft	-10.8512
▁1950	-10.8513
▁fåglar	-10.8513
▁minskning	-10.8513
▁dokumentera	-10.8513
▁kväv	-10.8513
▁hushåll	-10.8515
▁Saker	-10.8515
▁Paul	-10.8516
▁27	-10.8516
▁tidsålder	-10.8516
▁Doaa	-10.8516
▁Laden	-10.8517
▁återvinn	-10.8522
▁erbjöd	-10.8526
▁mäktiga	-10.8527
sfär	-10.8528
▁Sätt	-10.8533
▁mage	-10.8535
▁120	-10.8546
▁bistånd	-10.8568
vinner	-10.857
▁beräkning	-10.8572
ländsk	-10.8573
▁koloni	-10.8573
▁allmänheten	-10.8577
kurs	-10.8578
▁bibliotek	-10.8583
▁litteratur	-10.8583
ologisk	-10.8587
▁uppenbarelse	-10.8588
ight	-10.8598
▁berget	-10.8598
▁uppåt	-10.8607
▁notera	-10.8614
pack	-10.8624
▁antik	-10.8641
▁kvarter	-10.8641
▁programmet	-10.8644
ägare	-10.8645
▁patienterna	-10.8647
▁drabbade	-10.865
lägg	-10.8656
▁böj	-10.8657
▁föd	-10.8658
fält	-10.8669
kampanj	-10.8672
▁sång	-10.8672
kunskap	-10.8672
teknologi	-10.8673
regler	-10.8674
unk	-10.8678
tänkande	-10.8683
▁granne	-10.8691
ekonomi	-10.8691
▁begränsad	-10.8694
▁algoritmer	-10.8703
flu	-10.8704
▁placerade	-10.8705
▁bana	-10.8707
▁apparat	-10.8712
▁tidig	-10.8717
samhet	-10.8744
baserade	-10.8746
▁grisar	-10.8746
presterar	-10.8751
färg	-10.8752
▁omedvet	-10.8765
▁drömma	-10.8766
▁norm	-10.8767
ronisk	-10.8775
▁kok	-10.8776
▁designade	-10.8777
▁algoritm	-10.878
▁slutsats	-10.88
kopplad	-10.8807
▁investering	-10.8811
lämplig	-10.8813
bryta	-10.8841
back	-10.8853
▁Indi	-10.8866
fund	-10.8871
▁sannolik	-10.8873
▁hälsosam	-10.8881
▁tvingade	-10.8883
ombord	-10.8884
▁schimpanser	-10.8886
▁glömm	-10.889
▁transport	-10.8898
▁civil	-10.8908
frekvens	-10.8911
ngefär	-10.8911
▁Världen	-10.8911
▁lunch	-10.8911
▁obekväm	-10.8911
▁potentiell	-10.8911
▁tävla	-10.8911
▁överhuvud	-10.8911
▁däggdjur	-10.8911
▁kyrka	-10.8911
▁förnuft	-10.8911
▁rykte	-10.8911
▁förtroende	-10.8911
▁långsiktig	-10.8911
tallrik	-10.8911
▁Boston	-10.8911
▁tasmansk	-10.8911
muskler	-10.8911
▁kartlägg	-10.8911
▁trick	-10.8912
▁antyd	-10.8912
▁fetma	-10.8912
▁upprörd	-10.8912
▁främja	-10.8912
▁Berätta	-10.8912
▁paus	-10.8912
▁klicka	-10.8912
▁handikapp	-10.8913
▁2012	-10.8913
svårigheter	-10.8913
ndå	-10.8914
▁Lägg	-10.8914
▁95	-10.8914
▁höst	-10.8914
▁tankesätt	-10.8915
▁Jes	-10.8916
▁tveka	-10.8916
▁slösa	-10.8916
▁Thom	-10.8917
▁rinn	-10.8918
▁klassisk	-10.892
▁tand	-10.8923
▁Fast	-10.8925
▁cellen	-10.8926
▁800	-10.8927
▁Båd	-10.8927
▁gäst	-10.8928
uel	-10.8933
▁satsa	-10.8934
lagd	-10.8941
lektion	-10.8945
▁ämnen	-10.8949
▁välstånd	-10.8952
▁rapport	-10.8953
▁stål	-10.8954
▁dödlighet	-10.8958
▁lyfte	-10.8959
▁cirklar	-10.8962
▁ögonblicke	-10.8969
▁Wall	-10.8973
▁neurologisk	-10.8976
▁damm	-10.8979
▁fotografera	-10.8984
▁sand	-10.8988
▁kretsar	-10.8998
▁bearbeta	-10.9016
▁gränserna	-10.9019
▁tiotusen	-10.9032
▁kurvan	-10.9037
medvetet	-10.9038
organisationer	-10.9039
▁antaganden	-10.9051
zi	-10.9072
▁björn	-10.9085
▁föds	-10.9086
läkare	-10.9089
chef	-10.9091
▁utforma	-10.9106
▁arv	-10.9111
roll	-10.9118
▁fångade	-10.9124
hem	-10.9125
▁250	-10.9128
▁ah	-10.9135
▁föreläsning	-10.9142
▁björnar	-10.9149
▁koda	-10.9154
▁byn	-10.9156
▁målningar	-10.9164
▁noggran	-10.9173
▁matta	-10.9174
▁central	-10.9177
▁bedöm	-10.9177
ney	-10.9178
▁skatte	-10.918
▁linjer	-10.9183
▁not	-10.9189
▁konstiga	-10.9191
▁aspekter	-10.9202
▁blandning	-10.9221
▁intelligenta	-10.9225
▁skydds	-10.9227
vänlig	-10.9229
▁markera	-10.9248
smedel	-10.9268
▁beställ	-10.9268
räkning	-10.927
▁stötta	-10.9275
▁värm	-10.9283
▁helg	-10.9293
▁strål	-10.9305
▁fäll	-10.9306
▁gravitation	-10.931
▁skärm	-10.9314
▁rörelsen	-10.932
medel	-10.932
▁äktenskap	-10.9328
respons	-10.9328
▁Brasilien	-10.9328
▁County	-10.9328
▁existens	-10.9328
▁grott	-10.9328
▁hamburgare	-10.9328
▁hjälte	-10.9328
▁idrott	-10.9328
▁laboratorium	-10.9328
▁manipulera	-10.9328
▁marshmallow	-10.9328
▁optimism	-10.9328
▁piano	-10.9328
▁science	-10.9328
▁spontan	-10.9328
▁synvinkel	-10.9328
▁uppfunnit	-10.9328
▁ekvation	-10.9328
▁grov	-10.9328
▁mammut	-10.9328
▁pension	-10.9328
▁pilot	-10.9328
▁elektronik	-10.9328
▁tendens	-10.9328
▁ocean	-10.9328
▁drev	-10.9328
▁ansikts	-10.9328
▁finansiera	-10.9328
▁präst	-10.9328
▁separera	-10.9328
▁överlevnad	-10.9328
▁sände	-10.9328
▁kyss	-10.9328
▁knyt	-10.9328
▁skedde	-10.9328
▁blockera	-10.9329
▁1990	-10.9329
▁motorväg	-10.933
▁födelsedag	-10.9331
▁betydelsefull	-10.9331
▁Tal	-10.9332
▁195	-10.9332
▁öl	-10.9332
hjul	-10.9332
▁häll	-10.9333
▁nod	-10.9334
▁molekylär	-10.9334
▁ledsen	-10.9334
▁säkerställ	-10.9335
▁skepp	-10.9335
▁etik	-10.9336
▁Port	-10.9337
▁psykologi	-10.9337
▁laser	-10.9341
▁etc	-10.9341
▁transportera	-10.9342
▁gäng	-10.9344
▁frisk	-10.935
▁torr	-10.9353
ruta	-10.9355
▁femte	-10.9357
▁hals	-10.936
vecklingsländer	-10.9361
atar	-10.9365
▁trend	-10.937
▁hälsosamma	-10.9371
▁städa	-10.9375
▁fördubbla	-10.9391
klang	-10.9396
▁respektera	-10.9396
▁underlig	-10.9398
▁världar	-10.9398
sålder	-10.9401
▁Lib	-10.9402
▁kära	-10.9409
▁generell	-10.941
▁ego	-10.9425
gripande	-10.9442
▁synes	-10.9447
▁överens	-10.9457
känsla	-10.9461
▁undersökningar	-10.9461
▁nätverket	-10.9462
▁värden	-10.9469
▁bedöma	-10.9482
▁sku	-10.9482
▁tyck	-10.9495
▁galaxen	-10.9496
▁källor	-10.9505
▁dörrar	-10.9507
▁decenni	-10.9509
▁läkaren	-10.951
▁dömd	-10.9511
▁skalan	-10.9515
▁länkar	-10.9517
▁utförde	-10.9519
faktor	-10.9521
▁statisk	-10.9522
förmåga	-10.9524
vapen	-10.9524
grund	-10.9524
upplevelse	-10.9525
analys	-10.9526
▁kastade	-10.9527
▁etablera	-10.9528
lärare	-10.9528
11	-10.9529
kamera	-10.953
▁engelsk	-10.9545
rygg	-10.9547
tänk	-10.9549
▁läka	-10.9552
▁handel	-10.9554
▁50-	-10.9554
spår	-10.9557
▁månaden	-10.9571
video	-10.9573
▁tester	-10.9573
ish	-10.9576
stycken	-10.9583
vår	-10.959
▁förespråkar	-10.9593
▁resurs	-10.9594
rörelse	-10.9601
▁bilstolar	-10.9608
produkter	-10.9632
mponerande	-10.9635
bana	-10.9637
lägga	-10.9637
ssland	-10.9639
▁involvera	-10.9658
processen	-10.9664
▁förvirrad	-10.9669
▁platserna	-10.9689
▁tacksam	-10.9709
▁sommar	-10.9712
▁mord	-10.9716
▁tonåringar	-10.9718
▁grip	-10.9729
missbruk	-10.9747
piller	-10.9754
▁misslyckade	-10.9761
▁School	-10.9763
▁drönare	-10.9763
▁feedback	-10.9763
▁myggnät	-10.9763
▁reflektera	-10.9763
▁ytterst	-10.9763
▁abstrakt	-10.9763
▁fotboll	-10.9763
▁kandidat	-10.9763
▁kommentarer	-10.9763
▁1800-	-10.9763
▁Verklig	-10.9763
bälte	-10.9763
▁Brown	-10.9763
▁Vetenskap	-10.9763
▁syskon	-10.9763
▁Kvinna	-10.9763
▁skänk	-10.9763
▁tillämpning	-10.9763
▁databas	-10.9763
▁bröstcancer	-10.9763
▁gynna	-10.9763
▁verksamhet	-10.9763
▁kartor	-10.9763
▁växthus	-10.9763
▁förnybar	-10.9764
▁beredd	-10.9764
▁zooma	-10.9765
▁EU	-10.9765
▁september	-10.9765
▁flygplats	-10.9765
skelett	-10.9765
cu	-10.9766
▁jakt	-10.9766
▁skådespelare	-10.9767
▁ritning	-10.9768
konsert	-10.9768
▁inlärning	-10.9769
▁hyr	-10.9769
▁uppror	-10.9769
▁bråk	-10.9771
▁Bob	-10.9773
skikt	-10.9773
▁rosa	-10.9775
sprogram	-10.9776
▁lyd	-10.9776
▁riskera	-10.9779
▁landsbygden	-10.9785
▁användande	-10.9786
▁framställ	-10.9786
▁aktiviteter	-10.9788
▁stimulera	-10.9789
iro	-10.9789
önskan	-10.979
▁Tank	-10.9793
▁schizofreni	-10.9793
▁Jane	-10.9799
skju	-10.9804
▁kna	-10.9805
▁Oj	-10.9813
▁killarna	-10.9817
▁Hol	-10.982
▁kran	-10.9826
▁intressera	-10.983
▁övriga	-10.9834
istan	-10.9835
▁Far	-10.9839
▁referens	-10.9845
▁fotograf	-10.9847
▁prick	-10.9854
▁Bert	-10.9863
▁förbättringar	-10.9863
▁Art	-10.9865
▁utöva	-10.9876
▁slutsatsen	-10.9885
▁lås	-10.9889
▁nyfiken	-10.9894
▁grepp	-10.9901
▁grundade	-10.9901
▁Gre	-10.9905
▁kanaler	-10.9925
▁vanor	-10.9925
▁återställ	-10.9932
mannen	-10.9932
▁Sol	-10.9934
▁sträcka	-10.9935
▁Lik	-10.9937
▁ledig	-10.9938
▁möjligheterna	-10.9939
▁intryck	-10.9952
▁stater	-10.9955
com	-10.9956
14	-10.9964
våg	-10.997
sport	-10.9973
position	-10.9978
studie	-10.9979
J	-10.9981
kväll	-10.9982
▁tidningar	-10.9989
▁helhet	-10.9991
klot	-11
▁PM	-11.0002
▁frön	-11.0018
▁atom	-11.0024
▁kungen	-11.0032
nätverk	-11.0034
▁rå	-11.0039
äpp	-11.0044
▁snabbast	-11.0058
▁upptag	-11.0074
▁sun	-11.0077
fu	-11.0083
▁organisk	-11.0091
▁majoritet	-11.0106
▁ansträngning	-11.0123
▁låna	-11.0124
▁gäll	-11.013
▁Få	-11.0157
▁måne	-11.0169
skift	-11.0172
▁allvar	-11.0187
▁1000	-11.0193
oli	-11.0208
▁jämlik	-11.0209
▁influensa	-11.021
▁återupp	-11.0214
▁årtionde	-11.0215
stift	-11.0217
centimeter	-11.0217
ceremoni	-11.0217
▁demonstration	-11.0217
▁eliminera	-11.0217
▁fiction	-11.0217
▁förbluffa	-11.0217
▁förknippa	-11.0217
▁försämra	-11.0217
▁förälder	-11.0217
▁homosexu	-11.0217
▁hungrig	-11.0217
▁knuffa	-11.0217
▁original	-11.0217
▁pingvin	-11.0217
▁prognos	-11.0217
▁sofistikerad	-11.0217
▁stirra	-11.0217
▁utplåna	-11.0217
glasögon	-11.0217
▁Histori	-11.0217
▁tillhandahåll	-11.0217
kräm	-11.0217
▁Sahara	-11.0217
▁Valley	-11.0217
▁spektrum	-11.0217
▁South	-11.0217
▁Vänta	-11.0217
▁övning	-11.0217
▁Hög	-11.0217
▁garage	-11.0217
▁minoritet	-11.0217
▁vinkel	-11.0217
▁prylar	-11.0217
▁Idé	-11.0217
▁operera	-11.0217
▁brinn	-11.0217
▁solenergi	-11.0218
▁klura	-11.0218
▁insulinresisten	-11.0218
▁förenkla	-11.0218
▁solljus	-11.0218
▁Island	-11.0218
ward	-11.0219
▁effektivitet	-11.022
▁feb	-11.022
▁söt	-11.0221
▁väsentlig	-11.0223
▁boskap	-11.0223
▁skott	-11.0224
▁värda	-11.0225
▁jämlikhet	-11.0225
▁interaktion	-11.0226
▁luta	-11.0228
störningar	-11.0228
▁fattig	-11.0228
▁kock	-11.0229
▁Hall	-11.023
bänk	-11.0231
▁åldrande	-11.0232
▁inspirerad	-11.0232
▁feta	-11.0233
▁jämn	-11.0233
nedsättning	-11.0234
▁färda	-11.0237
▁medlemmar	-11.0239
hörighet	-11.024
▁Carl	-11.0249
ktiga	-11.0256
▁prise	-11.0257
▁coola	-11.027
▁stjäla	-11.0285
▁osäk	-11.0308
▁fras	-11.0311
▁stjärnorna	-11.0313
mail	-11.0325
▁saknade	-11.0331
▁intelligent	-11.0331
▁lärarna	-11.0332
▁diet	-11.0334
vattnet	-11.034
▁franska	-11.0343
▁My	-11.0344
▁intervjua	-11.0356
▁aspekt	-11.0364
▁neuron	-11.0367
följa	-11.0368
vunnit	-11.0375
▁snäll	-11.0411
▁nödvändiga	-11.0426
▁huvudsak	-11.0427
kommen	-11.0435
▁statistiken	-11.0436
receptor	-11.0442
▁andlig	-11.0446
behandling	-11.0451
familj	-11.0455
mönster	-11.0456
skador	-11.0456
märkt	-11.0459
▁Syd	-11.0467
▁behove	-11.0475
▁demokratin	-11.0478
kriget	-11.0479
▁meningar	-11.0488
▁moder	-11.0507
▁känsliga	-11.0518
▁statlig	-11.0527
▁fyr	-11.0529
fäll	-11.0557
låst	-11.0559
▁framgångar	-11.056
▁5000	-11.0568
glad	-11.0572
▁flykting	-11.0579
▁kondom	-11.0581
▁lil	-11.0585
▁njut	-11.0596
▁orsakade	-11.0598
kännande	-11.0602
institut	-11.0608
▁apparater	-11.0632
övre	-11.0636
▁besvär	-11.0641
▁äpple	-11.0653
▁solsystem	-11.0666
mäktig	-11.0677
explosion	-11.0677
läpp	-11.0678
▁skön	-11.0678
spekt	-11.0685
▁väsen	-11.0687
▁Tim	-11.0688
amtidigt	-11.069
▁euro	-11.0691
▁besluta	-11.0692
kvalité	-11.0693
visualisering	-11.0693
▁CRISPR	-11.0693
▁Plötslig	-11.0693
▁Skillnad	-11.0693
▁Världs	-11.0693
▁avundsjuka	-11.0693
▁college	-11.0693
▁iPhone	-11.0693
▁installera	-11.0693
▁instruktioner	-11.0693
▁konventionell	-11.0693
▁osannolik	-11.0693
▁paradigm	-11.0693
▁pistol	-11.0693
▁policy	-11.0693
▁proportion	-11.0693
▁välgörenhet	-11.0693
▁Jeff	-11.0693
▁bevittna	-11.0693
▁hypotes	-11.0693
▁permanent	-11.0693
▁nöje	-11.0693
▁tolkning	-11.0693
▁Flyg	-11.0693
▁kompis	-11.0693
▁välkomna	-11.0693
▁idiot	-11.0693
▁extrahera	-11.0693
▁attrahera	-11.0693
▁sprick	-11.0693
▁subtil	-11.0693
▁materiell	-11.0693
övervakning	-11.0693
▁Whit	-11.0693
▁desperat	-11.0694
▁vrid	-11.0694
▁klottra	-11.0694
▁kniv	-11.0694
▁botemed	-11.0694
sektorn	-11.0694
▁Arab	-11.0694
▁Julia	-11.0694
▁fader	-11.0694
▁frys	-11.0695
skivor	-11.0695
▁diagnostisera	-11.0695
▁metan	-11.0695
▁mysteri	-11.0695
▁dödsfall	-11.0696
▁Forskar	-11.0696
▁tränar	-11.0697
▁2050	-11.0697
▁poet	-11.0697
▁72	-11.0699
▁fingrar	-11.07
▁29	-11.07
▁fjärdedel	-11.07
▁ingenjörs	-11.07
flykt	-11.0701
▁egendom	-11.0701
▁Romo	-11.0702
▁burk	-11.0704
avdelningen	-11.0706
▁kometen	-11.0706
▁mars	-11.0707
▁annonser	-11.0708
▁penna	-11.0711
▁journalister	-11.0714
▁Mc	-11.0716
▁genombrott	-11.0718
▁ess	-11.0719
▁hållbarhet	-11.0724
▁Vanlig	-11.0734
▁reportage	-11.0735
▁Star	-11.0737
▁gren	-11.0738
▁bildas	-11.074
▁Hav	-11.0746
▁bonde	-11.0753
▁svårast	-11.0761
▁institution	-11.0763
▁Dam	-11.077
▁Solen	-11.0778
▁urban	-11.0781
▁nätter	-11.0788
▁protestera	-11.0795
filmer	-11.08
▁majoriteten	-11.0812
▁sämst	-11.0823
▁balansera	-11.0825
▁viruset	-11.0828
produkt	-11.0828
▁Sing	-11.0829
▁utbildade	-11.0833
40	-11.0835
▁flöda	-11.0838
▁blodet	-11.084
▁herrar	-11.0842
▁flickorna	-11.0851
▁forn	-11.0851
▁temperaturen	-11.0853
▁matte	-11.0863
branschen	-11.0876
vågor	-11.0883
industri	-11.0909
vagn	-11.0909
ytan	-11.0916
ux	-11.0923
▁disk	-11.0926
▁eko	-11.0931
amerikansk	-11.0948
▁stjärn	-11.0948
▁gla	-11.095
undersökning	-11.0954
trafik	-11.0955
morgon	-11.0956
▁insida	-11.0957
klipp	-11.0957
▁frö	-11.0959
▁kost	-11.0968
gården	-11.0969
rån	-11.097
▁återanvänd	-11.0985
▁lung	-11.0999
▁Hom	-11.1007
sträckning	-11.1009
unna	-11.1029
▁Själv	-11.1031
lista	-11.1062
▁apa	-11.1065
enast	-11.1075
▁32	-11.1087
▁still	-11.1123
studenter	-11.114
▁aktivist	-11.1153
kamrater	-11.1157
▁gymnasi	-11.1162
arch	-11.1166
duk	-11.119
▁synd	-11.1191
fragment	-11.1193
▁Enceladus	-11.1193
▁artificiell	-11.1193
▁bambu	-11.1193
▁bokstäver	-11.1193
▁fönstre	-11.1193
▁förutsägelse	-11.1193
▁innovativ	-11.1193
▁integritet	-11.1193
▁irritera	-11.1193
▁liberal	-11.1193
▁ogripbar	-11.1193
▁smutsig	-11.1193
RNA	-11.1193
▁finansiering	-11.1193
▁parallell	-11.1193
▁fullkomlig	-11.1193
▁Phil	-11.1193
▁gäss	-11.1193
▁sända	-11.1193
▁Tony	-11.1193
flaskor	-11.1193
redaktör	-11.1193
▁ätit	-11.1193
impuls	-11.1193
▁logik	-11.1193
▁profet	-11.1193
▁reparera	-11.1194
▁finansiell	-11.1194
▁froda	-11.1194
▁expedition	-11.1194
▁subjektiv	-11.1194
▁fack	-11.1194
▁njur	-11.1194
▁söner	-11.1194
▁hej	-11.1194
▁arkeolog	-11.1194
▁finger	-11.1194
▁påpeka	-11.1195
▁privatliv	-11.1195
▁svensk	-11.1196
bädd	-11.1196
▁blixt	-11.1196
▁klok	-11.1196
▁kronisk	-11.1196
▁isberg	-11.1197
▁paj	-11.1197
▁elektroder	-11.1198
13	-11.1198
▁produktiv	-11.1198
▁träng	-11.1199
▁CO	-11.12
▁SMS	-11.1201
▁gömd	-11.1201
▁synsätt	-11.1201
▁Jim	-11.1202
▁Chi	-11.1204
▁meme	-11.1204
▁gradvis	-11.1204
▁tacksamhet	-11.1205
▁klaga	-11.1206
▁Sanning	-11.1208
▁AM	-11.1215
▁slit	-11.1216
▁elak	-11.1216
▁överdriv	-11.1217
Fi	-11.1218
▁inspirerande	-11.1219
▁tele	-11.1226
MS	-11.1226
▁förutspå	-11.1228
▁skit	-11.123
strömmen	-11.1234
▁astronauter	-11.1234
frontal	-11.1234
▁rensa	-11.1238
▁nerver	-11.1239
▁Fou	-11.1241
▁väder	-11.1246
▁vingar	-11.1255
▁medkännande	-11.126
▁vuxen	-11.126
▁chock	-11.1262
▁höja	-11.1265
bestånd	-11.1266
stitution	-11.1268
▁Ari	-11.1279
molekyler	-11.1283
▁ovänta	-11.1283
▁förvara	-11.1285
vänt	-11.1291
▁Kär	-11.1294
▁anmärkningsvärd	-11.1299
▁belys	-11.13
anke	-11.1307
▁involverad	-11.1315
▁maskinerna	-11.1331
pore	-11.1338
▁Tor	-11.1344
▁häftiga	-11.1347
▁hålet	-11.1347
▁nålar	-11.1358
ödande	-11.1361
värld	-11.1372
▁sorglig	-11.1373
▁utbyte	-11.1382
▁misshandla	-11.1384
▁reg	-11.1395
▁gömm	-11.1405
▁dal	-11.1409
▁ungdom	-11.141
▁återkomm	-11.1411
prise	-11.1411
▁uppmuntrade	-11.1421
dator	-11.1428
▁gris	-11.1435
▁applåd	-11.1443
▁vanligast	-11.1445
▁Ab	-11.1449
amerika	-11.1465
▁reserv	-11.1472
U	-11.1478
virus	-11.1478
beteende	-11.1482
ville	-11.1483
regist	-11.1484
zo	-11.149
moln	-11.1493
▁avancerad	-11.1497
ften	-11.1497
▁maskar	-11.1514
▁Op	-11.1521
▁medborgar	-11.1522
▁hota	-11.153
borrar	-11.1535
tabell	-11.1548
▁enskil	-11.1574
▁byar	-11.1577
bitar	-11.1581
banor	-11.1589
▁nöt	-11.1592
▁vardags	-11.1594
▁tjej	-11.1602
lekte	-11.1606
teori	-11.1625
▁immun	-11.1631
▁Mai	-11.1637
▁fluga	-11.1647
▁brut	-11.165
nnor	-11.1657
graf	-11.1663
hö	-11.1666
▁Oh	-11.1681
▁Ric	-11.1694
bal	-11.1696
entreprenör	-11.17
lovade	-11.1705
länk	-11.1707
▁materia	-11.1709
▁summa	-11.1711
försörja	-11.1713
filosof	-11.1715
väv	-11.1717
resistent	-11.1719
▁Beatbox	-11.172
▁Cassini	-11.172
▁Florida	-11.172
▁Sydafrika	-11.172
▁associera	-11.172
▁besegra	-11.172
▁besvik	-11.172
▁blommor	-11.172
▁demonstrera	-11.172
▁egyptisk	-11.172
▁förälskad	-11.172
▁intuition	-11.172
▁kontinuerlig	-11.172
▁marginal	-11.172
▁mirakel	-11.172
▁motsvarighet	-11.172
▁praktik	-11.172
▁supermassiv	-11.172
▁tragedi	-11.172
operatör	-11.172
▁scenario	-11.172
▁tatuering	-11.172
▁rädslo	-11.172
▁emotionell	-11.172
▁kusin	-11.172
▁ångest	-11.172
▁hekt	-11.172
▁mäster	-11.172
▁spräng	-11.172
▁Uppenbar	-11.172
▁Adam	-11.172
▁syssla	-11.172
▁iPad	-11.172
▁reformer	-11.172
▁penis	-11.172
▁japansk	-11.172
▁pumpa	-11.172
kronor	-11.1721
▁naturvetenskap	-11.1721
▁tillfällig	-11.1722
▁befria	-11.1722
▁Bild	-11.1722
▁samspel	-11.1722
▁beslö	-11.1723
▁spets	-11.1723
▁drivkraft	-11.1724
▁födelse	-11.1724
▁spinn	-11.1724
▁läkarna	-11.1726
▁stödj	-11.1726
▁parker	-11.1728
▁utöka	-11.1728
▁åtgärder	-11.1728
▁övergrepp	-11.1729
▁offra	-11.1729
▁2007	-11.173
▁inomhus	-11.1731
▁självständighet	-11.1731
▁trender	-11.1733
icitet	-11.1735
betalning	-11.1736
anläggningar	-11.1737
Col	-11.174
▁vittna	-11.1742
▁gränssnitt	-11.1746
monst	-11.1746
wei	-11.1748
linda	-11.1764
▁vardagsrum	-11.1764
▁utforskning	-11.1772
▁billigare	-11.1773
skiva	-11.1773
▁tyg	-11.1775
▁Jack	-11.1776
▁nyss	-11.1783
▁amerikan	-11.1788
scan	-11.1791
▁missbruka	-11.1798
resor	-11.1803
▁väggar	-11.1812
▁hotade	-11.1823
▁Eve	-11.1826
avtryck	-11.1828
▁hantverk	-11.1834
▁tjejer	-11.1839
▁kapab	-11.1856
▁trott	-11.1863
▁hämtade	-11.1865
gav	-11.1872
▁sexig	-11.1877
pund	-11.1879
▁hemsida	-11.1882
▁gente	-11.1889
▁afrikaner	-11.1894
▁frukta	-11.1904
▁ark	-11.1909
genomsnittet	-11.1946
▁War	-11.1955
ball	-11.1971
▁tvångs	-11.2003
amla	-11.2026
funktion	-11.2035
stjärna	-11.2036
version	-11.2036
lämna	-11.2036
folket	-11.2037
samhället	-11.2037
perspektiv	-11.2037
publik	-11.2038
▁nål	-11.204
europa	-11.2046
skrot	-11.2049
makar	-11.2057
▁Shi	-11.2068
▁försvunn	-11.2085
apti	-11.2086
▁antagande	-11.2115
läggning	-11.213
problemet	-11.2133
▁godkän	-11.2142
gräs	-11.217
radie	-11.2173
förändringar	-11.2173
ändring	-11.2174
▁State	-11.2187
▁ligga	-11.219
leran	-11.2216
▁fälte	-11.2216
▁elev	-11.222
läsning	-11.2222
▁dussin	-11.2236
cykl	-11.2249
▁räk	-11.2249
▁spill	-11.2267
pyramid	-11.2273
▁spegel	-11.2273
▁anpassning	-11.2275
▁hyper	-11.2275
koldioxidneutral	-11.2275
▁Apollo	-11.2275
▁Buddha	-11.2275
▁Kennedy	-11.2275
▁Kepler	-11.2275
▁System	-11.2275
▁cortex	-11.2275
▁djärv	-11.2275
▁drunkna	-11.2275
▁fysiologi	-11.2275
▁förutsägbar	-11.2275
▁kapitel	-11.2275
▁klyft	-11.2275
▁konfrontera	-11.2275
▁konkurrens	-11.2275
▁officiell	-11.2275
▁oktober	-11.2275
▁redigera	-11.2275
▁regnskog	-11.2275
▁rekommendera	-11.2275
▁spindlar	-11.2275
▁stereotyp	-11.2275
▁strunt	-11.2275
▁tempel	-11.2275
▁vertikal	-11.2275
▁volontär	-11.2275
▁överskott	-11.2275
distrikt	-11.2275
▁Arthur	-11.2275
▁Earth	-11.2275
▁Resultat	-11.2275
▁censur	-11.2275
▁hjärtattack	-11.2275
▁utgångspunkt	-11.2275
▁vulkan	-11.2275
▁Amazon	-11.2275
▁autistisk	-11.2275
▁grekisk	-11.2275
▁Scott	-11.2275
▁himmel	-11.2275
realistisk	-11.2275
▁underlätta	-11.2275
▁uppriktig	-11.2275
▁datum	-11.2275
▁mödrar	-11.2275
▁ofattbar	-11.2275
▁rikedom	-11.2275
▁nöd	-11.2275
▁Robert	-11.2275
▁dodo	-11.2275
▁genetik	-11.2275
▁sjuksköterskor	-11.2276
▁belöna	-11.2276
fartyg	-11.2276
▁modifiera	-11.2276
▁filter	-11.2276
▁Korea	-11.2276
dimensionell	-11.2276
▁nervös	-11.2276
▁omdöme	-11.2276
▁kilogram	-11.2276
▁Försök	-11.2276
▁granska	-11.2277
▁bråkdel	-11.2277
▁teckning	-11.2277
▁Nigeria	-11.2277
▁uppsats	-11.2277
▁svep	-11.2277
▁ryck	-11.2277
▁ilska	-11.2277
▁Nordamerika	-11.2278
▁interaktiv	-11.2278
▁osäkerhet	-11.2278
▁loss	-11.2278
▁åratal	-11.2278
▁1980	-11.2278
▁forskarna	-11.2279
▁sfären	-11.2279
▁Naturligt	-11.228
▁apor	-11.2281
▁bron	-11.2281
▁fängslad	-11.2282
▁judisk	-11.2282
▁humor	-11.2283
▁smärt	-11.2284
▁rörlighet	-11.2285
▁Kunde	-11.2286
▁Kong	-11.2286
llene	-11.2287
▁spark	-11.2287
▁VD	-11.2287
▁nödvändig	-11.2288
▁bränd	-11.2289
▁deltagar	-11.2291
▁Line	-11.2292
▁Tex	-11.2292
ffektiv	-11.2293
länd	-11.2293
▁anime	-11.2294
▁neandertalarna	-11.2297
agenda	-11.2298
ember	-11.2298
▁femton	-11.2299
▁sjung	-11.2301
▁sug	-11.2302
▁parken	-11.2303
▁utländsk	-11.2304
sida	-11.2311
storlek	-11.2311
icon	-11.2316
▁700	-11.2317
▁Gore	-11.2322
▁immunsystem	-11.2322
▁skifta	-11.2331
▁funktionell	-11.2338
▁argumentera	-11.2339
stenar	-11.2344
avse	-11.2352
ngarna	-11.2358
▁molekylerna	-11.2364
▁organiserade	-11.237
iell	-11.237
ömma	-11.238
▁jordbruket	-11.2384
löj	-11.2386
ytor	-11.2398
▁raket	-11.2414
▁investeringar	-11.2417
▁barriär	-11.2423
▁upphöj	-11.2442
▁introducerade	-11.2452
▁inneb	-11.2467
splaner	-11.2474
▁laglig	-11.248
▁magnetisk	-11.2485
▁Th	-11.2499
▁kopplingar	-11.2503
▁läk	-11.2505
karta	-11.2537
metod	-11.2539
▁duktig	-11.2546
område	-11.2552
▁nano	-11.2553
▁130	-11.2563
flaggan	-11.2565
▁last	-11.2569
▁yngst	-11.257
▁tema	-11.2578
▁soldat	-11.2586
fond	-11.2587
▁44	-11.2587
utsläpp	-11.2595
kött	-11.2607
Bay	-11.2613
▁våning	-11.2615
Long	-11.2615
icera	-11.2619
sekvens	-11.2622
politik	-11.2624
strategi	-11.2624
mängd	-11.2625
cykel	-11.2626
bröd	-11.2626
våld	-11.2627
hjärna	-11.2628
byggnad	-11.2631
80	-11.2631
väst	-11.2643
▁Tri	-11.265
ämnen	-11.2651
störning	-11.2669
▁fusk	-11.2671
fem	-11.2673
▁stärka	-11.2694
OS	-11.2698
källa	-11.2704
▁åstadkomm	-11.2713
mmel	-11.2722
▁mång	-11.2723
kön	-11.2731
handling	-11.2731
▁webb	-11.2733
▁Tid	-11.2773
stil	-11.2782
▁lust	-11.2792
▁detaljerad	-11.2802
▁önsk	-11.2807
▁arbetslös	-11.2819
väska	-11.2819
ktiva	-11.2833
veckla	-11.2833
käl	-11.2834
▁1900	-11.2841
gli	-11.2848
styrelse	-11.2849
▁självständig	-11.285
▁trumm	-11.2859
▁kapa	-11.2861
vägagångssätt	-11.2863
▁ALS	-11.2863
▁Cambridge	-11.2863
▁Christopher	-11.2863
▁Dreyfus	-11.2863
▁GPS	-11.2863
▁Hawaii	-11.2863
▁Hollywood	-11.2863
▁MRI	-11.2863
▁Mexik	-11.2863
▁Oxford	-11.2863
▁Thailand	-11.2863
▁akademisk	-11.2863
▁bröllop	-11.2863
▁choklad	-11.2863
▁diameter	-11.2863
▁humanitär	-11.2863
▁kompetens	-11.2863
▁konservativ	-11.2863
▁kontext	-11.2863
▁legitim	-11.2863
▁propaganda	-11.2863
▁skjorta	-11.2863
▁snygg	-11.2863
▁sällsynt	-11.2863
▁säsong	-11.2863
▁utrotning	-11.2863
▁visualisera	-11.2863
producent	-11.2863
▁1700-	-11.2863
▁människokroppen	-11.2863
▁tvättmaskin	-11.2863
▁uthållighet	-11.2863
▁golf	-11.2863
▁ägde	-11.2863
▁Ursäkt	-11.2863
▁imitera	-11.2863
▁spädbarn	-11.2863
▁förverkliga	-11.2863
▁näsa	-11.2863
▁skugga	-11.2864
▁dokumentär	-11.2864
▁tröst	-11.2864
▁upphetsad	-11.2864
▁slipp	-11.2864
▁citera	-11.2864
▁socker	-11.2864
roject	-11.2864
▁leende	-11.2864
▁kretslopp	-11.2864
▁mega	-11.2864
skåda	-11.2864
▁självförtroende	-11.2864
▁blomma	-11.2864
▁konstitution	-11.2864
▁kärl	-11.2864
▁systematisk	-11.2864
öppning	-11.2864
▁släktingar	-11.2864
▁Philip	-11.2864
▁svans	-11.2864
▁omfattning	-11.2865
▁pålitlig	-11.2865
▁1970	-11.2865
▁gräset	-11.2865
▁komedi	-11.2865
▁JF	-11.2865
▁meningslös	-11.2865
▁löjlig	-11.2866
▁Plan	-11.2866
▁valuta	-11.2866
▁pyramiden	-11.2866
▁tårar	-11.2866
▁osv	-11.2867
▁Mike	-11.2867
▁skål	-11.2867
▁skrivbord	-11.2867
▁välfärd	-11.2868
▁Geogra	-11.2869
▁Law	-11.2869
▁månar	-11.287
▁skoj	-11.287
▁bedrift	-11.2871
▁geologisk	-11.2871
▁skapelse	-11.2872
▁hemstad	-11.2872
▁vardaglig	-11.2874
▁klappa	-11.2874
▁dragit	-11.2875
▁hajar	-11.2876
▁Miss	-11.2876
▁rått	-11.2878
ndation	-11.2878
▁mono	-11.2882
▁budskape	-11.2882
▁avföring	-11.2883
▁Rand	-11.2896
▁Wil	-11.2898
kraftverk	-11.2898
▁olympisk	-11.2905
▁Sju	-11.2907
▁längtan	-11.2908
skrap	-11.2908
aida	-11.2912
▁beröring	-11.2912
lampan	-11.2914
▁äpplen	-11.2915
▁sur	-11.2917
källor	-11.2921
direktör	-11.2929
▁hum	-11.2933
▁feminis	-11.2936
massan	-11.2952
säte	-11.2958
agan	-11.2964
▁Cent	-11.2965
▁farlig	-11.2966
sonden	-11.2969
▁Mil	-11.2979
oya	-11.2994
▁Män	-11.3008
▁ansträngningar	-11.3008
LA	-11.3009
cial	-11.3017
▁koncepte	-11.305
▁bilstol	-11.3079
▁störst	-11.3096
staka	-11.3123
▁artist	-11.3126
▁passionerad	-11.3153
▁sensor	-11.3158
▁hemlös	-11.3185
pinne	-11.32
ntarktis	-11.3209
trycket	-11.3224
samlingar	-11.323
▁moral	-11.3245
koppling	-11.3245
apparat	-11.3247
förhållande	-11.325
flyg	-11.325
frågor	-11.3252
rymd	-11.3252
utveckling	-11.3253
låda	-11.3254
draget	-11.3254
hopp	-11.3256
▁strålar	-11.326
▁lyft	-11.3264
▁hopplös	-11.3295
ius	-11.3296
mil	-11.3312
organisation	-11.3326
▁Bland	-11.3336
fas	-11.3359
▁ingripa	-11.3366
AP	-11.3367
▁oväntad	-11.3376
▁analog	-11.3378
▁2.0	-11.3415
▁rese	-11.3421
▁protester	-11.3422
▁tackla	-11.3422
intill	-11.3448
▁193	-11.3456
▁uppmärksam	-11.3473
motsägelse	-11.3485
ventil	-11.3487
▁ACE	-11.3488
▁Bruno	-11.3488
▁Fantastisk	-11.3488
▁Joshua	-11.3488
▁Saudiarabien	-11.3488
▁asfalt	-11.3488
▁auktoritär	-11.3488
▁cylinder	-11.3488
▁förbrylla	-11.3488
▁hormon	-11.3488
▁kalorier	-11.3488
▁kidnappa	-11.3488
▁lojalitet	-11.3488
▁malaria	-11.3488
▁oskuld	-11.3488
▁resultera	-11.3488
▁upprätthålla	-11.3488
▁Uganda	-11.3488
▁dryg	-11.3488
▁hypotetisk	-11.3488
▁kartong	-11.3488
▁potatis	-11.3488
▁våldtäkt	-11.3488
▁altruist	-11.3488
▁Apple	-11.3488
▁paradis	-11.3488
▁obehaglig	-11.3488
▁tolv	-11.3488
▁Arktis	-11.3488
▁växthusgaser	-11.3488
▁Archi	-11.3488
ndonesi	-11.3489
▁sammanfatta	-11.3489
▁människohandel	-11.3489
▁plåg	-11.3489
▁livsformer	-11.3489
▁rebell	-11.3489
▁regelbunde	-11.3489
▁helvete	-11.3489
försäkring	-11.3489
▁gudomlig	-11.3489
▁uttalande	-11.3489
▁trovärdig	-11.3489
album	-11.3489
▁givit	-11.3489
▁Emma	-11.3489
▁mjölk	-11.3489
▁bebis	-11.3489
▁scanna	-11.3489
▁uppväxt	-11.3489
▁återkoppling	-11.349
▁undervattens	-11.349
▁Justine	-11.349
▁sväva	-11.3491
▁utsätts	-11.3491
▁antenn	-11.3491
▁identisk	-11.3491
▁valmöjlighete	-11.3491
▁Mål	-11.3491
▁motverka	-11.3491
▁Hjärn	-11.3492
▁missförstå	-11.3492
ED	-11.3492
▁vaken	-11.3493
detektor	-11.3493
▁Lärar	-11.3493
▁hys	-11.3494
gubb	-11.3494
fiber	-11.3495
apita	-11.3495
▁Vatten	-11.3495
▁pressen	-11.3495
▁sammansättning	-11.3495
▁Kolla	-11.3496
▁offre	-11.3497
▁översätta	-11.3498
ambi	-11.3498
ikapp	-11.35
▁fritid	-11.35
▁samtid	-11.35
▁afroamerikan	-11.3501
▁ingrepp	-11.3501
▁36	-11.3503
▁Mannen	-11.3506
▁planering	-11.3506
▁Gener	-11.351
▁framträd	-11.3511
▁övertala	-11.3514
▁heliga	-11.3515
▁tända	-11.352
▁medborgarna	-11.3526
▁Företag	-11.3526
way	-11.3529
▁översättning	-11.354
▁isär	-11.3545
▁85	-11.3549
▁sektion	-11.355
▁mätningar	-11.355
▁numer	-11.3576
▁brutal	-11.3577
camp	-11.3578
▁stel	-11.3581
uari	-11.3586
68	-11.3591
▁uppvisa	-11.3598
▁tecknare	-11.3608
aktivister	-11.3613
▁most	-11.3618
▁sekvensera	-11.3618
▁förvirra	-11.3626
▁välkänd	-11.3629
samling	-11.3632
▁etisk	-11.3633
landade	-11.3633
▁värdelös	-11.3642
▁sårbar	-11.3642
▁Ung	-11.3649
▁omforma	-11.3685
dubbla	-11.3692
▁långsamma	-11.3699
▁ledtrådar	-11.3707
▁lån	-11.372
alia	-11.372
kasta	-11.3725
▁begå	-11.3731
juli	-11.3744
▁nak	-11.3755
▁Henr	-11.3774
▁Fund	-11.3793
gjorde	-11.3799
▁sammankopplad	-11.3811
▁innerst	-11.3828
▁Gul	-11.3845
nkla	-11.3846
männen	-11.3863
▁modig	-11.3867
sjukdom	-11.3894
▁bokstav	-11.3902
fabrik	-11.3905
epidemi	-11.3912
figur	-11.3912
riktning	-11.3915
revolutionen	-11.3916
vägg	-11.3916
bränsle	-11.3916
köp	-11.3916
verktyg	-11.3917
vilja	-11.3918
utrymme	-11.3918
musik	-11.3918
flod	-11.3918
själv	-11.3918
lycka	-11.3926
blås	-11.393
old	-11.3931
tecken	-11.3934
▁sanningar	-11.3934
18	-11.3935
stopp	-11.3939
bräd	-11.3942
well	-11.3947
rådet	-11.3964
brist	-11.3968
▁pub	-11.397
▁pojk	-11.3971
olja	-11.3977
labb	-11.398
▁gudar	-11.398
▁sko	-11.3992
smak	-11.4003
▁undvik	-11.4005
▁prickar	-11.4015
▁neurolog	-11.4046
▁allmänhet	-11.406
energi	-11.4064
▁frustrera	-11.4083
riktad	-11.4091
ction	-11.4096
▁erkänn	-11.4099
▁kurva	-11.41
▁ödmjuk	-11.4129
▁myndigheter	-11.4131
.3	-11.4143
bsolut	-11.4148
▁jobbig	-11.4151
nälla	-11.4151
kvadratkilometer	-11.4155
åklagare	-11.4155
överenskommelse	-11.4155
▁Leonardo	-11.4155
▁Spanien	-11.4155
▁Syrien	-11.4155
▁Toyota	-11.4155
▁Vermeer	-11.4155
▁bananflugor	-11.4155
▁bekymmer	-11.4155
▁entusiastisk	-11.4155
▁historieberätta	-11.4155
▁intuitiv	-11.4155
▁isolering	-11.4155
▁linjär	-11.4155
▁läxa	-11.4155
▁obduktion	-11.4155
▁slutgiltig	-11.4155
▁tvetydig	-11.4155
▁utomjordingar	-11.4155
▁välbefinnande	-11.4155
▁vördnad	-11.4155
dynamik	-11.4155
transplantation	-11.4155
▁Shakespeare	-11.4155
▁bekänn	-11.4155
▁benmärg	-11.4155
▁sjätte	-11.4155
▁terrorism	-11.4155
▁ubåt	-11.4155
▁Lycklig	-11.4155
▁North	-11.4155
▁export	-11.4155
▁mikrobiell	-11.4155
▁motståndskraft	-11.4155
▁söndag	-11.4155
▁tummar	-11.4155
▁Black	-11.4155
▁spegla	-11.4155
▁animation	-11.4155
▁anordna	-11.4155
▁smäll	-11.4155
▁rekord	-11.4155
▁budord	-11.4155
▁Norge	-11.4155
behag	-11.4155
▁kärleksfull	-11.4155
assem	-11.4155
▁hedra	-11.4155
▁otrog	-11.4155
▁långvarig	-11.4155
▁läskig	-11.4155
▁neurovetenskap	-11.4155
▁intensitet	-11.4155
shirt	-11.4155
▁Fyra	-11.4155
▁olaglig	-11.4155
▁överviktig	-11.4155
reaktor	-11.4155
▁flaska	-11.4155
▁stiftelse	-11.4155
▁ryggrad	-11.4156
▁betong	-11.4156
▁skiss	-11.4156
▁förebygga	-11.4156
▁inspelning	-11.4157
▁titel	-11.4157
▁latin	-11.4157
▁familjeplan	-11.4157
▁utsätta	-11.4157
▁matchar	-11.4157
▁hjärnceller	-11.4157
▁arbetsplats	-11.4157
▁Använd	-11.4157
▁Häl	-11.4158
trial	-11.4158
▁spola	-11.4158
▁Röst	-11.4159
▁Amerikansk	-11.4159
▁intim	-11.416
▁fyrkant	-11.4161
▁anamma	-11.4161
▁mottagare	-11.4162
▁Data	-11.4163
▁marknadsföra	-11.4165
▁accelerera	-11.4165
stycke	-11.4165
▁framväx	-11.4165
▁spök	-11.4165
▁flock	-11.4165
▁bytte	-11.4167
▁Jose	-11.4167
▁attraktiv	-11.4168
avdelningar	-11.4168
▁mynt	-11.4168
▁ved	-11.4169
▁polar	-11.4169
▁beakta	-11.4169
▁kika	-11.4169
▁närmst	-11.4169
▁Max	-11.417
▁Moder	-11.417
▁PR	-11.4171
▁Newton	-11.4171
▁komponenter	-11.4173
▁vifta	-11.4175
▁webbsida	-11.4176
▁krascha	-11.4177
▁förorena	-11.4177
▁konsekvens	-11.418
▁uppkopplad	-11.4181
▁ödmjukhet	-11.4182
▁servera	-11.4186
▁myndigheterna	-11.4186
▁drack	-11.4186
▁förnya	-11.4188
▁genomfört	-11.4193
brygga	-11.4195
▁AD	-11.4201
▁utsikt	-11.4211
satte	-11.4212
▁mapp	-11.4212
möten	-11.4213
gårdar	-11.4216
▁judar	-11.4217
▁frustrerad	-11.4227
▁filmade	-11.4234
lunda	-11.4239
▁räkor	-11.4239
▁handska	-11.4241
▁Barb	-11.4266
▁lokalisera	-11.4272
▁sovrum	-11.4299
stiden	-11.4307
▁enkelhet	-11.4312
▁deprimerad	-11.4316
HD	-11.4328
▁innefatta	-11.433
▁gullig	-11.4333
▁självisk	-11.4349
▁Kev	-11.4357
▁munnar	-11.4363
▁turist	-11.4366
▁jon	-11.4369
student	-11.4369
▁vå	-11.4419
▁lungor	-11.4424
▁trappor	-11.4425
klart	-11.4452
baka	-11.4466
▁föreläsningar	-11.4505
▁flagg	-11.4506
▁fredlig	-11.4521
kommer	-11.4561
▁bloggar	-11.4578
▁chockad	-11.458
centre	-11.4595
▁hämma	-11.4617
mäl	-11.4623
konstruktion	-11.4628
grej	-11.463
specifik	-11.4631
▁busk	-11.4631
▁skym	-11.4632
▁konstverk	-11.4633
poäng	-11.4634
▁lur	-11.4634
programmet	-11.4636
nummer	-11.4641
mänsklig	-11.4646
umgå	-11.4656
▁185	-11.4677
▁Holo	-11.4695
▁förhoppning	-11.4704
näring	-11.471
▁kvinno	-11.4716
pril	-11.4721
färgad	-11.4727
team	-11.4748
▁psykiatri	-11.4762
hundra	-11.4771
tillstånd	-11.4777
lön	-11.4793
▁skärmar	-11.4814
hängande	-11.483
▁avlägs	-11.4838
glaciär	-11.4845
▁summ	-11.4848
komponent	-11.4851
▁ojämlik	-11.4851
▁kines	-11.4856
åtgärd	-11.4858
▁William	-11.4869
▁märkvärdig	-11.4869
bedrägeri	-11.4869
mottagning	-11.4869
▁1,2	-11.4869
▁Babylon	-11.4869
▁Chicago	-11.4869
▁Fibonacci	-11.4869
▁Hjärt	-11.4869
▁Jersey	-11.4869
▁Jupiter	-11.4869
▁Nordkorea	-11.4869
▁PISA	-11.4869
▁Rosetta	-11.4869
▁Sylvi	-11.4869
▁TEDTalk	-11.4869
▁Talibanerna	-11.4869
▁Watson	-11.4869
▁actionspel	-11.4869
▁aggressiv	-11.4869
▁diarré	-11.4869
▁droppa	-11.4869
▁droppe	-11.4869
▁ebola	-11.4869
▁exemplar	-11.4869
▁fluktuation	-11.4869
▁förolämpning	-11.4869
▁invandrar	-11.4869
▁klitoris	-11.4869
▁koncentration	-11.4869
▁lägst	-11.4869
▁näringsämnen	-11.4869
▁okunnighet	-11.4869
▁olikheter	-11.4869
▁premiärminister	-11.4869
▁rekonstruera	-11.4869
▁resonemang	-11.4869
▁ryggmärg	-11.4869
▁rymdvarelse	-11.4869
▁simulera	-11.4869
▁soptipp	-11.4869
▁spindelsilke	-11.4869
▁succé	-11.4869
▁sällskap	-11.4869
▁tröskel	-11.4869
assistent	-11.4869
▁folkhälsa	-11.4869
▁horisont	-11.4869
▁hårdvara	-11.4869
▁korall	-11.4869
▁romantisk	-11.4869
▁tillsagd	-11.4869
▁pirat	-11.4869
▁hydro	-11.4869
▁mikrofon	-11.4869
▁trådlös	-11.4869
▁hyperaktiv	-11.4869
▁patent	-11.4869
▁trupper	-11.4869
▁beslutsfattande	-11.4869
▁byxor	-11.4869
▁bisarr	-11.4869
▁geografisk	-11.4869
▁tåla	-11.4869
besparing	-11.4869
▁montera	-11.487
▁inhemsk	-11.487
adress	-11.487
▁Enkel	-11.487
▁donera	-11.487
idrog	-11.487
▁minimal	-11.487
▁slapp	-11.487
▁tumme	-11.487
zym	-11.487
▁anpassningsbar	-11.487
▁insistera	-11.487
▁Röd	-11.487
▁nervsystemet	-11.487
▁hälsovård	-11.487
▁Martin	-11.487
▁fotavtryck	-11.487
▁beskydda	-11.487
språng	-11.4871
▁instinktiv	-11.4871
▁soppa	-11.4871
▁knacka	-11.4871
▁tiger	-11.4871
▁arkiv	-11.4872
▁Sierra	-11.4872
▁statistisk	-11.4872
▁hörsel	-11.4872
▁rättegång	-11.4872
▁höjdpunkt	-11.4872
▁graviditet	-11.4872
▁1,5	-11.4873
kål	-11.4873
▁97	-11.4873
▁1999	-11.4873
träff	-11.4873
▁Spring	-11.4873
▁folkhälso	-11.4874
▁Tob	-11.4874
▁mörkret	-11.4874
▁påminde	-11.4875
givande	-11.4876
pussl	-11.4876
▁flow	-11.4876
▁självstyr	-11.4877
▁ändringar	-11.4877
▁Maria	-11.4878
▁angeläg	-11.4878
▁Rätt	-11.4879
▁alger	-11.488
▁femtio	-11.488
▁Stör	-11.4882
▁Bali	-11.4883
▁genomförde	-11.4883
▁utreda	-11.4885
▁vilse	-11.4886
provins	-11.4887
▁återvinning	-11.4888
▁nedåt	-11.4889
▁elit	-11.4894
▁avfärda	-11.4896
▁entreprenörer	-11.4897
chip	-11.4898
hantering	-11.4899
▁korridor	-11.4901
▁kapitalism	-11.4902
▁cykla	-11.4905
yssna	-11.4905
anläggning	-11.4907
▁uppnått	-11.491
▁blindhet	-11.4913
lhi	-11.4913
▁mur	-11.4913
▁stolthet	-11.4914
▁dussintal	-11.492
▁box	-11.4921
▁Kör	-11.4926
▁öra	-11.4928
verkningar	-11.4929
▁blodtryck	-11.4937
▁förenade	-11.4937
▁musikstycke	-11.4938
▁andetag	-11.4945
▁neo	-11.4974
▁tonåring	-11.4977
belysning	-11.4978
▁bärbar	-11.498
▁pinsam	-11.4981
▁teknologisk	-11.4986
tomater	-11.4989
ption	-11.4993
▁analogi	-11.4998
▁symbolisk	-11.5009
▁Leon	-11.5033
▁Kol	-11.5049
▁strukturell	-11.5055
▁stärk	-11.5081
▁utvinn	-11.5081
tagare	-11.509
▁Lite	-11.5097
▁vaccinera	-11.5113
skärning	-11.5113
▁baksida	-11.5117
▁ironi	-11.5139
oft	-11.5141
relaterad	-11.5148
▁förbise	-11.5152
▁vy	-11.5153
lät	-11.5159
▁blogg	-11.517
kaffa	-11.5171
▁avancera	-11.5183
▁900	-11.5191
▁justera	-11.521
▁skäm	-11.5232
verbal	-11.5236
▁behåll	-11.5274
▁Mac	-11.529
▁älsk	-11.5292
▁kärnkraftverk	-11.5298
12	-11.5308
▁lärdomar	-11.533
▁nyttig	-11.534
▁bransch	-11.5346
▁utbyt	-11.5355
grepp	-11.5368
elat	-11.5393
evolution	-11.5395
beroende	-11.5396
kapital	-11.5399
hastighet	-11.54
knapp	-11.5402
igenom	-11.5406
eftersom	-11.5415
ihop	-11.5423
ägarna	-11.5435
▁anmärkningsvär	-11.5479
▁tvär	-11.5482
förbrukning	-11.5501
▁föräldra	-11.5523
▁snitt	-11.5528
lampa	-11.5578
▁säl	-11.558
▁längta	-11.5584
beskrivning	-11.5592
▁gata	-11.5607
▁ansträng	-11.5616
veckling	-11.5617
▁kriminal	-11.5628
eptember	-11.5635
ärskil	-11.5635
▁flexib	-11.5635
▁avstå	-11.5637
▁insulin	-11.5637
issförstå	-11.5638
▁pytte	-11.5638
inflammation	-11.5639
sbjörn	-11.5639
stillväxt	-11.5639
▁Argentin	-11.5639
▁Bangladesh	-11.5639
▁Hjälp	-11.5639
▁Institute	-11.5639
▁Italien	-11.5639
▁Shanghai	-11.5639
▁acceptans	-11.5639
▁akademiker	-11.5639
▁altruism	-11.5639
▁ambition	-11.5639
▁angrip	-11.5639
▁applicera	-11.5639
▁barnaöverlevnad	-11.5639
▁briljant	-11.5639
▁elegant	-11.5639
▁italiensk	-11.5639
▁konsekvent	-11.5639
▁kriminell	-11.5639
▁läxor	-11.5639
▁maskininlärning	-11.5639
▁nackdel	-11.5639
▁navigera	-11.5639
▁nominera	-11.5639
▁november	-11.5639
▁oacceptabel	-11.5639
▁primitiv	-11.5639
▁splittra	-11.5639
▁synapser	-11.5639
▁tillfredsställa	-11.5639
▁transparent	-11.5639
historik	-11.5639
stipendi	-11.5639
▁Islam	-11.5639
▁Seattle	-11.5639
▁asiatisk	-11.5639
▁konsult	-11.5639
▁leopardsäl	-11.5639
▁melodi	-11.5639
▁orange	-11.5639
▁rullstol	-11.5639
▁Disney	-11.5639
▁Internation	-11.5639
▁kongressen	-11.5639
▁krymp	-11.5639
▁hjärnbark	-11.5639
▁kvadratmeter	-11.5639
▁redskap	-11.5639
▁artiklar	-11.5639
▁dölja	-11.5639
▁försvaga	-11.5639
▁invadera	-11.5639
▁Vietnam	-11.5639
▁kritik	-11.5639
▁Nathan	-11.5639
▁Forskning	-11.5639
▁genuin	-11.5639
▁webbsidor	-11.5639
▁Steph	-11.5639
▁underminera	-11.5639
▁fuktig	-11.5639
▁robust	-11.5639
▁ansvarsfull	-11.5639
▁rutnät	-11.5639
▁sallad	-11.5639
plankton	-11.5639
▁utsökt	-11.5639
▁gatu	-11.5639
▁stapla	-11.5639
▁förutfattad	-11.5639
▁sötvatten	-11.5639
▁poängtera	-11.5639
▁Latinamerika	-11.5639
▁plikt	-11.5639
▁Stilla	-11.564
skördar	-11.564
coach	-11.564
▁skelettet	-11.564
ulära	-11.564
child	-11.564
▁känneteck	-11.5641
▁Super	-11.5641
▁föroreningar	-11.5641
▁otur	-11.5641
▁sjukvårdssystem	-11.5642
▁flexibel	-11.5642
▁hiss	-11.5642
▁världsbild	-11.5642
▁kontrast	-11.5643
▁ruttna	-11.5643
▁1600	-11.5643
▁Bush	-11.5643
▁morfar	-11.5644
▁Följ	-11.5644
▁muta	-11.5644
▁datorspel	-11.5645
▁däck	-11.5646
▁hoppfull	-11.5646
▁panik	-11.5647
▁broar	-11.5647
▁optisk	-11.5647
▁svett	-11.5648
▁HP	-11.565
▁naiv	-11.5651
▁meditera	-11.5651
▁37	-11.5651
pool	-11.5651
▁26	-11.5653
ederal	-11.5655
trådar	-11.5655
▁beskrivit	-11.5656
▁deltagande	-11.5657
▁strömma	-11.5657
▁sexarbetare	-11.5658
▁hop	-11.5659
▁generös	-11.566
▁dimm	-11.566
▁regenerera	-11.5662
▁blinka	-11.5663
▁anfall	-11.5663
▁halka	-11.5663
▁rysk	-11.5663
▁förbind	-11.5665
▁evighet	-11.5669
▁Snar	-11.567
▁nyskapa	-11.5671
▁strö	-11.5671
corn	-11.5676
▁givar	-11.5697
▁samverka	-11.5704
▁katastrofal	-11.571
▁West	-11.5716
profil	-11.5722
säljare	-11.5725
oängen	-11.5726
▁lustig	-11.5729
▁sval	-11.5737
smetoder	-11.5761
iness	-11.5766
▁delaktig	-11.5771
▁rusa	-11.5781
▁Förstå	-11.5789
▁ideell	-11.5794
▁energikäll	-11.5808
skrivning	-11.582
▁ideologi	-11.5831
kylning	-11.5837
möjlighet	-11.5837
▁vindkraftverk	-11.5851
▁färsk	-11.5851
▁chockera	-11.5852
▁ramla	-11.5869
iya	-11.5898
små	-11.5925
▁skolsystem	-11.5945
▁gärning	-11.5947
▁övervinn	-11.595
▁Mass	-11.5964
▁Fred	-11.5982
▁neandertalar	-11.599
▁verb	-11.6062
▁afrikan	-11.6083
▁64	-11.6127
▁trapp	-11.6144
försörjning	-11.6146
spir	-11.6155
▁lysa	-11.6177
ibera	-11.6181
▁astronomi	-11.6208
historia	-11.6229
universitetet	-11.6231
protein	-11.6231
kapacitet	-11.6232
signaler	-11.6232
intresse	-11.6233
uppfattning	-11.6233
kontakt	-11.6233
fysik	-11.6233
behov	-11.6234
bomb	-11.6234
producera	-11.6234
information	-11.6235
säkerhet	-11.6251
▁34	-11.6284
sjö	-11.6292
röd	-11.6325
▁vux	-11.6331
aktioner	-11.6341
▁framstå	-11.6356
grop	-11.6368
fäder	-11.6374
höjd	-11.6392
▁åkt	-11.6413
chimpanserna	-11.6431
komplexe	-11.6432
annons	-11.6446
▁regener	-11.6449
▁poly	-11.6453
▁pungdjävul	-11.6462
begrip	-11.6466
arabisk	-11.6468
▁instinkt	-11.647
befrukt	-11.6472
▁Journal	-11.6472
▁Rockett	-11.6472
▁jämställdhet	-11.6472
▁källkod	-11.6472
▁mardröm	-11.6472
▁rättfärdiga	-11.6472
▁smörgås	-11.6472
diskriminering	-11.6472
fjädrar	-11.6472
räknelig	-11.6472
vapnet	-11.6472
väpna	-11.6472
▁Cochrane	-11.6472
▁Eduardo	-11.6472
▁FBI	-11.6472
▁Information	-11.6472
▁Maslow	-11.6472
▁Perfekt	-11.6472
▁Schweiz	-11.6472
▁Stockholm	-11.6472
▁Wikipedia	-11.6472
▁ambitiös	-11.6472
▁avsaknad	-11.6472
▁belastning	-11.6472
▁bibehåll	-11.6472
▁bläddra	-11.6472
▁dilemma	-11.6472
▁distraherad	-11.6472
▁dröj	-11.6472
▁frustration	-11.6472
▁garderob	-11.6472
▁grabbar	-11.6472
▁implementera	-11.6472
▁kalender	-11.6472
▁katolsk	-11.6472
▁konstgjord	-11.6472
▁krabbor	-11.6472
▁little	-11.6472
▁läskunnighet	-11.6472
▁lågkonjunktur	-11.6472
▁magnifik	-11.6472
▁moské	-11.6472
▁omdefiniera	-11.6472
▁prioritera	-11.6472
▁resistens	-11.6472
▁rymdfarkost	-11.6472
▁rymdskepp	-11.6472
▁sabbatsår	-11.6472
▁stackar	-11.6472
▁utvärdering	-11.6472
▁återhämtning	-11.6472
invasiv	-11.6472
▁Jarrett	-11.6472
▁Tesla	-11.6472
▁bonob	-11.6472
▁himla	-11.6472
▁känsel	-11.6472
▁matavfall	-11.6472
▁medlidande	-11.6472
▁Bonnet	-11.6472
▁Filip	-11.6472
▁väte	-11.6472
▁Schwarz	-11.6472
▁guide	-11.6472
▁high	-11.6472
▁otänkbar	-11.6472
▁kopior	-11.6472
▁plasma	-11.6472
▁återvunn	-11.6472
ndustrialiserade	-11.6472
utbredning	-11.6472
▁underskatta	-11.6472
▁skeptisk	-11.6472
▁tugga	-11.6472
▁iPod	-11.6472
▁promenera	-11.6472
underskott	-11.6472
▁House	-11.6472
▁Börja	-11.6472
▁mogna	-11.6472
▁balett	-11.6472
▁ribba	-11.6472
▁påtvinga	-11.6472
rollkarl	-11.6472
kunnig	-11.6472
▁sammanlänka	-11.6472
▁teckne	-11.6472
leverantör	-11.6472
ugusti	-11.6472
▁måndag	-11.6472
▁operationssal	-11.6472
▁jägare	-11.6472
▁tvärtom	-11.6472
löpa	-11.6472
▁livskvalitet	-11.6472
▁Design	-11.6472
▁Ljud	-11.6472
diamant	-11.6472
▁oliktänka	-11.6472
▁ifrågasatt	-11.6472
▁smidig	-11.6472
▁rejäl	-11.6472
tejp	-11.6472
▁sjutton	-11.6472
▁Död	-11.6473
▁begravd	-11.6473
▁Känn	-11.6473
▁förtjus	-11.6473
▁livscykel	-11.6473
▁begåvad	-11.6473
▁Ohio	-11.6473
▁fantisera	-11.6473
▁odödlig	-11.6473
▁vrak	-11.6473
▁otäck	-11.6473
▁kaps	-11.6473
▁slagfält	-11.6473
▁yog	-11.6473
▁Krist	-11.6474
▁kolonisera	-11.6474
▁Sjung	-11.6474
▁humör	-11.6474
▁värdighet	-11.6474
▁miljövänlig	-11.6474
stöld	-11.6474
▁anmäl	-11.6474
▁synfält	-11.6475
▁linser	-11.6475
▁datapunkter	-11.6475
▁grannskap	-11.6476
▁motsägelser	-11.6476
ningsområden	-11.6476
▁utvald	-11.6477
▁hjord	-11.6478
▁genväg	-11.6478
▁avsedd	-11.6478
▁medeltid	-11.6478
sgrad	-11.648
▁boende	-11.648
phia	-11.648
▁filmskapa	-11.648
▁vev	-11.6481
▁vädja	-11.6481
▁mineral	-11.6481
▁Hursomhel	-11.6482
▁Maskin	-11.6482
▁sträckte	-11.6482
▁rubriker	-11.6483
▁morse	-11.6483
▁oljud	-11.6484
▁VI	-11.6484
▁sporer	-11.6484
▁Full	-11.6486
▁råttan	-11.6486
▁högskola	-11.6486
rotade	-11.6487
▁Räck	-11.6488
▁grafik	-11.6491
▁kaos	-11.6491
▁intäkter	-11.6492
▁Kort	-11.6494
▁pip	-11.6495
▁doktorand	-11.6495
▁homo	-11.6498
▁surfa	-11.6498
▁explosioner	-11.6501
▁psykotisk	-11.6502
▁utspela	-11.6503
▁Anth	-11.651
kanadens	-11.651
▁specialist	-11.6511
spann	-11.6512
▁summera	-11.6515
unisi	-11.6515
▁förståelig	-11.6519
▁vred	-11.6529
▁parkering	-11.6533
▁digitalisera	-11.654
fobi	-11.6544
▁smitt	-11.6583
▁blöd	-11.6594
▁psykiatrisk	-11.6599
▁station	-11.6606
▁märk	-11.661
sdepartement	-11.6616
BC	-11.6621
▁Rese	-11.6638
▁hamn	-11.6652
myror	-11.6683
▁översatt	-11.6685
tusental	-11.6688
▁ifrågasätt	-11.6693
lagring	-11.6723
stationer	-11.6724
▁filosofisk	-11.6739
▁harmoni	-11.6745
▁ramverk	-11.6757
insamling	-11.6758
▁dubbl	-11.678
▁självklar	-11.6831
▁höglju	-11.6851
▁beröm	-11.6891
ifa	-11.6929
▁livrädd	-11.7003
▁180	-11.7013
räckte	-11.7016
kammare	-11.7034
▁ledtråd	-11.7068
ämningar	-11.7084
procentig	-11.7084
gjort	-11.7098
ibel	-11.7105
▁Nobelpris	-11.7113
▁nedbryt	-11.7134
kvarter	-11.714
rapport	-11.714
fotograf	-11.714
utrustning	-11.714
berättelse	-11.7143
befolkning	-11.7143
samhällen	-11.7143
dollar	-11.7144
centrum	-11.7144
TV	-11.7148
havet	-11.7149
arbetarna	-11.716
▁Lab	-11.7164
sorter	-11.7173
räddning	-11.7174
▁förbere	-11.7176
pråk	-11.7205
▁övrig	-11.7229
eorin	-11.7229
▁återstå	-11.7255
▁front	-11.7258
▁fransk	-11.7279
odlingar	-11.7314
▁glid	-11.7336
skiner	-11.7348
krasch	-11.7354
▁lycko	-11.7367
▁centrifug	-11.7368
▁privilegie	-11.737
smittad	-11.7372
temperatur	-11.7377
spetsar	-11.738
häft	-11.738
bearbetning	-11.7381
▁Bosnien	-11.7381
▁förskräcklig	-11.7381
▁glädja	-11.7381
▁lejon	-11.7381
▁perception	-11.7381
disciplin	-11.7381
istribution	-11.7381
pollinering	-11.7381
restriktioner	-11.7381
▁Accenture	-11.7381
▁Alexander	-11.7381
▁Daniel	-11.7381
▁HeForShe	-11.7381
▁Metafor	-11.7381
▁Museum	-11.7381
▁Nathaniel	-11.7381
▁President	-11.7381
▁Professor	-11.7381
▁Stuxnet	-11.7381
▁Tanzania	-11.7381
▁Teknologi	-11.7381
▁anekdot	-11.7381
▁ansiktsuttryck	-11.7381
▁auktoritet	-11.7381
▁bekymrad	-11.7381
▁bemärkelse	-11.7381
▁berömmelse	-11.7381
▁distribuera	-11.7381
▁dödsorsak	-11.7381
▁egyptier	-11.7381
▁förtvivla	-11.7381
▁genomskinlig	-11.7381
▁illegal	-11.7381
▁inflytande	-11.7381
▁irrationell	-11.7381
▁jordbävningen	-11.7381
▁jäkl	-11.7381
▁kollaborativ	-11.7381
▁konspiration	-11.7381
▁konvertera	-11.7381
▁kosmolog	-11.7381
▁kriterier	-11.7381
▁mikroorganismer	-11.7381
▁prioritet	-11.7381
▁racerbil	-11.7381
▁rehabilitering	-11.7381
▁representation	-11.7381
▁rymma	-11.7381
▁signifikant	-11.7381
▁synvillor	-11.7381
▁trafikstockning	-11.7381
▁trianglar	-11.7381
▁trängselskatte	-11.7381
▁tunnelbana	-11.7381
▁tweet	-11.7381
▁vätske	-11.7381
▁Little	-11.7381
▁Västbanken	-11.7381
▁befintlig	-11.7381
▁evangeli	-11.7381
▁fjäll	-11.7381
▁frukost	-11.7381
▁förvåning	-11.7381
▁oregelbund	-11.7381
▁parkeringsplats	-11.7381
▁förvrid	-11.7381
björk	-11.7381
konfiguration	-11.7381
▁gräsmark	-11.7381
▁trottoar	-11.7381
▁försumma	-11.7381
▁indikera	-11.7381
▁resonera	-11.7381
▁sammanfoga	-11.7381
▁dygd	-11.7381
▁fientlig	-11.7381
▁järnväg	-11.7381
▁obegriplig	-11.7381
▁ogilla	-11.7381
▁kontroversiell	-11.7381
▁applikation	-11.7381
▁exotisk	-11.7381
▁biografi	-11.7381
▁gissning	-11.7381
▁multitask	-11.7381
▁myggor	-11.7381
omröstning	-11.7381
▁Förhoppning	-11.7381
▁begravning	-11.7381
▁kritisera	-11.7381
▁stroke	-11.7381
Sophia	-11.7381
▁Jordan	-11.7381
▁pyttelite	-11.7381
▁baklänges	-11.7381
▁benämn	-11.7381
▁skynda	-11.7381
▁återfå	-11.7381
hjälm	-11.7381
▁Vivian	-11.7381
▁åttonde	-11.7381
▁ultra	-11.7381
▁återuppliva	-11.7381
▁pollen	-11.7381
▁silver	-11.7381
▁kommentera	-11.7381
▁Runt	-11.7381
▁slöja	-11.7381
▁tokig	-11.7381
▁trång	-11.7381
ource	-11.7382
▁stammar	-11.7382
▁udda	-11.7382
▁överskrid	-11.7382
▁korsning	-11.7382
▁trettio	-11.7382
▁axlar	-11.7382
▁ögonkontakt	-11.7382
▁skadliga	-11.7382
▁Lös	-11.7382
smycken	-11.7383
▁Hundra	-11.7383
▁programmering	-11.7383
▁repetition	-11.7383
▁inbyggd	-11.7383
▁utelämna	-11.7383
▁kind	-11.7383
rbetsminne	-11.7383
▁Life	-11.7383
▁klimatkrisen	-11.7383
▁soffa	-11.7383
▁retori	-11.7383
▁spruta	-11.7384
▁förekomst	-11.7384
▁avsiktlig	-11.7384
kastning	-11.7384
▁magiker	-11.7384
omposit	-11.7385
taxi	-11.7385
▁miljömässig	-11.7385
▁tonfisk	-11.7385
▁drastisk	-11.7385
formulera	-11.7385
▁trasig	-11.7385
▁arbetsliv	-11.7385
▁vaccinering	-11.7386
▁Utbild	-11.7386
▁tyng	-11.7386
▁Pappa	-11.7386
▁vitamin	-11.7386
utskrifte	-11.7386
▁allierad	-11.7386
▁sekvensering	-11.7387
pinnar	-11.7387
▁bekämpningsmed	-11.7387
▁begriplig	-11.7387
▁expertis	-11.7387
ögd	-11.7388
▁Tusen	-11.7388
▁rasism	-11.739
▁RO	-11.7391
▁förbindelse	-11.7392
▁jurist	-11.7393
utredning	-11.7393
▁klassificera	-11.7394
nycklar	-11.7397
▁sårbarhet	-11.7406
▁imam	-11.7408
▁kontra	-11.7408
kjol	-11.7409
▁caféer	-11.7409
▁flyktig	-11.7412
nteckningar	-11.7413
▁glaciärer	-11.7413
▁Elekt	-11.7414
föda	-11.7419
▁vittne	-11.7421
▁Giu	-11.7427
plex	-11.7428
▁Coc	-11.7435
▁förbruka	-11.7441
▁fånig	-11.7443
▁Motor	-11.7457
avgifter	-11.7459
osfären	-11.7464
behandlingar	-11.7465
▁geometrisk	-11.7476
kommande	-11.7478
saga	-11.7478
▁anlände	-11.7493
▁vakter	-11.7506
ötter	-11.753
körtel	-11.753
▁revolutionera	-11.762
▁misstänksam	-11.7628
▁schimpans	-11.7684
öjlig	-11.7686
▁neuro	-11.7721
▁mätbar	-11.7732
skostnader	-11.7773
▁folkmassa	-11.7844
brytning	-11.7845
bestämd	-11.7886
▁återgå	-11.7894
säker	-11.7916
▁regelverk	-11.7927
ålder	-11.7951
▁predika	-11.7953
▁avbryt	-11.7977
nedslag	-11.8079
klapp	-11.8079
ämne	-11.8092
snittet	-11.8112
meddelande	-11.8139
författare	-11.8139
konsumtion	-11.814
tävling	-11.814
tillverkning	-11.8141
magnet	-11.8141
objekt	-11.8141
medicin	-11.8142
princip	-11.8142
sjukhus	-11.8142
hjälp	-11.8144
människor	-11.8144
mobil	-11.8145
situation	-11.8147
kvinna	-11.8149
▁häpna	-11.8157
hållit	-11.816
medvetenhet	-11.8174
▁kinesisk	-11.8204
tillverka	-11.8223
▁stjäl	-11.823
sidor	-11.8235
uppdrag	-11.8255
ntressant	-11.8262
▁Jenni	-11.8296
▁astronaut	-11.8298
klarhet	-11.8311
▁stimul	-11.8319
lärning	-11.8367
okrati	-11.8369
▁motstå	-11.8372
jäl	-11.8375
fött	-11.8377
faldig	-11.8379
▁Grön	-11.838
▁cyber	-11.8381
▁tillkännag	-11.8381
▁Arkitekt	-11.8381
igenkänning	-11.8381
tyskland	-11.8381
▁Brookl	-11.8381
▁Carnegie	-11.8381
▁Dreadnought	-11.8381
▁Freud	-11.8381
▁Jerusalem	-11.8381
▁Mumbai	-11.8381
▁Partiet	-11.8381
▁Projekt	-11.8381
▁Science	-11.8381
▁Teknik	-11.8381
▁adoptera	-11.8381
▁automatisera	-11.8381
▁bekräftelse	-11.8381
▁bostadsområde	-11.8381
▁destruktiv	-11.8381
▁donator	-11.8381
▁dämpa	-11.8381
▁exceptionell	-11.8381
▁förvirring	-11.8381
▁förvräng	-11.8381
▁glödlampor	-11.8381
▁gräsrots	-11.8381
▁heterosexuell	-11.8381
▁jemenitisk	-11.8381
▁juridik	-11.8381
▁knekt	-11.8381
▁kompensera	-11.8381
▁kosmos	-11.8381
▁levnads	-11.8381
▁luftkonditioner	-11.8381
▁läkemedle	-11.8381
▁löper	-11.8381
▁lördag	-11.8381
▁missanpassad	-11.8381
▁morföräldrar	-11.8381
▁onaturlig	-11.8381
▁onödig	-11.8381
▁optimal	-11.8381
▁rutinmässig	-11.8381
▁sekulariserad	-11.8381
▁silikon	-11.8381
▁smuggl	-11.8381
▁spektakulär	-11.8381
▁spirituell	-11.8381
▁tillförlitlig	-11.8381
▁transparens	-11.8381
▁triangel	-11.8381
▁triljon	-11.8381
▁ultimat	-11.8381
▁urskilj	-11.8381
hygien	-11.8381
kommission	-11.8381
▁Beethoven	-11.8381
▁Demokrati	-11.8381
▁Extrem	-11.8381
▁Glöm	-11.8381
▁Sousa	-11.8381
▁Studie	-11.8381
▁UFO	-11.8381
▁akustik	-11.8381
▁bäbis	-11.8381
▁datortomograf	-11.8381
▁display	-11.8381
▁exalterad	-11.8381
▁fortplantning	-11.8381
▁fotosynte	-11.8381
▁halvtimme	-11.8381
▁heroin	-11.8381
▁löv	-11.8381
▁oavsiktlig	-11.8381
▁obeveklig	-11.8381
▁sköterskor	-11.8381
▁solnedgång	-11.8381
▁uteslutande	-11.8381
▁Gayla	-11.8381
▁Huvud	-11.8381
▁förvärva	-11.8381
▁läroböcker	-11.8381
▁Klimat	-11.8381
▁bergskedja	-11.8381
▁läroplan	-11.8381
▁uttråkad	-11.8381
▁Guinea	-11.8381
▁Regler	-11.8381
föränderlig	-11.8381
skribent	-11.8381
▁Ocean	-11.8381
▁terrorist	-11.8381
▁bantning	-11.8381
▁upphetsning	-11.8381
▁borrmaskin	-11.8381
▁Plast	-11.8381
▁gorill	-11.8381
▁påtaglig	-11.8381
▁talesätt	-11.8381
▁knep	-11.8381
▁Stopp	-11.8381
▁uppträdande	-11.8381
▁överlappa	-11.8381
▁utsäde	-11.8381
▁rektor	-11.8381
▁erkänd	-11.8381
▁vattna	-11.8381
▁amatör	-11.8381
▁stimulans	-11.8381
▁Rosling	-11.8381
▁divers	-11.8381
▁uppdatera	-11.8381
kurvan	-11.8381
▁Tillväxt	-11.8381
laddning	-11.8381
▁Libyen	-11.8381
▁Längs	-11.8381
▁anatomi	-11.8381
▁avstäng	-11.8381
▁kommando	-11.8381
▁karaktärsdrag	-11.8381
▁tavla	-11.8381
▁fiol	-11.8381
▁serietidning	-11.8381
▁titan	-11.8381
▁Beach	-11.8381
▁smula	-11.8381
▁missuppfattning	-11.8382
▁Exemp	-11.8382
▁byggstenar	-11.8382
▁granat	-11.8382
▁heder	-11.8382
▁Film	-11.8382
▁Alaska	-11.8382
▁ivrig	-11.8382
▁nationalpark	-11.8382
osaur	-11.8382
▁havsytan	-11.8382
▁Marduk	-11.8382
▁upplyst	-11.8382
kapitle	-11.8382
▁Stanna	-11.8382
▁spektra	-11.8382
▁rekryterade	-11.8382
▁satellitbilder	-11.8382
▁moderträd	-11.8382
kostym	-11.8382
▁uttyd	-11.8383
▁skarpa	-11.8383
grind	-11.8383
▁Hitta	-11.8383
biljett	-11.8383
▁rustning	-11.8383
▁delfiner	-11.8383
▁dödläge	-11.8383
▁inbädda	-11.8383
▁islamistisk	-11.8384
styrning	-11.8384
förvaltning	-11.8384
▁angrepp	-11.8384
▁tretton	-11.8384
streck	-11.8384
▁sopor	-11.8384
▁sammankoppling	-11.8384
▁bunt	-11.8384
▁diktator	-11.8385
▁distans	-11.8385
▁spegelneuron	-11.8385
▁imperi	-11.8385
▁Free	-11.8386
▁Tidiga	-11.8386
▁flygbolag	-11.8386
▁Grand	-11.8386
▁Johnny	-11.8387
ctiv	-11.8388
▁lustgård	-11.8389
▁storskalig	-11.8389
▁Chile	-11.839
▁verifier	-11.839
åglar	-11.8391
▁fördjupa	-11.8393
▁indier	-11.8395
kriminalisering	-11.8395
▁invecklad	-11.84
▁bringa	-11.84
▁limb	-11.8402
glimt	-11.8403
högtalare	-11.8405
ecto	-11.8405
▁nedbrytbar	-11.8413
eith	-11.8422
kränk	-11.8422
▁tarmar	-11.8426
▁Air	-11.8427
▁Gha	-11.8427
virvla	-11.8429
emple	-11.8458
immunitet	-11.8468
index	-11.8492
▁besvärlig	-11.8494
▁arbetsgivar	-11.8496
tryckningar	-11.8497
▁extern	-11.8502
hälso	-11.8523
missil	-11.8524
▁regera	-11.8561
svärt	-11.8583
▁klargöra	-11.8584
▁förfölj	-11.8588
föreningar	-11.8624
▁imponera	-11.8662
iagnosticera	-11.8664
onsens	-11.8669
tavlor	-11.8692
▁höj	-11.8768
▁förespråka	-11.8794
bildningssystem	-11.8804
▁Christi	-11.8845
▁känslig	-11.886
▁sammankoppla	-11.8935
myck	-11.8956
ganism	-11.908
telefon	-11.9085
modellen	-11.9144
spray	-11.9175
aktivis	-11.9215
använda	-11.922
▁övergiv	-11.9221
▁välkän	-11.9241
experter	-11.9251
professor	-11.9252
spridning	-11.9252
kläder	-11.9252
instrument	-11.9253
flickor	-11.9254
kärlek	-11.9254
historien	-11.9254
dotter	-11.9255
utmaning	-11.9257
vävnad	-11.9259
skolor	-11.9259
pelare	-11.9314
▁väd	-11.936
▁blyg	-11.9377
sparande	-11.938
osite	-11.9393
▁hindr	-11.9428
▁föreläs	-11.9431
givning	-11.9432
lonis	-11.9466
q	-11.9467
▁skådespel	-11.948
fängsl	-11.9482
ystnad	-11.9487
räckning	-11.9489
pedagog	-11.949
mjöl	-11.9491
dmjuk	-11.9492
aliforni	-11.9492
▁hypo	-11.9492
bedövning	-11.9492
djävul	-11.9492
▁BMI	-11.9492
▁DVD	-11.9492
▁Laborator	-11.9492
▁OECD	-11.9492
▁Oscar	-11.9492
▁PowerPoint	-11.9492
▁acceleration	-11.9492
▁högskole	-11.9492
▁predikning	-11.9492
▁suverän	-11.9492
evenemang	-11.9492
mekanike	-11.9492
mprovisation	-11.9492
shuvud	-11.9492
vegetarian	-11.9492
vegetation	-11.9492
▁Abraham	-11.9492
▁Afghansk	-11.9492
▁Boltzmann	-11.9492
▁Clinton	-11.9492
▁Feynman	-11.9492
▁Georgetown	-11.9492
▁Himalaya	-11.9492
▁Lämna	-11.9492
▁Miljon	-11.9492
▁Människan	-11.9492
▁Palestin	-11.9492
▁Smith	-11.9492
▁Social	-11.9492
▁Sovjetunionen	-11.9492
▁Stewart	-11.9492
▁Vintergatan	-11.9492
▁alfabet	-11.9492
▁arrangera	-11.9492
▁arresterad	-11.9492
▁djungel	-11.9492
▁dödsstraff	-11.9492
▁extrovert	-11.9492
▁farföräldrar	-11.9492
▁filtrera	-11.9492
▁fjäder	-11.9492
▁fångenskap	-11.9492
▁galleri	-11.9492
▁grekerna	-11.9492
▁hyfsa	-11.9492
▁inbördeskrig	-11.9492
▁innovatörer	-11.9492
▁judendomen	-11.9492
▁kartlagt	-11.9492
▁korrigera	-11.9492
▁kosmetisk	-11.9492
▁kvalificerad	-11.9492
▁livslång	-11.9492
▁lurendrejare	-11.9492
▁maximera	-11.9492
▁menstruation	-11.9492
▁miljöpåverkan	-11.9492
▁naturresurs	-11.9492
▁neuromodul	-11.9492
▁orgasm	-11.9492
▁otrevlig	-11.9492
▁procedur	-11.9492
▁pussel	-11.9492
▁reflektion	-11.9492
▁school	-11.9492
▁skalbagg	-11.9492
▁snubbla	-11.9492
▁stadsplanerare	-11.9492
▁storleksordning	-11.9492
▁studsa	-11.9492
▁suddig	-11.9492
▁supernova	-11.9492
▁sändning	-11.9492
▁tangentbord	-11.9492
▁telefonsamtal	-11.9492
▁terapeut	-11.9492
▁transnationell	-11.9492
▁transplantera	-11.9492
▁twittra	-11.9492
▁uppgradera	-11.9492
▁utrotningshotad	-11.9492
▁välsignelse	-11.9492
▁yttrandefrihet	-11.9492
affisch	-11.9492
indikator	-11.9492
sreligion	-11.9492
vanföreställning	-11.9492
▁Cancer	-11.9492
▁Malaria	-11.9492
▁absur	-11.9492
▁dricksvatten	-11.9492
▁förbannad	-11.9492
▁hierarki	-11.9492
▁innebörd	-11.9492
▁länet	-11.9492
▁oönska	-11.9492
▁prioritering	-11.9492
▁skickliga	-11.9492
▁strikt	-11.9492
▁stränder	-11.9492
▁transformera	-11.9492
▁trigga	-11.9492
incident	-11.9492
▁Heath	-11.9492
▁Nevada	-11.9492
▁Ställ	-11.9492
▁bromsa	-11.9492
▁transistor	-11.9492
sysslor	-11.9492
▁Trump	-11.9492
▁Turki	-11.9492
▁livsuppeh	-11.9492
▁ljusblå	-11.9492
▁stapel	-11.9492
▁Hippo	-11.9492
▁frestelse	-11.9492
▁luckor	-11.9492
▁skåp	-11.9492
▁släpa	-11.9492
▁spekulati	-11.9492
▁såpoper	-11.9492
▁ofantlig	-11.9492
▁bokföring	-11.9492
▁stryp	-11.9492
▁uråldrig	-11.9492
▁biblisk	-11.9492
▁Carolina	-11.9492
▁antropolog	-11.9492
▁avskild	-11.9492
▁virtual	-11.9492
▁Plats	-11.9492
▁bilolyck	-11.9492
▁Nyckel	-11.9492
▁kortsiktig	-11.9492
▁proffs	-11.9492
▁minimera	-11.9492
▁spiral	-11.9492
▁syntetisk	-11.9492
▁tortera	-11.9492
▁återförena	-11.9492
▁kamel	-11.9492
▁tvivla	-11.9492
▁Skott	-11.9492
▁Små	-11.9492
▁charm	-11.9492
deklaration	-11.9492
▁babyloni	-11.9492
▁inspektera	-11.9492
▁förberedelser	-11.9492
▁dyster	-11.9492
▁Djur	-11.9492
▁korrelation	-11.9492
▁odds	-11.9492
▁Proust	-11.9492
▁återfinn	-11.9492
▁jättestor	-11.9492
▁intention	-11.9492
▁sammanslagning	-11.9493
▁folkmord	-11.9493
▁medelålder	-11.9493
▁syfta	-11.9493
▁utrustad	-11.9493
▁rabbi	-11.9493
▁konstatera	-11.9493
▁stjärnljus	-11.9493
▁lyx	-11.9493
▁syntes	-11.9493
▁plugga	-11.9493
▁vykort	-11.9493
▁Utmaning	-11.9493
▁Jean	-11.9493
▁råmaterial	-11.9493
▁dvs	-11.9493
▁kuslig	-11.9493
▁sanitet	-11.9493
▁saltvatten	-11.9493
▁Patric	-11.9493
▁Water	-11.9493
▁mutera	-11.9493
▁hjärtfrekvens	-11.9493
▁öknar	-11.9493
▁Grönland	-11.9493
▁musikalisk	-11.9493
▁avsked	-11.9494
▁födseln	-11.9494
▁förväxla	-11.9494
▁Oroa	-11.9494
beläggningen	-11.9494
▁ädel	-11.9494
▁makro	-11.9495
fynd	-11.9495
▁begrunda	-11.9495
▁hinna	-11.9495
fusion	-11.9495
ryssel	-11.9496
▁Shake	-11.9496
▁knut	-11.9496
▁spänd	-11.9496
orgmästare	-11.9497
dravidisk	-11.9498
▁avfyra	-11.9499
tidsorienterad	-11.9499
▁betona	-11.9499
▁åtskil	-11.9502
utsåg	-11.9502
byggnation	-11.9502
reddie	-11.9504
▁aktie	-11.9504
▁vibrera	-11.9506
▁zoo	-11.9508
▁problematisk	-11.9511
▁nacke	-11.9516
▁Luft	-11.9527
avverkning	-11.9528
förorening	-11.953
kreation	-11.9532
▁läppar	-11.9536
växtekonomier	-11.956
▁logisti	-11.9567
planetarisk	-11.9579
▁biomassa	-11.9583
fingr	-11.9584
▁blygsam	-11.9609
▁manövr	-11.9632
ållande	-11.9643
▁specialiserad	-11.9646
plattor	-11.9673
▁tropi	-11.9675
▁uppnådd	-11.9691
kläm	-11.9699
▁hustru	-11.9907
djup	-11.9992
lskar	-12.0018
▁inrikta	-12.0046
bränna	-12.0069
▁tömm	-12.0186
bjudande	-12.0321
referens	-12.05
litteratur	-12.0501
bibliotek	-12.0501
vätska	-12.0501
besök	-12.0502
kameror	-12.0503
relationer	-12.0504
matematik	-12.0504
experiment	-12.0504
DNA	-12.0505
aktivera	-12.0505
operation	-12.051
partementet	-12.0526
bättra	-12.0648
lemmar	-12.0684
café	-12.0703
begränsning	-12.0735
illgänglig	-12.0735
peciell	-12.0738
oncept	-12.074
Prince	-12.0742
▁abnorm	-12.0742
▁fjäril	-12.0742
protokoll	-12.0742
rekvisita	-12.0742
▁Rädsl	-12.0742
▁ekvator	-12.0742
▁kackerlack	-12.0742
▁kompromiss	-12.0742
▁korsfäst	-12.0742
▁schack	-12.0742
avvikelser	-12.0742
chaufför	-12.0742
fredsställelse	-12.0742
iktlinjer	-12.0742
konkurrera	-12.0742
rektangel	-12.0742
simulator	-12.0742
skulpturer	-12.0742
workshop	-12.0742
ärldsmedborgare	-12.0742
▁Avundsjuka	-12.0742
▁Byggnad	-12.0742
▁Digital	-12.0742
▁Hiroshi	-12.0742
▁Initiative	-12.0742
▁Mexico	-12.0742
▁Muhammad	-12.0742
▁Okinaw	-12.0742
▁Ruby	-12.0742
▁Sibiri	-12.0742
▁Sjukhus	-12.0742
▁Woody	-12.0742
▁aminosyror	-12.0742
▁anhängar	-12.0742
▁ateljé	-12.0742
▁bondgård	-12.0742
▁embryo	-12.0742
▁existentiell	-12.0742
▁exponentiell	-12.0742
▁fiskodling	-12.0742
▁fjärrstyr	-12.0742
▁flouresce	-12.0742
▁förfalskning	-12.0742
▁förkroppsliga	-12.0742
▁hajattacker	-12.0742
▁hjärnkirurg	-12.0742
▁hobby	-12.0742
▁hologram	-12.0742
▁hyllning	-12.0742
▁immigration	-12.0742
▁kapsyler	-12.0742
▁karismatisk	-12.0742
▁konkurrenter	-12.0742
▁kurvor	-12.0742
▁laptop	-12.0742
▁licens	-12.0742
▁lysdiod	-12.0742
▁miniräknare	-12.0742
▁motbevisa	-12.0742
▁narcissis	-12.0742
▁näringsrik	-12.0742
▁obetydlig	-12.0742
▁oförutsägbar	-12.0742
▁oktaeder	-12.0742
▁omgärda	-12.0742
▁outtröttlig	-12.0742
▁panafrikanis	-12.0742
▁primär	-12.0742
▁progressiv	-12.0742
▁projicera	-12.0742
▁päls	-12.0742
▁reality	-12.0742
▁representativ	-12.0742
▁retuschera	-12.0742
▁skicklighet	-12.0742
▁superintelligen	-12.0742
▁symfoni	-12.0742
▁teoretisk	-12.0742
▁utkämpa	-12.0742
▁välsigna	-12.0742
▁whisky	-12.0742
▁ömsesidig	-12.0742
australien	-12.0742
omvandling	-12.0742
▁Linux	-12.0742
▁asyl	-12.0742
▁baseball	-12.0742
▁helikopt	-12.0742
▁lagstiftning	-12.0742
▁saudisk	-12.0742
▁sediment	-12.0742
▁superhjält	-12.0742
▁symbio	-12.0742
▁trumstock	-12.0742
olidaritet	-12.0742
▁Buddhist	-12.0742
▁Jäm	-12.0742
▁ankartråd	-12.0742
▁avskyvär	-12.0742
▁livsviktig	-12.0742
▁lärobok	-12.0742
▁slutskede	-12.0742
giftsbehandling	-12.0742
sponsor	-12.0742
▁Princeton	-12.0742
▁miljörörelsen	-12.0742
▁översvämning	-12.0742
▁Hawk	-12.0742
▁Muslim	-12.0742
▁Säker	-12.0742
▁tolerant	-12.0742
▁urskog	-12.0742
▁verktygslåda	-12.0742
luftföroreningar	-12.0742
surfing	-12.0742
▁Berättelse	-12.0742
▁Diego	-12.0742
▁vibration	-12.0742
▁bröstkorg	-12.0742
▁guida	-12.0742
▁ihjäl	-12.0742
uppståndelse	-12.0742
▁hemplanet	-12.0742
ough	-12.0742
▁Simon	-12.0742
▁högteknologisk	-12.0742
▁moduler	-12.0742
▁Robin	-12.0742
Face	-12.0742
▁elstöt	-12.0742
▁Papu	-12.0742
▁orkester	-12.0742
▁puckel	-12.0742
▁beslutsfattar	-12.0742
▁kvalst	-12.0742
diktatur	-12.0742
▁Ofta	-12.0742
▁fiktion	-12.0742
▁elände	-12.0742
▁skruva	-12.0742
▁strump	-12.0742
▁ineffektiv	-12.0742
▁aktuell	-12.0742
▁drogmissbrukar	-12.0742
wanda	-12.0742
▁tiondel	-12.0742
▁Otrolig	-12.0742
plikationer	-12.0743
▁leuk	-12.0743
▁alstra	-12.0743
▁Fermi	-12.0743
▁basket	-12.0743
▁repetera	-12.0743
▁detaljplaner	-12.0743
informerade	-12.0743
▁Engelsk	-12.0743
anordning	-12.0743
▁netto	-12.0743
▁skuldkänsl	-12.0743
▁gröda	-12.0743
▁steril	-12.0743
▁Dave	-12.0743
▁solsken	-12.0743
▁vajer	-12.0743
▁programvara	-12.0743
▁stridsspets	-12.0743
▁addera	-12.0743
▁återvinningsbar	-12.0743
▁tänj	-12.0743
▁sluka	-12.0743
▁Fried	-12.0744
passagerare	-12.0744
thew	-12.0744
▁web	-12.0744
▁bemöt	-12.0744
▁pedagogisk	-12.0744
▁Fortsätt	-12.0744
sprung	-12.0745
▁meditation	-12.0745
förfader	-12.0745
▁bosätta	-12.0745
▁överträffa	-12.0745
▁Testa	-12.0745
▁varaktig	-12.0746
▁könssjukdom	-12.0747
▁skotsk	-12.0747
▁utmatta	-12.0747
▁gudinn	-12.0747
▁krita	-12.0747
▁tveksam	-12.0748
▁änglar	-12.0749
▁korean	-12.075
▁demokratisera	-12.0754
▁avbildning	-12.0755
▁Karl	-12.0756
ongress	-12.0758
▁uppföd	-12.0761
▁lyckosam	-12.0761
▁slösaktig	-12.0761
▁ändlös	-12.0763
▁omtänksam	-12.0769
polymer	-12.0774
kadav	-12.0775
plätt	-12.078
▁bilförar	-12.0783
▁satsning	-12.0786
certifi	-12.079
▁lottad	-12.0799
koldioxidutsläpp	-12.0804
båge	-12.081
▁multipla	-12.0829
nidad	-12.0842
centrerad	-12.0843
▁Bioni	-12.0851
▁frigjor	-12.0933
dagsliv	-12.1
molekyl	-12.1004
bestämmande	-12.1019
försäljar	-12.105
energianvändning	-12.1118
▁landyta	-12.1345
ydamerika	-12.1393
timmars	-12.141
▁sexarbet	-12.1411
▁förhöj	-12.1466
▁relevan	-12.1622
▁ohäls	-12.1631
▁klöv	-12.1736
barriärer	-12.1783
minuters	-12.18
vandrande	-12.1823
▁hjärnhalva	-12.183
▁städ	-12.1873
lägenhet	-12.1911
▁metabol	-12.1917
infektion	-12.1926
algoritm	-12.1928
känsliga	-12.1928
psykolog	-12.1929
journalist	-12.193
villkor	-12.193
hallucinationer	-12.193
undervisning	-12.1931
egenskap	-12.1931
karaktär	-12.1931
himlen	-12.1932
programmera	-12.1932
dörrar	-12.1932
▁främ	-12.1932
ögonblick	-12.1932
människa	-12.1933
idén	-12.1933
koloni	-12.1966
▁medelinkoms	-12.1969
▁geometri	-12.2019
▁emell	-12.2019
dimensione	-12.205
▁smittsam	-12.2092
▁beläg	-12.2119
▁afro	-12.2141
▁månfärd	-12.2152
skattning	-12.2162
▁journal	-12.2165
▁lymf	-12.2168
rekrytera	-12.2169
sarkitekt	-12.217
▁radioaktiv	-12.217
▁sköld	-12.2171
frekvent	-12.2171
förhållningssätt	-12.2171
hemläx	-12.2171
hydrofobisk	-12.2171
iaoping	-12.2171
ifikation	-12.2171
imbabwe	-12.2171
kräftor	-12.2171
schemat	-12.2171
självmordstankar	-12.2171
ykorrhiza	-12.2171
▁Amsterdam	-12.2171
▁Ashley	-12.2171
▁Babbage	-12.2171
▁Bakterier	-12.2171
▁Bitcoin	-12.2171
▁CIA	-12.2171
▁Dylan	-12.2171
▁Europeisk	-12.2171
▁Gandhi	-12.2171
▁Gapminder	-12.2171
▁Guatemala	-12.2171
▁Jacqu	-12.2171
▁Jazeera	-12.2171
▁Kultur	-12.2171
▁Kuwait	-12.2171
▁Kyoto	-12.2171
▁Kyroscylinder	-12.2171
▁Malteserfalk	-12.2171
▁Matematik	-12.2171
▁Microsoft	-12.2171
▁Missouri	-12.2171
▁Mozart	-12.2171
▁Möjligheter	-12.2171
▁Nordpolen	-12.2171
▁Orleans	-12.2171
▁Psykologe	-12.2171
▁Shoots	-12.2171
▁Starbucks	-12.2171
▁Teheran	-12.2171
▁Tokyo	-12.2171
▁UNICEF	-12.2171
▁Windows	-12.2171
▁arrogan	-12.2171
▁avskräcka	-12.2171
▁beatbox	-12.2171
▁befolka	-12.2171
▁befunnit	-12.2171
▁bemästra	-12.2171
▁broccoli	-12.2171
▁bukspottkörtel	-12.2171
▁cellulosa	-12.2171
▁darknet	-12.2171
▁doktrin	-12.2171
▁dubbelklicka	-12.2171
▁dvärg	-12.2171
▁epilepsi	-12.2171
▁exkludera	-12.2171
▁exoskelett	-12.2171
▁extracellulär	-12.2171
▁fastspänd	-12.2171
▁fischeri	-12.2171
▁flamingo	-12.2171
▁fotbollsmatch	-12.2171
▁frisörsalong	-12.2171
▁glukos	-12.2171
▁grammatik	-12.2171
▁gödningsmed	-12.2171
▁handtvätta	-12.2171
▁hashtagg	-12.2171
▁hjärnaktivitet	-12.2171
▁holländsk	-12.2171
▁högupplöst	-12.2171
▁improvisera	-12.2171
▁infrarö	-12.2171
▁instängd	-12.2171
▁jonglör	-12.2171
▁katalysator	-12.2171
▁kosmisk	-12.2171
▁kromosom	-12.2171
▁legendarisk	-12.2171
▁ljusstyrka	-12.2171
▁ljuvlig	-12.2171
▁ljö	-12.2171
▁magnesium	-12.2171
▁maximal	-12.2171
▁medellivslängd	-12.2171
▁metallbatterie	-12.2171
▁monument	-12.2171
▁nyfödd	-12.2171
▁observatör	-12.2171
▁oförbere	-12.2171
▁oförmög	-12.2171
▁ondskefull	-12.2171
▁originell	-12.2171
▁outforska	-12.2171
▁palestinsk	-12.2171
▁patriarkal	-12.2171
▁penetrera	-12.2171
▁penicillin	-12.2171
▁peppar	-12.2171
▁placering	-12.2171
▁preventivmedel	-12.2171
▁pärlörhänge	-12.2171
▁påskynda	-12.2171
▁raffinera	-12.2171
▁samarbets	-12.2171
▁sammanträffande	-12.2171
▁semestra	-12.2171
▁skräddarsy	-12.2171
▁spekulera	-12.2171
▁synagoga	-12.2171
▁tortyr	-12.2171
▁trivial	-12.2171
▁töjbar	-12.2171
▁utomordentlig	-12.2171
▁visselblåsar	-12.2171
▁välbekant	-12.2171
▁världshaven	-12.2171
▁årtusende	-12.2171
▁åtstramning	-12.2171
▁ögonbryn	-12.2171
▁översvämm	-12.2171
mmoniak	-12.2171
▁Familje	-12.2171
▁Jasmine	-12.2171
▁Kriget	-12.2171
▁Taylor	-12.2171
▁analfabet	-12.2171
▁autentisk	-12.2171
▁avsaltnings	-12.2171
▁flickvän	-12.2171
▁introduktion	-12.2171
▁juridisk	-12.2171
▁novell	-12.2171
▁näsduk	-12.2171
▁popularitet	-12.2171
▁solpanele	-12.2171
▁svimma	-12.2171
▁tält	-12.2171
aktiveringsmönst	-12.2171
wattimm	-12.2171
▁Hindu	-12.2171
▁Lycka	-12.2171
▁Olyckligt	-12.2171
▁Peking	-12.2171
▁Religion	-12.2171
▁Victor	-12.2171
▁bruttonational	-12.2171
▁djuphavs	-12.2171
▁fosfor	-12.2171
▁manifest	-12.2171
▁mottaglig	-12.2171
▁sippra	-12.2171
▁tråla	-12.2171
▁upptäcktsresan	-12.2171
▁överlägsen	-12.2171
siffrig	-12.2171
▁Arbeta	-12.2171
▁Edison	-12.2171
▁gräshopp	-12.2171
▁mödosam	-12.2171
▁snubbe	-12.2171
▁vaktmästare	-12.2171
europé	-12.2171
▁Läkar	-12.2171
▁spejar	-12.2171
▁Bridge	-12.2171
▁Oregon	-12.2171
▁grässtrå	-12.2171
▁likvärdig	-12.2171
hedonis	-12.2171
▁fjol	-12.2171
▁presskonferens	-12.2171
▁silkesmask	-12.2171
▁företeelse	-12.2171
▁ohållbar	-12.2171
▁stagn	-12.2171
▁1500-	-12.2171
▁Comic	-12.2171
▁delstaten	-12.2171
▁dränk	-12.2171
▁muttra	-12.2171
▁prostata	-12.2171
▁Framtiden	-12.2171
▁föryngra	-12.2171
▁kompakt	-12.2171
▁marschera	-12.2171
▁ryggsäck	-12.2171
▁selektiv	-12.2171
premiär	-12.2171
▁sociolog	-12.2171
▁tefat	-12.2171
▁Mänsklig	-12.2171
▁Doktor	-12.2171
▁varuhus	-12.2171
screen	-12.2171
▁härstamma	-12.2171
▁referensram	-12.2171
▁stökig	-12.2171
▁slumpartad	-12.2171
▁sög	-12.2171
▁mammor	-12.2171
sinrikta	-12.2171
▁influera	-12.2171
▁stryk	-12.2171
vandring	-12.2171
▁Carol	-12.2171
▁astma	-12.2171
▁bevaka	-12.2171
▁fortskrid	-12.2171
▁Colle	-12.2171
▁immunförsvar	-12.2171
▁ryssar	-12.2171
▁Regering	-12.2171
▁cyberrymde	-12.2171
▁Städ	-12.2171
▁arvsmassa	-12.2171
▁tidsram	-12.2171
▁istäcke	-12.2171
▁Rädd	-12.2171
▁beordra	-12.2171
▁flingor	-12.2172
döpte	-12.2172
▁kryss	-12.2172
▁slingra	-12.2173
▁kvarstå	-12.2173
▁späd	-12.2173
▁shoppa	-12.2173
prins	-12.2174
▁kudd	-12.2174
▁Klöv	-12.2174
▁rankad	-12.2175
examin	-12.2175
▁ventilerad	-12.2175
▁anteckningsb	-12.2175
▁behaglig	-12.2176
okrate	-12.2178
▁Brittisk	-12.218
▁neka	-12.218
Tech	-12.218
▁samtycke	-12.218
▁fresta	-12.2181
▁förpackning	-12.2182
lamb	-12.2186
▁regnbåg	-12.2191
▁randig	-12.2193
brud	-12.2199
▁komponera	-12.2211
utsedd	-12.2217
▁frontlinje	-12.2249
byrå	-12.226
känslighet	-12.2291
▁solbrän	-12.2402
▁anlita	-12.2408
▁tredubbl	-12.2481
ngsmässig	-12.2499
ergiförbrukning	-12.2514
nspirera	-12.2654
▁Operat	-12.2804
topparna	-12.2967
direktiv	-12.3154
metaforer	-12.3266
emperaturen	-12.3394
▁chimpans	-12.346
▁lillasyst	-12.3488
hjärta	-12.3596
beräkningar	-12.3597
muskel	-12.3597
förklaring	-12.3597
illusion	-12.3597
grödor	-12.3597
plattform	-12.3598
katastrof	-12.3598
reklam	-12.3598
kvalitet	-12.3598
standard	-12.3598
händelse	-12.3599
sprida	-12.3599
robot	-12.3599
▁historie	-12.3624
ansvarig	-12.3643
▁kemikalie	-12.3715
klassificer	-12.3812
rubrik	-12.3814
▁fundament	-12.3815
bekämpning	-12.3826
ermikulit	-12.3837
millimeter	-12.3837
▁Brexit	-12.3837
▁Columbia	-12.3837
▁IPCC	-12.3837
▁Uppmärksam	-12.3837
▁ambulans	-12.3837
▁dödssiffr	-12.3837
▁hederskod	-12.3837
▁kalkyl	-12.3837
▁kubik	-12.3837
▁matsmältnings	-12.3837
▁mexikan	-12.3837
▁rekrytering	-12.3837
▁tumbrottning	-12.3837
DER	-12.3837
Shbab	-12.3837
artefakter	-12.3837
försämring	-12.3837
initiativ	-12.3837
nsvarsskyldighet	-12.3837
nsylvani	-12.3837
orientering	-12.3837
temporal	-12.3837
trakasserier	-12.3837
vattensfarkoste	-12.3837
vätskor	-12.3837
▁Arbete	-12.3837
▁Brother	-12.3837
▁CERN	-12.3837
▁Carrillo	-12.3837
▁Chagall	-12.3837
▁Chandler	-12.3837
▁Ecosia	-12.3837
▁Ferguson	-12.3837
▁Fransisco	-12.3837
▁Ibrahim	-12.3837
▁Kambodja	-12.3837
▁Korruption	-12.3837
▁McDonald	-12.3837
▁Montreal	-12.3837
▁NSA	-12.3837
▁Netflix	-12.3837
▁SKRATT	-12.3837
▁Sardinie	-12.3837
▁Sjukdom	-12.3837
▁Snowden	-12.3837
▁Sputnik	-12.3837
▁Strategi	-12.3837
▁Studenter	-12.3837
▁Swaptree	-12.3837
▁Tvärt	-12.3837
▁Volvo	-12.3837
▁ackumulera	-12.3837
▁administrativ	-12.3837
▁ansiktskirurgi	-12.3837
▁anspråkslös	-12.3837
▁avdunsta	-12.3837
▁avskogning	-12.3837
▁balkonge	-12.3837
▁beboelig	-12.3837
▁bevattna	-12.3837
▁buddhist	-12.3837
▁byteshandel	-12.3837
▁delikatess	-12.3837
▁dirigent	-12.3837
▁distinkt	-12.3837
▁encyklopedi	-12.3837
▁evidens	-12.3837
▁exponera	-12.3837
▁exponering	-12.3837
▁filantrop	-12.3837
▁fräsch	-12.3837
▁föråldra	-12.3837
▁glialceller	-12.3837
▁gurkburk	-12.3837
▁habitat	-12.3837
▁holografisk	-12.3837
▁hämnd	-12.3837
▁illustration	-12.3837
▁implantera	-12.3837
▁indirekt	-12.3837
▁inkräktar	-12.3837
▁isotop	-12.3837
▁israelisk	-12.3837
▁jungfru	-12.3837
▁katedral	-12.3837
▁klibbig	-12.3837
▁kognition	-12.3837
▁kokosnöt	-12.3837
▁kolossal	-12.3837
▁komprimera	-12.3837
▁konfrontation	-12.3837
▁konservera	-12.3837
▁kosttillskott	-12.3837
▁kvantitativ	-12.3837
▁leksaker	-12.3837
▁ljusintensitet	-12.3837
▁löpt	-12.3837
▁memorera	-12.3837
▁multispektral	-12.3837
▁mördarrobot	-12.3837
▁nederbörd	-12.3837
▁nymodighet	-12.3837
▁oavbrute	-12.3837
▁objektifiering	-12.3837
▁omloppsbanor	-12.3837
▁otillräcklig	-12.3837
▁otydlig	-12.3837
▁oväsen	-12.3837
▁palestinier	-12.3837
▁paranormal	-12.3837
▁pessimis	-12.3837
▁placebo	-12.3837
▁pollinera	-12.3837
▁privilig	-12.3837
▁provocera	-12.3837
▁pungdjävlar	-12.3837
▁racerförar	-12.3837
!	-13.6748
—	-13.6749
:	-13.675
)	-13.675
?	-13.6751
&	-13.6753
,	-13.6754
