<unk>	0
<s>	0
</s>	0
▁்	-1.14647
▁.	-4.08363
▁,	-4.21402
ங	-4.33233
▁த	-4.34549
▁	-4.36541
▁கள	-4.38142
க	-4.39154
ந	-4.44201
▁கு	-4.61225
த	-4.62139
▁என	-4.6301
▁க	-4.78629
ப	-4.8585
▁து	-5.04331
▁ஒரு	-5.27747
▁இ	-5.29606
;	-5.34814
▁&	-5.37273
▁று	-5.41781
ம	-5.45472
u	-5.45973
ot	-5.46597
q	-5.46881
ும	-5.46968
▁நான	-5.53788
▁அவர	-5.61224
▁ப	-5.6222
▁கும	-5.62996
ற	-5.67513
ன	-5.68136
▁செய	-5.73081
▁டு	-5.75557
ண	-5.79287
▁ச	-5.82233
.	-5.88042
▁ற	-5.93427
▁பட	-5.93524
▁ட	-5.9363
▁ந	-5.94311
▁வ	-5.97
▁களை	-5.998
▁கொண	-6.03081
▁எ	-6.05495
ில	-6.05557
▁லை	-6.07146
▁பு	-6.07288
▁நம	-6.08165
▁பார	-6.08862
ல	-6.10382
ர	-6.10657
▁களுக	-6.15064
▁டும	-6.15313
▁ள	-6.18634
▁தை	-6.19754
▁உ	-6.20604
▁இது	-6.21625
▁உள	-6.21687
▁இருந	-6.22783
▁ஆனால	-6.22931
▁?	-6.23019
து	-6.23453
▁தில	-6.24599
▁மற	-6.25935
▁நாம	-6.27165
▁இரு	-6.2861
▁றும	-6.34088
▁அது	-6.34454
▁றி	-6.36237
▁தான	-6.39314
▁தது	-6.40866
▁நீ	-6.40956
▁சி	-6.41445
▁அந	-6.41675
ள	-6.46639
▁ல	-6.50316
▁கண	-6.52269
▁ம	-6.54389
▁அ	-6.58649
▁அல	-6.6391
(	-6.65618
ட	-6.65796
▁படுத	-6.65936
▁பற	-6.65973
▁)	-6.65994
ுக	-6.66428
ின	-6.68247
▁றால	-6.69614
▁பது	-6.71985
▁ன	-6.72668
ச	-6.73201
▁போது	-6.73566
▁சொ	-6.74508
▁மக	-6.75064
ை	-6.75398
▁இல	-6.75542
ு	-6.75923
ார	-6.76347
▁வாழ	-6.78723
ொள	-6.79341
▁கப	-6.81248
▁திற	-6.82978
▁முன	-6.83424
▁தி	-6.83761
▁ளது	-6.83792
▁கிறது	-6.84046
▁களில	-6.86508
▁படி	-6.87548
▁இப	-6.88527
▁விட	-6.88656
▁இன	-6.90343
ஒன	-6.90632
▁பெ	-6.9204
▁நா	-6.92412
▁களின	-6.94565
ேண	-6.94592
▁துக	-6.94661
▁:	-6.94716
▁நட	-6.95476
▁பல	-6.96273
வில	-6.97092
▁சில	-6.97095
▁தின	-6.98544
▁கட	-6.98617
▁கின	-6.99383
▁மாற	-7.00235
▁வே	-7.013
▁அதை	-7.02251
▁மட	-7.02355
▁குழ	-7.02479
▁கூட	-7.02725
▁உண	-7.0521
▁பத	-7.06521
▁எல	-7.0698
ாக	-7.07019
▁பொழுது	-7.07373
▁ஆண	-7.08251
▁பின	-7.09248
▁தால	-7.09975
ையும	-7.10223
▁ஏற	-7.10666
▁நன	-7.10897
▁தேன	-7.1495
▁செல	-7.16673
ருந	-7.16775
தற	-7.17238
▁லது	-7.18267
▁காக	-7.18744
▁கை	-7.20549
▁கி	-7.22677
▁இதை	-7.23688
▁டி	-7.24033
▁கொ	-7.25872
ே	-7.26276
▁இரண	-7.27734
▁போன	-7.27737
▁மிக	-7.28747
▁எண	-7.29143
▁மேல	-7.29427
▁கான	-7.2945
▁கால	-7.29765
▁கற	-7.29954
▁தன	-7.30355
▁மிகவு	-7.30689
▁சென	-7.31493
ுள	-7.32133
▁முடியும	-7.32588
▁கிறேன	-7.32854
▁டது	-7.33066
▁ய	-7.33312
▁வளர	-7.34863
▁காண	-7.37117
▁அப	-7.39298
▁பதை	-7.3957
▁ஸ	-7.40826
▁தார	-7.41232
▁எதிர	-7.41798
▁திருக	-7.42094
▁ஆக	-7.42527
▁போல	-7.43319
▁அம	-7.43641
▁கல	-7.44197
▁உலக	-7.45393
▁அத	-7.45446
▁ஏனென	-7.45996
ஸ	-7.46461
வது	-7.46551
▁கிற	-7.47482
▁கலாம	-7.47816
▁வு	-7.48013
▁முதல	-7.49318
▁காட	-7.49371
ான	-7.50043
▁பெரிய	-7.5038
▁நாட	-7.50472
▁சம	-7.5054
▁பெற	-7.50748
ா	-7.50766
▁டிருக	-7.51148
▁கிறா	-7.51292
▁செயல	-7.51611
▁பள	-7.52002
▁மூ	-7.52032
▁பிக	-7.5208
▁கேட	-7.5351
▁பயன	-7.53916
▁வாய	-7.54397
லாம	-7.54517
▁முக	-7.54993
▁கே	-7.55265
▁மை	-7.55722
ருக	-7.5628
▁-	-7.56394
▁ஆர	-7.56529
▁னை	-7.57295
▁எடுத	-7.5763
▁கிறோம	-7.58967
▁உணர	-7.58996
▁உருவாக	-7.60446
ோ	-7.61563
▁இருப	-7.61633
▁கம	-7.63591
▁னவென	-7.64288
▁விரு	-7.65166
▁பாக	-7.65608
▁அவள	-7.65762
▁சிக	-7.65873
▁சிற	-7.6596
▁வி	-7.66694
வும	-7.66981
▁தப	-7.67035
▁நல	-7.69384
▁லா	-7.69737
▁நோய	-7.6994
▁ஐ	-7.70056
▁ஆ	-7.70267
▁தொடர	-7.70646
▁கிடை	-7.70896
▁பிரச	-7.71292
வே	-7.71294
ால	-7.72112
ொல	-7.72254
▁தொழில	-7.72473
▁புத	-7.72543
▁தும	-7.72965
ேன	-7.72989
▁களிடம	-7.74417
▁துள	-7.74423
▁முறை	-7.74488
▁ஆப	-7.74647
▁திட	-7.77473
▁வைத	-7.78349
▁ஒவ	-7.79677
▁நேர	-7.79694
▁புதிய	-7.79799
▁றன	-7.79954
▁சிரி	-7.80323
▁தக	-7.80654
▁சக	-7.80802
▁தீர	-7.81534
ைப	-7.81714
▁றனர	-7.81961
▁தைகள	-7.81982
ap	-7.8298
▁வருட	-7.83513
▁கிய	-7.83648
os	-7.83837
ஞ	-7.84164
களுக	-7.84241
▁அவ	-7.84275
▁டத	-7.84333
▁டேன	-7.84599
ெரிக	-7.84791
▁றை	-7.85126
▁டல	-7.85211
ுட	-7.85313
▁இய	-7.85448
▁தோம	-7.85829
▁னும	-7.85848
▁வா	-7.85972
▁லாம	-7.86117
▁வேலை	-7.86165
▁களது	-7.86254
▁சார	-7.86406
▁பை	-7.86455
—	-7.86507
ய	-7.87337
▁படும	-7.88192
ிக	-7.8836
▁அதன	-7.88424
▁பொருள	-7.88485
▁டின	-7.88679
▁தொட	-7.89001
▁ளன	-7.89472
தான	-7.89862
ீர	-7.90308
▁பர	-7.91469
▁கொடு	-7.91844
▁திய	-7.92424
்	-7.93125
▁கா	-7.93811
▁நிகழ	-7.9396
▁கத	-7.93978
▁பில	-7.94226
▁களால	-7.95081
▁பிறகு	-7.95457
▁எழுத	-7.96619
▁குள	-7.96712
▁வார	-7.97308
▁றிய	-7.97376
▁கர	-7.97638
▁நினைக	-7.97663
▁பாதி	-7.97692
▁வொரு	-7.982
▁பெரும	-7.9827
▁திர	-7.9834
▁எவ	-7.98623
▁வது	-7.98803
▁முய	-7.99192
வர	-7.99487
▁டிரு	-7.99842
ி	-8.00655
▁மே	-8.01767
▁சமூக	-8.01806
▁கேள	-8.02581
▁வேறு	-8.02581
▁திரு	-8.02729
▁குறிப	-8.02776
▁சத	-8.02829
களையும	-8.03697
▁புரி	-8.0377
▁டில	-8.03948
-	-8.04204
▁அதனால	-8.04378
▁இத	-8.04515
ிச	-8.04999
▁டம	-8.05685
▁தெரி	-8.05763
▁பாட	-8.05802
▁றேன	-8.06076
▁வரை	-8.06683
▁இவ	-8.06717
▁லியன	-8.07638
▁வளவு	-8.07699
▁நினை	-8.07725
▁டார	-8.0823
▁களாக	-8.08796
▁பொரு	-8.09024
▁அன	-8.09413
▁!	-8.09701
▁மூலம	-8.10053
▁சேர	-8.10598
▁ஏ	-8.10851
▁வர	-8.11103
▁உணவு	-8.11457
▁அனை	-8.1206
▁னுடைய	-8.12925
▁பண	-8.13123
▁றது	-8.1362
ுடன	-8.14112
▁முடி	-8.14527
யும	-8.14676
▁ஆராய	-8.14692
▁ஏன	-8.14835
▁கைத	-8.15061
▁அவை	-8.15765
▁பதில	-8.16032
ிப	-8.16167
▁தெரியும	-8.18352
▁தம	-8.18664
▁பி	-8.19618
▁படுகிறது	-8.1979
▁பால	-8.19843
▁டை	-8.19947
▁விஷய	-8.20898
▁றாக	-8.21329
▁சு	-8.21635
ென	-8.21861
▁தேவை	-8.22335
▁டுமே	-8.22613
▁எனவே	-8.23193
▁முடியாது	-8.23627
▁சுற	-8.23848
▁ஆசிரியர	-8.24066
▁நிலை	-8.24102
▁போக	-8.24971
▁புகள	-8.25044
▁கில	-8.26028
▁அமைப	-8.26081
▁களும	-8.27265
▁பேச	-8.27381
▁மையில	-8.27538
▁பித	-8.27647
வ	-8.27718
▁உயர	-8.27916
▁றுக	-8.2824
▁மேலு	-8.28807
▁பொலி	-8.28905
▁தனர	-8.2896
▁பிடி	-8.28971
▁வாறு	-8.29068
▁பாதுகா	-8.29721
▁நாள	-8.2987
▁சரி	-8.30078
▁தட	-8.30501
▁கருத	-8.31022
▁னால	-8.31222
கள	-8.31281
▁அடிப	-8.31575
ோடு	-8.32341
▁தகவல	-8.32985
▁பிட	-8.33183
▁அழை	-8.33656
▁டுபிடி	-8.3369
வந	-8.34238
▁வில	-8.34516
▁லாமல	-8.34538
▁இற	-8.35246
யில	-8.35519
▁ஒருவர	-8.35627
▁நகர	-8.35698
ெல	-8.36132
▁வழ	-8.36205
▁கையில	-8.36403
▁அதிக	-8.36695
▁டிய	-8.36822
▁யார	-8.3713
▁புகிறேன	-8.37342
ிற	-8.38225
▁தாள	-8.38229
ிருக	-8.38387
▁உற	-8.38467
▁காரணம	-8.38824
▁ரிக	-8.39404
▁திரும	-8.39435
▁தவர	-8.39465
▁றம	-8.39617
▁ஒ	-8.397
டுத	-8.39889
கின	-8.40292
▁கார	-8.4033
மாக	-8.41755
▁இதில	-8.42436
▁அதா	-8.42766
▁அதில	-8.42788
▁வரும	-8.42788
களை	-8.42883
▁ளி	-8.43229
▁வை	-8.43233
▁பா	-8.44004
▁போம	-8.44031
▁கதை	-8.44074
▁குறி	-8.44146
▁விள	-8.44256
▁பிற	-8.44338
டும	-8.44583
▁வெ	-8.44724
▁சிறிய	-8.44744
▁நிறைய	-8.44851
▁பேர	-8.44865
ாய	-8.4494
▁உயிர	-8.45443
▁உலகம	-8.46033
▁நோ	-8.46074
▁வழி	-8.46332
ோம	-8.46461
▁கிராம	-8.46544
▁பவர	-8.46594
▁யும	-8.47226
▁தற	-8.47428
▁தா	-8.47867
▁வயது	-8.4797
▁பக	-8.48759
கிழ	-8.49137
▁ஒரே	-8.49484
▁பம	-8.49609
▁அனைவரும	-8.49769
▁இதனை	-8.50134
▁லாத	-8.5033
▁மதி	-8.50435
▁புற	-8.5054
▁கூற	-8.51514
▁அளி	-8.5181
▁துவ	-8.51921
▁வித	-8.52074
▁வெற	-8.52208
▁தாக	-8.52561
▁கவனி	-8.53005
▁கூடிய	-8.53141
▁முத	-8.53445
▁புள	-8.53597
▁அர	-8.53785
▁றல	-8.5387
தையும	-8.53987
▁மையான	-8.5399
டுக	-8.54103
▁சை	-8.54368
▁வயதானவர	-8.54662
▁முற	-8.55225
▁டோம	-8.55527
▁றவர	-8.55529
▁டால	-8.55687
▁தர	-8.55688
▁திக	-8.5615
▁பெயர	-8.56258
டங	-8.56891
▁துடன	-8.57028
▁பான	-8.571
▁டன	-8.5717
▁கையை	-8.57338
▁டா	-8.57882
▁னர	-8.58171
▁தயாரி	-8.59611
▁டர	-8.59978
▁அளவு	-8.60013
▁மனிதர	-8.60114
▁மாணவர	-8.60174
ிலிரு	-8.6031
▁மருத	-8.60345
▁குறைந	-8.60785
▁சர	-8.61264
▁நாடுகள	-8.61462
▁அதனை	-8.6161
▁பொறு	-8.62027
▁செலுத	-8.6212
▁உடல	-8.62368
▁அதிகமாக	-8.62435
▁புக	-8.62507
▁மிகப	-8.62655
▁நாடுகளில	-8.63174
▁விர	-8.63277
▁விஷயம	-8.63298
▁இவர	-8.63359
ைக	-8.6336
▁பொருளாதார	-8.63381
▁ளே	-8.63402
வைக	-8.63954
யை	-8.64017
▁நிர	-8.64123
▁அற	-8.6429
▁இணை	-8.64319
▁அடு	-8.64536
▁கணித	-8.64537
▁மனித	-8.64791
▁அறி	-8.64979
னால	-8.65714
ாகவும	-8.65715
▁மூளை	-8.65743
▁நூற	-8.65766
▁ஜ	-8.65826
▁காத	-8.6615
▁டாலர	-8.66426
▁இடத	-8.66738
▁அச	-8.66755
ிருப	-8.67234
▁மன	-8.67296
▁டிற	-8.673
▁டுக	-8.67347
▁தே	-8.67459
▁குச	-8.67481
▁வீட	-8.67871
▁எட	-8.6802
ேர	-8.68121
▁களுடன	-8.68217
▁னேற	-8.68834
▁றத	-8.68855
▁இவை	-8.68902
▁அளவில	-8.69002
▁ளார	-8.69324
▁தல	-8.69704
▁இசை	-8.69814
▁♪	-8.69827
▁டுகள	-8.69891
▁பகிர	-8.70058
▁உன	-8.70156
▁ஆற	-8.71493
▁போட	-8.71573
ையே	-8.72013
ாண	-8.72201
▁துவிட	-8.725
▁போ	-8.72868
▁சற	-8.73024
▁பும	-8.73548
▁படை	-8.73589
▁நேரம	-8.73718
▁காப	-8.73736
▁நிலையில	-8.73927
▁வெளிப	-8.73948
▁சியை	-8.7404
▁இயல	-8.74062
▁உட	-8.74157
▁படித	-8.74304
▁காவில	-8.74365
▁அவன	-8.74582
▁அதே	-8.74631
▁றோர	-8.74877
வற	-8.74967
களில	-8.75081
▁தனை	-8.75346
▁டிக	-8.76108
▁லும	-8.76219
▁ஆம	-8.77035
▁ளோம	-8.77106
வை	-8.77164
▁ண	-8.77452
▁அடை	-8.77992
ித	-8.7811
▁தோ	-8.78193
▁உதவி	-8.78478
▁பணம	-8.78557
▁இழ	-8.78618
▁விற	-8.79113
▁மாட	-8.79375
▁மர	-8.7965
ிடம	-8.79654
▁உபயோகி	-8.79735
▁20	-8.79743
களின	-8.79798
▁பாற	-8.79816
▁மா	-8.79826
னர	-8.80075
▁குறிக	-8.80178
▁சின	-8.80308
▁றில	-8.80391
▁சரியான	-8.81314
கிறது	-8.81378
▁டங	-8.81609
▁றா	-8.81687
லும	-8.81792
▁பொது	-8.81955
▁தேவைப	-8.82782
ாட	-8.82981
கிறேன	-8.83076
▁10	-8.83165
▁அவைகள	-8.8369
▁இர	-8.83914
▁ஆய	-8.83933
▁போர	-8.84002
▁திலிரு	-8.84053
▁பணி	-8.8417
▁பனை	-8.84476
▁உலகின	-8.84877
▁இட	-8.85062
▁கிட	-8.85197
▁காலம	-8.85345
▁கூடாது	-8.85645
▁களே	-8.85715
▁பிள	-8.8595
▁கோ	-8.86054
▁நிறுவன	-8.86363
▁ளும	-8.86434
மின	-8.86823
▁நிற	-8.86874
▁மொழி	-8.87296
மில	-8.87502
▁வரு	-8.87915
▁தித	-8.88216
▁அட	-8.88429
▁போய	-8.88531
▁னிடம	-8.8859
▁விலை	-8.88671
▁மையாக	-8.88761
▁சமய	-8.89029
▁சட	-8.89139
▁குற	-8.89614
▁மொ	-8.89671
▁ளிக	-8.89953
▁காரண	-8.90006
▁–	-8.90345
▁மீ	-8.90403
▁உலகில	-8.90661
▁சுத	-8.90759
▁தவிர	-8.90862
▁தத	-8.90863
▁டே	-8.91231
▁வடிவமை	-8.91294
▁ஒப	-8.91816
▁அதிகரி	-8.9199
▁ஓ	-8.92177
▁எத	-8.92255
▁புகளை	-8.92378
ுகிறேன	-8.92387
▁அதிகம	-8.92463
▁முழுவதும	-8.93206
▁பழக	-8.93292
டுப	-8.93562
▁நிறு	-8.94054
▁வத	-8.94089
▁மணி	-8.94363
▁பெட	-8.94433
▁போதும	-8.9558
▁தெரியாது	-8.95695
▁டாக	-8.95831
▁சூழல	-8.95976
▁மீது	-8.96023
ிலேயே	-8.96194
ினார	-8.96197
▁திறன	-8.96526
▁விளையாட	-8.96986
▁பீர	-8.973
▁குப	-8.97402
வின	-8.9814
▁ஏழ	-8.98488
▁பாடு	-8.98692
▁தனி	-8.98783
▁களா	-8.98893
னேன	-8.98897
▁நிலையை	-8.98909
▁வருடம	-8.99019
ொன	-8.99563
▁டவர	-8.9983
▁மனிதன	-8.99918
யின	-8.99996
▁அனுப	-9.00652
ிய	-9.00742
▁விய	-9.00833
ோன	-9.00917
ிலும	-9.00946
▁இதன	-9.00975
▁”	-9.01017
ுணர	-9.01235
▁னொரு	-9.01237
மான	-9.01352
மும	-9.01574
▁சல	-9.01635
▁றின	-9.02141
ினால	-9.02526
திப	-9.02975
ிஸ	-9.03587
▁பதாக	-9.03678
▁டுகளில	-9.03841
▁ஓட	-9.0388
▁வரிவடிவ	-9.03961
▁3	-9.04057
▁வடிவ	-9.04175
▁வகு	-9.04215
▁ளவர	-9.04301
▁பிய	-9.04374
▁டுப	-9.04657
▁ஒட	-9.04688
ிரிப	-9.048
▁குத	-9.04847
▁பகுதி	-9.05111
ையில	-9.05111
▁நில	-9.05284
▁ஓர	-9.05437
மே	-9.06175
▁சவால	-9.0618
▁பேன	-9.0621
▁தைக	-9.06868
▁வரலாற	-9.07092
யமாக	-9.07219
▁ஒலி	-9.07221
▁னார	-9.0744
▁இதோ	-9.0763
▁டுமென	-9.07744
▁சிறு	-9.08484
தோ	-9.08537
▁றிலும	-9.09226
▁துப	-9.09334
▁டாம	-9.0937
▁துகள	-9.09396
▁சாத	-9.09494
யிற	-9.09645
▁வதை	-9.09793
▁’	-9.09842
▁காவல	-9.09991
▁ஆட	-9.10407
▁ஆறு	-9.10513
▁கியமான	-9.10631
▁முறையை	-9.10655
▁மு	-9.10746
▁இடம	-9.11005
▁தகம	-9.11266
கொண	-9.11363
▁தூ	-9.11873
▁காய	-9.12059
▁சிறுவ	-9.12076
▁குளிர	-9.12787
▁முடிய	-9.12821
▁`	-9.13099
▁யப	-9.13118
▁மால	-9.13328
▁நபர	-9.13345
▁கியம	-9.13463
▁மாத	-9.13489
வோ	-9.13526
▁அக	-9.13651
ிரு	-9.13706
▁முட	-9.1415
▁மாதிரி	-9.14233
▁றே	-9.14472
▁தள	-9.14673
கத	-9.14886
▁வெளி	-9.15012
▁பனி	-9.15025
▁டாள	-9.15081
▁மண	-9.15175
▁வாக	-9.15175
▁சிய	-9.15378
▁கவும	-9.15406
▁றியது	-9.15531
▁துறை	-9.15775
▁காது	-9.15919
▁ணிக	-9.16424
▁ஊக	-9.16661
ியல	-9.16711
இல	-9.16804
▁முறையாக	-9.17092
▁4	-9.17439
▁2	-9.17504
ானது	-9.17692
ழுத	-9.18025
யுள	-9.1815
ூன	-9.18186
▁யாரும	-9.18316
▁பதால	-9.18675
▁நாடு	-9.18797
▁குறைய	-9.18901
▁களுடைய	-9.19514
▁TED	-9.19727
▁றைய	-9.19822
▁அளவி	-9.19849
▁வருகிறது	-9.19854
▁இதனால	-9.19929
▁தொ	-9.19951
▁சிலர	-9.20209
▁றிக	-9.20329
னது	-9.20576
▁எது	-9.20843
▁தெரிய	-9.20882
▁தைகளை	-9.20918
▁அரசியல	-9.20979
▁முடியாத	-9.21373
▁தலைவர	-9.21397
▁பலர	-9.21469
▁வோம	-9.21673
▁இளம	-9.21803
▁விழுக	-9.21992
▁அமர	-9.2203
▁முறையில	-9.22339
▁இதய	-9.22641
▁தோற	-9.22688
▁அதிகமான	-9.22832
ரும	-9.22958
ொலி	-9.23236
▁இணையத	-9.23344
▁100	-9.23494
▁அரச	-9.23645
▁சரியாக	-9.23679
▁கவனம	-9.23723
▁காமல	-9.23725
▁வகையில	-9.23729
▁வெளியே	-9.23758
e	-9.23916
▁வீர	-9.24001
வி	-9.24006
ுந	-9.24109
▁வுகள	-9.24527
▁பாளர	-9.24716
▁மோசமான	-9.24847
▁பூர	-9.24968
▁வள	-9.25155
▁தியில	-9.25225
▁லி	-9.25578
▁தைப	-9.25584
▁சதவிகிதம	-9.25705
▁சூரிய	-9.25837
▁5	-9.26517
▁எதுவும	-9.26745
மைப	-9.26848
▁தலை	-9.26965
▁மி	-9.27284
▁பிரிக	-9.27409
ாம	-9.27612
▁றொரு	-9.27859
▁படம	-9.28084
ாகும	-9.2832
▁கமாக	-9.28449
▁மத	-9.28713
▁புகைப	-9.28893
▁தொகை	-9.29087
▁கொலை	-9.29119
▁தியாவில	-9.29307
ஐ	-9.29428
▁40	-9.29515
▁கூடியது	-9.29551
ிரும	-9.2957
▁கீழ	-9.29578
கையால	-9.29782
▁பே	-9.2988
▁மிடம	-9.29882
▁ளு	-9.30164
%	-9.30189
▁படையில	-9.3031
▁கீழே	-9.3038
லை	-9.30477
▁படுகி	-9.30485
▁கருவிகள	-9.30525
▁அவைகளை	-9.30809
ைச	-9.31306
▁தாய	-9.31682
▁றோம	-9.31686
▁நிறை	-9.31726
▁மையை	-9.31997
▁30	-9.32119
ேயே	-9.32156
▁சதவீத	-9.32171
ியை	-9.32308
▁துவத	-9.32334
▁விப	-9.32449
▁மார	-9.3265
▁பொழுதும	-9.32653
▁அறிவு	-9.32664
ைத	-9.32738
▁படிக	-9.32761
▁அதிர	-9.33332
▁ணை	-9.34054
▁பன	-9.3411
▁குறை	-9.3451
▁புதமான	-9.34773
ூட	-9.3487
ரை	-9.3506
▁தினால	-9.35265
யே	-9.3555
▁தெடு	-9.35807
▁காணி	-9.35896
▁லோரும	-9.35923
▁லையென	-9.36031
▁தியை	-9.36279
யலாம	-9.36401
▁யோசி	-9.36721
▁நானோ	-9.36722
▁தையை	-9.37273
ஷ	-9.37552
▁ஷ	-9.37664
▁சியில	-9.37667
$	-9.38035
▁கியது	-9.38439
▁திரம	-9.38495
▁வரைபட	-9.38934
▁பரப	-9.38973
▁தீவிரவாதிகள	-9.38987
▁புலன	-9.39018
▁அனுபவம	-9.39204
▁ஜன	-9.39458
▁வியை	-9.39592
▁மறை	-9.39619
வுடன	-9.39642
▁வேகமாக	-9.39712
▁லூரி	-9.39762
▁கென	-9.39941
படுத	-9.39972
▁ஆச	-9.40468
ாமல	-9.4052
▁பழ	-9.40543
▁ஆன	-9.40668
ுகிறோம	-9.4091
▁சைமர	-9.41069
▁பெருக	-9.41115
▁வல	-9.41263
ரோப	-9.41425
▁களோ	-9.4152
▁தேச	-9.41547
▁இணைய	-9.41623
▁கையின	-9.4171
தென	-9.41785
ுத	-9.41961
▁பதே	-9.42104
டி	-9.4211
ைகளின	-9.42231
▁அறிவ	-9.42411
▁சேமி	-9.42442
▁குறைவான	-9.42538
▁லவா	-9.42572
▁கதையை	-9.4265
▁கருவி	-9.4266
▁அரசு	-9.42699
விட	-9.43071
தாக	-9.43341
▁உடன	-9.43422
▁போராட	-9.43473
▁தோல	-9.43476
▁ஏழை	-9.43592
▁தமான	-9.43637
▁பிப	-9.43658
துதான	-9.43911
▁வைப	-9.4427
▁முடிவு	-9.44502
▁சன	-9.44774
▁தெளிவாக	-9.44801
00	-9.44919
▁வழியில	-9.44986
ுவார	-9.45017
▁செ	-9.45193
▁பிழை	-9.45509
▁தியது	-9.45563
ளிக	-9.45635
▁குகிறது	-9.46381
▁நவீன	-9.46856
▁ளிகள	-9.47209
தைப	-9.47256
▁அறிவியல	-9.47317
▁கிர	-9.47366
▁நின	-9.47522
▁பய	-9.47814
▁இக	-9.47914
ையை	-9.47965
டிக	-9.48495
முடைய	-9.48597
▁சிகள	-9.48715
▁லட	-9.48725
▁கியத	-9.48757
▁செலவு	-9.49099
ீண	-9.49798
▁ஹெ	-9.49863
▁உத	-9.50128
▁பாத	-9.5035
▁உதாரண	-9.50487
▁கோள	-9.50587
▁துவது	-9.50839
ரம	-9.50848
▁பணியா	-9.5093
தில	-9.51028
▁உடனே	-9.51046
டு	-9.51346
▁...	-9.51438
▁கோட	-9.51682
▁ஆகவே	-9.51689
▁தேவையான	-9.51926
குப	-9.52031
▁நானும	-9.52046
▁அனுபவத	-9.52152
▁ஒத	-9.52221
▁இதுவே	-9.52279
▁மாறுபட	-9.52541
▁பந	-9.52745
ீத	-9.52852
▁அனுபவி	-9.52993
▁டியிரு	-9.53281
ேற	-9.53432
▁புறம	-9.53452
▁லாவ	-9.53875
▁தெரியவ	-9.53887
▁ததை	-9.53995
▁சுரு	-9.54018
▁பாலான	-9.54098
வேன	-9.54332
ுவோம	-9.54335
▁ணின	-9.54399
▁நு	-9.54615
▁நிறுவனம	-9.54658
ாள	-9.54845
னைத	-9.54897
▁இலக	-9.54999
▁தையின	-9.55284
▁கூ	-9.55321
▁எழு	-9.55396
வார	-9.55456
▁சுமார	-9.55799
னை	-9.55919
▁லு	-9.55991
▁துவம	-9.5603
▁பகுதியில	-9.56287
▁அமை	-9.56292
டத	-9.56313
▁50	-9.56375
▁டப	-9.56875
▁சான	-9.57351
▁வதில	-9.57663
மானது	-9.57713
▁மைக	-9.57824
▁ததில	-9.57986
▁சனை	-9.58097
▁கரகோ	-9.58183
விஞ	-9.58284
▁போகிற	-9.58622
காட	-9.58832
▁டியது	-9.58939
கைய	-9.58953
▁8	-9.5932
▁விடும	-9.59474
▁புர	-9.59943
▁லப	-9.6012
ோர	-9.6032
வரும	-9.6063
▁பழைய	-9.60965
▁ஆரோக	-9.6103
▁மையிலேயே	-9.61063
தை	-9.61168
▁அவருடைய	-9.61214
▁மேலே	-9.6142
வீர	-9.61445
▁மெ	-9.61458
ஷம	-9.61727
மென	-9.61778
▁அருமையான	-9.6179
▁அடிக	-9.61975
▁சியாக	-9.62432
▁15	-9.62476
கிறோம	-9.62586
▁தலைமை	-9.63229
▁தியர	-9.6348
▁வம	-9.63555
▁பொ	-9.63558
▁அவரை	-9.63576
▁கதிர	-9.63601
▁மொழியில	-9.63635
▁அழி	-9.63654
▁எடு	-9.63733
▁வெறு	-9.63816
▁போகும	-9.63827
▁ததாக	-9.64137
▁வீடு	-9.64183
▁25	-9.64362
முடியும	-9.64425
▁தெரிவி	-9.64473
ுவது	-9.64487
ெ	-9.6457
,000	-9.64676
▁டிப	-9.64802
▁கைக	-9.64921
யு	-9.65561
▁சா	-9.65956
▁பாடம	-9.65979
▁வுகளை	-9.66076
▁சியாளர	-9.6628
தா	-9.66295
▁நியூ	-9.66316
▁மாதிரியா	-9.66456
▁பிர	-9.66534
ீட	-9.66856
▁படியாக	-9.67139
▁இயலாத	-9.67232
▁பதிவு	-9.67458
▁துணை	-9.67507
▁ணம	-9.67512
ாவின	-9.67597
வேளை	-9.67717
▁போனால	-9.67763
▁மிகச	-9.67881
கவே	-9.67892
கும	-9.67922
▁கணினி	-9.67981
▁வட	-9.68083
▁அருகில	-9.6813
▁70	-9.6818
▁அழகான	-9.68719
▁தீவிரவாத	-9.68748
▁அடையாளம	-9.69127
▁லிக	-9.69801
திலிரு	-9.70016
▁இதைப	-9.70788
▁குதல	-9.70923
▁துறையில	-9.71013
▁இரவு	-9.71299
▁ணீர	-9.71426
▁எம	-9.71481
▁சினை	-9.71784
▁கிடையாது	-9.71789
▁ஹே	-9.71964
▁தினர	-9.72003
▁குவத	-9.72079
▁கியமாக	-9.72551
▁மைய	-9.72582
▁கரி	-9.72843
▁உதவும	-9.72884
▁படுவது	-9.72886
A	-9.72955
▁டிகள	-9.73007
▁படாத	-9.73264
▁A	-9.73284
என	-9.73321
▁வடிவம	-9.73464
▁இயலும	-9.73845
▁இறுதிய	-9.73993
▁டீர	-9.74003
டை	-9.74053
▁நிமிட	-9.74189
▁விழி	-9.74428
▁குவது	-9.74591
▁விதமான	-9.74691
ானால	-9.75032
▁நிலைக	-9.75069
▁சும	-9.75132
▁நிலைய	-9.75177
▁தபோது	-9.75243
▁சைக	-9.75305
▁களினால	-9.7539
▁6	-9.75442
▁ருவா	-9.75764
சி	-9.75973
▁துகிறது	-9.76024
ிடமிரு	-9.76044
▁சுர	-9.76093
▁எச	-9.76184
▁வண	-9.7619
▁மரபா	-9.7631
▁சதவிகித	-9.76495
▁றவாளிகள	-9.76509
▁தியா	-9.76527
ரிந	-9.76825
3	-9.76876
தே	-9.77041
▁முதலீடு	-9.77068
டன	-9.77147
▁கொல	-9.77341
ாத	-9.7762
▁மரபணு	-9.77695
▁படுகிற	-9.77734
▁எளிய	-9.77754
▁வின	-9.77769
யாக	-9.77908
ோக	-9.78017
▁பதின	-9.7811
▁ஒளி	-9.7817
▁தருணம	-9.78189
▁அறிவி	-9.78219
தையே	-9.7825
▁அறையில	-9.78351
▁நகரம	-9.78471
▁சேவை	-9.78525
▁கைகளை	-9.78589
கால	-9.78704
▁டோ	-9.7889
▁கலை	-9.78911
▁200	-9.79037
ஆம	-9.79049
▁வெறும	-9.7951
▁கலைஞர	-9.79601
▁பொருளாதாரம	-9.79685
▁பொழுத	-9.79687
▁மாறாக	-9.79886
▁ஹ	-9.79968
▁E	-9.80053
▁சுகாதார	-9.80112
▁குறைவாக	-9.80191
றிந	-9.80253
▁விடய	-9.80336
▁சியான	-9.80707
▁அனுமதி	-9.80803
▁வியாபார	-9.80885
▁மனதில	-9.80965
ாஸ	-9.81043
▁குடி	-9.81224
▁தொழி	-9.81323
▁லோர	-9.8149
▁கச	-9.81516
▁மறு	-9.8171
தாகவும	-9.81834
ிந	-9.8188
▁துணி	-9.82148
▁வமான	-9.82454
▁மீட	-9.82482
▁நீர	-9.82559
ினை	-9.82838
▁வெட	-9.82942
▁பிரா	-9.82958
▁இளைஞ	-9.83073
னித	-9.83172
▁உபயோகப	-9.83245
▁பயம	-9.83315
ிடைக	-9.83356
தி	-9.8337
▁வேளை	-9.8372
▁புகிற	-9.83759
▁சமீப	-9.83891
▁டான	-9.83895
▁செயலிழ	-9.83947
▁குரல	-9.83964
வாய	-9.83977
கிப	-9.83985
▁ளூர	-9.84008
▁ஈடுபட	-9.84125
▁ஏதும	-9.84291
▁எழுதப	-9.8435
▁தொலைக	-9.84618
▁வீச	-9.84634
யற	-9.85012
▁ளிகளில	-9.85015
▁னுடன	-9.85155
▁கவே	-9.8517
ிர	-9.85625
ரிஸ	-9.85861
▁நி	-9.85921
▁பெரு	-9.85957
▁C	-9.85962
▁குழு	-9.86079
▁வடிவமைத	-9.86133
▁சித	-9.86191
▁அடித	-9.86284
▁கோர	-9.8641
▁காடு	-9.86424
▁வேட	-9.87019
▁சாலை	-9.87034
▁பமான	-9.87103
▁உழை	-9.87393
▁குறைபாட	-9.87741
▁குறைக	-9.87817
▁தொலை	-9.87961
o	-9.8816
▁வருமானம	-9.88406
▁பொருளை	-9.88756
▁சியின	-9.88764
▁ளைகள	-9.88812
▁கினால	-9.89044
▁டதாக	-9.89229
▁வேக	-9.89491
புணர	-9.89521
▁சூழ	-9.89555
▁சீர	-9.89726
சந	-9.89898
டிப	-9.89962
▁சாதாரண	-9.90424
▁பொதுவான	-9.90598
▁றுநோய	-9.90627
▁ஆடிஸம	-9.90632
▁தெரிகிறது	-9.90742
▁1	-9.90842
▁மொழிகள	-9.90975
▁ஜெ	-9.91004
▁பதிலாக	-9.9104
▁உபயோக	-9.91089
▁நினைவில	-9.91143
▁கவன	-9.91187
▁பெரிதாக	-9.91267
▁படியே	-9.91268
▁தவரை	-9.91399
▁ஜனநாயக	-9.91581
யிலிரு	-9.91766
▁அறிய	-9.91803
ாழ	-9.91937
▁மெல	-9.91986
▁டறி	-9.92281
er	-9.92329
▁மீன	-9.92429
▁ஈ	-9.92465
▁வரவே	-9.92612
▁உதவ	-9.92626
▁பயி	-9.92721
▁தண	-9.92804
▁முடித	-9.92812
▁இதே	-9.92812
▁வயதில	-9.93061
கு	-9.93081
▁சுவர	-9.9315
▁தரும	-9.9316
▁எய	-9.93162
களும	-9.9328
▁அமைத	-9.93311
▁மாறுதல	-9.93316
▁விரல	-9.93463
▁ணி	-9.93646
▁லோரு	-9.93896
▁சதவிகிதத	-9.93989
ாதிக	-9.94209
▁முழு	-9.94282
▁நெரு	-9.94361
▁முயல	-9.94468
▁ஹா	-9.94823
▁இவைகள	-9.94848
ளவில	-9.94931
▁பதுதான	-9.95003
தால	-9.95117
ாளர	-9.9524
▁தீ	-9.9546
▁சிறை	-9.95492
▁மரு	-9.95639
▁கூறின	-9.95799
▁வரிசை	-9.96205
ுவதில	-9.96275
▁காரிய	-9.96411
▁டவை	-9.96442
ஃப	-9.9653
▁சுக	-9.9661
▁காவை	-9.96617
▁மிகு	-9.97005
முறை	-9.97012
▁தருண	-9.9719
விற	-9.97229
▁தேவைய	-9.97518
▁மாறி	-9.97663
▁உலகளாவிய	-9.97704
▁ஃபிபோனசி	-9.97704
▁மாநில	-9.97706
▁;	-9.97973
▁கூறினார	-9.98009
▁சீன	-9.98066
▁காரர	-9.98099
▁வெகு	-9.98132
▁டுவர	-9.98198
▁விரைவ	-9.98198
▁படையாக	-9.98222
ரிக	-9.98398
▁துகிறா	-9.98608
▁பேசும	-9.98628
▁டுகளா	-9.98775
▁தைய	-9.9881
▁பேசிக	-9.9906
மக	-9.99107
▁யு	-9.99326
▁எழுந	-9.99359
▁காரணமாக	-9.99567
▁சுலபமாக	-9.99571
▁முப	-9.99619
▁சினைகள	-9.99724
▁உரிமை	-9.9977
▁அடைய	-9.99836
▁பாய	-9.99926
வா	-10.0006
லையில	-10.0023
▁வசதி	-10.0034
ுப	-10.0061
▁உரைய	-10.0062
▁டியில	-10.0062
▁ஆழ	-10.0087
▁றுகிறது	-10.013
▁பினை	-10.0161
▁தவறாக	-10.0172
▁அடி	-10.018
வு	-10.0195
திக	-10.0197
றைச	-10.02
வாதம	-10.0217
▁ரொ	-10.0223
▁னம	-10.0234
▁பாடுகள	-10.0237
▁அனைவர	-10.0244
▁கடைசி	-10.0245
▁வான	-10.0249
▁றவை	-10.025
ழ	-10.0256
ழித	-10.0286
கையான	-10.0303
▁ஏத	-10.0307
▁கோப	-10.0309
▁முடிவுகள	-10.032
▁கூர	-10.0322
▁குண	-10.0329
▁ஊழல	-10.0341
▁தேடி	-10.0343
▁குறைபாடு	-10.0369
▁கூறு	-10.0372
▁கோடி	-10.0377
▁தமாக	-10.038
▁உறுதி	-10.0393
▁வகை	-10.0403
ைந	-10.0409
▁உடை	-10.0431
யத	-10.0457
0	-10.046
▁கபட	-10.0461
ிட	-10.0474
▁முடியவ	-10.0476
2	-10.048
▁வலி	-10.0494
ியாக	-10.05
▁திறனை	-10.0507
▁டச	-10.0508
கையில	-10.051
ிழ	-10.0535
▁பராமரி	-10.0539
▁சேகரி	-10.0541
▁கூடுதல	-10.0547
▁நேரடியாக	-10.0547
▁கடுமையான	-10.0548
▁வக	-10.0555
▁60	-10.0564
▁போகிறோம	-10.0565
▁குக	-10.0569
▁அவளை	-10.0571
னவே	-10.0579
▁சனைகளை	-10.0591
▁ஆயிரக	-10.0602
▁திரை	-10.0607
ரு	-10.0608
ாற	-10.062
▁150	-10.0632
▁9	-10.0647
▁11	-10.0653
▁ஆனது	-10.0703
டக	-10.0721
களிலும	-10.0725
▁ஊட	-10.0736
▁மேன	-10.0742
▁பவன	-10.0742
வன	-10.0765
▁அதி	-10.0769
பட	-10.0778
கவும	-10.0783
▁அனுபவ	-10.0795
▁மிதி	-10.0799
▁சமூகம	-10.0801
எ	-10.0803
▁சதவீதம	-10.0812
▁குறைவு	-10.0814
றையும	-10.0821
▁கவ	-10.0824
▁பீடு	-10.0848
ுடைய	-10.0854
▁கடினமான	-10.0859
▁ரி	-10.087
▁திகளை	-10.0871
▁னேன	-10.0886
மா	-10.0897
▁பினால	-10.091
▁குறியீடுகள	-10.0917
▁ரூபாய	-10.0923
▁வன	-10.0953
▁விமான	-10.097
▁ஊசி	-10.0974
▁கடைசியா	-10.098
▁மூல	-10.1004
▁80	-10.1019
▁குகள	-10.1028
▁பரிமாற	-10.1043
▁ஆதார	-10.1045
▁கிழ	-10.1052
விப	-10.106
▁காரை	-10.106
▁..	-10.1061
ையாக	-10.1078
▁ஒழு	-10.1078
பார	-10.1086
மட	-10.1109
தாவத	-10.1165
▁விழு	-10.1167
ையின	-10.1171
ோட	-10.1173
▁விரைவாக	-10.119
விடும	-10.1191
பூர	-10.1192
▁சுட	-10.1194
▁12	-10.1211
▁யோசனை	-10.1229
▁தவற	-10.1233
ையாளர	-10.1264
வரை	-10.1266
▁பதும	-10.1283
s	-10.1284
▁துதல	-10.1305
▁ஈர	-10.1306
▁கடி	-10.131
▁அண	-10.1312
▁ஊர	-10.1319
▁அதிகப	-10.1324
▁D	-10.1327
செய	-10.1345
▁கியிரு	-10.1347
▁தரவுகள	-10.135
▁இணையதள	-10.1353
யுடன	-10.1362
▁ரோஸ	-10.1371
▁பழமையான	-10.1376
▁வுக	-10.1377
▁முழுமையான	-10.1377
▁கவலை	-10.1379
னுடைய	-10.139
▁யூ	-10.1396
▁செலவழி	-10.1414
தலால	-10.1415
i	-10.1415
▁தாத	-10.1417
மது	-10.142
▁ஆயிரம	-10.1429
▁வெளிநாட	-10.1429
▁சாரம	-10.1433
▁யா	-10.1434
▁அழகாக	-10.1434
▁வடக	-10.1436
று	-10.1436
▁வலைப	-10.1438
ியும	-10.1443
▁கடவுள	-10.1447
▁தியாசமான	-10.1447
ியில	-10.147
▁உயிரியல	-10.1471
▁கூறுகிற	-10.1474
▁மேலான	-10.1498
▁நாளில	-10.1504
▁நினைவு	-10.1504
▁பதன	-10.1508
திர	-10.1522
ெய	-10.1522
▁கிறதா	-10.1526
▁வயத	-10.1533
▁காலநிலை	-10.1536
▁னாள	-10.1544
▁கிக	-10.1551
▁பெறுவத	-10.1559
▁I	-10.1567
▁எதையும	-10.1581
▁காரியம	-10.1589
▁படுவதில	-10.161
▁எளிதாக	-10.1625
▁வரையற	-10.1626
▁போதைய	-10.1629
▁போதுமான	-10.1636
தைக	-10.1664
▁பரிசு	-10.1673
தீர	-10.1682
ரிப	-10.1687
▁படுக	-10.1716
▁முடிவ	-10.1717
▁டுச	-10.1728
வருக	-10.1736
▁சனைகள	-10.1742
▁பெர	-10.1763
ைகளில	-10.1767
▁எதை	-10.1767
▁தியம	-10.1783
இ	-10.1791
▁சரிய	-10.1796
▁டாவ	-10.181
வாறு	-10.1829
▁லாப	-10.1831
ஏ	-10.1862
▁அளவுக	-10.1873
▁7	-10.1896
வடிக	-10.1901
▁வருமான	-10.1906
ையால	-10.1917
▁உலகை	-10.1946
▁நாகரிக	-10.1946
றுத	-10.1948
▁இடைவெளி	-10.1948
▁உரை	-10.1957
ளம	-10.196
▁தயாராக	-10.1963
▁தொலைபேசி	-10.1967
▁உதாரணம	-10.1975
வதில	-10.1978
▁ஜனாதிபதி	-10.199
▁அடையாள	-10.2016
யா	-10.202
யம	-10.209
ழிப	-10.211
▁பூச	-10.2111
▁பலன	-10.2114
▁வேகம	-10.2137
▁ஒருவரை	-10.2143
▁மறுபடி	-10.2152
▁டறிய	-10.2182
யோ	-10.2186
▁சராசரி	-10.2198
டித	-10.2205
▁அணை	-10.2212
ொரு	-10.222
▁அறைக	-10.2235
▁சூரியன	-10.2262
▁சாரா	-10.2264
ிமண	-10.2264
▁குடிமக	-10.2277
▁புரிய	-10.2282
▁பொதுவாக	-10.2287
in	-10.2288
▁முழுமையாக	-10.2293
▁புது	-10.2297
▁குரியது	-10.23
▁சினையை	-10.2303
▁டதை	-10.2317
ளை	-10.2319
▁அவரிடம	-10.2324
▁ஞானிகள	-10.2339
▁விக	-10.2346
▁போகிறது	-10.2347
ணத	-10.2349
▁கரை	-10.2354
டைய	-10.2377
▁விதமாக	-10.2378
▁டுமானால	-10.2388
▁போலவே	-10.2394
▁விபச	-10.2394
▁அலுவலக	-10.2396
▁பருவ	-10.2422
▁பேசுவது	-10.2423
றி	-10.2441
▁டாவத	-10.2443
▁நுண	-10.2464
▁சீரமை	-10.2467
காண	-10.2467
ையான	-10.2473
▁கிணை	-10.2473
▁குறியீடு	-10.2479
▁அணி	-10.2479
▁கிகள	-10.2496
▁றுப	-10.2518
▁செவ	-10.2523
▁பரவலா	-10.2549
கர	-10.2553
▁படையான	-10.2569
▁பாதையில	-10.2571
▁கலைக	-10.2578
▁ஆதரவு	-10.259
▁லே	-10.2605
▁சமுதாய	-10.2614
▁கணிப	-10.262
கரவ	-10.2621
▁தவறு	-10.2642
000	-10.2652
▁னே	-10.2662
▁துச	-10.2668
போது	-10.2676
▁மனம	-10.2697
றித	-10.2698
▁காலை	-10.2715
ொண	-10.2717
▁வைய	-10.2717
சிக	-10.2717
▁வென	-10.274
▁தயாரா	-10.2747
▁கைப	-10.2751
ணக	-10.2756
▁வருவத	-10.2762
▁எதிரான	-10.2767
▁P	-10.279
▁தியாசம	-10.2791
▁தரமான	-10.2792
▁றுவத	-10.2809
▁ளியில	-10.2811
நிலை	-10.2817
ியே	-10.2826
களால	-10.283
▁தேவைகள	-10.2869
▁மையத	-10.2878
▁தரவு	-10.2933
▁பெரியவர	-10.2941
▁மனப	-10.2955
விக	-10.2962
▁கக	-10.298
விதமான	-10.298
▁பச	-10.2981
▁குறுக	-10.2982
▁விண	-10.2996
▁தனியாக	-10.3007
▁டினர	-10.3026
பாட	-10.3026
▁காணொளி	-10.3033
▁முடிகிறத	-10.3034
▁கனவு	-10.3036
▁வரி	-10.3057
▁தியாக	-10.3059
▁கையாள	-10.3068
▁கூறுவ	-10.3075
▁ஊசிய	-10.3096
▁பிரேசில	-10.3106
▁லிய	-10.3129
▁ஆயுத	-10.313
▁T	-10.3131
▁னோ	-10.3133
▁போதைப	-10.316
▁களி	-10.3164
▁திறமை	-10.3171
சரி	-10.3211
▁கொடுமை	-10.3221
▁கெட	-10.3223
▁போடு	-10.3226
▁தாம	-10.3227
▁அனைவரு	-10.3241
▁அள	-10.3246
ரி	-10.326
▁அதைத	-10.3268
▁கலாச	-10.3273
▁விநியோக	-10.3274
▁ஹை	-10.3276
▁ணெய	-10.3279
▁ஏமாற	-10.3279
▁படியென	-10.3287
▁ஈரா	-10.329
▁மலேரியா	-10.3294
▁படியான	-10.3295
▁உறுதியா	-10.3296
▁பேசி	-10.3301
▁வழியாக	-10.3311
▁மெதுவாக	-10.3313
▁காலையில	-10.3324
▁பகுதியை	-10.3324
▁கைகள	-10.3344
▁பிரி	-10.3345
ியவர	-10.3346
▁மொழியை	-10.3368
▁டீ	-10.337
▁முடிவை	-10.3377
▁கலான	-10.3384
▁போத	-10.3385
ாவிட	-10.3385
▁டுமா	-10.3385
▁வெடி	-10.3386
டையே	-10.3387
▁தைத	-10.3394
▁வழிகளில	-10.3401
t	-10.3408
▁டுவிட	-10.3411
▁றலை	-10.3411
▁அவசியம	-10.3412
▁உடைய	-10.3414
0,000	-10.3418
▁ஆயின	-10.3439
▁தோள	-10.3456
▁தெரியாத	-10.3469
▁400	-10.347
களோடு	-10.347
▁ளீர	-10.3483
a	-10.3484
▁துண	-10.3499
▁அவசர	-10.3502
▁உறுதிப	-10.3513
▁மரப	-10.3516
ுதல	-10.3522
▁பயணம	-10.3522
▁பதி	-10.3532
▁படியிரு	-10.356
▁சாக	-10.3562
▁உறை	-10.3573
▁மையம	-10.3581
▁காகித	-10.3591
8	-10.3592
ுகிறது	-10.3595
▁முதலாவத	-10.3602
▁கவர	-10.3617
▁விடை	-10.3624
▁பணியில	-10.3647
▁தவறா	-10.3662
▁ரா	-10.3662
▁டியை	-10.3665
▁றாட	-10.3672
▁படுகிறா	-10.3685
▁ஆதரி	-10.3716
▁பிறக	-10.375
▁நாடுகளு	-10.3762
▁உருவக	-10.3766
▁தகுதி	-10.3786
▁வெளியேற	-10.3788
▁கிரீ	-10.3797
▁அளவ	-10.3826
பரப	-10.3826
ேஷன	-10.383
▁அதிகார	-10.3836
▁நிதி	-10.3859
சைவ	-10.3871
ெடுத	-10.3873
▁ஃப	-10.3875
ையோ	-10.3886
▁பதிலளி	-10.3887
ளிப	-10.3906
▁அறிவா	-10.3936
▁வாகன	-10.3947
ருப	-10.3952
▁உடலில	-10.3958
▁கொட	-10.3966
▁கெ	-10.3974
▁சிறுமி	-10.3982
▁வாட	-10.3994
▁கிள	-10.3997
யிட	-10.4009
▁வருகை	-10.4022
▁தோஷ	-10.4038
▁நுழை	-10.4043
▁சாதன	-10.406
▁மூலமாக	-10.4061
▁முனை	-10.4062
▁துகிற	-10.407
▁யாரா	-10.4079
▁வீடன	-10.4081
1	-10.4115
▁குழுவினர	-10.4119
▁சிலவ	-10.4169
▁சுறு	-10.4221
▁குரிய	-10.4232
▁18	-10.4242
▁டையை	-10.4249
,	-10.4251
▁படு	-10.4279
ேட	-10.4283
▁பரிசோதனை	-10.4286
▁பியல	-10.4307
▁சாய	-10.4312
ீன	-10.4326
தைச	-10.4327
▁வேலைகளை	-10.4338
யிரம	-10.4354
▁வெளியிட	-10.4363
▁டெடு	-10.438
றியும	-10.4381
▁நடைபெற	-10.4384
▁ஏமமிலி	-10.4385
▁ஜசீரா	-10.4385
▁ரகசிய	-10.4385
▁பொறியியல	-10.4385
▁பொறியாளர	-10.4386
▁வருவாய	-10.4391
▁உலகமயமாக	-10.4396
▁வேலைக	-10.4397
▁றியு	-10.4398
ளவு	-10.4403
▁தேசிய	-10.4408
▁முகாம	-10.4409
▁புவி	-10.4413
▁ஆவண	-10.4415
ஜி	-10.4421
▁சாலையில	-10.4421
▁மானி	-10.4424
▁செலவிட	-10.4427
லி	-10.4432
▁தியாவி	-10.4442
▁விவாதம	-10.4445
ிவிட	-10.4453
▁வினை	-10.4468
▁தினம	-10.4474
▁முதலீட	-10.4481
▁டமர	-10.4481
▁32	-10.4516
லில	-10.4519
▁லவே	-10.4522
பொழுது	-10.4545
ுபவர	-10.4547
பாத	-10.455
▁குவதில	-10.4555
லிரு	-10.4583
▁மரண	-10.4589
▁கருவியை	-10.4623
துக	-10.463
▁உறவு	-10.4638
▁விடுகிறது	-10.4649
வண	-10.4649
▁மகள	-10.4656
▁பேசிய	-10.4659
▁மகன	-10.4661
▁பிடிப	-10.4677
▁சிகளை	-10.468
▁மாதம	-10.4682
ராக	-10.4692
▁மறுப	-10.47
▁வதே	-10.4703
▁சமாளி	-10.4711
▁இதுவரை	-10.4721
▁ஒளிய	-10.4725
▁இறுதி	-10.4737
▁கணவர	-10.475
கிள	-10.4755
▁வேலைய	-10.4758
▁அமைதி	-10.4767
▁கடினமாக	-10.4784
ாது	-10.4801
▁துர	-10.4825
▁னிச	-10.4826
▁ஆகியவ	-10.4849
▁வரிசையி	-10.4858
கம	-10.4859
▁டெ	-10.4863
▁கைவிட	-10.4866
ொத	-10.4869
தினால	-10.4876
ியின	-10.4889
ியது	-10.4911
▁டுதான	-10.4919
▁ஏழைகள	-10.4924
▁19	-10.4938
ரையில	-10.4952
▁மூதா	-10.4953
▁வேறுபாடு	-10.4976
▁அணு	-10.4991
மாட	-10.4993
▁இடை	-10.4993
▁பிலிரு	-10.4995
▁காவி	-10.4999
▁இசைக	-10.5
▁மாறிய	-10.501
ழக	-10.5022
▁குமிழ	-10.5022
ரத	-10.5033
▁எளித	-10.504
▁சுவாரசியமா	-10.5041
தும	-10.5043
▁21	-10.5049
▁கிவிட	-10.5075
▁றோ	-10.5075
▁அறுவ	-10.508
ொடுக	-10.508
▁இடையில	-10.5091
▁லையா	-10.5094
E	-10.5107
▁பயந	-10.511
▁துவர	-10.5117
▁எளிமையான	-10.5121
▁அறியப	-10.5131
▁கைய	-10.5136
▁புடன	-10.5143
▁ரீ	-10.5143
▁திருமண	-10.5144
▁மூளையை	-10.515
ுமாறு	-10.5169
▁விகள	-10.5169
C	-10.5178
களாக	-10.5186
வதை	-10.5208
▁கோல	-10.5209
▁அமைக	-10.5222
▁னல	-10.5232
▁தூரம	-10.5245
▁ஜோ	-10.5255
▁வகைகள	-10.5257
▁மூப	-10.5263
▁ஆல	-10.5267
▁தனியா	-10.5268
லத	-10.5292
▁நிரல	-10.5295
▁னி	-10.5296
▁ஆசைப	-10.5297
▁தினை	-10.5326
மிக	-10.5339
▁டியத	-10.5343
போல	-10.5358
▁தரம	-10.5376
▁மாதிரிய	-10.5381
டம	-10.5381
▁குகிற	-10.5393
றுப	-10.5395
▁கிராமம	-10.5409
▁கடையில	-10.5419
ாயின	-10.5424
▁சுய	-10.5427
▁விடு	-10.543
▁தியமாக	-10.5433
▁நோயாளி	-10.544
▁500	-10.544
ஹ	-10.5457
▁டிட	-10.546
ளுக	-10.5467
ரான	-10.5485
le	-10.5491
▁பரம	-10.5492
▁விவசாய	-10.5508
▁வெள	-10.5525
▁வரிகள	-10.5543
ைகளை	-10.5547
▁கைதிகள	-10.5548
▁வருகி	-10.5549
▁துகொ	-10.5553
▁தூர	-10.5554
▁அறிவை	-10.5556
▁இனம	-10.5567
▁தைரியமா	-10.5576
▁வரைபடம	-10.5588
டைப	-10.5608
▁காச	-10.5621
▁உடனடியாக	-10.5635
▁ஃபோர	-10.5636
வாளர	-10.5637
▁நிறைவேற	-10.5637
▁இராணுவ	-10.5639
▁ஓசை	-10.5641
▁பரிச	-10.5641
▁டைகள	-10.5642
▁குழுவாக	-10.5646
▁அறிவியலாளர	-10.566
▁புறணி	-10.5672
▁தனமான	-10.5676
ிறது	-10.5676
▁அமைதியான	-10.5684
▁மாவ	-10.5684
னமாக	-10.5693
▁உரையாடல	-10.57
▁கிலோ	-10.5704
▁சிறி	-10.5707
▁1960	-10.5708
▁போவது	-10.5726
▁கடத	-10.5727
படி	-10.5728
▁கரிய	-10.5734
▁ஓடி	-10.5745
▁கையுடன	-10.5754
▁விவரிக	-10.5759
▁வயதுடைய	-10.5766
▁மனதை	-10.5769
▁விளைவு	-10.5778
▁சலுகைகள	-10.5782
▁தெற	-10.5794
▁படவே	-10.5795
▁13	-10.58
▁டோர	-10.5808
▁முறையும	-10.5814
▁திறமைய	-10.5816
▁இரவில	-10.5816
ோனியா	-10.5818
▁அழகு	-10.5825
▁வணிக	-10.5842
▁எதிராக	-10.5847
ைகள	-10.5849
▁கலவர	-10.5853
னும	-10.5857
▁ணாக	-10.5873
▁சவாலை	-10.5878
▁இவைகளை	-10.5878
▁வறுமையில	-10.589
▁பெயரை	-10.5894
▁ஊனம	-10.5906
▁ரீதியாக	-10.5916
▁பகுதியாக	-10.5934
▁யூக	-10.5943
ையிலிரு	-10.5947
▁வொருவர	-10.5956
▁கோண	-10.5963
▁ஊழலை	-10.5968
▁லாதவர	-10.601
▁வொருவரு	-10.602
ூறு	-10.6045
▁மொழியி	-10.6049
தன	-10.6056
▁இனி	-10.6057
▁நார	-10.6077
ஷி	-10.6078
ிகழ	-10.6079
▁தேட	-10.6088
▁கதைகள	-10.6123
▁உதவுகிற	-10.6125
▁நாகரிகம	-10.6125
▁லியனை	-10.6131
றந	-10.6138
▁16	-10.6138
▁விலையில	-10.6139
▁வாரு	-10.6158
▁தேனீ	-10.6174
றுக	-10.6184
▁குட	-10.6193
▁மணிக	-10.6203
ாவை	-10.6204
▁றிவிட	-10.621
ரிச	-10.6229
▁மூளையின	-10.6241
▁ஜீ	-10.6252
▁கினர	-10.6268
▁14	-10.6275
ாவ	-10.6294
ஹர	-10.6294
மாய	-10.631
▁றுவிட	-10.6319
▁வரிசைய	-10.633
▁புதுமை	-10.6343
▁யோசனைகள	-10.6349
▁தொழிலாள	-10.6359
▁நிலையான	-10.636
▁ளை	-10.6375
ணம	-10.6378
▁உணவ	-10.6383
மீட	-10.6392
▁பவ	-10.6419
▁விலைய	-10.6421
▁வேற	-10.6422
ியாவில	-10.6425
▁ளான	-10.6427
▁ஓவிய	-10.6431
▁பிரெ	-10.6434
ிறுத	-10.6445
▁நிய	-10.6448
▁பெறும	-10.6454
▁மொழிய	-10.6466
▁மாதிரியை	-10.6486
▁ஆலோசனை	-10.6489
▁சோ	-10.6496
முடியாது	-10.6511
al	-10.6513
▁போனது	-10.6514
திலும	-10.6515
▁புடைய	-10.6539
▁ஜி	-10.654
▁தவை	-10.6558
▁போயிரு	-10.6564
ைய	-10.6573
ியுடன	-10.6585
▁புதிர	-10.6588
யால	-10.6592
▁துன	-10.6606
றிய	-10.6606
ஜான	-10.6607
▁றினை	-10.6614
▁தடைகள	-10.6618
மர	-10.6638
▁நொடி	-10.6665
▁வுலக	-10.6666
▁சாவு	-10.6683
▁பிணை	-10.6686
மயமாக	-10.6693
▁லின	-10.6715
▁பாடுகளை	-10.672
▁பணிய	-10.6738
▁செர	-10.6778
▁டினி	-10.6784
▁முதலி	-10.6796
▁விதி	-10.6797
▁பினர	-10.6824
ேகமாக	-10.6843
▁காபி	-10.685
▁தொன	-10.6856
▁ஆதாரம	-10.6866
▁குறிமுறை	-10.6876
▁டுகிறது	-10.6888
▁தொகு	-10.6898
▁கியை	-10.692
▁பசி	-10.6933
▁செவி	-10.6934
▁கேற	-10.6944
▁கமான	-10.6959
▁விடுத	-10.6961
சிய	-10.6962
▁அளவிட	-10.697
▁மாசு	-10.6981
▁சிப	-10.6984
▁களிட	-10.6986
▁புதித	-10.6995
▁றுவது	-10.7022
▁விசை	-10.703
▁குழுவ	-10.7033
▁தேடல	-10.7041
▁ஞான	-10.7052
▁90	-10.7053
▁அவனை	-10.706
▁வருகிற	-10.706
▁மனிதாபிமான	-10.7063
▁ஹரியானா	-10.7063
▁முகநூல	-10.7063
▁அறிகுறிகள	-10.7063
▁இனிமேல	-10.7064
▁75	-10.7064
ரே	-10.7064
▁விழுமிய	-10.7064
▁ளிவிவர	-10.7064
▁தயவு	-10.7065
▁அதிபர	-10.707
▁ராஜ	-10.7073
▁துணவு	-10.7075
▁பகுதியின	-10.7076
▁தேசம	-10.7076
on	-10.7078
▁ஏனைய	-10.7081
▁கடுமையாக	-10.7084
▁டமிட	-10.7088
▁தருகிறது	-10.709
▁கதைகளை	-10.7102
▁புகழ	-10.7103
▁ஞாபகம	-10.7115
▁2008	-10.7122
▁எழுதிய	-10.7124
▁விலகி	-10.7129
▁s	-10.713
▁ஊழியர	-10.7131
▁முடிவெடு	-10.7135
▁பேசுகிற	-10.7138
ளும	-10.7153
▁துயர	-10.7157
▁டுகிற	-10.7164
கூட	-10.7164
▁ரோச	-10.7179
▁ஆதல	-10.7191
▁சீனாவில	-10.7194
ூய	-10.7195
▁சராசரியா	-10.7197
ாமலேயே	-10.72
ரவ	-10.7206
▁றப	-10.7212
▁காகிதத	-10.7219
▁அடிமை	-10.7221
▁கியமானது	-10.723
▁கடல	-10.7242
▁ஞானம	-10.726
▁பகுதிகளில	-10.7263
▁பாலம	-10.7271
▁வெளிய	-10.7272
▁புகளில	-10.7279
▁லையே	-10.7283
விகிதத	-10.7287
▁சவாலாக	-10.7287
▁துவக	-10.7288
வள	-10.7301
▁திரிக	-10.7313
▁பாப	-10.7329
மானம	-10.733
▁நலம	-10.7332
▁குமா	-10.7333
▁தபட	-10.7335
▁டமான	-10.7345
▁தேகம	-10.7347
▁மேக	-10.736
▁பளம	-10.7364
▁மனச	-10.7369
▁வோ	-10.7372
▁விவர	-10.7375
▁பூட	-10.7386
கட	-10.7392
▁வுடன	-10.7393
▁குழும	-10.74
▁மூளைய	-10.7403
▁பயணத	-10.7412
ரிய	-10.7432
யினால	-10.7443
▁வீரர	-10.7452
மித	-10.747
▁ஜேசன	-10.7498
னம	-10.751
▁மேரி	-10.7512
▁இருபத	-10.7513
▁சுருள	-10.7517
▁பரவ	-10.7519
▁குகளை	-10.7521
▁பமாக	-10.7537
▁போரில	-10.754
▁றோரு	-10.7547
▁நூல	-10.7552
▁றிணை	-10.7556
யாளர	-10.7556
▁கடினம	-10.7559
யக	-10.7566
▁றினால	-10.7573
▁ஹார	-10.7579
▁வெளியில	-10.7585
▁விளைவுகள	-10.7586
ளில	-10.76
▁பேசின	-10.7615
▁கடினமானது	-10.7617
▁அழ	-10.7619
▁இருத	-10.7625
▁கழக	-10.7625
▁குவர	-10.7651
▁சுலபம	-10.7654
▁தவன	-10.7656
▁வற	-10.7659
▁பிரபலமா	-10.7678
▁உதவிக	-10.7686
கா	-10.7717
▁டியாக	-10.773
▁பழகி	-10.7743
▁டியல	-10.7749
▁கருதப	-10.7758
▁வரையில	-10.7764
திற	-10.7765
ுடையவர	-10.7765
நோய	-10.7784
சம	-10.7787
▁பூ	-10.7793
▁மோசம	-10.7793
▁ஒழி	-10.7795
▁அதிகாரியா	-10.7797
ியாளர	-10.7809
▁அழு	-10.7814
▁பொத	-10.7833
▁சிவ	-10.7836
▁போவத	-10.7851
▁மோசமா	-10.7861
ுறுத	-10.7876
▁சீ	-10.7879
ுதான	-10.7953
▁ரோ	-10.7965
▁வேறுபாடுகள	-10.7967
டையும	-10.7981
படுகிறது	-10.7982
▁ளட	-10.7998
▁ஆழமா	-10.7999
▁மரபு	-10.8014
▁வருகிறா	-10.8016
ஞர	-10.802
▁பெரிது	-10.8023
முகப	-10.8037
▁திவிட	-10.8041
▁17	-10.8045
▁பொட	-10.8053
வாட	-10.8061
யான	-10.8061
▁பயணிக	-10.8065
யானால	-10.8068
▁தொகைய	-10.8071
போன	-10.8105
▁கையாக	-10.8127
பெயர	-10.8135
▁ளத	-10.8145
ரின	-10.815
▁மந	-10.8181
▁யவ	-10.8189
▁விதம	-10.8198
ளிகளை	-10.8214
மல	-10.8242
▁டதா	-10.8244
ணப	-10.8266
▁பலகை	-10.8268
p	-10.8275
▁வளம	-10.8275
ிகள	-10.8275
▁நிபுணர	-10.8288
▁உயிரை	-10.829
ுகாட	-10.8292
▁தியாவ	-10.8298
ியா	-10.8305
தொடர	-10.8306
▁பகுதிகளை	-10.8311
▁பகுதிகள	-10.832
▁முகம	-10.8321
5	-10.8327
▁கழி	-10.8338
லாக	-10.8339
▁சரியா	-10.8354
▁மேலா	-10.8357
▁தொகுதி	-10.8368
▁புல	-10.8376
▁கிளா	-10.8415
▁தானில	-10.8417
லோ	-10.8429
ரண	-10.8434
▁விலையை	-10.8435
விலிரு	-10.8439
▁பூமிய	-10.8461
னிக	-10.8461
ணிக	-10.847
▁தச	-10.85
▁சைய	-10.8507
▁படிய	-10.851
▁கருவிகளை	-10.8519
▁மறைகுறியீட	-10.8527
▁புகை	-10.8551
▁யுக	-10.8552
▁ஆயிர	-10.8556
முன	-10.8577
▁லொ	-10.8583
▁படைக	-10.8598
வராக	-10.8599
▁சுழ	-10.8599
▁சாலைக	-10.8599
கழ	-10.86
▁வீ	-10.8611
▁நிலைகள	-10.8624
▁காம	-10.8643
▁தடை	-10.865
ுயர	-10.8652
▁வரம	-10.8654
▁கறை	-10.8658
▁நெடு	-10.8659
▁ஞாபக	-10.8669
ணி	-10.8671
▁சதுர	-10.8673
▁பிரித	-10.8681
▁கவலைப	-10.8696
▁ஊ	-10.87
▁உதவிய	-10.8701
▁வெளிவ	-10.871
மானால	-10.8716
▁விடயம	-10.8717
▁நாடுகளி	-10.8721
▁2005	-10.8727
▁நிவாரண	-10.873
▁நிரூபி	-10.873
▁நடைபெறுகிறது	-10.8731
▁நிருபர	-10.8733
▁பிரசுரி	-10.8734
▁வாதிகார	-10.8735
▁குறுகிய	-10.8735
▁பையன	-10.8737
▁சாதாரணமாக	-10.8738
ழைக	-10.8739
▁ளியியல	-10.8739
▁றிதழ	-10.8741
▁உரிய	-10.8745
▁கணினிய	-10.8746
▁பிரயோக	-10.8747
▁பரிமாண	-10.8748
▁புரிதல	-10.8749
▁கணினியி	-10.8755
▁புறணியி	-10.8759
▁பிரதான	-10.876
▁பொழுதே	-10.8763
▁199	-10.8765
▁மறுபுற	-10.8765
it	-10.8773
▁வேறொரு	-10.8775
▁எளிது	-10.8778
யார	-10.8779
▁வயதான	-10.8782
▁மலர	-10.8788
▁கிறதே	-10.8789
▁அரப	-10.8789
▁லாவிட	-10.8789
▁மானிய	-10.8793
▁அனுமான	-10.8805
▁தவ	-10.8814
▁கூகுள	-10.8821
▁துறைகளில	-10.8824
▁தனையாளர	-10.8827
▁சினைகளை	-10.8828
▁னவோ	-10.8828
▁இடையே	-10.8833
ுரிமை	-10.8837
▁1900	-10.884
▁றவைகள	-10.8846
▁இருதய	-10.8846
லுக	-10.8848
▁புறணிய	-10.8849
▁சமம	-10.8856
▁வயிற	-10.8857
▁இடமாக	-10.8857
▁ஜே	-10.8899
வரையில	-10.89
வத	-10.89
▁கோணம	-10.8901
▁மிகுதியா	-10.8903
ரிடம	-10.8905
▁ஆறுதல	-10.8908
▁பிரதமர	-10.8915
▁குழுவை	-10.8929
▁வழியை	-10.8933
▁குழாய	-10.8953
▁விளை	-10.8959
▁சூடே	-10.8961
▁நகை	-10.8964
▁அறிமுகம	-10.8976
▁ஆதரவ	-10.8992
ளையும	-10.8995
▁வீடுகளில	-10.9004
▁தியு	-10.9008
▁ரஷ	-10.9009
▁கியும	-10.9011
ழிக	-10.9014
தாவ	-10.9014
▁முறைக	-10.9026
லையை	-10.9031
▁விவாத	-10.9033
▁2007	-10.9035
▁ததே	-10.9044
ுற	-10.9046
ளத	-10.9069
ுகிறா	-10.9078
▁அருகே	-10.9079
▁சமன	-10.9082
ளி	-10.909
ரோ	-10.9094
▁னணி	-10.9094
▁வளை	-10.91
▁மலேரியாவ	-10.9102
▁வைர	-10.9113
▁மகாத	-10.9117
▁றவ	-10.9118
▁உறுதிய	-10.912
டிய	-10.9128
▁கடைக	-10.9133
▁அதுவ	-10.9141
▁பிரகாசம	-10.9164
ியு	-10.9171
ையுடன	-10.9171
▁உதவுவத	-10.9177
▁வருவ	-10.9183
▁ஆகா	-10.9184
▁டுவ	-10.919
▁போராடுவத	-10.9191
▁நீல	-10.9196
▁தியும	-10.9201
▁உலை	-10.9202
▁தையாக	-10.9209
▁இணையம	-10.9215
▁புரியாத	-10.9216
ரியதாக	-10.9219
▁டுவத	-10.9222
▁தனைகள	-10.9224
▁றிகரமா	-10.9232
▁வீதிகள	-10.9232
▁தயார	-10.9233
▁மாலை	-10.9239
▁உறு	-10.9256
▁புவிய	-10.9282
▁ஸில	-10.9283
▁கூடாக	-10.9288
▁வலுவ	-10.9289
▁ளதை	-10.9301
▁வெளியேறி	-10.9302
▁பீட	-10.9312
தூக	-10.9314
▁ஒளிந	-10.932
▁மனநிலை	-10.9334
கிற	-10.9336
▁டாளி	-10.9348
▁வயதுக	-10.9364
ளித	-10.9365
▁பனைய	-10.9366
ணிப	-10.9369
மைக	-10.9373
▁றியை	-10.9381
ியன	-10.9397
▁உருகு	-10.9411
▁சிறித	-10.9414
▁குடில	-10.9436
▁வேலையில	-10.9436
▁டெட	-10.9448
விடுகிறது	-10.9456
▁சுவாச	-10.9458
ையற	-10.9459
▁ஒருவரு	-10.946
▁ஐய	-10.9472
▁கூறிய	-10.9478
▁சியளி	-10.948
▁அறை	-10.9487
▁டினியை	-10.9499
▁புகிறது	-10.9499
▁படியா	-10.9505
▁வழிபட	-10.9519
மிழ	-10.9534
▁றுலா	-10.9538
பெ	-10.9552
▁டுவது	-10.9561
▁கனடா	-10.9562
ரையை	-10.9569
▁டிச	-10.9569
▁பூமியில	-10.957
▁பதினை	-10.9576
▁கோடைக	-10.9579
▁படுவத	-10.9596
▁னா	-10.9597
▁வாயில	-10.9599
▁நைஜீரியாவி	-10.9609
▁நடைமுறையை	-10.9618
ளின	-10.9635
▁திகள	-10.9637
▁அதிசய	-10.9642
னி	-10.9662
▁எதனை	-10.9665
▁வியாதி	-10.9668
▁பையில	-10.9676
டுவதில	-10.9676
▁டியு	-10.9701
▁முடிக	-10.9701
▁பப	-10.9714
தானே	-10.9717
ூந	-10.9724
▁கருவியில	-10.974
▁விளைவுகளை	-10.9761
▁மையானவர	-10.9768
ையுடைய	-10.9778
▁கிரு	-10.978
▁திருட	-10.9788
▁ளதா	-10.9795
▁லாயிர	-10.9799
▁வரைப	-10.9813
குத	-10.9839
▁மனது	-10.9843
தர	-10.9864
ொடுத	-10.9867
▁டாளர	-10.9876
▁தியத	-10.9879
▁றாவத	-10.9909
▁பிரதி	-10.9913
▁பொருளாக	-10.9914
ாப	-10.9934
▁அறிக	-10.9948
▁கொருவர	-10.9954
▁தீவிர	-10.9963
▁நிலைமை	-10.9968
▁மனத	-10.997
9	-10.9992
▁600	-11.0018
▁கிறாய	-11.0024
▁ஆசை	-11.004
▁இவைய	-11.0054
▁இதைத	-11.0061
▁பணிபுரி	-11.0084
▁சரித	-11.0089
▁விந	-11.0092
ரசா	-11.0095
▁புகிறா	-11.0098
வுண	-11.01
▁சயம	-11.0103
▁தானாக	-11.0104
▁ததால	-11.0106
▁சிரமம	-11.0117
▁போவதி	-11.0123
▁ஒது	-11.0123
ானவர	-11.0134
றிஞ	-11.0204
▁பறையில	-11.0206
P	-11.0208
▁மணிகள	-11.0217
I	-11.0222
நீர	-11.0223
▁உடம	-11.0233
▁னென	-11.0239
▁புதுமையா	-11.0243
▁கடைசிய	-11.0244
▁துவமனைக	-11.0245
▁மோட	-11.0262
▁தைகளு	-11.027
▁முறைய	-11.0283
வைத	-11.0286
▁சோதனை	-11.0297
▁பாள	-11.03
▁விதிகள	-11.0316
▁நோப	-11.032
ைபனி	-11.0322
▁ணிய	-11.0326
▁டுபாட	-11.0329
வரத	-11.0352
போக	-11.036
▁நீட	-11.0361
▁டமாக	-11.0382
▁முழுவத	-11.0386
ையானது	-11.0391
▁திரைகள	-11.0397
வுள	-11.042
வாக	-11.0433
▁சாதி	-11.0437
யிலேயே	-11.0461
▁டாட	-11.0462
▁தியப	-11.0479
ரப	-11.0487
▁வறுமை	-11.0497
▁ஸி	-11.0508
91	-11.0509
னையாக	-11.0512
பு	-11.0516
போதும	-11.0531
வையும	-11.0554
▁துரத	-11.0554
▁வகி	-11.0557
▁கன	-11.0568
▁தியான	-11.0571
▁டியிட	-11.0592
▁முறைகளை	-11.0614
▁நோயாளிகள	-11.0618
லின	-11.0628
▁விளைவி	-11.0636
▁ளிகளு	-11.064
ou	-11.0662
▁இருபது	-11.067
▁வேறுபாட	-11.0671
▁சாலைகள	-11.0678
பவர	-11.0679
▁இலவச	-11.0682
93	-11.0717
▁டனில	-11.0728
▁ஊடுருவ	-11.073
▁198	-11.073
▁மூதாதைய	-11.073
▁1986	-11.073
▁27	-11.073
வசமாக	-11.073
▁குடியேற	-11.073
▁துனிசியா	-11.073
▁2006	-11.073
▁பிரதேச	-11.073
▁தொலைதூர	-11.0731
▁குடிநீர	-11.0731
▁ஆகியோர	-11.0731
▁அருமை	-11.0732
▁அழகிய	-11.0733
▁படுகொலை	-11.0733
ent	-11.0736
▁அவதானி	-11.0736
▁உலோக	-11.0736
▁பறிவ	-11.0739
▁வரவழை	-11.0739
▁ஸின	-11.0742
▁ஜெனி	-11.0743
▁தாபன	-11.0743
▁படையினர	-11.0743
▁உடலுறவு	-11.0745
▁லையானால	-11.0753
▁வேறாக	-11.0762
▁நெறி	-11.0764
▁கலாசார	-11.077
▁மாறுகிறது	-11.0771
▁சீராக	-11.0771
▁கருதினால	-11.0773
வாரம	-11.078
▁எளிமையானது	-11.0784
டைத	-11.0784
▁அரபிய	-11.079
▁மூலதன	-11.0793
▁நோயினால	-11.0803
▁கொடியை	-11.081
▁கசிவுகள	-11.0811
▁தைகளால	-11.082
▁அபாய	-11.0821
▁திடீர	-11.0822
▁சீரழி	-11.0828
▁பேரலை	-11.0832
▁அமைய	-11.0832
6	-11.0832
▁தெருவி	-11.0841
T	-11.0843
▁இதுபோல	-11.0846
▁ளைகளை	-11.0862
▁குணம	-11.0866
▁வருகிறோம	-11.0877
▁ஆகிவிட	-11.089
▁ஷேல	-11.0891
▁டுகளை	-11.0909
▁னெ	-11.0913
வனாக	-11.0922
▁புறச	-11.0937
▁அனுத	-11.0943
▁எடை	-11.0947
▁ளதாக	-11.0947
▁னேறி	-11.095
மை	-11.0952
ியர	-11.0953
▁கிலா	-11.0955
▁வாடி	-11.0963
▁றபோது	-11.0968
▁பாவி	-11.0972
லினை	-11.0974
பின	-11.0976
▁நேராக	-11.0981
▁கனமாக	-11.0983
▁களான	-11.0983
▁இருபடி	-11.0985
வதே	-11.0988
▁பழம	-11.0992
▁கூடியவை	-11.0996
றையில	-11.1003
▁சினைக	-11.1012
▁எளிதான	-11.1013
▁கிரே	-11.1016
▁ஆகிய	-11.1018
▁டக	-11.1025
யரி	-11.1028
▁தாவர	-11.1043
கமாக	-11.1048
▁தவித	-11.1056
▁ஆள	-11.1056
தல	-11.1057
ரிட	-11.1073
▁மலை	-11.1074
▁எதிரி	-11.1077
தலை	-11.1088
▁பதனால	-11.1094
ac	-11.1097
ic	-11.1098
▁குவி	-11.11
▁வையிட	-11.1106
மானவர	-11.1109
▁யாவில	-11.1122
னிந	-11.1123
▁பீ	-11.1123
▁தாறு	-11.1125
▁மறையாணிகள	-11.1152
ெக	-11.1154
▁படையிலான	-11.1162
▁காலப	-11.1162
▁வீதி	-11.1164
▁சிறுவன	-11.1179
▁நோயாளிய	-11.118
▁ஊடு	-11.1183
தார	-11.1192
▁உறுதியான	-11.1194
ஹான	-11.1194
▁வாரம	-11.12
▁றிப	-11.1207
▁தைரியம	-11.1209
▁85	-11.1212
▁பலவீன	-11.1216
சுறு	-11.1222
▁தெளிவா	-11.1223
▁முடிவுக	-11.1226
▁டுரை	-11.1233
▁நிலையம	-11.1233
▁கிலி	-11.1236
சா	-11.1238
▁மூலக	-11.1247
றேன	-11.1247
குண	-11.1255
னத	-11.1257
▁கையெ	-11.126
▁தேக	-11.1264
▁டளை	-11.1271
▁பயில	-11.1284
▁திரா	-11.1285
▁குரிச	-11.129
▁புரோகிதைய	-11.1295
மையான	-11.1296
கி	-11.1298
▁சலுக	-11.131
▁கொலைக	-11.1319
▁ஜிம	-11.1331
▁டகம	-11.1338
ரணமாக	-11.1353
▁அறிமுகப	-11.1371
கப	-11.1377
▁அளவை	-11.1379
▁முறையான	-11.1385
▁குறைப	-11.1394
வாழ	-11.1399
▁நொடிகள	-11.1404
▁லியிரு	-11.1405
ோமோ	-11.1406
▁போதுமானதாக	-11.1408
▁கவலைய	-11.1411
ிஷ	-11.1412
▁ஒலிக	-11.1414
▁தெரு	-11.1415
▁பாடுபட	-11.1419
▁ணில	-11.1421
ெழு	-11.1436
4	-11.1446
▁கூறி	-11.1455
▁ஜென	-11.1464
தமான	-11.1475
▁போமா	-11.1475
மூட	-11.1481
ளைய	-11.1484
▁வாசி	-11.1489
னே	-11.1493
▁படக	-11.1493
களுடன	-11.1504
ுரட	-11.1525
▁கணவன	-11.1531
▁குறியீடுகளை	-11.1539
ணை	-11.1549
▁கடித	-11.1559
றைக	-11.1572
▁பெறுகிறா	-11.1589
▁பயண	-11.1591
▁வமாக	-11.1605
▁பயமு	-11.1629
▁துவிடு	-11.1634
▁தெளிவ	-11.1642
▁பூசி	-11.1644
லவில	-11.1667
▁மழை	-11.1672
ணால	-11.1674
▁விளைவ	-11.1677
▁பாடும	-11.1689
▁பாவில	-11.1691
▁உருவ	-11.1693
▁வேதனை	-11.1696
▁தடுமாற	-11.1696
வைகளை	-11.1703
▁கலாக	-11.1714
சிப	-11.1714
▁துறைக	-11.1721
▁மான	-11.1724
டியில	-11.1725
▁அதுவரை	-11.1746
▁ஒளிப	-11.1753
▁இச	-11.176
வெ	-11.1761
▁ஆலோசனைகள	-11.1769
▁பரவு	-11.1781
▁வசதிகள	-11.1781
▁போராடி	-11.1794
▁குவ	-11.1798
லையோ	-11.1803
▁பலம	-11.1806
▁லத	-11.1811
▁னலை	-11.1813
▁குறியிட	-11.1813
▁காணாம	-11.1823
யானது	-11.1842
வால	-11.1848
▁கோலா	-11.1858
மானத	-11.1863
▁பேசினா	-11.1863
நா	-11.187
▁போற	-11.1879
▁டைய	-11.188
சு	-11.1883
பீ	-11.1888
▁சூட	-11.1893
▁மறைக	-11.1893
னில	-11.1898
▁இருபதா	-11.1906
▁விளி	-11.1906
ியலில	-11.1912
கிக	-11.1917
▁வாதிகள	-11.1919
▁கைபேசி	-11.1923
▁மேதைகள	-11.194
▁குவதை	-11.1944
தட	-11.1956
▁பசியை	-11.1959
▁வயதா	-11.196
ாவத	-11.1966
▁ஆதரவாக	-11.1975
▁எழுதி	-11.2026
ரா	-11.2036
▁ஜூ	-11.2038
ருஷ	-11.2046
▁தியாசமாக	-11.2051
▁உரு	-11.2056
தமாக	-11.2058
▁அணுகுமுறைய	-11.2063
▁புரத	-11.2077
▁தீவிரமா	-11.2079
▁அரிதா	-11.2084
▁பணிக	-11.2099
▁சாகம	-11.2104
▁நோபில	-11.2113
▁னிய	-11.2131
ra	-11.2142
▁மேடை	-11.2158
▁குழுக	-11.2161
▁மொட	-11.2184
▁Dr	-11.22
ளர	-11.2201
▁காதல	-11.2204
▁டரி	-11.2211
▁டுமான	-11.2217
▁சியு	-11.2221
▁140	-11.2232
ூ	-11.2235
▁கோரி	-11.2236
ொரோ	-11.225
▁மேசை	-11.2263
▁குறைபாடுகள	-11.2263
▁ர	-11.2289
▁கிருப	-11.229
பெரும	-11.2292
▁ரெ	-11.2294
முடியாத	-11.23
றைகள	-11.2302
▁விருதை	-11.2304
▁சுவ	-11.2312
ாளும	-11.2313
▁கிறான	-11.2323
▁றமாக	-11.2334
▁சோபியா	-11.2354
கூடிய	-11.2361
ியோ	-11.2361
▁சீனாவி	-11.237
▁கறி	-11.2378
மற	-11.2379
▁டாயப	-11.2379
மோ	-11.2383
▁கெடு	-11.2383
▁பெயரிட	-11.2391
▁நிறைவா	-11.2412
வரி	-11.2424
யவர	-11.2431
▁பிடு	-11.2437
▁கணினிகள	-11.2445
ுவர	-11.2451
வோம	-11.2458
முக	-11.2476
▁பவை	-11.2499
முறையில	-11.2501
l	-11.2517
▁அழுக	-11.252
பென	-11.2533
▁பயணி	-11.2551
▁ளவ	-11.2554
டையில	-11.2596
▁விரி	-11.2598
▁தனம	-11.2606
▁அதிகாரிகள	-11.2611
▁கோக	-11.2618
▁பாளராக	-11.2622
▁பெரி	-11.2634
▁விபட	-11.2637
▁தடு	-11.2659
▁லெ	-11.2674
▁உடலை	-11.2675
▁வசதிய	-11.2676
▁அமைதிய	-11.2694
▁சமமான	-11.2722
▁கலில	-11.2725
▁ததா	-11.2727
ணும	-11.2728
சைகள	-11.2742
▁எழுவத	-11.2763
▁ளிய	-11.2764
▁லோ	-11.277
▁முழுமைய	-11.2784
▁பூக	-11.2804
▁அசைக	-11.2813
▁ளிச	-11.2818
▁ஜனநாயகம	-11.282
▁சாண	-11.2824
ணியை	-11.2824
டீ	-11.283
▁துவமனை	-11.2831
▁ஓக	-11.2834
▁அமல	-11.2842
▁சைகை	-11.2848
▁துழை	-11.2853
எச	-11.2854
▁கடிக	-11.2857
▁யாரு	-11.2873
▁எழுதின	-11.2874
▁நிறைவு	-11.2875
▁அலுவல	-11.2875
▁இறை	-11.2879
லான	-11.2882
▁ரே	-11.289
▁நெ	-11.2905
▁ரூ	-11.2906
வையாளர	-11.2906
லைப	-11.2917
▁வரைய	-11.2925
தித	-11.295
ொட	-11.2954
▁அநேக	-11.2957
▁புவா	-11.2958
▁கெதிரா	-11.2983
ணர	-11.2987
▁தொலைபேசிய	-11.3001
▁வாதா	-11.301
▁தொலைத	-11.3019
▁மரணம	-11.3023
▁களாய	-11.303
▁லவ	-11.303
ேரிக	-11.3031
▁அநேகமா	-11.3033
co	-11.3036
வியல	-11.3042
ுவத	-11.3073
▁காரி	-11.3083
▁திரமாக	-11.3088
வைப	-11.3091
▁உருவான	-11.3095
▁கொடூரமான	-11.31
னா	-11.3102
▁உர	-11.3108
மையை	-11.3113
னார	-11.3123
▁கோபம	-11.3133
▁வலியு	-11.3143
வரிடம	-11.3143
▁வழிகளை	-11.3149
லைகள	-11.3152
▁கபடுகிற	-11.3154
ுகளில	-11.3165
▁கொடி	-11.3166
ணமாக	-11.3181
▁45	-11.3183
▁புவத	-11.3194
வனத	-11.3195
▁நாய	-11.3203
▁196	-11.3207
▁ஈட	-11.3208
ாயிற	-11.3213
pp	-11.323
▁நிதியுதவி	-11.323
▁நுரையீரல	-11.323
▁பாதசாரிகள	-11.323
▁மரியாதை	-11.323
▁யுனைட	-11.323
▁முகவையக	-11.323
▁செலவாகிறது	-11.323
▁திறவுகோல	-11.323
▁விநாடிகள	-11.323
IPP	-11.323
▁பேராசிரியர	-11.323
▁மசோதா	-11.323
▁அருகாமை	-11.323
▁உறவினர	-11.323
▁மேஜை	-11.3231
▁2050	-11.3231
▁2009	-11.3231
▁கோபுர	-11.3231
▁வியூக	-11.3232
▁பானிஷ	-11.3232
▁அவதிப	-11.3232
▁நெகிழ	-11.3232
▁டிகிரி	-11.3233
▁இயலாமையை	-11.3233
▁வேறெ	-11.3234
▁பாவனை	-11.3235
▁போதாது	-11.3236
▁2008-	-11.3237
▁பாடசாலைகளில	-11.3237
▁பாலானோர	-11.3238
▁பலவீனமாக	-11.3238
▁விடுபட	-11.3238
▁எவரையும	-11.3239
8-	-11.3239
▁வளி	-11.3243
▁அழிவு	-11.3245
▁அறிதல	-11.3247
65	-11.3249
▁கருணை	-11.3251
▁றாகுறை	-11.3251
▁வெளியான	-11.3258
▁ஷே	-11.3259
▁சுகமாக	-11.3261
▁மூலையில	-11.3261
▁முறைமையை	-11.3265
▁வெளியீட	-11.3266
▁மூவரும	-11.3269
▁இளமையான	-11.3271
▁நடுவி	-11.3274
றிவு	-11.3278
ிடுவது	-11.3282
ணிச	-11.3286
▁நேரடி	-11.3287
ையோடு	-11.3287
▁றலுடன	-11.3289
▁வையுடன	-11.329
▁திசாலித	-11.3291
▁வளைய	-11.3293
களிடம	-11.3293
▁வேறுபட	-11.3294
▁ஊதிய	-11.3298
▁டோசி	-11.3299
▁உதவிகளை	-11.33
ாகிவிட	-11.3317
▁வாசல	-11.3318
▁மணியை	-11.3319
▁தனிமை	-11.3322
▁றோரை	-11.3325
▁ணூறு	-11.3332
▁கிணறு	-11.3334
▁நடுநிலை	-11.3343
▁ஞாய	-11.3345
▁புகளின	-11.3352
▁வழிமுறையை	-11.3354
▁பேசு	-11.3356
▁மீதம	-11.3361
nc	-11.3363
ரமாக	-11.3369
▁யபட	-11.3375
டா	-11.3382
▁வினாடிகள	-11.3383
யல	-11.3387
▁லூ	-11.3392
▁99	-11.3393
▁நடைமுறைய	-11.3401
▁புனித	-11.3405
▁அகதிகள	-11.3407
▁மாய	-11.3416
▁வழிய	-11.3416
டாவில	-11.343
▁நடனம	-11.3435
▁உருவம	-11.3436
▁ஆசிரியராக	-11.3436
▁மனோ	-11.345
▁சுவார	-11.3457
▁கொரிய	-11.3458
▁யாவை	-11.3465
▁முழுநிறைவு	-11.3466
▁படாமல	-11.3466
▁போதை	-11.3469
▁மையுடன	-11.3469
▁....	-11.3478
▁இருவத	-11.3489
டுகளை	-11.3491
▁மாறிக	-11.3495
▁பேசியை	-11.3495
கரமான	-11.3498
▁குதளம	-11.3502
▁தீவுகள	-11.3514
▁நோயாளிகளை	-11.3522
▁நடு	-11.3527
▁பேசுவதை	-11.3528
▁திறமையான	-11.3536
▁னவாக	-11.3542
▁ஓரளவு	-11.3549
▁றுவி	-11.3551
▁கரமான	-11.3561
▁முடிவாக	-11.3568
▁சூத	-11.3575
▁தனத	-11.3577
▁டலாம	-11.3584
ியாயம	-11.3586
▁கழிவு	-11.3587
யாரா	-11.359
▁எளிமையா	-11.3598
▁வாதி	-11.361
▁டெர	-11.3611
▁பிரிவினை	-11.3612
▁மிஸ	-11.3614
▁வசம	-11.3628
▁கொடிய	-11.3655
▁அனேக	-11.3657
▁புகார	-11.3669
பாவம	-11.3674
▁ததி	-11.3689
▁இணையதளம	-11.369
▁தருவது	-11.3691
▁வயதி	-11.3692
தரா	-11.3701
▁கிருமி	-11.3726
▁திசையில	-11.3728
▁வாசனைய	-11.3731
ொ	-11.3736
▁சுவரில	-11.3745
▁முழுவதிலும	-11.3747
▁மையும	-11.3751
▁புவதை	-11.3758
▁ஏறிய	-11.376
▁தருவத	-11.3767
▁விவசாயிகள	-11.3767
▁றியத	-11.3769
▁காணு	-11.3769
▁விவசாயிகளிடம	-11.378
ருட	-11.3783
▁கைபேசிய	-11.3804
▁வேறுவிதமா	-11.3804
▁மூர	-11.3816
▁கதவு	-11.3816
கே	-11.3819
யாமல	-11.3821
▁சொற	-11.3823
▁மீள	-11.3829
▁கணி	-11.3837
▁ரசி	-11.384
▁சுவை	-11.3842
▁தவறவிட	-11.3853
நிலைப	-11.3868
▁படிமுறை	-11.3874
▁கலி	-11.3881
▁நுழைய	-11.3893
▁படிநிலை	-11.3902
▁வீண	-11.3905
▁ஆகி	-11.3907
il	-11.3913
▁சமமானது	-11.3916
▁கோடு	-11.393
▁எதைய	-11.3933
▁பபட	-11.3936
▁பரவிய	-11.3937
▁2000	-11.3941
▁கூறியது	-11.3976
▁பதிவ	-11.3986
▁அரை	-11.3987
வையாக	-11.3995
▁மைகள	-11.4003
▁வாத	-11.4005
▁விரிவா	-11.4008
▁கூடி	-11.4014
லா	-11.4025
▁விழைகிற	-11.4035
▁டெல	-11.4053
▁யூகம	-11.406
▁றுகிற	-11.4062
▁பாராத	-11.4066
▁சமவெளி	-11.4071
▁உயரும	-11.4073
▁நீரை	-11.4077
▁பேனா	-11.4078
▁கீழிரு	-11.4089
▁புழு	-11.4099
▁திடம	-11.4102
▁நாடுகளிலும	-11.4103
டர	-11.4116
▁டறியப	-11.4121
தியில	-11.4123
▁மேடுகள	-11.4128
ரைப	-11.4141
றை	-11.4146
யோடு	-11.4149
▁வோர	-11.415
▁பெரியளவில	-11.4151
டுகிறோம	-11.417
▁சே	-11.4171
லம	-11.418
▁விலக	-11.4183
▁திசை	-11.419
▁தருகிற	-11.4196
▁புதுப	-11.4197
லமாக	-11.4201
▁படுவதை	-11.4208
▁மாயம	-11.4209
ூக	-11.4215
ரட	-11.4223
▁வீரன	-11.4226
▁விடைகள	-11.4232
றும	-11.4234
▁தெ	-11.4235
▁ளாக	-11.4236
திய	-11.4249
▁றுதல	-11.4253
▁ரியர	-11.426
▁மாவு	-11.426
திரட	-11.428
▁இடைவெளிய	-11.4294
▁சபை	-11.4297
ிகளும	-11.4306
▁சையை	-11.4318
▁ணுக	-11.4319
▁விடுகிற	-11.432
ிகளை	-11.4324
96	-11.4325
▁நியாய	-11.4346
▁னோட	-11.4358
▁வலைகள	-11.4369
▁ஏய	-11.4372
ைகளும	-11.4376
▁36	-11.4386
▁பநிலை	-11.4394
▁நிதிய	-11.4436
▁றுமையை	-11.444
▁கோடை	-11.4443
▁காளர	-11.4445
▁ரெய	-11.4453
கை	-11.4459
சித	-11.4478
ாஹி	-11.4488
▁னதமா	-11.4493
▁மூளையி	-11.4513
ழுப	-11.4542
▁முடிகிற	-11.4544
▁அணுக	-11.4546
ினைக	-11.455
▁வழிமுறை	-11.4556
▁வதாக	-11.4559
ாவில	-11.4571
60	-11.4581
▁அணுகுமுறை	-11.4586
வம	-11.4588
ஒரு	-11.4588
ையா	-11.4602
▁டெழு	-11.4607
டையாக	-11.4617
னையை	-11.4628
▁தொலைபேசியை	-11.4654
▁துவமான	-11.4658
▁கீ	-11.4671
▁கருவிய	-11.469
▁துவமனையி	-11.4707
சுக	-11.4709
காரர	-11.4717
▁மொழியியல	-11.4718
ிதம	-11.4722
▁வதால	-11.4724
▁உருவானத	-11.4733
▁முகமாக	-11.4735
இன	-11.4763
ஜ	-11.4764
▁லீ	-11.4769
▁அலாம	-11.4797
▁டியே	-11.4802
வாத	-11.4802
▁பதவி	-11.4814
வியலாளர	-11.4818
▁வறுமையை	-11.4822
▁அளவான	-11.4831
▁டைக	-11.4853
▁காலக	-11.4862
ினைத	-11.4887
▁கேடு	-11.4888
▁ஆவல	-11.4888
▁தாமல	-11.4895
▁அநியாய	-11.4915
▁கருதின	-11.492
மயம	-11.4933
▁மாணவி	-11.4941
▁டிர	-11.496
சை	-11.4977
▁நினைவ	-11.498
▁சோம	-11.4982
▁வலிமை	-11.4989
▁பேசுவத	-11.4998
▁கிழமை	-11.5
வான	-11.5
ுமே	-11.5004
▁மீத	-11.5041
நிலையற	-11.5045
▁அடைகிற	-11.5073
மதி	-11.5081
▁பொறி	-11.5086
▁சுகாதாரத	-11.5094
▁வோடு	-11.5103
▁பியர	-11.5112
சார	-11.5128
▁சமநிலை	-11.5134
ுவோர	-11.5136
▁சூ	-11.514
▁ஆவ	-11.5146
▁ஆழமாக	-11.5151
வுக	-11.5154
▁அதிகாரம	-11.516
செல	-11.5177
ீழ	-11.518
▁வழிமுறைகளை	-11.5182
▁நைஜீரியா	-11.5193
சன	-11.5195
▁பிளை	-11.5198
ுவதாக	-11.5208
ni	-11.5213
▁கவனமா	-11.5218
பாக	-11.523
▁1500	-11.5239
▁முறைகள	-11.5242
▁தேதி	-11.526
ஆக	-11.527
▁சாலைய	-11.5277
ிரட	-11.5287
▁தலைச	-11.5293
ஹா	-11.5293
▁ஹி	-11.5318
▁வேளையில	-11.532
▁குமிழி	-11.5325
ுமென	-11.5349
▁இயலா	-11.5374
▁னியா	-11.5381
▁எழுது	-11.5385
▁பிறர	-11.5389
▁நியாயம	-11.5391
▁முரண	-11.5395
▁நிறைவ	-11.5396
▁குரலாக	-11.5405
தம	-11.5415
▁24	-11.5416
போர	-11.5427
▁பதனை	-11.5427
▁குடியரச	-11.5434
வொரு	-11.5436
▁பெருமளவ	-11.5439
▁வினவ	-11.5444
▁விடுவ	-11.5452
▁உரிம	-11.5477
▁பாரா	-11.5478
ெட	-11.5478
▁டாய	-11.5481
▁உல	-11.5485
டையின	-11.5488
▁நிறுவி	-11.5488
▁கிரமி	-11.549
▁அடியில	-11.5495
▁குளிரூட	-11.5509
விடம	-11.5513
▁டிலி	-11.5523
▁பிரத	-11.5524
▁லூரிய	-11.5556
▁மேதை	-11.5558
பவம	-11.556
▁வுநிலை	-11.5565
▁பணிகள	-11.5575
பிடிப	-11.5584
▁திகை	-11.5589
கையை	-11.5599
▁கூறுவத	-11.5629
▁நிலம	-11.5635
▁விரைவா	-11.5638
▁சுழல	-11.5642
ாளி	-11.5646
▁பசிய	-11.5649
▁கீடு	-11.5662
▁சீனா	-11.5667
▁மூட	-11.5677
▁திறமைகள	-11.5677
▁டவள	-11.5685
pe	-11.5704
▁டிகளில	-11.5706
▁பழமொழி	-11.5728
▁தலைமுறைக	-11.5731
றியாளர	-11.5747
ாலிட	-11.5748
மாற	-11.5749
தேன	-11.5772
▁குறிய	-11.5776
▁பொழிவி	-11.5778
▁தகவலை	-11.5784
▁வலிமைய	-11.5785
▁ராய	-11.5793
மாம	-11.5797
▁வளத	-11.5822
▁வகைய	-11.5822
ருவம	-11.5828
▁ணாடி	-11.5837
றுவர	-11.5837
றையை	-11.5838
▁பயனு	-11.5856
▁டவ	-11.5859
ோவை	-11.5861
▁விழை	-11.5867
▁டுவிடு	-11.5898
▁கூறுகள	-11.5918
▁வலு	-11.5922
▁இறுதியா	-11.5929
▁பலவ	-11.5935
▁நோயின	-11.594
▁வழிகள	-11.5947
.3	-11.5953
▁தனிய	-11.5956
▁கூறியத	-11.5957
▁மீற	-11.5963
▁பேய	-11.5964
▁வியாபாரம	-11.5968
▁பழி	-11.5979
ீ	-11.5993
▁இம	-11.5998
▁கடலை	-11.5999
▁மாச	-11.6001
போனால	-11.6019
ரீட	-11.602
30	-11.6031
ிவ	-11.604
ஜெப	-11.6053
▁கினி	-11.6058
▁டமை	-11.6063
பிள	-11.6064
▁கியோட	-11.6074
மாறாக	-11.6075
▁குறைவாகவ	-11.6082
▁தனைகளு	-11.6084
▁மூடி	-11.61
▁னட	-11.6101
கிறா	-11.6113
டியாக	-11.6122
ஒ	-11.6133
▁பலனை	-11.6137
▁மனிதனாக	-11.6158
▁கழிவ	-11.6165
▁படலம	-11.6167
▁லூரியி	-11.6172
▁கனவ	-11.6182
▁கடமை	-11.6182
▁ஓரளவ	-11.6186
▁சகோதரி	-11.6191
▁புவியி	-11.6202
▁பாலின	-11.6203
▁நைஜீரிய	-11.6205
▁தலைமுறை	-11.6207
பாமா	-11.6211
யுத	-11.6213
▁ளவே	-11.6216
▁கிப	-11.6219
▁கொடூர	-11.6227
சையாக	-11.6227
▁தியாச	-11.6237
வழி	-11.6238
சினி	-11.6241
▁தீவிரவாதிகளை	-11.6242
▁தரக	-11.6254
▁அடக	-11.6256
▁அதேயளவ	-11.6258
▁முதலீடுகள	-11.6264
▁தமா	-11.6267
ரித	-11.6292
செ	-11.6294
.5	-11.6297
வித	-11.6298
▁டியின	-11.6299
▁பமயமா	-11.6299
ாயிர	-11.63
▁பமுடியாத	-11.6305
▁கைதி	-11.6306
▁லோரன	-11.6307
▁ணீரை	-11.6344
வாதத	-11.6353
▁சிஎ	-11.6366
ரேஷ	-11.6394
▁பிசி	-11.64
▁படுவ	-11.6404
▁வெளிவரு	-11.6407
▁கிரன	-11.6421
▁ணு	-11.6434
▁உணவாள	-11.6435
▁புண	-11.6435
▁மோத	-11.6437
▁வணிகர	-11.6447
வல	-11.6455
லேயே	-11.6466
▁நிபுண	-11.6469
▁மகளை	-11.6487
ஆ	-11.6488
▁குறியீட	-11.6494
▁அறிவின	-11.6498
▁இடமி	-11.6506
▁அசை	-11.6509
▁டிரைவ	-11.651
▁ஒருவரும	-11.6522
முடிக	-11.6548
ுவேல	-11.6549
▁அரபி	-11.6551
▁தைரிய	-11.6554
▁விரிவடை	-11.6559
▁சியடை	-11.656
▁டயனோசரை	-11.6563
▁நாகரீக	-11.6563
▁கரியமிலவாயு	-11.6563
▁மரபுசாரா	-11.6563
▁மாயஜால	-11.6563
▁பெருவாரியா	-11.6563
▁கணிபொறி	-11.6563
AID	-11.6563
காத	-11.6563
▁டதாரியான	-11.6563
▁1929	-11.6563
▁காவலாளிகளு	-11.6563
▁பேராவல	-11.6563
▁வினோதமா	-11.6563
▁கலைஞன	-11.6563
▁பிரகடன	-11.6563
IT	-11.6564
▁கீமோ	-11.6564
▁நிலவுகிறது	-11.6564
▁2012	-11.6564
▁1990-	-11.6564
▁ணமுடையவர	-11.6564
▁1983	-11.6564
▁2010	-11.6565
▁1980	-11.6565
▁துசமவெளி	-11.6565
▁வெகுவாக	-11.6565
▁டேயிரு	-11.6567
et	-11.6567
▁விரிவடையும	-11.6568
▁அலமாரியில	-11.6568
4-	-11.657
▁வியுற	-11.6571
▁டிவிடி	-11.6572
▁இளமையாக	-11.6573
app	-11.6573
▁உயிரிழ	-11.6575
▁ஸிகோ	-11.6577
▁ஊடாட	-11.6579
▁19-	-11.658
▁பிலீ	-11.6581
▁உருமாற	-11.6582
▁பலகைக	-11.6584
▁படிமுறையை	-11.6584
▁நொறு	-11.6585
▁ஃபிலி	-11.6585
▁கடைபிடி	-11.6585
▁1000	-11.6586
▁திரேலியாவில	-11.6586
▁னுரிமை	-11.6588
▁நேருகிறது	-11.6589
▁இலவசமாக	-11.6591
▁டவிழ	-11.6594
▁நூதன	-11.6594
▁போடுகிற	-11.6597
▁மலாட	-11.6598
▁பழமை	-11.6598
▁ஒலிவடிவ	-11.6599
▁பரிண	-11.6599
▁ஷோவை	-11.66
▁அடைக	-11.6601
▁வேதனைய	-11.6604
▁டாயமாக	-11.6607
▁முகமையக	-11.6609
▁தவறுகளை	-11.6614
▁எரிம	-11.6614
▁கவலைக	-11.662
▁டிவி	-11.662
▁புதியதாக	-11.6623
▁செலொ	-11.6624
▁உரிமைகள	-11.6626
▁ளூ	-11.6627
▁Do	-11.6627
▁ளுதல	-11.6632
▁ஈடுபாடு	-11.6634
▁விழ	-11.6636
▁ஜா	-11.6636
▁ஆவியா	-11.6637
▁கடிகார	-11.6637
▁நடிகர	-11.6638
▁புனரமை	-11.664
▁கொடுமையை	-11.6641
▁புறகணி	-11.6644
▁பரிசோதித	-11.6645
▁குடுவை	-11.6647
▁மலிவானது	-11.6648
வாதியாக	-11.6648
வேகமாக	-11.6648
▁அறையை	-11.6649
▁னச	-11.665
▁இலவசமான	-11.6654
▁மணிய	-11.6663
▁திரையை	-11.6666
▁ஏதுவா	-11.6667
▁வீரா	-11.6668
▁எறி	-11.6673
▁பிடமாக	-11.6675
▁தொலைவ	-11.6675
▁பழகிய	-11.6678
▁நடைமுறைக	-11.6679
▁தியின	-11.6683
▁மதிய	-11.6691
▁பலரை	-11.6693
▁நடன	-11.6694
▁டிஸைனர	-11.6695
னாக	-11.6696
▁ஓவ	-11.6704
▁காவ	-11.6704
ூஜ	-11.6714
▁ஆடி	-11.6719
▁இழுப	-11.672
▁முபார	-11.6727
▁ஷூ	-11.6733
▁டித	-11.6745
▁கூறினா	-11.6745
▁1970	-11.6754
▁ஜூன	-11.6758
▁கொடூரமானது	-11.6761
▁கைகளால	-11.6763
▁வியாதியா	-11.6765
▁கிறத	-11.6765
மாறு	-11.6773
▁தைகளுடன	-11.6782
▁பாதை	-11.6782
▁தழுவ	-11.6791
▁ஃபா	-11.6793
நான	-11.6796
▁ஊற	-11.6796
▁ணயி	-11.6796
வகையில	-11.6798
எம	-11.68
ெர	-11.68
▁கியதாக	-11.6801
▁மாசுபட	-11.6806
▁கையோடு	-11.6812
▁வசி	-11.6825
▁வழிவ	-11.6837
▁அதிகாரிய	-11.6843
▁விதிகளை	-11.6847
▁லியது	-11.6851
பொறியை	-11.6855
▁அணுகு	-11.686
விகிதம	-11.6862
▁அரசுகள	-11.6867
▁துரையாடல	-11.6867
▁பிரிந	-11.689
▁றவள	-11.689
▁ஹோ	-11.6895
▁பேசுவ	-11.6896
▁ஜியம	-11.6898
▁உடையவர	-11.6899
▁பிரமா	-11.69
▁உயிரின	-11.6906
▁டவன	-11.6915
▁சரியம	-11.6917
▁சூடு	-11.6919
வோர	-11.692
▁புறந	-11.6922
▁அறுபத	-11.6924
▁உலர	-11.6935
றாம	-11.6935
▁மீறிய	-11.6936
▁எழுதியிரு	-11.6942
▁ததுபோல	-11.6946
▁பயணிகள	-11.6948
▁தனமானது	-11.695
▁நிதிச	-11.6953
▁சனைக	-11.6956
▁இருவர	-11.6974
▁துடைப	-11.6976
▁கிளாச	-11.6978
▁ஃபே	-11.6981
▁ஆத	-11.6985
▁சாம	-11.6985
▁கழுத	-11.6987
▁தடையாக	-11.6998
▁திரவ	-11.7009
▁கூடாத	-11.701
▁ஈடு	-11.7014
▁ரை	-11.7019
▁மெழுகு	-11.7025
▁பெறவே	-11.703
ரோக	-11.7031
▁எரிப	-11.7038
▁படைய	-11.7043
▁டாகும	-11.7047
▁மறைகுறியீடு	-11.7057
▁கியமானதை	-11.706
▁சானியாவ	-11.7069
▁ராம	-11.7075
▁அலை	-11.7076
▁ளவை	-11.7082
▁எதுவா	-11.7084
▁துருவ	-11.7086
▁வலிக	-11.7093
லாவி	-11.7096
▁களிலி	-11.7104
▁பிரமிட	-11.7106
▁கியு	-11.7114
பால	-11.7123
▁வாச	-11.7124
ci	-11.7126
நிரல	-11.713
▁லைடு	-11.7136
▁காரின	-11.7144
களினால	-11.715
▁மாடியில	-11.7158
▁சூர	-11.7167
▁கரம	-11.7173
▁அமைதியாக	-11.7177
▁சாரமாக	-11.7178
▁வெளிபாட	-11.7183
▁தியாவசியம	-11.7193
▁தீவிரவாதி	-11.7195
ாவதி	-11.7208
▁நடை	-11.721
▁ஏறி	-11.7215
▁பூத	-11.7219
▁வதின	-11.722
▁உதவியது	-11.7223
டப	-11.7223
சிற	-11.7241
▁நிதிநிலை	-11.7242
ாதிப	-11.7244
அவர	-11.7245
▁றடை	-11.7261
▁நாளை	-11.7269
▁லிம	-11.7274
▁படகு	-11.7296
▁சுல	-11.7303
▁ஊரக	-11.7308
▁விவரி	-11.7314
▁துறைய	-11.7316
▁திரி	-11.7331
பி	-11.7333
பேர	-11.7341
▁குடிசை	-11.7351
▁கருதுகிற	-11.7357
▁நிலைகளை	-11.736
▁எதுவாகவ	-11.7363
▁றமடைய	-11.7364
▁யமுடியும	-11.7378
▁டியிடுவத	-11.738
▁டையாட	-11.7387
யவும	-11.7391
ாலோ	-11.74
▁கொணர	-11.7409
ேஸ	-11.7418
▁விசய	-11.7422
▁தொலைந	-11.7423
யோர	-11.743
▁190	-11.743
▁அறியாம	-11.7439
▁கவி	-11.7443
▁வோமா	-11.7443
▁மொழிக	-11.7447
▁போகிறாய	-11.7447
▁யாமல	-11.7447
▁வளாக	-11.746
நழுவ	-11.7468
▁மேடையில	-11.747
▁சிறுமிய	-11.7471
▁தானா	-11.7472
el	-11.7477
ுகிற	-11.7489
▁ணா	-11.749
ைவிட	-11.7507
▁தொழிலை	-11.7507
▁நோயில	-11.7512
▁லியமாக	-11.7519
மையாக	-11.7533
▁மொழிகளு	-11.754
▁சாதனைகள	-11.7556
▁உருகுவத	-11.7564
யாகிவிட	-11.7564
▁வருடா	-11.7566
முதல	-11.7584
துபோல	-11.7602
▁பதவியில	-11.7606
ைரோ	-11.7621
▁அகலமாக	-11.7622
▁வெளியேறுவத	-11.763
▁கோவ	-11.7652
▁பணிப	-11.7657
▁பகுதிக	-11.7679
காக	-11.7685
▁பிணையம	-11.769
ைகளையும	-11.7691
▁பிரிவுகள	-11.7699
▁டாகுமெ	-11.7704
▁தீவிரவாதிகளு	-11.7705
▁கிலம	-11.7707
▁பிரப	-11.7721
லையும	-11.7732
ுவாக	-11.7735
இச	-11.774
▁ஈடுபடு	-11.7741
▁பகுதிய	-11.7741
▁வருவதை	-11.7745
ுவதை	-11.7746
▁டீவ	-11.7749
▁வலப	-11.7753
▁துவருக	-11.7766
▁நிக	-11.7774
▁மாதிரிகள	-11.7776
▁கியமாய	-11.7778
ியியல	-11.7788
▁Tr	-11.779
▁ளாய	-11.7794
▁பாதைய	-11.78
▁பாடல	-11.78
னாப	-11.781
▁நிலைமைய	-11.7814
தியை	-11.782
▁சோக	-11.782
ோமா	-11.7824
ருகிறோம	-11.783
▁றவன	-11.7831
▁குடியரசு	-11.7835
▁அணிவ	-11.7843
▁கிருமிய	-11.7843
▁கோடிக	-11.7845
▁சைமரை	-11.7845
▁தவாறு	-11.7847
ுஷ	-11.7872
▁சிகரமான	-11.7874
▁துரை	-11.7891
▁ஓடின	-11.7893
▁டதே	-11.7912
▁சோபியாவ	-11.7925
▁யமான	-11.7937
▁அடையா	-11.7943
ஈ	-11.795
ுவதே	-11.7959
முணு	-11.797
ைவ	-11.799
▁றமளி	-11.7994
▁கடைப	-11.7995
பிக	-11.7999
▁தோஷமாக	-11.8009
▁ஹீ	-11.8009
நாட	-11.8012
ளாக	-11.8017
▁சிர	-11.802
லிக	-11.8022
▁ஒழுக	-11.8023
றால	-11.8057
மெ	-11.8058
▁மனநிலையில	-11.8061
மொழி	-11.8063
▁1.	-11.8071
▁பறை	-11.8083
▁கலானதாக	-11.8091
▁ணுகிற	-11.8097
▁விஷ	-11.8098
▁பிச	-11.811
▁வரவு	-11.8125
▁தோர	-11.8129
டலாம	-11.8136
▁ளாடையை	-11.8145
▁அதிகாரிகளு	-11.8152
▁ஸீ	-11.8156
ாரி	-11.8162
▁வறுமையா	-11.8192
▁நிஜம	-11.8198
▁மொழியா	-11.8208
▁எதிரிகள	-11.8239
ேசிக	-11.8241
கதிர	-11.8242
▁கனி	-11.8249
▁தீய	-11.8251
▁முகடு	-11.8258
100	-11.8266
▁அசையா	-11.8276
▁வியறிவு	-11.829
▁றியோ	-11.8295
▁சரியமா	-11.8297
டியா	-11.8301
▁நிறுவ	-11.8304
▁முடிவது	-11.8342
▁தனிமைப	-11.8348
▁போரை	-11.8352
னைக	-11.8364
▁றாது	-11.8368
▁மிருக	-11.8379
கைச	-11.8393
▁தகுதிய	-11.8401
cor	-11.841
▁திறமையின	-11.8411
▁கருவியாக	-11.8415
ணிந	-11.8427
▁பதோ	-11.8433
▁கிரம	-11.8435
▁போலிரு	-11.8449
▁டாவை	-11.8461
டைக	-11.8464
▁பரிசோதனையி	-11.8474
▁தாது	-11.8476
சக	-11.8489
▁பாடப	-11.8497
ro	-11.8498
மைய	-11.8499
▁டுத	-11.8504
ிலையில	-11.8517
ியான	-11.8536
யமான	-11.8538
▁பாளி	-11.8555
▁கனவுகள	-11.858
டையை	-11.8581
▁சரிதான	-11.8585
▁மாறுப	-11.8585
▁உணவை	-11.8586
னைகள	-11.8605
▁தலாக	-11.8611
▁விரிவு	-11.8617
▁டவளா	-11.8624
வரால	-11.8634
40	-11.8637
▁சமுக	-11.8643
r	-11.8659
▁தகர	-11.8668
சியில	-11.8672
▁அதுபோல	-11.8702
லாத	-11.8711
▁டாளா	-11.872
▁அவசியமா	-11.8727
▁உவகை	-11.8727
▁அவசியமாக	-11.8733
ூகம	-11.8752
▁உணவக	-11.8753
யப	-11.8756
▁சூடாக	-11.8757
▁னத	-11.876
▁சுவாரசியம	-11.8761
▁கையா	-11.8774
▁எழுதுவ	-11.8796
▁தானிய	-11.8802
▁உபயோகம	-11.8814
டிவத	-11.8817
▁ஹரியாணா	-11.8819
பற	-11.8821
▁பலகைய	-11.8845
▁கணிதவியல	-11.8853
▁தலைமுறைய	-11.8854
படுவதில	-11.8876
டுபாடு	-11.8884
ூவ	-11.8884
▁லுவ	-11.8889
▁திறம	-11.8902
▁காவிட	-11.8906
▁துகளும	-11.891
▁டபடி	-11.8914
1-	-11.8917
▁நே	-11.8925
▁இள	-11.8929
▁தினி	-11.8932
▁சுவைய	-11.8936
▁மறையாணி	-11.894
ரிர	-11.8945
யிர	-11.8949
▁அனல	-11.8953
ராண	-11.8954
▁கலுக	-11.8975
▁சீனாவ	-11.8977
▁கடைகள	-11.898
▁பயமற	-11.8991
▁ளா	-11.8996
தளம	-11.8996
▁றதாக	-11.9005
▁தடவைகள	-11.9016
▁வெளிக	-11.9024
▁அரிதாக	-11.9031
▁நடைபாதைக	-11.9037
▁நடனமாட	-11.9049
துள	-11.9049
▁தனைக	-11.9053
▁கையான	-11.9059
lo	-11.9077
▁ஓரி	-11.9077
யன	-11.9085
▁பகம	-11.9104
ழுக	-11.9111
▁நீதிகள	-11.9124
▁எழ	-11.9128
▁நிலைமைக	-11.9139
▁செலவ	-11.9141
▁ரீதிய	-11.9141
எல	-11.9142
ாறு	-11.9156
ுடையதாக	-11.9163
ையிலேயே	-11.9177
▁மீக	-11.919
▁ஜீன	-11.9195
ாதவள	-11.9199
▁அறிமுக	-11.9201
டியும	-11.9218
▁தொகுத	-11.924
▁வேலைகள	-11.925
▁சுப	-11.9274
▁யோசனைகளு	-11.9278
▁உணவும	-11.928
கார	-11.9282
▁கேல	-11.929
▁தேடினா	-11.9296
▁லிபேரியாவ	-11.9299
ருகில	-11.9299
ோஷம	-11.93
▁தேவையாக	-11.9308
▁ஒர	-11.9317
▁துறையின	-11.9319
▁இண	-11.9324
▁மாண	-11.9335
▁எனப	-11.9337
▁வாகனம	-11.9349
▁மறையான	-11.9355
▁நேய	-11.9357
வியத	-11.936
பல	-11.9365
▁முறையின	-11.9366
▁விகளை	-11.9378
▁குறைவ	-11.9392
▁போவதை	-11.9395
ிதர	-11.9398
ளமையான	-11.9399
▁னேறிய	-11.9406
▁வரத	-11.9407
மேல	-11.9417
▁முறைமை	-11.942
▁ஈக	-11.943
▁உருவாகி	-11.9433
▁லிபேரியாவி	-11.9446
▁சியா	-11.9451
▁ஏரி	-11.946
ாரு	-11.9461
ெவ	-11.9463
n	-11.947
▁தலைமைய	-11.9475
5-	-11.9488
மானவை	-11.9501
▁நேரிட	-11.9512
▁வடை	-11.9512
டையான	-11.9521
▁சமுதாயம	-11.9522
▁நாளைய	-11.9526
ரினா	-11.9564
ிகளின	-11.9574
▁பெருகியத	-11.958
ிறக	-11.9596
▁டசாலி	-11.9608
ொற	-11.9628
தின	-11.9635
▁விருது	-11.9636
டியான	-11.9637
▁சகோதர	-11.964
▁35	-11.9646
▁டிவிட	-11.9653
▁வரிகளி	-11.9657
ுகளை	-11.9659
கைப	-11.9662
▁நிஜ	-11.9676
ூச	-11.9677
▁டாடுவ	-11.9679
▁டரில	-11.9683
யர	-11.9691
▁டுவருவ	-11.9693
றியது	-11.9715
▁கணவனை	-11.9717
▁யாரால	-11.9717
▁கிஷ	-11.9718
ti	-11.9724
▁நிமிடம	-11.9724
▁தோழ	-11.9725
▁பாலானவ	-11.9735
▁கோவில	-11.9756
▁வரவ	-11.9757
▁கீத	-11.9763
கண	-11.9773
றுதியான	-11.9789
றப	-11.9793
ிண	-11.9806
▁தேதிகள	-11.9807
▁250	-11.982
ஆர	-11.9823
▁கொடையா	-11.9829
▁தைகளி	-11.9846
▁ஸா	-11.9874
றுதியாக	-11.9883
▁சரிப	-11.9884
▁தமிட	-11.9893
▁தேவைக	-11.9899
▁வளைவு	-11.9903
▁புறக	-11.9904
▁வியா	-11.9917
▁தரவில	-11.9922
▁வீரமு	-11.9952
லாபம	-11.9961
▁அணிய	-11.9977
▁கேன	-11.9981
▁லேட	-11.9997
▁வேதி	-12
▁வேலையி	-12.0002
▁தவளா	-12.0006
▁லேச	-12.001
▁விடுகி	-12.0018
▁முழுமை	-12.004
▁ஈடுபடுகிற	-12.0049
▁அதிகாரி	-12.0051
ாமி	-12.0055
▁டிதனம	-12.0058
பெரிய	-12.0068
▁பாடான	-12.0073
▁புரோகிதை	-12.0076
▁மனதின	-12.0083
▁அகலம	-12.0087
வுரிமை	-12.0088
▁வடிவை	-12.0093
▁எளிமை	-12.0095
or	-12.0096
கமான	-12.0098
▁தோட	-12.011
▁சரவு	-12.0114
▁கிருமிகள	-12.0125
▁முனைக	-12.0132
னோ	-12.0141
லது	-12.0159
▁கருதுவத	-12.0162
டது	-12.0164
▁சேவைகளை	-12.0187
▁கிருமிகளை	-12.0197
டென	-12.0207
▁தியதா	-12.0224
▁பானதாக	-12.023
▁ஆசைபடு	-12.023
நிலையில	-12.0232
ியமாக	-12.0249
▁அறிவே	-12.025
▁கொடுமைகள	-12.025
▁இறு	-12.0261
▁பயனளி	-12.0277
▁வியாதிகள	-12.032
றாமல	-12.0338
ிகளில	-12.0346
▁உக	-12.036
▁பிடியில	-12.037
கற	-12.0381
▁வோட	-12.0387
▁கியல	-12.0412
▁பலவித	-12.0432
▁மாறு	-12.0452
▁திசாலி	-12.0461
▁றதா	-12.0471
▁வாற	-12.0473
▁தனையு	-12.0481
▁எரி	-12.0483
தனால	-12.0494
நேரம	-12.0525
▁அடையாளமாக	-12.0526
குறி	-12.0531
lec	-12.0543
ீகார	-12.0576
▁ணுவ	-12.0578
▁போடுவத	-12.0582
ore	-12.0585
▁நடனமாடி	-12.0594
▁50,	-12.0596
▁இஸ	-12.0598
ுவை	-12.0608
▁தியாவசிய	-12.0613
▁பொறுமைய	-12.0623
ிரி	-12.0628
ுவிக	-12.0637
▁குர	-12.0641
ியிரு	-12.0647
▁ஆயுதம	-12.0652
▁புரிகிறத	-12.0658
▁துல	-12.0671
▁கனவை	-12.0682
▁இலைகள	-12.069
▁பெறுவ	-12.0691
டியை	-12.0698
2-	-12.0727
20	-12.0728
an	-12.073
en	-12.0744
▁லீஒன	-12.0756
▁டினிய	-12.0757
▁துணிவு	-12.0761
50	-12.0769
சில	-12.0776
▁றவராக	-12.0784
7-	-12.0785
▁உரையில	-12.0786
ேய	-12.0789
▁கொடைய	-12.0795
▁புகு	-12.0795
▁கூக	-12.0811
▁ஒலிப	-12.0817
ஜெ	-12.0824
▁கூடியிரு	-12.0826
D	-12.0826
ிரிண	-12.0836
▁ஓடும	-12.0838
கேட	-12.0845
மனிதன	-12.0846
▁மெழுக	-12.0854
ியத	-12.086
பொருள	-12.0865
▁அவசிய	-12.0872
▁தனியாகவ	-12.0879
▁வளைக	-12.088
▁றடைய	-12.0885
▁வளமான	-12.089
▁முறைப	-12.0895
▁அறுதி	-12.0895
யிடம	-12.0908
▁திரள	-12.0922
மனத	-12.0927
▁சவாலான	-12.0927
றைப	-12.0931
▁பிரம	-12.0932
▁உரையாடி	-12.0932
நிர	-12.0941
றிவிட	-12.0949
ியமான	-12.0952
▁கடை	-12.0964
80	-12.0967
மூ	-12.098
ணுக	-12.0982
▁முனைய	-12.0999
▁டிகா	-12.1022
▁துயரம	-12.1063
ோப	-12.1065
▁மித	-12.1068
னையாளர	-12.1078
▁பரவி	-12.108
▁சேரி	-12.109
▁லிட	-12.1095
டுபவன	-12.1095
வெட	-12.1096
பிசி	-12.1097
▁டபோது	-12.1104
▁முறையா	-12.1105
▁இளமை	-12.1116
▁டிராத	-12.1116
▁மனநோய	-12.112
▁தியானத	-12.1123
▁றுகொ	-12.1126
▁வருக	-12.1134
▁ஈரான	-12.1143
யோன	-12.1143
▁படியை	-12.1143
▁பிரபல	-12.1146
▁துறையா	-12.1154
▁எவர	-12.1154
is	-12.1167
▁கரைய	-12.1168
லியாக	-12.1174
ரமிக	-12.118
▁ஆலோச	-12.1187
▁இரும	-12.1191
▁றவரோ	-12.1199
▁ரயில	-12.1203
▁னண	-12.1212
பொழுதும	-12.1216
நோ	-12.1222
பத	-12.1241
▁லாதத	-12.1249
▁தய	-12.1264
▁எதன	-12.1268
▁கடவு	-12.1272
ெழும	-12.1273
▁லாமை	-12.1281
▁இசைய	-12.1284
▁தேவி	-12.1297
முடிகிறத	-12.1332
ாசம	-12.1346
▁டிஸைன	-12.1352
▁முகவர	-12.1368
ாளராக	-12.1374
றிவை	-12.1379
▁நோயாளிகளு	-12.1384
▁வினாடிக	-12.1387
▁கவு	-12.139
▁அசு	-12.1392
▁உளவியல	-12.1392
▁செட	-12.1397
▁மேடு	-12.141
▁கிணற	-12.141
▁சோதனைகள	-12.1421
▁சுவீட	-12.1421
▁குரலில	-12.1423
▁கூகு	-12.1427
▁நூலா	-12.143
▁சேட	-12.1433
▁லிபேரிய	-12.1434
▁கவல	-12.1442
துவும	-12.1443
▁தேவையை	-12.1444
▁மலிவான	-12.1447
▁இதைய	-12.1452
ருவியில	-12.1463
கூடியது	-12.1465
ராய	-12.1471
▁வொர	-12.1473
▁அவதிபட	-12.1475
தையில	-12.148
லக	-12.148
ோடோ	-12.1481
கலாம	-12.1489
பெருக	-12.1502
னுக	-12.1503
▁னையா	-12.1515
▁வழிமுறைக	-12.1516
▁போவ	-12.152
▁தோஷமா	-12.152
▁அசாதார	-12.1525
▁சிறுமிகள	-12.1526
▁ஆடிஸ	-12.1527
▁மாநாட	-12.154
னுபவத	-12.1543
▁நகல	-12.1549
▁மனைவி	-12.1559
DT	-12.156
▁அணுஆயுத	-12.1563
▁அரிசோனா	-12.1563
▁அலாசுகா	-12.1563
▁உறுதுணையா	-12.1563
▁சுயமரியாதை	-12.1563
▁டியூரினி	-12.1563
▁தீவரவாதத	-12.1563
▁பெனிசிலின	-12.1563
▁விசேஷ	-12.1563
▁ஷஹீன	-12.1563
▁581	-12.1563
மதகுருவா	-12.1563
▁அனுகூல	-12.1563
▁கலாபவனம	-12.1563
▁பாகுபாடுகள	-12.1563
▁பிரதிநிதி	-12.1563
▁மஹிஷாசுர	-12.1563
▁முதுமொழிகள	-12.1563
▁ரநீதா	-12.1563
▁வெளியுலகி	-12.1563
▁எரிவாயு	-12.1563
▁முறுவலி	-12.1563
▁கருநீல	-12.1563
▁பேரழிவில	-12.1563
▁றியமையாதத	-12.1563
arc	-12.1563
▁அவகாசம	-12.1563
▁தலைகீழா	-12.1563
▁நாடளாவி	-12.1563
▁அலைபேசி	-12.1563
▁அவதூறு	-12.1563
▁1.6	-12.1563
▁வீராவேச	-12.1563
▁வெகுதூர	-12.1564
▁1901	-12.1564
▁போதனைகளை	-12.1564
▁இசைவிண	-12.1564
▁சரணடை	-12.1564
▁பழமைவாத	-12.1564
▁தரகரிடம	-12.1564
▁செழுமை	-12.1564
▁57	-12.1564
▁Ac	-12.1564
▁ஆலிவ	-12.1564
னிதா	-12.1564
▁பாபியன	-12.1564
▁பேரழிவு	-12.1564
▁டமிடுபவர	-12.1564
▁கலிஃபோ	-12.1564
▁இரகசிய	-12.1565
▁நிலைகுலைய	-12.1565
▁2003-	-12.1565
▁விரோதமா	-12.1565
▁மாயையாக	-12.1565
▁4,500	-12.1565
▁2025	-12.1566
▁அநுமானி	-12.1566
▁தனிநபர	-12.1566
▁உரைபனி	-12.1566
▁கிளைகளை	-12.1566
▁துணிமணி	-12.1566
▁திசாலிகளாக	-12.1567
▁பாதியளவ	-12.1567
▁டிசைன	-12.1568
▁விசைபலகை	-12.1568
▁வூதிய	-12.1568
▁ஸானியாவி	-12.1568
▁மனைவியை	-12.1568
▁கலைகழக	-12.1568
▁சரிசமம	-12.1568
▁விடுமுறையை	-12.1568
▁சுபாவம	-12.1569
▁சிறிதளவு	-12.1569
▁சுயநல	-12.1569
▁வடிகால	-12.157
▁எரிபொருள	-12.1571
▁சமாதான	-12.1571
▁ரனிதா	-12.1571
▁அரவணை	-12.1571
ea	-12.1572
▁தலையீட	-12.1572
ஜமான	-12.1572
▁கலோரி	-12.1572
ெதிர	-12.1572
▁கியமானவைகளா	-12.1573
▁தாராளமாக	-12.1573
▁கரியமில	-12.1574
▁சுவையாளர	-12.1574
▁அசாதாரணமான	-12.1574
▁டினியால	-12.1574
▁ஏறுமுக	-12.1574
▁அசாதாரணம	-12.1575
▁400,000	-12.1576
▁மளிகை	-12.1576
லுறவு	-12.1576
▁செயலாக	-12.1576
▁பேசுபவர	-12.1576
▁உருள	-12.1578
▁பேரரச	-12.1578
ஜுவான	-12.1578
▁இறைவன	-12.1578
▁2005-	-12.1578
▁நீரினால	-12.1578
ate	-12.158
▁பனிமலைய	-12.1581
▁வலிமையாக	-12.1582
IP	-12.1582
▁புதையு	-12.1583
▁குழுவின	-12.1584
▁எதியோப	-12.1588
▁வலைதள	-12.1588
▁சவாரி	-12.1589
▁கிரியர	-12.1591
▁நுழைகிறா	-12.1592
▁இரயில	-12.1592
▁அரசிடம	-12.1592
▁டுமனையில	-12.1594
▁பழைமை	-12.1595
▁60-	-12.1597
▁மெசப	-12.16
ராளம	-12.1604
▁மோசமானவை	-12.1608
கரியமான	-12.1608
▁ஜுன	-12.1611
▁மூலையை	-12.1614
▁சுழிய	-12.1617
▁விடுதலை	-12.162
▁அறையின	-12.1621
▁போவதாக	-12.1622
▁தலைமுறையின	-12.1623
▁படமாக	-12.1623
86	-12.1625
▁சிறுவனுடைய	-12.1626
▁மாநாடு	-12.1626
▁அடைவதை	-12.1626
▁தாளர	-12.1627
▁பிரிவினர	-12.1629
ரியில	-12.163
நாள	-12.1631
ுகளாக	-12.1632
▁உயிரியியல	-12.1634
▁போடாத	-12.1634
▁தமானதாக	-12.1636
ஃபர	-12.1636
▁றுசூழல	-12.1637
▁சமாக	-12.1637
▁ளுதலும	-12.1637
▁சதுரமாக	-12.1638
▁ஆளுமை	-12.1638
▁100-	-12.1639
▁ஆடைகளை	-12.164
▁பேரு	-12.1642
▁விடுமுறை	-12.1642
▁காசியாவ	-12.1646
▁மேலாளர	-12.1646
▁மேசைய	-12.1646
▁வலைக	-12.1647
▁செவிலிய	-12.1653
▁புகையிலை	-12.1654
▁டிரைவர	-12.1656
▁ஊடாக	-12.1657
▁படுவதே	-12.1658
▁பிளவு	-12.1661
முடியாதவையாக	-12.1662
▁விதியை	-12.1662
▁உடலுடன	-12.1665
▁வுகளோடு	-12.1666
▁நிதானமாக	-12.1668
▁னடைவ	-12.1669
▁வினியோகம	-12.167
▁வதுபோல	-12.167
▁நேரிடையா	-12.1675
▁கரீதிய	-12.1676
▁ஒலியை	-12.1678
▁ளாகின	-12.1682
▁கிரமாக	-12.1685
▁சிறுமிகளும	-12.1686
▁பகுதியே	-12.1687
▁தெளி	-12.1688
▁ஹாலி	-12.1691
▁சோனி	-12.1694
▁றவளா	-12.1694
▁Co	-12.1697
▁விவாதி	-12.1697
▁சமூகமா	-12.1699
▁சியாளராக	-12.1701
▁களாகவிரு	-12.1701
▁றுபுற	-12.1701
▁திரேலியாவி	-12.1702
▁மெலிதா	-12.1704
▁தினரை	-12.1705
▁மூலமா	-12.1705
▁மேலேயே	-12.1708
▁சுவீடன	-12.1714
▁றியதாக	-12.1715
▁டவனாக	-12.1716
ூடே	-12.1718
▁ரோஷ	-12.1719
▁அடைகிறது	-12.172
▁எதிரியை	-12.1723
▁தைவான	-12.1723
▁கொடுமைக	-12.1725
▁எதிரொலி	-12.1727
▁திரிகை	-12.1727
.9	-12.1728
▁கணிமை	-12.1728
▁உதவியாளர	-12.1728
▁பேணுவத	-12.1737
▁ணியது	-12.1738
▁மழையில	-12.1739
லியாவில	-12.174
▁மீதே	-12.174
▁வாறாக	-12.1742
விதம	-12.1745
▁பொறியில	-12.1746
▁சனைகளையும	-12.1747
▁சவாலானத	-12.1748
▁ணுடன	-12.1748
▁விறகுகள	-12.1749
▁சிறைக	-12.175
▁யக	-12.1751
ானவை	-12.1751
▁நிதியளி	-12.1751
▁ரோடே	-12.1755
வாயில	-12.1756
▁நோயயை	-12.1757
▁ராசி	-12.176
▁நெட	-12.176
▁துபவை	-12.1762
▁அனுபவமாக	-12.1768
▁டலுமா	-12.1769
▁வீணடி	-12.1772
▁னொ	-12.1773
▁வெளிகொணர	-12.1774
ணைத	-12.1774
▁குரலிட	-12.1776
ளிகள	-12.1784
வேற	-12.1784
▁தாயான	-12.1788
▁டோஸ	-12.1789
▁பரியமான	-12.1791
▁ரசிக	-12.1792
▁கியமானதாக	-12.1799
▁தெரியாதவர	-12.1801
▁மையமாக	-12.1802
ரவரி	-12.1804
▁பிடுவது	-12.1804
▁டதாரிகள	-12.1807
▁டவணை	-12.1809
▁திஜி	-12.181
▁டுவோர	-12.1814
▁தகுதியான	-12.1815
▁னோடியா	-12.182
▁றேரிக	-12.1823
▁லுகிற	-12.1824
-4	-12.1825
▁பினையை	-12.1831
▁புறமாக	-12.1833
▁முறிவு	-12.1834
▁அபாரமா	-12.1848
▁சகோதரிகளு	-12.1849
▁அழிவை	-12.1849
வழிப	-12.185
▁கமுடியாத	-12.1851
▁சோகமான	-12.1853
▁டவரை	-12.1855
▁உணவினை	-12.1856
▁பெருமைய	-12.1858
▁கருதுகி	-12.1867
ாதவர	-12.1868
▁ca	-12.1869
ஜம	-12.187
▁விவரண	-12.1872
▁டிஃப	-12.188
▁பாவித	-12.1885
▁சிரியாவில	-12.1886
ிறப	-12.1888
ta	-12.189
▁அவதிபடுகி	-12.1894
▁உருளை	-12.1895
▁நெடுந	-12.1897
▁ஆசியாவில	-12.1898
ுனர	-12.1902
▁பிடுவத	-12.1905
ne	-12.1906
▁இரயிலில	-12.1907
▁ஜோச	-12.1909
▁சூழலை	-12.1909
▁ஆசிர	-12.191
▁விசைப	-12.1912
▁தேவைபட	-12.1912
▁சமாதிகள	-12.1916
▁தளவி	-12.1917
▁ஆதரவளி	-12.1917
▁இதுவாக	-12.1923
▁முதுமைய	-12.193
▁ளுவத	-12.1943
▁பறவைகள	-12.1944
▁வினா	-12.1946
▁பைசா	-12.1948
ிகளையும	-12.1955
▁வலம	-12.1961
நாம	-12.1961
▁வளவ	-12.1965
▁முரணானத	-12.1966
▁மாதிரியின	-12.197
▁போவிய	-12.1972
▁சிகளாக	-12.1975
▁ஆவி	-12.1979
▁தகவு	-12.198
▁மோன	-12.1985
▁யாவ	-12.1985
▁கவலைபடுவ	-12.1992
▁மணிநேர	-12.1993
▁னவெ	-12.1998
படுவோம	-12.2001
▁மாயைகள	-12.2001
▁ஜெயி	-12.2003
ிதமாக	-12.2014
▁உதவியதா	-12.2014
னோர	-12.2016
செறிவ	-12.2021
500-	-12.2027
▁ளாயிர	-12.2028
▁குவியல	-12.2034
▁கடைசியான	-12.2039
▁பிரே	-12.2043
▁எதி	-12.2045
▁உயரம	-12.2046
▁விடையை	-12.2049
▁பனியை	-12.2051
ெப	-12.2052
மையில	-12.2055
ரயிலில	-12.2073
▁ரோல	-12.2074
முற	-12.2085
▁தியமான	-12.2101
சல	-12.2106
▁உலா	-12.2109
▁சிகரமா	-12.2114
ous	-12.2116
மி	-12.2121
லுடன	-12.2122
▁இலாகா	-12.2123
▁முடியுமென	-12.2125
▁சிதறி	-12.2142
▁இவள	-12.2144
▁கனவாக	-12.2148
டுவது	-12.2155
ஹாம	-12.216
னிடம	-12.2166
▁கெதிராக	-12.2168
▁பேரிட	-12.2173
11	-12.2175
▁எழுதினா	-12.2177
▁கேலி	-12.2183
▁வானில	-12.2186
லியன	-12.2187
ரீதியா	-12.2191
▁டசபை	-12.2198
▁ஊடக	-12.2207
▁கவலைபட	-12.2209
▁குரியவர	-12.2211
யமானது	-12.2221
▁நிலா	-12.2228
▁டபோ	-12.2229
ிஞ	-12.2235
▁முர	-12.2237
▁முதலீடுகளை	-12.2241
▁1930	-12.2246
▁மூலை	-12.2249
உள	-12.225
வதாக	-12.2253
▁னணியா	-12.2255
▁ணே	-12.226
சமான	-12.2263
▁சோதி	-12.2269
▁பகுதிகளாக	-12.227
▁கூறவ	-12.2271
▁அவல	-12.2271
▁ஜாத	-12.2272
▁குறையை	-12.2275
▁திண	-12.2278
னியுடன	-12.2283
▁தேவையும	-12.2287
▁அறியா	-12.2294
▁சிதை	-12.2295
▁பெறுகிறான	-12.2297
▁றமடைவத	-12.2298
ிறேன	-12.2307
▁தருகி	-12.2308
▁உணரவே	-12.231
▁வேலையும	-12.2314
▁வாகம	-12.2322
▁எலி	-12.2325
▁வினாடிய	-12.2326
▁சோப	-12.2328
ிவான	-12.2336
ஜால	-12.2337
ளியின	-12.2342
▁களாதே	-12.2346
▁பலி	-12.2349
▁கூறை	-12.2354
விழ	-12.2362
படுவத	-12.2366
▁விழாவ	-12.2366
▁சுலப	-12.2368
▁படுமா	-12.2368
▁மலைகள	-12.2371
▁தொடுகி	-12.2371
▁ஆயுள	-12.2378
▁மாணவன	-12.2382
▁அரைப	-12.2385
சையை	-12.2392
▁ஊடுருவல	-12.2403
▁பியா	-12.2404
▁அவதிக	-12.2404
▁பரிசுக	-12.2407
▁மிஷ	-12.2418
ளையு	-12.2421
னமான	-12.2424
▁இளைஞன	-12.2427
யியல	-12.2433
▁நொ	-12.2439
ைமுகமாக	-12.2441
▁துயரமான	-12.2443
ூலை	-12.2444
வீ	-12.2447
தியோப	-12.245
▁லீஒனி	-12.2452
பிரிக	-12.2463
▁புயல	-12.2464
ran	-12.2469
▁படவ	-12.2474
கோ	-12.2475
▁போரா	-12.2476
ுவ	-12.2478
▁காதது	-12.249
▁பைக	-12.2491
னக	-12.2492
▁ஹைப	-12.2495
ாகத	-12.2495
45-	-12.2498
▁சிகோ	-12.2502
▁192	-12.2509
▁டமுடியும	-12.2514
▁அடஹ	-12.2516
▁கலாகி	-12.2516
▁வாதிக	-12.2521
வணிக	-12.2533
வுகள	-12.2534
னியர	-12.2542
▁விடுவோம	-12.2546
▁கூடியதும	-12.2547
றிப	-12.2551
▁யூன	-12.2554
ளவிலான	-12.2556
▁றுவோம	-12.2566
▁குடிக	-12.2573
▁அரவ	-12.2574
குந	-12.2575
▁மரின	-12.2592
▁நூலக	-12.2595
சான	-12.2601
▁கனவுகளில	-12.2612
▁நிலவர	-12.262
டார	-12.262
▁உரையா	-12.2632
றினார	-12.2636
விரு	-12.2641
ருடைய	-12.2645
▁தொழிலாக	-12.2647
ுன	-12.2648
வென	-12.265
▁றிரு	-12.2651
▁பரிசோதி	-12.2654
▁உரையாட	-12.2656
▁சூறாவளிகள	-12.2657
▁ஊதி	-12.2658
▁சேவைகள	-12.2658
▁நேரான	-12.2662
படுவது	-12.2672
▁டேர	-12.2678
▁மூலத	-12.268
னையோ	-12.2682
▁சீருடை	-12.2687
▁கியுடன	-12.2688
▁c	-12.2697
re	-12.2698
▁றவைக	-12.2699
▁தேடு	-12.27
ஷன	-12.2702
▁சாசி	-12.2706
▁நடனமாடிய	-12.2708
▁அடையவ	-12.2708
▁தெருவ	-12.2713
யாராக	-12.2714
மனமுடைய	-12.2716
▁ராகவ	-12.2722
மொன	-12.2728
▁0.	-12.2735
ிலேய	-12.274
▁வேயில	-12.2748
ளாகிய	-12.2764
▁மேலானதா	-12.2784
▁பிரமி	-12.279
ுகள	-12.2799
▁குழுவி	-12.2816
▁சிறியதாக	-12.2823
ss	-12.2825
▁ராணிய	-12.2825
சீகர	-12.2827
▁கவிதைய	-12.2849
▁சிவி	-12.2853
▁ஆளு	-12.2853
லைய	-12.2853
▁தவள	-12.2858
▁பாதியில	-12.2859
காஸ	-12.2863
▁பதிவே	-12.287
▁பானிய	-12.2872
▁புகைபட	-12.2875
▁மிகுதி	-12.288
▁யம	-12.2884
▁மாறுவத	-12.29
சீக	-12.2904
வடிவ	-12.2905
▁டதோ	-12.2921
▁அலைக	-12.2925
போ	-12.2945
ாயமாக	-12.2946
▁உருவாகிய	-12.2949
▁சால	-12.2953
▁களென	-12.2954
▁ஈரானி	-12.2956
▁கதையின	-12.2958
▁படியு	-12.2963
▁குணாதிசய	-12.297
▁றியமை	-12.2977
னிம	-12.2983
▁பொழிவ	-12.2996
▁டவைகளா	-12.3002
டலில	-12.3003
▁95	-12.3011
▁உடைக	-12.3021
▁பாலினர	-12.3028
சமுத	-12.3043
சியம	-12.305
▁அலைய	-12.3056
டமும	-12.3065
▁நிறுவிய	-12.3067
▁வடிக	-12.307
▁பெருமை	-12.3075
▁கிரிட	-12.3075
si	-12.3096
▁அரி	-12.3102
▁குளிரடை	-12.311
lu	-12.3123
▁விதை	-12.3128
▁தையைய	-12.313
▁சூரியனு	-12.3139
▁பேணி	-12.3159
▁ஒருவ	-12.317
குவத	-12.3176
ிவிடுவோம	-12.3184
ாளிகள	-12.3192
ஹரிய	-12.3194
வளாக	-12.3206
டுகிறது	-12.322
▁போதி	-12.3226
▁படியில	-12.3228
▁பழமொழிய	-12.3249
▁நியோ	-12.3252
வியை	-12.3264
▁துணையா	-12.3266
சோதித	-12.327
ரவு	-12.3275
▁வலிமம	-12.3276
▁சோட	-12.3286
▁தியமே	-12.3288
▁கொயர	-12.3289
▁சலி	-12.3303
▁அடைவதில	-12.3308
▁அளவீடுகள	-12.334
▁குகை	-12.3356
▁றவரா	-12.3382
▁விடுவத	-12.3382
▁சலன	-12.3392
▁ணாடிய	-12.3392
ுமானால	-12.3395
சியை	-12.3408
ேயில	-12.3428
▁முகட	-12.3433
▁கலின	-12.345
▁பரிய	-12.3458
▁கூறுவதா	-12.3463
▁பிடல	-12.3469
▁வேர	-12.347
ீலி	-12.3479
▁டாயிர	-12.348
னையில	-12.349
▁நித	-12.349
▁குபவர	-12.3504
▁கிருத	-12.3507
வையை	-12.3507
ஷின	-12.351
▁சேவைய	-12.3511
▁நிபுணரா	-12.3517
▁கையாளுகி	-12.3523
▁கேக	-12.3526
▁கூரை	-12.3542
▁மறையாணிய	-12.3542
▁திசு	-12.3543
ராட	-12.3554
▁திரவிய	-12.3557
படுகிறோம	-12.3577
யி	-12.3583
சியின	-12.3583
▁சிறுவனை	-12.3585
▁தெரிவ	-12.3611
▁l	-12.3625
▁புகிறாய	-12.3626
▁மலிவு	-12.3633
▁இருள	-12.3646
▁வாகியா	-12.3647
▁சிரமமான	-12.3649
திறன	-12.3655
▁போதா	-12.3672
▁பறைக	-12.3676
▁கரியை	-12.368
▁ராமா	-12.3683
ati	-12.3683
▁வாயுவ	-12.3688
▁ரோப	-12.369
▁ஓரிர	-12.3713
▁சிலிக	-12.3719
▁ரேன	-12.3744
▁பணிபுரிய	-12.3744
போய	-12.3744
▁ஆயுதமா	-12.375
▁புதிரை	-12.3752
▁திச	-12.3758
▁கீடுகள	-12.3769
▁மரணமடை	-12.3775
தாள	-12.3784
▁வாழலாம	-12.3785
றே	-12.3791
▁நிதானமா	-12.3796
▁நூர	-12.3797
டைவை	-12.3811
றிக	-12.3814
▁உலகி	-12.3829
▁தேவ	-12.3852
குறியாக	-12.3855
ிடத	-12.3864
▁அமே	-12.3904
▁ஐயம	-12.3906
▁அறியாமைய	-12.3925
▁பியு	-12.3925
▁எனத	-12.3933
ரமானது	-12.3935
▁தொல	-12.3937
னாள	-12.3943
▁தொழ	-12.3964
▁கினா	-12.3969
▁தொழிலில	-12.3972
▁தீப	-12.3974
டைகளை	-12.3975
ோல	-12.3993
▁காயவை	-12.4
வனுடைய	-12.4001
14	-12.401
▁அகல	-12.4013
▁கிரா	-12.4016
கரமானது	-12.4031
25	-12.4034
▁கருது	-12.4034
நோயாளி	-12.4035
▁கூடியதுமான	-12.4036
ரில	-12.4042
விர	-12.4042
▁பிடிமான	-12.4045
▁அயோ	-12.4048
▁செப	-12.4055
▁வராத	-12.4056
ைவினை	-12.4097
▁சுழலுகிற	-12.4097
▁வீடியோவ	-12.4103
▁சமான	-12.4106
ினர	-12.4122
லியை	-12.4127
ிலான	-12.4132
▁ரீதியா	-12.4142
▁அசைவுகள	-12.4143
ிலி	-12.4149
▁வுலகி	-12.4165
▁பாலை	-12.4167
▁சாவி	-12.4175
▁மூலாதாரம	-12.4187
▁185	-12.4206
பர	-12.4225
▁லாரு	-12.4225
டியின	-12.4243
சுரு	-12.4257
▁பிண	-12.4274
▁கவலைபடுகிற	-12.4278
▁கலவை	-12.4283
▁தெரியவே	-12.4288
▁யாரைய	-12.4289
நம	-12.431
▁பனது	-12.4314
▁டாகியு	-12.4315
▁புதம	-12.4317
▁நிறம	-12.4323
ழு	-12.4349
▁நால	-12.435
▁சகோதரிகள	-12.4366
▁கருவிகளாக	-12.4372
அ	-12.441
▁சிம	-12.4415
ிடுகிறா	-12.4444
▁ஆழம	-12.4484
நிறு	-12.4494
ோசி	-12.45
▁ணைத	-12.4501
▁புவ	-12.4506
தியானால	-12.4523
▁தையான	-12.4533
▁கதவுக	-12.4539
ri	-12.4546
▁முது	-12.4583
▁கொடுமைய	-12.459
▁றவாளிகளு	-12.4594
▁உதவு	-12.4605
▁வளமைய	-12.461
▁ஏழையா	-12.461
▁விடுகிறா	-12.462
▁அழகா	-12.4624
ாசிரியர	-12.4635
ளது	-12.4652
▁டியெ	-12.4674
▁நடிகை	-12.4693
▁மணம	-12.471
▁கொடையாள	-12.4726
▁துறையினர	-12.4728
▁பணியின	-12.474
▁மாடி	-12.4747
▁ஓவியர	-12.4758
▁அவளு	-12.478
▁மல	-12.481
▁தேவையெ	-12.4824
▁கிழமைய	-12.4825
▁பரிசோதனைய	-12.4844
யாது	-12.4862
▁பேற	-12.4909
▁மேசையி	-12.4914
▁வேலியி	-12.4914
யைக	-12.4915
ிரண	-12.492
கரில	-12.493
▁சியடைய	-12.4951
▁படுபவ	-12.4951
▁னகை	-12.4979
▁வாறா	-12.4984
▁நடைபாதை	-12.4989
▁அதிகமாகி	-12.5005
சொ	-12.5015
லாமையை	-12.5019
தாய	-12.5049
குதியை	-12.5057
▁தொலைவா	-12.5076
▁வீதம	-12.5087
காவில	-12.5091
ுவரும	-12.5107
பில	-12.5129
▁இருமட	-12.513
▁இழு	-12.514
▁திறமைவ	-12.5154
▁காலமா	-12.5154
▁அனா	-12.5165
▁நடைமுறை	-12.5169
சிகள	-12.5171
▁காரணிகள	-12.5171
▁Ass	-12.5176
▁காலி	-12.5188
▁லேடி	-12.5189
டவி	-12.5199
▁திருமதி	-12.5215
▁ஆதர	-12.5216
▁விடுவா	-12.5234
▁மகா	-12.5243
▁டோவ	-12.5246
▁193	-12.525
▁பெருகிய	-12.5259
போலவே	-12.5263
▁தேடிய	-12.5273
&	-12.5314
▁வயதாவ	-12.5317
ரைக	-12.5328
▁வெளியேறின	-12.5339
விடுவதில	-12.5342
▁விளையாடுகி	-12.5349
தாரணமாக	-12.5355
ருவிக	-12.5359
சாலியாக	-12.536
▁படகுகள	-12.5364
▁யோச	-12.5369
▁எளிமையில	-12.5377
▁மனநிலைய	-12.5382
ுடையது	-12.5404
நர	-12.5413
▁ரன	-12.5434
டேன	-12.5453
▁எறிவ	-12.5458
▁யாத	-12.5488
ொருவர	-12.549
▁வேல	-12.549
ஈட	-12.5498
▁புனை	-12.5505
▁ஹெர	-12.5508
ஜாப	-12.5539
சுத	-12.5554
▁நூ	-12.558
▁சைன	-12.5581
▁காகத	-12.5591
▁ஹரியாணாவ	-12.5592
▁டுபிட	-12.5595
▁வடம	-12.5596
ாகி	-12.5612
▁அதிசயம	-12.5614
▁கிண	-12.5616
▁கிரி	-12.5616
ாமே	-12.5639
பிடி	-12.5641
முடியாதவைகள	-12.5674
▁புட	-12.5679
ssa	-12.5686
துடன	-12.57
பான	-12.5703
கிறதா	-12.5723
▁தேறிய	-12.5723
▁டுவருவத	-12.5726
▁ஊடகம	-12.573
▁துரு	-12.573
▁ஆதாரமா	-12.5732
ிரமாய	-12.5739
▁ஆசைபடுகி	-12.5746
▁பொறிகள	-12.5748
▁தியே	-12.5757
▁தலைக	-12.5766
▁மூத	-12.5776
so	-12.5777
▁சீமா	-12.5785
▁விரிவுப	-12.5815
▁உதய	-12.5823
றது	-12.5824
ழுதை	-12.583
முறையை	-12.584
தையை	-12.5842
கிர	-12.5843
▁பாளிகள	-12.5853
ளியே	-12.588
னியாவி	-12.5884
▁கூடாரம	-12.5894
▁வலிய	-12.5897
2,000	-12.5943
▁பெரித	-12.5949
▁நாவில	-12.5967
ியமில	-12.5967
▁சமானம	-12.5971
▁ணச	-12.5991
இப	-12.6004
▁அடிம	-12.6005
▁மையாகவ	-12.6006
▁ணுகிறா	-12.601
ழுதும	-12.6015
ணிமை	-12.6016
▁சியடையவ	-12.603
▁விடுதி	-12.6038
▁நடவ	-12.6044
▁இடமா	-12.6046
▁பேசியதில	-12.6054
▁தொகுதிகள	-12.6056
▁புழ	-12.6099
வாள	-12.6107
▁லையெனி	-12.6138
டிகளே	-12.6148
பாடு	-12.6151
ாரமாக	-12.6159
▁தடவை	-12.6172
▁194	-12.6175
ுவிய	-12.618
▁காடுகள	-12.6182
களே	-12.6185
சப	-12.6188
ுகையில	-12.6193
▁போடுவது	-12.6193
▁விபர	-12.6194
ேச	-12.6203
▁விலைக	-12.6213
▁திசைவி	-12.622
▁லியான	-12.6221
சாம	-12.6225
ுமுறை	-12.6236
றுவட	-12.6249
▁பைகள	-12.625
▁கனடாவி	-12.6254
கியது	-12.6285
▁மேலிரு	-12.6286
▁பொழுதை	-12.6288
▁விடா	-12.6302
உண	-12.6334
ழுது	-12.634
▁மழைய	-12.6369
▁பனைக	-12.6378
▁அரசியலில	-12.6389
▁நினைவி	-12.6394
▁அவரவர	-12.6401
▁முதலா	-12.6404
ோடி	-12.6406
அதை	-12.6406
டிருக	-12.641
▁வியறிவ	-12.6416
ஸிஜ	-12.6421
ிகை	-12.6422
▁தனைய	-12.6432
▁கவாத	-12.6438
▁முயலுகிற	-12.6439
▁சவ	-12.647
பது	-12.6483
▁சமத	-12.649
ரணம	-12.6493
ஆண	-12.6495
ுகளுடன	-12.6501
▁கெய	-12.6519
▁பதவிய	-12.6522
▁தடைக	-12.6535
பவராக	-12.6539
அழகானது	-12.6547
▁கொடுமையி	-12.6552
▁கலையை	-12.657
▁வாண	-12.6577
வட	-12.6584
தது	-12.6596
▁சியி	-12.6606
▁ணய	-12.6612
▁பரிசுகள	-12.6619
▁55	-12.663
▁லீல	-12.6645
யாகி	-12.6648
▁அழக	-12.6656
▁மொர	-12.6665
லினா	-12.6667
▁ஐர	-12.6679
▁பொற	-12.6686
ாவி	-12.6704
நிலையை	-12.6719
▁யத	-12.6719
▁வியாதிய	-12.6737
c	-12.6745
தைகள	-12.6758
▁தகடுகள	-12.6764
இரண	-12.6766
கிரா	-12.6786
லைகளை	-12.6792
58	-12.6821
▁படுகிறத	-12.6829
ாதவனாக	-12.6831
▁நிருவ	-12.6834
▁வேதனையா	-12.6846
▁தரு	-12.6846
ாடுகள	-12.6851
றிவி	-12.6861
▁மூலாதார	-12.6868
▁எளிமைய	-12.6871
▁செனே	-12.6883
ெறி	-12.6883
லாதது	-12.689
ிதமான	-12.689
▁தலைவரா	-12.6903
ேறு	-12.6909
றைந	-12.691
32	-12.6923
▁வீரம	-12.693
▁ஆணைய	-12.6932
▁லாச	-12.6938
துபோன	-12.6941
▁பலகைகள	-12.6979
▁வினைத	-12.7002
▁விடுதியி	-12.7007
நட	-12.7014
காய	-12.7033
▁பனவ	-12.7055
சே	-12.7057
▁சாவுகள	-12.7066
ாரத	-12.7068
▁முடிவின	-12.7074
▁எளிதா	-12.7085
ூர	-12.71
ce	-12.7124
▁லார	-12.713
▁ஸர	-12.7131
▁அதிகாரியி	-12.716
▁கூடியத	-12.7171
ளன	-12.7179
▁நிதானம	-12.7207
▁துகிறத	-12.7208
▁பதவிகள	-12.7214
காலம	-12.7217
▁தொலைவாக	-12.722
டைகிறது	-12.7225
ஹி	-12.7242
ாச	-12.7243
முடி	-12.7253
▁சோற	-12.7254
ிடிப	-12.7263
▁பலரு	-12.727
▁பனிய	-12.7275
▁தியாய	-12.7297
கையாக	-12.7309
▁பிரபலம	-12.7344
யானா	-12.7346
ிமா	-12.7351
ிதாக	-12.7376
ெடு	-12.7388
▁ஆளா	-12.7419
▁ஜு	-12.7422
பெற	-12.7445
▁விவரம	-12.7446
▁வீடியோ	-12.7456
▁உடையவ	-12.7469
▁காஃ	-12.7488
ுவதும	-12.7491
▁சேருவத	-12.7502
ூற	-12.7508
யாத	-12.751
ுதிகளில	-12.7517
▁மனிதனா	-12.7517
▁பினா	-12.7526
▁பிடவ	-12.7528
▁பாகம	-12.7529
ிடாமல	-12.7535
▁பனான	-12.7541
வருட	-12.7546
▁னைகள	-12.7547
தேச	-12.7554
▁முதுக	-12.7567
மையல	-12.7573
▁போடவ	-12.7576
▁வச	-12.7576
▁பானை	-12.7579
▁மிட	-12.7583
▁Pr	-12.7591
▁பென	-12.7599
ாளனாக	-12.7604
டாமல	-12.7611
▁விரை	-12.7613
▁றுபோக	-12.7622
▁யாரை	-12.7628
▁120	-12.7636
லெட	-12.7644
▁நுழைவ	-12.7656
▁பளவை	-12.7665
பள	-12.7704
றைய	-12.7719
கச	-12.7737
▁ஆடை	-12.7764
லையோடு	-12.7765
▁லதா	-12.7766
ாந	-12.7768
அப	-12.7777
▁பீடுகள	-12.7797
கல	-12.7807
▁கரு	-12.7808
வளிக	-12.7824
யினர	-12.7833
உணர	-12.7833
▁நாளாக	-12.7845
▁உதவுகிறா	-12.7863
தையா	-12.787
▁சேய	-12.788
▁தேடின	-12.7897
▁படியெ	-12.7925
▁றுவ	-12.7929
▁னு	-12.7943
ையு	-12.7952
▁அடிய	-12.7961
ாதே	-12.7976
▁உதரண	-12.7977
▁தெரிகிறத	-12.7979
▁டினா	-12.7997
ிவர	-12.8009
▁விழைய	-12.8012
▁ஓடுகி	-12.8028
▁ளாடைய	-12.8034
வுட	-12.8038
▁ஆகிற	-12.8045
▁அளவீடு	-12.8055
▁டுமி	-12.8057
நன	-12.8086
தியாக	-12.8103
பித	-12.8139
றையின	-12.817
▁அரு	-12.8176
ுறைகள	-12.8179
▁வலமா	-12.8192
▁நிலையி	-12.8221
ெருக	-12.8232
றையாக	-12.8249
டுகிறா	-12.8251
▁அதிகமாவத	-12.8253
டல	-12.8254
▁பிரகாச	-12.826
na	-12.8265
ானியா	-12.8266
ேசிய	-12.8275
▁மாறுகிற	-12.8275
வளா	-12.8275
Ta	-12.8289
▁முறைகளில	-12.8295
நகர	-12.8298
▁புதி	-12.8319
ீல	-12.8325
▁கடலு	-12.8336
▁ணையில	-12.8374
கிய	-12.8386
▁வழிமுறைகள	-12.8388
▁லிபேரியா	-12.8401
ாரென	-12.8402
டிகார	-12.8408
ாயி	-12.8418
மாகிவிட	-12.8432
டே	-12.8445
▁தலா	-12.845
கிறான	-12.8454
றக	-12.8457
▁கூறுக	-12.8461
டைவத	-12.8461
டமானது	-12.8469
டியே	-12.8471
▁பலவீனப	-12.8473
பிறகு	-12.8481
லேய	-12.8495
▁தொலைபேசிகள	-12.8503
ிள	-12.8503
▁தீவிரம	-12.8506
▁நீடி	-12.8524
▁அவசரம	-12.8547
ைபேசிகள	-12.8549
▁வேகமா	-12.8553
ுகளும	-12.8556
▁தரவ	-12.8566
▁றுச	-12.8582
▁ஏல	-12.8588
▁குணாதிச	-12.8632
▁புரிவத	-12.8656
▁டெழ	-12.8684
வைகள	-12.8686
▁போகிறா	-12.8689
▁விகித	-12.8693
▁வாழவ	-12.8703
▁களனைவரு	-12.8705
ணியாக	-12.8714
▁ஜிய	-12.8717
▁1800	-12.8723
ுபவை	-12.874
▁உறவுகள	-12.875
நினைக	-12.8751
ரியும	-12.8762
ழைந	-12.8766
குதித	-12.8784
▁டவைகள	-12.8809
▁பிரிவு	-12.8828
▁தவரா	-12.8843
▁ஒளியி	-12.8847
ிம	-12.8849
▁கூடியதாக	-12.8856
▁சிறிதாக	-12.8867
இய	-12.8872
▁சலை	-12.8873
▁லியம	-12.8882
ஹு	-12.8884
▁பெய	-12.8896
▁ஆடுகள	-12.89
▁காதலி	-12.8912
மாமி	-12.8923
ாதவளா	-12.8943
▁எவரா	-12.8945
st	-12.8948
மூலம	-12.8972
வுகளில	-12.8986
▁முழுவதிலுமா	-12.8996
▁அசைவு	-12.9008
▁நினைவுகள	-12.901
▁அசைவுகளை	-12.9017
பீட	-12.9017
றைகளை	-12.9018
வேறு	-12.9021
நாடுகள	-12.9021
▁போராடின	-12.9036
oc	-12.9052
தனையோ	-12.9059
ாடோ	-12.9059
டையாது	-12.9063
கூற	-12.9064
தோற	-12.9067
ுமானம	-12.908
▁ஒலிவ	-12.9083
▁சுமை	-12.9083
எவ	-12.9103
▁ணையை	-12.9106
▁மரபுகளை	-12.911
ஷா	-12.9131
▁பதிவுக	-12.9132
ியம	-12.9147
▁கவச	-12.915
▁ளம	-12.9158
ிதான	-12.9168
போட	-12.9176
▁ஊன	-12.9183
▁சூறாவளி	-12.9187
சேர	-12.9196
▁பரிசோத	-12.9199
▁மனதுக	-12.923
ேனிய	-12.9242
▁கூடம	-12.9249
▁போராடுவது	-12.926
▁வாசனை	-12.9261
எனவே	-12.9272
ீப	-12.9275
▁தியமா	-12.928
▁மச	-12.9337
ிரப	-12.9342
▁மையைய	-12.9351
▁பொறுமை	-12.9359
▁முதிய	-12.9384
▁ஃ	-12.9421
சிறிய	-12.9433
ைவு	-12.9439
நிலைய	-12.944
▁டிகளா	-12.9443
தவிகளை	-12.9444
ுகளின	-12.9465
ிகளாக	-12.9469
▁ஜெப	-12.947
▁கவலையு	-12.9503
▁னதை	-12.9508
▁மைதான	-12.9509
▁சகித	-12.9515
▁தருவதா	-12.9524
வாஷ	-12.9532
▁ராணி	-12.9546
சைனை	-12.9563
நியோக	-12.9584
ரக	-12.9592
பொருளாதார	-12.9593
ஷிய	-12.9602
வதால	-12.9611
ிஜி	-12.9611
கிராம	-12.962
லர	-12.9627
▁பாளிய	-12.9628
▁சலில	-12.9636
▁கவலைபடா	-12.9637
▁முனைகிற	-12.9645
▁றுமைய	-12.9646
▁மறைவ	-12.9648
நாடுகளில	-12.9652
▁தியதை	-12.9653
▁தியி	-12.9665
ழி	-12.9676
ரபு	-12.9678
▁கடுமைய	-12.9679
▁ஊடுருவத	-12.9681
ருவத	-12.9682
ுபடுத	-12.9684
வேயில	-12.9688
▁பனைகள	-12.9705
▁அவளுட	-12.972
▁தொழிலாளி	-12.9724
▁குடிய	-12.9726
us	-12.9729
மனிதர	-12.9761
▁அதிகமா	-12.9763
▁சானியா	-12.9766
▁பெயரின	-12.9798
▁ளல	-12.9827
▁திரமான	-12.983
தவர	-12.9854
ாபா	-12.9859
மாதிரி	-12.9878
▁லேன	-12.9879
சரியான	-12.9891
▁பறி	-12.9895
▁துவமனைகளு	-12.9905
▁றீ	-12.9907
▁ணினா	-12.9909
▁குவதோ	-12.9925
புத	-12.9929
▁எதுவாக	-12.9936
கூடாது	-12.9944
▁நேச	-12.9952
▁கதைய	-12.9955
ாகியது	-12.9962
ினா	-12.9976
பகிர	-12.9988
▁பொழுதைய	-12.9989
இவை	-12.999
உலகின	-12.9994
நிறுவன	-12.9996
ியப	-13.0003
▁தெழு	-13.0008
மடைதல	-13.0011
▁கைபேசியி	-13.0016
பா	-13.0027
வனா	-13.0043
▁வோரு	-13.0044
ேடு	-13.0051
வழ	-13.0053
▁குமிழிகள	-13.007
சுவ	-13.0073
▁பேரா	-13.0074
▁தனமா	-13.0077
ுறையின	-13.008
தராக	-13.008
மீ	-13.0082
▁வயாத	-13.0083
ததாகவும	-13.0087
சூழல	-13.0091
ுழுக	-13.0098
சரியாக	-13.0109
ாதது	-13.0116
▁முறையி	-13.0121
▁வரியி	-13.0148
▁தியாவை	-13.0163
▁திடமா	-13.0168
புறம	-13.0171
▁கடன	-13.0199
▁முடிவி	-13.0201
அச	-13.0209
▁அரசின	-13.0212
▁ஒருக	-13.0227
▁நிமி	-13.0234
விதமாக	-13.0241
ீடு	-13.0268
டுவ	-13.0269
ுறை	-13.027
ிணை	-13.0284
▁முழுநிறைவ	-13.0285
கருத	-13.0288
▁டாளவ	-13.0289
▁பிரிவுக	-13.0295
▁பிரதம	-13.0295
▁தேறி	-13.0306
▁உடனு	-13.031
se	-13.0311
▁லாவகை	-13.0315
ஆற	-13.0315
சத	-13.0336
▁ஒருசில	-13.0343
▁திகதி	-13.0345
▁ளாடை	-13.0351
▁பீச	-13.0367
வமைகள	-13.0372
TED	-13.0372
▁படாதவ	-13.0379
▁துரையாட	-13.0382
ாடா	-13.0384
களத	-13.039
ாஃக	-13.0393
னுமொரு	-13.0399
▁டுகொ	-13.0404
▁ஊரில	-13.0422
▁பறிவி	-13.0433
▁குழாயை	-13.0436
▁4,00	-13.0447
▁துணிவ	-13.0459
ir	-13.0464
அதிர	-13.0476
விலக	-13.0481
▁ஊச	-13.0502
ஆப	-13.052
வுடல	-13.052
ிஃ	-13.0525
நிகர	-13.0534
▁பாதைக	-13.0538
நவீன	-13.0541
▁சாலைகளை	-13.0546
விதி	-13.0552
களேயான	-13.0558
tr	-13.056
ணு	-13.0561
▁னேறு	-13.0562
▁அபூ	-13.0577
பகுதியில	-13.0578
கான	-13.0581
தூ	-13.0586
உன	-13.0592
`	-13.0607
ரியாவி	-13.0617
கீழ	-13.0618
eo	-13.0625
ூல	-13.0626
90	-13.0646
▁நிஜமா	-13.0655
▁டோடு	-13.0664
99	-13.0667
சதவிகித	-13.0667
யாவை	-13.0684
▁அகதி	-13.0705
றுகிறது	-13.0709
ாடிகள	-13.0709
தியான	-13.0711
புயல	-13.0712
வியில	-13.0714
▁தீமை	-13.0722
12	-13.0746
வெள	-13.0749
வரிசை	-13.0757
▁முதுமை	-13.0774
நானோ	-13.0786
7	-13.0788
▁கொடுமைகளை	-13.0789
வசதி	-13.0791
▁திவிடு	-13.0796
▁அளவோ	-13.0802
▁சமாதி	-13.0803
▁முரணான	-13.0805
குறைவான	-13.0805
மிகு	-13.0807
▁திவா	-13.0807
▁அவதி	-13.081
▁பெருவ	-13.0811
லீ	-13.0815
can	-13.0821
ூலிக	-13.083
முறைக	-13.0833
▁மோ	-13.0839
தொகுதி	-13.084
வடிவமை	-13.0848
90-	-13.085
▁நீரில	-13.0851
▁ணுவத	-13.0858
உபயோக	-13.0861
வுலக	-13.0863
முய	-13.0869
1960	-13.0874
▁6,	-13.0875
போகிறாய	-13.0882
ஹீ	-13.0893
▁பலமான	-13.0895
ஊழியர	-13.09
18	-13.0903
சீரமை	-13.0909
▁பதா	-13.0911
புரோ	-13.0914
▁சுவாரசிய	-13.0916
▁ஜெய	-13.0917
னென	-13.0918
▁ஆசியாவி	-13.092
2007	-13.0921
2008	-13.0924
▁விடுதிக	-13.0927
▁மெதுவ	-13.0928
▁கருதி	-13.0929
முறிவு	-13.0934
அதிகாரம	-13.094
நடுநிலை	-13.0949
▁சலுகைகளை	-13.0955
▁திறமைகளை	-13.0956
▁சாதனையா	-13.0961
▁வாழலா	-13.0965
ஷேல	-13.097
வழிமுறையை	-13.0979
புரொ	-13.0985
▁ஓடு	-13.0991
▁சிலரு	-13.1017
வேளையில	-13.1022
▁முறையிலு	-13.1023
▁துறைகளி	-13.1028
லையென	-13.1035
சியான	-13.1038
▁ணூற	-13.1042
ஊடக	-13.1049
▁அறிவிய	-13.1051
▁றுமை	-13.1052
▁காலமான	-13.1062
நீதிகள	-13.1067
முடியா	-13.1078
▁ஹரியாணாவி	-13.1085
கோடி	-13.1088
▁டதாரி	-13.1099
எழு	-13.1102
வாதிகளைய	-13.1104
▁சிரியாவி	-13.1134
வலிமைய	-13.1159
யதோ	-13.1168
▁ஊரா	-13.1181
தருவது	-13.1183
▁800	-13.1184
te	-13.1192
இருந	-13.1193
▁வெளிகொண	-13.1203
▁பியதை	-13.1205
▁12,	-13.1206
ரியே	-13.1207
பாடான	-13.1208
▁ஞானிகளா	-13.121
▁தவா	-13.122
ஆனால	-13.1221
ியோவில	-13.1221
▁ஒலிகள	-13.1228
500	-13.123
சோத	-13.124
▁டீரி	-13.1242
விழை	-13.1246
ஜாத	-13.1247
▁முடியாதவை	-13.125
▁பரிசோ	-13.1254
ol	-13.1261
தத	-13.1267
முடையவ	-13.1268
▁திரேலியா	-13.1275
▁விடைய	-13.1278
▁சோத	-13.1279
சியு	-13.1286
▁டுபவர	-13.1288
▁வினியோக	-13.1295
தேஷ	-13.1296
▁கூடா	-13.1299
▁விவா	-13.1304
▁சிலரே	-13.1308
ஹார	-13.1314
▁டட	-13.1326
மாளிக	-13.1328
▁கடவுளி	-13.1338
▁ஈடுபாட	-13.1339
வைகளாய	-13.1345
▁உடலு	-13.135
▁பியாவி	-13.1351
ணிமைகள	-13.1355
நாளைய	-13.1356
பிரஜ	-13.1361
▁கணினிகளை	-13.1364
டிந	-13.1367
டுதல	-13.1372
▁விதைக	-13.1384
▁நீதி	-13.1387
லீல	-13.1396
▁De	-13.1403
▁கலா	-13.1406
ழிவு	-13.1417
தைத	-13.1417
▁பலவகை	-13.1417
லாப	-13.1421
▁திரேலிய	-13.1428
▁ஆசியா	-13.1433
ீக	-13.1435
பேரா	-13.1449
▁197	-13.1454
▁ஷோவ	-13.1456
ொடரின	-13.1457
▁மோச	-13.1459
▁உணருகிற	-13.146
▁சிரியா	-13.146
▁இறைய	-13.1481
ொடு	-13.1481
வரிகளை	-13.15
சிடி	-13.1505
டுவதை	-13.1511
ாடும	-13.1514
ராணுவ	-13.1515
▁டவனா	-13.1516
▁பரியம	-13.1521
nt	-13.1526
▁ஆசிரிய	-13.1531
▁முகமைய	-13.1531
ொழிய	-13.1531
ia	-13.1532
▁நாடாவ	-13.1534
▁ஒருவகை	-13.1537
ரேலியா	-13.1543
லமாரியில	-13.1544
ழியராக	-13.1547
▁பாடசாலை	-13.155
திகாரி	-13.1552
பொழுதி	-13.1558
TE	-13.1559
4,5	-13.1561
ED	-13.1565
ar	-13.1565
றுசீ	-13.1568
▁1990	-13.1569
▁காசிய	-13.1572
▁அளவீட	-13.1572
▁AI	-13.1573
திகாரம	-13.1574
as	-13.1575
ie	-13.1576
▁மையிலேய	-13.1578
வியா	-13.1578
ாவேச	-13.1582
,500	-13.1584
▁நேரடியா	-13.1586
தமாகி	-13.1587
▁மையா	-13.1589
▁2003	-13.1589
ராளமாக	-13.1593
சமானதாக	-13.1595
▁கையுட	-13.1595
oo	-13.1598
ிரேட	-13.1608
ஆல	-13.1615
கீடு	-13.1617
சுழ	-13.1617
▁காவலர	-13.1618
ுதியாக	-13.1621
▁பேராச	-13.1623
▁தாமத	-13.1628
ராசிக	-13.1632
யகூடிய	-13.1636
▁சோகம	-13.1638
▁அசாதாரண	-13.1645
▁பியத	-13.1647
சமடை	-13.1652
ுகோலை	-13.1665
தியினர	-13.1667
கரியம	-13.168
ரூபி	-13.1682
▁சதவிக	-13.1683
▁முழ	-13.1686
ூதிய	-13.1686
▁கோலை	-13.1697
மேஜ	-13.1707
ானிய	-13.171
காப	-13.1717
▁காணமுடி	-13.1726
▁மாடிக	-13.1727
▁கியமானவை	-13.173
மிடுகி	-13.173
▁வருமா	-13.1733
▁அசாத	-13.1734
லிபெர	-13.1739
முதாய	-13.1741
லிஃப	-13.1753
3-	-13.1756
▁30,	-13.1757
▁மீறி	-13.1765
84	-13.1767
ாணிக	-13.1771
▁விருத	-13.1779
போலா	-13.1779
ஸி	-13.1786
வதியாக	-13.1788
படியே	-13.179
un	-13.1792
▁கமா	-13.1792
சைட	-13.1802
ொடும	-13.1803
ரோஷ	-13.1811
▁3,	-13.1813
▁மாவை	-13.1818
சாரிக	-13.1818
▁ரவர	-13.1819
ீய	-13.1825
ூடியது	-13.1832
தூர	-13.1832
திகமாக	-13.1834
▁அழிவ	-13.1849
பயன	-13.185
▁பிலேய	-13.185
ோய	-13.1872
▁மறுமு	-13.1878
குச	-13.1897
▁மரி	-13.1902
பெர	-13.1904
▁மலைக	-13.1907
▁ராக	-13.1909
மாறி	-13.1914
ிமையானத	-13.1916
▁சாதாரணம	-13.192
▁வாளி	-13.1921
▁விகளின	-13.1922
▁திலு	-13.1924
68	-13.1925
ோலாக	-13.1931
ெளிவ	-13.1932
▁முடிவுகளில	-13.1933
▁வலைத	-13.1941
▁தாராள	-13.1943
▁கையால	-13.1944
▁கொலைகள	-13.1947
▁பமயம	-13.1948
▁புச	-13.1948
ிவாக	-13.1949
▁லைடுகள	-13.1952
ானவரா	-13.1957
புகா	-13.1959
▁தொகையி	-13.1962
ொஷ	-13.1963
▁வறுமைய	-13.1967
னருக	-13.1972
TA	-13.1974
▁ஆலோ	-13.1978
புனரமை	-13.1979
சூட	-13.198
▁ஆசிய	-13.1989
▁றபோத	-13.2003
போனது	-13.2003
▁வெளியிடு	-13.2017
மானதா	-13.2018
▁பரிமா	-13.2022
29	-13.2034
▁றவைய	-13.205
▁அனு	-13.2051
▁கிலோவ	-13.2058
வருகிறது	-13.2061
62	-13.207
வியதா	-13.2071
▁முடிவுகளை	-13.2076
ுபவ	-13.2079
ாரா	-13.208
▁குறைகளை	-13.208
விவர	-13.2081
டைகிற	-13.2086
இது	-13.21
▁பாபி	-13.21
லூ	-13.2109
▁சதுரம	-13.2112
ளியில	-13.2114
▁மெச	-13.2117
▁ஃபி	-13.2124
ுவல	-13.2131
▁நெற	-13.2153
▁பறைகள	-13.2155
▁கரிப	-13.2157
றுபடுவோம	-13.2166
▁பரிசோதனைக	-13.2171
தவை	-13.2173
தெற	-13.2174
படுவதை	-13.2177
▁னரா	-13.2177
கிரக	-13.2189
▁காமலே	-13.2192
▁விழாவி	-13.2198
பனி	-13.22
சென	-13.2209
▁அணுகும	-13.2212
▁பிடுகிற	-13.2222
▁வியாதிக	-13.2222
ரையோ	-13.2226
▁போலாவ	-13.2232
மானமாக	-13.2244
▁சேரவ	-13.2248
பிய	-13.2249
▁பறவைக	-13.2274
▁உணருவ	-13.2284
▁நிரா	-13.2294
▁மேலேய	-13.2295
900	-13.2302
ாசமாக	-13.2303
▁பொருளான	-13.2307
ைகளாலேய	-13.2328
மீன	-13.233
டெ	-13.2334
▁வாசிக	-13.2335
ளைக	-13.2335
▁உலகிலே	-13.2351
யினா	-13.2356
▁அறியும	-13.2366
▁கொடை	-13.2397
▁ஏழைக	-13.2401
▁வழிக	-13.2403
▁படமா	-13.241
▁நினைவுக	-13.2423
▁குரி	-13.2443
▁அவரு	-13.2449
▁குமாற	-13.245
▁விளைவுக	-13.245
▁போலா	-13.2456
▁துவமனைகள	-13.2457
▁பகுத	-13.2459
▁அவையி	-13.2463
▁அதனாலே	-13.2468
வகை	-13.2481
டுமானால	-13.2485
▁இயலாமை	-13.2485
▁திலேய	-13.2521
மோச	-13.2549
▁உணவின	-13.2556
கொய	-13.256
▁பதவிக	-13.2565
▁சுமாரா	-13.2566
▁தெள	-13.2568
ேயா	-13.2572
▁வருடப	-13.2575
பழகு	-13.2575
▁கருவ	-13.2578
விலை	-13.2583
▁தபோத	-13.2592
சிகளை	-13.2608
றுவல	-13.2614
மைகளைய	-13.2621
▁சோதனைக	-13.2632
ணிகளை	-13.265
குற	-13.2651
▁முயலுகி	-13.266
▁தடைய	-13.2661
▁ளாமல	-13.2671
▁அமைதியாகவ	-13.2672
சைவு	-13.2676
▁மலிவா	-13.2679
திகளில	-13.2683
மாதிரியா	-13.2686
ியமானதாக	-13.2688
▁கநிலை	-13.2695
ுவதிலும	-13.2725
றிதாக	-13.2734
▁சியம	-13.2739
▁சிபி	-13.275
ணிய	-13.2757
▁ஹால	-13.2758
▁நர	-13.2764
▁நியா	-13.277
காலா	-13.2778
▁தீவ	-13.2793
▁பசியைய	-13.2796
கோப	-13.2796
▁விதமா	-13.2801
▁ளிவி	-13.2814
ரோகி	-13.2821
ருவரிடம	-13.285
▁அணுகல	-13.2862
▁மறைவி	-13.287
▁அசைவ	-13.2887
▁யோசனைக	-13.2905
ோனிய	-13.2908
டையவை	-13.2917
▁தகூடிய	-13.2922
ாயம	-13.2922
▁பாண	-13.2935
▁நோயாக	-13.2937
▁ஆகிவிடு	-13.294
▁ராச	-13.2943
▁அதேயளவி	-13.2943
னவுக	-13.2952
▁ஆணா	-13.2954
▁உதிர	-13.2955
ியாய	-13.2993
▁றொ	-13.2995
ளு	-13.2998
ரியோ	-13.3
ருதலா	-13.3012
▁குறு	-13.3014
▁விவ	-13.3022
▁கொடூரமா	-13.3024
▁இதுவா	-13.3025
சாரா	-13.3026
வெளி	-13.3035
யிரு	-13.3035
ீதிய	-13.3043
றிகள	-13.3054
பரிம	-13.3054
னியை	-13.3068
▁துவதாக	-13.3072
ளான	-13.3087
யமே	-13.3112
யாதவர	-13.3112
▁நீரி	-13.3155
னதும	-13.3163
▁வையு	-13.3182
▁தொடரின	-13.324
ிஸி	-13.3242
வலுடைய	-13.3262
▁நாடுகிற	-13.3286
னதாக	-13.3293
▁விதிக	-13.3295
▁இதனில	-13.3304
▁கவித	-13.3313
டோஸ	-13.332
▁பொருளாத	-13.3339
▁திறவு	-13.3344
▁இடைம	-13.3353
▁டமா	-13.3354
தீப	-13.3354
▁அதனுட	-13.3354
▁வரிவ	-13.3357
இரு	-13.3366
▁முயலு	-13.3368
▁தசை	-13.3375
▁வதைய	-13.3382
திச	-13.3386
▁டண	-13.3387
ளாயிர	-13.3403
▁துடை	-13.3413
▁பெசி	-13.3435
70-	-13.3468
யோகம	-13.3492
▁பொறியா	-13.3501
▁புரோ	-13.3509
ையுடையவ	-13.3512
டாத	-13.3534
பிர	-13.3551
▁நிதிக	-13.3563
▁அறுத	-13.3565
▁குவிய	-13.3572
லிபோ	-13.3586
ுவரை	-13.3606
▁சமா	-13.3624
▁லுமா	-13.3637
விய	-13.3648
▁உய	-13.3654
ுதலை	-13.3656
யாண	-13.3662
▁மாறியத	-13.3662
▁குடு	-13.3675
ரெ	-13.3709
புற	-13.3712
▁விழும	-13.3715
30-	-13.3719
▁உப	-13.373
▁நாசி	-13.3731
▁புறணிக	-13.3749
ிதிகளை	-13.3762
▁விழைகி	-13.3788
▁மெதுவா	-13.379
▁நியம	-13.38
ிடா	-13.3805
நுண	-13.3808
▁புகளு	-13.3808
ேவைகளை	-13.3814
▁படைகள	-13.3833
▁எமி	-13.3862
▁கொலைய	-13.3875
ாரியம	-13.3889
சிலர	-13.3897
▁உதவுகி	-13.3906
▁றெ	-13.3915
▁கடுமையா	-13.3929
ியாவை	-13.394
ிகமான	-13.394
▁பிரசவ	-13.3941
▁போதுமி	-13.3951
விடுவோம	-13.396
லுவா	-13.3993
▁சனைய	-13.4
றைமை	-13.4007
ியபடி	-13.4037
▁றுகிறத	-13.4056
ியோவை	-13.4106
▁தலைவ	-13.411
ரசம	-13.4116
▁கயோ	-13.412
▁விடுவி	-13.4152
பினா	-13.4164
லப	-13.417
▁பிலே	-13.4179
▁சேவைக	-13.4179
▁சமாத	-13.4217
▁ணீரு	-13.423
▁தயா	-13.4238
ிவிலக	-13.4258
ரிதான	-13.429
ளியிட	-13.4343
▁துவி	-13.4345
மார	-13.4355
ுண	-13.4366
அது	-13.4384
▁வானவி	-13.439
தலி	-13.4398
▁இயலாவ	-13.4405
▁பதினொ	-13.4417
திகளை	-13.443
▁உதார	-13.4441
ிடும	-13.4448
மூளை	-13.4454
▁முகவ	-13.4477
சரிப	-13.4478
ணியில	-13.4481
▁பரி	-13.4483
▁அவனு	-13.4495
▁நுழைக	-13.4497
வாண	-13.4508
ுடிந	-13.4518
▁அடிகள	-13.4521
ையோட	-13.4537
ானதாக	-13.4544
▁பாலி	-13.4544
▁கபடுகி	-13.4548
▁னுமொ	-13.4555
ளவுக	-13.4555
▁பிரேசிலி	-13.456
▁சிறுமிக	-13.4594
பய	-13.46
▁தெரிகிற	-13.4607
▁தொலைபேசிக	-13.4617
கியோடு	-13.4637
▁உரைப	-13.464
லெழு	-13.4642
▁சனம	-13.4666
▁றவைகளி	-13.4675
ிஸில	-13.468
▁வழிமுறைய	-13.4689
55	-13.47
▁தியன	-13.4725
அழு	-13.4741
தலாக	-13.476
படை	-13.4761
கிரி	-13.4836
தாகிவிட	-13.4836
▁சதவீதமா	-13.4838
பாய	-13.4839
▁ளைகளு	-13.4849
▁பரிசோதனைகள	-13.4868
ியக	-13.4893
தெர	-13.4895
▁ணைய	-13.491
யுனி	-13.4911
சோதனைகளை	-13.4917
▁தொடுக	-13.4918
மரண	-13.499
ிவில	-13.5002
▁பேறி	-13.504
▁கேடுகள	-13.5049
ிடுகிற	-13.505
சால	-13.505
சின	-13.5052
படுகிறா	-13.507
▁ஆசிரியரை	-13.508
▁நிகழும	-13.5097
பாச	-13.5121
ராசி	-13.5164
லு	-13.5165
▁நறும	-13.5193
ாதாரத	-13.52
டையா	-13.5202
ூம	-13.5219
▁நோயி	-13.5225
ளோடு	-13.523
லோச	-13.5244
▁களிம	-13.5277
▁சகத	-13.5308
டில	-13.5324
றத	-13.5341
▁னைக	-13.5457
▁மெத	-13.5461
▁லிகள	-13.5471
டிர	-13.5487
லைத	-13.549
சுவத	-13.5512
▁பலை	-13.5514
▁லாமாக	-13.5516
▁நுழைவத	-13.5519
▁வரிசைக	-13.5535
▁முழுவது	-13.5548
திபர	-13.5557
▁மனிதனு	-13.5572
▁டியி	-13.5592
▁நோயா	-13.5618
ணையை	-13.5619
▁களத	-13.5629
றுதி	-13.5633
▁வயதாக	-13.5653
▁காலடி	-13.5667
▁பாலா	-13.5685
டமெடு	-13.5699
வொருவரு	-13.5701
நீ	-13.5706
மொழியி	-13.5713
▁உருக	-13.5714
டிகள	-13.5717
ருவ	-13.573
▁உதவின	-13.574
▁பரவல	-13.5765
ியோர	-13.5766
தியோ	-13.5829
சர	-13.5842
▁கடினமா	-13.5842
னிச	-13.5851
▁மூவ	-13.5859
லிவு	-13.5861
கரிக	-13.5869
▁றமடை	-13.5871
▁வேகப	-13.5881
▁தேடிக	-13.5881
மெர	-13.5908
▁சுமைய	-13.591
▁குமான	-13.5929
ேவ	-13.5972
▁வியாப	-13.5986
ியோடு	-13.6005
னைவரும	-13.6068
தனமானது	-13.607
னான	-13.6141
▁இளவ	-13.6175
▁உடனடி	-13.6176
▁பெருகி	-13.619
ோத	-13.6208
▁துளி	-13.6245
▁தெரியாதவ	-13.6262
▁சினைய	-13.6265
மண	-13.6265
னவாக	-13.6268
னுடன	-13.6278
▁நடைப	-13.6284
▁பெருமூ	-13.6291
ரிதம	-13.6301
▁வீடுகள	-13.6327
▁காணொளிய	-13.6353
விடுவத	-13.6358
▁தகு	-13.6391
▁அருமையானவ	-13.6397
▁புதுமைய	-13.6399
ரச	-13.64
▁அறவ	-13.643
தப	-13.6475
▁பெறுகி	-13.6491
பிலிரு	-13.6526
▁தையா	-13.6544
▁வதி	-13.6547
▁டய	-13.6572
▁வேளைக	-13.6583
பசா	-13.6586
ையென	-13.6626
மரி	-13.6679
13	-13.6681
▁குழுவினரா	-13.6685
ரவம	-13.6732
▁தரை	-13.6741
▁கினை	-13.6762
▁செலவாக	-13.6774
கிவிட	-13.6814
▁துறையை	-13.6837
கூறுவ	-13.6839
ிமுறைகள	-13.6842
▁மையின	-13.6849
▁குடல	-13.6875
▁பாலு	-13.6887
▁றதாகவ	-13.6899
உ	-13.69
▁முயலுவ	-13.6929
டமான	-13.6938
▁ஸிக	-13.6953
▁மொழிப	-13.6955
▁இதுபோ	-13.6959
கலில	-13.6966
களான	-13.7002
ளிவ	-13.7014
▁கேம	-13.7041
ளமாக	-13.7042
▁வரிக	-13.7073
▁றவரை	-13.7077
மன	-13.7079
▁பேசுக	-13.7086
▁பரா	-13.7095
▁கேயு	-13.716
▁பிழைக	-13.7182
▁செயலின	-13.7205
ிரத	-13.7205
▁மொழிகளி	-13.7215
▁நானாக	-13.7241
னியாய	-13.7251
திரு	-13.7255
டுமே	-13.7269
▁இலைய	-13.7298
▁நாவி	-13.7304
டின	-13.731
துவ	-13.7337
▁கறிக	-13.7337
▁வெளியேறு	-13.7339
tt	-13.738
▁பிணைய	-13.7382
▁தையாகவ	-13.742
▁அபா	-13.743
▁புரு	-13.7444
▁தரமா	-13.7447
▁குமிட	-13.7481
▁சினைகளு	-13.7503
ழுவ	-13.7506
ளாய	-13.7513
ாவன	-13.7518
மையானதாக	-13.7548
▁விச	-13.7567
▁கானி	-13.7579
▁குளிரூடி	-13.7587
திட	-13.7612
▁ஆடம	-13.7616
▁கியதா	-13.7635
டுபற	-13.7665
ாளம	-13.7669
▁புரை	-13.7673
ருத	-13.7678
ைவாக	-13.7687
ளிம	-13.7728
ொடியை	-13.7734
▁அவைகளி	-13.7743
▁நாளு	-13.7758
▁பொறியி	-13.7774
வோட	-13.7824
ளிடம	-13.7826
▁ளோ	-13.7827
▁தாயா	-13.7839
ருகி	-13.7852
▁டாவி	-13.7855
▁குழா	-13.7866
லாமா	-13.7875
போகும	-13.7899
▁பாகி	-13.7911
ியதாக	-13.7912
ளமான	-13.7921
ளைவுகளை	-13.7923
▁கமளி	-13.7944
es	-13.795
▁வரிசைகளி	-13.7977
▁திகளில	-13.7991
அந	-13.8015
ுறச	-13.8017
யமில	-13.8023
▁மடி	-13.8028
ையானதாக	-13.8031
▁ஜனாதிபதிகள	-13.8041
▁நாடக	-13.8073
▁மனி	-13.8074
காவி	-13.8084
ுழ	-13.8109
▁டிடம	-13.8161
ுதிர	-13.8163
கையின	-13.8183
ுரண	-13.8183
ெனிக	-13.8204
ஜா	-13.8218
காரம	-13.8238
▁ஆதரவா	-13.8246
ழிந	-13.8249
▁நடைக	-13.8249
▁நிம	-13.8262
▁பணிபு	-13.8264
▁தியச	-13.828
▁உடலி	-13.8296
ைமுறையை	-13.8317
▁டிகாவி	-13.8341
▁உணருகி	-13.8366
▁ஒல	-13.837
ிகளால	-13.8384
▁மாறா	-13.8394
▁மாறுகிறத	-13.8408
▁முரணா	-13.8416
திரும	-13.8462
முறைகள	-13.8489
70	-13.8495
▁வழித	-13.8505
▁தரின	-13.8561
ோதும	-13.8566
▁தெரிவத	-13.8572
▁கசிவு	-13.8572
சரிதான	-13.8579
▁லபட	-13.8586
ியி	-13.8586
▁விறக	-13.8594
தைய	-13.8647
வாசி	-13.8649
லனை	-13.8655
ுதிய	-13.8677
▁போனதா	-13.8684
▁கொடும	-13.8699
குமுறைகள	-13.8715
டுவத	-13.8734
ையிலே	-13.8744
▁கீட	-13.8752
லித	-13.8818
▁ளக	-13.8833
▁தடையா	-13.8851
டுகிற	-13.8902
▁களிலே	-13.8913
▁சலம	-13.8923
▁வானத	-13.8929
யிலான	-13.895
▁மது	-13.8959
டமிரு	-13.8967
▁கடும	-13.9002
▁யாரவ	-13.9007
ாஜ	-13.9009
▁தவோ	-13.9023
▁புப	-13.9051
▁டோவி	-13.9161
▁மாணவ	-13.9167
படாமல	-13.9194
▁தெர	-13.9194
▁நேரிடு	-13.9218
சாலைய	-13.9245
ிலிர	-13.9314
▁வய	-13.932
றுகளில	-13.9346
படிய	-13.9349
மறை	-13.9387
▁டிஸ	-13.9434
▁அறு	-13.9498
ாதி	-13.9506
▁னோடி	-13.9514
▁காரப	-13.9526
ாமாக	-13.9567
யிலுக	-13.9595
▁நிலவ	-13.9597
▁வாள	-13.9598
வினர	-13.9618
▁எளி	-13.9621
வாசிக	-13.9633
▁அடைவத	-13.9653
▁ரோட	-13.9659
▁டபட	-13.9683
▁கூடின	-13.9733
கையும	-13.9764
ழிகள	-13.9775
▁மனிதனி	-13.9814
▁சச	-13.9851
▁ஆரவ	-13.9923
ளுடைய	-13.993
▁திரளா	-13.994
முறையின	-14.0006
▁றபட	-14.0006
▁விம	-14.0063
ளிர	-14.01
▁றித	-14.0101
ிரா	-14.0112
▁பனையா	-14.0138
?	-14.0146
தனையாக	-14.0173
▁ஆடைகள	-14.0229
மால	-14.025
ரிகளாக	-14.0286
தாம	-14.0323
ரல	-14.0325
▁முறைமைய	-14.0327
▁தொகைக	-14.0334
ையமான	-14.0378
சேக	-14.0397
▁கோந	-14.0403
டோம	-14.0415
▁லல	-14.0429
▁தொக	-14.043
மு	-14.0464
▁கவிதை	-14.0495
ேடிக	-14.0527
ஜென	-14.0545
திருக	-14.0576
றுவத	-14.0709
றாக	-14.0725
டேர	-14.0731
▁எளிமையானத	-14.0759
டுகள	-14.0784
▁செயலு	-14.0788
டுவோம	-14.0796
ேடி	-14.0815
▁பலத	-14.0816
டிமுறை	-14.0903
வடையும	-14.0974
▁குனர	-14.0978
▁வருமானமு	-14.0989
▁கடினமானத	-14.1013
ாமர	-14.1047
கைபிடி	-14.1066
▁கூறுகி	-14.108
விகள	-14.1091
றியா	-14.1163
ளால	-14.1171
▁அலி	-14.1173
▁இணையா	-14.1251
ாலி	-14.1333
▁வமு	-14.1339
▁பரிமாறு	-14.136
▁பிடவி	-14.137
ஹம	-14.1381
▁அழகி	-14.1494
▁அறிவத	-14.1512
ளவர	-14.1527
01-	-14.1597
▁அறிவுற	-14.1603
▁ஹர	-14.1641
டைதல	-14.1642
▁கிடைய	-14.1645
ாகிய	-14.1665
ீவ	-14.1686
னைகளும	-14.1754
னாட	-14.176
றோம	-14.1827
கோவில	-14.1845
னின	-14.1891
▁முழுமையா	-14.1948
ோண	-14.196
▁சுன	-14.1963
▁சுலபமா	-14.1981
▁டிவர	-14.1996
வதிலும	-14.2056
▁இவைத	-14.2086
▁போகவ	-14.2104
ியானால	-14.2123
ுறையினை	-14.223
பையில	-14.226
ேக	-14.2315
▁மாறுபடுவ	-14.2351
னைவர	-14.2377
▁ரச	-14.2416
ூழ	-14.2418
▁கைச	-14.2418
வசத	-14.2439
▁நோபிலி	-14.245
டாக	-14.2484
ிறோம	-14.2518
▁நடனமாடு	-14.2518
ளே	-14.2553
▁போகி	-14.2581
படுகி	-14.2625
▁உருவா	-14.2758
ிகரமான	-14.2764
▁சய	-14.2848
ிளக	-14.286
வாற	-14.2877
▁டொ	-14.2896
▁சமமா	-14.2906
ளிலும	-14.2937
அல	-14.2939
லே	-14.294
ரவில	-14.2941
▁குகைகளி	-14.2957
உரைய	-14.2989
டுமையான	-14.3115
▁அரசி	-14.3149
▁வேள	-14.3218
களோ	-14.3366
ேல	-14.3407
▁வசதியா	-14.343
ுமா	-14.3435
திகளையும	-14.3446
துமை	-14.3505
குதியில	-14.3513
▁நாடா	-14.3521
▁சமர	-14.3545
▁கூடமா	-14.357
▁பொல	-14.3573
மையுடன	-14.361
▁இரா	-14.3712
▁தினா	-14.3737
னாய	-14.3741
றா	-14.3743
▁அடைவ	-14.3751
லையு	-14.3782
தினை	-14.3804
▁துவிடுகி	-14.3847
ருவான	-14.3886
மாகி	-14.3915
ுவான	-14.4023
விவ	-14.4049
▁புடையத	-14.4051
னைகளையும	-14.4111
▁செயலா	-14.4116
▁பிகள	-14.4177
▁மகச	-14.4226
0-	-14.427
▁உதவவ	-14.4284
ிவு	-14.4308
ணவ	-14.4375
கொ	-14.4433
▁வரலா	-14.4461
▁னவ	-14.4466
▁லாதப	-14.4489
po	-14.451
குறைய	-14.4514
ியடை	-14.4519
▁பொருளா	-14.4582
டுமென	-14.4589
ஆதல	-14.4625
▁புரியா	-14.4656
▁மையு	-14.4691
நோயினால	-14.4715
ுவே	-14.4744
னிய	-14.4769
ையாவ	-14.4829
னுடையது	-14.487
▁நற	-14.4902
ஷமாக	-14.5011
ீரம	-14.5036
▁ஆயி	-14.5046
▁பெனி	-14.5049
▁பிரசி	-14.5073
தோல	-14.5073
▁பெருந	-14.5103
▁களுட	-14.5113
▁அனுமதிய	-14.5148
லோர	-14.5156
ரமே	-14.53
றுவித	-14.5365
▁காணா	-14.5375
▁இவைகளு	-14.538
▁சப	-14.5385
’	-14.5396
”	-14.5397
–	-14.5398
♪	-14.5399
ஃ	-14.54
!	-14.5401
ஓ	-14.5402
ஊ	-14.5403
:	-14.5404
)	-14.5405
தய	-14.5405
