<unk>	0
<s>	0
</s>	0
▁่	-2.04629
▁้	-2.43308
▁	-3.06002
▁็	-3.6788
▁น	-3.98272
▁์	-4.26607
▁า	-4.28346
ที	-4.43982
▁ง	-4.78116
;	-4.97511
▁&	-4.98845
ot	-5.00468
qu	-5.00646
▁ว	-5.01098
▁ที	-5.01521
ได	-5.03735
นี	-5.15724
▁และ	-5.17678
▁อ	-5.26321
▁าง	-5.26911
▁อง	-5.30264
ต	-5.49184
ไม	-5.56319
▁แต	-5.57212
▁เป	-5.58806
ว	-5.60308
▁ก	-5.66954
ก	-5.67179
▁ได	-5.68841
เป	-5.81679
ให	-5.86416
▁อย	-5.88596
▁ไม	-5.89784
นั	-5.9226
▁)	-5.94109
(	-5.9412
น	-5.94817
อยู	-5.94875
▁งที	-5.9987
ร	-6.01745
▁วย	-6.03077
▁คือ	-6.05847
ด	-6.06064
ส	-6.07496
ของ	-6.07874
▁จะ	-6.0864
▁ผม	-6.09391
▁าน	-6.11107
▁เรา	-6.11702
▁มี	-6.11799
▁แล	-6.13076
▁ม	-6.17035
ม	-6.19672
▁ใน	-6.23736
อย	-6.24297
▁ๆ	-6.28096
และ	-6.30404
รู	-6.31674
ขึ	-6.32044
▁ซึ	-6.3269
หนึ	-6.34116
▁ต	-6.35713
ใช	-6.37484
▁อน	-6.37529
กว	-6.42274
▁ใช	-6.43671
▁าย	-6.45655
▁นี	-6.46012
ล	-6.46339
ใน	-6.51638
ทั	-6.52663
▁เพื	-6.54158
▁ด	-6.57113
ค	-6.57266
▁มัน	-6.57681
ผู	-6.60439
▁ถ	-6.60608
▁นั	-6.64551
มาก	-6.6531
▁เมื	-6.66711
ข	-6.68927
บ	-6.71401
▁ํา	-6.72112
▁หรือ	-6.7245
▁คน	-6.73827
▁านี	-6.75277
▁สิ	-6.77144
เรื	-6.7849
▁คุณ	-6.78894
เข	-6.79629
ท	-6.80796
▁ะ	-6.82508
▁ฉัน	-6.83485
สิ	-6.83864
เหล	-6.84383
▁ให	-6.84514
เล	-6.84762
จาก	-6.84771
ย	-6.84962
ช	-6.9031
ไป	-6.90843
มา	-6.91082
แล	-6.92
▁ของ	-6.93363
ห	-6.96429
▁สุด	-6.96857
▁กับ	-6.98383
▁พวกเขา	-6.9918
▁การ	-6.9975
▁ค	-7.00624
▁านั	-7.01237
ของเรา	-7.03283
▁ผู	-7.04035
อ	-7.06126
หน	-7.06563
▁บ	-7.06904
มัน	-7.07728
มี	-7.08121
อร	-7.08507
การ	-7.08756
เริ	-7.08875
สร	-7.10799
ทําให	-7.12311
▁ดังนั	-7.12314
เพื	-7.13068
▁จาก	-7.13796
กับ	-7.13898
▁างไร	-7.17276
▁เขา	-7.18501
▁องการ	-7.18901
ง	-7.20349
▁ตอน	-7.21805
เท	-7.22572
▁ดี	-7.22638
▁อยู	-7.22728
▁ยวกับ	-7.23605
กัน	-7.24099
ไว	-7.24298
เปลี	-7.2474
ตัว	-7.24882
▁เห	-7.2557
▁เสียงหัวเราะ	-7.2643
ใหญ	-7.26525
ป	-7.27476
▁งหมด	-7.27674
▁รู	-7.27717
จะ	-7.27866
คน	-7.27904
แค	-7.28977
▁,	-7.29015
เชื	-7.30126
เกี	-7.32439
▁นที	-7.34497
▁มันเป	-7.35583
เลย	-7.37505
▁วน	-7.38088
▁ส	-7.38835
▁เพราะ	-7.39598
ผ	-7.39842
กลุ	-7.42177
▁ทําให	-7.4267
▁างที	-7.42933
ครับ	-7.42945
▁สามารถ	-7.44574
เห	-7.46111
▁จ	-7.46808
▁เข	-7.47502
การณ	-7.47521
▁อม	-7.4791
▁าว	-7.48284
ดู	-7.48996
ทาง	-7.49249
ทํา	-7.50508
คือ	-7.50931
▁ถูก	-7.52156
ผม	-7.52277
ดี	-7.53365
▁างๆ	-7.53379
อื	-7.53451
▁ทั	-7.54051
▁เรื	-7.54281
ถึง	-7.54321
▁อมูล	-7.54915
▁มาก	-7.54944
แต	-7.56931
ของผม	-7.57014
แบบ	-7.57334
▁เกี	-7.57456
▁ข	-7.57718
.	-7.57987
ถูก	-7.58673
อีก	-7.58712
▁เสียงปรบมือ	-7.60178
กล	-7.60212
▁วง	-7.60494
▁ยน	-7.60854
▁จริง	-7.61032
ถ	-7.61177
▁สึก	-7.61201
ซ	-7.61771
เก	-7.6292
▁าคุณ	-7.63262
คุณ	-7.64999
▁ล	-7.65128
▁พวกเรา	-7.65228
อะไร	-7.65765
ชื	-7.65843
▁โดย	-7.6607
▁นต	-7.66598
แห	-7.67051
เด	-7.6746
▁นๆ	-7.68391
ระหว	-7.68468
▁เช	-7.68769
▁แม	-7.68936
▁นสิ	-7.69364
▁มา	-7.69404
▁เธอ	-7.69684
บอกว	-7.70107
า	-7.70227
▁ปี	-7.70286
▁นมา	-7.70506
▁าใจ	-7.71037
ๆ	-7.71308
เรา	-7.71472
พื	-7.71887
เนื	-7.72214
▁นเรื	-7.72421
▁ช	-7.74093
ของคุณ	-7.74142
เจ	-7.74354
▁าที	-7.76923
▁เราต	-7.79664
▁าเรา	-7.79966
▁เพราะว	-7.80043
ชั	-7.80209
เกิดขึ	-7.81008
จ	-7.81593
ศ	-7.81832
▁งนี	-7.82133
แก	-7.82133
▁แค	-7.82564
s	-7.82636
▁ผ	-7.82682
ความ	-7.83076
▁ทํา	-7.83449
▁นไป	-7.8358
▁ยนแปลง	-7.84083
คิดว	-7.848
▁นเป	-7.85783
หรือ	-7.86265
▁ย	-7.86569
▁เกิดขึ	-7.87526
▁นก	-7.87532
กลายเป	-7.87534
▁กๆ	-7.87718
▁เราจะ	-7.88857
▁ยง	-7.89229
▁กําลัง	-7.89881
▁ไป	-7.90012
▁สร	-7.90277
เช	-7.91155
ตั	-7.91698
โดย	-7.91734
▁ยัง	-7.91987
▁เวลา	-7.93214
▁ถึง	-7.93684
ี	-7.94432
เครื	-7.94902
กําลัง	-7.9509
▁เลย	-7.95435
เซลล	-7.9548
▁ท	-7.95503
▁รับ	-7.95656
เขา	-7.96452
▁าจะ	-7.98316
▁นได	-7.98691
เพิ	-7.99596
▁งเป	-7.99826
▁นว	-8.00141
▁แน	-8.00218
สอง	-8.00231
▁นคือ	-8.00361
สัตว	-8.00416
แบบนี	-8.00667
พ	-8.00851
▁สําหรับ	-8.00976
เมื	-8.02281
ศาสตร	-8.02519
▁อที	-8.02755
ของเขา	-8.02903
ครั	-8.03703
▁ามัน	-8.0405
▁เด	-8.04773
พูด	-8.04986
นะ	-8.05176
ฉัน	-8.05514
สามารถ	-8.0568
▁หญิง	-8.05996
วิทยาศาสตร	-8.06018
▁ยว	-8.06106
▁ความ	-8.06297
ยิ	-8.06415
▁เคย	-8.06806
▁ครับ	-8.07152
จริงๆ	-8.07722
▁เราได	-8.08327
อัน	-8.08348
▁คุณจะ	-8.08627
งาน	-8.08868
▁นอย	-8.09203
แม	-8.09419
คนที	-8.09616
▁อไป	-8.10026
▁บน	-8.10865
▁เรามี	-8.10999
เอา	-8.11737
▁วม	-8.11886
สําหรับ	-8.12349
มันไม	-8.12433
▁ป	-8.12536
ภาพ	-8.12585
▁ร	-8.12778
▁ห	-8.14141
ความรู	-8.14533
▁อว	-8.14717
พวกเขา	-8.15028
▁ตาม	-8.1528
เวลา	-8.15538
▁วนใหญ	-8.15672
▁เริ	-8.1613
▁าม	-8.16178
▁เกิด	-8.16515
ขนาด	-8.16614
บน	-8.17249
▁เราก	-8.17336
มากมาย	-8.17513
▁เท	-8.17534
สู	-8.17857
ใส	-8.17983
คิด	-8.18179
▁าไป	-8.1829
ออกมา	-8.18941
โต	-8.19094
พวกนี	-8.192
ตา	-8.19214
โลก	-8.19389
▁อให	-8.19755
ออก	-8.19966
ลง	-8.20307
ของฉัน	-8.20502
จริง	-8.20665
นัก	-8.20757
▁นส	-8.20979
ยัง	-8.21272
ใจ	-8.21854
ตอน	-8.21914
▁ในการ	-8.22371
▁งใน	-8.22945
▁วก	-8.23111
มอง	-8.23267
▁ผมจะ	-8.23329
สี	-8.23329
▁ตรง	-8.23411
▁มันก	-8.23905
เร	-8.24328
ชิ	-8.24383
▁ไหน	-8.26112
ยา	-8.26133
ทํางาน	-8.26311
นะครับ	-8.26362
เรียน	-8.26654
▁สอง	-8.27667
ฟ	-8.27945
ะ	-8.28386
บางอย	-8.28434
▁นผู	-8.28827
เงิน	-8.29141
▁ผมคิดว	-8.29261
▁คนที	-8.29812
ทุกอย	-8.29815
▁พวกมัน	-8.30513
▁เซ	-8.3089
เดียว	-8.30917
ตรง	-8.31434
ตาม	-8.31539
เส	-8.32141
▁ผมก	-8.32178
▁อีก	-8.32297
แพทย	-8.33813
สําเร	-8.33921
รถ	-8.34376
เต	-8.34568
▁ามา	-8.34856
▁ดู	-8.3503
เสียง	-8.35489
▁หนึ	-8.35504
คํา	-8.35821
▁งแต	-8.3689
▁มต	-8.36905
▁อยๆ	-8.37215
บอก	-8.37263
หา	-8.37593
ทุก	-8.37607
ตัวเอง	-8.37818
▁เหล	-8.37862
▁ปัญหา	-8.37876
ระบบ	-8.37903
วิ	-8.38203
มนุษย	-8.38205
▁ฉะนั	-8.38353
▁และนั	-8.38587
แรก	-8.38659
ประมาณ	-8.39471
แตกต	-8.39512
ของพวกเขา	-8.39553
▁นการ	-8.39586
ชีวิต	-8.39955
ประเทศ	-8.40175
อาหาร	-8.40284
อายุ	-8.40371
▁างนั	-8.4046
▁เหมือน	-8.40523
▁นอน	-8.4133
▁เพียง	-8.41392
▁นํา	-8.41763
▁ดิฉัน	-8.41946
ปัญหา	-8.42012
▁องที	-8.42057
ิ	-8.42087
ตัวอย	-8.42349
▁อนที	-8.42427
ความคิด	-8.42493
แน	-8.42613
ออกไป	-8.42856
คนอื	-8.4368
พูดว	-8.43783
▁และผม	-8.43852
สั	-8.44195
▁เจ	-8.44339
พร	-8.444
▁าเป	-8.44409
▁ตัว	-8.44581
▁ยิ	-8.44748
▁ทําไม	-8.44779
มากๆ	-8.44978
สูง	-8.45124
▁ตั	-8.45345
ความเป	-8.45391
รุ	-8.45629
ผล	-8.45743
มือ	-8.46031
▁ยม	-8.46037
▁นคน	-8.46104
▁วยกัน	-8.46636
▁องราว	-8.47084
เอง	-8.47326
▁งก	-8.47726
ปี	-8.47774
▁จัก	-8.47855
ซื	-8.47862
ในการ	-8.482
▁งของ	-8.48247
▁วโลก	-8.48289
▁เราสามารถ	-8.48293
▁านมา	-8.48702
▁งต	-8.48858
ขั	-8.48917
▁อเรา	-8.49012
เมือง	-8.49065
เธอ	-8.49075
เกิด	-8.49261
▁ยิน	-8.5029
จน	-8.50362
▁และเมื	-8.50517
▁าผม	-8.50911
ลูก	-8.51068
▁สําคัญ	-8.51412
▁อคุณ	-8.51695
เอ	-8.517
▁มันมี	-8.51951
ตื	-8.52098
1	-8.52184
ซึ	-8.52454
เสีย	-8.52663
▁างเช	-8.52914
ุ	-8.52914
จึง	-8.53695
มั	-8.54112
-	-8.54259
รับ	-8.54677
รา	-8.54787
▁10	-8.55025
โน	-8.55146
▁อาจ	-8.55252
▁เล	-8.55292
อาจ	-8.55371
▁นอยู	-8.55376
▁ชาย	-8.55444
ของมัน	-8.55511
▁20	-8.55525
▁นไม	-8.55525
▁และเรา	-8.55707
ธ	-8.56042
ิวเต	-8.56279
▁คุณเห	-8.56336
เพียง	-8.56378
สื	-8.56428
▁คุณก	-8.56529
▁ผล	-8.56628
▁งแรก	-8.56727
พลังงาน	-8.56957
องค	-8.56961
▁กัน	-8.57173
นิ	-8.57627
ถาม	-8.57628
ใ	-8.57629
▁นกัน	-8.57695
▁เสียง	-8.58085
ทุกคน	-8.58538
▁นัก	-8.58857
▁ไหม	-8.59315
สาม	-8.59403
▁เชื	-8.59446
จะไม	-8.59543
เทคโนโลยี	-8.60009
▁งาน	-8.6007
▁อนข	-8.60073
▁ในช	-8.60182
ึ	-8.60411
▁แบบ	-8.60676
▁2	-8.6118
วัน	-8.61251
▁นพบ	-8.61272
บาง	-8.61741
▁นจริง	-8.6189
▁เน	-8.61893
เดียวกัน	-8.62193
นํา	-8.62212
ทิ	-8.62265
▁จะเป	-8.62351
▁าสนใจ	-8.62395
▁และสิ	-8.62509
▁คุณต	-8.62566
▁างมาก	-8.6285
ประสบ	-8.6294
▁เอ	-8.63487
สมอง	-8.63518
▁างกาย	-8.63604
แบ	-8.63776
จํา	-8.63789
▁จํา	-8.6398
▁นฐาน	-8.64267
แสดงให	-8.64789
▁ขึ	-8.64907
▁ใหญ	-8.64916
พบ	-8.64971
▁คุณสามารถ	-8.65028
▁เหมือนกับ	-8.65163
▁3	-8.65174
ประโยชน	-8.65275
จุด	-8.65489
คู	-8.6554
เลือก	-8.65732
▁วัน	-8.65759
ใด	-8.65914
ไข	-8.65991
แสง	-8.66516
สุดท	-8.66597
ครึ	-8.66913
▁เครื	-8.67478
▁วนหนึ	-8.67744
การเปลี	-8.6802
มาจาก	-8.68085
▁กล	-8.68295
หลาย	-8.68397
▁กี	-8.68551
เดิน	-8.68602
ลอง	-8.68918
ผมไม	-8.69222
ไหม	-8.69259
▁มที	-8.69302
หลัก	-8.69305
แรง	-8.69441
วันนี	-8.6973
แบบนั	-8.69813
แสดง	-8.69825
พยายาม	-8.70369
เว	-8.70529
โครง	-8.70557
ะเร	-8.70741
▁งนั	-8.70876
▁ครั	-8.71121
แข	-8.71305
หลัง	-8.71352
ระดับ	-8.7182
▁และผมก	-8.72251
▁เก	-8.72351
▁พ	-8.72452
ลด	-8.72505
▁จะมี	-8.72714
▁มขึ	-8.7279
e	-8.72812
ของเธอ	-8.72877
เน	-8.73004
▁ชั	-8.73096
พิมพ	-8.73276
▁ชีวิต	-8.73388
ผลิต	-8.73605
สถาน	-8.73736
ไฟฟ	-8.74077
▁และถ	-8.7416
ฟัง	-8.74566
▁องมือ	-8.74642
▁วโมง	-8.74746
การใช	-8.74753
▁มันจะ	-8.74987
เตอร	-8.75223
รักษา	-8.75395
สังคม	-8.75474
กิน	-8.75498
▁ขอบคุณครับ	-8.75528
หัว	-8.75628
▁อมา	-8.76043
▁ทํางาน	-8.76056
▁ละ	-8.76076
▁อะไร	-8.7608
▁แก	-8.76236
วิธี	-8.76532
ซี	-8.76555
▁พอ	-8.76647
▁ยวข	-8.76803
▁จริงๆ	-8.76828
▁งเหล	-8.77036
สําคัญ	-8.77047
▁บางที	-8.77087
แทนที	-8.77184
ลี	-8.77225
การศึกษา	-8.77509
▁1	-8.77845
ไร	-8.77875
เปิด	-8.78028
กลับ	-8.78057
▁อความ	-8.78104
▁เรียน	-8.7814
ดาห	-8.78178
▁ทุกคน	-8.78283
o	-8.78354
อุ	-8.78664
อยาก	-8.78813
ริ	-8.79114
▁พูด	-8.79511
พูดถึง	-8.79538
พวกมัน	-8.79617
▁มีใคร	-8.79723
รวม	-8.79791
▁เราทํา	-8.80307
โครงการ	-8.80348
y	-8.80391
▁คือการ	-8.80432
ชอบ	-8.8049
ละ	-8.80511
▁ายๆ	-8.80539
▁หลังจาก	-8.80566
ราย	-8.81229
ลา	-8.81238
เหมือน	-8.81271
a	-8.81336
อาร	-8.81413
จํานวน	-8.81895
▁วไป	-8.82017
▁างกัน	-8.82154
ปล	-8.82282
▁เพิ	-8.82304
อาท	-8.82357
▁วงเวลา	-8.8268
▁เรียกว	-8.82831
▁ามี	-8.82866
▁างขึ	-8.83106
ิตย	-8.83154
พวกเรา	-8.83232
,000	-8.83502
▁อนไหว	-8.83556
▁และมันก	-8.8362
คง	-8.83641
ลิ	-8.83852
▁าไปใน	-8.83897
คอมพ	-8.83925
▁คุณไม	-8.8447
▁เอา	-8.84986
ติด	-8.85031
▁รับการ	-8.85185
▁จน	-8.85543
▁ากับ	-8.85583
อะไรที	-8.85694
▁นเต	-8.86177
ไปที	-8.86314
หมู	-8.86333
▁และเราก	-8.86896
แนวคิด	-8.86908
สรรค	-8.86921
▁งมีชีวิต	-8.86922
เขียน	-8.86957
ไปแล	-8.87068
▁กร	-8.87242
คุณรู	-8.87278
ฝ	-8.87562
▁ในปี	-8.87951
บริษัท	-8.88009
รูปแบบ	-8.8813
▁และการ	-8.88133
โรค	-8.88166
▁มีการ	-8.88292
ชาว	-8.88369
▁อัน	-8.88456
▁เอาล	-8.88579
▁นใน	-8.88589
▁หรือไม	-8.88616
เชิง	-8.88713
▁และก	-8.88767
▁าทึ	-8.88923
▁งหลาย	-8.89199
สมบูรณ	-8.89284
พวก	-8.89382
สาร	-8.89476
▁อต	-8.89745
▁โลก	-8.89915
ไปยัง	-8.90407
กี	-8.90412
รูป	-8.90651
สัก	-8.90696
t	-8.90954
▁และมัน	-8.91265
ควบคุม	-8.91269
ความสัมพันธ	-8.9131
จะเป	-8.91341
▁องกัน	-8.91344
ออกจาก	-8.91471
เคย	-8.91615
ใบ	-8.91659
▁จะทํา	-8.91668
▁ทุก	-8.91896
กลับมา	-8.91901
▁เรากําลัง	-8.92015
▁วยเหลือ	-8.92119
ูนย	-8.92274
คุณจะเห	-8.92391
ศึกษา	-8.92605
ความจริง	-8.92774
▁าร	-8.92904
▁ผมอยาก	-8.92969
ใกล	-8.93047
▁ฉันไม	-8.93047
▁ดีที	-8.93056
▁าพวกเขา	-8.93238
ของการ	-8.93439
▁อผม	-8.93452
ตาย	-8.93475
ไหน	-8.9356
▁างน	-8.93649
เม	-8.93678
apo	-8.9371
สาย	-8.93719
▁...	-8.93851
▁5	-8.94037
ประ	-8.94088
เคลื	-8.94205
▁วยการ	-8.94482
รัก	-8.94505
คิดถึง	-8.94552
▁มั	-8.94826
▁ใจ	-8.95087
▁ายที	-8.95393
พา	-8.95455
วิธีที	-8.95474
วาง	-8.95701
หุ	-8.95815
i	-8.95824
▁าหมาย	-8.95881
▁อาจจะ	-8.96444
▁ระบบ	-8.96457
เลี	-8.96472
ผิด	-8.96532
มณ	-8.96545
ธรรมชาติ	-8.96558
วิธีการ	-8.96658
พัฒนา	-8.96715
ใคร	-8.96853
▁องมี	-8.97043
▁สาม	-8.9712
สอน	-8.97137
▁คือสิ	-8.97253
▁จึง	-8.97413
อาจจะ	-8.97417
▁าเรื	-8.97455
โ	-8.97472
เย	-8.97729
ดาว	-8.9781
มองเห	-8.97966
▁างนี	-8.98184
▁าทาย	-8.9825
พันล	-8.98317
ปกรณ	-8.98359
ขาย	-8.98843
รวดเร	-8.99186
▁วมกัน	-8.99191
▁กว	-8.99263
ไปถึง	-8.99304
▁างหนึ	-8.99356
▁มันคือ	-8.99451
ลงไป	-8.99479
หรือไม	-8.99584
▁งแวดล	-8.99701
พท	-8.99718
▁พร	-9
สนใจ	-9.00014
โค	-9.00015
▁และไม	-9.00282
▁แห	-9.00321
ภาษา	-9.00352
จับ	-9.00381
สัป	-9.0058
▁าเขา	-9.00629
พอ	-9.00837
▁ในขณะ	-9.00995
คุ	-9.01347
▁านคน	-9.01643
หรือเปล	-9.01699
▁าถึง	-9.01713
▁ามันเป	-9.01904
▁4	-9.01917
ดวง	-9.01957
แท	-9.01991
▁โอเค	-9.02029
จริงๆแล	-9.02076
ขอ	-9.02184
เพลง	-9.0242
เรือ	-9.02617
ทําอะไร	-9.02781
▁อื	-9.02786
ยุค	-9.02807
▁ณ	-9.02807
กระบวนการ	-9.02977
▁ฟัง	-9.03049
ครอบครัว	-9.03068
นา	-9.03243
คล	-9.03482
▁ฉันจะ	-9.03517
▁อมต	-9.03663
▁มาจาก	-9.03824
▁องทํา	-9.04102
▁คิดว	-9.04259
▁หัวเราะ	-9.04387
▁ทาง	-9.04411
▁ภาพ	-9.0443
ในช	-9.04447
เหตุ	-9.04459
▁เร	-9.04462
ในปี	-9.0537
แย	-9.05398
▁เราจึง	-9.05499
ชุด	-9.05867
▁ภายใน	-9.059
▁ปีที	-9.06159
อีกครั	-9.06336
▁นหา	-9.06425
▁จากนั	-9.0662
พิ	-9.06659
หยุด	-9.06725
▁ของเรา	-9.06785
หนังสือ	-9.06843
ภายใน	-9.06937
▁นมัน	-9.06964
ธุรกิจ	-9.07045
▁เต	-9.07051
สงสัย	-9.07063
▁C	-9.07118
▁าจะเป	-9.07137
n	-9.07213
▁พวกคุณ	-9.0732
▁หน	-9.07352
▁าสิ	-9.0738
▁โอ	-9.07714
แผ	-9.07717
ฆ	-9.07798
เรียกว	-9.07813
▁คิด	-9.07816
▁30	-9.08146
▁พวก	-9.08323
▁ลอง	-9.08439
▁และใน	-9.08453
อน	-9.08609
รี	-9.09158
▁ประเทศ	-9.09228
▁นด	-9.09309
▁กน	-9.09589
ในโลก	-9.09612
เซ	-9.09773
▁และมี	-9.10075
▁วนที	-9.10156
▁วยให	-9.10224
▁าฉัน	-9.10334
▁นนั	-9.10409
ออกแบบ	-9.10575
สงคราม	-9.10635
▁นมาก	-9.10822
การทดลอง	-9.10824
▁จะต	-9.10911
ในห	-9.11009
▁ผมต	-9.11011
▁เราเห	-9.11318
▁นใจ	-9.1132
▁องของ	-9.11468
ชน	-9.1169
▁เงิน	-9.11738
▁จุด	-9.11863
▁และฉัน	-9.11867
ซิ	-9.12015
▁นเพียง	-9.12183
ความเชื	-9.12322
มากที	-9.1234
ตัดสินใจ	-9.12377
จํานวนมาก	-9.12927
▁และเป	-9.12939
ความเข	-9.12995
▁นแค	-9.13163
สุขภาพ	-9.13352
อนาคต	-9.13406
ของมนุษย	-9.13554
▁TED	-9.13683
▁50	-9.13939
กลาง	-9.14023
ําแข	-9.14182
สุด	-9.14289
ความแตกต	-9.14442
คืน	-9.14603
มุ	-9.15118
▁พื	-9.15459
▁มีคน	-9.15463
▁S	-9.15542
บิน	-9.15708
ยนต	-9.15941
▁แย	-9.16053
▁จริงแล	-9.16066
▁างยิ	-9.16307
▁าของ	-9.16527
โล	-9.16554
er	-9.16556
ู	-9.1666
ปิด	-9.16984
เครือข	-9.17024
คาร	-9.17061
พวกนั	-9.17626
▁งสอง	-9.17684
▁างหน	-9.17865
กลับไป	-9.17907
ดาวเคราะ	-9.17966
ของโลก	-9.18135
โรงเรียน	-9.18146
ในที	-9.18266
อะไรบางอย	-9.18398
l	-9.1851
ในเรื	-9.18671
ภัณฑ	-9.18733
▁นเอง	-9.18751
ทะเล	-9.1879
▁พยายาม	-9.18824
▁โดยเฉพาะ	-9.18861
โร	-9.18887
เหมือนกัน	-9.19007
▁อสาร	-9.19038
พันธุ	-9.19047
ของพวกเรา	-9.19092
▁วนตัว	-9.19292
▁นครั	-9.19298
สภาพ	-9.19357
นักเรียน	-9.19433
▁อก	-9.19479
โทรศั	-9.19481
เจอ	-9.19703
▁มีความ	-9.19705
วา	-9.19774
รอ	-9.19781
▁ประมาณ	-9.19844
พบว	-9.19902
ยีน	-9.2035
▁วิธี	-9.20352
ถิ	-9.20549
▁100	-9.20683
ขา	-9.20965
▁มีอะไร	-9.21286
▁ชอบ	-9.21294
▁เอง	-9.2144
ปรับ	-9.21449
พฤติกรรม	-9.21562
ติ	-9.21647
▁คริส	-9.21692
▁สึกว	-9.21697
u	-9.21754
ชนิด	-9.21819
ไฟ	-9.21886
อธิบาย	-9.21984
▁ผมอยากจะ	-9.22114
ณ	-9.22172
▁15	-9.22223
เบื	-9.22289
รับรู	-9.22424
กลัว	-9.22506
▁อยาก	-9.2258
▁แท	-9.22692
▁าทําไม	-9.23044
มิ	-9.23094
▁พบ	-9.23258
▁อสร	-9.23332
เสื	-9.23361
แพร	-9.23395
ลักษณ	-9.23402
▁อสู	-9.23426
ปลา	-9.23466
ยกตัวอย	-9.23477
คําถาม	-9.23514
จากนั	-9.23685
วัย	-9.2385
▁M	-9.24084
โก	-9.24215
ตอบ	-9.24488
อุตสาหกรรม	-9.24525
ปริมาณ	-9.24661
ตําแ	-9.24663
ซับซ	-9.24732
แง	-9.24988
สํารวจ	-9.24998
▁นภาพ	-9.25145
d	-9.25177
ไปสู	-9.25221
ไอ	-9.25276
▁ยาก	-9.25388
▁นนัก	-9.25507
ในวันนี	-9.25509
พี	-9.25581
ประเด	-9.25604
วัฒนธรรม	-9.25681
แยก	-9.25684
▁นเอ	-9.2572
ไหล	-9.2591
ปกติ	-9.26071
วิวัฒนาการ	-9.26199
อาศัยอยู	-9.26347
ทหาร	-9.26453
ทางการ	-9.26461
วง	-9.26466
โทร	-9.26529
บันทึก	-9.26532
▁ยังมี	-9.26643
▁สูง	-9.26656
มไปด	-9.26799
▁ในโลก	-9.2686
ครู	-9.27196
▁ถูกต	-9.27289
▁นาน	-9.27298
หรอก	-9.27593
▁เหลือ	-9.27653
ทุ	-9.27823
จินตนาการ	-9.27863
c	-9.28028
▁กระทั	-9.28079
▁นตอน	-9.28092
▁โดยไม	-9.28105
ทําสิ	-9.28108
แผนที	-9.28216
▁A	-9.28226
การเคลื	-9.28287
ควร	-9.28312
ไปด	-9.28345
▁ฉันก	-9.28391
▁ในที	-9.28472
กับผู	-9.28614
▁ความคิด	-9.28778
in	-9.28835
นะคะ	-9.28895
หัวใจ	-9.2899
▁B	-9.29271
r	-9.29272
ื	-9.29335
กระตุ	-9.29358
▁บริษัท	-9.29381
พิเศษ	-9.29459
รอบ	-9.29567
▁อนหน	-9.29573
แหล	-9.29605
ชาย	-9.2961
ั	-9.29626
อก	-9.29627
▁นเวลา	-9.29677
เลือด	-9.2972
ชุมชน	-9.29906
▁าเราจะ	-9.2992
ประวัติศาสต	-9.29946
ถึงแม	-9.30208
▁19	-9.30294
▁คล	-9.30294
▁นตัว	-9.30336
เอาไว	-9.30429
กา	-9.30536
บุคคล	-9.30572
ตี	-9.30832
ทางสังคม	-9.30884
ชี	-9.30977
การสร	-9.30982
คา	-9.31003
สัมพันธ	-9.31121
เดือน	-9.31213
▁าไหร	-9.31384
▁เทคโนโลยี	-9.31676
▁ในเรื	-9.31708
ของตัวเอง	-9.31898
สังเกต	-9.31926
▁สี	-9.32058
▁างออกไป	-9.3223
▁ในฐานะ	-9.32675
▁จากการ	-9.3272
ของคน	-9.32737
ทัศน	-9.32761
ar	-9.32837
เติบโต	-9.33052
เรียก	-9.33055
▁อแม	-9.33209
ในชีวิต	-9.33215
▁ควร	-9.33282
▁งขึ	-9.33315
กฎ	-9.33317
ดิฉัน	-9.3357
แลนด	-9.33702
สัญญาณ	-9.33764
เคราะ	-9.33921
โซ	-9.33961
▁6	-9.34038
ทุกวัน	-9.34326
จะทํา	-9.34407
เกินไป	-9.34448
สายพันธุ	-9.34565
ในสิ	-9.34905
al	-9.35023
การพัฒนา	-9.35027
h	-9.3505
▁งข	-9.35138
▁าคน	-9.35169
อาการ	-9.35203
ักษ	-9.35205
จะใช	-9.35223
กระ	-9.35342
▁และที	-9.3536
โม	-9.35387
ใจว	-9.3561
เ	-9.35626
▁ตัวอย	-9.3567
▁ขอ	-9.35843
▁ยนไป	-9.35875
ประดิษฐ	-9.35963
เหลือ	-9.36203
▁ผมเป	-9.36203
▁ยา	-9.36257
▁ํามัน	-9.36324
ถนน	-9.36388
หนัง	-9.36595
จะมี	-9.36654
▁ผมจึง	-9.36815
▁นยนต	-9.36887
จัดการ	-9.36919
▁นอนว	-9.37283
▁าการ	-9.37305
▁หาก	-9.37397
อยากจะ	-9.37537
▁พวกเขาจะ	-9.37567
วน	-9.37809
▁อยละ	-9.37854
▁าด	-9.37875
รัฐบาล	-9.38106
▁ใกล	-9.38163
กับมัน	-9.38182
▁นข	-9.38278
รายการ	-9.38328
▁ในห	-9.38447
มาแล	-9.38469
▁มนุษย	-9.38589
▁ยวกับการ	-9.38733
▁ตามที	-9.3874
▁นอีก	-9.38797
ปลูก	-9.39041
ดึง	-9.39057
▁เมือง	-9.39105
เยื	-9.39109
ความเร	-9.39115
ยอดเยี	-9.39126
▁องกับ	-9.39165
▁พวกเขาก	-9.39212
ยาก	-9.39468
ออน	-9.39838
▁เพราะมัน	-9.39967
ไลน	-9.40024
▁ชม	-9.40089
▁อปี	-9.40125
วัด	-9.40184
ดื	-9.40214
▁าตัด	-9.40295
อง	-9.40344
ในตอน	-9.40349
จะต	-9.40383
▁&#9	-9.40509
▁&#93;	-9.40509
ประชากร	-9.40607
▁ขอบคุณค	-9.40727
คําตอบ	-9.40855
ผลงาน	-9.40925
พัก	-9.41098
▁นาที	-9.41194
▁ไว	-9.41263
ฟื	-9.41284
an	-9.41341
g	-9.41551
ชาติ	-9.41631
พืช	-9.41685
นึง	-9.41686
เซอร	-9.41859
การทํางาน	-9.41873
บา	-9.41887
กําลังจะ	-9.4194
เดิม	-9.41994
▁ลูก	-9.42035
▁งจะ	-9.42099
▁างสิ	-9.42223
▁จะสร	-9.4224
▁างจาก	-9.42317
ทุกสิ	-9.42324
เค	-9.42401
สนับสนุน	-9.42588
คณิต	-9.4261
นอก	-9.42611
ขี	-9.42666
en	-9.4272
▁คง	-9.42752
ํา	-9.42762
เดินทาง	-9.42907
การค	-9.43008
ดีเอ	-9.43023
▁งปัน	-9.43048
คือสิ	-9.43087
▁และพวกเขา	-9.43239
▁นแหละ	-9.43451
จบ	-9.43578
▁เรายัง	-9.43717
▁ประสาท	-9.43799
ขาด	-9.43871
▁และคุณ	-9.43944
▁ยวชาญ	-9.43951
คะ	-9.43981
▁คํา	-9.44187
▁สมอง	-9.44307
ตัวตน	-9.44493
เพราะ	-9.44548
ดั	-9.44576
เหนือ	-9.44598
ยังคง	-9.44885
▁งให	-9.44988
ปฏิบัติ	-9.45088
▁นจาก	-9.45306
▁ออก	-9.4533
▁ชัดเจน	-9.45398
▁มากมาย	-9.45585
รัฐ	-9.45651
▁กลับ	-9.45744
หนุ	-9.45869
ฝัน	-9.45972
กฎหมาย	-9.45986
▁พลังงาน	-9.46088
อวกาศ	-9.46208
แขน	-9.4625
กับการ	-9.46259
▁ติด	-9.46269
พระ	-9.46355
▁ใคร	-9.46481
ทดลอง	-9.46536
▁ซ	-9.46609
ดูแล	-9.46716
▁องจาก	-9.46741
▁อมกับ	-9.46755
▁านไป	-9.46882
ตลาด	-9.46901
▁นของ	-9.46928
ใดๆ	-9.46961
f	-9.47025
▁เค	-9.47192
▁คุณอาจ	-9.47238
▁วเราก	-9.47249
▁เดือน	-9.47333
ศาสนา	-9.4735
ซัก	-9.47454
▁ผมมี	-9.47547
ชา	-9.4759
มันเป	-9.4771
ปลาย	-9.47716
ทฤษฎี	-9.47729
▁ขอบคุณ	-9.47759
▁าตา	-9.47816
▁เหมือนกัน	-9.47842
▁ายภาพ	-9.47858
มักจะ	-9.47894
ความรัก	-9.48114
ปั	-9.48158
กระดาษ	-9.48187
บู	-9.4845
อินเท	-9.48574
ทุกๆ	-9.48612
ระเบิด	-9.48649
▁มันน	-9.48679
ดิ	-9.48684
ิล	-9.4881
หนัก	-9.48916
▁นทาง	-9.4893
นก	-9.49267
ญ	-9.49279
เบ	-9.493
แวดล	-9.49429
เสนอ	-9.49584
เกิน	-9.49589
▁นปัญหา	-9.49649
▁ฉันคิดว	-9.49673
▁แสดง	-9.49701
▁เส	-9.49731
เศรษฐกิจ	-9.49815
▁นอกจาก	-9.49884
▁และแน	-9.50045
นิวยอ	-9.50131
▁างเป	-9.50133
▁อฉัน	-9.50181
▁T	-9.50286
รหัส	-9.50482
หล	-9.50517
จากการ	-9.50555
▁นแล	-9.50567
วาด	-9.50634
มีความ	-9.50795
ถามว	-9.50824
▁เชี	-9.509
อากาศ	-9.50922
▁าสู	-9.50967
▁ขณะที	-9.51016
▁อหา	-9.51033
▁เขียน	-9.51215
▁จะให	-9.51219
b	-9.51234
▁อค	-9.51275
เสี	-9.51323
▁G	-9.51338
เยี	-9.51411
ตะวันตก	-9.51498
เฉพาะ	-9.51673
นกระทั	-9.51691
▁คุณอาจจะ	-9.51696
▁งมี	-9.5173
ลึก	-9.51738
▁วมงาน	-9.5185
โมเลกุล	-9.51861
การออกแบบ	-9.51882
▁ตลอด	-9.51917
ตระหนัก	-9.51981
▁-	-9.52069
▁ของการ	-9.52082
▁าวว	-9.52097
รอย	-9.52225
ยืน	-9.52254
หลายๆ	-9.52265
าย	-9.52269
บท	-9.52359
เลยครับ	-9.52407
จิ	-9.52428
ดิน	-9.52495
หิน	-9.52529
ประเภท	-9.5259
สัน	-9.52594
▁วผมก	-9.52747
ลักษณะ	-9.52769
โอ	-9.52833
ไวรัส	-9.52869
▁มาร	-9.52925
ควรจะ	-9.53001
ความมั	-9.53046
ความทรงจํา	-9.53073
▁ใส	-9.5309
รั	-9.53124
▁าไม	-9.53134
สูญเสีย	-9.53158
▁าผู	-9.5318
▁ในตอน	-9.532
แพ	-9.53215
ศตวรรษ	-9.53352
▁บางครั	-9.53412
▁องค	-9.5363
▁เว	-9.5363
▁งกว	-9.53886
วัสดุ	-9.53887
พิจารณา	-9.53888
ความเสี	-9.53977
▁และเขา	-9.53979
ตัวเลข	-9.54055
▁างไรก	-9.54122
4	-9.54173
ไล	-9.54281
ขยะ	-9.543
าร	-9.54391
การรักษา	-9.54419
▁ยังคง	-9.54596
วัตถุ	-9.54632
ทรัพยากร	-9.54709
ตัด	-9.54738
ความหมาย	-9.54874
เบอร	-9.54897
อาคาร	-9.54921
▁หลาย	-9.55018
สองคน	-9.55079
▁นเดียวกับ	-9.55119
โปรแกรม	-9.5518
ผมคิดว	-9.55284
▁าคุณจะ	-9.55309
▁ในประเทศ	-9.55344
▁เซลล	-9.55388
กับผม	-9.55396
เสมอ	-9.55413
ในประเทศ	-9.55954
สินค	-9.56002
อล	-9.56089
ตลอด	-9.56129
▁และตอน	-9.56192
คําถามที	-9.5629
▁วนร	-9.56332
อเมริกา	-9.56383
ลม	-9.56484
เพ	-9.56496
▁ขณะ	-9.56539
▁คุณมี	-9.56558
การเดินทาง	-9.56682
มอบ	-9.56685
▁คําตอบ	-9.5686
ดนตรี	-9.56872
สหรัฐ	-9.56899
กระแส	-9.57196
เปิดเผย	-9.57231
เกอร	-9.57268
กรณี	-9.57286
▁ปรบมือ	-9.57316
▁วยความ	-9.57528
บางส	-9.57529
▁ซับซ	-9.5754
อวัยวะ	-9.57636
▁อมโยง	-9.5786
▁นเหมือน	-9.57884
มองหา	-9.57887
ฟอร	-9.5789
สูงสุด	-9.57893
▁มอง	-9.57932
▁เขาก	-9.5794
เพศ	-9.58014
กระดูก	-9.58027
แบคทีเรีย	-9.58064
▁างใน	-9.58155
▁อยลง	-9.58164
ของสิ	-9.5819
▁12	-9.58249
▁อการ	-9.58279
▁จะเห	-9.58461
▁งเดียว	-9.58472
ซะ	-9.58524
ไปหา	-9.58551
▁องเล	-9.58573
▁บอน	-9.58599
ฝั	-9.59117
นาน	-9.59121
▁ดิน	-9.59152
▁นเครื	-9.59195
แนว	-9.59204
สีเขียว	-9.59389
ปาก	-9.59396
▁าวหน	-9.59504
าง	-9.59555
▁บาง	-9.59587
▁ไหมครับ	-9.59665
▁นอะไร	-9.59696
เหมือนกับ	-9.59852
▁ไปยัง	-9.59871
ติดตาม	-9.59873
▁องให	-9.59903
หายไป	-9.59947
▁งไป	-9.60112
วินาที	-9.60212
▁เพราะเรา	-9.6025
สะท	-9.60318
บางคน	-9.60323
โด	-9.60334
▁แนวคิด	-9.60355
การเรียน	-9.60428
▁P	-9.60442
ยาว	-9.60514
▁9	-9.60571
▁ทุกวัน	-9.60614
นวัตกรรม	-9.60656
▁ขอบคุณมากครับ	-9.60678
อะไรก	-9.60773
▁40	-9.60933
▁าใจว	-9.60949
พัน	-9.60986
▁องบิน	-9.60998
วัคซีน	-9.61111
▁รวม	-9.61123
▁เพียงแ	-9.61195
▁งใจ	-9.61199
ไปทั	-9.61202
ราคา	-9.61269
▁คําถาม	-9.61376
ในอนาคต	-9.61481
พวกคุณ	-9.61571
▁18	-9.6163
นับ	-9.61729
ประกอบ	-9.61757
▁ผมทํา	-9.61784
▁รถ	-9.61932
นํ	-9.61939
▁คุณดู	-9.61948
▁งยืน	-9.61996
ปกป	-9.62042
▁องการให	-9.62116
▁ทุกๆ	-9.62419
มหัศจรร	-9.62422
สถิติ	-9.62422
อินเตอร	-9.62427
▁วิธีการ	-9.6246
▁นเพราะ	-9.625
บนโลก	-9.62754
▁ผมขอ	-9.62877
ยังไง	-9.62928
หมด	-9.63051
▁ไข	-9.63142
ภาวะ	-9.63332
▁มเหลว	-9.63335
▁อมัน	-9.63347
หลังจาก	-9.63353
ดา	-9.63402
เราใช	-9.63458
▁าๆ	-9.63482
▁8	-9.63512
จัด	-9.63573
แสน	-9.63651
▁อมูลที	-9.63781
สีแดง	-9.6382
▁งเรา	-9.63828
มองดู	-9.63894
ตัน	-9.6398
มีคน	-9.64124
▁จะช	-9.64128
เปล	-9.64357
บังคับ	-9.64374
ขยาย	-9.64402
กิ	-9.64403
ปัจจุบัน	-9.64429
3	-9.64468
2	-9.64641
เหตุผล	-9.64659
ทดสอบ	-9.64665
▁นเด	-9.64667
▁อาศัย	-9.64823
k	-9.64842
ทางเลือก	-9.64844
▁อนร	-9.64922
คาด	-9.64943
หลายอย	-9.64956
สมัย	-9.65036
▁ามันจะ	-9.65039
▁แข	-9.65055
▁ปีก	-9.65101
ประชาธิปไตย	-9.6513
อันตราย	-9.65166
อีกด	-9.65247
คุณค	-9.65281
วิดีโอ	-9.65285
▁เฮ	-9.65289
▁นโรค	-9.65314
▁นให	-9.65568
พลัง	-9.65591
▁บอก	-9.65975
ลดลง	-9.66013
ปัจจัย	-9.6605
อม	-9.6606
มุมมอง	-9.66261
▁างก	-9.66295
▁จะเข	-9.66309
งั	-9.66382
กิจกรรม	-9.66492
นึก	-9.66531
▁นแบบ	-9.66736
กู	-9.66808
นึกถึง	-9.66872
อาชีพ	-9.66921
▁นผม	-9.66984
le	-9.67029
ยาน	-9.67037
▁งงาน	-9.67057
ฝึก	-9.67066
มาถึง	-9.67077
ดัง	-9.6714
ขับ	-9.67222
▁ฟ	-9.67326
แว	-9.67423
การเมือง	-9.67516
ปีที	-9.67523
▁งไม	-9.67564
กังวล	-9.67598
▁ฉันต	-9.67639
หลักฐาน	-9.67725
ดีๆ	-9.67801
▁สถาน	-9.67901
เมล	-9.67924
▁าอะไร	-9.67931
▁นล	-9.67931
▁และความ	-9.67969
ฝรั	-9.67994
ในปัจจุบัน	-9.68217
ยุโรป	-9.68222
▁L	-9.68242
▁ประกอบ	-9.68382
▁วิ	-9.68421
▁เขาไม	-9.68445
▁าไร	-9.68485
▁ของผม	-9.68489
▁อจะ	-9.68539
C	-9.68616
ตรวจ	-9.68633
▁ผลิต	-9.68643
คืออะไร	-9.68702
สิทธิ	-9.6874
▁เหตุผล	-9.68861
เยอะ	-9.68913
โปร	-9.68941
คนนี	-9.68971
▁ยวกับเรื	-9.69059
ทางการเมือง	-9.69083
ทําลาย	-9.6913
▁นเชิง	-9.69198
▁25	-9.69214
ภูมิ	-9.69266
▁รวมถึง	-9.69289
สวน	-9.69315
▁องเป	-9.69333
ความท	-9.69356
สาเหตุ	-9.69405
ความสุข	-9.69431
สองสาม	-9.6973
re	-9.69748
แปลก	-9.69885
▁ระดับ	-9.69968
ปรากฏ	-9.70107
ภาพยนต	-9.70135
▁งมัน	-9.70294
ตู	-9.70295
▁งขัน	-9.70326
▁าต	-9.70354
▁นะ	-9.70561
แทน	-9.70623
มหาวิทยาลัย	-9.7063
เผ	-9.70667
วร	-9.70796
ตึก	-9.70827
โรงพยาบาล	-9.70857
การกระทํา	-9.70911
▁7	-9.70913
▁สุดในโลก	-9.71047
▁โดยการ	-9.7105
7	-9.71272
ขับรถ	-9.71449
▁โรงเรียน	-9.71575
กับสิ	-9.71613
on	-9.71699
แอฟริกา	-9.71844
▁องทดลอง	-9.71905
นอน	-9.72052
คอ	-9.72053
สาธารณะ	-9.7209
▁แหละ	-9.72112
▁จะถูก	-9.72206
สมาชิก	-9.72243
ารย	-9.72264
อีกต	-9.72279
คลื	-9.72293
▁งผม	-9.72313
▁ะครับ	-9.72344
ยอด	-9.72384
ดํา	-9.72389
การผลิต	-9.72413
▁มจาก	-9.7244
▁จะสามารถ	-9.72444
ศิลปะ	-9.7249
ฉะนั	-9.72648
อะ	-9.72735
ศิลปิน	-9.72738
▁พระ	-9.7278
หลายคน	-9.72834
▁นะครับ	-9.72845
▁นกับ	-9.72849
รูปร	-9.72896
สัมผัส	-9.72898
▁เราทุกคน	-9.7296
▁มน	-9.73044
▁คุณกําลัง	-9.73062
ไ	-9.73232
▁อไม	-9.73288
▁บไซ	-9.73309
▁านล	-9.73369
ลิง	-9.73462
ความสามารถ	-9.73506
ความร	-9.73538
▁เขาเป	-9.73541
▁นช	-9.73583
▁โต	-9.73696
ปืน	-9.73729
▁างดี	-9.73745
ธรรมดา	-9.73803
โดน	-9.73822
9	-9.73847
▁าพวกเรา	-9.73924
▁ไอ	-9.74012
กลไก	-9.74067
หวัง	-9.74081
▁นคง	-9.74107
จีน	-9.74202
ภัย	-9.74291
ของเด	-9.74342
▁ชิ	-9.74393
▁มีทาง	-9.74438
▁สําคัญที	-9.74486
▁รัฐบาล	-9.74559
▁นเมื	-9.74735
▁ําหนัก	-9.74887
ระ	-9.74937
ยุ	-9.74957
▁วมกับ	-9.7508
มีชีวิตอยู	-9.75081
มีส	-9.75143
คําว	-9.75244
▁บปวด	-9.7527
▁ใ	-9.75313
▁องเรียน	-9.75366
▁ไร	-9.7549
▁าหน	-9.75496
ความเห	-9.75518
▁ออกมา	-9.75549
เฝ	-9.75763
มหาสมุทร	-9.75836
▁ขนาด	-9.75837
โลกที	-9.75933
▁ากลัว	-9.76006
▁ผมว	-9.76007
แจ	-9.76094
ิน	-9.76186
▁เพราะผม	-9.7621
แอ	-9.76211
▁ปัจจุบัน	-9.76233
รวบรวม	-9.76253
▁คุณคง	-9.76259
at	-9.76291
▁ชัด	-9.76297
รองเท	-9.76322
▁งมาก	-9.7651
หญิง	-9.7653
กับคุณ	-9.76546
เลิก	-9.76571
▁อผู	-9.76613
กําหนด	-9.76773
▁หา	-9.76865
▁นเช	-9.7709
ความขัดแย	-9.77211
ขวา	-9.77218
▁าให	-9.77247
จันทร	-9.77282
▁องนั	-9.77309
ความฝัน	-9.77354
หมื	-9.77403
ผสม	-9.77436
▁ยังไง	-9.77511
5	-9.77701
บริเวณ	-9.77763
▁เปิด	-9.77834
▁คนอื	-9.77834
เวอร	-9.77919
▁การเปลี	-9.77925
เนี	-9.77929
ซา	-9.7813
ประตู	-9.78178
บิ	-9.78239
อั	-9.78332
ัด	-9.78394
▁งได	-9.78417
▁หลัง	-9.78431
▁บางคน	-9.78459
เอกภพ	-9.78615
▁ความเป	-9.78665
▁สนใจ	-9.78677
ทศวรรษ	-9.78742
▁และทําให	-9.7879
การสื	-9.7881
▁กิน	-9.78841
▁11	-9.78874
ลืม	-9.78999
▁าถ	-9.79244
โอกาส	-9.79362
งานวิจัย	-9.79404
ยอมรับ	-9.79433
บอกผม	-9.79458
▁และคุณก	-9.79488
▁ชาว	-9.79568
▁อเท	-9.79653
ทําอย	-9.79707
▁เขาจะ	-9.79773
▁60	-9.79793
มีความสุข	-9.79872
ระยะ	-9.79924
กับเรา	-9.79927
▁E	-9.79954
ิร	-9.7999
▁ปุ	-9.80014
การทํา	-9.80093
ออกมาจาก	-9.80121
นโยบาย	-9.80133
ลาย	-9.80228
หมอ	-9.80243
ในสมอง	-9.80301
▁ผมชอบ	-9.80428
บรรดา	-9.80432
พลาสติก	-9.80434
▁างของ	-9.80477
▁ายน	-9.80518
▁เราสร	-9.80543
เผชิญ	-9.8058
สายตา	-9.80581
▁ภาษา	-9.80669
or	-9.80784
บี	-9.809
กําแพง	-9.80966
▁อืม	-9.80975
ประการ	-9.81141
ยก	-9.8119
ความต	-9.81226
กรรม	-9.81263
ผลลัพ	-9.81325
ic	-9.81338
▁นเจ	-9.81368
ลบ	-9.81415
ทีเดียว	-9.81439
การตัดสินใจ	-9.81594
ลูกสาว	-9.81674
▁เราจะต	-9.81678
อะไรเลย	-9.81704
งานที	-9.81726
ชม	-9.81748
ผมก	-9.81764
▁พวกเขาต	-9.81941
แรงบันดาลใจ	-9.82046
▁องการจะ	-9.82156
ทางวิทยาศาสตร	-9.82228
6	-9.82265
▁หยุด	-9.82276
เกาะ	-9.82453
▁างแท	-9.82537
ไหมครับ	-9.82611
ติดต	-9.82636
▁วยซ	-9.8273
as	-9.82763
ing	-9.82777
ทาน	-9.82778
▁นักเรียน	-9.82841
▁การที	-9.82939
สุ	-9.8295
มาที	-9.82976
ดอก	-9.83113
ลู	-9.83198
ใครสักคน	-9.83257
จะสามารถ	-9.8328
ราก	-9.83329
▁ลง	-9.83403
สภาวะ	-9.83409
▁งตัว	-9.83556
ฮ	-9.83556
กอง	-9.83609
เตือน	-9.83649
ราว	-9.83661
แปด	-9.83782
▁พวกเขามี	-9.83795
▁กําลังจะ	-9.83805
▁พัฒนา	-9.83832
ภาค	-9.83838
▁เลยว	-9.83863
▁วว	-9.83951
กลับบ	-9.84104
หนี	-9.8423
พนักงาน	-9.84237
นิดหน	-9.84253
กราฟ	-9.84269
จิตใจ	-9.84277
เกือบ	-9.84305
▁80	-9.84306
▁นความ	-9.84327
แมน	-9.84331
ฮา	-9.84353
โลกใบ	-9.84363
อา	-9.84396
ความพยายาม	-9.84477
บริการ	-9.84529
โป	-9.84541
อี	-9.84665
สาว	-9.84828
ตัวเลือก	-9.8484
ประชุม	-9.84879
เหยื	-9.84883
▁ของคุณ	-9.84894
นําเสนอ	-9.84901
▁อสิ	-9.84921
v	-9.84962
▁ามาก	-9.85009
นิยม	-9.85034
▁วมมือกัน	-9.85234
▁เราเป	-9.85312
▁และเขาก	-9.8532
▁เดี	-9.8532
▁โรค	-9.85341
หนังสือพิมพ	-9.85344
▁อนกลับไป	-9.85376
มุม	-9.85457
▁ผมเลย	-9.85626
▁างเดียว	-9.85656
ปลอดภัย	-9.85784
ประเทศที	-9.85786
▁คอมพ	-9.85967
หู	-9.86038
แร	-9.86044
เลข	-9.86097
ลิน	-9.86104
ความยากจน	-9.86165
มันไป	-9.86194
คร	-9.86228
ลูกชาย	-9.86246
มีโอกาส	-9.86251
▁าเดิม	-9.8626
ลุก	-9.86295
รายละเอียด	-9.86505
▁แบ	-9.86525
สัญญา	-9.86557
▁อกัน	-9.86572
▁าจะมี	-9.86629
▁คุณทํา	-9.8664
▁ขวบ	-9.8668
ทุน	-9.86746
ลงมา	-9.86769
คํานวณ	-9.86858
การพูด	-9.8694
ใบหน	-9.86958
ความรุนแรง	-9.87088
ในเมือง	-9.8717
▁าเธอ	-9.87205
เคยเห	-9.87297
▁กลาง	-9.87351
อยากให	-9.87406
รวมกัน	-9.87419
เขต	-9.87456
แนะนํา	-9.87527
ภาพที	-9.87595
ิด	-9.87613
▁และฉันก	-9.87615
ถัดไป	-9.87622
▁N	-9.87623
จิต	-9.8769
▁ในเมือง	-9.87692
S	-9.87703
สรุป	-9.87742
โยน	-9.87834
กําจัด	-9.87899
จํากัด	-9.879
โกหก	-9.87978
หลักการ	-9.8799
แบบที	-9.87994
▁200	-9.87999
ไซ	-9.88031
▁าอย	-9.88071
▁ตัดสินใจ	-9.88083
▁แว	-9.88182
โฆษณา	-9.88192
ทุกข	-9.8824
ลําดับ	-9.88393
▁เยี	-9.88403
ลํา	-9.88412
คนนั	-9.88509
▁นดิน	-9.88563
▁หมายความ	-9.88563
▁โครง	-9.88614
อาวุธ	-9.88717
คําพูด	-9.88753
วิชา	-9.88796
▁เจอ	-9.8886
▁มันถูก	-9.88929
▁ฉันเป	-9.88962
ลอย	-9.88987
▁กับการ	-9.89011
▁งๆ	-9.89017
อัตรา	-9.89109
it	-9.89123
▁มีข	-9.89236
ผลกระทบ	-9.89255
ของความ	-9.89322
ณฑ	-9.8935
แนวทาง	-9.89362
▁จนถึง	-9.8939
▁ละคน	-9.89391
ทางด	-9.8948
มัก	-9.89523
▁โค	-9.89651
▁การศึกษา	-9.89739
อํานาจ	-9.89741
เซีย	-9.89801
การแข	-9.89877
การปฏิวัติ	-9.90118
▁เม	-9.90158
▁อาร	-9.90203
▁ในเวลา	-9.90206
ของชีวิต	-9.90242
▁การใช	-9.90315
หนู	-9.90317
▁ผิด	-9.90349
▁างต	-9.90359
▁ผมเคย	-9.90449
ฉบับ	-9.90524
▁นฟู	-9.90525
หมุน	-9.90525
เสร	-9.90656
แปล	-9.90699
A	-9.90709
▁งเดิม	-9.90714
ไกล	-9.90722
ความสนใจ	-9.90758
แทบ	-9.90777
ดาวอังคาร	-9.90832
▁ผมกําลัง	-9.90857
ในอดีต	-9.90867
▁มักจะ	-9.90957
▁วมมือ	-9.91019
▁งสําคัญ	-9.91025
ดูว	-9.91123
จักรยาน	-9.91123
▁สวยงาม	-9.91222
ยี	-9.91264
อาศัย	-9.91292
วีดีโอ	-9.91404
รณ	-9.91476
▁วนของ	-9.91569
▁องน	-9.91588
ในฐานะ	-9.91693
ลุ	-9.91698
▁หลังจากนั	-9.91729
การเล	-9.91776
▁านดอลลา	-9.91862
เฉลี	-9.91868
▁มีส	-9.91875
ัง	-9.91885
สถาบัน	-9.91983
อินเดีย	-9.92058
▁งน	-9.92072
▁าเชื	-9.92091
เราได	-9.92132
ประหลาด	-9.92144
แบบจําลอง	-9.92147
ภ	-9.92297
ดาวเทียม	-9.92315
วงจร	-9.92345
p	-9.92349
ญี	-9.92364
มาร	-9.92365
ทา	-9.92434
มีปัญหา	-9.92464
▁สื	-9.92467
หนทาง	-9.92511
อิ	-9.92554
หลังจากนั	-9.92618
หลายปี	-9.92687
▁มคน	-9.9279
▁อยากจะ	-9.92837
ยังมี	-9.92851
ประจํา	-9.92917
▁คุณฟัง	-9.92976
ลั	-9.93017
▁งคําถาม	-9.93052
▁90	-9.93176
ถามคําถาม	-9.93276
ไอเดีย	-9.93537
▁นจะ	-9.93622
ยาวนาน	-9.93693
▁อตั	-9.93759
เปรียบเทียบ	-9.93897
หยิบ	-9.93913
อังกฤษ	-9.93926
บางครั	-9.9394
▁ตอบ	-9.93962
อีกมากมาย	-9.93966
▁โครงการ	-9.93998
วิจัย	-9.94024
▁งเล	-9.94067
หาย	-9.94069
จดจํา	-9.94133
สถาปัตยกรรม	-9.94134
▁สุดที	-9.94135
ri	-9.94163
▁เราจํา	-9.9419
▁างไม	-9.94225
▁และพวกเขาก	-9.94401
▁วนมาก	-9.94404
สวยงาม	-9.94408
ภาพถ	-9.94444
ฮาร	-9.94449
นิวเคลีย	-9.94511
บล	-9.94554
พันธ	-9.94558
กันว	-9.946
สนาม	-9.94612
การทดสอบ	-9.94632
▁อวัน	-9.94652
ธนาคาร	-9.94697
เมอร	-9.94718
▁เซนต	-9.9476
แซ	-9.9478
หม	-9.94789
ol	-9.94804
มาเป	-9.94886
เลื	-9.9519
ภาษาอังกฤษ	-9.95221
บรรยาย	-9.95237
▁ยครับ	-9.95285
แบบเดียวกัน	-9.9534
ทรัพย	-9.95359
แถว	-9.95359
หายใจ	-9.95366
▁และด	-9.95375
▁70	-9.95459
ยินดี	-9.95594
การแสดง	-9.95662
▁งแล	-9.95738
ทันที	-9.95761
▁จํานวน	-9.95876
▁เสียงดนตรี	-9.95898
สัมภาษณ	-9.9598
ตลอดเวลา	-9.96158
▁วๆ	-9.9629
ทน	-9.96347
▁รอด	-9.96429
อเมริกัน	-9.96434
▁ปล	-9.96471
สาขา	-9.9655
ระบุ	-9.96615
เอกสาร	-9.96656
สนุก	-9.96665
ฉลาด	-9.96885
จะถูก	-9.96894
ทํามัน	-9.96915
▁ขั	-9.97032
ถือ	-9.97071
วิทยา	-9.97102
▁ากัน	-9.97225
แปลง	-9.97303
จี	-9.97401
จุดที	-9.97402
▁และต	-9.97452
m	-9.97467
ในอเมริกา	-9.97547
▁นและ	-9.97587
อด	-9.97589
มากเกินไป	-9.97593
▁าหาก	-9.97629
▁ในแบบที	-9.97697
▁ามันไม	-9.97757
▁ตาย	-9.97796
I	-9.97816
ผลักดัน	-9.97851
▁เหมาะสม	-9.97888
บทเรียน	-9.97912
▁แสง	-9.97997
จะทําอย	-9.98042
คุยกับ	-9.98121
▁ในระดับ	-9.98179
ยืนอยู	-9.98279
▁ดัง	-9.98316
เลยว	-9.98337
ไก	-9.98381
▁อันนี	-9.98421
ed	-9.98421
ดิจิตอล	-9.98504
เกลียด	-9.98504
▁าเมื	-9.98525
ปู	-9.98572
▁อพวกเขา	-9.98607
แรกที	-9.98723
เที	-9.98753
▁ปรากฏ	-9.98755
กําลังทํา	-9.98757
ประวัติ	-9.98827
ไง	-9.98828
ปา	-9.98858
es	-9.98928
▁ทําอะไร	-9.99013
▁านการ	-9.99029
ของประเทศ	-9.99046
▁เรามา	-9.99139
วิศวกร	-9.99144
ปริศนา	-9.99145
▁งเศส	-9.99145
▁นผิว	-9.99184
มากนัก	-9.99212
ขอบ	-9.99215
ความกลัว	-9.99351
▁เดิน	-9.9936
ไปกับ	-9.99383
ฟิสิก	-9.99397
การควบคุม	-9.99539
ปุ	-9.99587
เกม	-9.99621
ความจํา	-9.9964
กระโดด	-9.99728
ซอฟ	-9.99789
อิสราเอล	-9.9979
อนุภาค	-9.99837
เจาะ	-9.99868
ความสามารถในการ	-9.99963
ิง	-10.0004
▁งพา	-10.0004
นทรีย	-10.0013
นาที	-10.002
มันก	-10.0021
▁s	-10.0024
ขนส	-10.004
แช	-10.0047
เลียนแบบ	-10.0059
ฉีด	-10.0061
นําไป	-10.0063
อิเล	-10.0066
▁มีสิ	-10.0069
มหาศาล	-10.0069
▁ลี	-10.0084
แกน	-10.0086
ําไปสู	-10.0092
▁.	-10.0092
▁ความจริง	-10.0109
▁I	-10.0111
▁เราจะสามารถ	-10.0111
คนเดียว	-10.0135
▁อคน	-10.0139
▁ผมเห	-10.0143
อนด	-10.0147
เหรอ	-10.0154
▁นพื	-10.0171
ตอบสนอง	-10.0173
▁เหนือ	-10.0178
ภูเขา	-10.0187
อิสระ	-10.0189
กั	-10.0191
▁กลับมา	-10.0192
▁งแรง	-10.0192
▁อาหาร	-10.0194
ประเมิน	-10.0199
กาย	-10.0199
แผน	-10.02
▁หรือแม	-10.0201
▁าใคร	-10.0202
ประชาชน	-10.0206
หัก	-10.021
ฉาก	-10.0214
▁ควรจะ	-10.0221
▁ายกับ	-10.0225
▁สังคม	-10.0228
เลอร	-10.0237
ระดับโลก	-10.0245
ฟรี	-10.0248
คัน	-10.0256
▁หมายถึง	-10.0256
▁ไกล	-10.0268
▁าเราสามารถ	-10.0275
▁างนอก	-10.0279
ใดก	-10.0292
▁อายุ	-10.0292
าดเจ	-10.0298
▁อุ	-10.0303
ra	-10.0308
ความหลากหลาย	-10.0309
▁อป	-10.0311
สองปี	-10.0317
▁ครอบครัว	-10.0323
▁เลี	-10.0323
ขับเคลื	-10.0327
ทราย	-10.0327
อนุรักษ	-10.0336
▁ในทาง	-10.0336
▁คือว	-10.035
ังกล	-10.0351
▁หรือเปล	-10.0358
▁ครู	-10.0376
เดี	-10.0377
▁าใช	-10.038
▁ภายใ	-10.0394
▁นทุน	-10.0394
▁นจุด	-10.0396
ในระดับ	-10.0403
กรอบ	-10.0412
และการ	-10.0414
▁กับคน	-10.0417
ความหวัง	-10.0426
ฉ	-10.0427
พุ	-10.0428
สต	-10.043
▁างล	-10.0431
รายงาน	-10.0432
คือการ	-10.0446
▁ในอีก	-10.0449
นักเขียน	-10.045
เดินทางไป	-10.0466
ประกาศ	-10.0474
ฟัน	-10.0481
ัล	-10.0483
▁ประเด	-10.0488
มาอยู	-10.0493
▁องเข	-10.0494
จะทําอะไร	-10.0504
00	-10.0505
ลูกค	-10.0508
ถุง	-10.0511
คุยกัน	-10.0514
ทํางานร	-10.0535
ความปลอดภัย	-10.0539
▁สําคัญมาก	-10.0539
▁องจักร	-10.0541
สด	-10.0563
ะห	-10.0571
โบราณ	-10.0579
โปรตีน	-10.0579
วิเศษ	-10.0585
ทราบ	-10.0592
▁หรอก	-10.0593
▁อมั	-10.0609
▁คาร	-10.061
▁าคุณเป	-10.0617
สวม	-10.0623
อีกแล	-10.0623
▁ามันมี	-10.0626
▁ผมหมายถึง	-10.0644
กองทัพ	-10.0648
เรียกมัน	-10.0664
ฐาน	-10.0673
เหลือเกิน	-10.0676
▁ชายคน	-10.0678
▁ในกรณี	-10.0705
▁ดอลลา	-10.0711
คงจะ	-10.0722
ปฏิบัติการ	-10.0729
▁วงที	-10.073
ฟิ	-10.0749
▁นมนุษย	-10.0752
▁กระบวนการ	-10.0765
ปัญญา	-10.0781
เยอรมัน	-10.0782
ปะการัง	-10.0784
วิศวกรรม	-10.0788
▁างความ	-10.0793
▁เย	-10.0793
▁รูป	-10.0799
เฟ	-10.0811
▁แอ	-10.0812
มาให	-10.0818
รูปภาพ	-10.0825
และผู	-10.0837
ไปอีก	-10.0838
ในแต	-10.0844
ัน	-10.0847
▁เราอาจ	-10.085
ปีก	-10.085
โพ	-10.0856
กระจก	-10.0858
อีเมล	-10.0861
▁วินาที	-10.0863
▁นผล	-10.0867
▁และแม	-10.0875
▁างประเทศ	-10.0876
▁ซี	-10.0879
▁คนส	-10.0882
▁รัก	-10.0887
ัส	-10.089
สอบ	-10.0891
▁และพวกเรา	-10.0902
▁ตูน	-10.0902
ติดตั	-10.0905
ตํารวจ	-10.0909
▁มิ	-10.0909
▁งห	-10.0912
ฟา	-10.0914
เสียชีวิต	-10.0921
▁เลือก	-10.0922
▁อเขา	-10.0928
นํามา	-10.0944
ชีวิตที	-10.0948
ยึด	-10.0957
บั	-10.0959
8	-10.0964
รัง	-10.0968
ยั	-10.0969
▁อยครั	-10.097
ของพวกมัน	-10.0972
ชัดเจน	-10.0977
หมายถึง	-10.0986
ทําการ	-10.099
▁กซี	-10.0997
บัญชี	-10.1
ไปตาม	-10.1013
▁จะเปลี	-10.1019
นิว	-10.1021
▁ริ	-10.1022
โลกของเรา	-10.1031
▁ลองดู	-10.1033
สัญ	-10.1038
กลิ	-10.1042
หลากหลาย	-10.1048
▁างชัดเจน	-10.1052
ในอีก	-10.1054
เพาะ	-10.1057
▁ยอม	-10.1059
▁องอก	-10.1063
▁ผมสามารถ	-10.1067
เรียกร	-10.1082
การผ	-10.1083
ออ	-10.1086
ทีวี	-10.1087
▁อการร	-10.109
▁นห	-10.1092
บอกได	-10.1095
▁วทั	-10.1098
▁กระจาย	-10.1102
is	-10.1103
ภายนอก	-10.1103
▁งคือ	-10.1103
ในยุค	-10.1107
▁สุดท	-10.1107
เคมี	-10.1108
▁อนๆ	-10.1113
▁ายรูป	-10.1123
▁กซ	-10.1124
M	-10.1127
▁มีโอกาส	-10.1128
▁มกัน	-10.113
ลงทุน	-10.1131
▁นน	-10.1133
E	-10.1136
D	-10.1138
ch	-10.1141
โทษ	-10.1141
ปฏิกิริยา	-10.1145
ปฏิเสธ	-10.1145
การวิจัย	-10.1146
สงค	-10.1147
ขวด	-10.1157
▁นานมา	-10.1159
ฝัง	-10.116
ทําการทดลอง	-10.1165
▁ในสถาน	-10.1166
▁างอื	-10.1167
สวย	-10.1167
แตก	-10.1179
ทางเศรษฐกิจ	-10.1179
การลงทุน	-10.1186
▁อเป	-10.1187
▁ในสิ	-10.1199
▁อหน	-10.12
▁มีชื	-10.1203
▁ชนิด	-10.1206
รถไฟ	-10.1208
ตัดสิน	-10.1209
เบิร	-10.1219
ลงไปใน	-10.1234
▁มีปัญหา	-10.1237
บุ	-10.1238
เศร	-10.1239
▁ายมาก	-10.1259
ประกัน	-10.1266
▁างแรก	-10.1289
คดี	-10.1292
ro	-10.1294
▁ยวกับสิ	-10.1296
อาจเป	-10.1307
โบ	-10.1308
ประสาท	-10.131
ึกซึ	-10.1322
ประสบความ	-10.133
▁พบว	-10.1334
▁นแบบนี	-10.1335
ผิว	-10.1338
▁ยุค	-10.1348
▁างมัน	-10.1349
▁งเสริม	-10.1358
เตรียม	-10.1362
▁เสมอ	-10.1362
▁นิยม	-10.1369
วางแผน	-10.1374
กันอย	-10.1375
▁เฉพาะ	-10.1376
รับผิดชอบ	-10.1378
โรงงาน	-10.1388
▁งปี	-10.1393
แอน	-10.1396
สิบ	-10.1402
คอน	-10.1404
▁นเรา	-10.1409
▁หลายคน	-10.1413
ราบ	-10.1414
อดีต	-10.1415
▁อจํากัด	-10.1432
▁ในปัจจุบัน	-10.1441
▁นสุด	-10.1442
▁องต	-10.1451
การเชื	-10.1467
▁17	-10.1477
ทารก	-10.1479
ตรงข	-10.1482
มากพอ	-10.1485
จุ	-10.1491
▁นมี	-10.1495
สําหรับผม	-10.1504
▁นใคร	-10.1504
▁และสร	-10.1508
เชิญ	-10.1511
พลเมือง	-10.1512
สะพาน	-10.1515
มาตรฐาน	-10.1515
▁นยํา	-10.1516
▁ดวง	-10.1525
พยายามจะ	-10.1526
จะเข	-10.1526
ฮิ	-10.1535
รอบๆ	-10.1536
▁ตลอดเวลา	-10.1539
▁รี	-10.154
พอใจ	-10.1546
พบกับ	-10.1548
ียร	-10.1561
มูลค	-10.1575
▁จจริง	-10.1576
เติม	-10.1577
▁อาจเป	-10.1579
▁างไกล	-10.1581
ลับ	-10.1583
▁าซ	-10.1584
ความช	-10.1587
ประหลาดใจ	-10.1589
ตรา	-10.1593
รงค	-10.1594
สารเคมี	-10.1594
▁มหาวิทยาลัย	-10.1598
▁นบ	-10.1601
▁ในยุค	-10.1609
จะรู	-10.1622
บทความ	-10.1622
หญ	-10.1623
▁านหนึ	-10.163
▁ฟุต	-10.1632
รึ	-10.1644
ทวีป	-10.1647
ยาม	-10.1648
าบ	-10.1653
การเติบโต	-10.1657
▁วมัน	-10.1664
ฝูง	-10.1666
นักการเมือง	-10.1666
การเงิน	-10.1667
▁สู	-10.1674
▁างพื	-10.1675
เมฆ	-10.168
ฉาย	-10.168
▁าพวกมัน	-10.1681
▁จัด	-10.1686
นักออกแบบ	-10.1689
▁หญิงคน	-10.169
ทิศทาง	-10.1691
▁าห	-10.1708
▁ออกไป	-10.173
สมัคร	-10.1733
ฟาร	-10.1734
▁าอี	-10.1734
ยิง	-10.1735
▁มด	-10.1737
โท	-10.1738
บัตร	-10.1742
▁ถือ	-10.1742
▁าใน	-10.1747
▁แสน	-10.1749
▁ฉันอยากจะ	-10.1753
อะไรสัก	-10.1781
ตนเอง	-10.1784
เมน	-10.1794
บริหาร	-10.1796
▁ความสนใจ	-10.1799
ตรวจสอบ	-10.18
ตลก	-10.1806
▁างภาพ	-10.181
นิยาม	-10.1816
▁รัฐ	-10.1817
▁ายของ	-10.1818
▁มุม	-10.1819
ไปเลย	-10.182
สะสม	-10.1822
อุบัติเหตุ	-10.1822
▁มันยัง	-10.1826
บอกคุณ	-10.1828
▁อผ	-10.183
▁พี	-10.1831
มวล	-10.1834
การแบ	-10.1843
▁มือ	-10.1845
ดุ	-10.187
▁อยมาก	-10.1871
อีกคน	-10.1875
▁ทิ	-10.1875
▁อะไรคือ	-10.1885
ความลับ	-10.1887
▁ของเขา	-10.1892
แรงงาน	-10.1908
ษ	-10.1913
▁โด	-10.1918
เราจะ	-10.1928
▁โร	-10.1929
กด	-10.1937
▁อีกครั	-10.1937
▁านหลัง	-10.1956
สีน	-10.1956
▁ดีมาก	-10.1958
สามารถทํา	-10.1961
▁กระ	-10.1964
พึ	-10.1965
จากสิ	-10.1968
เฉ	-10.1971
บริจาค	-10.1976
เบร	-10.1978
ฤกษ	-10.1979
▁างหาก	-10.198
กันและกัน	-10.1982
งค	-10.1984
▁ประสบ	-10.1985
หลีกเล	-10.1993
นักศึกษา	-10.1994
el	-10.2
▁ตี	-10.2001
เอาไป	-10.2009
กับฉัน	-10.2009
▁มือถือ	-10.2024
รุนแรง	-10.2032
ในแอฟริกา	-10.2042
▁อัล	-10.2043
โดยไม	-10.2044
▁ยั	-10.2051
มาตลอด	-10.2059
สืบ	-10.206
เอก	-10.2071
สุข	-10.2072
▁อาจจะเป	-10.2073
ในเวลา	-10.208
ทางชีวภาพ	-10.2086
ตะ	-10.209
▁องไป	-10.2093
ในสังคม	-10.2101
แมลง	-10.2102
รอน	-10.2103
▁ประสบความ	-10.211
▁วเรา	-10.2112
สบาย	-10.2114
▁ยังเป	-10.2114
▁าสุด	-10.2117
▁ายเงิน	-10.2118
▁งการ	-10.2121
▁ยมมาก	-10.213
▁เกิดการ	-10.213
จดหมาย	-10.2131
0	-10.2132
พิษ	-10.2136
ไฮ	-10.2142
ไปมา	-10.2144
▁วยตัวเอง	-10.2145
▁16	-10.2149
จักรวาล	-10.2158
▁เราควร	-10.2162
ิหร	-10.2165
เองก	-10.2174
ความเจ	-10.2177
▁นหมายความ	-10.2178
▁หนังสือ	-10.2184
กับเรื	-10.2184
ตัวเล	-10.2187
สีฟ	-10.2189
▁กับสิ	-10.2197
▁พา	-10.2197
และความ	-10.2198
▁านที	-10.2199
ตรงกันข	-10.22
▁นิ	-10.2201
▁สามารถทํา	-10.2209
ความสําคัญ	-10.2212
▁นขึ	-10.2215
ดึงดูด	-10.2215
เสา	-10.2216
ชีววิทยา	-10.2228
▁ามกลาง	-10.2228
ซู	-10.2235
ของสมอง	-10.224
▁ฉันมี	-10.2246
▁สัก	-10.2247
กับคน	-10.2248
าส	-10.2253
การแก	-10.2257
▁มันต	-10.2262
▁าเราต	-10.2265
▁แทน	-10.2267
เฮ	-10.227
าน	-10.2283
โดยตรง	-10.2284
▁สั	-10.2285
▁ราย	-10.2289
คว	-10.2297
st	-10.2297
หลุด	-10.23
▁านปี	-10.2303
▁นเท	-10.2303
คุก	-10.2304
▁บริการ	-10.2311
คุณภาพ	-10.2315
▁คุณเป	-10.233
อันดับ	-10.233
อุดม	-10.2331
ของเมือง	-10.2332
▁และคน	-10.2335
▁21	-10.2338
▁องว	-10.2349
คนทั	-10.2351
▁างให	-10.2354
▁มีประสิทธิภาพ	-10.2358
▁หุ	-10.2362
สหรัฐอเมริกา	-10.2364
ปัญหาที	-10.2369
▁และข	-10.2371
▁R	-10.2372
▁าคุณต	-10.2373
ีย	-10.2376
▁นพวก	-10.2377
ผมจะ	-10.2382
สุนัข	-10.2382
▁เลว	-10.2383
เรีย	-10.2383
▁องเกี	-10.2384
เนีย	-10.2386
กระจาย	-10.2393
หัวข	-10.2396
ไปเรื	-10.2397
ในโรงเรียน	-10.2399
ตะวันออก	-10.2399
มิติ	-10.24
สามี	-10.2402
▁เราเข	-10.241
ขาว	-10.2412
รอง	-10.2415
รางวัล	-10.2424
คาดหวัง	-10.2426
ปิ	-10.2429
ter	-10.2431
▁ผมกําลังจะ	-10.2432
▁งผล	-10.2448
▁อยก	-10.2464
ใครบางคน	-10.2464
สับสน	-10.2464
การบรรยาย	-10.2474
ชาวอเมริกัน	-10.2478
▁เราพบ	-10.2483
▁ไมล	-10.2485
ทรง	-10.2493
▁งความ	-10.2494
ไปข	-10.2506
โรง	-10.2509
สเตอร	-10.2514
ภรรยา	-10.2518
ประธานาธิบดี	-10.2548
เรืองแสง	-10.2549
เกมส	-10.2554
▁เราเรียกว	-10.2554
ขน	-10.2558
▁นพ	-10.2558
ขอบเขต	-10.2558
▁เคยมี	-10.2561
ของตนเอง	-10.2566
▁และส	-10.2567
การคํานวณ	-10.2575
เดินไป	-10.2591
▁งคุณ	-10.2595
บอกเราว	-10.2598
th	-10.2611
▁พวกเธอ	-10.2612
ซาก	-10.2615
▁ปลา	-10.2615
▁อถือ	-10.2617
▁ไปสู	-10.2617
ยู	-10.2619
การเลือกตั	-10.2622
ไปอย	-10.2628
จัดการกับ	-10.2635
มืด	-10.2636
▁วยเหตุผล	-10.2642
อบ	-10.2648
คุย	-10.2658
บอกให	-10.2669
▁พวกเขาทํา	-10.2676
เลีย	-10.2677
▁สําหรับคน	-10.2678
สมัยให	-10.2688
▁ในทุก	-10.2693
ชาร	-10.2697
▁คงจะ	-10.2703
▁24	-10.2707
▁วยงาน	-10.271
อัล	-10.2713
ขยับ	-10.2717
▁จะนํา	-10.2718
▁คําว	-10.2719
▁สุดใน	-10.272
▁อตอน	-10.2723
ละลาย	-10.2726
▁วางใจ	-10.2727
▁มีขนาด	-10.2729
ศาล	-10.2731
▁เกือบ	-10.2732
▁งคน	-10.2733
▁ในวัน	-10.2738
▁นเคย	-10.2739
▁อา	-10.2739
ขณะ	-10.2741
▁งชาติ	-10.2744
งานศิลปะ	-10.2747
พันธุกรรม	-10.2748
▁ฉันจึง	-10.2753
ตัวคุณ	-10.2763
เอื	-10.2767
เอส	-10.2768
▁มาถึง	-10.2777
▁ถูกสร	-10.2778
▁ชุด	-10.2779
กําเนิด	-10.278
ur	-10.278
ความตาย	-10.2793
ในเชิง	-10.2795
▁14	-10.2796
▁มีต	-10.2797
ละคร	-10.2801
วิทยุ	-10.2802
▁เบ	-10.2804
มีความหมาย	-10.2807
▁..	-10.2807
▁ผมบอก	-10.2816
เอาชนะ	-10.2824
▁นแม	-10.2825
เคร	-10.2828
ดาร	-10.2838
▁นเหตุ	-10.2841
พาร	-10.2844
▁นระบบ	-10.2847
เรียง	-10.2857
สถานี	-10.2857
▁าแก	-10.2857
เสียอีก	-10.2862
หย	-10.2866
สองเท	-10.2869
▁เพราะพวกเขา	-10.287
พยาบาล	-10.288
แถบ	-10.2888
ตาราง	-10.2888
กาแฟ	-10.2889
ทวิต	-10.2891
มันจะ	-10.2894
▁ออกแบบ	-10.2896
▁ควบคุม	-10.2907
▁จอห	-10.2907
ไต	-10.292
ดีที	-10.2923
ลงใน	-10.2927
เทคนิค	-10.2928
▁ของพวกเขา	-10.293
ยอม	-10.2943
ระยะเวลา	-10.2945
▁สาย	-10.2946
แ	-10.2948
▁เคลื	-10.2952
▁อตัว	-10.2958
ิก	-10.296
▁ภัย	-10.2962
▁หวัง	-10.2967
การมองเห	-10.2969
จอ	-10.2969
มีค	-10.2969
▁าวดี	-10.2974
จังหวะ	-10.2975
ยืนยัน	-10.2975
▁ปลอดภัย	-10.2975
รากฐาน	-10.2978
▁นอก	-10.2979
รวย	-10.2981
▁มครอง	-10.2984
▁อช	-10.2986
▁วนประกอบ	-10.2988
▁และยัง	-10.2996
▁งั	-10.2998
ดส	-10.3005
อัด	-10.3007
กาแล	-10.3007
▁และมันเป	-10.3016
ลีย	-10.3024
▁ออกจาก	-10.3025
▁สําหรับการ	-10.3033
▁บริเวณ	-10.3035
ภาพวาด	-10.3036
▁นคํา	-10.3037
▁มากที	-10.3038
การปล	-10.3046
▁เสร	-10.3053
กันมาก	-10.3058
▁อเพลิง	-10.3063
โชคดี	-10.3064
บอกเรา	-10.3071
▁อเสียง	-10.3073
มารวมกัน	-10.3076
พายุ	-10.3078
ทะเลทราย	-10.3088
ลูกๆ	-10.3089
ทํางานอย	-10.3092
หนา	-10.3095
ชนะ	-10.3096
▁นคุณ	-10.3107
ทําไม	-10.3108
ถัง	-10.3111
▁และบางที	-10.3126
ถึงสิ	-10.3133
การประชุม	-10.3137
ดูเหมือน	-10.3139
▁ฉันอยาก	-10.3143
▁รูปแบบ	-10.3146
แบบให	-10.3147
หลุม	-10.3151
ฉลาม	-10.3151
อุปสรรค	-10.3152
ในรูปแบบ	-10.3156
ของดิฉัน	-10.3166
▁นงาน	-10.3174
การวิ	-10.3175
ใครก	-10.3179
มากเท	-10.3186
การเดิน	-10.3189
▁เติบโต	-10.319
กับพวกเขา	-10.3194
อะไรกัน	-10.3222
สิบปี	-10.3223
แดง	-10.3233
ํ	-10.3245
ตร	-10.3249
▁เสีย	-10.3253
เราก	-10.3255
ผิดพลาด	-10.3256
▁ธรรมชาติ	-10.3258
▁มาเป	-10.3273
มีอะไร	-10.3275
คิดค	-10.3279
▁วาง	-10.3286
ติน	-10.3297
▁และท	-10.3298
▁าผมจะ	-10.3301
สะอาด	-10.3324
▁เกิดจาก	-10.3325
เสมือน	-10.3328
จีโนม	-10.3331
สวีเดน	-10.3331
อาชญากรรม	-10.3331
หลายครั	-10.334
กลยุทธ	-10.334
▁ายทอด	-10.3341
▁อของ	-10.3341
ในวัน	-10.3345
เงียบ	-10.3346
ผิวหนัง	-10.3346
เคยทํา	-10.3356
ปรับปรุง	-10.3358
ทํานาย	-10.3362
ลล	-10.3366
▁อชาติ	-10.337
กําลังพัฒนา	-10.3371
ในกรณี	-10.3372
▁มนี	-10.3373
หลายร	-10.3378
ถูกสร	-10.3379
เฟอร	-10.3382
▁งผ	-10.3382
▁สอน	-10.3383
ir	-10.3388
▁าสนใจมาก	-10.339
▁นบรรยากาศ	-10.3394
▁ตระหนัก	-10.3395
▁คุ	-10.34
ับ	-10.3401
โอกาสที	-10.3403
สถาปนิก	-10.3422
ประโยค	-10.3422
คณะ	-10.3422
วัว	-10.3424
บริสุทธ	-10.3428
กะ	-10.3428
การสํารวจ	-10.343
รังสี	-10.3432
สามมิติ	-10.3432
▁เอาละ	-10.344
เจอร	-10.3444
หัน	-10.3446
ตกลง	-10.3451
ศีลธรรม	-10.3451
ตุ	-10.3451
ตัวเรา	-10.3456
วิถี	-10.3459
▁D	-10.3472
ัม	-10.3473
อัตโนมัติ	-10.3476
นาม	-10.3478
เซน	-10.3484
มันเข	-10.3496
ในชั	-10.3501
เศษ	-10.3505
พูดถึงเรื	-10.3508
▁าอัศจรร	-10.3509
ผืน	-10.3513
ถี	-10.3513
คะแนน	-10.3517
▁the	-10.3517
▁ตัวเลข	-10.3519
▁จับ	-10.3529
ในชุมชน	-10.3532
แบบไหน	-10.3533
ียน	-10.3534
▁เสื	-10.3535
ตัวอักษร	-10.3536
จู	-10.3537
ทํางานกับ	-10.3542
▁ของฉัน	-10.3553
หลับ	-10.3558
▁พวกเราต	-10.356
ตามธรรมชาติ	-10.3565
▁อี	-10.3572
▁ผมเข	-10.3572
การสนทนา	-10.3572
▁ชิด	-10.3573
▁พูดถึง	-10.3573
ัก	-10.3574
ทํางานด	-10.3577
จะช	-10.358
ชีวภาพ	-10.3581
าะ	-10.3588
▁มีความหมาย	-10.3596
▁มันสามารถ	-10.3601
รรภ	-10.3607
โย	-10.3616
ทางกายภาพ	-10.3617
เสริม	-10.3618
▁องรู	-10.3619
สตรี	-10.3625
▁นถึง	-10.3626
คนจํานวนมาก	-10.3627
ไท	-10.3631
ภาพของ	-10.3634
โง	-10.3634
▁จง	-10.3635
กับตัวเอง	-10.3636
▁ายไป	-10.3638
▁หมด	-10.3645
การตรวจ	-10.3646
อีกหลาย	-10.3649
ญาติ	-10.3651
สุดๆ	-10.3664
▁คุณจะต	-10.367
▁ผมพูด	-10.3672
▁13	-10.3674
ทักษะ	-10.3678
▁เราคิด	-10.3682
นาย	-10.3686
อันนี	-10.3692
กุ	-10.3696
ไปมาก	-10.3696
ออสเตรเลีย	-10.3699
แกะ	-10.3703
การเพิ	-10.3714
ไปให	-10.3715
▁พบกับ	-10.3717
▁องราวของ	-10.372
un	-10.3721
ไบ	-10.3721
▁ยู	-10.3732
▁นเมือง	-10.3734
วิน	-10.3744
ในงาน	-10.3745
▁วมันก	-10.3748
อันน	-10.3756
▁ทันที	-10.3774
▁คุณคิดว	-10.3774
อนุญาต	-10.3776
เหมาะ	-10.378
▁นเดียวกัน	-10.3783
▁เคยเป	-10.379
▁แพทย	-10.3791
ราช	-10.3795
จิตวิญญาณ	-10.38
าด	-10.3804
อาจมี	-10.3811
▁ฉลาด	-10.3812
กรอง	-10.3814
มองว	-10.3822
ตัวละคร	-10.3832
▁คอย	-10.3842
ทอง	-10.3856
มีข	-10.3857
บังเอิญ	-10.3857
ความรับผิดชอบ	-10.3861
▁งโลก	-10.3867
บนเวที	-10.3874
กลับไปยัง	-10.3878
ในแบบ	-10.3879
เดา	-10.3883
▁มุ	-10.3883
สติ	-10.3887
เกียรติ	-10.3889
อารยธรรม	-10.3889
▁าเกิดอะไร	-10.3889
▁เหตุ	-10.3891
พิธ	-10.3893
โกง	-10.3896
คําสั	-10.3897
▁นับ	-10.3903
อาย	-10.3904
▁นมาให	-10.3906
▁มันจึง	-10.3906
▁และค	-10.3908
จุดประ	-10.3918
▁และเธอ	-10.392
พวกเธอ	-10.3925
มากครับ	-10.3926
ในวงการ	-10.3933
คนอเมริกัน	-10.3946
ความงาม	-10.3947
ยาง	-10.395
หาวิธี	-10.3952
20	-10.3955
สมดุล	-10.3956
▁สิทธิ	-10.3956
▁ดอลล	-10.3958
ดําเนินการ	-10.396
หรี	-10.3964
มาหา	-10.3968
et	-10.397
ยาเสพติด	-10.397
วิกฤต	-10.3975
โลมา	-10.3976
สากล	-10.398
สาธารณสุข	-10.3985
▁ําตาล	-10.3985
▁จัดการ	-10.3987
▁ําเงิน	-10.3987
▁ยินเสียง	-10.399
▁มันช	-10.3998
▁เราอาจจะ	-10.4001
▁ยอมรับ	-10.4002
ุลิ	-10.4009
▁อธิบาย	-10.401
▁างจะ	-10.4011
จะเกิดอะไร	-10.4015
us	-10.4015
G	-10.4016
ละเอียด	-10.4026
านา	-10.4036
เมืองที	-10.4036
เลน	-10.4053
▁วเราจะ	-10.4054
ขัด	-10.4058
▁ํากว	-10.4062
รบ	-10.4069
กับเขา	-10.4074
ทรมาน	-10.4076
▁แผ	-10.4081
อะตอม	-10.4082
ศัตรู	-10.4082
จะเห	-10.4083
เอเชีย	-10.4086
▁ารัก	-10.4087
▁งค	-10.4089
สภาพอากาศ	-10.409
ยุง	-10.4097
▁ในพื	-10.4103
ตรวจจับ	-10.4114
ลาก	-10.4126
▁นความจริง	-10.4129
▁คนเรา	-10.413
ในขณะ	-10.4131
▁รุนแรง	-10.4148
▁องหลัง	-10.4149
ระเบียบ	-10.4149
วุ	-10.4156
▁มันเหมือนกับ	-10.4159
สูตร	-10.4164
บบี	-10.4169
เราต	-10.417
▁เปรียบ	-10.4171
สวรรค	-10.418
▁าลง	-10.4182
▁กับเรา	-10.4189
▁พิ	-10.4193
ศักยภาพ	-10.4196
▁ผมคิด	-10.4201
▁นเลย	-10.4202
เดินเข	-10.4211
▁มีค	-10.4213
เถอะ	-10.4217
ดูด	-10.4221
อุณหภูมิ	-10.4222
ประสิทธิภาพ	-10.4222
▁จีน	-10.4225
▁ผมหวัง	-10.4225
▁สําหรับผม	-10.4234
การถ	-10.4234
▁วยชีวิต	-10.4235
ปลดป	-10.4235
▁โดยที	-10.4238
สุดยอด	-10.4243
มือถือ	-10.4244
▁ขาย	-10.4249
▁นสี	-10.4249
▁ของคน	-10.4278
▁จะค	-10.4287
▁สุดแล	-10.4288
มองไปที	-10.4311
▁สนับสนุน	-10.4314
▁นรูป	-10.4324
ปรากฎ	-10.4326
ยังสามารถ	-10.4326
ia	-10.4327
▁ดูเหมือน	-10.4333
▁ฉันทํา	-10.4347
ทางออก	-10.4349
▁งชีวิต	-10.4349
แรกๆ	-10.4359
เบีย	-10.4359
ฤดูร	-10.436
มนุษยชาติ	-10.4361
สถานะ	-10.4366
▁าวถึง	-10.437
▁องฟ	-10.4372
▁ศึกษา	-10.4374
ไดโนเสา	-10.4379
นิตยสาร	-10.438
โจมตี	-10.4383
▁หากคุณ	-10.4383
สเต	-10.4384
วิกฤติ	-10.439
▁งวัน	-10.4394
การตอบสนอง	-10.4395
การนํา	-10.4396
▁of	-10.4398
เกร	-10.4399
▁อเทียบกับ	-10.4402
▁อใน	-10.4413
รูปทรง	-10.4415
▁อโรค	-10.4422
am	-10.4425
เรียบ	-10.4428
▁ปีแล	-10.4433
▁ตื	-10.4439
▁าเทียม	-10.444
เยอะมาก	-10.4443
ไปดู	-10.4445
▁หายไป	-10.4446
▁หนู	-10.4449
▁นจริงๆ	-10.445
▁สัป	-10.4456
▁องสร	-10.446
ปะ	-10.4473
ไมล	-10.4477
สงบ	-10.4478
ยาปฏิชีวนะ	-10.448
▁และให	-10.4489
▁มีผล	-10.449
▁เพียงพอ	-10.449
จัง	-10.4491
พับ	-10.4499
▁เราพบว	-10.4501
เลือกที	-10.4502
สีขาว	-10.4515
หัวหน	-10.4517
▁ผลลัพ	-10.4521
ปฏิ	-10.4521
▁งสัญญาณ	-10.4527
▁สัน	-10.4531
มีสิทธิ	-10.4533
▁ปรากฎ	-10.4535
B	-10.4535
L	-10.4542
กูเกิล	-10.4544
▁างมี	-10.4546
▁อนบ	-10.4551
▁การค	-10.4552
▁ยงดู	-10.4553
ทุกครั	-10.4564
▁โอกาส	-10.4564
▁นปี	-10.4567
เบา	-10.4568
ในตัว	-10.4571
กระเป	-10.4576
▁และช	-10.4577
ปลูกถ	-10.4578
ซาน	-10.4582
แคลิฟอร	-10.4582
▁จะส	-10.4584
▁งคั	-10.4585
ตัวมันเอง	-10.4585
ทุกท	-10.459
▁เขาทํา	-10.459
จอร	-10.4597
โชว	-10.4602
จะให	-10.4611
▁เกาะ	-10.4615
การเกษตร	-10.4621
สําหรับการ	-10.4628
▁คู	-10.4633
ลงมือทํา	-10.4634
ความเสียหาย	-10.4635
หรอ	-10.464
▁บี	-10.4643
P	-10.4644
พอดี	-10.4654
▁ทําสิ	-10.4656
ริโอ	-10.4659
ลองดู	-10.4661
กับเด	-10.4661
ในครอบครัว	-10.4662
▁นฐานของ	-10.4665
▁หญิงที	-10.4666
ผิดปกติ	-10.4667
สไล	-10.4667
▁ทราบ	-10.4669
▁จแล	-10.4675
เดียวกับ	-10.4676
ถอด	-10.4679
เบน	-10.4684
เตียง	-10.4685
▁งดัง	-10.4686
สนิท	-10.4686
จะบอกว	-10.4686
▁The	-10.4686
▁ลดลง	-10.469
กํากับ	-10.4693
▁ชี	-10.4697
รีบ	-10.4703
▁จะไป	-10.4707
มด	-10.4708
มีความสําคัญ	-10.471
▁มีน	-10.4715
ของเราเอง	-10.4719
▁เมตร	-10.472
▁านหนังสือ	-10.4728
ของเรื	-10.4732
▁จึงเป	-10.4732
▁นเหตุผล	-10.4734
สองสามปี	-10.4735
กฏ	-10.4739
▁ดูแล	-10.4739
R	-10.4739
ตอบรับ	-10.4744
▁าคุณมี	-10.4751
ในท	-10.4754
▁เราค	-10.4768
▁องเที	-10.477
▁ประชาชน	-10.4772
ของรัฐ	-10.4776
พยายามทํา	-10.4778
เขียว	-10.4781
ัพท	-10.4788
ขโมย	-10.479
พลาด	-10.4801
หิ	-10.4803
ชีว	-10.4804
ผัก	-10.4813
พัง	-10.4814
แอบ	-10.4819
ในหัว	-10.4823
▁างแน	-10.4824
ความก	-10.4828
▁เราพยายาม	-10.4841
▁รอ	-10.4846
มานาน	-10.4854
▁ในฐานะที	-10.486
▁แยก	-10.4861
ad	-10.4862
ทํานอง	-10.4871
ไหว	-10.4877
▁วนต	-10.488
▁การสร	-10.4885
สําหรับเรา	-10.4887
▁นถ	-10.4888
สามารถใช	-10.4895
2-3	-10.4895
ขณะที	-10.4899
เงา	-10.49
ยกมือ	-10.4901
ชัน	-10.4912
▁อบ	-10.4917
▁านทาง	-10.4919
พัด	-10.492
ทึ	-10.4922
▁างง	-10.4929
▁ผมยัง	-10.4929
▁างหนัก	-10.493
แทบจะ	-10.4931
▁าตอน	-10.4938
ตัวผม	-10.4945
▁นแก	-10.4946
แผล	-10.4948
วันนั	-10.495
แลก	-10.4957
▁อิ	-10.4958
สําคัญที	-10.4961
▁อเล	-10.4962
ฝน	-10.4963
▁ลึก	-10.4965
มีชีวิต	-10.4966
▁และเรื	-10.4968
มีสิ	-10.4968
ไหร	-10.497
N	-10.4974
คอร	-10.4983
▁คุณเคย	-10.4993
▁มีเพียง	-10.4994
หลายพัน	-10.4997
วิจารณ	-10.5001
ศักดิ	-10.5001
ิกา	-10.5003
ตกอยู	-10.5004
▁องเพลง	-10.5005
▁เดอะ	-10.501
▁งท	-10.5015
▁และอีก	-10.5023
▁นความคิด	-10.5039
ul	-10.5039
▁นตรง	-10.5042
ในทุก	-10.5044
▁ในบ	-10.5044
▁เพราะฉัน	-10.5049
▁รางวัล	-10.5049
โหด	-10.505
▁เพราะคุณ	-10.5052
ไปหมด	-10.5054
▁วครับ	-10.5062
ถือว	-10.5065
om	-10.5066
▁รอบ	-10.5069
▁อํานาจ	-10.507
โรคหัวใจ	-10.5071
▁และพวกมัน	-10.5071
▁างงาน	-10.5073
เกย	-10.5075
▁สึกถึง	-10.5077
▁งในนั	-10.5082
กรุง	-10.5087
▁ผมไป	-10.5092
▁วคุณก	-10.5095
▁และเราต	-10.5105
▁พืช	-10.5107
ครอบคลุม	-10.5109
อิสรภาพ	-10.5109
▁าหาญ	-10.5109
รัสเซีย	-10.5109
il	-10.5112
สักหน	-10.5112
คุณยาย	-10.5112
สีเหลือง	-10.5113
▁นา	-10.5115
จะเปลี	-10.5124
▁มเข	-10.5129
▁จักกัน	-10.5129
▁งไว	-10.5133
▁แปลว	-10.5137
เกรด	-10.5138
ทําเช	-10.5153
พูดกัน	-10.5156
จบลง	-10.5158
▁นพบว	-10.517
ทางซ	-10.5179
▁หรือการ	-10.5184
มาสู	-10.5185
ทํางานที	-10.5191
▁วยว	-10.5195
ถูกต	-10.5197
สักนิด	-10.5198
▁แปลก	-10.52
▁อยากให	-10.5205
▁นชม	-10.5209
▁นสถาน	-10.5213
สภาพภูมิอากาศ	-10.522
คลิป	-10.5221
ศพ	-10.5221
▁อถึง	-10.5226
▁ไปจนถึง	-10.5228
คุณอาจ	-10.5228
บทบาท	-10.5229
▁ปกติ	-10.5231
▁เนีย	-10.5239
ce	-10.5242
▁องเปลี	-10.5247
การจัดการ	-10.5249
▁ผมจํา	-10.5258
▁ในรูปแบบ	-10.5265
หันมา	-10.5265
▁สุดของ	-10.5267
▁หรือว	-10.5269
ในสหรัฐ	-10.5269
จนถึง	-10.5287
สภา	-10.5291
▁นมาจาก	-10.5292
ของบริษัท	-10.5295
แผนการ	-10.5297
▁อาการ	-10.5298
เกือบจะ	-10.5301
▁าประหลาดใจ	-10.5307
▁มเท	-10.5308
▁นแหล	-10.5311
▁ในการสร	-10.5313
▁นศ	-10.5314
ความคิดเห	-10.5319
งดงาม	-10.5321
จะสร	-10.5322
คุณจะ	-10.5322
ปราศจาก	-10.5322
บอกคุณว	-10.5323
▁เราจะเห	-10.5324
การทํางานของ	-10.5327
พรรค	-10.5328
ขุด	-10.5328
การปรับ	-10.5329
ถัดมา	-10.5331
▁าทาง	-10.5336
▁านข	-10.5336
ในบ	-10.5338
คลั	-10.5341
คําแนะนํา	-10.5346
▁สาธารณะ	-10.5349
▁มัก	-10.5351
ขนาดไหน	-10.5351
ไทม	-10.5352
วาดภาพ	-10.536
เนอร	-10.536
บอกเล	-10.5361
บรรยากาศ	-10.5361
▁คิดถึง	-10.5363
กําลังพยายาม	-10.5367
เพราะว	-10.5382
▁ฉันชอบ	-10.5387
▁ดนตรี	-10.5387
จะพูด	-10.5388
ความน	-10.5389
สูญ	-10.5396
นักดนตรี	-10.5397
▁เรากําลังจะ	-10.5399
▁และเธอก	-10.5399
ไปรอบๆ	-10.5403
se	-10.5408
คนแรก	-10.5415
กับความ	-10.544
ฮู	-10.544
▁าและ	-10.545
เผา	-10.5453
▁และอย	-10.5458
จะหยุด	-10.5465
▁นเราจึง	-10.5473
การเขียน	-10.5473
▁ทําอย	-10.5481
คุณสมบัติ	-10.5483
นอร	-10.5485
os	-10.5486
เลยทีเดียว	-10.5493
▁ของสิ	-10.5495
▁วยวิธี	-10.5498
▁อส	-10.5504
▁เธอเป	-10.5506
มาด	-10.5509
▁วยข	-10.5516
ยืด	-10.5517
กระทบ	-10.5521
▁สําหรับผู	-10.5523
อันหนึ	-10.5523
สูงมาก	-10.5524
▁นักศึกษา	-10.5528
▁งด	-10.5531
มาตั	-10.5532
การจัด	-10.5535
▁เขามี	-10.5538
ทราบว	-10.5544
▁มีวัน	-10.5546
▁นจํานวนมาก	-10.5546
▁นสูง	-10.555
▁ออ	-10.556
▁นวาย	-10.5563
เสรีภาพ	-10.5563
ลูกหลาน	-10.5565
▁มีชีวิต	-10.5568
สํานักงาน	-10.5569
แสดงถึง	-10.5569
▁พวกเขากําลัง	-10.557
การเข	-10.5573
▁วนบุคคล	-10.5574
▁เรียก	-10.5574
เคยเป	-10.5577
▁าปี	-10.5578
▁และทํา	-10.5583
แสงส	-10.5592
นักวิจัย	-10.5594
ในร	-10.5594
ลอนดอน	-10.5601
▁พวกเขาสามารถ	-10.5604
ของระบบ	-10.561
▁คือภาพ	-10.5614
▁บริโภค	-10.5616
หาทาง	-10.5619
ไปไหน	-10.562
สําคัญมาก	-10.5623
▁นโลก	-10.5625
สามารถสร	-10.5626
▁เราเคย	-10.5634
มอน	-10.5637
▁และน	-10.5646
▁500	-10.565
หาคําตอบ	-10.5653
อะไรบ	-10.5662
สองอย	-10.5662
▁พวกเรามี	-10.5663
วิทยาลัย	-10.5664
รอดชีวิต	-10.5666
โฮ	-10.5667
ซุป	-10.5668
มาจากไหน	-10.5673
รื	-10.5675
▁ปัญหาที	-10.5676
มวลชน	-10.5691
ครบ	-10.5693
มีอายุ	-10.5696
▁าวัน	-10.5698
▁ฝ	-10.57
▁ตัวเอง	-10.5703
ถึงจุด	-10.5704
โดยรวม	-10.5707
▁าเทียมกัน	-10.5707
แรกคือ	-10.5712
ของสังคม	-10.5721
▁นเพราะว	-10.5727
▁แจ	-10.5729
มีพลัง	-10.573
โจ	-10.5731
▁ทัน	-10.5732
▁จบ	-10.5733
ดารา	-10.5736
▁กสาว	-10.5739
ขอโทษ	-10.5742
▁สุดคือ	-10.5747
ัดส	-10.5756
▁โชค	-10.5757
▁งล	-10.5759
▁วทําไม	-10.576
ดัน	-10.5762
เสียใจ	-10.5766
ความปรารถนา	-10.5777
หิมะ	-10.5779
▁ในอนาคต	-10.5782
ตัวเราเอง	-10.5785
เดียวกันกับ	-10.5787
เหมือนเดิม	-10.5787
แฟ	-10.5787
▁เขาต	-10.5793
มากเลย	-10.5806
ของโรค	-10.5816
▁อใจ	-10.5817
บอล	-10.5817
ออกไปจาก	-10.5818
▁นชอบ	-10.5826
▁มีประโยชน	-10.5832
ของขวัญ	-10.5834
▁มีความสุข	-10.5837
▁ในสภาพ	-10.584
หมาย	-10.5845
การบิน	-10.5846
เสียงที	-10.5848
▁านบน	-10.5858
▁นเขา	-10.5861
▁หากเรา	-10.5862
▁โชคดี	-10.5864
บริบท	-10.5869
มาดู	-10.5871
▁นพิเศษ	-10.5872
เทียบ	-10.5875
op	-10.5881
นิยาย	-10.5881
คุม	-10.5883
▁สึกเหมือน	-10.5884
▁เกิน	-10.589
▁แรก	-10.5891
▁300	-10.5892
ประหยัด	-10.5894
กุญแจ	-10.5895
แคนาดา	-10.5896
พลิก	-10.5896
ดินแดน	-10.5901
วงการ	-10.5906
▁มันจะเป	-10.5908
and	-10.5909
▁องสําคัญ	-10.5912
▁ในนั	-10.5915
▁เธอก	-10.5919
▁ขยาย	-10.5927
กลายมา	-10.5927
▁วถ	-10.593
▁มเติม	-10.5931
บําบัด	-10.5936
▁ทรงพลัง	-10.5939
เสียหาย	-10.5944
เพียงพอ	-10.5946
เกิดมา	-10.5946
▁นเสียง	-10.5957
▁สถาบัน	-10.596
▁งหน	-10.5974
▁วคุณ	-10.5985
ฮอร	-10.5988
ถึงความ	-10.5988
เอาใจ	-10.5992
คิ	-10.5993
ทํางานใน	-10.5999
ฮั	-10.6
ฟี	-10.6002
▁รับรู	-10.6004
พูดกับ	-10.6004
ศีรษะ	-10.6013
แบตเตอรี	-10.6013
เฟสบุ	-10.6013
แรงจูงใจ	-10.6015
ตัวคุณเอง	-10.602
▁าเรามี	-10.6022
แนวโ	-10.6026
▁งฉัน	-10.6027
ตอบคําถาม	-10.6027
ทําตาม	-10.6032
ความยาว	-10.6033
มีลูก	-10.6036
▁สิบ	-10.6036
ปอด	-10.6045
▁และเราจะ	-10.6047
▁หลากหลาย	-10.6048
▁จู	-10.6053
▁วัฒนธรรม	-10.6056
เราทุกคน	-10.6059
▁สึกดี	-10.6064
ือ	-10.6065
▁องทาง	-10.6069
ne	-10.607
▁วีดีโอ	-10.6075
▁ลงไป	-10.6078
ผนัง	-10.6079
▁กําหนด	-10.608
▁การรักษา	-10.6084
▁วิดีโอ	-10.6097
เชล	-10.6104
ธรรม	-10.6106
▁ายแรง	-10.6107
▁c	-10.6113
ดําเนิน	-10.6116
▁พิเศษ	-10.6117
▁องมา	-10.6119
▁ทางด	-10.6121
คนแปลก	-10.6125
มูลนิธิ	-10.6132
▁มันอาจ	-10.6133
ดําน	-10.6136
▁ตามมา	-10.6139
▁ผมคง	-10.6146
▁ํารวย	-10.6149
▁วงปี	-10.615
หนอน	-10.6151
สัตย	-10.6153
ทางเพศ	-10.6158
อยากเห	-10.616
ทางการเงิน	-10.6163
ยากที	-10.6164
คิดอย	-10.6171
▁นวิธีที	-10.6173
สมควร	-10.6179
▁วเขาก	-10.618
T	-10.619
สีดํา	-10.62
ยังเป	-10.6205
จอดรถ	-10.621
อธิบายว	-10.6223
คําอธิบาย	-10.6231
▁งสิ	-10.6233
▁นแนวคิด	-10.6233
จากความ	-10.6244
เงินทุน	-10.6247
เวีย	-10.6249
กาล	-10.625
▁คนก	-10.6251
▁นหรือ	-10.6251
พรุ	-10.6252
สัญชาตญาณ	-10.6253
เลิศ	-10.6253
▁ตัด	-10.6254
▁นักวิจัย	-10.6255
ยากมาก	-10.6256
▁ธุรกิจ	-10.6259
การดูแล	-10.6259
ดํารง	-10.6262
▁ไหมคะ	-10.6267
เอามา	-10.6269
ุกต	-10.6271
ขัดแย	-10.6271
โพส	-10.6273
um	-10.628
▁พวกเขาเป	-10.6286
พิการ	-10.6299
มันให	-10.6305
ลิส	-10.6322
▁มีเงิน	-10.6325
▁างเปล	-10.6327
▁มแรก	-10.6329
▁การทํา	-10.6331
มาพร	-10.6332
▁าเรียน	-10.6337
ิส	-10.6339
หลอด	-10.6346
▁อสังคม	-10.6346
▁มิติ	-10.6346
▁างไป	-10.635
มเศร	-10.6352
▁าตัวเอง	-10.6359
▁มีแต	-10.6364
ทีมงาน	-10.637
ชู	-10.6371
▁ฉันเห	-10.6373
ระวัง	-10.6375
▁กซิโก	-10.6375
เงื	-10.6378
▁นพันๆ	-10.6378
ของข	-10.638
โผล	-10.6386
จะดี	-10.6386
▁องไห	-10.6391
ยุติธรรม	-10.6393
▁วัด	-10.6394
▁องขอ	-10.6395
ภูมิใจ	-10.6402
ผลัก	-10.6408
▁บนโลก	-10.6412
ความผิดปกติ	-10.6417
▁ทําลาย	-10.642
▁นผมจึง	-10.6424
te	-10.6424
▁m	-10.6431
งแกร	-10.6431
ในอินเดีย	-10.6436
ดูสิ	-10.644
▁เหลี	-10.6446
▁มถ	-10.6451
งาม	-10.6452
สิครับ	-10.6457
▁งมั	-10.6464
หลายล	-10.6464
▁สุดยอด	-10.6466
ทําร	-10.6467
▁นอิสระ	-10.6472
▁เพราะเขา	-10.6478
▁เจน	-10.6478
▁มีเรื	-10.6478
แปร	-10.6482
อัฟกานิสถาน	-10.6483
ในพื	-10.6484
▁อนไป	-10.6484
▁สว	-10.649
กัด	-10.6492
▁วยเหตุ	-10.6492
สันติภาพ	-10.6498
ลําบาก	-10.65
ของท	-10.6505
พูดคุย	-10.6508
ชีวิตของเรา	-10.6513
ลงบน	-10.6513
ในทะเล	-10.6515
หมายความ	-10.6529
▁อู	-10.6533
▁มันค	-10.6535
▁เพ	-10.6536
▁างการ	-10.6541
ในระบบ	-10.6545
▁มสาว	-10.6547
▁อกับ	-10.6548
มันออกมา	-10.6555
▁มันทํา	-10.6557
ชวน	-10.6561
▁ยกเว	-10.6568
ในประวัติ	-10.657
▁วฉันก	-10.6576
▁ความร	-10.6582
ตลอดชีวิต	-10.6583
▁งแยก	-10.6588
▁150	-10.66
คริสต	-10.6606
▁และจะ	-10.6622
สแกน	-10.6622
การกุศล	-10.6623
ดัดแปลง	-10.6623
กฏหมาย	-10.6624
หมวก	-10.6624
อีโบล	-10.6624
คลุม	-10.6624
สมมติฐาน	-10.6625
ไปโรงเรียน	-10.6626
ลงโทษ	-10.6631
มีทางเลือก	-10.6635
▁การเรียน	-10.6635
ของรัฐบาล	-10.6637
กอล	-10.6639
หลอก	-10.6641
▁ปกครอง	-10.6641
▁มีเหตุผล	-10.6643
▁าใบ	-10.6648
ตํ	-10.6649
▁นยังไง	-10.6651
▁หมอ	-10.6652
50	-10.6653
ชนเผ	-10.6654
ความผิดพลาด	-10.6659
▁23	-10.666
▁แหล	-10.6671
เชอร	-10.6675
บีบ	-10.6677
▁มันง	-10.6679
▁นเอก	-10.668
คนเรา	-10.6681
▁านิยม	-10.6682
อนุ	-10.6687
▁นเกม	-10.6689
หลบ	-10.6701
▁อัตราการ	-10.6702
▁เราควรจะ	-10.6703
หรอกครับ	-10.6706
▁วยเรา	-10.6715
▁นชิ	-10.6725
▁หลายๆ	-10.6731
ปีน	-10.6735
▁ชุมชน	-10.6736
ในยุโรป	-10.6742
▁านของ	-10.6745
ตกใจ	-10.6749
▁พวกเรากําลัง	-10.6749
▁วัสดุ	-10.675
▁ไฟ	-10.6755
ประเทศจีน	-10.6759
ation	-10.6763
ไปว	-10.6765
ของปัญหา	-10.677
▁มสลาย	-10.677
▁นโดย	-10.6771
▁างช	-10.6771
จาน	-10.6773
▁เทคนิค	-10.6777
สามารถทําให	-10.6779
▁สึกอย	-10.6783
ชีวิตของ	-10.6784
▁อนแอ	-10.6787
ทางเดิน	-10.6788
ของเล	-10.6791
▁St	-10.6792
พูดอะไร	-10.6797
▁นบน	-10.6804
▁นอนครับ	-10.6808
ายฝั	-10.6811
ประย	-10.6812
ระบบประสาท	-10.6813
หาง	-10.6815
▁ตลาด	-10.6823
งานของผม	-10.6825
ry	-10.6834
▁ชนะ	-10.6837
▁มข	-10.6838
ฟิล	-10.684
▁งเข	-10.6841
▁เราอยาก	-10.6848
จําลอง	-10.6849
การทําให	-10.6851
ในทาง	-10.6853
▁นมะเ	-10.6854
▁ดิ	-10.6857
หลง	-10.6866
ออกมาเป	-10.6873
▁ลืม	-10.6874
ความเครียด	-10.6875
ออกซิเจน	-10.6878
อัจฉริยะ	-10.6878
สังเครา	-10.6879
ในหลาย	-10.688
▁งกันและกัน	-10.6887
อัตราการ	-10.6888
▁และมันจะ	-10.6889
รับมือกับ	-10.6892
สมการ	-10.6897
▁คาด	-10.6899
▁พวกเราจะ	-10.6903
▁ประกอบการ	-10.6903
จําเพาะ	-10.6907
▁านซ	-10.6914
▁นคําถาม	-10.6914
เมา	-10.6916
▁อนของ	-10.6916
บันได	-10.6916
▁มันเหมือน	-10.6924
มีขนาด	-10.6927
หลักๆ	-10.6927
นําเอา	-10.6934
ไปบน	-10.6937
กับโลก	-10.6954
มอ	-10.6958
▁วยเช	-10.6959
ขวบ	-10.6962
▁สังเกต	-10.6965
▁าจอ	-10.6966
ดวงตา	-10.6974
▁แอนเดอ	-10.6979
ของคุณเอง	-10.6981
▁ความจริงแล	-10.6982
▁อมกัน	-10.6985
แผง	-10.6989
▁ลองคิดดู	-10.6989
▁ความรุนแรง	-10.6996
การป	-10.7
ผลผลิต	-10.7002
จริงจัง	-10.7003
lo	-10.7004
▁ทําไมเรา	-10.7006
นิสัย	-10.7008
▁เพราะถ	-10.7008
▁เบอร	-10.7008
อาหรับ	-10.7009
▁านก	-10.7025
▁ดร	-10.7026
ถามตัวเอง	-10.7027
▁มันอาจจะ	-10.7027
สเปน	-10.7031
นาโน	-10.7034
แฟน	-10.7037
บัง	-10.7042
▁พวกเราทุกคน	-10.7044
▁สภาพ	-10.7044
▁เราสามารถทํา	-10.7056
▁ยาว	-10.7057
ไปเป	-10.7057
▁เสียชีวิต	-10.7064
แป	-10.7069
ทําหน	-10.7073
▁นวัน	-10.7074
ig	-10.7079
มันด	-10.7084
ฟังดู	-10.7087
มาพูด	-10.7088
ถูกนํามา	-10.7089
▁องคิด	-10.709
▁และเราสามารถ	-10.7097
▁เราจะทํา	-10.7102
บราซิล	-10.7103
▁การเป	-10.7115
นักแสดง	-10.7118
▁งกัน	-10.7122
▁ของมัน	-10.7124
▁ภาวะ	-10.7133
อีกมาก	-10.7136
▁งเหยิง	-10.714
สามปี	-10.7143
เวที	-10.7152
▁างทาง	-10.7155
▁เดินทาง	-10.7156
▁ลู	-10.7156
▁ใด	-10.7157
▁หวัด	-10.7159
▁ในส	-10.7164
เจอกับ	-10.7165
▁งลง	-10.7167
ทางพันธุกรรม	-10.7172
▁บันทึก	-10.7181
▁และเพราะ	-10.719
ความล	-10.7192
เหนื	-10.7208
▁เฟ	-10.7211
▁อุณหภูมิ	-10.7217
หัวเราะ	-10.7218
คั	-10.7221
▁าพวกคุณ	-10.7227
โดยเฉพาะ	-10.723
อพยพ	-10.723
แสดงออก	-10.7231
▁35	-10.7234
▁2000	-10.7243
อิทธิพล	-10.7243
ระบบนิเวศ	-10.7244
▁วยสิ	-10.7245
▁านม	-10.7249
การสนับสนุน	-10.7251
การตลาด	-10.7252
▁แดน	-10.7257
▁สวย	-10.7272
ฉุกเฉิน	-10.7273
บรรจุ	-10.7273
ศาสตราจ	-10.7273
▁รอบๆ	-10.7275
ถั	-10.7276
▁นเวลานาน	-10.7276
ขนาดของ	-10.7284
ve	-10.7287
▁องเผชิญ	-10.7288
วงกลม	-10.7291
โบส	-10.7297
ปลอม	-10.7298
กําไร	-10.7303
มหา	-10.7304
การระบาด	-10.7305
กระบอก	-10.7314
จะมา	-10.7315
ทิศ	-10.7316
นักข	-10.732
จึงเป	-10.7321
อบอุ	-10.7329
เผชิญกับ	-10.733
▁โทรศั	-10.7332
▁านขวา	-10.7333
▁นคว	-10.7336
ประสาน	-10.7336
โดยพื	-10.7338
▁มันกําลัง	-10.7341
▁f	-10.7341
การเป	-10.7353
จักรกล	-10.7363
▁กหญิง	-10.7368
ปรัชญา	-10.7372
ดูดี	-10.7373
เมตร	-10.7376
▁สามารถเข	-10.7376
ยืม	-10.7379
สบายใจ	-10.7398
10,000	-10.7407
โลหะ	-10.7408
ภาษี	-10.7408
▁บอนไดออกไซ	-10.7408
▁อมแซม	-10.7408
▁ลองมาดู	-10.741
▁จิม	-10.7411
มลพิษ	-10.7411
▁นชั	-10.7412
▁ไปเป	-10.7412
▁โจ	-10.7413
ปวด	-10.7413
ฟอง	-10.7417
▁นอกเห	-10.7418
อิรัก	-10.7418
▁1,000	-10.7419
▁างกับ	-10.742
เวิร	-10.7421
ในระยะ	-10.7423
ระยะทาง	-10.7424
▁างอิง	-10.7426
▁อนรับ	-10.7427
รับรอง	-10.7431
คุณก	-10.7435
▁กลัว	-10.7439
เหตุผลว	-10.7442
▁คลื	-10.7443
▁นลง	-10.7444
▁จะมา	-10.7445
ซิส	-10.7446
▁อเร	-10.7449
▁างจริงจัง	-10.7462
▁ความสามารถ	-10.7462
มีวิธี	-10.747
▁เกิดความ	-10.7473
แมว	-10.7477
เหรียญ	-10.7483
ในลักษณะ	-10.7486
▁และผมจะ	-10.7497
▁ดูเหมือนจะ	-10.7499
เกษตรกร	-10.7503
ธารน	-10.7504
ยากลําบาก	-10.7505
▁านอาหาร	-10.7506
▁และดิฉัน	-10.7507
รับฟัง	-10.7512
▁ขาด	-10.7514
▁บข	-10.7517
▁อันตราย	-10.7522
▁นเลือด	-10.7523
กับข	-10.7526
▁อมๆ	-10.7528
▁ธรรมดา	-10.7528
พอที	-10.7529
▁คะแนน	-10.7533
▁างเครื	-10.7543
สมาธิ	-10.7545
ธาตุ	-10.7545
บรรลุ	-10.7545
เตาปฏิกร	-10.7545
โรงแรม	-10.7545
มาช	-10.7547
ทุกๆคน	-10.755
ศิลป	-10.7552
คลอด	-10.7556
▁ไขปัญหา	-10.756
▁มีอํานาจ	-10.7561
▁มผู	-10.7567
าท	-10.7575
เลยนะ	-10.7575
มีอิทธิพล	-10.7575
▁พวกเราก	-10.7576
▁คุณคิด	-10.7582
▁เหรียญ	-10.7585
ในแบบที	-10.759
▁ตรงไหน	-10.7591
▁ดูเหมือนว	-10.7604
เสียงของ	-10.7607
สลาย	-10.7623
พาย	-10.7624
ของผมก	-10.7626
▁ทุกครั	-10.7626
▁ฉันกําลัง	-10.7629
มีปฏิ	-10.7631
ระบาด	-10.7632
▁างหลัง	-10.7638
▁สตีฟ	-10.7641
▁งเสียง	-10.7644
ชายคน	-10.7646
▁ในสังคม	-10.7646
▁วนนี	-10.7648
▁ทําการ	-10.7648
▁จะคิด	-10.7653
▁างบ	-10.7655
▁เพราะมันเป	-10.7656
▁400	-10.7656
▁บิล	-10.7659
▁กลับไป	-10.766
ac	-10.7662
▁มันยาก	-10.7665
เชี	-10.7666
ซอร	-10.7667
▁มมาก	-10.7669
▁พึ	-10.7671
กพร	-10.7673
▁อมรอบ	-10.7675
โดยเฉลี	-10.7676
เผย	-10.7677
เกล	-10.7678
▁ราคา	-10.768
▁อนกลับ	-10.768
การโจมตี	-10.7681
ภารกิจ	-10.7684
คํานึงถึง	-10.7684
ปาเลสไต	-10.7684
▁คราว	-10.7685
จรวด	-10.7687
สติปัญญา	-10.7695
งบประมาณ	-10.7697
▁อนมาก	-10.7698
เจริญ	-10.7698
บอกอะไร	-10.7701
แหลม	-10.7703
กระทํา	-10.7705
▁ความกลัว	-10.7706
30	-10.7707
ในเขต	-10.7708
▁คุณยัง	-10.7709
▁นหลัก	-10.771
▁เธอจะ	-10.771
▁าคุณดู	-10.7711
▁เราเลย	-10.7713
ตระหนักถึง	-10.7715
▁เราให	-10.772
ทุกคนก	-10.7724
มีผลกระทบ	-10.773
หนาว	-10.773
แปลว	-10.7735
▁แบบจําลอง	-10.7738
สามคน	-10.7738
▁โบ	-10.7741
จึงมี	-10.7741
ของตน	-10.7754
▁ามันจะเป	-10.7759
▁แฮ	-10.7773
▁าเขาจะ	-10.7777
เขียนหนังสือ	-10.7777
▁องหา	-10.7785
▁แอนด	-10.7787
สรรพ	-10.7789
การฝึก	-10.779
มันอย	-10.7796
ผิดหวัง	-10.7798
▁ทรง	-10.7802
▁อเข	-10.7804
em	-10.7805
▁ถนน	-10.7809
▁จะเกิด	-10.7809
▁มใจ	-10.7814
▁นมิตร	-10.7815
เงินเดือน	-10.782
ทัศนคติ	-10.7825
▁าตัวตาย	-10.7827
ซีเรีย	-10.7833
มันเกิดอะไรข	-10.7836
ard	-10.7836
▁อนาคต	-10.7841
▁ยวกับมัน	-10.7843
▁กับความ	-10.7845
▁มค	-10.7846
กําลังพูดถึง	-10.7852
หยุดยั	-10.7853
▁p	-10.7853
ho	-10.7855
▁าจ	-10.7857
▁อนอยู	-10.7863
ลึกลงไป	-10.7865
▁อตกลง	-10.7867
พวกเราทุกคน	-10.7871
เปรียบเทียบกับ	-10.7879
เทียม	-10.7882
เชือก	-10.7883
▁และนํา	-10.789
▁องจริง	-10.7901
แอล	-10.7901
ทางขวา	-10.7905
▁านหิน	-10.7905
▁งานวิจัย	-10.7909
▁สุดก	-10.7911
▁ทําหน	-10.7914
สมองส	-10.7914
▁องพึ	-10.7915
▁มทํา	-10.7916
ราวกับ	-10.7919
▁ายกัน	-10.7921
▁าวร	-10.7925
▁องแล	-10.7932
▁งเต	-10.7935
▁ยากที	-10.7935
รบกวน	-10.7948
▁โมน	-10.7949
▁ดื	-10.7951
▁าเศร	-10.7952
▁อมูลเหล	-10.7954
ในรูป	-10.7963
ฝีมือ	-10.7968
วิสัยทัศน	-10.7968
โมเดล	-10.7968
ฝาก	-10.7968
หายนะ	-10.7976
สําหรับผู	-10.7976
หวาน	-10.7976
รอบตัว	-10.7977
▁ในร	-10.7979
▁นนํา	-10.7984
มืออาชีพ	-10.7985
ลงมือ	-10.7987
ในครั	-10.7988
▁านหน	-10.7991
▁ศิลปะ	-10.7991
เคน	-10.8003
ตัวเมีย	-10.8003
บนถนน	-10.8008
สารอาหาร	-10.8008
เคอร	-10.8011
รวมตัวกัน	-10.8014
สําหรับคุณ	-10.8015
ประชา	-10.8022
จะเปิด	-10.8027
▁องถนน	-10.8032
อาจจะมี	-10.8034
มีผลต	-10.804
▁เราเพิ	-10.8047
ทอด	-10.8051
▁งชี	-10.8052
▁การเคลื	-10.8053
▁การออกแบบ	-10.8056
คนจน	-10.8063
▁สามารถใช	-10.8065
▁ราวกับ	-10.8068
พูดคุยกับ	-10.8076
▁าเด	-10.8078
▁าเครื	-10.8079
ริน	-10.808
▁และพยายาม	-10.8082
▁ของโลก	-10.8084
▁เรียบ	-10.8088
▁กลายมา	-10.8095
สอนให	-10.8096
▁กฎหมาย	-10.8097
▁โดยทั	-10.8102
รัส	-10.8104
▁และนัก	-10.8104
▁ยวกับว	-10.8107
อาจจะเป	-10.8107
ริม	-10.8109
ชาญฉลาด	-10.8113
สิทธิบัตร	-10.8118
▁ในสหรัฐอเมริกา	-10.8118
โปรด	-10.8118
อัศจรร	-10.812
ราคาถูก	-10.812
▁พลัง	-10.8124
ในทันที	-10.8125
▁ฟังดู	-10.8127
▁อากาศ	-10.813
di	-10.8134
▁าโลก	-10.8144
ถูกปล	-10.8144
กันดี	-10.8149
เปิดตัว	-10.8156
▁ซา	-10.8185
▁เคียง	-10.8187
▁ทฤษฎี	-10.8191
เลือกตั	-10.8195
มายัง	-10.8195
มาลาเรีย	-10.8197
ของนัก	-10.8201
ในฐานะนัก	-10.8206
อยากทํา	-10.8207
การบําบัด	-10.8208
▁พฤติกรรม	-10.821
นักเศรษฐ	-10.8214
▁นวิธีการ	-10.8217
▁องช	-10.822
▁นกลาง	-10.8222
▁ยงลูก	-10.8224
▁นเส	-10.8229
ริก	-10.8236
การติด	-10.8253
▁ตกลง	-10.8253
เผยแ	-10.8254
▁นสาเหตุ	-10.8258
จริยธรรม	-10.826
ระมัดระวัง	-10.826
บรรพบุรุษ	-10.826
บทกวี	-10.826
▁กับคุณ	-10.826
▁ายดาย	-10.826
สํานึก	-10.826
เครียด	-10.8263
บรูโน	-10.8263
▁เราลอง	-10.8265
▁ละวัน	-10.8275
แฮ	-10.8279
งู	-10.828
นุ	-10.8284
▁ทําตาม	-10.8285
▁หรือเป	-10.8285
การตัด	-10.8288
กันมา	-10.8288
แผนภาพ	-10.829
▁คือเรื	-10.8292
▁เวย	-10.8303
สกี	-10.8304
ตรงไหน	-10.8304
คิว	-10.8305
มีแนว	-10.8313
ออกจากกัน	-10.8314
▁เดวิด	-10.832
▁แบบว	-10.8329
▁งผลกระทบ	-10.8335
บวก	-10.8336
นิค	-10.8337
▁แทบจะ	-10.8339
หาข	-10.8345
▁าหากว	-10.835
ในชีวิตประจําวัน	-10.8351
เหมาะสม	-10.8352
▁วยมือ	-10.8356
เถ	-10.8358
▁พวกเค	-10.8367
▁งพวกเขา	-10.837
▁าคุณสามารถ	-10.8372
▁อมูลจาก	-10.8383
▁องทําอะไร	-10.8386
ตามหา	-10.8389
ขู	-10.839
▁อาคาร	-10.839
เราสามารถ	-10.8393
ภาระ	-10.8395
▁เทียบกับ	-10.8401
เวลาผ	-10.8404
▁กําเนิด	-10.8406
อาชญากร	-10.8409
วอชิงตัน	-10.8409
กองทุน	-10.841
▁นธรรมชาติ	-10.8415
▁งใส	-10.8415
▁นาย	-10.8417
มาหาผม	-10.8421
ฟองส	-10.8428
คาดเดา	-10.8434
ทํากัน	-10.8434
โกรธ	-10.8435
▁งถูก	-10.8436
ตามมา	-10.8438
▁เกิดอะไร	-10.8438
บอกกับ	-10.8439
การแสดงออก	-10.8442
เสรี	-10.8448
▁าพวกเขาจะ	-10.8449
▁คนจะ	-10.8451
▁เกือบจะ	-10.8454
▁สเต	-10.8455
▁สไตน	-10.8463
โดดเดี	-10.8465
กรุณา	-10.8471
ไขมัน	-10.8471
▁งเดียวกัน	-10.8484
นักฟิสิก	-10.8501
▁งตอน	-10.8502
ทันสมัย	-10.8503
▁การเข	-10.8506
การวัด	-10.8507
ประท	-10.8508
▁สามารถสร	-10.8508
มูล	-10.8512
สําหรับเด	-10.8525
หลงใหล	-10.8529
แดด	-10.8531
เดีย	-10.8532
ตามปกติ	-10.8545
▁องผ	-10.8547
เคารพ	-10.855
กับเธอ	-10.8555
▁Re	-10.8557
เทอร	-10.856
สิทธิมนุษยชน	-10.856
▁องจุลทรรศ	-10.856
เดินหน	-10.8562
ลงคะแนน	-10.8565
กรีน	-10.8566
อธิบายให	-10.857
▁องของการ	-10.8571
ของเหลว	-10.8573
พวกเขาก	-10.8577
ดวงดาว	-10.8577
▁เบิร	-10.8578
ไพ	-10.8585
โรคม	-10.8588
▁วงหน	-10.8594
▁ในระบบ	-10.8603
การกระจาย	-10.8614
โชค	-10.8615
สมองของ	-10.8629
บริษัทที	-10.863
▁ารหัส	-10.8632
ขอบคุณ	-10.8635
หนังสือเล	-10.864
▁นฐานแล	-10.8643
▁อีกด	-10.8657
ขยายตัว	-10.8668
▁นไร	-10.8681
▁ฉันยัง	-10.869
▁ทักษะ	-10.869
▁นํ	-10.8691
บอกเขา	-10.8707
โดดเด	-10.8708
อิน	-10.8709
ck	-10.8711
ภายหลัง	-10.8713
เกาหลี	-10.8714
จมูก	-10.8714
▁ยากจน	-10.8715
เดอร	-10.8716
คอม	-10.8721
▁ในบริเวณ	-10.8721
หลาน	-10.8726
วาระ	-10.873
▁มาดู	-10.8732
ut	-10.874
ชีวิตผม	-10.874
คนๆ	-10.8741
ในกรุง	-10.8749
▁ในเวลาเดียวกัน	-10.8754
▁ฉันเคย	-10.8758
▁รายงาน	-10.8758
▁าวสาร	-10.8759
▁องรอย	-10.8762
▁เศรษฐกิจ	-10.8764
▁เราคง	-10.8767
▁องทะเล	-10.8776
▁ตรงกลาง	-10.8777
▁ําทะเล	-10.878
ทําการศึกษา	-10.8781
ในอวกาศ	-10.8792
แขวน	-10.8797
▁ทันใด	-10.8803
ลลี	-10.8804
▁ยื	-10.8804
▁นภาษา	-10.881
▁ชาร	-10.8816
กลับมาที	-10.8817
▁กิโลเมตร	-10.883
▁ความหวัง	-10.8832
ถูกจับ	-10.8834
อักษร	-10.8836
▁าแปลกใจ	-10.8838
ยังคงเป	-10.8838
▁สัมผัส	-10.8845
▁หก	-10.8846
ความไว	-10.885
▁La	-10.8853
▁ลองจินตนาการ	-10.8854
▁และเหตุผล	-10.8854
ของชาว	-10.8856
ชิง	-10.8857
▁งเขา	-10.8858
นับพัน	-10.886
การตาย	-10.8863
▁อนไข	-10.8865
หรือครับ	-10.8868
สหประชาชาติ	-10.887
▁กทรอนิก	-10.887
อียิป	-10.887
อุทยาน	-10.887
▁ยนแปลงไป	-10.8871
พอๆ	-10.8871
กับปัญหา	-10.8874
▁มีลักษณะ	-10.888
มีบทบาท	-10.8881
เปลือก	-10.8882
แฟชั	-10.8883
จะไป	-10.889
▁ไมเคิล	-10.8893
▁สนุก	-10.8894
พูดคุยกัน	-10.8898
แดน	-10.8899
▁างเต	-10.8902
มีอาการ	-10.8924
▁แพท	-10.8926
▁เรามาดู	-10.8926
ถึงการ	-10.8931
▁าฉันจะ	-10.8934
▁งชั	-10.894
ปาร	-10.8943
พลา	-10.8944
วินิจฉัย	-10.8945
▁พวกเราสามารถ	-10.8948
มองโลก	-10.8954
▁ราว	-10.8959
▁คนใน	-10.896
▁เคล	-10.8963
ell	-10.8976
วิชาการ	-10.8979
มีราย	-10.8993
▁นพัน	-10.9003
เจาะจง	-10.9007
เติมเ	-10.901
ยกระดับ	-10.9012
ดีมาก	-10.9014
▁นํามา	-10.902
สําหรับฉัน	-10.9021
la	-10.9026
มีเวลา	-10.9026
มนต	-10.9027
ขนมปัง	-10.9029
▁งยวด	-10.9029
เปียโน	-10.9029
ดาวหาง	-10.9031
แบบเดียวกับ	-10.9031
ปรารถนา	-10.9033
แนวปะการัง	-10.9036
คนรุ	-10.9038
19	-10.9038
วงโคจร	-10.9041
▁ในรูป	-10.9044
ab	-10.9046
ไปทํางาน	-10.9047
▁องถ	-10.9047
▁งยาก	-10.9049
▁านเหรียญ	-10.9055
คูณ	-10.9057
การบ	-10.9057
รัฐสภา	-10.9057
เบี	-10.9059
ควรทํา	-10.9059
สมองของเรา	-10.906
การสูญเสีย	-10.9064
หมา	-10.9065
▁มีแค	-10.9065
แปลกๆ	-10.9074
นเชื	-10.9077
ฉันคิดว	-10.908
▁0	-10.908
คราว	-10.9083
▁ผมพยายาม	-10.9089
▁คืออะไร	-10.909
คุกคาม	-10.9091
ความกล	-10.9092
เพียงอย	-10.9094
แผนก	-10.9106
บนดาวอังคาร	-10.9106
▁ความสุข	-10.9107
กลับเข	-10.911
ผลกระทบต	-10.9112
รถเข	-10.9114
▁หลายปี	-10.9117
ill	-10.912
▁และสําหรับ	-10.9121
คลี	-10.9122
▁เขาพูด	-10.9125
▁เขาบอก	-10.9127
รูปแบบของ	-10.9127
▁คือเรา	-10.9127
อคติ	-10.9135
ถกเถียง	-10.9137
ap	-10.9137
ทางธุรกิจ	-10.9147
ออทิซึม	-10.9149
รีย	-10.915
▁และหลังจาก	-10.9157
ความเงียบ	-10.916
ดิบ	-10.9165
▁สรุป	-10.9169
มุมมองของ	-10.9173
เจน	-10.9175
ha	-10.9179
ลอก	-10.918
เคป	-10.9182
สมมุติ	-10.919
เถียง	-10.919
สตูดิโอ	-10.919
เครดิต	-10.919
กระสุน	-10.919
ปกคลุม	-10.9191
อาสาสมัคร	-10.9191
ฟุตบอล	-10.9191
▁ผมรัก	-10.9192
▁มีเวลา	-10.9193
ity	-10.9195
โยง	-10.9197
▁สมมติ	-10.9201
หาได	-10.9213
im	-10.9217
▁คอร	-10.9223
▁ในทุกๆ	-10.9226
▁ในท	-10.9233
▁เราจะมี	-10.9233
▁ตํารวจ	-10.9237
▁ถึงตอน	-10.9248
▁นรน	-10.9255
▁งในสิ	-10.9257
โรคมาลาเรีย	-10.926
ซาร	-10.9261
▁75	-10.9276
การฆ	-10.9283
▁อมูลทั	-10.9291
บนท	-10.9295
▁อแก	-10.9295
ภาพรวม	-10.9297
▁ในใจ	-10.9299
ของแม	-10.9307
เรายัง	-10.9311
เรียบร	-10.9312
▁พุ	-10.9314
▁นโอกาส	-10.9317
▁ายค	-10.9324
โจท	-10.9326
▁งมวล	-10.9328
▁ยอด	-10.9331
ถึงเรื	-10.9334
ยื	-10.9334
ซิน	-10.934
▁ําแล	-10.9343
เศรษฐ	-10.9345
▁วัคซีน	-10.9348
▁อนตัว	-10.9352
ชิมแปนซี	-10.9354
เอชไอวี	-10.9354
แสวงหา	-10.9354
นามธรรม	-10.9355
ทําความสะอาด	-10.9355
อึ	-10.9359
ในสมัย	-10.9362
▁วโลกเหนือ	-10.9364
และมี	-10.9366
รอบโลก	-10.9366
นาแน	-10.9368
▁นอันตราย	-10.937
▁าตกใจ	-10.937
ey	-10.9371
กระทั	-10.9374
▁และคุณจะ	-10.9375
กันเถอะ	-10.9379
ลื	-10.9382
▁งเมื	-10.9383
แพง	-10.9386
▁ลองคิดถึง	-10.9387
ของพ	-10.9392
ดอลลา	-10.9396
▁มๆ	-10.9398
คุณสามารถ	-10.9399
ยอมรับว	-10.9406
อันดับแรก	-10.9407
ราวๆ	-10.9408
▁และพวกมันก	-10.9409
▁กูเกิล	-10.9428
ุกร	-10.9431
▁ในบาง	-10.944
คนละ	-10.944
มีอํานาจ	-10.9442
เพียงไม	-10.9444
ในทุกๆ	-10.9466
▁45	-10.9467
เหลี	-10.9469
การปฏิรูป	-10.9471
ของอเมริกา	-10.9482
▁เรากําลังทํา	-10.9483
แฮก	-10.9484
▁และคุณสามารถ	-10.9485
จัดตั	-10.9487
วาดรูป	-10.9491
ตาบอด	-10.9493
▁การมี	-10.9494
▁นตัวแทน	-10.9501
▁อสอง	-10.9502
de	-10.9506
▁แรงบันดาลใจ	-10.9509
พล	-10.9509
▁ยนโลก	-10.9509
ไปไกล	-10.9516
การทําลาย	-10.9519
รัฐมนตรี	-10.9521
ตะโกน	-10.9521
ทะลุ	-10.9521
ไนจีเรีย	-10.9521
บทสนทนา	-10.9522
▁ยนเป	-10.9522
ตะวันออกกลาง	-10.9523
ลงจอด	-10.9523
▁มันดู	-10.9524
หกเดือน	-10.9529
▁ยวกับความ	-10.9531
▁เวลานาน	-10.9536
▁ามาใน	-10.9545
ตัวนั	-10.9546
ภายใ	-10.9547
▁มจะ	-10.9548
▁กําลังพัฒนา	-10.9548
มีตัวตน	-10.9549
▁วิน	-10.9553
▁การให	-10.9553
ion	-10.9553
▁คุณอยาก	-10.9554
จะบอกคุณ	-10.9556
งานของ	-10.9558
▁อเธอ	-10.9562
ักครู	-10.9567
,	-10.9573
การหา	-10.9573
ทางวัฒนธรรม	-10.9574
อายุน	-10.959
ในนิวยอ	-10.9591
▁ควรจะเป	-10.9597
นู	-10.9601
ธง	-10.9602
▁าคุณกําลัง	-10.9603
แหละ	-10.9609
ip	-10.9614
มีระบบ	-10.9615
พบเจอ	-10.9617
ทาส	-10.962
▁วมมือกับ	-10.9621
ทําตัว	-10.9623
▁จะเพิ	-10.9632
ถูกนําไป	-10.9635
โรคอ	-10.9641
ตัวแทน	-10.9647
แอปเปิ	-10.9647
พูดถึงมัน	-10.9647
▁ปีข	-10.9652
การสอน	-10.9654
▁วขณะ	-10.9656
▁ายแล	-10.9656
อลล	-10.9658
ect	-10.9661
▁เราเอา	-10.9662
▁โรงพยาบาล	-10.9664
เทพ	-10.9668
ในรัฐ	-10.9669
▁มีหน	-10.967
ลองทํา	-10.9681
▁างระบบ	-10.9688
ปฎิบัติ	-10.9691
ศรัทธา	-10.9691
อัลกอริทึม	-10.9691
บัญญัติ	-10.9691
เปราะบาง	-10.9691
ตํานาน	-10.9691
ฮีโร	-10.9691
▁นรํา	-10.9693
คุณอาจจะ	-10.9694
หลักสูตร	-10.9694
▁โรงงาน	-10.9703
คาน	-10.9707
นึกภาพ	-10.9708
เกษตรกรรม	-10.9709
โหล	-10.971
▁มันหมายความ	-10.9711
▁คาดคิด	-10.9713
โปรเจกต	-10.9716
ผลกําไร	-10.972
บาร	-10.9722
▁สําหรับฉัน	-10.9727
▁Ch	-10.9729
ลาส	-10.9732
สอด	-10.9734
ลึกลับ	-10.9735
▁เกษตรกร	-10.9743
นักโทษ	-10.9746
▁จะเอา	-10.9747
▁รับข	-10.9749
▁โปรด	-10.975
พบเห	-10.975
ยังคงมี	-10.9751
เวน	-10.9754
มีประสิทธิภาพ	-10.976
▁เรามักจะ	-10.9765
ทํายังไง	-10.9775
กับลูก	-10.9779
าวน	-10.978
จุดจบ	-10.978
▁งผลต	-10.9781
การสั	-10.9783
คนไหน	-10.9788
ถอน	-10.9792
▁องจ	-10.9797
ของครอบครัว	-10.9798
แบบแผน	-10.9801
ทุกปี	-10.9804
พบกัน	-10.9808
ิลลี	-10.981
ถูกส	-10.9814
เซล	-10.9814
▁างเร	-10.9815
ในการทํา	-10.9815
▁าพันธุ	-10.9815
ออม	-10.9819
ยีนส	-10.9822
พลังของ	-10.9825
▁พิพากษา	-10.9826
▁มีความคิด	-10.9828
เพียงเล	-10.9842
▁องสาว	-10.9843
ยากจน	-10.9844
พัฒนาการ	-10.9845
ปรับตัว	-10.9857
คิดถึงมัน	-10.9862
ลัทธิ	-10.9863
พจนานุกรม	-10.9863
สหราชอาณาจักร	-10.9863
เดือด	-10.9863
วัตต	-10.9863
สงสาร	-10.9863
สลัม	-10.9864
อุปมา	-10.9864
ีร	-10.9867
ไมโคร	-10.9868
▁และพวกเราก	-10.9869
▁รับอนุญาต	-10.987
นับถือ	-10.987
มนุษยธรรม	-10.987
การคิด	-10.9874
▁ในขณะเดียวกัน	-10.9876
การมอง	-10.9879
ความผิด	-10.988
มีเหตุผล	-10.9884
ความยุติธรรม	-10.9885
กวาด	-10.9891
▁โดยมี	-10.9892
▁างสุด	-10.9899
โดยทั	-10.99
กําลังมองหา	-10.9901
▁งมันก	-10.9904
โปส	-10.9906
เหลื	-10.9907
ดีใจ	-10.9909
▁างขวาง	-10.9911
หยด	-10.9913
▁เรามอง	-10.9917
▁อความที	-10.9917
▁อินเดีย	-10.992
▁เราเรียก	-10.9923
▁างไหม	-10.9926
ความฉลาด	-10.9926
คนขับ	-10.9926
▁มานาน	-10.9933
หลอดไฟ	-10.9934
ในการทํางาน	-10.9936
ในภาพ	-10.9943
เกิดจาก	-10.9945
อินทรี	-10.9946
มีหลักฐาน	-10.9949
▁ฉันอยากให	-10.9953
ทําลายล	-10.9954
แปลกใจ	-10.9956
ใจกลาง	-10.9956
▁จจริงที	-10.9962
การอนุรักษ	-10.9966
ความกรุณา	-10.9966
▁นเหมือนกับ	-10.9967
▁อๆ	-10.9972
มารวมตัวกัน	-10.9974
การประเมิน	-10.9974
ของผมคือ	-10.9978
▁เพราะเมื	-10.9979
ทางศีลธรรม	-10.9981
ความสูง	-10.9983
▁Co	-10.9986
คนนึง	-10.9986
เคล	-10.9988
สามารถเข	-10.9988
▁อไร	-10.9988
▁ายสุด	-10.9992
ตรงๆ	-10.9998
▁22	-10.9999
ติก	-11.0007
บริโภค	-11.0009
ของโครงการ	-11.002
per	-11.0021
ในสถาน	-11.0021
▁คุณค	-11.0022
ความสามารถที	-11.0022
▁เราเรียน	-11.0023
▁มันดูเหมือน	-11.0024
มีประชากร	-11.0029
รอด	-11.003
หลั	-11.0035
▁างเรา	-11.0036
▁เขากําลัง	-11.0038
ซึม	-11.0038
▁พวกเขาจึง	-11.0038
ปากีสถาน	-11.0038
ตรงไปตรงมา	-11.0038
ฉีก	-11.0038
▁คีท	-11.0039
เรือนจํา	-11.0039
▁1980	-11.0039
จะนํา	-11.0039
ทดแทน	-11.004
หลอดเลือด	-11.004
แทรก	-11.004
ฉลอง	-11.0043
ist	-11.0044
▁าใจผิด	-11.0045
▁ในหลายๆ	-11.0047
ฝึกฝน	-11.0047
▁มันสร	-11.0049
▁อใด	-11.005
เสมอไป	-11.0053
โซน	-11.0053
สามารถนํา	-11.0071
com	-11.0076
▁นชัด	-11.0077
▁บนถนน	-11.0081
▁วนเล	-11.0084
ดับ	-11.0091
ในตลาด	-11.0092
ในตัวเอง	-11.0098
จากข	-11.0099
ag	-11.01
ทันใด	-11.0102
▁ในหนังสือ	-11.0102
▁านๆ	-11.0104
▁ถึงเวลา	-11.0106
มื	-11.0107
การปกครอง	-11.0109
▁ปีต	-11.011
▁นหมายถึง	-11.0111
บาน	-11.0114
▁มันคง	-11.0116
ฟุต	-11.0119
การวางแผน	-11.0132
▁างละเอียด	-11.0133
ยกเว	-11.0135
2,000	-11.0137
ในโครงการ	-11.0147
เทป	-11.0147
me	-11.0149
เพี	-11.0149
ผมไป	-11.0153
ในหลายๆ	-11.0155
▁ของประชากร	-11.0158
มันออก	-11.0159
▁คุณจํา	-11.0161
▁แพง	-11.0173
▁พวกมันเป	-11.0191
เขียนโปรแกรม	-11.0192
ตอบสนองต	-11.0202
เหมือนๆ	-11.0205
หาอาหาร	-11.0208
▁อมด	-11.0214
▁หรือบางที	-11.0214
ในรถ	-11.0216
ภูมิอากาศ	-11.0216
คลินิก	-11.0217
อับอาย	-11.0217
พรมแดน	-11.0217
ถาวร	-11.0217
▁รวมไปถึง	-11.0223
อุทิศ	-11.0225
ดํารงชีวิต	-11.0227
แปลกประหลาด	-11.0227
ทางจิต	-11.0232
จอม	-11.0232
▁บวก	-11.0233
ผลตอบแทน	-11.0239
จินตนาการว	-11.024
▁าเรากําลัง	-11.024
เขียนว	-11.0244
หลังคา	-11.0244
มองย	-11.0254
▁องสมุด	-11.0254
▁จากทั	-11.0255
ในมหาวิทยาลัย	-11.0256
▁าผมไม	-11.026
▁Ne	-11.0261
รองรับ	-11.0264
▁เผย	-11.0266
▁งบริษัท	-11.027
กับครอบครัว	-11.0274
ตัวแปร	-11.0274
เธอร	-11.0276
▁คุณเข	-11.0276
เขาพูดว	-11.0281
จิตวิทยา	-11.0282
▁งใด	-11.0283
เอามากๆ	-11.0301
ควอนตัม	-11.0307
▁และในขณะ	-11.0317
สักวัน	-11.0319
ขัง	-11.0321
▁มันเจ	-11.0322
บบุ	-11.0328
▁นสัญ	-11.0329
▁อโลก	-11.033
▁อมล	-11.0334
ภูเขาไฟ	-11.0335
ธี	-11.034
ความสําคัญของ	-11.0341
การผจญภัย	-11.0344
นักชีววิทยา	-11.0347
ฐานข	-11.0349
จั	-11.0354
▁เวลาส	-11.0361
▁ผมเรียน	-11.0371
มัธยม	-11.0372
สํานัก	-11.0372
▁นไปตาม	-11.0374
▁างความแตกต	-11.0383
▁างบน	-11.0385
ินส	-11.0386
ลาน	-11.039
ระบาย	-11.0395
สมเหตุสมผล	-11.0399
ราเมือก	-11.0399
เอียง	-11.0399
กระดาน	-11.0399
ทวีต	-11.0399
ปารีส	-11.0399
ลงเอย	-11.0399
ดัชนี	-11.0399
ดึก	-11.0402
ไบโอ	-11.0402
ปากกา	-11.0403
▁Ma	-11.0406
สแตน	-11.0407
ระบบเศรษฐกิจ	-11.0409
รักษาโรค	-11.041
สตาร	-11.0411
หมายเลข	-11.0412
เทคโนโลยีให	-11.0414
บอกพวกเขา	-11.0414
โทรหา	-11.0415
ฤดูหนาว	-11.0418
▁วนผสม	-11.0419
▁ไหนก	-11.0422
จินตนาการถึง	-11.0423
▁อสุขภาพ	-11.0424
สองครั	-11.0436
co	-11.0441
▁มเห	-11.0443
▁ดูว	-11.0447
▁อหุ	-11.0449
▁นไปอีก	-11.0449
▁มีความสามารถ	-11.045
มันออกไป	-11.0453
ลองคิด	-11.046
มีจํานวน	-11.046
mo	-11.0462
ิย	-11.0463
โดยธรรมชาติ	-11.0465
ine	-11.0468
นักกี	-11.0472
ในการสร	-11.0473
อู	-11.0483
▁ควอนตัม	-11.0492
▁มีความเป	-11.0492
ถูกทําลาย	-11.0495
เชิงบวก	-11.0495
ไปจาก	-11.0496
▁มีอาการ	-11.0499
หมายถึงว	-11.0502
▁างกันมาก	-11.0507
หลายสิ	-11.0509
▁นเราก	-11.0514
โคล	-11.0514
▁างรุนแรง	-11.0518
คุณลักษณะ	-11.0519
ฟังเสียง	-11.0523
ถูกกําหนด	-11.0523
▁งหมายความ	-11.0524
มีเรื	-11.0526
▁ขอบคุณมาก	-11.0526
▁ถูกส	-11.0529
40	-11.053
เอามัน	-11.0537
คุณภาพชีวิต	-11.054
▁สอด	-11.0542
กําลังทําอะไร	-11.0547
▁Le	-11.0549
หลายๆคน	-11.0554
▁เอาหล	-11.056
▁De	-11.0564
แฮม	-11.0569
▁เพราะการ	-11.0569
▁นจะต	-11.0575
อีกสิ	-11.0579
ตรรกะ	-11.0584
เพดาน	-11.0584
คณะกรรมการ	-11.0584
▁1970	-11.0584
เกราะ	-11.0585
▁2008	-11.0585
เจตนา	-11.0585
ัมภ	-11.0586
▁ใครจะ	-11.0587
▁นประจํา	-11.0597
กายภาพ	-11.0598
▁อยปี	-11.0602
ลอส	-11.0604
▁งหญ	-11.0605
รถเมล	-11.0607
▁เราชอบ	-11.0609
ตอบกลับ	-11.0611
ลวด	-11.0611
ขนาน	-11.0612
▁ผมทํางาน	-11.0613
▁างเคียง	-11.0613
ครุ	-11.0617
ขวาง	-11.0623
▁ายทํา	-11.0625
▁สาระ	-11.0628
แอปเปิล	-11.0632
อัลไซ	-11.0632
เมีย	-11.0635
▁อเสนอ	-11.0636
▁มีเด	-11.0636
ชนบท	-11.0637
▁อนจะ	-11.0638
แอพ	-11.0641
กอด	-11.0643
▁อพยพ	-11.0643
เขาก	-11.0644
▁วนสําคัญ	-11.0647
▁วงเวลานั	-11.0648
art	-11.0654
มีความคิด	-11.0654
ความพิการ	-11.0658
▁วคราว	-11.0665
ive	-11.0672
ถามผม	-11.0677
▁านเกิด	-11.0679
▁มสูง	-11.0691
เกือบทั	-11.0692
▁างสูง	-11.0692
สุขภาพของ	-11.071
▁อมโยงกับ	-11.0714
▁องศา	-11.0716
▁นหวัง	-11.0716
▁อสารกัน	-11.072
มีศักยภาพ	-11.0721
เคยมี	-11.0721
bo	-11.0724
แอฟริกาใ	-11.0725
มีผล	-11.0725
ทางความคิด	-11.0727
▁เราสามารถสร	-11.0732
▁อมโยงกัน	-11.0739
นับล	-11.0742
▁มุมมอง	-11.0744
▁ฉันสามารถ	-11.0757
กันแล	-11.0766
รับประทาน	-11.077
จูงใจ	-11.0771
เกษียณ	-11.0773
▁มขืน	-11.0773
นักบินอวกาศ	-11.0773
id	-11.0774
ัปชั	-11.0775
▁นใย	-11.0775
▁สําหรับผมแล	-11.0781
กรีก	-11.0784
▁วประเทศ	-11.0787
มีความหวัง	-11.0788
▁จะแก	-11.0794
▁เคยมีมา	-11.0811
ตัวอ	-11.0811
▁พวกมันจะ	-11.0826
to	-11.0827
เลสเตอร	-11.0828
ลําธาร	-11.083
พลังงานแสง	-11.0831
แบบดั	-11.0831
กําลังถูก	-11.0832
ผูกพัน	-11.0832
กําลังทํางาน	-11.0834
ระดับชาติ	-11.0835
▁อแรก	-11.084
▁เขาจึง	-11.0842
ตลักษณ	-11.0843
▁าฝน	-11.0843
ตลอดไป	-11.0846
ตับ	-11.0849
▁องหมาย	-11.0854
ในอังกฤษ	-11.0861
ฉันก	-11.0864
กลม	-11.0869
สมาร	-11.0869
ทางศาสนา	-11.0872
ยังเด	-11.0873
▁นธรรม	-11.0879
ไปทํา	-11.0888
การเสียชีวิต	-11.0896
เกิดเหตุ	-11.0901
ทรงพลัง	-11.0901
▁วาร	-11.0902
บิด	-11.0906
เพล	-11.0907
ดําเนินไป	-11.0908
สไตน	-11.0917
▁ทําจาก	-11.0928
▁มีพื	-11.0931
ยืนยาว	-11.0931
กลางวัน	-11.0933
นิดเดียว	-11.0944
▁าคุณอยาก	-11.0949
มีคุณสมบัติ	-11.0951
รถคัน	-11.0952
▁มันดี	-11.0954
▁าเราทํา	-11.0955
มุสลิม	-11.0957
มันคือ	-11.0962
บอสตัน	-11.0965
ประเพณี	-11.0965
สุภาพบุรุษ	-11.0965
มรดก	-11.0965
เสรีนิยม	-11.0966
ถอดรหัส	-11.0966
▁2010	-11.0967
▁2007	-11.0967
ยานอวกาศ	-11.0968
▁างไปจาก	-11.0969
แรงผลักดัน	-11.097
ราคาแพง	-11.0973
▁ในประวัติ	-11.0977
ตอนอายุ	-11.0986
ของเทคโนโลยี	-11.0987
▁ปรึกษา	-11.0989
จากจุด	-11.099
ผิดกฎหมาย	-11.0991
ประสาทสัมผัส	-11.0992
บนหน	-11.0992
เทียบเท	-11.0992
การรณ	-11.0998
▁ในภาพ	-11.0999
ทางแก	-11.1002
▁ในเมื	-11.1002
ขํา	-11.1006
กันครับ	-11.1012
ของสหรัฐ	-11.1013
▁เราเจอ	-11.1013
เสือ	-11.1017
การตรวจสอบ	-11.1022
ในวันนั	-11.1023
ตอนกลางคืน	-11.1025
▁ฉันขอ	-11.103
เฟื	-11.1048
าหร	-11.1053
ess	-11.1056
ลวง	-11.1067
หญิงสาว	-11.1068
▁นประสาท	-11.1069
ของธรรมชาติ	-11.1071
โอน	-11.1075
▁มีความเสี	-11.1079
▁ในศตวรรษ	-11.1082
ฉา	-11.1089
ทางเดียว	-11.1094
ประเทศเหล	-11.1099
ปลุก	-11.11
โช	-11.1111
▁ฉันคิด	-11.1118
ฎ	-11.1121
▁บาร	-11.1122
▁นกําเนิด	-11.1125
ในคืน	-11.1126
▁พวกเขายัง	-11.1127
ตรงกลาง	-11.1136
ยุทธ	-11.1141
▁แสดงว	-11.1142
▁อนของผม	-11.1144
แปะ	-11.1146
ไขว	-11.115
▁างกันไป	-11.1151
สองวัน	-11.1153
ของเจ	-11.1159
กางเกง	-11.1161
ซานฟรานซิสโก	-11.1161
สาธารณชน	-11.1161
สํารอง	-11.1161
▁CRISPR	-11.1161
▁าประเวณี	-11.1161
สมาคม	-11.1161
หมึก	-11.1161
▁99	-11.1161
จําแนก	-11.1162
▁ลองนึกถึง	-11.1166
ดีไซ	-11.1171
▁100,000	-11.1171
แมวน	-11.1171
กับพวก	-11.1176
เลยค	-11.1176
กําลังคิด	-11.1177
การเลี	-11.1178
▁ทอม	-11.1179
โครงกระดูก	-11.1182
เดินผ	-11.119
▁กชาย	-11.1194
ou	-11.1202
ของความเป	-11.1203
▁มันอาจเป	-11.1205
นําทาง	-11.1205
▁าใจมัน	-11.1206
▁คุณทราบ	-11.1209
▁เหมือนกับการ	-11.1225
ทางเทคนิค	-11.1226
มีความสามารถ	-11.1228
คลาน	-11.1242
ความเสียใจ	-11.1244
แด	-11.1249
สําหรับคน	-11.1252
▁วพวกเขาก	-11.1256
ไหนก	-11.126
อะไรมาก	-11.1263
ไปรอบ	-11.1278
เอด	-11.1281
▁ขอบคุณมากค	-11.1282
คุณพ	-11.1282
โชคดีที	-11.1287
▁มีเครื	-11.1289
▁แถม	-11.1291
สาน	-11.1297
ปรบมือ	-11.1311
างถูกต	-11.1317
▁คุณควร	-11.1323
ความอยาก	-11.1332
จุดหมาย	-11.1338
กับเครื	-11.1341
ขบวน	-11.1345
คลิก	-11.1345
pe	-11.1352
จากโลก	-11.1353
เอกชน	-11.1356
ent	-11.1357
ปรุง	-11.136
ฟอสซิล	-11.1361
บรรณาธิการ	-11.1361
สมรรถภาพ	-11.1361
อินซูลิน	-11.1361
อิสลาม	-11.1361
ไอโฟน	-11.1361
กระทรวง	-11.1361
อบรม	-11.1361
กลืน	-11.1362
▁าใจอย	-11.1362
ีลอน	-11.1362
ภัยคุกคาม	-11.1364
เรากําลัง	-11.1364
ระลึก	-11.1364
ผสมผสาน	-11.1364
ประมวลผล	-11.1364
▁จะพยายาม	-11.1365
ตัวผมเอง	-11.1366
แนวความคิด	-11.1375
เรือดําน	-11.1377
▁มจํานวน	-11.1381
ซิล	-11.1382
▁ายมือ	-11.1386
ทํางานหนัก	-11.1389
▁เหมาะกับ	-11.1392
▁รับผลกระทบ	-11.1394
สังเกตว	-11.1395
มองโลกในแ	-11.1395
กําลังเผชิญ	-11.1399
งอก	-11.1404
ตัวฉัน	-11.1411
▁Al	-11.1414
▁เออ	-11.1415
ของเสีย	-11.1415
โคลน	-11.1416
เราเรียกมัน	-11.1417
จัดอันดับ	-11.1437
▁าหากคุณ	-11.1443
ตายไป	-11.1444
ชีวิตของคุณ	-11.1444
ทําเงิน	-11.1449
▁มันจะต	-11.145
▁ฉันรัก	-11.1459
▁านสุขภาพ	-11.146
ของผมเอง	-11.1462
▁มันคงจะ	-11.1465
ธรรมดาๆ	-11.1469
สําหรับพวกเรา	-11.1479
ในระยะยาว	-11.1481
ควัน	-11.1491
▁ตอนผม	-11.1492
การเลือก	-11.1502
ph	-11.1508
▁ในทางกลับกัน	-11.1512
▁ปัญหาก	-11.1515
he	-11.1516
ตัวนํา	-11.1517
ใจผม	-11.1525
วันเกิด	-11.1532
▁จะหา	-11.1534
าธ	-11.1541
▁อดัม	-11.1542
ทางเทคโนโลยี	-11.1546
เคิล	-11.1549
▁Ro	-11.1557
สังหาร	-11.1562
สลับ	-11.1562
▁งเรือง	-11.1563
พูดอย	-11.1564
หงุดหงิด	-11.1565
ทบทวน	-11.1565
มหึมา	-11.1565
ลิขสิทธิ	-11.1565
ชัยชนะ	-11.1565
เกลือ	-11.1566
หัวรุนแรง	-11.1569
วารสาร	-11.1571
ทําอาหาร	-11.1575
โปรโต	-11.1577
สารคดี	-11.158
ความเคารพ	-11.158
▁มทํางาน	-11.1594
จอห	-11.16
บางคนก	-11.1602
เลยล	-11.1608
มารดา	-11.161
ในมหาสมุทร	-11.1611
เดาว	-11.1614
▁ดิฉันก	-11.1614
▁ฮอ	-11.1618
หลักของ	-11.1632
เหมือง	-11.1633
อเมริกาเหนือ	-11.1639
ลิฟ	-11.1641
วาน	-11.1641
▁ในสภาวะ	-11.1643
▁รับความ	-11.1648
da	-11.1649
ในใจ	-11.1649
▁นหาว	-11.165
▁อนผม	-11.1651
เดิมๆ	-11.1652
พูดภาษา	-11.1653
▁อนหิน	-11.1655
▁เรานํา	-11.1657
ความยุ	-11.1663
▁นอกเหนือจาก	-11.1669
▁างมีประสิทธิภาพ	-11.1674
ดูเหมือนจะ	-11.1674
มีชื	-11.1676
ถูกจัด	-11.1696
ความยั	-11.1696
▁อนไหวของ	-11.1702
▁วยเหลือจาก	-11.1702
คิดอะไร	-11.1707
ภูมิภาค	-11.1713
ในอากาศ	-11.1717
▁าแมลง	-11.1721
ผลของ	-11.1733
มันมี	-11.1738
อีกตัว	-11.1739
สะดวก	-11.1743
สัมผัสกับ	-11.1744
▁อสรุป	-11.1754
▁องยาก	-11.1759
▁วงแรก	-11.176
สาขาวิชา	-11.1762
สองตัว	-11.1768
ธรณีวิทยา	-11.1773
ขาดแคลน	-11.1773
ขีดจํากัด	-11.1773
อิตาลี	-11.1773
▁ทโฟน	-11.1773
สะเทือน	-11.1773
โฉม	-11.1773
▁2011	-11.1773
สีเทา	-11.1774
สภาวะอากาศ	-11.1776
ผิวดํา	-11.1777
การเปรียบเทียบ	-11.1778
▁ผมจะพูด	-11.1778
▁าวข	-11.178
▁ประการแรก	-11.1781
50,000	-11.1784
เคนย	-11.1786
▁คนมากมาย	-11.1791
การบันทึก	-11.1792
เยาวชน	-11.1792
▁เขาตอบ	-11.1806
ของชุมชน	-11.1809
ชาวบ	-11.181
หลายเดือน	-11.1818
สามอย	-11.182
▁196	-11.1821
ซิตี	-11.1832
▁ฉันเลย	-11.1844
รอบตัวเรา	-11.1844
son	-11.1847
▁เรียกกัน	-11.1858
ไปทาง	-11.1861
แจก	-11.1862
▁หรืออาจจะ	-11.1864
อดทน	-11.1864
กมุ	-11.1864
ไฟล	-11.1869
จัดเรียง	-11.187
ปกครอง	-11.1871
ความเมตตา	-11.1878
มองข	-11.1879
นักจิตวิทยา	-11.188
โลกตะวันตก	-11.1893
การบริโภค	-11.1899
มีความสุขมาก	-11.1899
▁เพียงเพราะ	-11.1903
เลยนะครับ	-11.1904
ly	-11.1908
▁และยังมี	-11.191
เจอกัน	-11.1912
ทางอาร	-11.1916
เสียงดัง	-11.1924
คนบางคน	-11.1924
แมรี	-11.1933
ดังนั	-11.1945
ทุกชนิด	-11.1948
หยั	-11.1952
▁ผมตัดสินใจ	-11.1956
มีลักษณะ	-11.1957
▁อดูว	-11.1964
จากโรค	-11.197
▁มันสําคัญ	-11.197
ของพวก	-11.198
▁วนๆ	-11.1981
ie	-11.1985
ระบอบ	-11.1986
ระดม	-11.1986
แทรกแซง	-11.1986
▁1,	-11.1988
▁2009	-11.1988
▁หลวง	-11.199
▁าขวบ	-11.1991
ปลูกพืช	-11.1991
พนัน	-11.1992
▁จากข	-11.1994
จุดประกาย	-11.1995
ton	-11.1998
▁In	-11.1998
กันไป	-11.1998
ยกย	-11.2003
▁และทําไม	-11.2005
ทันทีทันใด	-11.2006
▁คุณอยากจะ	-11.2008
การขยายตัว	-11.2012
▁ยคะ	-11.2012
ละเลย	-11.2015
▁อปกป	-11.2015
ในเอกภพ	-11.2015
มีประโยชน	-11.2017
การติดต	-11.2021
▁มันคือการ	-11.2027
▁มไปหมด	-11.2031
▁อสาย	-11.2031
▁ฉันหวัง	-11.2033
แรงกล	-11.2048
ลาออก	-11.2048
ถกเถียงกัน	-11.2058
หมอก	-11.2059
ขนาดย	-11.2068
แนะ	-11.2068
▁ําลง	-11.207
ของลูก	-11.2076
หวัด	-11.2077
▁างนึง	-11.2078
ถูกฆ	-11.2079
▁างชาติ	-11.2079
อัพ	-11.2081
▁มันยังมี	-11.2084
มัธยมปลาย	-11.2085
มีคําถาม	-11.209
ภาษาจีน	-11.2092
▁าประทับใจ	-11.2098
ศุ	-11.2099
ma	-11.21
bi	-11.2106
วิถีชีวิต	-11.2108
ดีนะ	-11.2108
รถบรรทุก	-11.2111
อีกนิด	-11.2114
▁างกันอย	-11.2132
▁ามันน	-11.2136
ในมุมมอง	-11.2137
ในศตวรรษ	-11.2141
เสียด	-11.2143
สองเดือน	-11.2144
▁ผมจะเล	-11.2146
การเกิด	-11.2149
10	-11.2165
มาถึงจุด	-11.2179
สกัด	-11.2179
▁เคยถูก	-11.2185
สมมติ	-11.2187
▁องหยุด	-11.2191
▁อรอง	-11.2195
▁มีหลาย	-11.2197
มากทีเดียว	-11.2198
▁อสารกับ	-11.2203
▁1990	-11.2204
▁2012	-11.2204
ตะลึง	-11.2204
สุขอนามัย	-11.2204
มีชีวิตชีวา	-11.2204
,500	-11.2204
หมวด	-11.2204
อายุขัย	-11.2204
ถึงกับ	-11.2205
ับยั	-11.2207
เยาว	-11.2207
ถูกออกแบบ	-11.2211
กติกา	-11.2212
▁ทําไมเราถึง	-11.2213
▁วยนม	-11.2213
▁หรือถ	-11.2214
พิธี	-11.2215
ระยะไกล	-11.2219
จํานวนเฉพาะ	-11.222
ไหมคะ	-11.222
▁าผมเป	-11.2225
ในเวลาเดียวกัน	-11.2227
▁Di	-11.2231
ปนเป	-11.2234
ในสาขา	-11.2236
ของพระ	-11.2237
พันธมิตร	-11.2238
ออฟ	-11.2238
หวาดกลัว	-11.2246
หรือยัง	-11.2247
▁องการความช	-11.2247
ในตอนแรก	-11.2248
ถามเขา	-11.2252
ประเทศต	-11.2253
▁อพวกเรา	-11.2263
หมายถึงอะไร	-11.2266
จัดระเบียบ	-11.2271
▁จะทํางาน	-11.2288
▁เขาสามารถ	-11.2288
ในหนังสือ	-11.2289
นักลงทุน	-11.2296
▁ในมือ	-11.2298
เชีย	-11.2299
ทําธุรกิจ	-11.2303
▁างกายของเรา	-11.2308
บุก	-11.2311
▁างเหลือ	-11.2311
เมตตา	-11.2316
ฐานะ	-11.232
ทาสี	-11.2321
นานาชาติ	-11.2322
ไส	-11.2325
โลว	-11.2326
ปัก	-11.2344
การนําเสนอ	-11.2344
▁มีแม	-11.2345
▁องตลก	-11.2346
▁ผมเขียน	-11.2354
หายาก	-11.2356
การขยาย	-11.2356
ack	-11.2364
พูดถึงการ	-11.2367
ถูกสอน	-11.2375
ภาพเหล	-11.2377
ในหนัง	-11.2379
▁ําๆ	-11.2384
ในภาพยนต	-11.2384
▁มันทํางาน	-11.2389
▁เราตัดสินใจ	-11.2389
ของปี	-11.2391
กับชีวิต	-11.2393
แอนต	-11.2394
ไปเรียน	-11.2399
เตรียมตัว	-11.2403
จับปลา	-11.2404
การปฏิบัติ	-11.2409
อายุมาก	-11.2416
▁าคุณทํา	-11.2418
▁สวัสดี	-11.242
ความคล	-11.242
ลําไ	-11.2421
▁วยเทคโนโลยี	-11.2424
▁รับบ	-11.2424
ถูกบังคับ	-11.2425
บุกเบิก	-11.2426
ครอบงํา	-11.2426
ปะทะ	-11.2426
มะเขือเทศ	-11.2426
เหยียด	-11.2426
อาณาจักร	-11.2426
▁าเสียดาย	-11.2426
หดหู	-11.2426
รสชาติ	-11.2426
ลินดา	-11.2429
โรงไฟฟ	-11.243
เบิ	-11.2437
แรงดึงดูด	-11.2437
po	-11.2441
เทค	-11.245
▁ยนจาก	-11.2454
ดหยุ	-11.246
แซนด	-11.2461
วิธีคิด	-11.2463
รวมถึง	-11.2469
บัน	-11.2471
▁พวกมันมี	-11.2471
สําหรับพวกเขา	-11.2472
▁27	-11.2478
ในการพัฒนา	-11.2481
▁อเลี	-11.249
ลงทุนใน	-11.2497
หากเรา	-11.2509
▁เราอยากจะ	-11.2513
▁เกิดผล	-11.253
วันแรก	-11.254
สงครามโลก	-11.2541
.5	-11.2541
เคยเจอ	-11.2541
ขวัญ	-11.2545
ver	-11.2559
ขาเทียม	-11.2563
ในเครื	-11.2569
▁ผมพบ	-11.2573
▁ฉันจํา	-11.2574
เขตร	-11.2578
ในมุม	-11.2592
การประท	-11.2594
การขับเคลื	-11.2594
ในความคิด	-11.2599
▁An	-11.2603
▁มันจะมี	-11.261
▁นเคยกับ	-11.2626
ของการเป	-11.263
▁250	-11.2632
▁คุณเอา	-11.2638
▁ผมพบว	-11.2641
หลายแห	-11.2645
▁านขาย	-11.2645
เกิดให	-11.265
แอมะซอน	-11.2653
กระโหลก	-11.2653
หุบเขา	-11.2653
ปริญญาเอก	-11.2653
ตํารา	-11.2653
ไซรัส	-11.2654
ผืนดิน	-11.2655
▁1950	-11.2655
กันเลย	-11.2656
ยกเลิก	-11.2656
บางตัว	-11.2659
สนามบิน	-11.2659
▁ยมยอด	-11.2663
▁โดยปราศจาก	-11.2663
▁สองคือ	-11.2669
จํานวนมหาศาล	-11.267
ตกแต	-11.2677
▁และหวัง	-11.2686
สักพัก	-11.2689
นักวิชาการ	-11.2702
▁600	-11.2705
แกล	-11.2716
ฝนตก	-11.2722
เพียงใด	-11.2725
หมดแล	-11.2727
ในจักรวาล	-11.2736
ชีวิตเรา	-11.2751
▁งสองอย	-11.2755
▁Se	-11.2756
บนสุด	-11.2766
ครอง	-11.2767
ซุ	-11.277
สนามแ	-11.2771
การกําจัด	-11.2776
ในการทดลอง	-11.2776
สไต	-11.278
ทางชีววิทยา	-11.2792
▁มีใครเคย	-11.2793
สําคัญของ	-11.2803
▁เขากล	-11.2806
เหลือง	-11.2812
ในบาง	-11.2812
นเดอร	-11.2816
▁องทําอย	-11.283
▁ามันคือ	-11.2834
ราม	-11.2838
ไตร	-11.2841
ออกเสียง	-11.2844
มาจากการ	-11.2848
คนพิการ	-11.2849
ถูกออกแบบมา	-11.2849
ความดัน	-11.2863
สสาร	-11.2866
con	-11.287
ตกลงมา	-11.2871
▁ผมคิดถึง	-11.2872
เดท	-11.2874
สิบห	-11.2884
เฉลิมฉลอง	-11.2886
คอนกรีต	-11.2886
ดับเพลิง	-11.2886
ปาฐกถา	-11.2886
รัฐธรรมนูญ	-11.2886
รําคาญ	-11.2886
สหภาพยุโรป	-11.2886
หมุนเวียน	-11.2886
ประชาคม	-11.2886
ทะเลสาบ	-11.2886
สตาซิ	-11.2886
ge	-11.2886
▁กแบง	-11.2886
ผิวขาว	-11.2887
ผุด	-11.2887
ไปเมื	-11.2891
กรอบความคิด	-11.2894
เยเมน	-11.2896
เปรียบ	-11.2903
ขบวนการ	-11.2905
กับความคิด	-11.2906
วิถีทาง	-11.2907
▁วคุณจะ	-11.2908
ไปพบ	-11.2909
มิน	-11.2912
ลัก	-11.2913
กับความเป	-11.292
ดัก	-11.292
จะชนะ	-11.2925
ในสวน	-11.2932
พจน	-11.2939
▁นผิวของ	-11.2942
มีความเป	-11.295
คุณครู	-11.2953
▁อวาน	-11.2957
แสงแดด	-11.2959
▁ละปี	-11.2961
รีไซเคิล	-11.2961
จากประสบ	-11.2965
▁เราเลือก	-11.2977
▁ทําไมถึง	-11.2978
เชียร	-11.2982
สลัก	-11.2985
ของมนุษยชาติ	-11.3
กับพวกคุณ	-11.3004
กันเอง	-11.3006
บนเรือ	-11.3016
ชีวิตคน	-11.3024
คุณธรรม	-11.3026
นําสิ	-11.3036
หวั	-11.3041
สามวัน	-11.3045
สเฟ	-11.3046
กําลังพูด	-11.3048
▁าเราควร	-11.3059
ti	-11.3071
พวกคุณทุกคน	-11.3077
ff	-11.3084
เทียบกับ	-11.3086
▁จะพัฒนา	-11.3097
man	-11.3108
ในวัย	-11.3109
ลงจาก	-11.311
ตอนจบ	-11.312
กษัตร	-11.3124
นิทรรศการ	-11.3124
ตกหลุมรัก	-11.3124
ประธาน	-11.3124
พิศวง	-11.3124
สกปรก	-11.3124
ออกซีโตซิน	-11.3124
อึดอัด	-11.3124
เทือกเขา	-11.3124
▁าซเรือนกระจก	-11.3124
สะกด	-11.3124
ฟิวชั	-11.3124
▁นิโคล	-11.3125
▁าของกิจการ	-11.3125
ทนทาน	-11.3129
แตกแยก	-11.3131
คําพูดของ	-11.3134
เกือบทุก	-11.3139
ฮิก	-11.314
ฮี	-11.3145
▁Mo	-11.3146
ตีความ	-11.3146
คนยากจน	-11.3147
▁รับการศึกษา	-11.3147
▁เรายังคง	-11.3148
บอกฉันว	-11.3155
ในธรรมชาติ	-11.3156
คนอีก	-11.3158
คอป	-11.3159
บัล	-11.3159
▁โดยปกติ	-11.3162
ดูหนัง	-11.3165
พบปะ	-11.3166
ทุกๆวัน	-11.3166
ลุย	-11.3167
ant	-11.3167
การวินิจฉัย	-11.3168
be	-11.317
▁นอัมพาต	-11.3173
ทางเคมี	-11.3173
ถูกตี	-11.3175
กับแม	-11.3182
▁างแรกเลย	-11.319
▁เราจะสร	-11.3191
การแลก	-11.3192
ของพวกคุณ	-11.3199
ber	-11.3206
▁างเหมาะสม	-11.3208
สิคะ	-11.3216
โปรเจค	-11.3216
การตัดสิน	-11.3222
▁เราสามารถเห	-11.3223
าเร	-11.3227
ทางธรรมชาติ	-11.323
▁าคุณมอง	-11.3232
▁ผมจะทํา	-11.3235
พบสิ	-11.3236
ักดารา	-11.3239
▁เอมี	-11.3253
าวา	-11.3258
ดาวน	-11.3258
ชาวนา	-11.3259
ในลอนดอน	-11.326
บางแห	-11.3261
คํานั	-11.3264
▁ความจริงก	-11.3267
▁อรัง	-11.3286
ความกังวล	-11.3288
ตัวเองเป	-11.3289
ปฏิวัติ	-11.3292
ตอนใ	-11.3293
การปกป	-11.3293
หั	-11.3296
ถามคุณ	-11.3303
สามารถทําอะไร	-11.3311
สมุด	-11.3319
มาทํา	-11.3321
นํามันไป	-11.3332
▁ในกระบวนการ	-11.3333
ขอบเขตของ	-11.3341
▁าวๆ	-11.3349
อาเบ	-11.3362
ทะเบียน	-11.3362
การจ	-11.3362
อักเสบ	-11.3368
เพิกเฉย	-11.3368
ไหลเวียน	-11.3368
ไฮโดรเจน	-11.3368
คลุมเครือ	-11.3368
เฉยๆ	-11.3368
ไขสันหลัง	-11.3368
▁าวโพด	-11.3368
แบรนด	-11.3368
ยานพาหนะ	-11.3368
โคจร	-11.3368
เขตแดน	-11.3369
▁2005	-11.337
▁2004	-11.3371
ลองนึกดู	-11.3372
เคาะ	-11.3374
▁องนอน	-11.3379
กองกําลัง	-11.3384
สักคน	-11.339
ลูกบอล	-11.3391
หลายทศวรรษ	-11.3392
.6	-11.3392
นํากลับมา	-11.3394
▁ยินมา	-11.3397
▁มันฟังดู	-11.3398
เคลือบ	-11.3398
ซัน	-11.3406
▁นแหละครับ	-11.3408
▁องดนตรี	-11.3412
▁ในกระเป	-11.3418
แพล	-11.3418
ตัวมัน	-11.3418
▁มโครงการ	-11.3418
▁ยังมีอีก	-11.342
ควรจะทํา	-11.3445
ถูกฝัง	-11.3448
ถูกเก	-11.345
หมอผ	-11.3451
ตัวแรก	-11.3455
ของจักรวาล	-11.3464
ตอบแทน	-11.3466
ปฏิบัติงาน	-11.3467
ate	-11.3471
รูปถ	-11.3472
แจกจ	-11.3484
▁คุณจะสามารถ	-11.3485
ไปถึงจุด	-11.3499
หาเงิน	-11.3499
▁ยวชาญด	-11.3503
สาธิต	-11.3505
โปรเจ	-11.3505
เสียงดนตรี	-11.3515
จะตาย	-11.3516
ชีวิตของผม	-11.3516
▁มู	-11.352
การเก	-11.3525
นําเราไป	-11.3525
▁ดีพอ	-11.3532
▁ผลิ	-11.3534
▁65	-11.354
เขื	-11.3542
มองเข	-11.3542
พยากร	-11.3543
ของประชาชน	-11.3544
การขาย	-11.3565
ผิดๆ	-11.3574
ay	-11.3576
จะบอกคุณว	-11.3582
no	-11.3587
ความเจริญ	-11.3591
พยายามหา	-11.3592
▁างปลอดภัย	-11.3597
กูเกิ	-11.3599
มองไปยัง	-11.3604
มีขนาดเท	-11.3604
หลอมรวม	-11.3609
กับพวกเรา	-11.3609
iv	-11.3615
ดิจิตัล	-11.3618
วีรบุรุษ	-11.3618
▁Talk	-11.3618
คอนเนกโตม	-11.3618
เฟซบุ	-11.3618
โอลิมปิก	-11.3618
ภาพลวงตา	-11.3618
แยกแยะ	-11.3618
▁1960	-11.3618
คืบ	-11.3619
ยึดถือ	-11.3619
ความตั	-11.3622
▁และมันมี	-11.3623
ในทุกวัน	-11.3624
ชะล	-11.3625
เสมือนจริง	-11.3625
โรคโปลิโอ	-11.3626
▁รับรางวัล	-11.3629
สดใส	-11.3632
ดูเหมือนว	-11.3633
ไพร	-11.3649
สามเท	-11.365
▁ใครๆ	-11.365
เนิน	-11.365
ยอดเขา	-11.3651
สําหรับทุกคน	-11.3653
คลัง	-11.3654
กรด	-11.3657
จึงตัดสินใจ	-11.3659
คนตาบอด	-11.366
ในสหรัฐอเมริกา	-11.3667
โอเค	-11.3679
ดูนะครับ	-11.3686
แนวหน	-11.3688
▁อดัง	-11.3688
.2	-11.3691
ดอลล	-11.3692
ราชการ	-11.3696
▁วยตนเอง	-11.3698
ดําเนินต	-11.3704
มแข	-11.3707
มองมัน	-11.3713
98	-11.3723
กรณ	-11.373
ของรถ	-11.374
อีกเลย	-11.3746
▁เรามัก	-11.3754
คิดเป	-11.3778
▁ามกับ	-11.3779
▁ดูจะ	-11.3783
▁วงชีวิต	-11.3789
▁แสนจะ	-11.3793
ทําการทดสอบ	-11.38
พอจะ	-11.3808
การซื	-11.3811
หันไป	-11.3811
กับบริษัท	-11.3814
ในการแก	-11.3822
โรคซึ	-11.3824
งานของเรา	-11.3828
งานของฉัน	-11.3831
▁คําถามก	-11.3833
▁เง	-11.3843
ตลอดกาล	-11.3852
▁ละครั	-11.3859
สามารถนําไป	-11.3861
▁ผมสนใจ	-11.3864
▁งขันกัน	-11.3866
รอส	-11.3872
▁มาดูกัน	-11.3874
กัปตัน	-11.3874
สาหัส	-11.3874
เยียวยา	-11.3874
แฝง	-11.3874
คลินิค	-11.3874
สุภาพสตรี	-11.3874
ดาราจักร	-11.3875
รอคอย	-11.3875
▁คําปรึกษา	-11.3875
ตรึง	-11.3876
ความมืด	-11.3877
คาดหมาย	-11.3878
ไคล	-11.3881
ฉุ	-11.3882
การจราจร	-11.3882
กระตือรือร	-11.3882
▁วงอายุ	-11.3883
วันละ	-11.3887
บิล	-11.3887
วิธีการให	-11.3891
นิทาน	-11.3892
▁รับความสนใจ	-11.3892
เกรง	-11.3895
ลึกๆ	-11.3897
สวนสาธารณะ	-11.3904
▁ําฝน	-11.3906
▁แหละครับ	-11.3906
มโห	-11.3909
วิท	-11.3913
จงใจ	-11.3913
▁เดอ	-11.3918
งานเลี	-11.3921
▁ผมหมายความ	-11.3922
▁อยสลาย	-11.3929
กิโลเมตร	-11.3941
ของเขาเอง	-11.3952
▁คุณสามารถทํา	-11.3954
โดยบังเอิญ	-11.3962
คงเป	-11.3963
▁ฉันหมายถึง	-11.3964
สนทนา	-11.3969
กําลังเปลี	-11.3976
▁คุณจะพบ	-11.3978
มากเหลือเกิน	-11.3978
เสียเวลา	-11.3982
มเสร	-11.3999
ความคาดหวัง	-11.4008
โกล	-11.4029
กลับมายัง	-11.4036
▁ผมตอบ	-11.4038
เซี	-11.4039
▁ยนไปอย	-11.404
สามารถเรียน	-11.4041
หมดไป	-11.4041
สามสิ	-11.4045
▁อคุณมี	-11.4063
ประมาณว	-11.407
แบล	-11.4078
▁สตรีท	-11.4089
ในสภาพ	-11.4094
ของชาติ	-11.4104
สระ	-11.4104
การยอมรับ	-11.4106
▁างกายของคุณ	-11.4113
ตัวหนังสือ	-11.413
ของงาน	-11.4131
อาณานิคม	-11.4137
พาณิช	-11.4137
วรรณกรรม	-11.4137
สีชมพู	-11.4137
ออฟฟิศ	-11.4137
เผาผลาญ	-11.4137
เวียดนาม	-11.4137
ไวโอลิน	-11.4137
▁MIT	-11.4137
ฮาวาย	-11.4137
ภาพหลอน	-11.4137
สนุกสนาน	-11.4137
จระเข	-11.4137
ชายและหญิง	-11.4138
สสารมืด	-11.4138
สอดแนม	-11.4138
สุสาน	-11.4138
ระบอบประชาธิปไตย	-11.4138
ชาวยิว	-11.4138
ถอยหลัง	-11.4138
วัตถุดิบ	-11.4138
▁นโทรปี	-11.4139
ปิดกั	-11.4141
คลิ	-11.4142
สารพิษ	-11.4142
ดิสนี	-11.4143
ชีวิตคุณ	-11.4143
ยุติ	-11.4144
ทองคํา	-11.4147
ระดับความ	-11.4155
▁ยนมัน	-11.416
หวี	-11.416
กับรัฐบาล	-11.4162
เดิมพัน	-11.4164
นคร	-11.4165
โหวต	-11.4165
▁คุณควรจะ	-11.4167
ภาครัฐ	-11.4167
กับระบบ	-11.4177
ในภาค	-11.4178
ระบบนิเวศน	-11.4181
เชียว	-11.4184
มีเพียง	-11.4184
▁ผลดี	-11.4186
ทางใ	-11.4187
▁สึกถึงความ	-11.4188
วันหยุด	-11.4192
ของพวกเขาเอง	-11.4192
พวกเค	-11.4194
นรก	-11.4194
สามเดือน	-11.4195
จนถึงตอน	-11.4206
เมืองของเรา	-11.4207
คิดออก	-11.4208
นักปรัชญา	-11.4209
ความยากลําบาก	-11.4212
▁ําเสมอ	-11.4216
การตี	-11.4223
▁มันสําคัญมาก	-11.4224
โรคเบาหวาน	-11.4229
ทําโครงการ	-11.4231
ไหมครับว	-11.4234
ไปในทาง	-11.4241
▁มันยังเป	-11.4245
▁Br	-11.4248
แสนล	-11.4252
▁าคุณเอา	-11.4255
คนงาน	-11.4257
จาร	-11.4257
ประทับใจ	-11.4267
ปริ	-11.4283
ประกาศว	-11.4284
▁ยวกับปัญหา	-11.4289
▁อนวัย	-11.4291
▁อผิดพลาด	-11.4294
ทําวิจัย	-11.4297
กําลังเดิน	-11.4308
ลองคิดดู	-11.4308
▁สูญพันธ	-11.4316
ของประชากร	-11.4328
ในโรงงาน	-11.4329
ลักษณะของ	-11.433
พวกเด	-11.4338
ถูกจํากัด	-11.4339
พัฒนาแล	-11.4344
ยืดหย	-11.4345
มันยัง	-11.435
ผิวสี	-11.4351
แสดงภาพ	-11.4358
ของมันเอง	-11.4379
ทุนนิยม	-11.4385
▁ปัญหาคือ	-11.4386
▁Be	-11.4389
ตรวจพบ	-11.4392
หละ	-11.4394
ไปจนถึง	-11.4396
▁Pro	-11.4398
▁านดอลล	-11.44
ศัลย	-11.4407
ชะตา	-11.4407
คมนาคม	-11.4408
ประสิทธิผล	-11.4408
พุทธ	-11.4408
แปซิฟิก	-11.4408
ชายหาด	-11.4408
อุโมง	-11.4409
จดจ	-11.4409
▁นดินไหว	-11.4409
▁ศรี	-11.4409
ace	-11.441
เกิดจากการ	-11.442
รับมือ	-11.4422
เงียบๆ	-11.4428
าซา	-11.4429
กับเจ	-11.4431
▁าวกระโดด	-11.4434
นอกโลก	-11.4435
เสียงรบกวน	-11.4444
▁เรากําลังพูดถึง	-11.445
800	-11.4454
นักประสาทวิทยา	-11.4454
ไปตลอดกาล	-11.4454
▁ขอผม	-11.4455
บวม	-11.4455
บนเว	-11.4459
ทุกประเภท	-11.4461
ust	-11.4463
นักสํารวจ	-11.4464
▁วยวิธีการ	-11.4466
นอกจาก	-11.4477
มากมายเหลือเกิน	-11.4479
▁มิต	-11.4479
▁จับต	-11.4483
การแยก	-11.4485
มันกลับ	-11.4488
amp	-11.4498
การเติบโตของ	-11.4498
ในบริเวณ	-11.4501
นําเข	-11.4501
▁28	-11.4517
ทางทะเล	-11.4521
ทํามาจาก	-11.4523
ชีวิตของฉัน	-11.4524
▁ในภาวะ	-11.4533
หลายปีก	-11.4535
ทุกตัว	-11.4535
อัตราส	-11.4539
กลับคืนมา	-11.4545
▁เขายัง	-11.4552
▁และผมอยาก	-11.456
ในการศึกษา	-11.4562
▁อกซ	-11.457
จากตรง	-11.4571
ละทิ	-11.4583
ในนาม	-11.4586
เบาหวาน	-11.459
▁วๆไป	-11.459
ออกกําลังกาย	-11.4594
ปิดตา	-11.4596
บทบาทของ	-11.4598
ดูสิครับ	-11.4598
ไซม	-11.4598
หนุน	-11.4599
อาบน	-11.46
gen	-11.4602
การคาดการ	-11.4604
▁คุณเลือก	-11.4606
เนียน	-11.4609
งในสี	-11.4626
อีกหน	-11.4631
พู	-11.4633
พยา	-11.4635
จูบ	-11.4642
▁นสาเหตุของ	-11.4649
ud	-11.4649
เราอาศัยอยู	-11.4652
ทําการสํารวจ	-11.4653
48	-11.4657
กิจการ	-11.4659
▁แหละคือ	-11.4662
ารี	-11.4668
นิรนาม	-11.4671
▁คําตอบคือ	-11.4675
กาลเวลา	-11.4684
กิโลกรัม	-11.4685
ยืนหยัด	-11.4685
รังเกียจ	-11.4685
อลังการ	-11.4685
ไมโครโฟน	-11.4685
▁NSA	-11.4685
ครอบครอง	-11.4685
ฮอลลีวู	-11.4685
เบสบอล	-11.4685
▁แฟรงค	-11.4685
สมมุติฐาน	-11.4686
โปรเจก	-11.4688
▁2006	-11.4688
ถัดจาก	-11.469
ตอนเช	-11.469
ark	-11.4691
เพียร	-11.4692
▁จิฟ	-11.4694
จัดการกับปัญหา	-11.4698
ในการเดินทาง	-11.4699
ชายแดน	-11.47
พวกคุณบางคน	-11.4703
▁คําถามคือ	-11.471
การรักษาพยาบาล	-11.4711
การพูดคุย	-11.4716
พอสมควร	-11.4731
เสพติด	-11.4731
▁ความสําคัญกับ	-11.4732
ep	-11.4736
ของทุกคน	-11.4739
บางชนิด	-11.4742
นักบิน	-11.4749
▁ในราคา	-11.4752
ปลอด	-11.4753
กินอาหาร	-11.4767
ผลิตอาหาร	-11.4777
สอนเรา	-11.4779
วัดความ	-11.4784
การบริการ	-11.4785
เปิดรับ	-11.4788
การโกหก	-11.4791
นิวเคลียส	-11.4791
au	-11.4796
พูดถูก	-11.4806
ของภาษา	-11.4808
โลกาภิวัต	-11.4808
ในสนาม	-11.4812
ในแนว	-11.4821
ระบบภูมิ	-11.4836
กับใคร	-11.4837
หัด	-11.4838
▁เพราะตอน	-11.4846
ไวรัสเอ	-11.4852
แบบเดิม	-11.4857
ไปซะ	-11.4858
ความพึงพอใจ	-11.4859
วัยเด	-11.486
▁นจริงแล	-11.4861
หาสิ	-11.4863
จับภาพ	-11.4865
ไปเที	-11.4869
ตามลําดับ	-11.4871
tic	-11.4888
จะยอม	-11.4896
▁รับเงิน	-11.4897
ภาพเขียน	-11.4901
แอตแลนติก	-11.4903
▁บางทีมัน	-11.4909
all	-11.4925
พักผ	-11.4934
คนรวย	-11.4941
ซาบ	-11.4944
มีประสิทธิภาพมาก	-11.4952
ของหนู	-11.4952
▁วเธอก	-11.4963
พอๆกับ	-11.4965
บรรทัด	-11.4971
โอบามา	-11.4971
ปรกติ	-11.4971
วีดิโอ	-11.4971
สปีชีส	-11.4971
สัมมนา	-11.4971
คืนชีพ	-11.4971
ชําระ	-11.4971
orld	-11.4971
ฆาตกรรม	-11.4971
อุปทาน	-11.4971
โอเพน	-11.4971
▁องโทรทรรศ	-11.4971
เหงื	-11.4971
▁อเพลิงฟอสซิล	-11.4971
โจชัว	-11.4972
ยึดครอง	-11.4972
เปลือย	-11.4972
ถุงยาง	-11.4972
.4	-11.4973
มาตรการ	-11.4974
▁32	-11.4975
พลังงานมืด	-11.4985
ถือกําเนิด	-11.4986
หนีไป	-11.4987
ภรรยาของผม	-11.4989
กันหมด	-11.499
ตกเป	-11.4991
นิเวศวิทยา	-11.5006
est	-11.5006
ในอัฟกานิสถาน	-11.5006
หลอกลวง	-11.501
ยังจํา	-11.5012
อีกอัน	-11.5012
เทียน	-11.5028
ถึงขั	-11.5028
▁ดลับ	-11.503
▁มันชัดเจน	-11.503
▁ผมบอกคุณ	-11.5034
เลนส	-11.5035
ni	-11.5041
ประมง	-11.5041
▁องขัง	-11.5052
ภาคพื	-11.5063
แชม	-11.5065
เพียงคนเดียว	-11.5067
▁องขอบคุณ	-11.5067
ผมขอ	-11.5069
วินิจฉัยโรค	-11.5072
ความสวยงาม	-11.5078
การมีส	-11.5079
ดอน	-11.5084
ระยะยาว	-11.5096
▁ําคืน	-11.51
▁เราหวัง	-11.5101
▁ยนวิธี	-11.5116
สารภาพ	-11.512
จากโรงเรียน	-11.5126
▁เพราะมันมี	-11.5131
▁คือจุด	-11.5136
ขจัด	-11.5139
การอภิปราย	-11.5139
▁เวลาคุณ	-11.5147
▁าวหา	-11.5153
พันปี	-11.5162
▁95	-11.5164
ทุกคนในห	-11.5172
กรีด	-11.5176
จอด	-11.5181
ian	-11.5181
สายไฟ	-11.5198
โคจรรอบ	-11.5243
กระท	-11.5251
ยงไฮ	-11.5251
งโซ	-11.5252
ปัจเจก	-11.5264
ปริญญา	-11.5264
ซีอีโอ	-11.5265
ธุรกรรม	-11.5265
สวัสดิ	-11.5265
MRI	-11.5265
กระดูกสันหลัง	-11.5265
ฒ	-11.5265
ทารุณ	-11.5265
ระบบสุริยจักรวาล	-11.5265
ศิษย	-11.5265
อุจจาระ	-11.5265
เพลิดเพลิน	-11.5265
แมนฮัตตัน	-11.5265
▁องศาเซลเซียส	-11.5265
ปรสิต	-11.5265
▁อนคลาย	-11.5265
ขัดขวาง	-11.5266
▁กตรอน	-11.5266
เชิญชวน	-11.5266
ภาคภูมิใจ	-11.5266
กฎระเบียบ	-11.5268
▁เคยมีใคร	-11.527
▁เอาหละ	-11.5271
ใบอนุญาต	-11.5271
บุคลิกภาพ	-11.5272
▁26	-11.5275
ภาคเอกชน	-11.5277
คีย	-11.5279
ในฤดู	-11.528
▁เพราะพวกเรา	-11.528
เผื	-11.5281
▁านศึก	-11.5285
ติดอาวุธ	-11.5293
แสร	-11.5294
▁กระจายไป	-11.5295
หลังบ	-11.5297
โรคระบาด	-11.5299
สังเกตุ	-11.5299
▁โจม	-11.5307
เฉพาะเจาะจง	-11.5307
▁คิง	-11.5314
ขนม	-11.5325
▁....	-11.5334
สวยๆ	-11.5335
ในอัตรา	-11.5337
▁ไกลออกไป	-11.5339
▁มันอาจจะเป	-11.5344
our	-11.5355
ความมุ	-11.5356
านมาแล	-11.5359
กําลังจะตาย	-11.5364
อเมริกาใ	-11.5364
ไงครับ	-11.537
▁Bu	-11.5371
▁ยนแปลงโลก	-11.5372
ชีวิตของพวกเขา	-11.5379
ความคุ	-11.538
คติ	-11.5381
ายพันธุ	-11.5381
ไปกับการ	-11.5385
อภิปราย	-11.5393
ทนาย	-11.5394
การระเบิด	-11.5399
บนจอ	-11.5405
▁กทารก	-11.5412
จัดงาน	-11.542
ระบบการศึกษา	-11.542
ran	-11.5425
ความเย	-11.5427
โลกภายนอก	-11.5437
ในจีน	-11.5437
การสู	-11.5454
ประเทศอินเดีย	-11.5454
การกลายพันธ	-11.5472
การประมง	-11.5482
▁สึกผิด	-11.5507
▁นตัวแทนของ	-11.5513
การสัมผัส	-11.5519
คัส	-11.5526
ลืมไป	-11.5527
▁เคียงกับ	-11.5528
pen	-11.553
mp	-11.5553
▁มันยากมาก	-11.5556
ตามถนน	-11.5563
ประกาย	-11.5563
หกปี	-11.5565
เยอะแยะ	-11.5568
ชิคาโก	-11.5568
ภูฏาน	-11.5568
สําเนา	-11.5568
สําเนียง	-11.5568
หูหนวก	-11.5568
เพนกวิน	-11.5568
แผนผัง	-11.5568
▁DNA	-11.5568
ธรรมเนียม	-11.5568
ปฎิกิริยา	-11.5568
ความเสมอภาค	-11.5568
เสียสละ	-11.5568
ปฏิกริยา	-11.5569
อาสา	-11.5569
โรงละคร	-11.5569
▁อยนิด	-11.557
▁ลองนึกภาพ	-11.557
▁อํานวยการ	-11.5571
เคยชิน	-11.5571
▁โหลด	-11.5572
กับสถาน	-11.5574
ord	-11.5574
เจรจา	-11.5578
▁นตัวของตัวเอง	-11.5578
ของพืช	-11.5583
แวน	-11.5586
.3	-11.5586
ยินยอม	-11.5592
จากเรา	-11.5592
▁ามันคืออะไร	-11.5596
▁วงทศวรรษ	-11.5598
ome	-11.5601
ระดับสูง	-11.5604
นํามันมา	-11.5608
ทูน	-11.5609
เตรียมพ	-11.5616
โดอา	-11.5617
การปรับตัว	-11.5618
▁บรักษา	-11.562
นักวิ	-11.562
ภูเขาน	-11.5622
▁นคือเหตุผล	-11.5627
ทหารผ	-11.5627
ood	-11.563
ทานอาหาร	-11.5632
จําพวก	-11.5633
ติดขัด	-11.5638
การฟัง	-11.5655
▁คติก	-11.5666
bl	-11.5669
เออร	-11.5669
บอกเธอ	-11.567
ick	-11.5672
สักสองสาม	-11.5676
ซํ	-11.5678
ซอน	-11.5688
ทางเหนือ	-11.5688
ลูกจ	-11.5711
▁อผมอายุ	-11.5716
ide	-11.5717
จํานวนประชากร	-11.5718
▁ในกรณีของ	-11.573
ment	-11.5737
ภายในเวลา	-11.5744
▁ละตัว	-11.5745
ละเมิด	-11.5747
ang	-11.5751
พากัน	-11.5756
ชัดๆ	-11.5771
การบังคับ	-11.5774
โรงเรียนมัธยม	-11.5782
คลับ	-11.5783
การตีความ	-11.5792
AT	-11.5798
หลายประเทศ	-11.5801
แสดงผล	-11.5805
▁นมันจึง	-11.5827
ดขี	-11.5834
▁นแหละคือ	-11.5838
ความถูกต	-11.585
reat	-11.5852
เรียกสิ	-11.5855
งานศิลป	-11.5855
จะเจอ	-11.5869
โปลิโอ	-11.5871
จราจร	-11.5871
ach	-11.5874
พาเราไป	-11.5876
ซึมซับ	-11.5881
เหยียบ	-11.5881
บรรเลง	-11.5881
สันนิษฐาน	-11.5881
อนุมัติ	-11.5881
ออทิสติก	-11.5881
เดือนมกราคม	-11.5881
แมงกะพรุน	-11.5881
ลักพาตัว	-11.5881
หอคอย	-11.5881
แฝด	-11.5881
ลดทอน	-11.5881
ชานเมือง	-11.5881
เฮนรี	-11.5881
วิตกกังวล	-11.5881
ลิงชิมแปนซี	-11.5882
อีกสัก	-11.5882
ของสหรัฐอเมริกา	-11.5884
จัดสรร	-11.5885
▁าหากัน	-11.5888
เจริญเติบโต	-11.5889
▁สวัสดีครับ	-11.5889
▁36	-11.5891
▁วิลเลี	-11.5892
ฤดูกาล	-11.5892
รอยสัก	-11.5893
เบลล	-11.5897
▁เสียงเพลง	-11.5907
▁อะไรจะเกิด	-11.5909
ไถ	-11.5913
ชาวอังกฤษ	-11.5924
จะขยาย	-11.5927
อันแสน	-11.593
ฮัม	-11.5938
นักคณิตศาส	-11.5941
▁ทําอะไรเลย	-11.5942
เฮลิ	-11.5956
▁วนกลาง	-11.5957
เฟล	-11.5959
อะไรทํานอง	-11.596
ทวีปแอฟริกา	-11.5965
เรียนจบ	-11.5995
ออกนอก	-11.6005
บอกฉัน	-11.6006
โดยอัตโนมัติ	-11.601
กับพ	-11.6011
มาหาเรา	-11.6012
ิกส	-11.6017
200	-11.6026
คนตาย	-11.6028
เคียง	-11.603
อาห	-11.6034
เถอะครับ	-11.6035
โลกครั	-11.6036
สูงถึง	-11.6039
อายุประมาณ	-11.6043
ทางกฎหมาย	-11.6046
สวด	-11.6046
ในการรักษา	-11.605
จิตใ	-11.6068
ถูกคุกคาม	-11.6073
ถูกมอง	-11.6074
ในการตัดสินใจ	-11.6075
เดวิด	-11.6076
ในบริษัท	-11.6076
สองสามเดือน	-11.6079
เอฟ	-11.6081
▁Da	-11.6086
ขออนุญาต	-11.6086
ไปในทิศทาง	-11.609
จะยังคง	-11.6093
ภาพลักษณ	-11.6095
มีอคติ	-11.6097
ตามเส	-11.6098
▁าอะไรจะ	-11.6107
ขยายออกไป	-11.6117
คุณจะพบว	-11.612
▁อเลียน	-11.6128
กีดกั	-11.6129
แพท	-11.6147
นับตั	-11.615
▁120	-11.6168
พวกพ	-11.6173
จํานวนเงิน	-11.6188
นักเล	-11.6196
การเจริญเติบโต	-11.6197
▁งในสาม	-11.6202
สุริยะ	-11.6203
บํารุง	-11.6203
คอนเสิร	-11.6203
ชุมนุม	-11.6203
ภัยพิบัติ	-11.6203
สันติวิธี	-11.6203
แถลง	-11.6203
ถดถอย	-11.6203
กระจุก	-11.6203
อัยการ	-11.6203
อัตตา	-11.6203
อุดมคติ	-11.6204
เพชร	-11.6204
สงวน	-11.6204
ไมโครซอฟ	-11.6204
▁กซัส	-11.6205
สิงโต	-11.6207
รับประทานอาหาร	-11.6207
ork	-11.6207
หดตัว	-11.6207
ระบายสี	-11.6208
พกพา	-11.6211
พอร	-11.6212
▁รับการสนับสนุน	-11.6225
มิตรภาพ	-11.6227
▁วมเพศ	-11.6228
ประสานงาน	-11.623
โซลา	-11.6231
▁ภายในปี	-11.6232
การสังเกต	-11.6238
ers	-11.6245
▁ผมจะขอ	-11.6246
มีบทบาทสําคัญ	-11.625
▁าตาแบบ	-11.6257
ประกอบกัน	-11.6258
ความหลงใหล	-11.6272
▁สําคัญมากๆ	-11.6276
อีกอันหนึ	-11.628
are	-11.6282
อีกตัวอย	-11.6284
ort	-11.6285
เปิดโอกาส	-11.6291
ภรรยาผม	-11.6299
▁พวกผม	-11.6305
มองมาที	-11.6309
เรือลํา	-11.6317
ในธุรกิจ	-11.6324
54	-11.633
กําเนิดของ	-11.6339
กําลังเรียน	-11.6353
คําถามสําคัญ	-11.6377
94	-11.6383
การตระหนัก	-11.6386
▁วงสงคราม	-11.639
ผมเองก	-11.6392
การศึกษาวิจัย	-11.6396
ตามกฎหมาย	-11.6403
ความชํานาญ	-11.6408
ในคอมพ	-11.6413
การคาดคะเน	-11.6432
ดูคล	-11.647
ยุคสมัย	-11.6477
บางคนอาจจะ	-11.6478
ron	-11.6513
การคัดเลือก	-11.6513
ลํ	-11.6514
ศึก	-11.6514
แอฟริกัน	-11.6518
ในโลกใบ	-11.6526
กระดูกอ	-11.6531
ลึกลงไปใน	-11.6533
ทะเยอทะยาน	-11.6537
บรรเทา	-11.6537
สาธารณรัฐ	-11.6537
อริสโตเติล	-11.6537
▁2014	-11.6537
▁Google	-11.6537
วิชาชีพ	-11.6537
หรูหรา	-11.6537
อนุบาล	-11.6537
คอมมิวนิ	-11.6537
กีดขวาง	-11.6537
เกลียว	-11.6537
คองโก	-11.6537
▁ทําไมมันถึง	-11.6537
บดบัง	-11.6537
ปริญญาโท	-11.6537
พูดกับคุณ	-11.6538
ational	-11.6539
หลงเหลือ	-11.6539
มลรัฐ	-11.6539
หลายรูปแบบ	-11.6541
ลงทะเบียน	-11.6544
ลมหายใจ	-11.6548
กระบวน	-11.6549
ound	-11.6551
ทํากิจกรรม	-11.6552
▁Ph	-11.6559
พลังงานสะอาด	-11.6559
เดินทางไปยัง	-11.6561
พลเมืองโลก	-11.6564
ฮิป	-11.6568
ผลการทดลอง	-11.657
จบการศึกษา	-11.6572
จําคุก	-11.6578
จนหมด	-11.6588
การบริหาร	-11.6594
เพราะมัน	-11.6599
ความตระหนัก	-11.6612
ทําสงคราม	-11.6618
เอเวอร	-11.6619
ผสาน	-11.6621
ของเอกภพ	-11.6639
คาดคะเน	-11.6642
พายเรือ	-11.6642
กับทีม	-11.6643
พิลึก	-11.6645
หลายสิบปี	-11.6652
▁Sh	-11.6652
ภูมิประเทศ	-11.6654
รับเอา	-11.6655
▁แถมยัง	-11.6656
สองมิติ	-11.6656
การสอบ	-11.666
ประสาทวิทยา	-11.6663
ตรวจดู	-11.6668
เราควรจะ	-11.6672
ถูกนํา	-11.6678
โรคเอ	-11.6685
คนธรรมดา	-11.6693
บางประเทศ	-11.6699
นักธุรกิจ	-11.6704
ตกต	-11.6707
รายงานข	-11.6717
การออม	-11.6724
ในวัยเด	-11.6728
ผลัด	-11.6732
ฮะ	-11.6738
ความลึก	-11.6743
ในประเทศจีน	-11.6744
ในเว	-11.6761
สมบัติ	-11.6767
อีกหลายๆ	-11.6778
ในการสํารวจ	-11.6781
มีอัตราการ	-11.6782
ain	-11.6782
หาหนทาง	-11.679
ฉีดยา	-11.6791
ในชนบท	-11.6793
การกําหนด	-11.6796
ในงานวิจัย	-11.6805
เดินบน	-11.6812
▁33	-11.6815
มีความสนใจ	-11.682
53	-11.6821
ดียิ	-11.6833
org	-11.6833
กรง	-11.6847
ประชากรโลก	-11.6851
วิญญาณ	-11.6857
มายากล	-11.6864
บุคลิก	-11.6874
เกินจริง	-11.6876
อีดี	-11.6878
โรแมนติก	-11.6881
จีดีพี	-11.6881
ดาวพฤหัส	-11.6881
แมลงสาบ	-11.6881
โธมัส	-11.6881
▁อกโกแลต	-11.6881
รอบคอบ	-11.6881
วิตามิน	-11.6881
สงครามกลางเมือง	-11.6881
ประมวล	-11.6881
ระดับอุดมศึกษา	-11.6881
บัณฑิต	-11.6881
ผนวก	-11.6882
สนามฮิก	-11.6882
สองในสาม	-11.6882
▁บางทีเราอาจ	-11.6884
▁2003	-11.6885
▁1900	-11.6886
ลิเบีย	-11.6887
▁ากาก	-11.6887
แรงดัน	-11.6887
มีชีวิตรอด	-11.6887
อันไหน	-11.6891
คุณภาพของ	-11.6891
เฉื	-11.6895
▁ยมชม	-11.6896
▁รับเชิญ	-11.6899
สุภาพ	-11.6901
ปกปิด	-11.6901
เดินออกไป	-11.6903
▁โทมั	-11.6904
▁าวกรอง	-11.6905
47	-11.6913
ถูกตัด	-11.6913
มันแย	-11.6917
คนจีน	-11.6923
การทํางานของสมอง	-11.693
งานเขียน	-11.6939
รถติด	-11.6943
76	-11.6944
กระป	-11.6959
▁ฮาน	-11.696
สบายดี	-11.6961
ลูกบา	-11.6963
ดําเนินชีวิต	-11.6983
ในภูมิภาค	-11.6986
เปิดประตู	-11.6988
ory	-11.699
คัดค	-11.6995
42	-11.7001
พึงพอใจ	-11.7019
ชีวิตประจําวัน	-11.7019
กรอก	-11.7028
net	-11.7033
การสาธิต	-11.704
ในวิชา	-11.7052
คาดคิด	-11.7088
ความอดทน	-11.709
ไปทางไหน	-11.7106
หาลําดับ	-11.7122
พลั	-11.7131
▁Te	-11.7146
ในภาษาอังกฤษ	-11.7153
จิตรกร	-11.7166
นเนอร	-11.7167
dy	-11.7174
จับกุม	-11.7175
หลายวัน	-11.7177
การสอด	-11.7204
▁ายคลึง	-11.7206
พลังแสง	-11.7214
use	-11.7216
การฝึกฝน	-11.7223
ดูวิดีโอ	-11.7224
แสต	-11.723
ของคนอเมริกัน	-11.7233
พังทลาย	-11.7239
วิกิพีเดีย	-11.7239
สตีเฟน	-11.7239
โกไลแอท	-11.7239
บุกรุก	-11.7239
เยอรมนี	-11.7239
แปรผัน	-11.7239
▁นตระหนก	-11.7239
นายกรัฐมนตรี	-11.7239
เทศกาล	-11.7239
เปลือง	-11.7239
กระแทก	-11.7239
ตัวเขาเอง	-11.7239
สมิธ	-11.7239
ชะตากรรม	-11.7239
ระดมทุน	-11.7239
จิตสํานึก	-11.724
▁นตาตื	-11.724
มองภาพ	-11.7241
นิวตัน	-11.7242
ปลูกฝัง	-11.7243
▁2050	-11.7244
▁าซธรรมชาติ	-11.7246
ประหารชีวิต	-11.7246
▁สึกขอบคุณ	-11.7251
ind	-11.7255
ียบง	-11.7257
ความเขลา	-11.7262
▁รับแรงบันดาลใจ	-11.7263
คัดเลือก	-11.7264
▁ปกติแล	-11.7266
ความชัดเจน	-11.7267
▁วมงานของฉัน	-11.7268
▁ผมจะพูดถึง	-11.727
ดึงเอา	-11.727
บนผิว	-11.7277
แสงไฟ	-11.7282
▁31	-11.7283
▁ไน	-11.7299
ับอ	-11.7306
ทางจิตใจ	-11.731
ถูกผลิต	-11.7311
อกไซ	-11.7319
ซอง	-11.7326
เสียเงิน	-11.7327
มีความสําคัญมาก	-11.733
โรคออทิซึม	-11.7331
ในบราซิล	-11.7339
ปฏิรูป	-11.7357
▁ามมหาสมุทร	-11.737
ong	-11.7371
ลาติน	-11.7374
กับเทคโนโลยี	-11.7378
ทางตะวันออก	-11.7379
ออกอากาศ	-11.7384
ลงไปยัง	-11.739
ขอขอบคุณ	-11.739
จัดการกับมัน	-11.7393
วิลล	-11.7394
เหอะ	-11.7395
▁งในสามของ	-11.7403
ระดับนานาชาติ	-11.7408
ิโอ	-11.7412
ทุกรูปแบบ	-11.7419
ญาณ	-11.7422
ลดจํานวน	-11.7427
ความเคลื	-11.7427
หลายสิบ	-11.7429
ชาวแอฟริกัน	-11.7431
▁ามาในห	-11.7452
เขียนโค	-11.7453
ักกิ	-11.7459
▁Do	-11.7463
อีกฝั	-11.7475
โดยแท	-11.7475
25	-11.7483
คุณคงเห	-11.7483
38	-11.7484
เราอาจ	-11.7497
การปรับปรุง	-11.7499
กับดัก	-11.7515
กลับคืน	-11.7516
ical	-11.754
จนเกินไป	-11.7541
การหลอกลวง	-11.7559
▁700	-11.757
pro	-11.7573
คือใคร	-11.7574
18	-11.7583
▁สึกเหมือนกับ	-11.7587
ตระกูล	-11.7609
ทฤษฎีสตริง	-11.7609
บัญชา	-11.7609
มิลลิเมตร	-11.7609
หอยนางรม	-11.7609
แทสเมเนียนเดวิล	-11.7609
▁เดียงสา	-11.7609
ชักจูง	-11.7609
ออเคสตร	-11.7609
แอพพลิเคชั	-11.7609
▁ยงชีพ	-11.7609
มาตราฐาน	-11.7609
เลบานอน	-11.7609
โศก	-11.7609
พิชิต	-11.7609
ระบายอากาศ	-11.761
บุตร	-11.7611
สัญญาณรบกวน	-11.7611
ในภายหลัง	-11.7611
คนรัก	-11.7612
เคี	-11.7615
หัวใจวาย	-11.7616
เพศชาย	-11.7617
▁อกรกับ	-11.7618
พาคุณไป	-11.7619
กรม	-11.7621
▁นสุดลง	-11.7624
เคนยา	-11.7624
ความสงบ	-11.7626
สัญญาณเตือน	-11.7633
ตกลงกัน	-11.7634
ติดคุก	-11.7637
ตัวฉันเอง	-11.7638
เหรอครับ	-11.7644
ถูกตัดสิน	-11.7645
เกตส	-11.7651
▁ถึงกระ	-11.7652
หลาก	-11.7658
สําคัญๆ	-11.7659
-2	-11.7664
▁บางทีอาจจะ	-11.7664
ทะเลลึก	-11.7668
ทีละน	-11.7671
การโกง	-11.7674
จริงใจ	-11.7707
ถูกยิง	-11.7721
เยอะเลย	-11.7736
ทางเศรษฐ	-11.7741
▁รับการยอมรับ	-11.7748
ak	-11.7755
มีความหนา	-11.7764
งใดอย	-11.7771
กดดัน	-11.7771
เพจ	-11.7779
แบบทดสอบ	-11.7793
ทําการค	-11.7796
ไหนๆ	-11.7832
ode	-11.7833
การทุจริต	-11.7834
ในฉาก	-11.7848
ตอนกลาง	-11.786
▁และผมอยากจะ	-11.7862
มีการพัฒนา	-11.7867
up	-11.787
▁งใจจะ	-11.7876
คุณสามารถสร	-11.7899
เมืองจีน	-11.7928
อวด	-11.7951
ทุกๆปี	-11.7968
สีสัน	-11.797
.25	-11.797
จัดหา	-11.7977
ite	-11.7982
ธิปไตย	-11.7993
สามัญ	-11.7993
ทะเลสาป	-11.7994
นายกเทศมนตรี	-11.7994
ปราณี	-11.7994
วุฒิ	-11.7994
หิวโหย	-11.7994
โคลัมเบีย	-11.7994
ไวทยากร	-11.7994
▁1984	-11.7994
กระโปรง	-11.7994
กายวิภาค	-11.7994
มังกร	-11.7994
ลุกลาม	-11.7994
ผสมเกสร	-11.7994
ฟีนิก	-11.7994
▁ชเมลโล	-11.7994
olog	-11.7994
มีเพศสัมพันธ	-11.7994
แมงมุม	-11.7994
หลอดฉีดยา	-11.7994
ทูต	-11.7994
เมืองหลวง	-11.7995
ขุดเจาะ	-11.7995
มโนภาพ	-11.7996
▁ลุง	-11.7996
หลงไหล	-11.7997
ib	-11.7998
สืบสวน	-11.7998
ฝูงชน	-11.7999
ประหยัดพลังงาน	-11.8
มีสติ	-11.8001
▁29	-11.8008
▁ามันสําคัญ	-11.801
แบบฝึกหัด	-11.8014
กระหาย	-11.8014
มีเสน	-11.8024
▁ายคลึงกัน	-11.8029
▁าบางที	-11.8034
▁ยวบิน	-11.8039
มีความรับผิดชอบ	-11.8043
ความยื	-11.8044
ทําการวิจัย	-11.8047
ทางจิตวิทยา	-11.8051
เขียนจดหมาย	-11.8053
จับมือ	-11.8059
ความชรา	-11.8064
ดังๆ	-11.8101
▁Dr	-11.8107
นักรบ	-11.811
เศรษฐกิจโลก	-11.8116
จัดลําดับ	-11.8121
พวกเราเอง	-11.8121
บนกระดาษ	-11.8129
หูฟัง	-11.8132
age	-11.8132
แนวตั	-11.814
▁งหรือสอง	-11.8156
การละเมิด	-11.8162
จัดแสดง	-11.8163
หยุดพัก	-11.8165
ประสานเสียง	-11.8172
บนผนัง	-11.818
เราทําอย	-11.8182
ยังทํางาน	-11.8204
จุดยืน	-11.8208
ภาวะโลก	-11.8221
จัดวาง	-11.8227
การพึ	-11.8228
อิง	-11.8231
ยึดมั	-11.8241
ance	-11.8244
ับขี	-11.8248
มีพฤติกรรม	-11.8249
80	-11.8257
มีราคา	-11.8268
ther	-11.8275
สาระสําคัญ	-11.8301
เรียนวิชา	-11.8303
ความหวาดกลัว	-11.8315
ปปั	-11.832
ความโกรธ	-11.8322
ปีละ	-11.8328
ปรึกษา	-11.8342
รักษาความปลอดภัย	-11.8353
▁ปัจจุบันเรา	-11.8364
การปฏิ	-11.8375
โหว	-11.8383
เคเบิล	-11.8391
นกพิราบ	-11.8393
ight	-11.8394
ซิลิคอน	-11.8394
บิดเบือน	-11.8394
รีพับลิกัน	-11.8394
สมมาตร	-11.8394
อุดหนุน	-11.8394
เยรูซาเล	-11.8394
เสถียรภาพ	-11.8394
▁TEDTalk	-11.8394
▁นาตาเลีย	-11.8394
▁ําจืด	-11.8394
บาดแผล	-11.8394
แทนซาเนีย	-11.8394
แมมมอธ	-11.8394
กราฟฟิก	-11.8394
จารีต	-11.8394
ระเหย	-11.8394
กพิราบนักเดินทาง	-11.8394
อเมซอน	-11.8394
มาโดยตลอด	-11.8394
คํานวน	-11.8394
กําลังเกิดอะไร	-11.8394
บรรทัดฐาน	-11.8394
▁กซิกัน	-11.8395
ฝังศพ	-11.8395
▁นฉันจึง	-11.8395
ศาตร	-11.8395
หลุมดํา	-11.8396
มีสุขภาพดี	-11.8397
ภูมิปัญญา	-11.8397
แผนภูมิ	-11.8398
ใจกลางเมือง	-11.84
▁Ed	-11.8402
ลิตร	-11.8402
ลงคะแนนเสียง	-11.8402
▁1.5	-11.8403
นายธนาคาร	-11.8405
แออัด	-11.8405
ลําแสง	-11.8406
ยอดนิยม	-11.8406
ธนาคารโลก	-11.8412
สายพันธ	-11.8415
แคลอรี	-11.8424
สามารถนํามา	-11.8425
ในชีวิตจริง	-11.8429
▁อหลอม	-11.8429
ลงนาม	-11.8431
มลภาวะ	-11.8432
หลบหนี	-11.8435
72	-11.8439
▁แองเ	-11.844
นวนิยาย	-11.8444
pre	-11.8449
คํานิยาม	-11.8452
ake	-11.8462
าดา	-11.8467
ประเทศอังกฤษ	-11.8473
ฮื	-11.8479
ฟเวอร	-11.8483
ในวงก	-11.8484
ัวแต	-11.85
ะสงค	-11.8503
มีสีสัน	-11.8505
ตัวของมันเอง	-11.8513
การสูญพันธ	-11.8531
บอกกับเรา	-11.8531
บอกกับผม	-11.8535
นิดนึง	-11.8555
พวกคุณหลายคน	-11.8557
หลายพันคน	-11.8566
พยายามทําความ	-11.8567
การรักษาโรค	-11.8568
ในการสื	-11.8582
รถไฟใ	-11.8621
ิซซ	-11.8622
การตายของเ	-11.8628
หลายชนิด	-11.8631
ความกดดัน	-11.8632
rop	-11.8643
ทํากําไร	-11.8643
▁85	-11.8644
ดําเนินงาน	-11.8653
วันนึง	-11.8653
สามารถจินตนาการ	-11.867
การรีไซเคิล	-11.8675
มันควรจะเป	-11.8677
างตอนใ	-11.8681
แบบเดิมๆ	-11.8705
ความสนุก	-11.8707
อาหารกลางวัน	-11.8754
▁โห	-11.8774
ประหาร	-11.8802
พาหนะ	-11.881
กัมมันตรังสี	-11.881
ความเกลียดชัง	-11.881
จตุรัส	-11.881
ประพฤติ	-11.881
มหาลัย	-11.881
สนธิสัญญา	-11.881
สะบัด	-11.881
อินโดนีเซีย	-11.881
เดือนมิถุนายน	-11.881
แอนิเมชัน	-11.881
โศกนาฏกรรม	-11.881
ฉนวน	-11.881
ชดเชย	-11.881
nivers	-11.881
ทายาท	-11.881
บาหลี	-11.881
ทางหลวง	-11.881
สาบาน	-11.881
▁นจีโอ	-11.881
▁วงใย	-11.881
โพรง	-11.881
มหานคร	-11.8811
คันธนู	-11.8811
▁1999	-11.8811
ฝึกหัด	-11.8811
▁นิคัส	-11.8811
▁นรูปธรรม	-11.8811
บอลลูน	-11.8811
วินัย	-11.8812
อนุภาคนาโน	-11.8812
▁1998	-11.8812
ลูกศร	-11.8812
ชีวโมเลกุล	-11.8813
ธนู	-11.8815
ทนายความ	-11.8816
การระบาดของโรค	-11.8818
บริจาคเงิน	-11.8824
▁40,000	-11.8825
▁าขัน	-11.8826
▁นของหัวใจ	-11.8827
อัตราการตายของ	-11.8828
อัลบั	-11.8829
พลังอํานาจ	-11.8831
อาจจะฟังดู	-11.8837
▁วมสมัย	-11.8839
เดนมา	-11.884
คําบรรยาย	-11.8848
▁วยตาเป	-11.8853
สะดวกสบาย	-11.8872
โรโม	-11.8873
การมองโลกในแ	-11.8878
บริหารจัดการ	-11.888
ยูโร	-11.888
วัตถุปร	-11.8888
ไปหาหมอ	-11.8889
มีมุมมอง	-11.8904
บนหลังคา	-11.8913
▁ทําไมเราจึง	-11.8914
ตอบโ	-11.8929
หากคุณ	-11.8931
77	-11.8931
หากมี	-11.8939
อันนึง	-11.8941
mb	-11.8942
จะตอบคําถาม	-11.8953
ผลตอบรับ	-11.896
ชํานาญ	-11.8974
มีทักษะ	-11.8975
แขนขา	-11.8993
ความประหลาดใจ	-11.8993
มากมายมหาศาล	-11.9042
▁195	-11.9048
หาทางออก	-11.9062
ตัดขาด	-11.9063
▁Ra	-11.9096
▁Pri	-11.9112
คิดในใจ	-11.9112
มีความเห	-11.9138
ขุม	-11.9162
กลางคืน	-11.9174
ดินสอ	-11.9181
ลองจินตนาการดู	-11.9182
ลังเล	-11.9214
นิเวศ	-11.9216
กริยา	-11.9232
มีความเข	-11.9239
เงินสนับสนุน	-11.9241
สะดุด	-11.9245
ฉับพลัน	-11.9245
ดูดซับ	-11.9245
ถุงยางอนามัย	-11.9245
ทฤษฏี	-11.9245
ฟลอริด	-11.9245
สติสัมปชัญญะ	-11.9245
อะพอลโล	-11.9245
เอธิโอเปีย	-11.9245
แอลกอฮอล	-11.9245
▁2013	-11.9245
▁LED	-11.9245
▁เอเดรียน	-11.9245
▁แคทรีน	-11.9245
ระงับ	-11.9245
วัฏจักร	-11.9245
เซนติเมตร	-11.9245
เปิดโปง	-11.9245
เอาตัวรอด	-11.9245
แกลลอน	-11.9245
โจรกรรม	-11.9245
ความลําเอียง	-11.9245
ครัวเรือน	-11.9245
ลินุส	-11.9245
นโตนิโอ	-11.9245
▁แกลนด	-11.9245
พาดหัวข	-11.9245
วิตก	-11.9245
fram	-11.9245
สปีซี	-11.9245
ction	-11.9246
▁รับความนิยม	-11.9246
▁งพิง	-11.9246
หลุมศพ	-11.9246
แรงกดดัน	-11.9247
▁เกียจ	-11.9248
อนันต	-11.9248
ครบรอบ	-11.9249
ชมรม	-11.9249
การเรียนการสอน	-11.925
▁2002	-11.925
รอยแตก	-11.925
▁องสงสัยเลย	-11.9252
▁2.5	-11.9253
▁พักอาศัย	-11.9254
นิดๆ	-11.9256
ูอิส	-11.9258
ในบางกรณี	-11.9265
การคาดเดา	-11.9266
นักมายากล	-11.9275
สติกเก	-11.9279
ชาวเยอรมัน	-11.9282
▁1.2	-11.9288
ระบบทุนนิยม	-11.9291
นิเฟอร	-11.9293
ความบันเทิง	-11.9318
▁นผลมาจาก	-11.9325
ในบริบทของ	-11.9349
าวเวอร	-11.9363
ความสมดุล	-11.938
การออกกําลังกาย	-11.9391
▁CA	-11.942
ตรวจวัด	-11.9421
ถูกขัง	-11.943
70	-11.9448
เรามีเครื	-11.9448
เขียนบท	-11.9503
ture	-11.9532
ทันต	-11.9558
ภาพจําลอง	-11.9579
ตอนผมอายุ	-11.9619
อเรน	-11.964
รัฐบาลกลาง	-11.9673
ความผูกพัน	-11.9689
DA	-11.9693
รางวัลโนเบล	-11.9696
ุมภา	-11.97
อัลกอริธึม	-11.97
เฉลียวฉลาด	-11.97
ไพเราะ	-11.97
คริสเตียน	-11.97
รุกราน	-11.97
ฤทธ	-11.97
ลําเลียง	-11.97
ลําโพง	-11.97
สหัสวรรษ	-11.97
สาธารณูปโภค	-11.97
ออสเตรีย	-11.97
ฮิปโปแคมปัส	-11.97
แคลคูลัส	-11.97
แดรฟุส	-11.97
โซเชียลมีเดีย	-11.97
▁2015	-11.97
▁Alpha	-11.97
▁GPS	-11.97
ดอนเนล	-11.97
▁มงวด	-11.97
นาตาลี	-11.97
บรรพ	-11.97
ปานกลาง	-11.97
วิดิโอ	-11.97
ความดันโลหิต	-11.97
▁ตราบใด	-11.97
สามัญสํานึก	-11.97
กังหันลม	-11.97
วิหาร	-11.97
ไปเยือน	-11.97
ใครซักคน	-11.97
กังขา	-11.9701
สืบทอด	-11.9701
▁for	-11.9702
▁1.3	-11.9702
ใบพัด	-11.9706
เศรษฐี	-11.971
▁งครัด	-11.971
แกรม	-11.971
ชาวประมง	-11.9718
เบซิล	-11.9719
มองไปรอบๆ	-11.972
เสนอแนะ	-11.9723
หนูทดลอง	-11.9735
ความงดงาม	-11.9746
แตะต	-11.975
▁Po	-11.975
ไอวาน	-11.9756
▁sp	-11.9761
ตอนเหนือของ	-11.9762
จักร	-11.9777
ของมะเ	-11.9781
ถูกจับกุม	-11.9781
เขียนบทความ	-11.9819
ถกกัน	-11.9823
เราจํา	-11.9828
▁าอะไรคือ	-11.9835
ญญา	-11.9858
ฏ	-11.9928
สถา	-12.0093
ปะติด	-12.0097
โลโ	-12.0116
จมน	-12.0124
กระพริบ	-12.0129
ตะวันออกเฉียง	-12.017
จักรวรรดิ	-12.0176
สภาคองเกรส	-12.0176
ouTube	-12.0176
คอสตาริกา	-12.0176
บอสเนีย	-12.0176
ประติมากรรม	-12.0176
ประนีประนอม	-12.0176
พยาธิ	-12.0176
ระดับกลูโคส	-12.0176
วิพากษ	-12.0176
หิมาลัย	-12.0176
เดือนกันยายน	-12.0176
เวโรนิกา	-12.0176
เหยียดหยาม	-12.0176
แอนติบอดี	-12.0176
▁GDP	-12.0176
▁กันยายน	-12.0176
ดิจิทัล	-12.0176
ทรานซิ	-12.0176
พันธกิจ	-12.0176
ยูทูบ	-12.0176
เวทมนต	-12.0176
โสเภณี	-12.0176
โอกลาโฮมา	-12.0176
บันดาล	-12.0176
ไซแนป	-12.0176
▁ดีมีสุข	-12.0176
นามัย	-12.0176
ความอดอยาก	-12.0176
▁Davi	-12.0176
รวันดา	-12.0176
▁โฮโม	-12.0176
วงแหวน	-12.0176
อวยพร	-12.0176
ลีโอนา	-12.0176
▁360	-12.0176
คลีนิค	-12.0176
ประเทศไทย	-12.0177
ทองแดง	-12.0177
เคมีบําบัด	-12.0177
ตกทอด	-12.0178
▁างไปจากเดิม	-12.0178
อวัยวะเทียม	-12.0178
มืดมิด	-12.0179
สายเคเบิล	-12.0179
ดักฟัง	-12.0179
▁รับรางวัลโนเบล	-12.018
▁เสมอภาค	-12.018
ประกันภัย	-12.018
หลงรัก	-12.0181
พิกัด	-12.0182
นายพล	-12.0183
เวสท	-12.0185
58	-12.0186
เปียก	-12.0186
ยาวไกล	-12.019
คํากริยา	-12.0191
ดาวิน	-12.0192
แคมป	-12.0201
PA	-12.0202
โรคหัด	-12.0202
หนวด	-12.0207
จมลง	-12.0294
อมแพ	-12.0303
การทําเช	-12.0308
▁สโตน	-12.0354
จะมีผล	-12.0356
ตลอดหลายปี	-12.0518
▁าระเบิดน	-12.0526
เทศน	-12.0551
บันเทิง	-12.0592
ตอรี	-12.0671
แอตแลนต	-12.0675
ทรอนิค	-12.0676
ฟรานซิส	-12.0676
สรรเสริญ	-12.0676
สามัคคี	-12.0676
เคนเนดี	-12.0676
กัมพูชา	-12.0676
การลองผิดลองถูก	-12.0676
มัสยิด	-12.0676
อัพโหลด	-12.0676
อาณาเขต	-12.0676
เดโมแครต	-12.0676
โภชนาการ	-12.0676
โมฮัมเมด	-12.0676
ไลบีเรีย	-12.0676
▁ALS	-12.0676
▁PTSD	-12.0676
▁วทุกมุมโลก	-12.0676
▁างมีนัยสําคัญ	-12.0676
▁เชอรีล	-12.0676
จุลชีพ	-12.0676
พระเยซู	-12.0676
ผักกาด	-12.0676
พลเรือน	-12.0676
อนิเมชั	-12.0676
ไปไหนมาไหน	-12.0676
คิดนอกกรอบ	-12.0676
▁าทําไมเราถึง	-12.0676
▁ทําไมผมถึง	-12.0676
ฉงน	-12.0676
ชักชวน	-12.0676
รําลึก	-12.0676
▁flo	-12.0677
มณฑล	-12.0677
ดําเนินคดี	-12.0677
▁านเหรียญสหรัฐ	-12.0678
ฉลาก	-12.0678
คิวบา	-12.0679
พรรคการเมือง	-12.0679
สุนทรีย	-12.068
มีงานทํา	-12.0682
บทสรุป	-12.0683
ขาดทุน	-12.0685
▁าสลด	-12.0685
จุดสูงสุดของ	-12.0688
เลสเบี	-12.0688
มวลมนุษยชาติ	-12.0689
หนองน	-12.069
ชาวมุสลิม	-12.0696
อลิซ	-12.0701
อดัม	-12.0738
สนามรบ	-12.0763
▁งความสนใจไป	-12.0772
3.5	-12.0793
ถนัด	-12.0799
แปะรูป	-12.0819
วูด	-12.0842
ฮอล	-12.0861
สวิส	-12.0878
▁และหาก	-12.0924
สิงห	-12.0976
สวิสเซอ	-12.1002
อีกนัย	-12.1085
ไนต	-12.1127
▁160	-12.1145
ฉวยโอกาส	-12.1198
ความตึงเครียด	-12.1202
งานอดิเรก	-12.1202
กระจัดกระจาย	-12.1202
ชะงัก	-12.1202
นัยยะ	-12.1202
บทกลอน	-12.1202
ปัสสาวะ	-12.1202
ฟิลิปป	-12.1202
ลอตเตอร	-12.1202
ลิตเติ	-12.1202
สหภาพโซเวียต	-12.1202
เอาจริงเอาจัง	-12.1202
เฮอริเคน	-12.1202
โครโมโซม	-12.1202
โคเปนเฮเก	-12.1202
ไนโตรเจน	-12.1202
▁Richard	-12.1202
▁กรกฎาคม	-12.1202
▁รับมอบหมาย	-12.1202
ตีลังกา	-12.1202
สมรรถนะ	-12.1202
เรขาคณิต	-12.1202
โจรสลัด	-12.1202
▁เนลสัน	-12.1202
▁อแมนดา	-12.1202
ฝืน	-12.1202
จรจัด	-12.1202
ผลพวง	-12.1202
สกอต	-12.1202
สปริง	-12.1202
ปีนักษัตร	-12.1202
▁กระทําผิด	-12.1202
ยึดติดกับ	-12.1202
หลักชัย	-12.1202
▁โบซอน	-12.1202
โจเซฟ	-12.1203
ชิวิต	-12.1203
กลมกลืน	-12.1203
แกรนด	-12.1203
▁อมถอย	-12.1203
ศัลยกรรม	-12.1203
ปัจเจกชน	-12.1204
BI	-12.1205
มากเสียจน	-12.1205
แขนเทียม	-12.1205
▁1930	-12.1206
▁มไอที	-12.1207
อสังหา	-12.1211
ทางลัด	-12.1215
บริษัทนิรนาม	-12.123
▁งบอกถึง	-12.1236
ภาระกิจ	-12.1251
พริบตา	-12.1254
มีใครมา	-12.1323
ัฟฟ	-12.1395
หยิบยื	-12.1396
เกษตร	-12.1485
▁ถูกบันทึกไ	-12.1491
านปีก	-12.1491
องศา	-12.1511
โลกาภิวั	-12.1513
▁ในเหตุการ	-12.1517
เหมืองแ	-12.1574
เหนียวแ	-12.159
บนดาวเครา	-12.1595
▁tr	-12.163
ลอรี	-12.1655
ปริญญาตรี	-12.1666
68	-12.1733
ควบค	-12.1741
สัญชาติญาณ	-12.1758
คิริบาติ	-12.1758
ทักทาย	-12.1758
นักกายภาพบําบัด	-12.1758
ปราดเปร	-12.1758
ภาวนา	-12.1758
หลอกหลอน	-12.1758
อภิสิทธิ	-12.1758
อหิวาตกโรค	-12.1758
เคมบริ	-12.1758
เลขฐานสอง	-12.1758
▁Island	-12.1758
▁Source	-12.1758
▁ครวญ	-12.1758
▁นอกเหนือไปจาก	-12.1758
▁มกราคม	-12.1758
▁มิถุนายน	-12.1758
▁สินทางปัญญา	-12.1758
ฑูต	-12.1758
พิกเซล	-12.1758
ตุรกี	-12.1758
คําจํากัดความ	-12.1758
อุดตัน	-12.1758
▁มพูน	-12.1758
ไททัส	-12.1758
▁อศอก	-12.1758
▁มันถึงเวลา	-12.1758
▁มนวล	-12.1758
นกฮูก	-12.1759
เนินทราย	-12.1759
#	-12.4352
ฑ	-12.7862
q	-14.1152
♫	-14.614
๋	-14.6141
ฤ	-14.6142
๊	-14.6143
—	-14.6144
?	-14.6145
:	-14.6146
ฐ	-14.6147
)	-14.6148
&	-14.6149
์	-14.615
็	-14.6151
้	-14.6152
่	-14.6153
