<unk>	0
<s>	0
</s>	0
▁.	-3.07182
▁,	-3.3052
▁bir	-3.89766
;	-3.97921
▁&	-3.98613
t	-4.0222
▁ve	-4.22627
▁	-4.40412
quo	-4.58746
▁bu	-4.64794
n	-4.71241
apos	-4.80559
a	-4.94893
k	-5.01248
e	-5.0688
lar	-5.19537
▁Bu	-5.2359
m	-5.25038
▁için	-5.26135
▁da	-5.2882
ler	-5.43653
▁de	-5.44942
▁Ve	-5.46735
i	-5.50187
▁çok	-5.51124
▁?	-5.55867
▁daha	-5.64495
ları	-5.86705
▁ki	-5.87348
▁var	-5.89941
leri	-5.9104
▁)	-5.92539
(	-5.92639
▁:	-5.95547
▁gibi	-5.97345
de	-5.9923
la	-6.00921
▁olarak	-6.0167
da	-6.03931
le	-6.0526
▁şey	-6.06427
▁...	-6.09538
ya	-6.13016
▁—	-6.13165
z	-6.13215
▁ne	-6.13252
li	-6.16522
▁olan	-6.16908
▁o	-6.17073
si	-6.18798
▁kadar	-6.23462
den	-6.25151
in	-6.25261
l	-6.27557
r	-6.27629
ye	-6.28007
ı	-6.28012
p	-6.30697
ü	-6.30774
▁en	-6.31544
▁her	-6.32947
▁ya	-6.33804
nin	-6.3717
er	-6.39666
dan	-6.39949
▁ile	-6.40769
▁değil	-6.41053
s	-6.45438
ki	-6.47261
na	-6.48825
▁zaman	-6.48983
nın	-6.49241
▁iyi	-6.50055
sı	-6.51989
y	-6.55413
▁olduğunu	-6.55763
▁ama	-6.56613
ma	-6.57455
▁büyük	-6.59308
▁Ama	-6.59866
▁Bir	-6.60503
ce	-6.62097
▁bunu	-6.62312
▁sonra	-6.62921
en	-6.63843
▁nasıl	-6.64129
ne	-6.6414
ların	-6.64716
di	-6.67498
yi	-6.67938
lı	-6.69974
an	-6.70385
lerin	-6.70492
▁sadece	-6.70899
dir	-6.7272
ın	-6.78676
u	-6.79233
▁çünkü	-6.79298
.	-6.80256
▁önce	-6.80774
▁şu	-6.81799
▁şekilde	-6.82227
▁O	-6.82615
lerini	-6.83788
▁yıl	-6.86417
larını	-6.86809
dır	-6.87006
▁fazla	-6.87245
-	-6.88417
▁iki	-6.8871
lik	-6.90131
o	-6.91216
yı	-6.9401
▁aynı	-6.95331
▁yeni	-6.96593
▁gerçekten	-6.98241
▁insan	-6.98429
ca	-6.99811
me	-7.00205
▁Yani	-7.0207
▁Şimdi	-7.02746
▁hakkında	-7.03313
ni	-7.03905
ti	-7.04877
▁ben	-7.06318
▁benim	-7.07644
ş	-7.07801
▁kendi	-7.07895
▁olduğu	-7.08045
▁diğer	-7.09154
▁tüm	-7.09551
▁Ben	-7.10738
▁mi	-7.11247
▁ilk	-7.12496
▁farklı	-7.13529
▁başka	-7.14366
▁sahip	-7.16644
▁ilgili	-7.17361
▁içinde	-7.17511
lık	-7.17636
lara	-7.1817
▁doğru	-7.18848
▁yok	-7.19595
▁insanlar	-7.19643
▁bile	-7.21545
sa	-7.22035
▁A	-7.22068
▁aslında	-7.22161
lere	-7.22438
▁in	-7.22459
▁;	-7.23678
▁küçük	-7.24336
▁bunun	-7.24462
dı	-7.2506
▁burada	-7.26404
▁♫	-7.26573
im	-7.29156
▁Gülüşmeler	-7.29507
▁S	-7.30366
▁veya	-7.30775
▁biz	-7.31551
ri	-7.32218
▁ise	-7.32978
um	-7.33289
uz	-7.34556
du	-7.35078
▁önemli	-7.35376
▁eğer	-7.35862
▁biri	-7.36121
▁tek	-7.3764
▁gün	-7.37672
▁an	-7.38005
▁şeyler	-7.38289
mak	-7.38465
▁Faka	-7.38609
▁bana	-7.3878
▁son	-7.39757
ini	-7.40176
ar	-7.40276
▁bizim	-7.41021
tı	-7.41206
f	-7.41668
d	-7.41799
▁size	-7.42275
ken	-7.43302
mi	-7.43984
▁a	-7.44075
se	-7.44427
▁oldu	-7.44622
▁biraz	-7.44689
tan	-7.45032
▁Eğ	-7.45719
yla	-7.46061
lu	-7.46182
▁geri	-7.47157
re	-7.47297
▁üzerinde	-7.48929
▁yer	-7.49024
ydi	-7.49213
yle	-7.49216
▁göre	-7.50111
mış	-7.50162
▁hiç	-7.50338
▁bütün	-7.50371
nda	-7.50795
▁gerçek	-7.51132
▁bilgi	-7.51413
▁insanların	-7.52202
ra	-7.52469
▁karşı	-7.53182
▁iş	-7.5407
sel	-7.54606
ç	-7.54643
▁neden	-7.55146
miz	-7.55571
▁Bunu	-7.55614
un	-7.5588
▁vardı	-7.56052
▁e	-7.56098
sine	-7.56186
▁az	-7.56344
▁diye	-7.5676
▁i	-7.57153
▁yüzden	-7.588
▁böyle	-7.59216
daki	-7.59436
ci	-7.59742
▁zamanda	-7.60787
▁üç	-7.61191
ndan	-7.61414
▁su	-7.63615
▁bazı	-7.63937
▁onu	-7.64003
▁Çünk	-7.64035
larının	-7.64081
lardan	-7.64367
arak	-7.64552
sini	-7.64635
ir	-7.64803
▁tam	-7.66004
▁-	-7.66318
▁tarafından	-7.66437
▁şimdi	-7.66451
mız	-7.66702
larda	-7.66911
▁hareket	-7.67402
▁Kahkaha	-7.67476
▁olacak	-7.67597
lerine	-7.67788
miş	-7.68002
lerden	-7.6812
tir	-7.68295
mek	-7.68503
niz	-7.68767
▁olması	-7.68795
▁yapmak	-7.69188
▁İşte	-7.69282
▁olmak	-7.69343
iz	-7.69361
larına	-7.69505
h	-7.69505
ır	-7.69552
▁istiyorum	-7.69816
ten	-7.70341
acak	-7.70563
▁K	-7.70831
▁teknoloji	-7.70852
g	-7.71155
▁E	-7.71245
▁mı	-7.7125
▁dünya	-7.71299
▁Çok	-7.71475
▁tür	-7.72634
ım	-7.7267
▁soru	-7.73588
▁nın	-7.73847
nı	-7.74108
il	-7.7426
sanız	-7.74344
ydı	-7.75022
▁oluyor	-7.75143
▁C	-7.75473
b	-7.75716
▁Ne	-7.75838
ip	-7.75989
▁ortaya	-7.76798
▁zor	-7.77027
▁Peki	-7.77172
▁oldukça	-7.78197
▁bize	-7.78479
ine	-7.78557
nız	-7.7997
lerinin	-7.80016
ını	-7.80085
▁karar	-7.80293
▁etmek	-7.80476
▁Bunun	-7.80484
lerde	-7.80548
▁güzel	-7.80712
▁birkaç	-7.80819
▁fakat	-7.80939
▁kişi	-7.8114
ıp	-7.81717
lan	-7.81782
▁şeyi	-7.82003
▁Dünya	-7.82141
▁olabilir	-7.82521
▁yani	-7.82658
▁Her	-7.82844
▁beni	-7.83157
▁tekrar	-7.83237
▁Burada	-7.83452
▁fark	-7.83576
▁para	-7.83611
lama	-7.83834
▁açık	-7.84175
siniz	-7.84539
▁10	-7.84591
sını	-7.84703
▁uzun	-7.84716
lerle	-7.84813
▁Aslında	-7.85348
▁anda	-7.85444
▁bunlar	-7.86317
inde	-7.8673
▁kötü	-7.86811
maya	-7.87364
▁Alkış	-7.87433
▁onları	-7.87557
▁hayal	-7.88555
dim	-7.88557
larında	-7.88978
al	-7.89027
▁te	-7.89195
sına	-7.89634
▁ın	-7.89845
▁devam	-7.89887
▁yapma	-7.89955
▁boyunca	-7.90008
▁çıkar	-7.90189
▁geliyor	-7.90424
▁Alkışlar	-7.90586
tik	-7.9069
▁olur	-7.90966
▁onun	-7.91066
tır	-7.91215
deki	-7.91314
▁yol	-7.91775
▁onlar	-7.92609
▁yüzde	-7.93066
ıyor	-7.9315
ik	-7.93424
▁ta	-7.93799
nde	-7.93942
abilir	-7.94368
▁milyon	-7.94692
▁al	-7.94704
va	-7.94797
▁konu	-7.95075
▁Daha	-7.95188
▁birçok	-7.95386
larla	-7.95496
▁G	-7.96814
▁yüksek	-7.96924
▁!	-7.97128
▁hikaye	-7.9749
▁Anca	-7.97531
yu	-7.97715
▁Evet	-7.98199
ün	-7.98254
dur	-7.9863
▁bak	-7.98673
▁süre	-7.99072
▁Siz	-7.99541
▁arasında	-7.99557
▁20	-7.99578
erek	-8.00226
ecek	-8.00494
▁belki	-8.00707
siz	-8.00851
▁enerji	-8.01145
▁kaç	-8.01266
▁etme	-8.0149
ba	-8.02229
▁orada	-8.02551
▁tamamen	-8.02753
▁gelen	-8.02905
sin	-8.03
▁yapı	-8.03606
▁Biz	-8.0365
cı	-8.03778
▁siz	-8.03862
▁aile	-8.03889
lü	-8.04183
▁bugün	-8.04478
▁durum	-8.04609
▁birlikte	-8.0467
ha	-8.04969
liği	-8.05205
▁yakın	-8.05524
▁Bunlar	-8.05604
c	-8.05611
▁T	-8.05719
el	-8.059
▁harika	-8.05943
▁basit	-8.06084
▁ay	-8.06196
▁kat	-8.06313
ına	-8.06482
▁ülke	-8.06619
▁araba	-8.06657
on	-8.06823
lığı	-8.07078
▁dedi	-8.07181
▁Ya	-8.07735
▁kadın	-8.07929
▁pek	-8.08271
▁öyle	-8.08281
▁B	-8.08421
▁yerine	-8.08432
▁gereken	-8.08764
▁Ka	-8.0893
▁buna	-8.08987
sal	-8.09107
▁ye	-8.09264
▁işte	-8.09322
lardı	-8.09438
be	-8.09652
▁göz	-8.10404
▁çocuk	-8.10549
▁Afrika	-8.1093
▁dünyanın	-8.11211
dım	-8.11413
▁geldi	-8.11452
sız	-8.11485
su	-8.11543
▁olma	-8.11782
▁üzerine	-8.12298
▁yardım	-8.12352
▁şöyle	-8.1269
▁artık	-8.12698
▁ev	-8.12735
▁Ha	-8.1301
▁3	-8.13067
▁bilgisayar	-8.13132
iyor	-8.13652
▁veri	-8.13741
▁hiçbir	-8.13896
▁konuşma	-8.14114
▁alan	-8.14178
gi	-8.1443
▁nokta	-8.14484
▁proje	-8.14815
▁daki	-8.15084
▁çalışma	-8.15254
▁ederim	-8.15734
lerinden	-8.16546
▁eden	-8.16702
▁sene	-8.16848
▁at	-8.17479
▁Böylece	-8.1796
▁temel	-8.18145
▁zorunda	-8.18178
▁ediyor	-8.18182
st	-8.18323
▁nin	-8.18712
▁bilim	-8.19221
▁Amerika	-8.19261
▁fikir	-8.19304
▁hayat	-8.19307
▁vardır	-8.19457
▁parça	-8.19473
sunuz	-8.19562
▁Ma	-8.19911
▁sorun	-8.19922
▁konusunda	-8.19995
sak	-8.20079
sun	-8.20228
ro	-8.20427
▁hızlı	-8.20782
▁adam	-8.21035
larından	-8.21098
lerinde	-8.21243
ması	-8.21467
▁çoğu	-8.21803
▁saat	-8.22034
lo	-8.22076
sinin	-8.22106
▁Sonra	-8.22436
▁mu	-8.22804
▁onların	-8.22845
▁araştırma	-8.22928
▁yüz	-8.22931
çi	-8.23128
▁gelir	-8.23306
sinde	-8.2372
▁hava	-8.23721
▁tane	-8.24244
▁Sade	-8.24459
ur	-8.24693
▁bizi	-8.2473
▁yerde	-8.24787
▁Tamam	-8.25285
▁göster	-8.25291
inin	-8.2536
▁ilginç	-8.25371
▁genç	-8.25397
▁H	-8.25836
▁yeniden	-8.26083
▁Şu	-8.26106
bi	-8.26181
v	-8.26371
▁örnek	-8.26552
▁işe	-8.2661
▁yaklaşık	-8.27068
▁ancak	-8.27366
▁sonunda	-8.27501
▁yaşam	-8.2782
▁sosyal	-8.27954
or	-8.28002
▁hale	-8.28526
▁çevre	-8.29115
▁dört	-8.29657
▁dolar	-8.29993
S	-8.30224
▁U	-8.30289
meye	-8.30605
▁den	-8.30699
▁istediğim	-8.30714
mı	-8.30848
▁elde	-8.30849
▁beyin	-8.31047
▁onlara	-8.31248
▁sizin	-8.31266
ge	-8.31778
sınız	-8.31842
▁savaş	-8.31964
w	-8.32079
▁birşey	-8.3246
▁hem	-8.32643
ında	-8.33146
▁ona	-8.33265
▁eski	-8.33559
dü	-8.33626
▁olmayan	-8.33711
▁kontrol	-8.33954
▁Benim	-8.34235
man	-8.34271
▁kız	-8.34301
▁herhangi	-8.34441
▁hemen	-8.34587
▁dan	-8.34657
▁Teşekkürler	-8.34938
▁özel	-8.35077
▁eğitim	-8.35117
dum	-8.35391
▁En	-8.35419
▁el	-8.35439
▁inanılmaz	-8.35468
▁Onlar	-8.35577
▁durumda	-8.35664
▁demek	-8.35969
▁F	-8.3598
▁hala	-8.36224
▁böylece	-8.36272
▁altında	-8.36477
ebilir	-8.36488
seniz	-8.367
ıcı	-8.36775
ğ	-8.36928
▁güç	-8.37036
▁kolay	-8.37426
▁ses	-8.3755
▁şeyleri	-8.37573
▁çalışan	-8.37754
▁milyar	-8.37861
min	-8.37925
dik	-8.37935
▁sürü	-8.38003
mizi	-8.38527
▁güçlü	-8.3874
▁insanları	-8.38979
▁yolu	-8.39274
nden	-8.39439
▁izin	-8.39572
ıl	-8.39971
▁dünyada	-8.40004
▁benzer	-8.40606
▁hafta	-8.40669
▁geç	-8.40675
▁parçası	-8.40859
▁cevap	-8.4098
▁toplum	-8.41221
sek	-8.41269
sının	-8.4135
▁etti	-8.41623
▁I	-8.4205
ça	-8.42367
vi	-8.4312
▁hasta	-8.44455
▁inşa	-8.45103
▁herkes	-8.45163
▁gerek	-8.45233
▁dair	-8.4524
▁başladı	-8.45333
▁Sa	-8.45485
▁söz	-8.45678
▁yine	-8.45723
▁mümkün	-8.4578
tu	-8.45949
▁ha	-8.46016
abiliriz	-8.46077
▁Bugün	-8.46108
mayı	-8.46352
dığı	-8.46488
▁hepsi	-8.46705
▁2	-8.4682
▁sağ	-8.46866
imiz	-8.46961
▁hatta	-8.4707
nun	-8.475
tim	-8.47714
▁ara	-8.47766
▁baş	-8.47871
▁kimse	-8.48265
▁Neden	-8.48383
▁kal	-8.48549
▁edin	-8.48594
▁tahmin	-8.48798
▁şunu	-8.49006
yor	-8.49193
ö	-8.49743
us	-8.49897
ğı	-8.50012
es	-8.50063
▁ka	-8.50159
▁P	-8.50291
leme	-8.50308
▁gösteriyor	-8.50337
▁beş	-8.50491
▁bunları	-8.50746
▁grup	-8.5097
▁ağ	-8.51127
mda	-8.51138
▁un	-8.51145
dık	-8.51294
▁görme	-8.51633
2	-8.51705
▁aşağı	-8.51789
za	-8.52188
cu	-8.52281
▁bağlı	-8.52589
▁verme	-8.52637
▁kabul	-8.52704
muş	-8.52839
▁kullan	-8.52987
▁30	-8.53003
▁gördüğünüz	-8.53014
▁New	-8.53187
▁yaptığı	-8.53337
▁4	-8.53563
▁anlama	-8.53601
▁yalnız	-8.53628
▁araya	-8.54121
▁İlk	-8.54123
▁hazır	-8.54413
nu	-8.54744
▁bence	-8.54836
▁değildir	-8.54942
▁yanlış	-8.55248
B	-8.55586
ız	-8.55669
diği	-8.5574
▁iç	-8.55805
▁olsa	-8.55978
▁D	-8.56201
▁doğa	-8.56221
▁kez	-8.56244
rken	-8.56343
yan	-8.5659
▁insanlara	-8.56608
▁Çin	-8.5678
▁video	-8.56897
▁ko	-8.56943
▁5	-8.56976
▁Ba	-8.57009
▁neredeyse	-8.57045
▁yarat	-8.57065
unu	-8.57081
▁kısa	-8.57221
luk	-8.5733
▁güven	-8.57396
▁film	-8.57493
▁Kendi	-8.57729
larımız	-8.58075
▁değildi	-8.58222
nüz	-8.58327
▁yapmaya	-8.58351
▁tanı	-8.58786
▁50	-8.58992
çe	-8.59039
▁seç	-8.59055
muz	-8.59235
mızı	-8.59285
▁değer	-8.59293
▁dedim	-8.59302
▁kap	-8.59433
ay	-8.59557
▁çıktı	-8.59591
▁tedavi	-8.59748
▁özellikle	-8.59849
zi	-8.59938
▁birisi	-8.59973
▁gir	-8.60065
▁yap	-8.60146
▁alma	-8.6018
A	-8.60316
iyoruz	-8.60426
nizi	-8.60485
▁yapıyor	-8.60591
▁derece	-8.60664
▁oyun	-8.60838
▁yapan	-8.60944
▁gece	-8.61149
▁sizi	-8.61151
▁gelecek	-8.61394
▁gerekiyor	-8.61663
sın	-8.61876
▁inan	-8.61982
▁Son	-8.62015
ga	-8.62338
ının	-8.62396
lerimiz	-8.62514
▁genel	-8.6254
▁üzere	-8.62548
▁ifade	-8.62819
▁sistemi	-8.62835
▁yere	-8.62835
▁yaz	-8.63151
▁kelime	-8.63183
▁Hindistan	-8.63226
▁neler	-8.63235
▁ver	-8.63333
▁düşünce	-8.63394
▁TED	-8.63499
▁ışık	-8.63791
▁derin	-8.63803
▁sistem	-8.63892
▁yan	-8.64137
▁olduğuna	-8.64325
▁iletişim	-8.64459
▁1	-8.6454
nızı	-8.64557
▁ak	-8.64572
▁Mo	-8.64712
▁yaptığımız	-8.64766
▁kan	-8.65024
▁ana	-8.65207
▁ölüm	-8.6543
▁doğal	-8.65512
ılmış	-8.65663
▁altı	-8.657
▁verici	-8.66006
▁ilişki	-8.66008
▁u	-8.66012
▁De	-8.66192
▁düşünün	-8.66436
ey	-8.66492
yız	-8.66558
▁ek	-8.66638
▁L	-8.6664
sında	-8.66728
▁Ç	-8.6682
▁deneyim	-8.67062
abilirsiniz	-8.67078
ünü	-8.67089
▁getir	-8.67101
▁olmadığı	-8.67146
▁bakın	-8.6734
▁ı	-8.67367
bo	-8.67551
▁bölge	-8.67591
▁deney	-8.67699
▁sanat	-8.67798
▁öğren	-8.67817
▁sayı	-8.67925
▁dakika	-8.68175
▁geçen	-8.6843
D	-8.68588
▁100	-8.68665
▁ister	-8.68727
▁haber	-8.68903
▁kim	-8.68929
▁ikinci	-8.68981
ck	-8.6899
is	-8.68997
▁Aynı	-8.69
▁Al	-8.69001
▁oda	-8.6901
▁kullanarak	-8.6917
ch	-8.69205
diğini	-8.69249
▁muhtemel	-8.69259
dığını	-8.69375
▁bundan	-8.69478
▁karmaşık	-8.69581
▁yara	-8.69609
▁M	-8.69688
▁eder	-8.69719
▁tasarım	-8.69851
▁Tüm	-8.70086
▁15	-8.70112
▁yoktu	-8.70345
▁bin	-8.70351
▁olmadığını	-8.70365
▁başladım	-8.70524
â	-8.70561
▁he	-8.70583
▁biliyor	-8.70655
ebiliriz	-8.70677
▁Ko	-8.7087
▁gezegen	-8.70955
▁pa	-8.71046
ru	-8.71114
▁deniz	-8.7125
▁şeyin	-8.71272
▁yı	-8.71327
▁bağlantı	-8.71338
▁sebep	-8.71519
▁arasındaki	-8.71521
▁çeşit	-8.71585
M	-8.71651
diğimiz	-8.71802
▁anne	-8.7183
▁bunların	-8.7187
▁uzay	-8.7205
▁sonraki	-8.72153
.000	-8.72335
▁problem	-8.72403
mesi	-8.72408
▁okul	-8.72452
▁aç	-8.72638
çı	-8.72661
▁ihtiyacımız	-8.72786
leşme	-8.72836
ve	-8.72891
acağız	-8.73087
▁ekonomi	-8.73091
▁sağlık	-8.73211
▁işi	-8.73233
ydu	-8.73258
▁olduğumuz	-8.73368
▁Te	-8.73529
▁canlı	-8.73529
▁olay	-8.73638
ış	-8.73651
alım	-8.73679
▁bırak	-8.73716
▁biliyoruz	-8.73927
imi	-8.74128
▁İ	-8.74188
▁çalış	-8.74224
▁değiştir	-8.74268
▁s	-8.74545
▁kar	-8.74566
▁Belki	-8.74606
▁yaptık	-8.74724
▁İnsanlar	-8.7482
▁tak	-8.75048
▁gel	-8.75116
▁hücre	-8.75145
▁ayrı	-8.75196
▁anlat	-8.75214
▁görüyorsunuz	-8.75233
▁ulaş	-8.75325
▁yılda	-8.75523
▁gitme	-8.75526
00	-8.75618
▁yapılan	-8.7567
▁rağmen	-8.75679
▁sebebi	-8.75679
ol	-8.75702
▁Ban	-8.75799
mu	-8.75813
▁beraber	-8.75908
▁etki	-8.75925
yım	-8.7607
▁ortak	-8.76166
▁Me	-8.7618
dığımız	-8.76247
▁erkek	-8.76316
▁düşünüyorum	-8.76341
▁teşekkür	-8.7642
▁geniş	-8.76459
▁kafa	-8.76476
acağım	-8.76481
▁görebilirsiniz	-8.76615
▁çocuklar	-8.76651
yim	-8.76812
▁alıp	-8.76856
inden	-8.76932
hi	-8.76944
ğa	-8.76979
0	-8.77579
▁dolayı	-8.77694
▁madde	-8.77704
▁bina	-8.77745
▁Büyük	-8.77767
ür	-8.78093
▁bakış	-8.78353
▁uygulama	-8.78378
▁insanın	-8.7846
fi	-8.7851
sinden	-8.78825
▁yanı	-8.78832
▁değişim	-8.79108
▁nedir	-8.79266
▁me	-8.79367
6	-8.79407
▁olursa	-8.79479
▁ele	-8.7952
4	-8.79612
▁on	-8.79987
▁Bo	-8.80069
▁asla	-8.80257
▁be	-8.80569
mişti	-8.80739
▁ettim	-8.80832
▁York	-8.80903
▁fikri	-8.80944
▁yardımcı	-8.80974
▁güneş	-8.81072
▁çizgi	-8.81081
▁ku	-8.8113
▁Avrupa	-8.81227
▁internet	-8.813
9	-8.81936
▁koy	-8.81981
▁g	-8.82049
▁hayvan	-8.82081
▁J	-8.82128
▁dikkat	-8.82198
leriyle	-8.82233
▁adı	-8.8224
ley	-8.82303
C	-8.82401
8	-8.82418
▁adım	-8.82433
▁dolu	-8.82505
▁sen	-8.82509
▁di	-8.8251
▁bazen	-8.82575
sü	-8.82576
▁ön	-8.82679
▁telefon	-8.82731
liğin	-8.82779
mo	-8.829
▁içine	-8.82934
▁sıra	-8.83018
▁plan	-8.83045
▁düşündüm	-8.83091
▁görmek	-8.83153
▁orta	-8.83217
▁başına	-8.83308
▁Ayrıca	-8.83369
▁olsun	-8.8339
▁tamam	-8.83512
elim	-8.83525
5	-8.83569
▁hep	-8.83669
ing	-8.83698
▁etmeye	-8.83698
ger	-8.837
▁yaşayan	-8.83712
▁ileri	-8.83818
▁yılında	-8.83929
▁olup	-8.84097
bil	-8.84327
▁k	-8.84613
▁hangi	-8.84711
▁hoş	-8.84715
▁Diğer	-8.84879
▁R	-8.84958
▁yapar	-8.84972
▁merak	-8.8506
▁dışında	-8.85133
▁kendini	-8.85248
yken	-8.85404
▁hepimiz	-8.85461
▁gücü	-8.85549
▁Di	-8.85561
▁şehir	-8.85637
ilmiş	-8.85692
▁kur	-8.85736
▁orman	-8.85771
▁dünyayı	-8.85867
▁içerisinde	-8.85951
po	-8.86047
▁ayrıca	-8.86172
▁Başka	-8.86217
▁test	-8.86228
ebilirsiniz	-8.86233
▁ba	-8.86254
▁düşünme	-8.86287
▁eş	-8.86347
▁dil	-8.86774
ah	-8.86828
▁defa	-8.86852
▁fotoğraf	-8.86864
▁kısmı	-8.86892
▁küresel	-8.87445
go	-8.87446
▁destek	-8.87467
▁İki	-8.8747
▁kazan	-8.87522
▁sürekli	-8.87801
lamak	-8.87878
▁kesinlikle	-8.88016
ll	-8.88276
1	-8.88337
▁tabi	-8.88508
▁takip	-8.88619
▁beri	-8.88754
▁hayatta	-8.88759
▁ekonomik	-8.88771
▁görüyoruz	-8.88888
asyon	-8.89006
▁yaşında	-8.89141
▁An	-8.89172
▁konuda	-8.89191
▁Yeni	-8.89248
tur	-8.89343
layan	-8.8946
▁kalma	-8.89507
▁model	-8.89515
▁sık	-8.89559
▁resim	-8.89702
▁mü	-8.89716
▁mutlu	-8.89898
lığın	-8.90006
ste	-8.90028
▁vermek	-8.9052
▁gerektiğini	-8.90605
lanmış	-8.90726
▁binlerce	-8.90744
▁gerekli	-8.90766
▁ihtiyaç	-8.90861
mıştı	-8.90875
ımız	-8.90964
▁almak	-8.91056
▁bas	-8.91074
▁uygun	-8.9116
ık	-8.91263
▁6	-8.91267
son	-8.91313
▁ciddi	-8.91339
ed	-8.91358
▁Su	-8.91433
▁sev	-8.91523
▁Bütün	-8.917
▁sonuç	-8.91821
▁başarı	-8.91914
meyi	-8.91953
larıyla	-8.91977
miyor	-8.92045
▁arka	-8.92076
▁haline	-8.9215
T	-8.92278
▁gen	-8.92318
▁devlet	-8.9243
▁Teşekkür	-8.92453
▁başarılı	-8.92513
▁Bizim	-8.92523
▁olurdu	-8.92605
▁hedef	-8.9261
▁gidiyor	-8.92613
▁et	-8.92615
▁yaptı	-8.92655
op	-8.92738
▁40	-8.92771
▁büyü	-8.92775
▁çek	-8.92995
▁ait	-8.93016
▁acı	-8.93444
san	-8.93469
▁anlamın	-8.93535
▁nedenle	-8.93574
▁bulunan	-8.93623
ab	-8.9363
iş	-8.93655
▁arada	-8.93699
▁uzak	-8.93811
▁alır	-8.93965
▁iste	-8.94175
▁Buna	-8.94289
▁çözüm	-8.94319
I	-8.9434
▁korku	-8.94358
▁Gerçekten	-8.94621
▁meydan	-8.94639
▁ilgi	-8.94645
▁çık	-8.94648
ton	-8.94682
ici	-8.94742
diğim	-8.94761
▁kır	-8.94809
▁sor	-8.94904
▁ders	-8.95135
▁seçim	-8.95148
▁Hayır	-8.952
3	-8.95303
▁makine	-8.9544
▁aşı	-8.95466
▁Ro	-8.95475
▁h	-8.95594
▁El	-8.95608
▁görüntü	-8.95663
şi	-8.95783
▁dünyadaki	-8.95943
P	-8.95985
▁evet	-8.95992
▁engel	-8.95997
ıldı	-8.961
▁edecek	-8.96164
ver	-8.96178
▁ediyorum	-8.96288
▁Ş	-8.96309
▁yaptım	-8.96406
▁bağ	-8.96478
▁yemek	-8.96498
ran	-8.96548
▁başladık	-8.96752
▁ettik	-8.96804
▁la	-8.9716
▁söylüyor	-8.97216
▁mükemmel	-8.97283
▁gidip	-8.97303
iyle	-8.97368
▁kadınlar	-8.97514
▁işaret	-8.97667
▁metre	-8.97668
▁robot	-8.97715
▁müzik	-8.97859
▁söyledi	-8.9799
▁gönder	-8.9803
▁verir	-8.98047
j	-8.98429
▁200	-8.98461
▁sayesinde	-8.98642
▁üst	-8.98644
dür	-8.98715
▁olmalı	-8.98742
fa	-8.98849
larımızı	-8.9891
▁yanında	-8.98978
ho	-8.98997
ımı	-8.99041
ilen	-8.99136
▁zengin	-8.99215
▁risk	-8.993
▁Ta	-8.9931
▁düşük	-8.99411
▁yavaş	-8.99431
ul	-8.99434
▁konuş	-8.99466
▁San	-8.99473
▁yazı	-8.99514
▁Co	-8.99605
▁elektrik	-8.99606
co	-8.99637
ıyoruz	-8.99801
▁DNA	-8.99802
▁sesi	-9.00009
▁araç	-9.001
▁gerekir	-9.00204
▁musunuz	-9.00283
▁si	-9.00309
▁yatırım	-9.00351
▁der	-9.00398
▁varsa	-9.00401
▁tabii	-9.00455
▁kas	-9.00533
sem	-9.0075
▁asıl	-9.00836
▁iz	-9.00857
lük	-9.00949
▁yöntem	-9.01021
kan	-9.01061
▁deki	-9.01089
▁mevcut	-9.01186
▁ilaç	-9.01316
▁alın	-9.01547
ğe	-9.01569
,000	-9.01585
eceğim	-9.01765
▁kitap	-9.01878
liğe	-9.01979
▁muhteşem	-9.02186
▁dahil	-9.02207
lerimizi	-9.02236
kar	-9.02243
ist	-9.02338
▁18	-9.02409
▁oluştur	-9.0242
G	-9.02427
lanma	-9.02571
▁büyüme	-9.02636
mize	-9.02678
ebilecek	-9.0293
▁tut	-9.02959
▁ayır	-9.0302
▁açı	-9.0312
▁kalan	-9.03238
ör	-9.0339
mıza	-9.03461
▁nerede	-9.03476
▁duy	-9.03497
▁düzen	-9.03598
yiz	-9.03652
der	-9.0371
ko	-9.03816
tık	-9.03921
▁zamanlar	-9.04138
▁veren	-9.04175
as	-9.0432
▁8	-9.04353
▁yukarı	-9.04381
▁olmadan	-9.04436
▁veriyor	-9.04496
▁geliştir	-9.04515
▁resmi	-9.04526
mde	-9.04641
▁sinir	-9.04651
▁heyecan	-9.04738
▁başlıyor	-9.0485
▁çift	-9.04984
▁biliyorum	-9.05141
▁alanı	-9.05329
91	-9.0541
▁hata	-9.05482
▁yıldır	-9.05553
▁yapabilir	-9.0559
▁ABD	-9.05663
kı	-9.05739
▁kapı	-9.05922
▁öğret	-9.06051
abiliyor	-9.06147
▁ayak	-9.06207
▁şeye	-9.0628
▁La	-9.06288
7	-9.06353
▁normal	-9.06399
▁verdi	-9.06404
▁İş	-9.0683
▁7	-9.06832
lıyor	-9.06859
▁yedi	-9.07018
▁Be	-9.07173
▁dizi	-9.07234
yum	-9.07271
▁sayfa	-9.0735
▁görev	-9.07397
▁diyor	-9.07577
▁Ra	-9.07611
▁kullanma	-9.07681
▁görünüyor	-9.0771
iyorum	-9.07804
sam	-9.07916
pi	-9.07983
▁anlamak	-9.08007
▁şiddet	-9.08356
unun	-9.08368
▁bilme	-9.08374
▁sahibi	-9.08406
E	-9.08433
▁çalışıyor	-9.08546
▁göstermek	-9.08652
▁geçir	-9.08811
▁tepki	-9.08835
▁yaptığım	-9.08883
▁aldı	-9.09004
▁olduğum	-9.09029
▁kendisi	-9.0917
abilecek	-9.09316
▁hastalık	-9.09321
ama	-9.09388
▁çıkan	-9.09411
▁bulma	-9.09496
▁olacağını	-9.09673
▁f	-9.097
▁aracı	-9.09751
▁Ku	-9.0983
dığım	-9.09929
ebiliyor	-9.1
▁dur	-9.10041
▁kişisel	-9.10107
▁başlar	-9.10199
▁kara	-9.10228
tım	-9.10392
▁kendimi	-9.10412
masını	-9.10478
▁sınır	-9.10666
▁Si	-9.10671
lerdi	-9.10849
acağını	-9.10985
▁yaş	-9.10989
▁beyaz	-9.11226
▁ortalama	-9.1132
landı	-9.11395
iyet	-9.11411
▁b	-9.11428
yorum	-9.11458
meyen	-9.11562
▁söyle	-9.1157
▁emin	-9.11689
▁fırsat	-9.117
▁mesaj	-9.11756
▁bilirsiniz	-9.11908
▁kanıt	-9.11911
▁12	-9.11978
▁şekli	-9.12195
▁sağlıyor	-9.12371
▁oldukları	-9.12377
▁oluşan	-9.12378
▁program	-9.12427
▁herkesin	-9.12494
▁şirket	-9.12511
▁nedeni	-9.12571
gu	-9.12765
duk	-9.12864
▁bulmak	-9.1291
▁art	-9.13182
▁anlamı	-9.13407
iyorlar	-9.13429
kten	-9.13446
▁mavi	-9.13454
mıyor	-9.13487
▁tarafta	-9.13683
▁ol	-9.13905
▁şarkı	-9.1406
▁yarı	-9.14069
▁giy	-9.14075
▁Müzik	-9.14128
▁zaten	-9.14129
cü	-9.14398
▁bakar	-9.14779
▁arkadaş	-9.14795
▁koruma	-9.14847
▁zamanı	-9.14869
▁ç	-9.14876
men	-9.14888
▁Do	-9.14911
▁sol	-9.14955
▁öğrenme	-9.14991
▁medya	-9.15038
▁masa	-9.15047
▁buraya	-9.15052
▁60	-9.15346
▁Artık	-9.15508
▁yerlerde	-9.15555
▁Li	-9.15555
▁kanser	-9.15678
▁günde	-9.15712
▁nun	-9.15759
▁gelişme	-9.15785
▁gider	-9.15797
raf	-9.15884
▁silah	-9.15954
▁Herkes	-9.15958
▁N	-9.16017
▁9	-9.16081
▁birinin	-9.16108
▁kurtar	-9.16171
▁molekül	-9.16187
▁Bi	-9.1628
▁kaynak	-9.1635
▁harita	-9.16361
▁Birleşi	-9.16436
▁pazar	-9.16446
▁yapacak	-9.16449
▁hâl	-9.16462
▁bakalım	-9.16471
▁tartışma	-9.16577
▁do	-9.16797
▁fakir	-9.16884
▁fiziksel	-9.16905
▁söylemek	-9.16922
▁Mi	-9.1693
▁tip	-9.16992
▁bil	-9.17026
▁çocukların	-9.1707
▁Onun	-9.17237
▁olsaydı	-9.17271
▁alıyor	-9.17339
▁yayın	-9.17391
▁lazım	-9.17584
ktan	-9.17692
▁ufak	-9.17819
R	-9.17855
▁yasa	-9.17882
▁kamera	-9.18055
kları	-9.18065
▁Amerikan	-9.18077
▁yeterli	-9.18128
▁uç	-9.18202
ılan	-9.18477
▁Örneğin	-9.18526
▁sınıf	-9.18532
▁algı	-9.18553
▁gördük	-9.18633
▁şeylerden	-9.18655
▁Se	-9.18679
▁karakter	-9.18764
sıyla	-9.18764
▁petrol	-9.18765
▁temiz	-9.18851
ysa	-9.18863
▁Le	-9.1905
lendi	-9.19064
▁olmasını	-9.19064
▁din	-9.19078
▁düşünüyor	-9.19167
os	-9.1936
▁paylaş	-9.19444
sunu	-9.1947
▁belli	-9.19479
▁işin	-9.19497
▁bazıları	-9.19505
▁yaşıyor	-9.19547
▁Orta	-9.19688
▁temsil	-9.19717
▁görüş	-9.19738
▁okyanus	-9.19783
▁icin	-9.1981
▁üstünde	-9.1981
▁sayıda	-9.19843
lenmiş	-9.1992
▁mücadele	-9.19957
▁kök	-9.2003
▁baskı	-9.20036
▁yıllık	-9.20038
yo	-9.20051
bir	-9.2009
▁Ar	-9.2017
▁aldım	-9.20171
▁olmaya	-9.20261
▁Mars	-9.20291
▁çal	-9.20313
▁içeri	-9.20343
▁idi	-9.20378
▁verdim	-9.20399
▁CA	-9.20413
▁dağ	-9.20442
▁üniversite	-9.20493
nuz	-9.20619
▁ihtiyacı	-9.2072
▁sat	-9.20726
suz	-9.20983
▁yiyecek	-9.21012
▁şekil	-9.21022
▁kutu	-9.21104
mın	-9.21213
▁gerektiği	-9.21228
▁yu	-9.21269
▁Bazı	-9.21316
lenme	-9.21319
▁duygu	-9.21419
▁derecede	-9.21427
▁çıkıyor	-9.21428
▁noktada	-9.21469
▁yük	-9.21578
▁Re	-9.21579
▁tarih	-9.21641
▁geçti	-9.21668
uyor	-9.21701
sta	-9.21717
mez	-9.21772
▁çöz	-9.2181
▁buradaki	-9.21825
ıyordu	-9.21865
▁Kuzey	-9.21896
▁görsel	-9.21896
▁gördüm	-9.21961
▁Da	-9.22087
▁deneme	-9.22108
▁Güney	-9.22149
▁11	-9.22204
▁İnsan	-9.22295
▁yeşil	-9.22388
▁Mesel	-9.22505
▁tanesi	-9.22525
medi	-9.22553
eceğiz	-9.22632
▁takım	-9.22636
L	-9.2264
▁suç	-9.22718
üm	-9.22725
bu	-9.22752
şa	-9.22776
▁hatırla	-9.22787
ev	-9.22788
▁bulun	-9.22862
▁söyleme	-9.22869
93;	-9.2288
▁sanırım	-9.22898
ku	-9.23052
▁ö	-9.23129
anırım	-9.23217
▁yerinde	-9.23231
▁biçimde	-9.23274
▁halde	-9.23278
do	-9.23306
▁ediyoruz	-9.23323
bilme	-9.23334
▁Google	-9.23376
▁birini	-9.23389
nızda	-9.23395
▁Bil	-9.23472
▁konusu	-9.23536
▁Orada	-9.23682
▁katı	-9.23705
▁örneğin	-9.23765
tif	-9.23768
▁yapıyoruz	-9.23806
▁alt	-9.23826
dılar	-9.23875
eri	-9.24009
▁sal	-9.2406
▁dış	-9.24089
▁kaldır	-9.24111
▁Nasıl	-9.24375
iniz	-9.24378
▁bakım	-9.24619
▁ince	-9.24675
▁iklim	-9.24878
▁gittim	-9.25079
sh	-9.25093
▁dünyaya	-9.2514
mizin	-9.25145
▁kol	-9.25146
▁kes	-9.2516
▁kalp	-9.25255
sından	-9.25294
ıyorum	-9.25627
▁duvar	-9.25696
mızda	-9.25925
▁işler	-9.25945
▁sahne	-9.25993
▁aşırı	-9.26014
lemek	-9.26051
▁kültür	-9.26077
▁şeylerin	-9.26103
N	-9.26226
nize	-9.26229
▁yapılmış	-9.26231
▁başlay	-9.26232
▁yerel	-9.26306
yoruz	-9.26368
malıyız	-9.26387
O	-9.26417
▁yaşama	-9.26455
ıyorlar	-9.26543
▁taraf	-9.26593
met	-9.26624
▁dijital	-9.26659
K	-9.2671
▁hizmet	-9.26741
ildi	-9.26755
▁zarar	-9.26793
cık	-9.2681
▁etkileşim	-9.26993
▁as	-9.27002
▁cihaz	-9.27161
▁beynin	-9.27267
▁yaşlı	-9.27269
▁gelme	-9.2728
▁Tanrı	-9.2734
▁Çocuk	-9.27389
▁edebilir	-9.27412
▁v	-9.27461
▁olduklarını	-9.27485
rak	-9.27496
th	-9.27548
per	-9.27695
▁olacaktır	-9.27715
▁ürün	-9.27775
▁yaratmak	-9.27864
▁hayır	-9.27952
yon	-9.27967
▁ke	-9.27983
▁biliyorsunuz	-9.28008
▁bağla	-9.28092
▁dayan	-9.28127
▁şaşırtıcı	-9.28212
▁kişiler	-9.28233
▁yön	-9.28277
▁kon	-9.28432
▁çeşitli	-9.28446
▁numara	-9.28472
▁altın	-9.28481
dikleri	-9.28574
▁se	-9.28675
▁Hatta	-9.28735
▁ilgilen	-9.28744
tör	-9.28746
▁cep	-9.28768
ndaki	-9.28849
▁saniye	-9.28855
▁erkekler	-9.28887
▁etkili	-9.28913
▁belir	-9.28946
▁tanım	-9.29013
▁25	-9.29026
▁kaynağı	-9.29044
▁dışı	-9.29131
▁çalışmak	-9.29151
▁dönüş	-9.29169
▁milyonlarca	-9.29287
▁evrim	-9.29307
▁zamanlarda	-9.29443
▁sabah	-9.29524
siyle	-9.29542
up	-9.29576
ından	-9.29603
▁balık	-9.29654
laşma	-9.2985
ber	-9.29933
▁Böyle	-9.30176
▁can	-9.30217
▁80	-9.30246
▁gördüğümüz	-9.30366
▁kendine	-9.30501
▁kişinin	-9.3057
▁azında	-9.30616
▁sağlayan	-9.30692
▁sonucu	-9.30703
ladı	-9.30736
▁amacı	-9.30816
▁gizli	-9.30854
▁çocukları	-9.30898
▁gösteren	-9.30964
▁gözü	-9.30965
▁etkisi	-9.31073
▁c	-9.31137
▁istedim	-9.31208
▁işle	-9.31413
▁boş	-9.31517
▁ortada	-9.31618
▁geli	-9.31628
kleri	-9.31629
▁dönü	-9.3163
▁açısından	-9.31702
kçe	-9.31804
▁gerçekleştir	-9.31838
▁mal	-9.32063
▁istiyor	-9.32196
▁yüzünden	-9.32224
▁site	-9.32238
▁öğrenci	-9.3225
▁durumu	-9.32439
▁politika	-9.325
eği	-9.32559
▁Bunları	-9.3268
▁söylen	-9.32842
lardır	-9.32845
▁bununla	-9.32858
▁edilmiş	-9.32887
▁hayatın	-9.32929
diğiniz	-9.32966
una	-9.33057
dıkları	-9.33111
▁kuş	-9.33182
▁adında	-9.33192
▁teşekkürler	-9.33351
oloji	-9.33384
▁Birkaç	-9.33567
larımızın	-9.33575
▁Pa	-9.33577
▁kırmızı	-9.33596
▁Yap	-9.33688
ğimiz	-9.33732
▁bi	-9.33816
landır	-9.33835
▁mesela	-9.33844
▁tutu	-9.33908
▁li	-9.33997
▁ilham	-9.34119
▁yaratıcı	-9.34241
▁is	-9.34306
▁sayısı	-9.3447
şe	-9.34628
▁hak	-9.34635
▁verdik	-9.34653
▁arkadaşım	-9.34681
▁başında	-9.3505
▁Jo	-9.35074
▁Onu	-9.35082
▁yüzey	-9.35281
▁merkez	-9.35289
ndeki	-9.35313
▁Ho	-9.35377
ğu	-9.35387
▁aldık	-9.354
manın	-9.3541
▁em	-9.35492
▁önünde	-9.35622
▁Batı	-9.35665
▁tarihi	-9.35773
▁insanlarla	-9.3579
▁anlamda	-9.35937
▁İyi	-9.35953
▁merkezi	-9.35986
▁köy	-9.36076
▁beceri	-9.36124
▁değilim	-9.36281
▁esas	-9.36308
▁okuma	-9.36468
▁dolaş	-9.3655
acağı	-9.36586
▁işlem	-9.36663
▁san	-9.36695
lerim	-9.36827
üs	-9.36853
▁olmuş	-9.3686
▁tercih	-9.36924
▁hayatı	-9.36973
▁istiyoruz	-9.36996
mamız	-9.3703
▁yüksel	-9.37068
▁ülkeler	-9.37147
▁teknik	-9.37221
▁başar	-9.37304
▁na	-9.37348
leyen	-9.37354
▁sanki	-9.37374
▁kendilerini	-9.37473
▁Hiç	-9.37485
▁üçüncü	-9.375
maz	-9.37529
iği	-9.37542
▁top	-9.37589
lerdir	-9.37599
abilmek	-9.3761
▁ettiği	-9.37627
▁bo	-9.37743
müş	-9.37829
▁yapabiliriz	-9.37931
▁yaptıkları	-9.37957
▁ateş	-9.38019
yıp	-9.38019
▁göstereceğim	-9.38145
taki	-9.38153
▁W	-9.38186
ren	-9.3821
ıyla	-9.3824
▁amaç	-9.38364
luğu	-9.38369
▁hükümet	-9.38381
▁biyo	-9.38384
▁dalga	-9.38536
▁görün	-9.38644
▁çaba	-9.38647
▁yoksa	-9.38701
▁Ara	-9.38728
eyim	-9.38771
▁umut	-9.3893
H	-9.39006
yse	-9.39119
▁Va	-9.39132
iliyor	-9.3915
▁organ	-9.39179
▁önceki	-9.39193
▁hikâye	-9.39227
eceğini	-9.3927
▁yüzü	-9.39417
▁kesin	-9.39449
▁içindeki	-9.39542
▁karbon	-9.39813
▁hesap	-9.3985
▁inanıyorum	-9.39861
lanıyor	-9.39871
ster	-9.39879
▁gerçekte	-9.39897
▁arı	-9.39951
unda	-9.40043
▁oray	-9.40056
yordu	-9.40127
▁kullanmak	-9.40171
▁çiz	-9.4019
▁ucuz	-9.4036
aman	-9.40391
▁adlandır	-9.40457
▁süreç	-9.40507
▁geçmiş	-9.40509
umuz	-9.40556
▁Y	-9.40648
▁He	-9.40651
▁görüyor	-9.40673
▁Ev	-9.40736
ebileceği	-9.40874
▁götür	-9.41073
▁ısı	-9.4113
▁bulduk	-9.41144
▁bilimsel	-9.41168
▁üret	-9.41177
▁İkinci	-9.41266
▁senin	-9.41275
▁sar	-9.41377
▁Tek	-9.41418
▁kıl	-9.41446
▁bitki	-9.41546
▁denge	-9.41706
▁satın	-9.41736
miştim	-9.41752
▁Mu	-9.41763
▁davranış	-9.41779
▁getirmek	-9.41869
▁döndü	-9.41885
liyor	-9.41936
▁çıkma	-9.41966
▁akıl	-9.4212
▁Dolayısıyla	-9.42181
▁garip	-9.42181
▁söyler	-9.42205
▁hayvanlar	-9.42218
▁rol	-9.42266
▁yıllar	-9.42276
▁yapıyorlar	-9.42308
▁yaşan	-9.4242
▁eşit	-9.42435
▁demokrasi	-9.42481
▁yüzlerce	-9.42483
▁bakarsa	-9.42503
▁kod	-9.42565
▁gözlem	-9.42588
maktadır	-9.4259
▁duruyor	-9.42607
▁Sen	-9.42628
▁tarz	-9.42691
▁Hepimiz	-9.42748
▁elbette	-9.42782
▁korkunç	-9.42783
▁kere	-9.42789
▁nde	-9.42791
▁sanatçı	-9.42819
▁seviyorum	-9.42832
▁sun	-9.42928
▁Gerçek	-9.43026
▁eylem	-9.43109
▁sağlıklı	-9.43114
▁günlük	-9.43183
▁kendimizi	-9.43187
liğini	-9.432
▁konuşmak	-9.43349
he	-9.434
▁Biraz	-9.43414
▁hücreleri	-9.43522
▁fikirler	-9.43577
▁gelecekte	-9.43689
▁re	-9.43699
▁uçak	-9.4375
▁bilmiyorum	-9.43752
▁evren	-9.43766
▁teori	-9.43766
▁yaklaş	-9.4393
▁Çoğu	-9.43997
▁Video	-9.43997
diler	-9.44131
▁gitti	-9.44142
▁anlam	-9.44146
▁olanlar	-9.44166
▁yoktur	-9.44212
▁gösterdi	-9.44225
▁tıp	-9.44295
▁zeki	-9.44303
▁Tabii	-9.44331
mektedir	-9.44337
kta	-9.44377
lanan	-9.4449
▁söylediği	-9.445
▁nerey	-9.44535
imizin	-9.44566
▁İnternet	-9.44609
▁tepe	-9.4469
mizde	-9.44713
▁farkında	-9.44833
▁güvenli	-9.4488
▁söyley	-9.44895
▁dönem	-9.44896
F	-9.44908
▁giden	-9.44993
▁çocuğu	-9.44993
▁değişik	-9.45018
▁sorunu	-9.45041
amaz	-9.45225
meyecek	-9.45253
▁miyiz	-9.45354
▁nesil	-9.45403
▁kullanıl	-9.45443
tro	-9.45498
▁gitmek	-9.45535
sen	-9.4559
lığ	-9.45598
teki	-9.45652
▁baba	-9.45788
▁açıdan	-9.45792
▁alakalı	-9.45846
▁rakam	-9.45846
muyor	-9.45997
laştır	-9.46167
▁geldiği	-9.4622
▁açıklama	-9.46384
▁indir	-9.46433
▁doku	-9.46451
ğini	-9.46552
mızın	-9.46582
▁olduğundan	-9.46673
nün	-9.4668
▁mikro	-9.46696
▁belirli	-9.46705
id	-9.46757
▁dışarı	-9.46812
▁fa	-9.46879
▁uyan	-9.46908
▁70	-9.46925
▁sırada	-9.46929
▁mesele	-9.46948
▁türlü	-9.46973
▁üzerindeki	-9.47
▁herşey	-9.47188
▁edilen	-9.47238
▁olmayacak	-9.47328
▁yazma	-9.47356
▁eve	-9.47384
▁köpek	-9.47413
▁Gör	-9.47677
▁buldum	-9.47823
▁edil	-9.47833
▁etrafında	-9.47923
▁bunlardan	-9.48003
▁başlama	-9.48038
▁piyasa	-9.48047
▁icat	-9.48059
▁tarafı	-9.48065
▁geleneksel	-9.48065
▁yağ	-9.48185
▁ila	-9.48195
imizi	-9.4821
raya	-9.48489
ıyorsunuz	-9.48553
▁olduğunda	-9.48575
▁bekle	-9.48593
▁sefer	-9.48654
▁önemlisi	-9.48733
ılır	-9.48772
▁Onları	-9.48789
▁anı	-9.48837
▁oranı	-9.49075
▁hakkı	-9.49096
▁kaya	-9.49125
▁hissed	-9.49152
▁ilerleme	-9.49273
▁rahat	-9.49278
▁duyu	-9.49348
▁sağladı	-9.49366
mesini	-9.49418
▁Gi	-9.49426
▁keşfed	-9.49473
▁ülkede	-9.49516
gen	-9.49545
▁süper	-9.4965
▁gösteri	-9.49652
▁bebek	-9.49746
ğım	-9.49856
▁öte	-9.49946
▁dön	-9.4997
▁Pekala	-9.49974
▁kayıt	-9.49982
▁bizler	-9.49992
▁mil	-9.50028
ot	-9.50032
▁oran	-9.50082
▁istediğimiz	-9.50213
▁mo	-9.50237
▁sevgi	-9.50352
dığınız	-9.50371
ünün	-9.50425
▁dile	-9.50449
▁örneği	-9.50766
lamaya	-9.5094
▁Ni	-9.50975
ize	-9.50984
▁kilo	-9.51031
▁davran	-9.51035
▁ardında	-9.51039
ığı	-9.51078
makta	-9.51094
▁virüs	-9.51203
▁Ge	-9.51273
▁Birçok	-9.51278
▁anlamaya	-9.51296
▁Burası	-9.51307
▁isteme	-9.51422
▁parmak	-9.51436
▁endişe	-9.51455
▁ada	-9.51566
▁ölç	-9.51759
▁kısım	-9.51782
▁gerçeği	-9.51791
▁sorular	-9.51826
▁oldum	-9.51913
▁sonsuz	-9.51955
şı	-9.51961
▁yönet	-9.51963
▁16	-9.52034
▁duyma	-9.52134
▁Kim	-9.52165
▁yapmayı	-9.52242
▁sekiz	-9.52272
▁verimli	-9.52277
▁genellik	-9.52364
▁bölüm	-9.52375
▁yaparken	-9.52388
▁girdi	-9.5241
▁ediyorlar	-9.52421
▁sağlamak	-9.5253
▁taşı	-9.52532
▁Tam	-9.52532
▁geldiğini	-9.52724
▁geçme	-9.52802
▁teşvik	-9.52934
▁ziyaret	-9.52934
▁kitabı	-9.52958
hu	-9.52976
▁çalışıyoruz	-9.53066
▁budur	-9.53097
▁hastalığı	-9.53162
▁modern	-9.53269
ği	-9.53295
▁renk	-9.5334
▁Na	-9.53448
ılması	-9.53523
▁Ak	-9.53529
▁annem	-9.53563
leyici	-9.53584
ayım	-9.53642
▁değiştirmek	-9.53812
▁90	-9.53824
▁hal	-9.53842
▁Kar	-9.53862
▁par	-9.5388
▁İnsanların	-9.5391
▁olağanüstü	-9.53941
▁sahibiz	-9.53945
▁ten	-9.53981
▁bitir	-9.54041
▁oyunu	-9.54042
▁hayatını	-9.54062
▁bar	-9.54102
▁genetik	-9.54279
▁gıda	-9.54281
ydim	-9.54287
▁yetişkin	-9.5429
▁insanı	-9.54314
▁ikisi	-9.5435
▁düşün	-9.54368
▁getirdi	-9.54415
▁sırasında	-9.54427
▁politik	-9.54462
▁gösterme	-9.54517
▁düşünmeye	-9.54549
▁halinde	-9.54575
▁sessiz	-9.54581
▁verin	-9.54613
▁toprak	-9.54632
▁git	-9.54658
▁sıcak	-9.54663
likle	-9.54672
▁ışığı	-9.54794
▁park	-9.54845
miyorum	-9.54879
▁besle	-9.54881
▁Man	-9.54931
▁bulunma	-9.54949
▁yapmamız	-9.55006
▁programı	-9.55031
▁belirt	-9.55117
▁Baş	-9.55189
▁As	-9.55249
▁ettiğimiz	-9.55285
meliyiz	-9.55285
▁vücut	-9.55299
▁yağmur	-9.553
▁odaklan	-9.55377
▁so	-9.55388
▁yoğun	-9.55395
▁olmaz	-9.55407
▁beden	-9.5542
seydi	-9.55429
mekte	-9.55517
▁çocuğun	-9.55556
kte	-9.55573
▁boyut	-9.55622
▁davet	-9.5568
adlı	-9.55684
▁benziyor	-9.55691
tür	-9.55706
▁dahi	-9.5573
rek	-9.5579
▁ar	-9.5583
▁kurtul	-9.55857
▁Beni	-9.55857
imin	-9.55874
▁şaşır	-9.55985
▁bit	-9.55986
▁ikna	-9.56003
düğü	-9.56013
▁dev	-9.5616
▁çalışır	-9.56224
▁tecrübe	-9.5633
ji	-9.56347
▁oy	-9.56382
▁hastane	-9.56524
▁say	-9.56538
▁hız	-9.56606
▁katkı	-9.5677
▁değiş	-9.56802
▁yaparak	-9.5681
▁yeterin	-9.56822
ral	-9.56882
▁fazlası	-9.56953
lma	-9.56981
dığında	-9.5701
▁Ö	-9.57126
▁televizyon	-9.57371
ydım	-9.57415
▁ortasında	-9.5752
▁taş	-9.57555
▁üretim	-9.57645
▁uzman	-9.57668
▁seviye	-9.57669
▁çekici	-9.57833
▁şehrin	-9.57872
▁geriye	-9.57876
▁demektir	-9.57884
▁Mar	-9.58005
▁sey	-9.58039
▁yönlendir	-9.58097
▁fi	-9.58163
▁Ki	-9.58168
▁erken	-9.58246
▁taşın	-9.58256
▁karanlık	-9.5827
▁yıldız	-9.5835
ınca	-9.58374
diniz	-9.58405
▁yaygın	-9.58424
▁gemi	-9.58428
rü	-9.58429
▁alet	-9.58513
▁saldırı	-9.58525
▁siyah	-9.58548
▁düşündük	-9.5861
madı	-9.58708
▁ölçü	-9.58802
▁otur	-9.58894
▁nesne	-9.58903
▁yorum	-9.59052
dy	-9.5909
▁olmayı	-9.59094
▁Geçen	-9.59132
▁yarısı	-9.59137
▁kimyasal	-9.59152
▁akıllı	-9.59176
▁fare	-9.59201
▁isim	-9.59229
▁Demek	-9.59249
ınız	-9.59272
mıştım	-9.5929
larım	-9.59324
▁doktor	-9.59421
▁yi	-9.59486
▁strateji	-9.59488
larınız	-9.596
▁getiriyor	-9.596
▁açıkça	-9.59627
▁uydu	-9.59665
▁ülkelerde	-9.5967
▁düşünür	-9.59758
▁kenar	-9.59772
▁sonuçlar	-9.59791
ışı	-9.59791
▁kullanıyor	-9.59842
▁zeka	-9.59845
har	-9.59847
lardaki	-9.59943
▁cam	-9.6014
▁öz	-9.60141
▁Ja	-9.60176
▁John	-9.60204
▁yüzyıl	-9.60216
▁Öyle	-9.60253
▁kendime	-9.60285
▁çalışıyorum	-9.60338
▁hepsini	-9.60388
▁doğu	-9.60417
▁14	-9.60506
ad	-9.60511
▁sıfır	-9.60563
▁sergi	-9.60585
▁anlaşıl	-9.60608
▁boyutlu	-9.60623
▁adet	-9.60629
▁süreci	-9.6073
▁kadınların	-9.60734
▁toplam	-9.60761
ss	-9.60771
▁yazar	-9.60801
layıcı	-9.60809
▁ruh	-9.60816
▁So	-9.60881
▁deri	-9.60887
▁arama	-9.60935
▁getirme	-9.60959
▁tutku	-9.61029
▁onunla	-9.61189
▁hissetme	-9.61364
▁yaşa	-9.61456
▁dans	-9.61459
▁parti	-9.6148
ıpkı	-9.61501
▁sonrasında	-9.61505
▁girme	-9.61519
▁günü	-9.61631
▁ortam	-9.61635
▁olmamız	-9.61644
lerimi	-9.617
luyor	-9.61908
▁ton	-9.61911
▁Pe	-9.61966
iyorsunuz	-9.62003
▁yabancı	-9.62091
▁malzeme	-9.62094
▁ü	-9.62115
▁modeli	-9.62375
▁Yüz	-9.6243
▁arazi	-9.62453
leşmiş	-9.62491
▁noktası	-9.62538
▁çalışmaya	-9.62583
▁şirketler	-9.62603
▁ağır	-9.62616
▁telefonu	-9.62629
▁bağlan	-9.62801
▁hücreler	-9.6289
leştirme	-9.62895
larca	-9.62936
▁tur	-9.62937
▁araçlar	-9.62981
▁Ay	-9.63011
lığını	-9.63066
▁seyahat	-9.63118
▁miktarda	-9.63128
▁sür	-9.63134
▁nöron	-9.63186
memiz	-9.63228
▁adını	-9.63281
▁devre	-9.63291
abileceği	-9.63321
▁güvenlik	-9.63353
▁Fa	-9.63354
▁bulunduğu	-9.63372
▁tehdit	-9.63488
▁tehlikeli	-9.63501
▁Tabi	-9.63506
▁olduğumu	-9.63593
miştir	-9.6368
▁Po	-9.63717
▁mühendis	-9.63736
eceği	-9.63819
▁kare	-9.6383
▁pahalı	-9.63861
▁Doğu	-9.63878
ırken	-9.63879
▁hızla	-9.64005
ılıyor	-9.64049
▁kaldı	-9.64075
▁seks	-9.64087
▁Buradaki	-9.64092
▁kuru	-9.64114
▁ekran	-9.64131
▁koru	-9.64213
▁benze	-9.6422
▁birşeyler	-9.64243
▁imkansız	-9.64301
▁sorunları	-9.64354
▁lider	-9.6436
cılar	-9.64438
lerimizin	-9.64488
▁babam	-9.64507
▁nefes	-9.6461
▁eğlenceli	-9.64614
▁Öyleyse	-9.64617
▁okuy	-9.64638
▁çalıştığım	-9.64675
▁kaybol	-9.64676
▁Bilim	-9.6476
▁olduk	-9.64787
▁eriş	-9.64839
▁dokun	-9.64874
▁fabrika	-9.64984
▁adına	-9.64993
▁cok	-9.65004
▁gaye	-9.65035
iyordu	-9.65068
▁polis	-9.65076
▁kalbi	-9.65104
▁suyu	-9.65135
▁fiyat	-9.65165
▁herşeyi	-9.65265
▁kalk	-9.65274
▁olduğunuz	-9.65316
▁şans	-9.6535
▁sektör	-9.65362
▁saygı	-9.65368
▁tarım	-9.65375
▁yeri	-9.65402
▁kurma	-9.65731
▁edici	-9.65741
▁17	-9.65773
▁bahsed	-9.65773
▁problemi	-9.65859
▁alanda	-9.65885
emez	-9.65921
lerinizi	-9.65977
▁geçerli	-9.6604
yü	-9.6605
madan	-9.661
▁rüzgar	-9.6612
▁muazzam	-9.66121
land	-9.66127
▁kapat	-9.66141
▁13	-9.66176
▁buz	-9.66176
▁önem	-9.66195
▁gö	-9.66237
▁bildiğimiz	-9.66293
▁başta	-9.66353
nca	-9.66459
▁oku	-9.66464
▁azalt	-9.6647
▁tasarruf	-9.66502
▁bakma	-9.66521
▁gor	-9.66558
acaktır	-9.66589
ite	-9.6683
▁gerekiyordu	-9.6684
▁bahçe	-9.66896
▁Go	-9.66907
▁gaz	-9.6694
▁yaklaşım	-9.67044
ron	-9.67057
layabilir	-9.6706
▁gül	-9.67076
▁ağaç	-9.6708
gun	-9.67108
▁ürünü	-9.67173
▁Sonuç	-9.67211
▁akşam	-9.6727
▁anlatmak	-9.67303
▁yana	-9.67349
▁çapında	-9.67354
tığını	-9.67475
landırma	-9.67561
duğu	-9.67603
▁değişimi	-9.67623
▁Bazen	-9.67657
▁kopya	-9.67657
▁yaşındaki	-9.67661
▁analiz	-9.67663
▁liste	-9.67704
▁Adam	-9.67741
▁kısmını	-9.67886
▁işçi	-9.67887
▁öğrendim	-9.67926
han	-9.68025
▁tan	-9.68034
▁laboratuvar	-9.68081
▁makale	-9.68114
▁kamu	-9.68118
▁kavram	-9.68184
▁edildi	-9.68202
▁yapmış	-9.68244
▁hali	-9.68281
▁katıl	-9.68329
▁sistemleri	-9.68374
mayan	-9.6843
▁organizasyon	-9.68433
▁ederek	-9.68446
▁gücünü	-9.68515
▁olduğumuzu	-9.68565
▁Vi	-9.68568
▁konuşuyor	-9.68625
▁bakteri	-9.6867
bar	-9.68747
cak	-9.68756
▁dönme	-9.68774
▁halk	-9.68783
▁ettiler	-9.68816
▁bisiklet	-9.68823
▁Chris	-9.68823
▁Güneş	-9.68824
▁işbirliği	-9.68824
▁bulunuyor	-9.68844
▁Yine	-9.68881
▁olmaları	-9.68998
▁ter	-9.69008
▁sanal	-9.69198
diğinde	-9.69222
▁Sizin	-9.6927
larınızı	-9.69283
▁burası	-9.69306
▁çalıştık	-9.69327
▁okula	-9.69356
▁adamı	-9.69438
▁düşünmek	-9.6944
▁barış	-9.69465
▁Ona	-9.69474
▁ni	-9.69475
▁sana	-9.69498
▁rahatsız	-9.69534
▁cevabı	-9.69696
▁eli	-9.69781
ebileceğimiz	-9.69802
▁sağlayacak	-9.6988
▁neyse	-9.69913
birine	-9.69988
kal	-9.69989
yorlar	-9.69991
▁uğra	-9.70134
▁elimizde	-9.70171
▁mahalle	-9.70401
▁verileri	-9.70405
▁Or	-9.70451
süz	-9.70461
▁sokak	-9.70462
▁mimari	-9.70541
▁almaya	-9.706
▁199	-9.70682
▁aşama	-9.70746
▁gid	-9.70867
▁biyolojik	-9.71027
indeki	-9.71061
if	-9.71172
▁müthiş	-9.71199
▁değiştirme	-9.71262
▁hayatımı	-9.71264
▁ayı	-9.71265
▁beyni	-9.71329
rı	-9.7133
syon	-9.71359
ans	-9.71363
▁kendimiz	-9.71397
tor	-9.71488
▁yetiştir	-9.71517
ff	-9.71601
▁kay	-9.71636
▁bilmiyor	-9.71684
▁isteyen	-9.71719
▁düş	-9.71763
▁kural	-9.7181
▁değişikliği	-9.71824
▁dili	-9.71894
▁Hem	-9.71914
▁çekti	-9.71937
▁sıkı	-9.71966
▁kaçır	-9.71985
▁tablo	-9.72004
▁kağıt	-9.72005
sidir	-9.72036
ara	-9.72069
▁soğuk	-9.72073
▁boya	-9.72225
▁aş	-9.72226
▁kuvvet	-9.72302
▁görürsünüz	-9.72409
▁vatandaş	-9.72409
▁göreceksiniz	-9.72419
fer	-9.72438
,	-9.72483
▁burda	-9.72489
▁kanseri	-9.72498
var	-9.72579
▁birine	-9.72604
nizin	-9.72636
▁sordu	-9.72793
▁çoğunu	-9.728
▁obje	-9.72816
▁çöp	-9.72816
▁kilometre	-9.72818
▁olmadı	-9.72818
▁reklam	-9.72819
ğin	-9.72847
ladık	-9.72914
mıştır	-9.72934
gel	-9.72962
▁ettiğim	-9.73093
▁gördü	-9.73108
▁öğrenmek	-9.73158
▁onlarla	-9.7318
▁fil	-9.73216
▁mesafe	-9.73224
▁bağımsız	-9.73224
▁spor	-9.73224
▁bakıyor	-9.73252
▁uyum	-9.73284
▁şa	-9.73294
▁to	-9.73313
nızın	-9.73401
▁parçaları	-9.73476
▁başarısız	-9.7348
▁büyüdü	-9.73536
▁salgın	-9.73562
▁zayıf	-9.73633
▁Küçük	-9.73634
▁buçuk	-9.73641
▁benzeri	-9.73682
ciler	-9.73682
▁Devletler	-9.73719
gan	-9.73733
▁buldu	-9.74008
▁şüphe	-9.74011
▁tehlike	-9.74031
▁anahtar	-9.74045
▁tuhaf	-9.74045
▁kaza	-9.74055
▁24	-9.741
▁sap	-9.74109
▁Pi	-9.74139
▁benimle	-9.7415
▁ödeme	-9.74159
▁geçiyor	-9.74288
▁motor	-9.74325
▁çalıştım	-9.74425
▁İngiltere	-9.74458
▁makina	-9.74459
▁sonu	-9.74463
▁Hiçbir	-9.74474
▁arkadaşlarım	-9.74485
▁hepimizin	-9.74534
▁buydu	-9.74651
▁ofis	-9.74664
▁yada	-9.7467
▁Gel	-9.74684
▁sinyal	-9.74714
hir	-9.74803
▁Dr	-9.74823
▁devrim	-9.74834
▁iddia	-9.74873
▁seçenek	-9.74873
▁görmeye	-9.7496
▁saç	-9.75026
▁uyar	-9.75154
▁geleceği	-9.75168
▁şansı	-9.75196
▁olacağı	-9.75244
▁geçiş	-9.75254
▁sorumlu	-9.75277
▁HIV	-9.7529
▁yeteneği	-9.7529
▁çatışma	-9.75292
▁firma	-9.7531
▁düz	-9.75341
▁verilen	-9.75347
▁diş	-9.75405
▁azal	-9.75462
▁yakıt	-9.75479
▁batı	-9.756
▁nefret	-9.75708
▁düşündü	-9.75739
▁şeklinde	-9.75834
▁veriler	-9.75835
▁Amerikalı	-9.75838
▁aklım	-9.75856
malı	-9.75866
▁sordum	-9.75886
▁sonuçları	-9.75925
▁topluluk	-9.7596
▁kullandığı	-9.76036
lıyız	-9.76123
▁standart	-9.76128
kül	-9.7615
▁geliştirme	-9.76158
▁kullanıcı	-9.76207
▁biyoloji	-9.7631
▁alanlar	-9.76342
▁görünen	-9.76343
lanması	-9.76366
mis	-9.76403
▁kullanır	-9.7646
▁protein	-9.76551
▁yemeği	-9.76553
▁İngilizce	-9.76665
▁Kız	-9.76688
▁kullanılan	-9.76756
▁boyu	-9.76766
▁oynama	-9.76798
▁av	-9.76846
▁grafik	-9.76974
▁keşif	-9.76974
▁uzan	-9.76995
▁yerleştir	-9.77039
▁dergi	-9.77045
▁Ses	-9.77066
▁yapabilirsiniz	-9.77109
▁birleştir	-9.77169
▁değiştirdi	-9.77262
▁çarp	-9.77279
▁ölü	-9.77327
▁hesaplama	-9.77342
▁sıradan	-9.77375
▁Elbette	-9.774
▁Şöyle	-9.774
▁kart	-9.77468
▁uygulan	-9.775
abileceğimiz	-9.77533
▁farklılık	-9.7756
▁kum	-9.77581
umu	-9.77604
ırlar	-9.77644
▁kaybed	-9.77678
▁Sonun	-9.7772
ımızı	-9.77808
▁sürdürülebilir	-9.77827
▁çevir	-9.77839
▁sistemin	-9.77848
▁dediler	-9.77874
▁Fi	-9.77916
larındaki	-9.77989
▁istediğiniz	-9.78029
▁doğum	-9.78063
▁don	-9.78086
▁dediği	-9.78169
muştu	-9.782
▁Harika	-9.78269
ebilirim	-9.78276
▁başa	-9.78286
▁The	-9.7832
W	-9.78346
saydı	-9.7845
▁giriş	-9.78475
▁yazılım	-9.78489
▁alış	-9.78521
ımın	-9.78522
▁hissi	-9.78573
▁öldü	-9.78681
▁hafif	-9.78687
▁Mü	-9.78757
▁inanma	-9.78768
ac	-9.78772
▁zorundayız	-9.78774
▁dönüşüm	-9.78788
ly	-9.78848
lerdeki	-9.78937
▁olun	-9.79
▁bıraktı	-9.79041
▁başı	-9.79113
▁his	-9.79121
▁terk	-9.79144
▁olabileceği	-9.7915
▁Par	-9.79172
▁duygusal	-9.79174
▁gez	-9.79174
▁balığı	-9.79189
▁önemlidir	-9.79197
▁çıkardı	-9.79281
▁sizinle	-9.79303
▁alanında	-9.79367
▁gazete	-9.7939
▁denedi	-9.79391
▁Asya	-9.79405
▁ödül	-9.79425
▁değiller	-9.79432
arı	-9.7946
▁yürü	-9.79503
▁dal	-9.79503
ebilmek	-9.79521
▁sağlama	-9.79528
▁verdiği	-9.79542
ğim	-9.79553
▁yapacağı	-9.79572
▁ünlü	-9.79589
inizi	-9.79605
▁değiliz	-9.79657
▁değerli	-9.7967
▁yaratma	-9.7969
▁sevdiğim	-9.79735
▁arası	-9.79792
abilirim	-9.79854
▁matematik	-9.79911
▁Car	-9.79932
▁miktar	-9.79962
ğü	-9.79967
▁plastik	-9.79992
▁üstüne	-9.80031
▁giderek	-9.80039
layacak	-9.80104
▁Ye	-9.80119
▁yapıldı	-9.80167
▁dik	-9.80224
▁çıkart	-9.80374
nıza	-9.80417
▁eyalet	-9.8043
▁Afganistan	-9.80431
▁Çocuklar	-9.80503
▁olanı	-9.80536
▁sorunlar	-9.80612
▁evrenin	-9.80619
▁etmiş	-9.80622
▁bekliyor	-9.80703
▁sesleri	-9.80723
oto	-9.80764
ic	-9.80803
▁komşu	-9.80872
▁aktivite	-9.80872
▁oyuncu	-9.80942
▁saf	-9.80971
od	-9.80972
▁bakmak	-9.81004
▁kör	-9.81011
▁sağlar	-9.81039
▁suyun	-9.8104
▁asker	-9.81212
▁maymun	-9.81313
▁kamp	-9.81339
tra	-9.81359
yacağım	-9.814
▁Ah	-9.81405
▁İç	-9.81438
▁uçuş	-9.81481
izm	-9.81539
▁durma	-9.81596
ow	-9.81629
▁yapıyorum	-9.81635
larımı	-9.81642
vu	-9.81672
▁boz	-9.81673
likte	-9.81707
▁gelişmiş	-9.8173
▁yolculuk	-9.8173
dıklarını	-9.81762
lıkla	-9.81777
▁patlama	-9.81822
▁oluşturuyor	-9.81823
▁Sta	-9.8183
▁keşfetti	-9.8189
örü	-9.81897
▁yolunu	-9.81909
mıyorum	-9.81926
▁bilir	-9.8193
▁boy	-9.81931
▁taki	-9.81987
▁şeyden	-9.82102
▁yenilik	-9.82103
▁işleri	-9.8216
▁Du	-9.82175
▁ameliyat	-9.82204
▁araştır	-9.82286
▁türü	-9.82291
ilmesi	-9.82328
ilir	-9.82373
▁önün	-9.82394
▁yaptığını	-9.82418
▁etmeyi	-9.82456
▁evde	-9.82475
▁imkan	-9.82476
▁çeki	-9.82519
▁km	-9.82618
▁bomba	-9.82653
▁mekanizma	-9.82655
▁kanun	-9.82723
lüğü	-9.82781
▁kü	-9.82815
▁yönetim	-9.82894
▁Ri	-9.82911
▁öğretmen	-9.83055
▁itibar	-9.83103
▁kahraman	-9.83103
leşti	-9.83134
▁tasarla	-9.83138
▁dönüştür	-9.83222
▁19	-9.8323
▁istediği	-9.83275
niversitesi	-9.833
▁yapay	-9.83327
▁detay	-9.83328
▁yayıl	-9.83353
▁paylaşmak	-9.83387
▁açtı	-9.83487
▁Gördüğünüz	-9.83555
▁sabit	-9.83556
▁öğrendik	-9.83557
▁edip	-9.8356
▁nevi	-9.83561
▁ceza	-9.83561
▁Anne	-9.8364
▁toplantı	-9.83655
▁olabileceğini	-9.83788
▁fikirleri	-9.83872
▁delik	-9.83948
▁dinle	-9.8397
▁hikayeler	-9.84004
▁önümüzde	-9.84013
▁servis	-9.84015
▁hissettiği	-9.84055
▁vur	-9.84056
▁tü	-9.84106
▁radyo	-9.84166
▁dağıt	-9.84238
▁yerler	-9.84278
▁ata	-9.84284
▁Doğru	-9.84416
▁meme	-9.84438
▁koku	-9.84459
▁uluslararası	-9.84467
uldu	-9.84542
lıyım	-9.84548
▁görür	-9.84582
▁Bize	-9.84644
▁Bay	-9.84649
▁toplumun	-9.84673
▁mantıklı	-9.84695
▁filmi	-9.84705
▁not	-9.84706
larsa	-9.84718
▁taşıma	-9.84723
oz	-9.84733
▁şirketi	-9.8481
▁arkadaşları	-9.84816
▁olmuştu	-9.84875
▁kitle	-9.84885
▁bulundu	-9.84893
lılar	-9.84914
▁müşteri	-9.84925
▁kemik	-9.84929
▁sarı	-9.84991
▁sürdür	-9.85017
▁kaynakları	-9.85065
▁tık	-9.85182
▁edilme	-9.85209
amp	-9.85209
▁izley	-9.85237
▁sığ	-9.85257
▁verecek	-9.85272
leniyor	-9.85338
▁bulut	-9.85372
▁ayakkabı	-9.85386
▁tutar	-9.85395
▁gözleri	-9.85433
▁Okul	-9.85501
▁fotoğrafı	-9.85624
▁karşılaştır	-9.85679
kça	-9.85684
nizde	-9.85699
▁oluşturmak	-9.85773
▁karış	-9.85812
mayacak	-9.85835
▁geçer	-9.85837
▁alacak	-9.86023
▁belge	-9.86315
▁besin	-9.86319
▁adalet	-9.86329
▁karınca	-9.86335
▁çoğunlukla	-9.86372
▁uğraş	-9.8639
▁Eski	-9.86393
▁etiket	-9.86409
▁deli	-9.86537
▁inanç	-9.86537
▁birbirin	-9.8656
▁araçları	-9.86585
▁anladı	-9.86618
lıyoruz	-9.86656
▁sağlığı	-9.86847
tığımız	-9.86851
ümüz	-9.86907
▁kullandık	-9.86935
▁ediyordu	-9.87063
ırız	-9.87065
ong	-9.87071
▁Yo	-9.87074
▁öldür	-9.8711
▁bozu	-9.87129
meli	-9.87155
▁istiyorlar	-9.8719
▁Önce	-9.87244
▁hatırlıyorum	-9.87277
▁geldik	-9.87317
ğünü	-9.87365
▁etkilen	-9.87407
▁içer	-9.87437
gü	-9.87448
▁yansıt	-9.87498
▁geldiğinde	-9.87561
▁olabilecek	-9.87569
▁açısı	-9.8768
▁galaksi	-9.87723
▁edebilirsiniz	-9.87797
▁bilinen	-9.87827
▁diyorum	-9.87908
▁kalıyor	-9.87926
ğını	-9.87976
liydi	-9.88006
▁sağlay	-9.8805
▁endüstri	-9.88099
▁yönel	-9.88125
uş	-9.88134
▁Hepsi	-9.88163
▁altyapı	-9.88197
▁epey	-9.88197
▁Kur	-9.88202
▁adamın	-9.88203
▁sizlere	-9.88207
▁fazlasını	-9.88271
diklerini	-9.88404
ladım	-9.88414
rke	-9.88429
▁birinci	-9.88483
▁anlattı	-9.88517
▁atı	-9.88594
▁500	-9.88605
▁şeker	-9.88675
ırsınız	-9.88749
maktan	-9.88753
▁yollar	-9.8884
▁ölme	-9.88863
▁olasılık	-9.88947
▁buluş	-9.89015
▁şeydir	-9.89081
▁dokuz	-9.89101
▁Londra	-9.89151
▁gurur	-9.89151
▁nüfus	-9.89188
▁uzakta	-9.89208
▁tasarımcı	-9.89285
▁maliyet	-9.89308
▁Davi	-9.89361
▁Der	-9.8949
▁Birincisi	-9.89587
▁yola	-9.89673
▁artış	-9.89684
▁düşündüğümüz	-9.897
▁neyin	-9.89755
yseniz	-9.89923
▁dikkatli	-9.89929
sünü	-9.89999
▁yılı	-9.90034
▁seçme	-9.90059
▁bağış	-9.90081
▁öykü	-9.90116
▁parlak	-9.90118
▁çekme	-9.90352
ft	-9.90404
hr	-9.90431
▁Aile	-9.90433
▁karşılaş	-9.90484
▁Wi	-9.90504
▁düşündüğüm	-9.90556
ğinde	-9.90575
▁web	-9.90601
▁siyasi	-9.90602
▁kapalı	-9.90614
▁eğitimi	-9.90625
▁gelişmekte	-9.90635
▁bilmek	-9.90639
▁yüzyılda	-9.90656
▁ulaşma	-9.90669
cik	-9.90785
▁dinley	-9.90847
▁ötesinde	-9.90892
▁öner	-9.90917
▁Bak	-9.90941
▁olanak	-9.90985
▁dediğimiz	-9.91029
▁olabilirsiniz	-9.9105
▁olayı	-9.91082
▁Güzel	-9.91088
▁şifre	-9.91088
▁cümle	-9.91089
▁koyu	-9.91119
▁karıştır	-9.91137
▁gittik	-9.91143
lanır	-9.91152
▁ettir	-9.9116
▁yolla	-9.91305
▁ters	-9.91349
▁potansiyel	-9.91389
▁gerçeklik	-9.91411
▁kıyı	-9.91431
▁mimar	-9.91439
▁yaptığınız	-9.91461
▁duyar	-9.91568
▁tırman	-9.91585
▁aktif	-9.91614
▁girişimci	-9.91676
▁harcama	-9.91686
maları	-9.91758
sizlik	-9.91774
▁ölçüde	-9.91787
▁Bar	-9.91855
▁depo	-9.91888
▁toplama	-9.91898
▁ismi	-9.91953
manız	-9.92041
▁tespit	-9.92071
▁lütfen	-9.92072
▁güney	-9.92155
ulmuş	-9.92253
▁Kan	-9.92309
▁toplan	-9.92313
▁büyüt	-9.92333
je	-9.92358
▁ölçek	-9.9238
▁İngiliz	-9.92432
▁halka	-9.92495
▁başladılar	-9.92516
▁zihni	-9.92556
▁Bilirsiniz	-9.92566
▁kuzey	-9.92567
▁şiir	-9.92568
▁pro	-9.92586
▁korumak	-9.9262
▁gerekirse	-9.92715
▁adamları	-9.92718
▁Göz	-9.92775
▁Lo	-9.92829
ilebilir	-9.92923
ard	-9.9293
▁sır	-9.92938
▁bölümü	-9.93085
▁günün	-9.93087
▁ediliyor	-9.9315
▁biçim	-9.9328
▁yaptılar	-9.93359
▁arkasında	-9.934
menin	-9.93471
▁çılgın	-9.93472
▁sürece	-9.93523
▁Teknoloji	-9.93564
▁yargı	-9.93564
▁cinsel	-9.93576
▁yılın	-9.93576
▁karşısında	-9.93577
▁inceleme	-9.93579
▁cinsiyet	-9.93588
▁Hu	-9.93608
▁yaşadığı	-9.93706
nuzu	-9.93728
▁yaşamak	-9.93753
▁toplu	-9.93813
▁tarafında	-9.93833
▁etraf	-9.93852
▁Bazıları	-9.93867
▁istedi	-9.93969
▁unut	-9.93972
▁kullanımı	-9.94017
▁Mil	-9.94058
▁nükleer	-9.94066
▁insanlardan	-9.94121
and	-9.9415
▁öğrenciler	-9.94181
▁yaka	-9.94196
lıydı	-9.94246
liğine	-9.94337
▁görevi	-9.94368
▁çalışmaları	-9.94384
▁koyar	-9.94452
lke	-9.9447
▁yaratıyor	-9.94502
ince	-9.94516
▁vaka	-9.94572
▁değişme	-9.94628
▁yanıt	-9.94642
▁dışarıda	-9.94687
▁kullanıyoruz	-9.94716
▁çalıştığımız	-9.94716
▁mutluluk	-9.94777
▁yarım	-9.95001
▁alanları	-9.95056
▁kablo	-9.95069
▁kulak	-9.95096
▁hayata	-9.95126
▁nda	-9.95134
▁müziği	-9.95135
▁aşk	-9.9516
▁olmaktan	-9.95229
▁girişim	-9.95238
▁seni	-9.95238
ebilen	-9.95239
▁dedik	-9.95291
▁nereden	-9.95324
▁isterim	-9.95328
▁kanal	-9.95332
▁sorma	-9.95396
▁birbirleri	-9.95462
▁ani	-9.95485
▁bahsetmek	-9.95542
▁saye	-9.95584
▁tıbbi	-9.95589
▁çiçek	-9.95589
▁Söyle	-9.9559
▁taklit	-9.95603
▁suçlu	-9.95645
▁diğeri	-9.95657
▁kaybetti	-9.95742
▁Bakın	-9.9575
▁araştırmacı	-9.95763
▁ihtiyacınız	-9.9578
▁Top	-9.95809
▁Hal	-9.959
▁Afrikalı	-9.95902
abildiği	-9.95903
asyonu	-9.96036
▁Düşün	-9.96056
▁istedik	-9.96066
▁istey	-9.96077
▁1.	-9.96091
▁göze	-9.96101
▁konferans	-9.96102
▁pi	-9.96109
▁harf	-9.96121
▁doldur	-9.96147
▁bulur	-9.96202
lendirme	-9.9622
▁kaba	-9.9631
▁özgür	-9.96352
▁düzey	-9.96447
▁çalıştır	-9.96456
amayacağı	-9.96481
▁300	-9.96498
▁Gö	-9.96533
▁Hasta	-9.96546
▁değeri	-9.96634
▁işletme	-9.96655
▁bulabil	-9.96688
▁bağımlı	-9.9674
▁varlık	-9.96762
▁yaşıyoruz	-9.96798
▁tasarımı	-9.96805
▁diyoruz	-9.96817
▁olabil	-9.96823
uğu	-9.96892
▁kesi	-9.96905
form	-9.97028
likten	-9.97044
▁gelmiş	-9.97115
▁marka	-9.97169
▁Onların	-9.97246
▁artır	-9.97259
▁dava	-9.9726
▁çıkarmak	-9.97265
▁hareketi	-9.97331
yalım	-9.97365
▁kriz	-9.97371
▁şekillendir	-9.97411
▁yapacağım	-9.97453
▁daire	-9.97607
duğunu	-9.97749
abilen	-9.97883
amazsınız	-9.97948
▁arttır	-9.97949
▁anlaşma	-9.98008
bb	-9.98023
ja	-9.98059
▁komik	-9.98182
▁sembol	-9.98192
▁düştü	-9.98237
▁etkin	-9.98244
▁kullandığımız	-9.98261
▁anlamıyla	-9.98333
ümü	-9.98401
gı	-9.98408
▁başlat	-9.98428
lenen	-9.98474
50	-9.98487
▁grubu	-9.98514
▁şimdiye	-9.98531
▁teknolojiyi	-9.9854
▁vermeye	-9.98561
▁hakları	-9.98563
▁bol	-9.98605
▁ulus	-9.98659
▁Sanat	-9.98691
▁sandalye	-9.98706
▁ülkelerin	-9.98736
▁Irak	-9.98756
ımda	-9.98786
▁edebiliriz	-9.98808
▁arkadaşı	-9.98831
▁yay	-9.98856
ucu	-9.98912
▁etrafı	-9.98966
▁musun	-9.98983
▁robotlar	-9.98991
▁başladığı	-9.99022
▁eğilim	-9.99029
▁ün	-9.99047
▁çök	-9.99074
▁şeydi	-9.99131
yacak	-9.99139
▁düzenleme	-9.99146
▁yapılması	-9.99171
▁gelişim	-9.99214
▁rapor	-9.99235
▁arzu	-9.99251
unuz	-9.99268
dınız	-9.99309
▁yapabileceği	-9.99325
▁kişiye	-9.99326
▁kendileri	-9.99538
▁bü	-9.99541
imde	-9.99599
▁Sol	-9.99625
▁İn	-9.99627
▁savunma	-9.99653
▁misin	-9.99662
▁gittikç	-9.99704
▁dürüst	-9.99768
▁sermaye	-9.99768
▁ağacı	-9.99772
▁karşılık	-9.99938
▁performans	-10.0006
▁kor	-10.0009
▁yönde	-10.0013
▁Tekrar	-10.003
▁şehirler	-10.003
▁kıta	-10.003
▁çalıştığı	-10.0032
▁ihtimalle	-10.0037
▁gösterir	-10.0037
▁tuvalet	-10.004
▁görüyorum	-10.0043
▁sorunun	-10.0059
▁haklı	-10.0061
▁aktar	-10.0067
▁dolarlık	-10.0073
▁soy	-10.0074
lerse	-10.0079
▁ücret	-10.0081
▁ekibi	-10.0084
▁karışık	-10.0086
▁degil	-10.0088
acağınız	-10.0092
▁ham	-10.0095
acağımız	-10.0096
▁ürünleri	-10.0096
▁yerden	-10.0102
lenmesi	-10.0102
abilirler	-10.0106
rma	-10.0107
▁toplay	-10.0124
▁ser	-10.0125
▁gruplar	-10.0126
kür	-10.0129
▁denen	-10.0134
▁bulmaya	-10.0134
▁balina	-10.0138
▁yönetici	-10.0141
layarak	-10.0146
ven	-10.0148
▁düşünüyoruz	-10.0153
▁bayan	-10.0155
yorsunuz	-10.0159
▁Hava	-10.0162
▁katman	-10.0166
▁koyma	-10.0166
▁yarar	-10.017
▁değişiklik	-10.0171
▁parçalar	-10.0171
▁özelliği	-10.0177
▁kıs	-10.0182
▁kurallar	-10.0183
▁hissediyor	-10.019
▁mağara	-10.0192
▁Bilgisayar	-10.0192
▁berbat	-10.0192
▁serbest	-10.0192
▁yavru	-10.0192
▁kullanan	-10.0194
iyordum	-10.0195
▁işim	-10.0198
▁kayıp	-10.0202
▁oğlu	-10.0206
▁yeme	-10.0206
ırdı	-10.0212
▁sok	-10.0217
▁içi	-10.0218
▁kazandı	-10.0227
▁bekleme	-10.023
▁seri	-10.0231
▁banka	-10.0236
▁atık	-10.0243
▁konum	-10.0246
▁pencere	-10.0247
▁şefkat	-10.0247
▁oluşturma	-10.0253
▁2000	-10.0264
▁deneyimi	-10.0268
▁başlangıç	-10.0276
▁engelli	-10.0282
▁ip	-10.0287
▁izleme	-10.0289
yecek	-10.029
malısınız	-10.0295
▁kuralları	-10.0295
▁hukuk	-10.0302
mıyoruz	-10.0303
▁Sağ	-10.0303
▁ordu	-10.0304
▁atom	-10.0304
▁Geri	-10.0305
▁balon	-10.0309
▁şe	-10.031
hri	-10.0311
▁evrensel	-10.0311
▁görüşme	-10.0313
▁ayar	-10.0317
▁edersiniz	-10.0317
we	-10.032
▁sevme	-10.0321
▁olamaz	-10.0324
▁bilgileri	-10.0333
▁yakında	-10.0333
▁isterse	-10.0337
▁gittiği	-10.0338
miyoruz	-10.0338
▁ulaşmak	-10.0344
şim	-10.0346
▁söylediğim	-10.0346
▁niye	-10.0347
ladığı	-10.0356
çüncü	-10.0356
▁İsrail	-10.0357
▁dizayn	-10.0357
▁kulağ	-10.036
▁yerlere	-10.0365
rseniz	-10.0365
▁Hayatı	-10.0378
▁deniyor	-10.0381
larımızda	-10.0384
▁hikayesi	-10.0386
▁üretme	-10.0393
▁kendinizi	-10.0398
▁olacaktı	-10.0403
▁günümüzde	-10.0403
▁çağ	-10.0405
▁ihtiyacım	-10.0408
▁elinde	-10.0412
▁rekabet	-10.0413
▁kampanya	-10.0413
▁çizim	-10.0421
▁tanımlama	-10.0421
ğında	-10.0421
▁uça	-10.0424
▁eşi	-10.043
▁farkı	-10.0446
▁ihtiyaçları	-10.0449
▁kedi	-10.045
▁cesaret	-10.045
▁miydi	-10.0455
▁düşman	-10.0459
▁yöntemi	-10.0459
▁ticari	-10.0469
▁başlangıcı	-10.0469
▁çalıştığını	-10.0469
▁beklenti	-10.0469
▁es	-10.047
▁Biliyorsunuz	-10.0472
▁kurmak	-10.0485
▁sert	-10.0489
▁hastalıklar	-10.0496
▁düşür	-10.0496
▁bildiği	-10.0498
▁şehri	-10.05
▁lise	-10.0503
▁oyna	-10.0504
gar	-10.0507
▁Wal	-10.0516
▁gözüküyor	-10.0525
▁mercan	-10.0525
▁Yaklaşı	-10.0525
meden	-10.053
▁görüşü	-10.0546
▁In	-10.0548
▁kapsa	-10.0554
▁benden	-10.0554
▁krizi	-10.0556
▁kimya	-10.0559
amayacak	-10.0564
▁kıyasla	-10.0566
▁uyu	-10.0568
▁bireyler	-10.057
▁fizik	-10.0574
V	-10.0574
▁zevk	-10.0581
▁tavsiye	-10.0581
▁görünür	-10.0585
▁ulusal	-10.0589
▁dünyasında	-10.059
▁istiyorsanız	-10.059
lerindeki	-10.0604
▁anlatıyor	-10.0605
▁Kal	-10.0606
▁Sağlık	-10.0607
abileceğiniz	-10.0617
dunuz	-10.0619
▁gibiydi	-10.062
▁Hayat	-10.0621
▁sistemler	-10.0624
▁kesim	-10.0628
▁karşıya	-10.0629
▁Brezilya	-10.0638
▁memnun	-10.0638
▁Sana	-10.0641
▁İkincisi	-10.0642
▁um	-10.0642
▁dayalı	-10.0646
▁çalışmalar	-10.0647
▁askeri	-10.0651
duğumuz	-10.0658
▁yerini	-10.0669
ecektir	-10.067
▁hassas	-10.0681
▁yaptır	-10.0682
▁alabilir	-10.069
▁domuz	-10.0691
▁farkın	-10.0693
▁bırakma	-10.0695
▁gürültü	-10.0695
▁oksijen	-10.0695
▁sivil	-10.0695
▁Araştırma	-10.0695
▁edebilme	-10.0699
▁merkezinde	-10.0702
▁edebil	-10.0702
▁döner	-10.0703
▁tartış	-10.0714
▁V	-10.0715
▁şanslı	-10.0715
▁yapabil	-10.0726
▁Sorun	-10.0726
diğinizde	-10.0726
▁edebiliyor	-10.0729
▁eser	-10.0732
▁duyuyor	-10.0736
▁fikrini	-10.0748
▁Facebook	-10.0753
▁gönüllü	-10.0753
▁kredi	-10.0753
▁talep	-10.0753
▁198	-10.0753
▁sıvı	-10.0754
▁tanrı	-10.0755
▁yarattığı	-10.0763
▁olmaması	-10.0764
▁Kimse	-10.0764
etti	-10.0775
▁yetenek	-10.0775
▁kuruluş	-10.0789
▁uygula	-10.0791
▁Pro	-10.0792
▁ettiğini	-10.0803
▁sistemini	-10.0811
▁ibaret	-10.0811
▁peki	-10.0811
▁alkış	-10.0811
▁bölgede	-10.0812
▁değişti	-10.0813
▁vücudu	-10.0818
▁kimin	-10.0819
▁mini	-10.0822
▁anlatı	-10.0824
▁eminim	-10.0829
▁yürüy	-10.0838
▁dişi	-10.0838
▁edilebilir	-10.084
▁yazık	-10.0841
aj	-10.0843
▁herkese	-10.0844
lmaz	-10.0845
▁sahiptir	-10.0854
▁görü	-10.0857
▁kelimeler	-10.0859
istik	-10.086
▁kok	-10.0867
▁kahve	-10.0869
▁kullanım	-10.0869
▁kütle	-10.087
▁bileşen	-10.0871
▁mekan	-10.0872
▁elektronik	-10.0872
ore	-10.0872
▁toplumsal	-10.0885
▁tarzı	-10.0887
▁böl	-10.0888
liğinde	-10.0889
▁yoluyla	-10.0901
▁türden	-10.0901
▁dönemde	-10.0904
▁Gu	-10.0909
ımızın	-10.091
▁yapabiliyor	-10.0922
▁AIDS	-10.0927
▁bebeği	-10.0927
▁acil	-10.0931
▁durumunda	-10.0934
▁gördüğüm	-10.0937
▁endişelen	-10.0954
lüyor	-10.096
▁Şunu	-10.096
▁dönüştü	-10.0962
▁Pat	-10.0963
▁oluşturan	-10.0964
istan	-10.0974
▁olmanız	-10.0975
▁yaşadı	-10.0978
▁hap	-10.0982
▁hafıza	-10.0986
▁kıyafet	-10.0986
▁müdahale	-10.0986
▁bütçe	-10.0986
▁fonksiyon	-10.0986
ksiyon	-10.0987
▁müze	-10.0987
ysanız	-10.099
▁boşluk	-10.0991
▁fo	-10.0996
▁gelebilir	-10.1004
▁kadının	-10.1015
▁yapılma	-10.1022
ras	-10.1025
▁eğit	-10.1026
▁bilinç	-10.1034
▁hissettir	-10.1043
▁etmemiz	-10.1045
▁mantar	-10.1045
▁Uzun	-10.1045
abileceğini	-10.1046
▁çağır	-10.1048
▁çoğunluğu	-10.1054
uru	-10.1055
▁çıkış	-10.1055
muzu	-10.1057
▁bahsediyor	-10.1061
▁Almanya	-10.1061
▁Altı	-10.1062
▁Gün	-10.1071
onu	-10.1072
▁nadir	-10.1076
▁tanıma	-10.1077
▁tas	-10.1078
sıdır	-10.1081
▁paylaşma	-10.1084
▁takdir	-10.1093
▁uzaklaş	-10.1102
▁oranda	-10.1104
▁Ju	-10.1104
▁materyal	-10.1105
▁koyuyor	-10.1112
▁Japonya	-10.1119
gün	-10.112
▁durumun	-10.112
▁durdur	-10.1121
▁tutma	-10.1121
▁Pek	-10.1124
▁başlattı	-10.1128
▁fayda	-10.1129
meleri	-10.1134
▁başlayan	-10.1142
▁Kadın	-10.1145
lması	-10.1152
▁çıkı	-10.1153
▁manzara	-10.1165
▁istatistik	-10.1165
▁tanış	-10.1168
mızdan	-10.1174
▁Yaşam	-10.1183
▁yaşamın	-10.1187
▁kendisini	-10.1199
▁bilgisayarlar	-10.12
▁ulaştı	-10.1202
▁Annem	-10.1203
landığı	-10.1204
▁alarak	-10.1207
▁tamamı	-10.1209
ladığımız	-10.1209
▁oluşuyor	-10.1212
▁fırsatı	-10.1216
▁yetiş	-10.1218
▁tesis	-10.122
düm	-10.1221
▁özgü	-10.1221
▁trilyon	-10.1225
▁faktör	-10.1225
▁roman	-10.1227
irken	-10.1227
▁sıtma	-10.123
▁ilacı	-10.1232
▁edilmesi	-10.1232
▁Deniz	-10.1238
▁çalışması	-10.1238
▁Kenya	-10.1245
▁duru	-10.1252
▁diz	-10.1258
▁evin	-10.1266
▁tüket	-10.1271
▁lerde	-10.1273
▁dolara	-10.1277
▁doğdu	-10.1284
▁imza	-10.1286
▁deyişle	-10.1287
▁değerlendir	-10.1291
ildiği	-10.1302
▁etmiyor	-10.1307
umun	-10.1311
▁ederken	-10.1311
eceksiniz	-10.1312
▁yapmıyor	-10.1312
▁olduğunuzu	-10.1313
▁katılma	-10.1318
▁çocuklara	-10.1322
▁zamanlı	-10.1328
▁örnekler	-10.1331
▁gerekti	-10.1334
▁öğretti	-10.1336
▁alternatif	-10.1346
▁teşhis	-10.1346
▁yumurta	-10.1346
▁popüler	-10.1346
▁paket	-10.1347
▁tüketici	-10.1348
▁üzeri	-10.1349
▁Sizi	-10.135
▁uy	-10.1357
▁etmesi	-10.136
▁köle	-10.1362
▁bende	-10.1378
▁nedeniyle	-10.1379
abildi	-10.1384
▁yapabilecek	-10.1394
▁tren	-10.1398
▁finans	-10.1404
▁kalite	-10.1407
▁ekosistem	-10.1408
▁vakit	-10.1408
▁Yalnız	-10.1408
posta	-10.1413
▁ağı	-10.1413
▁baktığınızda	-10.1418
▁Ol	-10.142
kat	-10.1421
▁Har	-10.1429
▁isimli	-10.1437
▁mantık	-10.1439
▁ihtimali	-10.144
▁Soru	-10.1445
leyecek	-10.145
▁oluşturur	-10.1453
▁Dan	-10.1454
altı	-10.1462
leyebilir	-10.1467
▁anlatma	-10.1468
▁getiren	-10.1468
▁Mısır	-10.1469
▁Konuşma	-10.147
▁kültüre	-10.147
▁kurul	-10.1471
▁konuşmaya	-10.1475
▁İran	-10.1475
▁Ulusa	-10.1475
▁yazdı	-10.1477
▁alalım	-10.1484
▁yaptıklarını	-10.1485
▁ahlaki	-10.1485
▁çağrı	-10.1487
▁söylüyorum	-10.1491
▁tümör	-10.1493
▁takımı	-10.1494
▁olmama	-10.1497
▁biçimi	-10.1505
larımıza	-10.151
lerimizde	-10.1511
ınızı	-10.1529
▁zemin	-10.1532
▁harca	-10.1535
▁hükümeti	-10.1535
▁bitkiler	-10.1553
▁kişiyi	-10.1554
▁unutma	-10.1558
▁Dedi	-10.156
ecekler	-10.157
dışı	-10.1571
▁insanlık	-10.1571
▁okulda	-10.1578
▁tuz	-10.158
▁baktı	-10.1581
▁saçma	-10.1583
ılabilir	-10.1587
▁profesyonel	-10.1594
▁çerçeve	-10.1594
▁beğen	-10.1594
▁Özellikle	-10.1597
▁aldığı	-10.1599
▁çalıştı	-10.1607
▁bizimle	-10.1607
▁çözü	-10.1608
▁yalan	-10.161
▁anlamlı	-10.1613
▁köşe	-10.1628
▁karşılaştı	-10.1646
▁getirir	-10.1649
▁yöne	-10.1653
▁oluş	-10.1654
▁Dünyada	-10.1657
▁heykel	-10.1657
▁platform	-10.1657
▁rastgele	-10.1657
▁Genç	-10.1657
▁Kanada	-10.1658
mizden	-10.1658
▁devasa	-10.166
▁oturuyor	-10.166
kâr	-10.166
▁hissediyorum	-10.1667
▁dol	-10.1671
▁imkanı	-10.1671
▁olası	-10.1672
▁kalmış	-10.1673
ebileceğiniz	-10.1675
▁çiftçi	-10.1676
▁kızı	-10.1682
▁tel	-10.169
▁ilaçlar	-10.1693
▁sonrası	-10.1695
çu	-10.1696
▁baz	-10.1705
▁eksik	-10.1706
▁verdiler	-10.1709
▁aklın	-10.1711
leştirmek	-10.1711
▁şehirde	-10.1718
▁radikal	-10.172
▁klinik	-10.172
▁çevresinde	-10.1723
▁ebeveyn	-10.1724
▁finansal	-10.1724
▁Hey	-10.1726
▁mezun	-10.1728
▁hepiniz	-10.1729
▁boyutu	-10.1733
liyiz	-10.1734
▁yönelik	-10.1736
▁koruy	-10.1737
▁ederiz	-10.1741
▁kaldırı	-10.1743
▁hi	-10.175
▁bakan	-10.1757
▁400	-10.1766
▁bahsetti	-10.1766
▁yolda	-10.1772
▁sürdü	-10.1774
eceğiniz	-10.1778
▁problemleri	-10.1779
▁özellikleri	-10.1783
▁Küresel	-10.1784
▁tabaka	-10.1784
▁yörünge	-10.1784
▁güvenilir	-10.1787
▁organizma	-10.1788
▁geliyordu	-10.1788
▁milyarlarca	-10.1788
▁tutmak	-10.179
▁terim	-10.1791
▁maden	-10.1793
▁Neyse	-10.1794
lıkta	-10.1794
▁konuya	-10.1795
▁Öncelikle	-10.1798
▁küme	-10.1803
▁öğrencileri	-10.1806
düğünü	-10.1807
▁asi	-10.1808
▁dünyası	-10.1815
▁önemi	-10.1823
▁zorundaydı	-10.1824
▁koş	-10.1827
müştü	-10.183
▁Doğa	-10.1835
▁odada	-10.1836
▁sonucunda	-10.1838
▁Değil	-10.1848
▁tarif	-10.1848
▁rastla	-10.1849
▁yaşadığımız	-10.1849
▁Yakın	-10.1857
▁uyku	-10.1857
▁vergi	-10.1864
▁çekmek	-10.1864
▁resimler	-10.1867
▁Biri	-10.187
▁bilimi	-10.1874
▁çözümler	-10.1875
▁Gal	-10.1882
▁internette	-10.1884
ğümüz	-10.1886
▁çözmek	-10.1896
▁sınırları	-10.1899
▁dönüyor	-10.1899
▁gönderme	-10.1899
▁sorar	-10.1902
▁faaliyet	-10.1913
▁karikatür	-10.1913
▁fosil	-10.1913
▁çekiyor	-10.1913
▁kurban	-10.1914
▁diyelim	-10.1914
▁üretimi	-10.1918
▁sürede	-10.1919
▁Bizler	-10.1919
▁baktığımızda	-10.1922
▁götürdü	-10.1923
▁Genel	-10.1925
▁içeren	-10.1932
▁bilin	-10.1932
▁hâle	-10.1936
bilirsin	-10.1936
▁fırla	-10.1938
▁sağlam	-10.1939
ıldığı	-10.194
▁kilit	-10.1941
▁biliyordu	-10.1945
▁öngörü	-10.1953
▁şişe	-10.1953
olog	-10.1957
▁çözümü	-10.1957
▁bah	-10.1959
for	-10.196
0.000	-10.1962
▁yarattı	-10.1965
ldukça	-10.1966
▁kavra	-10.1967
▁atmosfer	-10.1971
▁dediğim	-10.1973
▁saha	-10.1979
▁zihinsel	-10.1982
▁onay	-10.1984
▁yapama	-10.1984
▁parayı	-10.1986
▁heyecanlı	-10.1988
▁yatak	-10.1988
▁anladım	-10.1993
▁seviyor	-10.1993
melen	-10.1997
▁çıkarma	-10.2001
▁yönetme	-10.2003
▁üçte	-10.2008
▁içerik	-10.2012
bilimci	-10.2014
cılık	-10.2017
ang	-10.2025
▁sınırlı	-10.2027
▁Adı	-10.2029
▁verdiğimiz	-10.203
▁diyorlar	-10.2033
▁birbirlerin	-10.2035
▁bildiğiniz	-10.2036
▁bal	-10.2038
▁psikoloji	-10.2043
▁vahşi	-10.2043
▁öfke	-10.2043
▁vakti	-10.2043
▁çöl	-10.2043
▁Fransız	-10.2044
▁düşünül	-10.2046
▁tatlı	-10.2046
▁yenilikçi	-10.2047
▁ekip	-10.2053
miyordu	-10.2054
▁yıllarda	-10.2055
▁bilmiyoruz	-10.2055
▁arttı	-10.2058
▁yaşamı	-10.2067
▁çağı	-10.2073
▁yığın	-10.2074
▁haberler	-10.2084
▁maliyeti	-10.2086
jen	-10.2087
▁giriyor	-10.209
mezsiniz	-10.2106
▁avantaj	-10.2109
▁seyirci	-10.2109
▁rengi	-10.211
▁teklif	-10.211
İ	-10.2117
▁havada	-10.2118
▁kaydı	-10.2124
ğiniz	-10.2128
▁Ana	-10.2128
▁Para	-10.2136
▁seviyede	-10.214
ram	-10.2141
▁ah	-10.2144
▁sebeple	-10.2145
▁bunlara	-10.2151
▁küre	-10.2151
▁anlıyor	-10.2152
abiliyoruz	-10.2158
▁kazandır	-10.2163
▁kurdu	-10.2166
▁Kesinlikle	-10.2175
▁civarında	-10.2175
▁hayran	-10.2175
▁çıkarıyor	-10.2197
▁varlığı	-10.2203
▁olmuştur	-10.2205
▁hisse	-10.2205
▁akım	-10.2211
▁düzenli	-10.2211
▁yapılıyor	-10.2212
▁değiştirebilir	-10.2224
▁olabilirdi	-10.2225
▁grubun	-10.2226
▁döngü	-10.2229
▁Beş	-10.2232
▁makinesi	-10.2232
▁arıyor	-10.2232
▁Twitt	-10.2242
▁Uzay	-10.2242
▁olgu	-10.2245
▁Ön	-10.2248
▁yapabileceğimiz	-10.2256
▁çalışırken	-10.2257
▁alıcı	-10.2265
dığınızda	-10.2279
ero	-10.2281
▁satış	-10.2285
▁almış	-10.2286
▁koca	-10.2287
▁yapması	-10.2298
▁Oyun	-10.2299
▁bahsettiğim	-10.2304
ebildiği	-10.2304
▁kapasite	-10.2305
▁özgürlük	-10.231
▁edeceği	-10.2311
▁hastalıkları	-10.2312
▁yo	-10.2314
▁bağır	-10.2314
▁çektiği	-10.2316
▁düşündüğünüz	-10.2316
▁35	-10.2317
▁çoğunuz	-10.2319
▁yürüme	-10.2328
log	-10.2329
▁bazılarını	-10.2329
▁istedikleri	-10.2333
▁başlamak	-10.2334
▁söyleyen	-10.2339
▁Tu	-10.2339
ılacak	-10.2346
▁alıyoruz	-10.235
▁sö	-10.2357
ıldığında	-10.2366
sün	-10.2369
▁Fo	-10.2375
▁mülteci	-10.2376
▁sıkıntı	-10.2376
▁Eğitim	-10.2376
▁inceledi	-10.2377
▁kocaman	-10.2379
▁Geliş	-10.238
▁Paul	-10.2381
▁yaşındayken	-10.2382
20	-10.2386
▁gelince	-10.239
uantum	-10.2391
▁basitçe	-10.2393
▁teknolojileri	-10.2394
lerimize	-10.2395
▁gazeteci	-10.2402
▁yüzyılın	-10.2404
▁zordur	-10.2417
▁vuru	-10.2419
▁Babam	-10.2426
▁yiy	-10.2427
▁zorla	-10.2429
▁kendiniz	-10.2436
▁üstün	-10.2438
▁birçoğu	-10.2444
▁Yer	-10.2444
▁düzgün	-10.2445
▁etkileyici	-10.2447
▁yolculuğu	-10.2448
▁geçirme	-10.2449
▁anlatacağım	-10.2449
▁Farklı	-10.2461
▁fon	-10.2465
▁etmekte	-10.2472
lemeye	-10.2473
▁eğri	-10.2479
kul	-10.249
▁ahlak	-10.2496
▁düşme	-10.2498
▁hastalığın	-10.2498
▁sever	-10.2501
▁basın	-10.2504
▁algoritma	-10.2513
▁cesur	-10.2513
▁tohum	-10.2513
▁çatı	-10.2514
▁blog	-10.2514
▁vereceğim	-10.2514
▁olmuyor	-10.2515
▁geliş	-10.2516
▁kullanmaya	-10.2528
▁bölün	-10.2535
▁fikrin	-10.2536
▁Sal	-10.2538
▁bulabilir	-10.254
▁olmam	-10.2544
▁hayatlarını	-10.2547
▁zinciri	-10.2548
▁sunum	-10.2549
▁düşüş	-10.255
▁hastalar	-10.255
▁To	-10.2558
▁durdu	-10.2558
meyeceği	-10.2561
▁çeken	-10.2565
▁oluşturu	-10.2574
▁arta	-10.2576
▁Umarı	-10.2582
▁Proje	-10.2582
▁Ek	-10.2583
▁Basit	-10.2585
acaksınız	-10.2589
▁ailem	-10.2594
▁koloni	-10.2594
luğ	-10.2597
▁metal	-10.2598
▁buzul	-10.2599
▁Konu	-10.2602
▁sıklıkla	-10.2606
▁sanatı	-10.2606
▁soyut	-10.2607
aklı	-10.2615
▁hayvanların	-10.2617
▁keşfetme	-10.263
▁ölçüm	-10.2632
mekten	-10.2633
▁kontrolü	-10.2636
▁adamlar	-10.2639
▁kitabın	-10.2646
▁Biliyor	-10.2647
▁belirsiz	-10.2647
lendiği	-10.2649
▁depresyon	-10.2651
▁felaket	-10.2651
▁merhamet	-10.2651
▁sahte	-10.2651
▁ziyade	-10.2651
▁kutsal	-10.2651
gram	-10.2653
▁dinleme	-10.2655
▁başlayalım	-10.2655
▁bilimin	-10.2659
mizdeki	-10.2661
▁istek	-10.2667
▁sorumluluk	-10.2668
Y	-10.2669
▁ilgisi	-10.2674
▁başlıyoruz	-10.2677
▁ağrı	-10.2679
nizle	-10.2681
▁yapıyordu	-10.2685
▁kayded	-10.2688
▁ederler	-10.2688
▁genom	-10.2689
▁zar	-10.2692
▁çalışıyorlar	-10.2698
▁Ti	-10.2704
▁çözme	-10.2705
▁Savaşı	-10.2716
▁kişilik	-10.272
▁Meksika	-10.2721
▁Müslüman	-10.2721
▁tahta	-10.2721
▁öğle	-10.2721
▁esnek	-10.2721
▁miktarı	-10.2727
▁falan	-10.2729
▁duydum	-10.2729
▁söyleyebilirim	-10.2729
▁öldürme	-10.273
▁canlandır	-10.2738
org	-10.2739
▁fikrim	-10.2742
lup	-10.2744
▁geliştirmek	-10.2746
▁Bill	-10.2759
▁duran	-10.2764
ınıza	-10.2773
▁zamanında	-10.2775
▁Açık	-10.279
▁örgüt	-10.279
▁aracılığıyla	-10.2792
▁İslam	-10.2792
▁idare	-10.2792
▁Toplum	-10.2792
▁hasar	-10.2792
▁zorlu	-10.2794
▁oyuncak	-10.2796
▁beslenme	-10.28
▁uçur	-10.28
▁Jam	-10.2803
▁yarışma	-10.2804
▁söyleyebilir	-10.2814
▁saatte	-10.2819
▁No	-10.2822
▁çıktığı	-10.2829
▁nehir	-10.2829
▁150	-10.2829
▁olaylar	-10.283
▁neyi	-10.2839
▁böcek	-10.2841
meyeceğim	-10.2841
▁Ken	-10.2843
imizde	-10.2843
▁değişiklikler	-10.2844
▁biriydi	-10.285
▁Muhte	-10.2862
▁Şehir	-10.2862
lduğu	-10.2871
▁bahsedeceğim	-10.2873
▁denilen	-10.2874
▁yarış	-10.2877
▁yolunda	-10.288
▁yoksul	-10.2882
▁dönüştürme	-10.2886
▁bakteriler	-10.2891
mıyordu	-10.2901
▁ürünler	-10.2915
▁hızı	-10.2921
▁etrafta	-10.2924
▁zamanla	-10.2927
▁yerleri	-10.2932
▁otomatik	-10.2934
▁pozisyon	-10.2934
▁uyuşturucu	-10.2934
▁George	-10.2934
▁zirve	-10.2934
▁kritik	-10.2934
▁Steve	-10.2934
▁görünüş	-10.2936
▁Savaş	-10.294
düşünebilirsiniz	-10.294
▁değişken	-10.2947
▁süt	-10.2948
lıyordu	-10.2949
▁sıkıcı	-10.2951
▁taban	-10.2954
▁inancı	-10.2954
▁politikacı	-10.2962
▁geçmişte	-10.2962
▁koşu	-10.2964
ebileceğini	-10.2968
▁ırk	-10.2975
▁olacağız	-10.2976
▁taşıyor	-10.2978
maktır	-10.2981
▁soruyor	-10.2983
▁problemler	-10.2984
şık	-10.2986
▁yuva	-10.2991
▁biliyordum	-10.3006
▁Nijerya	-10.3006
▁olumlu	-10.3006
▁iyimser	-10.3006
▁resme	-10.3006
▁yapmanız	-10.3009
▁cihazı	-10.3009
▁hareketleri	-10.301
nter	-10.3014
▁Kendisi	-10.3015
▁inanıyor	-10.3021
▁Mc	-10.3022
cağı	-10.3024
lme	-10.3029
▁tersine	-10.3035
▁öğretme	-10.3041
▁konuşmayı	-10.3043
▁kurumlar	-10.3051
▁üretmek	-10.3054
▁kızlar	-10.3058
▁Is	-10.3065
lıyorum	-10.3067
▁konuştu	-10.3071
▁nihayet	-10.3078
▁simetri	-10.3078
▁meslek	-10.3078
▁çoğal	-10.3078
▁şok	-10.3078
▁blok	-10.3078
▁kaybetme	-10.3079
▁hesab	-10.3079
▁ayında	-10.3083
▁göç	-10.3085
▁sürücü	-10.3087
▁istemiyor	-10.3088
▁sakin	-10.3088
▁ısınma	-10.309
▁izliyor	-10.3093
gra	-10.3094
▁yaşı	-10.3096
▁genişlet	-10.3098
▁duygusu	-10.3102
▁Hala	-10.3106
layabiliriz	-10.3111
umuzun	-10.3118
▁sormak	-10.3134
▁yaşın	-10.3137
▁babası	-10.3139
▁Rus	-10.3139
▁çeşitliliği	-10.3147
biriyle	-10.3151
▁Eylül	-10.3151
▁avukat	-10.3151
▁demokratik	-10.3151
▁kaynaklar	-10.3153
▁işleme	-10.3155
▁yapılar	-10.3157
▁yazdım	-10.3158
▁gezegende	-10.3159
▁Araba	-10.316
▁kanat	-10.3161
▁dini	-10.3165
iriz	-10.3171
▁ucu	-10.3184
▁edebileceği	-10.3185
▁içeriği	-10.3188
ografi	-10.3189
▁elektro	-10.3194
leyerek	-10.3196
▁45	-10.3204
▁altındaki	-10.3215
▁etkileri	-10.3216
▁attı	-10.3221
▁köprü	-10.3225
▁trafik	-10.3225
▁bireysel	-10.3225
▁baktım	-10.3226
▁patent	-10.3226
▁izledi	-10.3226
▁arayüz	-10.3227
▁nesli	-10.3227
▁mobil	-10.3228
▁gelişimi	-10.3231
▁organik	-10.3235
▁Kore	-10.3238
▁dilim	-10.3242
▁sunuyor	-10.3248
▁taşıy	-10.3251
▁alanın	-10.326
▁20.	-10.3265
gal	-10.3267
lıyorlar	-10.3272
▁geçirdim	-10.3277
▁moda	-10.328
▁geçiriyor	-10.3281
acağımızı	-10.3285
ligi	-10.3289
▁olmasa	-10.329
ttiği	-10.3295
▁Sosyal	-10.3299
▁korkutucu	-10.3299
▁iğne	-10.3299
▁polen	-10.3299
▁ideal	-10.3299
▁sıradışı	-10.3301
ebilirler	-10.3301
▁özet	-10.3304
lamaz	-10.3305
▁uzat	-10.3305
▁Bilgi	-10.3308
▁isteği	-10.3314
▁ekmek	-10.3316
▁aylık	-10.3323
▁hissettim	-10.3327
▁yaşar	-10.3327
▁işlev	-10.3332
▁Yol	-10.3332
les	-10.3343
▁buluyor	-10.3353
▁Bra	-10.3356
eceğimiz	-10.3357
▁damar	-10.3362
▁görünmez	-10.3364
▁öne	-10.3373
▁slayt	-10.3373
▁197	-10.3374
▁olmasıdır	-10.3375
▁koymak	-10.3379
▁istemiyorum	-10.3383
▁eğlence	-10.3384
▁kullanabiliriz	-10.3391
don	-10.3394
▁dusun	-10.3397
▁renkli	-10.3397
▁Ber	-10.3399
▁gerçekliği	-10.3399
▁projesi	-10.3404
▁artıyor	-10.3405
inizin	-10.3406
▁noktalar	-10.3409
sıydı	-10.3412
▁ikisini	-10.3424
▁oradaki	-10.3427
chi	-10.3431
▁hip	-10.3435
▁mar	-10.3436
▁soğu	-10.3438
ov	-10.344
▁alanlarda	-10.3442
▁söyledim	-10.3442
▁varsayım	-10.3444
▁teknolojisi	-10.3445
▁mor	-10.3447
▁Avustralya	-10.3449
▁Kaliforniya	-10.3449
▁hapishane	-10.3449
▁stres	-10.3449
▁organize	-10.3451
▁hamile	-10.3452
▁oranında	-10.3453
▁bilinci	-10.3456
ris	-10.3466
▁hikayesini	-10.3476
▁maru	-10.3478
▁Sev	-10.3482
▁liderlik	-10.3484
▁hisseder	-10.3502
▁geldim	-10.3504
▁sesini	-10.351
yüz	-10.3515
▁soruları	-10.3515
▁sırt	-10.3515
▁kullanılıyor	-10.3516
▁zorluk	-10.3522
▁hayret	-10.3524
▁İnanılmaz	-10.3524
▁dosya	-10.3525
▁kasaba	-10.3525
▁Neredeyse	-10.3525
▁nano	-10.3526
▁oturup	-10.3526
▁dakikada	-10.3533
mizle	-10.3536
▁planlama	-10.3541
▁görebil	-10.3542
▁testi	-10.3544
▁erkeklerin	-10.3547
▁gelmişti	-10.355
▁Kral	-10.3553
▁sistemimiz	-10.3553
U	-10.3554
▁kullanıyorlar	-10.3558
▁düzeyde	-10.356
▁başladığımız	-10.3561
▁yükselt	-10.3562
sındaki	-10.3562
▁kitapları	-10.3563
▁İşin	-10.3564
▁gelmek	-10.3568
ebildi	-10.3572
▁hizmeti	-10.3577
▁başkanı	-10.3579
▁ağzı	-10.3593
cilik	-10.3594
▁zihin	-10.3595
▁İsveç	-10.3601
▁Tasarım	-10.3601
▁borç	-10.3601
▁ad	-10.3601
▁Yunan	-10.3601
▁verebilir	-10.3604
▁ettikleri	-10.3605
▁bugünkü	-10.3607
▁Evren	-10.3607
▁vazgeç	-10.3607
▁yasak	-10.3608
▁aldığımız	-10.3615
▁hiçbiri	-10.3618
▁yürüyüş	-10.3621
▁yasal	-10.3624
▁düşen	-10.3629
▁değerlendirme	-10.3631
▁farkettim	-10.3645
▁Yıl	-10.365
▁sevdiği	-10.3651
▁nesneler	-10.3652
▁oynay	-10.3659
▁çeker	-10.3662
▁kurum	-10.3664
▁açma	-10.3665
▁kardeşim	-10.3674
▁getirdiği	-10.3677
▁Darwin	-10.3678
▁Herhangi	-10.3678
▁sohbet	-10.3678
▁kategori	-10.3678
▁umarım	-10.3678
▁hediye	-10.3678
▁görülen	-10.3678
▁operasyon	-10.3679
▁Per	-10.3685
▁fen	-10.3687
▁derdi	-10.3689
larımdan	-10.369
▁günlerde	-10.3695
▁gezegenin	-10.3698
▁şirketlerin	-10.37
inizde	-10.3701
▁ihtimal	-10.3705
▁ekley	-10.3708
zel	-10.371
▁kalın	-10.3711
▁destekleme	-10.3717
▁peşinde	-10.3718
▁alıntı	-10.3719
araya	-10.3721
▁koşullar	-10.3722
▁sağlayabilir	-10.3723
▁girer	-10.3726
▁tutuyor	-10.3735
▁Los	-10.3737
▁öldürül	-10.3738
,5	-10.3741
leştirilmiş	-10.3743
▁değiştiriyor	-10.3749
▁ortamda	-10.375
▁kabile	-10.3755
▁Hangi	-10.3756
▁konser	-10.3756
▁hakim	-10.3759
▁düzelt	-10.376
▁bağlantılı	-10.3761
amayız	-10.3761
▁Oh	-10.3763
▁saklan	-10.3763
▁çalışıyordu	-10.3767
▁ağırlığı	-10.3768
▁gri	-10.3775
▁faydalı	-10.3776
com	-10.3776
▁yolları	-10.3778
▁ölçekte	-10.3786
▁hızlandır	-10.3792
▁kariyer	-10.3794
▁ulaşım	-10.3794
▁hücresi	-10.3795
▁ölüyor	-10.3795
▁mesajı	-10.3802
Times	-10.3805
gre	-10.3812
▁görmez	-10.3817
▁avcı	-10.3832
▁dökü	-10.3833
▁Einstein	-10.3833
▁mektup	-10.3833
▁barındır	-10.3833
▁benzeyen	-10.3834
▁lisans	-10.3834
▁şaka	-10.3834
▁gördüğü	-10.3835
▁Cha	-10.3837
ıyorlardı	-10.3837
▁görebiliriz	-10.3838
▁gök	-10.3839
▁gelin	-10.384
▁göçmen	-10.3845
▁tarama	-10.3852
▁tersi	-10.3861
▁ardı	-10.3866
▁Hepiniz	-10.3868
▁süreçte	-10.3871
▁azaltma	-10.3876
▁anlayış	-10.3876
▁düşünüyordum	-10.3877
ımızdaki	-10.3887
▁kalır	-10.3888
▁Merkezi	-10.3888
▁ayakta	-10.3889
▁kutup	-10.3893
▁mühendislik	-10.3897
▁gidecek	-10.3898
.5	-10.3911
▁İtalya	-10.3912
▁harcıyor	-10.3912
▁sezgi	-10.3912
▁Arkadaş	-10.3912
▁elle	-10.3914
▁müdür	-10.3918
▁gezi	-10.3918
▁bulduğumuz	-10.3919
▁Sonuçta	-10.3924
▁tarihinde	-10.3929
▁özgürlüğü	-10.3936
▁ediyorsunuz	-10.3938
ceği	-10.3945
▁gökyüzü	-10.3954
▁siyahi	-10.3964
▁kitaplar	-10.3965
▁balıkları	-10.3968
▁temelde	-10.3968
larımın	-10.3969
▁geçmek	-10.3969
▁2.	-10.3976
▁uygulay	-10.3981
▁erişim	-10.3988
▁planı	-10.3989
▁meşgul	-10.3991
▁otobüs	-10.3991
▁dinamik	-10.3991
▁profesör	-10.3991
▁gövde	-10.3991
▁rüya	-10.3992
▁üreme	-10.3993
▁prensip	-10.3993
▁sahipti	-10.3996
▁üstesinde	-10.4001
▁malzemeler	-10.4003
▁sorgu	-10.401
▁Gene	-10.4011
▁söylediler	-10.4016
▁evrende	-10.4017
lüğün	-10.403
▁varsay	-10.4033
▁21	-10.4034
uşu	-10.404
▁halkın	-10.4041
▁kalem	-10.4041
miyorlar	-10.4052
▁çekildi	-10.4054
lanabilir	-10.4055
▁tutun	-10.4064
▁koydu	-10.4064
▁değiştiren	-10.4064
▁Alman	-10.4065
▁Ekonomi	-10.4071
▁vizyon	-10.4071
▁Şirket	-10.4071
ümüzü	-10.4072
cisi	-10.4072
▁düşüyor	-10.4072
▁çoktan	-10.4076
▁tasarlanmış	-10.4077
▁kırsal	-10.4085
iyeti	-10.4087
▁yaratır	-10.4087
▁bırakıyor	-10.4093
▁üretil	-10.4099
▁çıkmış	-10.4101
▁istemez	-10.4102
▁şiş	-10.4102
▁tav	-10.4105
▁yaratan	-10.4106
dığımızda	-10.4108
▁kolu	-10.411
▁Baba	-10.4113
▁şirketleri	-10.4126
▁ağaçlar	-10.4128
▁köken	-10.4128
üstü	-10.4129
▁görmüş	-10.413
▁75	-10.4132
▁fikirlerin	-10.4132
▁ağaçları	-10.4136
▁kişilerin	-10.4139
▁kirli	-10.414
▁makineler	-10.4142
▁yuvarla	-10.4142
▁Fark	-10.4144
▁kayna	-10.4145
▁şeffaf	-10.4152
▁çanta	-10.4152
▁kamyon	-10.4152
manyetik	-10.4152
▁Sistem	-10.4152
▁kaybı	-10.4153
▁denklem	-10.4154
▁mekanik	-10.4158
▁savaşı	-10.4158
▁ucunda	-10.4158
▁yapalım	-10.4162
▁aklınız	-10.4162
▁21.	-10.4163
▁önde	-10.4164
▁aldığım	-10.4166
▁hayatım	-10.4169
mışlardı	-10.417
▁yakalama	-10.4175
▁Kara	-10.4178
▁bacak	-10.4182
▁yüzeyi	-10.4185
▁çabuk	-10.4198
▁kahkahalar	-10.4199
▁ilişkiler	-10.4217
▁görevli	-10.4217
▁şeylerle	-10.4224
▁bölgesinde	-10.4226
baba	-10.4228
▁öğrendiğim	-10.423
▁dükkan	-10.4233
▁mucize	-10.4233
▁edelim	-10.4233
▁İlki	-10.4238
▁kurtarma	-10.4244
▁vücudun	-10.4244
mıyorlar	-10.4245
▁bahsediyorum	-10.4245
▁eğlen	-10.4246
▁yaratıklar	-10.425
qu	-10.4252
▁uyarı	-10.4254
▁oluşur	-10.4255
▁sürüyor	-10.4264
▁ticaret	-10.4268
leşir	-10.427
▁edeceğim	-10.4276
▁kalmak	-10.4284
▁22	-10.4287
PS	-10.4298
▁Beyin	-10.43
▁Richard	-10.4315
▁alışveriş	-10.4315
▁aydınlat	-10.4315
▁mahkum	-10.4315
▁masraf	-10.4315
▁meyve	-10.4315
▁Günümüzde	-10.4315
▁dayanıklı	-10.4315
▁bedava	-10.4315
▁gölge	-10.4317
▁dolayısıyla	-10.4321
▁bahsetme	-10.4325
▁şekilleri	-10.4327
▁tatil	-10.4328
dığımda	-10.4332
▁çalışarak	-10.4341
▁konuşacağım	-10.4346
▁Eş	-10.435
▁eseri	-10.4352
▁sinek	-10.4353
▁deneyi	-10.4353
▁güvenliği	-10.436
▁topluluğu	-10.4361
▁getiril	-10.4367
▁aday	-10.4372
▁binalar	-10.4373
▁yakalay	-10.4389
▁kültürü	-10.4394
▁Yüksek	-10.4398
▁favori	-10.4398
▁pozitif	-10.4398
▁maaş	-10.4398
▁Anders	-10.4401
▁usta	-10.4405
▁duyarlı	-10.4405
▁üste	-10.4406
▁ayrıldı	-10.4409
▁Gar	-10.4409
▁seçimler	-10.442
▁şurada	-10.442
▁olasılığı	-10.4423
için	-10.4424
▁söyledikleri	-10.4425
ımızda	-10.4426
▁utan	-10.4432
▁haz	-10.4434
kinden	-10.4434
▁Biliyoru	-10.4438
▁çevirme	-10.4442
müyor	-10.4446
▁diyordu	-10.4447
▁etmeniz	-10.4452
▁belirleme	-10.4458
▁ettiğiniz	-10.4459
eceğin	-10.4459
▁biten	-10.4465
bur	-10.4468
▁aptal	-10.4472
▁yapımı	-10.4474
▁konuşan	-10.4477
▁yapısı	-10.4479
▁Hikaye	-10.4481
▁prototip	-10.4481
▁cadde	-10.4481
▁mutlak	-10.4481
▁donanım	-10.4482
▁sonuçta	-10.4484
▁anlattığı	-10.4485
▁küçü	-10.4486
▁Ed	-10.4486
▁ekoloji	-10.4487
▁halkı	-10.4493
▁Var	-10.4495
▁kültürün	-10.4495
▁doktora	-10.4496
▁eşsiz	-10.4498
▁büyüklüğü	-10.4498
▁kullandı	-10.4501
▁dün	-10.4503
▁deneyler	-10.4514
▁kullanabilir	-10.4514
▁büyüklüğünde	-10.4518
▁tuttu	-10.4526
zerinde	-10.4527
▁direkt	-10.4529
▁oynat	-10.4534
▁Park	-10.4534
▁onur	-10.4535
▁okulu	-10.4541
▁kısmında	-10.4545
▁döndüm	-10.4545
▁Dur	-10.4554
▁çay	-10.4556
▁durumlarda	-10.4559
▁geçmişi	-10.4563
▁değişiyor	-10.4564
▁elimde	-10.4565
▁Washington	-10.4565
▁restoran	-10.4565
▁evrimleş	-10.4566
▁emekli	-10.4566
layın	-10.4568
▁geçtiği	-10.4572
nom	-10.4575
▁bırakmak	-10.458
▁tipik	-10.458
▁pil	-10.4587
▁öğreniyor	-10.4587
ilecek	-10.4588
▁zorundasınız	-10.459
▁yapıştır	-10.4592
▁kalıp	-10.4593
▁bekley	-10.46
▁anında	-10.4601
▁Az	-10.461
lerimden	-10.4614
▁formu	-10.4616
▁Arap	-10.4618
▁toz	-10.4623
ledik	-10.4628
lamıyor	-10.4641
▁gösterdiği	-10.4644
▁oranları	-10.4644
▁resimde	-10.4646
▁kömür	-10.465
▁kütüphane	-10.465
▁sigara	-10.465
▁oynuyor	-10.465
▁büyüyen	-10.4651
▁Fransa	-10.4655
▁bakacak	-10.4656
▁yaban	-10.4659
▁puan	-10.4663
▁yetersiz	-10.4669
▁virüsü	-10.4669
▁kurduk	-10.467
▁gideceği	-10.4671
▁ayağı	-10.4676
▁kral	-10.4676
▁sanayi	-10.4679
▁Sonrasında	-10.468
▁Eve	-10.4684
▁faydalan	-10.4685
▁birbirimize	-10.4693
▁yetiştirme	-10.4693
▁çalışmayı	-10.4694
dığımı	-10.4712
▁oluyordu	-10.4716
▁nöro	-10.4721
▁kısaca	-10.4724
▁ışığın	-10.4724
▁olabiliriz	-10.4726
▁ilgilenme	-10.4729
görebiliyorsunuz	-10.4731
▁bulduğum	-10.4732
▁Seyirci	-10.4736
▁dehşet	-10.4736
▁düğme	-10.4736
▁macera	-10.4736
▁sensör	-10.4736
▁odaklanma	-10.474
▁tamir	-10.474
▁99	-10.4741
▁izleyici	-10.4742
▁2008	-10.4742
▁buyuk	-10.4743
▁ayna	-10.4745
▁çıkmak	-10.475
▁üretken	-10.4753
▁doktorlar	-10.4767
▁oturma	-10.4773
▁aksin	-10.4785
▁riski	-10.4788
▁Ale	-10.4791
▁bölgelerde	-10.4794
▁Bell	-10.4794
▁algılama	-10.4795
▁yararlı	-10.4805
▁kazanma	-10.4805
▁miras	-10.4806
▁Yaşa	-10.4808
leyip	-10.481
▁konuşur	-10.482
▁egzersiz	-10.4822
▁fırtına	-10.4822
▁senaryo	-10.4822
▁Doktor	-10.4822
▁İlginç	-10.4822
▁Allah	-10.4822
▁Tarih	-10.4822
▁aletler	-10.4822
sızlık	-10.4823
bay	-10.4824
▁genleri	-10.4826
▁kilise	-10.4827
▁topu	-10.4831
▁endüstrisi	-10.4839
▁uzaktan	-10.4842
▁potansiyeli	-10.4855
▁düşünen	-10.4857
▁üreten	-10.4861
▁oyunları	-10.4863
▁şart	-10.4866
lemiş	-10.4869
▁başardı	-10.4874
▁lif	-10.4878
▁23	-10.4887
▁şeklini	-10.4887
▁tüy	-10.4896
▁iyisini	-10.4907
▁MIT	-10.4909
▁enfeksiyon	-10.4909
▁refah	-10.4909
▁görürüz	-10.4909
▁Değiş	-10.4909
▁görülüyor	-10.4909
▁kafe	-10.491
▁unsur	-10.491
▁tanıştım	-10.491
▁doğduğu	-10.4917
▁dolan	-10.4918
▁sorduk	-10.4921
▁oluşma	-10.4924
▁benimse	-10.4933
▁Temel	-10.4935
▁güzellik	-10.4935
▁yazdığı	-10.4937
▁Yu	-10.4944
ebiliyoruz	-10.4946
▁Kadınlar	-10.4946
mıştık	-10.4952
▁beynimiz	-10.4953
▁gec	-10.4955
▁açığ	-10.4956
▁Öz	-10.496
▁Hayal	-10.4963
▁istiyordum	-10.4964
▁yakalan	-10.4973
▁You	-10.4973
ınızda	-10.4976
▁özellikler	-10.4981
▁İste	-10.4988
▁içeriyor	-10.499
▁sera	-10.499
▁yaşındaydı	-10.4995
▁Angeles	-10.4996
▁Merhaba	-10.4996
▁Normal	-10.4997
▁sağladığı	-10.4998
▁ölen	-10.4999
▁üretici	-10.5001
▁herkesi	-10.5007
▁sözü	-10.5008
▁çiftlik	-10.5009
▁bant	-10.5011
▁kalıcı	-10.5013
liyim	-10.5014
▁dua	-10.5017
▁Tanrım	-10.5028
▁devrimi	-10.5028
▁etkiledi	-10.503
▁anlayabil	-10.5041
▁yardımı	-10.5041
ılmıştı	-10.5042
▁saniyede	-10.5044
▁kalacak	-10.5045
▁çocuklarını	-10.5046
▁yazıyor	-10.5047
30	-10.5048
▁Büyü	-10.5049
▁1000	-10.5052
▁üstü	-10.5054
red	-10.5056
▁harcadı	-10.5062
▁Japon	-10.5063
▁beyniniz	-10.5067
▁Bizi	-10.5072
▁tamamıyl	-10.5074
▁bölgeler	-10.5075
▁değerleri	-10.5078
▁girdiği	-10.5081
lisiniz	-10.5082
▁hizmetleri	-10.5085
▁pratik	-10.5085
▁Web	-10.5086
▁millet	-10.5087
▁görüntüler	-10.5093
lıktan	-10.5099
▁yapmalıyız	-10.5099
▁gittiğini	-10.5101
▁yeteri	-10.5101
▁gide	-10.5106
▁annesi	-10.5112
▁edemez	-10.5118
▁cerrah	-10.5118
▁öneri	-10.5125
▁baktık	-10.5126
▁kova	-10.5127
▁savaşın	-10.5128
▁bilmiyordum	-10.5142
▁Tak	-10.5145
▁İz	-10.5145
▁fotoğraflar	-10.5146
▁geleceğin	-10.5146
▁yarıyor	-10.5154
▁satıl	-10.5155
▁Can	-10.5157
▁gezin	-10.516
▁Öğren	-10.5171
▁Harvard	-10.5174
▁NASA	-10.5174
▁Çevre	-10.5174
▁Hareket	-10.5174
▁dök	-10.5175
▁Kendimi	-10.5175
▁terörist	-10.5175
▁Tahmin	-10.5176
▁matematiksel	-10.5185
ydü	-10.5185
▁öğretmenler	-10.5186
▁yukarıda	-10.5192
▁gösterdiğim	-10.5198
▁oturdu	-10.52
▁toprağı	-10.5203
▁Deney	-10.5209
▁veriyorlar	-10.522
▁renkler	-10.5222
▁ekledi	-10.5227
rayı	-10.5228
emeyiz	-10.5239
▁hücrelerin	-10.5242
▁değerler	-10.5247
▁geçirmek	-10.5251
▁kullanılabilir	-10.5253
▁tarihte	-10.5255
▁bölgesi	-10.5256
▁kaldım	-10.5258
▁akciğer	-10.5264
▁teslim	-10.5264
▁elbise	-10.5264
▁ayağa	-10.5265
▁büyüleyici	-10.5268
acaba	-10.5271
▁inşaat	-10.5287
▁Dev	-10.5291
▁işini	-10.5295
▁kadınlara	-10.5297
▁hile	-10.5302
▁toplumu	-10.5303
▁toplumda	-10.5305
▁Sha	-10.5309
▁yapabilmek	-10.5314
▁yapısını	-10.5315
amam	-10.5316
▁Kaç	-10.5318
▁etkiler	-10.5321
▁farketti	-10.5326
J	-10.5326
▁gitmeye	-10.533
▁Wo	-10.5337
▁calis	-10.5342
▁oluşturduğu	-10.5343
▁nüfusun	-10.5344
▁haritası	-10.5352
▁titre	-10.5355
▁2010	-10.5355
▁Cevap	-10.5355
▁seçeneği	-10.5355
▁yunus	-10.5356
▁Charles	-10.5356
▁gelişti	-10.5357
▁etkileyen	-10.536
vo	-10.536
▁hadi	-10.5362
▁çarpıcı	-10.5364
▁duyur	-10.5365
lanmıştı	-10.5366
▁Şey	-10.5367
▁çekim	-10.5367
▁hapse	-10.5367
lebilir	-10.5369
▁olabiliyor	-10.5369
▁sorusu	-10.5374
▁Bas	-10.5377
▁Roma	-10.5379
▁bilinçli	-10.538
▁bilmiyordu	-10.5381
▁ekleme	-10.5381
▁duyduğumuz	-10.5383
▁yapmakta	-10.5385
▁konuştuğu	-10.5387
▁yoksulluk	-10.5388
▁normalde	-10.5399
▁bulmuş	-10.5399
▁vücudunuz	-10.54
rah	-10.5402
▁katılım	-10.5405
▁çeşitlilik	-10.5405
▁oluşu	-10.5405
fo	-10.5407
▁seviyesi	-10.5408
▁ayda	-10.5414
▁konuşu	-10.5415
▁çeviri	-10.5418
▁tutan	-10.5419
bilirsek	-10.5426
▁teorisi	-10.5426
▁bakmaya	-10.543
▁Yapma	-10.5439
▁görüntüsü	-10.5445
▁işlerini	-10.5446
▁Internet	-10.5447
▁empati	-10.5447
▁mahkeme	-10.5447
▁ajan	-10.545
▁gördünüz	-10.5451
▁Film	-10.5453
▁damla	-10.5458
▁bildir	-10.546
▁bilmediği	-10.5465
▁sesler	-10.5466
▁açar	-10.5467
▁öncelikle	-10.5472
▁oluşturdu	-10.5481
▁duyduğum	-10.5485
▁Yarı	-10.5486
▁değilse	-10.5488
▁üyesi	-10.5488
▁katıldı	-10.5494
▁Mal	-10.5494
▁okur	-10.5498
▁dokunma	-10.5503
▁Lu	-10.5504
▁yararlan	-10.5505
▁gizem	-10.5509
▁yerin	-10.5511
rerek	-10.5523
▁korunma	-10.5526
▁yaparlar	-10.5527
▁açan	-10.5528
▁azalma	-10.5528
▁klasik	-10.554
▁siyaset	-10.554
▁Dört	-10.554
▁hidrojen	-10.554
▁gömül	-10.5541
▁fotoğrafları	-10.5541
▁boşluğu	-10.5543
▁umudu	-10.5543
12	-10.5544
▁TV	-10.5545
▁şimdiki	-10.5545
▁yaprak	-10.5547
▁anket	-10.5547
▁27	-10.5549
▁inek	-10.555
▁gelenek	-10.555
▁düşüncesi	-10.5553
▁liderler	-10.5553
▁Sırada	-10.5554
▁aklımız	-10.5555
▁gidebilir	-10.5563
▁başlamıştı	-10.5564
unuzu	-10.5569
▁karşılıklı	-10.5576
her	-10.5583
▁zorluklar	-10.5583
▁götürme	-10.5586
▁iskele	-10.5587
▁tanıdık	-10.5591
▁yürüdü	-10.5594
▁anlayışı	-10.5594
fu	-10.5595
▁vs	-10.5597
▁dersi	-10.5608
▁Birisi	-10.5615
müz	-10.5615
▁ço	-10.5617
▁gitmiş	-10.5617
▁tanıyor	-10.5621
lduğunu	-10.5622
▁üretiyor	-10.5628
leşiyor	-10.5629
▁düzeltme	-10.563
▁Tom	-10.5631
▁hazırladı	-10.5632
▁kaçınılmaz	-10.5633
▁Obama	-10.5633
▁limit	-10.5634
▁büyükanne	-10.5634
▁pilot	-10.5635
▁Böylelikle	-10.5636
▁düşünelim	-10.5637
▁iniş	-10.564
▁kurgu	-10.564
▁adil	-10.5641
▁İnsanları	-10.5643
▁küçül	-10.5644
▁yönetimi	-10.565
▁kaldığı	-10.565
▁Rusya	-10.5661
▁katlan	-10.5662
▁ilkel	-10.5664
▁hastaların	-10.5666
▁ruhu	-10.5666
mediği	-10.5667
▁Bey	-10.5671
▁görülme	-10.5674
▁istediğini	-10.5676
▁biridir	-10.5689
kalı	-10.5692
▁korkuyor	-10.5694
▁güçlendir	-10.5699
nizden	-10.5701
▁kazı	-10.5702
▁onar	-10.5711
▁devamlı	-10.5717
▁resimleri	-10.5719
▁modeller	-10.5726
▁penguen	-10.5727
▁ötürü	-10.5727
▁sivrisinek	-10.5727
▁şahit	-10.5727
▁tarla	-10.5728
▁yapılacak	-10.573
▁Açıkça	-10.573
▁ücretsiz	-10.5733
▁düşünürseniz	-10.5734
▁parçasını	-10.5734
▁inceley	-10.5735
▁özü	-10.5737
▁istiyorsunuz	-10.5737
▁bulunur	-10.5738
▁geçici	-10.5739
▁kalanı	-10.5741
▁demir	-10.5741
▁yapamaz	-10.5742
▁bulunmakta	-10.5749
▁savun	-10.5752
▁kızın	-10.5756
▁yapacağını	-10.5758
▁olayları	-10.5759
▁sil	-10.5761
▁Mac	-10.5771
▁tüp	-10.5771
▁sisteme	-10.5786
▁çarpı	-10.5788
▁yetki	-10.5795
▁boşa	-10.5802
▁ötesin	-10.5807
▁haftada	-10.5809
luğun	-10.5814
▁kimlik	-10.5816
▁görüntüleri	-10.5819
▁anti	-10.5822
leştiği	-10.5823
▁dördüncü	-10.5823
▁danışman	-10.5823
▁göğüs	-10.5823
▁tekerlek	-10.5823
▁yirmi	-10.5823
▁entegr	-10.5823
▁pazarlama	-10.5824
▁Amazon	-10.5824
▁yaşamış	-10.5827
▁fizikçi	-10.5827
▁topladı	-10.5831
▁kozm	-10.5831
▁seferinde	-10.5834
▁gelişen	-10.5841
▁öğrencisi	-10.5843
▁olunca	-10.5843
▁Senin	-10.5845
▁içe	-10.5847
▁uzmanı	-10.5851
▁kimliği	-10.5857
▁mıydı	-10.5859
▁tavan	-10.5863
▁sürme	-10.5864
▁programları	-10.5864
▁dersiniz	-10.5864
▁görebilir	-10.5869
-1	-10.5871
▁194	-10.5872
▁kutusu	-10.5886
▁günümüz	-10.5891
eceğimizi	-10.5895
▁dost	-10.5896
▁Amerikalılar	-10.5897
▁kızım	-10.5898
▁sili	-10.5899
▁sonun	-10.59
▁çiftçiler	-10.5903
▁zararlı	-10.5903
▁gönderdi	-10.5909
▁sahil	-10.5914
▁aldılar	-10.5917
▁iPhone	-10.5919
▁fenomen	-10.5919
▁market	-10.5919
▁tatmin	-10.592
▁sorumluluğu	-10.592
▁atar	-10.5921
▁1960	-10.5921
▁Nerede	-10.5924
▁düşünüyorsunuz	-10.593
▁CO	-10.5935
laştırma	-10.5938
▁uğraşma	-10.5942
▁modelleri	-10.5943
▁milli	-10.5953
▁olursunuz	-10.5961
▁konuştuk	-10.5966
▁tekne	-10.5968
▁sıcaklık	-10.5969
▁yetenekleri	-10.597
abileceğim	-10.5972
▁sahnede	-10.5977
▁doktoru	-10.5981
▁istiyordu	-10.5983
▁ayrılma	-10.5987
▁özgün	-10.5987
▁Kuru	-10.599
▁Pan	-10.599
▁ölümün	-10.5992
▁özellik	-10.6006
▁Kötü	-10.6016
▁imkân	-10.6016
▁sigorta	-10.6016
▁tecavüz	-10.6016
▁terapi	-10.6016
▁sözcük	-10.6016
▁nitelik	-10.6017
▁bulgu	-10.6017
▁heves	-10.6018
▁Ardında	-10.6018
lediğimiz	-10.602
▁kent	-10.6023
15	-10.6023
▁söyleyecek	-10.6026
ttığı	-10.6035
▁kuşlar	-10.6035
▁başlayacak	-10.6039
▁kendisinin	-10.6044
▁temas	-10.6044
▁giderken	-10.6044
▁versiyonu	-10.6047
▁doğrusu	-10.6051
▁oturan	-10.6051
▁birleşi	-10.6057
▁kelimesini	-10.6065
▁problemin	-10.6081
▁organizmalar	-10.6109
▁alıyorlar	-10.611
▁listesi	-10.6111
rika	-10.6112
▁garanti	-10.6114
▁gülümse	-10.6114
▁kalabalık	-10.6114
▁Pakistan	-10.6114
▁keyif	-10.6114
▁lamba	-10.6114
▁metafor	-10.6114
▁196	-10.6116
▁salonu	-10.6117
▁1990	-10.6117
lenebilir	-10.6121
▁eksen	-10.6124
▁Yıllar	-10.6125
▁sürecin	-10.6128
▁tasarımcılar	-10.6141
▁etkisini	-10.6143
▁koyun	-10.6145
▁Es	-10.6149
▁keşfetmek	-10.615
▁nota	-10.6157
▁istekli	-10.6158
▁kuruyor	-10.616
▁edilir	-10.6163
▁açıyor	-10.6169
▁döneminde	-10.6175
▁alınan	-10.6177
▁Dış	-10.6181
▁yerleştirdi	-10.6181
▁ürettiği	-10.619
▁çocukken	-10.619
abilecekleri	-10.6191
▁direk	-10.6192
▁hatırlay	-10.6198
▁kaynaklı	-10.6198
▁geçirdi	-10.6199
▁bacakları	-10.6201
▁tanımlay	-10.6209
▁dokusu	-10.621
▁harcan	-10.621
▁merdiven	-10.6213
▁akraba	-10.6213
▁ispat	-10.6213
▁belirgin	-10.6213
▁dağılım	-10.6213
▁Mutlu	-10.6213
▁medeniyet	-10.6213
▁ayrıntı	-10.6213
▁uzağ	-10.6215
▁yürüyor	-10.6217
▁kapasitesi	-10.6218
▁balıkçı	-10.6219
dığımızı	-10.6223
▁atmosferi	-10.6224
▁insanlığın	-10.6224
▁solu	-10.6226
▁panel	-10.6226
▁tanesini	-10.6228
▁kardeş	-10.623
▁evim	-10.6234
▁BM	-10.6234
▁hayatımda	-10.6234
▁Arka	-10.624
▁etmez	-10.6256
emem	-10.6266
▁bekler	-10.6268
lenir	-10.6276
▁durdurma	-10.6281
ıvı	-10.6286
▁üretti	-10.6287
▁vermiş	-10.629
▁ulaştır	-10.6292
sızın	-10.6294
hur	-10.6307
rey	-10.6309
▁yoldan	-10.6311
▁ilgileniyor	-10.6311
▁hemşire	-10.6313
▁bırakır	-10.6314
▁Herşey	-10.6314
▁direnç	-10.6318
▁bildiğim	-10.6319
▁görebileceğiniz	-10.6325
▁liderleri	-10.6327
▁yaşlanma	-10.6336
▁taşıyan	-10.6339
▁izlemek	-10.6342
▁baktığı	-10.635
▁sayısını	-10.635
▁kılan	-10.6365
▁ilişkileri	-10.6366
▁geçtiğimiz	-10.6367
▁bitirmek	-10.637
▁kurumları	-10.6371
▁çıkacak	-10.6373
▁yoğunlaş	-10.6375
▁üye	-10.6381
▁bebekler	-10.6384
▁getirdik	-10.639
▁ortamı	-10.6396
ladığını	-10.6398
▁yıldızı	-10.64
▁göründüğü	-10.6412
▁posta	-10.6413
▁Gezegen	-10.6414
▁Michael	-10.6414
▁Hayvan	-10.6414
▁mağaza	-10.6414
▁stüdyo	-10.6414
▁travma	-10.6414
▁keşfi	-10.6414
▁Beyaz	-10.6414
▁rolü	-10.6415
▁koltuk	-10.6415
▁ilerliyor	-10.6415
▁gerçekleşen	-10.6418
▁evlen	-10.6419
▁denir	-10.6425
▁yaklaşımı	-10.6427
▁artışı	-10.6427
▁hayvanları	-10.6429
▁ağın	-10.644
▁Res	-10.6447
▁yazarı	-10.6452
▁Esas	-10.6463
▁yapabilme	-10.6469
▁Burda	-10.6473
▁ellerinde	-10.6478
▁ekonomisi	-10.648
▁iyileştirme	-10.648
▁yüzünü	-10.6488
ıldığını	-10.6493
▁dinlemek	-10.6494
▁Sır	-10.6496
▁Che	-10.6497
▁koyduk	-10.6501
tiğim	-10.6505
▁eşim	-10.6511
▁verildi	-10.6512
▁Thomas	-10.6516
▁otorite	-10.6516
▁tesadüf	-10.6516
▁çocuğa	-10.6516
▁çevril	-10.6516
▁felci	-10.6516
▁redded	-10.6516
▁nasil	-10.6516
▁düşünceleri	-10.6517
▁okyanusun	-10.6518
▁görebiliyor	-10.6518
▁animasyon	-10.6518
▁sınıfta	-10.6518
▁unutu	-10.6518
▁1980	-10.6519
▁yurt	-10.652
▁otel	-10.6521
▁sonuc	-10.6522
▁2007	-10.6522
▁geldiğimiz	-10.6522
▁boru	-10.6523
mişlerdi	-10.6524
▁sav	-10.6526
▁3.	-10.653
▁dönemi	-10.653
▁gelmesi	-10.6532
▁kazanmak	-10.6534
▁olmalıyız	-10.6537
▁öğrenir	-10.6543
▁verilme	-10.655
▁geçirdiği	-10.6551
▁mana	-10.6553
▁yoğunluğu	-10.6561
▁hatırlama	-10.6562
larımızla	-10.6564
▁şekillerde	-10.657
▁ayırma	-10.6572
▁duyuyoru	-10.6585
▁Devlet	-10.6585
ılıp	-10.6594
▁tanışma	-10.6597
▁çalışıyordum	-10.6598
▁keşfettik	-10.6599
▁davranışı	-10.6601
▁çizme	-10.6604
▁nüfusunu	-10.6606
▁Çalışma	-10.6609
by	-10.6617
▁iyileşme	-10.6619
ollywood	-10.6619
▁Francisco	-10.6619
▁protesto	-10.6619
▁diploma	-10.6619
▁Dikkat	-10.6619
▁vadede	-10.6619
▁uzunluğunda	-10.6619
▁tavuk	-10.662
▁desteği	-10.6623
▁hayatımızı	-10.6625
▁yaşımda	-10.6628
▁Korku	-10.6629
▁yarattık	-10.663
▁Devletleri	-10.6633
▁yazılmış	-10.6636
▁edilemez	-10.6638
▁aradı	-10.664
▁Karşı	-10.664
skop	-10.6642
▁amacıyla	-10.6642
▁grip	-10.6644
▁orda	-10.6648
▁türün	-10.6648
▁düşer	-10.6654
▁yıldızlar	-10.6657
emezsiniz	-10.6661
▁temin	-10.6669
▁Ağ	-10.6672
▁uydur	-10.6689
▁detaylı	-10.6689
▁Yaptığı	-10.6702
laşmış	-10.6703
▁yazıcı	-10.6706
ford	-10.6709
▁düşünmemiz	-10.6711
▁çalışmanın	-10.6714
▁eleman	-10.6714
▁olmalıydı	-10.6719
▁oldugu	-10.6721
▁edildiği	-10.6721
▁etmesini	-10.6721
▁efsane	-10.6723
▁çamaşır	-10.6723
▁ölümcül	-10.6723
▁bayağı	-10.6723
▁dunya	-10.6723
▁gelmiyor	-10.6725
▁diyecek	-10.6731
▁kurulu	-10.6734
▁kodu	-10.6735
▁ölçme	-10.6741
▁içme	-10.6744
▁noktasında	-10.6745
▁geleceğ	-10.6749
▁gelmez	-10.6753
▁öğrencilerin	-10.6769
▁elma	-10.6771
▁Dağ	-10.6772
▁duyguları	-10.6782
▁Wa	-10.6783
▁ilerledi	-10.6785
▁kullanacağı	-10.679
emediği	-10.679
▁izlediği	-10.6795
▁gerçekleşti	-10.6795
▁duvarı	-10.6804
▁topluluğun	-10.6807
riyi	-10.6807
▁görünme	-10.6808
▁sokakta	-10.6814
▁Enstitüsü	-10.6828
▁futbol	-10.6828
▁karbondioksit	-10.6828
▁matematiğ	-10.6828
▁perspektif	-10.6828
▁röportaj	-10.6828
▁korteks	-10.6828
▁pompa	-10.6828
▁Süper	-10.6829
▁kırıklığı	-10.6829
▁huzur	-10.6829
▁olumsuz	-10.6829
▁Kanser	-10.6829
▁sınıfı	-10.6829
ight	-10.6829
▁söylemeliyim	-10.6831
▁memur	-10.6832
▁por	-10.6834
▁geliştiril	-10.6834
▁Görü	-10.6836
▁MR	-10.6836
▁ağırlık	-10.6841
▁oturur	-10.6841
▁Ger	-10.6842
meyeceğini	-10.6853
▁atmak	-10.6854
▁yaratıcılık	-10.6857
▁değin	-10.6862
▁onlarca	-10.6873
▁sars	-10.6874
▁edebileceğiniz	-10.6885
▁öncü	-10.6889
▁Ter	-10.6891
luğunu	-10.6892
▁For	-10.6906
bilirdi	-10.6906
▁söyleyeceğim	-10.6909
▁antik	-10.6916
abilmesi	-10.6918
▁olacağım	-10.6932
▁müzisyen	-10.6935
▁Alzheimer	-10.6935
▁Geçmiş	-10.6935
▁felsefe	-10.6935
▁teleskop	-10.6935
▁tiyatro	-10.6935
▁koleksiyon	-10.6935
lanacak	-10.6935
▁otizm	-10.6936
▁çelişki	-10.694
▁dönelim	-10.694
▁açıklamak	-10.6946
bilecek	-10.6947
▁saldır	-10.695
▁65	-10.6951
▁inanıyoruz	-10.6955
▁duymak	-10.6956
▁değiştirecek	-10.6957
▁okumak	-10.696
▁çip	-10.6965
sha	-10.6966
mezler	-10.697
ebilmesi	-10.6971
▁terör	-10.6973
▁okudum	-10.6981
▁çocuklarımız	-10.6985
▁yarasa	-10.6986
▁mutluluğu	-10.6997
▁kayda	-10.6998
▁kullanmayı	-10.7003
▁işlemi	-10.701
stil	-10.7025
doğu	-10.7031
▁akışı	-10.7032
▁yaşta	-10.7035
▁yönünde	-10.7042
▁Fotoğraf	-10.7042
▁Apple	-10.7042
▁bağışıklık	-10.7042
▁roket	-10.7042
▁filtre	-10.7043
▁savaşta	-10.7043
▁parmağı	-10.7044
▁aralarında	-10.7045
▁Robot	-10.7047
▁diren	-10.7048
▁gerçekleşiyor	-10.7049
▁no	-10.7051
▁Latin	-10.7051
▁aktör	-10.7052
▁düşünerek	-10.7053
▁istiyorsak	-10.7053
▁söylemeye	-10.7068
▁olmazdı	-10.7077
▁bakıyoruz	-10.7078
niversite	-10.7083
▁Sch	-10.7099
dor	-10.7104
▁yapacağımız	-10.7108
▁farketme	-10.7113
▁verdiğim	-10.7132
▁Tim	-10.7137
▁öden	-10.7137
▁şirketin	-10.7138
▁derler	-10.7148
bire	-10.7149
▁canavar	-10.7151
▁felç	-10.7151
▁Ölüm	-10.7151
▁ümit	-10.7152
▁Dışarı	-10.7152
▁kafatası	-10.7152
▁kaydetti	-10.7154
▁kucak	-10.7156
▁kardeşi	-10.7161
▁Paris	-10.7161
▁konuşurken	-10.7161
▁Nor	-10.7162
▁değiştirir	-10.7162
▁evinde	-10.7165
▁eğitme	-10.7166
▁uyumlu	-10.7167
▁bekleyen	-10.7169
▁nüfusu	-10.717
▁Frank	-10.7174
▁ilerleye	-10.7175
▁ışın	-10.7179
▁Mavi	-10.7179
▁heyecanlandır	-10.7184
▁Col	-10.719
▁elektron	-10.7192
▁bahseder	-10.7192
▁600	-10.7193
▁çalı	-10.7198
▁Gece	-10.7198
▁yapabileceğiniz	-10.7199
▁anlatmaya	-10.7201
▁yaşlarında	-10.7209
▁aslı	-10.721
▁yararı	-10.7212
liğimiz	-10.7216
▁kış	-10.7226
▁ettirme	-10.7226
▁Tanı	-10.7226
▁kavramı	-10.723
▁yönü	-10.7232
▁Mary	-10.7241
▁yaşadığım	-10.7246
▁Hükümet	-10.7261
▁Higg	-10.7261
▁kompleks	-10.7261
▁pembe	-10.7261
▁önyargı	-10.7261
▁lezzet	-10.7261
▁sıçra	-10.7261
▁Boston	-10.7261
▁kavga	-10.7261
▁kazanan	-10.7267
▁yarısını	-10.7267
▁seviyesinde	-10.7269
▁vereyim	-10.7269
berg	-10.727
▁yaparsınız	-10.7277
▁ismini	-10.7284
suzluk	-10.7286
▁etmişti	-10.7287
▁Pazar	-10.729
▁umuyorum	-10.7291
MA	-10.7291
▁Görüyorsun	-10.7298
▁kızların	-10.7305
▁Seni	-10.7308
lmüş	-10.7308
▁erişimi	-10.7311
▁kaldık	-10.7312
▁birbirlerini	-10.7316
üşü	-10.7317
▁tasarladı	-10.7324
laşıyor	-10.7327
▁tamamını	-10.7329
old	-10.7348
▁kesme	-10.7348
▁gücüne	-10.7349
▁görüntüleme	-10.7361
▁doğası	-10.7368
▁görmüyor	-10.7372
▁köpeği	-10.7372
▁şikayet	-10.7372
▁göreceğiz	-10.7372
▁poster	-10.7372
▁anımsa	-10.7372
▁Ödül	-10.7373
▁zorunlu	-10.7373
▁ömrü	-10.7374
▁kablosuz	-10.7374
▁çekilmiş	-10.7383
▁tasarlama	-10.7383
▁düzine	-10.7384
▁yaparız	-10.7385
▁Kafa	-10.7391
laştı	-10.7392
▁benzin	-10.7394
▁görünüm	-10.7396
▁şiddetli	-10.7398
▁yil	-10.74
▁bulunduğumuz	-10.7402
▁arkasındaki	-10.7413
▁kullanabileceği	-10.7415
▁gidiyoruz	-10.7419
▁bilgisayarın	-10.742
▁maç	-10.7427
▁etrafındaki	-10.7431
▁mühendisliği	-10.7432
▁yollarını	-10.7432
▁foto	-10.7433
▁Birliği	-10.7433
▁oldugunu	-10.7436
▁odadaki	-10.7441
▁ulaşabil	-10.7443
▁pu	-10.7445
▁söylemişti	-10.745
▁başardık	-10.7457
▁kurtulma	-10.746
▁paylaştı	-10.746
▁öğrenmeye	-10.7473
▁bölümünü	-10.7474
▁şef	-10.7475
▁yapılabil	-10.7482
ütfen	-10.7484
▁cazibe	-10.7484
▁kılavuz	-10.7484
▁Aşağı	-10.7484
▁Pasifik	-10.7484
▁gübre	-10.7484
▁yumuşak	-10.7484
▁Önemli	-10.7484
▁çirkin	-10.7484
▁Yeşil	-10.7484
▁şarap	-10.7484
▁deprem	-10.7485
alesef	-10.7485
▁vurgu	-10.7487
▁gücümüz	-10.7489
▁Kor	-10.7492
▁fotoğrafçı	-10.7496
▁Birinci	-10.7496
▁sıkıştır	-10.7501
▁bariz	-10.7501
▁yiyor	-10.7501
▁görünüyordu	-10.7515
▁ülkedeki	-10.7517
▁bölgelerinde	-10.752
▁yerleş	-10.7524
ustu	-10.7526
▁gözlü	-10.7529
▁değişen	-10.7529
▁yaratıcılığı	-10.7538
▁yerleştirme	-10.754
▁lob	-10.7545
▁duyduğu	-10.7549
▁Gelecek	-10.755
▁harcay	-10.7552
▁uçağı	-10.7552
▁neşe	-10.7581
▁arayı	-10.7584
▁pis	-10.7586
▁hücrelerini	-10.7589
▁öncesinde	-10.7591
▁gülüşmeler	-10.7598
▁motivasyon	-10.7598
▁sürpriz	-10.7598
▁meslektaşları	-10.7598
▁protez	-10.7598
▁Milletler	-10.7598
▁somut	-10.7598
▁fotograf	-10.7598
▁pasif	-10.7598
▁biriktir	-10.7601
▁diyebiliriz	-10.7601
▁gittiğimde	-10.7601
▁oluruz	-10.7602
▁atış	-10.7608
▁görebiliyoruz	-10.7608
dra	-10.7611
▁olabildiğin	-10.7618
▁çelik	-10.7618
▁dalış	-10.7622
▁koştu	-10.7631
▁edeceğiz	-10.7634
▁vücud	-10.7637
▁etkiliyor	-10.7639
laştığı	-10.7639
▁kolaylaştır	-10.7652
▁kabullen	-10.7655
▁yaşayabil	-10.7658
▁kapak	-10.766
ünüzü	-10.766
▁laboratuvarı	-10.7662
▁veriyorum	-10.7662
▁cebi	-10.7668
▁edebilecek	-10.7668
▁alabil	-10.7669
▁genelinde	-10.767
▁şartlar	-10.7677
▁sayıları	-10.7678
▁geleceğini	-10.7692
▁getirecek	-10.7701
▁çalma	-10.7702
▁toparla	-10.7706
▁ulaştığı	-10.7709
▁dışındaki	-10.7711
▁çoğumuz	-10.7712
▁frekans	-10.7713
▁orkestra	-10.7713
▁Kongre	-10.7713
▁grafiğ	-10.7713
▁koruyucu	-10.7714
▁salınım	-10.7715
▁evlilik	-10.772
▁açlık	-10.7721
▁edersek	-10.7731
▁orası	-10.7732
▁ekipman	-10.7732
▁Yaptığımız	-10.774
▁yerlerinde	-10.7746
▁geçirir	-10.7748
labilirsiniz	-10.7748
▁gizemli	-10.7751
▁güzelliği	-10.7768
▁Bağ	-10.7768
▁dağıtım	-10.7774
▁geliştirdik	-10.7779
▁meta	-10.7781
▁oluştu	-10.7798
digim	-10.7802
▁kalmıyor	-10.7812
▁oluşumu	-10.7813
▁ilişkili	-10.7819
▁istediler	-10.782
▁Gülüş	-10.782
▁zehir	-10.7828
▁dâhil	-10.7829
▁çıplak	-10.7829
▁Kitap	-10.7829
▁itiraf	-10.7829
▁hariç	-10.7829
▁keskin	-10.7831
▁mısır	-10.7831
▁sanmıyorum	-10.7832
▁Başarı	-10.7832
▁açmak	-10.7836
▁düşünüyordu	-10.7837
▁utanç	-10.7837
▁sınav	-10.7839
keresinde	-10.7856
▁boyutta	-10.7856
▁istersiniz	-10.7862
▁the	-10.7862
▁işliyor	-10.7862
▁düşündüğü	-10.7864
▁ödeye	-10.7872
ğına	-10.7873
▁mikroplar	-10.7873
▁öngör	-10.7873
▁dönen	-10.788
▁değiştirmeye	-10.7881
▁Tur	-10.7881
▁Fu	-10.7884
▁32	-10.7886
▁sevdikleri	-10.7887
▁görebilme	-10.7889
▁aramızda	-10.7889
▁karşılaştığı	-10.7892
▁olmalıdır	-10.7893
▁üyeleri	-10.7899
▁19.	-10.79
▁akış	-10.79
▁gerçekçi	-10.7901
▁meselesi	-10.7902
▁almayı	-10.7919
▁izni	-10.7924
▁etkileme	-10.7927
Tub	-10.7928
▁neresi	-10.7938
▁Kısa	-10.794
▁korkusu	-10.7942
▁beklenmedik	-10.7947
▁disiplin	-10.7947
▁global	-10.7947
▁rehber	-10.7947
▁sebze	-10.7947
▁tedarik	-10.7947
▁sihirli	-10.7947
▁İklim	-10.7947
▁kaybetmiş	-10.7947
▁resif	-10.7947
▁sekil	-10.7948
▁kullanılma	-10.7948
▁biyolog	-10.7949
▁baylar	-10.7949
▁yatağı	-10.7949
▁anlamamız	-10.795
▁parçacıkları	-10.795
▁DH	-10.7955
▁mutasyon	-10.7956
▁yapılabilir	-10.7956
▁gösterilen	-10.7964
▁gösterecek	-10.7968
▁kıy	-10.7968
▁ölmüş	-10.7973
▁önemsiz	-10.7973
▁kuvvetli	-10.7978
meliyim	-10.7979
▁okulun	-10.798
▁göl	-10.7982
▁bulundur	-10.7982
▁buradayım	-10.8003
▁uzmanları	-10.8003
▁güncel	-10.8005
▁dönüştürül	-10.8005
▁bez	-10.8007
▁istemedi	-10.8014
▁yıkıl	-10.8018
▁Mah	-10.8038
▁durur	-10.805
▁kullandım	-10.8052
▁formları	-10.8052
▁karşılaşma	-10.8052
teknoloji	-10.8063
▁korkma	-10.8065
▁alışkanlık	-10.8066
▁jenerasyon	-10.8066
▁konsept	-10.8066
▁orijinal	-10.8066
▁radyasyon	-10.8066
▁ömür	-10.8066
▁kullanışlı	-10.8066
▁gereği	-10.8066
▁Peter	-10.8067
▁1970	-10.8068
▁yakı	-10.8069
▁davranışları	-10.8072
▁matematikçi	-10.8073
lüğ	-10.8075
▁Kısaca	-10.8075
▁yetenekli	-10.8076
ska	-10.8076
▁insansız	-10.8084
▁varlığını	-10.8085
▁anlayama	-10.8087
▁çalışmıyor	-10.809
▁eksikliği	-10.8095
▁ödülü	-10.8097
▁paylaştığı	-10.81
▁cun	-10.8101
▁Birlikte	-10.8103
▁izleyen	-10.8108
batı	-10.811
▁alabilirsiniz	-10.8111
▁yolculuğ	-10.8114
▁büyüyor	-10.8119
▁başlangıçta	-10.8122
▁başım	-10.8133
▁kötüsü	-10.8138
▁oluşturduk	-10.8138
▁çıkarıp	-10.8139
▁açtığı	-10.815
▁Oto	-10.8152
▁şehirlerin	-10.8167
▁oynar	-10.817
▁kusur	-10.8172
▁aşkın	-10.8173
▁altta	-10.8173
▁taşındı	-10.8175
▁kurduğu	-10.8176
▁haberleri	-10.8178
▁once	-10.8182
▁düşünmüyoru	-10.8184
▁etik	-10.8186
▁cömert	-10.8186
▁meşhur	-10.8186
▁Öğretmen	-10.8186
▁golf	-10.8186
▁kağıdı	-10.8187
▁Fikir	-10.8187
▁simge	-10.8187
▁kemiği	-10.8187
▁metod	-10.8187
▁lazer	-10.8187
▁nakli	-10.8187
▁reform	-10.8189
▁mülk	-10.8189
▁amaçlı	-10.8191
▁başladığımda	-10.8192
▁sorduğum	-10.8195
ildiğinde	-10.8197
▁çıkması	-10.8201
▁kalitesi	-10.8204
▁Cam	-10.8209
▁böcekler	-10.8229
▁sıcaklığı	-10.823
▁özen	-10.8233
▁ekranda	-10.8242
▁genomu	-10.8243
▁yapıldığını	-10.8247
▁maliyetli	-10.8262
▁kullanabil	-10.8263
▁kalmadı	-10.8266
▁kaybettiği	-10.8272
▁şehirlerde	-10.8276
▁paylaşım	-10.8278
▁koydum	-10.8285
▁olmayabilir	-10.8285
▁Fran	-10.8289
▁evrimin	-10.829
▁İçinde	-10.83
▁hatırlıyor	-10.8302
▁kurtarmak	-10.8302
▁Filistin	-10.8308
▁istisna	-10.8308
▁intihar	-10.8308
▁endüstriyel	-10.8309
▁portre	-10.8309
▁yapımcı	-10.8309
▁yangın	-10.8309
▁zehirli	-10.831
▁Öğrenciler	-10.8313
sch	-10.8315
▁hattı	-10.8315
▁Günü	-10.8316
erry	-10.8317
▁çözmeye	-10.8321
kav	-10.8322
▁açıp	-10.8329
melisiniz	-10.8329
▁mantığı	-10.8335
tion	-10.8337
▁Hep	-10.8338
▁verebil	-10.8338
▁temizleme	-10.8341
metre	-10.8343
diklerinde	-10.8345
▁gelmeye	-10.8348
▁olacağına	-10.8356
▁Hint	-10.8357
▁soyle	-10.8361
▁yayınladı	-10.8371
tığınızda	-10.8402
▁sevin	-10.8409
▁giderse	-10.842
▁üretebil	-10.8423
▁yepyeni	-10.8432
▁tarayıcı	-10.8432
▁vesaire	-10.8432
▁Söz	-10.8432
▁online	-10.8432
▁samimi	-10.8433
▁beyninin	-10.8434
▁bilinmeyen	-10.8434
▁1950	-10.8434
▁kurumsal	-10.8437
▁250	-10.8439
▁öğrendi	-10.844
▁konuştuğumuz	-10.844
▁2005	-10.8441
▁değişir	-10.8443
▁olmasından	-10.8445
▁koyduğu	-10.8451
▁çılgınca	-10.8455
▁bildikleri	-10.8455
▁alırsınız	-10.8458
▁tasarlamak	-10.8458
▁sunmak	-10.8463
▁öğrendiğimiz	-10.8463
▁Gerçekte	-10.8468
▁bacağı	-10.847
ışını	-10.8471
▁She	-10.8472
▁yapıyorsunuz	-10.8473
▁babamın	-10.8474
▁yaraya	-10.8474
▁etken	-10.8477
▁gidin	-10.8488
▁katil	-10.8491
▁duyduğunuz	-10.8491
AR	-10.8496
duğunuzda	-10.85
▁sure	-10.8501
▁yapıldığı	-10.8507
▁kullanıldı	-10.851
▁tüketimi	-10.8515
ılmasını	-10.8522
▁yapmıştı	-10.8527
▁çalışacak	-10.8531
▁kapatma	-10.8534
▁tanımı	-10.8539
riyoruz	-10.8542
▁ebeveynleri	-10.855
▁sorgulama	-10.8552
▁yazan	-10.8556
▁Telefon	-10.8557
▁Uluslararas	-10.8557
▁kromozom	-10.8557
▁örümcek	-10.8557
▁alakası	-10.8557
▁Eminim	-10.8557
▁gerektirir	-10.8557
▁rejim	-10.8557
▁kabuk	-10.8557
▁aktivist	-10.8558
▁optik	-10.8558
▁ulaşılabilir	-10.856
▁seyred	-10.8562
landığını	-10.8562
▁destekleyen	-10.8563
▁sag	-10.8565
▁Martin	-10.8565
▁umutsuz	-10.8567
▁etmeliyiz	-10.8569
▁olmalısınız	-10.8576
▁Jim	-10.8576
▁düşünürken	-10.8579
▁taşır	-10.858
▁pop	-10.8581
▁yaptığımı	-10.8583
▁özür	-10.8588
▁Doğal	-10.8592
▁kalktı	-10.8593
▁kazanç	-10.8595
▁Yazı	-10.8596
▁metin	-10.8598
▁kartı	-10.8598
▁katılımcı	-10.8599
▁cil	-10.8601
▁İnan	-10.8605
dıklarında	-10.8608
▁yaratmaya	-10.8614
▁yapmasını	-10.8614
▁hâlin	-10.8615
▁yakaladı	-10.8615
▁zincir	-10.8618
▁fiyatı	-10.8624
biliyorum	-10.8627
ayet	-10.8628
mezdi	-10.8629
yıllardır	-10.8632
▁kaplı	-10.8633
▁elinizde	-10.8639
▁konularda	-10.8644
▁tara	-10.8645
▁dışarıya	-10.8646
▁aldığınız	-10.8655
▁karmaşıklığı	-10.8655
▁alındı	-10.8656
▁hazırlama	-10.866
▁yolcu	-10.8675
▁elini	-10.8681
larımla	-10.8682
▁yaşıyordu	-10.8683
▁şebeke	-10.8683
▁içgüdü	-10.8684
▁sade	-10.8684
▁Önümüzde	-10.8684
▁Hedef	-10.8684
▁opera	-10.8684
▁perde	-10.8685
▁Düz	-10.8685
▁Siyah	-10.8685
▁gerektiren	-10.8685
▁götürüyor	-10.8686
▁alkol	-10.8687
▁Vadisi	-10.8688
▁dizilim	-10.869
amadığı	-10.869
▁dikey	-10.8691
▁bitme	-10.8691
▁sonuçlarını	-10.8694
leştiriyor	-10.8698
▁yapılır	-10.87
▁disk	-10.8702
▁paylaşıyor	-10.8704
▁öldürdü	-10.8705
▁topluyor	-10.8711
luyoruz	-10.8719
▁Asla	-10.8721
▁mutsuz	-10.8721
rtesi	-10.8723
▁oradaydı	-10.8723
▁sıkışı	-10.8723
▁Ocak	-10.8725
▁Derek	-10.8725
▁kısme	-10.8725
▁duyduk	-10.8729
▁çağında	-10.8744
▁getirebilir	-10.8744
▁hatırlayın	-10.8751
▁birbirimiz	-10.8759
▁gay	-10.8762
▁örtüsü	-10.8763
▁malzemeleri	-10.8765
▁başlık	-10.8768
▁bölümünde	-10.8781
▁yayıldı	-10.8788
▁yapabildiği	-10.8788
▁basar	-10.8792
mazsınız	-10.88
▁duymuş	-10.8801
▁Geçtiğimiz	-10.8812
▁çeşidi	-10.8812
▁figür	-10.8812
▁Jeff	-10.8812
▁Suriye	-10.8812
▁Modern	-10.8812
▁torba	-10.8812
▁kendiliğinden	-10.8812
▁Haiti	-10.8812
▁nazik	-10.8813
▁bayılıyor	-10.8815
▁kuyruklu	-10.8817
▁iyileştir	-10.8824
▁Çalış	-10.8825
▁yazılı	-10.8825
▁dayanıyor	-10.8828
▁koşul	-10.8835
▁gerekecek	-10.8848
rest	-10.8849
▁şarkısı	-10.885
▁yanımda	-10.8851
▁Alan	-10.8859
▁tutukla	-10.8866
▁dinledi	-10.8871
▁Okyanusu	-10.8879
burg	-10.8887
▁edemedi	-10.8897
▁Tor	-10.8907
▁hüküm	-10.8924
▁öğretmenleri	-10.8927
▁yavaşlat	-10.8928
▁yatıyor	-10.8928
▁yaşadım	-10.8932
▁adapt	-10.8937
ürekli	-10.894
▁2011	-10.8942
▁maske	-10.8942
▁çember	-10.8942
▁Muhteşem	-10.8942
▁sevimli	-10.8942
▁Güç	-10.8942
▁Fizik	-10.8942
▁şerit	-10.8942
▁korktu	-10.8942
▁düşünmüştü	-10.8943
▁kaygı	-10.8943
▁şehr	-10.8945
arry	-10.8947
▁siber	-10.8949
▁kabiliyeti	-10.8952
▁Yoks	-10.8959
ğr	-10.8986
▁Kalp	-10.8986
▁Erkek	-10.8987
▁geliştirdi	-10.8996
▁kenarında	-10.8997
▁yaşanan	-10.9
lukta	-10.9
▁yerleşim	-10.9
▁Okyanus	-10.9005
▁soyu	-10.9007
▁hatırlar	-10.901
▁besleme	-10.9012
abiliyordu	-10.9017
▁başarma	-10.9019
▁yayılması	-10.9022
▁uyuş	-10.9029
▁başlamış	-10.9042
▁kalmıştı	-10.9051
▁İster	-10.9054
▁topluluklar	-10.9069
▁Kültür	-10.9073
▁Californi	-10.9073
▁akademi	-10.9073
▁astronom	-10.9073
▁kırılgan	-10.9073
▁ısrar	-10.9073
▁cennet	-10.9073
▁Uganda	-10.9073
▁teşkil	-10.9073
▁kapsamlı	-10.9073
▁torunları	-10.9073
▁element	-10.9074
▁büyüklükte	-10.9074
▁Program	-10.9074
▁mikroskop	-10.9074
▁tören	-10.9074
▁ödev	-10.9075
fel	-10.9075
▁baktığımda	-10.9076
▁eğ	-10.9076
▁boğul	-10.9079
▁kentsel	-10.908
▁gördüğümde	-10.9082
▁2004	-10.9084
▁bulacak	-10.9084
▁ölçeği	-10.9091
▁uğraşıyor	-10.9099
▁kullanıyorum	-10.9108
▁programlama	-10.9112
etmek	-10.9127
▁okuyor	-10.9129
▁çekimi	-10.913
▁gönderiyor	-10.9132
▁yapardı	-10.9135
▁çocukluk	-10.9143
▁kazanıyor	-10.9145
▁dakikalık	-10.9146
▁karşılaştırma	-10.915
layabileceği	-10.9152
▁ilişkilendir	-10.9155
▁gidiş	-10.9155
▁durumunu	-10.9157
▁ısır	-10.916
▁başladığını	-10.9168
leştirdi	-10.9175
▁mısın	-10.918
▁yaratabilir	-10.9184
lanmamış	-10.9187
▁kurumu	-10.9202
▁geçecek	-10.9203
▁içlerinde	-10.9203
▁dördü	-10.9206
▁enstrüman	-10.9206
▁otomobil	-10.9206
▁enstitü	-10.9206
▁Kırmızı	-10.9206
▁ekstra	-10.9206
▁sentez	-10.9207
▁doğmuş	-10.9207
▁çarpışma	-10.9207
▁hoca	-10.9207
▁Devam	-10.9207
▁Kullan	-10.9208
▁mezar	-10.9209
▁silahlı	-10.921
▁Biyo	-10.9211
▁kurucu	-10.9217
▁inanan	-10.9221
▁kusursuz	-10.9223
▁oluşmuş	-10.9229
▁salgı	-10.9234
▁bastır	-10.9236
▁kalırsa	-10.9236
▁büyüdüğü	-10.9248
▁bıraktığı	-10.9252
▁Bob	-10.926
▁bazılarınız	-10.9275
▁düzenledi	-10.928
▁geçirdik	-10.9282
▁ticareti	-10.9285
digini	-10.9286
▁cerrahi	-10.9291
▁aşamada	-10.9296
▁okyanusta	-10.9301
▁benzediğini	-10.9303
▁Cas	-10.9304
▁aramaya	-10.9304
▁bitti	-10.932
▁kısıt	-10.933
▁gazı	-10.9341
▁bilişsel	-10.9342
▁formül	-10.9342
▁hakikat	-10.9342
▁ideoloji	-10.9342
▁yetecek	-10.9343
▁amca	-10.9343
▁diyebilirsiniz	-10.9345
▁hita	-10.9347
▁Etrafı	-10.9347
▁tekniği	-10.9347
▁düşünürsek	-10.935
▁ödedi	-10.9352
▁yüzleş	-10.9352
▁ped	-10.9354
▁hayl	-10.9356
▁trans	-10.9356
▁sözlük	-10.9359
▁28	-10.9359
▁PM	-10.936
▁Mimar	-10.9362
▁şempanzeler	-10.9366
▁yapamayacağı	-10.9377
▁Anlat	-10.9377
▁edinme	-10.9378
▁aleti	-10.938
▁çare	-10.938
▁bitkilerin	-10.9382
▁yayılan	-10.9383
▁tanıştır	-10.9384
▁haklarını	-10.9394
▁Rio	-10.9395
▁kaldırma	-10.9397
▁kurar	-10.9399
nizdeki	-10.9402
▁resmini	-10.9409
▁düzenlen	-10.9413
▁doz	-10.9418
▁bittiğini	-10.9419
▁sorduğu	-10.9429
▁duyan	-10.943
▁yapıcı	-10.943
▁ağız	-10.9438
umuzu	-10.9439
▁işimiz	-10.944
hattan	-10.9458
▁bilge	-10.9478
▁isteyeceği	-10.9479
▁CEO	-10.9479
▁Laboratuvar	-10.9479
▁hipotez	-10.9479
▁kapitalizm	-10.9479
▁mürekkep	-10.9479
▁Enerji	-10.9479
▁bozukluk	-10.9479
▁Yahudi	-10.9479
▁inovasyon	-10.9479
▁Çift	-10.9479
▁Whit	-10.9479
▁Robert	-10.9479
▁zıt	-10.9479
▁sürecinde	-10.9481
▁düşünmüyor	-10.9483
▁rica	-10.9483
▁İçeri	-10.9486
▁kutlama	-10.949
▁sınırı	-10.9491
▁aptalca	-10.9494
▁davranma	-10.9495
▁kaydetme	-10.9495
▁çıktığını	-10.9502
▁anlıyorum	-10.9505
▁üretilen	-10.9508
▁birbirini	-10.9509
▁kuralı	-10.9512
▁saklı	-10.9515
▁yetisi	-10.9526
▁gidiyordu	-10.9535
▁iskeleti	-10.9546
▁yerleştiril	-10.9547
▁tüketim	-10.9554
▁sinyalleri	-10.9557
▁anlatır	-10.9559
▁hastanede	-10.9566
▁takılı	-10.9568
▁kuram	-10.9574
▁yazılımı	-10.9577
▁giysi	-10.9579
▁yollarla	-10.9586
▁kuyruk	-10.9612
▁yıldızların	-10.9617
▁psiko	-10.9617
▁eviniz	-10.9617
▁Hollanda	-10.9617
▁Vücudu	-10.9617
▁antibiyotik	-10.9617
▁dinozor	-10.9617
▁liberal	-10.9617
▁uğultu	-10.9617
▁çubuk	-10.9617
▁Nobel	-10.9617
▁piyano	-10.9617
▁sabır	-10.9617
▁vadeli	-10.9617
▁şov	-10.9618
▁patron	-10.9618
▁santral	-10.9618
▁adres	-10.9623
▁yaramaz	-10.9626
BI	-10.9626
▁Merak	-10.9627
eşke	-10.9627
▁beton	-10.963
▁bittiği	-10.9639
▁cins	-10.9639
üydü	-10.9641
▁yaşayacak	-10.9643
bilim	-10.9647
▁kaos	-10.9647
▁Orman	-10.9648
▁kısıtlama	-10.9651
▁döngüsü	-10.9658
▁bakıyorum	-10.9659
▁edemiyor	-10.9662
işini	-10.9664
▁gözlerini	-10.9665
▁kaybediyor	-10.967
▁örtü	-10.9679
▁muydu	-10.9685
▁Olay	-10.9691
▁çarpma	-10.9693
▁düşürü	-10.9695
▁tepesinde	-10.9702
▁sinema	-10.9707
▁atalarımız	-10.9707
▁aktarma	-10.9712
▁bireylerin	-10.9718
▁kardeşleri	-10.9729
▁başvur	-10.9731
▁sorunumuz	-10.9738
▁yarısında	-10.9742
▁öğretmeni	-10.9743
▁Öte	-10.9746
▁yansıma	-10.9749
▁yayma	-10.9754
▁simülasyon	-10.9758
▁çukur	-10.9758
▁fiziği	-10.9758
▁istasyonu	-10.9758
▁tümüyle	-10.9759
▁dizüstü	-10.9759
▁sezon	-10.9759
▁sopa	-10.976
▁dönüşüyor	-10.976
▁195	-10.9761
▁taşıyıcı	-10.9763
▁sokağ	-10.9764
▁ödüllendir	-10.9764
▁sırrı	-10.9772
▁yüzeyinde	-10.9773
▁Haber	-10.9775
▁vb	-10.9782
▁bakıyorsunuz	-10.9783
▁bırakıp	-10.9796
▁trend	-10.9801
▁çıkarak	-10.9804
▁Durum	-10.981
▁göremedi	-10.9811
▁hissetti	-10.9811
▁çevirdi	-10.9818
▁jeo	-10.9829
▁vermiyor	-10.9831
▁satır	-10.9834
▁kesti	-10.9837
▁isterdi	-10.9842
▁söyleyin	-10.9843
▁düşünecek	-10.9848
▁istediklerini	-10.9852
▁eğil	-10.9857
▁sarma	-10.9871
▁Güven	-10.9878
▁birikim	-10.988
▁önlem	-10.9881
▁değişiklikleri	-10.9885
▁miktarını	-10.9895
▁değerini	-10.9898
▁okudu	-10.99
▁Gand	-10.99
▁GSY	-10.9901
▁maddi	-10.9901
▁ressam	-10.9901
▁esnasında	-10.9901
▁mutfak	-10.9901
▁Kutbu	-10.9901
▁mikrofon	-10.9902
▁güce	-10.9902
▁ölür	-10.9909
▁inanı	-10.9911
▁Elimizde	-10.9914
▁satıcı	-10.9915
▁buzun	-10.9916
▁yitir	-10.9925
▁fikr	-10.9936
▁motoru	-10.9951
▁çat	-10.9953
▁üretir	-10.998
▁başarısızlık	-10.9982
▁Doku	-10.9989
▁hic	-10.9996
▁Hintli	-10.9998
▁ilgimi	-10.9999
▁gerekmiyor	-10.9999
▁başlığı	-11.0016
BG	-11.002
▁düşünmeniz	-11.002
▁fotoğrafını	-11.0022
▁isimlendir	-11.0025
▁oturduğu	-11.0027
▁vazgeçme	-11.0034
▁açıkladı	-11.0037
▁dolduru	-11.0042
ğünde	-11.0042
▁Hristiyan	-11.0046
▁Körfez	-11.0046
▁enteresan	-11.0046
▁geometri	-11.0046
▁istikrar	-11.0046
▁referans	-11.0046
▁şablon	-11.0046
▁Problem	-11.0046
▁Street	-11.0046
▁cidden	-11.0046
▁diyalog	-11.0046
▁gergin	-11.0046
▁karmaşa	-11.0046
▁emisyon	-11.0046
▁hacker	-11.0046
▁Bakanlığı	-11.0046
▁Kongo	-11.0046
▁Bankası	-11.0046
▁aygıt	-11.0047
▁bozukluğu	-11.0048
▁kumanda	-11.0048
▁tünel	-11.0048
▁eşitsizlik	-11.0049
▁tuttuğu	-11.0049
▁tanıştığım	-11.005
▁salonda	-11.0051
▁düğüm	-11.0052
▁Yerel	-11.0053
▁metro	-11.0054
▁Rob	-11.0058
▁120	-11.0059
▁severim	-11.0061
▁fikrimiz	-11.0065
▁basamak	-11.007
▁Güvenlik	-11.007
▁yükselme	-11.0075
▁bilinir	-11.0076
▁dünyamızı	-11.0077
▁sanıyor	-11.0079
▁Hastane	-11.0085
▁olmasaydı	-11.0088
taşı	-11.0089
▁dikkatini	-11.009
▁vermişti	-11.0095
▁koşulları	-11.0099
▁kitapta	-11.0099
başı	-11.0104
▁pişirme	-11.0115
▁grub	-11.0134
▁yayımla	-11.0139
▁attığı	-11.0147
▁değiştiğini	-11.0164
▁itti	-11.0166
▁çocuklarımızı	-11.0169
▁sundu	-11.0171
▁eşitlik	-11.0175
60	-11.0176
▁tasarlay	-11.0179
▁olağan	-11.0192
▁konuşmamı	-11.0193
▁gecekondu	-11.0193
▁motive	-11.0193
▁pirinç	-11.0193
▁kalori	-11.0194
▁terörizm	-11.0194
▁Evrim	-11.0194
▁görünmüyor	-11.0195
▁kaderi	-11.0197
▁bakımından	-11.0199
▁tükenme	-11.0203
▁işgal	-11.0207
▁uçtu	-11.0209
▁öyleyse	-11.0209
▁oynayan	-11.0223
▁eleştiri	-11.0229
▁kesiş	-11.0229
▁uğraşan	-11.0232
▁gereksiz	-11.0238
▁War	-11.0242
▁başlatma	-11.025
▁gerçeğ	-11.0259
▁performansı	-11.026
▁bitirdi	-11.0263
▁davranışlarını	-11.0264
▁öncülü	-11.0269
▁pişir	-11.0272
▁çalışmasını	-11.0279
▁26	-11.0279
▁görmedi	-11.028
▁başlarında	-11.0286
▁Erkekler	-11.029
▁karşılaştığımız	-11.0305
▁çıktığında	-11.0307
▁Yanı	-11.0311
▁poli	-11.0312
▁canlandırma	-11.0315
▁oranını	-11.0316
▁kısıtlı	-11.032
▁faydası	-11.0331
▁hızını	-11.0341
▁Geleneksel	-11.0342
▁hükumet	-11.0342
▁karaciğer	-11.0342
▁koridor	-11.0342
▁reçete	-11.0342
▁Politik	-11.0342
▁negatif	-11.0342
▁çamur	-11.0342
▁Müzesi	-11.0342
▁süresince	-11.0343
▁Yardım	-11.0343
▁acımasız	-11.0343
▁pound	-11.0343
▁İzleyici	-11.0344
▁paralel	-11.0344
▁aşina	-11.0345
▁söyleyeyim	-11.0347
▁açılma	-11.035
▁Port	-11.035
▁rota	-11.035
▁yuzde	-11.0356
▁seti	-11.0356
▁Titan	-11.0356
▁buluyorum	-11.0357
rmal	-11.0357
▁kuruluşları	-11.0361
leşen	-11.0364
▁Saat	-11.0367
▁Ortalama	-11.0367
▁çalışacağım	-11.0369
▁100.000	-11.0369
▁alıyordu	-11.0371
▁dinliyor	-11.0372
▁fotoğrafta	-11.0376
▁İst	-11.038
▁yosun	-11.0381
▁akıllıca	-11.0381
▁haritasını	-11.0385
▁yetkili	-11.0395
▁sisteminde	-11.0398
▁bardak	-11.0399
yacaksınız	-11.0401
▁köşesinde	-11.0409
▁bozulma	-11.0412
▁çakı	-11.0414
▁dostu	-11.0416
▁beraberinde	-11.0421
leştirir	-11.0426
▁uçurum	-11.0431
▁Dav	-11.0439
▁yaramadı	-11.0453
▁diken	-11.0455
▁anlamsız	-11.0473
▁halini	-11.0484
▁Aslın	-11.0485
▁becer	-11.0486
▁yakalanma	-11.0488
▁Özel	-11.0494
▁Britanya	-11.0494
▁Chicago	-11.0494
▁belediye	-11.0494
▁bıçak	-11.0494
▁mevsim	-11.0494
▁Scott	-11.0494
▁göreceğiniz	-11.0494
RNA	-11.0494
▁Hâl	-11.0494
▁Ebola	-11.0494
▁şapka	-11.0494
▁transfer	-11.0495
▁gerektiriyor	-11.0495
▁titreşim	-11.0495
▁dağınık	-11.0495
▁birbirimizi	-11.0496
▁şahs	-11.0499
▁Noel	-11.0501
▁götürür	-11.0504
▁degis	-11.0506
▁basınç	-11.0506
▁yenilenebilir	-11.0509
▁davranışsal	-11.0509
▁aranızda	-11.0511
▁Ph	-11.0512
▁okuduğum	-11.0515
▁Hepsini	-11.0515
▁şair	-11.0516
▁saklama	-11.0523
▁inceliyor	-11.0523
▁belirleye	-11.0539
▁verdiğiniz	-11.054
▁çöküş	-11.0541
▁farkındalık	-11.0548
▁yapmadı	-11.055
▁bildirim	-11.0563
▁sunduğu	-11.0578
▁İnanıyoru	-11.0582
▁kullanılır	-11.0585
▁bio	-11.0595
▁örnekte	-11.0595
▁uçma	-11.0601
üzün	-11.0604
▁gideli	-11.0617
▁33	-11.0635
▁alanlarında	-11.0644
▁anatomi	-11.0648
▁dramatik	-11.0648
▁helikopter	-11.0648
▁kurbağa	-11.0648
▁nöroloji	-11.0648
▁Bölge	-11.0648
▁tahrip	-11.0648
▁emniyet	-11.0648
▁koltuğu	-11.0648
▁partner	-11.0648
▁Sahip	-11.0648
▁Mikro	-11.0648
▁hayatınızı	-11.0648
▁kurulmuş	-11.0649
▁Makine	-11.0649
▁ergen	-11.0649
▁fırın	-11.0649
▁cisim	-11.065
▁kaynaklanıyor	-11.0654
▁uçuyor	-11.0658
▁sanıyorum	-11.066
▁şüphesiz	-11.0661
▁birbiri	-11.0671
▁duman	-11.0671
▁başvuru	-11.0678
▁açıldı	-11.0678
▁robotik	-11.068
▁umur	-11.0681
▁benzetme	-11.0681
▁verilmiş	-11.0689
▁Dinle	-11.0698
▁hara	-11.0698
▁yarışı	-11.0703
▁atlat	-11.0719
İH	-11.0721
▁içimizde	-11.0736
▁üstte	-11.0737
▁akışını	-11.0753
▁bahsettiği	-11.0759
▁elektriği	-11.076
▁bağımlılık	-11.0768
▁şartları	-11.0776
▁bulamadı	-11.0779
▁kullanılması	-11.0784
▁adlandırıla	-11.0787
▁Krallık	-11.0793
▁Birçoğu	-11.0804
▁Matematik	-11.0804
▁böceği	-11.0804
▁dinazor	-11.0804
▁güvercin	-11.0804
▁kahverengi	-11.0804
▁çikolata	-11.0804
▁İsviçre	-11.0804
▁Biyoloji	-11.0804
▁reaksiyon	-11.0804
▁onemli	-11.0804
▁akıntı	-11.0804
▁yıkıcı	-11.0804
▁maalesef	-11.0804
▁hakkinda	-11.0804
▁rekor	-11.0805
▁mizah	-11.0805
▁umursama	-11.0806
▁köşede	-11.0806
▁telif	-11.0806
▁solucan	-11.0807
▁Gana	-11.0809
▁Işık	-11.0809
BC	-11.081
▁edemeyeceği	-11.0811
▁bitiş	-11.0811
▁Ford	-11.0813
▁ödün	-11.0815
▁işlevsel	-11.0815
▁kalkıp	-11.0821
▁eğiliminde	-11.0823
▁yaşamını	-11.0834
▁Tür	-11.0838
engin	-11.0839
▁öldüğü	-11.0853
▁galeri	-11.086
▁verdiğini	-11.0862
▁aşamasında	-11.0864
▁burnu	-11.0865
▁yiyeceği	-11.0869
▁seçtiği	-11.0871
▁etkinlik	-11.0871
▁kaynaklarını	-11.0876
▁kariyerim	-11.0884
▁genişleme	-11.092
leştirilmesi	-11.0942
malısın	-11.0944
▁yeter	-11.0947
▁uzaklaştır	-11.0948
▁Yemek	-11.0952
▁donmuş	-11.0953
▁böcekleri	-11.0955
▁arkadaşlarınız	-11.0958
▁Afgan	-11.0962
▁William	-11.0963
▁batarya	-11.0963
▁hormon	-11.0963
▁paradigma	-11.0963
▁trajedi	-11.0963
▁şaşkın	-11.0963
▁Silikon	-11.0963
▁Stanford	-11.0963
▁Smith	-11.0963
▁Gülme	-11.0963
▁retina	-11.0963
▁varoluş	-11.0963
▁Uygu	-11.0963
▁profil	-11.0963
▁ırkçı	-11.0966
▁Eric	-11.0968
AT	-11.0968
▁esinlen	-11.0968
▁vadi	-11.0969
▁ilave	-11.0971
▁dönüşür	-11.0973
▁derinliklerin	-11.0977
▁beste	-11.0977
▁devri	-11.0978
▁abartı	-11.098
▁yapamıyor	-11.0988
▁karışımı	-11.0988
▁yardımıyla	-11.099
▁geçirmiş	-11.0991
▁görmüştü	-11.1007
▁rahatsızlık	-11.101
▁şansımız	-11.1014
▁hastalığ	-11.1026
▁vurma	-11.1031
▁önemini	-11.1032
▁aldığını	-11.1035
▁programcı	-11.104
▁Hayatta	-11.104
▁bulaş	-11.1043
▁ihtiyac	-11.1057
▁elinizi	-11.1057
▁zorlukları	-11.1064
▁evlenme	-11.1068
▁korkar	-11.1072
▁duydukları	-11.1076
▁başladığında	-11.1078
▁çaresiz	-11.108
▁Bazılarınız	-11.1088
▁Gülüşme	-11.1093
▁kolunu	-11.1101
▁kalitesini	-11.111
▁muyu	-11.1115
leştiren	-11.1117
▁hoşlanma	-11.112
▁Demokrasi	-11.1124
▁eşcinsel	-11.1124
▁rüşvet	-11.1124
▁sentetik	-11.1124
▁çevrimiçi	-11.1124
▁çürü	-11.1124
▁Hızlı	-11.1124
▁görecek	-11.1125
▁imaj	-11.1125
▁ironi	-11.1126
▁ünite	-11.1126
▁parazit	-11.1127
▁kalkınma	-11.1127
▁Beynin	-11.1127
▁dövme	-11.1127
▁denizaltı	-11.1129
▁kabin	-11.1134
▁Etki	-11.1134
▁kaçak	-11.1136
▁geldiğimde	-11.1136
▁toplulukları	-11.1138
▁odaklı	-11.1146
▁Iste	-11.1148
▁tutkulu	-11.115
▁çalıyor	-11.1155
▁0.	-11.1156
▁Kural	-11.1157
▁doğma	-11.1169
▁gelmesini	-11.1172
▁Kapı	-11.1173
▁duruş	-11.1175
▁çekilme	-11.118
▁yeryüzünde	-11.1185
▁eleştir	-11.1186
▁fiil	-11.1197
▁Bekle	-11.1203
laşır	-11.1203
▁Plan	-11.1209
▁geleceğimiz	-11.1221
▁bahar	-11.1226
▁nerde	-11.1237
▁biliniyor	-11.1239
▁yüzleşme	-11.1242
▁oynadı	-11.1243
▁görülmemiş	-11.1244
▁sattı	-11.1247
▁arttırma	-11.1252
▁anlaş	-11.127
▁vücudunu	-11.1272
▁tadını	-11.1278
▁kafasını	-11.128
ılmamış	-11.1283
▁azalıyor	-11.1286
▁Gazete	-11.1288
ntarktik	-11.1288
▁Akademi	-11.1288
▁Atlantik	-11.1288
▁Kontrol	-11.1288
▁mıknatıs	-11.1288
▁öbür	-11.1288
▁üzücü	-11.1288
▁tropik	-11.1288
▁sömür	-11.1288
▁Yavaş	-11.1288
▁Petrol	-11.1288
▁aldatma	-11.1288
▁hiçbirşey	-11.1288
▁ogren	-11.1289
▁klip	-11.1289
▁Genellikle	-11.129
▁ölecek	-11.129
▁kumaş	-11.1291
▁sunucu	-11.1291
▁Benzer	-11.1291
▁mekaniği	-11.1292
▁kemer	-11.1293
▁Hazır	-11.1293
▁korsan	-11.1294
▁sayılır	-11.1298
▁2003	-11.1299
▁istemiyoruz	-11.1307
BA	-11.1309
▁calisma	-11.1312
▁baska	-11.1315
▁Ekim	-11.1317
▁95	-11.1321
▁durak	-11.1329
▁hatırlatıyor	-11.1335
▁mega	-11.1345
▁almıştı	-11.1356
ER	-11.1364
▁gerçekleştiği	-11.1365
▁kuşak	-11.1367
▁özelliklerini	-11.1369
▁bahsettiğimiz	-11.1394
leşecek	-11.1407
▁tabanı	-11.1415
▁cevabını	-11.1418
▁evcil	-11.1432
▁Gitti	-11.1433
▁Düşündü	-11.1437
▁Dijital	-11.1455
▁aykırı	-11.1455
▁enfekte	-11.1455
▁feminist	-11.1455
▁kombinasyon	-11.1455
▁sipariş	-11.1455
▁Örnek	-11.1455
▁çekirdek	-11.1455
▁prensibi	-11.1455
▁estetik	-11.1455
▁meclis	-11.1455
▁alıkoy	-11.1455
▁imalat	-11.1455
▁Sabah	-11.1455
▁banyo	-11.1455
▁karşılığında	-11.1455
▁Yaşlı	-11.1455
▁zarif	-11.1456
▁darbe	-11.1457
▁kaçınma	-11.1457
▁Asker	-11.1457
▁taze	-11.146
▁mutluyum	-11.1466
▁2001	-11.1467
▁gercekte	-11.1468
▁nehrin	-11.147
▁yeraltı	-11.147
▁kuramı	-11.1471
▁telefonunuz	-11.1483
▁eğim	-11.1485
▁yankı	-11.149
▁kirliliği	-11.149
▁hepinizi	-11.1492
▁fiber	-11.1525
▁havuz	-11.1559
▁yoğunluk	-11.1567
▁görebileceği	-11.158
▁alabiliyor	-11.1583
▁türünü	-11.1594
▁istemediği	-11.1598
▁kabiliyet	-11.1611
▁sahi	-11.1614
▁alem	-11.1619
▁Arjantin	-11.1624
▁Mükemmel	-11.1624
▁Sovyet	-11.1624
▁Wikipedia	-11.1624
▁acayip	-11.1624
▁cinayet	-11.1624
▁sandviç	-11.1624
▁rezerv	-11.1624
▁Yukarı	-11.1624
▁husus	-11.1624
▁Green	-11.1624
▁farz	-11.1624
▁enjekt	-11.1625
▁tükenmiş	-11.1625
▁bencil	-11.1625
▁imge	-11.1626
▁bulaşıcı	-11.1627
▁kirlet	-11.1628
▁goz	-11.1632
▁ortamında	-11.1633
▁küreselleşme	-11.164
▁sürecini	-11.1642
▁isyan	-11.1645
▁görebiliyorum	-11.1646
▁lüks	-11.1655
▁kalanını	-11.1661
▁kopar	-11.1661
▁kapağı	-11.1664
▁uzaklıkta	-11.1667
halde	-11.168
EC	-11.1684
▁tuş	-11.1702
▁edildiğini	-11.1707
▁konuşuyordu	-11.1713
▁gittiğimiz	-11.1732
47	-11.1732
▁buluşma	-11.1743
▁kullanımını	-11.1748
digimiz	-11.175
▁sağlayabil	-11.1754
▁şempanze	-11.1766
awa	-11.1786
▁muhafaza	-11.1795
▁Cambridge	-11.1797
▁Florida	-11.1797
▁Vietnam	-11.1797
▁Yanlış	-11.1797
▁interaktif	-11.1797
▁çapta	-11.1797
▁kızgın	-11.1797
▁psikolog	-11.1797
▁irade	-11.1797
▁Brun	-11.1797
▁netice	-11.1799
▁Bilmiyorum	-11.1801
▁seviyesini	-11.1802
▁Kişisel	-11.1802
▁pişmanlık	-11.1803
▁döndürü	-11.1803
▁yürürken	-11.1804
▁ertesi	-11.1805
▁eğitil	-11.1805
▁renkte	-11.1806
▁direnci	-11.1806
▁Lider	-11.1807
▁düşünebiliriz	-11.181
▁Doğrusu	-11.1816
agos	-11.1816
▁Model	-11.1819
▁destekliyor	-11.1831
▁Çağ	-11.1842
lduğunda	-11.1852
▁başarama	-11.1857
▁bilmeniz	-11.1868
▁dalgalanma	-11.1872
RB	-11.1875
layabilecek	-11.1909
▁durduru	-11.1916
▁Ağı	-11.1917
▁odasında	-11.1923
▁kolaylık	-11.1958
▁değiştirebil	-11.1962
▁bahsetmiyoru	-11.1972
▁minnettar	-11.1972
▁peynir	-11.1972
▁popülasyon	-11.1972
▁İspanya	-11.1972
▁Haziran	-11.1972
▁halihazırda	-11.1972
▁haricinde	-11.1972
▁mağdur	-11.1972
▁paraşüt	-11.1972
▁ihlal	-11.1972
▁masum	-11.1972
▁cihad	-11.1972
▁goster	-11.1972
▁başlıca	-11.1972
▁Bebek	-11.1972
▁evvel	-11.1972
▁takıntı	-11.1972
▁niteliği	-11.1973
▁saldırgan	-11.1973
City	-11.1974
ville	-11.1974
▁gereksinim	-11.1975
▁duymuşsunuz	-11.1976
ugh	-11.1978
▁olamayacağı	-11.198
▁dansçı	-11.198
▁ayrılmış	-11.1982
▁çözülme	-11.1988
▁Nano	-11.1988
▁dışkı	-11.2004
▁edilecek	-11.2007
▁alarm	-11.2011
binlerce	-11.2027
▁harcadığı	-11.2048
▁Hatırla	-11.2051
▁belirlen	-11.2055
▁davranıyor	-11.2069
▁teknolojisini	-11.208
▁tabu	-11.2083
▁Resim	-11.2098
▁görüldüğü	-11.2111
abilmemiz	-11.212
▁gözükme	-11.2125
dönük	-11.2137
▁bütünüy	-11.2148
▁Brown	-11.2151
▁LED	-11.2151
▁muayene	-11.2151
▁patates	-11.2151
▁İspanyol	-11.2151
▁dogru	-11.2151
▁Şehri	-11.2151
▁bahsetmiş	-11.2151
▁ampul	-11.2151
▁sakat	-11.2151
▁çiğ	-11.2151
▁Belir	-11.2151
▁ödüyor	-11.2152
▁görülebilir	-11.2152
▁göğsü	-11.2154
▁Nick	-11.216
▁lens	-11.2164
▁pen	-11.217
▁dürtü	-11.2175
▁maka	-11.2186
▁aslin	-11.2187
▁peri	-11.2188
▁kapanı	-11.2192
▁tamamiyl	-11.2194
▁çabu	-11.223
▁burun	-11.223
▁basladi	-11.2237
leştiril	-11.2256
▁yayılmış	-11.2306
▁Vo	-11.2326
▁kurabil	-11.2327
▁Taliban	-11.2332
▁hemfikir	-11.2332
▁istihdam	-11.2332
▁vasıtası	-11.2332
▁Binlerce	-11.2332
▁Gates	-11.2332
▁coğrafya	-11.2332
▁fırça	-11.2332
▁spektrum	-11.2332
▁şahane	-11.2332
▁arşiv	-11.2332
▁beyne	-11.2333
▁çağdaş	-11.2333
▁işkence	-11.2333
▁sistematik	-11.2333
▁Seçim	-11.2333
▁yüce	-11.2333
▁Simdi	-11.2333
▁modelini	-11.2335
▁plak	-11.2335
▁örgü	-11.2336
▁Kişi	-11.2338
▁yükselişi	-11.2341
▁Tony	-11.2342
▁evlat	-11.2342
▁gayri	-11.2343
▁Bron	-11.2349
▁kullanmıyor	-11.2349
▁zorlama	-11.2352
ette	-11.2368
▁evimiz	-11.237
▁bankacı	-11.2371
▁içimde	-11.2376
▁eşitliği	-11.242
▁katılıyor	-11.2427
▁edeceğimiz	-11.2437
▁baktığımız	-11.2441
▁olmayacağı	-11.2452
▁düşünebilir	-11.2459
▁yayılıyor	-11.2464
▁Oray	-11.2498
▁Tah	-11.2515
▁cocuk	-11.2518
▁Hücre	-11.2518
▁bambaşka	-11.2518
▁eşdeğer	-11.2518
▁istihbarat	-11.2518
▁kristal	-11.2518
▁Özgür	-11.2518
▁timsah	-11.2518
▁yozlaşma	-11.2518
▁öldürücü	-11.2518
▁Vakfı	-11.2518
▁Şarkı	-11.2518
▁zafer	-11.2518
▁Sahra	-11.2518
▁patern	-11.2518
▁aktiv	-11.2518
▁güdü	-11.252
▁denetim	-11.2521
▁ipek	-11.2523
▁yolsuzluk	-11.2524
▁penis	-11.2526
▁Motor	-11.2527
▁öğe	-11.2527
▁kalmayıp	-11.2527
▁Şans	-11.254
▁diyebilir	-11.254
▁oğlumu	-11.2546
▁ikon	-11.2556
larinda	-11.2567
▁sokma	-11.2572
▁dönüştürdü	-11.2582
Ş	-11.2583
▁özünde	-11.2584
▁havuzu	-11.2589
▁yoksulluğu	-11.2591
▁yaşayabilir	-11.2597
▁gelebil	-11.2608
▁peş	-11.2609
▁soktu	-11.262
▁baktığınız	-11.2651
▁ışığ	-11.2652
▁yetiştiril	-11.2666
▁idam	-11.2678
▁Str	-11.2687
▁illüzyon	-11.2706
▁Microsoft	-11.2706
▁Nihayet	-11.2706
▁Yaratıcı	-11.2706
▁istismar	-11.2706
▁şükür	-11.2706
▁erkeğin	-11.2706
▁tahıl	-11.2706
▁Değer	-11.2706
▁rakip	-11.2707
▁Koruma	-11.2707
▁zira	-11.2707
▁statü	-11.2707
▁diyebilirim	-11.2713
▁görünmeyen	-11.2714
▁düşünmeliyiz	-11.2715
▁Görev	-11.2715
▁oluştuğunu	-11.2716
▁Henr	-11.2724
▁bulunduğunu	-11.273
▁kültürümüz	-11.2734
▁Charl	-11.2736
▁kuşku	-11.2739
▁Inc	-11.2758
mişsinizdir	-11.276
▁190	-11.2765
▁koşma	-11.2781
▁işitme	-11.2784
▁ayarlama	-11.279
▁atlet	-11.2806
▁belirtileri	-11.2812
▁Düş	-11.2813
▁gördüğünde	-11.2813
▁artırma	-11.2823
▁yeryüzü	-11.2839
▁çözünürlük	-11.2854
▁coğrafi	-11.2899
▁kuyruğu	-11.2899
▁süpür	-11.2899
▁klavye	-11.2899
▁volkan	-11.2899
▁şarj	-11.2899
▁tweet	-11.2899
▁doğuştan	-11.2899
▁numune	-11.2899
▁Yıldız	-11.2899
▁fatura	-11.2899
▁Pekâl	-11.2899
▁talebi	-11.2899
▁Sokak	-11.2899
▁tasvir	-11.2899
▁Medya	-11.2899
▁izole	-11.2899
▁gündüz	-11.2899
▁üzül	-11.2899
▁Berlin	-11.29
▁pre	-11.29
lendiriyor	-11.2902
▁çene	-11.2903
▁hasat	-11.2903
▁anlaşılması	-11.2905
▁beklenen	-11.2907
▁rahatlat	-11.2908
▁Kızıl	-11.2909
▁göründüğünü	-11.2911
▁kavramını	-11.2918
▁modül	-11.2921
▁hayatınızda	-11.2927
▁yatırımcılar	-11.2942
▁hissettikleri	-11.2946
▁buralarda	-11.295
▁Merkez	-11.2957
▁görebildiği	-11.2991
▁kaydedil	-11.3011
▁beklediği	-11.3019
▁aktarıl	-11.3028
ilmemiş	-11.303
▁buluştu	-11.3044
▁gelişiyor	-11.3058
▁sağlığını	-11.3059
▁umuyoru	-11.3075
▁gitmiyor	-11.3075
döv	-11.3089
▁semptom	-11.3095
▁Duygu	-11.3095
▁Ruanda	-11.3095
▁beyefendi	-11.3095
▁filozof	-11.3095
▁laboratuar	-11.3095
▁origami	-11.3095
▁otoyol	-11.3095
▁personel	-11.3095
▁primat	-11.3095
▁ritüel	-11.3095
▁yırtıcı	-11.3095
▁zekâ	-11.3095
▁Anlaşıl	-11.3095
▁Virgin	-11.3095
▁Delhi	-11.3095
▁Devrimi	-11.3095
▁görülür	-11.3095
▁avuç	-11.3095
▁küçümse	-11.3095
▁Kelime	-11.3095
▁kurşun	-11.3097
▁çoğunluk	-11.3098
▁193	-11.3099
▁ivme	-11.3099
▁Arapça	-11.31
▁yatkın	-11.31
▁oynadığı	-11.3101
▁boğa	-11.3103
▁fren	-11.3107
▁yenme	-11.3108
▁yıkım	-11.3108
▁bandı	-11.311
▁hekim	-11.3111
▁ilerlet	-11.3113
▁Aklım	-11.3123
▁dikkatinizi	-11.3129
▁anlayabilmek	-11.3132
▁enzim	-11.3134
▁keşfe	-11.314
▁çocukluğum	-11.3164
▁Bildiğin	-11.3186
▁Hayatımı	-11.3199
▁Adaları	-11.3238
▁düştüğü	-11.3277
▁yapabiliri	-11.3277
▁oluştuğu	-11.3286
▁içinizde	-11.3294
▁Etiyopya	-11.3295
▁Kütüphane	-11.3295
▁National	-11.3295
▁efekt	-11.3295
▁mecbur	-11.3295
▁oksitosin	-11.3295
▁omurga	-11.3295
▁ufacık	-11.3295
▁Parkinson	-11.3295
▁düşünürsünüz	-11.3295
▁misafir	-11.3295
▁sponsor	-11.3295
▁Kitabı	-11.3295
▁manşet	-11.3295
▁meslektaşım	-11.3295
▁muhabir	-11.3295
▁doğaçlama	-11.3295
▁kliniğ	-11.3295
▁çırp	-11.3295
▁mineral	-11.3295
▁Görünüş	-11.3295
▁gütmeye	-11.3295
NSA	-11.3295
▁Silah	-11.3295
▁haberdar	-11.3295
▁pamuk	-11.3295
▁taciz	-11.3296
▁solunum	-11.3296
▁öldürüyor	-11.3297
▁okuyucu	-11.3297
▁Duvar	-11.3298
▁açılış	-11.3298
▁arayışı	-11.33
▁Yemen	-11.33
▁genişliğinde	-11.3301
▁yatay	-11.3301
▁evliliği	-11.3302
▁süzül	-11.3319
▁görmekte	-11.3324
▁uyuyor	-11.3325
▁görüldü	-11.3342
▁tanımladığı	-11.3353
laşan	-11.3361
▁maliyetini	-11.3386
▁jet	-11.3386
▁gökyüzünde	-11.3393
çoğumuzun	-11.3409
▁olanağı	-11.3444
▁eklem	-11.3447
▁yaklaşıyor	-11.3483
▁Marc	-11.3484
▁şekl	-11.3491
▁halüsinasyon	-11.3499
▁Michel	-11.3499
▁Norveç	-11.3499
▁konsantr	-11.3499
▁levha	-11.3499
▁obezite	-11.3499
▁pantolon	-11.3499
▁tsunami	-11.3499
▁Çocuğu	-11.3499
▁Örgütü	-11.3499
▁GSM	-11.3499
▁hayırsever	-11.3499
▁kabuğu	-11.3499
▁talimat	-11.3499
▁keyfi	-11.3499
▁çorba	-11.3499
▁Nelson	-11.3499
▁Black	-11.3499
▁editör	-11.3499
▁düşünüp	-11.3499
▁format	-11.3499
▁hapiste	-11.3499
▁servet	-11.3499
▁oğlan	-11.3499
▁İsmi	-11.3499
▁etnik	-11.35
▁Şubat	-11.35
▁ipucu	-11.3501
▁Cuma	-11.3501
▁Kaçınız	-11.3501
▁dönüştürüyor	-11.3503
▁niyetli	-11.3504
▁West	-11.3504
▁görelim	-11.3505
▁sindir	-11.3505
▁Polis	-11.3509
▁bilgeliğ	-11.3523
▁Jenn	-11.3523
▁destekledi	-11.353
▁duyulma	-11.3533
▁yaklaştığı	-11.3535
▁sürüklen	-11.3552
▁yaşayacağı	-11.3567
bilirdiniz	-11.3569
▁karanlıkta	-11.359
▁avlanma	-11.3609
▁saklay	-11.363
▁patlay	-11.3633
olly	-11.3681
▁Demokrat	-11.3707
▁Dördüncü	-11.3707
▁Grön	-11.3707
▁Profesör	-11.3707
▁Singapur	-11.3707
▁Ticaret	-11.3707
▁asteroid	-11.3707
▁federal	-11.3707
▁festival	-11.3707
▁imparator	-11.3707
▁argüman	-11.3707
▁kulübe	-11.3707
▁zanned	-11.3707
▁Sekoya	-11.3707
▁garaj	-11.3707
▁uyguluyor	-11.3707
▁İlgi	-11.3707
▁bayrak	-11.3707
▁tercüme	-11.3707
▁borsa	-11.3707
▁mühim	-11.3707
▁Brian	-11.3707
▁Life	-11.3708
▁Şili	-11.3708
▁cikar	-11.3708
▁Köy	-11.3709
▁Julia	-11.3712
▁etkileyecek	-11.3713
▁Aşk	-11.3721
▁hidro	-11.3722
▁Kapa	-11.3725
▁hassasiyet	-11.3758
▁topladığı	-11.378
▁versiyonunu	-11.3799
▁eşleş	-11.38
ograf	-11.3802
▁görüştü	-11.3833
▁düşmüş	-11.3849
▁insanoğlunu	-11.3866
▁itme	-11.387
▁Bangladeş	-11.392
▁Detroit	-11.392
▁Elektrik	-11.392
▁Olimpiyat	-11.392
▁astronot	-11.392
▁hiyerarşi	-11.392
▁spesifik	-11.392
▁süpermarket	-11.392
▁örüntü	-11.392
▁Aristo	-11.392
▁çizelge	-11.392
▁Soğuk	-11.392
▁Watson	-11.392
▁ultra	-11.392
▁sansür	-11.392
▁baloncuk	-11.392
▁ritmi	-11.392
▁gayret	-11.392
▁dindar	-11.392
▁Sekiz	-11.392
▁Finans	-11.3921
▁makul	-11.3921
▁logo	-11.3922
▁üzgünüm	-11.3922
▁afet	-11.3922
▁Mayıs	-11.3922
▁Yoksul	-11.3923
▁vaad	-11.3923
▁zihniyet	-11.3924
▁yedek	-11.3925
▁lanet	-11.3928
▁azınlık	-11.3929
▁Terör	-11.3936
▁yapılacağın	-11.3946
▁çapl	-11.3946
uther	-11.3961
▁Hill	-11.3993
▁alabilme	-11.4005
▁değiştiği	-11.404
▁oğlunu	-11.405
▁getireceği	-11.4075
▁tanımlıyor	-11.4085
▁kavuştu	-11.4124
▁üzgün	-11.4136
▁Muhammed	-11.4137
▁iPod	-11.4137
▁mütevaz	-11.4137
▁tişört	-11.4137
▁İrlanda	-11.4137
▁şampiyon	-11.4137
▁röntgen	-11.4137
▁manevi	-11.4137
▁klişe	-11.4137
▁çiçeğ	-11.4137
▁Bilinç	-11.4137
▁Somali	-11.4137
▁sızıntı	-11.4137
▁öğüt	-11.4137
▁meyilli	-11.4138
▁Mühendis	-11.4138
▁başlamalıyız	-11.4141
▁gittiğinizde	-11.4142
▁Karanlık	-11.4147
▁Kolay	-11.4148
▁düşündüğünü	-11.415
▁adaptasyon	-11.4156
▁İncil	-11.4167
▁versiyon	-11.4193
vatar	-11.4234
Kaide	-11.4241
▁çıkmıştı	-11.4284
▁toprağ	-11.4289
▁döndüğüm	-11.4314
▁olamadı	-11.4357
▁Leonardo	-11.4359
▁coşku	-11.4359
▁fevkalade	-11.4359
▁müslüman	-11.4359
▁soykırım	-11.4359
▁ürkütücü	-11.4359
▁fakülte	-11.4359
▁ipuçları	-11.4359
▁omurilik	-11.4359
▁çekirdeği	-11.4359
▁İskoç	-11.4359
▁Bahçe	-11.4359
▁tansiyon	-11.4359
▁Kulağa	-11.4359
▁Türkiye	-11.4359
▁enkaz	-11.436
▁gökada	-11.436
▁talih	-11.436
▁nerdeyse	-11.4361
▁Sınır	-11.4361
▁mucit	-11.4362
▁Kök	-11.4369
▁cuma	-11.4374
▁Şurada	-11.4377
▁Ric	-11.439
▁atlayı	-11.4392
▁yürütme	-11.4413
▁denetle	-11.4435
▁cesaretlendir	-11.4435
▁Tesl	-11.4453
hücre	-11.4463
ound	-11.4466
▁Gelecekte	-11.4473
lendirilme	-11.45
eographic	-11.4587
▁Endüstri	-11.4587
▁Hawaii	-11.4587
▁hoparlör	-11.4587
▁implant	-11.4587
▁mektubu	-11.4587
▁Başlangıçta	-11.4587
▁Köpek	-11.4587
▁çeyrek	-11.4587
▁asansör	-11.4587
▁entropi	-11.4587
▁kraliçe	-11.4587
▁Endişe	-11.4587
▁nötr	-11.4587
▁yüzgeç	-11.4587
▁Nefes	-11.4587
▁sıçan	-11.4587
▁İlaç	-11.4587
▁Hukuk	-11.4587
▁hatıra	-11.4587
▁alıştırma	-11.4587
▁Yaptıkları	-11.4589
▁pano	-11.4591
▁prens	-11.4593
▁kalıntıları	-11.4602
▁keşfedilme	-11.4623
▁engelleye	-11.4646
▁karanlığ	-11.4666
yahut	-11.4722
▁başlayı	-11.4792
anlayabilirsiniz	-11.4797
▁Rüzgar	-11.4819
▁fizyoloji	-11.4819
▁genetiği	-11.4819
▁ihmal	-11.4819
▁iğrenç	-11.4819
▁montaj	-11.4819
▁müfredat	-11.4819
▁psikiyatri	-11.4819
▁santimetre	-11.4819
▁veritabanı	-11.4819
▁yelpaze	-11.4819
▁şizofreni	-11.4819
▁slogan	-11.4819
▁turuncu	-11.4819
▁Diyelim	-11.4819
▁karides	-11.4819
▁feet	-11.4819
▁Teksas	-11.4819
▁Ağaç	-11.4819
▁Tunus	-11.4819
▁kucuk	-11.482
▁Şiir	-11.482
▁Fazla	-11.482
▁Yüzlerce	-11.482
▁hırsız	-11.482
rirsek	-11.482
▁anlarsınız	-11.482
▁savunucu	-11.482
▁simdi	-11.482
▁Birbirimiz	-11.482
▁muhafazakar	-11.4821
▁feda	-11.4821
▁bükül	-11.4822
▁bizzat	-11.4822
▁icadı	-11.4824
▁seçkin	-11.4824
▁Yeteri	-11.4824
▁selam	-11.4831
▁kademe	-11.4833
▁dönmüş	-11.4836
▁Bugünkü	-11.4848
▁tarafinda	-11.4867
▁düşünebil	-11.4869
▁kahkaha	-11.4919
▁gördükleriniz	-11.4954
▁konuştuğunu	-11.4962
ştırma	-11.4965
▁karşılaşıyor	-11.4977
▁tasarlandı	-11.4992
▁anlayı	-11.5005
▁gercek	-11.5038
▁çevrim	-11.5057
▁Apollo	-11.5057
▁Danimarka	-11.5057
▁Tanzanya	-11.5057
▁döşe	-11.5057
▁edebiyat	-11.5057
▁kaplumbağa	-11.5057
▁mahremiyet	-11.5057
▁mahrum	-11.5057
▁trajik	-11.5057
▁transistör	-11.5057
▁tuğla	-11.5057
▁kriter	-11.5057
▁Çoğunlukla	-11.5057
▁teyze	-11.5057
▁üzerlerin	-11.5057
▁sağduyu	-11.5057
▁Sıcak	-11.5057
▁pekço	-11.5058
▁piksel	-11.5058
▁Görüntü	-11.5058
▁Albert	-11.5058
▁rutin	-11.5058
▁Milyonlar	-11.5058
▁Aşama	-11.5058
▁gidişatı	-11.5058
▁tasarlıyor	-11.5058
▁Görünen	-11.5059
▁panik	-11.5059
▁Fakir	-11.5059
▁yelken	-11.506
▁yaşlandık	-11.506
▁1930	-11.5061
▁Uzak	-11.5062
ebilmemiz	-11.5075
▁Ateş	-11.5075
▁patladı	-11.5082
▁Merc	-11.5085
▁alışkın	-11.5098
▁algılaya	-11.5128
▁değme	-11.5192
▁anlayabiliyor	-11.524
▁Dön	-11.529
▁kıvrıl	-11.5301
▁Ağustos	-11.5301
▁Disney	-11.5301
▁Ebeveynler	-11.5301
▁Nüfus	-11.5301
▁apartman	-11.5301
▁buzdolabı	-11.5301
▁böbrek	-11.5301
▁döl	-11.5301
▁itfaiye	-11.5301
▁nispet	-11.5301
▁reaktör	-11.5301
▁sadakat	-11.5301
▁senkroniz	-11.5301
▁Şüphe	-11.5301
▁zahmet	-11.5301
▁pizza	-11.5301
▁milimetre	-11.5301
▁borcu	-11.5301
▁yaptigi	-11.5301
▁stok	-11.5301
▁gümüş	-11.5301
▁buğday	-11.5301
▁Dinleyici	-11.5301
▁köpekbalığı	-11.5302
▁çıkıntı	-11.5302
▁icra	-11.5302
▁çete	-11.5302
▁olağandışı	-11.5302
▁büyükbabam	-11.5302
▁Dunya	-11.5303
▁metabolizma	-11.5303
▁varolan	-11.5303
▁nazar	-11.5304
▁Clint	-11.5305
▁uret	-11.5333
▁ayarlay	-11.5354
▁Seks	-11.5364
▁gözlemledi	-11.5367
▁çeviriyor	-11.5388
▁ezil	-11.5484
▁uğraştığı	-11.5505
▁arkasın	-11.5526
▁Brooklyn	-11.5551
▁Karmaşık	-11.5551
▁Konseyi	-11.5551
▁dublör	-11.5551
▁embriyo	-11.5551
▁füzyon	-11.5551
▁orjinal	-11.5551
▁pürüz	-11.5551
▁randevu	-11.5551
▁yerçekimi	-11.5551
▁Şaşırtıcı	-11.5551
▁isabet	-11.5551
▁demografik	-11.5551
▁diyagram	-11.5551
▁izlenim	-11.5551
▁yorucu	-11.5551
▁ezber	-11.5551
▁berber	-11.5551
▁sperm	-11.5552
▁Yeryüzü	-11.5552
▁ikram	-11.5552
▁bulanık	-11.5552
▁albüm	-11.5552
▁leke	-11.5553
▁Bakanı	-11.5553
▁dışarda	-11.5556
▁Selam	-11.5559
▁doğuşu	-11.5562
▁edemeyi	-11.5577
▁yürek	-11.5579
▁denekler	-11.561
▁düzlem	-11.5641
▁Radyo	-11.5755
mayacağınız	-11.576
▁Atlanta	-11.5808
▁Yağmur	-11.5808
▁beyzbol	-11.5808
▁domates	-11.5808
▁ihtiyar	-11.5808
▁kopuk	-11.5808
▁kıvrım	-11.5808
▁aydınlanma	-11.5808
▁dolaylı	-11.5808
▁protokol	-11.5808
▁website	-11.5808
▁Ciddi	-11.5808
▁mutfağ	-11.5808
q	-11.754
Ö	-12.0202
Ç	-12.062
!	-13.5902
♫	-13.5903
—	-13.5904
:	-13.5905
)	-13.5906
?	-13.5907
&	-13.5908
