<unk>	0
<s>	0
</s>	0
▁,	-2.82123
▁.	-3.29343
▁	-3.48172
и	-3.98502
;	-4.18019
і	-4.19338
▁&	-4.20598
а	-4.21014
у	-4.27138
ot	-4.43971
qu	-4.44093
▁що	-4.53293
▁на	-4.60448
▁і	-4.65353
▁в	-4.65753
▁з	-4.68878
▁не	-4.77288
▁я	-4.98731
о	-4.99322
▁це	-4.99741
▁у	-5.09257
е	-5.15047
в	-5.1921
▁ми	-5.19219
их	-5.24171
ї	-5.34145
ий	-5.36428
я	-5.37547
ів	-5.42396
▁як	-5.43147
▁до	-5.44966
ти	-5.49016
▁ви	-5.4987
х	-5.49982
ю	-5.50075
й	-5.5215
▁-	-5.53398
▁за	-5.56618
ого	-5.59758
▁про	-5.6029
▁та	-5.63634
ь	-5.66457
▁І	-5.69078
▁:	-5.72302
▁?	-5.74218
os	-5.76122
ap	-5.76456
ом	-5.7766
ою	-5.79119
м	-5.80945
-	-5.82059
▁Я	-5.82198
▁по	-5.83141
ся	-5.88158
▁Це	-5.99806
▁є	-6.02765
для	-6.03523
▁так	-6.05444
ої	-6.07948
▁від	-6.08481
▁)	-6.09569
(	-6.09657
мо	-6.09861
ому	-6.1163
▁вони	-6.11675
сь	-6.17367
им	-6.22189
ть	-6.24401
▁які	-6.29378
▁коли	-6.29834
▁щоб	-6.32272
▁Ми	-6.3479
▁тому	-6.38046
те	-6.38385
ні	-6.38827
▁а	-6.38949
▁те	-6.39436
▁чи	-6.42531
ами	-6.4372
▁Але	-6.45728
с	-6.46031
▁б	-6.46911
ість	-6.47223
ок	-6.47554
ш	-6.48892
▁але	-6.5117
▁А	-6.53593
▁він	-6.55175
ться	-6.55969
ли	-6.56865
▁було	-6.58843
▁їх	-6.60319
т	-6.60347
ими	-6.60609
є	-6.61871
д	-6.65591
▁мене	-6.65639
р	-6.66391
▁дуже	-6.67896
к	-6.68243
ла	-6.70752
▁його	-6.70769
ки	-6.7166
ка	-6.72396
▁нас	-6.72683
на	-6.73751
з	-6.76286
▁все	-6.76567
▁людей	-6.76932
▁під	-6.76999
ій	-6.77698
▁якщо	-6.78215
▁ж	-6.80163
▁то	-6.81248
▁де	-6.81896
▁Смі	-6.82813
▁ці	-6.83448
ах	-6.85171
▁час	-6.87119
▁В	-6.872
▁У	-6.88996
же	-6.8911
▁років	-6.90386
▁ї	-6.92076
▁всі	-6.92364
ж	-6.92434
▁наш	-6.93679
ці	-6.94119
н	-6.94219
▁того	-6.94767
ля	-6.94807
▁із	-6.95255
чи	-6.9602
▁інш	-6.96375
▁ще	-6.96378
▁вона	-6.97424
▁який	-6.98485
п	-6.98592
▁мені	-6.9991
ку	-7.00953
▁був	-7.01902
▁Ви	-7.02208
ості	-7.03466
▁На	-7.038
▁цього	-7.04336
▁вам	-7.0597
▁Вони	-7.06164
ен	-7.06587
▁життя	-7.07326
▁люди	-7.07533
▁більше	-7.08066
▁й	-7.10323
▁при	-7.11724
▁може	-7.11886
но	-7.13445
▁або	-7.13454
▁с	-7.13788
му	-7.14064
▁нам	-7.15658
▁була	-7.15696
▁бути	-7.16858
▁багато	-7.1808
▁просто	-7.19561
▁пере	-7.20249
▁також	-7.20264
▁більш	-7.22403
ється	-7.23099
▁Він	-7.23465
▁були	-7.23534
віть	-7.24139
▁лише	-7.2439
ож	-7.25205
▁От	-7.2575
▁Так	-7.26293
ло	-7.26345
г	-7.26701
▁п	-7.26977
▁вас	-7.28536
ми	-7.29217
▁Як	-7.29727
▁роз	-7.30803
▁По	-7.31341
▁яка	-7.31396
▁Оплески	-7.31584
▁через	-7.31633
ч	-7.32684
▁них	-7.333
▁З	-7.33411
▁має	-7.33963
▁можна	-7.34301
ня	-7.34402
лі	-7.34671
▁тут	-7.36758
ють	-7.37888
ну	-7.39018
▁саме	-7.39353
▁вже	-7.39808
▁бо	-7.4021
▁Т	-7.40935
▁хто	-7.40978
не	-7.41187
▁С	-7.41218
▁буде	-7.4127
▁ц	-7.41284
▁об	-7.41427
▁зробити	-7.42128
▁Якщ	-7.42804
▁тільки	-7.43764
▁щось	-7.44512
▁ніж	-7.46289
▁Д	-7.46996
го	-7.4776
та	-7.48512
▁О	-7.50711
.	-7.51137
▁можемо	-7.51222
ються	-7.51969
▁один	-7.52195
▁свої	-7.52258
▁ваш	-7.52683
▁Що	-7.54116
▁То	-7.54328
▁цьому	-7.54528
ння	-7.56405
▁Коли	-7.56521
до	-7.57318
▁світ	-7.57472
▁Вон	-7.57748
▁себе	-7.60112
▁цю	-7.61356
▁хочу	-7.61444
▁ось	-7.61815
ст	-7.63705
ний	-7.64035
▁зараз	-7.64042
можуть	-7.64429
га	-7.64524
увати	-7.65316
▁над	-7.66003
▁кожн	-7.66677
▁ті	-7.67964
▁Не	-7.67996
б	-7.68158
▁зі	-7.69125
єю	-7.70239
авді	-7.71024
ни	-7.71832
▁наспр	-7.71885
▁там	-7.73289
▁нов	-7.73884
ра	-7.74533
▁чому	-7.7459
ам	-7.75886
да	-7.76485
них	-7.77587
▁тоді	-7.77784
▁велик	-7.77845
л	-7.78116
ді	-7.78359
▁можете	-7.78565
ф	-7.79717
ма	-7.80393
ль	-7.80628
▁речі	-7.81053
▁Чи	-7.81549
▁своє	-7.82134
▁ні	-7.82167
▁тим	-7.82264
▁мають	-7.82328
би	-7.82392
ті	-7.82606
ім	-7.8303
▁без	-7.83124
▁собі	-7.83603
▁яку	-7.84179
▁будь	-7.84467
ар	-7.85492
ей	-7.8569
▁світі	-7.85708
▁робити	-7.8577
ор	-7.85856
▁Дякую	-7.86049
▁світу	-7.86189
нь	-7.86421
▁цим	-7.86724
▁Том	-7.86964
▁сказав	-7.87702
ро	-7.8776
ди	-7.88811
ко	-7.89656
▁між	-7.90156
▁перш	-7.90228
нього	-7.91004
▁ця	-7.91215
рі	-7.92045
▁власн	-7.93048
ре	-7.9342
▁сьогодні	-7.94287
▁мої	-7.94335
▁можливо	-7.94689
▁повинн	-7.9557
▁потрібно	-7.96401
▁їм	-7.96434
▁К	-7.96942
▁За	-7.97167
или	-7.97873
▁ти	-7.97925
тім	-7.98381
вся	-7.98479
▁після	-7.98721
▁найбільш	-7.99494
▁яких	-7.99772
ча	-8.00872
то	-8.01261
▁думаю	-8.01346
▁би	-8.01454
▁перед	-8.0327
▁наші	-8.03626
ємо	-8.03777
вати	-8.04161
▁мільйон	-8.04615
▁дітей	-8.05132
▁три	-8.05186
▁року	-8.05758
▁частин	-8.05854
лю	-8.06042
e	-8.06072
▁ніколи	-8.06086
приклад	-8.06643
тися	-8.06842
▁Ос	-8.07016
▁бачит	-8.07219
▁чином	-8.07482
али	-8.0783
▁проблем	-8.08091
▁сам	-8.08323
▁моє	-8.08368
сі	-8.08449
бу	-8.08511
▁Та	-8.09281
▁можу	-8.09542
▁такі	-8.09834
по	-8.10113
лу	-8.10126
▁питання	-8.11051
1	-8.11358
альн	-8.11685
▁часу	-8.12432
ан	-8.12902
ер	-8.12967
ту	-8.13142
ують	-8.13173
▁св	-8.13289
▁дійсно	-8.13317
▁кілька	-8.1333
▁завжди	-8.13582
че	-8.13632
▁одного	-8.14537
▁справд	-8.14643
має	-8.14883
▁м	-8.15088
▁До	-8.15417
▁10	-8.15583
ує	-8.15665
▁разом	-8.15923
▁яке	-8.16064
бі	-8.16096
▁тепер	-8.16138
ши	-8.16567
ру	-8.16952
▁два	-8.17057
треба	-8.17338
▁Г	-8.17998
ле	-8.181
свою	-8.18333
ування	-8.18444
маємо	-8.18768
▁само	-8.18945
▁момент	-8.19124
ник	-8.19201
▁інші	-8.19708
▁мій	-8.19883
▁чого	-8.2022
▁комп	-8.20257
▁знову	-8.21119
ає	-8.21183
▁добре	-8.21358
▁одна	-8.21628
▁приклад	-8.21925
▁тих	-8.22089
ду	-8.22317
▁відбувається	-8.22399
ові	-8.22851
хто	-8.22954
▁різн	-8.23506
▁ціє	-8.24797
лив	-8.25046
лен	-8.25148
▁таким	-8.25712
ають	-8.26392
a	-8.26854
ували	-8.27231
«	-8.27304
i	-8.27328
означає	-8.27576
єте	-8.28334
’	-8.28867
▁мати	-8.29445
▁проект	-8.30057
от	-8.30767
▁сказати	-8.31263
▁спосіб	-8.31263
▁зробил	-8.31306
трох	-8.31548
▁зв	-8.31765
▁сказал	-8.31799
зі	-8.31943
▁вид	-8.3205
ями	-8.32059
▁рух	-8.32388
▁мозку	-8.32412
▁історії	-8.33066
си	-8.3322
ючи	-8.3333
су	-8.33508
▁людськ	-8.3374
▁май	-8.3379
ськ	-8.34056
▁здоров	-8.34134
роб	-8.34727
стр	-8.3489
істю	-8.34892
від	-8.35054
▁знаю	-8.35293
лася	-8.35508
чі	-8.36127
▁працює	-8.36246
▁побачити	-8.36596
▁пов	-8.36656
▁сім	-8.36804
▁20	-8.3765
▁Ф	-8.38399
▁день	-8.39147
ба	-8.39222
той	-8.39448
могли	-8.39542
▁моя	-8.39675
o	-8.39813
за	-8.39822
ного	-8.40051
ем	-8.40081
ше	-8.40413
дається	-8.40423
знаєте	-8.40461
ме	-8.40464
▁усі	-8.40718
▁мали	-8.41135
са	-8.41348
▁технологі	-8.41561
багато	-8.41895
он	-8.41986
▁нічого	-8.41992
ення	-8.42072
▁жінок	-8.42193
▁стало	-8.42419
ним	-8.42464
▁Тепер	-8.42502
▁досить	-8.42554
▁певн	-8.42642
▁існує	-8.42747
фі	-8.43255
▁наступн	-8.43403
▁пам	-8.43421
ста	-8.43462
па	-8.43934
▁їхні	-8.43943
▁шлях	-8.44293
▁місце	-8.44304
цій	-8.44472
▁останні	-8.44534
▁протяг	-8.44686
▁часто	-8.44842
▁став	-8.4498
лися	-8.45123
▁...	-8.45244
де	-8.45428
▁далі	-8.45442
▁мов	-8.45674
▁процес	-8.45802
▁Х	-8.46079
▁таких	-8.46545
▁проблеми	-8.46565
▁краще	-8.47389
мін	-8.47464
▁Ні	-8.47624
▁зміни	-8.47779
▁кож	-8.4788
▁знаємо	-8.485
▁Мен	-8.48563
▁допомогою	-8.48586
ет	-8.48766
▁друг	-8.4881
▁воно	-8.49054
початку	-8.49091
▁дня	-8.49256
ець	-8.49275
▁д	-8.4935
▁П	-8.49678
▁створит	-8.49842
%	-8.50153
▁змінити	-8.50235
тор	-8.50368
ільки	-8.50418
▁Чому	-8.5045
▁зовс	-8.50574
▁відсотків	-8.51135
ця	-8.51204
▁випадк	-8.51529
▁свій	-8.51976
▁змін	-8.52205
▁такий	-8.52631
▁маю	-8.53166
▁деякі	-8.53479
▁одне	-8.5348
▁дані	-8.53897
▁дослідження	-8.5395
▁Ці	-8.54152
▁міг	-8.54296
▁річ	-8.5464
▁планет	-8.54694
▁Ма	-8.54772
▁близько	-8.54823
тер	-8.55385
тись	-8.55392
ною	-8.5553
▁Л	-8.55728
▁роботи	-8.55968
▁зрозуміти	-8.56037
ував	-8.56133
ц	-8.56307
▁хотів	-8.56526
▁моз	-8.56578
▁хоч	-8.56987
вали	-8.57157
▁соціальн	-8.57362
▁маленьк	-8.57924
▁дві	-8.57955
бто	-8.58011
▁доларів	-8.58359
щ	-8.58419
▁Мі	-8.58489
▁Мо	-8.58511
ала	-8.58593
▁році	-8.59163
▁працювати	-8.59247
▁Р	-8.59319
▁г	-8.59431
▁тварин	-8.59692
▁мільярд	-8.59762
чу	-8.59971
▁Е	-8.60579
▁яким	-8.60733
▁кількість	-8.60828
▁почали	-8.61135
▁рік	-8.61177
▁раз	-8.6138
s	-8.61433
▁вод	-8.61533
▁ре	-8.61555
уємо	-8.61761
хід	-8.61803
▁США	-8.62226
▁думку	-8.62227
▁країн	-8.62619
▁рішення	-8.62777
ях	-8.62788
▁стати	-8.62935
▁голос	-8.63065
▁найкращ	-8.63112
▁роботу	-8.63271
▁Й	-8.63335
▁Нам	-8.63456
▁Зараз	-8.63912
▁проблема	-8.6395
▁знайт	-8.64007
▁називає	-8.64077
▁серед	-8.64077
▁людина	-8.64082
ної	-8.64384
▁ютер	-8.64406
▁усіх	-8.64786
▁величезн	-8.65014
ній	-8.65088
▁хвилин	-8.65168
▁роки	-8.65211
▁відео	-8.6538
▁країни	-8.65608
▁єдин	-8.65653
▁Б	-8.65808
ґ	-8.66089
гра	-8.66196
▁одну	-8.6637
про	-8.66424
▁нові	-8.67098
▁житті	-8.67205
▁історію	-8.67353
▁кажу	-8.67494
кою	-8.67617
0	-8.67687
ню	-8.67734
▁роблять	-8.67745
▁двох	-8.68377
сти	-8.68909
▁Те	-8.69301
вести	-8.69308
бачимо	-8.69392
▁декілька	-8.69449
▁багатьох	-8.69685
▁3	-8.69754
▁своїм	-8.69817
▁фото	-8.7004
ман	-8.70108
▁груп	-8.70122
▁слова	-8.70135
▁місяці	-8.70238
▁людини	-8.7027
▁всього	-8.70599
▁ціл	-8.70619
▁менш	-8.70712
▁поки	-8.70772
▁Ш	-8.7087
▁робить	-8.70933
тр	-8.71602
▁жінки	-8.72245
▁Ця	-8.72614
▁минул	-8.72617
ними	-8.72747
▁вплив	-8.72803
▁діти	-8.72808
▁ко	-8.73045
▁Де	-8.7331
ходить	-8.7338
ків	-8.7341
▁швидко	-8.73512
▁важлив	-8.7358
уючи	-8.73733
▁тисяч	-8.73917
чн	-8.74198
▁ять	-8.7426
іше	-8.74278
▁міста	-8.74306
▁мав	-8.74373
ічн	-8.74508
▁проти	-8.74676
гу	-8.74756
▁людям	-8.74914
лась	-8.75103
▁якому	-8.75204
▁годин	-8.75296
ову	-8.75314
▁раніше	-8.75337
▁неї	-8.75776
▁місц	-8.75894
▁речей	-8.7596
вер	-8.76031
▁язк	-8.76192
клад	-8.76339
▁іншим	-8.76453
▁Є	-8.76606
пра	-8.76632
▁місця	-8.76723
▁Про	-8.76758
▁ідея	-8.76786
▁гра	-8.76915
▁реальн	-8.76979
▁слід	-8.77422
▁важливо	-8.77538
▁дещо	-8.78159
▁даних	-8.78179
▁ними	-8.78282
▁000	-8.78302
▁Перш	-8.78353
▁уваг	-8.78445
▁чудов	-8.78607
▁Бо	-8.78691
▁от	-8.78734
кс	-8.78858
кон	-8.78908
▁справ	-8.79169
нт	-8.79524
▁людьми	-8.796
▁мереж	-8.796
ців	-8.79656
ичн	-8.80281
2	-8.80365
▁використовувати	-8.80491
t	-8.80588
ком	-8.80741
▁рад	-8.80764
▁Проте	-8.80875
▁самі	-8.81092
▁30	-8.81243
▁Тут	-8.81373
▁різні	-8.81385
▁зробив	-8.81769
аючи	-8.82035
▁майбутн	-8.82204
▁важко	-8.82223
ак	-8.82415
▁буду	-8.82465
▁Насправд	-8.82702
▁звук	-8.82888
бор	-8.83112
▁поті	-8.83132
▁природ	-8.8343
нні	-8.83528
▁слово	-8.83605
▁каже	-8.83631
лись	-8.837
іс	-8.83811
▁кого	-8.83831
▁молод	-8.83948
будуть	-8.84
▁50	-8.84234
▁системи	-8.8426
▁план	-8.84306
▁настільк	-8.84338
▁оск	-8.84442
дав	-8.84462
▁Нью	-8.84518
▁історія	-8.84522
важ	-8.84535
▁ск	-8.8458
кри	-8.84711
▁Від	-8.84839
ось	-8.84882
▁говорити	-8.84978
ність	-8.84981
▁якого	-8.85012
▁інформації	-8.85085
бра	-8.85223
став	-8.85253
▁мною	-8.85261
▁сп	-8.85528
▁працюю	-8.85749
ин	-8.85779
▁машин	-8.86294
ила	-8.86301
ять	-8.86316
▁хочемо	-8.86316
▁причин	-8.86432
▁починає	-8.86605
▁жив	-8.86662
це	-8.86843
ек	-8.86986
▁можлив	-8.87122
▁стає	-8.87202
▁йде	-8.87255
▁&#9	-8.87305
▁Тод	-8.87346
▁всь	-8.87455
мого	-8.87467
▁якими	-8.87561
▁4	-8.87707
▁&#93;	-8.87778
▁почав	-8.87794
▁Люди	-8.87879
дати	-8.88
▁розмір	-8.88049
▁науков	-8.88206
▁допомог	-8.88251
▁вважаю	-8.88287
ання	-8.88321
▁Ну	-8.8838
▁фільм	-8.88715
4	-8.88943
▁сучасн	-8.88968
▁культур	-8.8904
зад	-8.89274
іт	-8.8934
▁завдя	-8.89689
▁бідн	-8.89933
c	-8.90361
r	-8.90503
▁розум	-8.90739
▁звичайно	-8.90804
отримати	-8.90813
мою	-8.90895
▁чоловік	-8.9099
бл	-8.91111
▁відчуття	-8.91392
▁навколо	-8.91392
▁Саме	-8.91459
▁5	-8.91555
▁наше	-8.91726
▁менше	-8.91869
▁Сьогодні	-8.91884
▁чотири	-8.91998
▁способ	-8.92131
▁особливо	-8.92359
▁експеримент	-8.92379
▁Можливо	-8.92381
▁головн	-8.92417
▁усе	-8.92486
▁спільн	-8.92567
решт	-8.92616
▁ніби	-8.92769
▁хорош	-8.93227
▁чим	-8.93235
нути	-8.933
▁разів	-8.93521
▁виглядає	-8.93679
адже	-8.93729
▁світов	-8.93744
▁дає	-8.93973
▁100	-8.94009
▁населення	-8.94264
▁закон	-8.94368
5	-8.94663
кі	-8.94692
▁бачити	-8.94826
▁страх	-8.94912
▁запитання	-8.95155
▁цікав	-8.95293
▁уряд	-8.95507
йн	-8.95609
▁дякую	-8.95653
вільн	-8.95694
▁розв	-8.95773
▁такого	-8.95831
▁результат	-8.95966
вазі	-8.95979
дж	-8.9605
▁значення	-8.96202
▁можливіст	-8.96226
▁бізнес	-8.96683
▁компанії	-8.96784
▁здатн	-8.96843
▁система	-8.97001
▁розвитк	-8.97151
▁Таким	-8.9718
▁складн	-8.97332
▁рівень	-8.97724
▁Все	-8.97725
▁політичн	-8.9774
▁15	-8.97812
l	-8.9795
▁всередин	-8.98154
▁інформацію	-8.98353
ішим	-8.98377
▁показати	-8.98535
тра	-8.98651
▁хотіли	-8.98806
ован	-8.98872
▁назв	-8.98967
▁ді	-8.99262
знач	-8.99333
сто	-8.99423
▁Ти	-8.99506
▁живу	-8.9958
▁досвід	-8.99685
ліз	-8.99746
▁одно	-8.99863
▁телефон	-9.00025
▁факт	-9.0006
▁стали	-9.00086
▁робота	-9.00102
▁приблизно	-9.00104
чись	-9.00337
▁наскільк	-9.00395
▁використа	-9.00434
С	-9.00522
▁місцев	-9.00528
▁Ч	-9.0056
річн	-9.00674
▁одним	-9.00677
▁вами	-9.00706
▁робимо	-9.00714
▁могл	-9.00983
▁ним	-9.01104
▁мало	-9.0122
▁систему	-9.01222
▁Дуж	-9.01248
▁погляд	-9.01531
▁систем	-9.01655
▁отримал	-9.01724
пер	-9.01756
▁повніст	-9.01764
ових	-9.01798
ос	-9.02163
стер	-9.02366
▁Ї	-9.02393
▁відповідь	-9.02418
ками	-9.02542
▁2	-9.02564
▁політик	-9.0283
єї	-9.02849
▁точк	-9.02966
▁відом	-9.0308
▁Ба	-9.03092
▁зображення	-9.03117
ін	-9.03409
▁скільк	-9.03544
▁ін	-9.03625
▁обличчя	-9.03647
▁матеріал	-9.03736
▁змогу	-9.03815
▁клітин	-9.03834
▁варто	-9.0387
шу	-9.04001
пис	-9.04444
літ	-9.0458
▁можливості	-9.04613
коли	-9.04615
▁постійно	-9.04652
▁жити	-9.04897
▁разу	-9.04903
▁стала	-9.04938
ені	-9.04956
▁допомогти	-9.04962
іл	-9.05029
ал	-9.05249
▁надзвичайно	-9.05434
▁собою	-9.05608
8	-9.05664
▁половин	-9.05816
6	-9.05958
▁М	-9.06375
▁взяти	-9.0654
▁їй	-9.06671
лося	-9.07253
гор	-9.07452
▁ідеї	-9.07538
▁TED	-9.07608
▁щастя	-9.07608
полягає	-9.07691
раз	-9.07731
▁частина	-9.07887
▁доступ	-9.07904
ова	-9.08105
▁міст	-9.08185
▁відкрит	-9.08237
▁лік	-9.08263
вши	-9.0829
▁знати	-9.08418
▁основн	-9.08426
▁створює	-9.08489
▁запис	-9.08577
продовж	-9.08673
▁смерт	-9.08681
00	-9.08767
▁бачили	-9.08781
▁прав	-9.08977
▁вперше	-9.09106
▁впевнен	-9.09355
▁фізичн	-9.09355
▁кон	-9.09359
пе	-9.09391
мось	-9.09542
йно	-9.09695
▁ген	-9.09714
▁подорож	-9.10212
▁світло	-9.10233
▁достатньо	-9.10243
▁економічн	-9.10314
▁створення	-9.10324
▁чорн	-9.10445
▁клітини	-9.10462
▁хоче	-9.10531
▁почала	-9.10551
теж	-9.10582
▁тож	-9.10586
▁країнах	-9.10617
▁біл	-9.1062
▁ситуаці	-9.10719
▁тип	-9.10733
▁язан	-9.10819
▁наша	-9.10977
ень	-9.10984
▁син	-9.11136
▁кор	-9.11158
▁чудово	-9.11575
▁участ	-9.11673
▁намага	-9.11755
▁поган	-9.11857
▁C	-9.12156
▁кл	-9.12208
▁дорог	-9.12386
▁тебе	-9.12436
ша	-9.12581
▁крок	-9.12656
▁ту	-9.12687
тан	-9.12846
▁потрібн	-9.12896
▁виступ	-9.12899
▁Ґ	-9.1297
ес	-9.13059
▁дизайн	-9.13158
▁хотіл	-9.13209
▁1	-9.13227
лення	-9.13228
бер	-9.13255
▁повн	-9.1368
дже	-9.1369
▁лист	-9.13751
▁досяг	-9.13793
▁розповіст	-9.1386
▁подібн	-9.13896
▁деяк	-9.13909
▁мала	-9.13911
перше	-9.13996
▁дод	-9.14011
▁При	-9.14023
гн	-9.14081
ряд	-9.14102
бо	-9.14165
▁потреб	-9.14233
об	-9.14372
▁вулиц	-9.14467
Р	-9.14527
ель	-9.14581
разу	-9.14608
▁ге	-9.14628
▁спа	-9.14803
атор	-9.14823
▁Земл	-9.1489
▁жодн	-9.14901
3	-9.14914
муть	-9.14996
▁розмов	-9.15155
▁інше	-9.15339
гроші	-9.15397
▁уявит	-9.15453
▁Дж	-9.15483
вол	-9.15532
вав	-9.15545
▁нашу	-9.15611
▁кар	-9.15617
▁розуміє	-9.15924
▁школи	-9.16039
▁навчання	-9.16061
▁200	-9.16098
можемо	-9.16232
▁тижні	-9.16349
▁значно	-9.16356
7	-9.16401
мер	-9.16519
знали	-9.16578
▁знає	-9.16673
ходять	-9.16763
▁язок	-9.16788
ності	-9.16915
▁готов	-9.16981
▁туди	-9.17026
увала	-9.17043
оло	-9.17198
▁40	-9.17288
▁стан	-9.17389
▁тр	-9.17471
▁організаці	-9.17572
кл	-9.17626
▁сфер	-9.17647
▁особлив	-9.17706
три	-9.17753
решті	-9.1781
льн	-9.17894
ови	-9.17912
▁країні	-9.17997
▁подобається	-9.18256
▁Більш	-9.18257
▁метод	-9.18262
▁стар	-9.18732
ився	-9.18882
ало	-9.18889
▁неймовірн	-9.19107
▁Роз	-9.19137
міт	-9.19157
твор	-9.1933
▁Вам	-9.19359
▁рівні	-9.19387
▁цікаво	-9.19483
▁води	-9.19497
▁масштаб	-9.19561
▁18	-9.19562
рів	-9.19649
▁якій	-9.19693
▁замість	-9.19746
▁якої	-9.1986
що	-9.19942
▁особист	-9.20184
▁пацієнт	-9.20201
зна	-9.20292
тон	-9.20299
▁висок	-9.20326
▁легко	-9.20497
▁дати	-9.20544
▁мабут	-9.20673
ще	-9.20714
9	-9.2078
ово	-9.20804
▁могла	-9.20811
▁війни	-9.20866
▁зустріч	-9.21066
▁нейрон	-9.21198
лог	-9.21418
▁сторон	-9.21651
▁сотн	-9.21768
▁тіла	-9.21793
▁стосу	-9.21916
овані	-9.2198
▁19	-9.22024
▁Музика	-9.22185
h	-9.22264
▁громадськ	-9.22317
▁використання	-9.22616
▁влад	-9.22679
▁хочете	-9.22715
ір	-9.22807
▁думати	-9.22891
▁наче	-9.22954
m	-9.22979
▁весь	-9.2314
▁завдання	-9.23177
снують	-9.23204
▁кращ	-9.23213
▁нав	-9.23229
▁дні	-9.23272
жу	-9.23406
▁прост	-9.23506
▁глобальн	-9.23529
▁звичайн	-9.24006
зору	-9.24043
▁люби	-9.24191
▁створили	-9.24221
К	-9.24222
▁всесвіт	-9.24268
▁їхн	-9.24315
▁гроше	-9.24674
тя	-9.24788
▁жахлив	-9.24918
▁понад	-9.24995
▁же	-9.25114
йте	-9.25116
сел	-9.25385
▁спів	-9.25446
er	-9.25551
▁Звичайно	-9.25637
сон	-9.25646
рон	-9.25866
нув	-9.25878
▁говорил	-9.25901
▁трьох	-9.25927
йому	-9.26107
▁активн	-9.2612
▁6	-9.26256
▁куди	-9.26285
▁дивовижн	-9.26496
▁аби	-9.26514
▁ру	-9.26656
▁пошук	-9.26735
▁спільнот	-9.26747
▁взагалі	-9.26972
▁ресурс	-9.26972
▁щаслив	-9.27003
▁наук	-9.27115
▁добр	-9.27269
▁батько	-9.27323
▁побачил	-9.27621
▁Сполучен	-9.27675
▁ефективн	-9.27817
ею	-9.27838
▁кра	-9.27917
g	-9.27967
▁гарн	-9.28008
d	-9.2806
▁сум	-9.28155
▁їж	-9.28199
▁інструмент	-9.28282
тів	-9.28553
ск	-9.28674
▁справа	-9.28846
▁Чере	-9.29104
▁Там	-9.29149
u	-9.29403
сті	-9.29502
мен	-9.29548
нг	-9.29592
▁продукт	-9.29813
▁поверхн	-9.29847
▁уяв	-9.3014
▁Лі	-9.30392
▁ліс	-9.30477
▁Америк	-9.30537
▁12	-9.30578
▁правд	-9.30616
овий	-9.30735
шого	-9.30754
лів	-9.30896
▁центр	-9.30977
А	-9.31005
▁Ка	-9.31136
вор	-9.31251
▁свідом	-9.31267
▁Хто	-9.31353
▁ніяк	-9.31734
▁новин	-9.31906
▁створен	-9.32056
▁розуміння	-9.32082
▁використовують	-9.32235
p	-9.32325
▁жінка	-9.32739
▁якою	-9.32747
▁оп	-9.32843
▁Однак	-9.32881
▁сто	-9.3295
зе	-9.33065
▁живе	-9.33089
▁нами	-9.33113
кт	-9.33477
▁зап	-9.33489
▁родин	-9.33515
ського	-9.33652
▁необхідн	-9.33782
▁вибір	-9.34213
▁Багато	-9.34235
▁Інтернет	-9.3434
▁форму	-9.34451
▁орган	-9.3458
лін	-9.34594
енергії	-9.34594
ції	-9.34602
небудь	-9.34612
▁стін	-9.34774
▁економік	-9.34918
▁усім	-9.34997
вал	-9.35022
▁окрем	-9.35076
▁абсолютно	-9.35087
кажуть	-9.35302
ент	-9.35322
▁суті	-9.3538
вання	-9.35609
том	-9.35699
▁Велик	-9.35753
аємо	-9.35768
▁Знає	-9.35802
▁вигляд	-9.35997
▁Ще	-9.36069
▁чоловіків	-9.36077
▁єкт	-9.36106
досі	-9.36139
▁ризик	-9.36413
▁загальн	-9.36503
кер	-9.36514
▁ДНК	-9.3652
▁Друг	-9.36523
▁місто	-9.36706
▁тисячі	-9.36866
▁період	-9.36907
кор	-9.37054
мося	-9.37113
перед	-9.37368
▁мет	-9.37478
▁літак	-9.37528
нці	-9.37658
▁Хоч	-9.37717
▁простір	-9.37744
▁Добре	-9.37772
▁повернути	-9.37904
▁колись	-9.37933
▁уваги	-9.37945
▁покоління	-9.38089
▁карт	-9.38096
▁мір	-9.38105
▁Сп	-9.3823
▁Їх	-9.3827
▁моїм	-9.38392
▁цифров	-9.38458
бір	-9.38519
дер	-9.38664
ших	-9.38695
▁визна	-9.3881
▁форм	-9.38835
▁дан	-9.38887
ювати	-9.38925
▁згод	-9.38948
▁нашим	-9.39084
▁секунд	-9.39255
▁великі	-9.39286
▁авто	-9.39412
▁Піс	-9.39539
▁Мож	-9.39563
роз	-9.39615
▁силу	-9.39653
ноді	-9.39711
▁Джон	-9.39735
▁тест	-9.39984
▁знають	-9.40043
▁доросл	-9.40053
айте	-9.40071
▁тіло	-9.40079
▁цілком	-9.40082
▁Н	-9.40146
▁Під	-9.40207
▁хвороб	-9.4021
ський	-9.4029
▁поведінк	-9.40346
▁ши	-9.40348
▁Уяві	-9.4036
▁Давай	-9.40453
▁пан	-9.40878
▁неймовірно	-9.40998
нес	-9.4111
▁побачит	-9.41188
▁зможе	-9.41213
▁вирішив	-9.41255
▁галуз	-9.41256
▁лікування	-9.41335
тур	-9.41422
▁матері	-9.41486
▁га	-9.41554
▁наслідк	-9.41572
▁точно	-9.41575
▁дівчат	-9.41591
▁склад	-9.41763
роблю	-9.41957
▁правильн	-9.42057
▁говоря	-9.42067
▁штат	-9.42067
▁почати	-9.42072
▁Один	-9.4208
▁знаходиться	-9.42103
ща	-9.42147
▁всім	-9.4244
▁прекрасн	-9.42442
▁фотографі	-9.42475
▁людств	-9.42481
▁ног	-9.42655
ші	-9.42665
▁Мене	-9.42819
▁Наш	-9.42961
▁Щоб	-9.42984
▁використовую	-9.43034
▁кольор	-9.43051
цем	-9.43066
тесь	-9.43136
ації	-9.43141
ство	-9.4318
▁бажання	-9.43236
▁зазвичай	-9.43244
винен	-9.43254
▁отримав	-9.43296
ско	-9.43395
кра	-9.43506
лює	-9.43527
▁Бу	-9.43563
▁очі	-9.43704
▁освіт	-9.4384
ран	-9.43891
ги	-9.4394
▁зрозумів	-9.43969
▁тривал	-9.43993
швидше	-9.44004
▁Ме	-9.44028
думав	-9.44037
ників	-9.44166
▁руки	-9.44319
▁ким	-9.44523
▁район	-9.44541
▁Всі	-9.44568
▁покажу	-9.44576
▁Або	-9.44641
нням	-9.44805
▁колег	-9.4481
чні	-9.44821
▁суспільства	-9.44969
▁Може	-9.45014
▁результати	-9.45093
▁захист	-9.45253
фа	-9.45363
правда	-9.45382
думаєте	-9.45467
▁Ваш	-9.45578
▁Індії	-9.4559
▁біля	-9.45662
▁корист	-9.45681
▁пар	-9.45702
ном	-9.45705
▁чоловіка	-9.45767
▁боротьб	-9.45801
▁знання	-9.45842
▁Га	-9.45881
▁бачив	-9.45894
▁рівня	-9.45971
▁образ	-9.46116
будувати	-9.46183
▁Ж	-9.46262
▁одном	-9.46291
стан	-9.46426
бр	-9.4649
цією	-9.46566
▁англійськ	-9.46651
▁роль	-9.46656
вели	-9.46842
▁Бог	-9.46873
▁стане	-9.46976
єм	-9.47003
▁8	-9.47013
▁намагаю	-9.4707
▁яз	-9.47071
▁американськ	-9.47086
▁медичн	-9.47087
▁показник	-9.47157
▁душ	-9.47193
▁століття	-9.47311
▁необхідно	-9.47319
дають	-9.47433
▁рослин	-9.47507
▁робоч	-9.47507
▁ім	-9.47515
▁одні	-9.47578
▁дивн	-9.47626
▁модель	-9.47702
▁книг	-9.47708
▁ваші	-9.47904
▁7	-9.48025
▁S	-9.48097
▁9	-9.48123
▁M	-9.48199
днів	-9.48264
▁кому	-9.48313
▁вдалос	-9.48314
▁11	-9.48327
ового	-9.48371
▁принцип	-9.48371
▁кількості	-9.48379
▁КА	-9.48412
▁сайт	-9.48441
▁шість	-9.48463
▁знав	-9.48483
▁од	-9.48616
▁надто	-9.4869
▁60	-9.48749
▁дізнатис	-9.48807
▁стільки	-9.4881
дали	-9.48811
ед	-9.48834
працював	-9.49069
▁енергі	-9.49071
мент	-9.49183
▁єр	-9.49195
вісно	-9.49197
▁зван	-9.49224
▁засоб	-9.49244
▁невелик	-9.4926
боку	-9.49322
міг	-9.49582
▁інтернет	-9.49681
▁зрозуміли	-9.49691
рив	-9.49758
▁твор	-9.49904
▁ідею	-9.49968
▁багат	-9.50066
▁сигнал	-9.50122
▁безпек	-9.50126
▁переваг	-9.50129
тиме	-9.50214
▁стосунк	-9.504
илися	-9.50456
мір	-9.50477
▁Ко	-9.50679
▁подумав	-9.50712
▁потрібні	-9.5072
▁чоловіки	-9.50829
▁живемо	-9.50841
▁вибор	-9.50858
▁мас	-9.50921
▁зав	-9.50924
▁гор	-9.50951
▁залі	-9.50953
▁свобод	-9.51009
▁права	-9.51106
▁сусід	-9.51455
▁мобільн	-9.51455
▁найважливіш	-9.51658
▁зупин	-9.51811
О	-9.51855
▁громад	-9.52174
▁держав	-9.5224
▁основ	-9.52293
▁дружин	-9.52356
▁виклик	-9.5245
▁сюди	-9.52533
▁різниц	-9.52628
▁технологій	-9.52661
▁ліні	-9.52727
▁Бр	-9.52775
▁робили	-9.52813
▁любов	-9.52815
лювати	-9.52826
▁суспільство	-9.52845
▁емоці	-9.52948
D	-9.52949
друг	-9.52956
▁відомо	-9.52976
зер	-9.53083
▁вирішили	-9.53261
▁батьки	-9.53261
Б	-9.53431
▁довго	-9.53444
▁досліджен	-9.53486
▁ос	-9.53608
▁втрат	-9.53647
при	-9.5368
▁Афри	-9.5368
▁дитина	-9.53703
▁прямо	-9.53704
▁шанс	-9.53718
▁світл	-9.53726
▁промов	-9.53726
чний	-9.53783
▁група	-9.53899
▁побачив	-9.53941
▁P	-9.54005
▁вільн	-9.54126
▁казал	-9.54179
дома	-9.54456
тобі	-9.54481
кар	-9.54526
▁скоро	-9.54699
▁природн	-9.54855
▁рук	-9.54905
▁вищ	-9.55034
▁шкір	-9.551
▁приватн	-9.55106
▁заради	-9.55107
▁спо	-9.55158
ден	-9.5526
A	-9.55301
▁змогли	-9.55324
вір	-9.55361
▁право	-9.5543
▁відчуває	-9.55458
юсь	-9.55556
▁спроб	-9.55571
мат	-9.5562
▁урок	-9.55656
коп	-9.55746
▁A	-9.5583
▁зроблен	-9.55879
▁котрі	-9.55944
рн	-9.56031
▁схож	-9.56057
▁математик	-9.56112
зу	-9.56191
▁со	-9.56214
▁освіти	-9.56255
▁словам	-9.56277
▁проте	-9.56322
▁Ре	-9.5634
▁машини	-9.56491
верт	-9.56507
▁проекту	-9.56532
▁майбутньо	-9.56544
▁Деяк	-9.56715
▁плат	-9.56841
▁значить	-9.56974
▁правильно	-9.57004
n	-9.57032
▁стають	-9.57041
лет	-9.57041
▁мал	-9.57129
▁далеко	-9.57346
▁ефект	-9.57447
▁дитяч	-9.57448
▁відповів	-9.57448
▁кошт	-9.57546
дум	-9.57624
кан	-9.57717
on	-9.57824
▁батька	-9.57928
▁решт	-9.57953
▁складно	-9.58004
▁подума	-9.58185
▁віри	-9.58203
▁друзів	-9.5829
▁фактично	-9.58403
▁створювати	-9.58406
▁сили	-9.5843
тверд	-9.58493
▁нез	-9.58578
▁теорі	-9.58762
▁вважає	-9.5878
шир	-9.58864
одночас	-9.5887
▁цифр	-9.58894
▁лікар	-9.59308
▁організм	-9.59366
▁Кожн	-9.59403
жаль	-9.59503
▁розповід	-9.59537
мемо	-9.59556
▁батьків	-9.59592
рост	-9.59599
оп	-9.59651
нер	-9.59671
надто	-9.59755
▁зраз	-9.59844
▁гадаю	-9.59859
▁доволі	-9.59861
дії	-9.59876
лл	-9.59876
▁повітря	-9.59969
▁схоже	-9.5997
ел	-9.59987
▁вірус	-9.60092
вала	-9.60147
▁злочин	-9.60174
al	-9.60198
▁роботі	-9.60212
важаючи	-9.60225
▁розумн	-9.60317
▁коротк	-9.60341
чок	-9.60389
▁обов	-9.60429
цю	-9.60509
руч	-9.60786
▁Гаразд	-9.6083
▁кшталт	-9.6083
▁міжнародн	-9.6083
▁істот	-9.60968
▁сама	-9.61123
▁25	-9.61253
▁улюблен	-9.61322
▁метр	-9.61526
тро	-9.61631
▁однаков	-9.61675
▁лікарн	-9.61724
▁парк	-9.6175
▁школі	-9.61817
люблю	-9.61859
▁поза	-9.61931
плив	-9.62005
ограф	-9.62034
ники	-9.62236
▁Ді	-9.62289
ства	-9.62361
▁показує	-9.62374
▁камер	-9.62375
▁думка	-9.62401
▁суд	-9.62536
▁Ро	-9.62544
▁землі	-9.62817
М	-9.62829
▁навчити	-9.6283
▁брат	-9.62864
▁називають	-9.62922
нести	-9.62972
чки	-9.63004
▁хвороби	-9.63156
▁ані	-9.63197
▁контролю	-9.63224
нс	-9.63241
певно	-9.63264
▁молекул	-9.63317
▁потужн	-9.63317
▁сміх	-9.63322
▁чимало	-9.63343
чули	-9.63516
▁Якби	-9.63746
▁залиша	-9.63748
▁суспільств	-9.63768
маєте	-9.63769
▁отримає	-9.63825
▁риб	-9.63839
▁дозвол	-9.63941
▁вийшл	-9.63963
▁пал	-9.6406
▁народ	-9.64088
▁людину	-9.64131
никає	-9.64191
▁сила	-9.64241
ські	-9.64294
▁говорить	-9.64299
▁раку	-9.64642
▁однієї	-9.6469
▁справи	-9.64788
▁корисн	-9.64846
▁всю	-9.6487
▁аналіз	-9.64871
ген	-9.64898
ження	-9.64902
ап	-9.64956
▁Пр	-9.65004
▁творч	-9.65083
▁язані	-9.6519
▁знаходять	-9.65355
▁Усі	-9.65384
Д	-9.65392
дан	-9.65663
▁чист	-9.65665
ант	-9.65722
▁інженер	-9.65868
▁зелен	-9.65896
жив	-9.65996
більш	-9.66002
▁використовуємо	-9.66049
▁Ле	-9.66052
▁двер	-9.66215
ток	-9.6623
▁емоційн	-9.66241
П	-9.66308
▁справжні	-9.66339
▁думки	-9.6639
▁допо	-9.66391
▁бактері	-9.66451
▁скажу	-9.6657
▁результаті	-9.66626
▁мова	-9.66703
ивши	-9.66725
іші	-9.66759
▁аж	-9.66885
▁кінці	-9.66901
▁існування	-9.66933
лом	-9.67098
▁дерев	-9.67158
▁дозволяє	-9.67274
▁робот	-9.67345
▁потребує	-9.6736
▁загроз	-9.67431
▁усього	-9.67512
▁написав	-9.67527
казав	-9.67588
▁хлопці	-9.67835
▁Google	-9.67957
▁підтримк	-9.67957
▁знайшли	-9.67958
▁криз	-9.68008
▁піт	-9.68074
▁успіху	-9.68143
нок	-9.68159
Йорк	-9.68162
▁почуття	-9.68264
ило	-9.68291
▁рапто	-9.68303
▁хвор	-9.68488
▁кінця	-9.68494
▁щодня	-9.68501
▁старш	-9.6851
▁Сан	-9.68541
▁слів	-9.68612
▁їхньо	-9.68618
дала	-9.68852
▁моєм	-9.68858
▁Пере	-9.68862
▁мови	-9.68872
▁успішн	-9.68969
▁Америці	-9.69018
▁тканин	-9.69018
▁уявлення	-9.69034
▁кріз	-9.69052
▁спробувати	-9.69085
▁клас	-9.69141
ска	-9.69175
▁певні	-9.69212
▁T	-9.69469
▁предмет	-9.69553
▁варіант	-9.69553
ров	-9.69608
▁значн	-9.69651
▁основі	-9.6974
бе	-9.69814
▁книжк	-9.69834
▁архітектур	-9.70091
▁лабораторії	-9.70095
▁неможливо	-9.70111
▁дозволит	-9.70149
▁доступн	-9.70172
▁котр	-9.70249
▁14	-9.70409
▁релігі	-9.70581
▁лідер	-9.70618
▁графік	-9.70633
▁ятаю	-9.70638
▁серйозн	-9.70698
дивіться	-9.70735
ття	-9.70818
▁виявили	-9.70975
ера	-9.71164
▁демократі	-9.71175
▁довкола	-9.71175
▁різноманітн	-9.71175
▁курс	-9.71189
▁пішо	-9.71191
▁16	-9.71197
нки	-9.71236
▁визначити	-9.71306
▁рак	-9.71323
▁власні	-9.71371
▁програми	-9.71427
ався	-9.71445
▁пояснит	-9.71492
▁програм	-9.71548
▁Одна	-9.71638
▁прям	-9.71736
▁причина	-9.7176
ган	-9.71761
▁Най	-9.71792
▁маленькі	-9.71805
итися	-9.71809
▁червон	-9.71935
▁віці	-9.71957
▁варт	-9.72193
▁Південн	-9.72271
▁конкретн	-9.72271
▁небезпечн	-9.72271
▁Просто	-9.72308
лід	-9.7238
йськ	-9.72391
▁місті	-9.72432
▁мама	-9.72511
▁операці	-9.72525
▁розвит	-9.72552
▁обмежен	-9.72609
бирати	-9.72642
лось	-9.72646
▁останн	-9.72712
▁конфлікт	-9.72823
▁зростання	-9.72823
▁таки	-9.72825
▁код	-9.72856
▁сумнів	-9.729
▁знайом	-9.72975
овим	-9.73017
разі	-9.7305
▁важк	-9.73062
▁кілько	-9.73113
▁Кита	-9.73275
ar	-9.73275
друк	-9.73335
порт	-9.73337
паки	-9.73337
▁слух	-9.73383
хоп	-9.73396
▁80	-9.73606
▁діє	-9.73659
▁надзвичайн	-9.73723
▁реальність	-9.73847
гом	-9.73854
▁повідомлення	-9.73938
▁ніч	-9.7394
▁технологія	-9.74068
форм	-9.74278
an	-9.74327
▁дивно	-9.74357
▁послуг	-9.74443
▁пре	-9.74474
▁види	-9.74503
▁199	-9.74516
▁програму	-9.74546
▁Ц	-9.74576
▁товар	-9.74597
▁Кріс	-9.746
▁зон	-9.7469
▁освіту	-9.74699
▁будинк	-9.74794
дасть	-9.7482
▁такої	-9.74919
даємо	-9.75018
▁онлайн	-9.75064
▁член	-9.75073
▁працювали	-9.7522
▁Ст	-9.75339
лас	-9.75383
▁сильн	-9.75448
▁рівн	-9.75496
мпан	-9.7551
▁коледж	-9.75633
▁секс	-9.75643
▁помил	-9.75663
▁газет	-9.75689
джу	-9.75693
▁цінн	-9.75727
Т	-9.75737
▁дизайнер	-9.75799
▁студентів	-9.75944
▁кров	-9.75985
▁хвил	-9.75998
▁трапилос	-9.76089
▁вважають	-9.76091
,000	-9.76204
▁партнер	-9.76204
▁співчуття	-9.76204
▁працювал	-9.76214
▁інакш	-9.76394
ший	-9.76488
▁нове	-9.76499
▁межі	-9.76548
▁революці	-9.76572
▁військов	-9.76609
люють	-9.76632
▁мистецтва	-9.76638
▁Кожен	-9.76779
▁супер	-9.7682
▁знайде	-9.76842
▁дій	-9.76962
▁давай	-9.77129
N	-9.77135
S	-9.77228
зм	-9.77263
▁моделі	-9.77311
▁швидкіст	-9.77324
▁трапля	-9.77351
▁елемент	-9.77352
▁самого	-9.77354
▁позитивн	-9.77356
▁хлопчик	-9.77358
▁буквально	-9.77358
▁знала	-9.77389
▁число	-9.77407
вірю	-9.77419
▁одяг	-9.77424
▁майбутнього	-9.7743
▁шляху	-9.7744
▁нормальн	-9.7747
▁яви	-9.77586
▁відбува	-9.77619
середин	-9.77627
▁фінансов	-9.77642
▁ран	-9.77656
▁експерт	-9.77938
▁такою	-9.77953
▁дір	-9.77957
▁правила	-9.78015
▁мистецтво	-9.78306
▁довг	-9.78378
▁сподіваюс	-9.78418
кін	-9.7846
▁космічн	-9.78523
гляну	-9.787
іба	-9.78715
b	-9.7879
▁номер	-9.79117
▁місцях	-9.79124
▁брати	-9.79148
▁куп	-9.79331
k	-9.79367
різ	-9.79429
давали	-9.79517
І	-9.7957
▁прий	-9.79655
суть	-9.79672
▁низьк	-9.79702
▁збираюс	-9.79703
▁мусимо	-9.79706
стичн	-9.79709
▁безпечн	-9.79726
▁задоволення	-9.79766
▁дають	-9.79779
▁подумал	-9.79838
снує	-9.7989
▁сил	-9.8
▁починають	-9.80029
▁Па	-9.80072
▁успіх	-9.8009
▁причини	-9.80129
чка	-9.80176
▁лиш	-9.80226
▁потріб	-9.80228
▁доказ	-9.80273
▁поняття	-9.80298
▁дітьми	-9.80298
▁I	-9.80314
▁розуміти	-9.80322
▁зупинити	-9.80331
▁десятк	-9.80383
▁музик	-9.8044
▁пізніш	-9.80459
▁знім	-9.8056
нню	-9.80563
▁поділитис	-9.80591
вар	-9.80728
▁напрямк	-9.80796
▁вниз	-9.80801
I	-9.80841
▁вода	-9.80846
▁охорони	-9.80881
▁регіон	-9.80897
▁взяли	-9.80898
▁захворювання	-9.80938
▁відкриття	-9.80998
▁Китай	-9.81016
▁дитини	-9.81024
▁важливим	-9.81052
▁руку	-9.81106
▁компанія	-9.81258
бачу	-9.81281
лан	-9.81304
▁години	-9.81366
ках	-9.8141
▁дії	-9.81459
▁середовище	-9.8147
▁Відео	-9.81521
ове	-9.81549
▁пост	-9.81564
пон	-9.81584
▁нафт	-9.81693
мисл	-9.81709
▁поперед	-9.81729
крема	-9.81741
▁показал	-9.81842
▁океан	-9.81913
▁еволюці	-9.81922
▁Справ	-9.82031
нськ	-9.82045
▁пів	-9.82065
▁стратегі	-9.82105
▁відносин	-9.82105
▁прогрес	-9.82106
думаємо	-9.82217
▁відповіді	-9.82294
гли	-9.82359
ози	-9.82489
стей	-9.82603
in	-9.82658
▁двом	-9.82674
▁Північн	-9.82715
▁відповіл	-9.82718
▁ідеальн	-9.82755
▁прийшов	-9.82777
▁вимір	-9.82945
вальн	-9.83002
▁мета	-9.83079
Йорку	-9.83114
ація	-9.83127
▁точн	-9.83157
▁Бі	-9.83168
▁тиждень	-9.83328
▁змінювати	-9.83362
▁сильно	-9.83382
▁подола	-9.83429
▁довір	-9.83478
▁державн	-9.83484
▁будинку	-9.83624
▁ділянк	-9.83722
▁національн	-9.83802
▁G	-9.83814
▁поверта	-9.83841
▁важливі	-9.83861
▁Інш	-9.83934
▁кілометр	-9.83946
▁механізм	-9.83946
▁перспектив	-9.83946
▁скаже	-9.83956
▁комах	-9.83957
▁поліці	-9.84069
▁країна	-9.84121
ват	-9.84186
▁розумію	-9.84296
▁умови	-9.84318
▁кв	-9.84393
▁запитал	-9.84395
▁відділ	-9.84444
жили	-9.84474
нят	-9.84555
▁Кр	-9.84556
▁журнал	-9.84561
▁безліч	-9.84568
▁мрія	-9.8459
▁справжн	-9.8466
▁помилк	-9.84683
▁компаній	-9.84772
▁Май	-9.84786
▁темн	-9.84803
двічі	-9.84918
▁воді	-9.84933
▁чер	-9.85033
куп	-9.85049
Н	-9.85284
T	-9.8529
▁заяв	-9.85315
▁Ар	-9.85373
гідно	-9.85397
▁рис	-9.85682
роду	-9.85683
▁сцен	-9.85751
нку	-9.85801
▁функці	-9.85815
▁кордон	-9.85824
▁довелос	-9.85827
▁відповід	-9.85986
лежить	-9.86121
▁жертв	-9.86197
▁знайшов	-9.86455
▁17	-9.86477
▁кут	-9.86478
▁спілкування	-9.86498
лег	-9.86919
єш	-9.86982
енд	-9.86993
▁обо	-9.87131
▁язати	-9.87164
звісно	-9.87181
▁розп	-9.87205
▁займає	-9.87299
▁близьк	-9.87306
пр	-9.87349
▁знак	-9.87393
▁доход	-9.87441
▁зірк	-9.87464
▁Ла	-9.87502
писати	-9.8764
▁впливає	-9.87675
▁клімат	-9.87712
▁документ	-9.87739
▁ласка	-9.8774
▁мислення	-9.87784
▁користувач	-9.87897
вод	-9.87904
▁см	-9.87922
▁народження	-9.87962
▁картин	-9.87972
▁видно	-9.88118
тні	-9.88185
лер	-9.8821
▁називаю	-9.88238
▁стат	-9.88286
думали	-9.88298
▁суспільн	-9.88377
▁робив	-9.88381
▁жіноч	-9.88384
фр	-9.88414
ювання	-9.88475
▁фактор	-9.88486
▁відповідальн	-9.88711
▁мор	-9.88731
▁додат	-9.88795
▁імен	-9.88861
▁сприйняття	-9.89029
▁термін	-9.89029
▁медіа	-9.89056
▁пісн	-9.89071
▁розлад	-9.891
▁супутник	-9.89272
▁біологічн	-9.89376
іша	-9.89442
▁мам	-9.89576
▁диви	-9.89595
▁швидк	-9.89632
▁принайм	-9.89679
▁музичн	-9.8968
▁штучн	-9.8968
▁сексуальн	-9.8968
▁сестр	-9.89683
▁Всесвіт	-9.89692
▁врешті	-9.89747
▁сподіва	-9.89782
▁говоримо	-9.89823
▁відповідає	-9.8996
▁сторінк	-9.90026
▁ряд	-9.90147
льні	-9.90154
одно	-9.90198
міш	-9.90201
▁подивитися	-9.90203
▁журналіст	-9.90215
світ	-9.90303
▁речовин	-9.90337
▁дістати	-9.90342
▁праці	-9.90351
▁13	-9.90352
▁традиційн	-9.90418
▁соціальні	-9.90462
▁газ	-9.90468
▁жодного	-9.90481
▁крі	-9.90654
▁використовує	-9.90658
▁70	-9.90871
▁стол	-9.90957
▁допомагає	-9.91
▁космос	-9.91
▁звучит	-9.91014
▁автомат	-9.91039
овано	-9.91171
▁красив	-9.91186
менти	-9.91254
▁провел	-9.91352
▁зможуть	-9.91392
▁явля	-9.91396
осіб	-9.91482
▁справедлив	-9.91666
▁унікальн	-9.91666
▁читати	-9.91707
▁Му	-9.91735
▁іде	-9.91768
цями	-9.91963
▁гри	-9.92043
▁ідей	-9.92106
▁нова	-9.92119
▁Африки	-9.9227
▁Зна	-9.9228
▁Бул	-9.92314
▁змінило	-9.92403
▁нема	-9.92452
▁ранку	-9.92728
тт	-9.92846
en	-9.92862
▁дерева	-9.92865
▁полі	-9.92897
інш	-9.92908
йдуть	-9.9291
жити	-9.92927
▁нос	-9.93017
▁кімнат	-9.93017
▁середньо	-9.93132
▁біо	-9.93139
тори	-9.93229
▁життям	-9.93296
▁витрати	-9.93337
▁мусит	-9.9341
▁D	-9.93436
лем	-9.93452
▁перші	-9.93508
or	-9.9355
▁змінює	-9.93633
▁змушен	-9.93694
▁кадр	-9.93695
▁використовували	-9.937
▁відкрив	-9.9372
▁моральн	-9.93726
▁голові	-9.93731
▁грати	-9.93775
▁кол	-9.93782
▁мрі	-9.93831
▁цінност	-9.93848
▁застосува	-9.93891
нґ	-9.93915
▁кінець	-9.93942
падає	-9.94029
Е	-9.94086
▁сер	-9.94255
▁вражаюч	-9.94378
▁дітям	-9.94379
робити	-9.94379
▁сільськ	-9.9438
▁схем	-9.94382
▁дослідник	-9.94382
▁поді	-9.94439
▁отримують	-9.94516
▁виявилос	-9.94522
▁інформація	-9.94693
▁вік	-9.94717
C	-9.94788
▁актив	-9.94867
▁сенс	-9.94902
увало	-9.94926
▁поряд	-9.94935
шки	-9.94945
їхати	-9.94998
▁депресі	-9.95068
▁чотирьох	-9.95068
▁версі	-9.95074
цію	-9.9509
▁дівчинк	-9.95177
▁змінюється	-9.95216
▁глибок	-9.95294
▁запам	-9.95306
▁зможете	-9.95365
▁здатні	-9.95434
▁погано	-9.95445
▁галактик	-9.9558
рист	-9.95658
говорив	-9.95697
▁молоді	-9.95752
▁президент	-9.95763
▁вирішит	-9.95764
▁учасник	-9.95766
▁створюють	-9.95788
▁команда	-9.95814
▁зрозуміла	-9.95817
хай	-9.95909
ємось	-9.95916
нуть	-9.95982
рос	-9.96003
пар	-9.9601
▁рука	-9.96083
нос	-9.96083
ований	-9.9615
▁залежить	-9.96202
ic	-9.96248
▁90	-9.96269
▁серце	-9.9632
▁викид	-9.96373
уйте	-9.96402
▁питань	-9.96462
▁позиці	-9.96465
▁блок	-9.9654
▁21	-9.96542
сно	-9.96556
▁їжу	-9.96649
▁одніє	-9.96649
▁окр	-9.96856
рад	-9.96901
▁стражда	-9.97041
▁бачення	-9.97102
думала	-9.97159
▁Кільк	-9.97166
▁Без	-9.97168
▁одночасно	-9.97195
▁аспект	-9.97235
▁дав	-9.97407
▁стоя	-9.97417
▁ситуація	-9.97438
▁Ін	-9.97485
▁500	-9.97509
▁ключов	-9.97555
▁служб	-9.97754
▁форми	-9.97755
далі	-9.97777
▁рин	-9.97813
▁Дозвольт	-9.97875
▁інтерес	-9.97882
▁наркотик	-9.97883
▁грав	-9.97943
пал	-9.98182
жит	-9.98403
сс	-9.98417
▁заход	-9.98487
▁популярн	-9.9859
▁життєв	-9.9859
▁пристрій	-9.9859
▁займатис	-9.98591
▁запитав	-9.98621
▁Вас	-9.98644
▁вчити	-9.98735
▁друзі	-9.98757
▁провів	-9.9881
низу	-9.98842
▁доньк	-9.98846
гадати	-9.98849
▁спин	-9.98895
▁розділ	-9.99032
цьк	-9.99081
it	-9.99098
▁ютерн	-9.99193
▁виклика	-9.99217
гляд	-9.99294
▁Бразилі	-9.99309
▁візуальн	-9.99309
▁вершин	-9.99309
▁Будь	-9.99311
▁ознак	-9.99311
▁тижня	-9.99323
▁створив	-9.99374
▁Кар	-9.99401
структур	-9.99422
▁досягнення	-9.99428
▁дали	-9.99476
▁ній	-9.99525
▁текст	-9.9953
арі	-9.9957
слав	-9.99571
▁технічн	-9.99661
овувати	-9.99715
▁поруч	-9.99733
▁мар	-9.99796
ованих	-9.99832
она	-9.99841
Л	-9.99917
▁символ	-9.99992
▁Наступн	-10.0003
▁заборон	-10.0003
▁звідки	-10.0004
▁вибух	-10.0005
▁досліди	-10.0006
▁гру	-10.0009
▁Ті	-10.0019
▁трапи	-10.0023
▁управління	-10.0025
▁банк	-10.0025
▁книги	-10.0029
дивитися	-10.003
вало	-10.0034
рей	-10.0036
ьте	-10.0054
▁розвивають	-10.0056
щи	-10.0056
▁протест	-10.006
Г	-10.006
▁екс	-10.006
інг	-10.0064
▁мікро	-10.0065
край	-10.007
▁Європ	-10.0072
▁атмосфер	-10.0076
▁контекст	-10.0076
▁Думаю	-10.0076
▁бабус	-10.0077
▁взяв	-10.0077
▁ночі	-10.0078
▁стаді	-10.0087
▁пік	-10.0105
▁віку	-10.0107
▁повернув	-10.0111
ватись	-10.0115
▁Щ	-10.0118
▁шукати	-10.012
▁Нов	-10.013
вався	-10.0133
M	-10.014
▁присутні	-10.014
▁E	-10.0143
пс	-10.0145
▁визначення	-10.0152
▁област	-10.0154
веду	-10.0165
ніс	-10.0166
▁вперед	-10.0185
▁бере	-10.0196
▁Наші	-10.0201
▁особ	-10.0201
▁жорсток	-10.0224
слід	-10.0226
▁кіно	-10.0232
▁виглядал	-10.0235
▁центрі	-10.0237
▁відчувати	-10.0238
▁зміст	-10.0239
▁кімнаті	-10.0241
▁очевидно	-10.0247
▁бар	-10.0257
▁поділ	-10.0265
▁вітр	-10.0283
▁детал	-10.0289
▁якості	-10.0291
▁бал	-10.0293
код	-10.0295
▁язниці	-10.0296
ершу	-10.0297
▁практично	-10.0298
▁алгоритм	-10.0299
▁дивля	-10.0299
▁божевільн	-10.0299
▁статистик	-10.03
▁залишає	-10.0304
▁плав	-10.0331
чне	-10.0332
▁книжки	-10.0335
▁пер	-10.0362
▁сад	-10.0365
▁норм	-10.0371
▁вчителі	-10.0374
▁офіс	-10.0374
▁хмар	-10.0374
▁випад	-10.0376
рід	-10.0376
▁розробк	-10.0376
▁робит	-10.0377
нули	-10.0384
▁працівник	-10.0386
туп	-10.0387
мість	-10.0388
▁смерть	-10.0389
думайте	-10.0391
лад	-10.0402
▁дво	-10.0408
▁базу	-10.0428
нула	-10.0435
агу	-10.0444
▁ціну	-10.0448
▁крихітн	-10.045
▁помер	-10.0455
▁екологічн	-10.0458
никнути	-10.0458
▁промислов	-10.0462
міст	-10.0477
▁чудові	-10.0483
▁Марс	-10.0497
еньк	-10.0499
▁глибоко	-10.0501
▁будівлі	-10.0505
▁висновк	-10.0507
під	-10.0516
водить	-10.0525
▁Каліфорні	-10.0526
▁довкілля	-10.0526
▁медицин	-10.0526
▁розповім	-10.0526
▁залежн	-10.0533
друж	-10.0537
▁частіш	-10.0544
▁допомагаю	-10.0546
▁брак	-10.0549
сер	-10.0552
▁надію	-10.0555
▁порад	-10.0565
▁напад	-10.057
▁Об	-10.0586
дання	-10.059
найти	-10.0594
▁потенціал	-10.0603
▁хірург	-10.0603
▁перешкод	-10.0603
▁спеціальн	-10.0603
▁керувати	-10.0603
штовху	-10.0604
▁забезпечит	-10.0635
▁кращим	-10.064
▁доки	-10.0659
▁очікува	-10.066
▁масов	-10.0678
▁міцн	-10.068
▁сонячн	-10.068
▁ставлення	-10.0686
ou	-10.0692
▁вибору	-10.0695
▁описа	-10.0695
йти	-10.07
▁Ста	-10.0706
мушу	-10.071
▁поведінки	-10.0729
иро	-10.073
▁модел	-10.0733
▁електронн	-10.0738
▁Сам	-10.0739
▁уяві	-10.075
▁аудиторі	-10.0758
▁контроль	-10.0758
▁школу	-10.0758
▁захища	-10.0758
▁вісім	-10.0759
▁жовт	-10.0759
▁забезпечення	-10.076
▁змусит	-10.0761
▁міськ	-10.0768
▁умовах	-10.0769
▁єдн	-10.078
▁відмін	-10.0783
▁почне	-10.0791
який	-10.0797
▁Мої	-10.0804
▁середовища	-10.0805
▁реклам	-10.0811
▁пара	-10.0814
▁підход	-10.0822
стриб	-10.0823
▁стіл	-10.0826
▁заклад	-10.0835
▁віртуальн	-10.0837
▁вакцин	-10.0837
▁переконати	-10.0837
▁кав	-10.0837
чаток	-10.0841
▁великим	-10.0841
▁хімічн	-10.0861
▁перевір	-10.0862
які	-10.0872
▁Кон	-10.0879
▁працівників	-10.0884
▁високо	-10.0889
▁тріш	-10.0897
▁біологі	-10.0898
ць	-10.0912
▁Штатах	-10.0917
▁перетворити	-10.0917
▁інвестиці	-10.0917
▁запитати	-10.0917
▁прихован	-10.092
▁таємниц	-10.0923
бачила	-10.0928
▁приз	-10.0934
таєте	-10.0947
йшов	-10.0949
дам	-10.0951
▁ринку	-10.0953
▁коло	-10.0956
▁думає	-10.0959
▁залуч	-10.0962
▁схожі	-10.0986
▁роботів	-10.0996
▁рішень	-10.0997
▁мертв	-10.0997
▁здавалос	-10.0997
▁фундаментальн	-10.0997
▁площ	-10.0998
▁відмов	-10.1005
▁стимул	-10.1012
▁шум	-10.1025
буду	-10.1031
▁екран	-10.1047
▁оч	-10.1052
▁важливе	-10.1065
▁першим	-10.107
чку	-10.1076
▁прогноз	-10.1077
▁закінчу	-10.1077
▁стрес	-10.1078
▁висот	-10.1078
▁дізнав	-10.108
▁написал	-10.1082
▁контролювати	-10.1082
▁заверш	-10.1089
мете	-10.1094
пустити	-10.1102
▁прозор	-10.1109
▁рас	-10.112
дебіль	-10.1123
▁відкрити	-10.1133
▁команди	-10.1146
▁посад	-10.1147
▁магазин	-10.1158
▁епох	-10.1159
▁хлопець	-10.116
▁скажі	-10.1179
▁насильств	-10.1195
▁залишити	-10.1195
верну	-10.1197
▁самим	-10.1198
▁радіо	-10.1204
▁існувал	-10.1205
▁пил	-10.1216
гре	-10.1222
▁фотограф	-10.1225
▁температур	-10.124
▁будинок	-10.124
▁слайд	-10.124
зовні	-10.1241
▁прийшли	-10.1248
МІ	-10.1249
▁Бер	-10.1257
▁процесі	-10.1272
▁виробництв	-10.1273
рат	-10.1277
▁доведе	-10.1281
▁написан	-10.1283
▁посеред	-10.1289
▁баз	-10.1297
▁проста	-10.1297
▁стійк	-10.1302
ником	-10.1304
ходив	-10.1305
ська	-10.131
▁студент	-10.1318
▁відраз	-10.1319
▁сторін	-10.1323
▁Аплодис	-10.1323
▁печер	-10.1323
▁невеличк	-10.1323
▁зібрати	-10.1324
▁колір	-10.1325
▁ймовірно	-10.1326
▁24	-10.1327
▁трет	-10.1328
▁жарт	-10.1329
▁чув	-10.1331
▁складається	-10.1333
пол	-10.134
▁старі	-10.1341
▁серця	-10.1345
▁Джо	-10.1347
▁машина	-10.1351
прошу	-10.1357
▁Тільки	-10.1358
тальн	-10.1359
▁середовищ	-10.1361
▁побачимо	-10.1364
▁Нас	-10.139
▁суб	-10.1395
▁громадян	-10.1405
▁Далі	-10.1408
▁єднати	-10.1412
тимуть	-10.1415
▁канал	-10.1418
▁досвіду	-10.1428
▁технологічн	-10.1428
водять	-10.1429
▁почути	-10.143
▁яті	-10.1442
дар	-10.1444
остей	-10.1473
▁прис	-10.1477
▁матеріали	-10.1477
вантаж	-10.1485
▁установ	-10.1488
▁велосипед	-10.149
▁психічн	-10.149
▁яскрав	-10.149
▁ближч	-10.149
▁відсутн	-10.1491
▁зацікавлен	-10.1491
▁наступні	-10.1491
анд	-10.1496
▁внес	-10.1499
▁дик	-10.1499
▁зайнят	-10.15
▁крут	-10.1511
изм	-10.1513
▁пережив	-10.1514
гер	-10.1518
гід	-10.1523
▁підлітк	-10.1531
▁музика	-10.154
▁купи	-10.1546
▁простору	-10.1549
сне	-10.155
▁миль	-10.1551
▁стоїт	-10.1554
▁вистав	-10.1559
▁правил	-10.1563
▁ООН	-10.1575
▁представник	-10.1575
▁словник	-10.1575
▁школа	-10.1575
▁обидв	-10.1575
▁льод	-10.1575
▁найменш	-10.1576
▁помітил	-10.1576
▁ходити	-10.1578
▁сором	-10.1579
▁умов	-10.158
▁посил	-10.1581
▁містах	-10.1607
клав	-10.161
тувати	-10.1614
▁поговорит	-10.1632
▁їсти	-10.1634
носять	-10.1643
фер	-10.1644
▁Лондон	-10.1661
▁штук	-10.1661
▁Лише	-10.1661
▁протилежн	-10.1661
▁невідом	-10.1664
писав	-10.1667
▁щоденн	-10.1668
▁300	-10.1675
▁шар	-10.1676
▁тепл	-10.1682
▁бомб	-10.1688
▁частині	-10.1693
▁довш	-10.1701
юючи	-10.1712
▁починаю	-10.1713
ліп	-10.1713
▁зображен	-10.1716
▁хлопця	-10.1722
▁Інтернету	-10.1723
▁Світ	-10.1723
▁поговори	-10.1727
▁писати	-10.1729
▁вигад	-10.1736
індустрі	-10.1745
▁спостерігає	-10.1747
▁Чудов	-10.1747
▁слабк	-10.1747
▁кампані	-10.1747
голос	-10.1753
▁свят	-10.1757
зувати	-10.1759
▁найгірш	-10.1763
▁першого	-10.1765
так	-10.1765
▁володі	-10.1767
▁станеться	-10.1777
▁вислов	-10.1781
▁структуру	-10.1783
весь	-10.1809
▁замін	-10.1829
▁директор	-10.1834
▁смілив	-10.1834
▁коробк	-10.1835
▁папер	-10.1836
▁колін	-10.1854
▁веб	-10.1858
▁Кор	-10.186
▁голову	-10.1862
▁публік	-10.1871
▁діяти	-10.1887
▁бач	-10.1896
▁запит	-10.1903
▁Усе	-10.1905
живання	-10.1912
▁цілі	-10.1913
▁обра	-10.1915
▁оцінк	-10.1916
етичн	-10.1916
▁вправ	-10.1917
▁прив	-10.192
▁філософ	-10.1922
▁Серед	-10.1922
▁розподіл	-10.1924
▁Протя	-10.1926
▁стика	-10.1926
▁Перед	-10.1927
▁квіт	-10.193
ланд	-10.1933
▁голод	-10.1936
▁тиск	-10.1943
пізна	-10.1948
▁Одного	-10.1948
ВП	-10.195
▁намагаються	-10.1967
робила	-10.1969
▁змінили	-10.1971
▁вище	-10.1976
кувати	-10.1976
▁болю	-10.1978
▁питанням	-10.1982
▁спр	-10.1983
▁Оск	-10.1986
▁випадків	-10.1991
▁вивчати	-10.1995
довж	-10.1998
▁дев	-10.2004
▁четверт	-10.2007
▁роман	-10.2008
▁Проблем	-10.201
▁апарат	-10.201
▁нижч	-10.201
▁випуск	-10.201
▁шкільн	-10.2012
▁додатков	-10.2019
▁продовжувати	-10.202
▁єднан	-10.2023
▁історій	-10.2033
▁язання	-10.2034
зір	-10.2042
▁постійн	-10.2047
▁містить	-10.2073
▁стандарт	-10.2075
спі	-10.2076
▁дитину	-10.2091
ражає	-10.2093
▁Близьк	-10.2099
▁китайськ	-10.2099
▁історичн	-10.2099
▁негативн	-10.2099
▁зростає	-10.2099
▁сидит	-10.2101
▁списк	-10.2101
▁тур	-10.2104
▁Європі	-10.2105
лежать	-10.2105
▁сенсі	-10.2116
▁самостійно	-10.2116
▁сина	-10.2118
люб	-10.2151
▁друзями	-10.2153
▁зміна	-10.2165
▁Ган	-10.2169
маль	-10.2179
▁припин	-10.2181
▁перегляд	-10.2183
▁почув	-10.2188
▁Виявля	-10.2189
▁ґрунт	-10.2189
▁виглядати	-10.219
вечер	-10.219
▁допомогл	-10.2191
▁дізналис	-10.2192
▁ядерн	-10.2202
▁дівчин	-10.2203
▁слон	-10.2209
▁програма	-10.2214
▁Лос	-10.2215
▁американців	-10.2216
▁рідн	-10.2218
▁переста	-10.222
▁показав	-10.2241
В	-10.2242
▁сир	-10.2257
▁форма	-10.2258
▁отримує	-10.2274
американ	-10.2278
▁електричн	-10.228
▁епідемі	-10.228
▁керівник	-10.228
▁ліжк	-10.2281
отримуємо	-10.2281
▁місі	-10.2282
▁знань	-10.2282
▁змушує	-10.2282
▁відбулос	-10.2285
▁наявн	-10.2287
▁чест	-10.2287
▁дар	-10.2288
▁правило	-10.2291
▁відрізняє	-10.2292
▁оц	-10.2294
▁оберт	-10.2294
▁Нато	-10.2299
le	-10.2317
лік	-10.2324
віз	-10.2325
клали	-10.2336
▁потом	-10.2339
▁зразк	-10.235
▁електро	-10.2351
віст	-10.2361
мир	-10.2361
▁пішл	-10.2369
▁цивілізаці	-10.2372
▁198	-10.2374
▁навчили	-10.2374
менш	-10.238
робимо	-10.2399
▁транс	-10.2402
пуск	-10.2411
один	-10.2419
▁широк	-10.2422
▁долар	-10.2426
▁язково	-10.2428
▁прийняти	-10.243
▁подій	-10.2431
▁дешев	-10.2433
▁мус	-10.2438
класти	-10.244
▁задум	-10.2445
▁Ел	-10.2463
es	-10.2464
▁ВІЛ	-10.2465
▁зусиль	-10.2465
▁симптом	-10.2465
▁режим	-10.2465
▁цикл	-10.2465
▁боротис	-10.247
▁натом	-10.2474
▁реальност	-10.2479
▁істин	-10.2484
▁продовжує	-10.2488
йшли	-10.2488
▁покращ	-10.2497
▁пізн	-10.2507
ролі	-10.2508
▁війн	-10.2512
▁догляд	-10.2514
ектор	-10.2515
▁допоможе	-10.2519
▁смертн	-10.2528
P	-10.253
прост	-10.2531
Ф	-10.2535
▁переконан	-10.2551
▁автомобілі	-10.2558
▁місяць	-10.2558
▁пункт	-10.2558
▁секрет	-10.2558
▁телескоп	-10.2558
▁глядач	-10.2558
▁рухається	-10.2559
▁біль	-10.2559
пит	-10.2561
▁показува	-10.2562
▁Мар	-10.2571
▁західн	-10.2576
▁кола	-10.2584
▁намагалис	-10.2589
▁веде	-10.259
▁попроси	-10.2611
▁холодн	-10.2613
▁Ал	-10.2625
▁вийде	-10.2626
▁кістк	-10.263
▁шукає	-10.2634
▁останньо	-10.2635
▁різним	-10.2638
▁автор	-10.2638
▁нещодавно	-10.2644
▁травм	-10.2652
▁блакитн	-10.2652
▁вирішила	-10.2652
▁насилля	-10.2652
▁спостерігати	-10.2652
▁солдат	-10.2652
▁малярі	-10.2653
▁вдячн	-10.2653
▁уряду	-10.2653
▁охорон	-10.2656
їжджа	-10.2658
▁росту	-10.2661
▁Мак	-10.2662
▁межам	-10.2664
▁давно	-10.2666
▁відвіда	-10.2667
▁дія	-10.2675
▁матиме	-10.2676
▁меж	-10.2676
сні	-10.2677
нка	-10.2677
▁практик	-10.2679
▁створ	-10.2684
▁складніш	-10.2686
чула	-10.2687
▁конференці	-10.269
▁приєдна	-10.2694
▁пару	-10.2706
тайте	-10.2709
▁намір	-10.271
▁трива	-10.271
▁верх	-10.2715
▁кур	-10.2724
▁2000	-10.2728
▁постав	-10.2735
кру	-10.2735
гру	-10.2738
▁Час	-10.2739
пав	-10.2742
▁зуб	-10.2743
▁вуглец	-10.2748
▁концепці	-10.2748
▁обставин	-10.2748
▁Знову	-10.2748
▁хакер	-10.2748
▁капітал	-10.2748
▁продуктивн	-10.2748
▁малюк	-10.2751
▁виросл	-10.2753
▁виглядають	-10.2755
▁перемог	-10.2767
▁Ірак	-10.277
▁ризику	-10.2775
▁дощ	-10.2776
▁немов	-10.2778
▁перше	-10.2781
▁Бачит	-10.2782
▁втратил	-10.2786
бав	-10.2788
▁відчуваю	-10.2803
▁купити	-10.2805
увач	-10.2807
▁збирає	-10.2823
▁єкти	-10.2827
▁відстані	-10.2832
▁Пар	-10.2837
▁бачат	-10.2837
▁ход	-10.2838
▁чітк	-10.2839
▁Німеччин	-10.2844
▁жінку	-10.2844
▁шести	-10.2844
▁рамк	-10.2845
▁визначає	-10.2846
▁спад	-10.2847
▁залоз	-10.2849
стосовн	-10.285
▁прийшла	-10.2851
▁картину	-10.2859
▁культурн	-10.2861
ниці	-10.2861
▁складні	-10.2864
▁показують	-10.2864
творення	-10.2867
▁маленька	-10.2894
уюч	-10.2901
▁розуміють	-10.2907
тичні	-10.291
▁охо	-10.2911
▁відмінност	-10.2915
▁зможу	-10.2922
якому	-10.2925
▁серйозно	-10.2929
▁казати	-10.2934
▁рухатис	-10.2935
▁добро	-10.2937
ведення	-10.2939
▁декілько	-10.2941
▁пацієнта	-10.2941
▁автобус	-10.2941
▁бренд	-10.2941
▁спогад	-10.2941
▁остров	-10.2941
▁жителі	-10.2941
▁метафор	-10.2941
▁любля	-10.2947
лять	-10.295
рні	-10.2952
▁прилад	-10.2954
▁тіл	-10.2956
▁інвесту	-10.2956
▁чергу	-10.2974
▁виявити	-10.2974
▁складов	-10.2974
пити	-10.2976
елл	-10.2977
важаємо	-10.2982
овк	-10.2984
▁гол	-10.2994
▁Інді	-10.2997
▁попри	-10.3003
▁організація	-10.302
чним	-10.3025
▁померл	-10.3027
▁перебува	-10.3028
▁морськ	-10.3032
▁Потрібн	-10.3039
▁вважали	-10.3039
міністр	-10.3039
▁займають	-10.3039
▁навчати	-10.304
▁Раз	-10.304
▁ПМ	-10.3043
▁звернути	-10.3046
▁легк	-10.3054
▁характер	-10.3059
никають	-10.3061
кресл	-10.3085
▁застосування	-10.309
▁подібні	-10.3093
▁залиш	-10.3096
зик	-10.3098
▁лікаря	-10.3109
рс	-10.3113
▁розріз	-10.3119
▁Пі	-10.3119
▁біг	-10.3125
▁належн	-10.3132
▁користую	-10.3137
▁поясню	-10.3138
▁відповісти	-10.3138
▁фокус	-10.3138
▁шлюб	-10.3139
▁вважати	-10.314
▁чітко	-10.3143
▁дідус	-10.3146
▁релігійн	-10.3147
ованим	-10.3149
▁змінюють	-10.3159
кінці	-10.3161
▁вбивств	-10.318
▁Три	-10.3181
▁влада	-10.3188
▁поглянут	-10.3209
▁лікарі	-10.3212
▁малюва	-10.3214
▁закінчи	-10.3218
▁людські	-10.3219
▁захворюван	-10.3231
▁пухлин	-10.3238
▁щільн	-10.3238
ритм	-10.3239
▁візьм	-10.3239
▁спостереження	-10.324
▁літер	-10.324
▁джерело	-10.324
▁структури	-10.3246
▁дитиною	-10.3258
▁виявляє	-10.3261
▁проводити	-10.3263
▁пластик	-10.3265
▁Гада	-10.3277
▁погоди	-10.328
▁атак	-10.3281
▁розпізна	-10.3281
▁являєть	-10.3281
▁ютери	-10.3286
▁розвива	-10.3287
чуєте	-10.3291
▁шука	-10.3295
ночі	-10.3297
▁Кол	-10.3312
▁перетворю	-10.3319
▁неза	-10.3322
▁йти	-10.3327
▁опис	-10.3329
▁Пам	-10.3331
▁психолог	-10.3338
▁архітектор	-10.3339
▁отримувати	-10.3339
▁страшенн	-10.3339
▁бджіл	-10.3339
▁спонука	-10.3339
▁собак	-10.3339
▁Японі	-10.334
▁явище	-10.3341
▁мудр	-10.3341
▁дух	-10.3352
▁ятати	-10.3354
▁прибутк	-10.3362
▁Ne	-10.3365
▁просторі	-10.337
▁створюю	-10.3372
▁обмін	-10.3378
кажіть	-10.3386
▁сход	-10.3389
ріст	-10.3391
▁ліків	-10.34
▁маті	-10.3401
▁дозволя	-10.3402
▁інформаці	-10.3406
платити	-10.3412
ніж	-10.3419
▁бур	-10.3421
▁наука	-10.3432
▁незалежн	-10.3433
▁таємн	-10.344
▁антибіотик	-10.3441
▁професор	-10.3441
▁публічн	-10.3441
▁процвіта	-10.3441
▁діяльност	-10.3441
▁Цього	-10.3441
▁родич	-10.3442
▁щороку	-10.3442
▁генетичн	-10.3442
▁зірок	-10.3443
▁вирішення	-10.3444
▁пройти	-10.3445
кладати	-10.3447
▁почало	-10.3448
▁робіт	-10.3449
▁Азі	-10.3459
ологі	-10.3459
▁надійн	-10.3466
ходили	-10.3468
▁виникл	-10.3473
▁зроблено	-10.3475
рез	-10.3477
думають	-10.3483
▁громадянськ	-10.3485
▁чесно	-10.3485
▁війну	-10.3496
▁пише	-10.3497
▁атом	-10.3508
▁диск	-10.3513
▁наслід	-10.3518
▁виміря	-10.352
▁індивідуальн	-10.3526
план	-10.3532
▁всюди	-10.3533
▁поширен	-10.3538
▁науковці	-10.3543
▁гаразд	-10.3544
▁кінцев	-10.3544
▁інститут	-10.3544
▁клієнт	-10.3544
▁чоловіч	-10.3544
▁художник	-10.3544
▁критичн	-10.3544
▁припущення	-10.3545
жин	-10.3546
даючи	-10.3546
▁Стр	-10.3558
▁зручн	-10.3563
▁Африк	-10.3564
▁поставити	-10.3567
▁відчути	-10.3567
▁попросил	-10.3573
▁сері	-10.3576
▁передати	-10.3586
▁колон	-10.3591
▁інтерв	-10.36
▁ключ	-10.3606
берегти	-10.3611
▁фізики	-10.3612
▁забезпеч	-10.3621
унд	-10.3629
▁самотн	-10.363
▁випадков	-10.364
▁категорі	-10.3648
▁несподіван	-10.3648
▁тенденці	-10.3648
▁сміття	-10.3648
▁становить	-10.3648
▁знаходимо	-10.3648
▁потрапит	-10.3648
▁зібрали	-10.3649
▁жінкам	-10.365
▁Західн	-10.365
рахувати	-10.365
▁Канад	-10.3653
E	-10.3658
▁інформаційн	-10.3659
▁Два	-10.3663
▁середні	-10.3674
▁пристрої	-10.3677
▁будувати	-10.3683
▁явилас	-10.3688
▁розповідаю	-10.3689
реба	-10.369
▁стал	-10.3696
▁відсот	-10.3699
▁деталі	-10.3701
▁малюнк	-10.3711
▁тримати	-10.3712
сек	-10.3714
▁команд	-10.372
▁ціль	-10.3736
гул	-10.3746
▁найближч	-10.3754
▁Відповід	-10.3754
▁найвищ	-10.3754
▁препарат	-10.3754
▁розповів	-10.3754
▁десятиліття	-10.3754
▁герої	-10.3755
▁сліп	-10.3756
▁розповідати	-10.3757
▁говори	-10.3757
▁єктивн	-10.3759
над	-10.3762
азвичай	-10.3767
овують	-10.3788
▁спожива	-10.3791
▁групу	-10.3791
▁підніма	-10.3799
▁повз	-10.3809
▁поле	-10.3813
▁назвал	-10.3814
▁обід	-10.3815
▁ринк	-10.3815
▁теперішн	-10.3816
овою	-10.384
▁середин	-10.3845
▁рот	-10.3855
▁виявив	-10.3859
▁мусульман	-10.386
▁Чоловік	-10.386
▁катастроф	-10.386
▁інфраструктур	-10.386
▁навчальн	-10.386
▁багатьма	-10.386
▁Привіт	-10.3862
▁черг	-10.3866
йшла	-10.387
▁грип	-10.3875
▁поля	-10.3883
▁студенти	-10.3888
▁нік	-10.389
▁інструменти	-10.389
▁теорія	-10.3897
ває	-10.3908
▁вбив	-10.3909
▁столітт	-10.391
▁Боже	-10.3911
▁фінанс	-10.3912
▁африканськ	-10.3921
▁фонд	-10.3927
▁необхідні	-10.3929
▁університет	-10.394
▁повільно	-10.3941
люд	-10.3948
▁відбувалос	-10.3949
▁Тр	-10.3953
ацію	-10.3955
▁пощастило	-10.3967
▁спричиня	-10.3967
▁квантов	-10.3968
▁місяця	-10.3968
▁транспорту	-10.3968
▁віддален	-10.3968
▁театр	-10.397
▁труб	-10.3972
▁стануть	-10.3974
▁купу	-10.3977
▁звичн	-10.3977
▁прийом	-10.3978
▁мед	-10.3984
▁домашн	-10.3987
▁передач	-10.3994
зброї	-10.3994
▁мап	-10.3996
▁прості	-10.4008
▁здійснити	-10.4014
▁виживання	-10.4022
▁відповідн	-10.4027
сить	-10.4028
▁дійшл	-10.4037
гірше	-10.4044
▁намагаємос	-10.4048
▁довіря	-10.405
раження	-10.405
▁стані	-10.4052
▁лідерів	-10.4057
▁дозволил	-10.4063
▁кам	-10.4065
чути	-10.407
Анджелес	-10.4076
▁аутизм	-10.4076
▁безкоштовн	-10.4076
▁говорю	-10.4076
▁шоу	-10.4078
▁спектр	-10.4079
льник	-10.4081
▁чарівн	-10.4088
▁сцені	-10.4088
▁відвідува	-10.409
▁музики	-10.4091
▁роздум	-10.4092
▁400	-10.4093
▁Трет	-10.4094
▁запуск	-10.4103
▁назву	-10.4104
▁ранні	-10.4105
▁захистити	-10.4109
▁захоплююч	-10.4109
▁давн	-10.4117
тримати	-10.4117
▁відмінн	-10.4119
▁являють	-10.4126
▁слухати	-10.4141
▁лів	-10.4141
бирали	-10.4145
▁кількіст	-10.4151
▁150	-10.4155
▁прагне	-10.4158
▁Мет	-10.4163
▁проходить	-10.4165
▁університеті	-10.4179
▁хвороба	-10.4181
▁відчувають	-10.4181
ліва	-10.4181
▁погляне	-10.4186
▁Завдя	-10.4186
▁нагадує	-10.4186
▁вимагає	-10.4186
▁дізналас	-10.4186
▁роках	-10.4186
▁південн	-10.4187
▁музе	-10.4187
▁обробк	-10.4189
▁випробування	-10.4189
▁прояв	-10.4199
▁порядку	-10.4201
▁обмеження	-10.4202
▁рокам	-10.4212
▁приймає	-10.4219
били	-10.4226
▁Рад	-10.4229
▁перевірит	-10.4244
відси	-10.4248
▁стовбуров	-10.4249
▁цілу	-10.4256
▁їхнім	-10.4286
▁реакці	-10.4287
▁Зам	-10.4288
▁кращі	-10.4293
▁зусилля	-10.4297
▁мікроскоп	-10.4297
▁невидим	-10.4297
▁розташован	-10.4297
▁усвідомил	-10.4297
▁фантастичн	-10.4297
▁Цікаво	-10.4297
▁речення	-10.4297
▁розповіл	-10.4298
▁платформ	-10.4299
▁пригод	-10.43
▁навичк	-10.43
земн	-10.4301
▁вірш	-10.4301
▁подивимос	-10.4302
легше	-10.4303
емлю	-10.4304
▁відсотки	-10.431
▁відкриває	-10.4316
▁університету	-10.4332
▁ке	-10.4342
▁проектів	-10.4343
лама	-10.4347
▁Крі	-10.435
▁вчать	-10.4362
▁ніг	-10.4362
ri	-10.4363
▁збільши	-10.4363
▁оцін	-10.4364
▁пиш	-10.4365
віта	-10.4368
▁Пол	-10.4377
▁інтелект	-10.4381
▁звуча	-10.4384
▁очевидн	-10.4387
▁котра	-10.4396
▁рахун	-10.4397
▁неправильно	-10.44
▁підтримувати	-10.441
▁податк	-10.441
▁туалет	-10.441
▁список	-10.441
▁майстерн	-10.441
▁Скільк	-10.4412
▁відносно	-10.4414
омога	-10.4421
▁розвинен	-10.4428
▁беруть	-10.4429
▁Власн	-10.443
▁запропонува	-10.4431
▁рухають	-10.4432
▁війна	-10.444
▁фізик	-10.4449
▁співпраці	-10.4453
▁дурн	-10.4455
▁сприймає	-10.4461
▁страшн	-10.4475
▁крові	-10.4483
▁розробил	-10.4485
▁буд	-10.449
▁дерево	-10.4494
▁кімнати	-10.4496
▁пас	-10.4499
▁вжива	-10.4499
▁гірш	-10.4508
▁традиці	-10.4509
▁користуватис	-10.4511
▁літа	-10.4512
ард	-10.4517
▁неможлив	-10.4519
▁потенційн	-10.4523
▁літератур	-10.4523
▁пристраст	-10.4523
▁гнучк	-10.4523
▁зустрів	-10.4523
▁технік	-10.4523
▁сиділ	-10.4523
▁кат	-10.4524
▁недостатньо	-10.4525
▁особистост	-10.4525
▁частково	-10.4525
▁відгук	-10.4528
▁прикр	-10.4529
▁20-	-10.4533
▁загал	-10.4535
▁співпрацю	-10.4539
▁змі	-10.4542
▁Штаті	-10.4543
▁гори	-10.4544
дуть	-10.455
▁вірити	-10.4559
еві	-10.456
▁можливим	-10.4564
ліст	-10.4564
▁сімейн	-10.4574
▁поверну	-10.4576
▁частк	-10.4577
▁Іде	-10.4598
▁віря	-10.46
▁змінив	-10.4607
▁просте	-10.4608
▁звіт	-10.4613
▁статт	-10.4619
давав	-10.4625
▁мавп	-10.4627
▁вночі	-10.4635
▁мешканці	-10.4638
▁усвідомив	-10.4638
▁оповід	-10.4638
▁надсила	-10.4638
▁польот	-10.4638
▁доктор	-10.4639
▁відновлення	-10.4639
▁продаж	-10.464
▁погоджу	-10.464
▁Сонц	-10.4641
▁торка	-10.4641
▁197	-10.4642
▁палив	-10.4643
▁грає	-10.4644
▁фільму	-10.4645
▁Іншим	-10.4646
▁відповідаю	-10.4646
▁золот	-10.4653
▁професійн	-10.4663
▁інтелекту	-10.4664
час	-10.4666
▁перейма	-10.4668
дро	-10.4668
et	-10.4669
▁приймати	-10.467
▁організацій	-10.4678
▁сильніш	-10.4684
▁класу	-10.4709
▁споживач	-10.471
▁однак	-10.4723
▁колективн	-10.4729
▁довгий	-10.4734
▁бажа	-10.4743
▁рухати	-10.4747
▁найголовніш	-10.4754
▁цілковит	-10.4754
▁будівництв	-10.4754
▁дивлюс	-10.4754
▁кілограм	-10.4754
▁колекці	-10.4754
▁вересн	-10.4754
▁змусил	-10.4755
▁армі	-10.4755
▁вразлив	-10.4755
▁сприймати	-10.4756
nt	-10.4756
▁стріл	-10.4758
▁досягнути	-10.476
▁математичн	-10.4764
▁взаємодія	-10.4766
▁змінила	-10.4771
глянути	-10.4786
піл	-10.4796
▁тісн	-10.48
▁огляд	-10.4806
буть	-10.4807
▁карту	-10.4808
▁помісти	-10.4818
трачен	-10.4819
▁властивост	-10.4827
алізован	-10.4828
десят	-10.4833
▁втрача	-10.4847
різь	-10.4847
носить	-10.4849
▁сір	-10.4851
▁поставил	-10.4857
▁дах	-10.4866
▁наближа	-10.4872
▁незвичайн	-10.4872
acebook	-10.4872
▁безглузд	-10.4872
▁персонаж	-10.4872
▁бюджет	-10.4872
▁ненавид	-10.4872
▁контакт	-10.4872
▁вміння	-10.4873
▁прийнял	-10.4874
▁Ген	-10.4874
▁кохання	-10.4876
▁свідк	-10.4876
▁фраз	-10.488
▁неправильн	-10.4882
▁род	-10.4883
▁сектор	-10.4883
▁дис	-10.4886
▁Кені	-10.489
▁угод	-10.4897
▁класі	-10.49
▁гарно	-10.4904
▁зрозуміло	-10.4912
▁поясни	-10.4925
уватиме	-10.4926
воротн	-10.4928
▁підвищ	-10.4935
логічн	-10.4952
▁подивитис	-10.4954
сувати	-10.4958
▁куль	-10.4963
▁заклик	-10.4967
▁викликає	-10.4977
▁Роб	-10.4978
чуємо	-10.4978
▁внутрішні	-10.4983
Франци	-10.4991
▁демократичн	-10.4991
▁дитинстві	-10.4991
▁спитав	-10.4991
▁передбачит	-10.4991
▁спокійн	-10.4991
▁біженц	-10.4991
▁чекає	-10.4991
▁побач	-10.4991
▁скоріш	-10.4992
▁Погляньте	-10.4993
▁представлен	-10.4997
▁розвивається	-10.4999
▁центральн	-10.5001
▁приваблив	-10.5003
ленд	-10.5005
▁залучити	-10.5006
рівності	-10.5011
▁позад	-10.5012
▁22	-10.502
▁поміча	-10.5026
▁важливіш	-10.5028
▁океану	-10.5029
▁врятувати	-10.5037
▁скористатис	-10.505
▁ставити	-10.5051
▁дію	-10.5056
▁економіка	-10.5061
▁табор	-10.5062
▁Мал	-10.5068
▁професі	-10.5085
▁крив	-10.5088
▁молодш	-10.509
▁діл	-10.5092
▁Заход	-10.5093
30	-10.5104
▁збираємос	-10.5106
▁Діти	-10.5107
▁базов	-10.5108
▁екосистем	-10.5112
▁могутн	-10.5112
▁універсальн	-10.5112
▁пояснення	-10.5112
▁ігри	-10.5112
▁вивчення	-10.5112
▁брехн	-10.5112
▁байдуж	-10.5112
▁взаємодії	-10.5112
▁інтелектуальн	-10.5115
▁полюс	-10.5116
▁запас	-10.5117
▁вибрати	-10.5117
▁незалежно	-10.5121
▁Девід	-10.5126
▁розповідає	-10.5127
▁Аль	-10.5129
▁інд	-10.5131
фор	-10.5132
▁появ	-10.5139
ологічн	-10.5141
▁зроби	-10.5143
▁бік	-10.5148
▁Пер	-10.5155
▁грош	-10.5165
сюди	-10.5168
стик	-10.5174
▁зменшити	-10.518
▁вираз	-10.5183
▁покращит	-10.5189
▁спілкуватис	-10.5189
▁виконувати	-10.519
▁зауваж	-10.5194
▁докуп	-10.5199
▁компані	-10.5205
▁Ор	-10.5206
▁нормально	-10.5215
▁жах	-10.5215
знаєш	-10.5223
▁жінкою	-10.5234
▁компонент	-10.5234
▁континент	-10.5234
▁пошкоджен	-10.5234
▁симетрі	-10.5234
▁невдач	-10.5234
▁глибин	-10.5234
▁харчування	-10.5234
▁виявлен	-10.5237
▁пропоную	-10.5239
▁коштує	-10.5242
▁смак	-10.5251
▁справжньо	-10.5252
▁одиниц	-10.5253
▁посл	-10.5253
▁підтрима	-10.5257
▁Одн	-10.5258
▁пород	-10.5258
▁пір	-10.5267
він	-10.5267
▁бібліотек	-10.529
▁досліджувати	-10.529
▁завод	-10.5291
▁дивилис	-10.5299
▁станці	-10.53
▁35	-10.5308
глядав	-10.5314
▁залишати	-10.5317
▁поток	-10.5326
лювали	-10.5335
будован	-10.5337
▁виявля	-10.5351
▁розвивати	-10.5353
▁жінками	-10.5356
якого	-10.5356
▁СНІД	-10.5357
▁Фактичн	-10.5357
▁арабськ	-10.5357
▁кажан	-10.5357
▁корпораці	-10.5357
▁небезпек	-10.5357
▁потрапил	-10.5357
▁гравітаці	-10.5357
▁лекці	-10.5357
▁Франці	-10.5359
▁трильйон	-10.5359
▁назвати	-10.5363
▁актор	-10.5363
▁кот	-10.5364
▁підняти	-10.5373
▁напрям	-10.5373
▁гідн	-10.5376
▁мікроб	-10.5377
водимо	-10.538
бан	-10.5381
▁шах	-10.5382
▁раці	-10.5383
▁щир	-10.5386
▁частинк	-10.5389
▁рідко	-10.5391
▁обмеж	-10.5394
▁проводять	-10.5412
ізаці	-10.5416
віч	-10.5421
кладають	-10.5448
▁залишив	-10.546
▁сімей	-10.5463
▁Британі	-10.5482
▁шрифт	-10.5482
▁патент	-10.5482
▁Мекси	-10.5482
▁споруд	-10.5482
▁випадково	-10.5482
▁іграшк	-10.5483
▁помітив	-10.5483
▁Єдин	-10.5484
▁невролог	-10.5485
▁речам	-10.5486
▁голови	-10.5488
чені	-10.5488
▁акт	-10.5493
▁єднання	-10.5494
▁походження	-10.5497
▁третій	-10.5501
▁дівчата	-10.5506
бол	-10.5507
▁вихідн	-10.5508
▁виснов	-10.5514
▁лісів	-10.5514
▁привел	-10.5515
чують	-10.5516
▁межа	-10.5518
ходимо	-10.552
▁хова	-10.5525
▁дивитес	-10.5527
▁далек	-10.5527
▁тема	-10.5533
лес	-10.5537
▁прагну	-10.5539
▁силою	-10.5548
▁зникл	-10.5557
ходжу	-10.5557
справжнь	-10.5568
▁книга	-10.5578
▁маючи	-10.5579
▁винаход	-10.5586
▁явилис	-10.5593
▁Тим	-10.5601
▁гаряч	-10.5609
▁корупці	-10.5609
▁підозр	-10.5609
▁позбутис	-10.5609
▁головою	-10.561
▁премі	-10.5611
▁завершення	-10.5612
місячн	-10.5613
част	-10.5616
бирають	-10.5616
▁керує	-10.5617
▁надісла	-10.5617
▁груд	-10.5627
▁кишен	-10.5627
▁грі	-10.5634
▁відповідно	-10.5642
▁буває	-10.567
▁сидя	-10.5674
▁прес	-10.569
центр	-10.5691
мкн	-10.5698
ir	-10.5703
▁бактерій	-10.5707
▁45	-10.5712
▁Афганістан	-10.5714
бувають	-10.5731
▁винятк	-10.5733
▁типов	-10.5735
▁стабільн	-10.5737
▁Твіттер	-10.5737
▁вивчити	-10.5737
▁чекати	-10.5737
▁ілюзі	-10.5737
▁восьми	-10.5737
▁радикальн	-10.5737
▁Білл	-10.5738
▁організува	-10.5739
▁дорозі	-10.5739
▁Ебол	-10.5739
▁призначення	-10.5741
▁пішли	-10.5742
▁диво	-10.5744
▁прибут	-10.5744
▁Росі	-10.5746
▁цікавим	-10.5748
▁звикли	-10.5755
▁здогад	-10.5758
▁житт	-10.5763
▁обговорю	-10.5766
▁подив	-10.5783
▁статтю	-10.5783
▁території	-10.5784
▁екрані	-10.5786
▁картина	-10.5786
глиб	-10.5787
рити	-10.5795
st	-10.5795
▁нервов	-10.5818
▁особи	-10.583
пустили	-10.5833
мовірн	-10.5833
якої	-10.5838
▁привод	-10.5841
▁отриман	-10.586
▁Національн	-10.5867
▁GPS	-10.5867
▁досконал	-10.5867
▁офіційн	-10.5867
▁The	-10.5867
▁Англі	-10.5867
▁льодовик	-10.5867
▁означал	-10.5867
▁рідкісн	-10.5867
▁безпосередньо	-10.5868
▁психо	-10.5869
▁круто	-10.587
▁десять	-10.587
▁фермер	-10.5875
▁сніг	-10.5875
▁Великобританії	-10.5878
▁джерел	-10.5882
▁класн	-10.5882
▁літні	-10.5885
ліття	-10.589
ази	-10.589
▁почуваю	-10.5893
20	-10.5894
de	-10.5909
▁розказа	-10.5909
▁дивовижно	-10.5914
▁відправля	-10.5919
▁фон	-10.5919
▁вад	-10.5923
▁око	-10.594
▁територі	-10.595
▁вчені	-10.5972
▁камеру	-10.5978
▁власник	-10.5983
▁новина	-10.5987
▁інфекці	-10.5988
бет	-10.5991
▁удар	-10.5993
▁поліцейськ	-10.5998
▁автомобіль	-10.5998
▁британськ	-10.5998
▁встановлен	-10.5998
▁темряв	-10.5998
▁усвідомлюва	-10.5998
▁Джордж	-10.5998
▁продемонструва	-10.5998
▁розпочат	-10.5998
▁переважно	-10.5998
▁пенсі	-10.5998
▁куточк	-10.5998
▁прийняття	-10.5999
▁пальці	-10.6
▁смішн	-10.6
▁міф	-10.6001
▁відігра	-10.6001
▁навчив	-10.6005
▁сотен	-10.6008
▁пошири	-10.6009
▁третин	-10.6014
▁залишають	-10.6019
▁присутн	-10.602
▁двоє	-10.6022
▁найкращим	-10.6023
▁знімк	-10.6026
▁75	-10.6029
▁лев	-10.6029
▁числа	-10.6031
кова	-10.6035
▁картинк	-10.6045
▁пройшли	-10.6048
▁досягл	-10.6062
▁беремо	-10.6065
▁зменши	-10.6072
▁насильство	-10.6072
▁Люд	-10.6075
▁підпис	-10.6078
▁мусил	-10.6084
▁чудовим	-10.6087
▁пластиков	-10.6095
З	-10.6096
ol	-10.6101
носити	-10.6101
▁серцев	-10.6103
▁мирн	-10.6106
▁тво	-10.6124
▁вражен	-10.6125
▁зарплат	-10.6132
▁Вашингтон	-10.6132
▁рейтинг	-10.6132
▁суттєв	-10.6132
▁захоче	-10.6132
▁брудн	-10.6132
▁хаос	-10.6132
▁знайшла	-10.6132
▁надає	-10.6133
▁струм	-10.6133
▁предк	-10.6133
▁винайшл	-10.6135
▁поширення	-10.614
▁надія	-10.6147
▁дивимос	-10.615
▁уважн	-10.6168
▁кни	-10.6195
▁язнен	-10.6196
▁напри	-10.6196
▁Земля	-10.62
▁цікавить	-10.6203
▁обман	-10.6206
ріг	-10.6218
▁дівчина	-10.6226
▁стара	-10.6235
різном	-10.625
льд	-10.626
▁діагноз	-10.6267
▁діяльність	-10.6267
▁прочитати	-10.6267
▁комплекс	-10.6267
▁дискусі	-10.6267
▁ідентичн	-10.6267
▁проводили	-10.6267
безпеці	-10.6267
▁придба	-10.6267
▁ворог	-10.627
▁порівнян	-10.6272
▁194	-10.6272
▁темп	-10.6273
никнення	-10.6278
▁позначен	-10.6279
▁закрит	-10.6287
▁спорт	-10.6288
▁зрад	-10.629
▁телебаченн	-10.6292
▁втрачає	-10.6296
▁приходять	-10.6303
▁чоловіком	-10.6305
чима	-10.6306
▁Загал	-10.6308
▁запах	-10.631
▁перетин	-10.6325
дім	-10.6346
▁зрозуміє	-10.6351
▁попередні	-10.6352
▁кал	-10.6363
▁прийде	-10.6368
▁Тро	-10.6379
▁відповідальніст	-10.638
▁фотографія	-10.6381
▁скориста	-10.6382
▁весело	-10.6388
сіб	-10.6397
▁запобіг	-10.64
▁вчитель	-10.6404
▁ресторан	-10.6404
▁характеристик	-10.6404
▁становищ	-10.6404
▁збільшення	-10.6404
▁критик	-10.6404
▁активіст	-10.6404
▁духовн	-10.6405
▁здібност	-10.6409
▁семи	-10.641
▁вгору	-10.6411
▁їзд	-10.6411
▁отримання	-10.6412
▁взаємодію	-10.643
▁матеріальн	-10.643
▁повірит	-10.6441
▁природні	-10.6446
▁етапі	-10.6449
▁сприйм	-10.6449
просив	-10.6454
▁подобаю	-10.6456
▁долин	-10.6461
▁готува	-10.6463
▁програмн	-10.6469
▁геном	-10.648
▁завда	-10.6485
▁початков	-10.6498
▁Минул	-10.65
▁залишили	-10.6508
фар	-10.6513
▁витяг	-10.6522
здатн	-10.6523
▁враження	-10.6532
▁робітник	-10.6541
▁Біл	-10.6541
▁карикатур	-10.6542
▁Андерсон	-10.6543
▁бульбашк	-10.6543
▁пропозиці	-10.6543
▁відновити	-10.6543
▁шкоди	-10.6543
▁незвичн	-10.6543
▁тяжк	-10.6543
сов	-10.6543
▁індійськ	-10.6543
▁низк	-10.6543
▁череп	-10.6543
▁помітит	-10.6543
▁вважав	-10.6544
▁Інші	-10.6545
▁перетворює	-10.6545
сидів	-10.6546
▁збільшує	-10.6547
▁співпрацювати	-10.6547
▁прекрасно	-10.6554
▁відмовля	-10.6554
рін	-10.6554
▁успішно	-10.6556
▁Австралії	-10.6562
▁інновації	-10.6562
стане	-10.6564
▁народилас	-10.657
▁відчул	-10.6576
▁відношення	-10.6578
▁вартість	-10.6582
▁Штати	-10.6582
▁Врешті	-10.6589
▁Марк	-10.6591
▁Джей	-10.6592
▁певним	-10.6594
▁твої	-10.6595
▁ігор	-10.6596
▁Вол	-10.6602
▁вижив	-10.6607
▁зовнішні	-10.6615
▁вийшов	-10.6618
мусив	-10.6619
давно	-10.662
▁громадяни	-10.6625
▁Пан	-10.6625
▁стоял	-10.6626
зон	-10.6626
ляючи	-10.6627
▁жал	-10.663
▁Кан	-10.6632
ранці	-10.6639
▁Цю	-10.6645
ській	-10.6658
▁Сход	-10.6661
▁потребую	-10.6667
вань	-10.6671
▁народив	-10.6673
▁23	-10.6677
пустив	-10.6679
▁Очевидн	-10.6683
▁Питання	-10.6683
▁гігантськ	-10.6683
▁двигун	-10.6683
▁горизонт	-10.6683
▁Швеці	-10.6683
▁хибн	-10.6683
▁молочн	-10.6683
▁портрет	-10.6683
▁виробляє	-10.6683
▁баланс	-10.6684
▁орбіт	-10.6684
▁нагод	-10.669
▁натхнення	-10.67
▁парті	-10.67
▁купа	-10.6705
▁розрив	-10.6708
▁запал	-10.6721
▁проведен	-10.6723
розуміли	-10.6729
▁напевн	-10.674
▁страждання	-10.6752
▁зробить	-10.676
ходячи	-10.676
▁лікувати	-10.676
▁економі	-10.6761
▁чесн	-10.6768
▁заснува	-10.6774
▁січн	-10.6777
▁свідчит	-10.6781
▁вагітн	-10.6781
▁трав	-10.6782
▁простим	-10.6785
бираємо	-10.6797
▁ясн	-10.6801
тування	-10.6809
У	-10.6811
▁щасливим	-10.6814
▁поверх	-10.6814
бар	-10.6817
▁порівнянн	-10.6817
▁виробництво	-10.6817
▁моря	-10.6818
▁Ед	-10.6821
▁метал	-10.6821
▁міл	-10.6821
▁Технологі	-10.6826
▁миттєв	-10.6826
▁приголомшлив	-10.6826
▁торгівлі	-10.6826
▁чутлив	-10.6826
▁зустріли	-10.6826
▁вподоб	-10.6826
▁займаюс	-10.6826
▁запросил	-10.6826
▁племен	-10.6826
▁розроблен	-10.6827
▁єднує	-10.6827
▁реагува	-10.6827
▁тривимірн	-10.6829
▁розмовлял	-10.683
▁теле	-10.6842
▁провал	-10.6848
▁небо	-10.6851
▁назвав	-10.6851
▁вікна	-10.6855
▁покласти	-10.6872
▁революція	-10.6878
▁енергія	-10.6878
▁Світов	-10.6879
▁Ден	-10.688
▁ферм	-10.688
▁підключ	-10.6881
хол	-10.6885
▁приходить	-10.6886
▁треть	-10.6892
ниця	-10.6897
▁відверт	-10.6901
йняв	-10.6903
ed	-10.6907
ur	-10.6916
▁голова	-10.6919
▁розумінн	-10.6933
повсюди	-10.6936
змоз	-10.6938
▁даним	-10.6938
▁витрачає	-10.6939
▁Останні	-10.6952
▁Шта	-10.6953
▁переклад	-10.6955
▁раб	-10.6955
кач	-10.6956
Ґ	-10.6958
▁програ	-10.6963
кіл	-10.6965
▁кнопк	-10.6971
▁інтерфейс	-10.6971
▁знаходити	-10.6971
функціональн	-10.6971
▁пакет	-10.6971
▁гурт	-10.6971
▁створила	-10.6974
▁навчає	-10.6975
▁нині	-10.6975
▁домівк	-10.6975
▁ймовірніст	-10.6975
▁поєднання	-10.6976
магання	-10.6982
▁помітн	-10.6984
▁вірн	-10.6988
лювання	-10.6988
▁готел	-10.6991
живають	-10.6993
▁змогл	-10.6996
▁Афганістані	-10.6997
▁цілей	-10.7002
кували	-10.7004
ділити	-10.7007
▁стояти	-10.7034
▁відправ	-10.7044
▁доводить	-10.7054
▁придума	-10.7054
▁лют	-10.7055
▁чуж	-10.7061
▁справжнім	-10.7071
▁реакція	-10.7078
▁повернулис	-10.7081
▁погод	-10.709
давала	-10.7095
цікав	-10.7096
50	-10.7105
▁бджоли	-10.7107
валася	-10.7107
▁повсякденн	-10.7118
▁2010	-10.7118
▁телевізор	-10.7118
▁тропічн	-10.7118
▁інтерактивн	-10.7118
▁неминуч	-10.7118
▁письменник	-10.7118
▁торгов	-10.7118
монстр	-10.7119
▁спалах	-10.7119
▁своєрідн	-10.7119
▁нудн	-10.7119
▁виконує	-10.7122
▁2008	-10.7124
▁Гра	-10.7127
▁органічн	-10.7127
▁переконання	-10.7129
▁електроенергі	-10.713
▁вивча	-10.713
ковий	-10.7131
▁зібран	-10.7132
▁команду	-10.7133
бивають	-10.7134
▁донор	-10.7137
▁реалі	-10.7138
▁перейти	-10.7141
▁призвел	-10.7142
▁чую	-10.7142
лайн	-10.7143
новому	-10.7146
▁птахів	-10.7162
водити	-10.7163
▁мотив	-10.7167
▁колегами	-10.7176
▁зображень	-10.718
▁Коре	-10.7185
▁хлоп	-10.7193
▁метро	-10.7194
▁інтер	-10.7197
▁важч	-10.721
▁навколишн	-10.7212
▁сіл	-10.7221
▁хімі	-10.7222
ріс	-10.7238
провідн	-10.7254
▁познайом	-10.7257
▁Червон	-10.7268
▁виготовля	-10.7268
▁волонтер	-10.7268
▁діаграм	-10.7268
▁кандидат	-10.7268
▁когнітивн	-10.7268
▁заняття	-10.7268
▁добробут	-10.7268
▁кібер	-10.7268
▁хліб	-10.7268
▁тероризм	-10.7268
▁взяла	-10.7268
▁Згод	-10.7269
завжди	-10.7269
пліч	-10.727
▁порушення	-10.7271
▁сонце	-10.7271
▁психологічн	-10.7271
▁дива	-10.7272
▁захоплення	-10.7273
▁музикант	-10.7273
▁27	-10.7274
▁очікує	-10.7275
▁вбити	-10.7276
▁давати	-10.7277
▁Томас	-10.7282
▁язн	-10.7283
▁завданням	-10.7288
▁завг	-10.7297
▁ділитис	-10.7306
▁поступово	-10.731
▁незначн	-10.7313
▁прийнят	-10.7325
▁властив	-10.7326
▁лідерств	-10.7329
▁річк	-10.7334
грі	-10.7343
▁квадрат	-10.7359
▁гостр	-10.736
ливим	-10.7362
▁Сер	-10.7372
▁страждає	-10.7373
▁початк	-10.7375
▁джерела	-10.7398
▁приваб	-10.7406
▁куб	-10.7409
європейськ	-10.7419
▁креативн	-10.7419
▁вирішує	-10.7419
▁стрічк	-10.7419
▁послідовн	-10.742
▁трьом	-10.742
▁сітк	-10.742
▁студі	-10.7421
▁обладнання	-10.7421
▁НА	-10.7423
▁комет	-10.7423
▁приготува	-10.7425
▁припуска	-10.7428
дять	-10.743
▁віру	-10.7435
рік	-10.7439
▁показан	-10.7445
бувати	-10.7455
▁кульк	-10.7459
▁Скаж	-10.7465
▁анти	-10.7472
▁старіння	-10.7473
▁північн	-10.7476
мовити	-10.7477
▁нижн	-10.7478
▁Поки	-10.7488
крил	-10.7496
тиснути	-10.7499
▁перебуває	-10.7503
▁візьмемо	-10.7505
▁Окр	-10.7509
▁сподоба	-10.7521
▁шукаю	-10.7522
▁птах	-10.7528
▁дитин	-10.7529
▁приємн	-10.7529
▁примус	-10.7535
▁1000	-10.7536
йдемо	-10.7539
▁Стар	-10.7561
▁жорстк	-10.7573
▁зосереджен	-10.7573
▁спостерігаю	-10.7573
▁Сонячн	-10.7573
▁винагород	-10.7573
▁встановит	-10.7573
▁двадцят	-10.7573
▁комерційн	-10.7573
▁фігур	-10.7573
▁ретельн	-10.7573
▁Жінки	-10.7573
▁Біблі	-10.7573
▁французьк	-10.7573
▁пілот	-10.7573
▁вечора	-10.7573
▁опитування	-10.7574
▁пожеж	-10.7575
▁фарб	-10.7578
▁завтра	-10.7579
▁компанією	-10.7579
▁сприймають	-10.7581
▁відрізняють	-10.7582
▁задач	-10.7585
▁схильні	-10.7586
▁гумор	-10.7587
▁господарств	-10.759
▁колишні	-10.7593
▁історі	-10.7596
▁нагород	-10.7602
▁включаю	-10.7607
▁цікаве	-10.7611
▁студентам	-10.7613
▁свідч	-10.7624
▁намагаємось	-10.7626
ube	-10.7627
▁камін	-10.7643
▁пройшов	-10.7645
▁фабрик	-10.7655
▁ясува	-10.767
східн	-10.7679
▁Бен	-10.7701
▁футбол	-10.7726
▁пуст	-10.7728
▁електрик	-10.7729
▁нескінченн	-10.7729
▁отримувал	-10.7729
▁2011	-10.7729
▁гуманітарн	-10.7729
▁розрахунк	-10.7729
▁виконав	-10.7729
▁батаре	-10.7729
▁Нещодавн	-10.7729
▁мульти	-10.7729
▁проміж	-10.7729
▁сидіти	-10.7729
▁селищ	-10.7729
▁збираються	-10.7729
▁гендерн	-10.7729
▁займав	-10.773
▁гормон	-10.773
▁пояснює	-10.7731
▁надихнул	-10.7731
▁покращення	-10.7733
▁горд	-10.7733
▁залишилос	-10.7736
▁вивчає	-10.7738
▁складає	-10.7743
▁задуматис	-10.7745
Бар	-10.7748
▁відображає	-10.775
▁язниц	-10.775
▁ставлять	-10.775
дихає	-10.7753
овому	-10.7758
верне	-10.7758
ce	-10.776
наслід	-10.7763
▁поштов	-10.7772
▁зосереди	-10.7775
▁економіст	-10.7781
▁інновацій	-10.7781
гадки	-10.7789
▁підлог	-10.7789
▁бажає	-10.7792
фф	-10.7792
▁працюючи	-10.7804
▁акці	-10.7804
зброю	-10.7807
▁приїхал	-10.7814
баром	-10.7818
▁спробувал	-10.7822
▁Че	-10.7827
▁магі	-10.7831
▁подоб	-10.7832
▁зосередитис	-10.7841
трошк	-10.7846
▁потяг	-10.7854
▁поїзд	-10.7863
яких	-10.7871
▁вивчал	-10.7873
▁розумов	-10.7878
дуже	-10.7881
▁поїхал	-10.7884
▁волосся	-10.7888
▁допомагати	-10.7888
▁неприємн	-10.7888
▁спроможн	-10.7888
▁аеропорт	-10.7888
▁Руанд	-10.7888
▁Правд	-10.7888
▁непоган	-10.7888
▁спитал	-10.7888
▁сонця	-10.7888
▁створіння	-10.7888
▁усвідомлення	-10.789
▁зменшує	-10.789
ing	-10.789
▁відчували	-10.7891
▁технологіям	-10.7895
▁усю	-10.7897
▁насолод	-10.79
▁марн	-10.7903
▁квітк	-10.7908
▁витрат	-10.7912
▁подія	-10.7918
▁отримуєте	-10.7918
ступити	-10.7921
▁намалюва	-10.7924
▁побудован	-10.7938
▁Одним	-10.7943
▁сіда	-10.7944
▁широко	-10.7964
тоді	-10.7974
ber	-10.7996
▁нот	-10.8009
▁поваг	-10.8024
матимуть	-10.8029
▁пляшк	-10.8034
▁домашні	-10.8048
▁усвідомлює	-10.8049
▁Дарвін	-10.8049
▁Університет	-10.8049
▁глобалізаці	-10.8049
▁скульптур	-10.8049
▁спеціаліст	-10.8049
▁застаріл	-10.8049
▁збагну	-10.8049
▁твердження	-10.8049
▁збереження	-10.8049
▁Джеймс	-10.8049
▁облич	-10.8049
▁перетворили	-10.8049
▁Дерек	-10.805
▁отримаю	-10.805
▁шкал	-10.805
▁надмірн	-10.8051
супереч	-10.8052
▁статус	-10.8053
▁кліматичн	-10.8054
▁склян	-10.8054
▁талант	-10.8055
▁Пізн	-10.8055
▁пережил	-10.8056
▁вулицях	-10.806
▁Титан	-10.806
▁весел	-10.807
▁зоров	-10.8074
увальник	-10.8087
▁стилі	-10.8089
▁порівняти	-10.8092
▁акул	-10.8093
▁жест	-10.8094
▁ринков	-10.8095
▁подивив	-10.8104
▁вчора	-10.8106
▁десяти	-10.8107
▁заповн	-10.8108
ti	-10.8115
▁90-	-10.8119
▁призводит	-10.812
▁особистість	-10.8126
▁досліджува	-10.8137
▁почуває	-10.8138
▁звич	-10.814
▁ціни	-10.8144
▁почули	-10.8145
▁змага	-10.8146
камер	-10.815
▁збільшити	-10.815
▁опер	-10.8164
▁розмовляю	-10.8174
▁берег	-10.8176
▁написано	-10.8181
голов	-10.8185
бачення	-10.8185
▁механік	-10.8213
▁процедур	-10.8213
▁харчов	-10.8213
▁поїхав	-10.8213
▁подарун	-10.8213
▁фірм	-10.8213
▁захворі	-10.8213
▁незручн	-10.8213
▁поширюва	-10.8214
▁пропонує	-10.8215
▁служ	-10.8215
▁Слов	-10.8215
▁індустрії	-10.8216
▁стрім	-10.8216
▁Вір	-10.8217
▁2007	-10.8219
▁росте	-10.822
▁читаю	-10.8221
▁звичк	-10.8225
▁ширш	-10.823
▁вивчаю	-10.8233
▁складним	-10.8238
горну	-10.824
▁проявля	-10.824
БР	-10.8242
йдіть	-10.8247
▁жир	-10.825
▁пустел	-10.8252
▁потрапляє	-10.8253
зація	-10.8257
трич	-10.8265
▁маленьким	-10.8265
▁підстав	-10.8272
запереч	-10.8284
твір	-10.8288
▁дослідженням	-10.8292
▁блог	-10.8305
▁етап	-10.8326
▁ятає	-10.8327
▁письм	-10.8328
▁терор	-10.8334
▁нерівніст	-10.8354
тимуться	-10.836
▁Моє	-10.8366
▁звик	-10.8377
▁села	-10.838
▁Розуміє	-10.838
▁майданчик	-10.838
▁механічн	-10.838
▁сьогодення	-10.838
▁благодійн	-10.838
▁виробляти	-10.838
▁вчителя	-10.838
▁книжок	-10.838
▁сповнен	-10.838
▁тимчасов	-10.838
▁розповсюджен	-10.838
▁цитат	-10.838
▁рідин	-10.8381
▁повітрян	-10.8382
▁забрати	-10.8382
▁кухн	-10.8384
▁круг	-10.839
▁відчував	-10.8391
▁опини	-10.8392
▁скласти	-10.8395
воз	-10.8395
▁планування	-10.84
раховую	-10.8411
▁Нічог	-10.8417
▁стандартн	-10.8427
▁приємно	-10.843
▁належ	-10.8433
▁спрацювал	-10.844
▁реакцію	-10.8442
▁зобов	-10.8444
▁страшно	-10.8451
чений	-10.846
▁внутрішньо	-10.8468
▁80-	-10.847
▁нерв	-10.848
зрозуміл	-10.8481
▁вияви	-10.8511
▁випл	-10.853
▁незнайомц	-10.854
▁приїха	-10.8542
▁поколін	-10.8543
бували	-10.8544
▁кредит	-10.8549
▁окуляр	-10.8549
▁прототип	-10.8549
▁клінічн	-10.8549
▁організован	-10.8549
▁існуюч	-10.8549
▁синдром	-10.8549
▁допитлив	-10.8549
▁смертельн	-10.855
▁Бостон	-10.855
пін	-10.855
стеження	-10.855
поміж	-10.8551
ork	-10.8551
▁беру	-10.8551
▁виконання	-10.8552
▁численн	-10.8558
▁дрон	-10.8567
сунути	-10.8569
▁розваг	-10.8571
▁повернулас	-10.8572
▁закрив	-10.8572
▁розглядати	-10.8573
▁місцевост	-10.858
▁світлин	-10.8595
нувши	-10.8596
▁St	-10.8597
▁Гер	-10.8607
▁раптово	-10.8609
▁Гей	-10.8609
▁перехід	-10.8619
▁складають	-10.863
▁протез	-10.863
▁жила	-10.8647
▁здійсни	-10.8647
▁пересува	-10.8669
▁відповідальност	-10.8674
▁Рей	-10.8678
▁гум	-10.8688
▁включає	-10.8689
▁міркува	-10.8699
▁компаніям	-10.8704
▁простіш	-10.8704
▁відрізн	-10.8714
▁оточен	-10.8716
▁шкіл	-10.8718
▁анонімн	-10.8722
▁вирішувати	-10.8722
▁розпочали	-10.8722
▁фемініст	-10.8722
▁шаблон	-10.8722
▁зустріла	-10.8722
▁костюм	-10.8722
▁падіння	-10.8722
▁Амазон	-10.8722
▁зустріти	-10.8722
▁церкв	-10.8722
▁імплант	-10.8722
▁сюжет	-10.8722
▁турбує	-10.8722
▁квартал	-10.8723
▁збудувал	-10.8724
▁обсяг	-10.8726
▁БД	-10.8728
▁повертає	-10.8731
▁іслам	-10.8733
▁товст	-10.8734
▁ракет	-10.8741
▁розповідал	-10.8742
▁звертаю	-10.8743
▁здобут	-10.8743
являють	-10.8745
▁споживання	-10.876
▁чіп	-10.8765
криття	-10.877
▁питаю	-10.8773
us	-10.8783
ізьмемо	-10.8799
▁працю	-10.8815
▁нерівн	-10.8815
▁зняти	-10.8823
▁опублікувал	-10.8828
▁Сім	-10.8829
▁лих	-10.8852
▁відстан	-10.887
▁хвилюва	-10.8873
▁числ	-10.888
▁пристро	-10.889
▁Господ	-10.8897
▁вугілля	-10.8897
▁застосовує	-10.8897
▁несправедлив	-10.8897
▁остаточн	-10.8897
▁спостерігали	-10.8897
▁найбідніш	-10.8897
▁розпочав	-10.8897
▁інтенсивн	-10.8897
▁Головн	-10.8897
▁заснован	-10.8897
▁оплески	-10.8897
▁придатн	-10.8897
▁людян	-10.8897
▁приймають	-10.8897
▁подальш	-10.8897
▁шкоду	-10.8898
▁общин	-10.8898
рівнює	-10.8898
▁градус	-10.8899
▁Найбільш	-10.8899
▁відчувала	-10.8899
▁мега	-10.8899
▁принесл	-10.89
▁проаналізува	-10.89
▁праворуч	-10.8902
▁Східн	-10.8902
▁вразил	-10.8904
правляти	-10.8907
▁узбережжя	-10.8914
▁відріз	-10.8916
▁залишила	-10.8916
▁Йде	-10.8918
▁відкритим	-10.8922
використовується	-10.8926
▁очікування	-10.8929
▁існувати	-10.8937
li	-10.8942
▁практичн	-10.8943
▁Нік	-10.8955
▁дешевш	-10.8958
▁закінчив	-10.896
▁оцінит	-10.8963
охоче	-10.8969
▁відповідал	-10.8973
▁лінія	-10.8979
▁рівне	-10.8979
▁Мас	-10.8987
справжнє	-10.8999
▁ясо	-10.9006
▁підприєм	-10.9012
▁урядов	-10.9021
▁мост	-10.9021
▁продовжит	-10.9028
ниц	-10.903
▁розвинути	-10.9032
лоп	-10.9042
тримує	-10.9051
значити	-10.9056
▁схильн	-10.9063
▁упереджен	-10.9069
▁Жодн	-10.9074
com	-10.9076
▁Ізраїл	-10.9076
▁Сподіваюс	-10.9076
▁ландшафт	-10.9076
▁темношкір	-10.9076
▁дзвін	-10.9076
▁позбавлен	-10.9076
▁вказує	-10.9076
▁викладач	-10.9076
▁зверху	-10.9076
▁молекулярн	-10.9076
▁Нігері	-10.9076
▁сутніст	-10.9076
▁відтворит	-10.9076
▁опиня	-10.9076
▁шален	-10.9076
▁дитинства	-10.9076
▁очищ	-10.9077
▁благо	-10.9077
▁фунт	-10.9077
▁відкрили	-10.9078
▁застосовувати	-10.9078
▁стиль	-10.9078
▁розмовляти	-10.9079
▁Причин	-10.908
▁зйомк	-10.908
▁фінансування	-10.908
▁дивитись	-10.9081
▁реформ	-10.9082
▁упередження	-10.9082
▁плеч	-10.9083
▁помираю	-10.9083
▁класичн	-10.9083
▁статев	-10.9084
▁36	-10.9087
▁Ріо	-10.9087
▁виявила	-10.9088
▁положенн	-10.9089
віком	-10.9091
▁вміє	-10.9094
▁зросл	-10.9096
▁вигод	-10.9098
▁суп	-10.9109
овно	-10.9127
близу	-10.9129
▁фу	-10.9129
▁альтернатив	-10.913
G	-10.9134
▁рівняння	-10.9135
▁збро	-10.914
ходите	-10.9142
▁літати	-10.9152
▁рабств	-10.9157
ометр	-10.9163
▁опинилис	-10.9163
ології	-10.9171
▁дививс	-10.9177
▁стається	-10.9191
▁кап	-10.9191
ходила	-10.9192
▁використан	-10.9211
льйон	-10.9218
▁залишить	-10.9219
вимірн	-10.9222
▁оче	-10.9223
▁губ	-10.9229
▁приносит	-10.9241
▁авторськ	-10.9244
пасти	-10.9247
▁розглядає	-10.9247
▁дрібн	-10.9249
▁Єгипт	-10.9257
▁астроном	-10.9257
▁блискуч	-10.9257
▁геноцид	-10.9257
▁гіпотез	-10.9257
▁поєднати	-10.9257
▁усвідомит	-10.9257
▁інституці	-10.9257
▁захоплює	-10.9257
▁фахівц	-10.9257
▁коментар	-10.9257
▁представит	-10.9258
▁розібратис	-10.9258
▁транспортн	-10.9258
▁називати	-10.9258
▁захоплив	-10.9258
▁Сахар	-10.9258
▁крамниц	-10.9258
▁годинник	-10.9258
▁струн	-10.9259
▁Хлоп	-10.926
▁крапл	-10.9261
▁2009	-10.9263
▁безлад	-10.9269
▁Конго	-10.9271
▁год	-10.9274
▁припинити	-10.9276
▁панел	-10.9276
тягнути	-10.9277
▁перемож	-10.9287
вірте	-10.9293
▁втратив	-10.9295
будову	-10.9298
містити	-10.9301
рис	-10.9302
кладання	-10.9306
таємо	-10.9315
▁шукал	-10.9333
гадував	-10.9335
▁зайшов	-10.935
ke	-10.936
▁епі	-10.936
▁відчув	-10.9371
яке	-10.9372
am	-10.9372
▁шмат	-10.9381
un	-10.9381
▁стриба	-10.9384
▁Джим	-10.9387
▁затрим	-10.9388
▁повітр	-10.9398
▁прагнут	-10.9408
▁швидкост	-10.9426
▁Взагалі	-10.9443
▁усвідомлюю	-10.9443
▁феномен	-10.9443
▁Appl	-10.9443
▁Гарвард	-10.9443
▁Ейнштейн	-10.9443
▁порятун	-10.9443
▁презентаці	-10.9443
▁підготовк	-10.9443
▁фрагмент	-10.9443
▁2012	-10.9443
▁Атлант	-10.9443
▁маніпул	-10.9443
▁ізольован	-10.9443
▁рожев	-10.9443
▁ламп	-10.9443
▁негайно	-10.9443
▁містечк	-10.9443
▁хотілося	-10.9444
▁лазер	-10.9444
▁битв	-10.9444
▁охоплю	-10.9444
▁житло	-10.9445
▁Центральн	-10.9445
▁читання	-10.9445
▁розширення	-10.9446
▁підприємці	-10.9448
▁оточую	-10.9448
▁розмовляє	-10.9448
▁досягне	-10.9449
▁твоє	-10.9449
▁цукр	-10.945
гадаєте	-10.9451
▁звертає	-10.9452
▁брали	-10.9455
▁перетворення	-10.9457
▁відповідати	-10.9457
▁корінн	-10.9471
▁дотик	-10.9471
▁творчості	-10.9476
▁визначен	-10.9479
▁доступним	-10.9482
▁візуалізаці	-10.9483
▁пив	-10.9486
▁вимог	-10.9488
▁зброя	-10.9492
оподібн	-10.9492
▁мрію	-10.9494
▁повернемос	-10.9495
▁зберігає	-10.9499
▁виріс	-10.9501
▁злочинн	-10.9506
ставити	-10.9509
▁незнайом	-10.9509
криває	-10.9513
▁відображ	-10.9513
▁намагалас	-10.9526
▁шматочк	-10.9527
▁Вес	-10.9531
знаючи	-10.9536
селення	-10.9548
▁наповнен	-10.9556
▁Оп	-10.9556
дусі	-10.9568
▁звуков	-10.9568
▁американці	-10.9577
▁сподіваємос	-10.959
▁Кін	-10.9602
отож	-10.9604
▁загинул	-10.9614
▁парадокс	-10.9631
▁стверджую	-10.9631
▁фрукт	-10.9631
▁динамічн	-10.9631
▁довгостроков	-10.9631
▁самогубств	-10.9631
▁супермаркет	-10.9631
▁труднощі	-10.9631
▁імпульс	-10.9631
▁натовп	-10.9631
▁терапі	-10.9631
▁десятиліть	-10.9631
▁півтора	-10.9631
▁Стівен	-10.9632
▁Річард	-10.9632
▁Мартін	-10.9632
▁вчених	-10.9632
▁захват	-10.9632
▁сценарі	-10.9634
одні	-10.9635
ісінько	-10.9636
▁196	-10.9636
▁навчила	-10.9637
▁плод	-10.9637
▁доповід	-10.964
▁переглянути	-10.9643
цтво	-10.9653
▁Обам	-10.9664
▁комарів	-10.9668
▁утвори	-10.9669
▁250	-10.9669
▁600	-10.9673
▁перебування	-10.9677
▁вуха	-10.9696
▁передбачає	-10.97
трет	-10.9706
троє	-10.9713
▁70-	-10.9718
▁свіж	-10.9719
▁екстр	-10.9732
▁Ma	-10.9734
▁65	-10.9736
▁забув	-10.9742
▁переход	-10.9745
▁пройшл	-10.9753
▁різко	-10.9755
▁мотиваці	-10.9761
▁взаємо	-10.9765
▁спрацю	-10.9772
буття	-10.9786
▁явилос	-10.9787
Джер	-10.9795
▁просува	-10.9796
▁Мед	-10.9804
глибше	-10.9816
▁призначен	-10.9817
▁запропонував	-10.9818
▁поважа	-10.9819
▁Альцгеймер	-10.9824
▁абстрактн	-10.9824
▁ведмеді	-10.9824
▁дослідницьк	-10.9824
▁керівництв	-10.9824
▁ланцюг	-10.9824
▁ноутбук	-10.9824
▁оркестр	-10.9824
▁вплинул	-10.9824
▁комунікаці	-10.9824
▁наполеглив	-10.9824
▁загрожу	-10.9824
▁критері	-10.9824
▁називали	-10.9824
▁переговор	-10.9824
▁обговорення	-10.9824
▁здивован	-10.9824
▁глух	-10.9824
▁ілюстр	-10.9824
▁вуличн	-10.9824
▁зловжива	-10.9824
▁Молод	-10.9825
▁земля	-10.9825
▁видатн	-10.9825
▁казк	-10.9825
▁кисн	-10.9826
▁земле	-10.9826
▁персональн	-10.9826
▁нарко	-10.9828
▁Рай	-10.9832
пишуть	-10.9839
▁красу	-10.984
▁моди	-10.984
▁моно	-10.9849
▁очах	-10.985
▁густ	-10.9851
▁читал	-10.9854
▁виключно	-10.9854
▁суміш	-10.9868
▁поступ	-10.9877
▁крайн	-10.9877
▁борт	-10.9882
▁розміщ	-10.9882
▁запустили	-10.9884
СА	-10.9886
слідкувати	-10.9889
довго	-10.9905
▁Тор	-10.9909
слухати	-10.9911
▁деякими	-10.9914
▁проводить	-10.9917
аново	-10.9925
▁вечір	-10.9928
▁Гор	-10.9934
цин	-10.9943
▁багатьо	-10.9948
▁молодим	-10.9959
їхали	-10.9959
▁тяг	-10.9965
▁ступ	-10.9966
14	-10.9978
▁краси	-10.998
▁ідеал	-11.0001
лабораторі	-11.0008
▁захоплен	-11.0013
▁Пакистан	-11.002
▁аргумент	-11.002
▁вертикальн	-11.002
▁дядьк	-11.002
▁опублікован	-11.002
▁печінк	-11.002
▁редактор	-11.002
▁досліджую	-11.002
▁німецьк	-11.002
раховує	-11.002
▁демонструє	-11.002
▁Проект	-11.002
▁виконують	-11.002
▁мізк	-11.002
▁проводив	-11.002
▁помирає	-11.002
▁чекал	-11.002
▁сторіччя	-11.002
▁риф	-11.0021
▁оптимістичн	-11.0021
▁Сирі	-11.0022
▁центів	-11.0023
▁соус	-11.0024
▁забути	-11.0024
▁взутт	-11.0026
▁вагом	-11.0027
▁піск	-11.0028
▁трюк	-11.0029
▁втручання	-11.003
▁нуля	-11.0031
▁підтримує	-11.0033
▁повернення	-11.0035
▁Мова	-11.0039
▁операційн	-11.0049
▁точніш	-11.005
▁старт	-11.0054
▁копію	-11.006
▁містять	-11.0062
▁натиск	-11.0074
▁командою	-11.0079
▁шматк	-11.0085
роч	-11.0105
щик	-11.0111
Х	-11.0115
▁завдан	-11.0115
▁внутрішн	-11.0127
даєте	-11.0129
▁хорошим	-11.0137
денн	-11.0161
▁закінчити	-11.0176
джер	-11.0195
▁щорічно	-11.0206
почин	-11.0207
бон	-11.0214
літн	-11.0214
екілька	-11.0217
лагодити	-11.022
▁Виявилос	-11.022
▁експедиці	-11.022
▁комбінаці	-11.022
▁підсвідом	-11.022
▁смартфон	-11.022
▁спрямован	-11.022
▁стереотип	-11.022
▁розширити	-11.022
▁співпережива	-11.022
▁локальн	-11.022
▁повідомля	-11.022
▁втілити	-11.022
▁виховання	-11.022
▁млн	-11.022
▁сприяти	-11.022
▁іноземн	-11.022
▁Рапто	-11.022
▁реагує	-11.022
▁незаконн	-11.022
▁навмисн	-11.022
▁корабель	-11.0221
▁подивитес	-11.0224
▁використовував	-11.0224
▁99	-11.0225
▁МС	-11.0229
▁захисн	-11.0232
▁Робот	-11.0234
▁борг	-11.0237
▁гучн	-11.0237
▁пересування	-11.0238
▁Місяць	-11.0242
▁приверну	-11.0242
роком	-11.0245
▁дістав	-11.0254
▁запитан	-11.0258
▁переживає	-11.0258
працювати	-11.0259
▁Зрозумі	-11.026
▁вибач	-11.0268
▁пошт	-11.0271
▁вага	-11.0272
▁зізна	-11.0294
люючи	-11.0295
▁похова	-11.03
▁кільком	-11.0313
▁ємн	-11.0316
▁немовлят	-11.0322
▁воєн	-11.0326
▁вчили	-11.033
▁привіт	-11.0345
▁передбача	-11.035
▁Наск	-11.0366
▁сенсорн	-11.0375
▁поверне	-11.0389
чинити	-11.0391
падають	-11.0404
▁Розглян	-11.0405
▁потрапля	-11.0416
▁задоволен	-11.0417
▁кохан	-11.0418
ослідження	-11.0422
▁iPhone	-11.0424
▁Колумбі	-11.0424
▁захищен	-11.0424
▁наблизи	-11.0424
▁ожиріння	-11.0424
▁папір	-11.0424
▁протоклітин	-11.0424
▁спроектува	-11.0424
▁стверджува	-11.0424
▁ритуал	-11.0424
▁капіталізм	-11.0424
▁церемоні	-11.0424
▁вказів	-11.0424
▁зміцн	-11.0424
▁звільнення	-11.0424
▁діалог	-11.0424
▁визначають	-11.0424
▁нещасн	-11.0424
▁зростати	-11.0424
▁Париж	-11.0425
▁Раніш	-11.0425
▁застряг	-11.0425
▁довжин	-11.0425
▁Звуч	-11.0425
▁закінчення	-11.0426
▁Майкл	-11.0428
▁надавати	-11.0431
▁розмістити	-11.0431
▁оточення	-11.0432
▁2005	-11.0432
▁будівля	-11.0433
▁домі	-11.0433
сестер	-11.0434
▁смуг	-11.0434
▁мужн	-11.0435
▁вчинк	-11.0437
▁встиг	-11.0437
▁вирости	-11.0437
▁бджол	-11.044
▁поїздк	-11.0456
▁кабел	-11.0458
▁прочитав	-11.0459
стежити	-11.0465
зол	-11.0475
▁будівл	-11.0475
гніт	-11.0488
▁гнів	-11.0498
▁Незважа	-11.0513
▁кіст	-11.053
культур	-11.0534
▁спричини	-11.0536
вається	-11.0569
▁помічає	-11.0572
спокою	-11.0575
▁розкажу	-11.0583
▁вирощува	-11.0593
▁розглянут	-11.0599
▁схожим	-11.06
звуч	-11.0614
магають	-11.0615
▁сильним	-11.0625
▁рецепт	-11.0628
▁знадоби	-11.0628
▁Систем	-11.0632
▁датчик	-11.0632
▁медсестр	-11.0632
▁мікрофон	-11.0632
▁популяці	-11.0632
▁священн	-11.0632
▁стверджує	-11.0632
▁трагеді	-11.0632
РНК	-11.0632
▁алкогол	-11.0632
▁психіатр	-11.0632
▁руйнівн	-11.0632
▁Жінка	-11.0632
▁вплинут	-11.0632
▁різновид	-11.0632
▁Звідки	-11.0632
▁Вибач	-11.0632
▁мамонт	-11.0633
▁плакат	-11.0633
▁логік	-11.0634
▁помре	-11.0635
▁завершити	-11.0635
▁виробник	-11.0636
▁юрист	-11.0636
▁1980	-11.0636
▁сітківк	-11.0637
▁учнів	-11.0637
▁Хай	-11.064
▁Диві	-11.0642
▁Дані	-11.0643
▁хвилює	-11.0643
летіти	-11.0645
▁повста	-11.0649
▁Ніколи	-11.0651
▁постачання	-11.0653
ростають	-11.0655
▁відправити	-11.0659
▁започаткува	-11.067
дайте	-11.0671
▁підприємств	-11.0673
▁навколишньо	-11.0711
▁квадратн	-11.0715
▁Згідн	-11.0726
▁практи	-11.073
▁обговори	-11.074
▁попит	-11.0748
клітин	-11.0757
▁ефективніш	-11.0759
▁винн	-11.0765
літку	-11.0775
▁спуска	-11.0802
▁дієт	-11.0813
▁зображ	-11.0818
ранку	-11.0818
▁Піт	-11.0826
діяти	-11.0836
▁поєднан	-11.0838
літають	-11.0841
корін	-11.0844
▁Приблизн	-11.0845
▁адвокат	-11.0845
▁безумовно	-11.0845
▁грандіозн	-11.0845
▁динозавр	-11.0845
▁зруйнован	-11.0845
▁конструкці	-11.0845
▁солодк	-11.0845
▁спілкую	-11.0845
▁християн	-11.0845
▁щонайменш	-11.0845
▁виробляють	-11.0845
▁корабля	-11.0845
▁ліворуч	-11.0845
▁зменшення	-11.0845
▁кросів	-11.0845
▁клінік	-11.0845
▁значущ	-11.0845
▁плюс	-11.0845
▁єтнам	-11.0845
▁заможн	-11.0846
▁століть	-11.0846
▁пляж	-11.0846
▁забруднення	-11.0847
▁пастк	-11.0847
▁кинути	-11.0848
▁Ерік	-11.0849
▁витрачають	-11.0852
▁червоним	-11.0852
цит	-11.0853
▁програмування	-11.0859
▁овоч	-11.0861
▁тві	-11.0864
▁очікую	-11.0866
▁розчин	-11.0868
▁пори	-11.0871
▁поводитис	-11.0871
▁пережити	-11.0872
▁ведуть	-11.0876
▁палк	-11.0877
▁доміну	-11.0889
▁еліт	-11.0895
▁ставимо	-11.0896
▁тримає	-11.0909
▁195	-11.0919
▁км	-11.0919
біл	-11.092
тримання	-11.0923
▁бажан	-11.0938
▁знов	-11.0948
▁вікно	-11.0956
▁арт	-11.097
ницьк	-11.0973
обрати	-11.0976
вела	-11.0988
▁Бач	-11.0992
▁порівня	-11.1011
▁зустрічає	-11.1042
▁приход	-11.1043
▁основним	-11.1058
▁персонал	-11.1059
▁Візьмі	-11.1062
▁довготривал	-11.1062
▁одержим	-11.1062
▁раціональн	-11.1062
▁Інститут	-11.1062
▁вузьк	-11.1062
▁маркетинг	-11.1062
▁офіцер	-11.1062
▁первинн	-11.1062
▁пріоритет	-11.1062
▁контент	-11.1062
▁сервіс	-11.1062
▁відволік	-11.1062
замовлення	-11.1062
▁дихання	-11.1062
▁заміж	-11.1062
▁кафе	-11.1062
▁демонстраці	-11.1062
▁недолік	-11.1062
▁пасивн	-11.1062
▁зростаюч	-11.1063
Гол	-11.1063
▁тривог	-11.1063
▁підійшов	-11.1063
▁оголоси	-11.1063
▁страв	-11.1063
▁цивільн	-11.1063
▁зателефонува	-11.1063
▁полягал	-11.1063
▁сувор	-11.1063
▁програміст	-11.1065
▁поезі	-11.1065
▁паличк	-11.1065
▁прихильник	-11.1066
▁кліп	-11.1066
▁готую	-11.1067
▁імунн	-11.1067
▁правдив	-11.1069
▁підтримують	-11.107
▁ваги	-11.1071
tter	-11.1075
▁плит	-11.1079
▁підійшл	-11.1086
▁несе	-11.1091
становив	-11.1092
▁агентств	-11.1094
▁виглядатиме	-11.1095
гадайте	-11.1099
▁опор	-11.1101
▁дипломат	-11.1113
▁вічно	-11.1124
читав	-11.1133
▁Ціл	-11.1134
▁стел	-11.1135
▁зрозумі	-11.1135
несення	-11.1159
▁малюн	-11.116
▁вечірк	-11.1165
▁побудов	-11.117
спект	-11.1185
марк	-11.1191
▁мандр	-11.1195
▁задн	-11.1207
▁Віт	-11.1208
▁найперш	-11.121
кінець	-11.1211
іньк	-11.1216
правління	-11.1218
андр	-11.1222
▁розгляд	-11.1236
▁володіє	-11.1238
▁рідк	-11.1239
▁випробуван	-11.1278
▁Гал	-11.128
▁сприйнят	-11.1284
▁Центр	-11.1284
▁Вільям	-11.1285
▁виповнилос	-11.1285
▁енергетичн	-11.1285
▁зіткнен	-11.1285
▁пасажир	-11.1285
▁самотужки	-11.1285
▁Важлив	-11.1285
▁винайден	-11.1285
▁повідомит	-11.1285
▁ссавці	-11.1285
▁інвалідн	-11.1285
▁скромн	-11.1285
▁нульов	-11.1285
▁обізнан	-11.1285
▁неабияк	-11.1285
▁Кевін	-11.1285
▁паразит	-11.1285
▁блука	-11.1285
▁праця	-11.1285
▁афро	-11.1285
▁проживає	-11.1285
▁привіле	-11.1286
▁Звук	-11.1286
▁навчають	-11.1287
▁явища	-11.1289
▁посилання	-11.1289
▁звільнити	-11.1289
метров	-11.129
▁СВ	-11.1291
▁передбачення	-11.1291
▁бойовик	-11.1291
▁Батьк	-11.1294
▁вдяг	-11.1294
▁зацікавил	-11.1301
▁погляньте	-11.1306
▁формування	-11.1306
▁почуватис	-11.1311
▁чай	-11.1314
▁серці	-11.1318
ступає	-11.1318
▁тонн	-11.1323
являєте	-11.1324
нейро	-11.1331
▁зупиняє	-11.1347
▁впливати	-11.1351
▁формат	-11.1352
▁вбиває	-11.1357
▁магічн	-11.1365
▁заснувал	-11.1368
▁військ	-11.1369
▁відсотка	-11.137
▁судов	-11.1374
комп	-11.1377
плеск	-11.1377
▁спілкува	-11.1382
▁жод	-11.1384
▁Емі	-11.1398
▁мистецтв	-11.1423
ard	-11.1427
▁добрим	-11.1461
▁язує	-11.1463
▁долон	-11.1464
▁формують	-11.1466
▁пояс	-11.1468
▁інноваційн	-11.1468
▁запропонувал	-11.1475
▁зовнішн	-11.1488
▁дотримуватис	-11.1489
▁осел	-11.1497
дворі	-11.1501
▁розумніш	-11.1509
▁Використову	-11.1512
▁Дивовижн	-11.1512
▁встановил	-11.1512
▁відбудеться	-11.1512
▁відпустк	-11.1512
▁допомагал	-11.1512
▁діагностик	-11.1512
▁концерт	-11.1512
▁ініціатив	-11.1512
▁комікс	-11.1512
▁парламент	-11.1512
▁прапор	-11.1512
▁розпочала	-11.1512
▁ієрархі	-11.1512
▁Неймовірно	-11.1512
▁Скотт	-11.1512
▁демографі	-11.1512
▁нерухом	-11.1512
▁дізнаємос	-11.1512
▁спадщин	-11.1512
▁сукупн	-11.1512
▁індивід	-11.1512
▁утворюють	-11.1512
▁Роберт	-11.1512
▁навіщо	-11.1512
▁знаходите	-11.1512
▁переверш	-11.1513
▁Італі	-11.1513
▁бетон	-11.1513
чекають	-11.1513
▁чверт	-11.1514
▁кабінет	-11.1514
▁покаже	-11.1514
▁відображення	-11.1515
▁приятел	-11.1515
▁зібрав	-11.1516
▁тренд	-11.1517
▁липн	-11.152
▁виборч	-11.1521
▁подарува	-11.1521
▁витрач	-11.1522
▁залежност	-11.1526
▁цікавіш	-11.1532
▁Карл	-11.1532
▁мозком	-11.1532
▁спец	-11.1535
▁Коран	-11.1538
▁вірил	-11.1538
▁збільшува	-11.1546
анове	-11.1554
▁Адам	-11.1558
▁кулі	-11.1566
▁сух	-11.1568
ступати	-11.1571
▁почував	-11.1584
▁гриб	-11.1589
пускаємо	-11.1592
▁Брун	-11.16
ювач	-11.1601
аналіз	-11.1614
▁змог	-11.1615
▁стикаємос	-11.1639
▁замінит	-11.1647
різати	-11.1648
▁єднува	-11.1657
▁поставив	-11.1659
▁прокида	-11.166
▁корал	-11.1662
▁поліпш	-11.1685
знають	-11.1696
▁виставк	-11.1703
▁африкан	-11.171
▁переїхал	-11.1714
▁представл	-11.172
майстр	-11.1724
мислити	-11.1724
бирав	-11.1728
▁кро	-11.1737
▁паперов	-11.1741
▁енерго	-11.1743
▁нестабільн	-11.1744
▁поєднує	-11.1744
▁Леонард	-11.1744
▁вирішальн	-11.1744
▁кишечник	-11.1744
▁мінімальн	-11.1744
▁неочікуван	-11.1744
▁трикутник	-11.1744
▁запровади	-11.1744
▁медикамент	-11.1744
▁поклика	-11.1744
▁схвильован	-11.1744
▁ветеран	-11.1744
▁рівноваг	-11.1744
▁пристосува	-11.1744
▁вилікувати	-11.1744
▁спортивн	-11.1744
▁файл	-11.1745
▁підручник	-11.1745
▁букв	-11.1745
▁шокован	-11.1745
▁направд	-11.1745
▁товариш	-11.1747
▁перетворив	-11.1747
▁послання	-11.1747
▁продавати	-11.1748
▁протеїн	-11.1749
▁опинився	-11.1749
▁знищення	-11.1749
▁рецептор	-11.175
▁вітальн	-11.175
▁освітлення	-11.1751
▁залучення	-11.1751
▁статистичн	-11.1752
▁спогляда	-11.1757
▁плач	-11.176
▁менеджер	-11.1761
▁тренуван	-11.1766
▁судин	-11.1766
▁рухаємос	-11.1768
▁йшло	-11.1773
▁контролює	-11.1773
слиз	-11.1773
▁Одніє	-11.1775
ощад	-11.1783
▁викрив	-11.1786
▁єднують	-11.1792
▁рости	-11.1807
▁наказ	-11.1809
слухали	-11.1811
▁сенсор	-11.1817
▁навпро	-11.1819
пил	-11.182
▁висловити	-11.1833
▁сумн	-11.1835
▁теперішньо	-11.1843
лінг	-11.1848
єць	-11.1859
▁захоті	-11.1872
▁іроні	-11.188
▁вчимо	-11.1905
▁альтернативн	-11.1911
літає	-11.1918
важливо	-11.1924
▁характерн	-11.1933
кручу	-11.1943
▁комар	-11.1945
▁Сол	-11.1947
казують	-11.1961
▁використал	-11.1961
▁визначн	-11.1962
▁якісн	-11.1964
▁вступ	-11.1977
▁харчу	-11.1982
інфікован	-11.1982
▁Джастін	-11.1982
▁Результат	-11.1982
▁Таймс	-11.1982
▁гармоні	-11.1982
▁кардинальн	-11.1982
▁маршрут	-11.1982
▁примітивн	-11.1982
▁регулярн	-11.1982
▁спричинен	-11.1982
▁спустош	-11.1982
▁інвестор	-11.1982
▁позбави	-11.1982
▁сказано	-11.1982
▁виконати	-11.1982
▁сприяє	-11.1982
▁ігнорува	-11.1982
▁вимагати	-11.1983
▁доводилос	-11.1983
▁ступінь	-11.1983
▁величин	-11.1983
▁прогалин	-11.1983
▁плоск	-11.1983
▁знаходили	-11.1983
▁днем	-11.1983
▁накопичу	-11.1983
▁спокус	-11.1983
▁тапір	-11.1983
▁полотн	-11.1984
▁продовжують	-11.1984
▁керують	-11.1984
▁функціонува	-11.1985
▁небес	-11.1985
▁багатство	-11.1987
▁Залиш	-11.1987
▁переслідува	-11.1988
▁виготовлення	-11.1988
▁зайнял	-11.1988
▁винахідлив	-11.1988
▁забира	-11.1989
▁тунел	-11.1992
▁лабораторія	-11.1994
кидають	-11.1995
▁2001	-11.2006
▁нестач	-11.2007
▁напів	-11.2013
▁суперечк	-11.2013
sh	-11.2034
▁потребувал	-11.204
тримаю	-11.2047
трапляють	-11.2049
▁будівельн	-11.2091
▁Кал	-11.2095
▁вчить	-11.2097
▁боятис	-11.2121
▁публікаці	-11.2123
багат	-11.2129
▁перевірк	-11.2141
▁Порт	-11.2141
думці	-11.2148
▁ставати	-11.2159
▁лице	-11.2159
▁Хол	-11.2162
ходження	-11.2176
▁Подумай	-11.2188
▁обертає	-11.2195
▁Бел	-11.2196
▁кис	-11.2203
▁120	-11.2214
▁збіг	-11.2219
▁1950-	-11.2226
▁Міністерств	-11.2226
▁відходів	-11.2226
▁знаряддя	-11.2226
▁кримінальн	-11.2226
▁незряч	-11.2226
▁оксицотин	-11.2226
▁пейзаж	-11.2226
▁приміщення	-11.2226
▁притаманн	-11.2226
▁чемпіон	-11.2226
▁акцент	-11.2226
▁застосовую	-11.2226
▁коричнев	-11.2226
▁паралельн	-11.2226
▁Конгрес	-11.2226
▁заробляти	-11.2226
▁найцікавіш	-11.2226
▁кораблі	-11.2226
руйнувати	-11.2226
▁взаємозв	-11.2226
▁робиш	-11.2227
▁Франк	-11.2227
▁архів	-11.2227
▁атлет	-11.2227
▁зниження	-11.2227
▁заробіт	-11.2227
▁лякає	-11.2227
▁вважала	-11.2227
▁дістали	-11.2228
▁футів	-11.2228
▁вивчил	-11.2228
▁тримали	-11.2228
▁1960	-11.2229
▁синтез	-11.2229
▁худ	-11.2229
▁зворотньо	-11.2229
▁заголовк	-11.223
▁скелет	-11.223
▁26	-11.2237
▁чинник	-11.2237
▁Бред	-11.2238
▁плям	-11.2245
▁вітер	-11.2248
▁цілісн	-11.225
лежав	-11.2252
▁схил	-11.2253
▁перелік	-11.2256
▁магніт	-11.2265
▁існува	-11.2265
▁приходил	-11.2278
▁звуть	-11.229
▁всяк	-11.2292
▁діагностува	-11.2294
▁язують	-11.2297
діють	-11.23
едве	-11.2303
▁показую	-11.2306
▁запитувал	-11.2315
▁ставить	-11.2318
▁вдал	-11.232
▁витратил	-11.2322
▁ділян	-11.2329
▁купувати	-11.2342
▁щедр	-11.2348
▁електрон	-11.2348
▁жаб	-11.2355
лежн	-11.2357
ab	-11.2358
всім	-11.2372
▁нижньо	-11.2381
кладаємо	-11.2382
обов	-11.2391
тягне	-11.2411
Ж	-11.2421
аїті	-11.2427
дадуть	-11.2428
▁85	-11.2439
міють	-11.2441
▁зникне	-11.2457
▁Авто	-11.2461
прибутков	-11.2468
▁дзвон	-11.2471
спіль	-11.2475
повідомлен	-11.2476
▁Організаці	-11.2476
▁агресивн	-11.2476
▁академі	-11.2476
▁заплутан	-11.2476
▁оптимізм	-11.2476
▁розчарування	-11.2476
▁співробітник	-11.2476
▁шоколад	-11.2476
▁Міжнародн	-11.2476
▁аспірант	-11.2476
▁подвійн	-11.2476
▁специфічн	-11.2476
▁хотіти	-11.2476
▁Сатурн	-11.2476
▁відхилення	-11.2476
чекайте	-11.2476
▁реєстр	-11.2476
▁зроблять	-11.2476
▁навичок	-11.2477
▁острів	-11.2477
▁турбот	-11.2477
▁Комп	-11.2477
▁захоплюва	-11.2477
▁писали	-11.2477
▁налякан	-11.2478
▁навчали	-11.2478
▁зберігати	-11.2479
▁Схож	-11.2479
▁взаємопов	-11.248
▁МВ	-11.248
▁ділов	-11.248
▁читач	-11.2482
▁наставник	-11.2482
▁Союз	-11.2483
вчасно	-11.249
мігрант	-11.2492
▁прибул	-11.2493
▁відправили	-11.2494
▁сліпот	-11.2498
▁цікавлять	-11.2499
▁ліпш	-11.2499
▁листівк	-11.2501
▁рахунк	-11.2505
▁отак	-11.2512
▁Антарктик	-11.2516
терпіння	-11.252
▁закликаю	-11.2528
▁занепад	-11.2528
своє	-11.2538
▁лиж	-11.2539
▁зіткну	-11.2542
▁дійсн	-11.2542
▁дружн	-11.2546
намі	-11.255
▁змушую	-11.2566
стачає	-11.2568
▁підсумк	-11.2572
▁огид	-11.2577
▁33	-11.2579
повнює	-11.26
недавн	-11.2602
▁Буду	-11.2604
▁поворот	-11.2611
рятувати	-11.2635
▁біж	-11.2651
▁вчив	-11.2657
▁пошуков	-11.2664
▁диплом	-11.2673
▁отримую	-11.2682
▁Добр	-11.2697
▁лоб	-11.2698
▁агент	-11.2704
▁Фейсбук	-11.2704
▁запитую	-11.2712
мейл	-11.2716
▁вирішен	-11.2726
оплачуван	-11.2733
▁Особливо	-11.2733
▁безперервн	-11.2733
▁верблюд	-11.2733
▁відчайдушн	-11.2733
▁землетрус	-11.2733
▁контейнер	-11.2733
▁непотрібн	-11.2733
▁помічник	-11.2733
▁правосуддя	-11.2733
▁прослухову	-11.2733
▁становлять	-11.2733
▁інструкці	-11.2733
▁найпростіш	-11.2733
▁трансформаці	-11.2733
▁заробляє	-11.2733
▁чиновник	-11.2733
▁збирала	-11.2733
▁монітор	-11.2733
▁винайшов	-11.2733
▁вирішую	-11.2733
▁ролик	-11.2733
▁заповід	-11.2733
▁мутаці	-11.2733
річчя	-11.2734
▁Чесно	-11.2734
▁заробляю	-11.2734
▁можливостям	-11.2734
▁прохання	-11.2736
▁торкн	-11.2736
▁Чорн	-11.2736
▁штан	-11.2737
▁пізнання	-11.2738
▁ворож	-11.2739
▁півдн	-11.2739
▁збройн	-11.274
▁лікарем	-11.2746
▁поживн	-11.2747
▁вигук	-11.275
▁поразк	-11.275
▁мовлення	-11.2751
▁Пітер	-11.2752
▁дружб	-11.2752
▁кінцівк	-11.2752
реалістичн	-11.2755
▁народилис	-11.2757
▁озброєн	-11.2762
▁Суд	-11.2764
▁вагітност	-11.2815
▁рекламн	-11.282
▁сподобалос	-11.2821
▁звучал	-11.2821
▁структурн	-11.2824
▁ділять	-11.2831
▁дозволяю	-11.2834
▁мозков	-11.284
текти	-11.2848
▁Десят	-11.2861
▁відпочи	-11.2888
▁кольоров	-11.2888
▁перестал	-11.2896
▁Останн	-11.29
▁купує	-11.2905
▁цікавил	-11.291
повсюд	-11.2913
▁захоплюю	-11.2918
ницею	-11.2919
▁тонк	-11.2923
▁робля	-11.2925
▁абсолютн	-11.2928
краса	-11.293
далеко	-11.2957
▁село	-11.2962
очевид	-11.2967
▁фундамент	-11.2993
▁народжен	-11.2995
орієнтован	-11.2996
▁Глобальн	-11.2996
▁Говард	-11.2996
▁божевілля	-11.2996
▁врятувал	-11.2996
▁еквівалент	-11.2996
▁знищити	-11.2996
▁найскладніш	-11.2996
▁повноцінн	-11.2996
▁підрозділ	-11.2996
▁талановит	-11.2996
▁фантастик	-11.2996
▁Латинськ	-11.2996
▁коридор	-11.2996
▁присвяти	-11.2996
▁1970-	-11.2996
▁непомітн	-11.2996
▁увімкн	-11.2996
▁гараж	-11.2996
▁Життя	-11.2996
▁виходу	-11.2996
▁переконлив	-11.2996
▁напружен	-11.2996
▁переосмисли	-11.2996
▁нікуди	-11.2996
▁гіпер	-11.2996
▁втілення	-11.2996
▁візит	-11.2996
▁сльоз	-11.2996
▁керування	-11.2997
▁незмінн	-11.2997
▁обійм	-11.2999
▁знадобилос	-11.3001
▁кермо	-11.3005
▁хвильк	-11.3007
▁всіляк	-11.3008
сайт	-11.3016
▁позначк	-11.3016
▁пішк	-11.3019
▁вмираю	-11.3031
▁будівель	-11.3036
▁вирощування	-11.3045
▁винахідник	-11.3047
▁журналістик	-11.3048
▁відходи	-11.3052
▁впоратис	-11.3056
▁Анд	-11.3063
слухав	-11.3067
▁недооцін	-11.3068
▁опублікува	-11.31
▁яйця	-11.3107
▁ніком	-11.3118
▁твіт	-11.3121
▁захотіл	-11.3124
Sh	-11.314
▁приєднатис	-11.3147
▁зовнішньо	-11.3154
зняли	-11.3166
▁Міл	-11.32
обрали	-11.32
▁гост	-11.3207
ключно	-11.3223
▁ранньо	-11.3231
питайте	-11.3232
▁біолог	-11.3247
збережен	-11.3266
▁спереча	-11.3266
▁Британськ	-11.3266
▁Президент	-11.3266
▁Стенфорд	-11.3266
▁впевнитис	-11.3266
▁занепокоєн	-11.3266
▁максимальн	-11.3266
▁репутаці	-11.3266
▁стурбован	-11.3266
▁холодильник	-11.3266
▁взаємн	-11.3266
▁динамік	-11.3266
▁обкладинк	-11.3266
▁рішуч	-11.3266
▁зазирну	-11.3266
▁мелоді	-11.3266
▁означати	-11.3266
▁токсичн	-11.3266
▁індекс	-11.3266
▁заслуговує	-11.3266
▁резерв	-11.3266
▁згадувал	-11.3266
▁танцюю	-11.3266
▁контроле	-11.3266
▁дихати	-11.3266
▁Доктор	-11.3266
▁композиці	-11.3266
ловити	-11.3267
▁таблиц	-11.3267
▁визначати	-11.3267
▁автономн	-11.3267
▁нелегко	-11.3267
▁легені	-11.3267
▁пересічн	-11.3267
▁приділя	-11.3267
▁заощаджен	-11.3268
▁готує	-11.3268
▁оригінальн	-11.3268
▁досягнен	-11.3268
▁помру	-11.3269
▁Справжн	-11.327
▁округ	-11.327
▁відкрила	-11.327
▁фанат	-11.327
▁повторн	-11.3271
▁серпн	-11.3271
▁соціолог	-11.3271
▁Лікар	-11.3273
▁величн	-11.3274
▁переробк	-11.3276
▁Рух	-11.3278
▁дрібниц	-11.3279
єдин	-11.3279
▁представляю	-11.328
▁План	-11.328
▁приціл	-11.3281
▁подивилас	-11.3287
реалізувати	-11.3289
▁Джек	-11.3291
▁вікон	-11.3298
вірите	-11.3302
▁Кур	-11.3302
▁простяга	-11.3304
даль	-11.3308
бираєте	-11.331
▁столиц	-11.3316
▁опік	-11.3331
▁прагнення	-11.3335
▁забудов	-11.3341
▁еволюційн	-11.3348
надцять	-11.3399
берете	-11.3414
▁малюю	-11.3418
▁планує	-11.3435
▁послідовност	-11.3443
▁комфорт	-11.345
чора	-11.345
▁нічн	-11.3459
▁впора	-11.3482
програм	-11.3523
▁інформ	-11.3526
▁ванн	-11.3543
▁Ефіопі	-11.3544
▁Мангеттен	-11.3544
▁Оксфорд	-11.3544
▁галюцинаці	-11.3544
▁глузд	-11.3544
▁корпоративн	-11.3544
▁кумедн	-11.3544
▁обожнюю	-11.3544
▁пообіця	-11.3544
▁посміха	-11.3544
▁підрахунк	-11.3544
▁пістолет	-11.3544
▁траєкторі	-11.3544
▁італійськ	-11.3544
▁посмішк	-11.3544
▁спілкує	-11.3544
▁Нельсон	-11.3544
▁відчутті	-11.3544
▁створювали	-11.3544
▁розширює	-11.3544
▁ледь	-11.3544
▁перевез	-11.3544
▁автівк	-11.3544
▁нестерпн	-11.3544
▁похмур	-11.3544
▁вірогідн	-11.3544
▁виснажен	-11.3544
▁відносн	-11.3544
▁поміщ	-11.3544
▁банківськ	-11.3545
▁надлиш	-11.3545
правити	-11.3545
бирання	-11.3545
▁іммігрант	-11.3545
▁оператор	-11.3546
▁занурен	-11.3547
▁представляє	-11.3547
кухар	-11.3548
▁добровільн	-11.3548
▁Берлін	-11.3549
спокої	-11.3549
▁їздити	-11.3549
▁посуд	-11.3551
▁розслідува	-11.3551
▁28	-11.3557
▁питал	-11.3559
▁плин	-11.3566
після	-11.3568
▁змушува	-11.3569
▁юн	-11.3584
▁повторит	-11.3586
▁здатис	-11.3594
▁профіл	-11.3597
▁питн	-11.3605
перечно	-11.3607
беріть	-11.3609
просторов	-11.3613
▁працівникам	-11.3614
▁поліпшит	-11.3616
сур	-11.3621
▁дрот	-11.3628
▁загадк	-11.3679
▁просил	-11.3682
▁95	-11.369
гадують	-11.3693
▁показ	-11.3701
розмовляв	-11.3721
▁Pro	-11.3725
▁кістков	-11.3758
▁наповн	-11.3773
▁запитує	-11.3802
▁очікувал	-11.3806
▁ідеологі	-11.3818
▁виготовлен	-11.3823
▁Кеннеді	-11.383
▁Норвегі	-11.383
▁здійснюва	-11.383
▁конектом	-11.383
▁контракт	-11.383
▁ліхтар	-11.383
▁невизначен	-11.383
▁переміща	-11.383
▁приєдну	-11.383
▁прірв	-11.383
▁розгляне	-11.383
▁розмаїття	-11.383
▁спостерігав	-11.383
▁терористів	-11.383
▁Громад	-11.383
▁асоціаці	-11.383
▁виходити	-11.383
▁закохан	-11.383
▁ненавист	-11.383
▁освічен	-11.383
▁підбадьор	-11.383
▁південь	-11.383
▁пульс	-11.383
▁оголошен	-11.383
▁запросит	-11.383
▁тренер	-11.383
▁сезон	-11.383
▁племінн	-11.383
▁Дівчин	-11.383
▁ввічлив	-11.383
▁Голос	-11.383
▁прочитал	-11.383
▁Американськ	-11.383
▁проповід	-11.383
▁займалис	-11.383
▁Браун	-11.383
▁імпері	-11.383
проводжу	-11.383
абель	-11.383
▁вивчив	-11.383
▁розкрити	-11.3831
▁вибрали	-11.3832
▁мислив	-11.3832
▁попередження	-11.3833
▁обчислення	-11.3834
▁смачн	-11.3834
▁2050	-11.3834
▁підвищення	-11.3835
▁Музе	-11.3836
▁подобалос	-11.3836
▁опір	-11.3839
SP	-11.384
здале	-11.3841
▁звернули	-11.3844
▁намагаєтес	-11.3846
▁запрошую	-11.3847
▁поранен	-11.3851
▁Природ	-11.3851
▁нещодавн	-11.3855
▁подорожува	-11.3857
▁бойов	-11.3861
▁загину	-11.3863
▁завад	-11.3866
▁єднали	-11.3866
▁дивилас	-11.3876
▁Війн	-11.3886
▁стежи	-11.3893
▁підняв	-11.3894
▁питає	-11.3909
▁спробує	-11.391
▁відмовитис	-11.3917
▁любил	-11.3927
▁підсум	-11.3927
▁коров	-11.3929
▁послідовніст	-11.3934
▁глин	-11.3949
▁описує	-11.3957
▁кит	-11.3958
ягають	-11.3968
▁нахил	-11.3974
▁расов	-11.3976
▁відбит	-11.4028
▁розміщен	-11.4035
дослідн	-11.4037
▁наполяг	-11.4041
▁обговорювал	-11.4056
▁невдов	-11.406
▁скел	-11.406
▁піднімає	-11.4069
▁танцювал	-11.4094
▁виправит	-11.4096
▁грудн	-11.4104
тижня	-11.412
#	-11.4124
▁Бенджамін	-11.4124
▁Вікіпеді	-11.4124
▁МРТ	-11.4124
▁Чотири	-11.4124
▁астронавт	-11.4124
▁басейн	-11.4124
▁джентльмен	-11.4124
▁дискримінаці	-11.4124
▁здійсненн	-11.4124
▁здійснює	-11.4124
▁компроміс	-11.4124
▁конкурс	-11.4124
▁протистояти	-11.4124
▁пінгвін	-11.4124
▁співвідношення	-11.4124
▁телевізійн	-11.4124
▁човен	-11.4124
▁пересадк	-11.4124
▁підготувати	-11.4124
▁розмножу	-11.4124
▁захочу	-11.4124
▁повідомил	-11.4124
▁діабет	-11.4124
▁процент	-11.4124
▁починали	-11.4124
▁Спробуй	-11.4124
▁відстежу	-11.4124
▁пташк	-11.4124
▁Фонд	-11.4124
▁завантажит	-11.4124
▁тремт	-11.4125
▁побудувал	-11.4125
▁гілк	-11.4125
▁дитинство	-11.4125
▁противаг	-11.4127
▁вимірювання	-11.4129
▁березн	-11.413
▁тягар	-11.413
▁плавання	-11.4131
▁романтичн	-11.4131
▁грунт	-11.4131
▁Ісус	-11.4131
▁зростал	-11.4132
▁Річ	-11.4133
▁зберігають	-11.4135
пустила	-11.4136
▁уявлял	-11.4139
▁Вод	-11.4142
▁почувалис	-11.4153
▁відбулис	-11.4153
зал	-11.4156
▁дотримую	-11.4161
▁розбит	-11.4166
▁забрал	-11.417
▁знімати	-11.4179
виразити	-11.4185
▁чує	-11.4186
анімації	-11.42
означають	-11.4243
▁травн	-11.4243
▁фан	-11.4257
▁економ	-11.4271
▁запитає	-11.4276
▁забезпечує	-11.4293
слухайте	-11.4303
▁огидн	-11.4306
▁супутников	-11.4312
▁рукам	-11.4314
▁відбива	-11.4331
▁згадую	-11.4331
▁регулю	-11.4334
подалі	-11.434
озслаб	-11.4341
▁зіткнулис	-11.4348
▁відношенн	-11.435
силенн	-11.4357
водите	-11.4368
▁займаємос	-11.4382
ражають	-11.44
▁оплат	-11.4411
▁безпечніш	-11.4415
▁порушен	-11.442
▁знищен	-11.442
▁знаменит	-11.4427
▁Норден	-11.4427
▁Олімпіад	-11.4427
▁автомобіля	-11.4427
▁безкінечн	-11.4427
▁консультант	-11.4427
▁пригнічен	-11.4427
▁пірамід	-11.4427
▁різноманіття	-11.4427
▁симетричн	-11.4427
▁спрацьову	-11.4427
▁туберкульоз	-11.4427
▁хижак	-11.4427
▁шкідлив	-11.4427
▁засновник	-11.4427
▁листопад	-11.4427
▁приземли	-11.4427
▁Найкращ	-11.4427
▁1990-	-11.4427
▁порожні	-11.4427
▁актуальн	-11.4427
▁ізоляці	-11.4427
▁Чарльз	-11.4427
▁рекорд	-11.4427
▁тривожн	-11.4427
▁Філіп	-11.4427
▁світогляд	-11.4427
▁герой	-11.4427
▁ураган	-11.4427
▁Компані	-11.4427
▁знаходив	-11.4427
рахував	-11.4427
▁утворює	-11.4428
▁називав	-11.4428
▁зорян	-11.4428
▁консерв	-11.4428
▁околиц	-11.4429
▁Греці	-11.4429
▁народжува	-11.443
▁японськ	-11.443
відсотков	-11.4431
▁побічн	-11.4431
▁оповідач	-11.4432
▁Різниц	-11.4432
▁Тисяч	-11.4432
▁крапк	-11.4433
▁Дійсн	-11.4433
▁МТ	-11.4433
▁навчав	-11.4434
▁вулик	-11.4435
▁задньом	-11.4435
▁викликал	-11.4436
вчаючи	-11.4438
▁здаватис	-11.4439
▁притулк	-11.444
чекав	-11.4441
повноважен	-11.4443
▁болот	-11.4449
▁географічн	-11.4451
поки	-11.4452
беремо	-11.4453
накш	-11.447
▁звернув	-11.4471
▁формул	-11.4472
org	-11.4476
кладається	-11.4481
▁весн	-11.4494
▁вкрит	-11.4497
▁ручк	-11.4511
слуговують	-11.4518
▁відбув	-11.4525
▁хвилюватис	-11.4529
▁перейшл	-11.4529
▁чар	-11.454
▁палат	-11.4541
▁друзям	-11.455
▁чотир	-11.4551
▁парков	-11.456
▁стовбур	-11.456
▁вхідн	-11.4579
торік	-11.4592
▁підлітков	-11.4594
▁раков	-11.4596
▁опуска	-11.4606
▁виконува	-11.4607
▁подякува	-11.4609
▁полиц	-11.4616
▁покрив	-11.4626
родження	-11.4636
▁анімаці	-11.4661
матимемо	-11.4665
▁управля	-11.4666
плав	-11.4668
▁зупинив	-11.4672
▁магнітн	-11.469
▁здоровіш	-11.4694
▁вход	-11.4696
▁Зроби	-11.4698
▁підйом	-11.4703
іддавати	-11.4706
▁належал	-11.4708
▁подивилис	-11.4712
▁знаходить	-11.4713
▁дисциплін	-11.4733
▁кабін	-11.4737
▁пристосован	-11.4739
▁1,2	-11.4739
▁Аудиторі	-11.4739
▁ПТС	-11.4739
▁Флорид	-11.4739
▁безнадійн	-11.4739
▁відобрази	-11.4739
▁відокремлен	-11.4739
▁знизити	-11.4739
▁мотузк	-11.4739
▁непередбачуван	-11.4739
▁оперативн	-11.4739
▁постраждал	-11.4739
▁присвячен	-11.4739
▁режисер	-11.4739
▁сантиметр	-11.4739
▁співчутлив	-11.4739
▁трагічн	-11.4739
▁фестивал	-11.4739
▁хронічн	-11.4739
консервативн	-11.4739
▁2015	-11.4739
▁Спеціальн	-11.4739
▁безпілотн	-11.4739
▁конкурент	-11.4739
▁пристосову	-11.4739
▁альбом	-11.4739
▁барабан	-11.4739
▁терористичн	-11.4739
▁розгорта	-11.4739
▁шкода	-11.4739
▁Дитина	-11.4739
▁нащадк	-11.4739
▁електростанці	-11.4739
▁конструю	-11.4739
▁графічн	-11.474
цензур	-11.474
▁ліфт	-11.474
▁художні	-11.474
▁Індськ	-11.474
▁мінус	-11.474
▁вантажівк	-11.474
▁парников	-11.474
▁ігров	-11.474
▁масивн	-11.474
▁продовжував	-11.474
▁скрип	-11.474
▁передов	-11.474
▁щур	-11.474
▁починав	-11.4742
▁канат	-11.4742
▁елементарн	-11.4742
▁Зробі	-11.4742
▁підібра	-11.4742
▁дійшов	-11.4745
▁творіння	-11.4745
▁користуємос	-11.4753
▁юнак	-11.4754
Ї	-11.4754
▁розтяг	-11.4755
тягує	-11.4755
▁перевіряє	-11.4756
DI	-11.4759
▁натяк	-11.4772
▁замислитис	-11.4773
▁відбулас	-11.4773
▁невірн	-11.4787
▁перерв	-11.4803
▁грошов	-11.4814
▁логічно	-11.4826
▁чорнил	-11.4839
▁прибув	-11.4844
фотографував	-11.4853
▁пройде	-11.487
▁спричинил	-11.4887
▁зустрічав	-11.4887
чепи	-11.4916
▁північ	-11.4941
бережн	-11.4978
▁заражен	-11.4987
▁зберіг	-11.4999
бираючи	-11.5
казати	-11.5011
▁зберіганн	-11.5012
▁збираєтес	-11.5012
пускати	-11.5049
▁включа	-11.5051
▁Місяц	-11.5061
▁палестин	-11.5062
▁рентген	-11.5062
▁Енштейн	-11.5062
▁Обидв	-11.5062
▁Подивімос	-11.5062
▁айсберг	-11.5062
▁альпініст	-11.5062
▁взаємин	-11.5062
▁водоспад	-11.5062
▁налаштован	-11.5062
▁обслуговування	-11.5062
▁потепління	-11.5062
▁тюрм	-11.5062
▁федеральн	-11.5062
▁фортепіано	-11.5062
▁ВАК	-11.5062
▁Незалежн	-11.5062
▁безмежн	-11.5062
▁репортер	-11.5062
▁Подібн	-11.5062
▁археолог	-11.5062
▁капітан	-11.5062
▁розташуванн	-11.5062
▁Здавалос	-11.5062
▁Правильно	-11.5062
▁вимирання	-11.5062
▁пропорці	-11.5062
▁проституці	-11.5062
ech	-11.5062
▁нелегальн	-11.5062
▁гірськ	-11.5062
▁галере	-11.5062
▁магістра	-11.5062
▁постачальник	-11.5062
▁відшука	-11.5062
▁одружен	-11.5062
▁осуд	-11.5063
▁розмірковува	-11.5063
▁оренд	-11.5063
рахували	-11.5063
▁прискорен	-11.5063
▁продовження	-11.5063
▁увійшл	-11.5063
▁турбувати	-11.5063
▁сприяю	-11.5063
▁Вибух	-11.5063
▁оточує	-11.5063
▁Зелен	-11.5063
▁Програм	-11.5063
▁народжує	-11.5064
▁позич	-11.5065
буваємо	-11.5066
▁мандрівк	-11.5066
▁передавати	-11.5067
▁дри	-11.5067
▁товариств	-11.5068
▁футбольн	-11.5068
▁міняє	-11.5069
▁докорінн	-11.5069
загальн	-11.5071
▁вбивати	-11.5075
▁ятниц	-11.5077
▁стиск	-11.5082
▁провин	-11.5082
▁спробую	-11.5086
▁секці	-11.5087
матеріал	-11.5087
регулювання	-11.5087
здоров	-11.5088
▁зламан	-11.5088
▁відкривати	-11.5089
ступають	-11.5096
▁насичен	-11.5098
▁пляш	-11.5102
▁Руб	-11.5103
▁виділен	-11.5103
▁уявлят	-11.5109
аутист	-11.5114
дзвонив	-11.5134
садити	-11.5164
тікає	-11.5179
▁реальніст	-11.5183
▁жертвам	-11.5195
ate	-11.5204
▁підвищит	-11.521
▁Рік	-11.5232
пробувати	-11.5243
▁хат	-11.5275
сторонн	-11.5297
▁Техас	-11.5322
▁винахід	-11.5324
▁користува	-11.5329
▁коштувал	-11.5332
▁безсумнівн	-11.5343
використовува	-11.5362
▁екологі	-11.537
ation	-11.5395
ack	-11.5395
▁Індонезі	-11.5395
▁вулкан	-11.5395
▁енергетик	-11.5395
▁менструаці	-11.5395
▁милосердя	-11.5395
▁найпопулярніш	-11.5395
▁човні	-11.5395
▁інсталяці	-11.5395
▁дозвіл	-11.5395
▁конкуренці	-11.5395
▁ненасильницьк	-11.5395
▁передбачуван	-11.5395
▁переповнен	-11.5395
▁підтримувал	-11.5395
▁Виглядає	-11.5395
▁Едвард	-11.5395
▁Хорош	-11.5395
▁зобрази	-11.5395
▁чудес	-11.5395
▁параметр	-11.5395
▁розробляє	-11.5395
▁сформувати	-11.5395
▁теоретичн	-11.5395
▁аркуш	-11.5395
▁грецьк	-11.5395
▁запізн	-11.5395
▁Альберт	-11.5395
▁бесід	-11.5395
▁гольф	-11.5395
▁найважч	-11.5395
▁шторм	-11.5395
▁Браян	-11.5395
▁здивувал	-11.5395
▁Країн	-11.5395
▁дивує	-11.5395
▁вчителе	-11.5395
▁земель	-11.5396
▁слухачі	-11.5396
▁комеді	-11.5396
▁вебсайт	-11.5396
▁утримува	-11.5396
▁нововведен	-11.5396
▁ментальн	-11.5396
▁детальніш	-11.5396
▁учител	-11.5396
▁задіян	-11.5396
▁канад	-11.5397
▁слуг	-11.5397
▁Маленьк	-11.5397
amp	-11.5397
▁витрачати	-11.5397
▁помирал	-11.5397
▁відсила	-11.5398
▁Машин	-11.5398
▁відтворюва	-11.5398
▁худоб	-11.5399
▁служити	-11.5401
▁Дивн	-11.5402
▁лінз	-11.5404
▁онук	-11.5406
▁нагадал	-11.541
▁похил	-11.5412
▁полярн	-11.5416
▁винятков	-11.5417
▁інфекційн	-11.5423
▁призвед	-11.5423
▁відібра	-11.5424
ключити	-11.5425
розуміння	-11.5437
▁вперт	-11.5437
▁сеч	-11.5446
▁відкриє	-11.5469
▁пригадую	-11.5509
▁покинул	-11.5531
▁натисн	-11.5547
являємо	-11.5567
▁сьогоднішньо	-11.5598
судження	-11.5618
▁розпізнаванн	-11.5627
▁митця	-11.5633
▁інноваці	-11.5643
антрополог	-11.5667
▁забувай	-11.5691
▁Австралі	-11.5692
Леон	-11.5693
▁розділит	-11.5702
▁імовірно	-11.5708
тримують	-11.5719
▁виконан	-11.5735
▁повертатис	-11.5738
▁концепт	-11.574
▁Бруклін	-11.574
▁Принайм	-11.574
▁Публіка	-11.574
▁Різдв	-11.574
▁ТЕД	-11.574
▁безпрецедентн	-11.574
▁візерун	-11.574
▁гамбургер	-11.574
▁діаметр	-11.574
▁звинувачува	-11.574
▁ліценз	-11.574
▁млрд	-11.574
▁мотоцикл	-11.574
▁найбагатш	-11.574
▁обчислювальн	-11.574
▁підтверджує	-11.574
▁підшлунков	-11.574
▁сегмент	-11.574
▁сфотографувати	-11.574
▁фармацевтичн	-11.574
▁2013	-11.574
▁Демократ	-11.574
▁бамбук	-11.574
▁баскетбол	-11.574
▁російськ	-11.574
▁вирубк	-11.574
▁продукці	-11.574
▁знижує	-11.574
▁погроз	-11.574
▁Європейськ	-11.574
▁банальн	-11.5741
▁Важк	-11.5741
▁інформатор	-11.5742
▁Уганд	-11.5742
▁обережно	-11.5742
▁покупці	-11.5743
▁спійма	-11.5744
▁металев	-11.5748
▁Науков	-11.5752
▁малює	-11.5764
▁викопн	-11.5765
▁спробуй	-11.5769
▁піц	-11.577
▁танцюва	-11.5775
▁Фейсбу	-11.5779
чотири	-11.5789
▁проведе	-11.5815
тягнув	-11.5835
▁залізн	-11.5843
▁розвинут	-11.5848
▁шану	-11.5884
▁верхньо	-11.5895
▁боялас	-11.5896
▁задумалис	-11.5901
▁загадков	-11.5909
▁дорожн	-11.5921
▁батьківств	-11.5929
звемо	-11.5944
▁намагатис	-11.6005
▁стимулюва	-11.6053
▁пригада	-11.6077
▁2,5	-11.6097
▁SMS	-11.6097
▁Танзані	-11.6097
▁встановлюва	-11.6097
▁геометричн	-11.6097
▁джунгл	-11.6097
▁досліджує	-11.6097
▁діапазон	-11.6097
▁лауреат	-11.6097
▁мешкає	-11.6097
▁переміщення	-11.6097
▁помешкання	-11.6097
▁проходити	-11.6097
▁інстинкт	-11.6097
Times	-11.6097
▁Талібан	-11.6097
▁емпаті	-11.6097
▁перемовин	-11.6097
▁імміграці	-11.6097
▁демонструють	-11.6097
▁мистецьк	-11.6097
▁колосальн	-11.6097
▁навкруг	-11.6097
▁Френк	-11.6097
▁Свят	-11.6097
▁вишукан	-11.6097
▁Пекін	-11.6097
▁спрощен	-11.6097
травматичн	-11.6097
▁людях	-11.6097
▁відчутн	-11.6097
▁Половин	-11.6097
▁прийшло	-11.6098
▁Варто	-11.6098
▁повторюю	-11.6098
▁сканер	-11.6098
▁розмістил	-11.6098
▁скарж	-11.6098
▁геніальн	-11.6098
▁ефір	-11.6098
▁суперечлив	-11.6098
▁Туніс	-11.6098
▁виділяє	-11.6098
▁сполук	-11.6098
▁аудіо	-11.6099
▁еволюціонува	-11.6099
▁професіонал	-11.6099
▁тримаючи	-11.6101
▁змал	-11.6103
▁шост	-11.6104
▁аварі	-11.6106
▁Задумайтес	-11.6107
▁фінал	-11.6108
▁четвер	-11.6109
▁боролис	-11.6111
▁пірат	-11.6115
▁згин	-11.6127
▁підійт	-11.6151
години	-11.616
кладемо	-11.6169
▁невдал	-11.6172
▁візк	-11.6188
медик	-11.6195
комфортно	-11.6196
▁аналізува	-11.6203
▁користувалис	-11.6225
▁зауважит	-11.6227
▁плот	-11.6241
▁боялис	-11.6242
▁різк	-11.6266
▁пожертвува	-11.6291
▁здобув	-11.6309
▁прикрас	-11.6315
годинн	-11.6325
гадування	-11.6328
▁родов	-11.6341
▁прагнул	-11.6367
слухала	-11.6422
▁Geo	-11.6426
лучити	-11.6438
▁сполуч	-11.646
▁достатн	-11.6466
▁Єлизавет	-11.6468
▁Гіґґс	-11.6468
▁Еверест	-11.6468
▁Кеплер	-11.6468
▁гелікоптер	-11.6468
▁ліберальн	-11.6468
▁найдивовижніш	-11.6468
▁найулюбленіш	-11.6468
▁презерватив	-11.6468
▁ревнощі	-11.6468
▁розчарован	-11.6468
▁співробітництв	-11.6468
▁ультразвук	-11.6468
▁чорношкір	-11.6468
▁Сьєрр	-11.6468
▁біотехнологі	-11.6468
▁гіпотетичн	-11.6468
▁лабораторн	-11.6468
▁невпинн	-11.6468
▁неефективн	-11.6468
▁незавершен	-11.6468
▁новонароджен	-11.6468
▁підніміть	-11.6468
▁ускладнен	-11.6468
▁хоробр	-11.6468
▁штовха	-11.6468
▁єврейськ	-11.6468
ньостатистичн	-11.6468
▁генеральн	-11.6468
▁суцільн	-11.6468
▁інтуїці	-11.6468
▁Nation	-11.6468
▁Сомалі	-11.6468
▁копалин	-11.6468
▁привезл	-11.6468
▁покінчит	-11.6468
▁поспіша	-11.6468
▁зефір	-11.6468
▁королів	-11.6468
спеціалізован	-11.6468
▁мамографі	-11.6468
▁врожа	-11.6468
▁вбран	-11.6468
▁бореться	-11.6468
▁кожнісіньк	-11.6468
дракон	-11.6468
▁гальм	-11.6468
▁перетворить	-11.6468
▁ярлик	-11.6468
▁знуща	-11.6468
▁прямокутн	-11.6468
▁Певн	-11.6468
▁цирк	-11.6469
тренувати	-11.6469
▁діаре	-11.6469
▁нитк	-11.6469
▁хитр	-11.6469
▁пікселі	-11.6469
▁спира	-11.647
▁невинн	-11.647
▁сукн	-11.647
▁Ліван	-11.647
▁скриньк	-11.647
▁перекладач	-11.6471
▁отрут	-11.6471
▁пральн	-11.6472
▁скрин	-11.6473
▁хвилююч	-11.6474
▁агенці	-11.6474
▁колеса	-11.6475
гуляти	-11.6478
▁бірж	-11.6479
▁Частин	-11.6479
▁Кращ	-11.6482
▁реалізаці	-11.6484
панує	-11.6493
▁підняли	-11.6494
▁зупиняти	-11.65
▁керувал	-11.65
▁їздил	-11.6505
▁затрат	-11.6516
▁столик	-11.6517
▁відпочинк	-11.6521
▁покладатис	-11.6533
Паул	-11.6554
▁Куб	-11.6563
мовляв	-11.6606
▁годува	-11.6608
▁почутт	-11.6628
▁пожертв	-11.6648
▁фабри	-11.6648
▁траплялос	-11.667
▁постача	-11.6675
▁уражен	-11.6676
▁тигр	-11.669
▁Наприк	-11.6706
▁знайомств	-11.6748
▁модн	-11.6756
▁лідерам	-11.6777
▁заслуг	-11.6778
▁науковцям	-11.6783
▁гадає	-11.6785
▁терпі	-11.6786
▁спілкувалис	-11.6797
ловлю	-11.6807
▁покрит	-11.6809
▁скоротит	-11.6816
▁пробач	-11.6822
рахування	-11.683
▁спостережен	-11.6846
▁бейсбол	-11.6849
▁the	-11.6852
▁Іспані	-11.6852
▁Необхідн	-11.6852
▁Паркінсон	-11.6852
▁Республі	-11.6852
▁адміністраці	-11.6852
▁антидепресант	-11.6852
▁божественн	-11.6852
▁гідрокостюм	-11.6852
▁дефіцит	-11.6852
▁звинувачен	-11.6852
▁невігластв	-11.6852
▁недосконал	-11.6852
▁парадигм	-11.6852
▁човна	-11.6852
▁єгиптян	-11.6852
▁інтерпретаці	-11.6852
▁Нобелівськ	-11.6852
▁Олімпійськ	-11.6852
▁бензин	-11.6852
▁вплине	-11.6852
▁гібрид	-11.6852
▁наймолодш	-11.6852
▁одержа	-11.6852
▁сконструюва	-11.6852
▁спротив	-11.6852
▁Студент	-11.6852
▁заохоти	-11.6852
▁пішоход	-11.6852
▁сніданк	-11.6852
▁концентраці	-11.6852
▁найчастіш	-11.6852
▁світлодіод	-11.6852
▁розквіт	-11.6852
▁схвален	-11.6852
▁розпочинає	-11.6852
лагоджен	-11.6852
▁породжує	-11.6852
▁стародавн	-11.6852
▁Номер	-11.6852
▁починати	-11.6852
▁Основн	-11.6852
▁легенд	-11.6852
▁осторо	-11.6852
▁шерст	-11.6852
▁душевн	-11.6852
▁сформован	-11.6853
▁запрограмован	-11.6853
▁Безпек	-11.6853
▁тарган	-11.6853
▁мечет	-11.6853
▁десятиріччя	-11.6853
▁взаємодіє	-11.6853
▁вібраці	-11.6853
▁гідро	-11.6853
▁звертати	-11.6853
▁вдавалос	-11.6853
▁ляльк	-11.6853
▁ворота	-11.6853
▁народжують	-11.6853
▁болісн	-11.6854
▁уламк	-11.6854
▁Будд	-11.6854
▁моралі	-11.6855
водячи	-11.6855
▁храм	-11.6855
▁Золот	-11.6856
▁медуз	-11.6856
▁голуб	-11.6856
▁реагую	-11.6856
▁подба	-11.6857
▁стримува	-11.6857
▁англ	-11.6858
▁повіси	-11.6859
▁вузл	-11.686
▁повільніш	-11.6861
▁підводн	-11.6862
▁радісн	-11.6864
▁запобіганн	-11.6864
прямок	-11.6869
▁визначив	-11.6869
▁переконува	-11.687
▁вченим	-11.6871
▁розділяє	-11.6873
▁уривк	-11.6885
▁поведінков	-11.6887
▁почувалас	-11.6892
▁бактеріям	-11.6893
▁Ni	-11.6894
▁Школ	-11.6896
▁направля	-11.6903
▁вказува	-11.6904
▁Жод	-11.6907
офон	-11.6916
▁кидає	-11.6922
▁Сут	-11.6934
служб	-11.6942
національн	-11.6944
▁відділенн	-11.6949
▁співпрац	-11.6955
▁заплатит	-11.6977
▁імовірніст	-11.6978
▁добитис	-11.7013
▁подяк	-11.7017
▁дорожньо	-11.705
▁буденн	-11.7079
▁запустит	-11.7139
▁попередньо	-11.7145
▁старанн	-11.715
вивчен	-11.7163
досконалення	-11.7169
▁самостійн	-11.7175
▁повертаємос	-11.7179
▁коралов	-11.7189
▁промисловост	-11.719
▁натхненн	-11.7205
▁постанов	-11.7222
▁розширен	-11.7246
▁оригінал	-11.7249
▁оптиміст	-11.725
▁самиц	-11.7252
▁Ірланді	-11.7252
▁Арабськ	-11.7252
▁Моцарт	-11.7252
▁Мухаммед	-11.7252
▁Підніміть	-11.7252
▁ведмідь	-11.7252
▁дзеркальн	-11.7252
▁мембран	-11.7252
▁неповносправн	-11.7252
▁симуляці	-11.7252
▁спонсор	-11.7252
▁ультрафіолет	-11.7252
▁фотоапарат	-11.7252
▁авторитет	-11.7252
▁відреагува	-11.7252
▁дошкільн	-11.7252
▁мінімум	-11.7252
▁перевищу	-11.7252
▁скептичн	-11.7252
▁вирощує	-11.7252
▁контраст	-11.7252
▁павутин	-11.7252
▁пагорб	-11.7252
▁пластин	-11.7252
▁Особист	-11.7252
▁Сучасн	-11.7252
▁анатомі	-11.7252
▁вогню	-11.7252
▁повторює	-11.7252
▁етнічн	-11.7252
▁подвої	-11.7252
▁вирушил	-11.7252
▁матриц	-11.7252
▁перетворила	-11.7252
▁Глянь	-11.7252
▁переконали	-11.7252
▁вимагал	-11.7252
▁поширюють	-11.7252
▁лежал	-11.7252
▁Вчител	-11.7252
▁трансформува	-11.7252
▁враховува	-11.7253
▁збирався	-11.7253
▁Мереж	-11.7253
▁легень	-11.7253
▁вважалос	-11.7253
▁прискори	-11.7253
▁макро	-11.7253
▁Inte	-11.7253
▁постріл	-11.7253
▁просоч	-11.7253
▁нирк	-11.7253
ґетт	-11.7254
▁доріж	-11.7254
▁провінці	-11.7255
▁бейсбольн	-11.7255
raph	-11.7257
▁прогоду	-11.7258
▁розказува	-11.7258
▁розірва	-11.7258
▁літаюч	-11.7258
▁піклує	-11.7258
▁захопив	-11.726
▁перегон	-11.7261
▁іспит	-11.7263
▁тримав	-11.7264
▁поділяють	-11.7265
▁композит	-11.7267
ступили	-11.7284
▁радіаці	-11.7287
▁запевнит	-11.7289
▁потворн	-11.7292
▁підштовхну	-11.73
▁Анн	-11.7323
▁застосу	-11.7335
стійк	-11.7338
▁випробовува	-11.7354
хвилин	-11.736
половин	-11.7361
▁здалос	-11.7368
▁справитис	-11.7392
▁повертають	-11.7403
повнити	-11.7427
ступив	-11.7451
▁виражен	-11.7458
▁відступ	-11.7472
▁шматоч	-11.7486
▁стисн	-11.7496
вбивц	-11.7511
▁взят	-11.7554
авжди	-11.7566
▁описува	-11.7567
слухаючи	-11.7599
▁насолоджуватис	-11.7613
рятувальн	-11.7641
▁трапитис	-11.7642
▁поглянь	-11.7652
масштабн	-11.7653
▁зустріне	-11.7669
▁ІДІЛ	-11.7669
▁Гонконг	-11.7669
▁Гренланді	-11.7669
▁Ендрю	-11.7669
▁Зімбабв	-11.7669
▁Клінтон	-11.7669
▁Кремнієв	-11.7669
▁аномалі	-11.7669
▁ведмедя	-11.7669
▁виготовит	-11.7669
▁виснажлив	-11.7669
▁впровадження	-11.7669
▁вуглекисл	-11.7669
▁екзопланет	-11.7669
▁епізод	-11.7669
▁задовольнит	-11.7669
▁збентежен	-11.7669
▁зґвалтува	-11.7669
▁капелюх	-11.7669
▁королев	-11.7669
▁леопард	-11.7669
▁малесеньк	-11.7669
▁моторошн	-11.7669
▁найсильніш	-11.7669
▁нейрогенез	-11.7669
▁педагог	-11.7669
▁приміщенні	-11.7669
▁реабілітаці	-11.7669
▁скупчення	-11.7669
▁спекотн	-11.7669
▁трансплантаці	-11.7669
▁тротуар	-11.7669
▁диспле	-11.7669
▁запозичи	-11.7669
▁каракулі	-11.7669
▁перехрест	-11.7669
▁помідор	-11.7669
▁похорон	-11.7669
▁спантеличен	-11.7669
▁Сідне	-11.7669
▁інсулін	-11.7669
▁граматик	-11.7669
▁міліметр	-11.7669
▁поцілун	-11.7669
▁пристрасн	-11.7669
▁зафіксува	-11.7669
▁макет	-11.7669
▁парашут	-11.7669
▁скрутн	-11.7669
▁видобут	-11.7669
▁комісі	-11.7669
▁розробляти	-11.7669
▁плакал	-11.7669
▁власноруч	-11.7669
▁резюм	-11.7669
ead	-11.7669
▁міняти	-11.7669
▁Політик	-11.7669
▁артері	-11.7669
▁безробіт	-11.7669
▁скарб	-11.7669
▁вчинил	-11.767
▁роботизован	-11.767
▁питати	-11.767
▁шрам	-11.767
▁Готов	-11.767
▁карикатурист	-11.7671
▁набрид	-11.7671
▁надихати	-11.7672
▁надрукован	-11.7673
▁навчала	-11.7673
▁налічує	-11.7673
▁плівк	-11.7675
▁опанува	-11.7675
▁суддя	-11.7676
▁підляга	-11.7676
▁могил	-11.7677
▁No	-11.7677
генераці	-11.7678
▁Каїр	-11.7681
▁Навед	-11.7683
▁оцінює	-11.7686
▁клітк	-11.7687
▁дізнаєтес	-11.7692
▁кишк	-11.7698
▁завантажен	-11.7699
▁наївн	-11.7703
▁розмит	-11.771
▁подзвонил	-11.7733
притул	-11.7743
▁справляє	-11.7756
▁прокинув	-11.7757
Ш	-11.7794
▁виходил	-11.7807
природ	-11.7812
ходиш	-11.7821
▁бібліоте	-11.7903
малював	-11.7956
ництва	-11.7956
▁незнайомцям	-11.7971
▁набуває	-11.7975
▁телефонн	-11.7984
Делі	-11.8001
▁придумал	-11.8001
▁розглядаю	-11.8034
▁географі	-11.8068
▁Народ	-11.8069
ats	-11.8104
огосподарськ	-11.8104
▁Веронік	-11.8104
▁Працівник	-11.8104
▁Шекспір	-11.8104
▁альтруїзм	-11.8104
▁бездоганн	-11.8104
▁взаємозалежн	-11.8104
▁вистачить	-11.8104
▁ентузіазм	-11.8104
▁згадувати	-11.8104
▁краєвид	-11.8104
▁недоторкан	-11.8104
▁непохитн	-11.8104
▁неспроможн	-11.8104
▁пропаганд	-11.8104
▁півмільйон	-11.8104
▁розбіжност	-11.8104
▁спонтанн	-11.8104
▁шизофрені	-11.8104
▁шпитал	-11.8104
▁Зверніть	-11.8104
▁Массачусетськ	-11.8104
▁велетенськ	-11.8104
▁ембріон	-11.8104
▁зосереджува	-11.8104
▁кмітлив	-11.8104
▁коротеньк	-11.8104
▁найнижч	-11.8104
▁необмежен	-11.8104
▁приголомшен	-11.8104
▁хаотичн	-11.8104
▁цигар	-11.8104
▁штраф	-11.8104
▁калорій	-11.8104
▁комплект	-11.8104
▁розгледі	-11.8104
▁Мистецтв	-11.8104
▁кокаїн	-11.8104
▁редагува	-11.8104
▁розпочне	-11.8104
▁знищил	-11.8104
▁мізерн	-11.8104
▁трудов	-11.8104
▁хабар	-11.8104
▁яблуко	-11.8104
▁Леґо	-11.8104
▁параліч	-11.8104
▁піклуватис	-11.8104
▁знищува	-11.8104
▁навантаження	-11.8104
▁метелик	-11.8104
▁готівк	-11.8104
▁відеоігр	-11.8104
▁Каролін	-11.8104
▁неурядов	-11.8104
генерувати	-11.8104
▁Далай	-11.8104
▁атеїст	-11.8104
▁передмістя	-11.8104
▁Еван	-11.8105
▁білизн	-11.8105
▁щелеп	-11.8105
▁швидкісн	-11.8105
▁дбати	-11.8106
▁їдальн	-11.8108
▁учням	-11.8108
▁Книг	-11.8108
▁обурен	-11.8108
▁співчува	-11.8111
▁Ніяк	-11.8111
▁заздр	-11.8111
приймач	-11.8111
▁вібру	-11.8116
▁захопил	-11.8116
▁роздільн	-11.812
▁зачепил	-11.8122
▁нагріва	-11.8124
▁узагальнен	-11.8125
▁електронік	-11.8128
воєнн	-11.8128
▁латин	-11.813
▁Бонік	-11.8131
▁зменшува	-11.8132
▁добряч	-11.8132
▁познайомилас	-11.8134
▁плут	-11.8137
▁первісн	-11.8137
▁Тесл	-11.814
▁оптичн	-11.8142
▁дослідженн	-11.8152
▁банан	-11.8177
тягнули	-11.8191
регулювати	-11.8207
▁падал	-11.8208
▁сподіватис	-11.8213
▁досвідчен	-11.8244
dia	-11.8282
▁опинитис	-11.8297
▁боїмос	-11.8304
▁крем	-11.8364
▁погодилис	-11.8374
▁обираю	-11.8397
платили	-11.8402
▁приведе	-11.8448
▁незадов	-11.8485
▁інвестуванн	-11.8489
▁лікуванн	-11.8512
присутності	-11.8546
тлумач	-11.8547
▁зізнатис	-11.8549
▁безпосередн	-11.8554
▁Дизайн	-11.8558
поверхов	-11.8558
▁Швейцарі	-11.8558
▁бразильськ	-11.8558
▁високоякісн	-11.8558
▁врятував	-11.8558
▁гарантувати	-11.8558
▁головоломк	-11.8558
▁дефект	-11.8558
▁драматичн	-11.8558
▁забажає	-11.8558
▁кваліфікован	-11.8558
▁лихоманк	-11.8558
▁мамограм	-11.8558
▁насильницьк	-11.8558
▁неприйнятн	-11.8558
▁перемагає	-11.8558
▁пришвидшу	-11.8558
▁продемонструю	-11.8558
▁фальшив	-11.8558
▁фантазі	-11.8558
▁інсульт	-11.8558
▁іспанськ	-11.8558
▁двоюрідн	-11.8558
▁естетичн	-11.8558
▁зачарован	-11.8558
▁здивування	-11.8558
▁розшифрува	-11.8558
осмислення	-11.8558
▁благополуч	-11.8558
▁запущен	-11.8558
▁засмучен	-11.8558
▁китайці	-11.8558
▁рушійн	-11.8558
▁таблетк	-11.8558
▁вимкнути	-11.8558
▁звинувати	-11.8558
▁нематеріальн	-11.8558
▁розмноженн	-11.8558
▁завзят	-11.8558
▁руйнують	-11.8558
▁дюйм	-11.8558
▁Монтан	-11.8558
▁проводила	-11.8558
▁мурах	-11.8558
▁розлучен	-11.8558
▁руйнує	-11.8558
▁фронт	-11.8558
▁відвез	-11.8558
▁заперечення	-11.8558
▁здобул	-11.8558
▁амбіці	-11.8558
▁форум	-11.8558
▁узяти	-11.8558
▁розвинули	-11.8558
▁починала	-11.8559
▁коротш	-11.8559
▁вируша	-11.8559
▁витончен	-11.8559
▁світлячк	-11.8559
▁становил	-11.856
▁пауз	-11.856
▁хлопчин	-11.8561
▁клавіш	-11.8561
▁хімікат	-11.8562
▁спірн	-11.8563
▁одягнен	-11.8563
▁хвост	-11.8564
пантели	-11.8564
▁дбає	-11.8565
▁скануванн	-11.8566
▁Поговори	-11.857
▁драту	-11.8571
▁Дивл	-11.8575
мовляти	-11.8583
▁символізу	-11.8585
▁долучитис	-11.8591
подібн	-11.8592
▁скинут	-11.8594
▁Сотн	-11.8602
▁летит	-11.8614
▁вибірков	-11.8631
▁розкол	-11.8633
▁виграл	-11.8641
▁колектив	-11.8658
▁мінерал	-11.866
▁палиц	-11.8661
▁відвідую	-11.8664
▁заробит	-11.8665
▁підсил	-11.8688
▁найшвидш	-11.8694
слухаємо	-11.8728
▁Недавн	-11.8752
▁поведін	-11.8818
▁придиви	-11.8846
▁поход	-11.887
▁Невдов	-11.8918
▁питанн	-11.8947
▁подоланн	-11.8958
▁значенн	-11.897
опостачання	-11.8973
▁втруча	-11.9009
▁Різн	-11.9027
▁обчислен	-11.9028
отримував	-11.9028
▁Com	-11.9034
близнюк	-11.9034
урбанізаці	-11.9034
▁Голлівуд	-11.9034
▁Енцелад	-11.9034
▁Пацієнт	-11.9034
▁Філадельфі	-11.9034
▁адаптаці	-11.9034
▁акумулятор	-11.9034
▁асоціює	-11.9034
▁брехати	-11.9034
▁екзотичн	-11.9034
▁ескіз	-11.9034
▁зареєстрован	-11.9034
▁клавіатур	-11.9034
▁латиноамерикан	-11.9034
▁мешкаю	-11.9034
▁нейтральн	-11.9034
▁пеніцилін	-11.9034
▁представил	-11.9034
▁протистояння	-11.9034
▁симфоні	-11.9034
▁соцмереж	-11.9034
▁споріднен	-11.9034
▁упевнитис	-11.9034
▁елегантн	-11.9034
▁ланцюж	-11.9034
▁найвідоміш	-11.9034
▁нещастя	-11.9034
▁пандемі	-11.9034
▁поглинає	-11.9034
▁префронтальн	-11.9034
▁школяр	-11.9034
▁диктатор	-11.9034
▁навушник	-11.9034
▁гвинт	-11.9034
▁повернімос	-11.9034
▁повідомив	-11.9034
▁вроджен	-11.9034
▁перетворило	-11.9034
▁натрапил	-11.9034
▁Сіетл	-11.9034
▁кінчик	-11.9035
▁підказк	-11.9035
▁Учасник	-11.9035
▁сміятис	-11.9035
▁займалас	-11.9035
▁причетн	-11.9035
▁Команд	-11.9035
▁антитіл	-11.9035
▁картопл	-11.9035
▁сокир	-11.9036
▁прикріпи	-11.9036
▁поводилис	-11.9037
▁авіаці	-11.9037
▁підприємництв	-11.904
▁переломн	-11.9042
▁запрограмува	-11.9043
слухаєте	-11.9045
мовчати	-11.9046
▁Смерт	-11.9061
сканувати	-11.9062
▁закінчилос	-11.9064
▁надихнут	-11.9066
▁світанк	-11.9075
▁Шарл	-11.9079
▁відбуватис	-11.9091
▁підприємцям	-11.9097
▁обережні	-11.9165
▁запевн	-11.9322
▁завдов	-11.9351
▁випробову	-11.9408
▁досягнул	-11.9427
▁здогадува	-11.9457
▁заповнит	-11.946
▁господар	-11.9479
▁прихильн	-11.9527
▁обладнан	-11.9528
▁француз	-11.9534
найрізноманітніш	-11.9534
охолодження	-11.9534
▁iPad	-11.9534
▁Аполлон	-11.9534
▁Бетховен	-11.9534
▁Білотопі	-11.9534
▁Венесуел	-11.9534
▁Мухамед	-11.9534
▁Найважливіш	-11.9534
▁Палестин	-11.9534
▁Подивимос	-11.9534
▁Сінгапур	-11.9534
▁аналітик	-11.9534
▁гіпокамп	-11.9534
▁допоможі	-11.9534
▁діагностичн	-11.9534
▁експлуатаці	-11.9534
▁екстремальн	-11.9534
▁жителям	-11.9534
▁загальноприйнят	-11.9534
▁збалансован	-11.9534
▁зворушлив	-11.9534
▁кондиціонер	-11.9534
▁кровоносн	-11.9534
▁мікросхем	-11.9534
▁найнебезпечніш	-11.9534
▁норвезьк	-11.9534
▁нісенітниц	-11.9534
▁оптимальн	-11.9534
▁орієнтаці	-11.9534
▁перифері	-11.9534
▁репортаж	-11.9534
▁робототехнік	-11.9534
▁стабіліз	-11.9534
▁стратосфер	-11.9534
▁труднощами	-11.9534
▁юридичн	-11.9534
▁інтеграці	-11.9534
▁Ґейтс	-11.9534
▁Віктор	-11.9534
▁Правил	-11.9534
▁Радянськ	-11.9534
▁благородн	-11.9534
▁виробнич	-11.9534
▁влаштувати	-11.9534
▁заохочую	-11.9534
▁обожнюва	-11.9534
▁обрізання	-11.9534
▁переїхав	-11.9534
▁прибиральник	-11.9534
▁спроектован	-11.9534
▁сформулюва	-11.9534
▁телеканал	-11.9534
Spe	-11.9534
місцезнаходження	-11.9534
▁гнізд	-11.9534
▁помирати	-11.9534
▁престижн	-11.9534
тижнев	-11.9534
▁Гугл	-11.9534
▁терпим	-11.9534
▁Працюю	-11.9534
▁нейробіолог	-11.9534
▁геометрі	-11.9534
▁приховує	-11.9534
▁збудував	-11.9534
▁історик	-11.9534
▁кристал	-11.9534
▁ятєв	-11.9534
▁модуль	-11.9535
▁переконала	-11.9535
▁обережним	-11.9535
▁знахідк	-11.9535
▁вчинив	-11.9535
▁крихк	-11.9535
▁Ймовірно	-11.9535
▁мутант	-11.9535
▁Мелінд	-11.9535
▁запекл	-11.9535
▁мандрівник	-11.9535
▁приречен	-11.9535
▁Груп	-11.9535
▁кислот	-11.9535
▁називала	-11.9536
▁беззаперечн	-11.9536
▁кролик	-11.9536
▁свердл	-11.9536
▁Дорог	-11.9536
▁трансляці	-11.9536
▁пристойн	-11.9536
▁моторн	-11.9536
▁очолюва	-11.9537
▁проголосувал	-11.9537
▁туфл	-11.9538
▁зацікавив	-11.9539
▁зіпсува	-11.954
▁фавел	-11.9541
▁півкул	-11.9541
▁валют	-11.9543
▁боремос	-11.9543
▁турбувал	-11.9555
▁свічк	-11.9559
▁залізниц	-11.9564
▁пишатис	-11.958
оцінювання	-11.959
правлення	-11.9597
▁письменниц	-11.9704
ect	-11.9706
▁ясувалос	-11.9739
▁мандрува	-11.9745
▁холод	-11.9755
▁заповнюва	-11.978
▁забезпечува	-11.9784
ключили	-11.9813
▁стикалис	-11.9815
доволення	-11.9822
▁Послухай	-11.9823
лісах	-11.9844
▁математи	-11.9928
▁Великобритані	-12.0012
▁навчанн	-12.0015
Нікол	-12.0016
▁побувал	-12.004
бажання	-12.0052
раворуч	-12.0053
▁припущен	-12.0054
▁недостатн	-12.0054
Global	-12.0061
omen	-12.0061
лаштували	-12.0061
▁Абсолютн	-12.0061
▁Бангладеш	-12.0061
▁Величезн	-12.0061
▁Повернімос	-12.0061
▁Саудівськ	-12.0061
▁бездротов	-12.0061
▁безпорадн	-12.0061
▁благословенн	-12.0061
▁бригад	-12.0061
▁вентиляці	-12.0061
▁вичерпа	-12.0061
▁встановлює	-12.0061
▁відновлювальн	-12.0061
▁відчуттєв	-12.0061
▁достовірн	-12.0061
▁екзамен	-12.0061
▁короткостроков	-12.0061
▁кількісн	-12.0061
▁марафон	-12.0061
▁мультфільм	-12.0061
▁надмасивн	-12.0061
▁найпотужніш	-12.0061
▁найпоширеніш	-12.0061
▁найрозумніш	-12.0061
▁невпевнен	-12.0061
▁патоген	-12.0061
▁погіршує	-12.0061
▁республік	-12.0061
▁розробляли	-12.0061
▁спостерігала	-12.0061
▁терапевт	-12.0061
▁фемінізм	-12.0061
▁шедевр	-12.0061
▁інфрачервон	-12.0061
терпляч	-12.0061
▁Космічн	-12.0061
▁Цифров	-12.0061
▁аналогов	-12.0061
▁астероїд	-12.0061
▁бюлетен	-12.0061
▁відеозапис	-12.0061
▁електромобіл	-12.0061
▁марсіанськ	-12.0061
▁фіксован	-12.0061
▁черевик	-12.0061
▁волосин	-12.0061
▁вторгненн	-12.0061
▁здивував	-12.0061
▁приземля	-12.0061
рятують	-12.0061
▁несвідом	-12.0061
▁нюанс	-12.0061
▁Здоров	-12.0061
▁всюдисущ	-12.0061
▁Інформаці	-12.0061
▁тридцят	-12.0061
▁табличк	-12.0061
▁оснащен	-12.0061
▁оновлен	-12.0061
▁спрямува	-12.0061
▁зацікавити	-12.0061
▁модулі	-12.0061
вимушені	-12.0061
▁кричал	-12.0061
▁напруг	-12.0061
▁батьківщин	-12.0061
▁генерує	-12.0062
▁яблука	-12.0062
▁протокол	-12.0062
▁патологі	-12.0063
▁Чарл	-12.0064
▁найнял	-12.0065
▁перероблен	-12.0066
▁художньо	-12.0066
Принц	-12.0069
▁хрест	-12.0071
▁заспіва	-12.0074
▁скинул	-12.0076
▁вдарил	-12.0078
▁побоюва	-12.009
▁польов	-12.0093
тільця	-12.0098
гляньте	-12.01
▁Згадай	-12.0135
▁заперечува	-12.0199
▁злидні	-12.024
апевняю	-12.0242
приймала	-12.03
▁небажан	-12.0308
бігають	-12.0357
▁являлис	-12.0442
▁недооцінюва	-12.0472
▁візуаліз	-12.0494
▁Звичайн	-12.0524
▁узбережж	-12.0562
▁усвідомлен	-12.061
▁відновлен	-12.061
orld	-12.0616
ight	-12.0616
ail	-12.0616
бюрократичн	-12.0616
ідентифікувати	-12.0616
▁Бассем	-12.0616
▁Зеланді	-12.0616
▁Служб	-12.0616
▁арифмети	-12.0616
▁брехун	-12.0616
▁бухгалтер	-12.0616
▁вдосталь	-12.0616
▁вирубування	-12.0616
▁виховател	-12.0616
▁гірчиц	-12.0616
▁естетик	-12.0616
▁жадібн	-12.0616
▁заощаджувати	-12.0616
▁знизилас	-12.0616
▁конвеєр	-12.0616
▁контрабанд	-12.0616
▁мешканцям	-12.0616
▁монарх	-12.0616
▁найпрекрасніш	-12.0616
▁необізнан	-12.0616
▁неокортекс	-12.0616
▁пластмас	-12.0616
▁помаранчев	-12.0616
▁порожнеч	-12.0616
▁порівнювати	-12.0616
Я	-12.4505
Ч	-12.5403
Ц	-12.5412
Й	-13.1871
q	-13.6678
Є	-13.9705
»	-14.4699
♫	-14.47
!	-14.4701
–	-14.4702
—	-14.4703
)	-14.4704
?	-14.4705
:	-14.4706
&	-14.4707
,	-14.4708
Щ	-14.4708
