<unk>	0
<s>	0
</s>	0
▁,	-3.36118
▁.	-3.45033
▁là	-4.20154
▁tôi	-4.28033
▁và	-4.31528
▁có	-4.37432
▁một	-4.42419
t	-4.46144
▁	-4.53979
▁chúng	-4.63331
;	-4.64817
▁những	-4.65187
▁của	-4.67271
▁&	-4.68847
quo	-4.7206
▁ta	-4.78866
▁không	-4.80452
▁đó	-4.97197
▁người	-4.98034
▁bạn	-5.01817
▁trong	-5.04942
▁thể	-5.06522
▁này	-5.11415
▁đã	-5.14424
▁được	-5.14667
i	-5.19318
▁các	-5.19795
▁với	-5.25408
▁cho	-5.2894
ất	-5.29175
▁ra	-5.3045
▁sự	-5.34251
▁Và	-5.35687
ng	-5.38286
▁làm	-5.40824
▁ở	-5.43595
▁như	-5.44973
▁nó	-5.45321
▁để	-5.4856
n	-5.5076
▁sẽ	-5.51835
▁mà	-5.52386
▁về	-5.53422
y	-5.57489
▁khi	-5.60782
▁t	-5.6244
▁điều	-5.62569
▁thế	-5.64326
▁Tôi	-5.68168
▁họ	-5.72688
▁đến	-5.77939
m	-5.78254
▁?	-5.79715
▁phải	-5.80261
▁nói	-5.80723
▁r	-5.81393
▁đang	-5.84135
▁vào	-5.86448
▁từ	-5.90094
▁thấy	-5.90102
▁gì	-5.90314
▁việc	-5.90338
▁́	-5.90631
▁rằng	-5.91394
▁lại	-5.92381
▁hơn	-5.93213
▁nhiều	-5.95434
▁cách	-5.97876
▁cả	-5.99286
▁đầu	-6.0131
▁Đ	-6.03414
▁đây	-6.04526
▁công	-6.06082
▁con	-6.07124
▁trên	-6.07557
▁Chúng	-6.08334
▁̀	-6.09655
▁khác	-6.09745
▁c	-6.10784
▁thực	-6.1099
▁học	-6.11168
▁)	-6.11323
(	-6.11444
▁chỉ	-6.12079
▁vì	-6.14881
▁biết	-6.16408
▁năm	-6.18344
ây	-6.18873
▁nào	-6.20646
▁đi	-6.21489
▁:	-6.22556
▁thứ	-6.22967
▁̣	-6.24108
▁cái	-6.24311
▁thành	-6.24728
▁nghĩ	-6.25448
▁b	-6.25962
u	-6.2685
▁cũng	-6.28359
▁nhà	-6.31237
▁bị	-6.31953
a	-6.33709
▁—	-6.34039
▁Nhưng	-6.34495
▁quan	-6.35788
▁số	-6.37191
▁muốn	-6.39125
▁nhất	-6.39738
▁chính	-6.39896
▁nhưng	-6.40758
▁động	-6.42021
▁tạo	-6.44128
▁giới	-6.44199
▁n	-6.44434
▁1	-6.44555
▁nên	-6.4578
▁vậy	-6.48631
▁ng	-6.49504
▁mình	-6.50274
▁hình	-6.54801
▁giờ	-6.5545
▁cần	-6.56158
▁hiện	-6.56408
▁mọi	-6.57401
▁sống	-6.57471
▁nhận	-6.57697
▁hay	-6.5842
▁tại	-6.58843
▁nếu	-6.60198
▁gia	-6.60854
▁tự	-6.61166
▁đề	-6.63518
▁thì	-6.63831
▁ấy	-6.63911
▁ông	-6.64031
▁lớn	-6.64298
▁bắt	-6.65602
▁còn	-6.65869
▁cuộc	-6.66513
▁cùng	-6.67515
▁nhìn	-6.67707
▁theo	-6.68066
▁thật	-6.68293
▁bởi	-6.68319
▁cơ	-6.68441
▁sau	-6.69696
▁tới	-6.69762
▁lên	-6.70045
▁qua	-6.70334
▁tế	-6.70835
▁nhân	-6.71019
▁anh	-6.72887
▁sao	-6.73234
▁tin	-6.73297
▁nước	-6.74105
▁sinh	-6.74393
▁thời	-6.74824
▁ý	-6.74974
▁bằng	-6.7519
▁bản	-6.76064
▁nơi	-6.77435
▁cảm	-6.77949
▁câu	-6.78228
▁N	-6.78422
▁đổi	-6.78682
▁trở	-6.7882
▁Nó	-6.79171
▁dụng	-6.79392
▁toàn	-6.79468
▁ngày	-6.79631
▁bộ	-6.79679
▁trước	-6.79997
▁năng	-6.80057
▁̉	-6.80438
▁tay	-6.80547
▁thay	-6.80649
▁nhau	-6.82452
▁chuyện	-6.82662
▁V	-6.84269
▁phát	-6.85773
▁phần	-6.85819
▁mới	-6.86608
▁hệ	-6.86799
▁tìm	-6.87018
▁vấn	-6.87805
▁thông	-6.88395
▁vật	-6.89959
▁nhiên	-6.90767
▁k	-6.90775
▁trường	-6.91704
▁định	-6.91929
▁kết	-6.93102
▁tốt	-6.93944
▁hàng	-6.95015
▁tính	-6.9543
▁hành	-6.9635
▁tưởng	-6.97049
▁sử	-6.97146
▁Bạn	-6.97339
▁máy	-6.99408
▁trình	-6.99931
▁tiếp	-7.00104
▁mặt	-7.00985
▁hỏi	-7.0119
▁hợp	-7.01236
▁Đó	-7.01309
▁lý	-7.01862
▁gian	-7.0249
▁i	-7.03888
▁ảnh	-7.04263
▁rồi	-7.05183
nh	-7.05255
▁cô	-7.05434
▁nữa	-7.06091
▁đồng	-7.06817
▁T	-7.07821
▁xem	-7.07976
▁kinh	-7.08097
▁liệu	-7.0814
▁hội	-7.08592
▁thức	-7.08623
▁lượng	-7.09699
▁B	-7.10149
▁trọng	-7.10418
▁thiết	-7.11425
▁tiên	-7.13329
▁vị	-7.14161
▁giải	-7.14549
▁C	-7.14771
▁do	-7.15014
▁nay	-7.1584
o	-7.15896
▁đối	-7.15917
▁thích	-7.16281
▁hai	-7.16443
h	-7.16486
▁Vậ	-7.17044
▁bệnh	-7.1705
▁trẻ	-7.17082
iều	-7.17151
▁đều	-7.17467
▁lần	-7.17937
▁thường	-7.18231
▁loại	-7.18525
▁giống	-7.18553
▁quá	-7.188
▁hiểu	-7.19318
▁ai	-7.1932
▁độ	-7.19414
▁hóa	-7.19645
▁thống	-7.19654
▁quả	-7.19707
▁Có	-7.22289
▁Một	-7.22939
-	-7.23215
▁điểm	-7.23253
▁tâm	-7.23851
▁bao	-7.25242
▁Vì	-7.25411
▁viên	-7.25717
▁gọi	-7.25773
▁nhỏ	-7.25849
▁nghệ	-7.26174
▁cứu	-7.275
▁sáng	-7.27776
▁đưa	-7.29545
▁Họ	-7.29573
▁nghĩa	-7.29596
▁vẫ	-7.30705
▁đường	-7.31018
▁đ	-7.31108
▁hoàn	-7.31164
▁mô	-7.31757
▁xả	-7.31984
▁dân	-7.32129
▁dùng	-7.32186
▁tác	-7.32303
▁cười	-7.3232
▁̃	-7.32397
▁hoặc	-7.32398
▁đại	-7.32961
▁nh	-7.34235
▁nghiệm	-7.3618
▁từng	-7.3633
▁dự	-7.36776
▁cao	-7.36889
▁chuyển	-7.37094
▁biệt	-7.37227
▁bên	-7.3724
▁cầu	-7.38204
hững	-7.38231
▁giá	-7.38974
▁cố	-7.39622
▁lúc	-7.39945
▁tuyệt	-7.39977
▁trị	-7.40224
▁mỗi	-7.4081
▁nghe	-7.41102
▁thuật	-7.41983
▁triển	-7.42121
▁phụ	-7.42753
▁quyết	-7.42949
▁khoảng	-7.43095
▁đất	-7.4334
▁m	-7.43374
.	-7.43477
▁lực	-7.43647
tương	-7.44067
▁cá	-7.44588
▁♫	-7.45121
▁nữ	-7.45239
c	-7.45592
▁ơn	-7.46106
▁chất	-7.46137
▁chưa	-7.46203
hiếc	-7.47632
▁bảo	-7.48271
▁diễn	-7.48407
▁xe	-7.48425
▁ba	-7.4871
▁la	-7.48905
iểu	-7.4891
▁giúp	-7.49134
▁tiếng	-7.4944
▁kế	-7.50032
▁vi	-7.50099
▁ăn	-7.50374
▁Khi	-7.50731
▁liên	-7.51249
▁M	-7.51728
▁Tiế	-7.52419
▁2	-7.52631
▁tiến	-7.52765
▁khả	-7.53268
▁biến	-7.53799
▁Anh	-7.54148
▁hết	-7.54241
▁trung	-7.54572
▁tượng	-7.54648
▁Không	-7.54944
▁Nế	-7.55675
▁tư	-7.5585
▁tập	-7.55918
▁phân	-7.56184
▁phòng	-7.56201
▁g	-7.56305
▁giáo	-7.56927
▁xuất	-7.57101
▁giữa	-7.57125
▁lời	-7.57179
▁nghiên	-7.57523
▁tuổi	-7.57565
▁gần	-7.57814
▁truyền	-7.57883
ỗ	-7.57929
▁đơ	-7.5797
▁đúng	-7.58082
▁tranh	-7.58199
▁điện	-7.58251
▁y	-7.58257
▁mang	-7.58327
▁tình	-7.58505
▁khoa	-7.59123
▁Các	-7.59445
▁em	-7.60185
▁sản	-7.60266
▁đặt	-7.609
▁tinh	-7.61307
▁bình	-7.62019
▁khó	-7.62228
▁thu	-7.63054
▁hãy	-7.63673
▁ngay	-7.6422
▁khí	-7.64308
▁chiến	-7.65216
▁tiền	-7.65416
▁lấy	-7.65452
▁loài	-7.65746
▁pháp	-7.65906
▁Mỹ	-7.66014
▁hiệu	-7.6605
▁u	-7.66127
▁yêu	-7.6619
▁dụ	-7.6673
▁xã	-7.67022
▁hoạt	-7.6703
▁trả	-7.68067
▁cuối	-7.68405
▁chí	-7.68442
▁ngoài	-7.68482
▁chủ	-7.68572
▁Cười	-7.68849
▁mất	-7.69007
▁phương	-7.69116
s	-7.69258
▁cứ	-7.69302
▁thân	-7.69313
▁bé	-7.69413
▁bỏ	-7.69939
▁khá	-7.70234
▁thú	-7.7087
▁não	-7.70936
▁v	-7.70953
▁đời	-7.71215
▁bức	-7.71652
▁đáng	-7.71734
▁luôn	-7.72268
▁Tro	-7.72402
▁sức	-7.72977
▁cộng	-7.72986
▁nghiệp	-7.73073
▁d	-7.73295
▁ít	-7.73546
▁3	-7.73624
▁ca	-7.73862
▁quốc	-7.74009
▁mạnh	-7.74293
▁vô	-7.74521
▁minh	-7.74536
▁bài	-7.75204
▁di	-7.75215
▁tiêu	-7.75268
▁sách	-7.75293
▁kể	-7.75387
▁đồ	-7.75418
▁phố	-7.75585
▁quyền	-7.75627
▁lập	-7.75727
▁thư	-7.76261
▁tên	-7.76539
▁tăng	-7.77306
▁-	-7.77612
▁tài	-7.78674
▁kỳ	-7.78797
▁thị	-7.78917
▁hướng	-7.78946
▁phẩm	-7.78998
▁trí	-7.79401
▁ch	-7.79918
▁dẫn	-7.79957
▁chọn	-7.80758
▁đâu	-7.80808
▁tử	-7.80814
▁kiến	-7.80959
▁chức	-7.81042
▁thử	-7.81085
▁chơi	-7.81111
▁hạn	-7.81683
▁văn	-7.81797
▁khu	-7.82005
▁vụ	-7.82254
ành	-7.82284
▁mạng	-7.82302
▁vời	-7.82509
▁đặc	-7.82652
▁ứng	-7.83183
▁giả	-7.83292
▁đấy	-7.83758
▁âm	-7.83794
▁chế	-7.83886
▁triệu	-7.8405
▁cây	-7.84312
▁chứng	-7.84485
▁Hã	-7.84583
▁dựng	-7.84873
▁%	-7.85571
▁cấp	-7.85813
▁mẹ	-7.86094
▁chết	-7.86431
▁lẽ	-7.86462
▁chi	-7.86554
▁gặp	-7.87238
▁nguyên	-7.87368
▁khỏi	-7.88098
p	-7.8902
▁đạo	-7.89044
▁s	-7.89058
▁phá	-7.89162
▁bà	-7.89241
▁nhạc	-7.89828
ấu	-7.89966
▁l	-7.90392
▁tháng	-7.90524
▁bào	-7.90647
▁sư	-7.91141
▁nền	-7.91189
ừa	-7.91256
▁dưới	-7.91423
▁đa	-7.91842
▁sĩ	-7.92004
ến	-7.92385
ánh	-7.92487
▁suy	-7.92723
▁thần	-7.92907
▁giản	-7.93288
▁xuống	-7.933
▁xác	-7.93306
▁nhóm	-7.93308
▁án	-7.93466
▁đô	-7.93676
▁quanh	-7.93905
▁màu	-7.94215
▁dữ	-7.94276
▁đánh	-7.94321
▁đá	-7.94481
▁cảnh	-7.94542
▁xu	-7.94573
▁xa	-7.94615
hẳng	-7.94871
▁mở	-7.95038
▁viết	-7.95098
▁dịch	-7.95445
▁va	-7.95529
▁tổ	-7.96081
▁rõ	-7.96616
▁Thế	-7.96619
▁vực	-7.96802
▁nguồn	-7.96859
▁phim	-7.97026
▁co	-7.97331
▁quay	-7.9755
▁sát	-7.98385
▁sợ	-7.9844
▁báo	-7.98979
ấn	-7.99474
▁phía	-7.99739
▁phép	-8.00181
▁đàn	-8.00277
▁thêm	-8.00683
▁vọng	-8.00689
▁xâ	-8.00984
▁nhanh	-8.01304
▁vùng	-8.01499
▁Cả	-8.01825
▁mức	-8.0193
▁tục	-8.02051
▁tr	-8.02162
▁dù	-8.02357
▁cực	-8.02445
▁chút	-8.02645
▁gắng	-8.02864
▁ví	-8.03334
▁a	-8.0375
▁duy	-8.04326
▁bay	-8.04351
▁đủ	-8.04646
▁chu	-8.04953
▁dạng	-8.0527
▁chắc	-8.05337
▁dài	-8.05547
▁càng	-8.05726
▁nhớ	-8.05831
▁10	-8.05931
▁cụ	-8.06079
▁chú	-8.06769
▁đẹp	-8.06985
▁hưởng	-8.08371
▁lệ	-8.08664
▁thuốc	-8.08882
▁dễ	-8.08921
▁trò	-8.09204
▁Ông	-8.09322
▁kiểm	-8.0945
▁vũ	-8.10246
▁phản	-8.10323
▁trái	-8.10575
▁giác	-8.10648
▁trang	-8.10888
▁tồn	-8.11132
▁giao	-8.11211
▁giảm	-8.1141
▁đình	-8.11715
hậm	-8.11859
▁so	-8.12563
▁H	-8.12987
▁vệ	-8.13029
▁đôi	-8.13223
▁phủ	-8.13293
tham	-8.13535
▁thuyết	-8.14284
ẻ	-8.14417
▁bước	-8.14826
▁đứ	-8.15755
▁...	-8.1579
▁kì	-8.1586
▁lợi	-8.15918
▁thương	-8.16963
▁địa	-8.17293
▁ty	-8.17813
▁vòng	-8.17877
▁kiếm	-8.18105
▁da	-8.18279
▁bố	-8.18764
▁x	-8.19125
▁đoạn	-8.19677
▁thôi	-8.19908
▁kia	-8.20153
ốc	-8.20914
▁đầ	-8.21013
▁trô	-8.21018
▁thanh	-8.21284
▁!	-8.2131
▁trải	-8.21342
▁rộng	-8.21564
▁trăm	-8.21778
▁lai	-8.21845
pos	-8.21936
▁trời	-8.22117
hôm	-8.23421
▁giữ	-8.23444
▁20	-8.23669
▁tích	-8.23949
▁Quốc	-8.24322
▁th	-8.24322
▁luận	-8.24474
▁mục	-8.24577
ằm	-8.24664
▁dục	-8.24751
▁L	-8.24819
▁chân	-8.24921
▁đoán	-8.24945
▁luật	-8.25654
▁môi	-8.25983
▁nối	-8.26153
▁vẻ	-8.26181
▁Tạ	-8.26228
▁mắt	-8.26529
▁riêng	-8.26693
▁thuộc	-8.26937
▁phục	-8.27314
▁căn	-8.27749
▁sâu	-8.27906
▁diện	-8.28157
▁nổi	-8.28253
▁Phi	-8.28383
▁trợ	-8.28714
▁đứng	-8.29386
▁lịch	-8.29456
▁kỹ	-8.29626
▁biển	-8.29708
▁đo	-8.2984
▁lòng	-8.30274
▁Cá	-8.30299
▁tối	-8.30364
▁thoại	-8.30944
▁đạt	-8.31446
▁gái	-8.32134
▁Ngườ	-8.32158
▁quy	-8.3233
▁tạp	-8.32579
▁yếu	-8.32996
▁tra	-8.33124
▁toán	-8.33612
▁Bở	-8.3382
▁cậu	-8.33826
▁trúc	-8.33924
▁kỷ	-8.33926
▁D	-8.34115
▁Thậ	-8.34458
▁thúc	-8.34724
e	-8.34732
ầm	-8.34969
▁mối	-8.35256
▁Trung	-8.35484
ích	-8.35769
▁ma	-8.3591
▁ngữ	-8.36297
▁lí	-8.37099
▁ngồi	-8.37164
chia	-8.37526
▁sai	-8.37657
▁khắp	-8.37776
▁mẫu	-8.38057
▁trụ	-8.38083
▁thiên	-8.38132
▁hầu	-8.39038
▁tiết	-8.39438
▁đọc	-8.40519
Ở	-8.40864
▁lớp	-8.40959
▁tỉ	-8.41028
▁R	-8.41131
▁cửa	-8.41457
ể	-8.41551
▁5	-8.41622
▁tuần	-8.41629
▁S	-8.41684
▁bán	-8.41753
▁an	-8.41796
▁hiểm	-8.42165
▁phí	-8.42204
▁dạy	-8.42222
▁Là	-8.42502
▁vui	-8.42787
▁chương	-8.42856
▁chắn	-8.42915
▁suốt	-8.42919
▁4	-8.43417
▁ràng	-8.43612
▁khám	-8.44217
▁Sau	-8.44361
▁lâu	-8.44616
▁thí	-8.44737
▁Tr	-8.45117
▁chung	-8.45129
▁bàn	-8.4544
▁cha	-8.45665
▁khỏe	-8.45686
▁cung	-8.45746
▁sở	-8.46506
▁nhiệm	-8.46861
▁mo	-8.46878
▁khủng	-8.47053
▁nghi	-8.47097
▁mua	-8.47666
▁chạy	-8.47846
▁kiện	-8.47868
▁lo	-8.4844
▁buổi	-8.48447
ỗi	-8.48578
▁cu	-8.49043
▁vậ	-8.49135
▁lạ	-8.49617
▁nhập	-8.49816
hập	-8.50416
▁bóng	-8.50427
▁mù	-8.50546
▁chứ	-8.50581
g	-8.50743
▁xúc	-8.50856
▁Độ	-8.50889
▁vẽ	-8.51076
▁cánh	-8.51101
ận	-8.51229
▁trưởng	-8.51372
▁chuyên	-8.51748
▁ghi	-8.51781
▁Nh	-8.51822
▁Vâng	-8.52101
▁áp	-8.5241
▁cạnh	-8.5251
▁độc	-8.52617
▁sắc	-8.52947
▁xét	-8.53011
▁sẻ	-8.53075
▁xin	-8.53139
▁doanh	-8.53436
▁viện	-8.53464
▁băng	-8.53673
▁Th	-8.53735
▁hơi	-8.53998
▁mặc	-8.54085
▁hữu	-8.54171
▁ngạc	-8.5459
ào	-8.54887
▁cuốn	-8.54932
ĩ	-8.55488
▁bác	-8.55597
▁o	-8.55898
▁lã	-8.55906
▁hậu	-8.5598
▁phút	-8.5604
▁chỗ	-8.56094
▁tố	-8.56419
▁chịu	-8.56519
▁phi	-8.56611
▁châu	-8.5677
▁ngô	-8.56799
▁chụp	-8.56954
▁hạt	-8.5698
▁khăn	-8.57194
▁phức	-8.57391
▁Nên	-8.5769
▁Giờ	-8.57713
▁nạn	-8.57753
▁Cô	-8.57824
▁lựa	-8.57828
▁chống	-8.57836
▁to	-8.59737
▁nguy	-8.59907
▁thái	-8.5993
▁hề	-8.6037
▁hồi	-8.60724
▁tấm	-8.60793
▁phạm	-8.60821
▁xanh	-8.60984
ân	-8.61063
▁kê	-8.61135
▁tệ	-8.61256
▁Thực	-8.62183
▁chuẩn	-8.62204
▁tức	-8.62339
▁thi	-8.62389
▁cổ	-8.62533
▁xử	-8.62653
ý	-8.62956
▁Như	-8.63185
▁dò	-8.63308
▁đen	-8.63445
▁đau	-8.63826
▁ngôn	-8.64047
ương	-8.6442
▁K	-8.6449
▁sắp	-8.64631
▁khắc	-8.65109
▁Xin	-8.65316
▁Châu	-8.65318
▁dần	-8.65356
▁lạc	-8.65376
▁Sự	-8.65556
▁mơ	-8.65576
▁cư	-8.65704
▁lắng	-8.65785
▁ích	-8.65814
▁hứng	-8.66498
ẩy	-8.67076
ần	-8.6713
ằng	-8.67729
▁đội	-8.67964
▁nhiệt	-8.68188
▁ngàn	-8.68209
▁vượt	-8.68427
ầu	-8.68591
▁nghèo	-8.68792
▁tỷ	-8.68861
▁tổng	-8.68877
▁thách	-8.69069
▁thiếu	-8.69312
▁hạ	-8.69655
1	-8.69777
▁chữ	-8.70149
▁trai	-8.70172
▁hà	-8.7026
▁p	-8.70365
▁ngoại	-8.70389
▁vỗ	-8.70405
▁thất	-8.70436
▁Ta	-8.70536
▁New	-8.70606
▁hộ	-8.70797
▁chă	-8.7137
▁ban	-8.71385
▁nô	-8.71641
▁dương	-8.71709
▁mật	-8.71762
▁quý	-8.72026
▁dung	-8.72545
▁kính	-8.72722
▁khố	-8.72796
▁tàu	-8.73298
▁niệm	-8.73303
▁tù	-8.73472
▁dấu	-8.73512
▁lưu	-8.73562
▁cận	-8.73949
ối	-8.73984
▁tội	-8.74228
▁30	-8.7465
▁gử	-8.7483
▁sang	-8.74962
▁trực	-8.75352
▁nuôi	-8.75737
▁phúc	-8.75886
▁6	-8.7593
ọi	-8.75933
▁tòa	-8.76363
▁nhiêu	-8.76473
▁ô	-8.77226
▁khoản	-8.7747
▁chiều	-8.77534
▁khách	-8.77685
▁khổ	-8.77719
▁niề	-8.77818
▁kéo	-8.77861
▁100	-8.78038
▁cử	-8.78237
▁đấu	-8.78849
▁hô	-8.78946
▁tả	-8.78953
▁ẩn	-8.79185
▁trạ	-8.7954
▁họa	-8.79787
▁thủ	-8.80287
▁chữa	-8.80498
▁ph	-8.80844
▁mã	-8.80868
▁hòa	-8.81003
▁đột	-8.81414
▁nửa	-8.81539
▁quân	-8.82101
▁nhiễm	-8.82223
▁danh	-8.82244
▁50	-8.82474
▁may	-8.82975
▁trừ	-8.83473
▁ngược	-8.83804
▁xấu	-8.83846
ám	-8.83948
▁thê	-8.84102
▁đê	-8.84102
▁mắc	-8.84112
▁bạo	-8.84163
▁phóng	-8.84202
▁đóng	-8.8436
▁lĩnh	-8.8491
▁nội	-8.8497
▁lỗi	-8.84976
▁na	-8.84997
▁dây	-8.85306
▁đêm	-8.85375
ấy	-8.85453
▁rừng	-8.85545
▁hy	-8.85735
chấp	-8.86078
▁nỗi	-8.86137
▁bầu	-8.86146
▁tim	-8.86187
▁gi	-8.86528
▁thiện	-8.86741
▁Do	-8.86856
▁gồ	-8.86944
▁bại	-8.87122
▁sóc	-8.87402
▁niên	-8.87555
▁soát	-8.8797
▁nghiê	-8.88199
▁Tây	-8.88206
▁phong	-8.88221
▁quản	-8.88338
▁giết	-8.88718
▁nhờ	-8.88742
▁hoa	-8.88747
▁nghị	-8.89059
▁thẳng	-8.89127
▁Con	-8.89272
▁tắc	-8.89371
▁lắm	-8.89641
▁hoạch	-8.89762
▁ước	-8.8977
▁ho	-8.89813
▁tầng	-8.8991
í	-8.89948
▁kỉ	-8.89987
▁G	-8.90172
▁lái	-8.90244
▁du	-8.90253
▁thơ	-8.90529
rời	-8.91121
▁tiện	-8.91285
▁hại	-8.91338
▁gen	-8.91608
▁thấp	-8.91904
▁Âu	-8.92148
ắc	-8.92368
ẩn	-8.92565
▁tôn	-8.92939
▁khai	-8.93016
▁Trá	-8.93384
▁gốc	-8.93394
▁cắt	-8.93904
▁hát	-8.93933
hìn	-8.94227
▁trách	-8.94231
▁Nam	-8.94309
Với	-8.94448
▁đổ	-8.9446
▁sàng	-8.94722
▁giấy	-8.95183
▁đích	-8.9531
▁A	-8.95317
ường	-8.95515
▁tá	-8.95608
▁cân	-8.95814
▁Chỉ	-8.96277
▁rối	-8.9666
▁già	-8.96866
ắm	-8.97174
▁dàn	-8.97468
▁TED	-8.97475
▁vai	-8.97486
▁xuyên	-8.97592
▁khở	-8.98161
ch	-8.98288
▁dàng	-8.9861
▁15	-8.98895
▁đông	-8.99259
▁khiển	-8.99288
▁tha	-8.99354
▁gấp	-8.99407
▁Rồ	-8.99915
▁xếp	-9.00058
▁mê	-9.0007
▁nhảy	-9.00619
▁cáo	-9.00791
▁giây	-9.00976
▁thụ	-9.01036
▁ngờ	-9.01092
▁thải	-9.01401
▁lưới	-9.01402
▁dầu	-9.01963
▁ngắn	-9.02072
▁chiếu	-9.02139
▁Hiệ	-9.0216
▁bí	-9.022
▁ngăn	-9.02572
▁lao	-9.02601
▁quen	-9.02629
▁chuyến	-9.02771
▁pha	-9.02964
▁dừng	-9.03134
òn	-9.03403
▁đỡ	-9.03484
▁nhắc	-9.03584
▁đợi	-9.04055
▁Internet	-9.04309
▁tấn	-9.04336
▁bánh	-9.04549
▁Ph	-9.0464
▁hồ	-9.04652
▁bi	-9.04805
▁no	-9.05223
▁đem	-9.05257
ứa	-9.05336
▁lá	-9.05443
▁chiế	-9.05895
▁Cho	-9.06063
▁bày	-9.06094
▁đảm	-9.06139
▁nam	-9.06356
▁gắn	-9.06578
▁York	-9.06947
▁Tuy	-9.07013
▁Bà	-9.07267
▁19	-9.0811
▁Công	-9.08494
▁lồ	-9.08598
▁ngươ	-9.08757
▁cập	-9.08853
ên	-9.09163
▁phổ	-9.09303
▁sóng	-9.09337
▁góc	-9.09527
▁máu	-9.09692
▁chị	-9.09959
▁hấp	-9.10227
▁Ai	-9.10276
▁video	-9.10613
▁núi	-9.1078
▁sơ	-9.10959
▁hi	-9.11047
▁ổn	-9.11115
▁chủng	-9.11359
▁vĩ	-9.11411
▁thâ	-9.11449
▁qu	-9.12062
▁đỏ	-9.12107
▁siê	-9.12109
ục	-9.12132
▁hộp	-9.12545
▁điê	-9.12758
ù	-9.12778
▁bốn	-9.12779
▁đức	-9.12838
▁nặng	-9.12845
▁tín	-9.12937
▁tải	-9.12953
▁robot	-9.13505
▁Ch	-9.13811
▁đảo	-9.13854
▁phẫ	-9.14013
ễ	-9.1421
▁màn	-9.14376
▁buộc	-9.1448
▁đươ	-9.14503
▁trắng	-9.14758
▁Ngà	-9.14762
▁Bắc	-9.14873
▁hút	-9.15177
▁lộ	-9.15186
▁Được	-9.15412
▁loạn	-9.15866
▁7	-9.15927
▁mạch	-9.15999
▁khiế	-9.161
▁mấy	-9.16207
▁Từ	-9.16311
▁trùng	-9.16599
▁mảnh	-9.1711
▁sâ	-9.173
▁&#9	-9.17502
▁Nga	-9.17628
▁ti	-9.18322
▁uống	-9.18731
▁khuẩn	-9.18752
▁&#93;	-9.18901
▁40	-9.18942
▁tường	-9.18976
▁hoá	-9.19322
▁cũ	-9.19365
▁tộc	-9.19513
▁chỉnh	-9.19622
▁quyển	-9.19712
▁giàu	-9.1974
▁chờ	-9.19985
▁chứa	-9.20122
▁Hoa	-9.204
ếu	-9.20429
▁Thứ	-9.20497
▁áo	-9.20803
▁tảng	-9.2106
▁chim	-9.21288
▁ảo	-9.21312
▁thắng	-9.2135
▁chuột	-9.21355
▁vững	-9.21969
ôi	-9.22298
▁phận	-9.22419
▁lan	-9.22648
hảo	-9.23003
▁linh	-9.23054
▁Ba	-9.2311
▁hẳn	-9.2322
▁mềm	-9.23443
▁tô	-9.23595
▁thoả	-9.23692
▁luyện	-9.23856
▁khán	-9.23913
▁lạnh	-9.24036
▁đỉnh	-9.24073
▁bề	-9.24222
ấm	-9.24232
▁vơ	-9.24347
▁đe	-9.24502
▁chạm	-9.24508
▁tồi	-9.24785
▁mẽ	-9.25189
▁chóng	-9.25725
▁Chúa	-9.2582
▁ngủ	-9.25908
▁cháu	-9.26302
▁dõi	-9.26649
▁9	-9.26993
▁in	-9.27135
▁khái	-9.27327
ừng	-9.27454
▁ống	-9.27546
▁khuôn	-9.27697
▁giỏi	-9.27984
▁12	-9.28499
▁điên	-9.2867
▁Đâ	-9.29118
▁vốn	-9.29295
▁hỗ	-9.29379
âu	-9.2948
▁đè	-9.29639
▁lửa	-9.30213
▁hãi	-9.30716
ia	-9.30806
▁tờ	-9.30969
▁tri	-9.31049
▁sa	-9.31102
▁liệt	-9.31116
▁hủy	-9.31117
tái	-9.31144
▁kim	-9.3141
▁trì	-9.3147
▁trại	-9.31567
▁mắn	-9.3178
▁ủng	-9.31829
▁nhu	-9.31895
▁buồn	-9.3191
▁góp	-9.32014
▁dưỡng	-9.32026
▁mái	-9.3211
▁lầm	-9.3234
▁E	-9.32388
▁chảy	-9.32609
▁cỡ	-9.32629
▁miễn	-9.32712
▁Liệ	-9.32972
▁xương	-9.32993
▁8	-9.33083
▁ngọ	-9.33115
▁tuyến	-9.33188
▁phỏng	-9.33404
▁trận	-9.33476
▁nổ	-9.33559
▁quên	-9.33592
▁CA	-9.33798
▁sửa	-9.34052
▁mãi	-9.34108
▁nghỉ	-9.34333
Đúng	-9.34545
ảy	-9.34564
ông	-9.34601
▁trồng	-9.34826
▁vợ	-9.35057
▁cà	-9.35111
▁thoát	-9.35252
▁bang	-9.35393
▁rơi	-9.354
▁phối	-9.35902
▁Năm	-9.36273
▁biên	-9.36342
▁chà	-9.36738
▁món	-9.36835
▁X	-9.36857
ình	-9.37056
▁kha	-9.37442
▁kịch	-9.37721
▁môn	-9.37927
▁tốn	-9.38146
▁dặm	-9.38165
▁hảo	-9.38464
ẽ	-9.38594
▁nhé	-9.38955
▁bền	-9.39034
▁đă	-9.391
▁quần	-9.39284
▁bảng	-9.3934
▁đâ	-9.39361
ắp	-9.39421
ung	-9.39549
▁đương	-9.39647
▁tiề	-9.39769
▁I	-9.398
▁dậy	-9.3989
à	-9.40104
▁lẫn	-9.40206
▁lương	-9.40594
▁gió	-9.40644
▁diệu	-9.40644
▁tách	-9.40719
▁đà	-9.40746
▁tổn	-9.40767
▁Kỳ	-9.40889
▁điệu	-9.409
àng	-9.41441
la	-9.41595
▁hoảng	-9.41678
▁tươ	-9.41781
▁sớm	-9.41898
▁Đại	-9.41942
▁bọn	-9.4205
▁tiểu	-9.422
hiển	-9.42207
▁dĩ	-9.42256
óc	-9.42314
▁hào	-9.42322
▁bật	-9.42406
▁60	-9.42512
▁chấm	-9.42713
▁lâ	-9.43218
▁ngừng	-9.43247
▁tán	-9.43474
▁chậm	-9.43495
▁sông	-9.43582
▁bè	-9.43583
▁80	-9.43592
▁đố	-9.43628
▁viê	-9.43906
▁phiê	-9.43932
▁khích	-9.4403
trao	-9.4423
▁chó	-9.44322
▁tàn	-9.44385
er	-9.44607
▁vân	-9.44651
▁khứ	-9.44735
ữa	-9.44909
ước	-9.44956
▁11	-9.45018
ạo	-9.45054
▁suất	-9.45217
▁ong	-9.45349
▁tỏ	-9.45462
▁Đất	-9.45507
k	-9.45703
▁Hồi	-9.45825
2	-9.45911
▁thuận	-9.46164
▁lỗ	-9.46262
▁hôn	-9.46263
S	-9.46297
▁thiệu	-9.46377
▁dường	-9.46642
▁đừng	-9.46667
▁dã	-9.47039
▁sót	-9.47209
▁đẳng	-9.47367
▁voi	-9.47517
▁cầm	-9.47524
▁sánh	-9.47623
▁thước	-9.47671
▁vê	-9.4769
▁giọng	-9.47766
▁sạch	-9.47935
ức	-9.48002
▁điển	-9.4819
▁bờ	-9.48248
▁18	-9.48464
▁Tha	-9.48514
▁Đông	-9.48607
▁Mặ	-9.48784
▁200	-9.48804
▁phấn	-9.49055
▁nóng	-9.49459
▁Gi	-9.49492
▁khuyế	-9.50009
ũng	-9.50155
▁thưởng	-9.50659
▁Mà	-9.50675
▁lặp	-9.50939
▁viễn	-9.51476
▁vỡ	-9.51785
▁Google	-9.52026
▁mời	-9.52052
▁Va	-9.52053
▁ha	-9.52128
▁Lú	-9.52152
▁khô	-9.52207
▁chặn	-9.52307
▁trưng	-9.52353
l	-9.52618
hiến	-9.52823
▁quỹ	-9.52875
▁né	-9.52957
▁tắt	-9.53438
▁J	-9.53872
▁quang	-9.53949
▁Đức	-9.53974
D	-9.54292
▁Â	-9.54414
▁tật	-9.54583
▁web	-9.54923
▁nghề	-9.55164
▁ghép	-9.55456
▁thăm	-9.55674
▁nhắn	-9.5574
▁chồ	-9.56167
▁lũ	-9.5619
▁tai	-9.56455
▁vế	-9.56496
▁vâ	-9.56565
▁nâ	-9.56747
▁khóa	-9.56935
▁kém	-9.56937
▁rút	-9.57078
▁bơi	-9.57347
▁kí	-9.57384
▁nguyện	-9.57511
▁Hay	-9.57645
▁Khán	-9.57784
▁tròn	-9.57785
▁đoàn	-9.57804
▁hổ	-9.58097
▁giơ	-9.58111
ền	-9.5819
▁lối	-9.58266
▁Giá	-9.58284
▁tụ	-9.58617
ề	-9.5887
▁25	-9.58932
▁hoang	-9.59008
▁biê	-9.59054
▁thuyền	-9.59192
▁đuổi	-9.59312
▁nỗ	-9.59374
▁túi	-9.59667
ệt	-9.59689
▁chặt	-9.60816
▁kiệm	-9.60847
▁ưu	-9.61109
▁mỏ	-9.61518
iệc	-9.61587
eo	-9.61825
▁Theo	-9.61856
▁ngại	-9.62405
r	-9.62682
▁Cuố	-9.62725
▁lục	-9.62752
õ	-9.6298
son	-9.63142
▁hùng	-9.63325
▁mại	-9.63747
▁Dù	-9.63864
▁thù	-9.63957
▁nhẹ	-9.6407
▁70	-9.64155
▁ơ	-9.64162
▁Hai	-9.64422
▁kho	-9.64489
▁thảm	-9.64506
▁gâ	-9.64669
d	-9.65106
▁loạt	-9.65199
▁khẩu	-9.65519
▁cứng	-9.65545
▁trống	-9.65564
▁Câ	-9.65888
▁thịt	-9.65926
▁cỏ	-9.6625
ảng	-9.66255
▁ro	-9.66316
▁sá	-9.66753
▁sô	-9.66802
▁hố	-9.66857
▁phê	-9.67156
ỡ	-9.67256
▁móc	-9.67562
▁Qu	-9.67641
▁lọc	-9.67849
▁mưa	-9.67886
▁Bản	-9.68377
▁thỏa	-9.68491
▁thở	-9.68497
▁xứ	-9.68688
▁bom	-9.68997
▁thủy	-9.69047
▁đế	-9.69243
▁thang	-9.69362
▁vỏ	-9.69466
▁se	-9.69754
▁dọa	-9.69788
▁mạc	-9.70058
▁giấc	-9.70118
▁HIV	-9.70118
▁đam	-9.70259
▁thận	-9.70316
▁Cậ	-9.70419
▁ghế	-9.70457
▁Mẹ	-9.70457
▁điệp	-9.70467
▁lược	-9.70482
ặc	-9.70523
▁thác	-9.70718
▁trữ	-9.70801
uộc	-9.70938
▁90	-9.7115
▁P	-9.71232
▁trào	-9.71626
xoay	-9.71765
▁đạp	-9.71838
▁ngang	-9.72408
▁Pháp	-9.72521
ống	-9.72563
ọc	-9.72758
▁ngoái	-9.72844
▁san	-9.73171
▁chào	-9.73439
▁ư	-9.73541
iện	-9.73542
▁Hỏa	-9.73555
▁đắ	-9.73649
▁trích	-9.7376
▁súng	-9.73943
▁vong	-9.73995
▁can	-9.74104
▁đu	-9.7419
gợi	-9.74235
▁Sao	-9.74269
ã	-9.74304
▁thai	-9.74429
▁đập	-9.75002
▁hu	-9.75035
▁Nhật	-9.75291
▁đùa	-9.7604
▁bò	-9.76312
▁vú	-9.76427
▁cờ	-9.76428
▁đò	-9.76486
▁lặng	-9.76731
▁nhuận	-9.7675
▁rẻ	-9.76799
êu	-9.77007
▁sổ	-9.77082
▁Bộ	-9.77147
▁mừng	-9.77187
.000	-9.77313
▁Em	-9.77387
▁nhật	-9.77438
▁mét	-9.77597
▁Thái	-9.77631
▁rác	-9.77667
▁dư	-9.77681
oặc	-9.77706
▁huống	-9.77807
▁DNA	-9.78167
▁đựng	-9.782
▁hè	-9.78586
ặp	-9.78805
▁bối	-9.78881
▁Liê	-9.79033
,000	-9.79132
iếc	-9.79199
▁diệt	-9.79326
▁chán	-9.7983
rước	-9.80044
ởi	-9.80075
▁săn	-9.80081
▁thả	-9.80171
▁Phả	-9.8033
▁Tổ	-9.80386
ái	-9.80387
ẫn	-9.80614
▁đói	-9.8085
▁tiêm	-9.81001
▁cam	-9.81291
ịp	-9.81531
▁hư	-9.81946
▁thạch	-9.82284
▁yên	-9.82401
▁họp	-9.82505
▁khung	-9.82565
▁nơ	-9.82626
an	-9.82759
▁ác	-9.83263
▁hắn	-9.83399
▁mực	-9.83438
▁trầm	-9.83551
▁lơ	-9.8357
▁giận	-9.83581
▁nhựa	-9.83791
óm	-9.83839
ơ	-9.84025
▁tàng	-9.84026
▁hỗn	-9.84059
ồng	-9.8415
▁bắn	-9.8417
ảo	-9.84331
▁thờ	-9.84552
uyên	-9.84815
▁hoàng	-9.8485
▁vườn	-9.8495
iền	-9.85034
▁bậc	-9.85337
▁rủ	-9.8537
▁tóc	-9.85522
▁Hà	-9.85611
▁heo	-9.86153
▁tràn	-9.86394
iêu	-9.86512
▁hiê	-9.86514
▁hiếm	-9.86921
▁lãng	-9.86972
▁ngón	-9.86997
▁thao	-9.87106
▁Afghanistan	-9.87313
▁Y	-9.87372
▁cãi	-9.87374
ấp	-9.87394
hợ	-9.87513
▁tị	-9.87801
us	-9.87867
▁dị	-9.87939
▁phô	-9.88036
▁F	-9.8856
▁21	-9.88838
▁cục	-9.88961
▁song	-9.8912
▁bã	-9.89764
b	-9.89999
▁béo	-9.90065
▁liền	-9.90207
es	-9.9025
0,000	-9.90269
▁à	-9.9053
▁ức	-9.90543
▁khỉ	-9.90553
ơn	-9.90721
▁gương	-9.90747
▁truy	-9.91028
rus	-9.91049
▁Hô	-9.91053
▁nhâ	-9.91325
▁miế	-9.91418
▁hã	-9.91442
▁ninh	-9.9152
hẩm	-9.91787
▁tỉnh	-9.91823
▁ngầm	-9.92148
▁tuệ	-9.92223
▁ngài	-9.92374
hắc	-9.92432
▁lù	-9.92623
▁câ	-9.92732
▁lành	-9.92806
▁giảng	-9.93096
▁phán	-9.93179
ũ	-9.93436
▁sụp	-9.93494
huê	-9.93575
ẫu	-9.93606
▁16	-9.93852
▁W	-9.93896
▁nha	-9.9432
▁khấu	-9.94366
rên	-9.94368
▁Kế	-9.9455
▁phiế	-9.94696
▁cột	-9.947
▁chép	-9.94802
in	-9.94893
▁gỗ	-9.94902
▁hoà	-9.94971
▁phó	-9.95016
▁John	-9.95026
en	-9.95097
▁tâ	-9.95116
▁mây	-9.95241
▁lô	-9.95343
áp	-9.95374
▁che	-9.95432
hiếp	-9.95642
▁xạ	-9.95716
ập	-9.95811
▁hương	-9.95849
▁tơ	-9.96012
▁đài	-9.96145
▁cú	-9.96361
▁thiệp	-9.96373
▁chối	-9.9678
▁đống	-9.96929
K	-9.97178
▁mai	-9.97249
▁ghét	-9.97253
▁thô	-9.97324
▁mộ	-9.97364
▁rượu	-9.97395
▁14	-9.97406
▁ấm	-9.97418
▁ly	-9.97688
▁The	-9.97797
▁Hội	-9.97841
▁sỹ	-9.97851
▁ngưỡng	-9.97939
▁túc	-9.98004
▁cản	-9.98257
ưởng	-9.98287
▁chá	-9.98579
▁côn	-9.98604
▁căng	-9.98648
huyện	-9.98839
▁thiểu	-9.9905
▁nhạ	-9.99066
ười	-9.99181
▁bơ	-9.9926
▁mò	-9.9938
▁lộn	-9.99424
hạc	-9.99638
ạch	-9.99693
▁chốt	-10.0008
▁đắn	-10.0067
▁ạ	-10.0095
▁hứa	-10.01
▁dọc	-10.0104
▁Ban	-10.0119
uyển	-10.0128
▁mũi	-10.0131
▁khiếp	-10.0135
▁huyết	-10.0157
▁tiê	-10.0169
00	-10.019
▁xong	-10.0196
▁Chris	-10.0226
▁bắc	-10.0248
▁vâng	-10.0266
▁bạc	-10.0277
▁tuyết	-10.0284
▁nút	-10.0291
▁nhỉ	-10.0318
ét	-10.0326
▁miệng	-10.033
▁dày	-10.0332
▁xưa	-10.0382
▁hồn	-10.0388
▁Hy	-10.0407
▁cong	-10.0415
ideo	-10.0424
ton	-10.0443
▁nhiê	-10.0461
▁triế	-10.0476
z	-10.0514
▁Cơ	-10.0542
▁bo	-10.0578
▁buôn	-10.0581
▁lưng	-10.0635
▁bê	-10.0635
▁tê	-10.064
▁mát	-10.0642
▁kiê	-10.0646
▁tò	-10.0683
ưa	-10.0685
ra	-10.0685
al	-10.0692
leo	-10.0725
▁ră	-10.0726
▁Gia	-10.0736
▁lẻ	-10.075
▁cướ	-10.0757
▁Chu	-10.0771
▁Thụ	-10.0785
▁ơi	-10.0816
▁sốt	-10.0852
▁California	-10.0859
hính	-10.0862
▁Iran	-10.0863
▁2000	-10.0871
▁bọ	-10.0872
▁ngẫ	-10.0873
▁bão	-10.0877
▁chợ	-10.0901
ở	-10.0904
▁thầy	-10.0908
▁đĩa	-10.0908
▁cát	-10.0951
▁táo	-10.0954
▁thuế	-10.0958
▁rồ	-10.0959
▁huy	-10.0966
▁khóc	-10.0978
ính	-10.0985
▁TV	-10.1018
▁cường	-10.1029
v	-10.1039
▁vò	-10.1041
▁La	-10.1071
ron	-10.1085
▁San	-10.1091
▁lò	-10.1106
▁protein	-10.1109
N	-10.1109
▁tủ	-10.1113
▁24	-10.1114
▁dâm	-10.1126
ách	-10.1127
hỉnh	-10.1128
▁email	-10.116
▁Cực	-10.1166
▁lừa	-10.1194
▁bú	-10.1203
▁Thờ	-10.1254
▁quê	-10.1274
▁ga	-10.1276
▁tung	-10.1292
▁mãn	-10.1295
▁Brazil	-10.1313
▁đậu	-10.1313
▁Lan	-10.1314
▁gọn	-10.1337
▁cỗ	-10.1337
▁bạch	-10.1344
le	-10.135
▁Al	-10.1364
▁đớn	-10.1365
▁rô	-10.1378
▁mâ	-10.1398
man	-10.1402
▁ép	-10.1409
▁Facebook	-10.1417
▁tĩnh	-10.1423
▁nho	-10.1436
▁nét	-10.1438
▁gà	-10.1441
▁răng	-10.1442
▁trươ	-10.1442
▁Ho	-10.1454
▁gấu	-10.1467
▁trốn	-10.1468
▁thám	-10.148
▁thánh	-10.1495
▁lậ	-10.1496
▁chúa	-10.1502
òng	-10.1515
▁trộn	-10.1522
▁hẹn	-10.1522
▁vuông	-10.1523
▁cấm	-10.1525
▁ngư	-10.1526
▁trăng	-10.1533
▁ngu	-10.1563
▁feet	-10.1575
▁hằng	-10.1577
▁trứng	-10.1577
▁mèo	-10.1579
▁O	-10.158
▁lõi	-10.1583
▁17	-10.1596
▁quán	-10.1597
▁ngã	-10.1606
▁bùng	-10.1608
▁mẩ	-10.1624
▁dáng	-10.1632
▁thọ	-10.1645
▁gã	-10.1678
▁Giả	-10.1679
▁cuô	-10.1693
▁nhũng	-10.1695
▁tí	-10.1738
▁xóa	-10.1741
▁rét	-10.177
▁truyện	-10.179
▁phổi	-10.1791
▁Dương	-10.1801
▁chìm	-10.1803
ời	-10.1815
▁kẹ	-10.1838
▁than	-10.1843
▁OK	-10.1844
▁nợ	-10.1849
▁ngựa	-10.185
▁Nhân	-10.1857
▁vắc	-10.186
C	-10.1884
▁lặn	-10.1896
▁ADN	-10.19
▁loa	-10.19
▁kiên	-10.1924
▁ổ	-10.1932
▁quyê	-10.1942
▁hoại	-10.204
lo	-10.2041
▁hang	-10.2043
ụ	-10.2056
▁phạt	-10.2064
▁ruồi	-10.2066
▁mập	-10.2072
▁ko	-10.2075
▁trạm	-10.2081
on	-10.21
▁dính	-10.2125
hỏng	-10.2126
▁bă	-10.2137
▁bổ	-10.215
land	-10.2161
▁Nha	-10.2184
▁bô	-10.222
▁rưỡi	-10.2233
▁mờ	-10.2237
▁giày	-10.2254
▁500	-10.226
▁Số	-10.2271
▁sàn	-10.2271
▁dược	-10.2294
▁trơ	-10.2305
▁London	-10.2347
▁Khoản	-10.2348
▁giường	-10.2352
▁trú	-10.2357
▁lệch	-10.2358
▁CO	-10.2359
▁mi	-10.2399
▁0	-10.2416
▁Ok	-10.2425
▁cự	-10.2479
▁su	-10.2515
ép	-10.2517
▁lỏng	-10.2524
hiệp	-10.2536
▁lông	-10.2541
▁300	-10.2541
huyền	-10.2556
ịch	-10.2566
▁Cứ	-10.2567
▁bông	-10.2567
▁dán	-10.2569
▁dứt	-10.2579
▁tháp	-10.2583
▁mì	-10.259
▁pin	-10.2651
▁chừ	-10.2668
▁13	-10.2689
▁toa	-10.2698
▁tuyê	-10.2701
▁Kinh	-10.2703
▁trần	-10.2714
▁râ	-10.273
▁lão	-10.274
▁Ng	-10.2759
▁Israel	-10.2759
▁lu	-10.2795
▁mẻ	-10.281
▁Bố	-10.2822
▁tre	-10.2834
▁Cha	-10.2848
▁thổi	-10.2856
is	-10.2857
▁tuy	-10.2862
▁tám	-10.2913
▁Dự	-10.2928
▁Mô	-10.2931
▁bụng	-10.2934
▁khớp	-10.294
▁đới	-10.2944
▁thoá	-10.296
▁thiê	-10.2963
▁ngốc	-10.3004
▁Cùng	-10.3006
èn	-10.304
▁dạ	-10.3042
▁thấ	-10.3059
ạm	-10.3068
▁ngâ	-10.3102
▁trục	-10.3111
▁hầm	-10.3124
▁gói	-10.3124
▁mệnh	-10.3133
▁quái	-10.3139
▁chiê	-10.3141
▁nở	-10.3142
hăng	-10.3151
▁cụm	-10.3164
▁khoan	-10.3165
▁bó	-10.3177
ma	-10.3192
▁pho	-10.3208
iếng	-10.3286
ực	-10.3292
▁Ca	-10.3295
ưỡng	-10.3297
▁muỗi	-10.3309
▁hạng	-10.331
▁carbon	-10.3312
▁hòn	-10.3316
ăng	-10.3319
▁trà	-10.3323
▁xóm	-10.3323
▁Chín	-10.3365
▁bụ	-10.3367
▁David	-10.3372
li	-10.3396
▁Mĩ	-10.3404
ược	-10.3418
ùng	-10.3419
▁quà	-10.342
ướng	-10.3431
ỷ	-10.3446
▁túy	-10.3448
▁chư	-10.3461
▁tu	-10.3515
ô	-10.3524
ine	-10.3563
▁tặng	-10.3564
ỉ	-10.3568
▁hê	-10.3569
▁phì	-10.3571
▁Ma	-10.3578
x	-10.3611
▁tiệc	-10.364
▁Hệ	-10.3641
▁Nghĩ	-10.3641
▁bá	-10.3645
ới	-10.3651
hử	-10.3656
▁nhi	-10.3659
▁Cộ	-10.3681
▁đả	-10.3696
mera	-10.375
▁nê	-10.3751
▁Canada	-10.3763
▁sữa	-10.3772
inh	-10.3787
▁hàm	-10.3791
▁phú	-10.3849
▁h	-10.3877
▁nga	-10.3917
ăm	-10.392
▁Hơ	-10.394
▁cốc	-10.401
▁GDP	-10.4028
▁kèm	-10.4033
▁trưa	-10.4037
A	-10.4048
▁ngon	-10.4063
▁muô	-10.4069
▁đạn	-10.4073
0.000	-10.4079
ua	-10.408
▁li	-10.4096
▁kh	-10.41
▁chuyê	-10.4126
▁thùng	-10.4128
▁khuyê	-10.4156
▁Washington	-10.4164
▁Tin	-10.4168
▁quí	-10.4169
▁tây	-10.4173
▁Chủ	-10.4184
▁the	-10.4189
▁Gầ	-10.4192
▁sứ	-10.4211
▁thiệ	-10.4214
▁thính	-10.4215
▁Mexico	-10.4233
▁lướt	-10.4233
▁Iraq	-10.4234
▁hồng	-10.4245
▁kín	-10.4252
▁ồn	-10.4273
el	-10.4285
▁Lầ	-10.4313
▁bếp	-10.4318
ghe	-10.4329
▁khôn	-10.433
▁game	-10.4369
hải	-10.4374
▁đực	-10.4382
▁Cập	-10.4393
▁rung	-10.4409
ri	-10.4411
T	-10.4424
▁Twitter	-10.4443
▁hước	-10.4444
▁hạch	-10.4451
▁PM	-10.4453
▁lăn	-10.4456
▁nhấ	-10.4461
▁trượ	-10.4462
M	-10.447
▁Hó	-10.4485
quãng	-10.4515
▁mỹ	-10.452
▁thuẫn	-10.4523
▁vua	-10.4533
▁rãi	-10.455
▁cậy	-10.4585
▁châm	-10.4613
▁phu	-10.4618
▁chăng	-10.465
▁Kenya	-10.4657
▁kiệt	-10.4662
▁bớt	-10.4667
▁Điển	-10.4668
▁Quan	-10.467
▁đoan	-10.4675
ày	-10.469
▁vải	-10.4693
▁dắ	-10.4714
▁Ôi	-10.4748
▁tạ	-10.4753
▁Quá	-10.4783
▁Bill	-10.4785
▁Hàn	-10.4807
ỹ	-10.4847
▁im	-10.487
▁Việ	-10.4882
▁150	-10.489
▁tân	-10.4905
▁say	-10.4928
▁ngắm	-10.4949
▁khoẻ	-10.4957
▁400	-10.4967
▁kịp	-10.4971
▁đáo	-10.4977
▁vở	-10.4978
▁ngập	-10.4982
ài	-10.4985
ưới	-10.4996
da	-10.5
ợp	-10.5007
▁vây	-10.5011
▁Rập	-10.5032
as	-10.5046
▁tướng	-10.507
▁AIDS	-10.51
▁Khá	-10.5117
▁Thiên	-10.5133
▁Viện	-10.5168
▁Phụ	-10.5172
▁xăng	-10.518
▁Lạp	-10.5181
▁Los	-10.5193
▁ngoan	-10.5197
▁trán	-10.5204
▁Má	-10.5204
▁mỏi	-10.5236
▁cúm	-10.5237
ải	-10.5248
▁sung	-10.525
▁phẳng	-10.5275
ụng	-10.5284
▁nhãn	-10.5286
▁Vi	-10.5289
▁gene	-10.5301
▁Đa	-10.5315
▁35	-10.5318
▁lấp	-10.5336
▁nhở	-10.5339
▁Thư	-10.5345
▁lượt	-10.5364
▁tro	-10.538
▁George	-10.5407
▁nghiện	-10.5407
▁phái	-10.5413
ệnh	-10.5418
▁tháo	-10.5425
▁mệ	-10.5436
▁mũ	-10.5441
Toàn	-10.5447
▁â	-10.5464
▁No	-10.5465
▁thôn	-10.5476
▁dọn	-10.5482
▁rắn	-10.5483
▁Oh	-10.5488
ùa	-10.55
▁cuộ	-10.5511
I	-10.5561
▁Einstein	-10.5563
▁đuôi	-10.5566
ơi	-10.5569
▁1000	-10.5573
▁mă	-10.5583
ượng	-10.5668
quang	-10.57
ê	-10.572
or	-10.5735
▁chước	-10.5736
▁sốc	-10.5755
ed	-10.5778
▁phiề	-10.58
▁hỏa	-10.5804
hăm	-10.5826
E	-10.5827
▁cacbon	-10.5856
▁nhị	-10.587
▁Mo	-10.5871
êm	-10.5873
▁buýt	-10.5886
▁Di	-10.5892
▁Thông	-10.5893
▁nọ	-10.5907
ley	-10.5955
ie	-10.5985
▁75	-10.5987
▁ngực	-10.5989
▁bâ	-10.5994
▁tắm	-10.5994
▁thổ	-10.5995
▁000	-10.5999
▁Bao	-10.6003
▁Khoa	-10.6008
▁go	-10.6024
▁thượ	-10.6034
▁củ	-10.6054
▁sơn	-10.6076
▁ron	-10.609
▁e	-10.6115
▁Thiế	-10.6117
▁sôi	-10.6126
▁Nigeria	-10.6133
ỏ	-10.6135
▁Tuyệt	-10.6136
▁mọc	-10.6151
▁ngừ	-10.6156
áo	-10.6162
▁Tự	-10.6171
▁trá	-10.6181
▁Ha	-10.6184
▁mồi	-10.6192
G	-10.6195
▁mầm	-10.6195
ghê	-10.6195
▁Amazon	-10.6217
▁sạn	-10.6218
▁nhện	-10.6219
▁chăn	-10.6223
▁đẻ	-10.6227
▁rửa	-10.6232
R	-10.625
▁sắ	-10.6261
▁hẹp	-10.6302
▁múa	-10.6311
▁Na	-10.6327
ủ	-10.6375
wood	-10.6387
▁2008	-10.6387
▁2010	-10.6387
di	-10.6389
iết	-10.6398
▁hưu	-10.6429
▁mồ	-10.6447
▁đai	-10.6457
▁Ngài	-10.6462
▁Paul	-10.6463
▁khơi	-10.6479
▁gan	-10.6481
▁cuồng	-10.65
▁Kh	-10.652
ếm	-10.6532
▁Xe	-10.6535
▁nhặt	-10.656
▁cạn	-10.6563
hối	-10.6563
ar	-10.6575
▁dả	-10.6608
▁Co	-10.6624
▁Thu	-10.6625
▁ruộ	-10.664
▁45	-10.6643
▁manh	-10.6649
▁thép	-10.6652
L	-10.669
Nơi	-10.6717
▁ngộ	-10.6718
▁internet	-10.6736
chìa	-10.6738
▁Hình	-10.6748
▁lưỡng	-10.6777
▁xám	-10.6779
uồng	-10.6792
▁hé	-10.6794
▁vu	-10.6796
▁Chú	-10.6797
▁Se	-10.6819
▁phe	-10.6834
▁quát	-10.687
▁cụt	-10.6896
▁muộn	-10.6916
▁slide	-10.6916
▁Thổ	-10.6916
▁thua	-10.6923
▁chở	-10.6924
▁tần	-10.6926
se	-10.695
▁Lạ	-10.696
▁Quy	-10.6978
▁chả	-10.6979
▁Charles	-10.6998
▁trộm	-10.7008
▁lươ	-10.7012
▁giã	-10.7017
▁nướng	-10.7031
▁Chà	-10.7044
▁chín	-10.7086
▁bột	-10.7094
▁ốm	-10.7098
úng	-10.7103
▁cối	-10.7119
ghệ	-10.7124
▁hung	-10.7126
▁May	-10.7132
ẹp	-10.7143
ăn	-10.715
▁phâ	-10.7151
▁dốc	-10.7153
▁đồi	-10.7154
▁ráp	-10.718
▁lọ	-10.719
▁Angeles	-10.7191
▁nắng	-10.7191
▁Ben	-10.7192
▁mổ	-10.7193
▁khúc	-10.7193
▁ngừa	-10.7194
▁địch	-10.7204
▁vươn	-10.721
ice	-10.722
amp	-10.7236
▁vé	-10.7255
▁gãy	-10.7261
▁Jame	-10.7279
▁22	-10.7292
▁Sinh	-10.7292
▁Chào	-10.7302
iểm	-10.732
▁giọ	-10.7334
▁nư	-10.7345
▁dơi	-10.7392
V	-10.7402
uốt	-10.7404
▁Chiế	-10.7415
ếch	-10.7417
▁non	-10.7443
▁dồ	-10.7471
▁chôn	-10.7475
èo	-10.7475
▁cừu	-10.7479
▁vẹn	-10.748
▁blog	-10.7481
▁nốt	-10.7481
▁Loà	-10.7501
ếp	-10.7511
▁cắm	-10.7512
▁Su	-10.7524
▁Ra	-10.753
▁Ngâ	-10.7542
▁Sa	-10.7549
▁hò	-10.7555
▁NASA	-10.757
▁Francisco	-10.757
▁dâ	-10.7573
▁Thượ	-10.7574
▁Tốt	-10.7574
f	-10.7574
▁Quả	-10.7577
▁Loạ	-10.7588
▁hả	-10.7611
▁99	-10.7617
hờ	-10.7636
▁hoạ	-10.7641
▁lận	-10.7648
▁Darwin	-10.7667
▁Anderson	-10.7667
▁đạc	-10.7668
▁Tra	-10.7686
▁mạn	-10.769
▁lụ	-10.7719
▁hươ	-10.7727
úc	-10.7735
O	-10.7739
▁Obama	-10.7765
▁Pakistan	-10.7765
▁vượng	-10.7772
09	-10.7804
▁km	-10.7813
uân	-10.7824
▁Bắ	-10.7829
ội	-10.7853
▁An	-10.786
▁dẻo	-10.7865
▁of	-10.7878
▁dạo	-10.7894
▁phun	-10.791
▁ồ	-10.7927
▁lũng	-10.7933
▁Michael	-10.7946
iệm	-10.7949
▁MIT	-10.7964
ore	-10.7978
▁xíu	-10.798
▁cương	-10.799
▁đỗ	-10.7999
▁xôi	-10.8013
▁ngụ	-10.8014
▁Bang	-10.8019
ồi	-10.8042
ỗng	-10.8049
▁Ngoà	-10.8065
▁Richard	-10.8066
▁lánh	-10.8082
út	-10.8082
▁bìa	-10.8087
▁bẩn	-10.809
▁đẽ	-10.8098
ão	-10.8116
▁toà	-10.814
▁bắp	-10.8145
▁Tiến	-10.8152
▁gián	-10.8164
▁logic	-10.8168
▁nghiệt	-10.8175
▁khói	-10.8193
▁lờ	-10.8218
ad	-10.8232
▁Re	-10.8232
▁Tom	-10.8243
▁ki	-10.825
▁miê	-10.8252
ạng	-10.8271
▁Hi	-10.8274
▁dê	-10.8276
20	-10.8284
▁phác	-10.8338
▁GPS	-10.8375
▁vạch	-10.8385
ị	-10.8442
ạp	-10.8443
▁radio	-10.848
▁dội	-10.8485
▁oxy	-10.8488
de	-10.8508
▁hụ	-10.851
▁đợ	-10.8543
▁bư	-10.8562
▁lợn	-10.8586
▁nản	-10.8586
▁gũi	-10.8586
▁nạ	-10.859
▁mộng	-10.8593
os	-10.8606
▁dũ	-10.8606
▁mượ	-10.8612
▁lư	-10.8616
▁nát	-10.8617
òi	-10.8622
▁23	-10.8638
▁lát	-10.8649
▁ẩm	-10.8694
▁Syria	-10.8694
omas	-10.8747
▁tím	-10.8756
▁Alzhe	-10.8802
ro	-10.8803
W	-10.882
▁Le	-10.8828
▁tông	-10.8834
H	-10.8835
imer	-10.8848
ce	-10.8859
B	-10.8871
▁cắp	-10.8903
▁Boston	-10.8912
▁iPhone	-10.8913
▁ngẩn	-10.8915
▁súc	-10.8918
3	-10.8919
▁mòn	-10.8924
▁lỡ	-10.8925
▁sáo	-10.8943
▁tiễn	-10.8944
▁Steve	-10.8961
▁me	-10.8967
▁nhạt	-10.8973
▁Bác	-10.8974
BG	-10.8991
▁men	-10.9005
▁Ar	-10.9006
▁mư	-10.9012
ói	-10.9017
▁website	-10.9023
▁mỉ	-10.9035
▁nano	-10.9036
▁nề	-10.9047
▁vá	-10.9049
▁Thá	-10.9054
▁khoáng	-10.9067
▁Nghiê	-10.9069
▁27	-10.9074
coi	-10.9124
▁Frank	-10.9135
▁2007	-10.9136
▁Nguyên	-10.9137
▁Times	-10.9138
▁chẽ	-10.9156
▁rỗng	-10.9173
iếm	-10.9186
▁thó	-10.9188
com	-10.9193
ow	-10.9209
4	-10.9213
▁cọ	-10.9228
▁sọ	-10.9245
▁nàn	-10.9248
▁bách	-10.9265
▁chổi	-10.9266
▁Đô	-10.9273
▁Chi	-10.9278
lin	-10.9293
▁and	-10.93
▁chù	-10.9312
▁lưỡ	-10.932
▁Điện	-10.9329
▁Chá	-10.933
▁Ngô	-10.9359
▁khiê	-10.9368
▁Sahara	-10.9369
xi	-10.9372
▁huynh	-10.9384
ẫy	-10.9389
9	-10.9406
▁Tư	-10.9418
hận	-10.9425
ờ	-10.9443
um	-10.9469
▁Chưa	-10.9483
▁Qua	-10.9488
ba	-10.949
▁xoá	-10.9494
▁Da	-10.9496
▁Phá	-10.9505
▁soạ	-10.9516
▁Luậ	-10.9545
▁Ki	-10.9546
▁he	-10.9552
▁trù	-10.9575
▁Giọ	-10.958
▁xá	-10.9585
ne	-10.9591
▁1990	-10.9599
▁gác	-10.9601
▁võ	-10.9616
P	-10.968
▁Thê	-10.9696
▁lân	-10.9697
hói	-10.9699
▁Jim	-10.9718
▁khéo	-10.9723
▁dở	-10.9728
▁lều	-10.9731
▁nghê	-10.9733
▁mó	-10.9756
▁thẳ	-10.9793
▁rũ	-10.9803
▁giậ	-10.9806
▁vứ	-10.9818
▁Rwanda	-10.9838
▁piano	-10.9838
▁Haiti	-10.9842
▁đệ	-10.9844
▁Dan	-10.9922
▁gố	-10.9953
▁2011	-10.996
▁Ebola	-10.996
▁muối	-10.9966
▁lúa	-10.9967
▁Hải	-10.9969
▁bể	-10.997
▁xí	-10.9989
xin	-11.002
▁Man	-11.0033
▁vụn	-11.0053
▁qui	-11.0075
▁khẩn	-11.0086
▁chuồn	-11.01
▁Mary	-11.0103
co	-11.0107
▁65	-11.0128
Lấy	-11.0188
▁bia	-11.0198
▁Adam	-11.0208
▁2005	-11.0209
▁ngớ	-11.0215
▁Đồ	-11.0234
▁ham	-11.0241
ữ	-11.0247
▁de	-11.0258
▁Bâ	-11.0261
▁ve	-11.0276
ler	-11.0298
▁lê	-11.0301
▁Holly	-11.0337
ìa	-11.0341
▁mạ	-11.0353
ard	-11.0363
▁ván	-11.0371
▁vả	-11.0382
ủy	-11.0406
▁Ghana	-11.0463
▁Apple	-11.0465
ey	-11.0469
ck	-11.048
pe	-11.0483
▁Sĩ	-11.049
òa	-11.05
cin	-11.0511
▁Martin	-11.0514
▁mu	-11.0521
▁kìa	-11.0523
▁Okay	-11.0593
▁1980	-11.0593
▁Chị	-11.0594
▁nan	-11.06
ềm	-11.0604
▁250	-11.062
ian	-11.0635
▁tăm	-11.0674
▁dì	-11.0686
▁chua	-11.0692
ằn	-11.0706
iễn	-11.0715
▁hoãn	-11.0726
▁mươi	-11.0727
▁khoá	-11.0729
▁xé	-11.0734
▁đúc	-11.0735
▁đuối	-11.0736
▁diê	-11.0737
áy	-11.0741
▁chì	-11.0747
▁run	-11.0761
hét	-11.0767
▁St	-11.078
ớp	-11.0786
▁II	-11.0799
ột	-11.0811
▁Ver	-11.0819
▁chê	-11.0828
▁He	-11.0835
▁Chicago	-11.0858
▁Robert	-11.0858
▁khoăn	-11.0859
▁Giới	-11.0859
▁Big	-11.0901
dy	-11.0968
▁vư	-11.0985
▁Mark	-11.099
▁Harvard	-11.0993
▁Paris	-11.0993
▁Rio	-11.0997
▁Mu	-11.0997
▁quặc	-11.0997
è	-11.1013
▁lăng	-11.1034
▁buồ	-11.1043
▁Đế	-11.1057
▁chằm	-11.1068
▁độn	-11.107
▁To	-11.1101
▁băn	-11.1118
w	-11.1118
▁Manhattan	-11.113
▁pound	-11.113
▁Green	-11.1133
▁oh	-11.1137
▁tuô	-11.1172
▁bồ	-11.1178
▁Khu	-11.1192
ham	-11.1204
ao	-11.1221
▁Mi	-11.1231
▁khuy	-11.1241
▁lui	-11.1262
▁xỉ	-11.1267
▁Microsoft	-11.127
age	-11.1324
▁Hạ	-11.1339
▁f	-11.1398
▁soi	-11.1406
▁CEO	-11.141
▁nhiễu	-11.1415
▁Khả	-11.1417
▁Joe	-11.142
ka	-11.1431
▁Ga	-11.1444
▁khe	-11.145
ter	-11.1451
▁gie	-11.1478
▁Pro	-11.1533
▁xộn	-11.1553
▁Nobel	-11.1553
ith	-11.1553
▁hóc	-11.1557
▁thoa	-11.1559
▁Lin	-11.1573
hen	-11.1585
▁hí	-11.1591
▁khoái	-11.1616
lah	-11.1632
▁dỗ	-11.1645
▁hẻ	-11.1648
▁Thì	-11.165
▁ngoa	-11.1667
▁rập	-11.1688
▁ló	-11.1694
▁bầy	-11.1697
▁1960	-11.1698
▁vội	-11.1704
▁Hoàn	-11.1709
▁sét	-11.171
oran	-11.1757
▁tráng	-11.1776
▁vặt	-11.1783
▁bồi	-11.1784
▁le	-11.1802
▁cươ	-11.1811
▁bấm	-11.1832
▁Ngoạ	-11.1845
▁scan	-11.1845
ớc	-11.1867
▁tru	-11.1881
▁So	-11.1899
▁Tes	-11.1904
bon	-11.1906
ủa	-11.1921
▁vo	-11.1935
ử	-11.1941
▁Jo	-11.1946
áng	-11.1955
ill	-11.1986
▁Yeah	-11.1994
▁laser	-11.1994
▁nhá	-11.2002
▁nạp	-11.2023
▁Thị	-11.2023
▁Latin	-11.2047
te	-11.2063
▁Bi	-11.2064
▁Eric	-11.208
▁Đị	-11.2091
▁thỏ	-11.2133
ệ	-11.2134
▁bướm	-11.2145
▁1950	-11.2146
▁mỳ	-11.2146
▁2012	-11.2146
▁2004	-11.2146
▁Hòa	-11.2149
▁léo	-11.2155
▁rộn	-11.2161
▁đôla	-11.2167
hâm	-11.2168
▁Wall	-11.2179
▁bù	-11.2182
▁My	-11.2185
▁xà	-11.2191
uổi	-11.2216
▁95	-11.2219
▁Dere	-11.222
▁liê	-11.222
ãy	-11.2257
ãi	-11.2272
gen	-11.2281
▁Disney	-11.2299
▁uốn	-11.23
▁Peter	-11.2302
▁châ	-11.2351
▁chóc	-11.2361
▁nâu	-11.2366
▁tôm	-11.2371
F	-11.2387
ol	-11.2389
▁hâ	-11.2392
▁vờ	-11.2406
ộng	-11.2409
oắn	-11.2455
▁gậy	-11.2455
▁1970	-11.2456
▁NSA	-11.2457
one	-11.2458
▁micro	-11.2459
iển	-11.2463
▁suối	-11.2463
ha	-11.2466
▁pi	-11.2481
▁triê	-11.2488
lon	-11.2491
▁hơ	-11.252
▁600	-11.2537
▁ấu	-11.2545
▁xơ	-11.2563
▁Bo	-11.2565
▁mớ	-11.2571
▁rau	-11.2573
▁bế	-11.2592
▁Texas	-11.2614
▁online	-11.2614
▁vắng	-11.2614
▁Stanford	-11.2614
▁Nick	-11.2614
▁vaccine	-11.2617
▁clip	-11.262
▁kệ	-11.2621
▁thố	-11.2624
▁Tế	-11.2624
▁tuý	-11.2643
▁Nữ	-11.2664
▁vịnh	-11.2667
▁khen	-11.2672
▁vần	-11.2675
▁triệ	-11.2677
▁đinh	-11.2689
▁xuâ	-11.2695
▁doạ	-11.271
▁Kì	-11.271
▁hoan	-11.2731
▁đoạ	-11.2736
na	-11.2751
ca	-11.2769
▁2050	-11.2776
▁In	-11.2776
ganda	-11.2776
▁ướt	-11.2787
tan	-11.2798
▁kem	-11.2803
ghẽ	-11.2825
▁120	-11.2868
iệt	-11.2871
▁Vị	-11.2877
▁vạn	-11.2879
▁bón	-11.2885
▁Go	-11.2891
▁xế	-11.2914
▁trâ	-11.2915
▁Tiê	-11.2918
▁26	-11.2918
▁vù	-11.2934
▁gạt	-11.2939
▁FBI	-11.294
▁tởm	-11.294
▁2006	-11.294
▁nhàng	-11.2954
▁xướ	-11.2958
▁rổ	-11.2958
▁gai	-11.2963
iễu	-11.2964
▁kẹp	-11.2968
▁gă	-11.2986
▁Me	-11.3001
▁sắm	-11.304
▁xô	-11.306
col	-11.3067
▁inch	-11.3082
đ	-11.3085
J	-11.3097
oạn	-11.3102
▁Gates	-11.3106
▁chèo	-11.3114
id	-11.3118
▁que	-11.3123
▁xoa	-11.3147
▁Đi	-11.3156
▁khoán	-11.3156
▁pháo	-11.3176
âm	-11.3189
▁nứ	-11.3191
éo	-11.3194
▁Sam	-11.3201
ịnh	-11.3218
▁gay	-11.324
▁gợ	-11.3262
▁Chí	-11.3268
▁thắn	-11.3274
▁Coca	-11.3276
ver	-11.3276
▁Nghị	-11.3277
▁hàn	-11.3307
lapto	-11.3324
ửa	-11.3326
▁Quay	-11.3351
▁cộ	-11.3379
úp	-11.3382
et	-11.339
gom	-11.3393
▁chip	-11.3393
uần	-11.3409
hớp	-11.3426
der	-11.343
iệu	-11.3455
▁Thủ	-11.3488
▁Sáng	-11.3492
ria	-11.3503
▁ghé	-11.3503
▁King	-11.3512
▁lề	-11.3513
▁Nhiệ	-11.3514
▁van	-11.3524
ợ	-11.3547
▁kền	-11.355
ìm	-11.358
▁giô	-11.358
▁El	-11.3589
át	-11.3603
▁lau	-11.3605
uối	-11.3608
▁Che	-11.3614
▁Oxford	-11.3623
▁Florida	-11.3623
▁Brown	-11.3623
▁oxyto	-11.3624
▁golf	-11.3624
▁hacker	-11.3624
▁Higgs	-11.3624
▁tivi	-11.3625
▁trọn	-11.3629
▁vọ	-11.3666
6	-11.3682
▁mú	-11.3684
▁đư	-11.3697
▁rã	-11.3712
,	-11.3714
▁be	-11.3732
▁túng	-11.3732
▁râu	-11.3765
▁bổng	-11.3768
ner	-11.3779
SD	-11.3779
▁rỡ	-11.3788
▁32	-11.3794
▁Smith	-11.3801
▁Mac	-11.3802
sa	-11.3807
▁vớ	-11.3809
kg	-11.3811
ber	-11.3812
ak	-11.3815
▁Lo	-11.3837
▁Ed	-11.3866
▁đục	-11.3878
▁Tim	-11.3892
▁Kev	-11.3898
▁Tiền	-11.39
▁thề	-11.3906
ss	-11.3907
wa	-11.394
len	-11.3952
▁nươ	-11.3952
▁len	-11.3964
▁Vương	-11.3971
▁3000	-11.3979
▁tạng	-11.3981
▁cẩu	-11.3984
▁Mộc	-11.3985
▁Palestine	-11.3987
▁Alexand	-11.3992
▁sướng	-11.3995
X	-11.3998
▁hái	-11.4002
▁rốt	-11.4009
▁Bar	-11.4018
▁chô	-11.4024
Q	-11.4053
za	-11.4062
▁dịu	-11.4069
▁thă	-11.4133
▁28	-11.4138
ers	-11.4139
all	-11.4154
▁nhã	-11.4156
ly	-11.4164
▁Silicon	-11.4169
▁Lớn	-11.4169
▁Congo	-11.417
▁Xô	-11.4171
háo	-11.4171
▁rỗi	-11.4182
▁dời	-11.4185
5	-11.4206
▁Ah	-11.4215
▁De	-11.4217
uyền	-11.4219
wi	-11.423
be	-11.4242
▁thè	-11.425
▁Bob	-11.4261
▁xó	-11.4263
▁Chứ	-11.4271
▁Be	-11.4296
▁xi	-11.4302
▁khan	-11.4303
▁hán	-11.4324
▁liêng	-11.4327
▁Sá	-11.4344
▁Ro	-11.4353
▁lam	-11.4353
▁Youtube	-11.4358
▁World	-11.4358
▁khùng	-11.4359
▁LED	-11.4359
▁huỷ	-11.4359
▁MRI	-11.4369
▁cua	-11.4381
▁đan	-11.4392
▁Kim	-11.4407
ah	-11.4428
ạn	-11.4429
▁choáng	-11.4438
án	-11.4439
ge	-11.4441
▁chuô	-11.4452
est	-11.4456
vi	-11.4476
▁Bọn	-11.4512
▁Wi	-11.4527
▁lé	-11.4536
▁Taliban	-11.455
▁Henr	-11.455
▁Wow	-11.4551
▁phiện	-11.456
▁Phí	-11.4563
our	-11.4568
▁Hoàng	-11.4575
▁trễ	-11.4585
▁Năng	-11.4591
ộm	-11.4593
ina	-11.4609
▁bới	-11.4618
▁al	-11.4656
▁Wat	-11.4675
il	-11.4677
▁700	-11.4679
ì	-11.4703
▁Kiế	-11.4706
▁á	-11.4707
▁Vũ	-11.4723
▁Lu	-11.4745
▁hydro	-11.4746
▁cắn	-11.4746
▁lầy	-11.4746
▁Cambridge	-11.4746
▁Berli	-11.4746
▁2015	-11.4747
▁2003	-11.4748
ex	-11.4754
▁trêu	-11.4765
▁đun	-11.477
ell	-11.4797
▁bùn	-11.4797
▁buô	-11.4808
org	-11.481
▁Ray	-11.4826
uôn	-11.4828
▁hông	-11.4829
▁vặ	-11.4829
do	-11.4829
▁rực	-11.4841
▁đòn	-11.4852
km	-11.4878
▁luâ	-11.4885
▁29	-11.49
aland	-11.4911
▁Ka	-11.4912
▁bin	-11.4928
▁tua	-11.4936
▁Sử	-11.4936
▁Argentina	-11.4946
▁Scott	-11.4946
▁Redwood	-11.4946
abby	-11.4946
▁sườn	-11.4948
▁cent	-11.4954
▁Bush	-11.4955
▁thạo	-11.4968
▁Tay	-11.4977
▁lố	-11.4983
▁Doa	-11.4985
▁ủi	-11.4999
ay	-11.5009
ate	-11.5028
▁Mc	-11.5029
▁kẽ	-11.503
ana	-11.503
▁Ven	-11.5043
ook	-11.5072
gộp	-11.5084
▁Ti	-11.5086
▁thươ	-11.5129
hênh	-11.5133
▁Aristotle	-11.515
▁YouTube	-11.515
▁Yemen	-11.515
▁Brian	-11.515
▁ngử	-11.5155
▁Hawaii	-11.5155
▁chay	-11.5156
▁Park	-11.5156
olly	-11.5156
▁Brad	-11.5158
▁phồng	-11.5161
▁huý	-11.5167
▁xẻ	-11.5169
▁Đá	-11.5171
▁giư	-11.518
▁85	-11.518
▁Băng	-11.519
▁Chế	-11.5197
▁Nguồ	-11.521
▁giàn	-11.5216
▁tước	-11.525
▁Tác	-11.5254
▁sứa	-11.5268
Col	-11.5323
▁uy	-11.534
▁MS	-11.5345
▁lử	-11.5347
ten	-11.5353
▁Gene	-11.5356
▁Singapore	-11.5358
▁Parkinson	-11.5358
▁sỏi	-11.5358
▁Tony	-11.5359
▁nhốt	-11.5365
rt	-11.5378
▁ngoạn	-11.5379
▁Te	-11.5388
ghen	-11.539
▁bồn	-11.5408
▁Sal	-11.5409
ke	-11.5421
▁Can	-11.5425
▁Quâ	-11.5428
▁nộ	-11.5431
▁kiề	-11.5458
▁bẩy	-11.5489
▁William	-11.5511
▁Khác	-11.5518
▁Pa	-11.554
berg	-11.5544
▁Q	-11.5558
▁Bí	-11.5562
ọng	-11.5567
▁Charlie	-11.5571
▁Scotland	-11.5571
▁Wikipedia	-11.5571
▁entrop	-11.5571
Qaeda	-11.5572
▁Josh	-11.5572
▁Olympic	-11.5572
▁Mike	-11.5575
▁ắc	-11.5582
▁1.5	-11.5592
▁Thú	-11.5592
▁trệ	-11.5596
hiếu	-11.5601
▁lượn	-11.5602
▁quạt	-11.5606
▁Cal	-11.5611
▁Brun	-11.5628
ga	-11.563
▁má	-11.5646
▁diễ	-11.5652
ran	-11.5654
▁ủ	-11.5656
BC	-11.5686
atch	-11.5692
▁ngợi	-11.5701
▁Ke	-11.5703
ko	-11.5706
DA	-11.5707
cô	-11.5712
á	-11.5726
gie	-11.5729
▁khă	-11.5736
▁kề	-11.5744
▁phàn	-11.5752
▁cồn	-11.5759
ur	-11.5769
▁mọ	-11.5783
▁Indonesia	-11.5789
▁National	-11.5789
▁Neanderthal	-11.5789
▁Black	-11.5789
▁SW	-11.5793
▁2.5	-11.5795
▁phế	-11.5795
▁khoác	-11.5799
axit	-11.5806
▁NL	-11.5817
▁khử	-11.5823
▁hở	-11.5827
▁bốt	-11.5829
▁Peru	-11.5834
huỳ	-11.5836
▁lă	-11.5841
ốt	-11.5844
▁Cụ	-11.5855
▁Bồ	-11.5878
▁Đo	-11.5879
▁ke	-11.5881
▁rì	-11.5882
nd	-11.5883
ứng	-11.5884
▁trinh	-11.5887
les	-11.5895
han	-11.5897
▁Tâ	-11.5901
ảnh	-11.5907
▁rạn	-11.5907
▁quầ	-11.5908
▁Ku	-11.5916
▁láng	-11.5921
▁Ô	-11.5921
▁lấn	-11.5927
▁Bốn	-11.5944
▁33	-11.5968
▁CP	-11.599
▁36	-11.6005
▁Gu	-11.601
▁Street	-11.6011
▁stress	-11.6011
▁Gandhi	-11.6011
▁Robot	-11.6011
▁tweet	-11.6011
▁electron	-11.6011
▁hoă	-11.6012
▁Ford	-11.6012
▁Chile	-11.6012
▁ỏi	-11.6012
▁GG	-11.6014
▁show	-11.6017
▁oxi	-11.602
▁Car	-11.6022
▁Fi	-11.6023
▁nộp	-11.6027
▁Bell	-11.6033
▁Ya	-11.6039
▁tuâ	-11.6057
▁thuâ	-11.606
▁chuối	-11.6074
úm	-11.608
tic	-11.6096
▁truyê	-11.6105
▁Xu	-11.6107
ris	-11.6117
▁Tỉ	-11.6126
▁muôn	-11.6131
▁Bra	-11.6151
98	-11.6159
ster	-11.6165
▁Sara	-11.6176
é	-11.6179
▁dươ	-11.6198
héo	-11.621
▁đoa	-11.6216
ram	-11.6218
▁khuất	-11.6226
▁khâ	-11.6228
▁Alex	-11.6229
thur	-11.623
▁Vận	-11.6233
▁insulin	-11.6238
▁Carolina	-11.6238
▁2013	-11.6239
ville	-11.624
▁2030	-11.624
▁hức	-11.6242
▁Xã	-11.6244
ượt	-11.6249
▁Mã	-11.6262
▁vã	-11.6268
uả	-11.6273
eep	-11.6275
by	-11.6292
▁liêu	-11.6296
ệch	-11.6302
▁Nê	-11.632
ari	-11.6351
mo	-11.6355
▁Giữ	-11.6368
▁să	-11.6412
▁phớ	-11.6422
▁Mù	-11.6425
ém	-11.6429
▁Trò	-11.6436
▁Ru	-11.6454
desh	-11.6471
▁sneaker	-11.6471
▁Delhi	-11.6471
▁Brooklyn	-11.6471
▁Jack	-11.6471
▁Phong	-11.6471
▁Ice	-11.6472
▁virút	-11.6474
▁Cuba	-11.6475
▁Gore	-11.6475
▁súp	-11.6478
ation	-11.6484
▁Bali	-11.6485
▁Web	-11.6485
▁lẫ	-11.6488
od	-11.6492
ó	-11.6494
ki	-11.6499
bo	-11.6506
har	-11.6511
▁că	-11.6518
▁rò	-11.6551
▁sụ	-11.6568
zza	-11.6569
▁bar	-11.657
▁800	-11.658
▁EM	-11.6582
ish	-11.6588
▁Carl	-11.6604
▁Dea	-11.6605
▁Mars	-11.6614
▁đọ	-11.6623
▁Wal	-11.6648
BM	-11.6663
den	-11.6684
▁bỏng	-11.6689
▁Ethiopia	-11.6709
▁Trắng	-11.6709
▁iPod	-11.6709
▁studio	-11.6709
ul	-11.6709
▁ôtô	-11.671
▁Nike	-11.6713
▁Star	-11.6717
▁quăng	-11.6722
▁Siêu	-11.6726
▁quận	-11.6735
▁đạm	-11.6741
ee	-11.676
▁re	-11.6794
▁Phậ	-11.6812
▁tú	-11.6814
▁xố	-11.6823
ovo	-11.6842
▁Tam	-11.6861
▁ES	-11.6864
▁Yu	-11.6869
ết	-11.6882
▁Po	-11.6884
▁Đan	-11.6897
▁....	-11.6905
fi	-11.6912
▁ả	-11.6935
▁vác	-11.6943
ẹo	-11.6951
▁giầy	-11.6953
▁nhầy	-11.6953
▁Andrew	-11.6953
▁Edward	-11.6953
ờng	-11.696
nhồi	-11.6974
▁44	-11.6974
▁Port	-11.6977
we	-11.7001
▁Dr	-11.7002
gon	-11.7003
▁rư	-11.7013
▁nhí	-11.7025
▁Ken	-11.7026
▁thuô	-11.7028
▁nháy	-11.703
▁cớ	-11.7033
▁Pi	-11.705
per	-11.7074
mar	-11.7077
pi	-11.7088
óng	-11.7101
me	-11.7103
▁chử	-11.7114
sia	-11.7119
▁am	-11.712
gram	-11.7122
▁ky	-11.7145
▁Điê	-11.7148
ọn	-11.7163
van	-11.7176
▁CM	-11.7179
▁lội	-11.718
chi	-11.7195
#	-11.7201
▁vầy	-11.7203
▁Leonardo	-11.7204
▁2014	-11.7204
▁Rose	-11.7212
▁1,5	-11.7213
▁sếp	-11.7213
well	-11.7219
▁vỉ	-11.7221
▁Trạ	-11.7262
▁thốn	-11.7267
▁bit	-11.7281
ry	-11.7282
ack	-11.7284
tus	-11.729
huyến	-11.7292
▁nhai	-11.7304
▁Cố	-11.7308
and	-11.7309
ín	-11.7317
ảm	-11.7323
▁bệ	-11.7333
▁55	-11.7342
▁Suố	-11.7349
ãnh	-11.7358
way	-11.7358
iếp	-11.7364
▁Or	-11.7375
▁chiên	-11.7417
▁Matt	-11.743
▁nến	-11.7434
▁sảnh	-11.7438
▁Đàn	-11.744
▁Phâ	-11.7441
chai	-11.7441
▁dollar	-11.7454
▁Bronx	-11.7459
▁Detroit	-11.7459
▁đặn	-11.7459
▁Lego	-11.7459
▁Abed	-11.7459
▁Indus	-11.7459
▁thẹn	-11.746
▁virut	-11.746
▁giềng	-11.746
▁Du	-11.7461
▁Eve	-11.7461
▁xổ	-11.7462
45	-11.7463
▁niê	-11.7465
▁1900	-11.7466
én	-11.7477
▁AI	-11.7477
ho	-11.7477
▁Kar	-11.7479
lu	-11.7485
▁West	-11.7498
▁gạo	-11.7513
▁nhược	-11.7525
▁Long	-11.7525
tion	-11.7526
ium	-11.7526
▁Tinh	-11.7543
▁mác	-11.7557
▁ngơi	-11.7559
▁xài	-11.7565
▁Ky	-11.7566
â	-11.7571
▁Jona	-11.758
ion	-11.7594
kh	-11.7618
bet	-11.7623
ela	-11.7623
ổ	-11.7647
ren	-11.7659
▁37	-11.7705
▁As	-11.7707
▁tản	-11.7715
▁Apol	-11.772
▁Jane	-11.7722
▁Stasi	-11.7722
▁Tanzania	-11.7722
▁origami	-11.7722
▁Victor	-11.7723
▁logo	-11.7725
▁Toá	-11.7725
▁Mel	-11.7725
hai	-11.7729
▁nguyệt	-11.7739
▁khoang	-11.7739
Pad	-11.7765
▁lượ	-11.7785
▁dưng	-11.7791
▁phả	-11.7816
▁Bó	-11.7827
▁dào	-11.7838
Y	-11.7873
NA	-11.7874
▁Bhut	-11.7894
▁w	-11.7895
▁trư	-11.7922
NG	-11.7927
▁bát	-11.7956
▁SS	-11.7957
▁Bay	-11.7973
▁ngự	-11.7975
ót	-11.7979
000	-11.7981
▁Mad	-11.7986
openha	-11.7992
▁rậm	-11.7992
▁Mandel	-11.7993
ọa	-11.7994
res	-11.7995
ata	-11.8001
▁sờ	-11.8002
▁BJ	-11.8006
▁nhọ	-11.8009
▁ah	-11.8021
▁Nội	-11.8025
▁suô	-11.8025
▁nhăn	-11.803
▁Thâ	-11.8032
va	-11.8032
▁48	-11.8036
▁ôn	-11.804
val	-11.8059
hồng	-11.8063
▁hao	-11.8069
▁Sierr	-11.8076
ew	-11.8081
ưu	-11.8086
az	-11.8088
▁đồn	-11.8098
than	-11.8101
▁Kos	-11.8133
▁Pat	-11.8135
▁xen	-11.8144
ink	-11.8145
▁đốn	-11.8149
▁kg	-11.8156
▁Tớ	-11.8158
▁bỉ	-11.8169
▁Bit	-11.8172
go	-11.8182
▁42	-11.8195
▁IM	-11.8224
ác	-11.8232
ide	-11.8234
amma	-11.8236
▁96	-11.8244
attle	-11.8269
▁DVD	-11.827
▁Shakespear	-11.827
▁cafe	-11.827
▁Luther	-11.827
▁1984	-11.827
▁MR	-11.8271
▁Pete	-11.8271
▁Kenne	-11.8271
▁Well	-11.8271
▁dopamin	-11.8272
▁giu	-11.8275
▁gót	-11.8276
▁2002	-11.8279
▁Wolf	-11.8286
ve	-11.8296
erry	-11.8313
▁vự	-11.8315
▁Bol	-11.833
▁Chữ	-11.8338
▁Thí	-11.8339
▁rớ	-11.8356
▁xư	-11.836
▁thỉ	-11.8362
▁êm	-11.8376
▁só	-11.8379
▁Ted	-11.8388
ney	-11.8388
onica	-11.8394
ust	-11.8396
▁lay	-11.8408
▁ngủi	-11.8437
▁bạ	-11.8448
ect	-11.8478
▁ven	-11.8487
▁31	-11.8496
16	-11.8497
▁Hill	-11.8507
stro	-11.8508
▁Dạ	-11.8526
▁196	-11.8535
rs	-11.8539
ỏa	-11.8545
▁sạc	-11.855
▁Natasha	-11.8556
▁Stephen	-11.8556
▁Libya	-11.8556
▁Virginia	-11.8556
▁album	-11.8557
▁1930	-11.8557
▁Philip	-11.8557
▁bì	-11.8559
▁Xanh	-11.856
▁click	-11.8565
▁Nano	-11.8567
▁Bangla	-11.8585
riba	-11.8586
re	-11.8586
▁Milo	-11.8587
▁trớ	-11.8587
▁Cyr	-11.8603
ốn	-11.861
▁Nhiê	-11.8611
▁CD	-11.8613
▁rãnh	-11.8621
net	-11.8631
▁rock	-11.8651
gập	-11.8653
▁sương	-11.8657
▁găng	-11.8664
áu	-11.8673
▁Yo	-11.8688
▁Ri	-11.8702
ev	-11.8725
▁si	-11.8726
▁man	-11.8727
ac	-11.8752
fa	-11.8763
▁bon	-11.8773
25	-11.8796
ue	-11.8799
ợc	-11.8802
uỳ	-11.8831
mart	-11.8832
▁Căn	-11.8837
ere	-11.8837
ino	-11.8842
▁Jordan	-11.8845
imbabwe	-11.885
▁Bosnia	-11.885
▁Clinton	-11.885
▁Jersey	-11.885
▁Siberia	-11.885
▁Snowden	-11.885
▁gluco	-11.885
▁yeah	-11.885
▁Rover	-11.8851
▁gớm	-11.8852
▁nguời	-11.8852
▁chốn	-11.8853
ban	-11.8853
▁Colomb	-11.8856
▁xị	-11.8859
▁Nel	-11.8859
amin	-11.8863
▁Si	-11.8879
ụi	-11.8933
ruyền	-11.8945
▁Hans	-11.8959
reat	-11.8961
uồn	-11.8966
tamin	-11.8968
▁130	-11.8973
ene	-11.8988
gi	-11.8996
▁Bờ	-11.9028
uk	-11.9033
▁Ali	-11.9034
▁Ad	-11.9036
▁Har	-11.9095
▁43	-11.9102
▁4000	-11.911
eographic	-11.9153
▁Kepler	-11.9153
▁Philadelphia	-11.9153
▁devil	-11.9153
▁Nepal	-11.9153
uddin	-11.9153
▁cưỡi	-11.9153
▁khỏa	-11.9153
▁pa	-11.9154
▁Nhớ	-11.9154
▁Baby	-11.9155
▁IQ	-11.9155
▁FG	-11.9155
▁AK	-11.9162
▁Cổ	-11.9163
▁Khí	-11.9164
80	-11.9165
▁chạp	-11.9166
▁Biệt	-11.9171
Yêu	-11.9186
▁Ngươ	-11.9188
CD	-11.9191
ại	-11.9195
Tuổi	-11.9197
▁giun	-11.9199
▁vãn	-11.921
▁Arm	-11.9238
con	-11.924
▁ngoặ	-11.9247
▁Hey	-11.925
▁Pe	-11.9258
▁dạn	-11.9268
▁chọ	-11.9274
▁đắp	-11.9285
tta	-11.9299
18	-11.9301
met	-11.9311
▁46	-11.9314
▁ngo	-11.9326
ns	-11.9329
▁nhả	-11.9343
eb	-11.9355
MS	-11.9355
bốt	-11.9358
▁AT	-11.9363
▁Roy	-11.9377
õi	-11.939
ỉnh	-11.9391
▁War	-11.9392
ll	-11.9393
▁Per	-11.9417
eans	-11.942
ru	-11.9447
gan	-11.9454
▁Sky	-11.9465
▁market	-11.9466
▁Everest	-11.9466
▁Tasmania	-11.9466
▁Blue	-11.9466
▁Liberia	-11.9466
▁Louis	-11.9466
mber	-11.9466
▁1999	-11.9466
▁Columbia	-11.9466
▁1989	-11.9466
▁ooh	-11.9468
▁Ja	-11.9475
▁City	-11.9485
▁Phố	-11.9485
▁vươ	-11.9485
▁ừ	-11.9486
▁North	-11.9489
▁tớ	-11.9508
ộp	-11.951
▁ớt	-11.9521
ven	-11.9521
ph	-11.9522
llage	-11.9525
▁dẫ	-11.9536
▁ngơ	-11.9542
▁nhôm	-11.9545
▁cúi	-11.9554
▁tụy	-11.9557
tor	-11.9558
ện	-11.9561
àu	-11.9569
▁Sant	-11.9574
liza	-11.958
iên	-11.9583
▁cán	-11.9601
red	-11.9625
▁bus	-11.9627
▁News	-11.963
▁Steven	-11.9644
▁Hồ	-11.9651
▁1,000	-11.9651
▁Van	-11.9671
▁tră	-11.9674
▁Li	-11.9691
môn	-11.9695
ip	-11.97
een	-11.9708
ợt	-11.9715
▁Nord	-11.9726
lpha	-11.9735
ier	-11.9766
▁Ge	-11.9781
▁nhò	-11.9785
ord	-11.9786
▁Jerusalem	-11.9788
▁bướu	-11.9788
▁enzym	-11.9788
Lewis	-11.9788
▁1996	-11.9788
▁Nathan	-11.9789
▁Daniel	-11.9789
oto	-11.979
▁ISI	-11.9791
▁Trí	-11.9801
▁pop	-11.9815
istan	-11.9815
▁trọt	-11.9816
▁khốn	-11.9827
stein	-11.9828
right	-11.983
▁lãi	-11.9833
▁mộc	-11.9834
▁ngả	-11.9836
92	-11.9841
▁Pan	-11.9847
ryl	-11.9864
pa	-11.9876
▁Thuậ	-11.9895
tô	-11.9898
aden	-11.9899
ara	-11.9905
▁việ	-11.9947
▁Khó	-11.9956
▁Lí	-11.9965
▁South	-11.9981
▁Fl	-11.9984
▁bu	-11.9988
▁Sch	-11.9995
▁Hom	-11.9999
▁5000	-11.9999
▁bự	-11.9999
▁86	-12.002
lyn	-12.0023
▁Mar	-12.0024
▁Ser	-12.0046
▁Tor	-12.0047
DP	-12.0054
▁Trả	-12.0063
▁Cair	-12.0063
men	-12.0065
em	-12.0068
▁xo	-12.0075
mer	-12.0079
▁Kha	-12.0087
▁Mala	-12.0091
ựa	-12.0094
▁98	-12.0095
▁lự	-12.01
▁Atlanta	-12.0122
▁Monterey	-12.0122
▁Mumbai	-12.0122
▁Namibia	-12.0122
▁Tokyo	-12.0122
▁Afghan	-12.0122
▁Joseph	-12.0122
▁2,5	-12.0126
▁rạc	-12.0128
▁Emil	-12.0128
▁thối	-12.0141
▁Hall	-12.0143
▁Beck	-12.0144
▁Simon	-12.0144
▁Grand	-12.0149
▁Carol	-12.0155
ward	-12.016
▁lú	-12.0162
▁thừng	-12.0166
30	-12.0171
ò	-12.0174
▁Jeff	-12.019
▁nhọc	-12.0195
▁Cuốn	-12.0222
▁phốt	-12.0225
CE	-12.0227
ươi	-12.024
▁Sha	-12.0244
▁Rob	-12.0261
▁Bur	-12.0269
▁khiết	-12.0281
▁rà	-12.0288
▁rộ	-12.0296
▁xảo	-12.0311
▁Rome	-12.0327
rô	-12.033
▁mĩ	-12.0331
hân	-12.0338
óp	-12.0343
▁cò	-12.0349
▁mìn	-12.0351
RA	-12.0363
▁97	-12.0365
use	-12.0378
▁gô	-12.0395
▁Jeffer	-12.0396
apo	-12.0403
ff	-12.0418
▁Diễ	-12.044
▁And	-12.0455
▁nôn	-12.0458
▁nhộn	-12.0464
▁Craig	-12.0466
▁Nairobi	-12.0466
▁PTSD	-12.0466
▁High	-12.0467
▁Moham	-12.0467
▁Tunisia	-12.0467
▁đùi	-12.0467
▁Johnny	-12.0468
▁suýt	-12.0468
▁Jud	-12.0469
ú	-12.047
▁sẹo	-12.0472
▁chén	-12.0473
▁Cost	-12.0474
▁Gô	-12.0474
ợi	-12.0477
▁Yorker	-12.0482
▁xở	-12.0488
ami	-12.0494
▁fa	-12.0499
vel	-12.05
▁reo	-12.0504
▁140	-12.0506
▁nghênh	-12.0519
▁thảy	-12.0519
▁Jean	-12.0525
own	-12.0541
▁Leon	-12.0568
bul	-12.058
▁Đôn	-12.0585
mét	-12.0588
▁Ag	-12.0597
ther	-12.06
▁197	-12.0612
▁Bé	-12.062
ze	-12.062
eta	-12.0642
ire	-12.0647
bar	-12.0666
▁thà	-12.0687
ĩnh	-12.0694
▁Am	-12.0701
▁xuô	-12.0717
▁Net	-12.0735
▁rồng	-12.0738
85	-12.075
▁Ron	-12.0769
▁34	-12.077
▁900	-12.0792
sha	-12.0793
▁mị	-12.0794
▁Pra	-12.08
inda	-12.0801
PA	-12.0812
▁Albert	-12.0816
ella	-12.0821
▁vượn	-12.0822
▁Berkeley	-12.0824
▁CRISPR	-12.0824
▁Diego	-12.0824
▁Galapagos	-12.0824
▁Michigan	-12.0824
▁gắt	-12.0824
▁toilet	-12.0824
Gowan	-12.0824
▁Rick	-12.0824
▁1995	-12.0824
▁Dick	-12.0824
▁Carne	-12.0825
48	-12.0825
▁JC	-12.0828
▁Mah	-12.0832
▁Alask	-12.0837
▁For	-12.084
gio	-12.0853
are	-12.0856
▁Orl	-12.0858
▁MG	-12.0868
▁tem	-12.0869
▁Pop	-12.087
ager	-12.0871
ies	-12.0872
▁Babb	-12.0873
▁Vâ	-12.088
▁Ore	-12.0881
mail	-12.0883
▁Sả	-12.0885
▁Had	-12.0896
hạy	-12.0901
▁Air	-12.0917
▁sú	-12.092
itra	-12.0932
bur	-12.0935
▁Cas	-12.094
oh	-12.0957
▁Nan	-12.096
▁72	-12.0972
▁Will	-12.0976
▁Her	-12.0994
▁Cam	-12.1008
sen	-12.1028
▁top	-12.1042
hoáng	-12.1043
8	-12.1048
▁neo	-12.1052
lash	-12.1057
▁nhă	-12.1061
SM	-12.1062
▁Min	-12.1072
que	-12.1073
▁Đê	-12.1083
hol	-12.1084
▁gò	-12.1087
▁hoi	-12.1088
▁Newto	-12.1109
file	-12.1113
each	-12.1114
▁Fe	-12.1116
▁2.0	-12.1123
ling	-12.1125
phích	-12.1132
▁Julia	-12.1161
fer	-12.1167
▁6000	-12.1183
▁chò	-12.1185
▁ngà	-12.1187
▁64	-12.1189
▁Mill	-12.119
▁Earth	-12.1194
▁Edinburg	-12.1194
▁Giussan	-12.1194
▁Pennsylvania	-12.1194
▁State	-12.1194
▁Jones	-12.1195
▁1994	-12.1195
▁Rica	-12.1197
inux	-12.12
▁xì	-12.12
▁Somalia	-12.1203
ISA	-12.1203
▁House	-12.1203
▁LG	-12.1206
▁Sud	-12.1208
▁Maria	-12.1208
▁photon	-12.1219
med	-12.122
óa	-12.123
▁Bỏ	-12.1232
▁Jay	-12.1242
▁Col	-12.1243
rey	-12.1254
ary	-12.1259
ite	-12.1265
▁proto	-12.1278
rina	-12.1282
▁Rand	-12.129
uội	-12.1304
▁viền	-12.1311
▁ngách	-12.1318
▁Bảy	-12.133
15	-12.1341
hop	-12.1342
ẫ	-12.1342
▁gán	-12.1344
▁Bel	-12.1345
HC	-12.1362
▁sộ	-12.1364
ington	-12.1372
▁Time	-12.1373
uột	-12.1386
7	-12.1407
▁Sợ	-12.1422
CL	-12.1437
▁Ac	-12.1437
ius	-12.1447
▁gào	-12.1448
bara	-12.1457
▁Ire	-12.1478
▁Christophe	-12.1507
bin	-12.1521
▁cưng	-12.1526
▁chổ	-12.1529
huyết	-12.153
▁Gar	-12.1558
▁cừ	-12.1565
▁Bro	-12.1576
▁Sylvi	-12.1578
▁xắn	-12.1578
▁Michelangelo	-12.1579
▁Fried	-12.1579
▁hamburger	-12.1579
▁Europa	-12.1579
▁Warren	-12.1579
▁Island	-12.1579
shahi	-12.1579
▁1975	-12.1579
▁Yale	-12.158
▁Sư	-12.158
▁3,5	-12.1583
▁KB	-12.1594
▁Isa	-12.1594
▁Nổ	-12.1596
opy	-12.1617
ero	-12.1618
▁hack	-12.1624
▁teen	-12.1625
▁Julian	-12.1627
stan	-12.1637
▁Cươ	-12.1644
▁AM	-12.1647
ons	-12.1647
eam	-12.1658
ab	-12.1681
ity	-12.1681
gar	-12.1692
▁Sai	-12.1701
▁gas	-12.1703
▁nă	-12.1711
▁Wa	-12.1715
homa	-12.1716
ctor	-12.1718
▁xuôi	-12.172
arry	-12.1727
▁TS	-12.1729
ford	-12.173
off	-12.1746
▁lẽo	-12.1753
▁Os	-12.1779
▁Viê	-12.1784
87	-12.1789
▁meta	-12.1792
▁Oo	-12.1798
▁lùn	-12.1801
▁ion	-12.1815
AC	-12.1817
▁Lab	-12.1827
▁Ap	-12.1831
▁52	-12.185
ure	-12.1862
tơ	-12.1868
▁hó	-12.1872
▁ròng	-12.1889
▁thạc	-12.191
▁gio	-12.1915
rút	-12.1923
▁nham	-12.1924
RL	-12.1937
▁hủ	-12.1942
▁Ab	-12.1943
▁CR	-12.1945
era	-12.1949
ota	-12.1952
▁38	-12.1968
.3	-12.1976
▁Hỏ	-12.1977
▁Super	-12.1978
▁Arizona	-12.1978
▁TEDTalk	-12.1978
▁pheromone	-12.1978
field	-12.1979
▁Guinea	-12.1979
▁Roger	-12.1979
▁Abraham	-12.1979
▁silicon	-12.1979
▁1993	-12.1979
▁Ohio	-12.1979
▁1997	-12.1979
▁sandwich	-12.1979
▁Trừ	-12.198
▁toả	-12.198
▁1500	-12.198
▁PH	-12.1981
▁Medi	-12.1981
▁kilomet	-12.1982
▁Ella	-12.1985
▁Es	-12.1986
▁Allen	-12.1991
▁Biến	-12.1991
hoo	-12.1998
▁Evan	-12.2003
▁sụn	-12.2007
▁Mon	-12.2016
12	-12.2027
top	-12.2028
muel	-12.2036
allon	-12.2052
▁White	-12.2056
ld	-12.2074
igue	-12.2076
lia	-12.2095
▁Sc	-12.2105
rack	-12.2155
rdy	-12.2157
▁MA	-12.2158
▁Rock	-12.2164
▁nhó	-12.217
lan	-12.2171
▁cù	-12.2186
ach	-12.2192
▁Bruc	-12.2192
ez	-12.2205
shi	-12.2214
▁rơ	-12.2219
▁Cú	-12.2227
▁Noa	-12.2236
▁tho	-12.2252
▁Wei	-12.2254
oko	-12.2255
▁Ko	-12.2264
NC	-12.2279
▁Lad	-12.2281
ft	-12.2286
Đ	-12.2287
▁sủ	-12.229
enter	-12.229
▁pro	-12.23
ronto	-12.23
▁Lee	-12.2304
▁Luâ	-12.2315
ica	-12.2335
vo	-12.234
,5	-12.2342
▁tỉa	-12.2343
▁lõ	-12.2344
▁1.2	-12.235
88	-12.2353
▁Emma	-12.2353
tin	-12.2366
▁Ly	-12.2378
▁ALS	-12.2395
▁Beethoven	-12.2395
▁Jamaica	-12.2395
▁Maldive	-12.2395
▁Venezu	-12.2395
▁Windows	-12.2395
▁Havard	-12.2395
▁Titanic	-12.2395
▁Jeopa	-12.2395
▁Montana	-12.2395
▁penicillin	-12.2395
opera	-12.2396
▁Danny	-12.2396
▁cocain	-12.2396
▁190	-12.2397
hủng	-12.2397
qu	-12.2397
▁Gì	-12.2398
▁Lago	-12.2398
▁Julie	-12.2399
▁Cape	-12.2399
▁Bever	-12.2403
▁TEDx	-12.2404
▁nhổ	-12.2406
cha	-12.2406
▁Stewart	-12.2408
▁xê	-12.2411
▁Don	-12.2415
cher	-12.2424
▁báng	-12.2436
azz	-12.2441
▁Prince	-12.2445
rr	-12.2453
▁Pix	-12.2459
▁Cor	-12.2463
▁Who	-12.2463
▁Marg	-12.2481
▁ừm	-12.2491
NH	-12.2496
ture	-12.2509
ă	-12.2533
▁Tri	-12.2535
▁Moza	-12.2538
day	-12.2548
rd	-12.2552
ini	-12.2562
▁350	-12.2569
ye	-12.2574
▁1.4	-12.2576
ek	-12.2602
▁Kat	-12.2616
iger	-12.2618
▁Xé	-12.2621
▁41	-12.2622
▁bla	-12.2623
ap	-12.263
ứ	-12.2632
ít	-12.2636
hall	-12.2638
so	-12.2645
▁khóe	-12.2647
▁Tám	-12.2668
▁Tai	-12.2672
vin	-12.2684
▁Brit	-12.2686
q	-12.2686
âng	-12.2687
agan	-12.2696
▁rạch	-12.2698
▁Gen	-12.2718
vít	-12.2737
▁Whit	-12.2747
húc	-12.2755
▁Boy	-12.2777
▁Lang	-12.2778
▁47	-12.278
▁rươ	-12.2786
▁59	-12.2805
iel	-12.2808
lore	-12.2815
ive	-12.2821
▁Quản	-12.2821
ả	-12.2822
▁Copernic	-12.283
▁Alabama	-12.283
▁Honduras	-12.283
▁chậu	-12.283
▁Himalaya	-12.283
▁Matthew	-12.283
▁Han	-12.283
▁Grace	-12.283
▁Gaza	-12.283
▁EDI	-12.283
▁Move	-12.283
▁quỳ	-12.283
▁Fox	-12.283
▁Jesus	-12.2831
▁poster	-12.2831
watt	-12.2834
▁quô	-12.2838
▁CC	-12.2838
▁phà	-12.284
▁Lester	-12.2842
orn	-12.2845
▁160	-12.2855
▁vạt	-12.2865
▁kị	-12.2869
▁50,000	-12.2873
▁Ros	-12.2878
▁nhô	-12.2882
daf	-12.2888
▁Jenn	-12.2891
▁xít	-12.2899
ón	-12.29
▁ngửa	-12.291
LP	-12.2915
gạc	-12.2929
▁hun	-12.2929
▁Leo	-12.2931
▁58	-12.2933
rập	-12.2939
▁Map	-12.2947
ome	-12.295
af	-12.2971
▁tý	-12.2977
up	-12.2979
▁180	-12.2987
▁lòa	-12.2998
aker	-12.3
▁Harr	-12.3001
gu	-12.3005
ax	-12.3029
▁195	-12.3032
▁khờ	-12.3035
94	-12.304
▁heli	-12.3047
fli	-12.305
inger	-12.3058
ddie	-12.306
▁lọa	-12.3061
▁Fort	-12.3064
▁giâ	-12.3069
rane	-12.3069
ble	-12.3073
▁Hiể	-12.308
▁Mong	-12.3091
▁Rocke	-12.31
▁Bre	-12.3116
-2	-12.3117
line	-12.3119
▁Khố	-12.3147
▁Nú	-12.3154
▁Las	-12.3154
▁Dàn	-12.3155
▁Tô	-12.3168
DL	-12.3173
lô	-12.3187
úa	-12.3199
▁Giấ	-12.3202
▁Pri	-12.3209
▁ươ	-12.3212
tar	-12.3218
quy	-12.3219
▁Hoà	-12.3225
▁Ir	-12.3246
▁suôn	-12.3254
▁Pr	-12.3254
▁yê	-12.3257
▁rành	-12.3262
uke	-12.3267
aw	-12.3273
▁beatbox	-12.3284
▁1983	-12.3284
▁Atlanti	-12.3284
▁Dallas	-12.3284
▁Muhammad	-12.3284
▁Sydney	-12.3284
▁graffit	-12.3284
▁Minne	-12.3285
ihad	-12.3285
▁Mahat	-12.3285
▁nghẹ	-12.3285
BT	-12.3285
▁ELA	-12.3286
▁Rais	-12.3287
▁prô	-12.3287
▁Chuck	-12.3287
▁suyễn	-12.3287
▁Balti	-12.3288
thời	-12.3288
hran	-12.3288
link	-12.3292
▁Chad	-12.3295
58	-12.3296
▁RG	-12.3297
▁Dơi	-12.3299
▁Tù	-12.3302
▁Mario	-12.3306
rèm	-12.331
▁Space	-12.3313
▁calo	-12.3314
ette	-12.3324
▁Tôn	-12.3328
▁360	-12.3328
lus	-12.3331
uô	-12.3341
nny	-12.3343
▁khuya	-12.3345
▁61	-12.3345
▁phẫn	-12.3358
oán	-12.3381
dr	-12.3391
▁Free	-12.3408
▁rẫy	-12.3409
ế	-12.3411
▁nhẽ	-12.3414
▁chồn	-12.3416
▁Mont	-12.3423
▁Boo	-12.3427
▁Vai	-12.3427
dan	-12.3439
rug	-12.347
▁Loa	-12.3473
▁cỗi	-12.3482
hàng	-12.3507
▁Pol	-12.3518
rick	-12.3521
24	-12.3524
ial	-12.3524
vic	-12.3525
▁đẫ	-12.3543
BI	-12.3544
▁rẩy	-12.3544
▁Đen	-12.3553
lock	-12.3554
ace	-12.3559
cca	-12.3563
orado	-12.357
▁Gra	-12.3571
ura	-12.358
▁Lib	-12.3593
bad	-12.3598
▁OE	-12.3613
ED	-12.362
▁gân	-12.3631
▁Pha	-12.3632
car	-12.3638
▁Bán	-12.3649
▁ghe	-12.3663
19	-12.3668
▁thản	-12.3673
▁nể	-12.3674
uba	-12.3681
▁KS	-12.3686
▁uh	-12.3691
▁Sp	-12.3713
▁thuyê	-12.3736
▁lằn	-12.3737
▁You	-12.3745
▁khắ	-12.3751
▁LA	-12.3754
ES	-12.3755
▁Francis	-12.3761
▁guitar	-12.3761
nivers	-12.3761
▁Oakland	-12.3761
▁Susan	-12.3761
▁River	-12.3761
▁Roose	-12.3761
▁Titan	-12.3761
ambia	-12.3761
ansas	-12.3761
▁hect	-12.3762
GO	-12.3762
▁Dam	-12.3762
▁Romo	-12.3764
▁Vanco	-12.3766
lair	-12.3767
▁Valley	-12.3767
▁Rem	-12.3768
▁Max	-12.377
▁Starbuck	-12.3774
▁DM	-12.3778
▁block	-12.3781
▁American	-12.3785
▁199	-12.3788
▁tuôn	-12.379
▁loã	-12.379
-1	-12.3796
sion	-12.3796
ness	-12.3802
▁Đổ	-12.3806
▁SP	-12.3808
enzi	-12.3814
▁trũng	-12.3824
ibera	-12.3826
▁Michel	-12.3829
▁quệ	-12.3829
▁VR	-12.3831
ump	-12.3831
obi	-12.3835
▁trăn	-12.3839
▁LH	-12.384
nic	-12.3844
▁Tora	-12.3846
▁Lợ	-12.3854
▁91	-12.3854
itz	-12.386
▁Khan	-12.3863
▁1.3	-12.3867
AG	-12.3871
14	-12.3879
ư	-12.388
arch	-12.3884
▁Wood	-12.3887
ều	-12.389
▁Toy	-12.3904
anner	-12.3909
TA	-12.391
▁đự	-12.3915
▁miên	-12.3926
▁AB	-12.3932
▁AR	-12.3978
▁ngó	-12.4008
▁Ala	-12.401
▁Sang	-12.4023
.5	-12.4037
49	-12.4038
▁Jan	-12.4042
▁bươ	-12.407
▁Há	-12.4081
▁Hoạ	-12.409
một	-12.4108
▁ok	-12.4116
▁Lã	-12.4121
omi	-12.4126
oát	-12.4129
▁laze	-12.4167
sky	-12.419
OS	-12.4192
▁you	-12.4196
▁Stan	-12.4199
▁luồn	-12.4213
▁giỏ	-12.4214
▁Dò	-12.4216
▁hoả	-12.4217
13	-12.4224
ose	-12.4226
▁Mag	-12.4226
▁Cap	-12.4234
ps	-12.4244
.8	-12.4245
57	-12.4252
▁nặn	-12.4259
▁Ira	-12.426
▁Bahamas	-12.4261
▁Cameron	-12.4261
▁Georgi	-12.4261
▁Jennifer	-12.4261
▁Mountain	-12.4261
▁Qatar	-12.4261
▁Tahrir	-12.4261
▁Tennessee	-12.4261
ườn	-12.4261
▁Lawrence	-12.4261
▁blogger	-12.4261
▁milimet	-12.4261
▁Ryan	-12.4261
▁Murr	-12.4261
▁Inter	-12.4261
▁Lesterland	-12.4261
▁Bern	-12.4263
▁Plato	-12.4265
berry	-12.4266
▁Olive	-12.4266
▁Ross	-12.4267
sota	-12.4269
ment	-12.427
the	-12.4273
0	-12.4273
▁Kiể	-12.4273
▁1,3	-12.4273
▁Hindu	-12.4289
▁sỉ	-12.4292
▁games	-12.4295
▁plas	-12.4298
▁Lis	-12.4301
▁Gre	-12.4302
▁AV	-12.431
▁Lạnh	-12.4312
▁TR	-12.4314
▁mịn	-12.4319
▁Hawkin	-12.432
▁nhún	-12.4324
EG	-12.4324
▁Sứ	-12.4325
▁Lai	-12.4326
▁Wo	-12.4328
▁68	-12.4332
▁Home	-12.4336
▁Doug	-12.4345
▁hip	-12.4365
▁Agn	-12.4367
▁bíp	-12.4372
uit	-12.4373
eau	-12.4388
▁Maya	-12.4396
ull	-12.44
▁Tiên	-12.4406
ima	-12.4416
ớ	-12.4423
▁sam	-12.4424
▁Anas	-12.4449
oàn	-12.4464
▁amin	-12.447
ala	-12.448
hời	-12.4485
▁54	-12.4488
▁Colli	-12.4493
▁nguô	-12.4509
▁Del	-12.4511
▁Mama	-12.4527
▁lở	-12.4557
ola	-12.4561
▁Rô	-12.4563
uck	-12.4599
▁Ram	-12.4619
▁Vệ	-12.462
avi	-12.4621
▁Im	-12.4622
▁Dian	-12.4635
▁Hol	-12.4639
▁bổn	-12.4639
▁Abu	-12.4641
▁Ale	-12.4642
▁lon	-12.4643
rin	-12.4645
ale	-12.4653
ox	-12.4655
▁hă	-12.4663
▁gở	-12.4678
phần	-12.4683
sto	-12.4687
▁On	-12.4707
cking	-12.4725
▁En	-12.4735
ệp	-12.4752
hire	-12.4783
Solomon	-12.4787
▁Campuchia	-12.4787
▁Dreyfus	-12.4787
▁Enceladus	-12.4787
▁Harlem	-12.4787
▁Lebanon	-12.4787
▁Nichol	-12.4787
▁Oxy	-12.4787
▁foot	-12.4787
▁FOXO	-12.4787
▁Philippine	-12.4787
▁Intel	-12.4787
▁Hungar	-12.4787
▁CNN	-12.4787
▁Norman	-12.4787
▁nhõm	-12.4787
▁wow	-12.4787
▁Wilson	-12.4788
▁1940	-12.4788
▁eB	-12.4788
▁Gold	-12.4788
▁Galile	-12.4789
▁Jess	-12.4789
port	-12.4789
▁Bono	-12.4792
▁AO	-12.4793
tech	-12.4794
▁Hmm	-12.4795
ati	-12.4796
▁lóe	-12.4797
▁Freu	-12.4798
▁Kate	-12.4798
▁NGO	-12.48
▁Ess	-12.4803
ras	-12.4807
moud	-12.4808
▁Aspe	-12.481
acci	-12.4813
oir	-12.4815
▁Art	-12.4843
Fi	-12.4848
▁thoi	-12.4863
▁CH	-12.4867
▁Red	-12.4871
▁hù	-12.4874
king	-12.4875
▁vồng	-12.4876
▁1.6	-12.4887
▁Mob	-12.4893
▁56	-12.4896
ock	-12.4901
▁Talk	-12.4938
▁Mus	-12.494
low	-12.4944
ever	-12.4947
▁Mao	-12.4953
ố	-12.4962
▁Job	-12.4964
▁mội	-12.4977
44	-12.4982
▁Bru	-12.4988
aret	-12.5008
▁SM	-12.5013
▁váng	-12.503
▁Cri	-12.5033
▁RIS	-12.5036
obo	-12.5055
▁Edis	-12.5059
40	-12.5059
sd	-12.5064
47	-12.5065
emo	-12.5076
▁She	-12.5081
ọ	-12.5082
▁Quyế	-12.5084
79	-12.5091
▁Win	-12.5115
gh	-12.5117
Bonica	-12.5123
ulu	-12.5138
67	-12.5139
sor	-12.5139
▁Pal	-12.5157
▁Alla	-12.5173
utu	-12.5184
EA	-12.5206
▁ná	-12.521
iro	-12.5214
81	-12.5217
ute	-12.5219
▁Bach	-12.5223
nô	-12.5226
▁Mada	-12.5227
xít	-12.5235
bốn	-12.5236
mee	-12.5239
une	-12.5242
▁Farm	-12.5253
LA	-12.5283
CA	-12.5283
arter	-12.5292
▁IP	-12.5292
▁Jon	-12.5296
▁nhì	-12.5319
ski	-12.5324
▁hòan	-12.5325
let	-12.5327
,6	-12.5328
▁Ham	-12.533
▁Tân	-12.5332
▁93	-12.5334
▁phồn	-12.5342
quẳng	-12.5343
▁1986	-12.5343
▁Amsterdam	-12.5343
▁Taylor	-12.5343
▁Vinci	-12.5343
▁CIA	-12.5343
▁Isabel	-12.5343
▁Bertie	-12.5343
▁pass	-12.5343
▁Hubble	-12.5343
vatar	-12.5343
▁Sony	-12.5343
▁Hud	-12.5344
HO	-12.5344
▁Jason	-12.5344
▁Hanna	-12.5344
▁4.5	-12.5345
▁Pitt	-12.5346
56	-12.5346
hock	-12.5347
▁Post	-12.5349
▁125	-12.535
idge	-12.5355
▁Brook	-12.5356
▁dằn	-12.5357
heim	-12.5357
▁AD	-12.5362
gel	-12.5366
▁Wil	-12.5372
iflu	-12.5373
▁nitri	-12.5374
▁76	-12.538
oney	-12.5382
asa	-12.5385
uaz	-12.5388
▁Dave	-12.5389
▁ghề	-12.539
70	-12.54
▁nè	-12.5414
AR	-12.5415
▁Gand	-12.5425
▁Lá	-12.5432
▁Benk	-12.5439
rich	-12.5447
avid	-12.5456
TEM	-12.5464
▁Lou	-12.5473
▁Chia	-12.5492
ạ	-12.5506
27	-12.5514
▁84	-12.552
▁Song	-12.5524
▁Rố	-12.5531
▁Ferr	-12.5532
▁7000	-12.5536
và	-12.555
▁von	-12.5554
war	-12.5558
ins	-12.5566
▁Far	-12.5573
▁Mos	-12.5585
tler	-12.5586
ồn	-12.5608
▁Je	-12.5609
bro	-12.563
▁sò	-12.5636
lic	-12.5641
etra	-12.5646
yon	-12.5666
▁Dar	-12.5669
BS	-12.5671
▁for	-12.5695
▁SB	-12.5706
▁gam	-12.5708
▁Rebe	-12.5711
oster	-12.5724
▁Lâ	-12.5734
▁Ne	-12.5736
enberg	-12.5737
▁thớ	-12.5742
▁kè	-12.5751
ake	-12.5771
89	-12.5778
▁450	-12.5783
▁78	-12.5798
▁Mang	-12.5802
▁Centr	-12.5802
rger	-12.5803
▁Men	-12.582
For	-12.5822
▁Ger	-12.5829
đi	-12.583
illy	-12.5836
mini	-12.586
▁MT	-12.586
ascar	-12.587
via	-12.5883
▁Lind	-12.5884
▁Gan	-12.5888
tein	-12.5889
kar	-12.5894
oma	-12.5901
side	-12.5907
▁Anna	-12.5915
▁Archi	-12.5916
▁82	-12.5916
▁God	-12.592
run	-12.5921
kins	-12.5921
▁1,2	-12.5922
10	-12.5925
DC	-12.5928
marathon	-12.5931
▁Android	-12.5931
▁Odysse	-12.5931
▁Phoenix	-12.5931
▁Picasso	-12.5931
▁hắt	-12.5931
▁progeri	-12.5931
▁Aaron	-12.5931
▁neuro	-12.5931
▁McDonald	-12.5931
▁Orwell	-12.5931
▁Stock	-12.5931
▁okay	-12.5931
▁nilon	-12.5931
▁boong	-12.5931
▁1976	-12.5931
▁Euro	-12.5932
word	-12.5932
▁Sandy	-12.5933
▁sữ	-12.5933
▁Carib	-12.5933
▁qú	-12.5933
▁mứ	-12.5934
▁canxi	-12.5934
▁Coke	-12.5936
old	-12.5944
▁Phó	-12.5945
▁Sỹ	-12.595
PT	-12.5955
▁Jami	-12.596
▁Rub	-12.5964
▁Cat	-12.5971
▁Đạ	-12.5971
▁há	-12.5972
▁Patric	-12.5982
ylan	-12.5989
▁Gary	-12.5994
▁Malay	-12.6001
▁gôn	-12.6003
Sh	-12.6003
▁sỡ	-12.6005
thy	-12.6011
▁Marc	-12.602
phi	-12.6021
▁lab	-12.6023
▁Ana	-12.6026
▁ngạ	-12.6032
68	-12.6038
hoe	-12.6042
▁búp	-12.6045
usse	-12.6051
▁Xa	-12.6055
▁nhỡ	-12.6058
bert	-12.6061
▁57	-12.6063
▁Vo	-12.6072
bes	-12.6085
lip	-12.6092
▁gel	-12.6096
17	-12.6099
▁Jacque	-12.6108
▁Sun	-12.6109
▁Mari	-12.6112
mond	-12.6118
Donald	-12.6125
ash	-12.6149
▁Robin	-12.6155
sel	-12.6161
ago	-12.6169
3,000	-12.6171
▁Stand	-12.6172
▁đễ	-12.6191
▁Tham	-12.6192
▁gram	-12.6215
▁Lei	-12.6227
burg	-12.6242
▁Pun	-12.6257
▁Fu	-12.6264
▁Palm	-12.6266
▁110	-12.6277
▁Eco	-12.6281
iêng	-12.6283
lê	-12.6315
▁Stone	-12.6326
▁Som	-12.6327
▁úp	-12.6332
row	-12.6339
▁Nghi	-12.6348
onin	-12.6358
▁Gri	-12.6376
TT	-12.6413
ight	-12.6414
air	-12.6436
She	-12.6442
▁Hara	-12.6443
lm	-12.6444
oạc	-12.6456
plan	-12.6462
▁Gian	-12.6468
▁Qui	-12.647
atur	-12.6476
▁2500	-12.6486
▁Laur	-12.6486
ower	-12.6495
,8	-12.6499
▁Alf	-12.6501
38	-12.6501
▁Mak	-12.6509
▁Ann	-12.6519
▁Hous	-12.6529
▁Sher	-12.653
elen	-12.6533
ould	-12.6533
▁Cử	-12.6535
▁đờ	-12.6545
ía	-12.6548
▁poly	-12.6555
▁Algeri	-12.6556
▁Arkansas	-12.6556
▁Illinois	-12.6556
▁International	-12.6556
▁Kentucky	-12.6556
▁Massachusetts	-12.6556
▁Neuman	-12.6556
▁Senegal	-12.6556
▁Siftable	-12.6556
azeera	-12.6556
▁Austral	-12.6556
▁Bilb	-12.6556
▁Brenda	-12.6556
▁School	-12.6556
▁ôxy	-12.6556
▁Rosling	-12.6556
▁Clark	-12.6556
▁Geoff	-12.6556
▁Rachel	-12.6556
▁MoMA	-12.6556
▁Child	-12.6556
▁Cự	-12.6557
▁Fred	-12.6557
meer	-12.6558
▁Insta	-12.6559
▁Gwe	-12.6559
▁Oz	-12.6561
▁hũ	-12.6562
assem	-12.6563
ớt	-12.6567
serot	-12.6567
▁yog	-12.6569
▁Pla	-12.6571
▁nai	-12.6572
▁HP	-12.6573
▁giũ	-12.6579
PL	-12.6584
ric	-12.6587
▁Az	-12.6588
▁Osa	-12.6589
▁Walter	-12.6603
▁Russel	-12.6606
▁tứ	-12.6607
▁Masa	-12.6607
▁xiếc	-12.6612
▁thò	-12.6619
▁Young	-12.662
ST	-12.6622
dom	-12.6624
▁Amy	-12.6627
▁NR	-12.6627
roll	-12.6629
▁gara	-12.6632
▁Shad	-12.6634
hĩa	-12.6637
▁Đề	-12.6646
▁NM	-12.6663
og	-12.667
▁kilo	-12.6672
▁Christoph	-12.6675
▁Den	-12.6677
▁Bin	-12.6678
if	-12.668
▁TH	-12.6691
che	-12.6691
▁thuyên	-12.6699
▁Str	-12.6722
▁Vui	-12.6728
▁101	-12.6731
IN	-12.6733
ves	-12.6735
IS	-12.6757
▁Mau	-12.676
yle	-12.676
▁Nguy	-12.6764
▁Ngọ	-12.6766
▁Chả	-12.6787
▁Neil	-12.6793
▁53	-12.6796
▁Luc	-12.68
HD	-12.681
▁Johns	-12.6819
ona	-12.6821
ộ	-12.6823
ẻo	-12.6851
cker	-12.6864
ET	-12.687
hero	-12.6871
ồ	-12.6872
ska	-12.6883
▁Tre	-12.6886
▁Sô	-12.6905
anda	-12.6906
hụp	-12.6922
▁Lake	-12.6922
ừ	-12.6929
ery	-12.6937
▁All	-12.6946
▁phư	-12.6954
pur	-12.6959
ku	-12.6961
ral	-12.6994
▁vớt	-12.6997
,3	-12.7
▁Cel	-12.7009
29	-12.7016
ics	-12.7027
ira	-12.7031
▁Bla	-12.7032
avis	-12.7033
sis	-12.7041
ood	-12.7057
av	-12.7062
▁dơ	-12.708
▁Has	-12.7096
▁Fr	-12.7109
tinh	-12.7109
▁is	-12.711
▁Stro	-12.7121
50	-12.7123
atica	-12.7132
zz	-12.7134
hr	-12.7141
▁Cư	-12.7141
aki	-12.7144
▁Acce	-12.7145
▁77	-12.7151
leen	-12.7157
▁Nor	-12.7165
cas	-12.7178
rie	-12.7184
unk	-12.7187
dale	-12.7187
▁lỏ	-12.7209
▁Justin	-12.7221
▁East	-12.7222
▁Afganistan	-12.7222
▁Balkan	-12.7222
▁Bryan	-12.7222
▁DARPA	-12.7222
▁Guatemala	-12.7222
▁NBA	-12.7222
▁Palextin	-12.7222
▁Yellowstone	-12.7222
▁PowerPoint	-12.7222
▁acid	-12.7222
▁Darfur	-12.7222
▁socola	-12.7222
▁2-3	-12.7222
▁Buffet	-12.7223
▁Radio	-12.7223
▁Anthon	-12.7223
▁Ital	-12.7223
▁Every	-12.7223
▁Kiva	-12.7223
▁Shir	-12.7223
▁Natali	-12.7224
▁Church	-12.7224
▁Jose	-12.7224
▁Jaw	-12.7224
▁violin	-12.7224
▁1987	-12.7224
▁Jackson	-12.7224
▁Floren	-12.7225
▁Phổ	-12.7226
▁Juan	-12.7226
▁urani	-12.7226
SDA	-12.7226
Phi	-12.7227
▁India	-12.7227
▁Trump	-12.7227
▁Glen	-12.7228
▁lổ	-12.7233
thic	-12.7236
osph	-12.7242
ạc	-12.7243
ering	-12.7243
eld	-12.7243
▁bứ	-12.7248
ail	-12.7248
▁Ash	-12.725
▁Whoa	-12.7251
pher	-12.7252
▁LM	-12.7253
▁Kal	-12.7257
▁photo	-12.7257
▁8000	-12.7258
▁chỏ	-12.7259
▁hoóc	-12.7261
▁EB	-12.7263
▁194	-12.7283
ucker	-12.7284
▁Veg	-12.7284
sey	-12.7285
app	-12.7287
JA	-12.7292
▁mic	-12.7293
can	-12.7294
▁ft	-12.7299
▁té	-12.7312
aba	-12.7319
▁Hamp	-12.7334
zi	-12.7337
▁88	-12.7349
bass	-12.7364
ohen	-12.738
raham	-12.7381
cratch	-12.7382
▁Gord	-12.7384
rid	-12.7391
ươ	-12.7392
pal	-12.7398
íu	-12.7399
erine	-12.7406
▁Gall	-12.7413
▁1.8	-12.7417
MF	-12.7421
▁Ind	-12.7428
▁phỉ	-12.7436
▁bở	-12.7445
▁Mass	-12.7449
▁Kath	-12.745
huyên	-12.7453
▁Par	-12.7457
▁hop	-12.7459
SC	-12.747
xe	-12.7475
bs	-12.7478
lie	-12.7499
▁hú	-12.7512
atin	-12.7548
▁vẹ	-12.7556
AM	-12.7567
▁Kis	-12.7576
▁vể	-12.7578
▁Mae	-12.7578
obul	-12.7603
oul	-12.7622
ania	-12.7626
▁Quê	-12.7645
64	-12.7647
amb	-12.7648
ole	-12.7653
nder	-12.7661
▁giê	-12.7665
wait	-12.7675
ets	-12.7684
ous	-12.7719
▁quạ	-12.7725
54	-12.7741
▁Cuộ	-12.7748
into	-12.7752
fo	-12.7763
pper	-12.7766
ER	-12.7775
▁Kara	-12.7777
over	-12.7787
▁66	-12.7811
gô	-12.7821
ẹ	-12.7832
usie	-12.7838
KT	-12.7838
▁Hiê	-12.7839
▁Nat	-12.7843
Chống	-12.7851
esh	-12.7856
▁Cre	-12.7862
uyện	-12.7868
▁Pet	-12.7872
▁Whe	-12.7895
▁Wire	-12.7912
lick	-12.7916
bit	-12.7917
▁Glo	-12.7918
▁BP	-12.7919
▁Somali	-12.7919
lông	-12.7934
▁Palestin	-12.7934
▁Mathe	-12.7935
▁Aurora	-12.7937
▁CERN	-12.7937
▁Calais	-12.7937
▁Chernobyl	-12.7937
▁Clevela	-12.7937
▁Everglade	-12.7937
▁Faiza	-12.7937
▁Mississip	-12.7937
▁Missouri	-12.7937
▁Mozambique	-12.7937
▁hidro	-12.7937
▁ozone	-12.7937
▁water	-12.7937
▁Kelly	-12.7937
▁megawatt	-12.7937
▁England	-12.7937
▁Athen	-12.7937
▁PRI	-12.7937
▁Walker	-12.7937
▁Garden	-12.7937
▁Stalin	-12.7937
▁polymer	-12.7937
▁ARN	-12.7937
▁Nauy	-12.7937
▁Power	-12.7937
▁Lega	-12.7938
ookie	-12.7938
▁Brent	-12.7938
▁Photos	-12.7938
scal	-12.7938
▁1965	-12.7938
▁Good	-12.7939
▁June	-12.7939
▁Papu	-12.7939
▁Stein	-12.794
▁hooc	-12.7941
DT	-12.7942
onald	-12.7942
▁Turin	-12.7942
▁Bond	-12.7943
▁Quô	-12.7944
▁nhằn	-12.795
▁10000	-12.7951
tain	-12.7951
▁dốt	-12.7952
▁cents	-12.7954
byte	-12.7964
ding	-12.7964
▁Gui	-12.7967
▁Roman	-12.7968
phu	-12.7969
▁CN	-12.797
▁CT	-12.7972
▁Woo	-12.798
▁Bina	-12.7991
▁tã	-12.7995
here	-12.7997
late	-12.8001
▁giòn	-12.8002
less	-12.8012
▁nhoi	-12.8016
▁Kong	-12.8019
▁30.000	-12.802
▁thòi	-12.8024
of	-12.8033
hhh	-12.8034
▁Wang	-12.8038
▁MM	-12.8043
▁trờ	-12.8044
PP	-12.8044
press	-12.8046
ano	-12.805
Man	-12.8053
▁67	-12.8057
refo	-12.8059
▁xù	-12.8059
▁ké	-12.8063
▁răn	-12.807
▁Acc	-12.8074
đa	-12.8079
ôn	-12.8096
lux	-12.8099
▁Elv	-12.8106
▁1600	-12.811
▁Fran	-12.8127
▁Proto	-12.8141
ike	-12.815
▁Genev	-12.815
▁bầm	-12.8159
ơng	-12.8164
▁ten	-12.8177
▁McC	-12.8178
60	-12.8202
▁gọ	-12.8202
ote	-12.8205
hế	-12.8212
lbert	-12.8225
▁Pre	-12.8232
ister	-12.8252
▁DE	-12.8257
▁Kan	-12.8257
▁ngợ	-12.8265
▁Màn	-12.8304
leon	-12.8307
EF	-12.8322
▁lì	-12.8324
▁Mir	-12.8324
ings	-12.8332
pho	-12.8332
▁Holm	-12.8334
▁Rod	-12.8341
▁Billy	-12.8354
bea	-12.8355
dora	-12.8357
▁nhụ	-12.8366
ame	-12.839
edi	-12.8393
▁73	-12.8396
75	-12.84
▁khoả	-12.8404
▁sen	-12.8408
min	-12.8429
FL	-12.8441
33	-12.8448
hộp	-12.8449
▁GI	-12.8461
▁Code	-12.8472
▁Sol	-12.848
illie	-12.8483
▁Tụ	-12.849
CO	-12.8496
▁Kê	-12.8497
▁giở	-12.8501
ự	-12.8502
MT	-12.8524
eka	-12.8528
ươm	-12.8529
▁quad	-12.8532
bee	-12.8539
▁Bơ	-12.8547
▁Mard	-12.8551
.7	-12.8555
▁oli	-12.8567
antha	-12.8574
▁Swa	-12.858
uyễn	-12.8582
ller	-12.8588
▁SR	-12.8606
onnet	-12.8608
▁Spe	-12.8609
iba	-12.8611
▁LI	-12.8628
uza	-12.8636
tre	-12.8636
▁Ig	-12.8641
▁Món	-12.8643
nik	-12.8648
▁Juli	-12.8669
font	-12.867
90	-12.8676
▁Ande	-12.8682
sburg	-12.8692
77	-12.87
▁Life	-12.8701
▁Ex	-12.8701
mitr	-12.8705
▁Cassini	-12.8706
▁Ixaren	-12.8706
▁Jarrett	-12.8706
▁MBA	-12.8706
▁Mitchell	-12.8706
▁Pantheon	-12.8706
▁Pittsburgh	-12.8706
▁Simpson	-12.8706
▁Swahili	-12.8706
▁Agile	-12.8706
▁Show	-12.8706
▁webcam	-12.8706
▁Scoo	-12.8706
NIC	-12.8706
▁Fuku	-12.8706
▁Brother	-12.8706
▁microphone	-12.8706
▁Studio	-12.8706
▁Budrus	-12.8706
NIH	-12.8706
▁Ahmed	-12.8706
▁Entropi	-12.8706
▁Jeni	-12.8706
▁LOL	-12.8707
▁Bueno	-12.8707
▁tợn	-12.8707
▁Heather	-12.8707
▁Erik	-12.8708
▁nghành	-12.8708
▁Sween	-12.8708
▁SAR	-12.8709
evo	-12.8709
▁63	-12.8709
▁Beatle	-12.871
▁JF	-12.871
▁Nhện	-12.8711
AA	-12.8713
▁Scien	-12.8714
▁Doha	-12.8714
▁Coch	-12.8718
▁Protein	-12.8718
ited	-12.8719
zơ	-12.8719
▁teddy	-12.8721
▁mít	-12.8722
▁Hưng	-12.8723
lar	-12.8724
▁Ard	-12.8726
▁Hum	-12.8726
▁Mall	-12.8731
▁Sri	-12.8733
mbor	-12.8734
▁GH	-12.8735
▁III	-12.8739
▁Aust	-12.874
▁MP	-12.8744
▁Bert	-12.8746
▁Play	-12.8755
▁khuỷ	-12.8758
▁-40	-12.8762
AT	-12.8768
▁lả	-12.8773
▁Tob	-12.8778
azo	-12.8788
▁mụ	-12.8796
▁Shah	-12.88
▁NO	-12.8803
ito	-12.8823
▁đụn	-12.8847
▁Berg	-12.8858
▁NAT	-12.8859
azan	-12.8862
endo	-12.8872
▁Gayl	-12.8889
▁thự	-12.8931
▁chường	-12.8935
▁Sala	-12.8937
▁Chim	-12.8943
lide	-12.8946
sai	-12.8951
ess	-12.8967
olo	-12.8968
▁giông	-12.8987
▁Water	-12.8989
▁Dow	-12.899
▁650	-12.8997
Your	-12.8997
▁NA	-12.9002
▁Thả	-12.9004
ames	-12.9007
▁Math	-12.9008
65	-12.9014
▁xao	-12.9016
▁Penn	-12.9017
ines	-12.9037
7.5	-12.9043
aver	-12.9048
love	-12.9054
▁oan	-12.9076
▁Mik	-12.9076
▁lươn	-12.9081
▁Game	-12.9091
▁nhe	-12.9091
ander	-12.9094
cent	-12.9116
▁39	-12.9117
▁Brand	-12.9125
▁NG	-12.9125
▁Sue	-12.9139
TC	-12.9147
uay	-12.9151
979	-12.9158
umb	-12.9169
trans	-12.9175
fan	-12.9193
▁Marl	-12.9194
▁Hama	-12.9197
34	-12.9206
dle	-12.921
▁We	-12.9213
rel	-12.9215
him	-12.9221
▁lim	-12.9221
▁Môn	-12.9236
▁Live	-12.9236
▁Spu	-12.9249
▁McCa	-12.926
bel	-12.927
▁dô	-12.9282
▁lún	-12.9286
for	-12.9287
rence	-12.9288
▁Fer	-12.9299
▁Mid	-12.932
▁khư	-12.9323
▁xỏ	-12.9325
▁serie	-12.9332
wai	-12.9356
oyd	-12.9362
▁chấu	-12.9382
▁Tal	-12.9385
ạnh	-12.9391
▁Giê	-12.9396
ựng	-12.9402
▁Cent	-12.941
tag	-12.9423
rop	-12.9425
MA	-12.9428
▁25000	-12.9429
hoạt	-12.9433
hay	-12.9435
chan	-12.9445
tica	-12.9467
▁Sir	-12.9468
3.000	-12.947
ừm	-12.9471
▁Emp	-12.9486
▁Pac	-12.9489
▁khơ	-12.9491
▁wh	-12.9494
owa	-12.9495
ilton	-12.9505
ald	-12.9511
too	-12.9516
▁Ol	-12.9517
▁nắn	-12.9537
horn	-12.9537
▁Beatbox	-12.9539
ittleBit	-12.9539
▁Connecticut	-12.9539
▁Discover	-12.9539
▁Economi	-12.9539
▁Feynman	-12.9539
▁Guardian	-12.9539
▁Jerem	-12.9539
▁Moscow	-12.9539
▁Naghma	-12.9539
▁Nevada	-12.9539
▁cocktail	-12.9539
▁ethanol	-12.9539
▁1982	-12.9539
▁Hiroshi	-12.9539
▁Bloom	-12.9539
▁Owen	-12.9539
▁What	-12.9539
▁whisk	-12.9539
▁micrô	-12.9539
▁radar	-12.9539
pha	-12.954
▁Java	-12.954
▁Opra	-12.954
▁Found	-12.954
▁Sadd	-12.954
▁rupi	-12.954
▁nick	-12.954
▁ATM	-12.954
▁Fernand	-12.954
▁Ngựa	-12.954
4,000	-12.9542
▁Soci	-12.9542
omplex	-12.9542
▁1972	-12.9542
▁Shre	-12.9543
▁Justine	-12.9543
▁Joan	-12.9543
▁luyến	-12.9543
▁Bandu	-12.9544
▁Huck	-12.9545
OD	-12.9546
▁One	-12.9546
▁Serbi	-12.9548
▁Tuyết	-12.9548
▁Music	-12.9559
▁hash	-12.9563
▁Health	-12.9564
raft	-12.9569
▁xiết	-12.9571
▁mè	-12.9574
▁Bess	-12.9576
▁Nino	-12.9577
ramen	-12.958
▁Electro	-12.958
Muốn	-12.9581
▁nhộng	-12.9584
▁Góc	-12.9588
▁LE	-12.9589
▁4.000	-12.9594
▁fis	-12.9599
▁mủ	-12.9607
▁Ran	-12.9609
▁Bear	-12.9611
▁Grove	-12.9612
▁mega	-12.9614
▁Kene	-12.9618
▁Gor	-12.9624
▁rợ	-12.9634
key	-12.9644
▁Rot	-12.9645
▁Tel	-12.9652
▁Mũ	-12.9657
zar	-12.9658
ssel	-12.9658
hệ	-12.966
als	-12.9669
▁Buck	-12.967
illa	-12.9671
enny	-12.9674
▁Pen	-12.9688
▁Dur	-12.9689
Jazz	-12.9692
▁xỉn	-12.9701
▁ngỏ	-12.9712
nches	-12.9713
▁Chap	-12.9724
bot	-12.973
▁Ren	-12.9731
▁Ango	-12.9737
▁More	-12.9741
▁DC	-12.9743
ical	-12.9746
non	-12.9757
ndon	-12.9769
phone	-12.9771
umar	-12.9773
▁Carlo	-12.9775
TV	-12.9781
▁Des	-12.9784
tation	-12.9785
▁Williams	-12.9788
▁HC	-12.9788
▁Para	-12.9795
▁Von	-12.9795
▁Bowl	-12.9799
PS	-12.9799
▁Angel	-12.9848
▁Rama	-12.986
▁Kerr	-12.9881
▁Kai	-12.9882
▁Rese	-12.9885
ses	-12.9886
▁Bing	-12.9891
shop	-12.9895
nion	-12.9896
▁Walt	-12.9916
etti	-12.9919
ante	-12.9925
eibo	-12.9929
ustin	-12.9932
▁Fre	-12.9943
ree	-12.9943
▁170	-12.9943
uồi	-12.9944
▁Sur	-12.9948
▁Eli	-12.9958
▁Dai	-12.9959
▁Nav	-12.9964
form	-12.997
-20	-12.9982
91	-13.0016
28	-13.0016
▁Đươ	-13.0018
ehr	-13.0022
ượ	-13.0035
ben	-13.0043
lad	-13.0065
ool	-13.0066
ean	-13.0084
ase	-13.0087
dal	-13.0097
hớt	-13.0114
▁Bia	-13.0119
estero	-13.0141
▁Hè	-13.0146
▁Genera	-13.015
▁pen	-13.0151
eir	-13.0157
▁ep	-13.0158
▁Diet	-13.0159
▁62	-13.0167
▁lét	-13.0169
ello	-13.0177
▁Wor	-13.0205
▁sê	-13.0206
▁Nay	-13.0214
SF	-13.0221
úy	-13.0226
▁IT	-13.0233
hore	-13.0234
vre	-13.0234
SB	-13.0246
▁Hỗ	-13.0254
▁RS	-13.026
ese	-13.0268
eal	-13.0278
pid	-13.0281
ushi	-13.029
▁Bot	-13.0291
▁Bir	-13.0294
scar	-13.0294
xel	-13.032
organ	-13.0339
Prince	-13.0339
qua	-13.0339
rillo	-13.034
pon	-13.0341
Car	-13.0343
ika	-13.0347
rek	-13.0349
lơ	-13.036
able	-13.0367
▁Por	-13.0374
▁Miến	-13.0391
▁America	-13.0401
ough	-13.0409
▁Ame	-13.0422
eus	-13.043
ful	-13.0432
▁BR	-13.0432
ghèo	-13.0435
▁Chă	-13.044
▁Higg	-13.0444
ennis	-13.0446
oogle	-13.0447
▁Sea	-13.0447
▁Little	-13.0448
engineering	-13.0448
▁Cameroon	-13.0448
▁Chechnya	-13.0448
▁Emmanuel	-13.0448
▁Estonia	-13.0448
▁Ezra	-13.0448
▁Nixon	-13.0448
▁Rezero	-13.0448
▁Sebastia	-13.0448
▁Sistine	-13.0448
▁Stuart	-13.0448
▁Stux	-13.0448
▁Vienna	-13.0448
▁Potter	-13.0448
▁Fuller	-13.0448
▁Queens	-13.0448
▁Online	-13.0448
▁Kurdis	-13.0448
▁nghếch	-13.0449
▁Prize	-13.0449
▁PCB	-13.0449
Mobile	-13.0449
tzman	-13.0449
▁Montre	-13.0449
▁Kamen	-13.0449
▁Serge	-13.0449
▁Johannes	-13.0449
▁Maurit	-13.0449
▁Glas	-13.0449
feld	-13.0449
▁Anders	-13.0449
▁Food	-13.0449
▁hằn	-13.0449
edou	-13.045
alph	-13.045
▁Jake	-13.045
▁99.9	-13.045
▁1929	-13.045
▁0.5	-13.0451
▁neutron	-13.0451
ellul	-13.0451
▁Gaga	-13.0452
▁Capit	-13.0452
▁Reed	-13.0452
▁Pack	-13.0453
▁lẹ	-13.0454
▁Rich	-13.0454
ALL	-13.0454
▁mili	-13.0455
▁like	-13.0455
▁IV	-13.0457
▁1200	-13.0458
ieber	-13.0458
▁tă	-13.0459
-0	-13.0459
▁Ida	-13.0459
incent	-13.046
▁GB	-13.046
▁Wins	-13.0463
▁Wars	-13.0463
▁Bull	-13.0464
▁BER	-13.0465
▁dollars	-13.0466
▁Adrian	-13.0466
▁Nash	-13.0467
▁muội	-13.0467
▁Avi	-13.0468
▁out	-13.0469
▁Kera	-13.047
shot	-13.0472
▁Nova	-13.0473
▁KI	-13.0476
▁Buy	-13.0476
head	-13.0477
▁2.6	-13.0478
read	-13.0484
▁giỡ	-13.0493
▁HA	-13.0493
▁Transi	-13.0495
▁Hul	-13.0501
▁chơ	-13.0505
▁Dub	-13.0505
nil	-13.0505
LB	-13.0508
▁40.000	-13.0509
▁Mê	-13.0514
artha	-13.0519
▁Hazar	-13.0527
▁74	-13.0528
rvey	-13.0529
▁Rita	-13.053
▁Grant	-13.0532
▁q	-13.0533
house	-13.0542
▁TE	-13.0544
▁lõng	-13.0555
▁0,0	-13.0559
▁Mer	-13.0563
PEC	-13.0567
▁Pauli	-13.0568
iness	-13.0572
▁Hary	-13.0573
▁MW	-13.0591
▁Iv	-13.0601
▁TI	-13.0602
mel	-13.0605
los	-13.0611
oad	-13.0612
augh	-13.0612
eem	-13.0625
wif	-13.0634
ando	-13.065
▁test	-13.0654
▁Tia	-13.066
▁Hoả	-13.0662
▁ĐH	-13.0664
▁Amir	-13.0667
▁Lof	-13.067
▁Gal	-13.0674
39	-13.0681
▁Cath	-13.0691
▁Love	-13.0705
▁Dep	-13.0718
ớn	-13.0723
▁Burr	-13.0726
▁dí	-13.0736
▁Burk	-13.0743
xa	-13.0752
gas	-13.0765
▁Er	-13.0774
▁Lim	-13.0777
rque	-13.0784
▁Harol	-13.0785
sari	-13.0792
uyến	-13.0804
▁Hal	-13.0826
▁nit	-13.0837
▁Mas	-13.0838
▁83	-13.0839
▁Ye	-13.0841
▁Mann	-13.0842
▁fil	-13.0848
▁Chev	-13.0849
▁Eu	-13.0875
▁240	-13.0884
ois	-13.0892
▁Gram	-13.0902
IM	-13.0905
cer	-13.0907
▁Mali	-13.0936
▁Khoan	-13.0939
amil	-13.0946
▁BS	-13.0948
kov	-13.0953
-10	-13.0961
plin	-13.0972
▁Madi	-13.0988
ẹn	-13.1023
22	-13.1026
SE	-13.1034
pus	-13.1039
▁Day	-13.105
oke	-13.1052
▁Harri	-13.1054
rma	-13.1057
▁Fat	-13.1066
▁Thom	-13.1076
▁TEDster	-13.1079
fell	-13.1087
EC	-13.1092
ement	-13.1095
star	-13.1111
36	-13.1113
ille	-13.1114
72	-13.1149
DI	-13.1193
sters	-13.1207
▁Mr	-13.122
▁Cole	-13.1229
0-50	-13.1234
▁GM	-13.1234
▁Sina	-13.1235
Pes	-13.1239
▁750	-13.1246
gic	-13.1255
▁Burn	-13.1257
uga	-13.1268
ocal	-13.1292
20.000	-13.1296
▁Night	-13.1301
▁dế	-13.1309
rk	-13.1317
974	-13.132
aah	-13.1325
shim	-13.1327
zer	-13.1328
▁Old	-13.1328
Global	-13.1334
▁Les	-13.1341
Day	-13.1342
Mỹ	-13.1345
▁MI	-13.1346
▁Mul	-13.1348
Walk	-13.1355
uýt	-13.1357
bach	-13.1358
Tôi	-13.1359
▁Lũ	-13.1367
xơ	-13.1372
▁Bank	-13.1378
alan	-13.1381
DG	-13.1388
▁meme	-13.1399
▁Dun	-13.1403
▁mile	-13.1406
uru	-13.1413
▁2.7	-13.1415
ofi	-13.1422
▁fu	-13.1423
ớm	-13.1424
ards	-13.1426
.9	-13.1435
rade	-13.1435
ridge	-13.1439
▁Ghi	-13.1441
wind	-13.1442
▁Brasil	-13.1447
▁Comp	-13.1448
www	-13.1448
▁Denisovan	-13.1448
▁Gabriel	-13.1448
▁Hopkins	-13.1448
▁Nikola	-13.1448
▁Prosper	-13.1448
▁Trinida	-13.1448
▁analog	-13.1448
▁quậy	-13.1448
▁remix	-13.1448
▁Gapminder	-13.1448
▁Gehry	-13.1448
▁Kurzweil	-13.1448
▁Knight	-13.1448
▁Eisen	-13.1448
2,4	-13.1448
▁Nicola	-13.1448
▁Cooper	-13.1448
1,4	-13.1449
esign	-13.1449
▁Frederic	-13.1449
▁Viagra	-13.1449
▁Newcast	-13.1449
▁Comic	-13.1449
found	-13.1449
▁Shack	-13.1449
▁kilô	-13.1449
▁Lucas	-13.1449
▁phthalate	-13.1449
▁Ground	-13.1449
▁1963	-13.1449
▁Nature	-13.1449
▁dioxi	-13.1449
▁ESP	-13.1449
erset	-13.1449
desk	-13.145
▁Clay	-13.145
▁Gele	-13.145
▁Jura	-13.145
▁Bayes	-13.1451
▁747	-13.1451
▁Malala	-13.1451
▁Miller	-13.1451
▁Hyder	-13.1451
bridge	-13.1451
▁Satur	-13.1452
weis	-13.1452
▁Noel	-13.1452
▁TÔ	-13.1453
▁blue	-13.1453
▁Milan	-13.1453
▁4,5	-13.1454
▁Duke	-13.1455
▁Cloud	-13.1455
▁Indiana	-13.1456
▁2,3	-13.1457
▁Quỷ	-13.1459
▁1100	-13.146
-5	-13.1461
cock	-13.1462
▁Cup	-13.1465
▁Sophia	-13.1467
▁105	-13.1467
▁Gad	-13.1468
▁Hanse	-13.1469
▁Row	-13.147
▁Alberto	-13.1472
▁hormone	-13.1479
sche	-13.148
ezi	-13.1485
▁Bris	-13.1488
rming	-13.149
oulder	-13.149
ozo	-13.1493
fus	-13.1493
▁HI	-13.1498
▁Kas	-13.15
▁Clon	-13.1507
Shabaa	-13.1512
▁guồng	-13.1514
▁geo	-13.1516
▁Sim	-13.1518
ncer	-13.1529
▁Acu	-13.1532
bun	-13.1536
▁Ferm	-13.1544
▁IC	-13.1546
95	-13.1556
▁toái	-13.1564
▁Eno	-13.1567
▁Mil	-13.1567
▁Cara	-13.157
indle	-13.1574
▁code	-13.1574
▁dă	-13.1576
21	-13.1576
ivia	-13.1579
▁Sac	-13.1591
bal	-13.1591
▁Tol	-13.1593
thon	-13.1595
▁Lê	-13.16
▁Vel	-13.1602
▁Hard	-13.1606
end	-13.1617
▁Ses	-13.1617
▁Yay	-13.1634
▁Khô	-13.1635
▁Lest	-13.1643
gli	-13.1653
▁Pay	-13.1653
▁Arno	-13.1658
▁Bus	-13.1664
opia	-13.1671
ork	-13.1704
▁There	-13.1708
▁sin	-13.1722
arko	-13.1723
onol	-13.1723
▁Thor	-13.1726
wl	-13.1727
urma	-13.1729
▁Phil	-13.1739
erson	-13.1743
▁Kin	-13.1755
fra	-13.1781
▁hoo	-13.1784
iffe	-13.1805
RT	-13.181
▁Ror	-13.181
▁Rom	-13.1833
thai	-13.1835
AP	-13.1836
▁Hei	-13.1836
▁PG	-13.1836
BN	-13.1841
▁bio	-13.1853
hov	-13.1854
hri	-13.1864
▁Rap	-13.1866
etz	-13.1868
gne	-13.1873
▁Ellen	-13.1896
cz	-13.1905
băng	-13.1905
aser	-13.1909
hester	-13.1929
▁Doro	-13.193
AN	-13.194
▁die	-13.1945
▁Trac	-13.1946
wee	-13.195
api	-13.1957
▁Kea	-13.1997
▁Siri	-13.2
arcelo	-13.2013
▁185	-13.202
DR	-13.2025
ckey	-13.2039
▁quâ	-13.2071
nka	-13.2075
▁RI	-13.2076
roy	-13.2078
arta	-13.2117
▁Pana	-13.2127
▁nhợ	-13.2142
ank	-13.2145
rado	-13.2152
arni	-13.2161
▁Mile	-13.2166
bab	-13.2173
▁Suf	-13.2189
▁0.2	-13.2198
▁Bă	-13.2208
▁Sin	-13.222
▁Ele	-13.223
▁Colo	-13.2243
ombo	-13.2249
andro	-13.2252
wling	-13.2252
▁Saf	-13.226
▁Spie	-13.2276
▁Goer	-13.2281
Me	-13.2285
▁Jab	-13.2287
▁TB	-13.2304
pro	-13.2307
rbie	-13.2311
▁ngố	-13.2319
ween	-13.2358
▁Nô	-13.2358
▁Trươ	-13.2361
ỳ	-13.2364
rive	-13.2369
name	-13.2372
▁Sing	-13.2373
▁Hil	-13.2374
▁Voi	-13.2377
sing	-13.2378
▁khoé	-13.2393
erman	-13.2404
haz	-13.2415
▁Kala	-13.2416
▁Cou	-13.2418
ulli	-13.2425
▁thé	-13.2431
▁bớ	-13.2432
SS	-13.2442
sie	-13.2449
▁193	-13.2451
viết	-13.2459
MW	-13.2463
ball	-13.2468
▁Rum	-13.2471
AO	-13.248
▁Russ	-13.2482
▁Dra	-13.2483
▁Trans	-13.2503
uda	-13.2506
acre	-13.251
▁Cod	-13.251
ourne	-13.2511
SA	-13.2512
5000	-13.2516
chel	-13.2518
hef	-13.2522
▁Is	-13.2524
rand	-13.2535
▁liề	-13.2537
▁August	-13.2543
▁eur	-13.2543
▁Fal	-13.2545
▁gư	-13.2545
▁dó	-13.255
99	-13.2551
CR	-13.2555
krain	-13.2557
▁Hunt	-13.2559
▁silic	-13.2559
swana	-13.2559
▁Ibra	-13.2559
Baghdad	-13.256
rystal	-13.256
▁Ahmad	-13.256
▁Bumble	-13.256
▁Dodger	-13.256
▁Gamora	-13.256
▁Hebrew	-13.256
▁IPCC	-13.256
▁Jacob	-13.256
▁Livingston	-13.256
▁Moroc	-13.256
▁Pacific	-13.256
▁Turbo	-13.256
▁Yosemite	-13.256
▁adrenalin	-13.256
▁gluten	-13.256
▁sapien	-13.256
ograph	-13.256
Murdo	-13.256
▁Thatcher	-13.256
▁Story	-13.256
▁Coast	-13.256
▁Maslow	-13.256
▁Vivian	-13.256
erkel	-13.256
▁Collect	-13.256
gress	-13.256
▁Hux	-13.256
▁1978	-13.256
▁Micro	-13.256
▁Dublin	-13.256
oxetin	-13.256
▁Schul	-13.256
▁Klei	-13.256
▁Eskimo	-13.256
▁1953	-13.256
▁Kendal	-13.256
▁Tweet	-13.256
▁Loren	-13.256
▁Square	-13.256
▁Lick	-13.256
▁Antoni	-13.256
▁Breton	-13.2561
▁Ecuador	-13.2561
elve	-13.2561
▁1955	-13.2561
▁Malco	-13.2561
erkat	-13.2561
space	-13.2561
▁Obi	-13.2562
▁HAL	-13.2562
▁Just	-13.2562
▁1,1	-13.2562
▁Word	-13.2562
▁Pink	-13.2562
anuel	-13.2563
▁Huh	-13.2563
odel	-13.2563
▁Dennis	-13.2563
▁Wid	-13.2566
▁Oct	-13.2566
▁Marie	-13.2566
▁PR	-13.2568
▁gươm	-13.2568
gov	-13.2568
▁FM	-13.2568
▁China	-13.2569
ickr	-13.2569
▁titan	-13.2569
onym	-13.257
▁1.7	-13.257
▁khiễng	-13.257
▁Tuc	-13.257
▁Wester	-13.2571
▁Missi	-13.2572
uyê	-13.2574
▁quark	-13.2574
orna	-13.2575
-47	-13.2576
▁Auguste	-13.2576
erba	-13.2576
▁Jordans	-13.2579
▁Húp	-13.2582
cụ	-13.2582
▁Tiger	-13.2584
▁Alto	-13.2586
▁Mellon	-13.2588
▁LS	-13.2589
ộc	-13.2589
▁Dã	-13.2589
▁Jr	-13.2589
▁rắng	-13.2591
emmel	-13.2593
▁Curi	-13.2598
▁Cash	-13.2599
vier	-13.2603
arthe	-13.2604
lub	-13.2604
▁Dược	-13.2606
niz	-13.2611
▁Rosali	-13.2611
Corps	-13.2615
1932	-13.2615
▁Best	-13.2616
▁rợn	-13.2617
▁Mura	-13.262
▁Ign	-13.2624
▁Ern	-13.2626
▁Giêng	-13.2628
▁héc	-13.264
▁hùy	-13.2646
unni	-13.2649
▁Ashle	-13.2652
▁Tech	-13.2655
bard	-13.2655
▁Cous	-13.2655
▁Stac	-13.2656
▁Mach	-13.2656
die	-13.2658
▁bợ	-13.2664
etc	-13.2666
var	-13.2666
▁Wool	-13.2673
anks	-13.2675
▁Mác	-13.2676
▁Magi	-13.2684
▁Matter	-13.2686
anten	-13.2688
▁ruy	-13.2689
esta	-13.2691
▁rán	-13.2695
▁PC	-13.2701
▁organ	-13.2702
-60	-13.271
ynth	-13.2711
▁tạc	-13.2714
str	-13.2721
gaga	-13.2736
cus	-13.2738
▁Paol	-13.2742
insky	-13.2743
74	-13.2747
gend	-13.2754
▁Kant	-13.2757
▁tẹo	-13.2759
▁Wan	-13.2763
anzi	-13.2768
inson	-13.277
▁vữa	-13.2778
iku	-13.2779
mont	-13.2783
maka	-13.2801
illo	-13.2806
41	-13.2807
kota	-13.2807
uria	-13.2814
▁Barbi	-13.2814
▁Val	-13.2816
▁pre	-13.2817
orio	-13.283
▁nháp	-13.2834
▁Già	-13.2849
TO	-13.2851
▁Kang	-13.2853
elma	-13.2853
kut	-13.287
làm	-13.2872
▁Chek	-13.2896
▁toá	-13.2898
ref	-13.291
▁Vơ	-13.291
▁Dari	-13.2912
atra	-13.2915
anor	-13.2932
hne	-13.2936
xo	-13.2944
▁Vik	-13.2962
erin	-13.2971
▁Saga	-13.2978
etta	-13.2982
35	-13.2986
uff	-13.2993
▁Bhu	-13.3016
▁Levin	-13.3023
▁cacbonat	-13.3032
▁Evel	-13.3035
arro	-13.3044
-4	-13.3055
live	-13.3064
anz	-13.3064
PO	-13.3079
▁reb	-13.3085
▁Doll	-13.31
▁Scha	-13.3102
▁Lauren	-13.3109
▁Carr	-13.3141
▁Anto	-13.3159
▁Too	-13.3163
ound	-13.3163
▁quă	-13.3171
ond	-13.3176
▁Leib	-13.318
rden	-13.3187
▁Kay	-13.3238
huyê	-13.3245
▁Fan	-13.3252
▁vè	-13.3272
matic	-13.3276
ence	-13.3287
▁Martine	-13.3295
apoli	-13.3297
▁Aw	-13.3297
▁Fro	-13.3299
gger	-13.33
▁380	-13.3307
Rev	-13.3314
itne	-13.3324
serv	-13.3348
▁Sek	-13.3351
▁Spa	-13.3366
▁Angelin	-13.3384
▁Huy	-13.3406
wak	-13.3407
dol	-13.3407
rer	-13.3412
▁Kid	-13.3416
▁Sar	-13.3422
▁euro	-13.3446
06	-13.3446
ador	-13.3449
▁Kins	-13.3484
manda	-13.3494
100	-13.3502
▁Inc	-13.3504
37	-13.3515
55	-13.3521
▁Perr	-13.3526
pes	-13.3529
undi	-13.3531
23	-13.3537
▁Thằn	-13.3549
▁xú	-13.3555
IP	-13.3563
▁Đư	-13.3563
▁Chih	-13.3563
elle	-13.3566
▁Fire	-13.3568
▁Tar	-13.3575
▁Il	-13.3579
rrow	-13.3586
ites	-13.3595
far	-13.3603
▁Hugh	-13.3605
▁Temp	-13.365
▁Răn	-13.3652
▁Save	-13.3659
08	-13.3665
▁Yor	-13.3666
upl	-13.3667
wor	-13.3674
dor	-13.3675
ator	-13.3685
▁Dew	-13.3688
▁AS	-13.3691
ghề	-13.3695
code	-13.3699
mega	-13.3705
▁Boe	-13.3708
Con	-13.3713
▁Ghe	-13.3714
▁ngă	-13.3718
bane	-13.3736
▁Hind	-13.374
▁Shei	-13.3747
▁BFI	-13.3748
upp	-13.3748
▁Bal	-13.3752
oxy	-13.376
hể	-13.377
▁vồ	-13.3773
omba	-13.3776
▁1700	-13.3781
▁boom	-13.3783
hỏe	-13.3785
▁Sahar	-13.3786
▁Trip	-13.3787
▁vaccin	-13.379
inawa	-13.3793
▁Haw	-13.3794
pop	-13.3794
abba	-13.3796
▁365	-13.3797
bio	-13.3804
▁Greg	-13.3804
▁DR	-13.3805
▁Rosa	-13.3807
▁Columb	-13.3807
ượu	-13.3808
▁Coll	-13.3809
▁Buckminster	-13.3809
▁Exxon	-13.3809
▁Hirsh	-13.3809
▁Termina	-13.3809
awesome	-13.381
terdam	-13.381
▁Appalachia	-13.381
▁Breivik	-13.381
▁Bulgar	-13.381
▁Caucasus	-13.381
▁Cornell	-13.381
▁Curiosit	-13.381
▁DIY	-13.381
▁GCSE	-13.381
▁Gulf	-13.381
▁Krishna	-13.381
▁Kuznet	-13.381
▁McLu	-13.381
▁Midwest	-13.381
▁ROV	-13.381
▁Rhode	-13.381
▁Springs	-13.381
▁Sultan	-13.381
▁Volvo	-13.381
▁Wagner	-13.381
▁aspirin	-13.381
▁gradien	-13.381
▁terawatt	-13.381
▁Douglas	-13.381
▁Himba	-13.381
▁Metropoli	-13.381
▁séc	-13.381
▁Nicole	-13.381
shmi	-13.381
▁Cruz	-13.381
▁breath	-13.381
▁nghén	-13.381
▁Airstr	-13.381
▁modem	-13.381
▁Meyer	-13.381
▁Magellan	-13.381
▁zip	-13.381
ethyl	-13.381
▁Budape	-13.381
▁Durga	-13.381
▁League	-13.381
▁Genesis	-13.381
monia	-13.381
child	-13.381
▁Valentine	-13.381
▁Africa	-13.381
▁Kerm	-13.381
arenc	-13.381
▁Virgin	-13.381
▁Speed	-13.381
▁Wiki	-13.381
▁Kaza	-13.381
▁Greenville	-13.381
▁Twin	-13.3811
▁Khổ	-13.3811
▁Marx	-13.3811
▁TEDWomen	-13.3811
▁Cesar	-13.3811
▁1850	-13.3811
▁Earl	-13.3811
acebook	-13.3812
▁Larg	-13.3812
▁Keene	-13.3812
▁Hyper	-13.3812
ebra	-13.3812
fur	-13.3813
▁Palin	-13.3813
▁Karen	-13.3813
Hub	-13.3813
▁McK	-13.3813
▁Mind	-13.3813
▁Laugh	-13.3813
woa	-13.3814
▁Ethan	-13.3814
kraine	-13.3815
▁Herman	-13.3815
▁Lance	-13.3815
▁Giacom	-13.3815
▁Oxi	-13.3815
ildes	-13.3815
▁Out	-13.3815
▁Light	-13.3815
▁Operati	-13.3816
gíc	-13.3816
oughs	-13.3816
▁Lock	-13.3816
▁Shhh	-13.3817
▁Moon	-13.3817
omment	-13.3817
▁lbs	-13.3817
Atten	-13.3817
▁trườn	-13.3817
▁Airbnb	-13.3818
▁Christian	-13.3818
▁0.1	-13.3818
▁Fear	-13.3818
▁Lifes	-13.3819
▁nguyê	-13.382
▁Bridge	-13.3821
wings	-13.3821
▁xò	-13.3822
▁transistor	-13.3823
aux	-13.3824
▁alpha	-13.3825
▁XI	-13.3825
Women	-13.3825
hirl	-13.3826
▁Chand	-13.3827
ahua	-13.3827
nesia	-13.3829
cept	-13.3831
▁đioxi	-13.3832
▁Mania	-13.3832
▁Woods	-13.3833
▁Maur	-13.3834
▁Pino	-13.3835
▁Allo	-13.3835
▁Rain	-13.3836
flow	-13.3838
▁Basi	-13.3839
vald	-13.3841
▁Gee	-13.3841
▁Olu	-13.3843
▁1,8	-13.3843
▁Town	-13.3844
▁Mmm	-13.3845
ative	-13.3845
rome	-13.3846
▁1,6	-13.3849
▁Beau	-13.385
▁Scal	-13.385
Be	-13.3852
▁Fo	-13.3853
▁Sach	-13.3854
urich	-13.3856
AV	-13.3856
dema	-13.3858
▁80.000	-13.386
▁ML	-13.3866
▁Op	-13.3866
▁WT	-13.3866
ople	-13.3868
itchi	-13.3869
▁Wur	-13.3869
▁Dap	-13.387
pta	-13.3871
▁Box	-13.3871
olem	-13.3874
▁TQ	-13.3875
oint	-13.388
▁Citi	-13.3883
▁thưở	-13.3886
wash	-13.3887
ubu	-13.3888
mark	-13.3888
abha	-13.3891
alibu	-13.3893
▁play	-13.3895
▁seri	-13.3898
▁acr	-13.3903
vana	-13.3904
ugge	-13.3904
▁Annan	-13.3905
ece	-13.3908
bine	-13.3921
▁MC	-13.3921
loud	-13.3925
▁Alb	-13.3929
taka	-13.3934
▁CG	-13.3943
ytop	-13.3944
▁toạ	-13.3945
07	-13.3951
▁TG	-13.3952
▁Witt	-13.3952
▁Ami	-13.3952
▁Way	-13.3954
▁Global	-13.3957
ambo	-13.396
▁Andre	-13.3964
▁Carbo	-13.3968
gia	-13.3979
cello	-13.398
▁Râ	-13.3981
crat	-13.3984
▁2.4	-13.3991
▁Bỉ	-13.3991
▁Leh	-13.3995
▁Wol	-13.3999
uế	-13.3999
fel	-13.4008
aroo	-13.4014
aste	-13.402
uid	-13.4023
▁xước	-13.4024
▁Kni	-13.4026
sek	-13.4027
onnie	-13.4033
▁Fly	-13.4042
▁trọ	-13.4045
▁Michaela	-13.4054
aled	-13.4056
▁Rafi	-13.4059
ario	-13.4069
rez	-13.4072
186	-13.4082
▁Hell	-13.4082
▁Dal	-13.4083
ave	-13.4086
▁Marco	-13.4091
rse	-13.41
▁Fib	-13.4107
▁bện	-13.4113
▁Christin	-13.4114
onna	-13.4119
▁Page	-13.4138
▁Sla	-13.4138
▁Merc	-13.4161
pic	-13.4166
▁Dav	-13.418
▁Rag	-13.4181
▁calorie	-13.4182
▁Pier	-13.4188
lifor	-13.419
dney	-13.4195
▁Manc	-13.4201
03	-13.4211
ilwa	-13.4238
atter	-13.4238
▁Lak	-13.4254
outh	-13.4263
PI	-13.4263
oya	-13.4274
▁Hale	-13.4287
2000	-13.4294
BL	-13.4295
esha	-13.431
▁tìn	-13.4312
▁bẹ	-13.4312
aro	-13.4318
▁1400	-13.4332
▁Fed	-13.4333
ndor	-13.4339
arrow	-13.4346
▁EP	-13.4398
sur	-13.4423
▁Dư	-13.4431
yss	-13.4436
gdal	-13.444
Tune	-13.4441
▁Abe	-13.4459
▁Kob	-13.4463
▁Donne	-13.4469
▁Marcel	-13.4471
▁life	-13.4485
zig	-13.4509
poli	-13.4511
ogo	-13.4515
rino	-13.4521
▁Robi	-13.4521
▁Monro	-13.4529
▁Lear	-13.4532
▁vạ	-13.4534
▁Blak	-13.4553
▁Ell	-13.4564
ause	-13.4575
ierre	-13.4593
▁Khuyế	-13.4609
shu	-13.4615
Mail	-13.4621
hill	-13.4622
▁Sall	-13.463
ppa	-13.4639
▁Spec	-13.4648
▁Gran	-13.4706
▁Amb	-13.4715
ulp	-13.4767
▁Dust	-13.4771
▁Nag	-13.4775
▁71	-13.4776
nders	-13.4785
▁Are	-13.4818
Card	-13.4822
ops	-13.4824
▁ngạn	-13.4834
▁Byr	-13.4835
▁calori	-13.4851
▁Camp	-13.4859
blog	-13.486
eca	-13.4865
logy	-13.4877
AW	-13.4883
enia	-13.4889
▁Gum	-13.489
▁Lovel	-13.4892
ees	-13.4895
▁Trụ	-13.4895
▁Alis	-13.4937
▁Peac	-13.495
▁Calv	-13.4962
▁ID	-13.4975
▁Sil	-13.4991
rium	-13.4999
▁Hả	-13.5012
evel	-13.5016
▁550	-13.5026
chille	-13.503
▁Denn	-13.503
gal	-13.5034
CH	-13.5055
lian	-13.51
plas	-13.5113
hun	-13.5119
▁CSI	-13.5123
Tech	-13.5124
Bot	-13.5129
Chúng	-13.5131
-7	-13.5134
TB	-13.5136
bê	-13.5137
không	-13.5138
▁Harris	-13.5165
Pro	-13.5168
26	-13.5169
lé	-13.517
▁Mee	-13.5175
▁Michoac	-13.5186
▁3.2	-13.5197
orse	-13.5204
▁Alle	-13.5205
▁Diane	-13.521
▁Nhâ	-13.5211
▁Aru	-13.5214
vào	-13.5217
▁Make	-13.5222
cố	-13.5223
▁Bea	-13.5228
▁Opera	-13.5231
bian	-13.5232
walk	-13.5233
▁Motor	-13.5234
plex	-13.5236
andina	-13.5237
cquar	-13.5238
▁Faci	-13.5238
▁Financ	-13.5238
▁Shuffle	-13.5238
▁0.6	-13.5238
▁Adventist	-13.5238
▁Brahmin	-13.5238
▁Charlotte	-13.5238
▁Direct	-13.5238
▁Elliot	-13.5238
▁Fitzgerald	-13.5238
▁HTTP	-13.5238
▁Hemlock	-13.5238
▁Hoffman	-13.5238
▁Hydro	-13.5238
▁Islam	-13.5238
▁MOOC	-13.5238
▁Macintosh	-13.5238
▁Negroponte	-13.5238
▁NewYork	-13.5238
▁Putin	-13.5238
▁SEAL	-13.5238
▁Sleep	-13.5238
▁Volta	-13.5238
▁Wisconsin	-13.5238
▁opossum	-13.5238
▁panpsychis	-13.5238
▁protocell	-13.5238
▁soundscape	-13.5238
▁trumpet	-13.5238
pedia	-13.5238
▁wiki	-13.5238
▁Autodesk	-13.5238
▁Phillip	-13.5238
▁Socrate	-13.5238
opath	-13.5238
▁Butler	-13.5238
▁mafia	-13.5238
dmund	-13.5238
▁Aaaa	-13.5238
▁Stephan	-13.5238
▁Wilkins	-13.5238
asteur	-13.5238
▁Igbo	-13.5238
izon	-13.5238
Girl	-13.5238
▁Ottoman	-13.5238
▁Mahab	-13.5238
▁Heath	-13.5238
▁free	-13.5238
▁Jirga	-13.5238
▁Goldberg	-13.5238
aware	-13.5238
▁Rift	-13.5238
▁Bernard	-13.5239
▁Sutherlan	-13.5239
▁1300	-13.5239
▁Dyson	-13.5239
▁Enter	-13.5239
▁Image	-13.5239
Reddit	-13.5239
▁Count	-13.5239
▁Tampa	-13.5239
▁Technolog	-13.5239
▁Hỡi	-13.5239
▁PSA	-13.5239
▁Coach	-13.5239
▁Sherman	-13.5239
▁Hunter	-13.5239
ggy	-13.5239
▁XDR	-13.5239
▁0.3	-13.524
▁Hoă	-13.524
ooth	-13.524
▁Saint	-13.524
▁Myco	-13.524
hrai	-13.524
affle	-13.524
▁Head	-13.5241
▁list	-13.5241
▁AAA	-13.5241
▁sunf	-13.5241
▁Locke	-13.5241
▁terr	-13.5241
asque	-13.5241
ahid	-13.5242
▁Spin	-13.5242
NT	-13.5242
brandt	-13.5242
▁Enri	-13.5242
▁Lynn	-13.5243
▁Beatri	-13.5243
▁9000	-13.5243
▁COP	-13.5243
▁6.5	-13.5243
▁Right	-13.5244
▁ghì	-13.5244
▁Smithson	-13.5244
▁Malt	-13.5245
▁Franken	-13.5245
▁Astro	-13.5245
▁Safe	-13.5245
▁Nint	-13.5246
▁Noor	-13.5246
▁Muti	-13.5246
▁Edge	-13.5247
Spock	-13.5248
▁Vanderbilt	-13.5248
▁Daw	-13.5249
wich	-13.5249
▁Buff	-13.5249
▁Exc	-13.5251
▁thán	-13.5252
▁Demo	-13.5252
stone	-13.5253
▁Shake	-13.5255
▁Side	-13.5255
▁3.3	-13.5256
▁Albani	-13.5256
▁cabin	-13.5257
▁137	-13.5259
▁down	-13.526
isco	-13.5261
▁Sex	-13.5262
lee	-13.5263
▁Herc	-13.5264
▁Read	-13.5264
▁KH	-13.5265
▁spa	-13.527
▁ghita	-13.527
laes	-13.5271
▁giớ	-13.5271
▁Hug	-13.5273
▁sexy	-13.5273
▁Rip	-13.5273
▁Tree	-13.5274
▁Ster	-13.5275
▁Porter	-13.5276
▁Shephela	-13.5278
▁bợm	-13.5281
▁Davin	-13.5283
▁Ether	-13.5285
▁Lil	-13.5287
irut	-13.5292
▁Pur	-13.5292
▁home	-13.5293
gina	-13.5295
.4	-13.5296
▁Jung	-13.53
▁Back	-13.5303
▁Journ	-13.5304
with	-13.5312
▁gẫy	-13.5314
▁Mèo	-13.5333
▁Huli	-13.5334
igai	-13.5338
rsk	-13.535
adem	-13.536
▁Have	-13.5363
▁Blanc	-13.5367
assan	-13.5367
▁Barto	-13.5368
ophon	-13.5395
▁Alam	-13.5395
udor	-13.5411
▁centim	-13.5413
▁tíc	-13.5414
ague	-13.5425
êsu	-13.5426
city	-13.543
oud	-13.5431
bell	-13.5434
oltan	-13.5439
atan	-13.5442
▁Moll	-13.5446
egge	-13.5446
Mart	-13.5448
shoo	-13.545
itos	-13.5454
▁Wen	-13.5465
ighting	-13.5488
vor	-13.5494
▁Olso	-13.551
▁Bod	-13.5513
▁Robbi	-13.5518
illenni	-13.5548
FR	-13.5553
▁Tele	-13.5555
onic	-13.5572
inee	-13.5572
▁Crime	-13.5575
▁Lev	-13.5601
84	-13.5601
▁Carme	-13.5604
anal	-13.5617
ology	-13.5625
nada	-13.5674
▁Dhara	-13.5682
ướt	-13.5691
llis	-13.5693
eeps	-13.5697
nderson	-13.5707
▁Bọ	-13.5714
PC	-13.5729
lder	-13.5739
▁Marine	-13.5751
▁đọa	-13.5752
arov	-13.5754
quin	-13.5763
▁Brita	-13.5766
AX	-13.5772
Like	-13.5781
oza	-13.5808
itte	-13.5833
▁Ramo	-13.5842
lbum	-13.5863
▁chớ	-13.59
1-2	-13.5909
▁Terra	-13.5958
.25	-13.5985
ggle	-13.6006
paca	-13.6062
ragg	-13.6072
rban	-13.6095
lank	-13.61
▁quẹ	-13.6102
▁Edd	-13.6146
▁Wad	-13.6154
▁Abb	-13.6223
là	-13.6263
▁1.9	-13.6263
cester	-13.6278
▁Hick	-13.6309
▁Vir	-13.6336
aust	-13.6337
otto	-13.6345
▁Reut	-13.6358
stas	-13.6359
▁Shel	-13.6368
lof	-13.6375
▁JE	-13.6412
ear	-13.6455
830	-13.6523
iềng	-13.653
iving	-13.6534
uyết	-13.6547
MM	-13.6561
rofl	-13.6566
▁189	-13.6573
▁Apo	-13.6578
gre	-13.658
▁Scr	-13.6581
fil	-13.6585
▁Aye	-13.6595
gate	-13.6603
▁Hava	-13.663
▁1.1	-13.6632
▁Reg	-13.6641
▁Ngụ	-13.6647
mir	-13.6647
come	-13.6678
▁Magn	-13.6683
ades	-13.6714
-40	-13.6716
▁Gro	-13.6719
▁trứ	-13.6738
▁DB	-13.6774
Â	-13.6777
cro	-13.6788
▁320	-13.6789
▁Haz	-13.6791
play	-13.6791
Space	-13.6795
Time	-13.6796
MRI	-13.6796
đun	-13.6797
carbon	-13.6798
được	-13.6801
▁IR	-13.6806
▁fla	-13.6808
AID	-13.681
▁Eva	-13.681
Âu	-13.6818
để	-13.6823
chúng	-13.6825
▁Swi	-13.6836
▁175	-13.6838
rity	-13.6841
eed	-13.6844
có	-13.6846
rget	-13.6857
▁Timo	-13.6867
▁Appl	-13.6875
▁Mello	-13.6877
▁103	-13.688
▁Mira	-13.6891
▁330	-13.6892
▁Leonard	-13.6898
▁Tunis	-13.6901
▁3500	-13.6903
borough	-13.6905
▁Kahn	-13.6905
▁sulfur	-13.6905
▁Schwarz	-13.6905
zbek	-13.6905
▁Barricel	-13.6905
▁audio	-13.6905
▁pravast	-13.6905
Hezbolla	-13.6905
network	-13.6905
▁Atlas	-13.6905
▁Casablanc	-13.6905
▁Citizen	-13.6905
▁Cliff	-13.6905
▁Damascus	-13.6905
▁Democra	-13.6905
▁Dickens	-13.6905
▁Gifford	-13.6905
▁Hippocrate	-13.6905
▁Hurtigruten	-13.6905
▁IDEO	-13.6905
▁IGF	-13.6905
▁Improv	-13.6905
▁Kashmir	-13.6905
▁Kickstarter	-13.6905
▁Malthus	-13.6905
▁Meadow	-13.6905
▁Mormon	-13.6905
▁Mêhicô	-13.6905
▁Orange	-13.6905
▁Pearl	-13.6905
▁Pedro	-13.6905
▁Pentium	-13.6905
▁SOLE	-13.6905
▁Sardinia	-13.6905
▁Savage	-13.6905
▁Scarlet	-13.6905
▁Stefan	-13.6905
▁Swaptree	-13.6905
▁System	-13.6905
▁Tahiti	-13.6905
▁bucardo	-13.6905
▁caffein	-13.6905
▁chemokine	-13.6905
▁container	-13.6905
▁hyperbol	-13.6905
▁impact	-13.6905
▁paroxetin	-13.6905
▁zoo	-13.6905
▁Abdul	-13.6905
▁Faso	-13.6905
▁Khalid	-13.6905
▁Newark	-13.6905
▁Pasht	-13.6905
▁bloop	-13.6905
▁Selas	-13.6905
▁Shiv	-13.6905
▁Parik	-13.6905
▁Connect	-13.6905
▁Buzz	-13.6905
▁Maasai	-13.6905
▁Office	-13.6905
acama	-13.6905
▁Spider	-13.6905
▁pluto	-13.6905
▁Francesc	-13.6905
funa	-13.6905
▁Riker	-13.6905
koll	-13.6905
▁Auto	-13.6905
▁fear	-13.6905
▁megabyte	-13.6905
▁Bogot	-13.6905
rquis	-13.6905
▁Index	-13.6905
▁Ricard	-13.6905
▁Swart	-13.6905
▁Chern	-13.6905
▁Frate	-13.6905
▁Mecca	-13.6905
▁Jun	-13.6905
▁1943	-13.6905
▁Shaw	-13.6906
▁Solar	-13.6906
▁Rabin	-13.6906
▁part	-13.6906
▁Slov	-13.6906
▁hydrogen	-13.6906
▁ngòai	-13.6906
▁xoăn	-13.6906
▁Keyn	-13.6906
▁Milk	-13.6906
▁Force	-13.6906
vold	-13.6906
▁ambi	-13.6906
▁France	-13.6907
riend	-13.6907
▁Mongol	-13.6907
rbor	-13.6907
▁Easter	-13.6907
wick	-13.6907
▁Mende	-13.6907
▁Building	-13.6907
▁Twist	-13.6907
▁Ashan	-13.6907
▁Six	-13.6907
▁0.0	-13.6907
▁Liver	-13.6907
recht	-13.6907
▁Bùm	-13.6907
▁Assa	-13.6907
▁1840	-13.6907
alad	-13.6908
▁10-15	-13.6908
▁Borne	-13.6908
BO	-13.6908
▁McN	-13.6909
▁Chiê	-13.6909
▁Kool	-13.6909
▁Aldo	-13.6909
▁Brunel	-13.6909
drin	-13.691
erox	-13.691
▁Kafka	-13.691
▁fala	-13.691
akash	-13.6911
fast	-13.6911
▁Forer	-13.6911
▁goril	-13.6911
bô	-13.6911
▁Denis	-13.6911
▁check	-13.6912
tifa	-13.6912
issa	-13.6912
owie	-13.6913
▁5.5	-13.6913
agra	-13.6914
▁casset	-13.6914
▁MDG	-13.6915
▁Fay	-13.6916
▁Ranger	-13.6916
▁Eden	-13.6917
OR	-13.6918
▁Hatz	-13.6918
▁Gell	-13.6918
▁Canal	-13.6919
▁Mess	-13.692
ality	-13.6921
rwin	-13.6921
▁Budd	-13.6921
▁sex	-13.6921
▁resi	-13.6922
▁Law	-13.6922
▁Medica	-13.6922
fresh	-13.6923
▁1870	-13.6924
trix	-13.6924
▁think	-13.6924
▁Soto	-13.6924
▁Xê	-13.6925
ombe	-13.6925
▁Bett	-13.6925
Franco	-13.6925
▁Click	-13.6926
▁Bike	-13.6929
▁trổ	-13.693
▁Axi	-13.693
eve	-13.6931
▁Phủ	-13.6932
▁23,000	-13.6932
▁135	-13.6934
▁Abra	-13.6935
upert	-13.6936
▁Gill	-13.6937
▁Lex	-13.6937
ffen	-13.6939
▁Webb	-13.6941
▁155	-13.6942
-12	-13.6944
crabble	-13.6946
rance	-13.6946
▁Male	-13.6946
leigh	-13.6946
▁Nab	-13.695
ubert	-13.6952
▁Holo	-13.6953
▁Jas	-13.6953
lvani	-13.6953
▁Shri	-13.6953
▁.....	-13.6953
▁uber	-13.6958
▁dử	-13.6963
▁Rahm	-13.6964
▁Matth	-13.6964
pez	-13.6965
▁Siste	-13.6967
▁Wis	-13.6968
▁Hep	-13.6971
▁Bue	-13.6971
▁Hamburg	-13.6972
▁Kings	-13.6975
▁Chip	-13.6975
erec	-13.6976
▁Starr	-13.6976
▁Ski	-13.6978
▁Kip	-13.6985
▁NY	-13.6988
acil	-13.6991
erdin	-13.6993
dish	-13.7003
ppo	-13.7004
▁Hua	-13.7014
erg	-13.7021
▁Karma	-13.7027
▁Barne	-13.7034
▁Marvel	-13.7036
▁Sap	-13.7048
▁Kama	-13.7054
▁Ratt	-13.7058
▁Mulli	-13.7076
,700	-13.7077
tual	-13.7079
▁Azu	-13.7085
▁Catal	-13.709
WF	-13.7092
DH	-13.7094
▁Faro	-13.7095
anis	-13.7096
▁Parag	-13.7121
PJ	-13.7125
▁Cord	-13.7126
Queen	-13.7147
đô	-13.7149
urst	-13.715
▁kara	-13.715
ups	-13.7157
hiễm	-13.7167
▁Tata	-13.717
App	-13.717
76	-13.7176
heikh	-13.7194
▁Ventur	-13.7194
ambal	-13.7203
▁Berm	-13.723
▁Laf	-13.7231
allah	-13.7233
▁Pizz	-13.7246
▁Jod	-13.7261
▁parab	-13.7264
illion	-13.7278
POO	-13.7278
▁Gris	-13.7311
▁múô	-13.7315
▁Willi	-13.732
▁End	-13.734
khar	-13.7352
▁Schr	-13.7355
▁Arg	-13.7356
▁Lesl	-13.7364
FC	-13.7375
▁Quyê	-13.7377
MG	-13.7383
rill	-13.7483
epsi	-13.7495
▁Sandr	-13.753
▁Abo	-13.7535
umbl	-13.7549
▁Benz	-13.7556
GP	-13.7556
roso	-13.7557
▁Clare	-13.756
-15	-13.7563
▁Campa	-13.7569
Lives	-13.7594
▁Reme	-13.7594
LL	-13.7617
eview	-13.7622
meter	-13.7635
ional	-13.764
▁dợ	-13.7671
etri	-13.7705
RP	-13.7706
fire	-13.7709
yum	-13.7713
agh	-13.7719
toria	-13.7724
nnett	-13.7741
TTT	-13.7761
RE	-13.7781
rell	-13.7782
light	-13.7789
ydia	-13.7803
,10	-13.7829
▁Mora	-13.7847
rave	-13.7851
▁Ade	-13.7859
feed	-13.7919
tec	-13.7923
▁Perc	-13.7944
orca	-13.7988
860	-13.7995
asse	-13.7997
gón	-13.7998
▁Pint	-13.8003
resh	-13.8019
haka	-13.8019
TS	-13.8042
olum	-13.8046
robi	-13.8048
▁Baro	-13.8092
▁liệ	-13.8093
view	-13.8094
rine	-13.8116
rete	-13.8119
hẫ	-13.8121
atum	-13.8123
▁nitro	-13.8166
7,5	-13.821
eddy	-13.8214
dial	-13.8229
bbie	-13.8236
▁WM	-13.8255
rườ	-13.8287
derson	-13.8319
ente	-13.8342
begg	-13.8368
0,8	-13.8424
haram	-13.8432
Bati	-13.8456
ennial	-13.8476
▁Grame	-13.848
▁Luxemb	-13.8488
rake	-13.8504
▁para	-13.8518
cav	-13.8528
▁Beth	-13.853
abble	-13.8572
▁Lama	-13.8576
gala	-13.8585
▁xiên	-13.8596
wig	-13.86
▁Berr	-13.862
bos	-13.8634
▁Rust	-13.8649
burger	-13.8657
main	-13.8672
▁Prag	-13.8673
AL	-13.8681
elf	-13.8705
▁Bạc	-13.8721
▁build	-13.8733
zil	-13.8745
voir	-13.8747
Ô	-13.8787
urve	-13.8793
Israel	-13.8797
động	-13.8799
EB	-13.8801
itali	-13.8803
AB	-13.8804
Wan	-13.8805
Rập	-13.8811
Bla	-13.8811
asel	-13.8812
biết	-13.8812
▁nhuố	-13.8813
oku	-13.8814
olf	-13.8823
MI	-13.8828
▁Corp	-13.8833
▁Hawai	-13.885
rove	-13.8851
▁04	-13.8857
▁Lead	-13.8861
▁Adria	-13.8864
▁Champ	-13.8865
▁3.7	-13.8867
▁Hư	-13.8872
master	-13.8888
harata	-13.8899
Brain	-13.8901
rigami	-13.8903
skimo	-13.8904
▁Step	-13.8905
▁Stud	-13.8905
▁Healthcare	-13.8905
▁Participa	-13.8905
▁xenlulo	-13.8905
prene	-13.8905
▁Felix	-13.8905
▁Occupy	-13.8905
▁Sisyphus	-13.8905
▁Spirit	-13.8905
▁multi	-13.8905
Channel	-13.8905
flying	-13.8905
steroid	-13.8905
▁André	-13.8905
▁BRCK	-13.8905
▁Belshaz	-13.8905
▁Cedars	-13.8905
▁Chesapeak	-13.8905
▁Debora	-13.8905
▁Dhabi	-13.8905
▁Explo	-13.8905
▁Fransisco	-13.8905
▁Goliath	-13.8905
▁Kymaerica	-13.8905
▁Leopold	-13.8905
▁Lindbergh	-13.8905
▁Montessori	-13.8905
▁NNGDL	-13.8905
▁Network	-13.8905
▁Paralympic	-13.8905
▁Patagonia	-13.8905
▁Polaroid	-13.8905
▁PostSecret	-13.8905
▁Quentin	-13.8905
▁SOC	-13.8905
▁Straus	-13.8905
▁Taniyama	-13.8905
▁Warrior	-13.8905
▁bikini	-13.8905
▁hotdog	-13.8905
▁nicotin	-13.8905
▁sulfate	-13.8905
▁Eagle	-13.8905
▁NPR	-13.8905
▁Ommm	-13.8905
▁Suzann	-13.8905
elescope	-13.8905
▁Common	-13.8905
3,7	-13.8905
▁Alessi	-13.8905
▁Lynch	-13.8905
▁Pythago	-13.8905
▁TCN	-13.8905
▁Micronesia	-13.8905
evelop	-13.8905
▁Organi	-13.8905
▁woo	-13.8905
▁Emory	-13.8905
▁Volkswagen	-13.8905
▁Tuft	-13.8905
ROM	-13.8905
▁aeros	-13.8905
▁Forrest	-13.8905
▁Algier	-13.8905
▁Tuscany	-13.8905
▁Linked	-13.8905
OLO	-13.8905
▁Bambi	-13.8905
▁Puli	-13.8905
▁Rush	-13.8905
▁CHDC	-13.8905
▁Gross	-13.8905
▁Foot	-13.8905
▁Silver	-13.8905
▁Worth	-13.8905
▁Partners	-13.8905
▁Field	-13.8905
▁Vibrio	-13.8905
▁Daily	-13.8905
▁Flori	-13.8905
▁Sherpa	-13.8905
▁Press	-13.8905
▁Winds	-13.8905
▁Yeat	-13.8905
▁Priya	-13.8905
▁Joyce	-13.8905
▁Inside	-13.8905
2,2	-13.8905
▁kilogram	-13.8905
▁Amur	-13.8905
▁Limb	-13.8905
▁fair	-13.8905
ahneman	-13.8905
▁Lassa	-13.8905
▁Ocean	-13.8906
▁Skid	-13.8906
▁Okoll	-13.8906
▁Hobbe	-13.8906
uflo	-13.8906
dolph	-13.8906
▁Arab	-13.8906
▁Waldo	-13.8906
▁Raq	-13.8906
▁Control	-13.8906
▁Tibet	-13.8906
▁Robotics	-13.8906
▁Promet	-13.8906
▁Pass	-13.8906
brid	-13.8906
▁PTV	-13.8906
▁NRK	-13.8907
▁hippi	-13.8907
▁Alps	-13.8907
▁sóat	-13.8907
ronment	-13.8907
▁biophon	-13.8907
5-6	-13.8907
eker	-13.8907
Scrip	-13.8907
▁PET	-13.8907
▁Federa	-13.8907
▁Iphone	-13.8907
▁Ledge	-13.8907
▁Brasilia	-13.8907
▁McCart	-13.8907
▁Seth	-13.8907
▁Toxo	-13.8907
▁Solei	-13.8907
▁Faree	-13.8908
▁Blogg	-13.8908
▁KPI	-13.8908
▁Ngoa	-13.8908
▁Otta	-13.8908
ippoca	-13.8908
▁Phys	-13.8908
logram	-13.8908
▁Rubin	-13.8908
▁Glad	-13.8908
▁oxal	-13.8908
▁Pietr	-13.8909
▁Haha	-13.8909
▁def	-13.8909
▁Round	-13.8909
▁Lena	-13.8909
▁Charter	-13.891
rbus	-13.891
▁khoắn	-13.891
▁Pug	-13.891
eskin	-13.891
▁Moga	-13.891
▁Jain	-13.891
▁Hemi	-13.8911
▁610	-13.8911
▁Anne	-13.8911
▁Four	-13.8912
▁Motors	-13.8912
▁Miner	-13.8912
▁Ines	-13.8912
▁Skyw	-13.8913
▁Pain	-13.8913
round	-13.8913
clav	-13.8913
▁Jui	-13.8914
▁Turk	-13.8914
▁NAND	-13.8914
nisi	-13.8914
▁Didi	-13.8915
▁Turn	-13.8915
lawa	-13.8916
▁Taft	-13.8916
▁Ritz	-13.8916
▁Chrono	-13.8916
▁Provi	-13.8916
▁high	-13.8917
xta	-13.8917
Straw	-13.8917
ortis	-13.8917
ourg	-13.8917
strict	-13.8918
ubod	-13.8918
▁Crui	-13.8918
charia	-13.8919
▁hyper	-13.8919
▁Modi	-13.8919
▁GBM	-13.892
▁Nghiệp	-13.892
▁Smok	-13.892
▁Trib	-13.892
boro	-13.8921
▁Finch	-13.8922
▁Pomp	-13.8922
▁69	-13.8922
sala	-13.8923
▁50000	-13.8923
alker	-13.8923
▁Nadi	-13.8923
▁Fabi	-13.8924
Gregor	-13.8924
ravit	-13.8925
osni	-13.8925
óe	-13.8926
▁Sula	-13.8926
▁Ganesh	-13.8926
▁Roth	-13.8928
▁Conner	-13.8928
dance	-13.8929
▁phộng	-13.893
▁Ide	-13.893
ltra	-13.8931
▁Mason	-13.8931
▁Olivi	-13.8932
▁Type	-13.8933
▁Lé	-13.8933
▁Ple	-13.8934
▁Wonder	-13.8934
rise	-13.8936
▁Gard	-13.8937
▁halo	-13.8937
▁sonicat	-13.894
lliard	-13.8942
▁pH	-13.8943
maid	-13.8944
▁Mash	-13.8946
▁Gur	-13.8948
noid	-13.8956
▁Atta	-13.8956
▁Baba	-13.8957
▁Trúc	-13.8958
ssig	-13.8959
▁Archive	-13.896
▁Purp	-13.896
encia	-13.8961
wesi	-13.8967
ertz	-13.8968
zos	-13.8981
Point	-13.8996
holic	-13.9
urf	-13.9001
Housman	-13.9019
ship	-13.902
▁Rube	-13.902
759	-13.9023
tsb	-13.9043
▁stre	-13.9058
▁Shin	-13.9059
▁Aria	-13.9061
span	-13.9061
ked	-13.9078
ghar	-13.9093
▁Sama	-13.9096
▁Eba	-13.9121
▁Charlesto	-13.9127
▁Benoi	-13.913
olin	-13.9131
▁Gabo	-13.9133
agma	-13.9146
▁Persep	-13.9151
▁Exo	-13.9158
▁Abac	-13.9177
amine	-13.9178
▁Grave	-13.9182
▁Nic	-13.9183
▁PCC	-13.9184
▁Herz	-13.92
Our	-13.9206
▁Amis	-13.9214
trung	-13.9225
irst	-13.923
▁Lud	-13.9233
▁Rid	-13.925
▁Hughe	-13.9266
flu	-13.9268
▁Amr	-13.9282
emens	-13.9293
ashimi	-13.9295
▁Brett	-13.9297
▁board	-13.9299
▁Halle	-13.9302
erif	-13.9333
▁fusi	-13.9335
imor	-13.9342
▁Of	-13.9369
won	-13.937
▁Angl	-13.9414
▁Flow	-13.9416
illett	-13.9417
ntu	-13.9421
MJ	-13.9471
3000	-13.9526
eric	-13.9531
▁Phel	-13.9541
▁Kale	-13.9555
kê	-13.9561
mayo	-13.9563
avat	-13.9582
▁OED	-13.9627
▁Shell	-13.9701
tzo	-13.9708
▁Kolle	-13.9724
▁Lanza	-13.9772
ibu	-13.9794
▁Mise	-13.9848
hael	-13.9869
▁Heid	-13.9869
▁Wes	-13.9872
650	-13.9916
robot	-13.9923
▁Penta	-13.9939
eppe	-13.9946
Aid	-13.9953
FO	-13.9964
▁Carrie	-13.9967
▁Chuk	-14.0089
kee	-14.0101
▁Bud	-14.0101
obby	-14.0115
▁Sé	-14.0121
▁Wak	-14.0156
four	-14.0205
hrive	-14.0223
otic	-14.0261
0,1	-14.0278
▁Sik	-14.0299
eez	-14.0335
▁Merri	-14.0341
Elys	-14.0355
aldin	-14.036
Chester	-14.0439
glas	-14.0441
▁Hamil	-14.0474
hepar	-14.0491
▁Khad	-14.0511
▁Pee	-14.0513
▁Siz	-14.0519
97	-14.0578
nburg	-14.061
rash	-14.0682
ARE	-14.0745
▁Harar	-14.0795
hope	-14.0801
eloit	-14.0827
▁Chir	-14.0985
▁Miche	-14.1021
▁850	-14.1048
▁Edit	-14.1063
trol	-14.1081
Get	-14.1135
▁Ngư	-14.1138
▁Ord	-14.1161
▁Fall	-14.1162
orp	-14.1173
kaya	-14.1173
▁Tud	-14.1212
▁BAS	-14.1219
edge	-14.1257
▁Muni	-14.1283
III	-14.1293
Bush	-14.1297
cacbon	-14.1297
Canada	-14.1297
Nhưng	-14.1298
City	-14.1299
giờ	-14.13
phê	-14.13
▁Shab	-14.1304
lại	-14.1307
TI	-14.1321
▁05	-14.1339
oãn	-14.1342
▁Protei	-14.1363
▁1,7	-14.1371
▁1.0	-14.1373
đó	-14.1395
witter	-14.1396
ghiệm	-14.1399
▁Charle	-14.1401
accine	-14.1401
▁Jesu	-14.1402
entl	-14.1402
hthalate	-14.1403
enicillin	-14.1403
arawa	-14.1403
▁nhữn	-14.1403
shea	-14.1404
xote	-14.1404
▁polyme	-14.1404
▁Valenti	-14.1404
▁Afgh	-14.1404
▁Otto	-14.1404
▁transit	-14.1404
othing	-14.1405
retrovir	-14.1405
▁nucle	-14.1405
Advisor	-14.1405
Exup	-14.1405
Wikileak	-14.1405
elegans	-14.1405
scape	-14.1405
▁1,2,3,4	-14.1405
▁3,4	-14.1405
▁Ashdown	-14.1405
▁BRIC	-14.1405
▁Bamiyan	-14.1405
▁Bechdel	-14.1405
▁Benedict	-14.1405
▁BlackBerr	-14.1405
▁Bluegrass	-14.1405
▁Compress	-14.1405
▁Dominica	-14.1405
▁Gerhard	-14.1405
▁Goldilock	-14.1405
▁Kardashian	-14.1405
▁McDow	-14.1405
▁Morgen	-14.1405
▁Morris	-14.1405
▁Neuron	-14.1405
▁Pavlov	-14.1405
▁Peerzada	-14.1405
▁Philadenphia	-14.1405
▁Pleistocen	-14.1405
▁Quebec	-14.1405
▁Rainbow	-14.1405
▁Renaissance	-14.1405
▁Rothblatt	-14.1405
▁Ruslan	-14.1405
▁Serengeti	-14.1405
▁Shangri	-14.1405
▁Sheena	-14.1405
▁Sidra	-14.1405
▁Skimmer	-14.1405
▁Swaziland	-14.1405
▁Tupperware	-14.1405
▁Valdez	-14.1405
▁Xbox	-14.1405
▁Yankee	-14.1405
▁estrogen	-14.1405
ằ	-14.9623
!	-15.9782
%	-15.9783
♫	-15.9784
̃	-15.9785
ẳ	-15.9786
̉	-15.9787
ẩ	-15.9788
—	-15.9789
̣	-15.979
:	-15.9791
)	-15.9792
̀	-15.9793
́	-15.9794
?	-15.9795
ặ	-15.9796
ắ	-15.9797
&	-15.9798
ầ	-15.9799
ậ	-15.98
ấ	-15.9801
